!
"
#
##0
##1
##10
##11
##12
##13
##14
##15
##16
##17
##18
##19
##2
##20
##21
##22
##23
##24
##25
##26
##27
##28
##29
##3
##30
##31
##32
##33
##34
##35
##36
##37
##38
##39
##4
##40
##41
##42
##43
##44
##45
##46
##47
##48
##49
##5
##50
##51
##52
##53
##54
##55
##56
##57
##58
##59
##6
##60
##61
##62
##63
##64
##65
##66
##67
##68
##69
##7
##70
##71
##72
##73
##74
##75
##76
##77
##78
##79
##8
##80
##81
##82
##83
##84
##85
##86
##87
##88
##89
##9
##90
##91
##92
##93
##94
##95
##96
##97
##98
##99
$
%
&
'
(
)
*
+
,
-
.
/
0
00
000
001
01
02
03
0362
04
0477
05
06
0657
068
07
08
0853
09
1
10
100
1000
1001
1002
1007
101
1016
1017
102
1027
103
1030
1035
1038
104
105
1050
106
1066
107
108
1080
1086
109
1093
1095
11
110
1100
1103
1106
111
1111
1118
112
1126
113
1130
1133
1134
1136
1137
1139
114
115
1150
1154
1155
1157
116
1160
1161
117
1170
1177
118
1180
1185
1186
1189
119
1190
1198
1199
12
120
1200
1201
1202
1204
1208
121
1210
1214
1215
1216
122
1220
1221
1222
1226
123
1230
1235
1237
1238
124
1240
1241
125
1250
1252
1253
1254
126
1260
1262
1263
1264
127
1270
1271
1274
1279
128
1280
129
1290
1291
1294
1296
1299
13
130
1300
1307
1308
131
1314
1315
1316
1318
1319
132
1320
1321
1322
1326
1328
1329
133
1330
1332
134
1340
1343
135
1350
1357
136
1360
1361
1362
1364
1365
1368
137
1370
1371
1377
1378
138
1380
1387
1389
139
1390
1394
1397
14
140
1400
1402
1403
1405
1406
141
1410
1415
142
1420
1422
143
1430
1431
1432
1433
1435
1437
144
1440
1448
145
1450
1453
1455
146
1460
1467
1469
147
1470
1471
1477
1478
148
1480
1481
1483
1485
149
1490
1491
1492
1493
1494
1495
1496
1497
1498
1499
15
150
1500
1501
1502
1503
1506
1509
151
1510
1512
1513
1514
1515
1516
1517
1519
152
1520
1521
1522
1523
1524
1525
1526
1527
1528
1529
153
1530
1531
1532
1533
1534
1535
1536
1537
1538
1539
154
1540
1541
1542
1545
1546
1547
1549
155
1550
1551
1552
1553
1554
1555
1556
1558
1559
156
1560
1561
1562
1563
1564
1565
1566
1567
1568
1569
157
1570
1571
1572
1573
1574
1575
1576
1578
158
1580
1581
1582
1583
1584
1585
1587
1588
1589
159
1590
1591
1592
1593
1594
1595
1596
1597
1598
1599
16
160
1600
1601
1602
1603
1604
1605
1606
1607
1608
1609
161
1610
1611
1612
1613
1614
1615
1616
1617
1618
1619
162
1620
1621
1622
1623
1624
1625
1626
1627
1628
1629
163
1630
1631
1632
1633
1634
1635
1636
1637
1638
1639
164
1640
1641
1642
1643
1644
1645
1646
1647
1648
1649
165
1650
1651
1652
1653
1654
1655
1656
1657
1658
1659
166
1660
1661
1662
1663
1664
1665
1666
1667
1668
1669
167
1670
1671
1672
1673
1674
1675
1676
1677
1678
1679
168
1680
1681
1682
1683
1684
1685
1686
1687
1688
1689
169
1690
1691
1692
1693
1694
1695
1696
1697
1698
1699
17
170
1700
1701
1702
1703
1704
1705
1706
1707
1708
1709
171
1710
1711
1712
1713
1714
1715
1716
1717
1718
1719
172
1720
1721
1722
1723
1724
1725
1727
1728
1729
173
1730
1731
1732
1733
1734
1735
1736
1737
1738
1739
174
1740
1741
1742
1743
1744
1745
1746
1747
1748
1749
175
1750
1751
1752
1753
1754
1755
1756
1757
1758
1759
176
1760
1761
1762
1763
1764
1765
1766
1767
1768
1769
177
1770
1771
1772
1773
1774
1775
1776
1777
1778
1779
178
1780
1781
1782
1783
1784
1785
1786
1787
1788
1789
179
1790
1791
1792
1793
1794
1795
1796
1797
1798
1799
18
180
1800
1801
1802
1803
1804
1805
1806
1807
1808
1809
181
1810
1811
1812
1813
1814
1815
1816
1817
1818
1819
182
1820
1821
1822
1823
1824
1825
1826
1827
1828
1829
183
1830
1831
1832
1833
1834
1835
1836
1837
1838
1839
184
1840
1841
1842
1843
1844
1845
1846
1847
1848
1849
185
1850
1851
1852
1853
1854
1855
1856
1857
1858
1859
186
1860
1861
1862
1863
1864
1865
1866
1867
1868
1869
187
1870
1871
1872
1873
1874
1875
1876
1877
1878
1879
188
1880
1881
1882
1883
1884
1885
1886
1887
1888
1889
189
1890
1891
1892
1893
1894
1895
1896
1897
1898
1899
19
190
1900
1901
1902
1903
1904
1905
1906
1907
1908
1909
191
1910
1911
1912
1913
1914
1915
1916
1917
1918
1919
192
1920
1921
1922
1923
1924
1925
1926
1927
1928
1929
193
1930
1931
1932
1933
1934
1935
1936
1937
1938
1939
194
1940
1941
1942
1943
1944
1945
1946
1947
1948
1949
195
1950
1951
1952
1953
1954
1955
1956
1957
1958
1959
196
1960
1961
1962
1963
1964
1965
1966
1967
1968
1969
197
1970
1971
1972
1973
1974
1975
1976
1977
1978
1979
198
1980
1981
1982
1983
1984
1985
1986
1987
1988
1989
199
1990
1991
1992
1993
1994
1995
1996
1997
1998
1999
2
20
200
2000
2001
2002
2003
2004
2005
2006
2007
2008
2009
201
2010
2011
2012
2013
2014
2015
2016
2017
2018
2019
202
2020
20202
2021
2022
2023
2024
203
2030
204
205
206
207
208
209
21
210
2100
211
212
213
214
215
216
217
218
219
22
220
221
222
223
224
225
226
227
228
229
23
230
2305
2307
231
232
233
234
235
236
237
238
239
24
240
2405
241
242
243
244
245
246
247
248
249
25
250
2500
251
252
253
254
255
256
257
258
259
26
260
2600
261
262
263
264
265
266
267
268
269
27
270
271
272
273
274
275
276
277
278
279
28
280
281
282
283
284
285
287
288
289
29
290
291
292
293
294
295
296
297
298
299
3
30
300
3000
301
302
303
304
305
306
307
308
309
31
310
311
312
313
314
315
316
3166
317
318
319
32
320
321
322
323
324
325
326
327
328
329
33
330
331
332
333
334
335
336
337
338
339
34
340
341
343
344
345
347
349
35
350
3500
351
352
353
354
355
356
357
359
36
360
362
363
364
365
366
368
37
370
375
376
377
378
38
380
381
382
383
384
385
387
39
390
393
395
4
40
400
4000
401
404
405
406
41
410
412
415
42
420
421
423
425
428
43
430
43292100
4331
435
44
440
446
45
450
454
46
460
465
47
470
473
475
476
48
480
483
49
490
5
50
500
5000
504
51
510
512
518
52
520
521
53
530
54
540
55
550
56
560
57
570
58
580
581
59
6
60
600
6000
61
618
62
620
63
630
633
64
640
65
650
655
66
660
67
674
68
69
7
70
700
7000
71
72
73
737
74
747
75
750
76
77
770
78
79
8
80
800
8000
8001
81
810
82
83
832
84
84246
843
85
850
86
861
87
870
88
88192
884
89
9
90
900
91
911
92
93
930
94
95
950
957
96
960
97
978
98
980
99
9935
9979
999
:
;
<
=
>
?
@
[
\
]
^
_
`
a
aa
aachen
aaron
ab
abba
abbadi
abbas
abbey
abby
abc
abdu
abdul
abdullah
abe
abel
aberdeen
abies
abiy
abkasi
abo
abortion
about
abra
abraham
abrahams
abu
abucay
ac
acad
academia
academic
academy
access
accessed
account
acer
acid
ackles
aconogonon
across
act
acta
actavis
actinidia
actinidiaceae
action
actor
actors
ad
ada
adam
adams
add
adda
adeild
adeildar
adeildarþingmaður
adelges
adhd
administration
ado
adobe
adolf
adolfs
adresa
adri
adrian
advanced
adventure
adventures
aemilius
af
afa
afar
afbo
afbragð
afbragðs
afbrigði
afbrigðinu
afbrigðið
afbrigðum
afbrot
afbry
afc
afdra
afdrif
afdrifari
afe
aff
affairs
affinis
afgangurinn
afganistan
afganistans
afgerandi
afghanistan
afgreiðslu
afhenda
afhendir
afhent
afhenti
afhju
afho
afhroð
afi
afjo
afkastamikill
afko
afkomandi
afkomenda
afkomendum
afkomendur
afkomu
afkvæmi
afl
afla
aflað
aflaði
afle
afleiddar
afleiða
afleiðing
afleiðingar
afleiðingin
afleiðingum
aflfræði
afli
aflinn
aflo
afly
afmarka
afmarkast
afmarkað
afmo
afmæli
afmælis
afmælisdegi
afmælisrit
afna
afnam
afneita
afnema
afnot
afnota
afnumin
afnumið
afpla
afra
afrakstur
afre
afrek
afri
africa
african
afrit
afrita
afro
afsagnar
afsala
afsalaði
afskaplega
afskipti
afskiptum
afsla
afso
afstaða
afsto
afsty
aftaka
aftan
aftari
aftast
after
afto
aftr
aftur
afturelding
afturgo
afurð
afurðir
afþakkaði
afþreying
ag
aga
again
against
agathis
age
agency
agent
ages
agib
agli
agnar
agnes
agnew
agnir
ago
agricultural
agriculture
agu
ah
ahmad
ahmed
ai
aid
ain
air
airbus
aires
airlines
airport
airwaves
airways
ais
aise
ajap
ajax
ak
aka
akademi
akademiens
akim
akkeri
akonungi
akonungs
akonungur
akra
akranes
akranesi
akraness
akro
akti
akur
akureyrar
akureyri
akvitani
al
ala
alabama
alain
alamala
alan
alaska
alba
albani
albert
alberta
alberti
alberto
alberts
albertsson
albi
albrecht
albu
album
alcoa
alda
aldamo
aldanna
aldar
aldarinnar
aldemo
aldi
aldin
aldir
aldirnar
aldraðra
aldraður
aldregi
aldrei
aldri
aldrinum
aldur
aldurs
aldursa
ale
alejandro
aleksandr
aleochara
alessandro
alex
alexander
alexanders
alexandra
alexandre
alexandri
alexi
alexis
alfa
alfarið
alfons
alfred
alfredo
alfreð
alfræðiorðabo
alfræðiritið
algebra
algebru
algeirsborg
algeng
algengar
algengara
algengari
algengast
algengasta
algengasti
algengastur
algengir
algengt
algengur
algengust
algengustu
algerlega
algjo
alheimsins
alheimurinn
alhliða
ali
aliby
alice
alien
alin
alinn
alisma
alist
alista
alistaflokksins
alistaflokkurinn
alistar
alið
aljos
alkali
alko
all
alla
allah
allan
allar
allavega
alle
alleinasta
allen
allende
alliance
allir
allison
allium
alllangt
allmargar
allmargir
allmikið
allmo
allmusic
allo
allr
allra
allrar
allri
alls
allsherjar
allsherjarþing
allsherjarþingi
allskonar
allsra
allsto
allt
alltaf
allur
allvel
ally
alma
almanak
almaty
almenn
almenna
almennan
almennar
almennilega
almenning
almenningi
almennings
almenningsa
almenningssamgo
almenningur
almennir
almennra
almennrar
almennri
almennt
almennu
almennum
almennur
almu
alnus
alnæmi
alo
alone
alpafjalla
alpafjo
alpha
alpina
alri
als
alsett
alsi
also
alstaðar
alt
altari
altarinu
altaris
altaristafla
altaristo
altarið
alte
alternative
althingi
alto
alu
alucard
alumni
alva
alvara
alvarleg
alvarlega
alvarlegar
alvarlegri
alvarlegt
alvarlegum
alvarlegur
alveg
alvin
alvo
always
aly
alyga
alzheimer
alþingi
alþingis
alþingishu
alþingiskosningar
alþingiskosningarnar
alþingiskosningum
alþingiskosningunum
alþingismanns
alþingismaður
alþingismenn
alþjo
alþy
am
amadeus
amali
amanda
amaso
amato
amazing
amazon
amba
ame
amelia
amen
ameri
america
american
americana
ami
amin
amma
ammo
ammoni
amnesty
amo
amon
among
amor
amsterdam
amtmanns
amtmaður
amu
amy
an
ana
analysis
anamthawat
anastasi
anato
anatomy
ancient
and
anda
andaki
andalu
andann
andans
andanum
andar
andast
andaætt
andaðist
anders
andersen
anderson
andersson
andesfjo
andheiti
andi
andinn
andla
andlag
andleg
andlega
andlegum
andlit
andliti
andlitinu
andlitið
ando
andorra
andra
andre
andrea
andreas
andrew
andrews
andri
andro
android
andru
andsnu
andspyrnu
andspænis
andstaða
andsto
andstætt
andstæða
andstæðinga
andstæðingar
andstæðingsins
andstæðingum
andstæðingur
andstæðu
andu
andvana
andvari
andvi
andvirði
andy
angel
angela
angeles
angelo
angels
angi
anglo
ango
anhui
ani
animal
animals
animation
anime
aniston
anjou
ankara
anleg
anlega
anlegt
anlegur
ann
anna
annals
annan
annar
annara
annarar
annari
annarr
annarra
annarrar
annarri
annars
annarsstaðar
annarstaðar
annarsvegar
annast
annat
annað
annaðhvort
annaðist
anne
annes
annie
anno
annt
annual
ano
another
ans
anscombe
ansi
anska
ant
anthony
anthyllis
anti
anto
antoine
antoinette
anton
antoni
antonio
antonius
antwerpen
anum
anus
anusar
anwar
any
anzaði
ao
ap
apa
apamea
aphid
aphididae
api
apis
apo
apollo
apotomis
app
appelsi
appenni
apple
application
applied
approach
apps
apr
apri
april
aptr
aptur
aquaculture
aquino
ar
ara
arab
araba
arabar
arabari
arabi
arabia
arafat
arago
arason
arasonar
araucaria
arbor
arboretum
arbragða
arbragðagrein
arbro
arch
archaeological
archaeology
archer
archibald
archive
archived
archives
arctic
arduino
are
area
areas
arena
arf
arfe
arfi
arfleifð
arftaka
arftaki
arfur
argenti
argentina
argon
arho
ari
aria
ariana
arias
ariel
arinn
arinnar
arion
aristo
aristotle
arizona
arkansas
arki
arkirkjan
arkitekt
arkitektinn
arkitektu
arleg
arlegum
arm
arma
armeni
armenska
armeria
arms
armstrong
armur
army
arn
arna
arnalds
arnaldur
arnar
arnardo
arnarfirði
arnarfjo
arnarho
arnarson
arnarsonar
arnarsson
arnarstapa
arnbjo
arndi
arne
arngri
arnhem
arnir
arnljo
arno
arnold
arnþo
aro
aron
aronia
around
arpaio
ars
arsenal
arskeldu
arsson
art
arte
arthu
arthur
article
articles
artist
artists
arts
artu
aru
arvensis
as
asar
asdo
aserbai
ash
ashley
asi
asia
asian
ask
aska
aski
askja
askur
aso
asp
aspects
aspx
assad
assam
assange
assessment
assessors
associated
association
asson
assy
ast
astacus
aste
aston
astragalus
astri
astrid
asturiana
at
ata
atala
atari
atburð
atburða
atburðara
atburði
atburðir
atburðum
atburður
atferli
atferlismeðferð
atgo
ath
athafna
athafnamaður
athafnir
athletic
atho
athuga
athuganir
athugasemd
athugasemdir
athugasemdum
athugið
athugun
athugunar
athugunum
athygli
athæfi
ati
atkinson
atkvæða
atkvæðagreiðsla
atkvæðagreiðslu
atkvæði
atkvæðum
atla
atlanta
atlantic
atlantis
atlantshaf
atlantshafi
atlantshafinu
atlantshafið
atlantshafs
atlantshafsins
atlas
atlason
atle
atli
atlo
ato
atriða
atriði
atriðum
atru
attack
atti
attu
atu
atvik
atvikið
atviksorð
atvikum
atvinnu
atvinnugrein
atvinnugreinar
atvinnuleysi
atvinnuli
atvinnuma
atvinnumaður
au
auddi
auf
auga
augabragði
augabru
auganu
augað
augliti
augljo
augly
augna
augnablik
augnabliki
augsy
augu
augum
augun
augunum
august
auguste
augustus
auk
auka
aukahlutverk
aukahlutverki
aukaleikari
aukaperso
aukast
auki
aukin
aukinn
aukinna
aukinnar
aukinni
aukins
aukist
aukið
aukna
auknar
aukning
aukningu
auknu
auknum
aumingja
aung
aur
aura
aus
ausa
auschwitz
austan
austanverðu
austanverðum
austast
austasta
austasti
austen
austfjo
austin
austr
australia
australian
australis
austri
austria
austro
austrri
austur
austura
austurhluta
austurhluti
austurland
austurlanda
austurlandi
austurlands
austurlo
austurri
austurs
austurstro
austurstræti
austurveg
austurvelli
austurvo
author
authority
auto
autt
aux
auð
auðar
auðga
auðgi
auði
auðigur
auðið
auðku
auðky
auðlegð
auðlinda
auðlindir
auðlindum
auðmy
auðn
auðs
auðse
auðso
auðsy
auðugur
auðun
auðunn
auður
auðveld
auðvelda
auðveldan
auðveldar
auðveldara
auðveldari
auðveldlega
auðvelt
auðvitað
auðæfi
av
ava
available
avibase
avignon
award
awards
away
ax
axel
ayer
az
azet
aziz
að
aða
aðal
aðala
aðalbjo
aðalbo
aðaldal
aðalega
aðalframkvæmdastjo
aðalfundi
aðalgrein
aðalheiður
aðalhlutverk
aðalhlutverki
aðalhlutverkin
aðalhlutverkið
aðalhlutverkum
aðalhlutverkunum
aðalho
aðallega
aðalna
aðalperso
aðalra
aðalritara
aðalritari
aðalskipulag
aðalsmanna
aðalsmaður
aðalsmenn
aðalso
aðalsteinn
aðalsteinsdo
aðalsteinsfo
aðalsteinsson
aðalsto
aðalstræti
aðalvi
aðar
aðbu
aðda
aðdra
aðdraganda
aðeins
aðfangadag
aðfangadagskvo
aðfarano
aðferð
aðferða
aðferðafræði
aðferðin
aðferðina
aðferðir
aðferðum
aðfo
aðgang
aðgangi
aðgangur
aðgengi
aðgengileg
aðgengilegt
aðgerð
aðgerða
aðgerðasinni
aðgerðin
aðgerðina
aðgerðir
aðgerðum
aðgreina
aðgreining
aðgreiningar
aðgreiningarsi
aðhyllast
aðhyllist
aðhylltist
aðhylltust
aði
aðila
aðilar
aðild
aðildarfe
aðildarri
aðili
aðilinn
aðils
aðilum
aðir
aðist
aðkomu
aðkomumaður
aðlaga
aðlagast
aðlagað
aðliggjandi
aðlo
aðmi
aðra
aðrar
aðrir
aðsetur
aðskildar
aðskildir
aðskildum
aðskilin
aðskilið
aðskilja
aðskilnað
aðskilnaður
aðskilur
aðso
aðspurður
aðstandendur
aðstaða
aðsto
aðstoð
aðstoða
aðstoðar
aðstoðarmaður
aðstoðarprestur
aðstoðarþja
aðstoðaði
aðstæðna
aðstæðum
aðstæður
aður
aþena
aþenu
b
ba
baby
bach
back
background
bacon
bad
baden
badminton
bafta
bagdad
bagga
baggalu
bago
baha
bahafi
bahamaeyjar
bahasa
bai
bailey
baillargeon
bailly
bairns
baja
bak
baka
bakari
bakað
baker
bakgrunn
bakhlið
baki
bakinu
bakið
bakka
bakkanum
bakki
bakr
bakraddir
bakteri
bakvið
bal
baldri
baldur
baldurs
baldursdo
baldursson
baldvin
baldvinsson
baldwin
balf
bali
balkanskaga
ball
baltasar
baltimore
balu
bambus
bambustegund
ban
bana
banaho
banar
band
banda
bandalag
bandalagi
bandalaginu
bandalagið
bandalags
bandalagsins
bandamanna
bandamaður
bandamenn
bandamo
bandari
bandi
bandinu
bandið
bang
bangkok
bangladesh
bangladess
bangsi
bani
banjo
bank
banka
bankahrunið
bankahrunsins
bankakerfinu
bankakerfisins
bankakerfið
bankana
bankann
bankanna
bankans
bankanum
bankar
bankara
bankarnir
bankastjo
bankastræti
banki
bankinn
banks
bann
banna
bannar
bannað
bannaðar
bannaði
bannaður
bannfærði
banni
bannið
banon
bantu
baptiste
bar
bara
barack
barbados
barbara
barbari
barbarossa
barbo
barcelona
bardaga
bardagann
bardaganum
bardagar
bardagi
bardaginn
bardo
barein
bari
barin
barinn
barist
barið
barmi
barn
barna
barnabarn
barnabo
barnabækur
barnafoss
barnanna
barnasko
barneby
barnes
barney
barni
barninu
barnið
barnlaus
barns
barnsaldri
barnsfo
barnshafandi
barnsins
barnæsku
baro
barr
barret
barrett
barrið
barrna
barrsko
barrtre
barrtrja
barry
barselo
barst
bart
barto
baru
barða
barðastrandarsy
barðastro
barði
barðist
bas
basalt
basalti
base
based
basel
bashkir
basi
basic
basil
basili
basin
basketball
bass
bassa
bassaleikari
bassi
bat
bata
bates
batista
batman
batna
batnaði
batt
battle
bauer
baugi
baugs
baugur
bauhaus
baula
baunir
bauð
bauðst
bay
bayer
bayern
bað
baða
baðhu
baðmull
baðst
baðstofu
baðstofuna
baðstofunni
bb
bba
bbc
bbi
bbinn
bbnum
bbs
bbsins
bbum
bbur
bburinn
bc
bd
be
beach
bean
bear
beast
beat
beatrix
beautiful
beauty
bec
beck
beckenbauer
becker
bedreddi
bee
been
bees
beethoven
before
beggja
begi
begin
beginning
behavior
behaviour
behind
bei
beiddi
beiddist
beiddu
beijing
bein
beina
beinagrind
beinan
beinar
beinast
beindi
beindist
beindust
being
beini
beinin
beinir
beinist
beinli
beinn
beinni
beinst
beint
beinu
beinum
beiru
beit
beita
beitingu
beitir
beitt
beitti
beittu
beitu
beið
beiðni
bekk
bekknum
bekkur
bel
belfast
belg
belga
belgar
belgi
belginn
belgrad
beli
believe
bell
bella
belnefndarinnar
bels
belsverðlaun
belsverðlaunahafi
belsverðlaunin
belti
beltinu
beltið
ben
benda
bender
bendingar
bendir
benedikt
benedikts
benediktsdo
benediktsson
benediktssonar
benes
bengal
beni
benito
benjami
benjamin
bennett
benny
beno
bensi
bent
benth
benti
bentu
benz
ber
bera
berandi
berast
berengari
berfætts
berg
bergen
berger
bergi
berginu
bergið
berglind
bergljo
bergma
bergmann
bergs
bergsson
bergur
bergþo
beri
berin
berið
berja
berjast
berjum
berkeley
berki
berkla
berklum
berli
berlin
berlusconi
bermu
bermuda
bern
bernadotte
bernard
bernd
bernhard
bernharðsson
bernsku
berr
berry
berst
bert
bertha
bertozzi
bertram
bertrand
berts
beru
berum
besar
bessastaðasko
bessasto
bessi
best
besta
besti
bestu
bestur
bet
beta
betlehem
betra
betri
better
betty
betula
betur
between
bevere
beverly
beyging
beygingarly
beygingu
beygist
beygja
beygjanlegt
beygjast
beyki
beyonce
beyond
bezt
bezta
bezti
beztu
beðinn
beðið
bf
bg
bh
bhutto
bi
bibcode
bibli
biden
biflorus
bifreið
bifreiða
bifro
big
bikar
bikarhafa
bikarinn
bikarkeppni
bikarkeppnin
bikarkeppninnar
bikarkeppninni
bikarmeistarar
bikarmeistari
bikarnum
bil
bili
bilinu
bilið
bill
billboard
billich
billjo
billy
bilt
bin
binda
bindandi
bindast
bindi
bindið
bindum
bindur
bingen
bio
biodiversity
biogeography
biografisk
biographical
biography
biological
biology
biota
bipolar
bird
birdlife
birds
birgi
birgir
birgisson
birgitta
birgðir
birki
birkir
birkisko
birkiætt
birmingham
birna
birni
birnu
birst
birt
birta
birtar
birtast
birth
birti
birtingu
birtir
birtist
birtu
birtust
bis
bisby
bishop
biskup
biskupa
biskupanna
biskupar
biskuparnir
biskupi
biskupinn
biskups
biskupsdo
biskupsdæmi
biskupsfru
biskupsins
biskupssto
biskupstungum
bismarck
bissa
bit
bita
biti
bitið
bið
biðja
biðjast
biðji
biðjið
biðr
biðu
biður
bja
bjalla
bjallan
bjarg
bjarga
bjargar
bjargað
bjargaði
bjargi
bjarginu
bjargið
bjarki
bjarna
bjarnado
bjarnar
bjarnarson
bjarnarsonar
bjarnason
bjarnasonar
bjarnasyni
bjarndy
bjarnhe
bjarni
bjart
bjarta
bjartasta
bjartrar
bjartsy
bjartur
bjo
bju
bjuggu
bjuggust
bk
bla
black
blackburn
blackwell
blade
blair
blake
blanche
bland
blanda
blandar
blandast
blandað
blandaðar
blandaði
blandaður
blanka
blað
blaða
blaðamaður
blaðamaðurinn
blaðamenn
blaðamennsku
blaði
blaðinu
blaðið
blaðsi
blaðsins
ble
bleik
bleika
bleikja
bleikum
blek
blendingar
blendingur
bless
blessa
blessaður
blessun
blessuð
blett
blettati
bletti
blettum
blettur
blev
bli
blikana
blikanaflokksins
blikanar
blind
blinda
blindur
blo
bloch
block
blog
blogg
bloggsi
blogspot
blokk
blood
bloom
bloomberg
bloomsbury
bls
blu
blue
blues
blume
blur
bly
blæ
blær
blæs
blæðingar
bmatrix
bna
bo
board
bob
bobby
boca
body
boeing
boga
bogi
boiss
bol
bola
boli
bolla
bollason
bolli
bologna
bolor
bolse
bolsonaro
bolt
bolta
boltann
boltanum
boltinn
bolton
bolungarvi
bolur
bombus
bon
bonaparte
bond
bonn
bonnie
book
books
boom
bor
bora
bordeaux
border
borealis
borg
borga
borganna
borgar
borgara
borgaraleg
borgaralegum
borgaranna
borgarar
borgarare
borgarastri
borgarastyrjaldarinnar
borgarastyrjo
borgarbo
borgarbu
borgarbyggð
borgarfirði
borgarfjarðar
borgarfjo
borgarfulltru
borgarhlið
borgarhluti
borgarholtssko
borgari
borgarinnar
borgarleikhu
borgarmo
borgarmu
borgarnesi
borgarra
borgarre
borgarstjo
borgað
borgaði
borgin
borgina
borginni
borgir
borgirnar
borgri
borgum
borgundarho
borgunum
borgurum
borin
borinn
boris
borist
borið
born
bornar
borneo
bornir
borough
borussia
borð
borða
borðar
borðað
borðaði
borðaður
borðeyri
borði
borðinu
borðið
borðs
borðspil
borðtennis
borðum
bos
bosni
boss
bossa
boston
bosworth
bot
botanic
botanical
botanova
botany
both
botn
botni
botninn
botninum
botns
botnvo
botsvana
bourbon
bourgoin
bowie
bowl
box
boy
boyd
boyle
boys
boz
boð
boða
boðar
boðað
boðaði
boðberi
boði
boðin
boðinn
boðið
boðorð
boðskap
boðum
br
bra
brabant
brad
bradley
braga
bragarha
bragason
bragi
bragð
bragða
bragði
bragðið
bragðs
brahe
brain
brak
braltar
brand
brandenborg
brandenburg
brandi
brandon
brands
brandsson
brandt
brandur
brann
brasili
brassica
brast
bratt
braun
braust
braut
brautin
brautir
brautryðjandi
brautskra
brauð
brauði
brauðið
bravo
brazil
bre
break
breda
bree
bregst
bregða
bregðast
bregður
breidd
breiddargra
breiddi
breiddist
breiddust
breitt
breið
breiða
breiðablik
breiðabo
breiðafirði
breiðafjo
breiðar
breiðari
breiðast
breiðdal
breiðfjo
breiðholti
breiðir
breiðski
breiðst
breiðu
breiðum
breiður
breiðuvi
brekka
brekku
brekkuna
bremen
brenda
brenna
brennandi
brennd
brenndi
brenndir
brenndu
brenndur
brennir
brennisteinn
brennivi
brennt
brennu
brennur
bresk
breska
breskar
breski
breskir
breskra
breskri
breskt
bresku
breskum
breskur
brest
brestur
breta
bretadrottning
bretagne
bretaprins
bretar
bretland
bretlandi
bretlands
bretlandseyja
bretlandseyjar
bretlandseyjum
breto
bretti
bretum
brewster
breyst
breyta
breytast
breytileg
breytilegt
breytilegur
breyting
breytinga
breytingar
breytingarnar
breytingin
breytingu
breytingum
breytir
breytist
breytni
breytt
breytti
breyttir
breyttist
breyttu
breyttum
breyttur
breyttust
breytu
breytur
bri
brian
brid
bridge
brief
briem
brighton
brill
brim
bringu
bristol
brit
britain
britannica
british
britney
brja
brjo
bro
broadcasting
broadway
broddi
broken
brons
bronso
bronsverðlaun
bronx
brooklyn
brooks
bros
brosa
brosti
brot
brota
brother
brothers
broti
brotin
brotinn
brotið
brotna
brotnar
brotnaði
brotnuðu
brott
brottfo
brotthvarf
brottu
brotum
brown
bru
bruce
bruckheimer
brugge
brugghu
brugðin
brugðist
brugðið
brugðust
bruna
brunann
brunanum
bruni
bruninn
brunni
brunninn
brunnið
brunnu
brunnur
bruno
brunswick
brussel
brutu
brutust
bry
bryan
bryant
bryggju
bryndi
brynhildur
brynja
brynjar
brynjo
brynju
bryti
bryum
bræði
bræðra
bræðranna
bræðratungu
bræðrum
bræðrunum
bræðslumark
bræður
bræðurna
bræðurnir
bs
bsbi
bsrb
bu
bubba
bubbi
buchanan
buckley
buenos
buffalo
buffy
bug
bugge
building
bull
bulletin
bullock
bun
bundesliga
bundin
bundinn
bundið
bundnar
bundnir
bundnu
bundu
bunge
bura
bureau
burke
burn
burniro
burns
burt
burton
burtu
burð
burðara
burði
burður
bus
bush
business
but
butler
buxur
buðu
bv
by
bygg
byggi
bygging
bygginga
byggingar
byggingarefni
byggingarinnar
byggingarlist
byggingin
byggingu
byggingum
bygginguna
byggingunni
byggir
byggist
byggja
byggjast
byggst
byggt
byggð
byggða
byggðar
byggðarlag
byggðarlo
byggðasafn
byggðasaga
byggði
byggðin
byggðina
byggðinni
byggðir
byggðist
byggðu
byggðum
byggður
byggðust
bylgja
bylgjan
bylgju
bylgjulengd
bylgjunnar
bylgjunni
bylgjur
bylting
byltingar
byltingarinnar
byltingin
byltingu
byltinguna
byltingunni
byr
byrg
byrgisins
byrgjast
byrgur
byrgð
byrgðar
byrinn
byrja
byrjar
byrjað
byrjaði
byrjaður
byrjendur
byrjun
byrjuð
byrjuðu
byrkningar
byrði
byskup
byskupi
byskupinn
byskups
byskupsins
byssu
byssur
bæ
bægisa
bæheimi
bæheims
bæi
bæina
bæinn
bæir
bæirnir
bæja
bæjanna
bæjar
bæjaraland
bæjaralandi
bæjaralands
bæjarbu
bæjardyrnar
bæjardyrum
bæjardyrunum
bæjarfe
bæjarfo
bæjarfulltru
bæjarhu
bæjarins
bæjarra
bæjarstjo
bæjum
bæjunum
bækisto
bæklingur
bækur
bækurnar
bæla
bæli
bæn
bænahu
bænda
bændum
bændur
bænir
bænum
bær
bæra
bæri
bærinn
bært
bæst
bæta
bætast
bæti
bætir
bætist
bætt
bætti
bættist
bættu
bættust
bætur
bæði
bɔ
c
ca
caesar
caesars
calais
calandrinia
calendar
calflora
cali
california
call
called
callitris
calvin
cambridge
came
cameron
camp
campaign
campanula
campanulaceae
campanulas
campbell
camus
can
canada
canadensis
canadian
cancer
cand
candy
canis
cannes
cannon
canyon
cao
cap
cape
capital
captain
car
caracalla
carassius
cardiff
care
career
carex
carey
caribbean
carl
carlo
carlos
carmen
carnap
carnegie
carol
carolina
caroline
carolyn
carpinus
carrie
carroll
carta
carter
caruso
casa
case
casey
cash
cassidy
cast
castillo
castle
castro
cat
catalana
catalans
catalog
catalogue
catalogueoflife
category
catherine
catholic
cato
cause
causes
cavariella
cave
cavendish
cayman
cbs
cc
cd
cdata
cdot
cdots
ce
cecil
cedrus
cell
cells
celtic
census
center
central
centre
century
cephalotaxus
cerastium
cero
cf
ch
cha
chad
chamaecyparis
chamberlain
champagne
chan
chandler
chanel
chang
changchun
change
changes
changsha
changzhou
channel
channing
chaplin
chapman
chapter
charles
charlie
charlotte
chart
charts
chase
chaucer
che
checklist
checklists
chelsea
chemical
chemistry
chen
cheng
chengdu
cher
chester
chi
chiang
chicago
chicks
chief
chilatherina
child
children
chile
chili
china
chinensis
chinese
ching
chirac
cho
chocolate
choice
chongqing
chre
chris
christ
christensen
christi
christian
christiania
christie
christina
christine
christmas
christoph
christopher
chrome
chronic
chronicle
chu
chuck
chun
church
churchill
chusquea
ci
cia
cicero
cid
cie
cindy
cinema
circle
circus
cistanthe
cities
citrus
city
civil
civilization
ck
cke
cken
cl
cladonia
claire
clan
clara
clare
clarence
clarendon
clark
clarke
class
classic
classical
classification
claude
claudi
claudio
claudius
clausen
clay
clayton
claytonia
cle
clemenceau
cleveland
climate
clinical
clinton
clio
close
closer
clover
club
clyde
cm
cn
cnn
co
coast
coca
cochrane
code
codex
cody
coffee
cognitive
cohen
cola
cold
cole
coleman
coleoptera
colin
collection
college
collingwood
collins
colombia
color
colorado
colour
columbia
columbus
com
come
comedy
coming
commission
committee
common
commons
communication
communications
communist
community
como
companion
company
comparative
comparison
complete
complex
compostela
compton
computer
comte
con
concert
conference
conflict
congo
congress
conifer
conifers
connecticut
connor
conrad
conservation
conspiracy
constitution
contact
conte
contemporary
content
control
convention
cook
cool
cooper
copa
copenhagen
copy
core
cork
cornelius
cornell
cornwall
coronavirus
corporation
corpus
correa
corte
cos
costa
could
council
count
countries
country
county
course
court
coventry
cover
covid
cox
crab
craig
crash
crassostrea
crataegus
crawford
crayfish
crazy
cre
create
creative
creek
crime
crimes
criminal
crisis
cristiano
cristo
critical
criticism
critics
crocus
cromwell
cross
crown
cruyff
cruz
crystal
cs
csi
css
ctrl
cu
cuba
culham
cultivation
cultural
culture
cup
cupressaceae
cupressus
curie
current
curtis
cut
cv
cyprus
cyrus
cytisus
cæsar
d
da
dacrycarpus
dacrydium
dafnaði
dag
daga
dagana
daganna
dagar
dagatal
dagblað
dagblaðinu
dagblaðið
dagblaðs
dagblaðsins
dagblo
dagbo
daginn
daglega
daglegt
daglegu
dagny
dags
dagsbru
dagsetning
dagsett
dagsins
dagskra
dagsson
dagur
dagurinn
daily
dako
dakota
dal
dala
dalai
dalasy
dalbu
daldo
dale
dali
dalinn
dalir
dallas
dalmati
dalnum
dalsins
dalton
dalur
dalurinn
dalverpi
dalvi
damaskus
dame
dan
dana
danadrottning
danakonungi
danakonungs
danakonungur
danaveldi
dance
dangerous
dani
daniel
danio
danir
danish
danmark
danmarks
danmerkur
danmo
danny
dans
dansa
dansar
dansari
dansað
dansho
dansi
dansinn
dansk
danska
danskar
danske
danski
danskir
danskra
danskri
danskt
danskur
danson
dansto
dante
dapest
dapur
dar
dari
dark
darkness
darmstadt
darwin
das
data
database
date
datt
dautt
dauð
dauða
dauðadags
dauðado
dauðan
dauðann
dauðans
dauðanum
dauðarefsingu
dauði
dauðinn
dauðir
dauðsfo
dauðu
dauðum
dauður
dave
davi
david
davids
davidson
davies
davis
dawn
dawson
day
days
daða
daðason
daði
db
dc
dd
dda
ddar
ddi
ddin
ddir
ddisma
ddismi
ddista
ddu
ddum
ddur
ddust
de
dead
deal
dean
death
december
declaration
decock
dee
deep
default
defense
definition
degi
deginum
degli
dei
deigið
deila
deilan
deild
deilda
deildar
deildarinnar
deildarstjo
deildi
deildin
deildina
deildinni
deildir
deildu
deildum
deili
deilir
deilna
deilt
deilu
deilum
deiluma
deilur
deilurnar
dekkri
del
delaware
delft
deli
dell
della
delta
dem
demo
democracy
democratic
dempster
den
deng
denis
dennis
dent
denta
dentar
dentara
dentspro
denver
deo
department
der
derby
derek
deroceras
derrick
des
desar
descartes
description
descriptions
desember
desert
desi
design
desmond
destiny
det
details
detroit
detta
dettifoss
dettur
deutsche
deutschland
dev
development
devil
devon
dewalt
dewey
deyi
deyja
deyr
deyði
dhd
dhjete
di
diamond
diana
diane
diaz
diccionari
diccionariu
dicionario
dicionarios
dick
dict
dictionary
dictionnaire
did
didz
die
diego
diels
dies
dietrich
different
digimon
digital
digitalny
digra
digri
digur
dillon
dimma
dimmt
din
dio
diplo
diptera
direction
director
dirty
dischidia
disco
discogs
discover
discovery
disease
diseases
disk
diska
diski
diskinn
disko
diskur
diskurinn
disney
disorder
disorders
display
displaystyle
distribution
district
dit
ditions
diversity
division
dixie
dizionario
diðrik
dj
dja
djarfur
djass
djassto
dji
djo
dju
dk
dl
dmi
dna
do
dobson
doc
docs
doctor
document
documents
does
dog
dogs
doi
doktor
doktorsgra
doktorsna
doktorspro
doktorsritgerð
dole
dolf
dollara
dolly
dolnoserbsko
dom
domingo
don
donald
donetsk
dong
donnell
donovan
doris
dorling
doronicum
dorset
dortmund
dos
dottið
double
doug
douglas
dourdan
dover
dow
down
download
downloaded
dr
dra
draga
dragast
dragi
dragon
drake
drakk
draku
drama
dramaseri
dramati
dramaþa
drangey
drap
drapst
draug
drauga
draugar
drauginn
draugsi
draugur
draugurinn
draum
drauma
draumar
draumi
drauminn
draumum
draumur
draumurinn
dream
dreams
dregin
dreginn
dregist
dregið
dregnar
dregnir
dregst
dregur
dreif
dreifa
dreifast
dreifby
dreifing
dreifingu
dreifir
dreifist
dreift
dreifð
dreifði
dreifðist
dreka
dreki
drekinn
drekka
drekkt
drekkur
dreng
drengi
drenginn
drengir
drengirnir
drengja
drengnum
drengsins
drengur
drengurinn
drep
drepa
drepast
drepi
drepin
drepinn
drepið
drepnir
drepur
dresden
drew
dreyfus
dreyma
dreymdi
dreymir
dreymt
dri
drive
drju
dro
dropbox
drottin
drottinn
drottins
drottni
drottnigarbragð
drottning
drottningar
drottningarinnar
drottningin
drottningu
drottninguna
drottningunni
dru
drukkinn
drukkið
drukknaði
drukknuðu
drukku
dry
drykk
drykki
drykkjargrein
drykkju
drykkur
dryopteris
drægi
ds
dsjan
dt
du
dublin
duden
due
duff
duft
duga
dugi
dugir
duglegur
dugði
dukakis
duke
dularfulla
dulbu
dulko
dulma
dulnefninu
dulsma
dum
dumas
dumbledore
dumort
dun
duncan
dundee
dunn
dunur
dupuis
duran
durham
during
durud
dus
dutch
duttu
duvalier
dv
dvala
dvaldi
dvaldist
dvalist
dvalið
dvd
dvelja
dveljast
dvelur
dvergar
dvergarnir
dvergur
dvergurinn
dvi
dvo
dwarf
dwight
dx
dy
dyflinni
dyggð
dygð
dylan
dynamics
dynjandi
dynkur
dyntaxa
dyr
dyra
dyranna
dyrho
dyrnar
dyrum
dyrunum
dys
dysjar
dz
dægur
dægurlo
dæi
dæla
dæld
dælt
dæma
dæmd
dæmdi
dæmdir
dæmdur
dæmi
dæmigert
dæmigerð
dæmin
dæmir
dæmis
dæmið
dæmt
dæmum
dætrum
dætur
dæturnar
e
eagle
earl
earle
early
earth
east
eastern
easy
eb
ebu
ec
echo
ecological
ecology
economic
economics
economist
economy
ed
eda
edda
eddie
eddu
edduverðlaunin
eden
edgar
edge
edie
edik
edinborg
edinburgh
edison
edit
edith
edition
editor
editorial
editors
edmond
edmund
eds
edu
eduard
education
educational
edvard
edward
edwards
edwin
ees
ef
efa
efahyggja
efahyggju
efasemdir
efast
effect
effects
efla
eflaust
efldi
eflingu
efloras
efna
efnaformu
efnafræði
efnafræðigrein
efnafræðilega
efnafræðingur
efnahag
efnahags
efnahagsa
efnahagsleg
efnahagslega
efnahagslegar
efnahagslegri
efnahagslegt
efnahagslegu
efnahagslegum
efnahagsli
efnahagslo
efnahagsma
efnahagsra
efnahagsstefnu
efnahagur
efnahvo
efnasamband
efnasambo
efnasamsetning
efnaskipti
efnata
efndi
efni
efnilegur
efnin
efninu
efnis
efnisins
efnislega
efnisyfirlit
efnið
efnt
efnum
efra
efri
efst
efsta
efsti
efstu
efstur
efta
eftir
eftirfarandi
eftirfo
eftirla
eftirlaun
eftirli
eftirlifandi
eftirlit
eftirliti
eftirma
eftirmann
eftirmaður
eftirmynd
eftirmæli
eftirre
eftirso
eftirspurn
eftirspurnar
eftirstri
eftirtekt
eg
egede
egg
eggert
eggerts
eggertsson
eggerz
eggi
eggin
eggið
eggja
eggjahvi
eggjan
eggjar
eggjum
eggjunum
egglaga
egil
egill
egils
egilsdo
egilsson
egilssonar
egilssto
egle
egner
ego
egypska
egypt
egypta
egyptaland
egyptalandi
egyptalands
egyptar
ehf
ehrend
ei
eiga
eiganda
eigandi
eigenda
eigendum
eigendur
eight
eigi
eigin
eiginfja
eiginkona
eiginkonu
eiginkonur
eiginleg
eiginlega
eiginlegt
eiginlegu
eiginlegur
eiginleika
eiginleikar
eiginleiki
eiginleikum
eiginmann
eiginmanni
eiginmanns
eiginmaður
eiginnafn
eiginnafna
eigið
eign
eigna
eignar
eignarfall
eignarfalli
eignarhald
eignarhaldsfe
eignarna
eignarre
eignast
eignað
eignaðist
eignir
eignum
eignuð
eignuðust
eigu
eigum
eigur
eik
eili
eimreiðinni
eimskipafe
ein
eina
einan
einangra
einangrað
einangrun
einar
einari
einarr
einars
einarsdo
einarsson
einarssonar
einarssyni
einasta
einatt
einbeita
einbeitt
einbeitti
einbli
einbu
eind
eindhoven
eindriði
eine
einelti
einfalda
einfaldan
einfaldar
einfaldari
einfaldasta
einfaldlega
einfaldri
einfaldur
einfalt
einfo
eingo
eingyðistru
einhliða
einhver
einhverfu
einhverja
einhverjar
einhverjir
einhverju
einhverjum
einhvern
einhverra
einhverri
einhvers
einhverskonar
einhverstaðar
einhvo
einhvur
eini
eining
eininga
einingar
einingu
einingum
einir
einisætt
einkaaðila
einkaeign
einkaeigu
einkaleyfi
einkali
einkama
einkar
einkare
einkasko
einkasy
einkato
einkavæðingu
einkenna
einkennandi
einkennast
einkenndi
einkenndist
einkenndust
einkenni
einkennin
einkennir
einkennismerki
einkennist
einkennst
einkennum
einkis
einkum
einkunn
einkunnir
einlend
einlægt
einma
einmana
einmitt
einn
einna
einnar
einni
einnig
einninn
einokun
einra
einro
einræði
einræðisherra
einræðisstjo
eins
einsamall
einskis
einskonar
einso
einsog
einstaka
einstakar
einstakir
einstaklega
einstakling
einstaklinga
einstaklingar
einstaklingi
einstaklinginn
einstaklings
einstaklingsins
einstaklingum
einstaklingur
einstaklingurinn
einstakra
einstakt
einstakur
einstein
einsto
eintak
eintaka
eintala
einto
einu
einum
einungis
einvaldur
einveldi
einvi
einvo
einær
eir
eiri
eirðir
eirðirnar
eisenhower
eistland
eistlandi
eistlands
eistneska
eitrað
eitri
eitrun
eitruð
eitt
eitthvað
eitthvert
eitur
eiturefni
eið
eiða
eiði
eiðum
eiður
ek
ekið
ekkert
ekki
ekkja
ekkju
ekvador
el
ela
elaeagnus
eld
elda
eldar
eldaska
eldast
eldey
eldfjall
eldfjallið
eldfjo
eldflaug
eldgos
eldgosi
eldgosið
eldgosum
eldhu
eldi
elding
eldingu
eldinn
eldinum
eldja
eldkeila
eldr
eldra
eldri
eldsneyti
eldspy
eldsto
eldsvoða
eldur
eldurinn
eldvirkni
eleanor
election
elections
electric
electronic
elena
eli
elias
elino
elisabeth
eliza
elizabeth
ella
elle
ellefta
ellefu
ellegar
ellen
eller
ellert
elli
ellidaga
ellie
elliot
elliott
ellis
elliða
elliðaa
elly
elri
els
elsa
else
elsevier
elska
elskan
elskar
elskað
elskaði
elsku
elsson
elst
elsta
elsti
elstu
elstur
elta
elti
eltir
elton
eltu
elur
elvis
em
emanuel
embætti
embættinu
embættis
embættisins
embættismanna
embættismaður
embættismenn
embættismo
embættispro
embættisti
embættið
embættum
emeritus
emerson
emi
emil
emili
emilio
emily
emma
emmanu
emmanuel
emmy
emperor
empire
en
encyclopaedia
encyclopedia
encyclopædia
end
enda
endalok
endalokum
endanleg
endanlega
endanlegt
endann
endanum
endar
endast
endað
endaði
endi
endilega
endilo
ending
endingu
endir
endist
endum
endur
endurbo
endurbyggingu
endurbyggja
endurbyggð
endurbætt
endurbætur
endurgerð
endurheimt
endurheimta
endurheimti
endurkjo
endurkomu
endurli
endurminningar
endurny
endurreisa
endurreisn
endurreisnarinnar
endurreisnarti
endurreist
endurreistur
endurskoða
endurskoðun
endurskoðuð
endurspegla
endurspeglar
endurtaka
endurtekin
endurtekið
endurto
enduru
endurvekja
enduðu
eneas
eneasarkviðu
energy
eng
enga
engan
engar
engel
engels
engi
engill
engin
engineering
enginn
engir
engjum
engl
engla
england
englandi
englands
englandsbanka
englandsdrottning
englandsgrein
englandskonungi
englandskonungs
englandskonungur
englar
englendinga
englendingar
englendingum
english
engrar
engri
engu
engum
enki
enn
ennfremur
enni
ennið
ennþa
enrico
ens
ensi
ensk
enska
enski
enskir
enskra
enskri
enskt
ensku
enskum
enskumælandi
enskur
enter
enterprise
entertainment
entist
entomological
entomology
entry
environment
environmental
eo
ep
epi
epic
epiku
epirrhoe
episode
epistemology
epli
eplið
epstein
eptir
equisetum
er
era
erasmus
erdo
erdog
erfa
erfingi
erfingja
erfitt
erfið
erfiða
erfiðar
erfiðara
erfiðari
erfiði
erfiðleika
erfiðleikar
erfiðleikum
erfiðum
erfiður
erft
erfurt
erfðaefni
erfðafræði
erfðamengi
erfðare
erfðaro
erfðaskra
erfðastri
erfði
erfðir
eri
eric
erich
erik
eriksen
erin
erinda
erindi
erindið
erindreki
erindum
eriophyes
eris
erjum
erkibiskup
erkibiskupinn
erkibiskups
erkibyskup
erla
erlend
erlenda
erlendar
erlendi
erlendir
erlendis
erlendra
erlendri
erlendsdo
erlendsson
erlendu
erlendum
erlendur
erlent
erling
erlingi
erlings
erlingsson
erlingssonar
erlingur
erlu
ermarsund
ermarsundið
erna
ernest
erni
ernir
ernst
ero
erra
ert
erto
ertu
ertublo
eru
erum
eruð
erythronium
es
esa
esb
escobar
esctoday
esja
eske
eskifirði
eskimo
eso
espan
esperanto
espo
essay
essays
essen
essex
est
esta
estadio
estudis
et
eta
etano
etc
ethics
ethiopia
ethnolouge
etið
etja
etnam
etnamar
etnamstri
etru
ett
ettir
etur
eu
eucalyptus
euge
eugen
eugene
euler
eur
euro
euronext
europa
europaea
europe
european
eurovision
ev
eva
evan
evangeli
evangelium
evans
eve
evelyn
events
ever
everton
every
everything
evgeni
evic
evidence
evil
evkli
evolution
evolutionary
evra
evran
evrasi
evripi
evro
evru
evrur
evu
ex
example
excel
exchange
exclusive
executive
exp
experience
experiment
explorer
express
ey
eydal
eyddi
eyddist
eyddu
eye
eyes
eyfirðinga
eyglo
eyja
eyjaa
eyjafirði
eyjafjallajo
eyjafjarðar
eyjafjarðarsy
eyjafjo
eyjaklasanum
eyjaklasi
eyjaklasinn
eyjan
eyjanna
eyjar
eyjarinnar
eyjarnar
eyjo
eyju
eyjum
eyjuna
eyjunnar
eyjunni
eyjunum
eykst
eykur
eymd
eyna
eynni
eyra
eyrarbakka
eyrað
eyri
eyrinni
eyru
eyrum
eyrun
eyrunum
eysteini
eysteinn
eysteins
eysteinsson
eystra
eystrasalt
eystrasalti
eystri
eytt
eyvind
eyvindar
eyvindur
eyða
eyðast
eyði
eyðiby
eyðilagt
eyðilagði
eyðilagðist
eyðileggingu
eyðileggja
eyðilo
eyðimo
eyðingu
eyðir
eyþo
ez
eð
eða
eðli
eðlileg
eðlilega
eðlilegt
eðlilegum
eðlis
eðlisfræði
eðlisfræðigrein
eðlisfræðingur
eðlisþyngd
eður
eþi
f
fa
faber
fabricius
face
facebook
fact
factbook
factor
facts
fag
fagna
fagnar
fagnað
fagnaðarfundur
fagnaði
fagra
fagran
fagrar
fagrasko
fagri
fagur
fagurfræði
fagurt
fair
faith
falco
falcon
falda
faldi
faldri
faldur
falin
falið
fall
falla
fallast
fallbyssum
fallbyssur
falleg
fallega
fallegar
fallegasta
fallegt
fallegur
fallhli
falli
fallin
fallinn
fallinu
fallist
fallið
fallnir
fallo
fallorð
falls
fallsins
false
falt
falur
falwell
fame
families
family
famous
fan
fana
fandi
fanes
fang
fanga
fangabu
fangar
fangastað
fangastaður
fangelsaður
fangelsi
fangelsinu
fangelsisdo
fangelsisvistar
fangelsið
fangi
fanginn
fanir
fann
fanna
fannst
fans
fantasi
fantasy
fanum
fao
far
fara
faraday
faraldursins
farandi
farangur
farao
farar
fararbroddi
farartæki
farast
farfugl
fargesia
fari
farin
farinn
farir
farist
farizt
farið
farjon
farm
farmi
farnar
farnir
farsi
farso
farto
farveg
farðu
farþega
farþegaflugve
farþegamiðsto
farþegar
farþegum
fasafn
fasi
fasista
faso
fast
fasta
fastan
fastar
fasti
fastir
fasto
fastra
fasts
fastsdæmi
fastur
fat
fata
fataho
father
fati
fatlaðra
fatnað
fatnaði
fatnaður
fauk
fauna
faxaflo
faxi
fað
faðerni
faði
faðir
faðirinn
faðma
faðmar
faður
fbi
fc
fdi
fe
fear
feb
febru
february
federal
federation
feel
fefnafræði
fegin
feginn
fegnir
fegra
fegursta
fegurð
feigur
feisal
feiti
feitur
fekk
fela
felast
feld
feldi
feldur
feli
felix
fell
fella
felld
felldar
felldi
felldu
felldur
felli
fellibylur
fellibylurinn
fellir
fellt
fellu
fellur
felst
felur
female
femi
fen
feneyjar
feneyjum
feng
fengi
fengin
fenginn
fengis
fengist
fengiti
fengið
fengju
fengnar
fengnir
fengu
fengur
fengust
fenrisu
fer
ferdi
ferdinand
ferdinands
ferguson
feril
ferilinn
ferill
ferils
ferilskra
ferja
ferjur
ferki
ferli
ferlinum
ferlir
ferlið
ferlum
fermetra
fermetrar
fermi
fern
ferna
fernando
ferni
ferr
ferrari
fers
fersk
ferskt
fersku
ferskur
ferskvatni
ferst
ferð
ferða
ferðabo
ferðafe
ferðalag
ferðalagi
ferðalo
ferðama
ferðamanna
ferðamannastaður
ferðamenn
ferðamennska
ferðamennsku
ferðamo
ferðar
ferðarinnar
ferðaso
ferðast
ferðaðist
ferðaþjo
ferðbu
ferðin
ferðina
ferðinni
ferðir
ferðum
ferðuðust
fessor
fessors
fest
festa
festar
festast
festi
festir
festist
festival
festu
festuca
festur
fet
feta
fever
feyrissjo
feðga
feðgar
feðgarnir
feðlisfræði
feðra
feðranna
feður
ff
ffræði
ffræðigrein
ffræðingur
ffæra
ffærafræði
ffæri
fga
fgi
fgun
fh
fi
fianna
fiat
fiction
fide
fidel
field
fifa
fight
fighting
fil
file
files
filippi
filippseyja
filippseyjar
filippseyjum
filippus
filippusar
filippusi
fill
film
films
fimleikafe
fimm
fimmta
fimmtardo
fimmti
fimmtu
fimmtudagur
fimmtudegi
fin
fina
final
finance
financial
find
fine
fingri
fingrum
fingur
fingurinn
finn
finna
finnar
finnast
finnboga
finnbogado
finnbogason
finnbogi
finndu
finni
finnist
finnið
finnland
finnlandi
finnlands
finnmo
finns
finnsk
finnska
finnsku
finnskur
finnsson
finnst
finnum
finnur
finsen
finu
fir
fire
firefox
first
firði
firðinum
firðir
fis
fisch
fischer
fish
fishbase
fishburne
fisher
fisheries
fishery
fishes
fishing
fisk
fiska
fiskabu
fiskar
fiskarnir
fiskeldi
fiski
fiskimið
fiskinn
fiskjar
fisksins
fiskum
fiskur
fiskurinn
fiskveiða
fiskveiðar
fiskveiðum
fit
fita
fitu
fitusy
fitzgerald
five
fið
fiðla
fiðlu
fiðrildi
fja
fjall
fjalla
fjallagro
fjallaljo
fjallanna
fjallar
fjallað
fjallaði
fjallbu
fjallgarðinum
fjallgarður
fjallgarðurinn
fjallgo
fjalli
fjallinu
fjallið
fjalllendi
fjalls
fjallshli
fjallsins
fjalor
fjandans
fjandi
fjandinn
fjandskap
fjara
fjarlægja
fjarlægt
fjarlægð
fjarlægðar
fjarlægðir
fjarna
fjarri
fjarska
fjarsty
fjarverandi
fjarveru
fjarðabyggð
fjarðarins
fjaðrir
fjekk
fjeldsted
fjo
fjodor
fju
fjær
fk
fkjo
fl
fla
flag
flakk
flan
flar
flash
flaska
flatarma
flatey
flateyjarbo
flateyri
flatt
flatur
flaug
flaut
flauta
fle
flega
fleira
fleiri
fleirtala
fleirto
fleiru
fleirum
fleming
flensborg
flensborgarsko
flest
flesta
flestar
flestir
flestra
flestu
flestum
fleti
fletta
fleygir
fleygja
fleygt
fleygði
fli
flickr
flight
flissu
fljo
flju
flo
flogaveiki
flogið
flokk
flokka
flokkanna
flokkar
flokkarnir
flokkast
flokkað
flokkaðar
flokkaðir
flokkaður
flokki
flokkinn
flokknum
flokks
flokksins
flokksræði
flokksþingi
flokkum
flokkun
flokkur
flokkurinn
flokkuð
flora
floran
florence
florida
flosa
flosi
flot
flota
flotaforingi
flotann
flotans
flotanum
floti
flotinn
flower
flowers
floyd
flu
flug
fluga
flugan
flugasta
flugfe
flugher
flugherinn
flugho
flugi
flugma
flugmaður
flugna
flugri
flugslys
flugslysi
flugsto
flugt
flugtak
flugu
flugum
flugumy
flugur
flugvallarins
flugve
flugvelli
flugvellinum
flugvo
flum
flun
fluna
flunnar
flunni
flunum
flur
flurnar
flust
flutning
flutninga
flutningaskip
flutningi
flutningur
flutt
fluttar
flutti
fluttir
fluttist
fluttu
fluttur
fluttust
fly
flying
flynn
flyst
flytja
flytjast
flytjendur
flytur
flæddi
flæmingjalandi
flæmska
flæða
flæði
flæðir
fm
fn
fna
fnað
fnin
fnina
fninni
fnir
fnjo
fnu
fnum
fnun
fnunar
fnunarefni
fnunum
fnur
fnuð
fnuði
fnuðinn
fnuðinum
fnuðu
fnuður
fnuðurinn
fnuðust
fo
focus
fol
fold
foley
folk
folklore
fons
font
fontaine
food
foot
football
for
fora
forbes
force
ford
fordo
fordæmdi
fordæmi
foreign
foreldra
foreldrar
foreldrarnir
foreldri
foreldrum
forest
forestry
forests
forever
forfaðir
forfeður
forfo
forgang
forgo
foringi
foringja
forkeppni
forla
forlag
forlagið
forlo
form
forma
formann
formanni
formanns
format
formation
formaður
formenn
formennsku
former
formerki
formi
forminu
formið
formleg
formlega
formlegar
formlegt
formlegu
formlegum
formlegur
formo
forms
formu
formum
forn
forna
fornafn
fornaldar
fornaldarheimspeki
fornaldarso
fornar
fornbo
fornbre
fornenska
fornfræðafe
fornfræði
fornfræðigrein
fornfræðingur
forngri
forni
fornir
fornleifafe
fornleifafræði
fornleifafræðingar
fornleifafræðingur
fornleifar
fornleifarannso
fornleifaskra
fornleifastofnun
fornleifauppgro
fornminjar
forno
fornra
fornrit
fornritafe
fornso
fornt
fornu
fornum
forra
forre
forrest
forrestii
forrit
forrita
forriti
forritinu
forritið
forritsins
forritum
forritun
forritunarma
forræði
forsenda
forsendu
forsendum
forsendur
forseta
forsetaefni
forsetaembætti
forsetaembættinu
forsetaembættið
forsetaframbjo
forsetaframboð
forsetafru
forsetakosninga
forsetakosninganna
forsetakosningar
forsetakosningarnar
forsetakosningum
forsetakosningunum
forsetann
forsetans
forsetanum
forsetar
forsetaræði
forsetasto
forsetati
forseti
forsetinn
forsi
forsja
forskot
forsma
forso
forspa
forster
forstjo
forsto
forsvari
forsvarsmaður
forsæti
forsætisra
fort
forti
forto
fortune
forum
forvali
forvera
forverar
forveri
forvitnast
forvitni
forviða
forystu
forða
forðast
forðum
fosfo
foss
fossa
fossar
fossi
fossil
fossinn
fossinum
fossvogi
foster
fotboltalid
fotbolti
foucault
found
foundation
four
fournier
fox
fr
fra
frac
fragaria
frakka
frakkakonungi
frakkakonungs
frakkakonungur
frakkar
frakkland
frakklandi
frakklands
frakklandsdrottning
fram
frama
framan
framandi
framar
framarar
framarlega
frambjo
framboð
framboði
framboðið
framboðs
framboðslista
framburð
framburði
framburður
framdi
framfara
framfarir
framferði
framfo
framfylgja
framfylgt
framfæri
framgang
framgengt
framgo
framhald
framhaldandi
framhaldi
framhaldinu
framhaldið
framhaldsmynd
framhaldsna
framhaldssko
framherji
framhja
framhlið
framin
framið
framkalla
framkoma
framkomu
framkvæma
framkvæmd
framkvæmda
framkvæmdar
framkvæmdarstjo
framkvæmdastjo
framkvæmdavald
framkvæmdavaldið
framkvæmdi
framkvæmdir
framkvæmdum
framkvæmir
framkvæmt
framl
framlag
framleidd
framleiddar
framleiddi
framleiddir
framleiddu
framleiddur
framleitt
framleiða
framleiðanda
framleiðandi
framleiðendum
framleiðendur
framleiðir
framleiðni
framleiðsla
framleiðslan
framleiðslu
framleiðslustjo
framleiðsluþa
framlengingu
framlo
frammi
frammistaða
frammisto
framra
framsetning
framsetningu
framso
framsækið
framti
framu
framvegis
framvindu
framþro
frana
franc
france
frances
francesco
franch
francis
francisco
franco
frank
franka
frankari
frankfurt
franki
franklin
franquin
frans
fransk
franska
franskar
franski
franskir
franskra
franskri
franskt
franskur
franz
frar
fraterna
fraxinus
fre
fred
freddie
freddy
frede
frederick
frederik
frederiksen
fredrik
free
freedom
freeman
frege
fregn
fregnir
freiburg
freiga
freista
frekar
frekara
frekari
frelsa
frelsað
frelsaði
frelsi
frelsis
frelsisstri
frelsið
frelsun
fremi
fremja
fremri
fremst
fremsta
fremsti
fremstu
fremstur
fremur
french
freshwater
frest
fresta
frestað
fresti
frett
frettabladid
frettir
freud
freuds
frey
freyja
freyju
freyr
freys
freysteinn
fri
friday
friedman
friedrich
friends
friendship
frigg
friis
fritillaria
fritsch
fritz
frið
friðar
friðarra
friðarsa
friðarsamkomulag
friðarsamninga
friðarsamningum
friðarsinni
friðarti
friðarverðlaun
friðarverðlauna
friðað
friðaður
friðbjo
friðhelgi
friði
friðinn
friðjo
friðland
friðly
friðrik
friðriki
friðriks
friðriksdo
friðriksson
friðrikssonar
friðsamlega
friður
friðurinn
friðuð
friðþjo
frja
frjo
fro
froese
from
front
froskur
frost
frosti
fru
frum
fruma
fruman
frumbjarga
frumbyggja
frumbyggjama
frumbyggjar
frumbyggjum
frumdy
frumefna
frumefni
frumefnið
frumeind
frumeinda
frumeindir
frumflutt
frumkvo
frumkvæði
frumlag
frumma
frumna
frumraun
frumsko
frumspeki
frumsy
frumto
frumu
frumuli
frumum
frumunnar
frumur
frumurnar
frumvarp
frumvarpi
frumvarpinu
frumvarpið
frumvo
frungur
frv
fry
frysta
frystihu
fræ
fræg
fræga
frægan
frægar
frægasta
frægasti
frægastur
frægir
frægra
frægt
frægu
frægum
frægur
frægust
frægustu
frægð
frægðar
fræin
fræjum
fræknu
fræn
frænda
frændi
frændsemi
frændum
frændur
frænka
frænku
frænt
frænum
fræða
fræðast
fræði
fræðigrein
fræðigreinar
fræðiheiti
fræðiheitið
fræðileg
fræðilega
fræðimanna
fræðimaður
fræðimaðurinn
fræðimenn
fræðimo
fræðirit
fræðsla
fræðslu
fræðum
fs
fsa
fsgæða
fsgæði
fsins
fskjo
fsli
fso
fsro
fssti
fst
fsti
ft
fti
ftir
ftum
ftur
ftækni
fu
fua
fufe
fufyrirtæki
fufyrirtækið
fuga
fugl
fugla
fuglagrein
fuglali
fuglar
fuglarnir
fuglinn
fuglum
fugt
fujian
fujimori
fulham
fulinn
full
fulla
fullan
fullar
fullbu
fuller
fullinn
fullir
fullkomin
fullkominn
fullkomið
fullkomlega
fullkomna
fullnægja
fullnægjandi
fullnægt
fullorðin
fullorðinn
fullorðinna
fullorðinsa
fullorðinsfræðslu
fullorðna
fullorðnir
fullorðnum
fullri
fulls
fullstory
fullt
fullti
fulltru
fullu
fullum
fullur
fullvalda
fullvaxta
fullveldi
fullvi
fullyrt
fullyrða
fullyrðing
fullyrðingar
fullyrðingu
fullþroska
fum
fun
funa
function
fund
funda
fundar
fundare
fundargerð
fundarins
fundarnir
fundarre
fundarstjo
fundaði
fundi
fundin
fundinn
fundinum
fundir
fundist
fundizt
fundið
fundnaland
fundnalandi
fundnalands
fundu
fundum
fundur
fundurinn
fundust
fungi
funk
funnar
funni
funum
fuoli
fur
fura
furinn
furleg
furlega
furnar
fursta
furstadæmi
furstadæmin
furstadæmið
fursti
furstinn
furu
furutegund
furða
furðaði
furðu
fust
future
fuzhou
fuð
fuða
fuðbo
fuðborg
fuðborgar
fuðborgarinnar
fuðborgarsvæðinu
fuðborgarsvæðisins
fuðborgarsvæðið
fuðborgin
fuðborgina
fuðborginni
fuðið
fuðku
fuðs
fuðsmaður
fuðstað
fuðstaður
fuðsto
fuðu
fv
fvera
fveru
fverum
fverur
fviður
fvo
fy
fylgd
fylgdar
fylgdarsveinninn
fylgdi
fylgdist
fylgdu
fylgi
fylgikona
fylgir
fylgis
fylgismenn
fylgismo
fylgist
fylgja
fylgjandi
fylgjast
fylgjendur
fylgjur
fylgsni
fylgst
fylgt
fylki
fylkin
fylking
fylkinga
fylkingar
fylkingu
fylkinu
fylkir
fylkis
fylkisins
fylkisstjo
fylkið
fylkja
fylkjanna
fylkjum
fylla
fyllilega
fyllingu
fyllir
fyllt
fyllti
fylltist
fyndi
fyndist
fyr
fyri
fyrir
fyrirbæra
fyrirbæri
fyrirbærum
fyrirfinnst
fyrirfram
fyrirgefa
fyrirgefningar
fyrirheit
fyrirhugað
fyrirhuguð
fyrirkomulag
fyrirlesari
fyrirlestra
fyrirlestrar
fyrirlestrum
fyrirlestur
fyrirliði
fyrirmynd
fyrirmyndar
fyrirmyndin
fyrirmyndir
fyrirmæli
fyrirmælum
fyrirrennari
fyrirru
fyrirsja
fyrirskipað
fyrirskipaði
fyrirso
fyrirspurn
fyrirsæta
fyrirtæki
fyrirtækin
fyrirtækinu
fyrirtækis
fyrirtækisins
fyrirtækið
fyrirtækja
fyrirtækjagrein
fyrirtækjum
fyrirvara
fyrndinni
fyrr
fyrra
fyrri
fyrrnefnda
fyrrnefndu
fyrrum
fyrrv
fyrrverandi
fyrst
fyrsta
fyrsti
fyrstir
fyrstu
fyrstur
fæ
fædd
fæddi
fæddir
fæddist
fæddur
fæddust
fækka
fækkað
fækkaði
fækkun
fæla
fær
færa
færast
færeyinga
færeyingar
færeyja
færeyjar
færeyjum
færeysk
færeyska
færeysku
færeyskur
færi
færir
færist
færni
færri
færslu
færst
fært
færu
færð
færðar
færði
færðist
færðu
færður
færðust
fæst
fæstir
fæti
fætinum
fætt
fætur
fæturna
fæturnir
fæða
fæðan
fæðast
fæði
fæðing
fæðingar
fæðingu
fæðir
fæðist
fæðst
fæðu
fæðuo
fð
fða
fðanum
fðar
fðastro
fðaði
fðaður
fði
fðingi
fðinginn
fðingja
fðingjann
fðingjans
fðingjar
fðingjarnir
fðingjum
fðinu
fðu
fðum
fðust
føroya
g
ga
gabon
gabri
gabriel
gabrielle
gaddafi
gael
gaf
gafst
gagea
gagn
gagna
gagnagrunnur
gagnasafn
gagnast
gagnfræðasko
gagni
gagnleg
gagnlegt
gagnry
gagns
gagnstæða
gagnvart
gaius
gakk
gal
gala
galar
galaxy
galdra
galdrama
galdramaður
galdramenn
galdri
galdur
gale
galega
gali
galilei
galileo
galir
galisi
galium
gall
galla
gallagher
gallar
gallen
galleri
gallery
galli
gallus
gals
galska
galskonungur
galskur
galt
gamall
gamalla
gamalli
gamalt
gaman
gamanleikari
gamanmynd
gamans
gamanseri
gamanþa
gambi
game
games
gamla
gamlan
gamlar
gamle
gamli
gamlir
gamma
gamni
gan
gana
ganda
gandhi
gandi
gang
ganga
gangan
gangandi
gangast
gangi
gangið
gangleri
gangsett
gangste
gangur
gansu
ganti
gar
garci
garcia
gard
garden
gardens
gardner
garho
garibaldi
garins
garnir
garrett
gary
garð
garða
garðabru
garðabæ
garðabær
garðar
garðari
garðarsson
garði
garðinn
garðinum
garðshorni
garðsins
garður
garðurinn
gas
gasastro
gasi
gast
gat
gata
gatan
gate
gates
gatnamo
gaukur
gaulle
gaum
gaus
gauss
gautaborg
gauti
gautland
gautlandi
gautur
gavin
gay
gazeta
gað
gb
gberg
gbergi
gbo
gbu
ge
gear
gef
gefa
gefast
gefi
gefin
gefinn
gefist
gefið
gefnar
gefnir
gefnu
gefr
gefst
gefur
gefðu
gegn
gegna
gegndi
gegndu
gegni
gegnir
gegnt
gegnum
geim
geimfar
geimfari
geimfarinu
geimfarið
geimferðastofnun
geimfo
geiminn
geimko
geimnum
geimskutlan
geimsto
geir
geira
geiri
geirmundur
geirro
geirs
geirsdo
geirsson
geirþjo
geisaði
geisla
geisladiskur
geislar
geislavirkni
geisli
geislun
geit
geitur
gekk
gekkst
geli
gellir
gen
gena
gender
gene
genera
general
generation
genes
genesis
genetic
genetics
genf
geng
gengdi
gengi
gengin
genginn
gengis
gengið
gengju
gengr
gengt
gengu
gengum
gengur
genome
gent
genu
genus
geoffrey
geographic
geographical
geographische
geography
geological
georg
george
georges
georgetown
georgi
georgia
georgs
geothermal
ger
gera
gerald
geranium
gerard
gerast
gerhard
geri
gerir
gerist
gerið
gerjun
gerla
gerlar
germain
german
germanska
germanskt
germany
germo
germplasm
gerry
gersemar
gersemi
gerst
gert
gertrude
gerum
gervi
gervigreind
gervihno
gerð
gerða
gerðar
gerðardo
gerði
gerðin
gerðinni
gerðir
gerðist
gerðu
gerðum
gerður
gerðust
gest
gesta
gestahlutverk
gestahlutverki
gestaleikari
gesti
gestir
gestirnir
gests
gestsson
gestum
gestur
gesturinn
get
geta
getað
getga
geti
getir
getið
gets
gettu
getu
getum
getur
geturðu
geyma
geymd
geymdar
geymdi
geymdur
geymir
geymslu
geymt
geysaði
geð
geði
geðklofa
geðsju
gfræði
gfræðigrein
gfræðinga
gfræðingur
gfræðipro
gg
gga
ggi
ggiltur
ggið
ggjafar
ggjafarvald
ggjafarvaldið
ggjafarþing
ggjafarþingi
ggjo
gglega
ggnir
ggs
ggt
ggu
ggum
ggur
ggva
ggvara
ggvari
ggvast
ggvin
ggvinn
ggvið
ggæslu
gho
ghost
gi
giant
gibbs
gibson
gifst
gift
gifta
giftar
giftast
gifti
giftingu
giftist
giftu
giftur
giftust
gil
gilbert
gild
gilda
gildandi
gildar
gildi
gildir
gildisto
gildið
gildrur
gildum
gildur
giles
gilgames
gili
gilinu
gilið
gilla
gilmour
gils
gilsa
gilsbakka
gilsson
gilt
gilti
giltu
gimli
gimsteinum
gin
gina
ginn
ginseng
ginu
ginum
giorgio
giovanni
gir
girl
girls
girnd
gissur
gissurar
gissurardo
gissurarson
gissuri
gista
gisti
gistihu
gisting
gistingar
gistingu
giuseppe
give
gið
gja
gjafar
gjafir
gjald
gjalda
gjaldi
gjaldkeri
gjaldmiðil
gjaldmiðill
gjaldmiðla
gjaldþrot
gjaldþrota
gjarn
gjarna
gjarnan
gjo
gjuhe
gl
gla
glacier
gladstone
glanni
glas
glasgow
glasið
glass
glatast
glatað
glataði
glatkistan
glatt
glauca
glaumbæ
glaðir
glaður
glee
gleg
glega
glegt
glegum
glegur
glendi
glenn
gler
glera
gleraugu
gleri
glerið
gleyma
gleymdi
gleymir
gleymt
gleypa
gleði
gleðjast
gli
gliese
glitni
glitnir
glitnis
glja
glju
glo
global
globalization
globe
glock
gloria
glory
glossary
glossolepis
gloucester
glu
glugga
gluggann
glugganum
gluggar
gluggi
glugginn
gluggum
glum
gly
glymur
glæp
glæpi
glæpum
glæpur
gma
gmail
gmann
gmanni
gmanns
gmarki
gmaður
gmenn
gmundar
gmundur
gmæti
gn
gna
gnar
gnarr
gnað
gni
gnin
gnina
gninni
gno
gnu
gnum
gnun
gnunum
gnuð
gnuði
gnuðu
gnuður
gnvalds
gnvaldsson
gnvaldur
gny
gnæfir
go
god
goebbels
goes
goethe
gogg
gogn
going
gold
golden
goldið
goldwater
golf
golfklu
golfvo
gone
gonza
good
goodbye
goodman
google
gorbatsjev
gorbatsjov
gordon
gore
gormdy
gormur
gos
goscinny
gosi
gosinu
gosið
gospel
gossip
got
gotnesk
gotneska
gotnesku
gotneskum
gott
gottfried
gottlob
gottorp
gottska
goulart
gould
gov
government
goð
goða
goðafoss
goðafræði
goði
goðin
goðorð
goðorðsmaður
goðso
gps
gr
gra
grace
graf
grafa
grafar
grafarvogi
grafhy
grafi
grafin
grafinn
grafir
grafið
grafnar
grafnir
graham
gram
gramm
grammar
grammy
gramota
gramr
gran
granada
grand
granda
grande
grandi
grani
granna
grannalo
grannar
grannari
granni
grant
grapevine
grar
gras
grasa
grasafræði
grasafræðigrein
grasafræðingar
grasafræðingur
grasi
grasið
grasker
graslendi
grasro
grass
graut
gray
graz
gre
great
greatest
greece
greek
green
greene
greenland
greenwich
greenwood
grefur
greg
gregla
greglan
greglu
greglumaður
greglumenn
gregluna
greglunnar
greglunni
greglustjo
greglusto
gregluþjo
gregori
gregory
greidd
greiddi
greiddra
greiddu
greifa
greifanna
greifarnir
greifi
greifinn
grein
greina
greinar
greinargerð
greinarinnar
greinarmun
greinarmunur
greinarnar
greinasafn
greinast
greind
greindar
greindi
greindist
greindu
greindur
greini
greinileg
greinilega
greinin
greinina
greining
greiningar
greinings
greiningu
greiningur
greininni
greinir
greinist
greinst
greint
greinum
greip
greitt
greiða
greiðir
greiðslu
greiðslum
greiðslur
grenada
grenadi
greni
grenivi
grenjaðarstað
grennd
grenni
grenninu
gresi
greta
grettir
grettis
grey
gri
griffin
grikkir
grikkja
grikkjum
grikkland
grikklandi
grikklands
grimm
grimmd
grimmur
grin
grind
grindavi
grip
gripa
gripi
gripina
gripir
gripið
gripsgrein
gripu
gripum
gripur
gris
grisdy
grið
griða
grjo
gro
ground
group
groups
grove
growing
growth
gru
grum
grun
gruna
grunar
grunað
grunaði
grunaður
grund
grundar
grundarfirði
grundarfjo
grundtvig
grundu
grundvallar
grundvallaratriði
grundvallaratriðum
grundvallarlo
grundvelli
grundvo
grunn
grunna
grunnavi
grunni
grunninn
grunnna
grunnsko
grunnsævi
grunnt
grunnto
grunnum
grunnur
grunnurinn
grunnvatn
grunur
gry
grynni
grækt
græktar
græktarfe
græktin
græn
græna
grænar
grænho
græni
grænir
grænland
grænlandi
grænlands
grænlendinga
grænlenska
grænlensku
grænmeti
grænn
grænna
grænni
græns
grænt
grænu
grænum
grænþo
grætt
grætur
græða
gs
gsborg
gsky
gslu
gslubiskup
gsm
gso
gsstro
gsto
gt
gu
guangdong
guangxi
guangzhou
guardian
guatemala
guernsey
guez
gufa
gufall
gufalli
gufan
gufe
gufu
gufunesi
gufuska
gufuve
gugrein
guha
guho
gui
guide
guido
guild
guillaume
guinea
guinness
guitar
guizhou
gul
gula
gular
gulbru
guleg
gulega
gulegan
gulegar
gulegra
gulegt
gulegu
gulegum
gulegur
guleika
guleikann
guleikar
guleiki
guleikinn
guleikum
guli
gulir
guljo
gull
gullbra
gullbringusy
gullfo
gullfoss
gullhring
gulli
gullintoppuætt
gullinu
gullið
gullko
gullna
gullnu
gullo
gulls
gullsko
gullsto
gullverðlaun
gullverðlauna
gulro
gulrætur
gult
gulu
gulum
gulur
gum
gumanns
gumaður
gun
guna
gunar
gunn
gunna
gunnar
gunnari
gunnars
gunnarsdo
gunnarsson
gunnarssonar
gunnarssyni
gunnhildar
gunnhildur
gunni
gunnlaugs
gunnlaugsdo
gunnlaugsson
gunnlaugssonar
gunnlaugur
gunnsteinn
gunum
guo
guperso
gur
gurinn
gurlega
gurnar
gurra
guru
gus
gusafn
guso
gust
gustaf
gustav
gusvið
gutenberg
guti
guttormsson
guttormur
guy
guð
guðanna
guðbjartur
guðbjo
guðbrands
guðbrandsson
guðbrandur
guðdo
guðfinna
guðfræði
guðfræðingur
guði
guðinn
guðir
guðirnir
guðjo
guðjohnsen
guðlast
guðlaug
guðlaugsson
guðlaugur
guðmund
guðmundar
guðmundi
guðmundr
guðmundsdo
guðmundsson
guðmundssonar
guðmundssyni
guðmundur
guðna
guðnado
guðnason
guðni
guðny
guðri
guðro
guðru
guðs
guðsþjo
guðum
guþra
gvam
gvatemala
gvaxin
gve
gvendur
gvo
gvæ
gvæjana
gy
gyldendal
gylfa
gylfason
gylfi
gymnosperm
gyrðir
gys
gyða
gyðinga
gyðingar
gyðingaættum
gyðingdo
gyðingum
gyðingur
gyðja
gæfa
gæfi
gæfu
gæludy
gælunafn
gælunafnið
gær
gærkvo
gæs
gæt
gæta
gæti
gætir
gætis
gætlega
gætt
gætti
gættu
gætu
gætum
gætur
gæða
gæði
gæðum
gð
gði
gðin
gðist
gðu
gðum
gður
gðust
gþy
h
ha
haag
haarde
haarlem
habsborg
habsborgara
habsborgarar
hackett
had
hadi
hadiaty
hadri
haf
hafa
hafast
hafdi
hafi
hafin
hafinn
hafinu
hafir
hafist
hafið
hafliða
hafliði
hafna
hafnar
hafnarborg
hafnarfirði
hafnarfjarðar
hafnarfjo
hafnarha
hafnarinnar
hafnarstræti
hafnað
hafnaði
hafni
hafnir
hafrannso
hafs
hafsbotni
hafsins
hafskip
hafskips
hafstein
hafsteinn
hafsteinsdo
hafsteinsson
hafsvæði
haft
hafðar
hafði
hafðir
hafðist
hafðu
hafður
hafþo
hag
haga
hagali
hagar
hagasko
hagfræði
hagfræðigrein
hagfræðinga
hagfræðingar
hagfræðingur
hagfræðingurinn
hagfræðinnar
hagi
hagkerfi
hagkerfinu
hagkerfisins
hagkerfið
hagkvæmni
hagnast
hagnað
hagnaði
hagnaður
hagny
hagsmuna
hagsmunasamto
hagsmuni
hagsmunum
hagstjo
hagstofa
hagstofu
hagstæð
hagur
hagvo
hahn
hai
haile
hainan
haka
haki
hal
hala
halastjarna
halastjo
hald
halda
haldast
haldi
haldin
haldinn
haldist
haldið
haldnar
haldnir
halds
haldsflokksins
haldsflokkurinn
haldsmanna
haldsmenn
haldssamur
haldsso
haley
half
hali
halifax
hall
halla
hallandi
hallar
hallarinnar
hallast
hallaði
hallbera
hallbjo
halldo
halle
hallgerðar
hallgerði
hallgerður
hallgri
halli
hallir
hallo
halloween
halls
hallsson
hallsteinn
hallur
hallvarður
haltu
ham
hamar
hamarinn
hamborg
hamburg
hamdok
hameð
hameðs
hamid
hamilton
hamingja
hamingju
hamla
hamlet
hammond
hampshire
hamra
hamrahli
hamri
hamskipti
han
hana
hand
handa
handaho
handan
handar
handbo
handbolta
handbolti
handbook
handhafi
handi
handknattleik
handknattleiksa
handknattleiksmaður
handlegg
handlegginn
handleiðslu
handrit
handriti
handritin
handritinu
handritið
handrits
handritsho
handritsins
handritum
handsama
handsamaður
handtaka
handtekin
handtekinn
handteknir
handto
handverk
hanga
hangandi
hangir
hangzhou
hani
haninn
hann
hanna
hannah
hannað
hannaðar
hannaði
hannaður
hannes
hannesar
hannesarjurt
hannesdo
hannesi
hannesson
hannessonar
hannessyni
hanni
hannibal
hannibalsson
hannover
hanns
hannsdo
hannsson
hanover
hans
hansasambandið
hansen
hansson
happ
happy
har
hara
harald
haraldar
haraldi
haraldr
haralds
haraldsdo
haraldsson
haraldssonar
haraldur
haram
harbin
hard
hardy
hark
harka
harkalega
harla
harlem
harm
harma
harmi
harmleikur
harmur
harold
harpa
harper
harriet
harris
harrison
harry
harrys
hart
haru
harvard
harvey
harða
harðan
harðar
harðardo
harðari
harðarson
harðir
harðla
harðlega
harðli
harðra
harðri
harðstjo
harður
has
hassan
hastings
hat
hata
hate
hathloul
hatt
hattinn
hatturinn
hatur
haug
hauginn
haugur
hauk
hauka
haukadal
haukar
hauks
hauksdo
hauksson
haukur
haus
hausinn
hausku
hausnum
haust
hausti
haustin
haustið
have
havel
haven
hawaii
hawkins
hayek
hayes
hb
hc
hdr
he
head
health
heart
hearts
heath
heaven
heavy
hebei
hebreska
hebresku
hedw
hef
hefei
hefi
hefir
hefja
hefjast
hefna
hefnd
hefndarskyni
hefndi
hefnt
hefr
hefst
hefta
hefti
hefur
hefurðu
hefð
hefðbundin
hefðbundinn
hefðbundinna
hefðbundinni
hefðbundið
hefðbundna
hefðbundnar
hefðbundnu
hefðbundnum
hefði
hefðir
hefðu
hefðum
hegel
heggur
hegningarlaga
hegningarlo
hegða
hegðun
hegðunar
heidelberg
heil
heila
heilablo
heilaga
heilagan
heilagi
heilagra
heilagrar
heilagri
heilags
heilagt
heilagur
heilan
heilann
heilans
heilanum
heilar
heilbrigði
heilbrigðis
heilbrigðisma
heilbrigðisra
heilbrigðisvi
heilbrigðisþjo
heilbrigður
heild
heildar
heildarfjo
heildaru
heildi
heildina
heili
heilinn
heilir
heilkenni
heilkjo
heill
heilla
heillin
heilo
heilræði
heilsa
heilsar
heilsaði
heilsu
heilsugrein
heilt
heilto
heilu
heilum
heim
heima
heimabæ
heimaey
heimafo
heimahu
heimalandi
heimalandinu
heimaleiki
heimamanna
heimamenn
heimamo
heiman
heimasi
heimaslo
heimastjo
heimavelli
heimavo
heimdallur
heimi
heimil
heimila
heimilanna
heimilað
heimilaði
heimild
heimilda
heimildamynd
heimildarmynd
heimildin
heimildir
heimildum
heimili
heimilinu
heimilis
heimilisfo
heimilið
heimilt
heimilum
heiminn
heiminum
heimir
heimkomu
heimkomuna
heimkynni
heimkynnum
heimleið
heimleiðinni
heimleiðis
heims
heimsa
heimshluta
heimsins
heimskringla
heimskringlu
heimsku
heimsmeistarakeppni
heimsmeistaramo
heimsmeistarar
heimsmeistari
heimsmet
heimsminjaskra
heimsmynd
heimso
heimspeki
heimspekideild
heimspekigrein
heimspekileg
heimspekinga
heimspekingar
heimspekinginn
heimspekingnum
heimspekingsins
heimspekingur
heimspekingurinn
heimspekinnar
heimsstyrjaldar
heimsstyrjaldarinnar
heimsstyrjo
heimssy
heimstyrjaldarinnar
heimstyrjo
heimsvaldastefnu
heimsveldi
heimsveldinu
heimsveldisins
heimsveldið
heimsvi
heimsækir
heimsækja
heimta
heimtar
heimur
heimurinn
heinesen
heinrich
heinz
heit
heita
heitan
heitar
heiti
heitin
heitinu
heitir
heitisins
heitið
heitt
heitu
heitum
heitur
heiða
heiðar
heiði
heiðin
heiðina
heiðinn
heiðinna
heiðinni
heiðlo
heiðmo
heiðna
heiðni
heiðnir
heiðnu
heiðnum
heiðra
heiðri
heiður
heiðurinn
heiðurs
heiðursdoktor
heiðursfe
heiðursmerki
heiðursverðlaun
hekla
heklu
hektara
hektarar
hel
held
heldr
heldri
heldur
heldurðu
helen
helena
helenu
helfo
helga
helgado
helgafell
helgafelli
helgafellsklaustri
helgan
helgar
helgarpo
helgason
helgasonar
helgað
helgaði
helgaður
helgenberger
helgi
helgido
helgina
helgra
helgu
helgum
helguð
heli
heljar
helju
hell
hella
hellar
helleni
hellenistic
heller
helli
hellinn
hellinum
hellir
hellirinn
hellirnum
hellisheiði
hello
hellsing
hellt
hellti
hellu
hellum
helming
helmingi
helminginn
helmingunarti
helmingur
helmut
help
helsinki
helst
helsta
helsti
helstu
helvi
helzt
henan
henda
henderson
hendi
hendina
hendinni
hendir
hendr
hendrik
hendur
hendurnar
hengdir
hengdur
hengifoss
hengja
hengt
hennar
henni
henning
henri
henrik
henry
hent
henta
hentar
hentað
hentaði
henti
hentugt
heppinn
heppnast
heppni
her
hera
herafla
herald
herb
herbaria
herbergi
herberginu
herbergið
herbert
herbu
herdeild
herdeildir
herdi
here
herferð
herflugve
herfo
herforingi
herforinginn
herforingja
herforingjar
herforingjastjo
herforingjum
herge
hergo
heri
herinn
herir
heritage
herja
herjaði
herjo
herjum
herjuðu
herlið
herliði
herlo
herma
herman
hermann
hermanna
hermanns
hermannsson
hermaður
hermaðurinn
hermenn
hermennirnir
hermione
hermo
herna
hernað
hernaðar
hernaðara
hernaðarlega
hernaði
hernum
hernumið
hero
heroes
herra
herrann
hers
hersego
hersetu
hershkovitz
hersho
hersins
hersis
herska
herskip
herskipum
hersko
hersla
herslan
herslu
herslum
herslur
herstjo
hersto
hersveitir
hersveitum
hertaka
hertekin
hertekið
herti
herto
hertoga
hertogadæmi
hertogadæminu
hertogadæmisins
hertogadæmið
hertogans
hertogaynja
hertogi
hertoginn
hervaldi
herzog
herða
herðar
herðir
herðum
herþjo
hess
hessen
hest
hesta
hestana
hestar
hestarnir
hestbaki
hesthu
hesti
hestinn
hestinum
hests
hestsins
hestum
hestunum
hestur
hesturinn
het
hetja
hetjan
hetjur
hey
heygður
heyi
heyið
heyja
heyr
heyra
heyrast
heyri
heyrir
heyrist
heyrið
heyrn
heyrt
heyrði
heyrðist
heyrðu
heyrðust
hf
hi
hicks
hieracium
high
higher
hilary
hildar
hildegard
hildi
hildigunnur
hildur
hill
hillary
hilleman
hills
hilluna
hilmar
hilmarsson
hilmir
him
himalaja
himalajafjo
himin
himininn
himinn
himins
himmler
himna
himnari
himneska
himni
himninum
himnum
hin
hina
hinar
hindenburg
hindi
hindra
hindranir
hindrar
hindrað
hindrun
hindu
hingað
hinir
hinn
hinna
hinnar
hinni
hinrik
hinriks
hinriksson
hins
hinsegin
hinsvegar
hinu
hinum
hinumegin
hip
hipp
hippo
hippocampus
hiroshima
hirti
hirð
hirða
hirðarinnar
hirðina
hirðinni
hirðir
hirðmaður
hirðmenn
hirðstjo
his
hispani
hissa
hist
histoire
historia
historical
historie
history
hit
hita
hitabeltinu
hitastig
hitastigi
hitastigið
hitasvæði
hitaveita
hitaveitu
hitað
hitchcock
hiti
hitinn
hitler
hitlers
hitnar
hits
hitt
hitta
hittast
hitti
hittir
hittist
hittu
hittust
hiv
hið
hja
hjalta
hjaltadal
hjaltali
hjaltason
hjalteyri
hjalti
hjarta
hjartaa
hjartagrasaætt
hjartans
hjartanu
hjartardy
hjartarson
hjartasju
hjartavo
hjartað
hjartsla
hjarðarholti
hjer
hjo
hju
hjuggu
hk
hl
hla
hlaup
hlaupa
hlaupandi
hlaupi
hlaupið
hlaupum
hlaut
hlaða
hlaði
hlaðin
hlaðinn
hlaðinu
hlaðið
hlaðnar
hle
hlekkur
hleypa
hleypir
hleypt
hleypti
hleypur
hleðslu
hli
hlið
hliða
hliðar
hliðin
hliðina
hliðinni
hliðinu
hliðið
hliðsjo
hliðum
hljo
hlo
hlotið
hlu
hlupu
hlusta
hlustað
hlustaði
hlut
hluta
hlutabre
hlutafe
hlutafja
hlutann
hlutanum
hlutar
hlutarins
hlutaðeigandi
hlutbundin
hlutdeild
hlutfall
hlutfalli
hlutfallið
hlutfallslega
hlutfallsto
hlutfo
hluti
hlutina
hlutinn
hlutir
hlutirnir
hlutlaus
hlutlaust
hlutleysi
hlutmengi
hlutskipti
hlutu
hlutum
hlutun
hlutur
hluturinn
hlutverk
hlutverki
hlutverkið
hlutverkum
hly
hlyna
hlynntur
hlynur
hlyti
hlæja
hlær
hm
hms
hnakka
hnappinn
hne
hneyksli
hneykslisma
hni
hnignaði
hnignun
hnit
hnju
hno
hnoða
hnoðað
hnu
hny
ho
hobbes
hodge
hof
hoffman
hoffmann
hofi
hofið
hofsa
hofsjo
hofso
hogwarts
hokkaido
hol
hola
hold
holdi
holdinu
holdsveiki
holdsveikraspi
hole
holiday
holl
holland
hollande
hollandi
hollands
hollendinga
hollendingar
hollendingum
hollensk
hollenska
hollenski
hollensku
hollenskum
hollenskur
hollustu
holly
hollywood
holm
holmes
holstein
holt
holtavo
holti
holtsetaland
holtsetalandi
holu
holum
holur
holy
home
homer
homme
homo
hon
hondu
honey
hong
honshu
honum
hook
hooker
hoover
hop
hope
hopkins
hopp
hoppa
horatio
horf
horfa
horfenda
horfendum
horfendur
horfin
horfinn
horfir
horfið
horfnir
horft
horfur
horfði
horfðu
hormo
horn
hornafirði
hornafjo
horni
hornin
horninu
hornið
hornjoserbsko
hornre
hornsi
hornsteinn
hornstro
hornum
horror
horse
hort
horta
horticultural
hospital
hot
hotel
hotspur
houghton
hour
house
houston
how
howard
howell
hoya
hr
hra
hrafn
hrafna
hrafnar
hrafnhildur
hrafni
hrafninn
hrafns
hrafnsson
hrakinn
hrakti
hraktir
hraktist
hrannar
hrapaði
hrappsey
hrappur
hratt
hraun
hraunfossar
hrauni
hrauninu
hraunið
hraunsins
hraunum
hraut
hraða
hraðar
hraðari
hraðbraut
hraði
hraður
hrefna
hrein
hreina
hreinan
hreindy
hreinlega
hreinlæti
hreinn
hreinni
hreinsa
hreinsað
hreinsun
hreint
hreinu
hreinum
hreistur
hreiðar
hreiðrið
hreiður
hrekja
hreppa
hreppnum
hreppsnefnd
hreppsnefndarkosningar
hreppstjo
hreppti
hreppur
hreppurinn
hreyfa
hreyfast
hreyfing
hreyfingar
hreyfingarinnar
hreyfingin
hreyfingu
hreyfingum
hreyfinguna
hreyfingunni
hreyfist
hreyft
hreysti
hri
hrif
hrifa
hrifamesta
hrifamesti
hrifamestu
hrifamikill
hrifari
hrifasvæði
hrifavaldur
hrifin
hrifinn
hriflu
hrifum
hrinda
hring
hringa
hringadro
hringbraut
hringdi
hringi
hringinn
hringir
hringja
hringlaga
hringnum
hringra
hrings
hringsins
hringt
hringur
hringurinn
hristi
hrja
hrjo
hro
hross
hrossakjo
hrsg
hru
hrun
hrund
hrundi
hrundið
hrundu
hruni
hrunið
hrvatski
hrygg
hryggdy
hryggur
hryggð
hrygna
hrygnir
hrynja
hrynjandi
hryðjuverk
hryðjuverkaa
hryðjuverkaho
hryðjuverkamenn
hryðjuverkasamto
hryðjuverkin
hryðjuverkum
hræ
hrædd
hræddir
hræddur
hræra
hrærekur
hrært
hræða
hræðast
hræðist
hræðslu
hs
hsh
htm
html
http
https
hu
hua
huang
hubble
hubei
hubert
hudson
hug
huga
hugafo
hugama
hugamanna
hugamaður
hugamenn
hugann
huganum
hugar
hugasamur
hugavert
hugað
hugbu
hugga
hugh
hughes
hugi
huginn
hugleikur
hugleiðingar
hugmynd
hugmynda
hugmyndafræði
hugmyndin
hugmyndina
hugmyndinni
hugmyndir
hugmyndum
hugo
hugrekki
hugsa
hugsandi
hugsanir
hugsanleg
hugsanlega
hugsanlegt
hugsar
hugsað
hugsaði
hugsi
hugsjo
hugspeki
hugsun
hugsunar
hugsunum
hugsuð
hugsuðu
hugsuður
hugtak
hugtakinu
hugtakið
hugtaksins
hugto
hugum
hugur
hugverkare
hugvi
hugði
hugðist
hugðu
hugðust
hui
huld
hulda
huldu
huldufo
huldukonan
hulið
hull
human
humar
humarinn
humboldt
hume
humes
humlum
humphrey
hun
hunan
hunang
hund
hunda
hundar
hundi
hundinn
hundinum
hundrað
hundraða
hundruð
hundruðum
hundum
hundur
hundurinn
hungri
hungur
hungursneyð
hunt
hunter
hurfu
hurð
hurðina
hurðinni
hus
hussein
huxley
hva
hval
hvala
hvalfirði
hvalfjo
hvali
hvalir
hvalsto
hvalur
hvalurinn
hvalveiðar
hvamm
hvammi
hvammstanga
hvammur
hvanneyri
hvar
hvarf
hvarfast
hvarfi
hvarvetna
hvasst
hvat
hvata
hvati
hvatningu
hvatt
hvatti
hvattir
hvað
hvaða
hvaðan
hve
hveiti
hvekkur
hvenær
hver
hveragerði
hverfa
hverfi
hverfinu
hverfisgo
hverfisins
hverfið
hverft
hverfum
hverfur
hvergi
hverir
hverja
hverjar
hverjir
hverju
hverjum
hvern
hvernig
hvernin
hverninn
hvernug
hverr
hverra
hverrar
hverri
hvers
hversu
hvert
hvetja
hvetur
hvi
hvo
hvolfdi
hvor
hvora
hvorir
hvorirtveggju
hvorki
hvorn
hvorri
hvors
hvort
hvorttveggja
hvortveggja
hvoru
hvorugkyn
hvorugt
hvorugur
hvorum
hvorutveggja
hvur
hvurgi
hvurju
hvurjum
hvurn
hvurnig
hvurnin
hvurt
hy
hyde
hygg
hyggja
hyggju
hyggjum
hyggjur
hyggst
hyggur
hygðist
hygðust
hylja
hylli
hylltur
hylur
hymenoptera
hyoscyamus
hyrningar
hyrningur
hyrningurinn
hyski
hz
hæ
hæfa
hæfi
hæfileika
hæfileikum
hæfir
hæfni
hæfur
hægar
hægfara
hægja
hægra
hægri
hægt
hægur
hækka
hækkandi
hækkar
hækkað
hækkaði
hækkaður
hækkun
hæl
hæli
hælis
hærra
hærri
hærð
hæst
hæsta
hæstare
hæsti
hæstire
hæstu
hætt
hætta
hættan
hætti
hættir
hættu
hættuleg
hættulegt
hættulegur
hættum
hættur
hæð
hæða
hæðin
hæðinni
hæðir
hæðo
hæðum
i
ia
ian
iana
iata
ibm
ibn
ibrahim
ic
ica
icao
ice
iceland
icelandair
icelandic
icesave
ich
icon
id
idaho
ideas
identification
identity
idol
ie
ieee
if
ii
iii
ija
ijshist
ijsselmeer
ijstops
ik
ikke
il
ili
ill
illa
illan
illgresi
illinois
illmenni
ills
illsku
illt
illu
illuga
illugi
illum
illur
illustrated
illviðri
ilm
ilmandi
ilmur
im
image
images
imdb
immanuel
impact
imperial
in
ina
inc
ind
independence
independent
index
indi
india
indian
indiana
indianapolis
indie
indja
indland
indlandi
indlands
indlandshafi
indo
indonesia
indriða
indriðason
indriði
industrial
industry
indverja
indversk
indverska
indversku
indverskum
indverskur
influ
influence
info
information
infty
ing
inga
ingar
ingason
inggris
ingi
ingibjargar
ingibjo
ingigerður
ingimar
ingimars
ingimarsson
ingimundarson
ingimundur
ingiri
ingjaldur
ingo
ingu
ingunn
ingvar
ingvarsdo
ingvarsson
ingveldur
ingvi
init
inn
inna
innan
innanborðs
innandyra
innanhu
innanlands
innanri
innar
innbla
innbyrðis
innflutning
innflutningi
innflutningur
innflytjenda
innflytjendum
innflytjendur
innfæddir
innfæddra
inngang
inngangi
inngangur
inngo
innheimta
inni
innihald
innihalda
innihaldi
innihaldið
innihe
inniheldur
innilega
innla
innleiddi
innleiða
innleiðingu
innlenda
innlendar
innlendra
innlendum
innlent
innlima
innlimað
innlimaði
innlimun
innlimuð
innlimuðu
inno
innovation
innra
innre
innreið
innri
innritaðist
innsbruck
innsigli
innst
innsta
innsti
innstæðna
innstæðueigenda
innstæðum
innstæður
innstæðutryggingar
innsy
inntak
innto
innviði
ins
insects
insert
inside
inst
instagram
institut
institute
institution
institutions
insu
int
integrated
intel
intellectual
intelligence
inter
interactive
international
internationale
internet
internetinu
internetið
internetova
internetsins
interview
into
introduction
inu
inui
invasive
investigation
io
ionare
ios
iowa
ip
ipa
ipad
iphone
ipod
ipv
ir
ira
iran
iraq
ireland
irene
iridi
iris
irish
iron
irving
is
isaac
isabel
isbn
isis
isla
islam
islamic
island
islandica
islands
islandsk
islandske
isles
islex
isma
ismi
iso
isoetes
israel
issid
issn
issue
issues
ist
istanbu
iswikiorðabo
it
italia
italian
italiana
italiano
italy
item
ithaca
itis
its
itunes
iucn
iucnredlist
iulis
iv
ivan
ivanka
ivy
ix
izt
ið
iðju
iðka
iðkun
iðn
iðnað
iðnaðar
iðnaðarborg
iðnaðarra
iðnaði
iðnaður
iðnbyltingarinnar
iðnbyltingin
iðnbyltingunni
iðno
iðnri
iðnsko
iðnvæðingu
iðnþro
iðrast
iðulega
iðunn
iðunnar
iðunni
j
ja
jack
jackson
jacob
jacobsen
jacques
jafn
jafna
jafnan
jafnar
jafnað
jafnaðarmanna
jafnaðarmannaflokksins
jafnaðarmenn
jafnaði
jafnframt
jafngildi
jafngildir
jafngo
jafnir
jafnmikið
jafnmo
jafno
jafnre
jafnræði
jafns
jafnskjo
jafnsnart
jafnt
jafntefli
jafnvel
jafnvægi
jag
jagu
jahrb
jake
jaklju
jakob
jakobi
jakobs
jakobsdo
jakobsson
jam
jamai
james
jamestown
jamie
jan
jane
janeiro
janet
jangtse
janney
janu
januar
january
jap
japan
japana
japanese
japanir
japans
japanska
japanskeisari
japanski
japanskt
japanskur
japo
japonica
jar
jared
jarl
jarla
jarlar
jarli
jarlinn
jarls
jartegnir
jarða
jarðabo
jarðar
jarðarber
jarðarfo
jarðarinnar
jarðaður
jarðefnaeldsneyti
jarðfræði
jarðfræðigrein
jarðfræðingur
jarðgo
jarðhita
jarðhiti
jarðhu
jarðir
jarðlo
jarðoli
jarðsett
jarðsettur
jarðskja
jarðskorpunni
jarðso
jarðsto
jarðveg
jarðvegi
jarðvegs
jarðvegur
jarðvi
jason
jasta
java
javascript
javier
jay
jazyka
jazykova
jazykovedne
jazz
jað
jaðar
jaði
jaðri
je
jean
jeanne
jeff
jefferson
jeffrey
jeg
jeltsi
jemen
jena
jenna
jenner
jenni
jennifer
jenny
jens
jensen
jensson
jepson
jeremy
jerome
jerry
jersey
jeru
jerusalem
jesse
jessica
jesu
jesus
jet
jethro
jewish
jezic
jezik
ji
jiang
jiangsu
jiangxi
jilin
jill
jim
jimmy
jin
jinping
jintao
jir
jo
joa
joachim
joan
job
jobs
jochumsson
joe
joel
joey
johan
johann
johannes
john
johnny
johns
johnsen
johnson
johnston
jon
jonas
jonathan
jones
jonestown
jong
jor
jordan
jorge
jose
josef
joseph
josh
joshua
jourbook
journal
journey
joy
joyce
jpg
jpv
jr
js
jsp
jstor
ju
jua
juan
judd
judge
juku
jukust
jules
juli
julia
julian
julie
julio
julius
july
jum
jump
jun
june
jung
jungar
jungfru
jungle
juni
junior
juniperus
jurt
jurta
jurtin
jurtir
jurtum
just
justice
justin
justri
justu
juventus
jæja
jørgen
jørgensen
jɛ
k
ka
kabila
kabu
kadmi
kadyrov
kaf
kafa
kafba
kafe
kaffi
kaffihu
kafi
kafla
kaflar
kaflega
kafli
kaflinn
kaflokknum
kaft
kaho
kai
kaiser
kaiserslautern
kaka
kakali
kako
kalbos
kalda
kaldalo
kaldari
kaldi
kaldra
kaldur
kaledo
kali
kaliforni
kalk
kalku
kall
kalla
kallar
kallast
kallat
kallað
kallaðar
kallaði
kallaðir
kallaðist
kallaðr
kallaður
kalli
kallinn
kalsi
kalt
kalvi
kama
kamann
kamans
kamanum
kambo
kameru
kami
kaminn
kamleg
kamlega
kamlegum
kamp
kamsleifar
kamus
kan
kana
kanada
kanadi
kanari
kandi
kane
kani
kaninu
kanið
kann
kanna
kannabis
kannast
kannað
kannaði
kannaðist
kannske
kannski
kannt
kano
kansas
kanselli
kansins
kanska
kanslara
kanslari
kant
kantaraborg
kanto
kanu
kap
kapella
kapi
kapp
kappa
kappi
kapteinn
kar
kara
karabi
karagva
karate
kardashian
kardi
kardina
karel
karen
karformi
kari
karinnar
karl
karla
karlaflokki
karlako
karlalandsliðið
karlamagnu
karlar
karldy
karli
karlinn
karlinum
karlkyn
karlkyns
karlmanna
karlmannsnafn
karlmaður
karlmenn
karlmo
karls
karlsdo
karlsins
karlsson
karlssonar
karma
karnir
karo
karri
kartafla
karto
karður
karþago
kas
kasafn
kasafni
kasafninu
kasafnið
kasafns
kasafnsins
kasakska
kasakstan
kasakstans
kasmi
kaso
kasparov
kaspi
kassa
kassagi
kassel
kassi
kast
kasta
kastala
kastalann
kastalans
kastalanum
kastali
kastalinn
kastar
kastað
kastaði
kasti
kastili
kastljo
kasto
kasus
kat
kata
katalo
katanga
katar
katarina
kate
katherine
kathleen
kathryn
katie
katla
katli
katniss
kato
katri
katta
kattardy
katy
katz
kau
kaup
kaupa
kaupamaður
kaupfe
kaupho
kaupi
kaupin
kaupir
kaupið
kaupma
kaupmann
kaupmanna
kaupmannahafnar
kaupmannahafnarha
kaupmannaho
kaupmanni
kaupmanns
kaupmaður
kaupmaðurinn
kaupmenn
kaupmo
kaupskip
kaupstað
kaupstaðarre
kaupstaður
kaupsy
kauptu
kaupum
kaupþing
kaupþingi
kaupþings
kaus
kavirkjun
kavo
kazakhstan
kað
kaði
kaþo
kb
kbh
kc
kde
kdo
ke
kea
keane
keflavi
kei
keila
keilulaga
keisara
keisaradæmi
keisaradæminu
keisaradæmisins
keisaradæmið
keisaraherinn
keisarann
keisaranna
keisarans
keisaranum
keisarar
keisaraveldisins
keisaraveldið
keisaraynja
keisari
keisarinn
keith
kelduhverfi
keldum
kelling
kellingu
kellogg
kelly
kelvin
kem
kemal
kemba
kemr
kemst
kemur
ken
kengu
keni
kenna
kennara
kennaraha
kennarapro
kennarar
kennarasko
kennari
kennarinn
kennd
kenndar
kenndi
kenndir
kenndu
kenndur
kennedy
kenneth
kenni
kennileiti
kennimannaho
kenning
kenninga
kenningar
kenningin
kenningu
kenningum
kenninguna
kenningunni
kennir
kennito
kennsl
kennsla
kennslu
kennsluaðferðir
kennslubo
kennsluefni
kennslufræði
kennslustund
kennt
kennurum
kenny
kent
kentucky
keny
kepler
keppa
keppandi
keppast
keppendur
keppinautar
keppinautur
keppir
keppni
keppnin
keppnina
keppninnar
keppninni
keppnir
keppnisti
keppnum
keppt
keppti
kepptu
ker
kerfi
kerfinu
kerfis
kerfisins
kerfið
kerfum
kerið
kerling
kerlingar
kerlingin
kerlingu
kerry
kerti
ket
ketil
ketilbjo
ketill
ketils
ketilsson
ketti
kettir
kevin
kew
key
keynes
keypis
keypt
keypti
keyptu
keyptur
keyra
keyrir
keyrt
keyrði
keys
kfræði
kfum
kg
kgb
khai
khald
khan
kharðs
kharður
khi
khlo
khmer
khru
ki
kid
kids
kiel
kili
kiljan
kill
killer
kim
kin
kina
kind
kinda
kindi
kindin
kindum
kindur
kindurnar
king
kinga
kingao
kingar
kingdom
kingi
kings
kingsley
kingston
kingu
kingum
kingur
kinn
kinni
kinu
kippa
kippir
kippti
kir
kirchner
kirgistan
kirk
kirkja
kirkjan
kirkju
kirkjubo
kirkjubæ
kirkjubæjarklaustri
kirkjugarð
kirkjugarði
kirkjugarðinn
kirkjugarðinum
kirkjugarður
kirkjugo
kirkjukort
kirkjum
kirkjuma
kirkjuna
kirkjunnar
kirkjunni
kirkjur
kirkjuso
kirkjustaður
kirkjuþingið
kirkna
kirsten
kis
kisa
kisarfi
kisborgara
kisborgarar
kisborgarare
kisborgari
kisdali
kisfang
kisfja
kisfulltru
kisha
kisins
kiskeisari
kislo
kisma
kismanna
kismenn
kismo
kisra
kisrekinn
kiss
kissa
kissakso
kissinger
kissjo
kisskuldabre
kisstefnu
kisstjo
kisstofnun
kist
kista
kistan
kistjo
kistru
kistu
kistuna
kistunni
kisu
kisvald
kisvaldið
kisvaldsins
kisþjo
kit
kið
kja
kjadala
kjaforseta
kjaforseti
kjaher
kjahers
kjalarnesi
kjallara
kjallaranum
kjamanna
kjamaðurinn
kjamenn
kjamo
kjandi
kjanna
kjarna
kjarnann
kjarnanum
kjarni
kjarninn
kjarnorkua
kjarnorkuvopn
kjarnsy
kjarri
kjartan
kjartani
kjartans
kjartansson
kjarval
kjasambandið
kjasambandsins
kjast
kjastjo
kjaþing
kjaþingi
kjaþings
kjo
kju
kjudy
kjum
kjunum
kjur
kk
kka
kkar
kkbru
kkgra
kki
kkir
kkland
kklandi
kklands
kklaðist
kkneska
kkneskur
kko
kkst
kkt
kkti
kku
kkulaði
kkum
kkumanna
kkumenn
kkun
kkunum
kkur
kkuðu
kkva
kkvi
kl
kla
klar
klara
klasa
klassi
klauf
klaus
klaustri
klaustrinu
klaustrið
klaustur
klaustursins
kle
kleg
klega
klegast
klegra
klegri
klegt
klegur
kleift
klein
klekjast
klemens
kleo
klerkar
klerkur
kles
klesar
kletta
klettafjo
klettar
klettinum
klettum
klettur
kleyfni
kleyft
kli
klifra
klifurrunni
kling
klinga
klingar
klingum
klingur
klingurinn
klinum
klippa
klippt
klja
klju
klo
klofa
klofinn
klofið
klofnar
klofnaði
klofning
kloppenb
kloppenburg
klst
klu
klukka
klukkan
klukku
klukkur
klukkustund
klukkustunda
klukkustundir
klukkustundum
klukkuti
klukkuætt
klum
kly
klædd
klæddir
klæddist
klæddur
klær
klæða
klæðast
klæði
klæðin
klæðir
klæðist
klæðnað
klæðnaður
klæðum
km
kma
kmaður
kmeistari
kmennta
kmenntafe
kmenntafræði
kmenntafræðingur
kmenntagrein
kmenntary
kmenntaskra
kmenntaso
kmenntaverðlaun
kmenntaverðlauna
kmenntaverðlaunin
kmenntir
kmenntum
kmo
kn
kna
knar
knara
knarflokkinn
knarflokks
knarflokksins
knarflokkur
knarflokkurinn
knarha
knari
knarinnar
knarlo
knarmenn
knarnefnd
knarnefndar
knarprestur
knarre
knarsto
knarstofnun
knarstofu
knarverkefnisins
knast
knastofnun
knattspyrna
knattspyrnu
knattspyrnudeild
knattspyrnufe
knattspyrnugrein
knattspyrnukona
knattspyrnulið
knattspyrnumaður
knattspyrnumenn
knattspyrnusamband
knattspyrnusambandi
knattspyrnusambandinu
knattspyrnusambandið
knattspyrnusambandsins
knattspyrnustjo
knattspyrnuvo
knattspyrnuþja
knað
knaði
knaður
kne
kneski
kni
kniefni
knight
knin
knina
kninn
kninni
knir
knirnar
knið
knja
knma
knmynd
kno
know
knowledge
knowles
known
knu
knud
knudsen
knum
knun
knut
knuð
knuðu
kny
ko
koblenz
koch
kofa
kofi
kohl
kokkur
kol
kola
kolana
kolbein
kolbeini
kolbeinn
kolbeins
kolbeinsson
kolbjo
kolbru
koldi
kolefni
kolefnis
kolgri
kolkuo
koll
kolla
kollafirði
kollafjo
kolli
kollinum
kollo
kollu
kollur
kolskeggur
kolsy
koltvi
kolum
kolur
kolvetni
kom
koma
komandi
komast
komdu
komi
komin
kominn
komist
komit
komizt
komið
kommu
komna
komnar
komnir
kompa
komst
komu
komum
komumaður
komuna
komur
komust
kon
kona
konan
konar
konardo
konarson
konarsonar
konfu
kong
kongo
koni
konra
konrad
konstanti
konstanz
konsu
konsæll
konu
konum
konuna
konung
konunga
konungahellu
konunganna
konungar
konungarnir
konungdo
konungdæmi
konungdæmisins
konungdæmið
konungi
konunginn
konunginum
konunglega
konunglegu
konungr
konungs
konungsbo
konungsbre
konungsdo
konungsfjo
konungsho
konungsins
konungsmenn
konungsri
konungssinna
konungsson
konungsstjo
konungssto
konungsvaldið
konungsætt
konungsættarinnar
konungsættin
konungum
konungur
konungurinn
konunnar
konunni
konur
konurnar
koop
kopar
kopti
korea
korean
korma
korn
korni
korsi
kort
korti
kortið
kortleggja
kos
kosin
kosinn
kosið
kosning
kosninga
kosningabandalag
kosningabara
kosningalo
kosninganna
kosningar
kosningare
kosningarnar
kosningasaga
kosningu
kosningum
kosningunum
kosnir
koso
koss
kost
kosta
kostar
kostað
kostaði
kosti
kostir
kostnað
kostnaðar
kostnaði
kostnaður
kostum
kostur
kosturinn
kot
koti
kotinu
kotið
kovy
koðra
kr
kra
krabba
krabbady
krabbamein
krabbameini
krabbameins
krabbinn
krafa
krafist
kraft
krafta
kraftar
kraftaverk
krafti
kraftur
krafðist
krahu
krai
kraka
krakka
krakkar
krakkarnir
krar
krata
krataflokknum
krataflokksins
krataflokkurinn
kratar
krates
kratesar
krati
kre
krefjast
krefst
kreik
kreo
kreppa
kreppan
kreppu
kreppunnar
kreppunni
kresent
kri
krikket
kring
kringlo
kringum
kringumstæðum
kringumstæður
kripke
kris
krist
kristalgerð
kristbjo
kristi
kristian
kristilega
kristilegra
kristin
kristinn
kristinna
kristinnar
kristinni
kristinsdo
kristinsson
kristja
kristjana
kristjani
kristjo
kristmundur
kristna
kristni
kristnir
kristnito
kristnu
kristnum
kristo
krists
kristskirkju
kristum
kristur
krita
kro
kross
krossa
krossapro
krossavi
krossferð
krossferðin
krossferðinni
krossga
krossgo
krossi
krossinn
krossins
krossinum
kru
krum
krummi
krun
krunarfræðinga
krunarfræðingur
krunarkona
kry
krydd
krypton
ks
ksdal
ksdo
ksho
ksi
ksins
ksku
ksmessu
kso
ksson
kssonar
kssyni
kst
kstaf
kstafi
kstafinn
kstafir
kstaflega
kstafnum
kstafur
kstafurinn
ksto
kt
kti
ktist
ktu
ktum
ktust
ku
kugrein
kuhn
kul
kula
kulda
kulhlaup
kulinn
kull
kullinn
kuls
kulsa
kulsins
kulsson
kulsþjo
kuly
kum
kumaður
kumenn
kuml
kun
kuna
kunar
kunn
kunna
kunnar
kunngjo
kunni
kunnigt
kunningi
kunningja
kunnir
kunnu
kunnug
kunnugt
kunnugur
kunnum
kunnur
kunum
kunze
kuorð
kur
kurborg
kurborgar
kurbyggð
kure
kurflugvelli
kurflugvo
kurgangan
kurgrein
kurho
kurhreppi
kurhreppur
kuri
kurinn
kurkirkja
kurkjo
kurnar
kurt
kurteis
kurteisi
kurteislega
kurz
kus
kust
kustjo
kustu
kusu
kutæki
kuð
kuðu
kv
kva
kvaddi
kvaddur
kvaran
kvarta
kvartaði
kvarða
kvarðanato
kvarðanir
kvarðar
kvað
kvaðst
kveikir
kveikja
kveikjan
kveikt
kveikti
kveiktu
kveld
kveldi
kveldið
kveldu
kvendy
kvenfe
kvenfo
kvenkyn
kvenkyns
kvenmann
kvenmannsnafn
kvenmaður
kvenna
kvennaflokki
kvennalista
kvennalistinn
kvennasko
kvennaso
kvenre
kveð
kveða
kveðin
kveðinn
kveðinna
kveðinni
kveðins
kveðið
kveðja
kveðju
kveðjur
kveðna
kveðnar
kveðnir
kveðnu
kveðnum
kveðskap
kveðskapur
kveðst
kveður
kvi
kvika
kvikan
kvikasilfur
kvikfe
kvikindi
kvikmynd
kvikmynda
kvikmyndaframleiðandi
kvikmyndagerð
kvikmyndagerðarmaður
kvikmyndagrein
kvikmyndaha
kvikmyndahlutverk
kvikmyndahu
kvikmyndaleikstjo
kvikmyndarinnar
kvikmyndasy
kvikmyndato
kvikmyndin
kvikmyndina
kvikmyndinni
kvikmyndir
kvikmyndum
kvikmyndunum
kviknaði
kviku
kvilla
kvið
kviðdo
kviði
kviðinn
kviður
kvk
kvo
kvonfang
kvæm
kvæma
kvæmar
kvæmari
kvæmlega
kvæmni
kvæmt
kvænast
kvæntist
kvæntur
kvætt
kvæð
kvæða
kvæðar
kvæði
kvæðin
kvæðinu
kvæðisins
kvæðið
kvæðum
kw
ky
kyi
kyle
kylie
kyllisvi
kyn
kynda
kynferðislega
kynferðislegu
kynfæri
kynhneigð
kyni
kynin
kynja
kynjanna
kynjum
kynlegt
kynli
kynna
kynnast
kynni
kynning
kynningar
kynningu
kynnir
kynnist
kynnst
kynnt
kynntar
kynnti
kynntist
kynntu
kynntur
kynntust
kynnu
kyns
kynslo
kynæxlun
kynþa
kynþroska
kynþætti
kyr
kyra
kyrilli
kyrr
kyrrahaf
kyrrahafi
kyrrahafinu
kyrrahafið
kyrrahafs
kyrrahafsins
kyrrt
kyrrð
kyssa
kyssti
kæmi
kæmist
kæmu
kæmust
kænugarði
kær
kæra
kærasta
kærasti
kæri
kærir
kærleika
kærleikum
kært
kæru
kærur
kærustu
kærð
kærða
kærði
kærðir
kærður
københavn
kırgızca
kɔ
l
la
laa
lab
labeinsstro
labi
labiskup
labiskups
labiskupsdæmi
labo
labor
laboratory
laborg
labrador
labu
lada
ladag
laddi
ladeild
laden
ladies
lado
lady
laeftirlitinu
laeftirlitið
laeftirlitsins
laerti
laf
lafar
lafe
laferil
laferli
lafi
laflokk
laflokka
laflokkar
laflokkum
laflokkur
lafo
lafoss
lafræði
lafræðingur
lafs
lafsdo
lafsfirði
lafsfjarðar
lafsfjo
lafsson
lafssonar
lafssyni
lafsvi
lafur
lafyrirtæki
lafyrirtækja
lafði
lag
laga
lagaa
lagadeild
lagafrumvarp
lagafrumvo
lagaho
lagalega
lagana
laganna
lagapro
lagar
lagarfljo
lagarnir
lagasamtaka
lagasamto
lagasetningu
lagað
laggirnar
lagi
laginu
lagið
lagjo
lagli
lagningu
lago
lagopus
lagrein
lagri
lags
lagsfræði
lagsfræðingur
lagsheimili
lagsins
lagsleg
lagslega
lagslegar
lagslegri
lagslegt
lagslegu
lagslegum
lagsli
lagsliða
lagsma
lagsmanna
lagsmaður
lagsmenn
lagsmiðlum
lagsmiðsto
lagsmo
lagsra
lagssa
lagsskap
lagst
lagsvi
lagt
lagðar
lagði
lagðir
lagðist
lagður
laho
lahu
lai
lak
lakari
lake
lakennara
lakennari
lakerfi
lakerfinu
lakerfisins
lakerfið
lako
lakona
lali
lalo
lam
lama
lamanna
lamarkaði
lamaður
lamaðurinn
lamb
lamba
lambda
lambert
lambi
lameistari
lamenn
lamiðlun
lamiðsto
lamo
lan
lana
lancaster
lance
lanceolata
land
landa
landafræði
landafræðigrein
landamæra
landamæri
landamærin
landamærum
landamærunum
landanna
landbrigðaþa
landbu
landeyjum
landfo
landfræðileg
landfræðilega
landgo
landhelgi
landi
landinu
landið
landko
landlukt
landlæknir
landlæknis
landna
landnema
landnemar
landnemarnir
landra
lands
landsbanka
landsbankans
landsbankanum
landsbanki
landsbankinn
landsbo
landsbyggðinni
landsdo
landsfo
landsframleiðsla
landsframleiðslu
landsfundi
landshluta
landshlutum
landsho
landsins
landskjo
landslag
landslagi
landslagið
landsleik
landsleiki
landsleikir
landslið
landsliða
landsliði
landsliðinu
landsliðið
landsliðsins
landsliðsþja
landslo
landsmanna
landsmenn
landsmo
landspi
landsre
landssamband
landssambands
landssamto
landsstjo
landstjo
landsvi
landsvirkjun
landsvirkjunar
landsvæða
landsvæði
landsvæðið
landsvæðum
landsyfirre
landvinninga
lane
lanefnd
lanema
lang
langa
langadal
langafi
langan
langanesi
langar
langaði
lange
langflestir
langi
langinn
langir
langjo
langli
langri
langs
langskip
langstærsta
langt
langti
language
languages
langur
langvarandi
langvi
langvinn
lanka
lann
lanna
lano
lans
lanum
lanzhou
lao
laos
lapiltar
lapro
lar
lara
large
larhring
larhringinn
lari
larinnar
larix
larlaga
larljo
larnar
larnir
larry
lars
larsen
larto
laruppra
larus
las
lasambandi
laschet
laser
lasi
lasko
laso
lason
last
lasta
lastarfi
lastarfsemi
lasti
lastigi
lastjo
lasto
lastofnanir
lastofnun
lastofnunin
lastæði
lasveinar
lasveinninn
lasy
lat
late
later
lati
latifolia
latin
latnesk
latneska
latneskt
latnesku
latneskum
latneskur
lato
latre
latus
latvies
lau
laub
lauf
laufa
laufblo
laufey
lauffellandi
laufin
lauftre
laug
laugar
laugara
laugardag
laugardaginn
laugardagur
laugardal
laugardalsho
laugardegi
laugarnesi
laugarvatni
laugaveg
laugavegi
laugin
laugum
lauk
lauka
laukar
laukplo
laukur
laun
launa
launað
launum
laupana
laura
lauren
laurence
laurent
laurie
lauritz
laus
lausa
lausafe
lausafja
lausan
lausanne
lausavi
lausir
lauslega
lausn
lausnar
lausnargjald
lausnin
lausnir
laust
lausu
lausum
laut
laverne
lavesi
lavi
lavo
lavoisier
law
lawrence
laws
lax
laxa
laxdæla
laxinn
laxness
laætt
lað
laða
laðar
laði
laður
laþjo
lba
lblo
lbo
lbrautasko
lbreytileika
lbreytni
lbreytt
lbreyttar
lbreyttum
lbreyttur
lbru
lbu
lby
ld
lda
ldaga
ldama
ldamo
ldamorð
ldamorðin
ldann
ldans
ldanum
ldar
ldi
ldin
ldina
ldinn
ldinni
ldinu
ldið
ldnu
ldo
ldro
ldrum
lds
ldsaga
ldsagan
ldsagna
ldsagnaho
ldsins
ldskap
ldskapar
ldskaparma
ldskapur
ldso
ldu
ldudal
ldum
ldun
ldungadeild
ldungadeildarinnar
ldungadeildarþingmaður
ldungadeildin
ldungadeildinni
ldungara
ldungis
ldunum
ldur
ldurinn
ldust
ldustu
lduð
ldvo
le
lea
leader
leaders
leadership
league
learn
learning
leb
lech
led
ledoux
lee
leeds
lefna
lefni
lefnum
left
leg
lega
legacy
legal
legar
legend
legg
leggi
leggja
leggjast
leggjum
leggo
leggst
leggur
legið
legri
legt
legu
legum
legur
legði
lei
leibniz
leicester
leidd
leiddi
leiddist
leiddu
leiddur
leiden
leif
leifar
leifi
leifs
leifsson
leiftur
leifum
leifur
leiga
leigh
leigja
leigu
leigubi
leigði
leik
leika
leikana
leikanna
leikar
leikara
leikaranum
leikarar
leikararnir
leikari
leikarinn
leikarnir
leikfe
leikfo
leikho
leikhu
leiki
leikin
leikina
leikinn
leikir
leikirnir
leikið
leikja
leikjato
leikjum
leikjunum
leikkona
leikkonan
leikkonu
leikkonunni
leiklist
leiklistarsko
leikmann
leikmanna
leikmanni
leikmaður
leikmaðurinn
leikmenn
leikmo
leikni
leiknir
leiknum
leikrit
leikriti
leikritinu
leikritið
leikritum
leiks
leiksins
leikska
leiksko
leikstjo
leiksty
leiksy
leikti
leikum
leikunum
leikur
leikurinn
leikurum
leikvanginum
leikvangurinn
leikvo
leipzig
leir
leira
leist
leit
leita
leitar
leitarve
leitast
leitað
leitaði
leitaðist
leiti
leitin
leitina
leitinni
leitt
leituðu
leizt
leið
leiða
leiðandi
leiðangri
leiðangrinum
leiðangur
leiðangurinn
leiðar
leiðarinnar
leiðarljo
leiðarvi
leiðast
leiðbeinandi
leiðbeiningar
leiði
leiðin
leiðina
leiðinni
leiðir
leiðis
leiðist
leiðið
leiðo
leiðre
leiðso
leiðtoga
leiðtogar
leiðtogi
leiðtogum
leiðum
leka
lekið
leksikon
lektor
lemajos
lemu
lemur
len
lena
lend
lenda
lendan
lendi
lendinu
lendir
lendið
lendu
lendum
lenduna
lendunnar
lendunni
lendur
lendustjo
lenduti
lengd
lengdar
lengdargra
lengi
lengja
lengra
lengri
lengst
lengsta
lengsti
lengstu
lengur
leni
leningrad
lennart
lennon
lenska
lenskur
lensulaga
lent
lenti
lentu
leo
leon
leonard
leonardo
leoni
leons
leopold
lepidoptera
lepidus
leppri
lepraria
lepus
leq
lerki
les
lesa
lesbi
lesbo
lesendur
lesin
lesið
leslie
less
lest
lestarsto
lestin
lestinni
lestir
lestrarfe
lestri
lestu
lestur
let
letri
letrinu
letter
letters
lettland
lettlandi
lettlands
letur
leturgerð
leuven
lev
level
leverkusen
levi
levichev
lewis
lewisia
lex
lexi
lexicon
lexikon
ley
leyfa
leyfi
leyfilegt
leyfir
leyfis
leyft
leyfð
leyfði
leyfðu
leyna
leynd
leyndardo
leyndarma
leyndum
leyni
leynilega
leynilo
leyniþjo
leynt
leysa
leysast
leysi
leysingi
leysir
leysist
leyst
leysti
leystir
leystist
leystu
leystur
leyti
lez
leður
leðurblo
lf
lfa
lfafo
lfalda
lfan
lfandafljo
lfar
lfara
lfarar
lfari
lfarinn
lfarið
lfarnir
lfað
lfaði
lfboðaliða
lfbro
lfbær
lfbæra
lfbærni
lfda
lfdan
lfdanar
lfdanarson
lfestu
lfheiður
lfhildur
lfho
lfi
lfinn
lfinu
lfir
lfið
lfkjo
lfkona
lfkonan
lfkrafa
lfleik
lfljo
lfma
lfo
lfr
lfra
lfrar
lfri
lfræði
lfræðigrein
lfræðileg
lfræðilega
lfræðingar
lfræðingur
lfræðingurinn
lfræðinnar
lfs
lfsa
lfsagt
lfsdo
lfseignarstofnun
lfsja
lfsmorð
lfsmorðssprengjua
lfsmynd
lfso
lfsson
lfssonar
lfsstjo
lfssto
lfssyni
lfstjo
lfstætt
lfstæð
lfstæða
lfstæðar
lfstæði
lfstæðir
lfstæðis
lfstæðisbara
lfstæðisflokki
lfstæðisflokkinn
lfstæðisflokknum
lfstæðisflokks
lfstæðisflokksins
lfstæðisflokkur
lfstæðisflokkurinn
lfstæðismanna
lfstæðismenn
lfstæðisstri
lfstæðisyfirly
lfstæðra
lfstæðs
lfstæðu
lfstæðum
lfstæður
lfsvi
lfsæviso
lft
lfta
lftafirði
lftafjo
lftamy
lftanes
lftanesi
lftar
lfti
lftinn
lfto
lftum
lfu
lfum
lfun
lfuna
lfunar
lfunnar
lfunni
lfunum
lfur
lfurinn
lfusa
lfusi
lfvirk
lg
lga
lgagn
lgar
lgari
lgarska
lgast
lgað
lgaði
lgaðist
lgi
lgin
lginn
lgið
lgo
lgu
lgun
lgunar
lgur
lholt
lholti
lholtsbiskup
lholtsbiskups
lholtsbiskupsdæmi
lholtssko
li
liam
liao
liaoning
liber
liberty
library
lid
lie
liechtenstein
lietuviu
lifa
lifanda
lifandi
lifað
life
lifi
lifir
lifum
lifur
lifði
lifðu
liga
liggi
liggja
liggjandi
liggr
liggur
light
lights
like
likka
likkar
likud
liliaceae
lilium
lilja
lilju
liljuætt
lille
lily
lim
lima
limbii
limburg
limited
limits
lin
lina
lincoln
lind
linda
lindb
lindsay
lindy
line
ling
lingua
link
linkedin
linn
linnaeus
linne
linni
linu
linux
linz
lion
lionel
lir
lirfa
lirfan
lirfur
lirfurnar
lis
lisa
lishu
lissabon
list
lista
listabo
listaha
listamanna
listamanninn
listamaður
listamaðurinn
listamenn
listamo
listann
listans
listanum
listar
listasafn
listasafni
listasafninu
listasafnið
listasafns
listaso
listaverk
listaverkum
listi
listin
listinn
listir
listma
listum
lit
lita
litar
litarefni
litast
litað
literary
literature
litha
liti
litin
litinn
litir
litirnir
litið
litla
litlar
litli
litlir
litlu
litlum
litninga
lito
litri
litro
lits
litsgerðin
little
litu
litum
litur
liturinn
liu
live
lively
liverpool
lives
livi
living
livingstone
livorno
lix
liz
lið
liða
liðamo
liðanna
liðar
liðdy
liði
liðin
liðinn
liðinni
liðinu
liðir
liðið
liðna
liðnir
liðnu
liðnum
liðs
liðsforingi
liðsins
liðsmenn
liðsstjo
liðu
liðum
liðunum
liður
liðveislu
liðþja
lja
ljo
lju
lk
lka
lkan
lkanum
lkaorðu
lkar
lkað
lkerfinu
lkerfisins
lkerfið
lki
lkin
lkina
lkinn
lkinni
lkinu
lkið
lkn
lkna
lknu
lknum
lko
lks
lksfjo
lksins
lksson
lkssonar
lku
lkum
lkun
lkuna
lkunnar
lkunni
lkunnugur
lkunum
lkur
lkurbu
lkurinn
lkurnar
lkursy
lkuð
lkynngi
ll
lla
lland
llandi
llands
llaskaga
llengua
ller
lli
llin
llina
llingua
llinn
llinni
llið
llkona
llkonan
llo
lloyd
llst
llu
llulaga
llum
llun
llunar
llunum
llur
llurinn
llust
lluð
lluðu
lluðum
lluðust
lly
lm
lma
lmabo
lmado
lmar
lmarga
lmargar
lmargir
lmargra
lmarsson
lmaska
lmason
lmavi
lmblo
lmenn
lmennari
lmennasta
lmenni
lmennt
lmennustu
lmey
lmfri
lmgo
lmi
lminn
lminum
lmiðla
lmiðlar
lmiðlum
lmiðlun
lmo
lms
lmsa
lmsdo
lmsson
lmsteinn
lmty
lmum
lmundarson
lmur
lmurinn
ln
lna
lnar
lnato
lni
lning
lningu
lnir
lnum
lo
local
loch
locke
lof
lofa
lofar
lofað
lofaði
lofaður
lofi
loforð
lofso
loft
lofta
loftaugara
lofthju
lofti
loftinu
loftið
lofts
loftsdo
loftslag
loftslagi
loftslagsbreytingar
loftslagsra
loftsson
loftssonar
loftur
loftþry
lofun
lofuð
lofuðu
log
loga
logaland
logalandi
logan
logandi
logar
logaði
logi
logic
logið
logn
lok
loka
lokaleiknum
lokapro
lokar
lokast
lokato
lokað
lokaði
lokaðir
lokaður
loki
lokin
lokinni
lokið
lokka
loknu
loknum
loks
loksins
lokum
lokun
lokuð
lokuðu
lon
london
long
lonicera
look
lopez
lord
lorentz
lorenzo
lorraine
los
losa
losar
losað
losna
losnar
losnaði
lost
losun
lotu
lotukerfinu
lotukerfið
lotus
louis
louise
louisiana
love
lovi
low
lowe
loðbro
loðin
loðinn
loðmundur
loðna
loðnu
loðvi
lp
lpa
lpar
lpast
lpað
lpaði
lpi
lptu
lpunum
lpuðu
lreiðar
lri
lrit
lru
ls
lsa
lsan
lsar
lsdo
lsen
lsetur
lsgrein
lsha
lsho
lshyggju
lshættir
lsi
lsinn
lsins
lsinum
lsir
lsk
lska
lski
lskin
lskir
lskra
lskrar
lskri
lskru
lskt
lsku
lskum
lskur
lskylda
lskyldan
lskyldna
lskyldu
lskyldum
lskylduna
lskyldunnar
lskyldunni
lskyldur
lslynda
lslyndi
lslyndir
lslyndra
lslysi
lsmeðferð
lso
lsorðabo
lspeki
lsra
lsri
lsson
lssonar
lssyni
lssynir
lst
lstað
lstjo
lsto
lsu
lsum
lsungur
lsvari
lsvi
lsy
lt
ltd
lti
ltu
ltum
ltun
ltur
lu
lubla
lublað
lublo
lubo
luc
lucas
lucius
lucky
lucy
ludvig
ludwig
luefni
lui
luigi
luis
luke
lukku
luku
lula
lulaga
lulega
lum
lumbi
lumbus
lumbusar
lumosity
lun
luna
lund
lunda
lundi
lundu
lunga
lungnabo
lungu
lungun
lungunum
lungur
lunnar
lunni
lunum
luorð
lupinus
lur
lurnar
lus
luso
luspa
lust
lusto
luther
luton
lutu
luvert
luverð
luverður
luzern
luð
luðu
luðust
lv
lva
lvan
lvason
lvaður
lveig
lver
lverja
lverjar
lverjum
lverk
lverkið
lverkum
lvi
lvir
lvu
lvubre
lvufræði
lvuleiki
lvuleikja
lvuleikjaga
lvuleikjagrein
lvuleikjum
lvuleikur
lvuleikurinn
lvum
lvun
lvuna
lvunarfræði
lvunarfræðigrein
lvunarfræðingur
lvunnar
lvunni
lvupo
lvur
lvurnar
ly
lydi
lyf
lyfið
lyfja
lyfjum
lyft
lyfta
lyfti
lyftiduft
lyftir
lyga
lygi
lykil
lykilhlutverk
lykilhlutverki
lykilinn
lykill
lykillinn
lykilorð
lykla
lykt
lykta
lyktanir
lyktar
lyktað
lyktaði
lyktum
lyktun
lympi
lynch
lynette
lynn
lyon
lyst
lystigardur
lystigarður
lzt
lægi
lægju
lægra
lægri
lægsta
lægsti
lægt
lægum
lægð
læk
lækinn
lækjargo
lækka
lækkar
lækkað
lækkaði
lækkun
lækna
læknablaðið
læknadeild
læknar
læknasko
læknaði
lækni
lækning
lækninga
lækningar
læknir
læknirinn
læknis
læknisfræði
læknum
lækur
lær
læra
lærdo
læri
lærir
lærisveina
lærisveinar
lærisveinn
lærisveinum
lærið
lært
lærða
lærði
lærðu
lærður
læs
læsa
læsi
læsir
læst
læsti
læt
læti
lætr
lætur
lþjo
m
ma
maa
maarten
maasai
maastricht
mabil
mabili
mabilinu
mabilið
mabils
mabilsins
mabilum
mabo
maborg
maborgar
mabu
mabundin
mabundið
mac
macarthur
macdonald
machine
macintosh
mack
maclean
macmillan
macos
macron
mad
madagaskar
madame
made
madeira
madeleine
madeline
madison
madonna
madri
madrid
madsen
maduro
mafi
mag
maga
magann
maganum
magazine
magdalena
magdeburg
magellan
maggie
magi
magic
magn
magna
magnesi
magni
magnu
magnus
magra
maguire
mahayana
maho
mai
maiden
mail
main
maine
mainz
maj
maja
majo
major
mak
maka
makao
makast
make
makedo
maker
maki
making
makino
makri
makt
mal
mala
malari
malasi
malavi
malaysia
malcolm
maldi
male
mali
malla
malmo
malt
malta
malthus
mama
mamenn
mamma
mammals
mamo
man
mana
management
manar
manchester
mandari
mandela
mandi
mandy
manga
mangan
manhattan
mani
manila
manitoba
mann
manna
mannafe
mannama
mannanafnanefnd
mannanafnaskra
mannanna
mannano
mannavo
mannaða
manndra
manneldis
manneskja
manneskjan
manneskju
manneskjur
mannfall
mannfjo
mannfo
mannfræði
mannfræðingur
mannheim
manni
manning
manninn
manninum
mannkyni
mannkynið
mannkyns
mannkynsins
mannkynsso
mannleg
mannlega
mannlegrar
mannlegt
mannli
mannre
manns
mannsins
mannsli
mannsnafn
mannsnafnið
manntal
manntali
manntalinu
manntalið
mannu
mannvirki
mannvirkja
mannvirkjagrein
mannvirkjum
mans
mansfeld
mansju
manska
manson
manstu
manti
manu
manual
manuel
manum
many
mao
map
maps
mapunkti
mar
mara
maradona
marar
maraþon
marburg
marc
marcel
marcellus
march
marcia
marco
marcos
marcus
mare
marg
marga
margan
margar
margaret
marge
margfalda
margfalt
margfeldi
margfo
margfro
margir
margmiðlunarefni
margoft
margra
margre
margs
margsinnis
margskonar
margt
margur
margvi
mari
maria
marianne
marie
marilyn
marin
marina
marine
marinn
marino
mario
marion
marit
marita
mariti
maritima
maritinu
maritið
maritsins
maritum
marius
marjorie
mark
marka
markahæsti
markahæstu
markahæstur
markako
markamunur
markan
markar
markarfljo
markast
markato
markað
markaði
markaðinn
markaðir
markaðnum
markaðssetningu
markaður
markaðurinn
markeisari
market
markgildi
marki
markinu
markið
markmaður
markmið
markmiði
markmiðið
markmiðum
marko
marks
marku
markvisst
markvo
marmara
marmier
marnir
maro
marokko
mars
marsdo
marseille
marshall
marska
mart
marta
marteinn
marteins
martha
marti
martin
martini
martro
maru
marvin
marx
marxi
mary
maryland
marz
mas
masar
masdo
mash
masi
maskeið
maso
mason
mass
massa
massachusetts
massi
masson
mast
master
masters
mat
mata
matal
matalinu
matalið
matar
matargerð
matarso
mataræði
matast
material
math
mathbb
mathbf
mathematics
mathew
mathiesen
mathrm
mati
matinn
mato
matreiðslu
matreiðslubo
matrix
matso
matt
matter
matthew
matthi
matthias
matthildur
matti
matur
maturinn
matvo
matvæla
matvæli
matvælum
maurer
maurice
maveldi
maveldis
max
maxi
maxim
maxima
maximilian
maximus
maxwell
may
mayen
mayer
maynard
mayotte
maætt
maættkvi
mað
maði
maðr
maður
maðurinn
mb
mba
mbe
mbin
mbl
mblo
mborð
mborðsleikari
mbum
mc
mccarthy
mccartney
mcdonald
mcdonnell
mcg
mcgill
mcgovern
mcgraw
md
mdi
mdu
me
meaning
mechelen
mecklenburg
med
medes
medi
media
medical
medici
medicinal
medicine
medieval
medvedev
meet
mega
megas
megi
megin
megina
meginatriðum
megineldsto
meginhluta
meginhluti
meginland
meginlandi
meginlandinu
meginlandið
meginlands
meginlandsins
meginreglur
megið
megn
megni
megnið
megum
mehmed
mei
mein
meina
meinað
meindy
meini
meint
meir
meira
meiri
meiriha
meirihluta
meirihluti
meirihlutinn
meistara
meistaradeild
meistaradeildinni
meistaraflokki
meistaraflokks
meistaragra
meistaraliða
meistaramo
meistarana
meistarapro
meistarar
meistari
meiði
meiðsla
meiðsli
mekka
mekong
mel
melampsora
melania
melanotaenia
melanotaeniidae
melavellinum
melbourne
melissa
mellifera
melo
meloidogyne
melstað
melsteð
melum
melunum
member
members
memorial
memory
memphis
men
mengi
mengið
mengun
meni
menjar
menn
mennasta
mennina
menning
menningar
menningargrein
menningarleg
menningarli
menningarma
menningarmiðsto
menningarsamfe
menningarsjo
menningarso
menningarverðlaun
menningu
mennirnir
mennsku
mennt
mennta
menntama
menntamenn
menntasko
menntavi
menntaður
menntun
menntunar
menska
mental
mentha
meo
mer
mera
mercedes
mercury
meredith
meri
merið
merk
merka
merkar
merkasta
merkasti
merkel
merki
merkileg
merkilegt
merking
merkingar
merkingu
merkingunni
merkinu
merkir
merkis
merkið
merkja
merkjum
merkt
merktar
merkti
merku
merkur
merkustu
mers
mes
meso
messa
messenger
messi
messu
messur
mest
mesta
mestalla
mestan
mestar
mesti
mestmegnis
mesto
mestri
mestu
mestum
mestur
met
meta
metal
metallica
metan
metano
metaphysics
metasequoia
meter
method
metin
metinn
metið
metnað
metorða
metra
metrar
metri
metro
metropolitan
metrum
metso
metternich
metum
metur
mety
mexi
mexican
mexico
mey
meybarn
meyer
meyjar
meyko
mez
með
meðal
meðalhiti
meðallagi
meðalsto
meðaltal
meðaltali
meðan
meðferð
meðferðar
meðferðis
meðfram
meðgo
meðho
meðlima
meðlimi
meðlimir
meðlimirnir
meðlimum
meðlimur
meðr
meðstjo
meðtekið
meðto
meður
meðvitund
mfru
mfræði
mg
mgast
mgr
mgun
mh
mhu
mi
mia
miami
michael
michaels
michel
michelangelo
michele
michelle
michigan
michx
mick
microsoft
middle
midnight
mie
mifflin
mig
mighty
miguel
mik
mikael
mike
mikhai
mikhail
mikil
mikill
mikilla
mikillar
mikilli
mikils
mikilvæg
mikilvæga
mikilvægar
mikilvægari
mikilvægasta
mikilvægasti
mikilvægi
mikilvægir
mikilvægra
mikilvægt
mikilvægu
mikilvægum
mikilvægur
mikilvægustu
mikinn
mikit
mikið
mikja
mikla
miklabæ
miklagarði
miklar
mikli
miklir
miklu
miklum
mil
milan
milano
milda
mildi
mile
miles
miley
mili
military
miljo
mill
millennium
miller
milli
millibili
milligo
millinafn
million
milliri
milliste
millistri
milliti
milljarð
milljarða
milljarðar
milljo
mills
millum
milos
milt
milton
min
mind
minds
mine
minecraft
ming
mingarbu
mingarhættu
mingu
mingveldisins
minh
mini
minister
ministry
minjar
minjasafn
minjasafnið
minn
minna
minnar
minnast
minneapolis
minnesota
minni
minniha
minnihluta
minnihlutaho
minnihlutastjo
minning
minningar
minningargrein
minningu
minnir
minnis
minnisblað
minnisblaði
minnismerki
minnist
minnisvarða
minnisvarði
minnið
minnka
minnkandi
minnkar
minnkað
minnkaði
minnkun
minnkuðu
minnst
minnsta
minnsti
minnstu
minnti
minntist
minnum
minogue
minor
minu
minum
minutes
miq
miquelon
mir
miro
mirror
mis
misha
misheppnaða
misjafnlega
misjafnt
misjo
miskonar
miskunn
miskunnar
mislegt
misli
mismunandi
mismunun
misnotkun
miss
missa
missandi
misseri
missi
mission
missir
mississippi
missouri
misst
missti
missto
misstu
mist
mistekist
misto
mit
mitchell
mitt
mitti
mið
miða
miðalda
miðaldir
miðar
miðast
miðausturlo
miðað
miðaði
miðbaug
miðbaugs
miðbik
miðborg
miðborgarinnar
miðborgin
miðborgina
miðborginni
miðbæ
miðbæjarsko
miðbænum
miðfirði
miðflokksins
miðflokkurinn
miðha
miðhe
miðhluta
miði
miðja
miðjan
miðjarðarhaf
miðjarðarhafi
miðjarðarhafinu
miðjarðarhafið
miðjarðarhafs
miðju
miðjum
miðjumaður
miðjunni
miðla
miðlar
miðli
miðlum
miðlun
miðnætti
miðo
miðpunktur
miðri
miðstjo
miðsto
miðsty
miðsvæðis
miður
miðuð
miðvikudagur
miðvikudegi
mjallhvi
mjanmar
mjer
mjo
mju
mk
mkirkja
mkirkjan
mkirkju
mkirkjuna
mkirkjunnar
mkirkjunni
ml
mlega
mlu
mlum
mlun
mlur
mm
mma
mmi
mmu
mmum
mn
mnefnd
mnum
mo
mobile
mobutu
mod
mode
model
modern
mohamed
mohammad
mohammed
mohr
moi
moka
mola
mold
moldavi
moldo
molecular
moll
molly
moltke
mon
monaco
monar
monarson
mondale
monde
monetary
money
mongo
monica
monk
mono
monograph
monroe
mons
monster
monsters
monsu
mont
montana
monte
montfort
montgomery
montia
monticola
montre
montreal
montserrat
monument
moody
moon
moore
mor
mora
moral
morales
moran
more
moreno
morfi
morgan
morgnana
morgni
morgun
morgunblaðinu
morgunblaðið
morgunblaðsins
morguninn
morgunn
morguns
moritz
mormo
morning
morphological
morris
morrison
morrow
morsa
morthens
mortimer
morton
morð
morðin
morðinginn
morðinu
morðið
mos
mosa
mosar
moses
mosfelli
mosfellsbæ
mosfellsbæjar
mosfellsbær
mosfellssveit
mosi
moski
mosku
moskva
moskvu
moss
most
mot
motalisti
mother
motion
motor
mount
mountain
mountains
mountbatten
move
movement
movie
movies
moyses
mozart
mozilla
mp
mplantna
mplata
mplo
mr
mri
mrs
mrum
ms
msa
msan
msandstæðinga
msar
msbraut
msdo
msefni
msefnið
msey
msferð
msfirði
msfjo
msgagnastofnun
msins
msir
msjo
msk
mska
mskaga
mskeið
mskeiði
mskeiðinu
mskeiðið
mskeiðsins
mskeiðum
mski
mskirkja
mskra
msku
msli
mslið
msloft
mslofti
msloftinu
msloftið
msma
msmanna
msmanns
msmaður
msmenn
msmo
msn
msnesi
mso
msra
msson
mssonar
mssto
mssvæði
mssyni
msti
msto
mstra
mstrandi
mstrar
mstraði
mstri
msu
msum
msvald
msvaldið
msveit
msveita
msveitar
msveitarinnar
msveitarstjo
msveitin
msveitina
msveitinni
msveitir
msveitirnar
msveitum
msveitunum
msvi
msvo
mt
mto
mtv
mu
much
mugabe
muhammad
mul
muleiðis
mull
mum
mun
muna
munar
munað
munaði
munch
mund
munda
mundar
mundi
mundir
mundu
mundur
muni
municipal
muninn
munir
munið
munk
munka
munkar
munkaþvera
munksgaard
munkur
munkurinn
munn
munni
munninn
munninum
munnmælaso
munnmælum
munns
munnur
munt
muntu
munu
munum
munur
munurinn
munuð
mur
murat
murdoch
murinn
murnar
murphy
murray
murum
mus
muse
museum
music
musical
muslim
mussolini
must
musteri
musterinu
muður
mverja
mverjar
mverjum
mversk
mverska
mverski
mverskri
mverskt
mversku
mverskum
mverskur
mw
my
myanmar
myers
mynd
mynda
myndar
myndarinnar
myndaso
myndast
myndave
myndað
myndaði
myndaðist
myndaður
myndband
myndbandi
myndbandið
myndbo
myndefni
myndho
myndi
myndin
myndina
myndinni
myndir
myndirnar
myndist
myndlist
myndlista
myndlistar
myndlistarkona
myndlistarmaður
myndma
myndrænt
myndskreytt
myndskreytti
myndu
myndum
myndun
myndunum
mynduð
mynduðu
mynduðust
mynni
mynstur
mynt
myrka
myrkri
myrkrinu
myrkrið
myrkt
myrkur
myrt
myrti
myrtir
myrtu
myrtur
myrða
myspace
mysql
mystery
mæla
mælandi
mæld
mældist
mældur
mælendur
mæli
mælieining
mælikvarða
mælikvarði
mæling
mælingar
mælingum
mælir
mælist
mælskufræði
mælst
mælt
mælti
mæltist
mæltu
mær
mæri
mærin
mæta
mætast
mætir
mætt
mætti
mættu
mættust
mætur
mæðgur
mæði
mæður
mɛ
n
na
naband
nabandi
nabandinu
nabandið
nabands
nabo
naborg
nacional
nafelli
nafjo
naflo
nafn
nafna
nafnbo
nafngifta
nafnha
nafni
nafninu
nafnið
nafnorð
nafns
nafnsins
naga
nagasaki
nagdy
nagla
nagrein
nagy
nahaf
nai
najdorf
nakai
nakinn
nako
nali
nam
nama
name
named
namen
names
nami
namibi
namo
nan
nana
nancy
nand
nanda
nandi
nanjing
nann
nanna
nanning
nano
nans
nansen
nanum
naomi
naparte
napo
napole
napoleon
napoleons
nar
nara
narborg
narfi
narfljo
narho
narhorn
narhorni
nari
narkonungur
narmaður
narmið
narmiðum
narmu
narnir
narorso
narsson
narsviðið
narti
nas
nasa
nasar
nasdo
nash
nashville
nashyrningur
nasi
nasista
nasistar
nasistum
nasjo
naso
nassa
nassau
nassen
nasser
nasson
nassonar
nast
nasta
nasto
nat
natalie
natan
nate
nathan
nation
national
nationale
nations
native
nato
natri
natural
naturalis
nature
natureserve
nau
nauka
naukinn
nauman
naumast
naumlega
naut
nautho
nautin
nautið
nauð
nauðgað
nauðgun
nauðsyn
nauðsynleg
nauðsynlega
nauðsynlegar
nauðsynlegt
nauðsynlegur
nauðugur
nauðum
navajo
navarra
navatnssy
navi
nað
naða
naðar
naðarba
naðarfe
naðargrein
naðarha
naðarins
naðarkirkjan
naðarkirkjunnar
naðarkirkjunni
naðarlega
naðarra
naðarsto
naði
naðinn
naðinum
naður
naðurinn
naþingi
nb
nba
nbc
nbjo
ncel
nchen
nchez
ncis
nd
nda
ndado
ndal
ndann
ndans
ndanum
ndar
ndason
nde
ndel
nden
ndez
ndheim
ndheimi
ndheims
ndi
ndin
ndina
ndinn
ndinni
ndir
ndist
ndla
ndlun
ndna
ndo
ndru
ndu
nduhli
ndum
ndun
ndunni
ndunum
nduo
ndur
ndust
nduð
nduðu
nduðum
ndvegissu
ndverðu
ndy
ndæmi
ne
nea
neal
near
nebraska
nebria
ned
need
nees
nef
nefi
nefinu
nefið
nefna
nefnast
nefnd
nefnda
nefndar
nefndarinnar
nefndi
nefndin
nefndinni
nefndir
nefndist
nefndr
nefndu
nefndum
nefndur
nefndust
nefni
nefnifall
nefnifalli
nefnilega
nefnir
nefnist
nefnt
nei
neikvætt
neikvæð
neikvæða
neikvæðar
neikvæðum
neil
neill
nein
neina
neinar
neinn
neinni
neins
neinu
neinum
neisti
neita
neitar
neitað
neitaði
neitt
neituðu
nelson
nema
nemanda
nemandi
nemandinn
nematus
nemenda
nemendafe
nemendum
nemendur
nemendurnir
nemi
nemur
nen
nenda
nendum
nendur
neo
neon
nepal
nepals
nepos
neptu
ner
nera
nero
nerva
nes
nesi
nesinu
nesið
neskaupstað
nesti
net
netanyahu
netfang
netflix
netherlands
neti
netinu
netið
netu
netum
netunni
network
netþjo
neu
neumann
nevada
never
neville
nevis
new
newcastle
newman
news
newton
newtons
next
ney
neyddi
neyddir
neyddist
neyddu
neyddur
neyddust
neysla
neyslu
neyta
neytenda
neytendala
neytendur
neytt
neytti
neyð
neyða
neyðara
neyðarlo
neyðist
nez
neðan
neðanjarðar
neðansja
neðar
neðarlega
neðra
neðri
neðst
neðsta
neðstu
nf
nfiskur
nfl
nfræði
ng
nga
ngan
ngar
ngel
ngi
ngin
ngina
nginn
nginni
nginum
ngkona
ngkonan
ngla
nglar
nglarnir
ngleik
ngleiknum
ngleikurinn
ngli
nglinum
nglo
nglum
ngnum
ngo
ngrad
ngs
ngsdo
ngsindversk
ngsins
ngsri
ngsson
ngssonar
ngssonur
ngssyni
ngssynir
ngt
ngu
ngufo
ngugrein
ngul
nguleið
nguleiðir
ngull
ngullinn
ngulo
ngulær
ngum
nguma
ngumaður
ngun
nguna
ngunnar
ngunni
ngunum
ngur
ngura
ngurinn
ngusti
nguti
ngva
ngvakeppni
ngvan
ngvar
ngvara
ngvarans
ngvarar
ngvari
ngvarinn
ngvu
ngvum
ngvurum
nh
nhæð
ni
nia
nic
nica
niccolo
nice
nicholas
nicholls
nichols
nicholson
nick
nicola
nicolas
nicole
nicolson
nidad
nie
niels
nielsen
nietzsche
nieukerken
nigel
night
nigra
nik
niki
nikkel
niko
nikula
nileg
nilega
nilegt
nilegur
nils
nimske
nin
nina
nine
ning
ninga
ningar
ningarfrelsi
ningarinnar
ningbo
ningi
ningin
ninginn
ningnum
nings
ningsa
ningu
ningum
ninguna
ningunni
ningur
ningurinn
ninja
ninn
ninni
nintendo
ninu
ninum
nio
nir
nirnar
nirvana
nis
niseri
nishorn
nisma
nismans
nismi
nist
nista
nistaflokknum
nistaflokks
nistaflokksins
nistaflokkur
nistaflokkurinn
nistar
nistastjo
nisti
nistum
nitur
niue
nivalis
nix
nixon
nið
niðaro
niðr
niðrandi
niðri
niður
niðurbrot
niðurlanda
niðurlo
niðurstaða
niðurstaðan
niðursto
nja
njarðvi
nje
njo
nk
nka
nkhljo
nki
nko
nku
nkum
nkunum
nl
nleika
nleikaferðalag
nleikana
nleikar
nleikarnir
nleikum
nleikunum
nlf
nlist
nlistar
nlistargrein
nlistarha
nlistarinnar
nlistarkona
nlistarli
nlistarmanna
nlistarmanninum
nlistarmaður
nlistarmaðurinn
nlistarmenn
nlistarmo
nlistarsko
nlistarstefna
nlistarstefnu
nlistarstefnur
nlistin
nlistina
nlistinni
nm
nn
nna
nni
nninn
nnu
nnum
nnun
nnunar
nnunarfarið
nnunargo
nnunin
nnunum
nnur
nnuð
nnuðinum
nnuðir
nnuðu
nnuðum
nnuður
nnuðurinn
no
nobel
nobelprize
nobunaga
node
noel
noether
nokia
nokkra
nokkrar
nokkrir
nokkru
nokkrum
nokkur
nokkura
nokkurar
nokkurir
nokkurn
nokkurra
nokkurrar
nokkurri
nokkurs
nokkurskonar
nokkurt
nokkuru
nokkurum
nokkuð
nomenclature
nominees
non
nonni
nor
nord
nordal
norden
nordic
nordisk
nordiske
noreg
noregi
noregs
noregskonung
noregskonungi
noregskonungs
noregskonungur
noregur
norfolk
norge
norges
norma
normal
norman
normandi
normannar
norn
norrko
norræn
norræna
norrænir
norrænna
norrænni
norrænt
norrænu
norrænum
norse
norsk
norska
norske
norski
norskir
norskt
norsku
norskum
norskur
north
northern
northwest
norton
norway
norwegian
norwich
norð
norðan
norðanfari
norðanlands
norðanverðu
norðanverðum
norðar
norðarlega
norðaustan
norðaustri
norðaustur
norðausturhluta
norðausturkjo
norðausturs
norðlendingar
norðmann
norðmanna
norðmenn
norðmo
norðr
norðri
norður
norðura
norðurhe
norðurhluta
norðurhlutanum
norðurhluti
norðurhvel
norðurhveli
norðurland
norðurlanda
norðurlandanna
norðurlandara
norðurlandi
norðurlands
norðurljo
norðurlo
norðurmy
norðurpo
norðurri
norðurs
norðursins
norðursja
norðursjo
norðurslo
norðurstro
norðvestan
norðvestri
norðvestur
norðvesturhe
norðvesturhluta
norðvesturkjo
norðvesturs
nos
not
nota
notagildi
notanda
notandanum
notandi
notandinn
notar
notast
notað
notaðar
notaði
notaðir
notaðist
notaður
note
notenda
notendum
notendur
notes
nothing
nothofagus
noti
notice
notið
notkun
notkunar
notre
nottingham
notum
notuð
notuðu
notuðust
nou
nov
nova
november
now
nozick
npr
nprins
nr
ns
nsa
nsbo
nsdo
nseri
nsfja
nshjarta
nsho
nsins
nsk
nska
nski
nskir
nsko
nsku
nskum
nskumælandi
nskun
nskur
nsmaður
nsmessuno
nsmi
nso
nsson
nssonar
nssyni
nst
nster
nsto
nsu
nsum
nsvi
nsy
nt
nther
nti
nto
ntri
ntu
ntugrein
ntum
ntunnar
ntunni
ntur
nturnar
ntutegund
nu
nublo
nuclear
nudaginn
nudagur
nudegi
nugulur
nuleg
nulega
nulegar
nulegt
nulegum
nuleika
null
num
numanna
numb
number
numbers
numenn
numin
numinn
numið
numo
nun
nuna
nunar
nundar
nundarfirði
nundur
nunna
nunnar
nunni
nunum
nur
nurnar
nursing
nus
nusar
nusi
nusko
nusta
nustan
nustu
nustuna
nustunnar
nustunni
nustur
nustustu
nutt
nutu
nuuk
nuð
nuði
nuðina
nuðir
nuðu
nuðum
nuður
nv
nvarp
nvarpi
nvarpinu
nvarpið
nvarps
nvarpsefni
nvarpsgrein
nvarpshlutverk
nvarpsins
nvarpsmaður
nvarpsmynd
nvarpsmyndinni
nvarpsseri
nvarpssto
nvarpsto
nvarpsu
nvarpsþa
nvarpsþætti
nvarpsþættinum
nvarpsþættir
nverja
nverjar
nverjum
nverk
nversk
nverska
nverski
nverskir
nverskra
nverskri
nverskt
nversku
nverskum
nverskur
nvo
ny
nykur
nypd
nyrst
nyrsta
nyrsti
nyrstu
nyrup
nyrðra
nyrðri
nyse
nyti
nytjar
nzt
nægilega
nægilegt
nægir
nægja
nægju
nægt
nægur
nægð
nægðir
nægður
næmi
næmiskerfi
næmiskerfið
nær
nærast
næringarefni
næringarri
næringu
nærist
nærliggjandi
nærri
næst
næsta
næstefstu
næsti
næstir
næststærsta
næststærsti
næstu
næstum
næstur
nætur
næturklu
næturlagi
næturnar
næði
næðu
o
oasis
ob
obama
object
oblast
observatory
oc
occidentalis
ocean
ocelot
och
oclc
octavi
october
odd
odda
oddgeir
oddi
oddny
odds
oddsdo
oddsson
oddssonar
oddur
oddviti
oder
odynas
odyssey
oecd
of
ofan
ofar
ofarlega
ofbeldi
ofbeldis
off
office
official
ofl
ofn
ofni
ofnæmi
ofri
ofsa
ofso
oft
oftar
oftast
oftlega
ofur
ofurbikarinn
ofurli
ofursti
ofveiði
og
ogenes
oh
ohf
ohio
ohlin
oil
ois
ok
okkar
okkur
oklahoma
okt
okto
oktober
ol
ola
olaf
old
ole
olga
olgeirsson
oli
oliveira
oliver
olivia
olivier
olli
ollu
olof
olsen
olympic
om
omar
omega
on
once
one
online
onlinerechnik
only
ono
ons
ontari
ontario
ony
oostende
op
open
openoffice
opera
operation
opin
opinber
opinbera
opinberan
opinberar
opinberir
opinberlega
opinberra
opinberri
opinbers
opinbert
opinberu
opinberum
opinn
opinska
opið
opna
opnar
opnast
opnað
opnaðar
opnaði
opnaðist
opnaður
opnir
opnu
opnum
opnun
opnuð
opnuðu
opt
option
or
orange
orchestra
ordbog
ordbok
order
ordlista
oregon
org
organisation
organisti
organization
orgel
ori
oriental
orientalis
origin
original
origins
orka
orkan
orkneyja
orkneyjar
orkneyjum
orku
orkubu
orkugjafa
orkuma
orkurannso
orkustofnun
orkuveitu
orlando
orle
orleans
orlof
orm
ormar
ormi
orminn
orminum
orms
ormsson
ormur
ormurinn
oro
orr
orrell
orri
orrusta
orrustan
orrustu
orrustum
orrustuna
orrustunni
orrustur
orsaka
orsakast
orsakir
orso
orson
ort
ortega
orti
orusta
orustu
orð
orða
orðabanka
orðabo
orðaforða
orðaforði
orðalag
orðanna
orðasambo
orðatiltæki
orðhlutar
orði
orðin
orðinn
orðinu
orðit
orðið
orðlengja
orðnar
orðnir
orðre
orðro
orðræðu
orðs
orðsending
orðsifjafræði
orðsins
orðspor
orðsti
orðtak
orðto
orðum
orðunum
os
osaka
osar
oscar
osi
oslo
oss
osseti
ost
osti
ostur
oswald
other
otiorhynchus
otkell
ottawa
ottesen
otto
ottoman
ou
our
out
ouvrard
ova
over
overline
overview
ovy
owen
owens
ower
own
oxford
oxi
oz
p
pa
pabba
pabbi
pablo
pac
pacific
padalecki
paeonia
page
pageid
pages
paglinawan
pago
pahlavi
pai
pakistan
pakistans
pakka
pakkhu
pala
palace
palermo
palesti
palestrina
palgrave
pali
pall
palli
pallinn
pallinum
palme
palmer
palustris
palæk
pami
pan
panama
pandi
panic
panna
paolo
papa
paper
papers
pappi
paprika
papu
papua
par
para
paradi
paradise
paragvæ
parakeelya
parents
pareto
pari
paris
parið
park
parker
parks
parliament
parma
parmeni
parnir
part
parti
partial
partido
partur
party
pas
pascal
passa
passar
passi
past
pasta
pasteur
pat
patinkin
patra
patreksfirði
patri
patricia
patrick
patti
patton
paul
paula
paulo
pauly
pavel
pavogi
pavogs
pavogur
pax
pað
paði
paður
pbs
pc
pdf
pdy
pe
peace
peak
pearl
pearson
peder
pedersen
pedro
peel
pei
peking
pel
pele
pelo
pen
penelope
penev
penguin
penh
pening
peninga
peningama
peningana
peningar
peningum
peningunum
peningur
penn
penna
pennsylvani
pennsylvania
penny
people
peoples
pepsi
per
pera
peran
percy
perfect
performance
peri
period
perkins
perla
perlur
pero
perry
persa
persaflo
persi
persian
persneska
persnesku
perso
person
personal
perspective
perspectives
persson
perth
peru
perunni
perur
peruso
pest
peta
pete
peter
peters
petersen
peterson
petit
petri
petro
petrus
pez
peð
pfalz
pg
ph
phd
phi
phil
philadelphia
philadelphiu
philip
philipp
philippe
phillip
phillips
philosophers
philosophical
philosophy
phnom
phoenix
photo
photos
photoshop
php
phyllostachys
phylogenetic
phylogeny
physical
physics
physiology
phytologia
phytomyza
phytotaxa
pi
piano
picasso
picea
picture
pictures
pid
pie
pierce
pierre
pietro
pilot
pilots
piltar
piltinn
piltur
pilturinn
pin
pinaceae
pine
ping
pink
pinn
pinoy
pinus
pinyin
pioneer
pipar
pirates
pisa
pistill
pistols
pitt
pittsburgh
pixar
pizza
pið
pjetur
pl
pla
place
plan
planet
planeta
plant
planta
plantan
plantarum
plantað
plantna
plants
plast
plasti
plata
platan
plate
plati
platna
plato
platon
platoni
platons
plattmakers
play
player
playstation
please
pli
plinius
plo
plu
plus
plymouth
pm
pmc
pmid
pmo
pnum
po
podocarpus
poe
poecilia
poems
poetry
poincare
point
poka
pokann
pokanum
poke
pol
poland
polar
pold
police
policy
political
politics
polo
polskiego
pomacea
pommern
pompeius
pontus
poor
pop
pope
popp
popper
poppto
popular
population
populations
populus
por
porsche
port
porta
portal
porter
portland
porto
portu
post
postula
postuli
pot
potential
potsdam
pott
potter
potti
pottinn
pottinum
poul
poulsen
pour
powell
power
powers
pp
ppu
ppum
ppun
ppunum
ppur
pr
pra
practice
pradesh
prag
pran
prawopisny
pre
predika
predikaði
premier
prenta
prentari
prentað
prentaðar
prentfrelsi
prenti
prentsmiðja
prentsmiðjan
prentun
prentunar
prentuð
present
preserve
president
presidential
presley
press
pressan
pressun
prest
presta
prestar
prestasko
prestho
presti
prestinn
prestinum
preston
prestr
prests
prestsdo
prestsins
prestssetur
prestum
prestur
presturinn
pri
price
pride
primary
prime
primera
primetime
primrose
primula
primulaworld
prince
princess
princeton
principles
prins
prinsessa
prinsessu
prinsi
prinsinn
print
prison
private
prix
prize
prjo
pro
problem
problems
proceedings
production
productions
products
professional
professor
profile
program
programme
progress
progressive
project
proppe
provence
providence
province
pru
prumnopitys
prus
pry
ps
pseudotsuga
psins
psja
psk
pska
pskar
pski
pskir
pskra
pskri
pskt
psku
pskum
pskur
psskagastri
pst
psta
psychiatry
psychology
pt
pto
pu
pub
pubescens
public
publication
publications
publique
published
publishers
publishing
publius
pubu
puerto
pukeppni
pulo
pum
puma
pumanna
pumeistaramo
pumeistari
pumenn
pumo
pun
puna
punar
punarmiðsto
pund
punda
punkt
punkta
punktar
punkti
punktur
punkturinn
punni
punum
puo
pur
pura
pure
puri
purinn
purple
pus
pusambandinu
pusambandið
pusambandsins
pust
put
putnam
puð
puðu
puðust
puþinginu
puþingið
puþjo
pverjahreppi
py
python
pɔ
q
qanon
qatar
qin
qinghai
qu
quality
quarashi
quarterly
que
quebec
queen
queens
queensland
quercus
quest
question
questions
qui
quine
quinn
quisling
quiz
r
ra
raba
rabbi
rabil
rabilinu
rabilið
rabo
race
racemosa
rachel
raddað
raddir
radi
radio
rado
raf
rafa
rafael
rafbi
rafbo
rafeind
rafeinda
rafeindir
rafhlaða
rafhlo
rafirði
rafjo
rafknu
rafmagn
rafmagni
rafmagns
rafmagnsgi
rafmo
rafn
rafnsson
rafo
raforku
raforkuframleiðslu
rafra
rafræn
rafræði
rafsto
rafto
raftæki
rage
ragna
ragnar
ragnari
ragnaro
ragnarr
ragnars
ragnarsdo
ragnarsson
ragnheiðar
ragnheiði
ragnheiður
ragnhildar
ragnhildi
ragnhildur
rahman
rahnju
railway
rain
rainbow
rainbowfish
rainer
rak
raka
rakel
rakin
rakið
raks
raksstri
rakst
rakt
rakti
raku
ral
raleigh
ralfjo
rali
ralph
ralrif
ram
rama
rami
ramma
rammi
ramo
ramos
ramovs
ramsey
ran
rana
rand
randi
random
randver
ranga
rangar
range
rangers
rangla
ranglega
rangri
rangt
rangur
rangurinn
rangurs
rangursri
rani
raninn
raninum
rann
ranna
ranni
rannsaka
rannsakar
rannsakað
rannsakaði
rannso
rannveig
rans
ranska
ranum
ranus
rap
rapid
rapp
rappari
rar
rara
rard
rare
rari
rarik
rarinn
rarins
rarinsdo
rarinsson
rarinssonar
rarnir
ras
rasi
rask
raska
rasmus
rasmussen
raso
rason
raspu
rassinn
rast
rasta
rasto
rasy
rat
rata
ratar
rate
rategund
rati
ration
ratsja
ratug
ratuga
ratugar
ratugarins
ratugi
ratugina
ratuginn
ratuginum
ratugir
ratugnum
ratugsins
ratugum
ratugur
rau
rauf
raufarho
rauk
raun
raunar
raunhyggja
raunhyggju
raunin
rauninni
raunir
raunti
raunto
raunveruleg
raunverulega
raunverulegt
raunverulegu
raunverulegum
raunverulegur
raunveruleika
raunveruleikanum
raunvi
raust
rautt
rauð
rauða
rauðan
rauðar
rauðara
rauðasandi
rauðbru
rauðgreni
rauðho
rauði
rauðiboli
rauðir
rauðri
rauðs
rauðu
rauðum
rauður
rauðvi
raven
rawls
ray
raymond
rað
raða
raðanna
raðað
raði
raðinu
raðir
raðið
raðs
raðsdo
raðsho
raðsins
raðssko
raðsstjo
rb
rbakka
rbanus
rbergur
rbi
rbo
rbook
rborg
rborgarsvæði
rborgarsvæðinu
rbru
rbruni
rbu
rby
rc
rd
rda
rdag
rdal
rdals
rdalsjo
rdalur
rdan
rdani
rdi
rdni
rdo
rdra
rdu
rdæmaskipan
rdæmi
rdæminu
rdæmis
rdæmið
rdæmum
re
rea
read
reader
reading
readings
ready
reagan
real
realism
reality
really
reason
rebecca
recent
record
recording
records
red
reddi
reed
reeves
ref
reference
refir
refni
refnis
reform
refsa
refsað
refsia
refsing
refsingar
refsingu
refur
regel
reggi
regi
regina
region
regional
register
regla
reglan
reglna
reglu
reglugerð
reglugerðir
regluleg
reglulega
reglulegar
reglulegt
reglulegu
reglulegum
reglulegur
reglum
reglunnar
reglunni
reglur
reglurnar
regn
regnbogafiskum
regnbogi
regnhli
regni
regnsko
regnti
rehder
rei
reid
reiddi
reiddist
reif
reign
reiki
reikistjarna
reikistjarnan
reikistjo
reikna
reiknar
reiknað
reiknaðar
reikning
reikninga
reikningana
reikninganna
reikninginn
reikningum
reikningunum
reiknirit
reiknive
reiknuð
reims
reipi
reis
reisa
reist
reistar
reisti
reistir
reistu
reistur
reit
reita
reiti
reitinn
reitir
reitni
reitnum
reitt
reitum
reið
reiða
reiðar
reiðhjo
reiði
reiðir
reiðu
reiðubu
reiður
rek
reka
rekast
reki
rekin
rekinn
rekið
rekja
rekkju
reknar
reknir
rekstra
rekstri
rekstur
reksturinn
rektor
rekur
related
relations
relationships
release
reli
religion
religious
relt
remix
remote
ren
rena
renault
rendur
rene
reneafjo
reni
renna
rennandi
renndi
renni
rennsli
rennt
rennur
rens
renti
report
reports
repu
republic
reri
reru
res
resa
research
reserve
reska
resku
reskur
resource
resources
response
results
reticulata
retrieved
return
reu
reustri
reuters
revealed
review
reviews
revised
revision
revolution
rex
rey
reyk
reykho
reykholt
reykholti
reykingar
reykja
reykjadal
reykjahli
reykjanes
reykjanesbæ
reykjanesbæjar
reykjanesbær
reykjanesi
reykjanesskaga
reykjavi
reykjavik
reykjum
reykt
reykur
reykvi
reyna
reynast
reynd
reyndar
reyndi
reyndist
reyndu
reyndur
reyndust
reyni
reynir
reynist
reynistað
reynolds
reynsla
reynslu
reynst
reynt
reyðarfirði
reyðarfjo
reyðilagðist
rez
rf
rfa
rfagra
rfagri
rfaði
rfc
rfe
rfell
rfelli
rfesta
rfestar
rfestingar
rfestingu
rfestingum
rfi
rfin
rfina
rfirisey
rfjo
rfoss
rframlo
rfræðinga
rfræðingar
rfræðingur
rfu
rfublo
rfubolta
rfubolti
rfuknattleik
rfuknattleiksmaður
rfum
rfursti
rfurstinn
rfuðu
rg
rga
rgang
rgangi
rgangur
rgen
rgengi
rgerð
rgi
rgin
rgjo
rglju
rgny
rgo
rgripi
rgry
rgu
rgum
rgun
rgunarba
rgund
rgunum
rguðust
rgvin
rgvinsdo
rgvinsson
rgæs
rhagsa
rhagslega
rhallsson
rhallur
rhertogi
rhildur
rhizobium
rhljo
rho
rhode
rhodes
rhododendron
rhs
rhu
rhundur
rhver
rhvert
rhytisma
rhæfir
rhæft
rhæfð
rhæfða
rhæfði
rhæfðum
rhæð
ri
ria
ribati
ribes
ric
rica
ricardo
rice
rich
richard
richards
richardson
richie
richter
rick
rico
riddara
riddarakross
riddarakrossi
riddarar
riddaraso
riddari
riddarinn
ride
ridley
rie
rif
rifi
rifin
rifinn
rifið
rifja
rifnar
rifu
right
rightarrow
rights
rigna
rigning
rignir
rik
rikerfi
rikerfið
rikerfum
riley
rilla
rilli
rimaður
rin
rina
ring
ringa
ringar
ringin
rings
ringu
ringum
ringur
rinn
rinnar
rinni
rins
rinu
rio
rir
ris
risa
risann
risans
risanum
risasto
rise
risi
risinn
risið
risk
risson
rist
rista
risu
rit
rita
ritani
ritara
ritari
ritaskra
ritað
ritaðar
ritaði
ritdo
ritgerð
ritgerðinni
ritgerðir
ritgjo
ritha
ritho
riti
ritin
ritinu
ritið
ritma
ritro
ritry
ritsi
ritsins
ritskoðun
ritsti
ritstj
ritstjo
ritsto
ritsty
ritum
ritun
rituð
rituðu
rituðum
ritverk
river
rix
rið
riðill
riðið
riðlakeppninni
riðli
riðlinum
riðlum
riðu
rja
rjo
rju
rjum
rk
rka
rkc
rkenni
rki
rkin
rkina
rkinni
rklaustri
rkmenistan
rko
rkoma
rkomu
rkro
rks
rku
rkum
rkun
rkunum
rkur
rkurinn
rkuð
rkuðu
rkuðum
rkvir
rla
rlaga
rland
rlandi
rlands
rlausn
rleg
rlega
rlegar
rlegt
rlegu
rlegum
rlegur
rleif
rleifsson
rleifur
rlendi
rlendis
rli
rlinga
rlingur
rlo
rlts
rlum
rlygur
rma
rmagn
rmagna
rmagnað
rmagnaði
rmagni
rmagns
rmann
rmannara
rmanni
rmanns
rmannsson
rmeistari
rmenn
rmenni
rmenningar
rmi
rmjo
rmo
rmu
rmum
rmuni
rmunum
rn
rna
rnado
rnanda
rnandi
rnar
rnara
rnarandsto
rnarfar
rnarformaður
rnarfundi
rnarhe
rnarinnar
rnarkosningar
rnarkosningarnar
rnarkosningum
rnarkosningunum
rnarlamb
rnarleiðtogi
rnarlo
rnarly
rnarma
rnarmaður
rnarmenn
rnarra
rnarri
rnarskra
rnarsvæði
rnartaumunum
rnarti
rnason
rnasonar
rnasyni
rnað
rnaði
rnberg
rnbraut
rnbrauta
rnbrautarlest
rnbrautarsto
rnbrautartengingu
rnbrautin
rnbrautir
rnefni
rnenda
rnendum
rnendur
rnes
rnesi
rnessy
rni
rnin
rnina
rninn
rninni
rnir
rnið
rnkerfi
rnlagado
rnlagara
rnlagaþing
rnlagaþings
rnleysi
rnma
rno
rns
rnsdo
rnsi
rnsson
rnssonar
rnssyni
rnsy
rnten
rnu
rnuathugunarsto
rnufræði
rnufræðigrein
rnufræðingar
rnufræðingur
rnufræðivefnum
rnufræðivefurinn
rnum
rnumerki
rnun
rnuna
rnunar
rnunnar
rnunni
rnunum
rnur
rnurnar
rnus
rnusar
rnuspeki
rnusto
rnustri
rnuðu
rnvalda
rnvo
rny
ro
road
rob
robbie
robert
roberto
roberts
robertson
robin
robinson
robot
robson
rochester
rock
rockefeller
rocky
rod
roddur
rodri
rodriguez
roe
rofið
roger
rogers
rok
rokk
rokkhljo
rokki
rokksins
rokkto
roland
role
roll
rolling
roma
roman
romance
romano
rome
romney
ron
ronald
ronaldo
room
rooney
roosevelt
root
roots
ros
rosa
rosar
rose
roskov
ross
rossi
rostock
roth
rotterdam
round
rousseau
routledge
roux
rove
rover
row
rowling
roy
royal
royale
rp
rpu
rpum
rpun
rpuðu
rr
rra
rrar
rre
rri
rrækt
rræði
rs
rsa
rsauka
rsbyrjun
rsdag
rsdo
rsfjo
rshafnar
rshavn
rsho
rshvoli
rsi
rsigur
rsins
rsjo
rsk
rska
rskarandi
rskemmdist
rski
rsko
rskotun
rskra
rskt
rsku
rskum
rskur
rskurð
rskurðaði
rskurði
rskurður
rskvo
rsla
rslan
rslit
rslita
rslitakeppni
rslitakeppnina
rslitakeppninni
rslitaleik
rslitaleiknum
rslitaleikur
rslitaleikurinn
rslitin
rslitum
rslitunum
rslok
rsloka
rslu
rslum
rslunni
rslur
rsma
rsmi
rsmo
rsno
rso
rsrit
rss
rssky
rsson
rssonar
rsssf
rssyni
rst
rstaka
rstakan
rstakar
rstakir
rstaklega
rstakra
rstakrar
rstakri
rstaks
rstakt
rstakur
rstaða
rsteinn
rsti
rstjo
rsto
rsu
rsveit
rsy
rt
rta
rtal
rteini
rterbuch
rti
rto
rttemberg
rtu
rtum
rtun
rtur
ru
ruauðlinda
ruauðlindir
rubens
rubi
ruby
ruc
ruddi
rudolf
rufræði
rufræðingnum
rufræðingur
rufræðingurinn
rufræðistofnun
rufræðistofnunar
rufus
rugg
rugga
ruggan
rugglega
ruggt
ruggur
rugla
ruglað
ruhr
ruhu
ruja
rule
ruleg
rulega
rulegar
rulegra
rulegt
rulegu
rulegum
rulegur
rules
rull
rum
rumerki
run
runa
runautar
rund
rundar
rundur
runeyti
runga
rungar
rungum
rungur
runn
runna
runnar
runner
runni
running
runnið
runnu
runo
runu
runum
rupert
rur
rurnar
rus
rusar
rusdo
rush
rushforth
russell
russells
russia
russian
russon
rust
rustig
rustu
rut
ruth
rutherford
ruti
rutt
ruv
ruvernd
ruverslun
ruvi
ruð
ruðin
ruðu
ruðum
ruðunum
rva
rvakur
rval
rvallasy
rvalsdeild
rvalsdeildarinnar
rvalsdeildin
rvalsdeildina
rvalsdeildinni
rvalslið
rvanda
rvandi
rvar
rvaxin
rveldi
rvera
rverslunin
rverufræðingur
rverum
rverur
rvezi
rvi
rvinnslu
rvirkjun
rviðri
rvk
rvo
rvum
ry
ryan
rydb
ryggi
ryggis
ryggisma
ryggisra
ryk
ryðja
ryþmablu
rzburg
rædd
ræddi
ræddu
ræfajo
ræfi
ræfum
ræki
rækilega
rækja
rækju
rækjur
rækt
rækta
ræktað
ræktaðar
ræktaðir
ræktaður
ræktun
ræktunar
ræktuð
ræna
rændi
rændu
ræningi
ræningja
ræningjar
ræningjarnir
ræningjum
rænt
rær
rætast
rætt
rættist
rætur
ræð
ræða
ræðar
ræði
ræðir
ræðismaður
ræðr
ræðst
ræðu
ræðum
ræðumaður
ræðunni
ræður
rð
rða
rðar
rðardal
rðardo
rðarson
rðarsonar
rðarsyni
rði
rðin
rðina
rðinn
rðinni
rðir
rðist
rðr
rðu
rðugleika
rðugt
rðum
rðun
rðung
rðunga
rðungi
rðungsu
rðungu
rðungur
rðunin
rðunni
rðunum
rður
rðurinn
rðust
rðusti
rðuð
rðuðu
rþing
rþingi
rþingið
rþu
s
sa
saa
saab
sabbath
sabella
sabellu
sabet
sabetar
sabetu
saccharum
sacramento
saddam
safa
safari
safelli
safety
saffran
safi
safirði
safjarðar
safjarðardju
safjarðarsy
safjo
safn
safna
safnahu
safnar
safnast
safnað
safnaðarins
safnaði
safnaðist
safni
safninu
safnið
safnplata
safnplo
safnsins
safold
saga
sagan
sagas
sage
sagna
sagnanna
sagnaritari
sagnaritun
sagnfræði
sagnfræðinga
sagnfræðingar
sagnfræðingur
sagnfræðingurinn
sagnir
sagnorð
sagst
sagt
sagðar
sagði
sagðir
sagðist
sagður
sahara
sai
said
saint
sak
saka
sakama
sakana
sakanir
sakar
sakað
sakaði
sakaðir
sakaður
sakfelldur
sakir
sakka
saklaus
sakleysi
sakna
sakso
sakynni
sal
sala
salah
salat
salazar
saldar
saleh
salem
sali
salinn
salisbury
salix
salka
salman
salmo
salnum
salo
salofttegunda
salsa
salt
salti
salurinn
salvador
salvelinus
salvo
salzburg
sam
sama
saman
samanber
samanborið
samanburð
samanburðar
samanburði
samanburður
samanlagt
samanlo
samans
samansafn
samansett
samanstanda
samanstendur
samansto
samantekt
samantha
samar
samband
sambandi
sambandinu
sambandið
sambands
sambandsins
sambandsland
sambandslandanna
sambandslandinu
sambandslands
sambandslandsins
sambandslo
sambandsly
sambandsra
sambandsri
sambandsþingið
sambandsþingsins
sambi
sambo
sambu
sambucus
samby
sambærileg
sambærilegar
sambærilegt
samdi
samdra
same
sameiginleg
sameiginlega
sameiginlegan
sameiginlegri
sameiginlegt
sameiginlegu
sameiginlegum
sameiginlegur
sameign
sameina
sameinar
sameinast
sameinað
sameinaða
sameinaðar
sameinaði
sameinaðir
sameinaðist
sameinaðs
sameinaður
sameind
sameinda
sameindir
sameining
sameiningar
sameiningu
sameinuð
sameinuðu
sameinuðust
samfara
samfarir
samfe
samfelld
samfellda
samfellt
samferða
samfleytt
samfylkingar
samfylkingarinnar
samfylkingin
samfylkinguna
samgangna
samgo
samheiti
samhengi
samherja
samhliða
samhljo
sami
samin
saminn
samir
samið
samkeppni
samkomulag
samkomulagi
samkomulaginu
samkomulagið
samkomur
samkvæmt
samkyn
samkynhneigð
samkynhneigðra
samkynhneigður
samli
samliggjandi
samling
samma
samnefnd
samnefnda
samnefndri
samnefnds
samnefndu
samnefndum
samnefni
samnefnt
samning
samninga
samningar
samningarnir
samningaviðræður
samningi
samninginn
samningnum
samnings
samningsins
samningu
samningum
samningur
samningurinn
samo
samra
samruna
samry
samræma
samræmi
samræða
samræðan
samræðum
samræðunni
samræður
sams
samsetning
samsetningu
samsett
samsi
samskipta
samskipti
samskiptum
samskonar
samson
samspil
samstarf
samstarfi
samstarfinu
samstarfið
samstarfs
samstarfsmaður
samstarfsmenn
samstarfsverkefni
samstaða
samsteypustjo
samsto
samstundis
samsvara
samsvarandi
samsvarar
samsvo
samsy
samsæri
samsæta
samsætur
samt
samtaka
samtakanna
samtal
samtals
samti
samto
samu
samuel
samur
samveldinu
samveldisins
samveldið
samvinna
samvinnan
samvinnu
samvinnufe
samþykki
samþykkir
samþykkis
samþykkja
samþykkt
samþykktar
samþykkti
samþykktir
samþykktu
samþykktum
samþykktur
san
sana
sanakirja
sancho
sand
sanda
sanders
sandgerði
sandi
sandinn
sandinum
sandra
sands
sandsi
sandur
sandvi
sandy
sanger
sanir
sankara
sankti
sanna
sannanir
sannar
sannarlega
sannast
sannað
sannaði
sannfæra
sannfærandi
sannfærður
sanni
sannindi
sannlega
sannleika
sannleikann
sannleikanum
sannleikur
sannleikurinn
sannur
sans
sansibar
sanskri
santa
santi
santiago
santo
santos
sao
sapiens
sar
sara
sarah
sarajevo
sardi
sardini
sari
sarinnar
sarpur
sarsy
sartre
sarvi
sasa
sasko
sassani
sast
sat
satan
satellite
sato
satru
satt
satu
saturday
saudi
saul
sauma
saumað
saur
saurbæ
sautja
sauð
sauða
sauðafelli
sauðamaður
sauðfe
sauðfja
sauði
sauðina
sauðir
sauðlauksdal
sav
savanna
save
savi
savoja
sax
saxa
saxifraga
saxland
saxlandi
saxlands
saxo
saxon
say
says
saætt
sað
saði
sbekistan
sbending
sbendingar
sbendingu
sberg
sbirnir
sbjo
sbo
sbr
sbru
sc
scandinavian
scavo
scene
schengen
scheveningen
scheving
schimp
schltr
schmidt
schneider
scho
school
schools
schram
schro
schu
schubert
schult
schultz
schumacher
schuster
schwartz
sci
sciadopitys
science
sciences
scientific
scientist
scipio
scotia
scotland
scott
scottish
scream
screen
sdi
sdienu
sdo
sdy
se
sea
seahorse
sean
search
searle
season
seattle
sebastes
sebastian
sebo
second
secret
secretary
secrets
section
security
sedgwick
see
sef
sefi
sefs
sefur
seg
sega
segi
segir
segist
segið
segja
segjandi
segjast
segjum
segl
seglin
seglið
seglskip
seglum
segulsvið
segði
segðu
sei
seido
seifs
seifur
sein
seinast
seinasta
seinasti
seinn
seinna
seinni
seint
seinustu
seis
sek
sekan
sekir
sekki
sekkur
sekt
sektir
seku
sekur
sel
sela
selassie
seld
selda
seldar
seldi
seldir
seldist
seldu
seldur
seldust
select
selected
selesti
self
selfoss
selfossi
seli
selinu
selir
selja
seljast
selju
sella
sello
selma
selmu
selst
selt
seltjarnarnes
seltjarnarnesi
seltjarnarness
selur
selvogi
sem
semi
semja
semur
sen
sena
senate
send
senda
sendar
sendi
sendifulltru
sendiherra
sendimaður
sendimenn
sendinefnd
sending
sendingar
sendingin
sendingu
sendir
sendira
sendu
sendum
sendur
seneca
senegal
senn
sennilega
sense
sent
senta
senti
sentimetra
sentimetrar
sentum
sep
sepsson
sept
september
sequence
sequences
sequoia
ser
serba
serbar
serbi
serbian
serbneska
serbneskur
serenu
sergio
seri
serie
series
sero
server
service
services
ses
sesar
sess
sesselja
sessi
sest
set
seta
setberg
seth
seti
setið
setja
setjast
setjið
setjum
setlo
setning
setninga
setningar
setningin
setningu
setningunni
sett
settar
setti
settir
settist
settu
settum
settur
settust
setu
setur
setzt
seu
seven
severus
sevilla
sex
sexta
sexti
sextus
sexual
sey
seyði
seyðisfirði
seyðisfjarðar
seyðisfjo
sezt
seðlabanka
seðlabankans
seðlabankanum
seðlabankastjo
seðlabanki
seðlabankinn
seðlar
sf
sferill
sfirðinga
sfo
sfreyja
sfreyjan
sfreyju
sfru
sg
sgarði
sgeir
sgeiri
sgeirs
sgeirsdo
sgeirsson
sgeirssonar
sgerður
sgo
sgra
sgri
sgrjo
sh
sha
shaanxi
shadow
shafi
shah
shakespeare
shall
shan
shandong
shanghai
shannon
sharon
shaw
she
sheen
sheet
sheffield
shek
shelby
sheldon
shell
shenyang
shepherd
sherman
shi
shift
shli
sho
shokki
short
shot
should
show
shows
shqipe
shrubs
shu
si
siar
sibirica
sic
sichuan
sid
side
sident
sidney
sie
siebold
sierra
sif
sig
sigfu
sigga
siggi
sighvatr
sighvats
sighvatsson
sighvatur
sigla
sigldi
sigldu
siglingafe
siglingar
siglingu
siglingum
siglir
siglt
siglufirði
siglufjarðar
siglufjo
sigmar
sigmund
sigmundar
sigmundi
sigmundsson
sigmundur
sign
signy
sigra
sigrar
sigrast
sigrað
sigraði
sigraðir
sigraður
sigri
sigru
sigruðu
sigtryggur
sigur
sigurbjo
sigurgeir
sigurgeirsson
sigurinn
sigurjo
sigurlaug
sigurlið
sigurs
sigursæla
sigursælasta
sigursæli
sigurvegara
sigurvegarar
sigurvegari
sigurvegarinn
sigurveig
sigurð
sigurðar
sigurðardo
sigurðarson
sigurðarsonar
sigurði
sigurðr
sigurðsson
sigurðssonar
sigurðssyni
sigurður
sigvalda
sigvaldi
sigþo
sihanouk
sik
sikiley
sikileyjar
sikileyjarvo
sil
silence
silfri
silfrið
silfur
silfurs
silfurverðlaun
silgu
silicon
silja
silki
sill
silla
siloli
silung
silungsveiði
silungur
silva
silver
silvio
simbabve
simmons
simo
simon
simone
simple
simpson
simpsons
simulium
sin
sina
since
sinda
sindaakademi
sindadeild
sindafe
sindagrein
sindaheimspeki
sindaleg
sindalega
sindalegar
sindalegri
sindalegum
sindamanna
sindamaður
sindamaðurinn
sindamenn
sindamo
sindanna
sindarannso
sindaska
sindastofnun
sindasvið
sindavefnum
sindavefur
sindavefurinn
sindavefurinnwikiorðabo
sindbað
sindi
sindin
sindri
sindum
sinensis
sinfo
sing
singa
singamiðsto
singapore
singapu
singar
singarha
singarinnar
singarnar
singarorð
singarorðsbeyging
singasi
singatækni
singer
singh
singin
single
singu
singum
singuna
singunni
sink
sinn
sinna
sinnar
sinni
sinnir
sinnt
sinnti
sinnum
sins
sint
sinu
sinum
sio
sir
sire
sirnar
sis
sister
sisters
sit
sitala
sitalan
site
sites
sitja
sitjandi
sitji
sitkagreni
sito
sitr
sitt
sitthvoru
situr
six
size
sið
siðaskipti
siðaskiptin
siðbo
siðferði
siðfræði
siði
siðum
siður
sja
sjaldan
sjaldgæf
sjaldgæft
sjaldgæfur
sjaldnar
sjaldnast
sjaldse
sjan
sjanghæ
sjari
sje
sjer
sjerasade
sji
sjo
sju
sk
ska
skadal
skafta
skaftafellssy
skafti
skaga
skagafirði
skagafjarðar
skagafjarðarsy
skagafjo
skagans
skaganum
skagastro
skagfirðinga
skagi
skaginn
skakki
skal
skala
skaland
skalandi
skalands
skalf
skall
skalla
skallagri
skalt
skaltu
skamma
skamman
skammar
skammli
skamms
skammstafanir
skammstafað
skammsto
skammt
skammta
skammtafræði
skammti
skan
skana
skanderbeg
skandi
skandinavi
skap
skapa
skapandi
skapar
skapast
skapað
skapaði
skapaðist
skapaður
skapi
skaplyndi
skapti
skapur
skar
skara
skarast
skari
skarl
skarla
skarlar
skarphe
skars
skarsdo
skarsson
skarsverðlaun
skarsverðlauna
skarsverðlaunin
skarð
skarði
skarðið
skarðsa
skarðsstro
skatt
skatta
skattlo
skattur
skaut
skautafe
skað
skaða
skaðabo
skaðabætur
skaði
skaðleg
ske
skefjum
skegg
skeggi
skeggja
skeggjason
skein
skeið
skeiða
skeiðara
skeiði
skeiðum
skel
skeldy
skelfingu
skelin
skeljar
skeljum
skeljungur
skell
skella
skellur
skemma
skemman
skemmdir
skemmdist
skemmdum
skemmdust
skemmri
skemmst
skemmt
skemmta
skemmtanir
skemmti
skemmtikraftur
skemmtileg
skemmtilegt
skemmtun
skemmtunar
skemmu
skemmuna
skemmunni
skepna
skepnu
skepnum
skepnur
sker
skera
skeri
skerinu
skerið
skert
skerða
skessa
skessan
skeyti
skeytt
skeð
skeði
ski
skift
skiftist
skikkju
skil
skila
skilaboð
skilaboðin
skilaboðum
skilar
skilað
skilaði
skildi
skildinga
skildir
skildist
skildu
skildust
skilgetin
skilgetinn
skilgreina
skilgreind
skilgreindar
skilgreindi
skilgreindir
skilgreindur
skilgreining
skilgreiningar
skilgreiningin
skilgreiningu
skilgreinir
skilgreint
skilin
skilinn
skilið
skilja
skiljanlegt
skiljast
skilji
skilma
skilnað
skilnaði
skilning
skilningi
skilningur
skilri
skilst
skilti
skilur
skiluðu
skilvirkni
skilyrði
skilyrðum
skin
skinn
skinner
skinni
skip
skipa
skipafe
skipagrein
skipan
skipanir
skipanna
skipar
skipasmi
skipað
skipaði
skipaðir
skipaður
skipherra
skipherrann
skipi
skipin
skipinu
skipið
skips
skipsins
skipst
skipstjo
skipt
skipta
skiptar
skiptast
skipti
skiptin
skipting
skiptingin
skiptingu
skiptir
skiptis
skiptist
skiptið
skiptu
skiptum
skiptur
skiptust
skipulag
skipulagi
skipulagningu
skipulags
skipulagt
skipulagðar
skipulagði
skipulega
skipuleggja
skipulo
skipum
skipun
skipunum
skipuð
skipuðu
skipverjar
skir
skja
skjal
skjala
skjalasafn
skjaldarmerki
skjaldarmerkinu
skjaldarmerkið
skjaldbaka
skjaldbo
skjaldborg
skjali
skjalinu
skjalið
skjo
skju
skjuhli
sko
skora
skorar
skorað
skoraði
skordy
skorin
skorinn
skorið
skornum
skort
skorta
skorti
skortir
skorts
skortur
skorun
skoruð
skoruðu
skorður
skorðuð
skosk
skoska
skoski
skosku
skoskum
skoskur
skot
skota
skotakonungs
skotakonungur
skotar
skothri
skoti
skotin
skotinn
skotið
skotland
skotlandi
skotlands
skott
skotta
skottu
skotum
skotvopn
skoða
skoðana
skoðanako
skoðanir
skoðar
skoðað
skoðaði
skoðaðu
skoðum
skoðun
skoðunar
skoðunum
skoðuð
skra
skrar
skrauts
skref
skrefið
skrefum
skreið
skreyta
skreytt
skri
skrif
skrifa
skrifar
skrifari
skrifað
skrifaðar
skrifaði
skrifaðu
skrifaður
skriflega
skrifstofa
skrifstofu
skrifstofur
skrifstofustjo
skrift
skriftir
skrifum
skrifuð
skrifuðu
skriða
skriðdreka
skriðdy
skriðjo
skriðu
skriður
skro
skru
skrudda
skry
sks
skt
sku
skufall
skugga
skuggi
skugginn
skuggsja
skuld
skulda
skuldabre
skuldar
skuldatryggingara
skuldbindingar
skuldbindingum
skuldi
skuldir
skuldsson
skuldum
skuldur
skuli
skulu
skulum
skuluð
skum
skumælandi
skun
skuna
skunni
skunum
skur
skurð
skurður
skurðurinn
skutu
skuðu
skv
skva
sky
skyggn
skyggnir
skyld
skylda
skyldar
skyldi
skyldir
skyldleika
skyldu
skyldum
skyldur
skylt
skyn
skyndi
skyndihja
skyndilega
skyni
skynja
skynjun
skynsemi
skype
skyr
skyrtu
skæri
skæruliða
skæruliðar
skærum
sl
sla
slado
slag
slagorð
slagsma
slagverk
slaka
slam
slams
slamska
slamstru
slan
sland
slandi
slands
slandsbanka
slandsbanki
slandsgrein
slandsmeistarar
slandsmeistaratitilinn
slandsmeistari
slandsmet
slandsmiðum
slandsmo
slandsso
slandsstrendur
slanga
slapp
slar
slarinnar
slason
slasonar
slasyni
slaug
slava
slavar
slave
slavi
slavnesk
slavneska
slayer
sle
sleep
sleg
slega
slegar
slegin
sleginn
slegið
slegum
sleifs
sleifsson
sleifur
sleikja
sleit
slendinga
slendingabo
slendingar
slendingaso
slendingum
slendingur
slendingurinn
slensk
slenska
slenskan
slenskar
slenski
slenskir
slenskra
slenskrar
slenskri
slensks
slenskt
slensku
slenskum
slenskur
slenzk
slenzka
slenzkar
slenzkra
slenzku
slenzkum
sleppa
sleppir
sleppt
sleppti
slepptu
sleppur
slf
sli
slima
slimar
slimi
slimum
slin
slina
slingu
slinni
slir
slitið
slitnaði
slitu
sljo
slo
sloppið
slounik
slovarji
slovenia
slovenski
slovni
slow
slu
slueiningar
slum
slumann
slumanna
slumanni
slumanns
slumaður
slumaðurinn
slumenn
slumo
sluna
slunnar
slunni
slunum
sluppu
slur
slurnar
slys
slysavarnafe
slysi
slysið
slæm
slæma
slæmar
slæmt
slæmu
slæmur
slær
sm
sma
smakka
smala
smalamaður
smali
smalinn
small
sme
smekk
smella
smellir
smellt
smelltu
smi
smit
smitast
smith
smithsonian
smitsju
smið
smiðju
smiður
smiðurinn
smjo
smo
smund
smundar
smundi
smundsson
smundur
smynd
smyndari
smyndastofa
smyndir
smyndum
smyndun
smærri
sn
sna
snail
snake
snape
snar
snara
snari
snart
snati
sne
snemma
sneri
snerist
snerpa
snerpu
snerta
snerti
snertingu
snertir
sneru
snerust
sneska
snesku
sni
snilld
snir
snið
sniði
sniðs
snja
snjallsi
snjo
sno
snorra
snorrason
snorri
snow
snu
snum
sny
snyrtivo
snæbjo
snæfellsa
snæfellsjo
snæfellsnes
snæfellsnesi
snær
snævarr
snæða
snæði
snæðið
so
sobeide
soc
soccer
soccerway
social
socialist
socie
society
socrates
sofa
sofandi
soffi
sofi
sofia
sofið
sofna
sofnar
sofnað
sofnaði
sofnaður
software
sogni
sokka
sokkar
sokkið
sokkum
sol
solanum
solar
solda
sole
solid
solveig
solveigu
som
some
somemail
something
somoza
son
sona
sonar
sonarsonur
song
songs
sonic
soninn
sonja
sonr
sons
sonu
sonum
sonur
sonurinn
sony
sophie
sor
sorbonne
sorbus
sorg
soul
soult
sound
source
sources
south
southern
sove
soviet
soðin
soðið
sp
spa
space
spain
spaki
spakur
spandau
spanish
spanna
spannar
spara
sparisjo
spart
sparta
spe
speak
spears
special
specialist
species
speech
speed
spegill
speki
spena
spencer
spendy
spenna
spennan
spennandi
spennu
spesi
speyer
sphagnum
spi
spider
spike
spil
spila
spilar
spilara
spilarar
spilari
spilavi
spilað
spilaði
spilaðir
spilaður
spilið
spilla
spilling
spillingu
spillt
spilun
spiluð
spiluðu
spin
spinna
spirit
spirou
spisovne
spjald
spjaldto
spjall
spjo
spo
spor
sporbaug
spori
sporna
sporo
sport
sports
sporum
spotify
spp
spra
sprakk
spratt
sprengdi
sprengdu
sprengiefni
sprenging
sprengingu
sprengisandi
sprengja
sprengju
sprengjua
sprengjuflugve
sprengjum
sprengjur
spretta
sprettur
spring
springa
springer
springfield
springs
springur
sprota
sprottið
spruce
sprungu
sprungum
sprungur
spruttu
spu
spur
spurja
spurning
spurninga
spurningar
spurningartexti
spurningin
spurningu
spurningum
spurningunni
spurningunum
spurt
spurð
spurði
spurðist
spurðu
spurður
spy
spyr
spyrill
spyrja
spyrr
spænsk
spænska
spænski
spænskt
spænsku
spænskum
spænskur
sql
sqrt
square
sr
sra
srael
sraela
sraels
sraelsher
sraelska
sraelskur
sraelsri
srebrenica
sri
sro
sru
ss
ssa
ssakeisara
ssakeisari
ssar
sseldorf
ssi
ssins
sska
ssland
sslandi
sslands
sslandsgrein
ssnesk
ssneska
ssneski
ssneskir
ssneskra
ssneskt
ssnesku
ssneskum
ssneskur
sson
ssona
ssonar
ssp
sst
sstjo
ssum
ssur
ssyni
st
sta
staddir
staddur
stade
stadio
stadium
staf
stafa
stafar
stafað
stafaði
staff
stafi
stafinn
stafir
stafirnir
stafni
stafnum
stafro
stafræn
stafræna
stafrænar
stafrænt
stafrænu
stafrænum
stafs
stafsetning
stafsetningar
stafsetningu
stafur
stafurinn
stage
stak
staka
stakk
stal
stali
stalin
stan
stand
standa
standandi
standard
standast
standi
standinu
standið
stands
stanford
stangast
stanhope
stanley
stanton
star
starf
starfa
starfandi
starfar
starfað
starfaði
starfi
starfinu
starfið
starfrækt
starfræktur
starfs
starfsa
starfsemi
starfsemin
starfseminni
starfsfo
starfsheiti
starfsho
starfsmanna
starfsmannastjo
starfsmaður
starfsmenn
starfsmo
starinnar
stark
starr
starri
stars
starsamband
starsambandi
start
state
states
static
station
statistical
statistics
statt
stattu
status
stavu
stay
stað
staða
staðalfra
staðall
staðallinn
staðama
staðan
staðar
staðarfall
staðarho
staðarins
staðbundin
staðbundið
staðfest
staðfesta
staðfesti
staðfestingar
staðfestingu
staðfestir
staðfestu
staðfestur
staðgengill
staðhæfing
staðhæfingar
staði
staðin
staðinn
staðir
staðist
staðið
staðla
staðlað
staðlinum
staðnum
staðnæmdist
staðra
staðreynd
staðreyndir
staðsetja
staðsetning
staðsetningar
staðsetningu
staðsett
staðsettar
staðsettir
staðsettur
staður
staðurinn
stbro
stbræður
ste
steel
steen
stef
stefa
stefan
stefani
stefna
stefnan
stefndi
stefndu
stefni
stefnir
stefnt
stefnu
stefnum
stefnuma
stefnumo
stefnuna
stefnunnar
stefnunni
stefnur
stefnuskra
stefnuyfirly
steig
steikja
steikt
stein
steina
steinabo
steinar
steinarr
steinbeck
steinbi
steinda
steindir
steindo
steinefni
steingervingar
steingri
steini
steininn
steininum
steinn
steinninn
steino
steins
steinsdo
steinsson
steinsteypu
steinum
steinunn
steinunnar
steinunni
steinvo
steinþo
stekkur
stela
stella
stelpa
stelpan
stelpu
stelpur
stelpurnar
stelur
stemma
sten
stendr
stendur
stenman
stenst
step
stephan
stephen
stephensen
stereo
stereocaulon
sterk
sterka
sterkan
sterkar
sterkara
sterkari
sterkasta
sterki
sterkir
sterklega
sterkra
sterkri
sterkt
sterku
sterkum
sterkur
sterkustu
sterling
sterlingspund
stero
steve
steven
stevens
stewart
steypa
steypt
steypti
steyptist
steyptu
stfangin
stfanginn
sthu
sti
stiftamtmanns
stiftamtmaður
stig
stiga
stigi
stigin
stigið
stigs
stigu
stigum
stilk
still
stilla
stilli
stillingar
stillir
stillt
stin
stina
sting
stinga
stingi
stings
stingur
stingurinn
stinn
stinu
stinum
stir
stirnar
stirni
stirt
stið
stja
stjarna
stjarnan
stjo
stju
stma
stmo
sto
stockholm
stofn
stofna
stofnana
stofnanda
stofnandi
stofnanir
stofnar
stofnað
stofnaða
stofnaðar
stofnaði
stofnaðir
stofnaður
stofnenda
stofnendum
stofnendur
stofnfe
stofni
stofninn
stofninum
stofnsett
stofnsins
stofnskra
stofnum
stofnun
stofnunar
stofnunarinnar
stofnunin
stofnunina
stofnuninni
stofnunum
stofnuð
stofnuðu
stofnþverma
stofu
stofufangelsi
stofuhita
stofuna
stofunni
stoke
stokk
stokkho
stokkið
stokkseyri
stokkunum
stolið
stone
stones
stop
stoppa
store
stories
storm
stormi
stormur
story
stowe
stoð
stoðir
stoðsendingar
stoðum
str
stra
strali
stralska
stralskur
stralsund
strand
strandar
strandasy
strandaði
strandhe
strandho
strandir
strandlengju
stranga
strangar
strange
strangt
strategy
strauk
straum
strauma
straumi
straumsvi
straumum
straumur
straumurinn
strauss
strax
street
streitu
strendur
streng
strengi
strengjahljo
strengur
streyma
streymdu
streymir
stri
strik
striker
string
strja
strju
stro
strong
stropharia
stru
structure
stry
stræti
strætisvagn
strætisvagnar
stræto
sts
stsjov
stsson
stu
stuart
stubbur
studaginn
studagur
studd
studdi
studdu
studegi
student
students
studies
studio
studios
study
stukku
stum
stund
stunda
stundakennari
stundar
stundarkorn
stundað
stundaðar
stundaði
stundaður
stundi
stundin
stundir
stundu
stundum
stunduð
stunduðu
stungið
stungu
stunum
stur
sture
stureyðingar
sturinn
sturla
sturlu
sturlunga
sturlungao
sturlungu
sturluson
sturlusonar
sturs
sturshljo
sturvi
stus
stusar
stutt
stutta
stuttan
stuttar
stuttgart
stuttir
stuttlega
stuttmynd
stuttri
stuttski
stuttu
stuttum
stuttur
stuðla
stuðlar
stuðlað
stuðlaði
stuðning
stuðningi
stuðnings
stuðningsmanna
stuðningsmaður
stuðningsmenn
stuðningsmo
stuðningur
stuðst
stuðu
sty
stykki
stykkisho
style
styr
styrjaldarinnar
styrjo
styrk
styrka
styrki
styrkir
styrkja
styrkjum
styrkleika
styrkt
styrktar
styrkti
styrkur
styrmir
stytt
stytta
styttan
stytting
styttra
styttri
styttu
styttur
styðja
styðjast
styðst
styður
stækka
stækkandi
stækkar
stækkað
stækkaði
stækkaður
stækkun
stækkuð
stærra
stærri
stærst
stærsta
stærstan
stærsti
stærstu
stærstum
stærstur
stærð
stærðar
stærðfræði
stærðfræðigrein
stærðfræðileg
stærðfræðilega
stærðfræðingur
stærðfræðinnar
stærðir
stærðum
stæða
stæðan
stæði
stæðu
stæðum
stæður
stþjo
stþo
su
sua
sub
subfamily
subgenus
subsp
such
sudan
sugar
suicide
sullivan
sultan
sum
suma
sumar
sumarbu
sumardaginn
sumarfri
sumarhu
sumarið
sumarlagi
sumarliði
sumarma
sumaro
sumars
sumarti
sumir
summa
summary
summer
sumra
sumri
sumrin
sumrum
sums
sumstaðar
sumt
sumu
sumum
sumur
sun
suna
sund
sunda
sunday
sunderland
sundho
sundi
sundinu
sundir
sundið
sundlaug
sundlaugar
sundlaugin
sunds
sundum
sundur
sung
sungin
sungið
sungu
sunna
sunnan
sunnanverðri
sunnanverðu
sunnanverðum
sunnar
sunnarlega
sunni
sunnudag
sunnudaginn
sunnudagsblað
sunnudagsblaðið
sunnudagur
sunnudegi
sunnudo
sunum
suomi
suorði
super
supernatural
suppl
support
supreme
sur
surtsey
survey
sus
susan
suspect
sussex
sustainable
suu
suvi
suzhou
suzuki
suð
suðaustan
suðaustri
suðaustur
suðausturhluta
suðausturs
suðr
suðri
suðu
suður
suðura
suðurafri
suðurenda
suðurey
suðureyjar
suðureyjum
suðurgo
suðurhluta
suðurhlutanum
suðurhluti
suðurhveli
suðurkjo
suðurko
suðurland
suðurlandi
suðurlands
suðurnesja
suðurnesjum
suðurpo
suðurri
suðurs
suðurskautslandinu
suðurskautslandið
suðurstro
suðust
suðvestan
suðvestri
suðvestur
suðvesturhluta
suðvesturkjo
suðvesturs
sv
sva
svaf
sval
svala
svalbarða
svalbarði
svals
svalur
svanborg
svandi
svangur
svanhildur
svanur
svanurinn
svar
svara
svarar
svarað
svaraði
svarfaðardal
svarfaðardalsa
svarfdæla
svari
svarið
svart
svarta
svartahaf
svartahafi
svartahafs
svartan
svartar
svartasko
svartfjallaland
svartho
svarthol
svarti
svartidauði
svartir
svartma
svartra
svartur
svava
svavar
svavars
svavarsdo
svavarsdottir
svavarsson
sve
svefn
svefnherbergi
svefni
svefnleysi
svefns
svei
sveif
sveiflast
sveiflur
sveigir
sveik
svein
sveina
sveinar
sveinbarn
sveinbjarnarson
sveinbjo
sveini
sveininn
sveinn
sveinninn
sveins
sveinsdo
sveinsson
sveinssonar
sveit
sveita
sveitafe
sveitarfe
sveitarinnar
sveitarstjo
sveitastjo
sveitin
sveitina
sveitinni
sveitir
sveitirnar
sveitum
svelta
sven
svensk
svenska
sveppa
sveppabo
sveppagreifinn
sveppagrein
sveppatal
sveppi
sveppir
sveppum
sveppur
sveppurinn
sver
sverja
sverri
sverrir
sverris
sverrisdo
sverrisson
sverð
sverði
sverðinu
sverðið
sverðum
svg
svi
sviga
svigru
svik
svikin
svikið
svip
svipa
svipan
svipar
svipað
svipaða
svipaðan
svipaðar
svipaðri
svipaður
svipt
svipta
svipti
sviptur
svipur
svipuð
svipuðu
svipuðum
sviss
svissneska
svissneskur
svitandi
svið
sviða
sviði
sviðinu
sviðið
sviðsljo
sviðum
svo
svokallað
svokallaða
svokallaðan
svokallaðar
svokallaðir
svokallaðri
svokallaður
svoko
svoleiðis
svoli
svona
svonefnd
svonefnda
svonefndu
svonefndum
svæða
svæði
svæðin
svæðinu
svæðis
svæðisins
svæðið
svæðum
sw
swahili
swan
sweden
swedish
sweet
swift
sy
sydney
sykri
sykrur
sykur
sykursy
sylvia
syn
synd
synda
syndir
syndrome
syngi
syngja
syngur
syni
synir
synja
synjað
synjaði
synonymic
synt
synti
syrpa
syst
system
systema
systematic
systematics
systems
systir
systkin
systkina
systkini
systkinin
systkinum
systra
systrum
systur
systurnar
systursonur
syðra
syðri
syðst
syðsta
syðsti
szczecin
sæ
sæfari
sæfarinn
sæfi
sæi
sækir
sækja
sækjast
sæktu
sæky
sæl
sæla
sælgæti
sælir
sæll
sælu
sæmd
sæmdar
sæmdi
sæmdur
sæmilega
sæmund
sæmundar
sæmundi
sæmundsson
sæmundur
sæng
sænginni
sængur
sænsk
sænska
sænski
sænskt
sænsku
sænskum
sænskur
sær
særa
særi
særði
særðist
særður
særðust
sæt
sæta
sæti
sætin
sætinu
sætir
sætis
sætisto
sætið
sætt
sætta
sættast
sætti
sættir
sættist
sættu
sættust
sætu
sætum
sætur
sævar
sæði
søren
sþ
słownik
słowniki
sə
sɛ
t
ta
taa
tabjo
table
tablesi
tablesl
tablesp
tadsi
taf
tafarlaust
tafe
tafirði
tafjo
tafl
tafla
taflan
taflið
tag
tagalog
tage
tagi
tahi
taho
tai
taiwan
tak
taka
takast
take
takes
taki
taking
takist
takið
takk
takka
takkann
takmark
takmarka
takmarkanir
takmarkast
takmarkað
takmarkaða
takmarkaðan
takmarkaðar
takmarkaður
takmo
takt
takti
taktu
tal
tala
talan
talandi
talann
talans
talanum
talar
talað
talaði
taldar
taldi
taldir
taldist
tale
tales
tali
talin
talinn
talir
talisma
talist
talið
talk
talma
talna
talningu
tals
talsins
talska
talski
talskt
talskur
talsmaður
talsmenn
talsvert
talsverð
talsverða
talsverðum
tam
tama
tami
tamil
tan
tana
tandi
tang
tangshan
tangveldisins
tani
tanir
tanna
tansani
tao
tap
tapa
tapar
tapað
tapaði
tapaðir
taphrina
tapi
tar
tara
tardal
tarefni
tari
tarlega
tarlegar
tarlegri
tarleikara
tarleikari
tarleikarinn
tarna
tarnir
taro
tarsson
tarti
tarzan
tas
taska
taskaup
taskaupið
tasmani
taspyrnu
taspyrnukeppni
tast
tasta
tate
tatra
tau
taug
tax
taxon
taxonid
taxonomic
taxonomy
taxus
taylor
tað
taði
tbl
tbla
tbolta
tboltafe
tbolti
tbreidd
tbreiddasta
tbreiddur
tbreiðsla
tbreiðslan
tbreiðslu
tbreiðslusvæði
tbu
tcp
td
tdautt
tdauð
tdra
tdælakappa
te
tea
teacher
teachers
teaching
team
teams
tech
technical
technology
ted
teen
tefja
tefla
tefldi
teflt
tefni
tegund
tegunda
tegundanna
tegundar
tegundarinnar
tegundin
tegundina
tegundinni
tegundir
tegundirnar
tegundum
teheran
teikn
teikna
teiknarann
teiknari
teiknað
teiknaði
teiknimynd
teiknimyndablaðinu
teiknimyndaso
teiknimyndin
teiknimyndir
teikning
teikningar
teikningu
teikningum
teiknuð
tein
teina
teind
teinum
teits
teitsson
teitur
tek
tekin
tekinn
tekist
tekið
tekjum
tekjur
tekna
teknar
teknir
tekno
tekr
tekst
tekur
tel
teldi
telegraph
teles
telesar
telescope
telesi
television
teli
telinu
telið
telja
teljandi
teljast
telji
teljist
tell
telst
telur
temja
temple
tempruðum
ten
tenerife
tengd
tengda
tengdafaðir
tengdafo
tengdamo
tengdar
tengdasonur
tengdi
tengdir
tengdist
tengdu
tengdum
tengdur
tengdust
tengi
tengill
tenging
tengingar
tengingu
tengir
tengist
tengja
tengjast
tengla
tenglar
tengsl
tengsla
tengslin
tengslum
tengst
tengt
tennessee
tennis
tennur
tennurnar
teno
tensi
teo
ter
teresa
term
terra
terre
terrier
terror
terry
ters
terti
tes
tesla
test
testament
testamenti
testamentinu
testamentisins
testamentið
texas
text
texta
textafræði
textafræðingur
textaho
textann
textans
textanum
textar
textarnir
texti
textinn
texts
textum
tey
teygir
teygja
teymi
tezaurs
tf
tfestu
tfjo
tflutning
tflutningi
tflutnings
tflutningur
tfo
tfra
tframbjo
tfæra
tfærsla
tfærslu
tfærslur
tg
tga
tgangandi
tgarða
tgarður
tgefanda
tgefandi
tgefendur
tgefin
tgefið
tgerð
tgerðarmaður
tgjo
tgo
th
thames
than
thant
that
thatcher
the
theater
theatre
theft
their
them
then
theo
theodo
theodor
theodore
theories
theory
ther
therapy
theravada
there
thers
these
theta
they
thiers
thing
things
think
thinking
third
this
thluta
thlutað
thlutun
tho
thomas
thompson
thomsen
thomson
thor
thorarensen
thorbjo
thordarson
thorlacius
thoroddsen
thors
thorsteinsson
thought
threatened
three
through
thu
thuja
thule
thunberg
thverfi
thy
ti
tianjin
tibu
tico
tidsskrift
tiger
tigir
tign
tigu
til
tilbiðja
tilboð
tilbu
tilefni
tilegumaður
tilegumenn
tileinka
tileinkað
tileinkuð
tilfelli
tilfellum
tilfinning
tilfinningar
tilfinningu
tilfinningum
tilga
tilgang
tilgangi
tilgangur
tilgangurinn
tilgreind
tilheyra
tilheyrandi
tilheyri
tilheyrir
tilheyrt
tilheyrði
tilheyrðu
tilhneigingu
tilho
tilia
tilkall
tilkomu
tilkynna
tilkynning
tilkynningu
tilkynnt
tilkynnti
tilkynntu
till
tilla
tillaga
tillagan
tillar
tillega
tilli
tillit
tilliti
tillits
tillo
tilly
tilmælum
tilnefna
tilnefnd
tilnefndir
tilnefndur
tilnefning
tilnefningar
tilnefningu
tiloka
tilokað
tilraun
tilrauna
tilraunin
tilraunir
tilraunum
tils
tilskipun
tilstilli
tilstuðlan
tiltekin
tiltekinn
tiltekinna
tiltekinni
tiltekins
tiltekið
tiltekna
tilteknar
tilteknu
tilteknum
tilto
tilurð
tilvalið
tilveru
tilvi
tilvik
tilviki
tilvikum
tilviljun
tilvist
tilvitnana
tilvitnanir
tilvitnun
tilvonandi
tim
timarit
timber
timberlake
timbri
timbur
timburhu
time
times
timothy
tin
tina
tindar
tindasto
tindi
tindum
tindur
tindurinn
ting
tingar
tingu
tingur
tinn
tinna
tinni
tinu
tir
tis
tist
tisto
tit
titanic
titil
titilinn
titill
titillinn
titla
titlar
titlaður
title
titli
titlinum
titlum
tito
tituta
tivelli
tivist
tivistarsvæði
tið
tja
tjad
tjald
tjalda
tjaldbu
tjaldi
tjaldinu
tjaldið
tjaðri
tjingveldisins
tjo
tju
tka
tkoma
tkoman
tkomu
tla
tland
tlanda
tlandi
tlands
tlanna
tlarnir
tlauk
tlaukur
tlega
tlegt
tlegð
tlendinga
tlendingar
tlendingum
tli
tlit
tliti
tlits
tlo
tlu
tlum
tlun
tly
tlægur
tm
tma
tmanna
tmenn
tmo
tmundur
tmæla
tmælanna
tmælenda
tmælendatru
tmælendum
tmælendur
tmæli
tmælin
tmælt
tmælti
tmæltu
tmælum
tmælunum
tn
tna
tnar
tnefna
tnefnd
tnefndi
tnefndur
tnefningu
tni
tnik
tnin
tnir
tnum
tnunum
to
today
todd
toga
togara
togarinn
together
tokugawa
tokyo
toli
tolkien
toll
tolla
toller
tom
tome
tomlin
tommy
tomorrow
ton
tonga
toni
tonight
tonn
tonna
tonnum
tony
too
tool
tools
top
topic
topp
toppi
toppinn
toppnum
toppur
topsy
tor
torf
torfa
torfason
torfi
torg
torgi
torginu
torgið
torhjo
toronto
torr
torre
torres
torter
torti
tos
toskana
total
tottenham
touch
toulouse
tour
tourism
tours
tove
tower
town
toy
tpa
tr
tra
trade
tradition
trafford
training
trajanus
trampe
trans
translation
transnistri
transport
transylvani
trar
traust
trausta
trausti
trausts
trautt
travel
travis
trað
tre
treatment
treaty
treccani
tree
trees
trefjar
trega
tregur
treikninga
treikningum
trek
trekað
trent
tres
treyst
treysta
treysti
treystist
tri
trial
tribune
tribute
trichogramma
trichogrammatidae
trier
trifolium
trinity
trinu
trip
tristan
trið
trja
trjo
trna
tro
trog
trommari
trommuleikari
trommur
trompet
tropicos
trotski
trouble
troy
troða
tru
trudeau
true
trufla
truflun
trujillo
trum
truman
trump
trumps
truss
trust
truth
try
tryggingafe
tryggingar
tryggingarsjo
tryggir
tryggja
tryggt
tryggur
tryggva
tryggvado
tryggvason
tryggvasonar
tryggvi
tryggyngastofnun
tryggð
tryggði
tryggðu
træði
ts
tsdal
tsdalshe
tsdo
tse
tsendingar
tsendingu
tsetning
tsetningar
tsetti
tshli
tsins
tsj
tsjma
tsk
tska
tskrifast
tskrifaðist
tskrift
tsky
tsla
tso
tspor
tspyrnu
tsson
tsto
tsu
tsuga
tsy
tt
tta
ttabandalag
ttablaðinu
ttablaðið
ttablaðsins
ttabre
ttafe
ttafo
ttafordo
ttagrein
ttahu
ttamanna
ttamaður
ttamenn
ttamo
ttan
ttana
ttann
ttanna
ttar
ttara
ttaraðar
ttaraðarinnar
ttaraðir
ttarbo
ttardo
ttarfe
ttarfyrirkomulagi
ttarhljo
ttarho
ttari
ttarinnar
ttarins
ttarjo
ttarlo
ttaro
ttarsto
ttarve
ttasky
ttast
ttastjo
ttati
ttavo
ttað
ttaði
ttaðist
ttaður
ttby
ttekt
tter
tti
ttin
ttina
ttinda
ttindabara
ttindabrot
ttindado
ttindafe
ttindasa
ttindaskra
ttindi
ttindum
tting
ttingar
ttingen
ttingu
ttinn
ttinni
ttinum
ttir
ttirin
ttirnar
ttist
ttkvi
ttla
ttleika
ttleiki
ttlæta
ttlæti
ttlætis
ttma
ttna
tto
ttr
ttra
ttri
tts
ttsemi
tttaka
tttakandi
tttakenda
tttakendum
tttakendur
ttto
tttru
ttu
ttugur
ttuhli
ttukona
ttum
ttuma
ttumaður
ttun
ttuna
ttunda
ttundi
ttundu
ttunnar
ttunni
ttunum
ttur
tturfe
tturfyrirtæki
tturina
tturinn
ttursonur
ttust
ttuu
ttuð
ttuðu
ttuðust
ttvi
ttæka
ttækar
tu
tucker
tudor
tufyrirtæki
tug
tuga
tugi
tugir
tugt
tugum
tugur
tugþu
tula
tull
tum
tuma
tumi
tun
tuna
tunar
tunga
tungan
tungl
tungli
tunglinu
tunglið
tunglsins
tunglsljo
tungu
tungudal
tunguma
tunguna
tungunni
tungur
tunn
tunna
tunnar
tunni
tunnu
tunnur
tunum
tupac
tur
turdus
turing
turinn
turkey
turks
turn
turna
turnar
turnarnir
turner
turni
turninn
turninum
turs
tursborg
tursdo
tursson
turssonar
tus
tusnu
tust
tuttugasta
tuttugu
tuttugustu
tuu
tuvalu
tuð
tuðu
tuðust
tv
tva
tvanir
tvar
tvarp
tvarpi
tvarpinu
tvarpið
tvarps
tvarpsins
tvarpsmaður
tvarpssto
tvarpsþa
tvarð
tvarðar
tvarði
tvarðs
tvarður
tvað
tvaði
tvaðist
tvega
tvegaði
tveggja
tvegi
tvegs
tvegsbankans
tvegsra
tvegur
tveim
tveimur
tveir
tvemur
tvenn
tvenna
tvenns
tvennt
tvennu
tvennum
tvi
tvinnto
tvisvar
tvo
tvun
tvuð
tvuðu
tvægi
tvær
twain
twenty
twitter
two
txtbxcalc
ty
tycho
tyggja
tyler
type
tyrki
tyrkir
tyrkja
tyrkjara
tyrkjasolda
tyrkjaveldi
tyrkjaveldis
tyrkjum
tyrkland
tyrklandi
tyrklands
tyrkneska
tyrknesku
tyrkneskur
tz
tzebuerger
tæk
tæka
tæki
tækifæri
tækifærið
tækir
tækisfall
tækist
tækið
tækja
tækju
tækjum
tækni
tæknigrein
tækniha
tæknilega
tæknimaður
tæknin
tæknisko
tækniþro
tækra
tækt
tæktar
tæku
tækum
tækur
tækustu
tæmandi
tæp
tæpa
tæpar
tæpir
tæplega
tæpum
tær
tævan
tþenslu
u
ua
ubuntu
uc
ucla
udovi
uefa
ufe
ufjo
ugga
ugla
uha
uher
uhljo
uho
uk
ukirkjan
ukonungur
ukraine
ukrainian
uleikana
uleikanna
uleikar
uleikarnir
uleikum
uleikunum
ulf
ulindir
ull
ullin
ulm
ulmer
ulmus
ulrich
ultimate
um
uma
umanna
umbo
umboð
umboði
umboðsmanns
umboðsmaður
umbreyta
umbu
umbætur
umdeild
umdeildar
umdeildur
umdeilt
umdæmi
umea
umenn
umf
umfang
umfangi
umfangsmikil
umfangsmiklar
umferð
umferðar
umferðinni
umferðir
umfi
umfjo
umfly
umfram
umgjo
umhverfi
umhverfinu
umhverfis
umhverfisa
umhverfisma
umhverfisra
umhverfisstofnun
umhverfisvernd
umhverfið
umhyggju
umli
umlykur
umm
umma
ummerki
ummæli
ummælum
umo
umra
umritun
umræða
umræðan
umræðu
umræðuefni
umræðum
umræður
umsa
umsagnir
umsja
umsjo
umslag
umslags
umso
umspil
umsvif
umsvifalaust
umtalsvert
un
una
unar
unarlo
und
unda
undan
undanfari
undanfarin
undanfo
undankeppni
undankeppninni
undanskildu
undanskildum
undantekning
undantekningar
undanu
undanþa
undarleg
undarlega
undarlegt
undarlegur
under
understanding
underwood
undi
undir
undirbu
undireins
undirflokka
undirflokkur
undirgrein
undirheima
undirheiti
undirlagi
undirleik
undirlendi
undirliggjandi
undirrita
undirritað
undirritaði
undirritaðir
undirritaður
undirritun
undirrituð
undirrituðu
undirskrift
undirskriftir
undirstaða
undirsto
undirtegund
undirtegundir
undirtektir
undirætt
undirættba
undirættkvi
undrast
undraðist
undrum
undrun
undruðust
undu
undur
une
unesco
ung
unga
ungan
ungar
ungarnir
unger
ungfru
ungi
ungir
unglinga
unglingabo
unglingar
unglingsa
unglingum
unglingur
ungmenna
ungmennafe
ungmenni
ungr
ungra
ungs
ungt
ungu
ungum
ungur
ungverja
ungverjaland
ungverjalandi
ungverjalands
ungverjar
ungversk
ungverska
ungversku
ungverskur
uni
unicef
unicode
unin
union
unit
united
unity
univ
universal
universe
universita
universite
universitet
university
unix
unna
unnar
unni
unnin
unninn
unnið
unnt
unntust
unnu
unnur
unnust
unnusta
unnustu
uns
unu
unum
unwin
unz
up
update
upon
upp
uppa
uppalin
uppalinn
uppbla
uppbo
uppboði
uppbygging
uppbyggingar
uppbyggingarsjo
uppbyggingu
uppdra
uppeldi
uppeldis
uppfinningamaður
uppfylla
uppfyllir
uppfyllt
uppfært
uppgangi
uppgangur
uppgjo
uppgo
uppgro
uppgvo
uppha
upphaf
upphafi
upphafið
upphaflega
upphaflegu
upphafs
upphafsa
upphafsmaður
uppho
upphro
upphæð
uppi
uppistandari
uppistaðan
uppisto
uppko
uppl
upplausn
upplifa
upplifun
uppljo
upplo
upply
uppna
uppre
uppreisn
uppreisnar
uppreisnarmanna
uppreisnarmenn
uppreisnarmo
uppreisnin
uppreisnina
uppreisninni
uppreisnir
uppreist
upprisu
uppruna
upprunalega
upprunalegu
uppruni
uppruninn
upprunnin
upprunninn
upprunnið
uppræta
uppsala
uppsetning
uppsetningu
uppsett
uppsja
uppskera
uppskeru
uppskrift
uppso
uppspretta
upptaka
uppto
upptækar
uppu
uppvi
ur
urban
uri
urnar
urriðafoss
ursus
urtica
urðu
urðum
urður
us
usa
usar
usb
usda
use
used
user
uses
usi
using
uskaga
uskaganum
uspeki
usson
ust
ustri
ut
utah
utan
utanaðkomandi
utandyra
utanlands
utanri
utar
utarlega
utc
utf
uti
utrecht
uxa
uxu
uð
uðu
uðum
uðust
v
va
vad
vafa
vafalaust
vafi
vafið
vafra
vafranum
vafri
vafði
vagga
vaglasko
vagn
vagni
vagninn
vai
vaka
vakandi
vakar
vakað
vaki
vakir
vakið
vakna
vaknar
vaknað
vaknaði
vakt
vakti
vakur
val
vala
vald
valda
valdabara
valdamesta
valdamesti
valdar
valdara
valdasto
valdati
valdato
valdi
valdimar
valdimars
valdimarsdo
valdimarsson
valdir
valdið
valds
valdur
vale
valencia
valenti
valentine
valera
valgarðsson
valgarður
valgeir
valgerðar
valgerði
valgerður
valho
vali
valin
valinn
valinu
valið
valla
vallarins
valley
vallo
vallt
valmo
valodas
valois
vals
valsmenn
valt
valty
valu
value
values
valur
valþjo
vama
vampi
van
vana
vanalega
vancouver
vanda
vandama
vandað
vandi
vandinn
vandlega
vandræða
vandræði
vandræðum
vanessa
vanga
vangaveltur
vangi
vani
vanir
vanli
vann
vannst
vanrækslu
vans
vant
vanta
vantar
vantaði
vantraust
vantrauststillo
vantru
vanu
vanur
var
vara
varaformaður
varaforseta
varaforsetaefni
varaforseti
varaforsætisra
varalo
varamaður
varan
varanleg
varanlega
varar
varast
varað
varaði
varaþingmaður
vardy
varfo
vargas
vari
variation
variety
varin
varir
varið
varla
varlega
varli
varma
varmi
varna
varnar
varnarma
varnarmaður
varning
varnir
varp
varpa
varpar
varpað
varpaði
varpi
varpið
varpsfall
varpti
varr
vars
varsja
varspendy
varsson
varst
varstro
varstu
vart
varu
varð
varða
varðandi
varðar
varðaði
varðhald
varðhaldi
varði
varðist
varður
varðveislu
varðveist
varðveita
varðveitir
varðveitt
varðveitta
varðveittar
varðveitti
varðveittu
varðveittur
vasa
vasco
vascular
vati
vatn
vatna
vatnajo
vatnasvið
vatni
vatninu
vatnið
vatns
vatnsaflsvirkjun
vatnsbo
vatnsdal
vatnsfirði
vatnsfo
vatnsins
vatnsmy
vatnsnesi
vatnssveit
vax
vaxa
vaxandi
vaxblo
vaxi
vaxin
vaxinn
vaxið
vaxta
vaxtar
vað
vaða
vaði
vaðið
vaðma
vb
ve
vec
ved
vef
vefi
vefinn
vefir
vefja
vefjum
vefleiðangur
vefnum
vefrally
vefsafn
vefsetur
vefsi
vefslo
vefsto
vefsvæði
vefur
vefurinn
vefþjo
veg
vega
vegabre
vegagerð
vegagerðin
vegalengd
vegamo
vegar
vegarins
vegas
vegg
veggi
vegginn
veggir
veggjum
veggnum
vegi
veginn
veginum
vegir
vegis
vegið
vegna
vegu
vegum
vegur
vegurinn
vei
veidd
veiddir
veiddu
veiddur
veifa
veik
veika
veikburða
veiki
veikin
veikinda
veikindi
veikindum
veikt
veiktist
veikur
veira
veiran
veisla
veislan
veislu
veislum
veislur
veist
veistu
veit
veita
veiti
veitingahu
veitingastað
veitingu
veitir
veitt
veittar
veitti
veittu
veittur
veitur
veizla
veizlan
veizlu
veizluna
veizlunnar
veizlunni
veizt
veiztu
veiða
veiðar
veiðarfæri
veiðarnar
veiði
veiðimenn
veiðir
veiðist
veiðum
vek
vekja
vekur
vel
veldi
veldinu
veldisins
veldið
veldu
veldur
velferð
velgengni
velgjo
velja
veljið
velkomin
velkominn
velli
vellinum
velska
velsku
velskur
velt
velta
velti
veltir
veltur
velur
vember
vena
venesu
venezuela
veni
venja
venjan
venju
venjuleg
venjulega
venjulegar
venjulegri
venjulegt
venjulegu
venjulegum
venjulegur
venjur
venska
venstre
venus
ver
vera
veraldar
verandi
verbu
verg
vergri
veri
verit
verið
verja
verjast
verk
verka
verkafo
verkaly
verkamanna
verkamannafe
verkamannaflokksins
verkamannaflokkurinn
verkamaður
verkamenn
verkar
verkefna
verkefnastjo
verkefni
verkefnin
verkefninu
verkefnisins
verkefnisstjo
verkefnið
verkefnum
verkfall
verkfo
verkfræði
verkfræðingur
verkfæri
verki
verkin
verkinu
verkið
verkmenntasko
verks
verksins
verksmiðja
verksmiðjan
verksmiðju
verksmiðjum
verksmiðjur
verkstjo
verkstæði
verkum
verkun
verlag
vermenn
vermont
vernd
vernda
verndar
verndardy
verndari
verndarsvæði
verndað
verndun
verne
vernes
vernon
vero
veronica
verpa
verpir
verr
verra
verri
vers
version
versla
verslanir
verslun
verslunar
verslunarfe
verslunarhu
verslunarmiðsto
verslunarsko
verslunarstaður
verslunarstjo
verslunarsto
verslunin
verslunina
versluninni
verslunum
versnandi
versnaði
verso
verst
versta
versti
versto
verstu
vert
verti
vertsen
vertu
veru
verufall
veruleg
verulega
verulegu
verulegum
verulegur
veruleika
verum
verur
very
verzlunarsko
verð
verða
verðandi
verðbo
verðbre
verðgildi
verði
verðir
verðið
verðlag
verðlaun
verðlauna
verðlaunanna
verðlaunin
verðlaunum
verðlaununum
verðmæti
verðmætum
verðr
verðtryggingu
verðum
verður
vespasi
vestan
vestanverðu
vestanverðum
vestar
vestari
vestast
vestasta
vestasti
vestfali
vestfirði
vestfjarða
vestfjo
vestfold
vestmannaeyja
vestmannaeyjar
vestmannaeyjum
vestra
vestri
vestrinu
vestro
vestræn
vestræna
vestrænni
vestrænum
vestur
vestura
vesturbakkanum
vesturbæ
vesturgo
vesturheimi
vesturheims
vesturhluta
vesturhluti
vesturho
vesturland
vesturlanda
vesturlandi
vesturlands
vesturlo
vesturs
vestursins
vesturstro
vesturvi
vetfangi
vetni
vetnis
vetr
vetra
vetrar
vetrarlagi
vetraro
vetrarti
vetri
vetrum
vettvang
vettvangi
vettvangur
vetur
veturinn
veturna
vetursetu
veturvistar
vex
vexti
vextir
vez
vezi
veði
veðra
veðri
veðrið
veður
veðurathugunarsto
veðurdag
veðurfar
veðurfari
veðurfræði
veðurs
veðurstofa
veðurstofu
vff
vg
vgun
vi
via
vice
vichy
victor
victoria
victory
vid
video
vie
vietnam
view
vigdi
vigfu
vigga
viggo
vignir
vigra
vigur
vigurru
vii
viii
vik
vika
vikan
viking
vikið
vikna
viktor
viktori
viku
vikulega
vikum
vikuna
vikunnar
vikunni
vikur
vil
vilborg
vild
vildi
vildir
vildu
vilfri
vilhelm
vilhelmi
vilhja
vili
vilja
viljandi
viljað
vilji
viljir
viljið
viljum
vill
villa
village
villandi
villir
villt
villta
villtir
villtist
villtra
villtur
villu
villur
villutru
vilmundur
vilt
viltu
vin
vina
vinabæjatengslum
vinar
vincent
vinci
vind
vinda
vindar
vindi
vindinn
vindum
vindur
vindurinn
vingast
vini
vinir
vinkona
vinkonu
vinn
vinna
vinnan
vinnandi
vinni
vinnsla
vinnslu
vinnsluminni
vinnu
vinnuafl
vinnubro
vinnufo
vinnuho
vinnukona
vinnukonan
vinnukonu
vinnumann
vinnumanni
vinnumaður
vinnumaðurinn
vinnumenn
vinnuna
vinnunni
vinnur
vinnusto
vinnustofu
vinsent
vinstra
vinstri
vinstrihreyfingarinnar
vinstrihreyfingin
vinsæl
vinsæla
vinsælar
vinsælasta
vinsælasti
vinsælda
vinsældir
vinsældum
vinsælir
vinsæll
vinsælla
vinsælli
vinsælt
vinsælu
vinsælum
vinsælustu
vinum
vinur
viola
violence
virgil
virgill
virgin
virgini
virginia
virk
virka
virkan
virkar
virkað
virkaði
virki
virkilega
virkinu
virkir
virkið
virkja
virkjanir
virkjun
virkjunarinnar
virkjunin
virkni
virkt
virku
virkum
virkur
virt
virti
virtist
virtu
virtual
virtuella
virtur
virtust
virus
virða
virðast
virði
virðing
virðingar
virðingu
virðist
visa
viscum
visindavefur
vision
visir
visit
viski
visku
visma
vismi
viss
vissa
vissan
vissi
vissir
vissu
vissulega
vissum
vist
vista
vistar
vistir
vistkerfi
vistum
visual
vit
vita
vitamin
vitar
vitað
viti
vitinn
vitið
vitja
vitjaði
vitlaus
vitna
vitnað
vitneskju
vitni
vitnisburð
vitnisburði
vitnisburður
vitnið
vitum
vitund
vitundar
vitur
við
viðar
viðauka
viðauki
viðbjo
viðbo
viðbragð
viðbro
viðbu
viðburði
viðburðum
viðburður
viðbætur
viðeigandi
viðey
viðeyjarklaustri
viðfangsefni
viðfangsefnið
viðfangsefnum
viðgerðir
viðhald
viðhalda
viðhaldið
viðhe
viðheldur
viðho
viðhorf
viðhorfum
viði
viðkomandi
viðkomu
viðkomustaður
viðkvæm
viðkvæmt
viðleitni
viðli
viðmið
viðmo
viðna
viðr
viðra
viðreisn
viðreisnar
viðræðum
viðræður
viðskipta
viðskiptablaðið
viðskiptafræði
viðskiptafræðingur
viðskiptajo
viðskiptali
viðskiptara
viðskiptavina
viðskiptavini
viðskiptavinum
viðskipti
viðskiptum
viðstaddir
viðstaddur
viðsto
viðtal
viðtali
viðtengingarha
viðto
viðum
viðunandi
viður
viðureign
viðureignar
viðurinn
viðurkenna
viðurkennd
viðurkenndar
viðurkenndi
viðurkenndu
viðurkenndum
viðurkenndur
viðurkenning
viðurkenningar
viðurkenningu
viðurkennir
viðurkennt
viðurnefni
viðurnefnið
viðvarandi
viðvi
viðvo
vjer
vladi
vladimi
vladimir
vo
vodafone
vogi
vogso
vogum
voice
voices
void
vol
voldemort
volgu
voli
volkswagen
volta
voltaire
volume
von
vona
vonandi
vonar
vonast
vonaðist
vonbrigði
vonbrigðum
vond
vonda
vondu
vondum
vondur
vonin
vonir
vont
vonum
vopn
vopna
vopnafirði
vopnahle
vopnaða
vopnaðir
vopni
vopnin
vopnum
vopnuð
vor
vora
vorar
vori
vorin
vorir
vorið
vorkunn
vorn
vorra
vorrar
vorri
vors
vorsins
vort
voru
vorum
voruð
vorðinn
votlendi
vott
votta
vottar
voyager
voynich
voða
vr
vs
vu
vulgaris
vulpes
vum
vved
vy
vægi
væn
væna
vændi
væng
vænghaf
vængi
vængjum
vænn
vænna
vænst
vænt
vænta
væntanlega
vænti
væntingar
vær
væri
værir
vært
væru
værum
vætt
vætti
vættir
vættur
w
wa
waage
wade
wagner
wales
walk
walker
wall
wallace
wallenberg
wallenstein
wallis
walsh
walt
walter
walther
wanderers
wang
want
war
ward
warner
warren
wars
warwick
was
washington
watch
water
watergate
waterloo
waters
wats
watson
watts
wave
way
wayback
wayne
wcsp
we
web
webb
weber
website
webster
week
weekly
wegener
wei
weimar
welcome
well
wellington
wells
welsh
wembley
wen
wendy
wennstro
wenzhou
were
werner
wesley
wessex
west
western
westminster
wever
whale
what
when
where
which
while
whiplash
whitaker
white
whitehead
whitney
who
whois
why
wi
wide
wien
wiener
wiesbaden
wight
wii
wiki
wikiasi
wikibo
wikibooks
wikibækur
wikidata
wikiheimild
wikiheimildwikiorðabo
wikileaks
wikili
wikimedia
wikiorðabo
wikipedia
wikipediu
wikivitnun
wild
wildlife
wiley
wilhelm
will
willard
willd
willem
william
williams
williamson
willis
willow
willy
wilson
win
winchester
wind
window
windows
windsor
wing
wings
winners
winnipeg
wins
winston
winter
wisconsin
with
within
without
wittenberg
wittgenstein
wo
wolf
wolfe
wolfgang
woman
women
won
wong
wood
woods
woody
word
words
work
working
works
world
worlds
worms
would
wow
wright
write
writing
wu
wuxi
www
wyoming
x
xara
xbox
xcb
xemborg
xemborgar
xenofon
xhtml
xi
xian
xiaoping
xico
xii
xiii
xin
xina
xinjiang
xiv
xl
xls
xlum
xml
xnadal
xnum
xp
xt
xtum
xtur
xturinn
xu
xum
xv
xvi
xvii
xx
xxx
y
ya
yahoo
yale
yan
yang
ye
year
years
yellow
yes
yfir
yfirbo
yfirborð
yfirborði
yfirborðinu
yfirborðið
yfirborðs
yfirbragð
yfirburði
yfirburðum
yfirdo
yfirferðar
yfirga
yfirgaf
yfirgefa
yfirgefið
yfirgefur
yfirgnæfandi
yfirheiti
yfirho
yfirleitt
yfirlit
yfirly
yfirlæknir
yfirlæti
yfirmann
yfirmanni
yfirmaður
yfirmenn
yfirna
yfirra
yfirstandandi
yfirste
yfirstjo
yfirsy
yfirto
yfirumsjo
yfirvalda
yfirvo
yfirvofandi
yggdrasils
yi
ykkar
ykkur
yndi
ynglinga
yngra
yngri
yngst
yngsta
yngsti
yngstu
yngstur
yngvi
yo
york
yorkshire
you
young
your
youth
youtube
yrkja
yrði
yrðu
yst
ysta
ystu
ytra
ytri
ytterbi
yu
yuan
yunnan
yushania
yðar
yðr
yðra
yðru
yðrum
yður
yðvar
yðvart
z
za
zach
zachary
zagreb
zahle
zappa
zarucchi
zbekc
ze
zealand
zedong
zemin
zenon
zeppelin
zero
zeta
zhang
zhao
zhejiang
zheng
zhi
zhou
zhu
zi
zlu
zo
zoe
zone
zoom
zorglu
zt
zu
zuma
zur
zyka
{
|
}
~

¡
£
§
«
¬
­
®
¯
°
±
²
³
´
µ
·
º
»
¼
½
¾
×
ß
æ
æfa
æfi
æfinga
æfingar
æfingum
æfinty
æft
æfði
ægi
ægir
ægissi
ægisson
æpti
ær
ærið
ærnar
æru
æsir
æskilegt
æsku
æskua
æskuly
æt
æti
ætla
ætlan
ætlanir
ætlar
ætlarðu
ætlast
ætlað
ætlaðar
ætlaði
ætlaðir
ætlaður
ætli
ætlið
ætlum
ætlun
ætlunar
ætlunarinnar
ætlunin
ætlunina
ætluninni
ætlunum
ætluð
ætluðu
ætt
ættar
ættarinnar
ættarnafn
ættarnafnið
ættarno
ættað
ættaður
ættba
ætti
ættin
ættina
ættingi
ættingja
ættingjar
ættingjum
ættinni
ættir
ættkvi
ættleiða
ættleiðingar
ættu
ættum
ættuð
ævar
ævi
ævia
ævilangt
æviloka
ævina
ævinlega
ævinnar
ævinni
ævinty
ævisaga
æviskra
æviso
æxlun
æð
æða
æðar
æði
æðra
æðri
æðsta
æðsti
æðstu
æðum
ð
ða
ðabandalagsins
ðabirgða
ðabirgðastjo
ðabo
ðabækur
ðadal
ðado
ðaflugvo
ðagerð
ðagjaldeyrissjo
ðago
ðaheilbrigðisma
ðaho
ðahraun
ðahverfi
ðal
ðala
ðalo
ðama
ðamanna
ðamaður
ðamenn
ðamo
ðan
ðanda
ðandi
ðandinn
ðann
ðanna
ðanum
ðao
ðar
ðara
ðaratkvæðagreiðsla
ðaratkvæðagreiðslu
ðarbo
ðarbrot
ðardagur
ðardal
ðare
ðarenda
ðarfangelsi
ðarflokksins
ðarflokkurinn
ðarho
ðarhu
ðari
ðarinnar
ðarle
ðarleg
ðarlega
ðarlegt
ðarlegum
ðarmorð
ðarnefnda
ðarnefndi
ðarnefndu
ðaro
ðarra
ðarsto
ðarsy
ðasamfe
ðasamto
ðaska
ðasko
ðast
ðasta
ðasti
ðastjo
ðastnefnda
ðastnefndu
ðasto
ðastur
ðasvæði
ðavettvangi
ðavi
ðað
ðaðar
ðaði
ðaður
ðbaðið
ðberg
ðblo
ðbo
ðbu
ðdæmi
ðenda
ðendi
ðendum
ðendur
ðerni
ðernisho
ðernishyggju
ðernissinna
ðernissinnar
ðfa
ðfall
ðfe
ðflokka
ðflokkar
ðflokkur
ðflu
ðfo
ðfræði
ðfæra
ðfæri
ðfærið
ðfærum
ðga
ðgarða
ðgarðar
ðgarði
ðgarðinum
ðgarðs
ðgarðsins
ðgarður
ðgarðurinn
ðgefandi
ðgert
ðgjafa
ðgjafar
ðgjafi
ðgjo
ðgo
ðguminn
ðha
ðherra
ðherraembætti
ðherranefndarinnar
ðherrann
ðherrans
ðherranum
ðherrar
ðherrara
ðherrati
ðherrum
ðhetja
ðhjo
ðho
ðhu
ði
ðidal
ðidalstungu
ðimy
ðin
ðina
ðinda
ðindi
ðindin
ðindum
ðing
ðingar
ðingin
ðingu
ðingum
ðingur
ðinn
ðinni
ðins
ðinsdo
ðinsson
ðinsve
ðinu
ðir
ðirin
ðirinn
ðirnar
ðis
ðist
ðivo
ðið
ðkast
ðkaup
ðkaupi
ðkaupinu
ðkaupið
ðkaðist
ðkirkjunnar
ðkorn
ðkunnur
ðla
ðlag
ðlaga
ðlagato
ðlagt
ðlagði
ðlar
ðlast
ðlaus
ðlaðist
ðleg
ðlega
ðlegan
ðlegar
ðlegi
ðlegir
ðlegra
ðlegrar
ðlegri
ðlegt
ðlegu
ðlegum
ðlegur
ðleik
ðleikhu
ðleikur
ðli
ðlist
ðlo
ðlum
ðluð
ðma
ðminjasafn
ðminjasafni
ðminjasafninu
ðminjasafns
ðminjavo
ðmo
ðmæli
ðna
ðnar
ðni
ðningu
ðnir
ðnum
ðnun
ðny
ðo
ðorðabankinn
ðpo
ðr
ðra
ðrar
ðrasveit
ðre
ðri
ðritun
ðrituð
ðrið
ðru
ðrum
ðrumegin
ðrun
ðrur
ðruvi
ðruvo
ðræði
ðræðis
ðræðisflokkurinn
ðræðislega
ðræðisri
ðs
ðsa
ðsaga
ðsagan
ðsdo
ðsfe
ðsglæpi
ðsho
ðsins
ðska
ðsko
ðskra
ðslok
ðsma
ðsmaður
ðsmenn
ðso
ðsson
ðst
ðstafa
ðstafanir
ðstefna
ðstefnan
ðstefnu
ðstefnum
ðstefnuna
ðstefnunnar
ðstefnunni
ðstefnur
ðstjo
ðsto
ðsumars
ðsvegar
ðsy
ðtru
ðtæk
ðu
ðubandalagið
ðubandalagsins
ðublaðinu
ðublaðið
ðuflokkinn
ðuflokknum
ðuflokks
ðuflokksins
ðuflokkurinn
ðug
ðuga
ðugar
ðugir
ðugleika
ðugleiki
ðugri
ðugt
ðugu
ðugum
ðugur
ðul
ðull
ðulo
ðuly
ðum
ðumaður
ðun
ðuna
ðunar
ðunautur
ðuneyti
ðuneytinu
ðuneytis
ðuneytisins
ðuneytisstjo
ðuneytið
ðunnar
ðunni
ðunum
ðuppto
ður
ðurbro
ðurdo
ðurfe
ðurhu
ðurin
ðurinn
ðurinnar
ðurland
ðurma
ðurnar
ðurnum
ðurs
ðursonur
ðurætt
ðust
ðustu
ðuvatn
ðuvo
ðuð
ðuðu
ðva
ðvaandstæðinga
ðvanna
ðvar
ðvarhu
ðvarinnar
ðvarnar
ðvarsson
ðvast
ðvað
ðvaði
ðvegi
ðvegur
ðveldi
ðveldinu
ðveldis
ðveldisins
ðveldissinna
ðveldisti
ðveldið
ðverja
ðverjar
ðverjum
ðvi
ðviljans
ðviljanum
ðviljinn
ðvo
ðvum
ðvun
ðvunum
ðþingið
ðþry
÷
ø
þ
þa
þagnaði
þago
þagði
þak
þaki
þakin
þakinn
þakið
þakka
þakkar
þakkaði
þakkir
þakkla
þal
þallarætt
þalsvo
þang
þangað
þangbrandur
þann
þannig
þannug
þar
þarf
þarfa
þarfi
þarfir
þarfnast
þarft
þarftu
þarmur
þarna
þat
þau
þaut
það
þaðan
þe
þebu
þegar
þegið
þegja
þegjandi
þegna
þegnar
þegnum
þeim
þeir
þeira
þeirra
þeirrar
þeirri
þekja
þekk
þekki
þekking
þekkingar
þekkingarfræði
þekkingu
þekkir
þekkist
þekkja
þekkjast
þekkjum
þekkst
þekkt
þekkta
þekktar
þekktari
þekktast
þekktasta
þekktasti
þekktastur
þekkti
þekktir
þekktist
þekktra
þekktu
þekktum
þekktur
þekktust
þekktustu
þekur
þeldo
þema
þengill
þenna
þennan
þeo
þess
þessa
þessar
þessara
þessarar
þessari
þessi
þessir
þessu
þessum
þetta
þf
þgf
þi
þig
þiggja
þiggur
þik
þing
þingeyinga
þingeyjarsveit
þingeyjarsy
þingeyraklaustri
þingeyraklaustur
þingeyri
þingeyrum
þingflokks
þinghu
þingi
þinginu
þingið
þingkosninga
þingkosningar
þingkosningum
þingkosningunum
þingly
þingmann
þingmanna
þingmaður
þingmeirihluta
þingmenn
þingmennsku
þingmo
þingræði
þings
þingsa
þingsins
þingskapa
þingsæti
þingsætum
þingum
þingvo
þinn
þinna
þinnar
þinni
þinur
þitt
þið
þja
þjer
þjo
þo
þoka
þokka
þoku
þokunni
þol
þola
þolað
þoldi
þolfall
þolfalli
þoli
þolinmo
þolinmæði
þolir
þora
þorbergs
þorbergsson
þorbergur
þorbjarnar
þorbjarnardo
þorbjo
þorfinnur
þorgeir
þorgeiri
þorgeirs
þorgeirsdo
þorgeirson
þorgeirsson
þorgerðar
þorgerði
þorgerður
þorgils
þorgilsson
þorgri
þori
þorir
þorkell
þorkels
þorkelsdo
þorkelsson
þorla
þorleif
þorleifi
þorleifs
þorleifsdo
þorleifsson
þorleifssonar
þorleifur
þormo
þorna
þorp
þorpi
þorpinu
þorpið
þorpsbu
þorpsins
þorpum
þorra
þorrablo
þorri
þorskastri
þorskur
þorstein
þorsteini
þorsteinn
þorsteins
þorsteinsdo
þorsteinsson
þorsteinssonar
þorvald
þorvaldar
þorvaldi
þorvalds
þorvaldsdo
þorvaldsson
þorvaldssonar
þorvaldur
þorvarðar
þorvarður
þorði
þra
þraki
þraut
þrautir
þreif
þrek
þrem
þremur
þrenn
þrennt
þrennu
þrep
þretta
þreyta
þreytt
þreyttur
þreytu
þri
þriggja
þrisvar
þriði
þriðja
þriðji
þriðju
þriðjudaginn
þriðjudagur
þriðjudegi
þriðjung
þriðjungi
þriðjungur
þrja
þrjo
þrju
þro
þroska
þroskast
þroskaðir
þroskaþja
þru
þry
þræl
þræla
þrælahald
þrælahaldi
þrælahalds
þrælar
þrælarnir
þrælastri
þrældo
þræll
þrællinn
þrælum
þrændalo
þræði
þræðir
þu
þulur
þung
þunga
þungan
þungar
þungarokk
þungarokki
þungarokkshljo
þunglyndi
þungt
þungu
þungum
þungur
þunguð
þunn
þunnar
þunnt
þunnur
þurfa
þurfi
þurft
þurfti
þurftu
þurfum
þuri
þurr
þurrka
þurrkati
þurrkað
þurrkuð
þurrlendi
þurrt
þurru
þurrum
þvagsy
þvera
þveran
þverhni
þverma
þverra
þvert
þvi
þvinga
þvo
þvotta
þy
þyki
þykir
þykist
þykja
þykjast
þykk
þykkari
þykkir
þykkja
þykkt
þykkum
þykkur
þykkvabæjarklaustri
þykkvabæjarklaustur
þyngd
þyngra
þyngri
þynnri
þyrfti
þyrftu
þyri
þyrla
þyrlu
þyrniro
þægilegt
þægindum
þær
þætti
þættina
þættinum
þættir
þættirnir
ı
ŋ
ɐ
ɑ
ɔ
ɔʊ
ɕ
ə
ɛ
ɛɪ
ɡ
ɣ
ɪ
ɪs
ɪʊ
ɴ
ʂ
ʃ
ʃa
ʃi
ʃɛ
ʊ
ʋ
ʋa
ʎ
ʏ
ʒ
ʰ
ʲ
ʹ
ʻ
ʼ
ʾ
ʿ
ˀ
ˆ
ˈ
ˌ
ː
ːˈ
˚
˥
˧
˨
˩
̀
́
̂
̃
̄
̆
̇
̈
̉
̊
̋
̌
̍
̓
̔
̛
̝
̣
̥
̦
̧
̨
̩
̯
̱
̸
͂
ͅ
͡
α
β
γ
δ
ε
ζ
η
θ
ι
κοινη
λ
λεξικο
μ
ν
νεοελληνικη
ξ
ο
π
ρ
ς
σ
τ
της
υ
φ
χ
ψ
ω
ϕ
ϩ
ϵ
а
б
бласть
българския
в
г
д
дигитален
е
език
ж
з
и
их
к
ка
л
лбар
луғат
м
македонскиот
мови
монгол
н
на
нськоі
ны
о
орфографічнии
п
переводчик
р
речник
русскии
с
словник
создук
т
таи
толь
у
узбекско
украі
ф
х
хэлнии
ц
ч
ш
щ
ъ
ы
ь
э
эл
ю
я
і
јазик
ҳ
ְ
ִ
ֵ
ֶ
ַ
ָ
ֹ
ּ
ׁ
א
ב
ד
ה
י
ל
מ
ן
נ
ר
ש
ا
ت
د
ر
س
ف
ل
م
ن
و
ي
َ
ُ
ِ
ّ
ْ
ٓ
ٔ
ٕ
پ
ی
ं
क
ग
त
द
न
प
ब
म
य
र
ल
व
श
ष
स
ह
ा
ि
ी
ु
ू
ृ
े
ो
्
া
্
த
ழ
ி
ு
்
ั
ิ
ี
ุ
ู
่
้
์
້
་
ု
း
်
ြ
ᴐ
​
‌
‎
‏
‐
–
—
―
‖
‘
’
‚
“
”
„
†
•
…
‬
′
″
⁄
⁠
⁡
€
ℵ
⅓
⅔
←
↑
→
↓
↔
↷
⇒
∀
∂
∅
∇
∈
∏
∑
−
∖
∗
∘
∞
∧
∩
∪
∫
≈
≡
≤
≥
⊆
⊕
⊙
⋅
⋮
⋯
⋱
③
④
⑦
─
│
├
╰
▲
◌
●
◻
⟨
⟩
⪯
ⲁ
ⲉ
ⲟ
ⲣ
ⲧ
ⲱ
ⴰ
ⵜ
⺀
⺄
⺆
⺈
⺊
⺌
⺕
⺝
⺸
⺼
⿰
⿱
⿲
⿳
⿴
⿵
⿶
⿷
⿸
⿹
⿺
⿻
、
。
「
」
〢
あ
い
う
え
お
か
き
く
け
こ
さ
し
す
そ
た
ち
っ
つ
て
と
な
に
の
は
ひ
ふ
へ
ま
み
め
も
ゆ
よ
ら
り
る
れ
ろ
わ
を
ん
゙
゚
ア
ィ
イ
ウ
オ
カ
キ
ク
ケ
コ
サ
シ
ス
セ
ソ
タ
ッ
ツ
テ
ト
ナ
ニ
ハ
ヒ
フ
ヘ
ホ
マ
ミ
ム
メ
ャ
ユ
ョ
ラ
リ
ル
レ
ロ
ン
・
ー
ㄧ
㇁
㇂
㇄
㇇
㇈
㇉
㇓
㐁
㐄
㐅
㐌
㐫
㐬
㐭
㐮
㐱
㑒
㒵
㒸
㒼
㓁
㓞
㔾
㕛
㕣
㖾
㘝
㚅
㚇
㚔
㚘
㝉
㝡
㝴
㝵
㞋
㞢
㞷
㠩
㠭
㠯
㡀
㡭
㡿
㢲
㢴
㣇
㣺
㥯
㪅
㫄
㫐
㫒
㫺
㬅
㬎
㬥
㬰
㲋
㳄
㷠
㸒
㸚
㸦
㼌
㼲
㽞
㿟
䀠
䂞
䍃
䏍
䒑
䖍
䖒
䖝
䖵
䙴
䚻
䜌
䝿
䡛
䧹
䪞
一
丁
丂
七
丄
丅
丆
万
丈
三
上
下
丌
不
与
丏
丐
丑
专
且
丕
世
丘
丙
业
东
丞
丢
丣
两
严
並
丨
丩
个
丫
丬
中
丮
丰
丱
串
丵
丶
丷
丸
丹
为
主
丽
丿
乀
乂
乃
久
乆
乇
么
义
之
乌
乍
乎
乏
乐
乑
乔
乖
乗
乘
乙
乚
乛
乜
九
乞
也
习
乡
书
乳
乾
亀
亅
了
亇
予
争
事
二
亍
于
亏
亐
云
互
亓
五
井
亘
亚
亜
亞
亟
亠
亡
亢
交
亥
亦
产
亨
亩
享
京
亭
亮
亯
亰
亲
亳
亶
亷
人
亻
亼
亾
仁
今
介
仌
从
仐
仑
仒
仓
仕
他
付
仝
代
令
以
任
企
伊
伏
伐
休
会
伯
但
位
何
佘
余
作
佥
使
來
侈
侌
侖
侯
侵
便
保
俞
信
修
倉
倍
候
倠
備
僉
僕
儿
兀
允
兂
元
兄
充
兆
兇
先
光
兊
克
兌
免
兑
兒
兓
兔
党
兜
兟
入
全
兩
兪
八
公
六
兮
兰
共
关
兵
其
具
典
兹
兼
冀
冂
冃
冄
内
冈
冉
冊
冋
册
再
冎
冏
冐
冒
冓
冖
冗
冘
军
农
冝
冡
冥
冫
冬
冷
几
凡
凢
凵
凶
凷
凸
凹
出
函
凾
刀
刁
刂
刃
刄
刅
分
切
刍
刑
刕
刖
列
刘
则
初
別
利
别
到
制
刺
則
削
剌
前
剡
剽
劉
力
功
加
劦
助
劫
劳
劵
勃
勇
勉
勒
動
務
勞
勤
勹
勺
勻
勾
勿
匀
匂
包
匆
匈
匊
匋
匍
匕
化
北
匚
匝
匡
匪
匱
匸
匹
区
医
匽
匿
區
十
卂
千
卄
卅
卆
升
午
卉
半
卌
华
卑
卒
卓
单
卖
南
卜
卝
卞
占
卡
卢
卣
卤
卦
卩
卪
卬
卯
印
危
即
却
卵
卷
卸
卻
厂
厃
厄
历
厈
厉
厌
厓
厘
厚
原
厤
厥
厨
厭
厲
厶
厷
厸
去
厼
厽
叀
参
參
叅
又
叉
及
友
双
反
叐
发
叒
叔
叕
取
受
叚
叜
叟
口
古
句
另
叩
只
召
可
台
叱
史
右
叵
叶
号
司
叹
吂
各
吅
合
吉
吊
吋
同
名
后
吏
向
吕
君
吝
吞
否
含
启
吳
吴
吹
吾
呂
呆
呈
告
员
呙
周
命
咅
和
咎
咠
咢
咨
咸
咼
哀
品
哉
員
哥
哲
唐
商
啇
問
啚
啬
啻
善
喜
喬
單
喿
嗇
噩
嚴
囊
囗
囘
囙
囚
四
回
囟
因
囧
囬
困
囱
囷
固
国
圂
圅
國
圍
圓
土
圡
圣
圥
在
圭
地
圶
场
圼
坐
坒
坚
坴
垂
垔
垚
埀
埋
城
埶
執
基
堂
堅
堆
堇
堯
塞
墨
壘
士
壬
壯
声
壳
壴
壹
壺
壽
夂
处
夅
夆
备
夊
夋
夌
复
夏
夒
夕
外
夗
夘
多
夜
夢
大
夨
天
太
夫
夬
夭
央
失
夲
头
夷
夸
夹
夻
夾
奂
奄
奇
奈
奉
奎
奏
奐
契
奓
奔
奚
奞
奠
奢
奥
奭
女
奴
奻
好
如
妄
妙
妟
妥
妻
妾
姑
委
姜
威
娄
婁
婴
嬰
嬴
子
孑
孔
孕
孖
字
存
孚
孛
孝
孟
季
孤
学
孫
孱
學
宀
宁
宂
它
宅
宇
守
安
宋
完
宏
宓
宗
官
定
宛
宜
宝
客
宣
室
宮
宰
害
家
容
宾
宿
寄
寅
密
富
寒
察
寧
審
寫
寬
寮
寸
对
寺
寻
寽
対
寿
封
尃
射
将
將
專
尉
尊
尋
尌
對
小
少
尒
尓
尔
尖
尗
尚
尞
尢
尣
尤
尧
尨
尭
就
尸
尹
尺
尻
尼
尽
尾
尿
局
居
屈
屋
屎
屏
屑
展
屖
屚
属
屠
屡
屬
屮
屯
屰
山
屵
屾
岁
岂
岑
岡
岩
岳
岸
峯
島
崇
崑
崔
崖
崙
崩
嵬
嶲
巂
巛
川
州
巟
巠
巢
巤
工
左
巧
巨
巩
巫
差
己
已
巳
巴
巷
巸
巽
巾
巿
帀
市
布
希
帚
帛
帝
带
師
席
帶
常
干
平
年
幵
并
幷
幸
幺
幻
幼
幽
幾
广
広
庄
床
底
店
庚
府
度
庫
庭
庶
康
庸
廉
廌
廛
廣
廩
廴
延
廷
建
廾
廿
开
弁
弃
弄
弇
弋
式
弓
弔
引
弗
弘
弜
弟
弥
弦
弱
張
強
强
彊
彌
彎
彐
彑
当
彔
录
彖
彗
彡
形
彥
彦
彧
彭
彳
役
彼
往
待
律
徒
得
徙
從
復
微
徵
心
忄
必
忌
忍
志
忝
忠
忩
快
念
忽
忿
思
怠
急
怱
恆
恒
恩
恭
息
悉
患
悤
悲
悶
惠
惡
惢
愁
愈
意
愛
感
慈
慧
慮
憂
憲
應
戀
戈
戉
戊
戋
戌
戍
戎
成
我
戒
戔
或
戚
戠
戢
戦
截
戲
戶
户
戹
戼
戾
房
所
扁
扇
手
扌
才
打
托
执
承
折
拉
拜
拿
掌
推
提
摩
支
攴
攵
收
攸
改
放
政
敄
敏
敕
敖
敗
敝
敞
敢
散
敦
敫
敬
数
敷
數
斂
文
斉
斊
斗
斤
斥
斩
斬
斯
新
方
於
施
斿
旁
旋
族
无
旡
既
旣
日
旦
旧
旨
早
旬
旱
旲
时
旾
昆
昇
昌
昍
明
昏
易
昔
昗
昜
星
春
昬
是
昱
昴
昷
時
晃
晋
晏
普
景
晶
智
暑
暴
曇
曩
曰
曲
曳
更
曷
書
曹
曼
曾
替
最
朁
會
月
有
朋
服
朔
朕
朗
望
朝
期
木
朩
未
末
本
札
朮
术
朱
朵
朶
机
朿
杀
杉
杏
杜
束
条
来
東
杲
杳
松
析
林
枚
果
枝
枫
枲
枼
某
柔
查
柬
柰
柴
栗
桀
桃
桑
桼
梁
條
梟
梨
棋
棘
棠
棥
森
植
楚
業
楽
榮
樂
樊
欠
次
欣
欮
欲
欶
欽
款
歆
歇
歌
歛
止
正
此
步
武
歨
歪
歮
歯
歰
歲
歴
歷
歸
歹
歺
死
殳
段
殷
殸
殹
殺
殻
殿
毋
毌
母
每
毒
比
毕
毚
毛
毳
氏
氐
民
气
氣
水
氵
氶
氷
永
氺
氾
求
汝
汞
江
沃
沓
沙
沝
河
治
泉
法
波
泣
泥
泰
洛
洪
活
派
流
浦
浪
浮
海
淡
淮
清
渚
渠
温
湖
湯
滿
漸
火
灬
灭
灰
灵
灷
炅
炎
炏
炗
炙
炭
為
烈
烏
烝
焉
無
焦
焱
然
煞
熊
熏
燕
營
燮
爪
爫
爭
爯
爰
爱
爲
爵
父
爻
爽
爾
爿
片
牙
牚
牛
牜
牟
牢
牧
物
牪
牽
犀
犬
犭
犮
狂
狄
狊
独
狺
猋
猒
猕
猪
献
猴
獻
玄
率
玉
王
玟
玨
珎
班
琴
瑟
瑩
瓜
瓦
甘
甚
生
産
用
甫
甬
田
由
甲
申
电
甶
男
甸
甹
画
甾
畀
界
畏
畐
留
畜
畟
畢
畧
畨
番
畫
異
畱
當
畺
畾
疊
疋
疌
疑
疒
疾
癶
癸
癹
登
發
白
百
皀
皃
的
皆
皇
皋
皐
皕
皮
皷
皿
盃
盆
盇
盈
益
盍
盎
监
盒
盖
盛
盡
監
盤
盧
目
直
相
盾
省
眇
眉
看
眔
眞
真
眷
眼
眾
着
睘
睪
睿
瞏
瞢
瞿
矍
矛
矞
矢
矣
知
矦
短
石
破
碎
磊
磨
示
礻
礼
社
祖
神
祟
票
祭
禀
禁
禸
禹
禺
离
禽
禾
禿
秀
秃
秉
秋
种
科
秝
秦
移
稟
穀
穌
穴
究
穹
空
穿
突
窄
窒
立
竒
竜
竝
竟
章
童
竹
笑
笠
筆
等
答
箕
算
箴
節
篤
篭
米
粉
粛
粟
粤
粦
粲
糞
糸
糹
系
約
納
素
索
紫
累
細
絜
絫
絲
維
綿
縣
繇
纍
纟
维
缶
网
罒
罔
罕
罗
罙
罡
罢
罪
署
罷
羅
羊
羌
羍
美
羔
羕
羗
羞
羡
羣
群
義
羲
羸
羽
翁
翏
習
翕
翟
翠
翼
老
耂
考
者
耆
而
耎
耑
耒
耳
耴
耶
耷
聂
聊
聖
聚
聶
聿
肀
肃
肅
肉
肖
肙
肥
肩
肯
育
肴
胃
背
胡
胥
能
脊
脩
膚
臣
臤
臧
自
臬
臭
臯
臱
至
致
臺
臼
臽
臾
臿
舀
舂
舄
與
興
舉
舌
舍
舛
舜
舞
舟
般
艮
良
色
艸
艹
艾
芒
芔
芬
芮
花
芳
芺
芻
苏
苔
苗
苟
若
苦
英
茶
茸
荅
草
荒
荣
荼
莆
莧
莫
莽
菆
菊
菐
華
萬
落
葉
著
葛
董
葵
蒙
蒦
蒼
蓋
蓬
蓺
蔑
蔡
蕉
蕭
薄
薛
薦
薰
藍
藏
藥
蘭
虍
虎
虐
虒
虔
處
虖
虗
虘
虚
虛
虜
虞
虫
虽
蚤
蚩
蜀
蜜
蟲
蠡
血
行
衍
衛
衣
衤
表
衮
衰
袁
袞
褭
褱
襄
襾
西
覀
要
覃
見
規
覓
覧
親
覽
见
角
解
言
訁
訇
計
詹
誩
諸
讠
谷
豆
豈
豊
豐
豕
豖
豙
象
豦
豩
豪
豸
貇
貝
貞
貟
負
貢
貧
貪
貫
責
貳
貴
買
費
賁
資
賈
賏
賓
賔
賛
賞
賢
賣
質
賴
贊
贝
贡
责
贯
贲
贵
赖
赞
赤
赦
走
越
足
路
蹇
身
躬
車
軍
軎
軟
輦
车
辛
辜
辟
辥
辰
辱
農
辵
辶
边
达
过
近
连
迷
追
退
送
逆
逐
通
速
造
逢
連
逮
進
遀
遂
過
道
達
遣
適
遷
遺
邊
邑
邕
那
邦
邪
郎
部
郭
都
鄉
酉
酋
配
酓
釆
采
里
重
野
量
金
釒
錢
钅
锡
長
镸
长
門
閃
閉
開
閏
閑
閒
間
閔
閵
閻
闌
门
间
闷
阑
阜
阝
阳
阿
际
降
陳
隆
隊
隋
隡
隨
隱
隶
隹
隺
隻
隼
隽
难
雀
雁
集
雈
雋
雍
雐
雔
雙
雚
雜
雝
離
難
雨
雩
雪
雲
零
雷
需
霍
霜
霝
霞
霸
靈
靑
青
非
靡
面
靣
革
韋
韦
韭
韯
韱
音
頁
頃
項
須
頗
頡
頻
顛
页
風
风
飛
飞
食
飠
養
饣
首
香
馬
馮
駦
马
骨
高
髟
鬥
鬯
鬲
鬼
魚
魯
鮮
鱼
鲁
鳥
鳳
鸟
鹵
鹿
麃
麗
麥
麦
麻
黃
黄
黍
黎
黑
黒
黨
黹
黽
黾
鼎
鼓
鼠
鼻
齊
齋
齐
齒
齿
龍
龙
龜
龟
龠
龰
龱
龴
龵
龶
龷
龸
龹

者
艹
ﬁ
ﬂ
﻿
（
）
，
？
𐌰
𐌱
𐌲
𐌳
𐌴
𐌵
𐌶
𐌷
𐌸
𐌹
𐌺
𐌻
𐌼
𐌽
𐌾
𐌿
𐍀
𐍂
𐍃
𐍄
𐍅
𐍆
𐍈
𐍉
𠀁
𠀃
𠀆
𠀉
𠀎
𠀐
𠁁
𠁣
𠂆
𠂇
𠂈
𠂉
𠂊
𠂋
𠂎
𠂒
𠂔
𠂛
𠂡
𠂢
𠂤
𠂬
𠂭
𠂹
𠃊
𠃋
𠃌
𠃍
𠃎
𠃑
𠃓
𠃔
𠃜
𠄌
𠄎
𠄠
𠄢
𠆢
𠆥
𠇍
𠈌
𠌵
𠓜
𠔉
𠔥
𠔼
𠔽
𠔿
𠕀
𠕁
𠕋
𠘧
𠘨
𠙻
𠙼
𠚏
𠚒
𠚤
𠚪
𠣏
𠤎
𠤕
𠥓
𠦄
𠦑
𠦝
𠧒
𠧗
𠧪
𠩺
𠪚
𠫓
𠫔
𠫤
𠬛
𠬝
𠬞
𠬢
𠬤
𠬶
𠮛
𠮦
𠮷
𠯑
𠱠
𠳮
𠷎
𡈼
𡉀
𡉵
𡌥
𡍮
𡏳
𡕒
𡕩
𡕰
𡖅
𡗗
𡗜
𡘆
𡘤
𡧱
𡨄
𡩧
𡬠
𡭽
𡰣
𡰥
𡰪
𡰯
𡰱
𡷈
𡸁
𡿨
𡿩
𡿪
𡿺
𢀖
𢀛
𢀩
𢁙
𢆉
𢆰
𢆶
𢇁
𢇇
𢉖
𢌬
𢌿
𢏚
𢑑
𢑚
𢖻
𢙣
𢛳
𢦏
𢦒
𢧵
𢼄
𢾕
𣁋
𣄼
𣅀
𣅽
𣍘
𣎳
𣎵
𣏋
𣏼
𣗥
𣥂
𣥖
𣦵
𣦼
𣧄
𣪊
𣪠
𣬉
𣳾
𣶒
𤇾
𤊽
𤐫
𤓰
𤔔
𤕨
𤣩
𤰇
𤰔
𤰞
𤴓
𤴔
𤽄
𥁑
𥁕
𥃦
𥃩
𥃭
𥇡
𥑟
𥘅
𥘈
𥝢
𥫗
𥱡
𦈢
𦉪
𦉬
𦉼
𦍌
𦍒
𦎧
𦐇
𦓔
𦔮
𦘒
𦙃
𦚏
𦣝
𦣞
𦣻
𦥑
𦥔
𦥯
𦨉
𦭝
𦰩
𧆞
𧈧
𧘇
𧰨
𧴪
𧴮
𧵩
𧾷
𨸏
𨾴
𩙿
𩠐
𩫏
𩵋
𪉷
𪜀
𪟽
𪠲
𪩲
𫇦
𫔭
𫜸
𫝀
𫠣
𫠩
𫢉
𫥞
𫩏
𫩠
𫪡
𫲽
𫶧
𬀷
𬐘
𬗌
𬙙
𬛸
𬜯
𬟩
𬯁
𬴘
𬺻
𬼉
𬼖
𭀰
𭁈
𭁨
𭅰
𭑈
𭕄
𭗼
𭤨
𭥫
𭻾
𮅕
𮊿
𮍌
𮍏
𮓗
𮥼
𮧮
廾
𰀁
𰀄
𰀈
𰀉
𰀕
𰀠
𰀡
𰀢
𰀪
𰁜
𰃮
𰆊
𰆘
𰋙
𰕎
𰢴
𰧭
𰯲
00--
01--
02--
03--
05--
09--
298--
39--
40--
41--
42--
45--
46--
53--
55--
57--
71--
72--
74--
76--
77--
78--
80--
81--
82--
83--
84--
85--
87--
88--
90--
92--
95--
96--
978--
a--
aa--
ab--
ac--
achieve--
act--
activ--
ad--
add--
aden--
ado--
adrott--
adu--
aero--
af--
afar--
aff--
afkasta--
afl--
afla--
afske--
aftur--
ag--
aga--
age--
ago--
agre--
agri--
agu--
ah--
ai--
air--
ak--
akon--
akra--
akrei--
akur--
al--
ala--
alba--
aldar--
aldin--
aldurs--
ale--
ali--
alista--
all--
allra--
alls--
almanna--
alræ--
alræði--
als--
alt--
alu--
alþingis--
am--
ami--
an--
ana--
and--
andspyrnu--
andstæði--
ang--
ani--
ann--
ano--
ans--
ant--
antilla--
any--
ao--
ap--
apa--
apo--
app--
apple--
aqu--
ar--
ara--
araba--
are--
arf--
ari--
arizo--
arke--
arm--
arma--
arn--
arna--
arnar--
ars--
art--
arð--
as--
ash--
ask--
askhi--
asp--
assem--
ast--
at--
ath--
atlantshafs--
ato--
atvinnu--
au--
auf--
auga--
augn--
auk--
auka--
aur--
aus--
austfir--
austur--
auto--
auð--
auðu--
auðæ--
av--
ava--
avia--
ax--
ay--
az--
azer--
að--
aðal--
aðalatvinnu--
aðdra--
aðildar--
aðstoðar--
aþe--
b--
ba--
bac--
bach--
bahama--
bak--
bakka--
bal--
ban--
bana--
band--
banka--
bann--
bar--
barents--
barn--
barna--
barns--
baro--
bas--
baska--
bassa--
bau--
bay--
bað--
be--
beau--
beauf--
bec--
bee--
bei--
bein--
bel--
belg--
ben--
ber--
berg--
bern--
bert--
beru--
bery--
bessa--
bet--
bey--
bh--
bi--
big--
bikar--
bil--
bin--
bio--
birg--
birki--
bis--
biskupa--
biskups--
bit--
bið--
bja--
bjarg--
bjarn--
bje--
bla--
blað--
blaða--
ble--
blek--
bli--
blikana--
blikk--
blo--
blu--
blue--
bly--
blæ--
bo--
bog--
boga--
bol--
bollu--
bon--
boo--
bor--
borg--
borgar--
borgara--
borð--
borðs--
bos--
bot--
botn--
bou--
bougain--
bour--
bout--
box--
boð--
br--
bra--
brad--
bragð--
bre--
breik--
breið--
breiða--
brenn--
brenni--
brent--
breta--
brevi--
brey--
bri--
brim--
bro--
broad--
brodd--
brons--
bros--
brot--
brota--
brott--
bru--
brugð--
bry--
bræ--
bræð--
bu--
buch--
bucking--
bug--
bun--
bundesli--
bur--
bura--
burk--
burst--
burt--
burðar--
bus--
but--
bver--
by--
bygginga--
byggingar--
byggða--
byr--
byssu--
bæ--
bæjar--
bæn--
bænda--
bær--
bæri--
bø--
c--
ca--
cair--
cal--
cali--
calo--
can--
cap--
car--
carl--
cast--
cat--
cau--
cauc--
ce--
celeb--
cent--
cere--
ch--
cha--
chall--
champions--
charac--
che--
chi--
chlo--
cho--
chro--
chry--
ci--
cili--
cl--
cla--
clap--
cle--
clo--
co--
coccin--
col--
coll--
colla--
collec--
com--
compo--
con--
conce--
conser--
contro--
corn--
corp--
corr--
cos--
cour--
cow--
cra--
cran--
cras--
cre--
cri--
cro--
cron--
crow--
cru--
cry--
crypto--
cs--
cu--
cunning--
cup--
cy--
cze--
d--
da--
dag--
daglauna--
dags--
dal--
dala--
dalsmy--
dan--
dana--
dans--
dar--
das--
dau--
daugh--
dauð--
dauða--
daw--
day--
dd--
dda--
de--
deci--
dei--
deilda--
deildar--
deili--
del--
dem--
demo--
den--
denta--
der--
des--
det--
deter--
dev--
dey--
di--
diag--
die--
diff--
din--
dio--
diocleti--
disa--
disc--
discus--
disk--
dja--
djarf--
dju--
dl--
do--
dober--
doc--
dolo--
dom--
don--
dord--
dr--
dra--
draum--
drauma--
draup--
dreka--
dri--
dro--
dru--
drukk--
drykk--
dræ--
du--
dul--
dular--
duln--
dum--
dun--
dv--
dver--
dverg--
dvergreik--
dy--
dyng--
dyra--
dys--
dz--
dæ--
dægur--
dæt--
e--
eb--
ec--
ed--
eddu--
edu--
ef--
efa--
efna--
efnahags--
efni--
efnis--
eftir--
eg--
egg--
eggja--
egils--
egy--
ei--
eigin--
eignar--
eik--
eimr--
ein--
eind--
einfald--
einingar--
einka--
einkafyrir--
einkan--
einlæ--
einokunar--
eins--
eir--
eitil--
eitt--
eitur--
eið--
ek--
ekkju--
el--
ela--
eld--
eldi--
elec--
eleg--
elek--
elep--
eli--
elli--
elri--
els--
elsk--
eltinga--
em--
emer--
emi--
emil--
empi--
en--
end--
enda--
endi--
endur--
endurtek--
eng--
engi--
engil--
engja--
engl--
eo--
ep--
epi--
equ--
er--
erfða--
eri--
erki--
erkifje--
es--
eski--
est--
et--
ethno--
etymo--
eu--
euph--
eur--
euro--
ev--
eve--
ever--
ex--
exhi--
exp--
explo--
ey--
eyja--
eyjar--
eymund--
eyra--
eyrna--
eyði--
ez--
eð--
eðlis--
f--
fa--
fag--
fagur--
fair--
fal--
falk--
fall--
fals--
fan--
fang--
fanga--
far--
fara--
farar--
farm--
fast--
fasta--
fat--
fata--
fau--
faw--
fe--
featu--
fegur--
fei--
feigs--
feitlet--
femi--
fen--
feney--
fengis--
fer--
ferju--
fersk--
ferða--
fet--
fey--
feð--
ff--
fga--
fi--
fil--
filip--
film--
fiml--
fimm--
fin--
finn--
fir--
fire--
fis--
fisk--
fiski--
fit--
fitu--
fiðlu--
fja--
fjall--
fjalla--
fjand--
fjar--
fjarlæ--
fjarðar--
fje--
fk--
fl--
fla--
flat--
fle--
fley--
fli--
flo--
flokks--
flot--
flu--
flug--
flugu--
fly--
flæ--
flæmingja--
fm--
fo--
fol--
for--
form--
forn--
fossvogs--
fox--
fra--
frag--
frakka--
fram--
framan--
framfara--
framl--
framsæ--
fre--
free--
frelsis--
frey--
fri--
frið--
friðar--
friðsam--
fro--
fru--
frum--
frumu--
fry--
fræ--
fræða--
fræði--
fs--
fsa--
ft--
ftu--
fu--
fugl--
fugla--
full--
fun--
funda--
fundar--
fur--
furðu--
fuð--
fuðs--
fv--
fy--
fylg--
fylgi--
fylgje--
fylkis--
fylli--
fyr--
fyrir--
fyrr--
fæ--
fær--
færi--
fæðingar--
fæðu--
fða--
fðing--
fø--
g--
ga--
gaf--
gagn--
gagna--
gal--
galdra--
gall--
gamal--
gaman--
gamma--
gan--
gandr--
gang--
gar--
garð--
garða--
garðyrkjum--
gas--
gat--
gau--
gaut--
gb--
gbu--
ge--
gef--
geim--
geir--
geis--
geisla--
geit--
geld--
geldinga--
gen--
gena--
geno--
geog--
ger--
gervi--
gesc--
gest--
gesta--
get--
getnaðar--
gey--
geysi--
geð--
gg--
ggi--
ggja--
ggs--
ggu--
gi--
gian--
gil--
gils--
gims--
gin--
ginn--
gir--
gisti--
giu--
gja--
gjald--
gl--
gla--
glað--
gler--
glett--
gley--
gleði--
gli--
glo--
glu--
gly--
glæ--
glæp--
glæpam--
glæsi--
glæsileg--
gm--
gma--
gmanns--
gmarks--
gmund--
gn--
gna--
gnar--
gnæ--
go--
god--
gold--
golf--
gor--
gordi--
gos--
got--
gou--
gover--
goð--
goða--
goðsagna--
gr--
gra--
graci--
graf--
gran--
granna--
gras--
grasa--
gre--
green--
greft--
greglu--
greify--
greið--
grenn--
gri--
grið--
gro--
groen--
gru--
grund--
grunn--
gry--
græ--
græn--
græð--
grønl--
gs--
gslu--
gt--
gu--
gufu--
gui--
gul--
gula--
gull--
gulls--
gum--
gun--
gunar--
gunn--
gur--
gus--
gust--
guð--
guðs--
gve--
gvæ--
gy--
gyll--
gyð--
gæ--
gæfu--
gær--
gæs--
gæslu--
gæða--
h--
ha--
hack--
had--
haf--
hafna--
hafnar--
hafra--
hafs--
hag--
haga--
hai--
hal--
halds--
hall--
hallar--
ham--
han--
hand--
handa--
hangi--
hansakaup--
hansas--
har--
hard--
harm--
hart--
harð--
has--
hat--
hatt--
haust--
hav--
haw--
hay--
he--
hef--
hefð--
hefðar--
heil--
heila--
heild--
heildar--
heilsu--
heim--
heima--
heims--
hein--
heit--
heið--
heiðurs--
hel--
helgi--
hellu--
helsingja--
hengi--
hepp--
her--
hera--
hercu--
hergagna--
hernaðar--
herra--
hers--
herðu--
hest--
hesta--
het--
hetju--
hey--
heyr--
hi--
high--
hildi--
him--
himin--
hin--
hipp--
hirð--
hit--
hita--
hja--
hjalla--
hjalt--
hjaltlands--
hjarta--
hjarðar--
hje--
hla--
hle--
hlið--
hliðar--
hlo--
hlu--
hlut--
hna--
hnapp--
hnat--
hnattv--
hne--
hnefa--
hnei--
hneyks--
hni--
hno--
hnu--
hny--
ho--
hof--
hol--
hold--
holl--
holu--
home--
hon--
hori--
horn--
hornaf--
hot--
hr--
hra--
hrafn--
hraun--
hraust--
hrað--
hraða--
hraðs--
hrei--
hrein--
hreið--
hrek--
hrep--
hres--
hrey--
hreyfi--
hri--
hrif--
hrifa--
hrika--
hring--
hro--
hroll--
hru--
hrunam--
hry--
hrygg--
hrylli--
hræ--
hræði--
hs--
hu--
hug--
huga--
hugar--
huldu--
hun--
hund--
hunda--
hungur--
hus--
huy--
hva--
hval--
hvala--
hvalfja--
hvalfjarðar--
hvann--
hvarf--
hvassa--
hvat--
hvata--
hve--
hver--
hvers--
hversdags--
hvi--
hvo--
hvolf--
hy--
hydro--
hygg--
hyper--
hyrnings--
hæ--
hæfi--
hæg--
hægri--
hæl--
hæns--
hættu--
hø--
i--
ia--
ice--
ich--
id--
iden--
ideo--
ie--
if--
ik--
il--
ill--
illu--
ilm--
im--
immig--
in--
inc--
inclu--
ind--
infec--
ing--
ingi--
ingja--
inn--
innan--
inni--
ins--
int--
integ--
inter--
inve--
io--
ip--
ir--
is--
iso--
ist--
it--
iv--
ið--
iðn--
iðnaðar--
j--
ja--
jacque--
jafn--
jam--
jan--
jar--
jaris--
jarð--
jarðs--
jað--
jaðar--
je--
ji--
jo--
joa--
jon--
js--
ju--
jun--
jurta--
k--
ka--
kaf--
kaffi--
kaflok--
kafor--
kaft--
kai--
kakka--
kald--
kalk--
kall--
kalmanst--
kalmar--
kammer--
kams--
kan--
kana--
kap--
kapel--
kapp--
kar--
karl--
karla--
karpat--
kas--
kat--
kata--
kau--
kaup--
kaupa--
kay--
kb--
kbind--
ke--
kei--
keisara--
keldu--
kelt--
keltnes--
kem--
ken--
kennara--
kenni--
kennslu--
kepp--
ker--
kerfis--
ket--
key--
keð--
keðju--
kgreiningar--
ki--
kier--
kim--
kin--
kinda--
kinga--
kinn--
kir--
kirk--
kirkju--
kis--
kit--
kja--
kjaft--
kjarasam--
kjarn--
kjarna--
kjarno--
kjarnorku--
kjarr--
kje--
kju--
kk--
kka--
kki--
kku--
kkvi--
kl--
kla--
klakk--
klapp--
kle--
kletta--
kli--
klipp--
klo--
klu--
klukkna--
kly--
klæ--
klæð--
km--
kn--
kna--
knar--
kne--
kni--
knræ--
ko--
kol--
kola--
koll--
kom--
kon--
kontra--
konu--
konungs--
korn--
kort--
kos--
kot--
kr--
kra--
kraft--
krans--
krata--
krav--
kre--
kri--
kring--
krist--
kro--
kross--
kru--
krunar--
krunarf--
kry--
krydd--
krypp--
kræ--
ks--
ksemda--
ksemdafær--
kt--
ktil--
ku--
kul--
kulda--
kum--
kun--
kunar--
kur--
kus--
kuðu--
kv--
kva--
kvart--
kven--
kvenna--
kver--
kvi--
kvikmynda--
kvið--
kvo--
kvæ--
kvæða--
kw--
ky--
kyn--
kynferðis--
kynja--
kyr--
kyrr--
kæ--
kænu--
kær--
kæru--
l--
la--
lab--
laby--
laf--
lafram--
lag--
laga--
lags--
lahr--
lak--
lakir--
lakre--
lam--
lamei--
lan--
land--
landa--
lands--
lang--
langa--
langbarða--
lapp--
lar--
lara--
las--
lasam--
last--
lasv--
lasvei--
lat--
lau--
lauf--
laug--
lauk--
laun--
launa--
laus--
lax--
lba--
lby--
ld--
lda--
ldar--
ldu--
ldun--
le--
lea--
leb--
lec--
leeu--
leg--
legu--
lei--
leigu--
leik--
leir--
leitar--
leið--
len--
lendu--
lengju--
leo--
lepp--
les--
lesa--
lest--
let--
letur--
leuc--
ley--
leyni--
leð--
lf--
lfa--
lfar--
lfboða--
lflu--
lfr--
lfræði--
lfs--
lfstæðis--
lfta--
lg--
lga--
lger--
lgrei--
lgu--
lheima--
li--
lie--
life--
lim--
lin--
lir--
lis--
list--
lista--
lit--
lita--
lið--
liða--
liðs--
lk--
lka--
lkn--
lkna--
lks--
lkur--
ll--
lla--
llu--
lm--
lma--
lmiðla--
lms--
ln--
lna--
lni--
lo--
lock--
lof--
loft--
lofts--
log--
logn--
lok--
loka--
long--
los--
lotu--
lou--
loð--
lp--
lpar--
lpræðishe--
lreiða--
lræ--
ls--
lsa--
lskyldu--
lsly--
lst--
lsu--
lt--
ltæ--
lu--
luc--
ludo--
lum--
lun--
lungna--
lur--
lus--
luset--
luxem--
lv--
lva--
lvi--
lvu--
lvuorða--
ly--
lyco--
lyf--
lyfja--
lykil--
lykla--
lyng--
lysti--
læ--
lægs--
læk--
lækjar--
lækna--
læknis--
lær--
læri--
læði--
lø--
m--
ma--
mabu--
mac--
macro--
macrophy--
mad--
mag--
maga--
mai--
maj--
mak--
mal--
man--
mana--
mani--
mann--
manna--
manns--
mannvistar--
map--
mar--
marg--
mark--
marka--
marks--
mart--
mas--
maset--
massa--
mat--
matar--
matsfyrir--
matvæla--
mavæði--
may--
mb--
mc--
mcco--
mccu--
mcg--
md--
me--
meas--
med--
medi--
megin--
mei--
mein--
meistara--
meiðs--
mel--
meltingar--
men--
mengja--
menn--
menningar--
mennta--
mer--
mera--
mers--
mes--
messu--
met--
meta--
mey--
með--
meðal--
mg--
mh--
mi--
mic--
micro--
micros--
mig--
mik--
mikil--
mikla--
mil--
milli--
miltis--
min--
minja--
minni--
minnis--
mir--
mis--
mishepp--
miso--
miss--
misski--
mit--
mix--
miya--
mið--
miðalda--
miðfja--
miðju--
miðviku--
mja--
mjað--
mk--
ml--
mm--
mmu--
mn--
mo--
mold--
mon--
mons--
mont--
mor--
morkin--
morð--
mos--
mosa--
mot--
mp--
mr--
ms--
msa--
mstun--
msveitar--
mt--
mu--
mul--
multi--
mum--
mun--
munaðar--
munka--
munn--
mur--
mus--
my--
mynd--
mynda--
myndskrey--
mynst--
mynt--
myrk--
mytho--
mæ--
mæli--
mæð--
mæðra--
mø--
n--
na--
nafn--
nafna--
nai--
nan--
napo--
nar--
nas--
nasista--
nast--
nat--
nau--
naut--
nauð--
nauðungar--
naðar--
nb--
nd--
nda--
ndar--
ndeildar--
ndu--
ndunar--
ne--
ned--
nef--
nei--
neitunar--
nen--
neo--
nes--
net--
neu--
new--
news--
ney--
nf--
ng--
nga--
ngar--
nger--
ngs--
ngu--
ngul--
ngva--
nh--
ni--
nic--
nift--
nik--
nimzo--
ningar--
nings--
nis--
nista--
nið--
niður--
nja--
nk--
nl--
nleika--
nlistar--
nm--
nn--
nnunar--
no--
nomin--
nor--
nord--
norð--
norðfja--
norður--
nos--
not--
nou--
nov--
nr--
nræ--
ns--
nshæfisein--
nsk--
nst--
nstil--
nt--
nteg--
ntu--
nu--
num--
nun--
nunnu--
nur--
nus--
nusar--
nustu--
nv--
nvarps--
nvei--
nvet--
ny--
nytja--
nytsam--
næ--
næfur--
nær--
næringar--
næst--
nætur--
o--
oak--
ob--
obser--
oc--
occiden--
odd--
odda--
odds--
odo--
of--
ofan--
off--
offic--
ofsa--
oft--
ofur--
og--
oh--
ok--
ol--
old--
ole--
oly--
om--
on--
ons--
op--
open--
or--
org--
ori--
orku--
orm--
orms--
orsaka--
orð--
orða--
os--
ost--
ou--
out--
over--
ox--
oxu--
oxunar--
oxy--
oz--
p--
pa--
pac--
pai--
pan--
papi--
par--
para--
parvi--
pas--
pat--
pav--
pavogs--
pay--
pe--
pel--
pen--
peninga--
per--
perlu--
persa--
pey--
ph--
phy--
phyto--
pi--
pic--
pie--
pils--
pilt--
pin--
pist--
pit--
piz--
pja--
pl--
pla--
plan--
play--
plei--
pli--
plo--
plu--
po--
pol--
poly--
pomp--
ponde--
pop--
popp--
popu--
por--
possi--
pot--
pp--
pr--
pra--
pre--
predi--
prent--
prests--
preve--
pri--
pro--
proba--
propo--
pru--
ps--
psy--
psychiat--
psycho--
pt--
pu--
pub--
pubanda--
pun--
punar--
pur--
purpura--
pus--
put--
py--
pynti--
pyrr--
pyrrhon--
pæ--
q--
qu--
que--
qui--
quick--
r--
ra--
rad--
radd--
raf--
rafmagns--
rak--
raka--
ral--
ralæ--
ram--
ran--
rang--
rangl--
rap--
rapp--
rar--
ras--
rat--
rau--
[...]
