!
"
#
##0
##1
##10
##11
##12
##13
##14
##15
##16
##17
##18
##19
##2
##20
##21
##22
##23
##24
##25
##26
##27
##28
##29
##3
##30
##31
##32
##33
##34
##35
##36
##37
##38
##39
##4
##40
##41
##42
##43
##44
##45
##46
##47
##48
##49
##5
##50
##51
##52
##53
##54
##55
##56
##57
##58
##59
##6
##60
##61
##62
##63
##64
##65
##66
##67
##68
##69
##7
##70
##71
##72
##73
##74
##75
##76
##77
##78
##79
##8
##80
##81
##82
##83
##84
##85
##86
##87
##88
##89
##9
##90
##91
##92
##93
##94
##95
##96
##97
##98
##99
$
%
&
'
(
)
*
+
,
-
.
/
0
00
000
001
002
01
02
03
04
0477
05
06
07
08
09
1
10
100
1000
1001
101
1011
1016
102
1020
1027
103
1030
1035
104
1040
105
1050
106
1066
107
1070
108
1080
1086
109
1099
11
110
1100
1103
1106
111
1111
1118
112
1120
1121
113
1130
1131
1133
1134
1135
1137
114
115
1150
1151
1152
1154
1155
1157
116
1160
1161
1162
117
1170
1171
118
1180
1181
1185
1187
1189
119
1190
1191
1198
1199
12
120
1200
1201
1202
1203
1204
1206
1208
121
1210
1213
1214
1215
1216
122
1220
1221
1222
1226
123
1230
1237
1238
124
1240
1241
125
1250
1252
1253
1254
126
1260
1261
1262
1263
1264
127
1270
1271
1274
1279
128
1280
1281
1284
129
1290
1291
1292
1294
1296
1299
13
130
1300
1301
1305
1306
1307
1308
131
1314
1316
1318
1319
132
1320
1321
1322
1326
1327
1328
1329
133
1330
1332
1334
134
1340
1341
1343
135
1350
1351
1357
136
1360
1361
1362
1364
1368
1369
137
1370
1371
1377
1378
138
1380
1387
1389
139
1390
1394
1397
14
140
1400
1402
1403
1405
1406
141
1410
1413
1415
142
1420
1422
1425
1429
143
1430
1431
1433
1435
1437
1439
144
1440
1441
1448
145
1450
1451
1453
1455
146
1460
1461
1467
1469
147
1470
1471
1477
1478
1479
148
1480
1481
1483
1485
149
1490
1491
1492
1493
1494
1495
1496
1497
1498
1499
15
150
1500
1501
1502
1503
1504
1506
1509
151
1510
1511
1512
1513
1514
1515
1516
1517
1518
1519
152
1520
1521
1522
1523
1524
1525
1526
1527
1528
1529
153
1530
1531
1532
1533
1534
1535
1536
1537
1538
1539
154
1540
1541
1542
1543
1545
1546
1547
1548
1549
155
1550
1551
1552
1553
1554
1555
1556
1558
1559
156
1560
1561
1562
1563
1564
1565
1566
1567
1568
1569
157
1570
1571
1572
1573
1574
1575
1576
1578
158
1580
1581
1582
1583
1584
1585
1587
1588
1589
159
1590
1591
1592
1593
1594
1595
1596
1597
1598
1599
16
160
1600
1601
1602
1603
1604
1605
1606
1607
1608
1609
161
1610
1611
1612
1613
1614
1615
1616
1617
1618
1619
162
1620
1621
1622
1623
1624
1625
1626
1627
1628
1629
163
1630
1631
1632
1633
1634
1635
1636
1637
1638
1639
164
1640
1641
1642
1643
1644
1645
1646
1647
1648
1649
165
1650
1651
1652
1653
1654
1655
1656
1657
1658
1659
166
1660
1661
1662
1663
1664
1665
1666
1667
1668
1669
167
1670
1671
1672
1673
1674
1675
1676
1677
1678
1679
168
1680
1681
1682
1683
1684
1685
1686
1687
1688
1689
169
1690
1691
1692
1693
1694
1695
1696
1697
1698
1699
17
170
1700
1701
1702
1703
1704
1705
1706
1707
1708
1709
171
1710
1711
1712
1713
1714
1715
1716
1717
1718
1719
172
1720
1721
1722
1723
1724
1725
1727
1728
1729
173
1730
1731
1732
1733
1734
1735
1736
1737
1738
1739
174
1740
1741
1742
1743
1744
1745
1746
1747
1748
1749
175
1750
1751
1752
1753
1754
1755
1756
1757
1758
1759
176
1760
1761
1762
1763
1764
1765
1766
1767
1768
1769
177
1770
1771
1772
1773
1774
1775
1776
1777
1778
1779
178
1780
1781
1782
1783
1784
1785
1786
1787
1788
1789
179
1790
1791
1792
1793
1794
1795
1796
1797
1798
1799
18
180
1800
1801
1802
1803
1804
1805
1806
1807
1808
1809
181
1810
1811
1812
1813
1814
1815
1816
1817
1818
1819
182
1820
1821
1822
1823
1824
1825
1826
1827
1828
1829
183
1830
1831
1832
1833
1834
1835
1836
1837
1838
1839
184
1840
1841
1842
1843
1844
1845
1846
1847
1848
1849
185
1850
1851
1852
1853
1854
1855
1856
1857
1858
1859
186
1860
1861
1862
1863
1864
1865
1866
1867
1868
1869
187
1870
1871
1872
1873
1874
1875
1876
1877
1878
1879
188
1880
1881
1882
1883
1884
1885
1886
1887
1888
1889
189
1890
1891
1892
1893
1894
1895
1896
1897
1898
1899
19
190
1900
1901
1902
1903
1904
1905
1906
1907
1908
1909
191
1910
1911
1912
1913
1914
1915
1916
1917
1918
1919
192
1920
1921
1922
1923
1924
1925
1926
1927
1928
1929
193
1930
1931
1932
1933
1934
1935
1936
1937
1938
1939
194
1940
1941
1942
1943
1944
1945
1946
1947
1948
1949
195
1950
1951
1952
1953
1954
1955
1956
1957
1958
1959
196
1960
1961
1962
1963
1964
1965
1966
1967
1968
1969
197
1970
1971
1972
1973
1974
1975
1976
1977
1978
1979
198
1980
1981
1982
1983
1984
1985
1986
1987
1988
1989
199
1990
1991
1992
1993
1994
1995
1996
1997
1998
1999
2
20
200
2000
2001
2002
2003
2004
2005
2006
2007
2008
2009
201
2010
2011
2012
2013
2014
2015
2016
2017
2018
2019
202
2020
20202
2021
2022
2023
2024
203
2030
204
205
206
207
208
209
21
210
2100
211
212
213
214
215
216
217
218
219
22
220
221
222
223
224
225
226
227
228
229
23
230
231
232
233
234
235
236
237
238
239
24
240
241
242
243
244
245
246
247
248
249
25
250
2500
251
252
253
254
255
256
257
258
259
26
260
2600
261
262
263
264
265
266
267
268
269
27
270
271
272
273
274
275
276
277
278
279
28
280
281
282
283
284
285
287
289
29
290
291
292
293
294
295
297
298
299
3
30
300
3000
301
302
303
304
305
306
307
308
309
31
310
311
312
313
314
315
316
3166
317
318
319
32
320
321
322
323
324
325
326
328
33
330
331
332
333
334
335
336
337
338
339
34
340
342
343
344
345
347
35
350
3500
351
352
353
354
355
356
357
359
36
360
361
362
363
364
365
366
368
37
370
375
376
377
378
379
38
380
381
384
385
39
390
395
399
4
40
400
4000
401
403
404
405
406
41
410
412
415
42
420
421
422
423
425
427
428
43
430
44
440
446
45
450
454
46
460
461
468
47
470
471
473
476
48
480
49
5
50
500
5000
501
51
510
511
512
518
52
520
521
53
530
54
540
55
550
551
56
560
57
570
58
580
581
585
59
590
6
60
600
6000
61
618
62
620
63
630
631
633
64
640
65
650
655
66
660
67
670
674
68
69
690
7
70
700
7000
71
710
72
720
721
73
730
737
74
747
75
750
751
76
760
77
770
78
780
79
8
80
800
8000
8001
81
810
82
83
832
84
840
843
85
850
86
860
861
87
870
871
875
88
880
884
89
9
90
900
907
91
910
911
92
920
93
930
94
940
941
95
950
955
957
96
960
961
97
970
978
98
980
985
99
990
9935
995
9979
999
:
;
<
=
>
?
@
\
^
_
`
a
aa
aachen
aaron
ab
abba
abbadi
abbas
abbasi
abbey
abby
abc
abdu
abdul
abdullah
abe
abel
aberdeen
abies
abkasi
ablativus
abo
about
above
abraham
abrahams
abu
ac
academia
academic
academy
access
accessed
acer
acid
ackles
across
act
acta
actinidia
action
actors
ad
ada
adam
adams
add
adda
additional
address
ade
adeild
adeildar
adeildarþingmaður
adelges
adhd
administration
ado
adobe
adolf
adolfs
adri
adrian
advanced
adventure
adventures
aemilius
af
afa
afar
afbragðs
afbrigði
afbrigðinu
afbrigðið
afbrigðum
afbrot
afbry
afc
afdra
afdrif
afdrifari
afe
aff
affairs
afgangurinn
afganistan
afganistans
afgerandi
afghanistan
afgreiðslu
afhenda
afhendingu
afhent
afhenti
afhju
afhroð
afi
afjo
afkastamikill
afko
afkomandi
afkomenda
afkomendum
afkomendur
afkomu
afkvæmi
afl
afla
aflað
aflaði
afle
afleiða
afleiðing
afleiðingar
afleiðingin
afleiðingum
afleiðu
aflfræði
afli
aflinn
aflo
afly
afmarka
afmarkast
afmarkað
afmo
afmæli
afmælis
afmælisdegi
afmælisrit
afna
afnam
afneita
afnema
afnot
afnota
afnumin
afnumið
afpla
afra
afrakstur
afre
afrek
afri
africa
african
afrit
afro
afsagnar
afsala
afsalaði
afskaplega
afskipti
afskiptum
afsla
afso
afstaða
afsto
afsty
aftaka
aftan
aftari
aftast
after
afto
aftr
aftur
afturelding
afturgo
afurð
afurðir
afþakkaði
ag
aga
again
against
agathis
age
agency
agent
agib
agnar
agnes
agnir
ago
agricultural
agriculture
ah
ahmad
ahmed
ai
ain
air
airbus
aires
airlines
airport
airwaves
airways
ais
ajax
ak
aka
akademi
akerfi
akim
akkeri
akkilles
akko
akonungar
akonungs
akonungur
akra
akrahreppur
akranes
akranesi
akraness
akro
akti
akureyrar
akureyri
akvitani
al
ala
alabama
alain
alan
alaska
alba
albani
albert
alberta
alberti
alberto
alberts
albertsson
albo
albrecht
albu
album
albus
alcoa
alda
aldamo
aldar
aldarinnar
aldemo
aldi
aldin
aldir
aldirnar
aldraðra
aldraður
aldregi
aldrei
aldri
aldrinum
aldur
aldurs
aldursa
alejandro
aleksandr
aleochara
alessandro
alex
alexander
alexanders
alexandra
alexandre
alexandri
alexi
alexis
alfa
alfarið
alfons
alfred
alfredo
alfreð
algebra
algebru
algeng
algengar
algengara
algengari
algengast
algengasta
algengasti
algengastur
algengir
algengt
algengur
algengust
algengustu
algerlega
algjo
alheimsins
alhliða
ali
aliases
aliby
alice
alien
align
alignbars
alin
alinn
alisma
alismi
alist
alista
alistaflokksins
alistaflokkurinn
alistar
alið
alkali
alko
all
alla
allah
allan
allar
allavega
alle
alleinasta
allen
allende
alliance
allir
allison
allium
allmargar
allmargir
allmikið
allmo
allmusic
allr
allra
allrar
allri
alls
allsherjar
allsherjarþing
allsherjarþingi
allskonar
allsra
allsto
allt
alltaf
allur
allvel
ally
alma
almanak
almannafæri
almaty
almenn
almenna
almennan
almennar
almennilega
almenning
almenningi
almennings
almenningsa
almenningssamgo
almenningur
almennir
almennra
almennrar
almennri
almenns
almennt
almennu
almennum
almennur
almu
alnus
alnæmi
alo
alone
alpa
alpafjo
alpha
alpina
alri
als
alsi
also
alstaðar
alt
altari
altarinu
altaris
altaristafla
altaristaflan
altarið
alte
alternative
althingi
alu
alucard
alvara
alvarleg
alvarlega
alvarlegar
alvarlegri
alvarlegt
alvarlegum
alveg
alvin
alvo
always
alzheimer
alþingi
alþingis
alþingishu
alþingiskosningar
alþingiskosningarnar
alþingiskosningum
alþingiskosningunum
alþingismanns
alþingismaður
alþingismenn
alþjo
alþy
am
amadeus
amali
amanda
amaso
amato
amazing
amazon
amba
ame
amelia
amen
ameri
america
american
americana
ami
amin
amma
ammo
ammoni
amnesty
amo
amon
among
amsterdam
amtmanns
amtmaður
amu
amy
an
ana
analysis
anamthawat
anastasi
anato
anatomy
anaxago
ancient
and
anda
andaki
andalu
andann
andans
andanum
andar
andast
andaætt
andaðist
anders
andersen
anderson
andersson
andesfjo
andi
andinn
andla
andleg
andlega
andlegum
andlit
andliti
andlitinu
andlitið
ando
andorra
andra
andre
andrea
andreas
andrew
andrews
andri
andro
android
androsace
andru
andsnu
andspyrnu
andspænis
andstaða
andsto
andstætt
andstæða
andstæðinga
andstæðingar
andstæðingsins
andstæðingum
andstæðingur
andu
andvari
andvi
andvirði
andy
anfield
angel
angela
angeles
angelo
angels
angi
ango
anhui
ani
animal
animals
animation
anime
aniston
anjou
ankara
anleg
anlega
anlegt
anlegur
ann
anna
annan
annar
annara
annarar
annari
annarr
annarra
annarrar
annarri
annars
annarsstaðar
annarstaðar
annarsvegar
annast
annat
annað
annaðhvort
annaðist
anne
annes
annie
anno
annual
ano
another
ans
anscombe
ansi
anska
anthony
anthyllis
anti
anto
antoine
antoinette
anton
antoni
antonio
antonius
antwerpen
anum
anus
anusar
anusi
anwar
any
anzaði
ao
ap
apa
apamea
aphididae
apis
apo
apollo
apotomis
appelsi
appenni
apple
applied
appollo
apr
apri
april
aptr
aptur
apu
aquino
ar
ara
araba
arabar
arabari
arabi
arafat
arago
arason
arasonar
araucaria
arboretum
arbragða
arbro
archaeology
archer
archibald
archive
archives
arctic
arduino
are
area
arena
arf
arfleifð
arftaka
arftaki
arfur
argenti
args
arho
ari
aria
arias
ariel
arinnar
arion
aristo
aristotle
arizona
arkansas
arkesila
arki
arkirkjan
arkitekt
arkitektar
arkitektinn
arkitektu
arleg
arlegum
arma
armaðurinn
armeni
armenska
armeria
arms
armstrong
army
arna
arnalds
arnaldur
arnar
arnardo
arnarfirði
arnarfjo
arnarho
arnarson
arnarsson
arnarstapa
arnbjo
arndi
arne
arngri
arnhem
arnir
arnljo
arno
arnold
arnþo
aro
arol
aron
around
arpaio
ars
arsenal
arskeldu
art
arthu
arthur
article
articles
artist
artists
arts
artu
aru
as
asar
asdo
aserbai
ash
ashley
asi
asia
asian
ask
aska
aski
askja
askur
aso
asp
aspx
assad
assange
assessment
association
asson
assy
ast
astacus
aston
astragalus
astri
astrid
at
ata
atala
atar
atari
atburð
atburða
atburðara
atburði
atburðir
atburðum
atburður
atburðurinn
atferli
ath
athafna
athafnamaður
athafnamenn
athafnir
athletic
atho
athuga
athuganir
athugasemd
athugasemdir
athugasemdum
athugið
athugun
athugunar
athugunum
athygli
athæfi
ati
atkinson
atkvæða
atkvæðagreiðslu
atkvæði
atkvæðum
atla
atlanta
atlantic
atlantis
atlantshaf
atlantshafi
atlantshafinu
atlantshafið
atlantshafs
atlantshafsbandalagið
atlantshafsbandalagsins
atlantshafsins
atlas
atlason
atle
atli
atlo
ato
atriða
atriði
atriðin
atriðið
atriðum
attack
atti
atu
atvik
atvikið
atviksorð
atvikum
atvinna
atvinnu
atvinnugrein
atvinnugreinar
atvinnuleysi
atvinnuli
atvinnuma
atvinnumaður
atwater
au
auddi
auga
augað
augliti
augljo
augly
augna
augnablik
augnabliki
augsy
augu
augum
augun
augunum
august
auguste
augusto
augustus
auk
auka
aukahlutverk
aukahlutverki
aukaleikarar
aukaleikari
aukaperso
aukast
auki
aukin
aukinn
aukinna
aukinnar
aukinni
aukins
aukist
aukið
aukna
auknar
aukning
aukningu
auknu
auknum
aung
aura
aus
ausa
auschwitz
austan
austanverðu
austast
austasta
austasti
austfjo
austin
austr
australia
australian
australis
austri
austro
austrri
austur
austura
austurbæjarsko
austurhluta
austurhlutanum
austurhluti
austurland
austurlanda
austurlandi
austurlands
austurlo
austurri
austurs
austurstrandar
austurstro
austurstræti
austurvelli
austurvo
author
authority
authorlink
authors
auto
autt
aux
auð
auðar
auðgi
auði
auðigur
auðið
auðku
auðlegð
auðlinda
auðlindir
auðlindum
auðmenn
auðmy
auðs
auðse
auðso
auðsy
auðugur
auðun
auðunn
auður
auðvelda
auðveldar
auðveldara
auðveldari
auðveldlega
auðvelt
auðvitað
auðæfi
av
available
avenue
aviv
award
awards
away
ax
axel
axelsson
az
aziz
azteca
að
aða
aðal
aðala
aðalafbrigðið
aðalbjo
aðalbo
aðaldal
aðalega
aðalframkvæmdastjo
aðalfundi
aðalgrein
aðalheiður
aðalhlutverk
aðalhlutverki
aðalhlutverkin
aðalhlutverkið
aðalhlutverkum
aðalhlutverkunum
aðalho
aðallega
aðalleikarar
aðalperso
aðalra
aðalritara
aðalritari
aðalsins
aðalskipulag
aðalsmanna
aðalsmaður
aðalsmenn
aðalso
aðalsteinn
aðalsteinsson
aðalstjo
aðalsto
aðalstræti
aðalvi
aðar
aðbu
aðda
aðdra
aðdraganda
aðdragandi
aðeins
aðfangadag
aðfangadagskvo
aðfarano
aðferð
aðferða
aðferðafræði
aðferðin
aðferðir
aðferðum
aðfo
aðgang
aðgangi
aðgangur
aðgengi
aðgengileg
aðgengilegt
aðgerð
aðgerða
aðgerðasinnar
aðgerðasinni
aðgerðastefna
aðgerðin
aðgerðina
aðgerðinni
aðgerðir
aðgerðum
aðgreina
aðgreiningar
aðgreiningarsi
aðhyllast
aðhyllist
aðhylltist
aðhylltust
aði
aðila
aðilar
aðild
aðildarfe
aðildarri
aðili
aðilinn
aðilum
aðir
aðist
aðkomu
aðkomumaður
aðlaga
aðlagast
aðliggjandi
aðlo
aðmi
aðra
aðrar
aðrir
aðsetur
aðskildar
aðskildir
aðskildum
aðskilin
aðskilið
aðskilja
aðskilnað
aðskilnaðarsinna
aðskilnaði
aðskilnaður
aðskilur
aðso
aðspurður
aðstandendur
aðstaða
aðsto
aðstoð
aðstoða
aðstoðar
aðstoðarmaður
aðstoðarprestur
aðstoðarþja
aðstoðaði
aðstæðna
aðstæðum
aðstæður
aður
aþena
aþenu
b
ba
baby
bach
back
background
backgroundcolors
bacon
bad
baden
badminton
bafta
bagdad
bagga
baggalu
bago
baha
bahafi
bahamaeyja
bahamaeyjar
bailey
bailly
bairns
baja
bak
baka
bakari
bakað
baker
bakgrunn
bakgrunni
bakgrunnur
bakhlið
baki
bakinu
bakið
bakka
bakkanum
bakr
bakraddir
bakteri
baku
bakvið
bal
baldri
baldur
baldurs
baldursdo
baldursson
baldvin
baldvinsson
baldwin
balf
bali
balkanskaga
ball
ballo
baltasar
baltimore
bama
bamberg
bambus
bambustegund
ban
bana
banar
band
banda
bandalag
bandalagi
bandalaginu
bandalagið
bandalags
bandalagsins
bandamanna
bandamaður
bandamenn
bandamo
bandari
bandi
bandið
bang
bangkok
bangladess
bangsi
bani
bank
banka
bankahrunið
bankahrunsins
bankakerfisins
bankakerfið
bankana
bankann
bankanna
bankans
bankanum
bankar
bankara
bankarnir
bankastjo
bankastræti
banki
bankinn
banks
bann
banna
bannar
bannað
bannaðar
bannaði
bannaður
bannfærði
banni
bannið
banon
bantu
baptiste
bar
bara
barack
barbados
barbara
barbari
barbarossa
barbo
barcelona
bardaga
bardagalaust
bardagann
bardaganum
bardagar
bardagi
bardaginn
bardata
bardo
barein
bari
barin
barinn
barist
barið
bark
barmi
barn
barna
barnabarn
barnabo
barnabækur
barnanna
barnasko
barneby
barnes
barney
barni
barninu
barnið
barnlaus
barns
barnsaldri
barnsfo
barnshafandi
barnsins
barnæsku
baro
barokksti
barr
barret
barrett
barrið
barrna
barrsko
barrtre
barrtrja
barry
barselo
barst
bart
barto
baru
barða
barðastrandarsy
barðastro
barði
barðist
based
basel
basi
basic
basil
basili
basque
bass
bassa
bassaleikari
bassi
bata
bates
bath
batista
batman
batna
batnaði
batt
battle
bauer
baugi
baugs
baugur
bauhaus
baunir
bauð
bauðst
bay
bayer
bayern
bayeux
bað
baðhu
baðst
baðstofu
baðstofuna
baðstofunni
bb
bba
bbc
bbi
bbnum
bbs
bbsins
bbum
bbur
bburinn
bc
bd
be
beach
bean
bear
beat
beatrix
beautiful
beauty
beaver
bec
beck
beckenbauer
becker
bedreddi
bee
been
beethoven
before
beggja
begi
begin
beginning
behavior
bei
beiddi
beiddist
beijing
bein
beina
beinagrind
beinan
beinar
beinast
beindi
beindist
beindust
being
beini
beinin
beinir
beinist
beinli
beinn
beinni
beinst
beint
beinu
beinum
beiru
beit
beita
beitingu
beitir
beitt
beitti
beittu
beið
beiðni
bekk
bekkur
belfast
belg
belga
belgar
belgi
belginn
belgrad
belgum
beli
believe
bell
bella
belo
below
bels
belsverðlaun
belsverðlaunahafar
belsverðlaunahafi
belsverðlaunin
belti
beltinu
beltið
ben
benda
bender
bendingar
bendir
benedikt
benedikts
benediktsdo
benediktsson
benediktssonar
bengal
beni
benito
benjami
benjamin
bennett
benny
beno
benoni
bensi
bent
bentham
benti
bentu
benz
ber
bera
berandi
berast
berengari
berg
bergen
berger
bergi
berginu
bergið
berglind
bergljo
bergma
bergmann
bergs
bergsson
bergtegundir
bergur
bergþo
beri
berin
berja
berjast
berjum
berkeley
berki
berkla
berklum
berli
berlin
berlusconi
bermu
bern
bernadotte
bernard
bernardo
bernd
bernhard
bernsku
berr
berry
berst
bersy
bert
bertha
bertram
bertrand
berts
berum
bessarabi
bessasto
bessi
best
besta
besti
bestu
bestur
bet
beta
betlehem
betra
betri
better
betty
betula
betur
between
bevere
beverly
beyging
beygingarmyndir
beygingu
beygist
beygja
beygjast
beyki
beykiætt
beyonce
beyond
bezt
bezta
bezti
beztu
beðinn
beðið
bg
bge
bh
bhutto
bi
bibli
biden
bifreið
bifreiða
bifreiðar
bifro
big
bikar
bikarhafa
bikarinn
bikarkeppni
bikarkeppnin
bikarkeppninnar
bikarkeppninni
bikarmeistarar
bikarmeistari
bikarnum
bikarsins
bil
bilbao
bili
bilinu
bilið
bill
billboard
billich
billy
bilt
bin
binda
bindandi
bindast
bindi
bindið
bindum
bindur
bingen
bio
biography
biology
biota
bird
birds
birgi
birgir
birgisson
birgitta
birgðir
birki
birkir
birkisko
birkiætt
birmingham
birna
birni
birnu
birst
birt
birta
birtar
birtast
birth
birti
birtingu
birtir
birtist
birtu
birtur
birtust
bis
bishop
biskup
biskupa
biskupakirkjunnar
biskupanna
biskupar
biskuparnir
biskupi
biskupinn
biskups
biskupsdo
biskupsdæmi
biskupsfru
biskupsins
biskupssetur
biskupssto
biskupstungum
bismarck
bissa
bit
bita
biti
bið
biðja
biðjast
biðji
biðr
biðu
biður
bja
bjallan
bjarg
bjarga
bjargar
bjargað
bjargaði
bjarginu
bjargið
bjarki
bjarna
bjarnado
bjarnar
bjarnarson
bjarnarsonar
bjarnason
bjarnasonar
bjarnasyni
bjarndy
bjarnhe
bjarni
bjart
bjarta
bjartasta
bjartrar
bjartsy
bjartur
bjo
bju
bjuggu
bjuggust
bk
bla
black
blackburn
blackwell
blade
blair
blak
blake
blanche
bland
blanda
blandar
blandast
blandað
blandaðar
blandaði
blandaður
blanka
blað
blaða
blaðamaður
blaðamaðurinn
blaðamenn
blaðamennsku
blaði
blaðinu
blaðið
blaðsi
blaðsins
ble
bleik
bleikum
blendingar
blendingur
bless
blessaður
blessun
blessuð
blett
bletti
blettum
bli
blikana
blikanaflokksins
blikanar
blind
blinda
blindur
blo
bloch
block
blog
blogg
bloggsi
blogspot
blokk
blood
bloom
bloomberg
bls
blu
blue
blues
blume
blur
bly
blæ
blær
blæs
bmatrix
bna
bo
board
bob
bobby
boca
body
boeing
boga
bogfimi
bogi
boiss
bol
bola
boli
bolla
bollason
bolli
bologna
bolse
bolsonaro
bolta
boltann
boltanum
boltinn
bolton
bolungarvi
bombus
bon
bonaparte
bond
bones
bonn
bonnie
book
booker
books
boom
booth
bora
bordeaux
border
borealis
borg
borga
borgakeppni
borganna
borgar
borgara
borgaraleg
borgaralegum
borgaranna
borgarar
borgarare
borgarastri
borgarastyrjaldarinnar
borgarastyrjo
borgarbo
borgarbu
borgarbyggð
borgarfirði
borgarfjarðar
borgarfjarðarsy
borgarfjo
borgarfulltru
borgarhlið
borgarhluta
borgarhluti
borgarholtssko
borgari
borgarinnar
borgarleikhu
borgarli
borgarmo
borgarmu
borgarnesi
borgarra
borgarre
borgarstjo
borgað
borgaði
borghe
borgin
borgina
borginni
borgir
borgirnar
borgið
borgri
borgum
borgundarho
borgunum
borgurum
borin
borinn
boris
borist
borið
born
bornar
borneo
bornir
borough
borussia
borð
borða
borðar
borðað
borðaði
borði
borðinu
borðið
borðs
borðspil
borðtennis
borðum
bos
bosni
boss
bossa
boston
bot
botanic
botanical
botanova
botany
botn
botni
botninn
botninum
botns
botnvo
botsvana
bottom
bourbon
bourgoin
bowie
bowl
box
boy
boyle
boys
boð
boða
boðar
boðað
boðaði
boðha
boði
boðin
boðinn
boðið
boðorð
boðskap
boðum
br
bra
brabant
brad
bradley
brady
braga
bragarha
bragason
bragi
bragð
bragða
bragði
bragðið
bragðs
brahe
brain
braltar
brand
brandenborg
brandi
brandon
brands
brandsson
brandt
brandur
brann
brasili
brast
bratt
braun
braust
braut
brautin
brautina
brautir
brautryðjandi
brautskra
brauð
brauði
brauðið
bre
break
breda
bree
bregenz
bregst
bregða
bregðast
bregður
breidd
breiddargra
breiddi
breiddist
breiddust
breitt
breið
breiða
breiðablik
breiðabliki
breiðabo
breiðafirði
breiðafjo
breiðar
breiðari
breiðast
breiðdal
breiðfjo
breiðholti
breiðir
breiðski
breiðst
breiðu
breiðum
breiður
breiðuvi
brekku
bremen
brenda
brenna
brennandi
brennd
brenndi
brenndir
brenndu
brenndur
brennir
brennivi
brennslu
brennt
brennu
brennur
bresk
breska
breskan
breskar
breski
breskir
breskra
breskri
breskt
bresku
breskum
breskur
brest
brestur
breta
bretadrottning
bretagne
bretaprins
bretar
bretland
bretlandi
bretlands
bretlandseyja
bretlandseyjar
bretlandseyjum
breto
bretti
bretum
brewster
breyst
breyta
breytast
breytileg
breytilegt
breytilegur
breyting
breytinga
breytingar
breytingarnar
breytingin
breytingu
breytingum
breytir
breytist
breytni
breytt
breytta
breytti
breyttir
breyttist
breyttu
breyttum
breyttur
breyttust
breytur
bri
brian
brid
bridge
briem
brighton
brill
brim
bringu
bristol
britain
britannica
british
britney
brja
brjo
bro
broadway
broddi
broken
brons
bronsleikur
bronso
bronsverðlaun
bronx
brooklyn
brooks
bros
brosti
brot
brota
brothers
broti
brotin
brotinn
brotist
brotið
brotna
brotnar
brotnaði
brott
brottfo
brotthvarf
brottu
brotum
brown
bru
bruce
bruch
bruckheimer
brugge
brugghu
brugðin
brugðist
brugðið
brugðust
bruna
brunann
brunanum
bruni
bruninn
brunninn
brunnið
brunnu
bruno
brussel
brutu
brutust
bruun
bry
bryan
bryggju
bryndi
brynhildur
brynja
brynjar
brynjo
brynju
bryti
bryum
bræði
bræðra
bræðranna
bræðratungu
bræðrum
bræðrunum
bræðslumark
bræður
bræðurna
bræðurnir
bs
bsrb
bu
bubba
bubbi
buchanan
buckley
buddy
buenos
buffalo
buffy
bug
building
buisson
bull
bulletin
bullock
bum
bun
bundesliga
bundin
bundinn
bundið
bundnar
bundnir
bundnu
bundu
bunge
bura
bureau
burke
burknar
burn
burniro
burns
burt
burton
burtu
burð
burðara
burði
burður
bus
bush
business
but
butler
buxur
buðu
bv
bxc
by
bygg
byggi
bygging
bygginga
byggingar
byggingarefni
byggingarinnar
byggingarlist
byggingarsti
byggingin
byggingu
byggingum
bygginguna
byggingunni
byggir
byggist
byggja
byggjast
byggst
byggt
byggð
byggða
byggðar
byggðarlo
byggðasafn
byggðasaga
byggði
byggðin
byggðina
byggðinni
byggðir
byggðist
byggðu
byggðum
byggður
byggðust
bylgja
bylgjan
bylgjunnar
bylgjunni
bylting
byltingar
byltingarinnar
byltingarmenn
byltingin
byltingu
byltinguna
byltingunni
byr
byrg
byrgisins
byrgjast
byrgur
byrgð
byrgðar
byrinn
byrja
byrjar
byrjað
byrjaði
byrjaður
byrjun
byrjunarliðinu
byrjuð
byrjuðu
byrði
byskup
byskupi
byskupinn
byskups
byssu
byssur
bæ
bægisa
bæheimi
bæheims
bæi
bæinn
bæir
bæirnir
bæja
bæjanna
bæjar
bæjaraland
bæjaralandi
bæjaralands
bæjarar
bæjarbu
bæjardyrum
bæjarfe
bæjarfo
bæjarfulltru
bæjarhu
bæjarins
bæjarra
bæjarstjo
bæjum
bæjunum
bækisto
bækur
bækurnar
bæla
bæli
bæn
bænahu
bænda
bændum
bændur
bænir
bænum
bær
bæri
bærinn
bæru
bæst
bæta
bætast
bæti
bætir
bætist
bætt
bætti
bættist
bættu
bættust
bætur
bæði
c
ca
caesar
caesars
cafe
cairnes
calais
calandrinia
calflora
cali
california
call
callitris
calvin
cambridge
cameron
camille
camp
campanula
campanulaceae
campbell
campo
camus
can
canada
canadensis
canadian
cancer
cand
candy
cannes
cannon
canvas
cao
cap
capacent
cape
capital
captain
caracalla
carassius
cardiff
care
carey
carl
carlo
carlos
carmen
carnap
carnegie
carol
carolina
caroline
carpinus
carranza
carrey
carrie
carroll
carter
caruso
case
cases
casey
cash
cassidy
cast
castiel
castillo
castle
castro
cat
catalogue
category
cath
catherine
cato
cavariella
cave
cavendish
cayman
cbs
cd
cdot
cdots
ce
cecil
celine
cell
celtic
centenario
center
central
centre
century
cerastium
cero
ch
cha
chad
chamaecyparis
chamberlain
champagne
chan
chanel
chang
changchun
change
changes
changsha
changzhou
channel
channing
chaplin
chapman
chapter
charles
charlie
charlotte
chase
chaucer
che
checklist
checklists
chelsea
chemical
chemistry
chen
cheney
cheng
chengdu
cher
cherry
chester
chi
chiang
chicago
chicks
child
children
chile
china
chinensis
chinese
ching
chirac
cho
choice
chongqing
chris
christ
christensen
christi
christian
christiania
christie
christina
christine
christmas
christoph
christopher
chrome
chu
chuck
chun
church
churchill
chusquea
ci
cia
cicero
cindy
circle
circus
cistanthe
citrus
city
civil
ck
cken
cl
cladonia
claire
clan
clara
clare
clarence
clarendon
clark
clarke
clarkson
class
classic
classical
classification
claude
claudi
claudio
claudius
clausen
clay
claytonia
clemenceau
cleveland
climate
clinical
clinton
close
closer
clover
club
clyde
cm
cnn
co
coast
coca
cochrane
code
codex
cody
coffee
cohen
cola
colbert
cold
cole
coleman
colin
collected
collection
college
collins
collor
color
colorado
colors
colour
columbia
columbus
com
combatant
come
comedy
comes
coming
commission
committee
common
commons
community
companion
company
comparative
complete
compton
computer
comte
con
concert
cone
cones
conference
conflict
congress
conifer
conifers
connecticut
connor
conrad
conservation
constitution
conte
contemporary
content
control
cook
cool
cooper
copa
copenhagen
core
cork
cornelius
cornell
cornwall
coronavirus
corporation
corpus
corte
cos
costa
could
council
countries
country
county
course
court
coventry
cover
covid
cox
craig
crash
crassostrea
crataegus
crawford
crazy
cre
creative
creek
crime
crimes
criminal
crisis
cristiano
cristo
critical
critics
crocus
cromwell
cross
crowley
cruise
cruyff
cruz
cry
crystal
cs
csi
css
cultivation
cultural
culture
cup
cupressaceae
cupressus
curac
curie
current
curtis
cut
cv
cxd
cyp
cyrus
cytisus
cæsar
cæsars
d
da
daddy
dafna
dafnaði
dag
daga
dagana
dagar
dagatal
dagblað
dagblaðinu
dagblaðið
dagblaðsins
dagblo
dagbo
daginn
daglega
daglegt
daglegu
dagny
dags
dagsbru
dagsetning
dagsetningu
dagsett
dagsettir
dagsins
dagskra
dagsson
dagur
dagurinn
daily
dako
dal
dala
dalabyggð
daladier
dalai
dalasy
dalbu
daldo
dale
dali
dalinn
dalir
dallas
dalmati
dalnum
dalsins
dalton
dalur
dalurinn
dalvi
damaskus
dame
dan
dana
danadrottning
danakonungar
danakonungi
danakonungs
danakonungur
danaveldi
dance
dangerous
dani
daniel
danielle
danio
danir
danmarks
danmerkur
danmo
danny
dans
dansa
dansar
dansari
dansað
dansho
dansi
dansinn
dansk
danska
danskar
danske
danski
danskir
danskra
danskri
danskt
danskur
danson
dansto
dante
dapest
dar
dari
dark
darmstadt
darwin
das
data
database
date
dateformat
datt
dautt
dauð
dauða
dauðadags
dauðado
dauðan
dauðann
dauðans
dauðarefsingu
dauði
dauðinn
dauðir
dauðsfo
dauðu
dauðum
dauður
dave
davi
david
davids
davidson
davies
davis
dawn
dawson
day
days
daðason
daði
db
dc
dd
dda
ddar
ddi
ddin
ddir
ddisma
ddismans
ddismi
ddista
ddistar
ddu
ddum
ddur
ddust
de
dead
deal
dean
death
december
dee
deep
default
degi
deginum
degli
dei
deila
deilan
deild
deilda
deildar
deildarbikarinn
deildarbikarsins
deildarinnar
deildarkeppninni
deildarstjo
deildi
deildin
deildina
deildinni
deildir
deildu
deildum
deili
deilir
deilna
deilt
deilu
deilum
deiluma
deilur
deilurnar
dekkri
del
delaware
delft
deli
dell
della
delta
demo
democracy
democratic
dempster
den
deng
denis
dennis
dent
denta
dentar
dentara
dentspro
denver
deo
department
deprecated
der
derby
derek
deroceras
derrick
des
desar
descartes
description
descriptions
desember
desert
desi
design
desmond
destiny
det
details
detroit
detta
dettur
deutsche
deutschland
dev
development
devil
devon
dewey
deyi
deyja
deyr
dhd
di
diamond
diana
diane
diaz
dick
dickens
dictionary
did
die
diego
diels
dietrich
different
digimon
digital
digra
digri
digur
dillon
dimma
dimmt
din
dio
diocletianus
dion
diplo
direction
dirty
dischidia
disco
discogs
discovery
discworld
disease
disk
diska
diskar
diski
diskinn
disko
diskur
diskurinn
disney
display
distribution
district
division
dixie
diðrik
dj
dja
djarfur
djass
djassto
dji
djo
dju
dk
dmi
dna
do
doc
doctor
does
dog
dogs
doha
doi
doktor
doktorsgra
doktorsna
doktorspro
doktorsritgerð
dole
dolf
dollara
dolly
dom
dominic
don
donald
donetsk
dong
donna
donnell
donovan
dordrecht
doris
doronicum
dorset
dortmund
dos
dottið
double
doug
douglas
dourdan
dover
dow
down
downloaded
doyle
dp
dr
dra
draga
dragast
dragi
dragon
drake
drakk
drama
dramaseri
dramati
drangey
drap
drapst
draug
drauga
draugar
drauginn
draugsi
draugur
draugurinn
draum
drauma
draumar
draumi
drauminn
draumum
draumur
draumurinn
dream
dreams
dregin
dreginn
dregist
dregið
dregnar
dregnir
dregst
dregur
dreif
dreifa
dreifast
dreifby
dreifing
dreifingar
dreifingu
dreifir
dreifist
dreift
dreifð
dreifði
dreifðist
dreka
dreki
drekinn
drekka
drekkt
drekkur
dreng
drengi
drenginn
drengir
drengirnir
drengja
drengnum
drengur
drengurinn
drepa
drepast
drepi
drepin
drepinn
drepið
drepnir
drepur
dresden
drew
dreyfus
dreyma
dreymdi
dreymir
dreymt
dri
drive
drju
dro
drottin
drottinn
drottins
drottni
drottnigarbragð
drottning
drottningar
drottningarinnar
drottningin
drottningu
drottninguna
dru
drukkinn
drukkið
drukknaði
drukknuðu
drukku
dry
drykk
drykki
drykkir
drykkju
drykkur
dryopteris
drægi
ds
dsc
dsjan
dt
du
dublin
duden
duff
duft
duga
dugir
duglegur
dugði
duisburg
dukakis
duke
dularfulla
dulbu
dulma
dulnefni
dulnefninu
dulsma
dum
dumas
dumbledore
dumort
dun
duncan
dundee
dupuis
duran
durant
during
duttu
duvalier
dv
dvala
dvaldi
dvaldist
dvalist
dvalið
dvd
dvelja
dveljast
dvelur
dvergar
dvergarnir
dvergur
dvergurinn
dvi
dvo
dwight
dx
dy
dyflinni
dyggð
dygð
dylan
dyntaxa
dyr
dyra
dyranna
dyrho
dyrnar
dyrum
dyrunum
dys
dysjar
dægur
dægurlo
dæi
dæla
dælt
dæma
dæmd
dæmdi
dæmdir
dæmdur
dæmi
dæmigert
dæmigerð
dæmin
dæmir
dæmis
dæmið
dæmt
dæmum
dætrum
dætur
dæturnar
e
eagle
earl
earle
early
earth
east
eastern
easy
eb
ecology
economic
economics
economy
ed
eda
edda
eddie
eddu
edduverðlaunin
eden
edgar
edge
edie
edinborg
edinburgh
edison
edit
edith
edition
editor
editorial
editors
edmond
edmund
eds
edu
eduard
education
educational
edvard
edvardsson
edward
edwards
edwin
ees
ef
efa
efahyggja
efahyggju
efasemdir
efast
effect
effects
efla
eflaust
efldi
efldist
eflingu
efloras
efna
efnaformu
efnafræði
efnafræðilega
efnafræðingur
efnahag
efnahags
efnahagsa
efnahagskreppan
efnahagsleg
efnahagslega
efnahagslegar
efnahagslegri
efnahagslegt
efnahagslegu
efnahagslegum
efnahagsli
efnahagsma
efnahagsra
efnahagsstefnu
efnahagssvæðið
efnahagsþro
efnahagur
efnahvo
efnasamband
efnasambo
efnasamsetning
efnaskipti
efnata
efndi
efni
efnilegasti
efnilegur
efnin
efninu
efnis
efnisins
efnislega
efnið
efnt
efnum
efra
efri
efst
efsta
efsti
efstu
efstur
efta
eftir
eftirfarandi
eftirfo
eftirla
eftirlaun
eftirle
eftirli
eftirlifandi
eftirlit
eftirliti
eftirma
eftirmann
eftirmaður
eftirmenn
eftirmynd
eftirmæli
eftirnafn
eftirso
eftirspurn
eftirspurnar
eftirstri
eftirtalin
eftirtekt
eg
egede
egg
eggert
eggerts
eggertsson
eggerz
eggi
eggin
eggið
eggja
eggjan
eggjar
eggjum
eggjunum
egglaga
egil
egill
egils
egilsdo
egilsson
egilssonar
egilssto
egle
ego
egypska
egypta
egyptaland
egyptalandi
egyptalands
egyptar
ehf
ehrend
ei
eiga
eiganda
eigandi
eigenda
eigendum
eigendur
eight
eigi
eigin
eiginfja
eiginkona
eiginkonu
eiginkonur
eiginleg
eiginlega
eiginlegt
eiginlegu
eiginleika
eiginleikar
eiginleiki
eiginleikum
eiginmann
eiginmanni
eiginmanns
eiginmaður
eigið
eign
eigna
eignar
eignarfall
eignarfalli
eignarhald
eignarhaldsfe
eignarna
eignarre
eignast
eignað
eignaðist
eignir
eignum
eignuð
eignuðust
eigu
eigum
eigur
eik
eili
eimskipafe
ein
eina
einangra
einangrað
einangrun
einangruð
einar
einari
einarr
einars
einarsdo
einarsson
einarssonar
einarssyni
einasta
einatt
einbeita
einbeitt
einbeitti
einbli
eindhoven
eindir
eindregið
eine
einfalda
einfaldan
einfaldar
einfaldari
einfaldasta
einfaldlega
einfaldri
einfaldur
einfalt
einfo
eingo
einhliða
einhver
einhverja
einhverjar
einhverjir
einhverju
einhverjum
einhvern
einhverra
einhverri
einhvers
einhverskonar
einhvo
einhvur
eini
eining
eininga
einingar
einingu
einingum
einir
einisætt
einkaaðila
einkaeign
einkaeigu
einkahagir
einkaleyfi
einkali
einkama
einkar
einkare
einkasko
einkasy
einkato
einkavæðingu
einkenna
einkennandi
einkennast
einkenndi
einkenndist
einkenndust
einkenni
einkennin
einkennir
einkennismerki
einkennist
einkennst
einkennum
einkis
einkum
einkunn
einleikur
einlend
einlægt
einmana
einmitt
einn
einna
einnar
einni
einnig
einninn
einokun
einra
einro
einræði
einræðisherra
einræðisstjo
eins
einsamall
einskis
einskonar
einso
einsog
einstaka
einstakar
einstakir
einstaklega
einstakling
einstaklinga
einstaklingar
einstaklingi
einstaklings
einstaklingsins
einstaklingum
einstaklingur
einstaklingurinn
einstakra
einstakt
einstakur
einstein
einsto
eintak
eintaka
eintala
einto
einu
einum
einungis
einvaldur
einveldi
einvi
einvo
einær
eir
eiri
eirðir
eirðirnar
eisenhower
eistland
eistlandi
eistlands
eistneska
eitrað
eitri
eitrun
eitruð
eitt
eitthvað
eitthvert
eitur
eiturefni
eiturlyf
eið
eiða
eiði
eiðum
eiður
ek
ekelund
ekið
ekkert
ekki
ekkja
ekkju
ekvador
el
ela
elaeagnus
eld
elda
eldar
eldaska
eldast
eldey
eldfjall
eldfjallafræði
eldfjallið
eldfjo
eldflaug
eldgos
eldgosi
eldgosið
eldgosum
eldhu
eldi
eldingu
eldinn
eldinum
eldja
eldr
eldra
eldri
eldsneyti
eldsneytis
eldsto
eldsvoða
eldur
eldurinn
eldvirkni
eleanor
electric
electronic
elena
eli
elias
elino
elisabeth
eliza
elizabeth
ella
elle
ellefta
ellefu
ellegar
ellen
eller
ellert
elli
ellie
ellis
elliða
elliðaa
elly
elri
els
elsa
else
elska
elskan
elskar
elskað
elskaði
elsku
elsson
elst
elsta
elsti
elstu
elstur
elta
elti
eltir
elton
eltu
elva
elvis
em
emanuel
embætti
embættinu
embættis
embættisins
embættismanna
embættismaður
embættismenn
embættismo
embættispro
embættisti
embættið
embættum
emeritus
emerson
emi
emil
emili
emilio
emily
emma
emmanu
emmanuel
emmu
emmy
emperor
empire
empiricus
en
encyclopaedia
encyclopedia
encyclopædia
end
enda
endalok
endalokum
endanleg
endanlega
endanlegt
endann
endanum
endar
endast
endað
endaði
endi
endilega
endilo
endingar
endingu
endir
endist
endum
endur
endurbo
endurbyggingu
endurbyggja
endurbyggð
endurbætt
endurbætur
endurgerð
endurheimt
endurheimta
endurheimti
endurhljo
endurkjo
endurkoma
endurkomu
endurli
endurminningar
endurny
endurreisa
endurreisn
endurreisnarti
endurreisnin
endurreist
endurreistur
endurskoða
endurskoðun
endurskoðuð
endurspegla
endurspeglar
endurtaka
endurtekin
endurtekið
endurto
enduru
endurvekja
enduðu
eneas
eneasarkviðu
energy
enga
engan
engar
engels
engi
engill
engin
engineering
enginn
engir
engl
engla
england
englandi
englands
englandsbanka
englandsdrottning
englandskonungi
englandskonungs
englandskonungur
englar
englendinga
englendingar
englendingum
english
engri
engu
engum
enki
enn
ennfremur
enni
ennið
ennþa
enrico
enrique
ens
ensi
ensk
enska
enskar
enski
enskir
enskra
enskri
enskt
ensku
enskum
enskumælandi
enskur
enterprise
entertainment
entist
entry
environment
environmental
eo
ep
epi
epic
epicurus
epiku
epirrhoe
epistemology
epli
epstein
eptir
equal
equisetum
equus
er
era
erasmus
erdog
erfa
erfingi
erfingja
erfitt
erfið
erfiða
erfiðar
erfiðara
erfiðari
erfiði
erfiðleika
erfiðleikar
erfiðleikum
erfiðum
erfiður
erft
erfurt
erfðaefni
erfðafræði
erfðamengi
erfðare
erfðaro
erfðaskra
erfðastri
erfði
erfðir
eri
eric
erich
erik
eriksen
erin
erinda
erindi
erindið
erindreki
erindum
eris
erjum
erkibiskup
erkibiskupinn
erkibiskups
erkibyskup
erla
erlend
erlenda
erlendar
erlendi
erlendir
erlendis
erlendra
erlendri
erlendsdo
erlendsson
erlendu
erlendum
erlendur
erlent
erling
erlings
erlingsson
erlingur
ermarsundið
erna
ernest
erni
ernir
ernst
ero
erra
ert
erto
ertu
ertublo
eru
erum
eruð
erwin
erythronium
es
esa
esb
escobar
eskifirði
eskimo
eso
espan
esperanto
espo
essay
essays
essen
essex
est
esta
estadio
estrup
et
eta
etano
etc
ethics
etið
etja
etnam
etnama
etnamar
etnams
etnamstri
etru
ett
ettir
etur
eu
eucalyptus
euge
eugen
eugene
euler
euronext
europa
europaea
europe
european
eurovision
euwe
ev
eva
evan
evangeli
evans
eve
evelyn
ever
everton
every
everything
evgeni
evic
evidence
evil
evkli
evolution
evra
evran
evrasi
evripi
evro
evru
evruna
evrur
evu
ex
example
exchange
existing
exp
experience
explorer
express
ey
eydal
eyddi
eyddist
eyddu
eye
eyed
eyes
eyfirðinga
eyglo
eyja
eyjaa
eyjafirði
eyjafjallajo
eyjafjarðar
eyjafjarðarsy
eyjafjo
eyjaklasanum
eyjaklasi
eyjamenn
eyjan
eyjanna
eyjar
eyjarinnar
eyjarnar
eyjo
eyju
eyjum
eyjuna
eyjunnar
eyjunni
eyjunum
eyjur
eykst
eykur
eymd
eyna
eynni
eyra
eyrarbakka
eyrað
eyri
eyrinni
eyru
eyrum
eyrun
eysteinn
eysteins
eystra
eystrasalt
eystrasalti
eystri
eytt
eyvind
eyvindar
eyvindur
eyða
eyðast
eyði
eyðiby
eyðilagt
eyðilagði
eyðilagðist
eyðilegging
eyðileggingu
eyðileggja
eyðilo
eyðimerkur
eyðimo
eyðingu
eyðir
eyþo
ez
eð
eða
eðli
eðlileg
eðlilega
eðlilegt
eðlilegum
eðlis
eðlisfræði
eðlisfræðingur
eðlisþyngd
eðr
eður
eþi
f
fa
fabricius
face
facebook
fact
factor
facts
fagna
fagnandi
fagnar
fagnað
fagnaðarfundur
fagnaði
fagra
fagran
fagrar
fagrasko
fagri
fagur
fagurfræði
fagurt
fair
faith
falco
falcon
falda
faldi
faldri
faldur
falin
falið
fall
falla
fallafræði
fallast
fallbyssum
fallbyssur
falleg
fallega
fallegasta
fallegt
fallegur
fallhli
falli
fallin
fallinn
fallist
fallið
fallnir
falls
fallsins
false
falt
falwell
fame
families
family
fan
fana
fandi
fanes
fang
fanga
fangabu
fangar
fangastað
fangastaðir
fangastaður
fangelsaður
fangelsi
fangelsinu
fangelsisdo
fangelsisvistar
fangelsið
fangi
fanginn
fanir
fann
fanna
fannar
fannst
fans
fanst
fantasi
fantasy
fanum
fao
far
fara
faraday
faraldursins
farandi
farangur
farao
farar
fararbroddi
farartæki
farast
fargesia
fari
farin
farinn
farir
farist
farið
farjon
farm
farmi
farnar
farnir
farsi
farso
farto
faru
farveg
farðu
farþega
farþegaflugve
farþegamiðsto
farþegar
farþegum
fasa
fasafn
fasi
fasista
faso
fast
fasta
fastan
fastar
fasteignir
fasti
fastir
fasto
fastra
fasts
fastsdæmi
fastur
fat
fataho
father
fati
fatlaðra
fatnað
fatnaði
fatnaður
fauk
fauna
fawkes
faxaflo
faxi
fað
faði
faðir
faðirinn
faðma
faðmar
faðmi
faður
fbi
fc
fdi
fe
fear
feb
febru
february
federal
federation
feel
fefnafræði
fegin
feginn
fegnir
fegursta
fegurð
feigur
feisal
feiti
fekk
fela
felast
feld
feldi
feldur
feli
felice
felix
fell
fella
felld
felldar
felldi
felldu
felldur
felli
fellibylur
fellibylurinn
fellir
fellt
fellu
fellur
felst
felur
femi
fen
feneyjar
feneyjum
feng
fengi
fengin
fenginn
fengis
fengist
fengið
fengju
fengnir
fengu
fengust
fenrisu
fer
ferdi
ferdinand
ferdinands
ferguson
feril
ferilinn
ferill
ferils
ferja
ferjur
ferki
ferli
ferlinum
ferlið
ferlum
fermetra
fermetrar
fermi
ferna
fernando
ferni
ferr
ferrari
fers
ferskvatni
ferst
ferð
ferða
ferðabo
ferðafe
ferðalag
ferðalagi
ferðalo
ferðama
ferðamanna
ferðamannastaður
ferðamenn
ferðamennska
ferðamennsku
ferðamo
ferðar
ferðarinnar
ferðaso
ferðast
ferðaðist
ferðaþjo
ferðbu
ferðin
ferðina
ferðinni
ferðir
ferðum
ferðuðust
fessor
fessorar
fessors
fest
festa
festar
festast
festi
festir
festist
festival
festu
festur
fet
feta
fever
feyrissjo
feðga
feðgar
feðgarnir
feðlis
feðlisfræði
feðra
feður
ff
ffræði
ffræðingar
ffræðingur
ffærafræði
ffæri
fga
fh
fi
fianna
fiat
fiction
fide
fidel
field
fifa
fifth
fight
fighting
fil
file
files
filippi
filippo
filippseyja
filippseyjar
filippseyjum
filippus
filippusar
filippusi
fill
film
films
fimleikafe
fimleikar
fimm
fimmta
fimmtardo
fimmti
fimmtu
fimmtudegi
fin
fina
final
financial
fine
fingri
fingrum
fingur
finley
finn
finna
finnar
finnast
finnboga
finnbogado
finnbogason
finnbogi
finni
finnist
finnland
finnlandi
finnlands
finnmo
finns
finnsk
finnska
finnsku
finnskur
finnsson
finnst
finnum
finnur
finsen
finu
fir
fire
first
firði
firðinum
firðir
fis
fisch
fischer
fish
fishbase
fishburne
fisher
fisheries
fishery
fishes
fisk
fiska
fiskabu
fiskar
fiskeldi
fiski
fiskimið
fiskinn
fisksins
fiskum
fiskur
fiskurinn
fiskveiða
fiskveiðar
fiskveiðum
fitu
fitusy
fitzgerald
five
fið
fiðla
fiðlu
fiðrildi
fja
fjall
fjalla
fjallabyggð
fjallanna
fjallar
fjallað
fjallaði
fjallbu
fjallgarðar
fjallgarðinum
fjallgarður
fjallgarðurinn
fjallgo
fjalli
fjallinu
fjallið
fjalllendi
fjalls
fjallshli
fjallsins
fjandinn
fjandskap
fjarlægja
fjarlægt
fjarlægð
fjarlægðar
fjarlægðir
fjarlægður
fjarna
fjarri
fjarska
fjarsty
fjarverandi
fjarveru
fjarðabyggð
fjarðarins
fjaðrir
fjekk
fjeldsted
fjo
fjodor
fju
fjær
fk
fkjo
fl
fla
flag
flakksnið
flan
flar
flash
flatarma
flatey
flateyjarbo
flateyri
flatt
flatur
flaug
flaut
flauta
flavi
fle
flega
fleira
fleiri
fleirtala
fleirto
fleiru
fleirum
fleming
flensborg
flensborgarsko
flest
flesta
flestar
flestir
flestra
flestu
flestum
fleti
fletta
fleygir
fleygja
fleygt
fleygði
fli
flickr
flissu
fljo
flju
flo
flogið
flokk
flokka
flokkanna
flokkar
flokkarnir
flokkast
flokkað
flokkaðar
flokkaðir
flokki
flokkinn
flokknum
flokks
flokksins
flokksræði
flokksþingi
flokkum
flokkun
flokkur
flokkurinn
flokkuð
floor
flora
floran
florence
florida
flosa
flosi
flota
flotaforingi
flotann
flotans
flotanum
floti
flotinn
flower
flowers
floyd
flu
flug
fluga
flugan
flugasta
flugfe
flugher
flugherinn
flugho
flugi
flugma
flugmaður
flugmo
flugna
flugri
flugslys
flugslysi
flugsto
flugt
flugtak
flugu
flugum
flugumy
flugur
flugvallarins
flugve
flugvelli
flugvellinum
flugvellir
flugvo
flum
flun
fluna
flunnar
flunni
flunum
flur
flurnar
flust
flutning
flutninga
flutningaskip
flutningi
flutningur
flutt
fluttar
flutti
fluttir
fluttist
fluttu
fluttur
fluttust
fluyfirlit
fly
flying
flynn
flyst
flytja
flytjandi
flytjast
flytjendur
flytur
flæddi
flæmingjalandi
flæmska
flæða
flæði
flæðir
fm
fmassa
fn
fna
fnað
fnin
fnina
fninni
fnir
fnjo
fnu
fnum
fnun
fnunar
fnunarefni
fnunum
fnur
fnuð
fnuði
fnuðinn
fnuðinum
fnuðu
fnuður
fnuðurinn
fnuðust
fo
fol
fold
folk
fons
font
fontaine
fontsize
food
foot
football
for
forbes
force
ford
fordo
fordæmdi
fordæmi
foreign
foreldra
foreldrar
foreldrarnir
foreldri
foreldrum
forest
forever
forfeður
forfo
forgang
forgo
forgrunni
foringi
foringja
forkeppni
forla
forlag
forlagið
forlo
form
forma
formann
formanni
formanns
format
formaður
formenn
formennsku
formerki
formi
forminu
formið
formleg
formlega
formlegar
formlegt
formlegu
formlegum
formlegur
formo
formu
formum
forn
forna
fornaldar
fornaldarheimspeki
fornaldarso
fornar
fornbo
fornbre
fornfræði
fornfræðingar
fornfræðingur
forngri
forni
fornir
fornleifafe
fornleifafræði
fornleifafræðingar
fornleifafræðingur
fornleifar
fornleifarannso
fornleifaskra
fornleifauppgro
fornminjar
forno
fornra
fornrit
fornritafe
fornso
fornt
fornu
fornum
forra
forre
forrest
forrit
forrita
forritið
forritun
forritunarma
forræði
forsaga
forsenda
forsendu
forsendum
forsendur
forseta
forsetaefni
forsetaembætti
forsetaembættinu
forsetaembættið
forsetaframbjo
forsetaframboð
forsetafru
forsetakosninga
forsetakosninganna
forsetakosningar
forsetakosningarnar
forsetakosningum
forsetakosningunum
forsetann
forsetans
forsetanum
forsetar
forsetaræði
forsetasto
forsetati
forseti
forsetinn
forsi
forsja
forskeytið
forskot
forsma
forso
forspa
forstjo
forsto
forsvari
forsvarsmaður
forsæti
forsætisra
fort
forth
forti
forto
forum
forvali
forvera
forverar
forveri
forvitnast
forvitni
forviða
forystu
forða
forðast
forðum
fosfo
foss
fossa
fossar
fossi
fossinn
fossinum
fossvogi
foster
fotbolti
foucault
found
foundation
four
fourier
fournier
fourth
fox
fr
fra
frac
fragaria
frakka
frakkakonungs
frakkakonungur
frakkar
frakkland
frakklandi
frakklands
fram
frama
framan
framandi
framar
framara
framarar
framarlega
frambjo
framboð
framboði
framboðið
framboðs
framboðslista
framburð
framburði
framburður
framdi
frame
framfara
framfarir
framfo
framfylgja
framfylgt
framfæri
framgang
framgengt
framgo
framhald
framhaldandi
framhaldi
framhaldinu
framhaldið
framhaldsmynd
framhaldsna
framhaldssko
framherji
framhja
framhlið
frami
framin
framið
framkalla
framkoma
framkomu
framkvæma
framkvæmd
framkvæmda
framkvæmdar
framkvæmdarstjo
framkvæmdastjo
framkvæmdavald
framkvæmdavaldið
framkvæmdi
framkvæmdir
framkvæmdum
framkvæmir
framkvæmt
framl
framlag
framleidd
framleiddar
framleiddi
framleiddir
framleiddu
framleiddur
framleitt
framleiða
framleiðandi
framleiðendum
framleiðendur
framleiðir
framleiðni
framleiðsla
framleiðslan
framleiðslu
framleiðslufyrirtæki
framleiðslustjo
framleiðsluþa
framlengingar
framlengingu
framlo
frammi
frammistaða
frammisto
framra
framselja
framsetning
framsetningu
framso
framstu
framsækið
framti
framu
framvegis
framvindu
framþro
franc
france
frances
francesco
franch
francis
francisco
franco
frank
franka
frankar
frankari
frankfurt
franki
franklin
franquin
frans
fransk
franska
franskar
franski
franskir
franskra
franskri
franskt
franskur
franz
frar
fraterna
fraxinus
fre
fred
freddie
freddy
frede
frederick
frederik
fredrik
free
freedom
frege
fregn
fregnir
freiburg
freiga
freista
frekar
frekara
frekari
frelsa
frelsað
frelsaði
frelsi
frelsis
frelsisstri
frelsið
frelsun
frelsuðu
fremi
fremja
fremri
fremst
fremsta
fremsti
fremstu
fremstur
fremur
french
frest
fresta
frestað
fresti
frett
frettir
freud
freuds
frey
freyja
freyju
freyr
freys
freysteinn
fri
friday
friedan
friedman
friedrich
friends
friendship
frigg
fritillaria
fritsch
fritz
frið
friðar
friðarra
friðarsa
friðarsamkomulag
friðarsamninga
friðarsamningar
friðarsamningum
friðarsinni
friðarti
friðarverðlaun
friðarverðlauna
friðað
friðaður
friðbjo
friðhelgi
friði
friðinn
friðjo
friðland
friðly
friðrik
friðriki
friðriks
friðriksdo
friðriksson
friðrikssonar
friðsamlega
friður
friðurinn
friðuð
friðþjo
frja
frjo
fro
froese
from
frompos
front
frost
frosti
fru
frum
fruma
fruman
frumbyggja
frumbyggjama
frumbyggjar
frumbyggjum
frumefna
frumefni
frumefnið
frumeinda
frumeindir
frumflutt
frumkvo
frumkvæði
frumma
frummælandi
frumna
frumraun
frumsko
frumspeki
frumsy
frumto
frumu
frumuli
frumum
frumunnar
frumur
frumurnar
frumvarp
frumvarpi
frumvarpinu
frumvarpið
frumvarps
frumvarpsins
frumvo
frv
fry
fræ
fræg
fræga
frægan
frægar
frægasta
frægasti
frægastur
frægir
frægra
frægt
frægu
frægum
frægur
frægustu
frægð
frægðar
fræin
fræjum
fræknu
fræn
frænar
frænda
frændi
frændsemi
frændum
frændur
frænka
frænku
frænna
frænt
frænum
fræða
fræðafe
fræði
fræðigrein
fræðigreinar
fræðiheiti
fræðiheitið
fræðileg
fræðimanna
fræðimaður
fræðimaðurinn
fræðimenn
fræðimo
fræðirit
fræðisto
fræðslu
fræðum
fs
fsa
fsb
fsferill
fsgæða
fsgæði
fsins
fskjo
fsli
fso
fsro
fssti
fst
fsti
ft
fti
ftir
ftum
ftur
ftækni
fu
fua
fufe
fufyrirtæki
fufyrirtækið
fuga
fugl
fugla
fuglali
fuglar
fuglarnir
fuglinn
fuglum
fugt
fujian
fujimori
fulham
fulinn
full
fulla
fullan
fullar
fullbu
fuller
fullgerð
fullinn
fullir
fullkla
fullkomin
fullkominn
fullkomið
fullkomlega
fullkomna
fullnægja
fullnægjandi
fullnægt
fullorðin
fullorðinn
fullorðinna
fullorðinsa
fullorðna
fullorðnir
fullorðnum
fullri
fulls
fullstory
fullt
fulltru
fullu
fullum
fullur
fullvalda
fullvaxta
fullveldi
fullyrt
fullyrti
fullyrða
fullyrðing
fullyrðingar
fullyrðingu
fullþroska
fum
fun
funa
function
fund
funda
fundar
fundare
fundargerð
fundarins
fundarnir
fundarre
fundarstjo
fundaði
fundi
fundin
fundinn
fundinum
fundir
fundist
fundizt
fundið
fundnaland
fundnalandi
fundnalands
fundu
fundum
fundur
fundurinn
fundust
funk
funnar
funni
funum
fur
fura
fure
furinn
furleg
furlega
furnar
fursta
furstadæmi
furstadæmin
furstadæmið
furstar
fursti
furstinn
furu
furur
furutegund
furða
furðaði
furðu
fust
future
fuzhou
fuð
fuða
fuðbo
fuðborg
fuðborgar
fuðborgarinnar
fuðborgarsvæðinu
fuðborgarsvæðisins
fuðborgarsvæðið
fuðborgin
fuðborgina
fuðborginni
fuðborgir
fuðið
fuðku
fuðs
fuðsmaður
fuðstað
fuðstaður
fuðsto
fuðu
fv
fvera
fveru
fverum
fverur
fy
fylgd
fylgdi
fylgdist
fylgdu
fylgdust
fylgi
fylgikona
fylgir
fylgis
fylgismanna
fylgismenn
fylgismo
fylgist
fylgja
fylgjandi
fylgjast
fylgjendur
fylgsni
fylgst
fylgt
fylki
fylkin
fylking
fylkinga
fylkingar
fylkingu
fylkinu
fylkir
fylkis
fylkisins
fylkisstjo
fylkið
fylkja
fylkjanna
fylkjum
fylla
fyllilega
fyllingu
fyllir
fyllt
fyllti
fylltist
fyndi
fyndist
fyr
fyri
fyrir
fyrirbyggjandi
fyrirbæri
fyrirbærum
fyrirfinnst
fyrirfram
fyrirgefa
fyrirgefningar
fyrirheit
fyrirhugað
fyrirhuguð
fyrirkomulag
fyrirlesari
fyrirlestra
fyrirlestrar
fyrirlestur
fyrirliði
fyrirmynd
fyrirmyndar
fyrirmyndin
fyrirmyndir
fyrirmæli
fyrirmælum
fyrirrennari
fyrirru
fyrirsja
fyrirskipað
fyrirskipaði
fyrirso
fyrirspurn
fyrirsæta
fyrirtæki
fyrirtækin
fyrirtækinu
fyrirtækis
fyrirtækisins
fyrirtækið
fyrirtækja
fyrirtækjanna
fyrirtækjum
fyrirvara
fyrirætlanir
fyrndinni
fyrr
fyrra
fyrri
fyrrnefnda
fyrrnefndu
fyrrum
fyrrv
fyrrverandi
fyrst
fyrsta
fyrsti
fyrstir
fyrstu
fyrstur
fæ
fædd
fæddi
fæddir
fæddist
fæddur
fæddust
fækka
fækkað
fækkaði
fækkun
fær
færa
færast
færeyinga
færeyingar
færeyja
færeyjar
færeyjum
færeysk
færeyska
færeysku
færeyskur
færi
færir
færist
færni
færri
færslu
færst
fært
færu
færð
færðar
færði
færðir
færðist
færðu
færður
færðust
fæst
fæstir
fæti
fætinum
fætt
fætur
fæturna
fæða
fæðast
fæði
fæðing
fæðingar
fæðingardagur
fæðingarstaður
fæðingu
fæðir
fæðist
fæðst
fæðu
fæðuo
fð
fða
fðaborg
fðar
fðastro
fðað
fðaði
fði
fðingi
fðinginn
fðingja
fðingjann
fðingjans
fðingjanum
fðingjar
fðingjarnir
fðingjum
fðinu
fðu
fðum
fðust
føroya
g
ga
gabon
gabri
gabriel
gabrielle
gabyggð
gaddafi
gael
gaf
gafst
gagea
gagn
gagna
gagnasafn
gagnast
gagnfræðasko
gagni
gagnleg
gagnry
gagns
gagnstætt
gagnstæða
gagnvart
gagnviðarætt
gaius
gakk
gal
gala
galar
galaxy
galdra
galdrama
galdramaður
galdramenn
galdri
galdur
gale
gali
galilei
galileo
galir
galisi
galium
gall
galla
gallagher
gallar
gallen
galleri
gallery
galli
gallus
gals
galska
galskir
galskonungur
galskur
galt
gamall
gamalla
gamalli
gamalt
gaman
gamanleikari
gamanmynd
gamans
gamanþa
gambi
game
games
gamla
gamlan
gamlar
gamle
gamli
gamlir
gamma
gamni
gan
gana
ganda
gandhi
gandi
gang
ganga
gangan
gangandi
gangast
gangi
gangið
gangleri
gangsett
gangur
gansu
gar
garci
garcia
gard
garden
gardens
garho
garibaldi
garins
garnir
garrett
gary
garð
garða
garðabæ
garðabæjar
garðabær
garðar
garðari
garðarsdo
garðarsson
garði
garðinn
garðinum
garðshorni
garðsins
garður
garðurinn
gas
gasastro
gasi
gast
gat
gata
gatan
gate
gates
gatnamo
gaukur
gaulle
gaum
gaus
gauss
gautaborg
gauti
gautland
gautlandi
gavin
gay
gb
gbergi
gbo
gbu
ge
gear
gef
gefa
gefast
gefi
gefin
gefinn
gefist
gefið
gefnar
gefnir
gefnu
gefr
gefst
gefur
gefðu
gegn
gegna
gegndi
gegndu
gegni
gegnir
gegnt
gegnum
geim
geimfari
geimfarinu
geimfarið
geimferðastofnun
geimfo
geiminn
geimko
geimnum
geimskutlan
geimsto
geir
geira
geiri
geirmundur
geirs
geirsdo
geirsson
geisaði
geisla
geisladiskur
geislavirkni
geisli
geislun
geitblaðsætt
geitur
gekk
gekkst
geli
gellir
gen
gender
gene
general
generation
genesis
genetic
genf
geng
gengdi
gengi
gengin
genginn
gengis
gengið
gengju
gengr
gengt
gengu
gengum
gengur
gent
genu
genus
geoffrey
geographic
geographische
georg
george
georges
georgetown
georgi
georgia
georgs
geothermal
ger
gera
gerald
geranium
gerard
gerast
gerd
gerhard
geri
gerir
gerist
gerið
gerjun
gerla
gerlar
germain
german
germanska
germany
germo
germplasm
gerry
gersemar
gersemi
gerst
gert
gertrude
gerum
gervi
gervigreind
gervihnattamynd
gervihno
gerð
gerða
gerðar
gerðardo
gerði
gerðin
gerðinni
gerðir
gerðist
gerðu
gerðum
gerður
gerðust
gest
gesta
gestahlutverk
gestahlutverki
gestaleikarar
gestaleikari
gestaumsjo
gestgjafar
gesti
gestir
gestirnir
gests
gestsson
gestum
gestur
gesturinn
get
geta
getað
geti
getir
getið
gets
gettu
getu
getum
getur
geturðu
geyma
geymd
geymdar
geymdi
geymdur
geymir
geymslu
geymt
geysaði
geysir
geð
geði
geðklofa
geðsju
gfræði
gfræðinga
gfræðingar
gfræðingur
gfræðipro
gg
gga
ggi
ggið
ggjafar
ggjafarvald
ggjafarvaldið
ggjafarþing
ggjo
gglega
ggmynd
ggmyndir
ggnir
ggs
ggt
ggu
ggum
ggur
ggva
ggvara
ggvari
ggvast
ggvin
ggvinn
ggvið
ggæslu
ghani
ghost
gi
giant
gibbs
gibson
gifst
gift
gifta
giftar
giftast
gifti
giftingu
giftist
giftu
giftur
giftust
gil
gilbert
gild
gilda
gildandi
gildar
gildi
gildir
gildisto
gildið
gildum
gildur
giles
gilgames
gili
gilinu
gilla
gilmour
gils
gilsa
gilsbakka
gilsson
gilt
gilti
giltu
gimsteinum
gin
gina
ginn
ginny
ginseng
ginu
ginum
giorgio
giovanni
gir
girl
girls
girnd
gissur
gissurar
gissurarson
gissuri
gista
gisti
gistihu
gistingar
giulio
giuseppe
give
given
gizurr
gið
gja
gjafar
gjafir
gjald
gjalda
gjaldi
gjaldkeri
gjaldmiðil
gjaldmiðill
gjaldmiðla
gjaldmiðlar
gjaldþrot
gjaldþrota
gjarn
gjarna
gjarnan
gje
gjo
gl
gla
glacier
glasgow
glass
glatast
glatað
glataði
glatkistan
glatt
glaumbæ
glaðir
glaður
glee
gleg
glega
glegt
glegum
glendi
glenn
gler
glera
gleri
glerið
gleyma
gleymdi
gleymt
gleypa
gleði
gli
gliese
glitni
glitnir
glitnis
glja
glju
glo
global
globe
glock
gloria
glory
glu
glugga
gluggann
glugganum
gluggar
gluggi
gluggum
glum
gly
glæp
glæpamenn
glæpi
glæpir
glæpum
glæpur
glæsilegt
gma
gmann
gmanni
gmanns
gmarki
gmaður
gmenn
gmundar
gmundur
gmæti
gn
gna
gnar
gnarr
gnað
gni
gnin
gnina
gninni
gno
gnu
gnum
gnun
gnunum
gnuð
gnuði
gnuðu
gnuður
gnvaldsson
gnvaldur
gny
gnæfir
go
god
goebbels
goes
goethe
gogg
gogn
going
gold
golden
goldwater
golf
golfklu
gone
gontsch
good
goodbye
goodman
google
gorbatsjev
gorbatsjov
gordon
gore
gormdy
gormur
gos
goscinny
gosi
gosinu
gosið
gospel
gossins
gossip
got
gotneskum
gott
gottfried
gottlieb
gottlob
gottorp
gottska
gov
government
goð
goða
goðafræði
goði
goðin
goðorð
goðorðsmaður
goðso
gps
gr
gra
grace
graf
grafa
grafar
grafarvogi
grafhy
grafi
grafin
grafinn
grafir
grafið
grafnar
grafnir
graham
grai
gram
gramm
grammy
gramr
gran
granada
grand
granda
grande
grandi
granger
grani
granna
grannalo
grannar
grannari
granni
grant
grar
gras
grasa
grasafræði
grasafræðingar
grasafræðingur
grasaætt
grasi
grasið
graslendi
grasro
grass
graut
gray
graz
gre
great
greatest
greece
greek
green
greene
greenwich
greenwood
grefur
greg
gregla
greglan
greglu
greglumaður
greglumenn
gregluna
greglunnar
greglunni
greglustjo
greglusto
gregluþjo
gregori
gregory
greidd
greiddi
greiddra
greiddu
greifa
greifanna
greifar
greifarnir
greifi
greifinn
grein
greina
greinamerkingar
greinar
greinargerð
greinarinnar
greinarmun
greinarmunur
greinarnar
greinasafn
greinast
greind
greindar
greindi
greindist
greindu
greindur
greindust
greini
greinileg
greinilega
greinin
greinina
greining
greiningar
greiningi
greinings
greiningu
greiningur
greininni
greinir
greinist
greinst
greint
greinum
greip
greitt
greiða
greiðir
greiðslu
greiðslum
greiðslur
grenada
grenadi
greni
grenivi
grenjaðarstað
grennd
grenni
grenninu
gresi
grettir
grettis
grey
gri
griffin
grikkir
grikkja
grikkjum
grikkland
grikklandi
grikklands
grimm
grimmd
grin
grind
grindavi
grip
gripi
gripir
gripið
gripu
gripum
gripur
grið
griða
grjo
gro
ground
group
grove
growth
gru
grum
grun
gruna
grunar
grunaði
grunaður
grund
grundar
grundarfjo
grundtvig
grundu
grundvallar
grundvallaratriðum
grundvallarlo
grundvelli
grundvo
grunn
grunna
grunnavi
grunni
grunninn
grunnna
grunnsko
grunnsnið
grunnsævi
grunnt
grunnum
grunnur
grunnurinn
gruns
grunur
gry
grynni
grækt
græktar
græktarfe
græktin
græn
græna
grænar
grænho
græni
grænir
grænland
grænlandi
grænlands
grænlendinga
grænlendingar
grænlenska
grænlensku
grænmeti
grænn
grænna
græns
grænt
grænu
grænum
grænþo
grætt
græða
gs
gsborg
gsky
gslu
gslubiskup
gsm
gso
gsstro
gsto
gt
gu
gua
guadalajara
guangdong
guangxi
guangzhou
guardian
guernsey
guez
gufa
gufall
gufalli
gufan
gufe
gufu
gufunesi
gufuska
gufuve
guho
gui
guide
guido
guild
guillaume
guinea
guinness
guitar
guiyang
guizhou
gul
gula
gular
gulbru
guleg
gulega
gulegan
gulegar
gulegra
gulegt
gulegu
gulegum
gulegur
guleika
guleikann
guleikar
guleiki
guleikum
guli
gulir
guljo
gull
gullbra
gullbringu
gullbringusy
gullfo
gullfoss
gullhring
gulli
gullintoppuætt
gullið
gullna
gullnu
gullo
gulls
gullsko
gullverðlaun
gullverðlauna
gulro
gult
gulu
gulum
gulur
gum
gumanns
gumaður
gumenn
gun
guna
gunar
gunn
gunna
gunnar
gunnari
gunnars
gunnarsdo
gunnarsson
gunnarssonar
gunnarssyni
gunnhildar
gunnhildur
gunni
gunnlaugs
gunnlaugsdo
gunnlaugsson
gunnlaugssonar
gunnlaugur
gunnsteinn
guns
gunum
guo
guperso
gur
gurinn
gurlega
gurnar
gurra
guru
gusafn
gusagnir
gust
gustaf
gustav
gusvið
gutenberg
guthrie
guti
guttormsson
guttormur
guy
guð
guðanna
guðbjartur
guðbjo
guðbrands
guðbrandsson
guðbrandur
guðdo
guðfinna
guðfræði
guðfræðingur
guði
guðinn
guðir
guðirnir
guðjo
guðjohnsen
guðlast
guðlaug
guðlaugsson
guðlaugur
guðmund
guðmundar
guðmundi
guðmundr
guðmundsdo
guðmundsson
guðmundssonar
guðmundssyni
guðmundur
guðna
guðnado
guðnason
guðni
guðny
guðri
guðro
guðru
guðs
guðsþjo
guðum
guþra
gva
gvam
gvatemala
gvaxin
gve
gvellinum
gvendur
gvo
gvæ
gvæjana
gy
gylfa
gylfason
gylfi
gylltum
gymnosperm
gyrðir
gyða
gyðinga
gyðingar
gyðingaættum
gyðingdo
gyðingum
gyðingur
gyðja
gæfa
gæfi
gæfu
gæludy
gælunafn
gælunafnið
gær
gæt
gæta
gæti
gætir
gætis
gætlega
gætt
gætti
gættu
gætu
gætum
gætur
gæða
gæði
gæðum
gð
gði
gðin
gðu
gðum
gður
gðust
gþy
h
ha
haag
haarde
haarlem
habsborg
habsborgara
habsborgarar
hackett
hadi
hadith
hadri
haf
hafa
hafast
hafdi
hafi
hafin
hafinn
hafinu
hafir
hafist
hafið
hafliða
hafliði
hafna
hafnar
hafnarborg
hafnarfirði
hafnarfjarðar
hafnarfjo
hafnarha
hafnarinnar
hafnarstræti
hafnað
hafnaði
hafnir
hafrannso
hafs
hafsbotni
hafsins
hafskip
hafskips
hafstein
hafsteinn
hafstraumar
hafsvæði
haft
hafðar
hafði
hafðir
hafðist
hafðu
hafður
hafþo
hag
haga
hagali
hagasko
hagfræði
hagfræðinga
hagfræðingar
hagfræðingur
hagfræðingurinn
hagfræðinnar
hagi
hagkerfi
hagkerfinu
hagkerfisins
hagkerfið
hagkvæmni
hagnast
hagnað
hagnaði
hagnaður
hagny
hagsmuna
hagsmunasamto
hagsmuni
hagsmunir
hagsmunum
hagstjo
hagstofa
hagstofu
hagur
hagvo
hahn
hai
haikou
haile
hainan
haki
hal
hala
halastjarna
halastjo
hald
halda
haldast
haldi
haldin
haldinn
haldist
haldið
haldnar
haldnir
halds
haldsflokksins
haldsflokkurinn
haldsmanna
haldsmenn
haldssamur
haldsso
haley
half
hali
halifax
hall
halla
hallandi
hallar
hallarinnar
hallast
hallbjo
halldo
halle
hallgerðar
hallgerði
hallgerður
hallgri
halli
hallir
hallo
halloween
halls
hallsson
hallsteinn
hallur
hallvarður
haltu
ham
hamar
hamarinn
hamas
hamborg
hamborgar
hameð
hameðs
hamid
hamilton
hamingja
hamingju
hamla
hamlet
hammer
hammond
hampshire
hamra
hamrahli
hamri
han
hana
hand
handa
handaho
handan
handar
handbo
handbolta
handbook
handhafa
handhafar
handhafi
handi
handknattleik
handknattleiksa
handknattleiksmaður
handknattleiksmenn
handknattleikur
handlegg
handlegginn
handleiðslu
handrit
handrita
handriti
handritin
handritinu
handritið
handrits
handritsho
handritum
handsama
handsamaður
handtaka
handtekin
handtekinn
handteknir
handto
hanga
hangandi
hangir
hangzhou
haninn
hann
hanna
hannah
hannað
hannaði
hannaður
hannes
hannesar
hannesarborg
hannesarjurt
hannesdo
hannesi
hannesson
hannessonar
hannessyni
hanni
hannibal
hannibalsson
hannover
hanns
hannsdo
hannsson
hanover
hans
hansasambandið
hansen
hansson
happy
har
harald
haraldar
haraldi
haraldr
haralds
haraldsdo
haraldsson
haraldssonar
haraldur
haram
harbin
hard
hardy
harka
harkalega
harla
harlem
harm
harma
harmi
harmleikir
harmleikur
harold
harpa
harper
harriet
harris
harrison
harry
harrys
hart
haru
harvard
harvey
harða
harðan
harðar
harðardo
harðari
harðarson
harðir
harðkjarnapo
harðla
harðlega
harðra
harðri
harðstjo
harður
has
hassan
hastings
hat
hata
hatt
hattar
hatturinn
hatur
haug
hauginn
haugur
hauk
hauka
haukadal
haukar
hauks
hauksbo
hauksdo
hauksson
haukum
haukur
haus
hausinn
hausku
hausnum
haust
hausti
haustin
haustið
have
havel
haven
hawaii
hawkins
hayek
hayes
hc
hdr
he
head
header
health
heart
hearts
heath
heaven
heavy
hebei
hebreska
hebresku
hedw
hef
hefei
hefi
hefir
hefja
hefjast
hefna
hefnd
hefndarskyni
hefndi
hefnt
hefr
hefst
hefta
hefti
hefur
hefð
hefðbundin
hefðbundinn
hefðbundinna
hefðbundinni
hefðbundið
hefðbundna
hefðbundnar
hefðbundnu
hefðbundnum
hefði
hefðir
hefðu
hefðum
hegel
heggur
hegningarlaga
hegningarlo
hegða
hegðun
hegðunar
heidelberg
height
heil
heila
heilablo
heilaga
heilagan
heilagi
heilagra
heilagrar
heilagri
heilags
heilagt
heilagur
heilan
heilann
heilans
heilanum
heilar
heilbrigði
heilbrigðis
heilbrigðisma
heilbrigðisra
heilbrigðisvi
heilbrigðisþjo
heild
heildar
heildarfjo
heildaru
heildi
heildina
heilinn
heilkenni
heilkjo
heill
heilla
heillin
heilo
heilræði
heilsa
heilsar
heilsaði
heilsu
heilt
heilto
heilu
heilum
heim
heima
heimaborg
heimabæ
heimaey
heimafo
heimahu
heimalandi
heimalandinu
heimaleiki
heimamanna
heimamenn
heimamo
heiman
heimasi
heimaslo
heimastjo
heimavelli
heimavo
heimi
heimil
heimila
heimilanna
heimilað
heimilaði
heimild
heimilda
heimildamynd
heimildarmynd
heimildarmyndir
heimildaskra
heimildasnið
heimildin
heimildir
heimildum
heimili
heimilinu
heimilis
heimilisfo
heimilisto
heimilið
heimilt
heimilum
heimiluðu
heiminn
heiminum
heimir
heimkomu
heimkomuna
heimkynni
heimkynnum
heimleið
heimleiðis
heims
heimsa
heimshluta
heimsins
heimskringla
heimskringlu
heimsku
heimsmeistarakeppni
heimsmeistaramo
heimsmeistarar
heimsmeistari
heimsmet
heimsminjar
heimsminjaskra
heimsmynd
heimso
heimspeki
heimspekideild
heimspekileg
heimspekinga
heimspekingar
heimspekinginn
heimspekingnum
heimspekingsins
heimspekingur
heimspekingurinn
heimspekinnar
heimsstyrjaldar
heimsstyrjaldarinnar
heimsstyrjo
heimssy
heimstyrjaldarinnar
heimstyrjo
heimsvaldastefnu
heimsveldi
heimsveldinu
heimsveldisins
heimsveldið
heimsvi
heimsækir
heimsækja
heimta
heimtar
heimtaði
heimur
heimurinn
heinesen
heinrich
heinz
heit
heita
heitar
heiti
heitin
heitinu
heitir
heitisins
heitið
heitt
heitu
heitum
heitur
heiða
heiðar
heiði
heiðin
heiðina
heiðinn
heiðinna
heiðinni
heiðmo
heiðna
heiðni
heiðnir
heiðnu
heiðnum
heiðra
heiðri
heiður
heiðurinn
heiðurs
heiðursdoktor
heiðursfe
heiðursmerki
heiðursverðlaun
hekla
heklu
hektara
hektarar
hel
held
heldr
heldri
heldur
helen
helena
helenu
helfo
helga
helgado
helgafell
helgafelli
helgan
helgar
helgarpo
helgason
helgasonar
helgað
helgaði
helgi
helgido
helgina
helgu
helgum
helguð
heli
heljar
helju
hell
hella
hellar
helleni
hellenistic
heller
helli
hellinn
hellinum
hellir
hellirinn
hellirnum
hellisheiði
hello
hellsing
hellu
hellum
helming
helmingi
helminginn
helmingunarti
helmingur
helmut
help
helsinki
helst
helsta
helsti
helstu
helvi
helzt
henan
henda
henderson
hendi
hendina
hendinni
hendir
hendr
hendrik
hendrix
hendur
hendurnar
hengdir
hengdur
hengja
hennar
henni
henning
henri
henrik
henry
hent
henta
hentar
hentaði
henti
hentugt
heppinn
heppnaðist
heppni
her
hera
herafla
herbergi
herberginu
herbergis
herbergið
herbert
herbu
herdeild
herdeildir
herdi
here
herferð
herflugve
herfo
herforingi
herforinginn
herforingja
herforingjar
herforingjastjo
herforingjum
herge
hergo
heri
herinn
herir
heritage
herja
herjaði
herjo
herjum
herjuðu
herlið
herliði
herlo
herma
herman
hermann
hermanna
hermanns
hermannsson
hermaður
hermaðurinn
hermenn
hermennirnir
hermione
hermo
herna
hernað
hernaðar
hernaðara
hernaðarlega
hernaði
hernaður
hernum
hernumin
hernumið
hero
heroes
herra
herrann
hers
hersego
hersetu
hershkovitz
hersho
hersins
herska
herskip
herskipið
hersko
hersla
herslan
herslu
herslum
herslur
herstjo
hersto
hersveit
hersveitir
hersveitum
hertaka
hertekin
hertekið
herti
herto
hertoga
hertogadæmi
hertogadæminu
hertogadæmisins
hertogadæmið
hertogans
hertogar
hertogaynja
hertogi
hertoginn
hervaldi
herzog
herða
herðar
herðum
herþjo
hess
hessen
hest
hesta
hestana
hestar
hestarnir
hestbaki
hesthu
hesti
hestinn
hestinum
hests
hestsins
hestum
hestunum
hestur
hesturinn
het
hetja
hetjan
hetjur
hey
heyerdahl
heygður
heyið
heyja
heyr
heyra
heyrast
heyri
heyrir
heyrist
heyrið
heyrn
heyrt
heyrði
heyrðist
heyrðu
heyrðust
hf
hi
hicks
high
higher
hilary
hildar
hildegard
hildi
hildigunnur
hildur
hill
hillary
hilleman
hills
hilluna
hilmar
hilmarsson
hilmir
him
himalaja
himalajafjo
himin
himininn
himinn
himins
himmler
himna
himnari
himneska
himni
himninum
himnum
hin
hina
hinar
hindenburg
hindi
hindra
hindranir
hindrar
hindrað
hindrun
hindu
hingað
hinir
hinn
hinna
hinnar
hinni
hinrik
hinriks
hinriksson
hins
hinsegin
hinsvegar
hinu
hinum
hinumegin
hip
hipp
hippi
hippo
hiroshima
hirti
hirð
hirða
hirðarinnar
hirðina
hirðinni
hirðir
hirðmaður
hirðmenn
hirðstjo
his
hispani
hissa
hist
histoire
historia
historical
historie
history
hit
hita
hitabeltinu
hitastig
hitastigi
hitastigið
hitaveita
hitaveitu
hitað
hitchcock
hiti
hitinn
hitler
hitlers
hits
hitt
hitta
hittast
hitti
hittir
hittist
hittu
hittust
hiv
hið
hja
hjalta
hjaltadal
hjaltali
hjaltason
hjaltested
hjalti
hjaltlandseyjar
hjarta
hjartaa
hjartagrasaætt
hjartans
hjartanu
hjartardy
hjartarson
hjartasju
hjartað
hjartsla
hjer
hjo
hju
hjuggu
hk
hl
hla
hlaup
hlaupa
hlaupandi
hlaupi
hlaupið
hlaut
hlaða
hlaðin
hlaðinn
hlaðinu
hlaðið
hlaðnar
hle
hlekkir
hleypa
hleypir
hleypt
hleypti
hleypur
hleðslu
hli
hlist
hlið
hliða
hliðar
hliðarma
hliðin
hliðina
hliðinni
hliðinu
hliðið
hliðmælt
hliðsjo
hliðum
hljo
hlo
hlotið
hlu
hlupu
hlusta
hlustaði
hlut
hluta
hlutabre
hlutafe
hlutafja
hlutann
hlutanum
hlutar
hlutarins
hlutaðeigandi
hlutbundin
hlutdeild
hlutfall
hlutfalli
hlutfallið
hlutfallslega
hlutfo
hluthafa
hluti
hlutina
hlutinn
hlutir
hlutirnir
hlutkesti
hlutlaus
hlutlausra
hlutlaust
hlutleysi
hlutmengi
hlutskipti
hlutu
hlutum
hlutun
hlutur
hlutverk
hlutverki
hlutverkið
hlutverkum
hly
hlyna
hlynir
hlynntur
hlynur
hlyti
hlæja
hlær
hm
hms
hnattvæðingu
hne
hnefaleikar
hneykslisma
hneykslið
hni
hnignaði
hnignun
hnit
hnju
hno
hnu
hny
ho
hobbes
hodge
hof
hoffmann
hofi
hofinu
hofið
hofsa
hofsjo
hofso
hogwart
hogwarts
hohhot
hokkaido
hokki
hol
hola
hold
holdi
holdsveikraspi
hole
holiday
holland
hollandi
hollands
hollendinga
hollendingar
hollendingum
hollensk
hollenska
hollenski
hollenskir
hollensku
hollenskum
hollenskur
hollustu
holly
hollywood
holm
holmes
holstein
holt
holtavo
holti
holtsetaland
holtsetalandi
holu
holum
holur
holy
home
homer
homme
homo
hon
hondu
honey
hong
honshu
honum
hood
hook
hooker
hoover
hop
hope
hopkins
hopp
hoppa
horf
horfa
horfenda
horfendum
horfendur
horfin
horfinn
horfir
horfið
horfnir
horft
horfur
horfði
horfðu
horizontal
horizonte
hormo
horn
hornafirði
hornafjo
horni
hornin
horninu
hornið
hornre
hornsteinn
hornstrandir
hornstro
hornum
horror
horse
horta
hospital
hot
hotel
hotspur
hour
house
houston
how
howard
hoya
hr
hra
hrafn
hrafna
hrafnar
hrafnhildur
hrafni
hrafninn
hrafns
hrafnsson
hrakinn
hrakti
hraktir
hraktist
hrannar
hrapaði
hrappsey
hrappur
hratt
hraun
hrauni
hrauninu
hraunið
hraunsins
hraunum
hraut
hraða
hraðar
hraðari
hraðbraut
hraðbrautir
hraði
hraður
hrefna
hrein
hreina
hreinan
hreindy
hreinlega
hreinlæti
hreinn
hreinni
hreinsa
hreinsað
hreinsun
hreint
hreinu
hreinum
hreiðar
hreiðarsson
hreiðrið
hreiður
hrekja
hreppa
hreppnum
hreppsnefnd
hreppsnefndarkosningar
hreppstjo
hreppti
hreppur
hreppurinn
hreyfa
hreyfing
hreyfinga
hreyfingar
hreyfingarinnar
hreyfingin
hreyfingu
hreyfingum
hreyfinguna
hreyfingunni
hreyft
hreysti
hri
hrif
hrifa
hrifamesta
hrifamesti
hrifamestu
hrifamikill
hrifari
hrifasvæði
hrifin
hrifinn
hriflu
hrifnir
hrifum
hrinda
hring
hringadro
hringbraut
hringdi
hringi
hringinn
hringir
hringja
hringlaga
hringnum
hringra
hrings
hringsins
hringt
hringtorg
hringur
hringurinn
hringveginn
hringveginum
hristi
hrja
hrjo
hro
hross
hrsg
hru
hrun
hrund
hrundi
hrundið
hrundu
hrung
hruni
hrunið
hrygg
hryggdy
hryggur
hryggð
hrygna
hrygning
hrygnir
hrynja
hrynjandi
hryðjuverk
hryðjuverkaa
hryðjuverkaho
hryðjuverkamenn
hryðjuverkasamto
hryðjuverkin
hryðjuverkum
hræ
hrædd
hræddir
hræddur
hræra
hrærekur
hræða
hræðast
hræðist
hræðslu
hs
hsh
hsi
htm
html
http
https
hu
hua
huang
hubble
hubei
hubert
hudson
hug
huga
hugafo
hugama
hugamanna
hugamaður
hugamenn
hugann
huganum
hugar
hugasamur
hugað
hugaði
hugbu
hugga
hugh
hughes
hugi
huginn
hugleikur
hugleiðingar
hugmynd
hugmynda
hugmyndafræði
hugmyndin
hugmyndina
hugmyndinni
hugmyndir
hugmyndum
hugo
hugrekki
hugsa
hugsandi
hugsanir
hugsanleg
hugsanlega
hugsanlegt
hugsar
hugsað
hugsaði
hugsi
hugsjo
hugspeki
hugsun
hugsunar
hugsunum
hugsuð
hugsuðir
hugsuðu
hugsuður
hugtak
hugtakinu
hugtakið
hugtaksins
hugto
hugum
hugur
hugverkare
hugvi
hugði
hugðist
hugðu
hugðust
hui
huld
hulda
huldu
huldufo
hulið
hull
human
humarinn
humboldt
hume
humes
humlum
humphrey
hunan
hunang
hunangsflugur
hund
hunda
hundar
hundi
hundinn
hundinum
hundrað
hundraða
hundruð
hundruðir
hundruðum
hundum
hundur
hundurinn
hungri
hungur
hungursneyð
hunt
hunter
hurfu
hurð
hurðina
hurðinni
hus
hussein
huxley
huygens
hva
hval
hvala
hvalfirði
hvalfjo
hvali
hvalir
hvalsto
hvalur
hvalurinn
hvalveiðar
hvamm
hvammi
hvammstanga
hvammur
hvanneyri
hvar
hvarf
hvarfast
hvarfi
hvarvetna
hvasst
hvat
hvata
hvati
hvatningu
hvatt
hvatti
hvattir
hvað
hvaða
hvaðan
hve
hveiti
hvenær
hver
hveragerði
hveragerðis
hverfa
hverfi
hverfinu
hverfisgo
hverfisins
hverfið
hverft
hverfum
hverfur
hvergi
hverir
hverja
hverjar
hverjir
hverju
hverjum
hvern
hvernig
hverninn
hvernug
hverr
hverra
hverrar
hverri
hvers
hversu
hvert
hvetja
hvetur
hvi
hvo
hvolfdi
hvor
hvora
hvorir
hvorirtveggju
hvorki
hvorn
hvorri
hvors
hvort
hvorttveggja
hvoru
hvorugt
hvorugur
hvorum
hvur
hvurgi
hvurju
hvurjum
hvurn
hvurnig
hvurnin
hvurt
hy
hyde
hygg
hyggja
hyggju
hyggjum
hyggjur
hyggst
hyggur
hygðist
hygðust
hylja
hylli
hylltur
hymenoptera
hyrningar
hyrningur
hæ
hæfa
hæfi
hæfileika
hæfileikum
hæfir
hæfni
hæfur
hæfði
hægar
hægfara
hægja
hægra
hægri
hægt
hækka
hækkandi
hækkar
hækkað
hækkaði
hækkaður
hækkun
hæli
hælis
hærra
hærri
hæst
hæsta
hæstare
hæsti
hæstire
hæstu
hætt
hætta
hættan
hætti
hættir
hættu
hættubre
hættuleg
hættulegt
hættum
hættur
hæð
hæða
hæðin
hæðinni
hæðir
hæðum
i
ia
ian
iana
iata
ib
ibm
ibn
ibrahim
ic
ice
iceland
icelandair
icelandic
icesave
ich
id
idaho
ideas
identifier
identity
idol
if
ii
iii
ijshist
ijsselmeer
il
ili
ill
illa
illan
illgresi
illinois
illmenni
ills
illsku
illt
illu
illuga
illugi
illum
illur
illustrated
illviðri
ilm
ilmandi
ilmur
im
imac
image
images
imagesize
imdb
img
immanuel
impact
imperial
in
ina
inc
increment
independence
independent
index
indi
india
indian
indiana
indianapolis
indie
indja
indland
indlandi
indlands
indlandshaf
indlandshafi
indo
indonesia
indriða
indriðason
indriði
industrial
industry
indverja
indversk
indverska
indversku
indverskum
indverskur
influ
info
infobox
information
infty
ing
inga
ingar
ingason
ingi
ingibjargar
ingibjo
ingigerður
ingimar
ingimars
ingimarsson
ingimundarson
ingimundur
ingiri
ingjaldur
ingo
ingu
ingum
ingunn
ingvar
ingvarsson
ingveldur
ingvi
inherits
init
initials
inn
inna
innan
innanborðs
innanhu
innanlands
innanri
innar
innbla
innbyrðis
innflutning
innflutningi
innflutningur
innflytjenda
innflytjendum
innflytjendur
innfæddir
innfæddra
inngang
inngangi
inngangur
inngo
innheimta
inni
innihald
innihalda
innihaldi
innihaldið
innihe
inniheldur
innilega
innla
innleiddi
innleiða
innleiðingu
innlend
innlenda
innlendar
innlendra
innlendum
innlent
innlima
innlimað
innlimaði
innlimun
innlimuð
innlimuðu
inno
innra
innre
innreið
innri
innsbruck
innsigli
innst
innsta
innstæðna
innstæðueigenda
innstæður
innsy
inntak
innto
innviði
ins
inside
instagram
institut
institute
insu
int
intel
intellectual
inter
international
internet
internetinu
internetið
internetsins
interview
into
introduction
inu
inui
inventor
investigation
ios
iowa
ip
ipad
iphone
ipod
ipv
ir
ira
ireland
irene
iris
iron
irving
is
isaac
isabel
isbn
isis
isla
islam
islamic
island
islandica
islands
islandske
isles
isma
ismi
iso
isoetes
israel
issid
issn
issue
ist
istanbu
it
italia
italiana
item
itis
its
itunes
iucn
iv
ivan
ivy
ix
izt
ið
iðju
iðka
iðkun
iðn
iðnað
iðnaðar
iðnaðarborg
iðnaðarins
iðnaðarra
iðnaði
iðnaður
iðnbyltingarinnar
iðnbyltingin
iðnbyltingunni
iðno
iðnri
iðnsko
iðnvæðingu
iðnþro
iðrast
iðulega
iðunn
iðunnar
iðunni
j
ja
jack
jackson
jacob
jacobsen
jacques
jafn
jafna
jafnan
jafnar
jafnað
jafnaðarmanna
jafnaðarmannaflokksins
jafnaðarmenn
jafnaði
jafnframt
jafngildi
jafngildir
jafngo
jafnha
jafningja
jafnir
jafnmo
jafno
jafnre
jafnræði
jafns
jafnskjo
jafnsnart
jafnt
jafntefli
jafnvel
jafnvægi
jag
jaguar
jake
jaklju
jakob
jakobi
jakobs
jakobsdo
jakobsson
jalisco
jam
jamai
james
jamestown
jamie
jan
jane
janeiro
janet
jangtse
janleg
janney
janry
janu
january
jap
japan
japana
japanese
japanir
japans
japanska
japanskeisari
japanski
japanskir
japanskt
japanskur
japo
japonica
jar
jared
jarl
jarlar
jarli
jarlinn
jarls
jarða
jarðabo
jarðar
jarðarfo
jarðarinnar
jarðaður
jarðefnaeldsneyti
jarðfræði
jarðfræðingar
jarðfræðingur
jarðgo
jarðhita
jarðhiti
jarðhu
jarðir
jarðlo
jarðsett
jarðskja
jarðso
jarðsto
jarðveg
jarðvegi
jarðvegur
jarðvi
jason
jasta
java
javier
jay
jazz
jað
jaðar
jaði
jaðri
je
jean
jeanne
jedi
jeff
jefferson
jeffrey
jeg
jeho
jeltsi
jemen
jena
jenna
jenner
jenni
jennifer
jenny
jens
jensen
jensson
jepson
jeremy
jerry
jersey
jeru
jerusalem
jesse
jessica
jesu
jesus
jet
jethro
ji
jiang
jiangsu
jiangxi
jilin
jim
jimmy
jin
jinan
jinping
jintao
jo
joa
joachim
joan
jobs
jochumsson
joe
joel
joensen
joey
johan
johann
johannes
john
johnny
johns
johnsen
johnson
johnston
jon
jonas
jonathan
jones
jonestown
jong
joosten
jor
jordan
jorge
jose
josef
joseph
josh
joshua
journal
journey
joy
joyce
jpeg
jpg
jpv
jr
js
jsp
jstor
ju
jua
juan
juku
jukust
jules
julia
julian
julie
julius
july
jum
jump
jun
june
jung
jungar
jungfru
jungle
juni
junior
juniperus
jurt
jurta
jurtin
jurtir
jurtum
just
justice
justin
justu
juventus
jæja
jørgen
jørgensen
k
ka
kaa
kabila
kabu
kadmi
kadyrov
kaf
kafa
kafba
kafe
kaffi
kaffihu
kafi
kafla
kaflar
kaflega
kafli
kaflinn
kaflokknum
kaflokksins
kaft
kaho
kai
kaiser
kaiserslautern
kaka
kakali
kako
kala
kalda
kaldalo
kaldari
kaldra
kaldur
kaledo
kali
kaliforni
kalku
kall
kalla
kallar
kallast
kallat
kallað
kallaðar
kallaði
kallaðir
kallaðist
kallaðr
kallaður
kalli
kallinn
kalsi
kalt
kalvi
kama
kamann
kamans
kamanum
kamban
kambo
kameru
kami
kaminn
kamleg
kamlega
kamp
kamsleifar
kan
kana
kanada
kanadi
kanari
kandi
kani
kaninu
kanið
kann
kanna
kannabis
kannast
kannað
kannaði
kannaðist
kannske
kannski
kano
kansas
kanselli
kansins
kanslara
kanslari
kant
kantaraborg
kanto
kap
kapella
kapellan
kapi
kapp
kappa
kappi
kappro
kar
kara
karagva
kardashian
kardi
kardina
karen
karest
karformi
kari
karinnar
karl
karla
karlaflokki
karlaflokkur
karlako
karlalandslið
karlalandsliðið
karlamagnu
karlar
karldy
karli
karlinn
karlinum
karlkyns
karlmanna
karlmannsnafn
karlmannsnafnið
karlmannsno
karlmaður
karlmenn
karlmo
karls
karlsdo
karlsruhe
karlsson
karlssonar
karma
karnir
karo
karto
karður
karþago
kasafn
kasafni
kasafninu
kasafnið
kasafns
kasafnsins
kasakstan
kasakstans
kasmi
kaso
kasparov
kaspi
kassa
kassagi
kassel
kast
kasta
kastala
kastalann
kastalans
kastalanum
kastalar
kastali
kastalinn
kastar
kastað
kastaði
kasti
kastili
kastljo
kasus
kata
katalo
katanga
katar
katarina
kate
katherine
kathleen
kathryn
katie
katla
katli
katniss
kato
katri
kattardy
kau
kaup
kaupa
kaupamaður
kaupendur
kaupfe
kaupho
kaupin
kaupir
kaupma
kaupmann
kaupmanna
kaupmannahafnar
kaupmannahafnarha
kaupmannaho
kaupmanni
kaupmanns
kaupmaður
kaupmaðurinn
kaupmenn
kaupmo
kaupskip
kaupstað
kaupstaðarre
kaupstaður
kaupsy
kauptu
kaupum
kaupþing
kaupþingi
kaupþings
kaus
kavirkjun
kavo
kazakhstan
kað
kaði
kaþo
kb
kbh
kc
kdo
ke
kea
keane
keflavi
keflvi
kei
keila
keilulaga
keisara
keisaradæmi
keisaradæminu
keisaradæmis
keisaradæmisins
keisaradæmið
keisaraherinn
keisarann
keisaranna
keisarans
keisaranum
keisarar
keisarati
keisaraveldisins
keisaraveldið
keisaraynja
keisari
keisarinn
keith
kelduhverfi
keldum
kelling
kellingu
kellogg
kelly
keltar
kelvin
kem
kemal
kemr
kemst
kemur
ken
keni
kenna
kennara
kennaraha
kennarar
kennarasko
kennari
kennarinn
kennd
kenndar
kenndi
kenndir
kenndu
kenndur
kennedy
kenneth
kenni
kennileiti
kenning
kenninga
kenningar
kenningin
kenningu
kenningum
kenninguna
kenningunni
kennir
kennito
kennsl
kennsla
kennslu
kennslubo
kennsluefni
kennslufræði
kennt
kennurum
kenny
kent
kentucky
keny
kepler
keppa
keppandi
keppast
keppenda
keppendur
keppendurnir
keppinautar
keppinautur
keppir
keppni
keppnin
keppnina
keppninnar
keppninni
keppnir
keppnisti
keppnum
keppt
keppti
kepptu
ker
kerenski
kerfi
kerfinu
kerfis
kerfisins
kerfið
kerfum
kerið
kerling
kerlingar
kerlingin
kerlingu
kerry
kerti
ket
ketil
ketill
ketils
ketilsson
ketti
kettir
kevin
kew
key
keynes
keypis
keypt
keypti
keyptir
keyptu
keyptur
keyra
keyrir
keyrt
keyrði
keys
keðju
kfræði
kfs
kfum
kg
kgb
kh
khai
khald
khalifa
khan
kharðs
kharður
khlo
khomeini
khru
ki
kid
kids
kiel
kierkegaard
kili
kill
killer
kim
kin
kina
kind
kinda
kindafræði
kindi
kindum
kindur
king
kinga
kingao
kingar
kingdom
kingi
kings
kingsley
kingston
kingu
kingum
kingur
kinn
kinni
kinu
kippa
kir
kirchner
kirgistan
kirk
kirkja
kirkjan
kirkju
kirkjubo
kirkjubæ
kirkjubæjarklaustri
kirkjugarð
kirkjugarði
kirkjugarðinn
kirkjugarðinum
kirkjugo
kirkjukort
kirkjum
kirkjuma
kirkjuna
kirkjunnar
kirkjunni
kirkjur
kirkjuso
kirkjustaðir
kirkjustaður
kirkjuþingið
kirkna
kirsten
kis
kisa
kisarfi
kisborgara
kisborgarar
kisborgarare
kisborgari
kisdali
kisdo
kisfja
kisfulltru
kisha
kisins
kiskeisari
kislo
kisma
kismanna
kismenn
kismo
kisra
kiss
kissakso
kissinger
kissjo
kisskuldabre
kisstefnu
kisstjo
kisstofnanir
kisstofnun
kist
kista
kistan
kistjo
kistru
kistu
kistuna
kistunni
kisu
kisvald
kisvaldið
kisvalds
kisvaldsins
kisþing
kisþjo
kit
kið
kja
kjadala
kjaforseta
kjaforseti
kjaher
kjahers
kjalarnesi
kjallara
kjallaranum
kjamanna
kjamaðurinn
kjamenn
kjamo
kjandi
kjanna
kjarna
kjarnann
kjarnans
kjarnanum
kjarni
kjarninn
kjarnorkua
kjarnorkuvopn
kjarri
kjartan
kjartans
kjartansson
kjarval
kjarvalssto
kjasambandið
kjasambandsins
kjast
kjastjo
kjaþing
kjaþingi
kjaþings
kjo
kju
kjudy
kjum
kjunum
kk
kka
kkar
kkbru
kkgra
kki
kkir
kkland
kklandi
kklands
kklaðist
kkneska
kkneskur
kko
kkst
kkt
kkti
kku
kkulaði
kkum
kkumanna
kkumenn
kkun
kkunum
kkur
kkuðu
kkva
kkvi
kkvilið
kl
kla
klafræði
klagenfurt
klar
klasa
klassi
klauf
klaus
klaustri
klaustrinu
klaustrið
klaustur
klaustursins
klefa
kleg
klega
klegast
klegra
klegri
klegt
kleift
klein
klekjast
klemens
kleo
klerkur
kles
klesar
kletta
klettafjo
klettar
klettum
klettur
kleyfni
kli
klifurrunni
kling
klinga
klingar
klings
klingum
klingur
klingurinn
klinum
klippa
klipping
klippt
klja
klju
klo
klofa
klofið
klofnar
klofnaði
klofning
klst
klu
klukka
klukkan
klukkur
klukkustund
klukkustunda
klukkustundir
klukkustundum
klukkuti
klukkuætt
klum
kly
klædd
klæddist
klæddur
klæddust
klær
klæða
klæðast
klæði
klæðin
klæðir
klæðist
klæðnað
klæðum
km
kmaður
kmeistari
kmenn
kmennta
kmenntafe
kmenntafræði
kmenntary
kmenntaso
kmenntaverðlaun
kmenntaverðlauna
kmenntaverðlaunanna
kmenntaverðlaunin
kmenntir
kmenntum
kmo
kn
kna
knanna
knar
knara
knarflokkinn
knarflokknum
knarflokks
knarflokksins
knarflokkur
knarflokkurinn
knarha
knari
knarinnar
knarlo
knarmanna
knarmenn
knarnefnd
knarnefndar
knarprestur
knarre
knarsto
knarstofnun
knarstofu
knarverkefnisins
knast
knastofnun
knattspyrna
knattspyrnu
knattspyrnudeild
knattspyrnufe
knattspyrnukeppni
knattspyrnukona
knattspyrnulandslið
knattspyrnulið
knattspyrnumaður
knattspyrnumenn
knattspyrnumo
knattspyrnusamband
knattspyrnusambandi
knattspyrnusambandinu
knattspyrnusambandið
knattspyrnusambands
knattspyrnusambandsins
knattspyrnusnið
knattspyrnustjo
knattspyrnuvo
knattspyrnuþja
knað
knaði
knaður
kne
kneski
kni
knight
knin
knina
kninn
kninni
knir
knirnar
knið
knja
knma
knmynd
kno
know
knowledge
knowles
knu
knud
knudsen
knum
knun
knut
knuð
knuðu
kny
ko
koblenz
koch
kofa
kohl
kol
kola
kolana
kolbein
kolbeini
kolbeinn
kolbeins
kolbeinsson
kolbjo
kolbru
koldi
kolefni
kolefnis
koll
kolla
kollafirði
kollafjo
kolli
kollinum
kollur
kolskeggur
koltvi
kolum
kolur
kolvetni
kom
koma
komandi
komast
komdu
komi
komin
kominn
komist
komit
komizt
komið
kommu
komna
komnar
komnir
kompa
komst
komu
komum
komumaður
komumst
komuna
komur
komust
kon
kona
konan
konar
konardo
konarson
konarsonar
konfu
kong
kongo
koni
konra
konrad
konstanti
konstanz
konsu
konsæll
konu
konum
konuna
konung
konunga
konunganna
konungar
konungarnir
konungaso
konungdo
konungdæmi
konungdæmisins
konungdæmið
konungi
konunginn
konunginum
konunglega
konunglegu
konungr
konungs
konungsbo
konungsbre
konungsdo
konungsfjo
konungsho
konungsins
konungsri
konungssinna
konungsson
konungsstjo
konungssto
konungsvaldið
konungsætt
konungsættarinnar
konungsættin
konungum
konungur
konungurinn
konunnar
konunni
konur
konurnar
koop
kopar
kopti
korma
korn
korni
korpu
korsi
kort
korti
kortið
kos
kosin
kosinn
kosið
kosning
kosninga
kosningabandalag
kosningabara
kosningalo
kosninganna
kosningar
kosningare
kosningarnar
kosningasaga
kosningu
kosningum
kosningunum
kosnir
koso
kost
kosta
kostar
kostað
kostaði
kosti
kostir
kostnað
kostnaðar
kostnaði
kostnaður
kostum
kostur
kot
koti
kotinu
kotið
koðra
kr
kra
krabbady
krabbamein
krabbameini
krabbameins
krabbinn
krafa
krafist
kraft
krafta
kraftar
kraftaverk
krafti
kraftur
kraftwerk
krafðist
krahu
krai
kraka
krakkar
krakkarnir
krar
krata
krataflokkinn
krataflokknum
krataflokksins
krataflokkurinn
kratar
krates
kratesar
krati
kravtsju
kre
krefjast
krefst
kreik
kreo
kreppa
kreppan
kreppu
kreppunnar
kreppunni
kri
kring
kringlo
kringlumy
kringum
kringumstæðum
kripke
kris
krist
kristalgerð
kristbjo
kristi
kristian
kristilega
kristilegra
kristin
kristinn
kristinna
kristinnar
kristinni
kristinsdo
kristinsson
kristja
kristjana
kristjani
kristjo
kristmundur
kristna
kristnar
kristni
kristninnar
kristnir
kristnito
kristnu
kristnum
kristo
krists
kristskirkju
kristum
kristur
krita
kro
kross
krossa
krossavi
krossferð
krossferðin
krossferðinni
krossgo
krossi
krossinn
krossins
krossinum
kru
krum
krummi
krun
krunarfræðinga
krunarfræðingur
krunarkona
kry
krydd
ks
ksdal
ksdo
ksho
ksi
ksins
kso
ksson
kssonar
kssyni
kst
kstaf
kstafi
kstafir
kstaflega
kstafnum
kstafur
kstafurinn
ksto
kt
kti
ktist
ktu
ktum
ktust
ku
kubu
kuhn
kul
kula
kulda
kulhlaup
kulinn
kulið
kull
kullinn
kulo
kuls
kulsa
kulsins
kulsson
kulsþjo
kuly
kum
kumanna
kumaður
kumenn
kuml
kumo
kun
kuna
kunar
kunming
kunn
kunna
kunnar
kunngjo
kunni
kunnigt
kunningi
kunningja
kunnir
kunnu
kunnugt
kunnugur
kunnum
kunnur
kunum
kuorð
kur
kurborg
kurborgar
kurbyggð
kure
kurflugvelli
kurflugvo
kurgangan
kurho
kurhreppur
kuri
kurinn
kurkirkja
kurkjo
kurnar
kurt
kurteisi
kurz
kus
kust
kustjo
kustu
kusu
kutæki
kuð
kuðu
kuþo
kv
kva
kvaddi
kvaddur
kvaran
kvartaði
kvarða
kvarðanato
kvarðanir
kvarðar
kvað
kvaðst
kveikir
kveikja
kveikjan
kveikt
kveikti
kveiktu
kveld
kveldi
kveldið
kveldu
kvendy
kvenfe
kvenfo
kvenkyns
kvenmann
kvenmannsnafn
kvenmannsnafnið
kvenmannsno
kvenmaður
kvenna
kvennaflokki
kvennaflokkur
kvennalistinn
kvennalið
kvennasko
kvennaso
kvenre
kveða
kveðin
kveðinn
kveðinna
kveðinni
kveðins
kveðið
kveðja
kveðju
kveðna
kveðnar
kveðnir
kveðnu
kveðnum
kveðskap
kveðskapur
kveðst
kveður
kvi
kvik
kvika
kvikasilfur
kvikfe
kvikindi
kvikmynd
kvikmynda
kvikmyndaframleiðandi
kvikmyndagerð
kvikmyndagerðarmaður
kvikmyndaha
kvikmyndahlutverk
kvikmyndahu
kvikmyndaleikstjo
kvikmyndarinnar
kvikmyndato
kvikmyndin
kvikmyndina
kvikmyndinni
kvikmyndir
kvikmyndirnar
kvikmyndum
kvikmyndunum
kviknaði
kviku
kvilla
kvið
kviðdo
kviði
kviðinn
kviður
kvk
kvo
kvæm
kvæma
kvæmar
kvæmari
kvæmlega
kvæmni
kvæmt
kvænast
kvæntist
kvæntur
kvætt
kvæð
kvæða
kvæði
kvæðin
kvæðinu
kvæðisins
kvæðið
kvæðum
kw
ky
kyi
kyle
kylie
kyllisvi
kyn
kynferðislega
kynferðislegu
kynhneigð
kyni
kynin
kynja
kynjanna
kynjum
kynlegt
kynli
kynna
kynnast
kynni
kynning
kynningu
kynnir
kynnist
kynnst
kynnt
kynntar
kynnti
kynntist
kynntu
kynntur
kynntust
kynnu
kyns
kynslo
kynæxlun
kynþa
kynþroska
kynþætti
kyr
kyrr
kyrrahaf
kyrrahafi
kyrrahafinu
kyrrahafið
kyrrahafs
kyrrahafsins
kyrrt
kyssa
kyssast
kyssir
kyssti
kæmi
kæmist
kæmu
kæmust
kænugarði
kær
kæra
kærasta
kærasti
kærir
kærleika
kært
kæru
kærur
kærustu
kærð
kærða
kærði
kærðir
kærðu
kærður
københavn
l
la
laa
labeinsstro
label
labi
labiskup
labiskups
labiskupsdæmi
labo
laborg
labrador
labu
lada
ladag
laden
lado
lady
laeftirlitinu
laeftirlitið
laeftirlitsins
laerti
laf
lafar
lafe
laferil
laferill
laferli
lafi
laflokk
laflokka
laflokkar
laflokkum
laflokkur
lafo
lafr
lafræði
lafræðingur
lafs
lafsdo
lafsfirði
lafsfjarðar
lafsfjo
lafsson
lafssonar
lafssyni
lafsvi
lafur
lafyrirtæki
lafyrirtækja
lafði
lag
laga
lagaa
lagabreytingar
lagadeild
lagafrumvarp
lagafrumvo
lagaho
lagaleg
lagalega
lagalisti
lagana
laganna
lagapro
lagar
lagarfljo
lagarnir
lagasamtaka
lagasamto
lagasetningu
lagað
laggirnar
lagi
laginu
lagið
lagjo
lagli
lagningu
lago
lagri
lags
lagsfræði
lagsfræðingur
lagsheimili
lagsheimilið
lagsins
lagsleg
lagslega
lagslegar
lagslegri
lagslegt
lagslegu
lagslegum
lagsli
lagslið
lagsliða
lagsma
lagsmanna
lagsmaður
lagsmenn
lagsmiðlum
lagsmiðsto
lagsmo
lagsra
lagssa
lagsskap
lagssto
lagst
lagsvi
lagt
lagðar
lagði
lagðir
lagðist
lagður
laho
lahreppur
lahu
lai
lak
lakari
lake
lakennara
lakennari
lakerfi
lakerfinu
lakerfið
lako
lakona
laleg
laleiðtogar
laliða
lalo
lam
lama
lamanna
lamarkaði
lamaður
lamaðurinn
lamb
lambda
lambert
lameistarar
lameistari
lamenn
lamiðsto
lamo
lan
lana
lancaster
lanceolata
land
landa
landafræði
landakort
landamæra
landamæri
landamærin
landamærum
landamærunum
landanna
landbu
landeigenda
landeyjum
landfo
landfræði
landfræðileg
landfræðilega
landgo
landhelgi
landi
landinu
landið
landko
landlukt
landlæknir
landlæknis
landna
landnema
landnemar
landnemarnir
landra
lands
landsbanka
landsbankadeild
landsbankans
landsbankanum
landsbanki
landsbankinn
landsbo
landsbyggðinni
landsdo
landsfo
landsframleiðsla
landsframleiðslu
landsfundi
landshluta
landshlutum
landsho
landsins
landskjo
landslag
landslagi
landsleik
landsleiki
landsleikir
landslið
landsliða
landsliði
landsliðinu
landsliðið
landsliðsins
landsliðsþja
landslo
landsmanna
landsmenn
landsmo
landspi
landsre
landssamband
landssambands
landsstjo
landstjo
landsvi
landsvirkjun
landsvirkjunar
landsvæða
landsvæði
landsvæðið
landsvæðum
landsyfirre
landvinninga
landvinningum
lane
lanefnd
lanefndar
lanema
lang
langa
langadal
langan
langanesi
langar
langaði
langbarða
lange
langflestir
langi
langinn
langir
langjo
langli
langri
langs
langskip
langstærsta
langt
langti
language
languages
langur
langvarandi
lanka
lann
lanna
lano
lans
lanum
lanzhou
lao
laos
lapiltar
lapro
lar
lara
larar
large
larhring
larhringinn
lari
larinnar
larix
larlaga
larljo
larnar
larnir
larorku
larry
lars
larsen
larto
laruppra
larus
las
lasamband
lasambandi
laschet
lasko
lasnið
laso
lason
last
lasta
lastarfsemi
lasti
lastigi
lastjo
lasto
lastofnanir
lastofnun
lastofnunin
lastæði
lasveinar
lasveinninn
lasy
lat
late
later
lati
latin
latnesk
latneska
latneskt
latnesku
latneskum
latneskur
lato
latre
latus
lau
lauf
laufa
laufblo
laufey
lauffellandi
laufin
lauftre
laug
laugar
laugardag
laugardaginn
laugardal
laugardalsho
laugardalsvelli
laugardegi
laugarnesi
laugarvatni
laugaveg
laugavegi
laugin
laugum
lauk
lauka
laukar
laukætt
laun
launa
launað
launum
laupana
laura
lauren
laurence
laurent
laurie
lauritz
laus
lausa
lausafe
lausafja
lausan
lausanne
lausavi
lausir
lauslega
lausn
lausnar
lausnargjald
lausnir
laust
lausu
lausum
laut
lavesi
lavi
lavo
lavoisier
lavoisiers
lavrov
law
lawrence
lax
laxa
laxness
lay
laætt
lað
laða
laðar
laði
laður
laþing
laþjo
lba
lbrautasko
lbreytileika
lbreytni
lbreytt
lbru
lbu
lby
ld
lda
ldaga
ldamo
ldamorð
ldamorðin
ldamorðunum
ldann
ldans
ldanum
ldar
ldi
ldin
ldina
ldinn
ldinni
ldinu
ldið
ldnu
ldo
ldrum
lds
ldsaga
ldsagan
ldsagna
ldsagnaho
ldsins
ldskap
ldskapar
ldskapur
ldso
ldu
ldudal
ldum
ldun
ldungadeild
ldungadeildar
ldungadeildarinnar
ldungadeildarþingmaður
ldungadeildarþingmenn
ldungadeildin
ldungadeildinni
ldungara
ldungis
ldunum
ldur
ldurinn
ldust
lduð
ldverk
ldvo
le
lea
leader
leaf
league
learning
leb
lech
led
ledoux
lee
leeds
lefna
lefni
lefnum
left
leg
lega
legacy
legal
legar
legend
legg
leggi
leggja
leggjast
leggjum
leggst
leggur
legið
legri
legt
legu
legum
legur
legði
leibniz
leicester
leidd
leiddi
leiddist
leiddu
leiddur
leiden
leif
leifar
leifarnar
leifs
leifsson
leiftur
leifum
leifur
leiga
leigh
leigja
leigu
leigubi
leigði
leik
leika
leikana
leikanna
leikar
leikara
leikaranum
leikarar
leikararnir
leikari
leikarinn
leikarnir
leikendur
leikfe
leikfo
leikho
leikhu
leiki
leikin
leikina
leikinn
leikir
leikirnir
leikið
leikja
leikjafræði
leikjato
leikjum
leikjunum
leikkona
leikkonan
leikkonu
leikkonunni
leiklist
leiklistarsko
leikmann
leikmanna
leikmannaho
leikmanni
leikmaður
leikmaðurinn
leikmenn
leikmo
leikni
leiknir
leiknum
leikrit
leikriti
leikritinu
leikritið
leikritum
leiks
leiksins
leikska
leiksko
leikstjo
leiksty
leiksy
leikti
leikum
leikunum
leikur
leikurinn
leikurum
leikvanginum
leikvangurinn
leikvo
leiman
leipzig
leir
leira
leist
leit
leita
leitar
leitarve
leitast
leitað
leitaði
leitaðist
leiti
leitin
leitinni
leitt
leituðu
leizt
leið
leiða
leiðandi
leiðangri
leiðangrinum
leiðangur
leiðangurinn
leiðar
leiðarinnar
leiðarljo
leiðarvi
leiðast
leiðbeinandi
leiðbeiningar
leiði
leiðin
leiðina
leiðinni
leiðir
leiðis
leiðist
leiðo
leiðre
leiðso
leiðtoga
leiðtogar
leiðtogi
leiðtogum
leiðum
leka
lekið
leksikon
lektor
lemajos
lena
lend
lenda
lendan
lendi
lendingu
lendinu
lendir
lendið
lendu
lendum
lenduna
lendunnar
lendunni
lendur
lendurnar
lendustjo
lenduti
lengd
lengdar
lengdargra
lengi
lengja
lengra
lengri
lengst
lengsta
lengsti
lengstu
lengur
leni
leningrad
lennart
lennon
lenska
lenskr
lensulaga
lent
lenti
lentu
leo
leon
leonard
leonardo
leoni
leons
leonsstyrjo
leopold
leppri
lepraria
lerki
les
lesa
lesandinn
lesbi
lesbo
lesefni
lesendur
leshu
lesin
lesið
leslie
lest
lestarsto
lestin
lestina
lestir
lestrarfe
lestur
let
letri
letrun
letter
letters
lettland
lettlandi
lettlands
letur
leuven
lev
level
leverkusen
levi
levichev
lewis
lewisia
lex
lexicon
lexikon
ley
leyen
leyfa
leyfi
leyfilegt
leyfir
leyfis
leyft
leyfð
leyfði
leyfðu
leyna
leynd
leyndardo
leyndarma
leyndu
leyndum
leynilega
leynilo
leyniþjo
leynt
leysa
leysast
leysi
leysingi
leysir
leysist
leyst
leysti
leystir
leystist
leystu
leystur
leyti
lez
leðurblo
lf
lfa
lfan
lfandafljo
lfar
lfara
lfarar
lfari
lfarinn
lfarið
lfarnir
lfað
lfaði
lfboðaliða
lfboðaliðar
lfbro
lfbær
lfbæra
lfbærni
lfda
lfdan
lfdanar
lfestu
lfheiður
lfhildur
lfi
lfinn
lfinu
lfir
lfið
lfkjo
lfkonan
lfkrafa
lfleik
lfljo
lfma
lfo
lfr
lfra
lfrar
lfri
lfræði
lfræðileg
lfræðingar
lfræðingur
lfræðingurinn
lfræðinnar
lfs
lfsa
lfsagt
lfsdo
lfsmark
lfsmorð
lfsmorða
lfsmorðssprengjua
lfsmynd
lfso
lfsson
lfssonar
lfsstjo
lfssto
lfssyni
lfstjo
lfstætt
lfstæð
lfstæða
lfstæðar
lfstæði
lfstæðir
lfstæðis
lfstæðisbara
lfstæðisflokki
lfstæðisflokkinn
lfstæðisflokknum
lfstæðisflokks
lfstæðisflokksins
lfstæðisflokkur
lfstæðisflokkurinn
lfstæðismanna
lfstæðismenn
lfstæðisstri
lfstæðisyfirly
lfstæðra
lfstæðs
lfstæðu
lfstæðum
lfstæður
lfsvi
lfsæviso
lft
lfta
lftafirði
lftafjo
lftamy
lftanes
lftanesi
lftar
lfti
lftinn
lfto
lfu
lfum
lfun
lfunnar
lfunni
lfur
lfurinn
lfus
lfusa
lfusi
lfvirk
lg
lga
lgar
lgari
lgarska
lgast
lgað
lgaði
lgaðist
lgin
lginn
lgið
lgo
lgu
lgun
lgunar
lgunarhljo
lgur
lholt
lholti
lholtsbiskup
lholtsbiskupsdæmi
lholtssko
li
lia
liam
liaoning
liber
liberty
library
lie
liechtenstein
liege
lifa
lifanda
lifandi
lifað
life
lifi
lifir
lifnaðarhættir
lifum
lifur
lifði
lifðu
liga
liggi
liggja
liggjandi
liggr
liggur
light
lights
like
likka
likkar
likud
lil
lilium
lilja
lilju
liljuætt
lilla
lille
lily
lim
lima
limburg
limited
limits
lin
lina
lincoln
lind
linda
lindb
lindgren
lindsay
lindy
line
linedata
lines
ling
link
links
linn
linnaeus
linne
linni
linu
linux
linz
lion
lionel
lir
lirfa
lirfan
lirfur
lirfurnar
lis
lisa
lishu
lissabon
lisstaðir
list
lista
listabo
listaha
listamanna
listamanninn
listamaður
listamaðurinn
listamenn
listamo
listann
listans
listanum
listar
listasafn
listasafni
listasafnið
listasafns
listaso
listaverk
listaverkum
listi
listinn
listir
listma
listum
lit
lita
litama
litar
litarefni
litast
litað
literary
literature
litha
liti
litin
litinn
litir
litirnir
litið
litla
litlar
litli
litlir
litlu
litlum
litninga
litningar
litri
litro
lits
litteratur
little
litu
litum
litur
liturinn
lituð
liu
live
lively
liverpool
lives
livi
living
livingstone
livorno
lix
liz
lið
liða
liðamo
liðanna
liðar
liði
liðin
liðinn
liðinni
liðinu
liðir
liðið
liðna
liðnir
liðnu
liðnum
liðs
liðsauka
liðsforingi
liðsins
liðsmenn
liðsstjo
liðu
liðum
liðunum
liður
liðveislu
liðþja
lja
ljo
lju
lk
lka
lkan
lkaorðu
lkar
lkað
lkerfinu
lkerfisins
lkerfið
lki
lkinn
lkinu
lkið
lkn
lkna
lknu
lknum
lks
lksfjo
lksins
lku
lkum
lkun
lkuna
lkunnar
lkunni
lkunnugur
lkunum
lkur
lkurbu
lkurinn
lkurnar
lkursy
lkuð
lkynngi
ll
lla
lland
llandi
llands
llaskaga
ller
lli
llin
llina
llinn
llinni
llkona
llkonan
llo
lloyd
llst
llu
llulaga
llum
llun
llunar
llunum
llur
llurinn
llust
lluð
lluðu
lluðum
lluðust
lly
lm
lma
lmado
lmar
lmarga
lmargar
lmargir
lmargra
lmarsson
lmason
lmavi
lmblo
lmenn
lmennari
lmennasta
lmenni
lmennt
lmennustu
lmey
lmfri
lmgo
lmi
lminn
lminum
lmiðla
lmiðlar
lmiðlum
lmo
lms
lmsdo
lmsson
lmsteinn
lmty
lmum
lmur
lmurinn
ln
lna
lnar
lnato
lni
lningu
lnir
lnum
lo
local
location
locke
lockheed
loeske
lof
lofa
lofar
lofast
lofað
lofaði
lofaður
lofi
loforð
lofso
loft
lofta
loftaugara
lofthju
lofti
loftinu
loftið
loftmynd
lofts
loftslag
loftslagi
loftslagsbreytingar
loftslagsra
loftsson
loftssonar
loftur
loftþry
lofun
lofuð
lofuðu
log
loga
logalandi
logan
logandi
logi
logic
logið
logn
lognaðist
logo
lok
loka
lokaleik
lokaleiknum
lokaniðurstaða
lokast
lokastaða
lokastaðan
lokato
lokaumferðinni
lokað
lokaði
lokaðir
lokaður
loki
lokin
lokinni
lokið
lokka
loknu
loknum
loks
loksins
lokum
lokun
lokuð
lokuðu
lokuðum
lon
london
long
lonicera
look
lopez
lord
lorentz
lorenzo
lorraine
los
losa
losar
losað
losna
losnar
losnaði
lost
losun
lotu
lotukerfinu
lotus
louis
louise
louisiana
love
lovi
low
lowe
loðbro
loðinn
loðnu
loðvi
lp
lpa
lpar
lpað
lpaði
lpi
lptu
lpunum
lpuðu
lreiðar
lri
lrit
lru
ls
lsa
lsan
lsar
lsdo
lsen
lsgrein
lsgreinar
lsho
lshyggja
lshyggju
lsi
lsinn
lsins
lsinum
lsir
lsk
lska
lskar
lski
lskin
lskir
lskra
lskrar
lskri
lskt
lsku
lskum
lskur
lskylda
lskyldan
lskyldna
lskyldu
lskyldum
lskylduna
lskyldunnar
lskyldunni
lskyldur
lslynda
lslyndi
lslyndir
lslyndra
lslysi
lsmeðferð
lso
lspeki
lsra
lsri
lsson
lssonar
lssyni
lst
lstað
lstjo
lsto
lsu
lsum
lsungur
lsvari
lsvi
lsy
lt
ltd
lti
ltu
ltum
ltun
lu
lua
lubla
lublað
lubo
luc
luca
lucas
lucius
lucky
lucy
ludvig
ludwig
luefni
lui
luigi
luis
luke
lukku
luku
lula
lulaga
lulega
lum
lumbi
lumbus
lumbusar
lun
luna
lund
lunda
lundi
lundu
lungnabo
lungu
lungun
lunnar
lunni
lunum
lupinus
lur
lurnar
lus
lusail
luso
luspa
lust
lusto
luther
luton
lutu
luvert
luverð
luzern
luð
luðu
luðust
lva
lvan
lvason
lvaður
lveig
lver
lverja
lverjar
lverjum
lverk
lverki
lverkið
lverkum
lvi
lvir
lvu
lvubre
lvuleiki
lvuleikir
lvuleikja
lvuleikjum
lvuleikur
lvuleikurinn
lvum
lvun
lvuna
lvunarfræði
lvunni
lvupo
lvur
lvurnar
ly
lyf
lyfið
lyfja
lyfjum
lyft
lyfta
lyfti
lyftir
lygi
lykilhlutverk
lykilhlutverki
lykilinn
lykill
lykillinn
lykla
lyklar
lykt
lykta
lyktanir
lyktar
lyktað
lyktaði
lyktum
lyktun
lyktunartillo
lympi
lynch
lyndon
lynette
lynn
lynx
lyon
lyst
lystigarður
lythgoe
lzt
lægi
lægir
lægju
lægra
lægri
lægsta
lægsti
lægt
lægum
lægð
læk
lækinn
lækjargo
lækka
lækkar
lækkað
lækkaði
lækkun
lækna
læknablaðið
læknadeild
læknar
læknasko
lækni
lækninga
lækningajurtir
lækningar
læknir
læknirinn
læknis
læknisfræði
læknum
lækur
lær
læra
lærdo
læri
lærir
lærisveina
lærisveinar
lærisveinn
lærisveinum
lærið
lærlingur
lært
lærða
lærði
lærðu
lærður
læsa
læsi
læsir
læst
læsti
læt
læti
lætr
lætur
læðingi
lþjo
m
ma
maa
maas
maastricht
mabil
mabili
mabilinu
mabilið
mabils
mabilsins
mabilum
mabo
maborg
maborgar
mabu
mabundin
mabundið
mac
macarthur
maccarthy
macdonald
machine
macintosh
mack
macmillan
macos
mad
madagaskar
made
madeira
madeline
madison
madonna
madri
madrid
madsen
mafi
mag
maga
magazine
magdalena
magdeburg
magellan
magic
magn
magna
magnesi
magni
magnu
magnus
magra
magufuli
maguire
mahayana
maho
mai
maiden
mail
main
maine
maines
mainz
maja
majo
major
maka
makao
makast
make
makedo
makhno
maki
making
makri
makt
mal
mala
malari
malasi
malavi
malcolm
maldi
male
mali
malmo
malta
malthus
mama
mamenn
mamma
mammals
mamo
man
mana
management
manar
manchester
mandari
mandela
mandi
mandy
mane
manga
manhattan
mani
manila
manitoba
mankiw
mann
manna
mannafe
mannama
mannanafnanefnd
mannanna
mannano
mannavo
mannaða
manndra
manneldis
manneskja
manneskjan
manneskju
manneskjur
mannfall
mannfjo
mannfo
mannfræði
mannheim
manni
manning
manninn
manninum
mannkyni
mannkynið
mannkyns
mannkynsso
mannleg
mannlega
mannlegrar
mannlegri
mannlegt
mannli
mannre
manns
mannsins
mannsli
mannsnafn
mannsnafnið
manntal
manntali
manntalinu
manntalið
mannu
mannvirki
mannvirkja
mannvirkjum
mans
mansfeld
mansju
manska
manson
manstu
manti
manu
manual
manuel
manum
many
mao
map
maps
mapunkti
mar
mara
maracana
maradona
marar
marburg
marc
marcel
marcellus
march
marcia
marco
marcos
marcus
mare
marg
marga
margan
margar
margaret
marge
margfalda
margfalt
margfeldi
margfo
margin
margir
margoft
margra
margre
margs
margsinnis
margskonar
margt
margur
margvi
mari
maria
marianne
marie
marilyn
marin
marine
marinn
marino
mario
marion
marit
marita
mariti
maritima
maritinu
maritið
marits
maritsins
maritum
mark
marka
markahæsti
markahæstu
markahæstur
markako
markalaust
markamunur
markan
markar
markarfljo
markast
markato
markað
markaði
markaðinn
markaðir
markaðnum
markaðssetningu
markaður
markaðurinn
markeisari
market
markgildi
marki
markinu
markið
markmaður
markmið
markmiði
markmiðið
markmiðum
marks
marku
markvert
markverðir
markvisst
markvo
marley
marmara
marnir
maro
marokko
mars
marseille
marshall
marska
mart
marta
marteinn
martha
marti
martin
martini
maru
marvin
marx
marxi
marxisma
mary
maryland
marz
mas
masar
masdo
mash
masi
mask
maskeið
maso
mason
mass
massa
massachusetts
massi
masson
mast
master
masters
mat
mata
matal
matalinu
matalið
matar
matargerð
mataræði
matast
mathbb
mathbf
mathew
mathiesen
mathrm
mati
matilda
matinn
mato
matreiðslu
matreiðslubo
matrix
matso
matt
matter
mattha
matthew
matthi
matthias
matthildur
matti
matur
maturinn
matvo
matvæla
matvæli
matvælum
maurer
maurice
maveldi
maveldis
mavæðingu
max
maxi
maxim
maxima
maximianus
maximilian
maximus
maxwell
may
mayen
mayer
maynard
mayotte
mazz
maætt
maættkvi
mað
maði
maðr
maður
maðurinn
mb
mba
mbin
mbl
mblo
mborð
mborðsleikari
mbum
mc
mccain
mccarthy
mccartney
mccorvey
mcdonald
mcdonnell
mcg
mcgee
mcgovern
md
mdi
mdu
me
meaning
mechelen
mecklenburg
med
medes
medi
media
medicago
medical
medici
medicine
medieval
medvedev
meester
meet
mega
megas
megi
megin
megina
meginatriðum
megineldsto
meginhluta
meginhluti
meginland
meginlandi
meginlandinu
meginlandið
meginlands
meginlandsins
meginreglur
megið
megn
megni
megnið
megum
mehmed
meiddist
mein
meina
meinað
meindy
meini
meint
meinta
meir
meira
meiri
meiriha
meirihluta
meirihluti
meirihlutinn
meistara
meistaradeild
meistaradeildar
meistaradeildinni
meistaraflokki
meistaraflokks
meistaraflokkur
meistaragra
meistaraliða
meistaramo
meistarana
meistarapro
meistarar
meistari
meiði
meiðsla
meiðsli
mekka
mekong
mel
melampsora
melanotaenia
melanotaeniidae
melavellinum
melbourne
melissa
mellifera
melo
melstað
melsteð
melum
melunum
memorial
memory
memphis
men
mendur
mengi
mengið
mengjafræði
mengun
meni
menjar
menn
mennasta
mennina
menning
menningar
menningarleg
menningarli
menningarma
menningarmiðsto
menningarsamfe
menningarsjo
menningarso
menningarstri
menningarverðlaun
menningu
mennirnir
mennsku
mennt
mennta
menntakerfi
menntama
menntamenn
menntasko
menntastofnanir
menntavi
menntaður
menntun
menntunar
mental
meo
mer
mera
merakerfi
mercedes
mercury
meri
merian
merið
merk
merka
merkar
merkasta
merkasti
merkel
merki
merkileg
merkilegt
merking
merkingar
merkingu
merkingunni
merkinu
merkir
merkis
merkið
merkja
merkjum
merkt
merktar
merkti
merktir
merktur
merku
merkur
merkustu
mers
meso
messa
messi
messu
messur
mest
mesta
mestalla
mestan
mestar
mesti
mestmegnis
mesto
mestri
mestu
mestum
mestur
met
meta
metal
metallica
metan
metano
metaphysics
method
metin
metinn
metið
metnað
metorða
metra
metrar
metri
metro
metropolitan
metrum
metso
metternich
metum
metur
mety
mexi
mexico
mey
meyer
meyjar
meyko
með
meðal
meðalhiti
meðalsto
meðaltal
meðaltali
meðan
meðferð
meðferðar
meðferðis
meðfram
meðframleiðandi
meðgo
meðho
meðlima
meðlimi
meðlimir
meðlimirnir
meðlimum
meðlimur
meðmælandi
meðr
meðstjo
meðtekið
meðto
meður
meðvitund
mfru
mfræði
mg
mgast
mgr
mh
mhu
mi
mia
miami
michael
michaels
michel
michelangelo
michele
michelle
michigan
michx
mick
microsoft
middle
midnight
mie
mifflin
mig
mighty
miguel
mik
mikael
mike
mikhai
mikhail
mikil
mikill
mikilla
mikillar
mikilli
mikils
mikilvæg
mikilvæga
mikilvægar
mikilvægari
mikilvægasta
mikilvægasti
mikilvægi
mikilvægir
mikilvægra
mikilvægt
mikilvægu
mikilvægum
mikilvægur
mikilvægustu
mikinn
mikit
mikið
mikja
mikla
miklabæ
miklagarði
miklar
mikli
miklir
miklu
miklum
milan
milano
milda
mildi
mile
miles
miley
military
miljo
mill
millennium
miller
milli
millibili
milligo
millinafn
millino
milliri
milliste
millistri
milliti
milljarð
milljarða
milljarðar
milljo
mills
millum
milos
milt
milton
min
mind
mindanao
minds
ming
mingarbu
mingarhættu
mingu
mingveldisins
minh
mini
minjar
minjasafn
minjasafnið
minn
minna
minnar
minnast
minneapolis
minnesota
minni
minniha
minnihluta
minnihlutaho
minnihlutastjo
minning
minningar
minningargrein
minningu
minnir
minnisblað
minnisblaði
minnismerki
minnist
minnisvarða
minnisvarði
minnið
minnka
minnkandi
minnkar
minnkað
minnkaði
minnkun
minnkuðu
minnst
minnsta
minnsti
minnstu
minnti
minntist
minogue
minor
minu
minum
mir
miranda
mirror
mis
misha
misheppnaða
misheppnaðist
misjafnt
misjo
miskonar
miskunn
miskunnar
mislegt
misli
mismunandi
mismunun
misnotkun
miss
missa
missandi
misseri
missi
mission
missir
mississippi
missouri
misst
missti
missto
misstu
mist
mistekist
misto
mit
mitchell
miti
mitt
mix
mið
miða
miðalda
miðaldir
miðar
miðast
miðausturlo
miðað
miðaði
miðbaug
miðbaugs
miðbik
miðborg
miðborgarinnar
miðborgin
miðborgina
miðborginni
miðbæ
miðbæjarsko
miðbænum
miðbær
miðfirði
miðflokksins
miðflokkurinn
miðha
miðhe
miðhluta
miði
miðja
miðjan
miðjarðarhaf
miðjarðarhafi
miðjarðarhafinu
miðjarðarhafið
miðjarðarhafs
miðju
miðjum
miðjumaður
miðjunni
miðla
miðlar
miðli
miðlum
miðlun
miðnætti
miðo
miðpunktur
miðri
miðstjo
miðsto
miðsty
miðsvæðis
miður
miðuð
miðvikudegi
mjallhvi
mjanmar
mjer
mjo
mju
mk
mkirkja
mkirkjan
mkirkju
mkirkjuna
mkirkjunnar
mkirkjunni
ml
mlega
mlu
mlum
mlun
mlur
mm
mma
mmi
mmu
mmum
mnefnd
mnum
mo
mobile
mobutu
mode
model
modern
mohamed
mohammad
mohr
moi
mola
mold
molda
moldavi
moldo
molecular
moll
molly
moltke
mon
monaco
monar
monarson
monetary
money
mongo
monica
monk
mono
monograph
monroe
mons
monster
monsters
monsu
mont
montana
monte
montevideo
montfort
montgomery
montia
montre
montreal
monument
moody
moon
moore
mor
mora
moral
morales
moran
more
morfi
morgan
morgnana
morgni
morgun
morgunblaðinu
morgunblaðið
morgunblaðsins
morguninn
morguns
moritz
mormo
morning
morris
morrison
morthens
morton
morð
morðin
morðinginn
morðinu
morðið
mosa
mosar
moses
mosfelli
mosfellsbæ
mosfellsbæjar
mosfellsbær
mosfellssveit
mosi
moskan
moski
mosku
moskva
moskvu
moss
most
mot
motalisti
mother
motion
motor
mount
mountain
mountains
mountbatten
move
movement
movie
movies
moyses
mozart
mozilla
mp
mplata
mplatan
mplo
mr
mri
mrs
mrum
ms
msa
msan
msar
msbraut
msdo
msey
msferð
msfirði
msfjo
msgagnastofnun
msins
msir
msjo
msk
mska
mskaga
mskeið
mskeiðum
mskirkja
mskra
msku
mskum
msli
mslið
msloft
mslofti
msloftinu
msloftið
msma
msmanna
msmanns
msmaður
msmenn
msnes
msnesi
mso
msra
msson
mssonar
mssto
mssvæði
mssvæðinu
mssyni
msti
msto
mstra
mstrandi
mstrar
mstraði
mstri
msu
msum
msvald
msvaldið
msveit
msveita
msveitar
msveitarinnar
msveitarmeðlimir
msveitarstjo
msveitin
msveitina
msveitinni
msveitir
msveitirnar
msveitum
msveitunum
msvi
msvo
mt
mto
mtv
mu
much
mugabe
muhammad
mul
muleiðis
mull
mum
mun
muna
munar
munað
munaði
munch
mund
munda
mundar
mundi
mundir
mundu
mundur
muni
muninn
munir
munka
munkar
munkaþvera
munkur
munkurinn
munn
munnar
munni
munninn
munns
munnur
munt
muntu
munu
munum
munur
munurinn
munuð
mur
murat
murinn
murnar
murphy
murray
murum
mus
muse
museum
music
musical
mussolini
must
musteri
musterið
muðu
muður
mv
mverja
mverjar
mverjum
mversk
mverska
mverskar
mverski
mverskir
mverskt
mversku
mverskum
mverskur
mw
my
myanmar
myers
mynd
mynda
myndar
myndarinnar
myndasafn
myndaso
myndast
myndave
myndað
myndaði
myndaðist
myndaður
myndband
myndbandi
myndbandið
myndbo
myndefni
myndho
myndi
myndin
myndina
myndinni
myndir
myndirnar
myndist
myndlist
myndlista
myndlistar
myndlistarkona
myndlistarmaður
myndlistarmenn
myndskreytt
myndskreytti
myndu
myndum
myndun
myndunum
mynduð
mynduðu
mynduðust
mynni
mynstur
mynt
myrka
myrkri
myrkrinu
myrkrið
myrkt
myrkur
myrt
myrti
myrtir
myrtu
myrtur
myrða
myspace
mystery
mæla
mælandi
mæld
mældist
mælendur
mæli
mælieining
mælieiningar
mælikvarða
mælikvarði
mælingar
mælir
mælist
mælskufræði
mælst
mælt
mælti
mæltist
mæltu
mær
mæri
mærin
mæta
mætast
mætir
mætt
mætti
mættu
mættust
mætur
mæðgur
mæði
mæðra
mæður
n
na
naa
naband
nabandi
nabandinu
nabandið
nabands
nabo
naborg
nacional
nafjo
naflo
nafn
nafna
nafnbo
nafngifta
nafnha
nafnhafar
nafni
nafninu
nafnið
nafnorð
nafns
nafnsins
nagasaki
nagdy
nagorno
nagy
nahaf
nai
najdorf
nako
nali
nam
name
namen
names
nami
namibi
namo
namu
nan
nana
nancy
nand
nandi
nanjing
nann
nanna
nanning
nano
nans
nansen
nantes
nanum
naomi
naparte
napo
napole
napoleon
napoleons
napoli
nar
nara
narborg
narfi
narfljo
narfundurinn
narho
narhorn
narhorni
nari
narkonungur
narmaður
narmið
narmiðum
narmu
narnir
naro
narorso
narsson
narsviðið
narti
nas
nasa
nasar
nasdo
nash
nashville
nasi
nasista
nasistar
nasistum
nasjo
nasnið
naso
nassa
nassau
nassen
nasser
nasson
nassonar
nast
nasta
nasto
nat
natalie
natan
nate
nathan
nation
national
nations
native
nato
natri
natu
natural
naturalis
nature
nau
nauka
nauki
naukinn
nauman
naumast
naumlega
naut
nautho
nautin
nautið
nauð
nauðgað
nauðgun
nauðsyn
nauðsynleg
nauðsynlega
nauðsynlegar
nauðsynlegt
nauðum
navajo
navarra
navatnssy
navi
navu
nað
naða
naðar
naðarfe
naðarha
naðarins
naðarkirkjan
naðarkirkjunnar
naðarkirkjunni
naðarlega
naðarra
naðarsto
naði
naðinn
naður
naðurinn
naþing
naþingi
nb
nba
nbc
nbil
nbjo
nchen
nchez
ncia
ncis
nd
nda
ndado
ndal
ndann
ndans
ndanum
ndar
ndason
nde
ndel
ndez
ndheim
ndheimi
ndheims
ndi
ndin
ndina
ndinn
ndinni
ndir
ndist
ndla
ndlun
ndna
ndo
ndru
ndu
nduhli
ndum
ndun
ndunum
nduo
ndur
ndust
nduð
nduðu
nduðum
ndverðu
ndy
ne
nea
neal
near
nebraska
nebria
neburg
ned
need
nees
nef
nefi
nefinu
nefið
nefna
nefnast
nefnd
nefnda
nefndar
nefndarinnar
nefndi
nefndin
nefndina
nefndinni
nefndir
nefndist
nefndr
nefndu
nefndum
nefndur
nefndust
nefni
nefnifall
nefnifalli
nefnilega
nefnir
nefnist
nefnt
nei
neikvætt
neikvæð
neikvæða
neikvæðar
neikvæðum
neil
neill
nein
neina
neinar
neinn
neinni
neins
neinu
neinum
neita
neitar
neitað
neitaði
neitt
neituðu
nelson
nema
nemanda
nemandi
nematus
nemenda
nemendafe
nemendum
nemendur
nemi
nemur
nen
nenda
nendum
nendur
neo
nepal
nepals
nepos
neptu
ner
nera
nero
nerva
nes
nesi
nesinu
nesið
neskaupstað
nesti
net
netanyahu
netherlands
neti
netinu
netið
netla
netu
network
netþjo
neu
neumann
neustadt
nevada
never
neville
nevis
new
newcastle
newman
news
newton
newtons
next
ney
neydd
neyddi
neyddir
neyddist
neyddu
neyddur
neyddust
neysla
neyslu
neyta
neytenda
neytendala
neytendur
neytt
neytti
neyð
neyða
neyðara
neyðarlo
neyðist
nez
neðan
neðanjarðar
neðanma
neðansja
neðar
neðarlega
neðra
neðri
neðst
neðsta
neðstu
nf
nfc
nfeld
nfiskur
nfl
ng
nga
ngan
ngar
nghljo
ngi
ngin
nginn
nginni
nginum
ngkona
ngkonan
ngkonu
ngkonur
ngla
nglar
nglarnir
ngleik
ngleikir
ngleikjum
ngleiknum
ngleikur
ngleikurinn
ngli
nglo
nglum
ngnum
ngo
ngr
ngrad
ngs
ngsdo
ngsindversk
ngsins
ngsri
ngsson
ngssonur
ngssyni
ngt
ngu
ngua
ngul
nguleið
nguleiðir
ngull
ngullinn
ngulo
ngulær
ngum
nguma
ngumaður
ngun
nguna
ngunnar
ngunni
ngunum
ngur
ngura
ngurinn
ngusti
nguti
ngva
ngvakeppni
ngvan
ngvar
ngvara
ngvarans
ngvarar
ngvari
ngvarinn
ngvu
ngvum
nh
ni
nia
niccolo
nice
nicholas
nichols
nicholson
nick
nicola
nicolas
nicole
nicolson
nidad
nie
niels
nielsen
nietzsche
nigel
night
nigra
nijmegen
niki
niko
nikola
nikula
nileg
nilega
nilegt
nilegur
nils
nimzoindversk
nin
nina
nine
ning
ninga
ningar
ningarfrelsi
ningarinnar
ningbo
ningi
ningin
ninginn
ningnum
nings
ningu
ningum
ninguna
ningunni
ningur
ningurinn
ninja
ninn
ninni
nintendo
ninu
ninum
nio
nir
nirnar
nirvana
nis
niseri
nishorn
nisma
nismans
nismi
nist
nista
nistaflokknum
nistaflokks
nistaflokksins
nistaflokkur
nistaflokkurinn
nistar
nistastjo
nisti
nistum
niturbindandi
niue
nix
nixon
nið
niðaro
niðr
niðri
niður
niðurbrot
niðurlanda
niðurlo
niðurstaða
niðurstaðan
niðursto
nja
njarðvi
njo
nk
nkhljo
nki
nko
nku
nkum
nkunum
nl
nleika
nleikaferð
nleikaferðalag
nleikana
nleikar
nleikarnir
nleikum
nleikunum
nlf
nlist
nlistar
nlistarha
nlistarinnar
nlistarkona
nlistarli
nlistarmanna
nlistarmanninum
nlistarmaður
nlistarmaðurinn
nlistarmenn
nlistarmo
nlistarmyndband
nlistarmyndbo
nlistarsko
nlistarstefna
nlistarstefnan
nlistarstefnu
nlistarstefnur
nlistaru
nlistarverðlaunin
nlistin
nlistina
nlistinni
nm
nn
nna
nni
nninn
nnu
nnum
nnun
nnunar
nnunarfarið
nnunargo
nnunin
nnunum
nnur
nnuð
nnuðinum
nnuðir
nnuðu
nnuður
nnuðurinn
no
noah
nobel
nobunaga
noel
noether
noir
nokia
nokkra
nokkrar
nokkrir
nokkru
nokkrum
nokkur
nokkura
nokkurar
nokkurir
nokkurn
nokkurra
nokkurrar
nokkurri
nokkurs
nokkurskonar
nokkurt
nokkuru
nokkurum
nokkuð
non
none
nonni
nora
nord
nordal
norden
nordic
nordisk
nordiske
noreg
noregi
noregs
noregskonungar
noregskonungi
noregskonungs
noregskonungur
noregur
norges
norma
norman
normandi
normanna
normannar
norn
norrko
norræn
norræna
norræni
norrænir
norrænna
norrænni
norrænt
norrænu
norrænum
norse
norsk
norska
norske
norski
norskir
norskt
norsku
norskum
norskur
north
northern
norton
norway
norwegian
norwich
norð
norðan
norðanlands
norðanverðu
norðanverðum
norðar
norðarlega
norðaustan
norðaustri
norðaustur
norðausturhluta
norðausturkjo
norðausturs
norðlendingar
norðmanna
norðmenn
norðmo
norðr
norðri
norður
norðura
norðurhe
norðurhluta
norðurhlutanum
norðurhluti
norðurhveli
norðurland
norðurlanda
norðurlandanna
norðurlandara
norðurlandi
norðurlands
norðurlandskjo
norðurljo
norðurlo
norðurmy
norðurpo
norðurri
norðurs
norðursja
norðursjo
norðurslo
norðurstro
norðurþing
norðvestan
norðvestri
norðvestur
norðvesturhe
norðvesturhluta
norðvesturkjo
norðvesturs
nos
not
nota
notagildi
notanda
notandi
notandinn
notar
notast
notað
notaðar
notaði
notaðir
notaðist
notaður
note
notenda
notendakassar
notendum
notendur
notes
nothing
nothofagus
noti
notice
notið
notkun
notkunar
notre
nottingham
notum
notuð
notuðu
notuðust
nou
nov
nova
novel
november
now
noxi
nozick
nprins
nprinsessa
nr
ns
nsa
nsbo
nsdo
nseri
nsfja
nshjarta
nsho
nsins
nsk
nska
nski
nskir
nsko
nskra
nsku
nskum
nskumælandi
nskun
nskur
nsmaður
nsmessuno
nsmi
nso
nsson
nssonar
nssyni
nst
nster
nsto
nsu
nsum
nsvi
nsy
nt
nti
nto
ntri
ntu
ntum
ntunnar
ntunni
ntur
nturnar
ntutegund
nu
nublo
nuclear
nudaginn
nudegi
nuforno
nuleg
nulega
nulegar
nulegt
nulegum
nuleika
num
numanna
numb
number
numbers
numenn
numin
numinn
numið
numo
nun
nuna
nunar
nundarfirði
nundur
nunna
nunnar
nunni
nunum
nur
nurnar
nursing
nus
nusar
nusi
nusko
nusta
nustan
nustu
nustuna
nustunnar
nustunni
nustur
nustustu
nutt
nutu
nuuk
nuð
nuði
nuðina
nuðir
nuðu
nuðum
nuður
nv
nvarp
nvarpi
nvarpinu
nvarpið
nvarps
nvarpsefni
nvarpshlutverk
nvarpsins
nvarpsmaður
nvarpsmynd
nvarpsmyndinni
nvarpsseri
nvarpssto
nvarpsto
nvarpsu
nvarpsþa
nvarpsþætti
nvarpsþættinum
nvarpsþættir
nverja
nverjar
nverjum
nverk
nversk
nverska
nverski
nverskir
nverskra
nverskri
nverskt
nversku
nverskum
nverskur
nvo
ny
nykur
nypd
nyrst
nyrsta
nyrsti
nyrstu
nyrðra
nyrðri
nyse
nyti
nytjar
nzt
nægilega
nægilegt
nægir
nægja
nægju
nægt
nægð
nægði
nægðir
nægður
næmi
næmiskerfi
næmiskerfið
nær
nærast
næringarefni
næringu
nærist
nærliggjandi
nærmynd
nærri
næst
næsta
næstefsta
næstefstu
næsti
næstsi
næststærsta
næststærsti
næstu
næstum
næstur
nætur
næturklu
næturlagi
næturnar
næði
næðu
nþættir
o
oak
oasis
ob
obama
object
oblast
oc
occidentalis
ocean
ocelot
och
ochotona
octavi
october
odd
odda
oddado
oddgeir
oddi
oddny
odds
oddsdo
oddsson
oddssonar
oddur
oddviti
oder
odyssey
oecd
of
ofan
ofanverðri
ofar
ofarlega
ofbeldi
ofbeldis
off
office
official
ofri
ofso
oft
oftar
oftast
oftlega
ofur
ofurbikarinn
ofurli
ofursti
ofveiði
og
ogenes
oh
ohf
ohio
ohlin
oil
ois
ok
okkar
okkur
oklahoma
okt
okto
oktober
ol
olaf
old
oldkyndighed
ole
olga
olgeirsson
oli
oliver
olivia
olivier
olli
ollu
olof
olsen
olympic
om
omar
omega
on
once
one
online
only
ono
ontari
ontario
ony
oostende
op
open
opera
operation
opin
opinber
opinbera
opinberan
opinberar
opinberir
opinberlega
opinberra
opinberrar
opinberri
opinbers
opinbert
opinberu
opinberum
opinn
opinska
opið
opna
opnar
opnast
opnað
opnaðar
opnaði
opnaðist
opnaður
opnir
opnu
opnum
opnun
opnunarleik
opnuð
opnuðu
opt
or
orange
orar
orchestra
order
oregon
org
organisti
organization
orgel
orgelið
ori
oriental
orientalis
orientation
origin
original
origins
orka
orkneyja
orkneyjar
orkneyjum
orku
orkubu
orkugjafa
orkuma
orkustofnun
orkuveitu
orlando
orle
orleans
orlof
orm
ormar
ormi
orminum
orms
ormsson
ormur
ormurinn
oro
orraætt
orrell
orri
orrusta
orrustan
orrustu
orrustum
orrustuna
orrustunni
orrustur
orsaka
orsakast
orsakir
orso
orson
ort
ortega
orti
orusta
orustu
orð
orða
orðabo
orðaforða
orðalag
orðatiltæki
orði
orðin
orðinn
orðinu
orðið
orðlengja
orðnar
orðnir
orðre
orðro
orðræðu
orðs
orðsending
orðsifjar
orðsins
orðspor
orðsti
orðum
orðunum
os
osaka
osar
oscar
osi
oslo
oss
osseti
osti
ostrur
ostur
oswald
other
otiorhynchus
otkell
ottawa
otto
ou
our
out
output
ova
over
overline
owen
owens
own
oxford
oxi
oz
p
pa
pabba
pabbi
pablo
pac
pacific
padding
paeonia
page
pageid
pages
pago
pahlavi
pakistan
pakistans
pakka
pakkhu
palace
palermo
palesti
palestine
palestrina
palgrave
pall
palli
palme
palmer
palæk
pami
pan
panama
pandi
panic
paolo
papa
papen
paper
papers
pappi
papu
par
para
paradi
paradise
paragvæ
parakeelya
params
parc
pareto
pari
paris
parið
park
parker
parks
parma
parmeni
parnir
part
parti
partial
partur
party
pas
pascal
passa
passi
past
pasta
pat
patinkin
patra
patreksfirði
patreksfjo
patri
patricia
patrick
patti
patton
paul
paula
paulo
pauly
pavel
pavelic
pavogi
pavogs
pavogur
pax
pað
paði
paður
pbs
pc
pdf
pe
peace
peak
pearl
pearson
peas
peder
pedersen
pedro
peel
peeta
pei
peking
pel
pele
pelo
pen
penelope
penguin
penh
pening
peninga
peningama
peningana
peningar
peningum
peningunum
penn
pennsylvani
pennsylvania
penny
people
pepsi
pepsideild
per
pera
peran
perceval
percy
perfect
peri
period
perkins
perlur
pero
perry
persa
persaflo
persi
persneska
persnesku
perso
person
personal
perspective
persson
perth
peru
perunni
perur
peruso
peta
pete
peter
peters
petersen
peterson
petit
petri
petro
petrus
pez
peð
pfalz
pg
ph
phd
phi
phil
philadelphia
philadelphiu
philip
philipp
philippe
phillip
phillips
philosophers
philosophical
philosophy
phnom
phoenix
photo
photos
php
phyllostachys
physical
phytomyza
pi
piano
picea
picture
pictures
pierce
pierre
pieter
pietro
piltar
piltinn
piltur
pilturinn
pin
pinaceae
pine
ping
pink
pinn
pinus
pinyin
pioneer
pipar
pirates
pistill
pistols
pitt
pittsburgh
pixar
pizza
pið
pjetur
pl
pla
place
plan
planet
plant
planta
plantan
plantað
plantna
plants
plast
plasti
plata
platan
plate
plati
platna
plato
platon
platoni
platons
play
player
playstation
please
plinius
plo
plotarea
plu
plus
plymouth
pm
pmatrix
pmid
pmo
png
pnum
po
podocarpus
poe
poecilia
poems
poetry
poincare
point
poka
pokann
pokanum
poke
pol
polar
pold
police
policy
political
politics
polo
poly
pomacea
pommern
pompeius
pong
pontus
pop
pope
popp
popper
poppto
popular
population
populus
porsche
port
portal
porter
portland
porto
portu
pos
post
postula
postuli
pot
potsdam
pott
pottaplo
potter
pottinn
pottinum
poul
poulsen
pour
powell
power
pp
ppu
ppudy
ppum
ppun
ppur
pr
pra
practice
pradesh
prag
pratchett
pre
predika
predikaði
predikunarsto
premier
prenta
prentað
prentaðar
prentfrelsi
prenti
prentsmiðjan
prentun
prentunar
prentuð
present
president
presley
press
pressan
pressun
prest
presta
prestar
prestasko
prestho
presti
prestinn
prestinum
preston
prestr
prests
prestsdo
prestsins
prestssetur
prestum
prestur
presturinn
pri
price
pride
primera
primetime
primrose
primula
primulaworld
prince
princess
princeton
principles
prins
prinsessa
prinsessu
prinsi
prinsinn
print
private
prix
prize
prjo
pro
problem
problems
proceedings
production
productions
professional
professor
profile
program
progressive
project
proppe
protesters
provence
providence
province
pru
prus
pry
ps
pseudotsuga
psins
psja
psk
pska
pskar
pski
pskir
pskra
pskri
pskt
psku
pskum
pskur
psskagastri
pst
psta
psychology
pt
pto
pu
pubescens
public
publication
publications
published
publisher
publishers
publishing
publius
pubu
pukeppni
pukeppnin
pulo
pum
puma
pumanna
pumeistaramo
pumeistari
pumenn
pumo
pun
puna
punar
pund
punda
punkt
punkta
punktar
punkti
punktum
punktur
punkturinn
punni
punum
puo
pur
pura
pure
puri
purinn
purple
pus
pusambandinu
pusambandið
pusambandsins
pust
put
putnam
puð
puðu
puðust
puþinginu
puþingið
puþjo
pverjahreppi
px
py
python
q
qin
qinghai
qu
quality
quarashi
quarterly
que
quebec
queen
queens
queensland
quercus
quest
qui
quine
quinn
quisling
r
ra
raba
rabbi
rabil
rabilinu
rabo
race
racemosa
rachel
raddað
raddir
radi
radio
rado
raf
rafa
rafael
rafbi
rafbo
rafeind
rafeinda
rafeindir
rafhlaða
rafhlo
rafirði
rafjo
rafknu
rafmagn
rafmagni
rafmagns
rafmagnsgi
rafmo
rafn
rafnsson
raforku
raforkuframleiðslu
rafra
rafræn
rafræði
rafsto
rafto
rage
ragna
ragnar
ragnari
ragnaro
ragnars
ragnarsdo
ragnarsson
ragnheiðar
ragnheiði
ragnheiður
ragnhildar
ragnhildi
ragnhildur
rahnju
railway
rain
rainbow
rainer
rak
raka
rakar
rakel
rakin
rakið
raks
raksstri
rakst
rakt
raku
ral
rali
ralph
ralrif
ram
rami
ramma
rammi
ramo
ramos
ramsey
ran
rana
rand
randi
random
randver
ranga
rangar
range
rangers
rangla
ranglega
rangri
rangt
rangur
rangurinn
rangurs
rangursri
rani
raninn
raninum
ranir
rann
ranna
ranni
rannsaka
rannsakar
rannsakað
rannsakaði
rannso
rannveig
rans
ranska
ranum
rapp
rapparar
rappari
rar
rara
rard
rari
rarik
rarinn
rarins
rarinsdo
rarinsson
rarinssonar
rarnir
ras
rasi
rask
raska
rasmus
rasmussen
raso
rason
raspu
rast
rasta
rasto
rasy
rat
rata
ratar
rategund
rati
ratsja
ratug
ratuga
ratugar
ratugarins
ratugi
ratugina
ratuginn
ratuginum
ratugnum
ratugs
ratugsins
ratugum
ratugur
ratugurinn
rau
rauf
raufarho
rauk
raun
raunar
raunhyggja
raunhyggju
raunin
rauninni
raunir
raunto
raunveruleg
raunverulega
raunverulegt
raunverulegum
raunverulegur
raunveruleika
raunveruleikanum
raunvi
raust
rautt
rauzer
rauð
rauða
rauðan
rauðar
rauðara
rauðasandi
rauðbru
rauðgreni
rauðho
rauði
rauðiboli
rauðir
rauðri
rauðs
rauðsokkahreyfingin
rauðu
rauðum
rauður
raven
rawls
ray
raymond
rayyan
rað
raða
raðanna
raðað
raði
raðinu
raðir
raðið
raðs
raðsdo
raðsho
raðsins
raðsra
raðssko
raðsstjo
rb
rbakka
rbanus
rbergur
rbi
rbo
rborg
rborgarsvæði
rborgarsvæðinu
rbru
rbruni
rbu
rby
rc
rca
rd
rda
rdag
rdal
rdals
rdalsjo
rdalur
rdan
rdani
rdar
rdi
rdo
rdoba
rdra
rdu
rdæmaskipan
rdæmi
rdæminu
rdæmis
rdæmið
rdæmum
re
rea
read
reader
reading
reagan
real
realism
reality
reason
rebecca
recife
record
records
rect
red
reddi
redirect
reed
reeves
ref
reference
refir
refni
refnis
refsa
refsað
refsia
refsing
refsingar
refsingu
refsire
refur
regel
reggi
regi
regie
regina
region
regla
reglan
reglna
reglu
reglugerð
reglugerðir
regluleg
reglulega
reglulegar
reglulegt
reglulegu
reglulegum
reglulegur
reglum
reglunnar
reglunni
reglunum
reglur
reglurnar
regn
regnbogafiskar
regnbogafiskum
regnhli
regni
regnsko
regnti
rehder
rei
reid
reiddi
reiddist
reif
reign
reiki
reikistjarna
reikistjo
reikna
reiknar
reiknað
reikninga
reikningana
reikninganna
reikninginn
reikningum
reikningunum
reiknirit
reims
reipi
reis
reisa
reist
reistar
reisti
reistir
reistu
reistur
reit
reita
reiti
reitni
reitnum
reitt
reitum
reið
reiða
reiðar
reiðhjo
reiði
reiðir
reiðu
reiðubu
reiður
reka
rekast
reki
rekin
rekinn
rekist
rekið
rekja
rekkju
reknar
reknir
rekstra
rekstri
rekstur
reksturinn
rektor
rekur
related
relations
release
reli
religion
relt
rem
rembrandt
remember
remix
remote
ren
rena
renault
rendur
rene
reneafjo
reni
renna
renndi
renni
rennsli
rennur
rens
renti
report
repu
republic
required
reri
reru
res
resa
research
reserve
reska
resku
reskur
resource
resources
reticulata
retrieved
return
reu
reustri
review
reviews
revolution
rex
rey
reyk
reykho
reykholt
reykholti
reykja
reykjadal
reykjahli
reykjanes
reykjanesbæ
reykjanesbær
reykjanesi
reykjanesskaga
reykjavi
reykjavik
reykjum
reykur
reykvi
reyna
reynast
reynd
reyndar
reyndi
reyndist
reyndu
reyndur
reyndust
reyni
reynir
reynist
reynistað
reynisætt
reynolds
reynsla
reynslu
reynst
reynt
reyðarfirði
reyðarfjo
reyðilagðist
rez
rf
rfa
rfagra
rfagri
rfaði
rfc
rfe
rfell
rfelli
rfesta
rfestar
rfesting
rfestingar
rfestingu
rfestingum
rfin
rfina
rfirisey
rframlo
rfræðinga
rfræðingar
rfræðingum
rfræðingur
rfu
rfublo
rfubolta
rfubolti
rfuknattleik
rfuknattleiksfe
rfuknattleiksmaður
rfuknattleiksmenn
rfuknattleikur
rfum
rfursti
rfurstinn
rfuðu
rg
rga
rgang
rgangi
rgangs
rgangur
rgb
rgen
rgengi
rgerð
rgi
rgin
rgjo
rglju
rgo
rgripi
rgu
rgum
rgun
rgunarba
rgund
rgunum
rguðust
rgvin
rgvinsdo
rgvinsson
rhagsa
rhagslega
rhallsson
rhallur
rhertogadæmið
rhertogi
rhildur
rhizobium
rhljo
rho
rhode
rhodes
rhododendron
rhu
rhver
rhvert
rhæfir
rhæft
rhæfð
rhæfða
rhæfði
rhæfðum
rhæð
ri
ria
ribati
ribes
ric
rica
ricardo
rice
rich
richard
richards
richardson
richie
richter
rick
ricky
rico
riddara
riddarakross
riddarakrossi
riddaralið
riddarar
riddaraso
riddari
riddarinn
ride
rider
ridley
rie
rif
rifi
rifin
rifinn
rifið
rifnar
rifnir
rifu
rigg
right
rightarrow
rights
rigning
rik
rikerfi
rikerfið
riley
rilla
rilli
rimaður
rin
rina
ring
ringa
ringar
ringarmynd
ringarrit
ringin
rings
ringu
ringum
rinn
rinnar
rinni
rins
rinu
rio
rir
ris
risa
risann
risans
risanum
risasto
rise
risi
risinn
risið
risk
risson
rist
rista
risu
rit
rita
ritani
ritar
ritara
ritari
ritaskra
ritað
ritaðar
ritaði
ritdo
ritgerð
ritgerðinni
ritgerðir
ritgerðum
ritha
ritho
riti
ritin
ritinu
ritið
ritma
ritro
ritry
rits
ritsi
ritsins
ritskoðun
ritsti
ritstj
ritstjo
ritsto
ritsty
ritum
ritun
rituð
rituðu
ritverk
river
rix
rið
riðill
riðils
riðilsins
riðið
riðla
riðlakeppni
riðlakeppninni
riðli
riðlinum
riðlum
riðu
rja
rjo
rju
rjum
rk
rka
rkenni
rki
rkin
rkina
rkinni
rklaustri
rkmenistan
rkoma
rkomu
rkro
rkross
rku
rkum
rkun
rkunum
rkur
rkurinn
rkuð
rkuðu
rkuðum
rkvir
rla
rlaga
rland
rlandi
rlands
rlausn
rleg
rlega
rlegar
rlegt
rlegu
rlegum
rlegur
rleif
rleifsson
rleifur
rlendi
rlendis
rlensku
rli
rlinga
rlingar
rlingur
rlo
rlum
rlygur
rma
rmagn
rmagna
rmagnað
rmagnaði
rmagni
rmagns
rmann
rmannara
rmanni
rmanns
rmannsson
rmeistari
rmenn
rmenni
rmenningar
rmo
rmu
rmum
rmuni
rmunum
rn
rna
rnado
rnanda
rnandi
rnar
rnara
rnarandsto
rnarfar
rnarformaður
rnarfundi
rnarhe
rnarinnar
rnarkosningar
rnarkosningarnar
rnarkosningum
rnarkosningunum
rnarlamb
rnarlamba
rnarleiðtogi
rnarlo
rnarly
rnarma
rnarmaður
rnarmenn
rnarra
rnarri
rnarskra
rnarsvæði
rnartaumunum
rnarti
rnason
rnasonar
rnasyni
rnað
rnaði
rnberg
rnbraut
rnbrauta
rnbrautarsto
rnbrautartengingu
rnbrautin
rnbrautir
rnefni
rnenda
rnendum
rnendur
rnes
rnesi
rnessy
rni
rnin
rnina
rninn
rninni
rnir
rnið
rnkerfi
rnlagado
rnlagara
rnlagaþing
rnlagaþings
rnleysi
rnma
rno
rns
rnsdo
rnsi
rnskipan
rnskipun
rnskipunarlo
rnspeki
rnsson
rnssonar
rnssyni
rnsy
rnten
rnu
rnuathugunarsto
rnufræði
rnufræðingar
rnufræðingur
rnufræðivefnum
rnufræðivefurinn
rnum
rnumerki
rnun
rnuna
rnunar
rnunnar
rnunni
rnunum
rnur
rnurnar
rnus
rnusar
rnusto
rnustri
rnuðu
rnvalda
rnvo
rny
ro
road
rob
robbie
robert
roberto
roberts
robertson
robin
robinson
robot
robson
rochester
rock
rockefeller
rocky
roddur
rodri
roe
rofið
roger
rogers
rokk
rokkhljo
rokki
rokkið
rokks
rokksins
rokkso
rokkto
roland
role
roll
rolling
roma
roman
romance
romano
rome
romeo
romney
ron
ronald
ronaldo
room
rooney
roosevelt
root
rorty
ros
rosa
rosar
rose
rosea
roses
roskov
ross
rossi
rostock
roth
rotterdam
round
rousseau
routledge
roux
rove
rovers
row
rowling
roy
royal
royale
rp
rpu
rpum
rpun
rpuðu
rr
rra
rrar
rre
rri
rriddarakross
rrækt
rræði
rs
rsa
rsamlega
rsauka
rsbyrjun
rsdag
rsdo
rshavn
rsho
rshvoli
rsi
rsigur
rsins
rsjo
rsk
rska
rskarandi
rskemmdist
rski
rskir
rsko
rskra
rskt
rsku
rskum
rskur
rskurð
rskurðaði
rskurði
rskurður
rskvo
rsla
rslan
rslit
rslita
rslitakeppni
rslitakeppnina
rslitakeppninni
rslitaleik
rslitaleikinn
rslitaleikir
rslitaleiknum
rslitaleikur
rslitaleikurinn
rslitin
rslitum
rslitunum
rslok
rsloka
rslu
rslum
rslunnar
rslunni
rslur
rsma
rsmi
rsmo
rsno
rso
rsson
rssonar
rsssf
rssyni
rst
rstaka
rstakan
rstakar
rstakir
rstaklega
rstakra
rstakrar
rstakri
rstaks
rstakt
rstakur
rstaða
rsteinn
rsti
rstjo
rsto
rsu
rsveit
rsy
rt
rta
rtal
rtalið
rti
rto
rttemberg
rtu
rtum
rtur
ru
ruauðlinda
ruauðlindir
rubens
rubi
ruby
ruddi
ruddist
ruddu
rudolf
rufræði
rufræðingar
rufræðingur
rufræðingurinn
rufræðistofnun
rufræðistofnunar
rufus
rugg
rugga
ruggan
rugglega
ruggt
rugla
ruglað
ruh
ruhamfarir
ruhr
ruhu
ruja
rule
ruleg
rulega
rulegar
rulegt
rulegu
rulegum
rum
rumerki
rumsfeld
run
runa
runar
rund
rundar
rundur
runeyti
runga
rungar
rungum
rungur
runn
runna
runnar
runner
runni
running
runnið
runnu
runo
runum
rupert
rur
rurnar
rus
rusar
rusdo
rush
russell
russells
russia
russian
russon
rust
rustig
rut
ruth
rutherford
ruti
rutt
ruv
ruvernd
ruverslun
ruvi
ruvætti
ruætt
ruð
ruðin
ruðu
ruðum
ruðunum
rva
rval
rvallasy
rvalsdeild
rvalsdeildar
rvalsdeildarinnar
rvalsdeildin
rvalsdeildina
rvalsdeildinni
rvalsdeildir
rvalslið
rvanda
rvandi
rvar
rveldi
rvera
rverslunin
rverufræði
rverufræðingur
rverum
rverur
rvezi
rvi
rvinnslu
rvirki
rvirkjun
rviðarætt
rvo
rvum
ry
ryan
rydb
ryggi
ryggis
ryggisma
ryggisra
ryðja
ryþmablu
rzburg
rædd
ræddi
ræddu
ræfajo
ræfi
ræfum
ræki
rækilega
rækja
rækju
rækt
rækta
ræktað
ræktaðar
ræktaðir
ræktaður
ræktun
ræktunar
ræktuð
ræna
rændi
rændu
ræningi
ræningja
ræningjar
ræningjarnir
ræningjum
rænt
rær
rætast
rætt
rættist
rætur
ræð
ræða
ræðar
ræði
ræðir
ræðismaður
ræðr
ræðst
ræðu
ræðum
ræðumaður
ræðumenn
ræðuna
ræðunni
ræður
rð
rða
rðar
rðarbungu
rðardal
rðardo
rðarson
rðarsonar
rðarsyni
rði
rðin
rðina
rðinn
rðinni
rðir
rðist
rðr
rðu
rðugt
rðum
rðun
rðunarre
rðung
rðungi
rðungsu
rðungu
rðungur
rðunin
rðunni
rðunum
rður
rðurinn
rðust
rðusti
rðuð
rðuðu
rþing
rþingi
rþingið
rþu
s
sa
saa
saab
sabbath
sabella
sabellu
sabet
sabetar
sabetu
saccharum
sachsen
sacramento
saddam
safa
safari
safelli
safi
safirði
safjarðar
safjarðarbær
safjarðardju
safjarðarsy
safjo
safn
safna
safnahu
safnar
safnast
safnað
safnaðarins
safnaði
safnaðist
safni
safninu
safnið
safnplata
safnplo
safnsins
safold
saga
sagan
sagna
sagnanna
sagnaritarar
sagnaritari
sagnaritun
sagnfræði
sagnfræðinga
sagnfræðingar
sagnfræðingur
sagnfræðingurinn
sagnir
sagnorð
sagst
sagt
sagðar
sagði
sagðir
sagðist
sagður
sahara
sai
said
saint
saints
sak
saka
sakama
sakana
sakanir
sakar
sakað
sakaði
sakaðir
sakaður
sakfelldur
sakir
sakka
saklaus
sakleysi
sakso
sakynni
sal
sala
salah
salat
salazar
saldar
saleh
salem
sali
salinn
salisbury
salix
salka
salman
salmo
salnum
salo
salofttegunda
salt
salti
salurinn
salvador
salvo
salzburg
sam
sama
saman
samanber
samanborið
samanburð
samanburðar
samanburði
samanburður
samanlagt
samanlo
samans
samansafn
samansett
samanstanda
samanstendur
samansto
samantekt
samantha
samar
samband
sambandi
sambandinu
sambandið
sambands
sambandsins
sambandsland
sambandslandanna
sambandslandinu
sambandslands
sambandslandsins
sambandslo
sambandsly
sambandsra
sambandsri
sambandsþingið
sambandsþingsins
sambi
sambo
sambu
sambucus
samby
sambærileg
sambærilegt
samdar
samdi
samdra
same
sameiginleg
sameiginlega
sameiginlegan
sameiginlegri
sameiginlegt
sameiginlegu
sameiginlegum
sameiginlegur
sameign
sameina
sameinar
sameinast
sameinað
sameinaða
sameinaðar
sameinaði
sameinaðir
sameinaðist
sameinaðs
sameinaður
sameind
sameinda
sameindali
sameindir
sameining
sameiningar
sameiningu
sameininguna
sameinuð
sameinuðu
sameinuðust
samfara
samfarir
samfe
samfelld
samfellda
samfellt
samferða
samfleytt
samfylkingar
samfylkingarinnar
samfylkingin
samfylkinguna
samgangna
samgo
samheiti
samhengi
samherja
samhliða
samhljo
sami
samin
saminn
samið
samkeppni
samkomu
samkomuhu
samkomulag
samkomulagi
samkomulaginu
samkomulagið
samkvæmt
samkynhneigð
samkynhneigðra
samkynhneigður
samli
samlokur
samma
samnefnd
samnefnda
samnefndri
samnefnds
samnefndu
samnefndum
samnefni
samnefnt
samning
samninga
samningar
samningarnir
samningaviðræður
samningi
samninginn
samningnum
samnings
samningsins
samningu
samningum
samningur
samningurinn
samo
samra
samruna
samry
samræma
samræmi
samræða
samræðan
samræðum
samræðunni
samræður
sams
samsetning
samsetningu
samsett
samsi
samskipta
samskipti
samskiptum
samskonar
samson
samspil
samstarf
samstarfi
samstarfinu
samstarfið
samstarfs
samstarfsmaður
samstarfsmenn
samstarfsverkefni
samstaða
samsteypustjo
samsto
samstundis
samsvara
samsvarandi
samsvarar
samsvo
samsy
samsæri
samsæriskenningar
samsætur
samt
samtaka
samtakanna
samtal
samtals
samti
samto
samu
samuel
samveldinu
samveldisins
samveldið
samvinna
samvinnu
samvinnufe
samþykki
samþykkir
samþykkis
samþykkja
samþykkt
samþykktar
samþykkti
samþykktir
samþykktu
samþykktur
san
sana
sancho
sand
sanda
sanders
sandgerði
sandi
sandinn
sandinum
sandra
sands
sandsi
sandur
sandvi
sandy
sanir
sankara
sankti
sanna
sannanir
sannar
sannarlega
sannast
sannað
sannaði
sannfæra
sannfærandi
sanni
sannindi
sannlega
sannleika
sannleikann
sannleikanum
sannleikur
sannur
sans
sansibar
sanskri
sant
santa
santi
santiago
santo
santos
sao
sar
sara
sarah
sarajevo
sardi
sardini
sari
sarinnar
sarpur
sarsy
sartre
sarvi
sasa
sasko
sassani
sast
sat
satan
satellite
sato
satru
satt
satu
saturday
saul
sauma
saur
saurbæ
sautja
sauð
sauða
sauðafelli
sauðamaður
sauðfe
sauðfja
sauði
sauðina
sauðlauksdal
savanna
save
savi
savoja
sax
saxa
saxifraga
saxland
saxlandi
saxlands
saxo
say
says
saætt
sað
saði
sbekistan
sbending
sbendingar
sbendingu
sberg
sbjo
sbo
sbr
sbru
sc
scalemajor
scandinavian
scavo
scene
schelling
schengen
scheveningen
scheving
schimp
schmidt
schneider
scho
schofield
school
schools
schram
schro
schu
schult
schultz
schumacher
schumpeter
schwartz
schweitzer
schwyz
sci
science
sciences
scientific
scipio
scotia
scotland
scott
scottish
scream
screen
script
sdi
sdo
sdy
se
sea
sean
search
searle
season
seattle
sebastes
sebastian
sebo
second
secret
section
securities
security
sedgwick
see
sef
sefi
sefs
sefur
seg
sega
segi
segir
segist
segið
segja
segjandi
segjast
segjum
segl
seglin
seglið
seglskip
seglsku
seglum
segulsvið
segði
segðu
sei
seido
seifs
seifur
sein
seinast
seinasta
seinasti
seinn
seinna
seinni
seint
seinustu
sek
sekan
sekir
sekkur
sekt
sektir
seku
sekur
sel
sela
selassie
seld
selda
seldar
seldi
seldir
seldist
seldu
seldur
seldust
selected
selesti
self
selfoss
selfossi
seli
selinu
selir
selja
selju
sella
sello
selma
selmu
selst
selt
seltjarnarnes
seltjarnarnesi
seltjarnarness
selur
selvogi
sem
semi
semja
semur
sen
sena
send
senda
sendar
sendi
sendifulltru
sendiherra
sendiherrar
sendimaður
sendimenn
sendinefnd
sending
sendingar
sendingin
sendingu
sendir
sendira
sendu
sendum
sendur
seneca
senegal
senn
sennilega
sennilegt
sense
sent
senta
senti
sentimetra
sentimetrar
sentum
sep
separator
sepsson
sept
september
ser
seras
serba
serbar
serbi
serbneska
serbneskur
serbum
serena
serenu
sergio
seri
serie
series
sero
server
service
services
ses
sesar
sess
sesselja
sessi
sest
set
seta
seth
seti
setið
setja
setjast
setlo
setning
setninga
setningar
setningin
setningu
setningunni
sett
settar
setti
settir
settist
settu
settum
settur
settust
setu
setur
setzt
seu
seven
seventh
severus
sevilla
sex
sexta
sexti
sextos
sextus
sexual
sey
seyta
seyði
seyðisfirði
seyðisfjarðar
seyðisfjo
sezt
seðlabanka
seðlabankann
seðlabankans
seðlabankanum
seðlabankastjo
seðlabanki
seðlabankinn
seðlar
sferill
sfirðinga
sfo
sfr
sfreyja
sfreyjan
sfreyju
sfru
sg
sgeir
sgeiri
sgeirs
sgeirsdo
sgeirsson
sgerður
sgo
sgra
sgri
sgrjo
sha
shaanxi
shadow
shaf
shafi
shah
shakespeare
shall
shan
shandong
shanghai
shannon
shansi
sharon
shaw
she
sheen
sheffield
shek
shelby
sheld
sheldon
shell
shenyang
shepherd
sherlock
sherman
shi
shift
shijiazhuang
shli
sho
shokki
short
should
show
shu
si
sibirica
sichuan
sid
side
sidney
sie
sierra
sif
sig
sigfu
sigga
siggi
sighvatr
sighvats
sighvatsson
sighvatur
sigla
sigldi
sigldu
siglingafe
siglingar
siglingu
siglingum
siglir
siglt
siglufirði
siglufjarðar
siglufjo
sigmar
sigmund
sigmundar
sigmundi
sigmundsson
sigmundur
sign
signy
sigra
sigrandi
sigrar
sigrast
sigrað
sigraði
sigraðir
sigraður
sigri
sigrinum
sigru
sigrum
sigruðu
sigtryggur
sigur
sigurbjo
sigurgeir
sigurgeirsson
sigurinn
sigurjo
sigurlaug
sigurlið
sigurmark
sigurs
sigursæla
sigursælasta
sigursæli
sigurvegara
sigurvegarar
sigurvegari
sigurvegarinn
sigurveig
sigurð
sigurðar
sigurðardo
sigurðarson
sigurði
sigurðr
sigurðsson
sigurðssonar
sigurðssyni
sigurður
sigvalda
sigvaldi
sigþo
sihanouk
sik
sikiley
sikileyjar
sikileyjarvo
sil
silence
silent
silfri
silfur
silfurs
silfurverðlaun
silicon
silja
silki
sill
silla
siloli
silung
silungsveiði
silva
silver
silvio
sim
simbabve
simeone
simmi
simmons
simo
simon
simone
simple
simpson
simpsons
simulium
sin
sina
since
sinclair
sinda
sindaakademi
sindadeild
sindafe
sindagrein
sindaheimspeki
sindaleg
sindalega
sindalegar
sindalegri
sindalegum
sindamanna
sindamaður
sindamaðurinn
sindamenn
sindamo
sindanna
sindarannso
sindaska
sindastofnun
sindasvið
sindavefnum
sindavefur
sindavefurinn
sindbað
sindi
sindin
sindri
sindum
sinensis
sinfo
sing
singa
singapu
singar
singarha
singarinnar
singarnar
singarorð
singasi
singasnið
singatækni
singer
singh
singin
single
singu
singum
singuna
singunni
sink
sinkranz
sinn
sinna
sinnar
sinni
sinnir
sinnt
sinnti
sinnum
sins
sint
sinu
sinum
sir
sira
sire
sirius
sirnar
sis
sisters
sit
sitala
sitalan
site
sitja
sitjandi
sitji
sitkagreni
sito
sitr
sitt
sitthvoru
situr
six
sixth
size
sið
siðaskipti
siðaskiptin
siðaskiptunum
siðbo
siðferði
siðfræði
siði
siðum
siður
sja
sjaldan
sjaldgæf
sjaldgæft
sjaldgæfur
sjaldnar
sjaldnast
sjaldse
sjan
sjanghæ
sje
sjer
sjerasade
sji
sjo
sju
sk
ska
skadal
skafta
skaftafellssy
skafti
skaga
skagafirði
skagafjarðar
skagafjarðarsy
skagafjo
skagans
skaganum
skagastro
skagfirðinga
skagi
skal
skaland
skalandi
skalands
skalf
skall
skalla
skallagri
skalt
skaltu
skamma
skamman
skammli
skamms
skammstafað
skammsto
skammt
skammta
skammti
skan
skanderbeg
skandinavi
skap
skapa
skapandi
skapar
skapast
skapað
skapaði
skapaðist
skapi
skaplyndi
skapur
skar
skara
skarast
skari
skarl
skarla
skarphe
skars
skarsdo
skarsson
skarsverðlaun
skarsverðlauna
skarsverðlaunahafar
skarsverðlaunin
skarð
skarði
skarðið
skarðsa
skarðsstro
skatt
skatta
skattheimtu
skattlo
skattur
skaut
skautafe
skað
skaða
skaðabo
skaðabætur
skaði
skaðleg
ske
skefjum
skegg
skeggi
skeggja
skeggjason
skein
skeið
skeiða
skeiðara
skeiði
skeiðum
skel
skeldy
skelfingu
skelin
skeljar
skeljum
skeljungur
skell
skella
skemma
skemmd
skemmdir
skemmdist
skemmdum
skemmdust
skemmri
skemmst
skemmt
skemmta
skemmtanir
skemmti
skemmtikraftur
skemmtilegt
skemmtun
skemmtunar
skemmu
skemmuna
skemmunni
skepna
skepnu
skepnur
sker
skera
skerið
skert
skerða
skessa
skessan
skeyti
skeytt
skeð
skeði
ski
skift
skiftist
skikkju
skil
skila
skilaboð
skilaboðin
skilaboðum
skilar
skilað
skilaði
skildi
skildir
skildist
skildu
skildust
skilgetin
skilgetinn
skilgreina
skilgreind
skilgreindar
skilgreindi
skilgreindir
skilgreindur
skilgreining
skilgreiningar
skilgreiningin
skilgreiningu
skilgreinir
skilgreint
skilin
skilinn
skilið
skilja
skiljanlegt
skiljast
skilji
skilma
skilnað
skilnaði
skilning
skilningi
skilningur
skilti
skilur
skiluðu
skilvirkni
skilyrði
skilyrðum
skin
skinn
skinnbo
skinner
skinni
skip
skipa
skipafe
skipan
skipanir
skipanna
skipar
skipaskurður
skipasmi
skipað
skipaði
skipaðir
skipaður
skipherra
skipherrann
skipi
skipin
skipinu
skipið
skips
skipsins
skipst
skipstjo
skipt
skipta
skiptar
skiptast
skipti
skiptin
skipting
skiptingin
skiptingu
skiptir
skiptis
skiptist
skiptið
skiptu
skiptum
skiptur
skiptust
skipulag
skipulagi
skipulagningu
skipulagsstofnun
skipulagt
skipulagðar
skipulagði
skipulega
skipuleggja
skipulo
skipum
skipun
skipunum
skipuð
skipuðu
skipverjar
skir
skja
skjal
skjala
skjalasafn
skjaldarmerki
skjaldarmerkinu
skjaldarmerkið
skjaldbo
skjaldborg
skjali
skjo
skju
skjuhli
sko
skora
skorar
skorað
skoraði
skordy
skorendakeppni
skorin
skorinn
skorið
skornum
skort
skorta
skorti
skortir
skorts
skortur
skorun
skoruð
skoruðu
skorður
skorðuð
skosk
skoska
skoski
skoskir
skosku
skoskum
skoskur
skot
skota
skotakonungs
skotakonungur
skotar
skotfimi
skothri
skoti
skotin
skotinn
skotið
skotland
skotlandi
skotlands
skotmo
skotta
skottu
skotum
skotvopn
skoða
skoðana
skoðanako
skoðanir
skoðar
skoðað
skoðaði
skoðun
skoðunar
skoðunum
skoðuð
skra
skrar
skrauts
skref
skrefið
skrefum
skreið
skreytt
skri
skrif
skrifa
skrifar
skrifari
skrifað
skrifaðar
skrifaði
skrifaður
skriflega
skrifstofa
skrifstofu
skrifstofur
skrifstofustjo
skrift
skriftir
skrifum
skrifuð
skrifuðu
skriðdreka
skriðdy
skriðjo
skriðu
skriður
skro
skru
skrudda
skry
sks
skt
sku
skufall
skugga
skuggi
skuggsja
skuld
skulda
skuldabre
skuldar
skuldatryggingara
skuldbindingar
skuldbindingum
skuldi
skuldir
skuldsson
skuldum
skuldur
skuli
skulu
skulum
skuluð
skum
skumælandi
skun
skuna
skunni
skunum
skur
skurðurinn
skutu
skuðu
skv
sky
skyld
skylda
skyldar
skyldi
skyldir
skyldleika
skyldu
skyldum
skyldur
skylt
skyn
skyndi
skyndilega
skynfæri
skyni
skynja
skynjun
skynsemi
skyr
skyrtu
skytta
skæri
skæruliða
skæruliðar
skærum
sl
sla
slado
slag
slagorð
slagsma
slagverk
slaka
slam
slams
slamska
slamstru
slan
sland
slandi
slands
slandsbanka
slandsbanki
slandsmeistarar
slandsmeistaratitilinn
slandsmeistaratitlar
slandsmeistari
slandsmet
slandsmiðum
slandsmo
slandsso
slandsstrendur
slapp
slar
slarinnar
slasaðist
slason
slasonar
slaug
slava
slavar
slavi
slavnesk
slavneska
slayer
sle
sleep
sleg
slega
slegar
slegin
sleginn
slegið
slegum
sleifs
sleifsson
sleifur
sleikja
sleit
slendinga
slendingabo
slendingar
slendingasagna
slendingaso
slendingaþættir
slendingum
slendingur
slendingurinn
slensk
slenska
slenskan
slenskar
slenski
slenskir
slenskra
slenskrar
slenskri
slensks
slenskt
slensku
slenskum
slenskur
slenzk
slenzka
slenzkar
slenzkir
slenzkra
slenzkt
slenzku
slenzkum
sleppa
sleppir
sleppt
sleppti
slepptu
sleppur
slf
sli
slima
slimar
slimum
slin
slingu
slinni
slir
slitið
slitnaði
slitu
sljo
slo
slobodan
sloppið
slow
slu
slueiningar
slum
slumann
slumanna
slumanni
slumanns
slumaður
slumaðurinn
slumenn
slumo
slunnar
slunni
slunum
sluppu
slur
slurnar
sluumdæmi
slys
slysavarnafe
slysi
slysið
slæm
slæma
slæmar
slæmt
slæmu
slæmur
slær
sm
sma
smakka
smala
smalamaður
smali
smalinn
small
smallville
sme
smella
smi
smit
smitast
smith
smitsju
smið
smiðju
smiður
smiðurinn
smjo
smo
smund
smundar
smundi
smundsson
smundur
smynd
smyndari
smyndastofa
smyndir
smyndum
smyndun
smærri
sn
sna
snail
snake
snape
snar
snara
snari
snati
sne
snemma
sneri
snerist
snerta
snerti
snertingu
snertir
sneru
snerust
snesku
sni
sniglar
snir
snið
sniðganga
sniði
sniðið
sniðum
snja
snjallsi
snjo
sno
snorra
snorrason
snorri
snow
snu
snum
sny
snyrtivo
snæbjo
snæfellsbær
snæfellsjo
snæfellsnes
snæfellsnesi
snæfellsnessy
snær
snæða
snæði
snæðis
snæðið
so
sobeide
soc
soccer
social
society
sociology
socrates
sofa
sofandi
soffi
sofi
sofið
sofna
sofnar
sofnað
sofnaði
sofnaður
software
soju
sokka
sokkið
solanum
solda
sole
solid
solveig
som
some
somerset
something
somoza
son
sona
sonar
sonarsonur
song
songs
sonic
soninn
sonja
sonr
sons
sonu
sonum
sonur
sonurinn
sony
sophie
sorbonne
sorbus
sorg
soul
soult
sound
source
sources
south
southern
sove
soðið
sp
spa
space
spaces
spaki
spakur
spandau
spanish
spanna
spannar
spara
sparisjo
sparks
spart
sparta
spears
special
species
speech
speed
speki
spena
spencer
spendy
spenna
spennan
spennandi
spennu
spesi
speyer
sphagnum
spi
spider
spike
spil
spila
spilar
spilara
spilarar
spilari
spilavi
spilað
spilaði
spilaðir
spilaður
spilið
spilla
spilling
spillingu
spillt
spilun
spiluð
spiluðu
spin
spinna
spinoza
spirit
spirou
spjald
spjaldto
spjallsi
spjo
split
spo
spor
sporbaug
spori
sporna
sport
sporting
sports
spotify
spp
sprakk
spratt
sprengdi
sprengdu
sprengiefni
sprenging
sprengingu
sprengisandi
sprengja
sprengju
sprengjua
sprengjuflugve
sprengjum
sprengjur
sprengjutilræði
spretta
sprettur
spring
springa
springer
springfield
springs
springur
sprota
sprottið
sprungu
sprungur
spruttu
spu
spur
spurja
spurning
spurninga
spurningar
spurningin
spurningu
spurningum
spurt
spurði
spurðist
spurðu
spurður
spy
spyr
spyrill
spyrja
spyrr
spænsk
spænska
spænski
spænskir
spænskt
spænsku
spænskum
spænskur
sql
sqrt
square
squash
sr
sra
srael
sraela
sraels
sraelsher
sraelska
sraelsri
srebrenica
sri
ss
ssa
ssakeisara
ssakeisari
ssakonungur
ssar
ssaveldi
sseldorf
ssi
ssins
ssland
sslandi
sslands
ssnesk
ssneska
ssneski
ssneskir
ssneskra
ssneskt
ssnesku
ssneskum
ssneskur
sson
ssonar
ssp
sst
sstjo
ssum
ssur
ssyni
st
sta
staddir
staddur
stade
stadio
stadion
stadium
staf
stafa
stafar
stafað
stafaði
stafi
stafinn
stafir
stafirnir
stafni
stafnum
stafro
stafræn
stafræna
stafrænt
stafrænu
stafs
stafsetning
stafsetningu
stafur
stafurinn
stage
stak
staka
stakk
stal
stali
stan
stand
standa
standandi
standard
standast
standi
standinu
standið
stands
stanford
stangast
stanley
stanton
star
starf
starfa
starfandi
starfar
starfað
starfaði
starfi
starfinu
starfið
starfrækt
starfræktur
starfs
starfsa
starfsemi
starfsemin
starfsferill
starfsfo
starfsheiti
starfsho
starfsmanna
starfsmannastjo
starfsmaður
starfsmenn
starfsmo
starfssemi
starinnar
stark
starr
starri
stars
starsamband
starsambandi
start
state
states
static
station
statistics
statt
status
stað
staða
staðall
staðallinn
staðama
staðan
staðar
staðarho
staðarins
staðbundin
staðfest
staðfesta
staðfesti
staðfestingar
staðfestingu
staðfestir
staðfestu
staðfestur
staðgengill
staðhæfingar
staði
staðin
staðinn
staðir
staðist
staðið
staðla
staðlað
staðlinum
staðnum
staðnæmdist
staðra
staðreynd
staðreyndir
staðsetja
staðsetning
staðsetningar
staðsetningu
staðsett
staðsettar
staðsettir
staðsettur
staður
staðurinn
stbro
stbræður
ste
steel
steen
stef
stefa
stefan
stefani
stefna
stefnan
stefndi
stefndu
stefni
stefnir
stefnt
stefnu
stefnum
stefnuma
stefnumo
stefnuna
stefnunnar
stefnunni
stefnur
stefnuskra
stefnuyfirly
steig
stein
steina
steinabo
steinar
steinarr
steinbeck
steindir
steindo
steinefni
steingervingar
steingri
steini
steininn
steininum
steinn
steinninn
steino
steins
steinsdo
steinsson
steinsteypu
steinum
steinunn
steinunnar
steinunni
steinþo
stekkur
stela
stella
stellu
stelpa
stelpan
stelpu
stelpur
stelpurnar
stelur
stemma
stendr
stendur
stenman
stephan
stephen
stephensen
stereo
stereocaulon
sterk
sterka
sterkan
sterkar
sterkara
sterkari
sterkasta
sterki
sterkir
sterklega
sterkri
sterkt
sterku
sterkum
sterkur
sterkustu
sterling
sterlingspund
steve
steven
stevens
stewart
steypa
steypt
steypti
steyptist
steyptu
stfangin
stfanginn
sthu
sti
stiftamtmanns
stiftamtmaður
stig
stiga
stigatafla
stigi
stigin
stigið
stigs
stigu
stigum
still
stilla
stilli
stillir
stillt
stin
stina
sting
stinga
stingi
stings
stingur
stinn
stir
stirnar
stirni
stirt
stið
stjarna
stjarnan
stjo
stju
stma
stmynd
sto
stock
stockholm
stofn
stofna
stofnana
stofnanda
stofnandi
stofnanir
stofnar
stofnað
stofnaða
stofnaðar
stofnaði
stofnaðir
stofnaður
stofnenda
stofnendum
stofnendur
stofnfe
stofnfundur
stofni
stofninn
stofninum
stofnsett
stofnsins
stofnskra
stofnum
stofnun
stofnunar
stofnunarinnar
stofnunin
stofnunina
stofnuninni
stofnunum
stofnuð
stofnuðu
stofnþverma
stofu
stofufangelsi
stofuna
stofunni
stoke
stokk
stokkho
stokkið
stokkro
stokkseyri
stokkunum
stolið
stone
stones
stop
stoppa
store
stories
storm
stormi
stormur
story
stoð
stoðir
stoðsendingar
stoðum
stra
strali
stralir
stralska
stralskir
stralskur
stralsund
strand
strandar
strandasy
strandaði
strandhe
strandho
strandir
strandlengju
stranga
strangar
strangari
strangt
strauk
straum
strauma
straumar
straumhvo
straumi
straumsvi
straumum
straumur
straumurinn
strauss
strawson
strax
street
streitu
strendur
streng
strengi
strengjahljo
strengur
streyma
streymdu
streymir
stri
strik
striker
string
strja
strju
stro
strong
stropharia
stru
structure
stry
stræti
strætisvagnar
stræto
sts
stsdo
stsjov
stsson
stu
stuart
studaginn
studd
studdi
studdu
studegi
studies
studio
studios
study
stukku
stum
stund
stunda
stundakennari
stundar
stundarkorn
stundað
stundaðar
stundaði
stundaður
stundi
stundin
stundir
stundu
stundum
stunduð
stunduðu
stungið
stungu
stunum
stur
stureyðingar
stureyðingum
sturinn
sturla
sturlu
sturlunga
sturlungao
sturlungu
sturluson
sturlusonar
sturs
sturshljo
sturvi
stus
stusar
stutt
stutta
stuttan
stuttar
stuttgart
stuttir
stuttlega
stuttmynd
stuttri
stuttski
stuttu
stuttum
stuttur
stuðla
stuðlar
stuðlað
stuðlaði
stuðning
stuðningi
stuðnings
stuðningsmanna
stuðningsmaður
stuðningsmenn
stuðningsmo
stuðningur
stuðst
stuðu
sty
stykki
stykkisho
style
styrjaldarinnar
styrjo
styrk
styrka
styrki
styrkir
styrkja
styrkjum
styrkleika
styrkt
styrktar
styrkti
styrkur
styrmir
stytt
stytta
styttan
stytting
styttri
styttu
styttur
styðja
styðjast
styðst
styður
stækka
stækkandi
stækkar
stækkað
stækkaði
stækkaður
stækkun
stækkuð
stækkuðu
stærra
stærri
stærst
stærsta
stærstan
stærsti
stærstu
stærstum
stærstur
stærð
stærðar
stærðfræði
stærðfræðileg
stærðfræðilega
stærðfræðingar
stærðfræðingur
stærðfræðinnar
stærðum
stæða
stæðan
stæði
stæðist
stæðu
stæðum
stæður
stþjo
stþo
su
sua
subgenus
subject
subsp
such
sugar
suggested
suhrkamp
sullivan
sultan
sum
suma
sumar
sumarbu
sumardaginn
sumarhu
sumarið
sumarlagi
sumarliði
sumarma
sumaro
sumars
sumarti
sumir
summa
summary
summer
sumra
sumri
sumrin
sumrum
sums
sumstaðar
sumt
sumu
sumum
sumur
sun
suna
sund
sunda
sunday
sunderland
sundi
sundinu
sundir
sundið
sundlaug
sundlaugar
sunds
sundum
sundur
sung
sungin
sungið
sungu
sunna
sunnan
sunnanverðri
sunnanverðu
sunnanverðum
sunnar
sunnarlega
sunni
sunnudag
sunnudaginn
sunnudagur
sunnudegi
sunnudo
sunum
suorði
super
supernatural
support
sur
surname
surtsey
survey
susan
suspect
sussex
sustainable
suu
suvi
suzhou
suzuki
suð
suðaustan
suðaustri
suðaustur
suðausturhluta
suðausturs
suðr
suðri
suðu
suður
suðura
suðurafri
suðurenda
suðurey
suðureyjar
suðureyjum
suðurgo
suðurhluta
suðurhlutanum
suðurhluti
suðurhveli
suðurkjo
suðurland
suðurlandi
suðurlands
suðurnes
suðurnesja
suðurnesjum
suðurri
suðurs
suðurskautslandinu
suðurskautslandið
suðurstro
suðust
suðvestan
suðvestri
suðvestur
suðvesturhluta
suðvesturkjo
suðvesturs
sv
sva
svaf
sval
svala
svalbarða
svalbarði
svals
svalur
svanborg
svandi
svanhildur
svanur
svar
svara
svarar
svarað
svaraði
svarfaðardal
svarfaðardalsa
svarfaðardalur
svarfdæla
svari
svarið
svart
svarta
svartahaf
svartahafi
svartahafs
svartan
svartar
svartfjallaland
svartfjallalandi
svartfjallalands
svartho
svarti
svartidauði
svartir
svartma
svartra
svarts
svartur
svava
svavar
svavars
svavarsdo
svavarsdottir
svavarsson
svefn
svefnherbergi
svefni
svefnleysi
svefns
svei
sveif
sveiflast
sveiflur
svein
sveina
sveinar
sveinbarn
sveinbjo
sveini
sveininn
sveinn
sveinninn
sveins
sveinsdo
sveinsson
sveinssonar
sveit
sveita
sveitafe
sveitanna
sveitarfe
sveitarinnar
sveitarstjo
sveitastjo
sveitin
sveitina
sveitinni
sveitir
sveitirnar
sveitum
sven
svend
svensk
svenska
sveppa
sveppabo
sveppagreifinn
sveppatal
sveppi
sveppir
sveppum
sveppurinn
sver
sverja
sverri
sverrir
sverris
sverrisdo
sverrisson
sverð
sverði
sverðinu
sverðið
sverðliljuætt
svg
svi
sviga
svigru
svik
svikin
svikið
svip
svipan
svipar
svipað
svipaða
svipaðan
svipaðar
svipaðri
svipaður
svipmyndir
svipt
svipta
svipti
sviptur
svipur
svipuð
svipuðu
svipuðum
sviss
svisslendingar
svissneska
svissnesku
svissneskur
svitandi
svið
sviði
sviðinu
sviðið
sviðsljo
sviðum
svo
svohljo
svokallað
svokallaða
svokallaðan
svokallaðar
svokallaðir
svokallaðri
svokallaður
svoko
svoleiðis
svoli
svona
svonefnd
svonefnda
svonefndu
svonefndum
svæða
svæði
svæðin
svæðinu
svæðis
svæðisins
svæðið
svæðum
swan
swansea
sweden
sweet
swift
swing
sy
sydney
sykri
sykrur
sykur
sykursy
syn
synd
synda
syndir
syngi
syngja
syngur
syni
synir
synja
synjað
synjaði
synonymic
synt
synti
syrpa
system
systematic
systems
systir
systkin
systkina
systkini
systkinin
systkinum
systra
systrum
systur
systurnar
systursonur
syðra
syðri
syðst
syðsta
syðsti
szczecin
sæ
sæfaranum
sæfarinn
sæfi
sæi
sækir
sækja
sækjast
sæktu
sæky
sæl
sæla
sælgæti
sælir
sæll
sæmd
sæmdar
sæmdi
sæmdur
sæmilega
sæmund
sæmundar
sæmundi
sæmundsson
sæmundur
sæng
sængur
sænsk
sænska
sænskar
sænski
sænskir
sænskt
sænsku
sænskum
sænskur
særa
særi
særði
særðist
særðust
sæt
sæta
sæti
sætin
sætinu
sætir
sætis
sætisto
sætið
sætt
sætta
sættast
sætti
sættir
sættist
sættu
sættust
sætum
sætunum
sætur
sævar
sæði
søren
sþ
t
ta
taa
table
tablesi
tabu
tadsi
taf
tafarlaust
tafe
tafirði
tafjo
tafl
tafla
taflan
tage
tagi
taho
tai
taichi
taiwan
taiyuan
tak
taka
takast
take
takeppni
taki
takið
takmarka
takmarkanir
takmarkast
takmarkað
takmarkaða
takmarkaðan
takmarkaðar
takmarkaður
takmo
takt
takti
taktu
tal
tala
talan
talann
talans
talanum
talar
talað
talaði
taldar
taldi
taldir
taldist
tale
tales
tali
talin
talinn
talir
talisma
talist
talið
talk
talma
talna
talnafræði
talo
tals
talsetning
talsins
talska
talski
talskir
talskt
talskur
talsmaður
talsmenn
talsvert
talsverð
talsverða
talsverðum
talsverður
tam
tama
tami
tamil
tan
tana
tanai
tandi
tangshan
tangveldisins
tanir
tanna
tansani
tao
tap
tapa
tapar
tapað
tapaði
tapaðir
taphrina
tapi
taplið
tar
tara
tarar
tardal
tarefni
tari
tarinn
tarlega
tarlegar
tarlegri
tarleikara
tarleikari
tarleikarinn
tarlesning
tarna
tarnir
taro
tarsson
tarti
tarzan
tas
taska
taskaup
taskaupið
tasmani
taspyrnu
taspyrnukeppni
tast
tasta
tatarstan
tate
tatra
tau
taugakerfið
taxonomic
taxonomy
taxus
taylor
tað
taði
tbl
tbla
tbolta
tboltafe
tbolti
tbreidd
tbreiddur
tbreiðsla
tbreiðslan
tbreiðslu
tbreiðslusvæði
tbu
tcp
td
tdauð
tdauðar
tdra
te
teacher
team
teams
technical
technology
ted
teen
tefja
tefla
tefldi
teflt
tefni
tegund
tegunda
tegundanna
tegundar
tegundarinnar
tegundin
tegundina
tegundinni
tegundir
tegundirnar
tegundum
teheran
teikn
teikna
teiknarann
teiknari
teiknað
teiknaði
teiknimynd
teiknimyndablaðinu
teiknimyndaperso
teiknimyndaso
teiknimyndin
teiknimyndir
teikning
teikningar
teikningu
teikningum
teiknuð
tein
teits
teitsson
teitur
tek
tekin
tekinn
tekist
tekið
tekjuhæsta
tekjum
tekjur
tekna
teknar
teknir
tekno
tekr
tekst
tekur
tel
teldi
telegraph
teles
telesar
telescope
telesi
television
teli
telinu
telið
telja
teljandi
teljast
telji
teljist
tell
telst
telur
template
temple
temprað
tempruðum
ten
tenerife
tengd
tengda
tengdafo
tengdamo
tengdar
tengdasonur
tengdi
tengdir
tengdist
tengdu
tengdum
tengdur
tengdust
tengi
tengil
tengill
tenging
tengingar
tengingu
tengir
tengist
tengja
tengjast
tengla
tenglar
tengsl
tengsla
tengslin
tengslum
tengst
tengt
tennessee
tennis
tennur
tennurnar
teno
tensi
teo
ter
teresa
term
terra
terre
terrier
terry
ters
terstru
terti
tesla
testamentinu
testamentisins
testamentið
texas
text
texta
textabrot
textafræði
textafræðilegum
textafræðingur
textaho
textann
textans
textanum
textar
textarnir
textcolor
textdata
texti
textinn
texts
textum
teygir
teygja
teymi
tf
tfallinn
tfestu
tfjo
tflutning
tflutningi
tflutnings
tflutningur
tfo
tfra
tframbjo
tfæra
tfærsla
tfærslu
tfærslur
tg
tga
tgangandi
tgarða
tgefanda
tgefandi
tgefendur
tgefin
tgefið
tgefnar
tgerð
tgerðarmaður
tgjo
tgo
th
tha
thames
than
thant
that
thatcher
the
theater
theatre
theft
their
them
then
theo
theodo
theodor
theodore
theory
ther
theravada
there
therjar
therjarnir
thers
therstru
these
theta
they
thing
things
think
third
this
thluta
thlutað
thlutun
tho
thomas
thompson
thomsen
thomson
thor
thorarensen
thorbjo
thordarson
thorlacius
thoroddsen
thors
thorsteinsson
thought
threatened
three
through
thu
thuja
thule
thumb
thumbnail
thunberg
thverfi
thy
ti
tianjin
tibu
tico
tidsskrift
tienne
tiger
tigir
tign
tigu
til
tilbiðja
tilboð
tilbu
tilefni
tilegumaður
tilegumenn
tileinkað
tileinkuð
tilfelli
tilfellum
tilfinning
tilfinningar
tilfinningu
tilfinningum
tilga
tilgang
tilgangi
tilgangur
tilgangurinn
tilgreina
tilgreind
tilgreinir
tilgreint
tilheyra
tilheyrandi
tilheyri
tilheyrir
tilheyrt
tilheyrði
tilheyrðu
tilhneigingu
tilho
tilia
tilkall
tilkomu
tilkynna
tilkynning
tilkynningu
tilkynnir
tilkynnt
tilkynnti
tilkynntu
till
tilla
tillaga
tillagan
tillar
tillega
tilli
tillit
tilliti
tillits
tillo
tillpos
tilly
tilmælum
tilnefna
tilnefnd
tilnefndi
tilnefndir
tilnefndur
tilnefning
tilnefningar
tilnefningu
tilnefnt
tiloka
tilokað
tilraun
tilrauna
tilraunin
tilraunir
tilraunum
tils
tilskipun
tilstilli
tilstuðlan
tiltekin
tiltekinn
tiltekinna
tiltekinni
tiltekins
tiltekið
tiltekna
tilteknar
tilteknu
tilteknum
tilto
tilurð
tilveru
tilvi
tilvik
tilviki
tilvikum
tilviljun
tilvist
tilvitnanir
tilvitnun
tim
timarit
timberlake
timbri
timbur
timburhu
time
timeaxis
times
timothy
tin
tina
tindar
tindasto
tindi
tindum
tindur
tindurinn
ting
tingar
tingu
tingur
tinn
tinna
tinni
tinu
tir
tis
tist
tisto
tit
titanic
titil
titilinn
titill
titillinn
titla
titlar
titlaður
title
titli
titlinum
titlum
tito
tivelli
tivist
tivistarsvæði
tið
tja
tjad
tjald
tjalda
tjaldbu
tjaldi
tjaldinu
tjaldið
tjaðri
tjingveldisins
tjo
tju
tkoma
tkoman
tkomu
tla
tlagastjo
tland
tlanda
tlandi
tlanna
tlar
tlarnir
tlega
tlegð
tlendinga
tlendingar
tlendingum
tli
tlit
tliti
tlitið
tlits
tlo
tlu
tlum
tlun
tly
tlægur
tm
tma
tmanna
tmenn
tmo
tmundur
tmæla
tmælanna
tmælaskyni
tmælenda
tmælendatru
tmælendum
tmælendur
tmæli
tmælin
tmælt
tmælti
tmæltu
tmælum
tmælunum
tn
tna
tnar
tnefna
tnefnd
tnefndi
tnefndur
tnefningu
tni
tnik
tnin
tningin
tnir
tnum
tnunum
to
today
todd
toga
togara
togarinn
together
tojo
tokugawa
tokyo
tolkien
toll
tolla
tom
tome
tomlin
tommy
ton
tonga
toni
tonight
tonn
tonna
tonnum
tony
too
top
topic
topp
toppdoma
toppi
toppinn
toppnum
toppsætið
tor
torf
torfa
torfason
torfi
torg
torgi
torginu
torgið
torhjo
toronto
torr
torre
torres
torter
torti
tos
toskana
total
tottenham
touch
toulouse
tour
tours
tove
tower
town
toy
tpa
tr
tra
trace
trade
tradition
trafford
train
trajanus
trajanusar
trampe
trans
translation
translator
transnistri
transport
transylvani
trar
traust
trausti
trausts
travel
travis
trað
tre
treatment
tree
trees
trefjar
tregur
treikninga
trek
trekað
trent
tres
trevor
treyju
treyst
treysta
treysti
tri
trichogramma
trier
trifolium
trinity
trinu
trip
tristan
trið
trja
trjo
trna
tro
trommari
trommuleikari
trommur
trompet
trotski
trouble
troy
troða
tru
trudeau
true
trufla
truflun
trujillo
trum
truman
trump
trumps
truss
trust
truth
try
tryggingafe
tryggingar
tryggingarsjo
tryggir
tryggja
tryggt
tryggur
tryggva
tryggvado
tryggvason
tryggvasonar
tryggvi
tryggð
tryggði
tryggðu
ts
tsdal
tsdalshe
tsdo
tse
tsendingar
tsendingu
tsetning
tsetningar
tsetti
tshli
tsins
tsj
tsjma
tskrifast
tskrifaðist
tskrift
tsku
tsky
tsla
tso
tspor
tspyrnu
tsson
tsto
tsu
tsuga
tsy
tt
tta
ttabandalag
ttablaðinu
ttablaðið
ttablaðsins
ttabre
ttafe
ttafo
ttafordo
ttahu
ttahyggju
ttamanna
ttamannabu
ttamannvirki
ttamaður
ttamenn
ttamo
ttan
ttana
ttann
ttanna
ttar
ttara
ttaraðar
ttaraðarinnar
ttaraðir
ttaraðirnar
ttarbo
ttardo
ttarfar
ttarfe
ttarfyrirkomulagi
ttarhljo
ttarho
ttari
ttarinnar
ttarins
ttarlo
ttaro
ttarso
ttarsto
ttarve
ttasamband
ttasky
ttasnið
ttast
ttastjo
ttati
ttavo
ttað
ttaði
ttaðist
ttaður
ttby
ttekt
tter
tti
ttilega
ttin
ttina
ttinda
ttindabara
ttindabrot
ttindado
ttindafe
ttindasa
ttindaskra
ttindi
ttindum
tting
ttingar
ttingen
ttingu
ttinn
ttinni
ttinum
ttir
ttirin
ttirnar
ttist
ttkvi
ttla
ttleika
ttleiki
ttlæta
ttlæti
ttlætis
ttma
ttna
ttni
tto
ttr
ttra
ttri
ttsemi
tttaka
tttakandi
tttakenda
tttakendur
ttto
tttru
ttu
ttugur
ttuhli
ttukona
ttum
ttuma
ttumaður
ttun
ttuna
ttunda
ttundi
ttundu
ttunnar
ttunni
ttunum
ttur
tturfe
tturfyrirtæki
tturina
tturinn
ttursonur
ttust
ttuð
ttuðu
ttuðust
ttvi
ttæka
ttækar
ttækari
tu
tucker
tudor
tufyrirtæki
tug
tuga
tugi
tugir
tugt
tugum
tugur
tugþu
tula
tuli
tull
tum
tuma
tumi
tun
tuna
tunar
tunga
tungan
tungl
tungli
tunglinu
tunglið
tunglsins
tungu
tungudal
tunguma
tunguna
tungur
tunn
tunnar
tunni
tunnu
tunnur
tunum
tupac
tur
turdus
turinn
turkey
turks
turn
turna
turnar
turnarnir
turner
turni
turninn
turninum
turs
tursborg
tursdo
tursson
turssonar
tus
tusamning
tusnu
tust
tuttugasta
tuttugu
tuttugustu
tuu
tuumslags
tuætt
tuð
tuðu
tv
tva
tvanir
tvar
tvarp
tvarpi
tvarpinu
tvarpið
tvarps
tvarpsins
tvarpsleikhu
tvarpsleikrit
tvarpsmaður
tvarpsstjo
tvarpssto
tvarpsþa
tvarðar
tvarði
tvarðs
tvarður
tvað
tvaði
tvaðist
tvega
tvegaði
tveggja
tvegi
tvegs
tvegsbankans
tvegsra
tvegur
tveim
tveimur
tveir
tvemur
tvenn
tvenna
tvenns
tvennt
tvennu
tvennum
tvi
tvinnto
tvisvar
tvo
tvun
tvuð
tvuðu
tvægi
tvær
twain
twenty
twitter
two
ty
tyler
type
tyrki
tyrkir
tyrkja
tyrkjara
tyrkjasolda
tyrkjaveldi
tyrkjaveldis
tyrkjum
tyrkland
tyrklandi
tyrklands
tyrknesk
tyrkneska
tyrknesku
tz
tæk
tæka
tæki
tækifæri
tækifærið
tækir
tækist
tækið
tækjabu
tækju
tækjum
tækni
tækniha
tæknilega
tæknin
tæknisko
tækniþro
tækra
tækt
tæktar
tæku
tækum
tækur
tækustu
tæmandi
tæp
tæpa
tæpar
tæpir
tæplega
tæpum
tær
tævan
tþenslu
u
ua
ubu
ubuntu
uefa
ufe
ufjo
ugla
uha
uher
uhljo
uho
uk
ukirkjan
ukonungur
ukraine
ukrainian
ul
uleikana
uleikanna
uleikar
uleikarnir
uleikum
uleikunum
uleikvangurinn
ulf
ulindir
ull
ullin
ulm
ulmer
ulmus
ulrich
ultimate
um
uma
umanna
umberto
umbo
umboð
umboði
umboðsmanns
umboðsmaður
umbreyta
umbu
umbætur
umdeild
umdeilda
umdeildar
umdeildur
umdeilt
umdæmi
umdæmin
umea
umenn
umf
umfang
umfangsmikil
umfangsmiklar
umferð
umferðar
umferðinni
umferðir
umfi
umfjo
umfram
umhverfi
umhverfinu
umhverfis
umhverfisa
umhverfisma
umhverfisra
umhverfisstofnun
umhverfisvernd
umhverfið
umhyggju
umli
umlykur
umma
ummerki
ummæli
ummælum
umo
umra
umræða
umræðan
umræðu
umræðuefni
umræðum
umræður
umsa
umsagnir
umsja
umsjo
umslag
umslags
umso
umspil
umspili
umsvif
umsvifalaust
umtalsvert
un
una
unar
unarlo
und
unda
undan
undanfari
undanfarin
undanfo
undankeppni
undankeppninni
undanskildu
undanskildum
undantekning
undantekningar
undantekningu
undanu
undanþa
undarleg
undarlega
undarlegt
under
underground
understanding
underwood
undi
undir
undirbu
undireins
undirflokkur
undirgrein
undirgreinar
undirheima
undirlagi
undirleik
undirliggjandi
undirrita
undirritað
undirritaði
undirritaðir
undirritaður
undirritun
undirrituð
undirrituðu
undirskrift
undirskriftir
undirstaða
undirsto
undirtegund
undirtegundir
undirtektir
undirto
undirætt
undirættba
undirættkvi
undrast
undraðist
undrum
undrun
undruðust
undu
undur
une
unesco
ung
unga
ungan
ungar
ungarnir
unger
ungfru
ungi
ungir
unglinga
unglingabo
unglingalandsmo
unglingar
unglingsa
unglingum
unglingur
ungmenna
ungmennafe
ungmenni
ungra
ungs
ungt
ungu
ungum
ungur
ungverja
ungverjaland
ungverjalandi
ungverjalands
ungverjar
ungversk
ungverska
ungversku
ungverskur
uni
unicef
unicode
unin
union
unit
united
unity
universal
universe
universita
universite
university
unix
unna
unnar
unni
unnin
unninn
unnir
unnið
unnt
unntust
unnu
unnur
unnust
unnustu
uns
unum
unz
up
upon
upp
uppa
uppalin
uppalinn
uppbla
uppbo
uppboði
uppbygging
uppbyggingar
uppbyggingarsjo
uppbyggingu
uppdra
uppeldi
uppeldis
upper
uppfinningamaður
uppfylla
uppfyllir
uppfyllt
uppfærslu
uppfært
uppgangi
uppgangur
uppgjo
uppgo
uppgro
uppgvo
upphaf
upphafi
upphafið
upphaflega
upphaflegu
upphafs
upphafsa
upphafsmaður
uppho
upphæð
uppi
uppistandari
uppistaðan
uppisto
uppko
upplausn
upplifa
upplifun
upplifði
uppljo
upplo
upply
uppna
uppre
uppreisn
uppreisnar
uppreisnarmanna
uppreisnarmenn
uppreisnarmo
uppreisnin
uppreisnina
uppreisninni
uppreisnir
uppreist
upprisu
uppruna
upprunaleg
upprunalega
upprunalegt
upprunalegu
uppruni
upprunnin
upprunninn
upprunnið
uppræta
uppsala
uppsetningu
uppsja
uppskeru
uppskrift
uppso
uppspretta
upptaka
uppto
upptækar
uppu
uppvi
uppvo
uppþot
uppþotin
upright
ur
urban
urbancic
uri
url
urnar
urtica
urðu
urðum
us
usa
usar
usb
usda
usdo
use
used
user
usi
using
uskaga
uskaganum
uspeki
uss
usson
ust
ustri
ut
utah
utan
utanaðkomandi
utandyra
utanlands
utanri
utanthing
utar
utarlega
utc
uti
utrecht
uxa
uxu
uð
uðu
uðum
uðust
v
va
vafa
vafalaust
vafi
vafði
vagga
vaglasko
vagn
vagni
vagninn
vai
vaka
vakandi
vakar
vaki
vakir
vakið
vakna
vaknar
vaknað
vaknaði
vakti
vakur
val
vala
vald
valda
valdabara
valdamesti
valdar
valdara
valdasto
valdati
valdato
valddreifingu
valdi
valdimar
valdimars
valdimarsdo
valdimarsson
valdir
valdið
valds
vale
valencia
valenti
valentine
valera
valfrja
valgarðsson
valgarður
valgeir
valgerður
valho
valhu
vali
valin
valinn
valinu
valið
valla
vallarins
valley
vallo
vallt
valmo
valois
vals
valsmenn
valsstu
valt
valty
value
valur
valþjo
vama
vampi
van
vana
vanalega
vance
vancouver
vanda
vandama
vandann
vandað
vandi
vandinn
vandlega
vandræða
vandræði
vandræðum
vanessa
vangaveltur
vangi
vani
vanir
vanli
vann
vannst
vanrækslu
vans
vant
vanta
vantar
vantaði
vantraust
vantrausti
vantrauststillo
vantru
vanu
vanur
var
vara
varablo
varaformaður
varaformenn
varaforseta
varaforsetaefni
varaforseti
varaforsetinn
varaforsætisra
varalo
varamaður
varan
varanleg
varanlega
varar
varast
varað
varaði
varaþingmaður
vardy
varfo
vargas
vari
varin
varir
varið
varla
varlega
varli
varma
varmadæla
varna
varnar
varnarma
varnarmaður
varnarmenn
varnarmu
varning
varnir
varp
varpa
varpar
varpað
varpaði
varpi
varpið
varpti
varr
vars
varsja
varsson
varst
varstu
vart
varu
varð
varða
varðandi
varðar
varðaði
varðhald
varðhaldi
varði
varðist
varður
varðveislu
varðveist
varðveita
varðveitir
varðveitt
varðveitta
varðveittar
varðveitti
varðveittir
varðveittu
varðveittur
varþorp
vasa
vasco
vascular
vati
vatn
vatna
vatnajo
vatnasvið
vatni
vatninu
vatnið
vatns
vatnsaflsvirkjanir
vatnsaflsvirkjun
vatnsbo
vatnsdal
vatnsfirði
vatnsfo
vatnsins
vatnsmy
vatnsnesi
vatnssveit
vaxa
vaxandi
vaxblo
vaxi
vaxin
vaxinn
vaxið
vaxta
vaxtar
vað
vaða
vaði
vaðma
vb
ve
ved
vef
vefi
vefinn
vefja
vefjum
vefnaður
vefnum
vefsafn
vefsetur
vefsi
vefslo
vefsvæði
vefti
vefur
vefurinn
vefþjo
veg
vega
vegabre
vegagerðin
vegakerfi
vegalengd
vegamo
vegar
vegas
vegfarendur
vegg
veggi
vegginn
veggir
veggjum
veggnum
vegi
veginn
veginum
vegir
vegis
vegið
vegna
vegnu
vegu
vegum
vegur
vegurinn
veidd
veiddir
veiddu
veiddur
veifa
veik
veika
veiki
veikin
veikinda
veikindi
veikindum
veikinni
veikt
veiktist
veikur
veiran
veirur
veisla
veislu
veislur
veist
veistu
veit
veita
veiti
veitingahu
veitingastað
veitingastaðir
veitingu
veitir
veitt
veittar
veitti
veittu
veittur
veitur
veizla
veizlan
veizlu
veizlunni
veiztu
veiða
veiðar
veiðarfæri
veiðarnar
veiði
veiðimenn
veiðir
veiðist
veiðum
vek
vekja
vekur
vel
veldi
veldisins
veldið
veldur
velferð
velgengni
velgjo
velja
velkomin
velkominn
vella
velli
vellinum
velska
velsku
velskur
velt
velta
velti
veltir
veltur
velur
vember
vena
venesu
veni
venja
venjan
venju
venjuleg
venjulega
venjulegar
venjulegri
venjulegt
venjulegu
venjulegum
venjulegur
venjur
venska
venstre
venus
ver
vera
veraldar
verandi
verbu
verdun
verg
vergri
veri
verit
verið
verja
verjast
verk
verka
verkafo
verkaly
verkamanna
verkamannafe
verkamannaflokknum
verkamannaflokksins
verkamannaflokkurinn
verkamenn
verkar
verkefna
verkefnastjo
verkefni
verkefninu
verkefnisins
verkefnisstjo
verkefnið
verkefnum
verkfall
verkfo
verkfræði
verkfræðingar
verkfræðingur
verkfæri
verki
verkin
verkinu
verkið
verkmenntasko
verks
verksins
verksmiðja
verksmiðjan
verksmiðju
verksmiðjum
verksmiðjur
verkstjo
verkstæði
verkum
verkun
verlag
vermenn
vermont
vernd
vernda
verndar
verndardy
verndari
verndarsvæði
verndað
verndun
vernduð
verne
vernes
vero
veronica
verpa
verpir
verr
verra
verri
vers
version
versla
verslanir
verslað
verslun
verslunar
verslunarfe
verslunarhu
verslunarmiðsto
verslunarsko
verslunarstaður
verslunarstjo
verslunarsto
verslunin
verslunina
versluninni
verslunum
versnandi
versnaði
verso
verst
versta
versti
versto
verstu
vert
verti
vertsen
vertu
veru
veruleg
verulega
verulegar
verulegu
verulegum
veruleika
verum
verur
very
verzlunarsko
verð
verða
verðandi
verðbo
verðbre
verðgildi
verði
verðir
verðið
verðlag
verðlaun
verðlauna
verðlaunahafar
verðlaunanna
verðlaunin
verðlaunum
verðlaununum
verðmæti
verðmætum
verðr
verðum
verður
vespasi
vestan
vestanverðu
vestanverðum
vestar
vestari
vestast
vestasta
vestasti
vestfali
vestfirði
vestfirðir
vestfjarða
vestfjo
vestfold
vestmannaeyja
vestmannaeyjar
vestmannaeyjum
vestra
vestri
vestrinu
vestro
vestræn
vestræna
vestrænna
vestrænni
vestrænum
vestur
vestura
vesturbakkanum
vesturbæ
vesturgo
vesturheimi
vesturheims
vesturhluta
vesturhlutanum
vesturhluti
vesturho
vesturland
vesturlanda
vesturlandi
vesturlands
vesturlo
vesturs
vestursins
vesturstrandar
vesturstro
vesturvi
vetfangi
vetni
vetnis
vetr
vetra
vetrar
vetrarbrautarinnar
vetrarlagi
vetraro
vetrarti
vetri
vetrum
vett
vettvang
vettvangi
vettvangur
vetur
veturinn
veturna
vetursetu
veturvistar
vex
vexti
vextir
vez
vezi
veði
veðma
veðra
veðri
veðrið
veður
veðurathugunarsto
veðurdag
veðurfar
veðurfari
veðurfræði
veðurs
vff
vg
vgun
vi
via
vicente
vichy
victor
victoria
vid
video
vie
vietnam
view
vigdi
vigfu
vigga
viggo
vignir
vigra
vigur
vigurru
vii
viii
vik
vika
vikan
viking
vikið
vikna
viktor
viktori
viku
vikulega
vikum
vikuna
vikunnar
vikunni
vikur
vil
vilberg
vilborg
vild
vildi
vildir
vildu
vilfri
vilhelm
vilhelmi
vilhja
vili
vilja
viljandi
viljað
vilji
viljið
viljum
vill
villa
village
villir
villt
villta
villtist
villtra
villtur
villu
villur
villutru
vilmundur
vilt
viltu
vin
vina
vinabæir
vinabæjatengslum
vinar
vincent
vinci
vind
vinda
vindar
vindi
vindum
vindur
vingast
vini
vinir
vinkona
vinkonu
vinn
vinna
vinnan
vinnandi
vinni
vinnsla
vinnslu
vinnu
vinnuafl
vinnuafli
vinnubro
vinnufo
vinnuho
vinnukona
vinnukonan
vinnumann
vinnumanni
vinnumaður
vinnumenn
vinnuna
vinnunni
vinnur
vinnusto
vinnustofu
vinsent
vinstra
vinstri
vinstrihreyfingarinnar
vinstrihreyfingin
vinsæl
vinsæla
vinsælar
vinsælasta
vinsælasti
vinsælda
vinsældalista
vinsældir
vinsældum
vinsælir
vinsæll
vinsælla
vinsælli
vinsælt
vinsælu
vinsælum
vinsælustu
vinum
vinur
viola
virgil
virgill
virgin
virgini
virginia
virk
virka
virkan
virkar
virkað
virkaði
virki
virkilega
virkinu
virkir
virkið
virkja
virkjanir
virkjun
virkjunarinnar
virkjunin
virkni
virkt
virku
virkum
virkur
virt
virti
virtist
virtu
virtuella
virtur
virtust
virða
virðast
virði
virðing
virðingar
virðingu
virðist
visa
viscum
visindavefur
vision
visir
viski
visku
visma
vismi
viss
vissa
vissan
vissi
vissir
vissu
vissulega
vissum
vist
vista
vistar
vistfræði
vistir
vistkerfi
vistum
vit
vita
vitar
vitað
viti
vitinn
vitið
vitja
vitjaði
vitna
vitnað
vitneskju
vitni
vitnisburð
vitnisburði
vitnisburður
vitnið
vitsj
vittorio
vitum
vitund
vitundar
vitur
við
viðar
viðauka
viðauki
viðbo
viðbragð
viðbro
viðbu
viðburði
viðburðir
viðburðum
viðburður
viðbætur
viðeigandi
viðey
viðeyjarklaustri
viðfangsefni
viðfangsefnið
viðgerðir
viðhald
viðhalda
viðhaldið
viðhe
viðheldur
viðho
viðhorf
viðhorfum
viði
viðkomandi
viðkomu
viðkomustaður
viðkvæm
viðkvæmt
viðleitni
viðli
viðmið
viðmo
viðna
viðra
viðreisn
viðreisnar
viðræðum
viðræður
viðskipta
viðskiptafræði
viðskiptafræðingur
viðskiptajo
viðskiptali
viðskiptara
viðskiptavina
viðskiptavinum
viðskipti
viðskiptin
viðskiptum
viðstaddir
viðstaddur
viðsto
viðtal
viðtali
viðtengingarha
viðto
viðunandi
viður
viðureign
viðureignar
viðureignir
viðurinn
viðurkenna
viðurkennd
viðurkenndar
viðurkenndi
viðurkenndu
viðurkenndur
viðurkenning
viðurkenningar
viðurkenningu
viðurkennir
viðurkennt
viðurlo
viðurnefni
viðurnefnið
viðvarandi
viðvi
viðvo
vjer
vladi
vladimi
vladimir
vlt
vo
vodafone
vogi
vogso
vogum
voice
vol
voldemort
voldemorts
volgu
voli
volkswagen
volta
voltaire
volume
von
vona
vonar
vonast
vonaðist
vonbrigði
vonbrigðum
vonda
vondu
vondum
vondur
vonin
vonir
vont
vonum
vopn
vopna
vopnabu
vopnafirði
vopnahle
vopnaða
vopnaðir
vopnin
vopnum
vopnuð
vopnuðum
vor
vora
vorar
vorarlberg
vori
vorin
vorir
vorið
vorn
vorra
vorri
vors
vorsins
vort
voru
vorum
votlendi
vott
votta
vottar
voyager
voða
vs
vu
vuc
vulgaris
vum
vved
vægi
væn
væna
vændi
væng
vænghaf
vængi
vængjum
vænn
vænna
vænst
vænt
vænta
væntanlega
vænti
væntingar
vær
væri
værir
vært
væru
værum
vætti
vættir
vættur
w
wa
waage
wade
wagner
waldorf
wales
walk
walker
wall
wallace
wallenberg
wallenstein
wallis
walsh
walt
walter
walther
wanderers
wang
want
war
warcraft
ward
warner
warren
wars
warwick
was
washington
washingtonfylki
watch
water
watergate
waterloo
waters
wats
watson
watts
wave
way
wayback
wayne
wcsp
we
weasley
web
webb
weber
website
webster
weekly
wegener
wei
weimar
welcome
well
wellington
wells
welsh
wembley
wen
wendy
wennstro
wenzhou
were
werner
wesley
wessex
west
western
westminster
whale
whaling
what
when
where
which
while
whiplash
whitaker
white
whitehead
whitney
who
whois
why
wicksell
wide
width
wien
wiener
wiesbaden
wight
wii
wiki
wikiasi
wikileaks
wikilink
wikimedia
wikipedia
wikipediu
wikisi
wild
wildlife
wilhelm
will
willard
willem
william
williams
williamson
willie
willis
willow
willy
wilson
wimbledon
win
winchester
wind
window
windows
windsor
winery
wing
wings
winnipeg
winston
winter
winterthur
wisconsin
with
within
without
wittenberg
wittgenstein
wo
wolf
wolfe
wolfgang
woman
women
wonder
wonderland
wood
woodrow
woods
woodsen
woody
word
words
work
working
works
world
worlds
worms
wow
wright
writing
written
wu
wuhan
wuxi
www
wyoming
x
xara
xbox
xemborg
xemborgar
xenofon
xi
xian
xiaoping
xii
xiii
xin
xina
xinjiang
xiv
xl
xlum
xml
xnadal
xnum
xor
xp
xt
xtum
xtur
xturinn
xu
xum
xv
xvi
xvii
xx
xxx
y
ya
yahoo
yale
yang
ye
year
years
yellen
yellow
yes
yfir
yfirbo
yfirborð
yfirborði
yfirborðinu
yfirborðið
yfirborðs
yfirbragð
yfirburði
yfirburðum
yfirdo
yfirga
yfirgaf
yfirgefa
yfirgefið
yfirgefur
yfirgnæfandi
yfirho
yfirleitt
yfirlit
yfirly
yfirlæknir
yfirlæti
yfirmann
yfirmanni
yfirmaður
yfirmenn
yfirna
yfirra
yfirstandandi
yfirste
yfirstjo
yfirto
yfirumsjo
yfirvalda
yfirvo
yfirvofandi
yi
ykkar
ykkur
yndi
yngra
yngri
yngst
yngsta
yngsti
yngstu
yngstur
yngvi
yo
yoko
york
yorkshire
you
young
your
youth
youtube
yrkja
yrði
yrðu
yst
ysta
ystu
ytra
ytri
yu
yunnan
yushania
yyyy
yðar
yðr
yðra
yðrum
yður
z
za
zach
zagreb
zahle
zappa
zealand
zedong
zelenskyj
zemin
zenon
zeppelin
zero
zeta
zh
zhang
zhao
zhejiang
zhou
zhu
zi
zo
zoe
zone
zorglu
zt
zu
zug
zur
{
|
}
~
£
§
«
­
®
°
±
²
³
´
µ
·
»
¼
½
×
æ
æfa
æfi
æfinga
æfingar
æfingum
æfinty
æfði
ægi
ægir
ægisson
æpti
ær
ærið
ærnar
æru
æsir
æska
æskilegt
æsku
æskua
æskuly
æsky
æt
æti
ætla
ætlan
ætlanir
ætlar
ætlarðu
ætlast
ætlað
ætlaðar
ætlaði
ætlaðir
ætlaður
ætli
ætlum
ætlun
ætlunar
ætlunarinnar
ætlunin
ætlunina
ætluninni
ætlunum
ætluð
ætluðu
ætt
ættar
ættarinnar
ættarnafn
ættarnafnið
ættarno
ættað
ættaður
ættba
ætti
ættin
ættina
ættingja
ættingjar
ættingjum
ættinni
ættir
ættkvi
ættu
ættum
ættuð
ævar
ævi
ævia
ævilangt
æviloka
ævina
ævinlega
ævinnar
ævinni
ævinty
ævisaga
æviskra
æviso
æxlun
æð
æðar
æðey
æði
æðra
æðri
æðsta
æðsti
æðstu
æðum
ð
ða
ðabandalagið
ðabandalagsins
ðabirgða
ðabirgðastjo
ðabo
ðabækur
ðadal
ðado
ðafe
ðaflugvallarins
ðaflugvo
ðagerð
ðagjaldeyrissjo
ðago
ðaheilbrigðisma
ðaho
ðahraun
ðahverfi
ðal
ðala
ðalo
ðamanna
ðamaður
ðamenn
ðamo
ðan
ðanda
ðandi
ðandinn
ðann
ðanna
ðanum
ðao
ðar
ðara
ðaratkvæðagreiðsla
ðaratkvæðagreiðslu
ðarbo
ðarbrot
ðarbu
ðardagur
ðardal
ðare
ðarenda
ðarfangelsi
ðarflokksins
ðarflokkurinn
ðarho
ðarhu
ðari
ðarinnar
ðarle
ðarleg
ðarlega
ðarlegt
ðarlegum
ðarmorð
ðarnefnda
ðarnefndi
ðarnefndu
ðaro
ðarra
ðarsto
ðarsy
ðarta
ðasamband
ðasamfe
ðasamto
ðaska
ðasko
ðast
ðasta
ðasti
ðastjo
ðastnefnda
ðastnefndu
ðasto
ðastofnanir
ðastur
ðasvæði
ðavettvangi
ðavi
ðað
ðaðar
ðaði
ðaðir
ðaður
ðaþy
ðbaðið
ðberg
ðblo
ðbo
ðbu
ðenda
ðendi
ðendum
ðendur
ðerni
ðernisho
ðernishyggju
ðernissinna
ðernissinnar
ðfa
ðfall
ðfe
ðflokka
ðflokkar
ðflu
ðfo
ðfræði
ðfæra
ðfæraleikarar
ðfæraverslun
ðfæri
ðfærum
ðga
ðgarða
ðgarðar
ðgarði
ðgarðinum
ðgarðs
ðgarðsins
ðgarður
ðgarðurinn
ðgefandi
ðgert
ðgervla
ðgjafa
ðgjafar
ðgjafi
ðgjo
ðgo
ðguminn
ðha
ðhagfræði
ðherra
ðherraembætti
ðherrafundi
ðherranefndarinnar
ðherranefndin
ðherrann
ðherrans
ðherranum
ðherrar
ðherrara
ðherrati
ðherrum
ðhetja
ðhjo
ðho
ðhu
ði
ðidal
ðimy
ðin
ðina
ðinda
ðindi
ðindin
ðindum
ðing
ðingar
ðingin
ðingu
ðingum
ðinn
ðinni
ðins
ðinsdo
ðinsson
ðinu
ðir
ðirin
ðirinn
ðirnar
ðis
ðist
ðisætt
ðið
ðkast
ðkaup
ðkaupi
ðkaupið
ðkaðist
ðkirkjunnar
ðla
ðlag
ðlaga
ðlagato
ðlagt
ðlagði
ðlar
ðlast
ðlaus
ðlaðist
ðleg
ðlega
ðlegan
ðlegar
ðlegi
ðlegir
ðlegra
ðlegrar
ðlegri
ðlegs
ðlegt
ðlegu
ðlegum
ðlegur
ðleik
ðleikhu
ðleiksmolar
ðleikur
ðli
ðlist
ðlo
ðlum
ðluð
ðma
ðminjasafn
ðminjasafni
ðminjasafninu
ðminjasafns
ðminjavo
ðmo
ðmæli
ðna
ðnar
ðni
ðningu
ðnir
ðnum
ðnun
ðny
ðo
ðpo
ðr
ðra
ðrar
ðrasveit
ðre
ðri
ðritun
ðrituð
ðru
ðrum
ðrumegin
ðrun
ðrur
ðruvi
ðruvo
ðræði
ðræðis
ðræðisflokkurinn
ðræðislega
ðræðislegu
ðræðisri
ðs
ðsa
ðsaga
ðsagan
ðsdo
ðsfe
ðsglæpi
ðsho
ðsins
ðska
ðsko
ðskra
ðslok
ðslu
ðsma
ðsmaður
ðsmenn
ðso
ðsson
ðst
ðstafa
ðstafanir
ðstefna
ðstefnan
ðstefnu
ðstefnum
ðstefnuna
ðstefnunnar
ðstefnunni
ðstefnur
ðsti
ðstjo
ðsto
ðsumars
ðsvegar
ðsy
ðtru
ðtæk
ðu
ðubandalagið
ðubandalagsins
ðublaðinu
ðublaðið
ðuflokkinn
ðuflokknum
ðuflokks
ðuflokksins
ðuflokkurinn
ðufylkingin
ðug
ðuga
ðugar
ðugir
ðugleika
ðugleiki
ðugri
ðugt
ðugu
ðugum
ðugur
ðul
ðull
ðulo
ðuly
ðum
ðumaður
ðun
ðuna
ðunautur
ðuneyta
ðuneyti
ðuneytinu
ðuneytis
ðuneytisins
ðuneytisstjo
ðuneytið
ðungar
ðunnar
ðunni
ðunum
ðuppto
ður
ðurbro
ðurfe
ðurhu
ðurin
ðurinn
ðurinnar
ðurinni
ðurma
ðurnar
ðurnum
ðurs
ðursett
ðursonur
ðurætt
ðust
ðustu
ðuvatn
ðuvo
ðuð
ðuðu
ðva
ðvaandstæðinga
ðvakerfi
ðvanna
ðvar
ðvarhu
ðvarinnar
ðvarnar
ðvarsson
ðvast
ðvað
ðvaði
ðvegi
ðvegur
ðveldi
ðveldinu
ðveldis
ðveldisins
ðveldissinna
ðveldisti
ðveldið
ðverja
ðverjar
ðverjum
ðvi
ðviljans
ðviljanum
ðviljinn
ðvo
ðvum
ðvun
ðvunum
ðvuð
ðþingið
ðþingsins
ðþry
÷
ø
þ
þa
þad
þagnaði
þago
þagði
þak
þaki
þakin
þakinn
þakið
þakka
þakkar
þakkargjo
þakkaði
þakkir
þakkla
þallarætt
þalsvo
þang
þangað
þangbrandur
þann
þannig
þannug
þar
þarf
þarfa
þarfi
þarfir
þarfnast
þarft
þarftu
þarna
þat
þau
þaut
það
þaðan
þe
þebu
þegar
þegið
þegja
þegjandi
þegna
þegnar
þegnum
þeim
þeir
þeira
þeirra
þeirrar
þeirri
þekja
þekk
þekki
þekking
þekkingar
þekkingarfræði
þekkingu
þekkir
þekkist
þekkja
þekkjast
þekkjum
þekkst
þekkt
þekkta
þekktar
þekktari
þekktast
þekktasta
þekktasti
þekktastur
þekkti
þekktir
þekktist
þekktra
þekktu
þekktum
þekktur
þekktust
þekktustu
þekur
þeldo
þema
þemasnið
þenna
þennan
þeo
þess
þessa
þessar
þessara
þessarar
þessari
þessi
þessir
þessu
þessum
þetta
þi
þig
þiggja
þiggur
þik
þilfarinu
þing
þingbundin
þingeyinga
þingeyjarsveit
þingeyjarsy
þingeyraklaustri
þingeyri
þingeyrum
þingflokks
þingforseti
þinghu
þingi
þinginu
þingið
þingkosninga
þingkosningar
þingkosningum
þingkosningunum
þingly
þingmann
þingmanna
þingmanni
þingmaður
þingmaðurinn
þingmeirihluta
þingmenn
þingmennsku
þingmo
þingræði
þings
þingsa
þingsins
þingskapa
þingsto
þingsæti
þingsætum
þingum
þingvellir
þingvo
þinn
þinna
þinnar
þinni
þitt
þið
þja
þjer
þjo
þo
þoka
þoku
þol
þola
þoldi
þolfall
þolfalli
þolinmo
þolinmæði
þolir
þora
þorbergs
þorbergur
þorbjarnar
þorbjarnardo
þorbjo
þorfinnur
þorgeir
þorgeiri
þorgeirs
þorgeirsdo
þorgeirson
þorgeirsson
þorgerðar
þorgerði
þorgerður
þorgils
þorgilsson
þorgri
þori
þorir
þorkell
þorkels
þorkelsdo
þorkelsson
þorla
þorleif
þorleifi
þorleifs
þorleifsdo
þorleifsson
þorleifur
þormo
þorp
þorpi
þorpinu
þorpið
þorpsbu
þorpsins
þorpum
þorra
þorrablo
þorri
þorskastri
þorskur
þorstein
þorsteini
þorsteinn
þorsteins
þorsteinsdo
þorsteinsson
þorsteinssonar
þorvald
þorvaldar
þorvaldi
þorvalds
þorvaldsdo
þorvaldsson
þorvaldur
þorvarður
þorði
þra
þraki
þraut
þrautir
þrefaldri
þreif
þrem
þremur
þrenn
þrennt
þrennu
þrep
þretta
þreyta
þreytt
þreyttir
þreyttur
þreytu
þri
þriggja
þrisvar
þriðja
þriðji
þriðju
þriðjudaginn
þriðjudegi
þriðjung
þriðjungi
þriðjungur
þrja
þrjo
þrju
þro
þroska
þroskast
þroskaðir
þroskaþja
þru
þry
þræl
þræla
þrælahald
þrælahaldi
þrælahalds
þrælar
þrælarnir
þrælastri
þrældo
þræll
þrællinn
þrælum
þrændalo
þræði
þu
þulur
þung
þunga
þungar
þungarokk
þungarokki
þungarokks
þungarokkshljo
þunglyndi
þungt
þungum
þungunarrof
þungur
þunguð
þunn
þunnt
þurfa
þurfi
þurft
þurfti
þurftu
þurfum
þuri
þurr
þurrka
þurrkati
þurrkað
þurrkuð
þurrt
þurru
þurrum
þvagsy
þvera
þverhni
þverma
þvert
þvi
þvinga
þvo
þvotta
þy
þyki
þykir
þykist
þykja
þykjast
þykk
þykkblo
þykkir
þykkt
þykkum
þykkur
þykkvabæjarklaustri
þyngd
þyngra
þyngri
þynnri
þyrfti
þyrftu
þyri
þyrla
þyrlu
þægindum
þær
þætti
þættina
þættinum
þættir
þættirnir
ı
ɔ
ɴ
ʲ
ʻ
ʼ
ʾ
ʿ
ˈ
ˌ
ː
˚
̀
́
̂
̃
̄
̆
̇
̈
̉
̊
̋
̌
̓
̔
̛
̣
̦
̧
̨
̱
̸
͂
α
β
γ
δ
ε
η
θ
ι
λ
μ
ν
ο
π
ρ
ς
σ
υ
φ
ω
бласть
в
е
и
м
н
о
с
я
ְ
ִ
ֶ
ַ
ָ
ֹ
ּ
ׁ
א
ב
ה
י
ל
נ
ר
ש
ا
ل
م
ي
َ
ُ
ِ
ّ
ْ
ٓ
ٔ
ٕ
ं
क
द
न
प
म
य
र
ल
स
ा
ि
ी
ु
े
्
া
ে
্
க
ங
ச
ஜ
ஞ
ட
ண
த
ந
ன
ப
ம
ய
ர
ற
ல
ள
ழ
வ
ஶ
ஷ
ஸ
ஹ
ா
ி
ீ
ு
ூ
ெ
ே
ை
்
ௗ
ി
്
්
ි
ั
ิ
ี
ุ
ู
่
้
์
་
င
း
်
ᴐ
​
‌
‍
‎
‏
‐
–
—
―
‘
’
‚
“
”
„
†
•
…
‬
′
″
€
↑
→
↓
↔
↷
⇒
∅
∈
−
∞
≤
③
④
⑦
─
│
├
╰
◌
♭
♯
ⴰ
⺀
⺄
⺆
⺈
⺊
⺌
⺕
⺝
⺸
⺼
⿰
⿱
⿲
⿳
⿴
⿵
⿶
⿷
⿸
⿹
⿺
⿻
〢
あ
い
う
え
お
か
き
く
け
さ
し
す
た
ち
っ
て
と
な
に
の
は
ひ
へ
ま
め
も
よ
ら
り
る
れ
ろ
ん
゙
゚
ア
ィ
イ
ウ
オ
カ
キ
ク
ケ
コ
サ
シ
ス
セ
ソ
タ
チ
ッ
ツ
テ
ト
ナ
ニ
ハ
ヒ
フ
ヘ
ホ
マ
ミ
ム
メ
ャ
ュ
ユ
ョ
ラ
リ
ル
レ
ロ
ワ
ン
・
ー
㇁
㇂
㇄
㇇
㇈
㇉
㇓
㐁
㐄
㐅
㐌
㐫
㐬
㐭
㐮
㐱
㑒
㒵
㒸
㒼
㓁
㓞
㔾
㕛
㕣
㖾
㘝
㚅
㚇
㚔
㚘
㝉
㝡
㝴
㝵
㞋
㞢
㞷
㠩
㠭
㠯
㡀
㡭
㡿
㢲
㢴
㣇
㣺
㥯
㪅
㫄
㫐
㫒
㫺
㬅
㬎
㬥
㬰
㲋
㳄
㷠
㸒
㸚
㸦
㼌
㼲
㽞
㿟
䀠
䂞
䍃
䏍
䒑
䖍
䖒
䖝
䖵
䙴
䚻
䜌
䝿
䡛
䧹
䪞
一
丁
丂
七
丄
丅
丆
万
丈
三
上
下
丌
不
与
丏
丐
丑
专
且
丕
世
丘
丙
业
东
丞
丢
丣
两
严
並
丨
丩
个
丫
丬
中
丮
丰
丱
串
丵
丶
丷
丸
丹
为
主
丽
丿
乀
乂
乃
久
乆
乇
么
义
之
乌
乍
乎
乏
乐
乑
乔
乖
乗
乘
乙
乚
乛
乜
九
乞
也
习
乡
乳
乾
亀
亅
了
亇
予
争
事
二
亍
于
亏
亐
云
互
亓
五
井
亘
亚
亜
亞
亟
亠
亡
亢
交
亥
亦
产
亨
亩
享
京
亭
亮
亯
亰
亲
亳
亶
亷
人
亻
亼
亾
仁
今
介
仌
从
仐
仑
仒
仓
仕
他
付
仝
代
令
以
仮
任
企
伊
伏
伐
休
会
伯
但
位
体
何
佘
余
作
佥
使
來
侈
侌
侖
侯
侵
便
保
俞
信
修
倉
倍
候
倠
備
僉
僕
儿
兀
允
兂
元
兄
充
兆
兇
先
光
兊
克
兌
免
兑
兒
兓
兔
党
兜
兟
入
全
兩
兪
八
公
六
兮
兰
共
关
兵
其
具
典
兹
兼
冀
冂
冃
冄
内
冈
冉
冊
冋
册
再
冎
冏
冐
冒
冓
冖
冗
冘
军
农
冝
冡
冥
冫
冬
冷
几
凡
凢
凵
凶
凷
凸
凹
出
函
凾
刀
刁
刂
刃
刄
刅
分
切
刍
刑
刕
刖
列
刘
则
初
別
利
别
到
制
刺
則
削
剌
前
剡
剽
劉
力
功
加
劦
助
劫
劳
劵
勃
勇
勉
勒
動
務
勞
勤
勹
勺
勻
勾
勿
匀
匂
包
匆
匈
匊
匋
匍
匕
化
北
匚
匝
匡
匪
匱
匸
匹
区
医
匽
匿
區
十
卂
千
卄
卅
卆
升
午
卉
半
卌
华
卑
卒
卓
单
卖
南
卜
卝
卞
占
卡
卢
卣
卤
卦
卩
卪
卬
卯
印
危
即
却
卵
卷
卸
卻
厂
厃
厄
历
厈
厉
厌
厓
厘
厚
原
厤
厥
厨
厭
厲
厶
厷
厸
去
厼
厽
叀
参
參
叅
又
叉
及
友
双
反
叐
发
叒
叔
叕
取
受
变
叚
叜
叟
口
古
句
另
叩
只
召
可
台
叱
史
右
叵
叶
号
司
叹
吂
各
吅
合
吉
吊
吋
同
名
后
吏
向
吕
君
吝
吞
否
含
启
吳
吴
吹
吾
呂
呆
呈
告
员
呙
周
命
咅
和
咎
咠
咢
咨
咸
咼
哀
品
哉
員
哥
哲
唐
商
啇
問
啚
啬
啻
善
喜
喬
單
喿
嗇
噩
嚴
囊
囗
囘
囙
囚
四
回
囟
因
囧
囬
困
囱
囷
固
国
圂
圅
國
圍
圓
土
圡
圣
圥
在
圭
地
圶
场
圼
坐
坒
坚
坴
垂
垔
垚
埀
埋
埶
執
基
堂
堅
堆
堇
堯
塞
墨
壘
士
壬
壯
声
壳
壴
壹
壺
壽
夂
处
夅
夆
备
夊
夋
夌
复
夏
夒
夕
外
夗
夘
多
夜
夢
大
夨
天
太
夫
夬
夭
央
失
夲
头
夷
夸
夹
夻
夾
奂
奄
奇
奈
奉
奎
奏
奐
契
奓
奔
奚
奞
奠
奢
奥
奭
女
奴
奻
好
如
妄
妙
妟
妥
妻
妾
姑
委
姜
威
娄
婁
婴
嬰
嬴
子
孑
孔
孕
孖
字
存
孚
孛
孝
孟
季
孤
学
孫
孱
學
宀
宁
宂
它
宅
宇
守
安
宋
完
宏
宓
宗
官
定
宛
宜
宝
客
宣
室
宮
宰
害
家
容
宾
宿
寄
寅
密
富
寒
察
寧
審
寫
寬
寮
寸
对
寺
寻
寽
対
寿
封
尃
射
将
將
專
尉
尊
尋
尌
對
小
少
尒
尓
尔
尖
尗
尚
尞
尢
尣
尤
尧
尨
尭
就
尸
尹
尺
尻
尼
尽
尾
尿
局
居
屈
屋
屎
屏
屑
展
屖
屚
属
屠
屡
屬
屮
屯
屰
山
屵
屾
岁
岂
岑
岡
岩
岳
岸
峯
島
崇
崑
崔
崖
崙
崩
嵬
嶲
巂
巛
川
州
巟
巠
巢
巤
工
左
巧
巨
巩
巫
差
己
已
巳
巴
巷
巸
巽
巾
巿
帀
市
布
希
帚
帛
帝
带
師
席
帶
常
干
平
年
幵
并
幷
幸
幺
幻
幼
幽
幾
广
広
庄
床
底
店
庚
府
度
庫
庭
庶
康
庸
廉
廌
廛
廣
廩
廴
延
廷
建
廾
廿
开
弁
弃
弄
弇
弋
式
弓
弔
引
弗
弘
弜
弟
弥
弦
弱
張
強
强
彊
彌
彎
彐
彑
当
彔
录
彖
彗
彡
形
彥
彦
彧
彭
彳
役
彼
往
待
律
徒
得
徙
從
復
微
徵
心
忄
必
忌
忍
志
忝
忠
忩
快
念
忽
忿
思
怠
急
怱
恆
恒
恩
恭
息
悉
患
悤
悲
悶
惠
惡
惢
愁
愈
意
愛
感
慈
慧
慮
憂
憲
應
戀
戈
戉
戊
戋
戌
戍
戎
成
我
戒
戔
或
戚
戠
戢
戦
截
戲
戶
户
戹
戼
戾
房
所
扁
扇
手
扌
才
打
托
执
承
折
拉
拜
拿
掌
推
提
摩
支
攴
攵
收
攸
改
放
政
敄
敏
敕
敖
敗
敝
敞
敢
散
敦
敫
敬
数
敷
數
斂
文
斉
斊
斗
斤
斥
斩
斬
斯
新
方
於
施
斿
旁
旋
族
无
旡
既
旣
日
旦
旧
旨
早
旬
旱
旲
时
旾
昆
昇
昌
昍
明
昏
易
昔
昗
昜
星
春
昬
是
昱
昴
昷
時
晃
晋
晏
普
景
晶
智
暑
暴
曇
曩
曰
曲
曳
更
曷
書
曹
曼
曾
替
最
朁
會
月
有
朋
服
朔
朕
朗
望
朝
木
朩
未
末
本
札
朮
术
朱
朵
朶
机
朿
杀
杉
杏
杜
束
条
来
東
杲
杳
松
析
林
枚
果
枝
枫
枲
枼
某
柔
查
柬
柰
柴
栗
桀
桃
桑
桼
梁
條
梟
梨
棋
棘
棠
棥
森
楚
業
楽
榮
樂
樊
欠
次
欣
欮
欲
欶
欽
款
歆
歇
歌
歛
止
正
此
步
武
歨
歪
歮
歯
歰
歲
歴
歷
歸
歹
歺
死
殳
段
殷
殸
殹
殺
殻
殿
毋
毌
母
每
毒
比
毕
毚
毛
毳
氏
氐
民
气
氣
水
氵
氶
氷
永
氺
氾
求
汝
汞
江
沃
沓
沙
沝
河
治
泉
法
波
泣
泥
泰
洛
洪
活
派
流
浦
浪
浮
海
淡
淮
清
渚
渠
湯
滿
漸
火
灬
灭
灰
灵
灷
炅
炎
炏
炗
炙
炭
為
烈
烏
烝
焉
無
焦
焱
然
煞
熊
熏
燕
營
燮
爪
爫
爭
爯
爰
爱
爲
爵
父
爻
爽
爾
爿
片
牙
牚
牛
牜
牟
牢
牧
物
牪
牽
犀
犬
犭
犮
狂
狄
狊
独
狺
猋
猒
猕
猪
献
猴
獻
玄
率
玉
王
玟
玨
珎
班
琴
瑟
瑩
瓜
瓦
甘
甚
生
産
用
甫
甬
田
由
甲
申
电
甶
男
甸
甹
画
甾
畀
界
畏
畐
留
畜
畟
畢
畧
畨
番
畫
異
畱
當
畺
畾
疊
疋
疌
疑
疒
疾
癶
癸
癹
登
發
白
百
皀
皃
的
皆
皇
皋
皐
皕
皮
皷
皿
盃
盆
盇
盈
益
盍
盎
监
盒
盖
盛
盡
監
盤
盧
目
直
相
盾
省
眇
眉
看
眔
眞
真
眷
眼
眾
着
睘
睪
睿
瞏
瞢
瞿
矍
矛
矞
矢
矣
知
矦
短
石
破
碎
磊
磨
示
礻
礼
神
祟
票
祭
禀
禁
禸
禹
禺
离
禽
禾
禿
秀
秃
秉
秋
种
科
秝
秦
移
稟
穀
穌
穴
究
穹
空
穿
突
窄
窒
立
竒
竜
竝
竟
章
童
竹
笑
笠
筆
等
答
箕
算
箴
節
篤
篭
米
粉
粛
粟
粤
粦
粲
糞
糸
糹
系
約
納
素
索
紫
累
細
絜
絫
絲
維
綿
縣
繇
纍
纟
缶
网
罒
罔
罕
罗
罙
罡
罢
罪
署
罷
羅
羊
羌
羍
美
羔
羕
羗
羞
羡
羣
群
義
羲
羸
羽
翁
翏
習
翕
翟
翠
翼
老
耂
考
者
耆
而
耎
耑
耒
耳
耴
耶
耷
聂
聊
聖
聚
聶
聿
肀
肃
肅
肉
肖
肙
肥
肩
肯
育
肴
胃
背
胡
胥
能
脊
脩
膚
臣
臤
臧
自
臬
臭
臯
臱
至
致
臺
臼
臽
臾
臿
舀
舂
舄
與
興
舉
舌
舍
舛
舜
舞
舟
般
艮
良
色
艸
艹
艾
芒
芔
芬
芮
花
芳
芺
芻
苔
苗
苟
若
苦
英
茶
茸
荅
草
荒
荣
荼
莆
莧
莫
莽
菆
菊
菐
華
萬
落
葉
著
葛
董
葵
蒙
蒦
蒼
蓋
蓬
蓺
蔑
蔡
蕉
蕭
薄
薛
薦
薰
藍
藏
藥
蘭
虍
虎
虐
虒
虔
處
虖
虗
虘
虚
虛
虜
虞
虫
虽
蚤
蚩
蜀
蜜
蟲
蠡
血
行
衍
衛
衣
衤
表
衮
衰
袁
袞
褭
褱
襄
襾
西
覀
要
覃
見
規
覓
覧
親
覽
见
角
解
言
訁
訇
計
詹
誩
諸
讠
谷
豆
豈
豊
豐
豕
豖
豙
象
豦
豩
豪
豸
貇
貝
貞
貟
負
貢
貧
貪
貫
責
貳
貴
買
費
賁
資
賈
賏
賓
賔
賛
賞
賢
賣
質
賴
贊
贝
贡
责
贯
贲
贵
赖
赞
赤
赦
走
越
足
路
蹇
身
躬
車
軍
軎
軟
輦
车
辛
辜
辟
辥
辰
辱
農
辵
辶
边
达
过
近
连
迷
追
退
送
逆
逐
通
速
造
逢
連
逮
進
遀
遂
過
道
達
遣
適
遷
遺
邊
邑
邕
那
邦
邪
郎
部
郭
都
鄉
酉
酋
配
酓
釆
采
里
重
野
量
金
釒
錢
钅
長
镸
长
門
閃
閉
開
閏
閑
閒
間
閔
閵
閻
闌
门
间
闷
阑
阜
阝
阳
阿
际
降
陳
隆
隊
隋
隡
隨
隱
隶
隹
隺
隻
隼
隽
难
雀
雁
集
雈
雋
雍
雐
雔
雙
雚
雜
雝
離
難
雨
雩
雪
雲
零
雷
需
霍
霜
霝
霞
霸
靈
靑
青
非
靡
面
靣
革
韋
韦
韭
韯
韱
音
頁
頃
項
須
頗
頡
頻
顛
页
風
风
飛
飞
食
飠
養
饣
首
香
馬
馮
駦
马
骨
高
髟
鬥
鬯
鬲
鬼
魚
魯
鮮
鱼
鲁
鳥
鳳
鸟
鹵
鹿
麃
麗
麥
麦
麻
黃
黄
黍
黎
黑
黒
黨
黹
黽
黾
鼎
鼓
鼠
鼻
齊
齋
齐
齒
齿
龍
龙
龜
龟
龠
龰
龱
龴
龵
龶
龷
龸
龹
者
艹
ﬁ
ﬂ
，
？
𠀁
𠀃
𠀆
𠀉
𠀎
𠀐
𠁁
𠁣
𠂆
𠂇
𠂈
𠂉
𠂊
𠂋
𠂎
𠂒
𠂔
𠂛
𠂡
𠂢
𠂤
𠂬
𠂭
𠂹
𠃊
𠃋
𠃌
𠃍
𠃎
𠃑
𠃓
𠃔
𠃜
𠄌
𠄎
𠄠
𠄢
𠆢
𠆥
𠇍
𠈌
𠌵
𠓜
𠔉
𠔥
𠔼
𠔽
𠔿
𠕀
𠕁
𠕋
𠘧
𠘨
𠙻
𠙼
𠚏
𠚒
𠚤
𠚪
𠣏
𠤎
𠤕
𠥓
𠦄
𠦑
𠦝
𠧒
𠧗
𠧪
𠩺
𠪚
𠫓
𠫔
𠫤
𠬛
𠬝
𠬞
𠬢
𠬤
𠬶
𠮛
𠮦
𠮷
𠯑
𠱠
𠳮
𠷎
𡈼
𡉀
𡉵
𡌥
𡍮
𡏳
𡕒
𡕩
𡕰
𡖅
𡗗
𡗜
𡘆
𡘤
𡧱
𡨄
𡩧
𡬠
𡭽
𡰣
𡰥
𡰪
𡰯
𡰱
𡷈
𡸁
𡿨
𡿩
𡿪
𡿺
𢀖
𢀛
𢀩
𢁙
𢆉
𢆰
𢆶
𢇁
𢇇
𢉖
𢌬
𢌿
𢏚
𢑑
𢑚
𢖻
𢙣
𢛳
𢦏
𢦒
𢧵
𢼄
𢾕
𣁋
𣄼
𣅀
𣅽
𣍘
𣎳
𣎵
𣏋
𣏼
𣗥
𣥂
𣥖
𣦵
𣦼
𣧄
𣪊
𣪠
𣬉
𣳾
𣶒
𤇾
𤊽
𤐫
𤓰
𤔔
𤕨
𤣩
𤰇
𤰔
𤰞
𤴓
𤴔
𤽄
𥁑
𥁕
𥃦
𥃩
𥃭
𥇡
𥑟
𥘅
𥘈
𥝢
𥫗
𥱡
𦈢
𦉪
𦉬
𦉼
𦍌
𦍒
𦎧
𦐇
𦓔
𦔮
𦘒
𦙃
𦚏
𦣝
𦣞
𦣻
𦥑
𦥔
𦥯
𦨉
𦭝
𦰩
𧆞
𧈧
𧘇
𧰨
𧴪
𧴮
𧵩
𧾷
𨸏
𨾴
𩙿
𩠐
𩫏
𩵋
𪉷
𪜀
𪟽
𪠲
𪩲
𫇦
𫔭
𫜸
𫝀
𫠣
𫠩
𫢉
𫥞
𫩏
𫩠
𫪡
𫲽
𫶧
𬀷
𬐘
𬗌
𬙙
𬛸
𬜯
𬟩
𬯁
𬴘
𬺻
𬼉
𬼖
𭀰
𭁈
𭁨
𭅰
𭑈
𭕄
𭗼
𭤨
𭥫
𭻾
𮅕
𮊿
𮍌
𮍏
𮓗
𮥼
𮧮
廾
𰀁
𰀄
𰀈
𰀉
𰀕
𰀠
𰀡
𰀢
𰀪
𰁜
𰃮
𰆊
𰆘
𰋙
𰕎
𰢴
𰧭
𰯲
00--
01--
02--
03--
04--
06--
07--
08--
09--
39--
41--
45--
48--
57--
59--
61--
68--
74--
80--
81--
82--
87--
90--
92--
978--
a--
aa--
ab--
abi--
ac--
acc--
acco--
ad--
ade--
adeildar--
ado--
aen--
aero--
af--
afar--
aff--
afkasta--
afl--
afla--
afske--
aftur--
afþrey--
ag--
aga--
age--
ago--
agri--
ah--
ai--
air--
ak--
akon--
akra--
akrei--
akur--
al--
ala--
alba--
aldar--
aldin--
aldurs--
alek--
alem--
alex--
alfræði--
ali--
alista--
all--
allra--
alls--
almanna--
alpa--
alræ--
alræði--
als--
alt--
aly--
alþingis--
am--
ame--
ami--
amund--
an--
ana--
and--
anda--
andspyrnu--
andstæði--
ang--
ani--
ann--
ans--
antho--
antilla--
any--
ao--
ap--
apa--
apo--
applic--
aqu--
aqui--
ar--
ara--
araba--
arc--
archaeo--
architec--
are--
arf--
ari--
arma--
armen--
arna--
arnar--
arnf--
ars--
art--
arð--
as--
ash--
ask--
asp--
ast--
at--
ath--
atlantshafs--
ato--
atvinnu--
au--
auga--
augn--
auk--
auka--
aus--
austfir--
austur--
auto--
auð--
auðu--
auðæ--
av--
aven--
avi--
ax--
ay--
az--
að--
aðal--
aðalatvinnu--
aðgerða--
aðildar--
aðstoðar--
aþe--
b--
ba--
bac--
bach--
back--
bad--
bai--
bak--
bakka--
bal--
balkan--
ban--
bana--
band--
banka--
bann--
bapt--
bar--
barents--
barn--
barna--
barns--
barða--
bask--
bassa--
bata--
bau--
bay--
bað--
bb--
be--
beau--
bec--
bed--
bee--
bei--
bein--
beina--
belg--
ben--
bend--
ber--
berg--
bergs--
bern--
bert--
beru--
bessa--
bet--
beta--
bey--
bh--
bi--
big--
bikar--
bil--
bin--
bio--
birg--
birki--
bis--
biskupa--
biskups--
bit--
bið--
bja--
bjarg--
bjarn--
bjø--
bla--
blað--
blaða--
ble--
blendings--
bli--
blikana--
blikk--
blo--
blu--
blue--
bly--
blæ--
bo--
bob--
boc--
boden--
bog--
boga--
bol--
bollu--
bon--
borg--
borgar--
borgara--
borho--
borð--
borðs--
bos--
bot--
botn--
bou--
bougain--
boul--
bour--
bout--
box--
boy--
boð--
br--
bra--
brad--
bragð--
bre--
brei--
breið--
breiða--
brenni--
brent--
breta--
brevi--
brey--
bri--
brim--
bro--
broad--
brodd--
brons--
bros--
brot--
brota--
brott--
bru--
brugð--
bruna--
bry--
bræ--
bræð--
bræðra--
bu--
bucking--
bug--
bun--
bundesli--
bura--
burt--
burðar--
bus--
but--
bver--
by--
bygginga--
byggingar--
byggða--
bylg--
bylgju--
byr--
byrje--
byssu--
bæ--
bæjar--
bæn--
bænda--
bær--
bæri--
bø--
c--
ca--
caicos--
cal--
cali--
calo--
can--
cap--
car--
cara--
cari--
carl--
cart--
cast--
cat--
cau--
ce--
celeb--
cent--
ceph--
cephalo--
ch--
cha--
champion--
char--
charac--
che--
chi--
chlo--
cho--
chry--
ci--
ciu--
ck--
cl--
clap--
cle--
clem--
clo--
cm--
co--
col--
coll--
colla--
colling--
com--
con--
confe--
cor--
corn--
cos--
coun--
cour--
cow--
cra--
cran--
cre--
cri--
cris--
cro--
cru--
cs--
cu--
cul--
cum--
cur--
cy--
cyp--
d--
da--
dag--
daglauna--
dags--
dai--
dal--
dala--
dam--
dan--
dana--
dans--
dar--
das--
dau--
dauð--
dauða--
dauðs--
day--
dda--
ddar--
de--
deci--
dei--
deilda--
deildar--
deili--
del--
deman--
den--
denta--
der--
des--
det--
deter--
dev--
dey--
di--
die--
diff--
dimm--
din--
dio--
dirf--
disa--
disc--
disk--
diso--
dj--
dja--
djarf--
dju--
do--
dober--
doc--
dolo--
dom--
don--
dr--
dra--
drama--
draum--
drauma--
dreifi--
dreka--
dri--
dro--
dru--
drukk--
drykk--
dræ--
ds--
du--
dul--
dular--
dum--
dun--
dur--
dut--
dv--
dver--
dy--
dyng--
dyngju--
dynja--
dyra--
dys--
dæ--
dægur--
dæt--
e--
ear--
east--
eb--
ec--
eck--
econom--
ed--
eddu--
edi--
edu--
ef--
efa--
efna--
efnahags--
efni--
efnis--
eftir--
eg--
egg--
eggja--
egils--
egy--
ei--
eigin--
eigna--
eik--
eimr--
ein--
einfald--
einingar--
einka--
einkan--
einkav--
einlæ--
einokunar--
eins--
eir--
eitil--
eitt--
eitur--
eið--
ek--
ekkju--
el--
ela--
eld--
eldi--
elec--
elek--
elep--
eli--
elli--
els--
em--
emer--
emo--
en--
end--
enda--
endi--
endur--
endurtek--
eng--
engi--
engil--
engja--
engl--
engla--
englands--
ens--
eo--
ep--
epi--
er--
era--
erfða--
eri--
erin--
erki--
erkifje--
es--
eski--
est--
et--
ethno--
ett--
eu--
euph--
euro--
ev--
eva--
eve--
evru--
ex--
exce--
exe--
exp--
explo--
ey--
eyja--
eyjar--
eymund--
eyra--
eyði--
eð--
eðlis--
f--
fa--
fag--
fagra--
fagradals--
fagur--
fair--
fal--
falk--
falklands--
fall--
fals--
fami--
fan--
fang--
fanga--
far--
fara--
farand--
farar--
farm--
farþega--
fasista--
fast--
fasta--
fat--
fau--
fax--
fað--
fe--
featu--
fegur--
fei--
feigs--
feit--
feitlet--
femi--
fen--
feney--
fengis--
fer--
ferju--
ferða--
fet--
fey--
feð--
ff--
fga--
fi--
fil--
filip--
fiml--
fimm--
fin--
finn--
fir--
fis--
fisk--
fiska--
fiski--
fitu--
fitz--
fiðlu--
fja--
fjall--
fjalla--
fjand--
fjar--
fjarlæ--
fjarrei--
fjarðar--
fje--
fk--
fl--
fla--
flat--
fle--
fley--
fli--
flo--
flokka--
flokks--
flota--
flu--
flug--
flugu--
fly--
flytje--
flæ--
flæmingja--
fm--
fna--
fnunar--
fo--
fol--
for--
form--
forn--
fornegy--
fos--
fossvogs--
fox--
fra--
frag--
frakka--
fram--
framan--
framfara--
framl--
framsæ--
fre--
fred--
free--
frelsis--
fri--
fried--
frið--
friðar--
friðsam--
fro--
frost--
fru--
frum--
frummynda--
frumu--
fry--
fræ--
fræða--
fræði--
fs--
fsa--
ft--
ftu--
ftækni--
fu--
fugl--
fugla--
full--
fullkom--
fun--
funda--
fundar--
fur--
fursta--
furðu--
fuð--
fuðs--
fv--
fvarða--
fy--
fylg--
fylgi--
fylgje--
fylkis--
fylli--
fyr--
fyri--
fyrir--
fyrr--
fæ--
fær--
færi--
fæðu--
fða--
fðar--
fðing--
fø--
g--
ga--
gaf--
gagn--
gagna--
gal--
galdra--
gall--
gamal--
gaman--
gan--
gandr--
gang--
gar--
garð--
garða--
gas--
gat--
gau--
gaul--
gaut--
gaz--
gb--
gbu--
ge--
gef--
geim--
geir--
geis--
geisla--
geit--
geld--
geldinga--
gen--
geno--
geog--
ger--
gervi--
gesc--
gest--
gesta--
get--
getnaðar--
gey--
geð--
geðshræ--
gfræði--
gg--
ggi--
ggja--
ggs--
ggu--
ghita--
gi--
gian--
gil--
gims--
gin--
ginn--
gir--
gisti--
gja--
gjald--
gl--
gla--
glað--
gler--
glett--
gley--
gleð--
gleði--
gli--
glo--
glouce--
glu--
gly--
glæ--
glæpam--
glæsi--
glæsileg--
gm--
gmanns--
gmark--
gmund--
gn--
gna--
gnar--
gnæ--
go--
god--
gold--
golf--
gon--
gor--
gos--
got--
gou--
goul--
goð--
goða--
goðsagna--
gr--
gra--
graci--
graf--
granna--
grape--
gras--
grasa--
gre--
green--
greft--
greglu--
greið--
grenn--
gri--
grip--
grið--
gro--
groen--
gru--
grund--
grunn--
gry--
græ--
græn--
græð--
grønl--
gs--
gslu--
gt--
gu--
gua--
guate--
guer--
gufu--
gui--
gul--
gula--
gull--
gulls--
gum--
gun--
gunar--
gunn--
guo--
gur--
gust--
guð--
guðs--
gva--
gve--
gvæ--
gy--
gyld--
gyll--
gyð--
gæ--
gæfu--
gær--
gæslu--
gæða--
gð--
gþings--
h--
ha--
haber--
hack--
haf--
hafna--
hafnar--
hafra--
hag--
haga--
hagfræði--
hai--
hal--
halda--
halds--
hall--
hallar--
ham--
hamra--
han--
hand--
handa--
handrita--
hann--
hansakaup--
hansas--
happ--
har--
hard--
harm--
hart--
harð--
has--
hat--
haust--
haw--
hay--
he--
hed--
hef--
hefð--
hefðar--
hei--
heil--
heila--
heilbri--
heild--
heildar--
heilsu--
heim--
heima--
heims--
heimsmeistara--
heimspeki--
hein--
heit--
heið--
heiðurs--
hel--
helgi--
hell--
hellu--
helsingja--
hengi--
hepp--
her--
hera--
hergagna--
hernaðar--
herra--
hers--
herða--
herðu--
hest--
hesta--
het--
hetju--
hey--
heyr--
hi--
high--
hildi--
him--
himin--
hin--
hipp--
hirð--
hit--
hita--
hja--
hjalla--
hjalt--
hjarta--
hjarð--
hjarðar--
hje--
hla--
hle--
hlið--
hliðar--
hlu--
hlut--
hna--
hnapp--
hnat--
hne--
hnefa--
hnefaleika--
hnei--
hnepp--
hneyks--
hni--
hnit--
hno--
hnu--
hny--
ho--
hof--
hohenzo--
hol--
hold--
holu--
hon--
hop--
horn--
hornaf--
how--
hr--
hra--
hrafn--
hraun--
hraust--
hrað--
hraða--
hraðs--
hrei--
hrein--
hreið--
hrek--
hrep--
hres--
hrey--
hreyfi--
hreða--
hri--
hrif--
hrifa--
hrika--
hring--
hro--
hroll--
hru--
hrun--
hrunam--
hry--
hrygg--
hrylli--
hræ--
hræði--
hu--
hug--
huga--
hugar--
huldu--
hund--
hunda--
hungur--
hus--
hva--
hval--
hvala--
hvalfja--
hvalfjarðar--
hvalveiði--
hvann--
hvarf--
hvassa--
hvat--
hvata--
hve--
hvelfi--
hver--
hvers--
hversdags--
hvi--
hvo--
hvolf--
hy--
hygg--
hyper--
hyrnings--
hæ--
hæfi--
hægri--
hættu--
hø--
i--
ia--
ib--
ic--
ice--
ich--
id--
ie--
if--
ijs--
il--
ill--
illu--
ilm--
im--
imag--
in--
inc--
inclu--
inde--
indu--
ing--
ingi--
ingja--
inn--
innan--
inni--
inno--
innstæðu--
innstæðut--
ins--
int--
integ--
inter--
inva--
inve--
ip--
ir--
is--
iso--
it--
iv--
ið--
iðn--
iðnaðar--
j--
ja--
jacque--
jafn--
jam--
jan--
jar--
jaris--
jarl--
jarte--
jarð--
jarðs--
jarðsko--
jarðvarma--
java--
jað--
jaðar--
je--
jew--
ji--
jin--
jo--
joa--
jon--
ju--
jun--
jurta--
k--
ka--
kaa--
kaf--
kaffi--
kafor--
kaft--
kai--
kald--
kalk--
kalks--
kall--
kalmar--
kammer--
kams--
kan--
kana--
kap--
kapel--
kapp--
kar--
karl--
karla--
karls--
karpat--
kasak--
kata--
kau--
kaup--
kaupa--
kay--
kb--
ke--
kei--
keisara--
keldu--
kelt--
keltnes--
kem--
ken--
kennara--
kenni--
kennslu--
kepp--
keppnis--
ker--
kerfis--
ket--
key--
keðju--
kgreiningar--
kh--
khy--
ki--
kim--
kin--
kinga--
kinn--
kir--
kirkju--
kirkjubæjar--
kis--
kit--
kja--
kjal--
kjalarnes--
kjarasam--
kjarn--
kjarna--
kjarno--
kjarnorku--
kjarr--
kje--
kju--
kjuve--
kk--
kka--
kki--
kku--
kkvi--
kl--
kla--
klakk--
klapp--
klei--
kler--
klett--
kletta--
kli--
klo--
klu--
klukkna--
klukku--
kly--
klæ--
klæð--
klæða--
km--
kmennta--
kn--
kna--
knapp--
knar--
kne--
kni--
kniefna--
knræ--
ko--
kol--
kola--
koll--
kom--
kon--
kontra--
konu--
konungs--
kopar--
korn--
kort--
kos--
kosninga--
kost--
kot--
kr--
kra--
kraft--
kre--
kredit--
kri--
kring--
krist--
kro--
kross--
kru--
krum--
krunar--
krunarf--
kry--
krydd--
krypp--
kræ--
ks--
ksemda--
ksemdafær--
kt--
ktil--
ku--
kul--
kulda--
kum--
kun--
kunar--
kur--
kurtei--
kus--
kust--
kuðu--
kv--
kva--
kvart--
kven--
kvenn--
kvenna--
kver--
kvi--
kvik--
kvikmynda--
kvið--
kvo--
kvæ--
kvæða--
kw--
ky--
kyn--
kynferðis--
kynja--
kyr--
kyrr--
kæ--
kænu--
kær--
kæru--
l--
la--
lac--
laf--
lafram--
lafs--
lag--
laga--
lager--
lags--
lahr--
lai--
lak--
lakir--
lakre--
lam--
lamei--
lamið--
lan--
land--
landa--
lands--
lang--
langa--
lapp--
lar--
lara--
lari--
las--
lasam--
last--
lasv--
lasve--
lat--
lau--
lauf--
laug--
lauk--
laun--
launa--
laus--
law--
lax--
laxa--
lay--
lba--
lby--
ld--
lda--
ldar--
ldu--
ldun--
le--
lea--
leb--
lec--
leeu--
leg--
legu--
lei--
leigu--
leik--
leikja--
leir--
leitar--
leið--
lendu--
lengju--
leo--
lepp--
les--
lesa--
lest--
lestar--
let--
letur--
ley--
leyni--
leð--
leður--
lf--
lfa--
lfar--
lfara--
lfboða--
lflu--
lfr--
lfræði--
lfs--
lfseignar--
lfstæðis--
lfta--
lg--
lga--
lgar--
lger--
lgrei--
lgu--
lheima--
li--
lie--
life--
lil--
lim--
lin--
lir--
lis--
list--
lista--
lit--
lita--
lits--
lið--
liða--
liðs--
lk--
lka--
lkn--
lkna--
lks--
lku--
lkur--
ll--
lla--
lli--
llu--
lm--
lma--
lmið--
lmiðla--
lms--
ln--
lna--
lni--
lno--
lo--
lof--
loft--
log--
loga--
lok--
loka--
lon--
long--
loph--
los--
lotu--
lou--
loð--
lp--
lpar--
lpræðishe--
lreiða--
ls--
lsa--
lskyldu--
lsly--
lst--
lsu--
lsy--
lt--
ltu--
ltæ--
lu--
luc--
ludo--
lukku--
lum--
lun--
lunda--
lungna--
lur--
lus--
luset--
lusit--
luxem--
lva--
lvi--
lvu--
lvuleikja--
ly--
lyco--
lyf--
lyfja--
lyki--
lykla--
lyng--
lysti--
læ--
lægs--
læk--
lækjar--
lækna--
læknis--
lær--
læri--
lø--
m--
ma--
maa--
mabu--
mac--
mad--
mag--
maga--
magn--
mai--
mal--
man--
mana--
mani--
mann--
manna--
manns--
mannvistar--
mante--
manu--
map--
mar--
marg--
mark--
marka--
markað--
markaðs--
marks--
mars--
mart--
mas--
maset--
massa--
mat--
matar--
mathe--
mats--
matvæla--
may--
mb--
mc--
mcc--
mcg--
md--
mdc--
me--
med--
megin--
mei--
mein--
meistara--
meit--
meið--
mel--
meltingar--
men--
menn--
menningar--
mennta--
mer--
mera--
mers--
messu--
met--
meta--
mey--
með--
meðal--
mg--
mh--
mi--
mic--
micran--
micro--
mid--
mig--
mik--
mikil--
miklu--
mil--
milli--
miltis--
min--
mini--
minja--
minni--
mique--
mir--
mis--
mishepp--
miss--
mit--
mix--
miya--
mið--
miðalda--
miðfja--
miðju--
miðnes--
miðviku--
mja--
mjað--
mk--
mkirkju--
ml--
mm--
mmu--
mna--
mo--
mold--
mon--
mono--
mons--
mont--
mor--
morkin--
morð--
mos--
mosa--
mot--
motma--
mp--
mr--
ms--
msa--
mskip--
mstun--
mt--
mu--
mugi--
mul--
multi--
mum--
mun--
munaðar--
munka--
munn--
mur--
mus--
mv--
my--
mynd--
mynda--
myndskrey--
mynst--
mynt--
myrk--
myrkva--
mæ--
mæla--
mæli--
mæð--
mæðra--
mø--
n--
na--
nafn--
nafna--
nai--
nam--
nan--
nao--
nar--
nas--
nashy--
nasista--
nast--
nat--
nau--
naut--
nauð--
nauðungar--
naðar--
nb--
nc--
nd--
nda--
ndar--
ndeildar--
ndu--
ndunar--
ne--
nef--
nei--
neitunar--
neo--
nes--
net--
neu--
new--
news--
ney--
neyslu--
nf--
ng--
nga--
ngar--
nger--
ngs--
ngu--
ngul--
ngva--
nh--
ni--
nie--
nift--
niftein--
nigs--
ningar--
nings--
nis--
nista--
nix--
nið--
niðr--
niður--
nja--
nk--
nl--
nleika--
nlistar--
nm--
nn--
nnunar--
no--
nor--
nord--
noregs--
norð--
norðfja--
norður--
nos--
not--
nou--
nov--
nr--
nræ--
ns--
nshæfisein--
nsk--
nst--
nsti--
nstil--
nt--
nteg--
ntu--
nu--
num--
nun--
nunnu--
nur--
nus--
nusar--
nustu--
nv--
nvarps--
nvei--
nvet--
ny--
nytja--
nytsam--
nzi--
næ--
næfur--
næmiss--
nær--
næringar--
næst--
nætur--
o--
oak--
ob--
ober--
oc--
occi--
odd--
odda--
odds--
odo--
of--
ofan--
off--
oft--
ofur--
og--
oh--
ok--
ol--
old--
ole--
oly--
olympi--
om--
on--
op--
open--
or--
org--
ori--
orku--
orm--
orms--
orsaka--
orð--
orða--
os--
osna--
ott--
ou--
out--
ova--
over--
ox--
oxu--
oxunar--
p--
pa--
pac--
pan--
par--
para--
parvi--
pas--
pat--
pav--
pavogs--
pay--
pe--
pec--
pel--
pen--
peninga--
per--
perlu--
persa--
peru--
pey--
ph--
phy--
phyto--
pi--
pic--
pie--
pils--
pilt--
pin--
pist--
pit--
piz--
pl--
pla--
play--
ple--
plei--
plo--
plu--
po--
pol--
politi--
pomp--
pop--
popp--
pos--
post--
pot--
pp--
pra--
pre--
predi--
prent--
prests--
pri--
pro--
pru--
ps--
pseudo--
psy--
psycho--
pt--
pu--
pulsa--
pumei--
pun--
punar--
pur--
purpura--
pus--
put--
px--
py--
pynti--
pyrr--
pyrrhon--
pæ--
q--
qu--
que--
qui--
quo--
r--
ra--
rad--
radd--
raf--
rafmagns--
raforku--
rafsegul--
rafsegulf--
rak--
rakos--
ral--
ralæ--
ram--
ran--
rang--
rangl--
rannsak--
rapp--
rar--
rara--
ras--
rat--
rau--
raun--
rauð--
rauða--
ray--
rað--
raðs--
rb--
rbanda--
rbo--
rbrey--
rbu--
rbæ--
rbæjar--
rc--
rd--
rdals--
rdæ--
re--
rea--
recon--
red--
ref--
refnis--
refsi--
reglu--
regn--
rei--
reikni--
reiknings--
reiml--
reið--
reka--
rem--
ren--
res--
reu--
revi--
rey--
reyk--
reyni--
reynis--
reyðarfja--
rf--
rfa--
rfe--
rfram--
rfræði--
rfu--
rfurst--
rfy--
rfyrir--
rg--
rgunar--
rgunars--
rhag--
rhe--
rhizo--
rho--
rhr--
rhu--
rhy--
ri--
rid--
rie--
rif--
rik--
ringa--
ris--
risa--
riskip--
rit--
rið--
rk--
rka--
rkaup--
rkost--
rku--
rla--
rlaga--
rli--
rly--
rlygs--
rlygsstaða--
rma--
rmagns--
rmu--
rn--
rna--
rnar--
rnarand--
rnes--
rns--
rnskipu--
rnu--
rnunar--
ro--
rob--
rock--
rod--
rodd--
ron--
rorr--
ros--
rosa--
rose--
rou--
row--
rox--
rp--
rpu--
rr--
rre--
rs--
rsa--
rsi--
rsk--
rsko--
rslita--
rsmæðareik--
rst--
rsæ--
rt--
rteg--
rtu--
rtæ--
ru--
rugli--
rum--
ruminja--
rumun--
run--
runar--
rus--
rush--
rust--
rut--
ruverðla--
ruð--
rva--
rvel--
rvi--
ry--
ryggis--
ryð--
ræ--
ræfa--
rækju--
rækta--
ræktunar--
ræðu--
rð--
rða--
rðar--
rðu--
rðugl--
rø--
s--
sa--
saa--
sac--
saff--
safn--
safna--
sagn--
sagna--
sahara--
sai--
sak--
sakar--
sakborn--
sal--
saloft--
salt--
salva--
sam--
sama--
saman--
sambands--
samlag--
samly--
samninga--
samræ--
samstarfs--
samt--
samvinnu--
san--
sand--
sannfær--
sanng--
sannl--
sannr--
sapi--
sar--
sat--
sau--
sauð--
sauða--
sax--
sbe--
sc--
scandi--
scapa--
scar--
scep--
sch--
schle--
schm--
scho--
schu--
schwe--
sci--
sco--
scor--
sdy--
se--
sea--
seba--
sec--
see--
sef--
seg--
segul--
sei--
sein--
sek--
sel--
sela--
selja--
selje--
sem--
sen--
sendi--
sep--
ser--
serb--
ses--
set--
setu--
sex--
sey--
sg--
sha--
she--
shi--
sho--
shr--
shu--
si--
sid--
sie--
sif--
sig--
siglingaf--
siglingal--
sigur--
sik--
sil--
silfur--
silki--
sim--
sin--
sinda--
singa--
sinu--
sir--
sis--
sit--
sitt--
six--
sið--
siðaskipt--
sja--
sje--
sk--
ska--
skaft--
skag--
skaga--
skamm--
skan--
skap--
skar--
skarð--
skatt--
skatta--
skað--
ske--
skel--
skemmti--
sker--
skess--
ski--
skil--
skila--
skinn--
skip--
skipa--
skips--
skipuleggje--
skju--
sko--
skopstæ--
skot--
skota--
skra--
skraut--
skrey--
skri--
skrif--
skrið--
skriðu--
skro--
skræ--
sku--
skugga--
skuld--
skulda--
skur--
skurð--
skurðað--
skv--
sky--
skygg--
skylmi--
skylminga--
skyn--
skynsam--
skyr--
skæ--
skær--
skæru--
skæruliða--
sl--
sla--
slag--
slands--
slar--
sle--
sli--
slima--
slo--
slu--
sly--
slys--
slæ--
sm--
sma--
smala--
sme--
smekk--
smit--
smo--
smokk--
smu--
smur--
smy--
smæ--
sn--
sna--
snar--
sne--
snemm--
sni--
snið--
snjall--
sno--
sny--
snæ--
so--
soci--
solo--
som--
some--
son--
song--
sorg--
sorp--
sou--
sp--
spa--
spau--
spaugsto--
spe--
spec--
speci--
speg--
spek--
spennu--
sper--
spi--
spil--
spila--
spja--
spjall--
spo--
spor--
sprau--
spre--
spren--
sprengi--
spro--
sprun--
spu--
squ--
sr--
ss--
ssa--
sslands--
st--
sta--
staf--
stafa--
stal--
stan--
star--
starfs--
stað--
staða--
staðar--
ste--
stefnu--
stei--
stein--
stekk--
stey--
steypi--
steð--
sti--
stift--
stiftam--
stig--
stiga--
stimp--
stir--
stjarnfræði--
sto--
stofn--
stork--
storku--
stoð--
stra--
strand--
strass--
stre--
strey--
streymis--
stro--
strump--
sts--
stu--
stur--
sty--
styr--
styrja--
styrk--
stæ--
su--
sua--
sub--
subs--
subsec--
sum--
sumar--
sun--
sund--
sunda--
sundur--
sunnl--
super--
sur--
surtar--
survi--
suð--
suðu--
suður--
sv--
sva--
svalbarðs--
svar--
svart--
svefn--
svei--
svein--
sveita--
svep--
sveppa--
sver--
sverð--
svet--
svi--
svip--
sviss--
svið--
svo--
svun--
svæðis--
sw--
swa--
swe--
sy--
sykur--
symp--
syn--
synd--
synda--
systur--
sz--
sæ--
sæl--
sø--
t--
ta--
taci--
taf--
tafl--
tai--
tak--
taka--
tal--
talna--
tals--
tam--
tan--
tannh--
tannlæ--
tap--
tar--
tas--
tau--
tauga--
tax--
taxo--
tbolta--
tbu--
td--
te--
teac--
tefna--
tei--
teigs--
tein--
tek--
tekju--
tel--
temp--
ten--
tengi--
tennis--
ter--
testa--
tetra--
tex--
texta--
tey--
tf--
tg--
tga--
th--
tha--
thafs--
the--
thi--
tho--
thor--
thu--
thver--
ti--
tier--
tign--
til--
tileg--
tilrauna--
tils--
tim--
timbur--
tin--
tis--
tit--
titil--
tja--
tjald--
tjarnar--
tjingve--
tla--
tli--
tlits--
tlu--
tlæ--
tm--
tmæla--
tn--
tna--
to--
togs--
toll--
tom--
ton--
top--
topp--
tor--
torf--
tos--
tr--
tra--
trans--
tre--
trei--
tri--
tro--
trommu--
tru--
try--
tryggi--
trygginga--
ts--
tsau--
tse--
tskri--
tsu--
tt--
tta--
ttar--
tti--
ttinda--
ttm--
ttu--
ttur--
ttæ--
tu--
tug--
tuga--
tun--
tunar--
tundu--
tungl--
tungu--
tur--
turn--
turs--
tus--
tuums--
tv--
tva--
tvarps--
tvegs--
tvi--
tvinn--
tw--
twe--
ty--
tz--
tæ--
tæk--
tæki--
tækni--
tækra--
tær--
u--
ugga--
uk--
ukei--
ukir--
ukre--
ul--
ull--
ullar--
um--
umbu--
umei--
umhverfis--
umlu--
umsækje--
un--
una--
unar--
und--
undan--
under--
undir--
unefn--
ung--
ungling--
ungliða--
uni--
up--
upp--
uppfy--
upphafs--
uppi--
uppspre--
upptal--
uppva--
ur--
urðar--
us--
usa--
ut--
utan--
uti--
uxa--
v--
va--
vafa--
vagn--
vakt--
val--
vald--
valda--
valla--
vals--
van--
vana--
vand--
vandkv--
var--
vara--
varma--
varnar--
varp--
varps--
varð--
vatna--
vatns--
vax--
vaxta--
vaxtar--
vað--
ve--
vec--
ved--
vef--
vefnaðar--
veg--
vega--
vegfar--
vegg--
vei--
veiga--
veik--
veir--
veiði--
vel--
velme--
vendi--
vens--
ver--
verald--
verk--
verka--
vers--
versala--
verslunar--
veru--
verz--
verð--
vest--
vestmannaey--
[...]
