!
"
#
##a
##aa
##ab
##ac
##ad
##ae
##af
##ag
##ah
##ai
##aj
##ak
##al
##am
##an
##ao
##ap
##aq
##ar
##as
##at
##au
##av
##aw
##ax
##ay
##az
##b
##ba
##bb
##bc
##bd
##be
##bf
##bg
##bh
##bi
##bj
##bk
##bl
##bm
##bn
##bo
##bp
##bq
##br
##bs
##bt
##bu
##bv
##bw
##bx
##by
##bz
##c
##ca
##cb
##cc
##cd
##ce
##cf
##cg
##ch
##ci
##cj
##ck
##cl
##cm
##cn
##co
##cp
##cq
##cr
##cs
##ct
##cu
##cv
##cw
##cx
##cy
##cz
##d
##da
##db
##dc
##dd
##de
##df
##dg
##dh
##di
##dj
##dk
##dl
##dm
##dn
##do
##dp
##dq
##dr
##ds
##dt
##du
##dv
##dw
##dx
##dy
##dz
##e
##ea
##eb
##ec
##ed
##ee
##ef
##eg
##eh
##ei
##ej
##ek
##el
##em
##en
##eo
##ep
##eq
##er
##es
##et
##eu
##ev
##ew
##ex
##ey
##ez
##f
##fa
##fb
##fc
##fd
##fe
##ff
##fg
##fh
##fi
##fj
##fk
##fl
##fm
##fn
##fo
##fp
##fq
##fr
##fs
##ft
##fu
##fv
##fw
##fx
##fy
##fz
##g
##ga
##gb
##gc
##gd
##ge
##gf
##gg
##gh
##gi
##gj
##gk
##gl
##gm
##gn
##go
##gp
##gq
##gr
##gs
##gt
##gu
##gv
##gw
##gx
##gy
##gz
##h
##ha
##hb
##hc
##hd
##he
##hf
##hg
##hh
##hi
##hj
##hk
##hl
##hm
##hn
##ho
##hp
##hq
##hr
##hs
##ht
##hu
##hv
##hw
##hx
##hy
##hz
##i
##ia
##ib
##ic
##id
##ie
##if
##ig
##ih
##ii
##ij
##ik
##il
##im
##in
##io
##ip
##iq
##ir
##is
##it
##iu
##iv
##iw
##ix
##iy
##iz
##j
##ja
##jb
##jc
##jd
##je
##jf
##jg
##jh
##ji
##jj
##jk
##jl
##jm
##jn
##jo
##jp
##jq
##jr
##js
##jt
##ju
##jv
##jw
##jx
##jy
##jz
##k
##ka
##kb
##kc
##kd
##ke
##kf
##kg
##kh
##ki
##kj
##kk
##kl
##km
##kn
##ko
##kp
##kq
##kr
##ks
##kt
##ku
##kv
##kw
##kx
##ky
##kz
##l
##la
##lb
##lc
##ld
##le
##lf
##lg
##lh
##li
##lj
##lk
##ll
##lm
##ln
##lo
##lp
##lq
##lr
##ls
##lt
##lu
##lv
##lw
##lx
##ly
##lz
##m
##ma
##mb
##mc
##md
##me
##mf
##mg
##mh
##mi
##mj
##mk
##ml
##mm
##mn
##mo
##mp
##mq
##mr
##ms
##mt
##mu
##mv
##mw
##mx
##my
##mz
##n
##na
##nb
##nc
##nd
##ne
##nf
##ng
##nh
##ni
##nj
##nk
##nl
##nm
##nn
##no
##np
##nq
##nr
##ns
##nt
##nu
##nv
##nw
##nx
##ny
##nz
##o
##oa
##ob
##oc
##od
##oe
##of
##og
##oh
##oi
##oj
##ok
##ol
##om
##on
##oo
##op
##oq
##or
##os
##ot
##ou
##ov
##ow
##ox
##oy
##oz
##p
##pa
##pb
##pc
##pd
##pe
##pf
##pg
##ph
##pi
##pj
##pk
##pl
##pm
##pn
##po
##pp
##pq
##pr
##ps
##pt
##pu
##pv
##pw
##px
##py
##pz
##q
##qa
##qb
##qc
##qd
##qe
##qf
##qg
##qh
##qi
##qj
##qk
##ql
##qm
##qn
##qo
##qp
##qq
##qr
##qs
##qt
##qu
##qv
##qw
##qx
##qy
##qz
##r
##ra
##rb
##rc
##rd
##re
##rf
##rg
##rh
##ri
##rj
##rk
##rl
##rm
##rn
##ro
##rp
##rq
##rr
##rs
##rt
##ru
##rv
##rw
##rx
##ry
##rz
##s
##sa
##sb
##sc
##sd
##se
##sf
##sg
##sh
##si
##sj
##sk
##sl
##sm
##sn
##so
##sp
##sq
##sr
##ss
##st
##su
##sv
##sw
##sx
##sy
##sz
##t
##ta
##tb
##tc
##td
##te
##tf
##tg
##th
##ti
##tj
##tk
##tl
##tm
##tn
##to
##tp
##tq
##tr
##ts
##tt
##tu
##tv
##tw
##tx
##ty
##tz
##u
##ua
##ub
##uc
##ud
##ue
##uf
##ug
##uh
##ui
##uj
##uk
##ul
##um
##un
##uo
##up
##uq
##ur
##us
##ut
##uu
##uv
##uw
##ux
##uy
##uz
##v
##va
##vb
##vc
##vd
##ve
##vf
##vg
##vh
##vi
##vj
##vk
##vl
##vm
##vn
##vo
##vp
##vq
##vr
##vs
##vt
##vu
##vv
##vw
##vx
##vy
##vz
##w
##wa
##wb
##wc
##wd
##we
##wf
##wg
##wh
##wi
##wj
##wk
##wl
##wm
##wn
##wo
##wp
##wq
##wr
##ws
##wt
##wu
##wv
##ww
##wx
##wy
##wz
##x
##xa
##xb
##xc
##xd
##xe
##xf
##xg
##xh
##xi
##xj
##xk
##xl
##xm
##xn
##xo
##xp
##xq
##xr
##xs
##xt
##xu
##xv
##xw
##xx
##xy
##xz
##y
##ya
##yb
##yc
##yd
##ye
##yf
##yg
##yh
##yi
##yj
##yk
##yl
##ym
##yn
##yo
##yp
##yq
##yr
##ys
##yt
##yu
##yv
##yw
##yx
##yy
##yz
##z
##za
##zb
##zc
##zd
##ze
##zf
##zg
##zh
##zi
##zj
##zk
##zl
##zm
##zn
##zo
##zp
##zq
##zr
##zs
##zt
##zu
##zv
##zw
##zx
##zy
##zz
$
%
&
'
(
)
*
+
,
-
.
/
0
00
000
0001
001
0013
002
003
0036
005
009051
01
012
013
0140
018
02
0258
02582473
03
0302
03022014
031
033
04
05
05056
052
0527
056
06
07
073003
08
09
0909090909
0959
0a
0b
0c
0d
0e
0f
0g
0h
0i
0j
0k
0l
0m
0n
0o
0p
0q
0r
0s
0t
0u
0v
0w
0x
0y
0z
1
10
100
1000
1002
1007
101
1016
102
1038
104
105
106
1066
107
108
1080
109
1093
1099
11
110
111
1111
1126
113
1139
114
115
1154
116
11667
117
1177
118
119
12
120
121
122
123
125
126
127
128
12939
13
130
131
133
134
135
137
1371
14
140
1415926535
1453
147
148
1487
149
15
150
1500
151
1513
1517
1518824
152
153
1533
1536
1547
1557
156380
158
159
1592107
16
160
1600
161
164
165
166
16667
167
1685
169
17
170
1700
1703
1707
171
1714
1736
175
1750
1760
177
1779
1780
1789
1790
1791
1796
1797
1798
1799
18
180
1800
1801
1803
1806
181
1811
1813
1814
1815
1816
1818
1819
1820
1821
1829
1830
1834
1835
1836
1837
184
1840
1843
1844
1846
1847
1848
1849
185
1850
1851
1852
1853
1855
1856
1857
1858
1859
1860
1861
1862
1865
1866
1867
1868
1869
187
1870
1871
1872
1873
1874
1875
1876
1877
1878
1879
1880
1881
1882
1884
1885
1886
1887
1888
1889
189
1890
1891
1892
1893
1894
1895
1896
1897
1898
1899
19
190
1900
1901
1902
1903
1904
1905
1906
1907
1908
1909
1910
1911
1912
1913
1914
1915
1916
1917
1918
1919
192
1920
1921
1922
1923
1924
1925
1926
1927
1928
1929
1930
1931
1932
1933
1934
1935
1936
1937
1938
1939
194
1940
1941
1942
1943
1944
1945
1946
1947
1948
1949
195
1950
1951
1952
1953
1954
1955
1956
1957
1958
1959
1960
1961
1962
1963
1964
1965
1966
1967
19671
1968
1969
197
1970
1971
1972
1973
1974
1975
1975126
1975127
1975128
1976
1977
1978
1979
1980
1981
1982
1983
1984
1985
1986
1987
1988
1989
199
1990
1991
1992
1993
1994
1995
1996
1997
1998
1999
1a
1b
1c
1d
1e
1f
1g
1h
1i
1j
1k
1l
1m
1n
1o
1p
1q
1r
1s
1t
1u
1v
1w
1x
1y
1z
2
20
200
2000
2001
2002
2003
2004
2005
2006
200647
2007
2008
2009
2010
2011
2012
2013
2014
2015
2016
2017
2018
2019
2020
20200925125424
2021
2022
203
206
2095
21
210
211
21603
22
220
222
225
227
22766
23
2307
2308
23245604
235
238
239
24
240
243
247
2473
249
25
250
257
26
260
261
262
265
268
27
272
275
276
278
28
283
284
287
29
290
2973180
298
299
2a
2b
2c
2d
2e
2f
2g
2h
2i
2j
2k
2l
2m
2n
2o
2p
2q
2r
2s
2t
2u
2v
2w
2x
2y
2z
3
30
300
3000
301
302
303
304
305
307
309
31
311
316
319
32
320
3201
321
322
323
324
328
33
333333
34
341
344
35
350
355
357
36
365
367
37
370
375
378
38
380
39
390
393
396
3a
3b
3c
3d
3e
3f
3g
3h
3i
3j
3k
3l
3m
3n
3o
3p
3q
3r
3s
3t
3u
3v
3w
3x
3y
3z
4
40
400
402
403
405
4057
41
410
414213
415
4160
417
42
43
431
44
444
448
45
450
452
453
46
460
462
4648
47
478
48
481
49
491
498
4a
4b
4c
4d
4e
4f
4g
4h
4i
4j
4k
4l
4m
4n
4o
4p
4q
4r
4s
4t
4u
4v
4w
4x
4y
4z
5
50
500
507
51
511229
512
516
52
520
521
5243320
53
54
540
55
559
56
57
575
58
5831
5876
59
5a
5b
5c
5d
5e
5f
5g
5h
5i
5j
5k
5l
5m
5n
5o
5p
5q
5r
5s
5t
5u
5v
5w
5x
5y
5z
6
60
600
601
6040
61
61728
61806
62
63
632
633
636
64
6441
65
650
66
67
6736
675
675810
679
68
69
691
6a
6b
6c
6d
6e
6f
6g
6h
6i
6j
6k
6l
6m
6n
6o
6p
6q
6r
6s
6t
6u
6v
6w
6x
6y
6z
7
70
700
705
71
718
72
722
726
72638
727
73
74
75
750
76
77
770
776
78
786
79
7a
7b
7c
7d
7e
7f
7g
7h
7i
7j
7k
7l
7m
7n
7o
7p
7q
7r
7s
7t
7u
7v
7w
7x
7y
7z
8
80
800
81
8138
81667
82
83
84
8423
8491
85
850
8518064591
86
86667
86814
86954
87
87201129
874
878
88
888
89
89051
8a
8b
8c
8d
8e
8f
8g
8h
8i
8j
8k
8l
8m
8n
8o
8p
8q
8r
8s
8t
8u
8v
8w
8x
8y
8z
9
90
91
92
92165
93
9330
94
95
96
97
972
978
9780190277734
9781561592630
9781841463766
9781850085430
979
98
9859
99
9a
9b
9c
9d
9e
9f
9g
9h
9i
9j
9k
9l
9m
9n
9o
9p
9q
9r
9s
9t
9u
9v
9w
9x
9y
9z
:
;
<
=
>
?
@
[
[CLS]
[MASK]
[PAD]
[SEP]
[UNK]
\
]
^
_
`
a
a0
a1
a2
a3
a4
a5
a6
a7
a8
a9
aa
aaba
aabo
aaron
ab
aba
ababalulekileyo
ababamnkela
ababandakanyeka
ababandezelekileyo
ababathobeli
ababe
ababechasene
ababekhokele
ababenjongane
ababephantsi
ababesele
ababesenza
ababesuka
ababevela
ababezimase
ababezinze
ababeziphatha
ababhali
ababhalisela
ababhinqileyo
ababini
ababizwa
abacinga
abaculi
abacus
abadala
abadibene
abadlali
abadlalise
abafaka
abafana
abafanelekileyo
abafazi
abafika
abafoti
abafun
abafuna
abafunda
abafunde
abafundi
abafundisi
abafuni
abafunyaniswe
abagcini
abagqatswa
abagulayo
abagxothwa
abahamba
abahambi
abahila
abahlala
abahlalayo
abahlali
abahlanu
abahleli
abahlobo
abahlohli
abahloli
abahlolokazi
abajongene
abakha
abakhe
abakho
abakholelwa
abakhoyo
abakhulu
abakhuluwa
abakhwetha
abakomishinala
abakule
abakuzo
abakwa
abakwamgodeli
abakwaziyo
abakwena
abakwinqanaba
abakwiphiko
abakwizikolo
abalandela
abalandelayo
abalandeli
abalawuli
abaleke
abali
abalinganiswa
abaliqela
abalishumi
abaliswa
abaluleke
abalulekileyo
abalusi
abamalunga
abamaninzi
abambalwa
abambe
abamele
abamelwane
abamelwe
abamhlophe
abamnyama
abamphoxayo
abanakwabo
abanalo
abanatural
abanayo
abanazo
abancedise
abancinane
abancinci
abanda
abandakanyekayo
abandayo
abane
abanefuthe
abaneminyaka
abanempilo
abanesifo
abanesisifo
abanga
abangakwazi
abangakwaziyo
abangama
abangamabhinqa
abangamagqwirha
abangamakhwenkwe
abangamanina
abangamantombazana
abangaphantsi
abangaphaya
abangaphezu
abangaphezulu
abangathathi
abangavumiyo
abangazange
abangenabazali
abangondlekanga
abangotata
abanikazi
abaninzi
abanjwe
abanokuba
abanomlandu
abantetho
abantsundu
abantu
abantwabahle
abantwana
abanxiba
abanxibelelana
abanyanisekileyo
abanye
abanzi
abaphakathi
abaphambili
abaphandi
abaphathi
abaphathiswa
abaphila
abaphilayo
abaphuma
abaphumeleleyo
abaqaphela
abaqaqambileyo
abaqeshi
abaqhuba
abaqikelelwa
abaququzeleli
abasawenzi
abasebenza
abasebenzela
abasebenzi
abasebenzisa
abasele
abaseleyo
abaselula
abasemagunyeni
abasempilweni
abasetyhini
abashiywe
abasibhozo
abasithetha
abasixhenxe
abasoloko
abasulelweyo
abathabatha
abathanda
abathandanayo
abathandathu
abathandi
abathatha
abathathi
abathathu
abathe
abathembu
abathengi
abathetha
abathi
abathile
abathunywa
abatsha
abatshana
abatya
abavela
abavelisi
abaxhasi
abaya
abaye
abayi
abayisebenzisayo
abaza
abazali
abazange
abazii
abazimeleyo
abaziwayo
abazizigidi
abazobi
abazukulwana
abbey
abboud
abc
abdomen
abe
abehlala
abeka
abeke
abekelwe
abekwe
abelungu
abemdala
abemi
abengabo
abengomnye
abengumntu
abengumongameli
abenguni
abenza
abenze
abenzi
abercrombie
abesuthu
abeyi
abeyinxalenye
abeza
abhala
abhale
abhaliweyo
abhalwa
abhalwe
abhatale
abhekisa
abhubhe
abilisiweyo
abizwa
abizwe
abkhaz
abkhazia
abkhazian
able
abo
abolekwe
abomvu
abona
abonakala
abonakale
abonakalise
abone
aboni
abonise
abonwe
aborigines
abosulelekileyo
abosulelwe
abosulelweyo
about
above
aboyans
abraham
abram
abramovich
abramus
absence
absolute
absorbed
absorption
abstract
abstractions
abubumanzi
abuja
abukhali
abulawa
abuse
abushushu
abuya
abuye
abuyele
abuze
ac
academic
academy
acceleration
accepted
access
accessdate
accessed
accident
according
accountants
accounting
accounts
accreditation
accredited
acebise
acela
acele
acetylene
achaphazela
achaza
achazwe
achebe
achievement
achievements
achukumise
acid
acidic
acids
acinga
acocekileyo
acordo
acquired
acrefore
across
act
acta
acting
action
actions
active
activist
activity
acton
actor
acts
actual
actually
acu
acule
acute
ad
ada
adair
adalwe
adam
adams
adaptation
adapted
add
addison
addition
addo
ade
adelaide
adele
adelino
ademar
adi
adibana
adibane
adibene
adinga
adla
adlala
adlale
adliwa
administration
admitted
adolf
adriana
adriano
adrianople
adult
adume
adumileyo
adv
advance
advertiser
advice
advocate
adweliswe
ae
af
afakwe
afana
afanayo
afane
afe
affairs
affect
afika
afike
afikelela
africa
african
africana
africanism
africanist
africans
afrika
afrikaans
afrikaner
afrka
afro
after
afternoon
afterwards
afumana
afumane
afumaneka
afuna
afunde
afundise
afune
afunekayo
afunxa
ag
again
against
agalele
agasti
agcina
agcine
agcinwa
age
agency
agent
agents
ages
aggressively
agnes
ago
agqibe
agqibele
agreement
agricultural
agriculture
agua
aguila
aguqukileyo
aguqule
aguqulelwe
aguqulwe
agwetyelwe
agxininisa
ah
ahaetulla
ahamba
ahambe
ahambele
ahambise
ahead
ahh
ahlala
ahlale
ahlaletyeni
ahlambe
ahlangane
ahlangene
ahlasele
ahlaziyekileyo
ahlukeneyo
ahlukile
ahlwempuzekileyo
ahmed
ai
aid
aids
aiken
aimed
ain
air
airborne
aircraft
aires
airplane
airport
aiyun
aj
ajike
ajikeleze
ajonge
ajongene
ak
aka
akabanga
akabizwa
akafani
akafuni
akakho
akakwazi
akalingani
akalonani
akanavumba
akanayo
akangabo
akasetyenziswa
akatsuki
akavela
akavumelekanga
akayi
akayo
akazange
akaziwa
akazizo
akazo
ake
akekho
akha
akhankanywe
akhawuleze
akhawunti
akhe
akhethekileyo
akhiwe
akho
akholelwa
akhona
akhoyo
akhula
akhule
akhulele
akhulule
akhululwe
akhupha
akhuphe
akhusele
akhuselekileyo
akhutshwa
akhutshwe
akhwaze
akira
akowabo
akowayo
akruquke
akuba
akubaneminyaka
akubanga
akubona
akudala
akude
akudingeki
akufani
akufika
akufuneki
akukabikho
akukho
akukhont
akukhula
akukuphela
akule
akulo
akunani
akungawo
akungayinikwa
akunjalo
akunto
akunyali
akunyanzelekanga
akunye
akuphelelanga
akusebenzi
akusingawo
akusosiqinisekiso
akuthethi
akuthi
akuva
akuvumelekanga
akuxakwa
akuyiyo
akuyo
akuyondoda
akuzange
akuzizo
akwa
akwaba
akwabikho
akwanceda
akwantu
akwaye
akwazi
akwazii
akwaziyo
akwazulu
akwenza
akwenzileyo
akwi
al
ala
alabhama
alain
alan
alandelayo
alandelelana
alandelelananyo
alandelelanayo
alapha
alaskha
alawula
alawule
albanians
albany
albert
albertina
alberto
alberton
alberts
albetina
albie
album
albums
alchemy
alcohol
aldyr
ale
aleksandr
alele
alemanha
aleph
alex
alexander
alexandra
alexandre
alexandria
alexis
alfred
alfredo
algae
algebra
algebraic
algebraical
algebras
algeria
algiers
algorithm
ali
alibale
alice
alikho
alikwazi
alile
alinakubhalwa
alinayo
alinde
aline
alingana
alinganayo
aliqela
alishumi
aliwal
aliziva
alkali
all
allan
allele
alleles
allen
alley
alliance
allied
allmusic
allowed
alloy
alloys
almost
alo
along
alongside
alosuleli
alpha
alphabet
alphabets
alphonse
already
also
alt
alter
alternative
althing
althingi
although
altri
aluhlaza
alukho
aluminium
alumni
alungele
aluzange
alveoli
alves
alwa
always
alwe
am
ama
amaafrika
amaarabhu
amabakala
amabala
amabali
amabandla
amabanga
amabanjwa
amabhaca
amabhanti
amabhaso
amabhele
amabhenya
amabhere
amabhinqa
amabhulu
amabi
amabini
amabombo
amabomvana
amabritane
amabutho
amacala
amacandelo
amacebo
amachaphaza
amachibi
amachiza
amacirha
amaculo
amacwecwe
amadabi
amadama
amadami
amade
amadeus
amadlal
amadlelo
amadoda
amadodana
amadwala
amafa
amafama
amafene
amafu
amafutha
amafutshane
amagama
amagcaleka
amagosa
amagqabi
amagqala
amagqirha
amagqobhoka
amagqunukhwebe
amagqwirha
amagrike
amagumbi
amagwebu
amahashe
amahlanu
amahlathi
amahle
amahlongwane
amahlubi
amahlwempu
amahlwili
amajamani
amajelo
amajingqi
amajiphethe
amajoni
amajuda
amakhadi
amakhasi
amakhaya
amakhoboka
amakhonkco
amakhulu
amakhwenkwe
amakoloni
amakomkhulu
amalahle
amalangatye
amalaphu
amalawu
amalia
amalinda
amalinge
amalulwane
amalunga
amalungelo
amalungiselelo
amalungu
amalwimi
amambay
amamelika
amamfengu
amampondo
amampondomise
amampunge
amana
amanani
amancinane
amancinci
amandiya
amandla
amandlambe
amandulo
amane
amanesi
amangesi
amangqika
amanha
amanina
amaninzi
amanizni
amankazana
amanqaku
amanqanaba
amanqina
amanqindi
amantombazana
amantombazane
amantshontsho
amantsikana
amanxeba
amanyathelo
amanye
amanyeneyo
amanz
amanzi
amapasi
amaphakathi
amaphandle
amaphawu
amaphepha
amaphiko
amaphondo
amaphupha
amapolisa
amaqabane
amaqabaza
amaqanda
amaqela
amaqhalo
amaqhawe
amaqhinga
amaqhosha
amaqondo
amarhamncwa
amarharhabe
amaroma
amasaka
amasebe
amasele
amashishini
amashumi
amasi
amasiko
amasimi
amasuntswana
amaswazi
amatanki
amathambo
amathandathu
amathanga
amathathu
amathe
amathemba
amathile
amathole
amathuba
amathumbu
amatikiti
amatsha
amatshantliziyo
amatshawe
amatyala
amatye
amatyeli
amava
amavo
amawaka
amawenu
amaxa
amaxabiso
amaxesha
amaxhego
amaxhoba
amaxhosa
amaxwebhu
amayeza
amayurophu
amaza
amaziko
amazim
amazimba
amazinyo
amazizi
amazon
amazonas
amazulu
amazwe
amazwekazi
amazwi
ambalwa
ambedkar
amber
ambethe
ambrose
amdaka
amdar
ame
amehlo
amele
amelwe
amen
amendu
america
american
amerika
amerindiens
amerique
amersfoort
amharic
amhlobhe
amhlophe
ami
amila
amino
aminyaka
amir
amisiweyo
amkele
ammonia
ammonium
amnandi
amncedileyo
amnyama
among
amor
amos
amount
amparo
amperes
amshiye
amsterdam
amthandayo
amtsalela
amukerile
amundsen
amva
amy
an
ana
anais
anakho
analog
analogue
analogy
analyses
analysis
analytical
anamabali
anamacala
anamagama
anamandla
anamashumi
ananye
anatole
anatomy
anayo
anc
anceda
ancede
ancestors
anchor
ancient
ancuma
and
andazi
andere
andersen
anderson
andibonanga
andre
andrea
andreas
andrei
andrew
andries
andule
andy
ane
anegunya
anekomkhulu
aneminyaka
anempumelelo
anengxaki
aneshumi
anesibini
anesihlanu
anesine
anesithandathu
anesithathu
anesithoba
anesixhenxe
anesthesia
anetyuwa
anga
angaba
angabandakanyi
angabi
angade
angadibani
angafaniyo
angafumani
angafuni
angahlala
angakhe
angakwazi
angala
angam
angama
angamakhulu
angamanani
angamaqela
angamashumi
anganyanzelwa
angaphakathi
angaphambili
angaphandle
angaphantsi
angaphaya
angaphezu
angaphezulu
angasela
angasetyenziswa
angathi
angawo
angazange
angazaziyo
angcoliswe
angcwele
ange
angekho
angel
angela
angeles
angels
angena
angenakubhalwa
angene
angenza
anger
angesingesi
angiosperm
angiosperms
angle
angles
anglican
anglo
angola
angu
angummangaliso
anike
anikele
anikwa
anikwe
animal
animalia
animals
animation
anime
anjalo
anje
anjenge
anjo
ann
anna
annals
anne
annie
announced
annual
anokohlulwa
anokuba
anokubhalwa
anokusetyenziswa
anos
another
anstey
antarctic
antarctica
antetho
anthem
anthology
anthony
anthropology
anti
antibiotic
antibiotics
antigen
antiquity
antje
antoine
antoinette
antologie
anton
antonio
antony
antsundu
antwoord
anus
anxiba
anxulumene
any
anyanisi
anyuke
anzulu
ao
aorta
aos
ap
apartheid
apes
aph
apha
aphakamileyo
aphakathi
aphambili
aphambukele
aphantsi
aphatha
aphekwa
aphela
aphele
apheleleyo
aphendule
aphesheya
aphezulu
aphila
aphile
aphinde
apho
aphuhliswe
aphuma
aphume
aphumelele
aphuphuma
apparatus
appeared
appears
apple
application
applied
appointed
apprentice
approach
approval
approximately
apr
april
aprili
aps
apsny
aq
aqa
aqala
aqale
aqalisa
aqanda
aqeqeshelwe
aqeqeshwe
aqhelekileyo
aqhuba
aqhube
aqhubeke
aqinileyo
aqonde
aquatic
aquidaban
aquinas
aquka
ar
arab
arabhu
arabic
arc
archaea
archaic
archbishop
archibald
archimedes
archipelago
architects
archive
archived
archives
archiveurl
arctic
are
area
areas
arefin
argentina
argentine
argo
argument
arguments
arhente
aristocracy
aristotle
arithmetic
arithmetica
arithmetika
arkadiy
arlington
armed
armenia
arms
armstrong
army
arnold
around
arranged
arrest
arsenal
arsenic
art
artemisinin
arterial
arteries
arterioles
artery
arthropods
arthur
article
articles
articulo
artificial
artist
artistic
artists
arts
arun
as
asafumaneka
asakhasayo
asakhulayo
asazi
asc
ase
aseafrika
asebenza
asebenzayo
asebenze
asebenzisa
asebenzise
asebritane
asebukhosini
aseburhulumenteni
asejamani
asekuhlaleni
asel
asele
aselula
aselwa
aselwandle
aselwayo
asemantla
asematsha
asemazantsi
asemelika
asemzantsi
asenokubhalwa
asentshona
asetyenziselwa
asetyenziswa
asetyenziswe
asexual
asexually
aseyurophu
asezantsi
ashe
ashicilelwa
ashicilelwe
ashiye
ashlag
ashley
ashushu
asi
asia
asian
asibhozo
aside
asikho
asikuko
asikwazi
asinakuthi
asindise
asinto
asisetyenziswa
asithethi
asixhenxe
asiyazi
asizamisi
asizange
ask
aso
asokuze
asoloko
asp
aspergillus
aspirated
aspx
asraroki
assassinated
assembly
assessment
associated
association
assume
assumptions
astor
astounding
astrolabe
astronomers
astronomical
astronomie
astronomy
asuk
asuka
asuke
asvat
aswan
asweleke
asymmetric
at
ataturk
athabatha
athabathe
athande
athathe
athe
athengiswa
athetha
athethe
athi
athile
athletico
athletics
athwalwa
athwalwe
atila
atlantic
atlantika
atlas
atletico
atmosphere
atmospheric
atom
atomic
atoms
ator
atresia
atria
atrial
atrio
atrium
atshate
atshatileyo
atshintshe
atsho
attack
attacking
attended
atteridgeville
attosecond
attracted
attrape
atya
atye
atyelele
atyheli
au
auckland
audio
aug
august
auguste
augustine
augustus
aura
aureus
aurum
ausb
austin
australasia
australia
australian
austria
austro
author
authorities
authority
autism
auto
autobiography
autocracy
autodromo
autograph
automated
automatically
autonoma
autonomie
autonomous
autotrophic
autotrophs
auxiliaries
auxiliary
av
available
avakalelwa
avalelwe
avame
avareji
ave
avela
avenue
avoid
avuke
avume
avusa
aw
awa
awadibana
awafika
awahlula
awakho
awalawule
awamfumana
awanika
awanyakazela
award
awarded
awards
awathi
awawafumana
away
awayehamba
awayelithanda
awayeqhamke
awayesebenza
awayesingisele
awayewafumene
awayeyenza
awayeyicaphukela
awayeyithanda
awayeze
awayibhalayo
awayifumanayo
awazalelwa
awaziwa
awela
awenziwa
awethu
awo
awodwa
awona
awu
awunayo
awusuki
ax
axabisa
axakwe
axananazileyo
axes
axis
ay
aya
ayabulawa
ayadibana
ayafana
ayakuba
ayakuqhubeka
ayakuthi
ayalwa
ayasetyenziswa
aye
ayeke
ayekhe
ayenzayo
ayenze
ayenziwa
ayesilwa
ayetullah
ayexhomekeke
ayi
ayibale
ayibethwa
ayibona
ayibonakali
ayicelayo
ayichithe
ayidaho
ayifumaneki
ayifunayo
ayikho
ayikwazi
ayilibale
ayinabungozi
ayinakuba
ayinambala
ayinanto
ayinayo
ayinazo
ayingqinelani
ayinto
ayinyibiliki
ayiphumelelanga
ayise
ayisebenzi
ayisindwa
ayisoloko
ayisoze
ayithi
ayivela
ayivumi
ayiyo
ayizange
ayo
ayokufunda
ayowa
az
aza
azalelwa
azalwe
azama
azame
azange
aze
azeke
azi
azibandakanye
azibiza
azibone
azidingi
azifani
azii
azikho
azikwazi
azimeleyo
azimntakangqika
azinakuphinda
azinawo
azinike
azinza
azinzileyo
azisayi
azisebenzi
azisetyenziswa
azisoloko
azithi
azive
aziwa
aziwe
azizange
azizigidi
azizo
azo
azulazula
b
b0
b1
b2
b3
b4
b5
b6
b7
b8
b9
ba
baadlala
baafika
baafumana
baafunda
baaphumelela
baathi
baaxhela
baba
babamba
babandakanyekayo
babantu
babantwana
babazali
babbage
babe
babebaleka
babebaninzi
babebizwa
babecinga
babefuna
babehamba
babehlala
babehleli
babekelwe
babekho
babekwa
babekwe
babekwiqela
babelana
babenabantwana
babengamakrestu
babengamalungu
babengengobase
babenxibe
babenza
babephethe
babephila
babephumelele
babesaziwa
babesithi
babesoloko
babethi
babevela
babeyinxalenye
babeza
babeziphathe
babhali
babini
babiza
babizwa
babizwe
babo
babona
babone
babonisa
baboniswa
babucala
babukhulu
babukhululekile
babuya
babuye
babuyela
babuyele
babuza
baby
babylonians
bacele
bach
bachelor
bachithwe
bacinga
bacinge
back
backlink
backlinks
bacon
bacteria
bacterial
bacula
baculi
baculum
bad
bada
badala
bade
badibana
badibane
badla
badlala
badlale
badplaas
bafa
bafaka
bafake
bafakwe
bafanele
bafazi
bafika
bafike
bafudukela
bafumana
bafumane
bafumaneka
bafumanisa
bafumanise
bafumene
bafuna
bafunda
bafunde
bafundi
bafundisi
bafune
bagcina
bahamba
bahlala
bahlale
bai
bailey
bajikelezise
bajonga
bajoyine
baka
bakaloliwe
bakamaqoma
bakamohaneng
bakarhulumente
bakatiyo
bakayise
baker
bakha
bakhangele
bakhawuleza
bakhe
bakhetha
bakhibexonya
bakhiwa
bakho
bakhokela
bakholelwa
bakhula
bakhulele
bakhulu
bakhululwe
bakhwaze
bakokwabo
bakowabo
bakowethu
bakuba
bakufika
bakuthi
bakuzo
bakwa
bakwamgodeli
bakwathi
bakwazi
bakwenza
bakwenze
bakwicandelo
bala
balahleka
balala
balance
balandela
balandele
balapha
bale
baleni
balfour
bali
balinde
balisebenzisa
balizwa
balkan
ball
balo
balukuhlwa
balwa
balwe
bam
bamabritane
bamacwecwe
bamajamani
bamalunga
bamandla
bamandulo
bamane
bamangesi
bamanzi
bamaroma
bamaxhosa
bamayebeyebe
bamazulu
bamazwe
bamba
bambalwa
bambeke
bambi
bamboo
bambulala
bamchaza
bamele
bamisa
bamisela
bamnika
bamoshayo
bamsa
banabantwana
banakho
band
bandeirantes
bandise
bane
banegunya
banemilenze
baneminwe
banesiphiwo
bangabemi
bangade
bangafumana
bangakwazi
bangama
bangaphambili
bangaphandle
bangaphezulu
bangaphi
bangaze
bangazixelela
bangcwatyelwa
bangena
bangene
bani
banika
banikezela
baninzi
banja
bank
banks
bantu
bantustan
bantwana
banxiba
banxibe
banyangwe
banzi
baobab
baphela
baphele
baphelela
baphelele
baphelile
baphendule
baphetha
baphile
baphinda
baphulukane
baphuma
baphumelela
baptist
baqala
baqale
baqalisa
baqhubeka
baqhubeke
baqikelelwa
baqokelele
baquka
bar
baragwanath
barbara
barca
barcelona
barium
bark
barker
barkly
barnes
barney
baron
barre
barrett
barros
barry
bart
baruch
baryon
baryons
basabe
basabele
base
baseafrika
basebenza
basebenze
basebenzisa
basebenzise
basebotswana
basebritane
baseburhulumenteni
based
basefrance
basejamani
basejapan
baseka
basekhaya
basekhayelitsha
basekuhlaleni
basel
basela
basele
baselokishini
basemathileni
basemelika
basemhlabeni
basemntla
basempuma
basemthethweni
basemzantsi
basemzini
basenokuba
basentshona
basentshwana
baseroma
bases
basespain
basetranskayi
basetyhini
baseyurophu
basezidolophini
bashishine
bashiy
basic
basically
basilica
basin
basing
basis
baskin
baso
basoloko
basu
basuka
basuke
basutoland
basweleka
basweleke
bat
bates
bath
bathabatha
bathabathe
bathanda
bathandaze
bathatha
bathathe
bathathu
bathathwe
bathe
bathenge
bathetha
bathethe
bathi
bathile
bathiwa
batho
baton
bats
batshate
batsho
batswana
battle
battlefield
batye
batyelela
bava
bavavanya
bavela
bavele
bavuke
bavula
bavumelana
bavumelane
bawa
bawalama
bawenze
bawo
bawongwa
bawushiya
bawuthanda
baxela
baxhamla
bay
baya
bayacetyiswa
bayadityaniswa
bayakufumana
bayakuphuma
bayakwazi
bayathanda
bayazi
baye
bayenza
bayibeka
bayifumane
bayifunda
bayithiya
bayo
bayoloji
bayram
baza
bazala
bazale
bazalwa
bazalwana
bazama
baze
bazibandakanya
bazibiza
bazibona
bazibone
bazifumane
bazifumanela
baziisentimitha
bazikhusele
bazimanya
bazimele
bazinxiba
bazinza
baziva
bazive
baziwa
baziwe
bazo
bazonyanzelwa
bb
bbc
bc
bd
be
beach
beaches
bead
beam
bean
beard
beast
beat
beatles
beatrice
beatriz
beaufort
beautiful
beauty
bebala
bebanga
bebe
bebedla
bebesithi
bebesoloko
bebeto
bebezixabisile
bebodwa
bebona
bebonke
bebunqongophele
becala
became
because
bechaza
bechuana
bechuanaland
becinga
beckenbauer
becoana
become
becomes
becoming
bed
beddoes
bedford
bedibene
bedlala
bee
beemitha
beempahla
been
beengcingo
beengingqi
beengoma
beenkomo
beentlanzi
beenyawo
beenzalelwane
beer
bees
befika
before
befumana
befuna
befunda
began
begazi
beginning
begins
begula
behamba
behaviour
behind
behlabathi
behlala
behleli
being
bejonga
bekhaya
bekho
bekhula
bekhulile
bekhuselekile
bekuculwa
bekude
bekufana
bekufuneka
bekukho
bekukholelwa
bekungenziwa
bekunjalo
bekunye
bekuqhutywa
bekusithi
bekusithiwa
bekusoloko
bekuthi
bekwazi
bekwenza
bel
bela
belafonte
belala
belali
belamba
belanga
belgium
belgrade
beli
belisoloko
belizwe
belizwekazi
belizwi
bell
bella
bellville
belmiro
belo
below
belubiza
belungele
belusenziwa
bema
bematriki
bemele
bemfazwe
bemi
bemihla
bemini
beminyaka
bemka
bemke
bemveli
ben
benagamaqela
benalla
benani
bench
bencokola
bendalo
bendinodliwano
bendlu
bendoda
benedict
beneminyaka
bengafuni
bengakhululekanga
bengaleluki
bengekho
benin
benito
benjalo
benjamin
bennett
benoni
benso
benson
bentley
bento
benu
benza
benzakalisa
benze
benziwa
benziwe
bephantsi
bephethe
bephinda
bephondo
bephumile
bephupha
beplanethi
beqela
berg
berger
berkeley
berlin
bernard
bernardt
berne
bernhardt
bernstein
berry
bertrand
beryl
besabelana
bese
besebancinane
besebancinci
besebenza
besebenzisa
besele
besenza
besetyenziswa
beshiy
beshiya
besi
besiba
besibini
besidla
besifo
besiktas
besilwa
besingaqhelekanga
besintu
besisoloko
besisu
besithi
besitsho
besixhosa
besiya
besizwe
besoyika
bessant
best
besuka
beta
bethal
bethatha
bethe
bethelsdorp
bethetha
bethlehem
bethu
betokeneth
bette
between
betyile
bevela
bevele
bevuka
bewazi
bewela
bewenza
bexesha
bexhobe
bey
beyala
beyenza
beyers
beyond
beza
bezahlula
bezalwe
bezama
beze
bezempilo
bezezimali
bezihleli
bezimbini
bezimele
bezimisele
bezingela
bezinto
bezise
bezisoloko
bezixeko
bezizwe
bezobupolitiko
bezopolitiko
bezulu
bf
bg
bh
bhaka
bhanya
bhanyabhanya
bhaso
bhayi
bhayoloji
bhedla
bhele
bhiliyoni
bhisho
bhokisi
bhola
bhongo
bhotwe
bhritane
bhubhane
bhulorho
bhuti
bhutta
bi
bibcode
bible
bibliography
bibliotheken
bid
big
biggby
biko
bilateral
bile
biliary
bilirubin
bill
billiard
billion
billy
binary
bing
bingo
bingville
bini
biochemistry
biography
biological
biologist
biologists
biology
biomass
biome
biota
biotic
bird
birds
birkenhead
birth
bisected
bishop
bisi
bismuth
bit
bitesize
bits
bitter
bizana
bj
bk
bl
black
blackwell
blair
blanc
blank
blazers
blind
blindness
blocks
bloemfontein
blog
blood
bloomberg
blossom
bloubergstrand
blue
bm
bn
bo
board
boats
bob
bobabini
bobakho
bobby
bobona
bobubi
bobukoloni
boca
bochabela
bochotnica
bodadeka
bodwa
body
boer
boerewors
bogota
bohluke
bohr
bois
bojaxhi
bokokuba
boksburg
boku
bokubhaca
bokufa
bokukhulelwa
bokuphila
bokuqala
bokwe
bold
boleyn
bolivia
boloka
boloke
bolukela
boluntu
bolwandle
bombutho
bomculo
bomgangatho
bomgca
bomhlaba
bomi
bomis
bomntu
bomntwana
bomnye
bomthi
bomthonyama
bomvu
bomxhosa
bomyeni
bomzantsi
bomzi
bomzimba
bona
bond
bonding
bonds
bongeza
bonisa
bonke
bono
bonyuka
boo
book
books
boomaqaba
bophando
border
boris
born
borne
boron
bos
bosapho
bosasa
bosna
bosne
bosnia
bosnian
boss
boston
bosulelekile
bosulelekileyo
botafogo
botany
both
botha
botswana
bottom
boucher
bourg
boutros
bowles
box
boy
boyer
boyiswa
boys
bp
bq
br
braai
bracken
bradley
bragantino
brain
brains
brak
brakpan
branch
branches
branco
brand
brandhoek
brandt
brasil
brasileira
brasileiro
brass
braun
brazil
brazilian
break
breathing
bregalnica
brenda
breyten
brian
bride
bridge
bridges
brief
brien
bright
brill
brilliant
brinco
brings
brisbane
bristol
britain
britane
britannia
britannica
britheyini
british
brits
brittle
britton
broadband
broadcast
broadcasting
broken
bronchi
bronte
bronze
brooke
brooks
brothers
brought
brown
browne
browning
brownlee
bruce
bruno
brush
bryan
bryant
bs
bt
bu
bub
bube
bubonakala
bubonisa
bubuchule
bubude
bubume
bubungqina
bubushushu
bubusuku
bubuthongo
bucala
buchanan
buchaza
buchopho
buchule
bucim
buddha
budlelwane
bueno
buenos
buffalo
bugqi
bugre
bugrinos
buhle
buhlobo
build
building
buildings
built
buka
bukagq
bukamichelangelo
bukanoni
bukekela
bukho
bukhosi
bukhulu
bukumkani
bukwizinga
bulelani
bulgaria
bulgarian
bulgarians
bull
bulletin
bulungile
bumalunga
bumhlaba
bun
bundle
bune
bunendima
bungama
bungaphaya
bungaphezulu
bungcali
bungekho
bungqina
buninzi
bunyan
buonarroti
buphakathi
buphantsi
buphi
buphinda
burbano
burden
bureau
bureaus
burg
burger
burgers
burgersdorp
burgess
burkina
burnham
burning
burniside
burns
burr
burroughs
bursa
burton
bus
busekwe
bush
business
businesses
busisiwe
busobengwe
busuku
but
buthelezi
butler
butterfly
buya
buyatshintsha
buye
buza
buziikhilomitha
buziimitha
buzimitha
bv
bw
bwv
bx
by
byrd
byrne
bz
c
c0
c1
c2
c3
c4
c5
c6
c7
c8
c9
ca
cable
cables
cabot
cace
cachalia
caesar
cafe
cage
cala
calcium
calculation
calculator
calculators
calculus
calderwood
caledon
california
call
callaway
called
calulo
calunia
calvin
cam
cambridge
came
cameron
cameroon
camoes
camp
campaign
campbell
campeonato
campinas
campineiro
campos
camps
campus
can
canada
canal
canaria
canary
cancer
candelo
candida
candidiasis
canine
cannabis
cannibalism
cannibals
cantata
cantatas
canva
canzibe
cao
cap
capable
cape
capillaries
capillary
capital
capitalism
cappilaries
captured
car
carbohydrates
carbon
card
cardano
cardiac
cardiff
cardinal
cardio
cards
care
careca
career
careers
cargo
caribbean
carinha
carl
carlo
carlos
carlson
carlyle
carmem
carmen
carnarvon
carnivore
carnivores
carnivorous
carol
carolina
caroline
carolus
carolyn
carpenter
carpenters
carrie
carroll
carrying
cars
carson
carter
casanova
case
cases
cash
cassidy
cast
castellano
castelle
castle
castro
cat
cata
catarina
catarinense
cate
category
catering
cathcart
catholic
cattle
caucasus
causa
cause
caused
causes
cava
cavades
caxias
cb
cbf
cc
ccv
cd
cdc
ce
cecil
cell
cells
cellular
cellulose
celtic
cemetery
census
cent
center
centers
centimeter
central
centre
centres
centurion
century
ceo
cerro
certain
cervantes
cesar
cesare
cetshwayo
cf
cg
ch
chad
chain
chair
chaka
chalmers
chambers
champion
champions
championship
championships
chan
chance
chancellor
change
changed
channel
chaplin
chapman
chapter
charcoal
charge
charged
charl
charles
charlie
charlotte
charter
chatha
chatham
chaucer
chaza
che
check
checkmate
cheese
chemical
chemicals
chemistry
chemotherapy
chenodeoxycholic
cheryl
chess
chester
chetnik
chetniks
chicago
chicken
chief
chikapa
child
children
chile
chimhundu
chin
china
chinese
chiquititas
chiroptera
chloride
chlorine
choanal
choir
cholera
cholesterol
choosing
chris
chrissiesmeer
christiaan
christian
christianity
christina
christmas
christoph
christopher
chromosome
chromosomes
chronology
chu
chuang
chuck
chungwa
church
churches
churchill
ci
cia
ciccone
cid
ciencia
cilliers
cinga
cipher
circa
circle
circuit
circulation
circulatory
circumference
cirh
cirilica
ciskei
citation
cite
citeweb
cities
citizendium
citizens
city
civil
civilization
cj
ck
cke
cl
claims
clark
class
classes
classic
classical
classics
classification
claude
claudio
claus
clay
clean
clear
cleidoic
clement
cleverly
cleyde
click
climate
climbing
clinic
clinical
clinics
clinton
clock
clockwise
clone
cloned
cloning
close
clothes
cloud
clouds
clough
club
clube
clubs
clusters
clyde
cm
cn
cnn
co
coach
coached
coast
coatings
cochrane
codata
code
coefficients
coetzee
coff
coffee
cofimvaba
cohen
cold
colenso
colin
collapsing
collected
collection
college
colleges
collier
collins
colombia
colonel
colonial
colonies
colony
color
colour
colourful
columbia
columbus
column
com
comaroff
comary
combination
combinatorics
combustion
come
comedy
comes
comment
commentary
commentators
commerce
commercial
commission
committee
common
commonly
commons
commonwealth
communication
communism
communist
communities
community
commutative
como
compact
companion
company
comparative
compare
comparison
compendium
competition
competitions
competitive
compiler
complement
complementar
complete
complex
component
components
composed
composite
composition
compositions
compound
compounds
comprehensive
comprising
compulsory
computer
computers
computing
compyutha
conan
concentration
concepcion
concept
concern
concert
concise
conde
condenses
condiment
condition
conditions
conduction
conductor
conductors
cones
confederation
confederations
conference
congenital
congo
congress
conifa
conmebol
connaught
connection
connective
conrad
consciousness
consecutive
conservatism
conservative
considered
consolidated
constant
constantine
constitution
constitutional
constitutionhill
constructed
consumption
contact
contain
containing
contains
contemporary
content
continent
continental
continents
contribution
control
controlled
controls
controversial
convention
conversion
convert
conway
cook
cooking
cool
cools
cooper
cooperation
coordination
copa
cope
copenhagen
copper
copy
core
corea
corinthians
corkscrew
cornelius
cornell
corner
corona
coronavirus
corporation
correa
correct
cosmonauts
cosmos
cost
costa
costalago
cotran
cotton
could
council
count
counter
counterclockwise
counting
countries
country
county
course
courses
court
courtney
coutinho
couture
couzens
cov
covalent
covid
cox
cp
cplp
cpsa
cptm
cpu
cq
cr
craik
crane
crate
crates
cre
cream
created
creating
creative
credit
creighton
crescent
cretaceous
criciuma
cricket
crime
crisis
croacia
croatia
croatian
cronje
crosby
cross
crown
crundwell
crust
cruz
cruzeiro
cry
cryptanalysis
crystal
crystalline
cs
ct
cu
cuisine
cullen
cullinan
culo
culpado
cultivation
cultura
cultural
culture
cultures
cum
cunningham
cup
cups
curitiba
current
cursor
curtis
curve
cusp
cusps
custom
cut
cutaneous
cv
cw
cwaka
cwecwe
cx
cy
cyanobacteria
cyanosis
cycle
cylinder
cypher
cyril
cyrillic
cyte
cz
czechoslovakia
d
d0
d1
d2
d3
d4
d5
d6
d7
d8
d9
da
dabi
dag
daily
daisies
daisy
daka
dala
dalai
dale
dalibhunga
dalindyebo
daliwonga
daly
dam
damon
dan
dana
dance
dane
daniel
danielle
danish
danny
dante
dario
dark
darwin
das
dat
data
database
date
dated
dates
dattlikon
daughter
dave
daveyton
david
davidson
davies
davis
day
days
db
dc
dd
ddsp
de
dead
dean
death
deborah
debut
dec
decade
decani
decay
december
decide
decimal
decimals
decinam
decker
decolonisation
decrypt
decryption
deda
defeating
defeats
defenders
defense
defensive
deficient
define
defined
definition
definitions
degree
degrees
del
delhi
democracy
democratic
demografia
dengue
denis
denise
dennis
denominator
denounce
dense
department
departments
dependence
dependencies
dependent
deportiva
deprecated
deputy
der
derby
derek
derived
des
descartes
describe
described
description
descriptions
desert
design
designed
designer
desmond
destiny
destroy
detachment
detachments
detroit
deutschland
deux
development
developments
device
devices
devil
devise
devon
dew
dewahl
df
dfb
dg
dh
dhlomo
di
diabetes
diagnosis
diagonal
diagonals
diagram
dialect
dialects
diameter
diamond
diana
diarrhea
diary
dias
diastole
dibanisa
dick
dickinson
dickson
dicoye
dictionary
did
didi
didn
die
died
diego
diepsloot
dies
diesel
dieter
difference
differences
different
difficult
diffusion
digest
digestion
digestive
digit
digital
digits
digraphia
diguy
dikoye
dikuphuye
dili
dimension
dimensional
dimensions
dinah
dingane
dintwa
diophantine
dioxide
diploid
diploma
direction
directions
directly
director
disambiguation
disaster
discipline
discourse
discovery
discrete
discussion
disease
diseases
disemba
dish
disk
disney
dispatch
dispersed
displacement
display
displayauthors
displaystyle
disputed
dissertation
distance
distancehistory
distances
distancesfrom
distancing
distinct
distribution
district
disulfur
div
diverse
diversity
dividend
divine
diving
division
divisions
divisor
divulga
diz
dj
dk
dl
dlala
dlamini
dlanjwa
dm
dn
dna
dns
do
docs
doctor
doctoral
doctorate
document
documents
does
dog
dogg
doi
dois
dolophana
dolophu
domain
domestic
dominance
don
donald
donations
done
donnie
donors
doraemon
dordrecht
doris
dorland
dornford
dorothy
dos
dots
double
douglas
douglass
down
doyle
doze
dp
dq
dr
dragonball
drainage
drake
drama
drawn
draza
dream
dreamworks
dress
dried
driefontein
drive
drives
drop
droplets
drowned
drug
drugs
drums
dry
ds
dt
du
duane
duathlon
dube
dubois
ducts
dudes
dudley
due
duke
dummies
dumped
dundee
dunga
dunn
duntsu
duodenum
durban
during
dutch
dutton
dutywa
dv
dw
dwarf
dx
dy
dylan
dynamics
dyunivesithi
dz
dzanibe
e
e0
e1
e2
e3
e4
e5
e6
e7
e8
e9
ea
each
eafrica
eafrika
ealexandria
eamerika
earl
earliest
early
earn
earned
earth
easia
easiya
east
eastern
easy
eat
eating
eaustralia
eb
eba
ebakhwetheni
ebalaseleyo
ebaleka
ebaleni
ebalisa
ebaluleke
ebalulekileyo
ebambe
ebanda
ebandakanya
ebanga
ebangela
ebangladesh
ebanika
ebanjwa
ebantwaneni
ebantwini
ebchecked
ebe
ebedla
ebehlala
ebekelwe
ebekufanele
ebekwa
ebekwe
ebelikhokelwa
ebengumbhali
ebephila
eberlin
ebesendela
ebesithi
ebesoloko
ebethi
ebethwa
ebethwala
ebeye
ebezisoloko
ebhala
ebhalela
ebhaliwe
ebhaliweyo
ebhalwe
ebhayi
ebhekela
ebhekisa
ebhodi
ebhodini
ebhofolo
ebhola
ebhotwe
ebhunga
ebibanjwe
ebibonakala
ebikade
ebisoloko
ebithandwa
ebiza
ebizwa
ebloemfontein
ebola
ebomini
ebomvu
ebona
ebonakala
ebonakalayo
ebonakalisa
ebonisa
ebonwa
ebotswana
eboyeni
ebrazil
ebritane
ebritani
ebritish
ebrnco
ebubula
ebuchotsheni
ebudaleni
ebude
ebudeni
ebudodeni
ebuenos
ebuhlanti
ebuhlungu
ebukhosini
ebukhwenkweni
ebulisa
ebumanzini
ebumnyameni
ebuntwaneni
ebunzimeni
ebuqina
ebusika
ebusuku
ebusweni
ebuthathaka
ebutsheni
ebuyela
ebuyile
ebuza
ebuzwa
ebuzweni
ec
ecace
ecacileyo
ecalabria
ecaleni
ecalifornia
ecanada
ecand
ecape
ecawa
ecela
ecetywayo
ecg
echanekileyo
echasene
echaza
echazayo
echazwa
echibini
echicago
echile
echina
echwebeni
ecinga
ecmwf
eco
ecocekileyo
ecology
ecolombia
economic
economics
economist
economy
ecosystem
ecosystems
ecovillage
ecrawford
ecroatia
ecuador
ecula
ecwangcisiweyo
ed
edabini
edalelwe
eddie
ede
edelagube
eden
edendale
edenvale
edgar
edibana
edibanisa
edibene
edibeneyo
edikeni
edinburgh
edirne
edit
edited
edith
edition
editor
editors
edityaniswa
edla
edlala
edlalwa
edlulileyo
edman
edmund
edola
edolophini
eds
edu
eduardo
education
educational
edume
edumileyo
edutywa
edward
edwards
edwin
edyunivesithi
ee
eedinburgh
eedolophu
eegrams
eekhemikhali
eekhilomitha
eekm
eelwimi
eemayile
eembali
eemitha
eencwadi
eendaba
eengoma
eenkosi
eentlobo
eeurope
ef
efaka
efakwa
efana
efanayo
efanele
efanelekileyo
efel
effect
effective
effects
efficacy
efforts
efihlakeleyo
efihliweyo
efiji
efika
efikile
efile
eflorence
efort
efrance
efransi
efree
efumana
efumaneka
efun
efuna
efunda
efundileyo
efundisa
efuneka
efunekayo
eg
egadini
egama
egameni
egauteng
egazi
egazini
egcina
egcuwa
egcwele
egeneva
egg
eggs
eghana
eglasgow
egolgotha
egoli
egqiba
egqibeleleyo
egqibile
egqitha
egqithileyo
egqorha
egraaff
egula
egwali
egxekwa
egxile
egyptian
egyptians
eh
ehaiti
ehamba
ehambayo
ehambe
ehambela
ehambelana
ehambelanayo
ehambisa
ehambisana
ehla
ehlabathi
ehlabathini
ehlala
ehlasela
ehlathini
ehle
ehlekisa
ehleli
ehlomla
ehlonitshwa
ehlotyeni
ehoye
ei
eid
eight
ein
eindia
einfuhrung
einjahr
einstein
eireland
eisenach
either
ej
ejamani
ejapan
ejele
ejikeleza
ejikeleze
ejiphethe
ejiyileyo
ejoe
ejohannesburg
ejolise
ejonga
ejonge
ejongene
ek
eka
ekapa
ekatala
ekatlehong
ekentucky
ekhangela
ekhangeleka
ekhanya
ekhanyayo
ekhatywayo
ekhay
ekhaya
ekhayelitsha
ekhayeni
ekhemikhali
ekhetha
ekhethekileyo
ekho
ekhohlela
ekhohlo
ekhokelayo
ekholelwa
ekhompyutha
ekhompyutheni
ekhondweni
ekhoyo
ekhula
ekhulile
ekhulisa
ekhululekileyo
ekhuphe
ekhuphisana
ekhusela
ekhuselekileyo
ekhuselweyo
ekhusini
ekhuthaza
ekhutshwe
ekhwaza
ekhwela
ekhwele
ekimberley
ekimberly
eking
eklabhu
eklasini
ekoloni
ekomiti
ekoyiseni
ekrelekrele
ekroonstad
ekrwada
eku
ekubalwa
ekubambeni
ekubekwa
ekubeni
ekubhaleni
ekubhalwa
ekubizwa
ekuboniseni
ekubuyeni
ekuchaseni
ekucingwa
ekudaleni
ekudalweni
ekude
ekudibaneni
ekufeni
ekufezekiseni
ekufikelelwa
ekufikeni
ekufumaneni
ekufumaniseka
ekufuneka
ekufuphi
ekufutshane
ekugqibeleni
ekugwebeni
ekuhambeni
ekuhanjwa
ekuhlaleni
ekujoliswe
ekukhanyeni
ekukho
ekukhuleni
ekukhuseleni
ekukhutshiswana
ekukuphela
ekulweni
ekumbindi
ekumgangatho
ekumila
ekunciphiseni
ekunene
ekungekho
ekungeneni
ekungeniseni
ekunqandeni
ekunyanzelisweni
ekunye
ekunyibilikiseni
ekunyinweni
ekunyuseni
ekunzima
ekuphandwa
ekupheleni
ekuphilwa
ekuphuhliseni
ekuphunguleni
ekuqalekeni
ekuqaleni
ekuqokoleleni
ekuqondeni
ekurhuleni
ekuruman
ekusarheni
ekusebenzeni
ekusebenziseni
ekuseni
ekusetyenziswa
ekusileni
ekuswelekeni
ekuthabatheni
ekuthanda
ekuthe
ekuthethwa
ekuthi
ekuthini
ekuthinjweni
ekuthinteleni
ekuthiwa
ekuthiywe
ekuthwaleni
ekutyeni
ekuveliseni
ekuvukeni
ekuye
ekuyiloo
ekuyo
ekuzikuseleni
ekuziqhelelaniseni
ekwabelwana
ekwabizwa
ekwacaca
ekwafana
ekwakusithiwa
ekwalilo
ekwaluseni
ekwandeni
ekwangumbhali
ekwanguye
ekwaququzelela
ekwathi
ekwazi
ekwaziwa
ekwaziyo
ekwelasentshona
ekwelinye
ekwenzeni
ekwenziwa
ekwi
ekwindla
ekwizinga
el
ela
elaa
elafika
elahla
elalibizwa
elalini
elaliphila
elalisebenza
elandela
elandelayo
elandelwa
elanga
elangeni
elapha
elaphela
elaqala
elaseyurophu
elathi
elawu
elawula
elaziwa
elaziwayo
elder
eldridge
eleanor
elected
electric
electrical
electricity
electricjive
electrodes
electromagnetic
electrometer
electron
electronic
electronics
electrons
elele
element
elementary
elements
elena
elenu
elenza
elenziwa
elenziwe
elephant
elephants
elesibini
eleven
eleventh
eli
elias
elibalaseleyo
elibalukekileyo
elibalulekileyo
elibhalwe
elibhekisa
elibi
elibizwa
elibode
elibomvu
elibonakalayo
elichasene
elichaseneyo
elicocekileyo
elidala
elide
elidibanisa
elidlala
elidlulileyo
elifana
elifanayo
elifanelekileyo
elifumaneka
elifutshane
eligama
eligaqa
elihle
elijah
elijongene
elikhethekileyo
elikhoyo
elikhulu
elikhululekileyo
elikhusela
elikhwela
elikomkhulu
elila
elilandelayo
elilawulayo
elili
elililo
elilingana
elilodwa
elilwela
elimanzi
elimdaka
elimele
elimhlophe
eliminated
elimisiweyo
elimnandi
elimnyama
elimpopo
elinamandla
elinambini
elinanye
elincinane
elincinci
elindelekileyo
eline
elinee
elinegama
elineshihloko
elinesibhozo
elinesibini
elinesihlanu
elinesine
elinesithandathu
elinesithathu
elinesithoba
elinesixhenxe
elinethoba
elingagungqiyo
elingaka
elingakanani
elingama
elingaphezu
elingaphezulu
elingaqhelekanga
elingasekunene
elingaziwayo
elingcono
elingelilo
elingenankokheli
elingengo
elingu
elingummangaliso
elingwevu
elinikwa
elininzi
elinjalo
elinokuthi
elinolwazi
elinomahluko
elintsingiselo
elinuka
elinyathelo
elinye
eliot
elipapasha
eliphakathi
eliphambili
eliphanda
eliphantsi
eliphawulwe
elipheleleyo
eliphezulu
eliphikisayo
eliphinda
eliphuma
eliphumelelayo
eliqanda
eliqela
eliqhalo
eliqhelekileyo
eliquka
eliqulethe
elisabeth
elise
elisebenza
elisemthethweni
eliseoceania
elisetyenziswa
elisezantsi
elishiyekayo
elishiyile
elishumi
elishuni
elishushu
elisiko
elisingqongileyo
elisisiphumo
elisondele
elisuka
elithafa
elithe
elithembekileyo
elithetha
elithethwa
elithi
elithile
elithoba
elitsha
elitshisayo
elityhutyha
elivela
elivisayo
elivulekileyo
elivuselela
elixabiso
elixhaphakileyo
eliya
eliyi
eliyimitha
eliyintloko
eliyolisayo
elizabeth
elizalanayo
elizayo
eliziko
elizimeleyo
elizinze
elizinzileyo
elizwekazi
elizweni
ellen
ellenberger
ellinor
elliot
elliotdale
elliott
ellis
ellison
elo
elokishini
elokuqala
elolo
elolu
elona
elondon
elorhwebo
elovedale
elpepucul
else
elsevier
elsie
elubala
elubhacweni
eludongeni
eluhlaza
eluhlobo
eluhlwini
elula
elulutsha
elunge
elungele
elungileyo
eluntwini
elusaka
elusuthu
eluswini
eluvalelweni
elverdinge
elvis
elwandle
em
emacaleni
emacedonia
emadagascar
emadison
emadodeni
emafini
emagqabini
emagqunukhwebeni
emahlathini
email
emakhaya
emakhayeni
emakuhanjwe
emalunga
emampondweni
eman
emana
emandla
emandleni
emangalisayo
emangazayo
emanqineni
emantla
emanuel
emanyeneyo
emanzi
emanzini
emaphandleni
emaputo
emaqanda
emariannhill
emariazell
emasimini
emathunjini
emauritius
emaxhoseni
emayilandelwe
emazantsi
emazweni
embalini
embalwa
embeleni
embewu
embi
embindini
embiza
embizeni
embokothwana
embokweni
emboneni
embryo
embuthweni
emculweni
emdaka
emdala
emdeni
emdlalweni
emdudweni
eme
emehlweni
emele
emelene
emelika
emelwe
emenkhoaneng
emenyezelayo
emergence
emergency
emerging
emerson
emexico
emfaneleyo
emfazweni
emfundo
emfutshane
emfuyo
emgangathweni
emgungundlovu
emhlabeni
emhlana
emhlophe
emi
emibi
emibini
emichigan
emicimbini
emidala
emide
emidlalo
emifutshane
emihlanu
emihle
emikhulu
emile
emilenzeni
emilia
emilisiweyo
emilonyeni
emily
emin
emincinane
emine
eminem
emini
emininzi
eminyaka
eminye
emiphungeni
emisebenzini
emiselwe
emission
emissions
emitha
emithandathu
emithathu
emithini
emitsha
emitshatweni
emizimbeni
emka
emke
emkhosini
emkhulu
emlanjeni
emlenzeni
emlilweni
emlonyeni
emlungwini
emma
emmanuel
emmons
emnandi
emngciphekweni
emngxumeni
emnqamlezweni
emntla
emntwaneni
emntwini
emnyam
emnyama
emnyameni
emnyango
emnye
emongolia
emonti
emoshesh
emount
emoyeni
emozambique
emperor
emphungeni
empilweni
empire
employed
empresa
empty
empuma
empumalanga
empumelelweni
emqaleni
emqolo
emsebenzini
emthatha
emthethweni
emthubi
emtshatweni
emuckleneuk
emulsion
emva
emveli
emveni
emxholweni
emyezweni
emzabalazweni
emzantai
emzantsi
emzimbeni
emzini
en
enabantu
enama
enamakomkhulu
enamandla
enambuzelayo
enanda
enaso
enatal
enatala
enceda
encediswa
encinane
encinci
encouraged
encrypted
encryption
encyclopaedia
encyclopedia
encyclopædia
end
endala
endalo
endalweni
endandikhule
endaweni
ende
ending
endingazikhankanyanga
endinyaniseke
endisuka
endle
endlebeni
endleleni
endlini
endlu
endlwini
endocardium
endocrine
endogeneity
endogenous
endoi
endoqo
endwendwela
ene
enee
enemali
eneminyaka
eneneni
enengqondo
enenjongo
enento
enepal
eneproteni
energy
enesihloko
enetherlands
enetyala
enevumba
enew
eneziqhamo
enfert
eng
engabhalwanga
engabonakaliyo
engade
engafuni
engagqibanga
engahambi
engahlawulwayo
engalunganga
engama
engamanani
engamanzi
engamashumi
engancediswa
enganelisiyo
engange
engapha
engaphakathi
engaphandle
engaphantsi
engaphaya
engaphesheya
engaphezulu
engaqhelekanga
engaqondakaliyo
engasebenzisi
engasekho
engasentla
engazange
engazi
engaziwayo
engcamngeni
engcinezelo
engcobo
engcono
engcwabeni
engcwele
engcwenxa
engekazalwa
engekho
engena
engenabungozi
engenakhaya
engenakho
engenakwenzeka
engenaloyiko
engenambala
engenanto
engenasiphelo
engenazo
engene
engento
engenzi
engeyiyo
engeyoyaseyurophu
engezantsi
engezontsika
engilandi
engilane
engilani
engine
engineering
england
english
engomnye
engoo
engqokolela
engqondo
engqondweni
engqongwe
engu
engumarvin
engumbalisi
engumbhali
engumkrestu
engummangaliso
engumntu
engumntwana
engumongameli
engumphathiswa
engumphunga
engumshumayeli
engumzekeliso
engundoqo
engunozala
engutitshala
enguye
enigeria
enika
enikezela
enikezele
enikuwo
eninzi
enio
enjalo
enjani
enje
enjengale
enjenge
enjenje
enjoy
enkanti
enkcubeko
enkomeni
enkomo
enkosi
enkosini
enkqubo
enkulu
enkundleni
enlarge
enoch
enokuba
enokufundwa
enokunikwa
enokusetyenziswa
enokuthi
enokwenzeka
enomahluko
enomsila
enomsindo
enomtsalane
enorway
enough
enqabarha
enqabe
enrico
enrolled
enrollments
ensemble
entabeni
entangeni
entanyeni
entertainer
entetho
entethweni
entilongweni
entities
entla
entlango
entle
entliziyweni
entloko
entluphekweni
ento
entolongweni
entrena
entry
entsha
entshona
entshwana
entsimini
entsundu
entweni
enu
environment
environmental
enxibe
enxitywa
enxulumene
eny
enyakeni
enyama
enyanga
enyangweni
enyanisekileyo
enyanzelekile
enyanzelisa
enye
enyuka
enza
enze
enzelwe
enzima
enziwa
enziwe
enzonzobila
enzululwazi
enzymes
eo
eostreliya
eostriya
ep
epalamente
epapashwe
eparis
epeli
eperu
ephahlwe
ephakamileyo
ephakamisa
ephakathi
ephambili
ephantsi
ephathekayo
ephathelele
epheka
epheleleyo
ephendemikhi
ephepheni
ephesheya
ephethe
ephethwe
ephezulu
ephidemikhi
ephikisana
ephila
ephiladelphia
ephilayo
ephile
ephilileyo
ephinda
ephindwa
ephondo
ephulo
ephum
ephuma
ephumeza
ephupheni
epic
epidemic
epidemiol
epidemiological
epidemiology
epietermaritzburg
epietersburg
epiglottis
epitoli
epoland
epolokwane
eport
epotchefstroom
epreli
eq
eqala
eqaqambisa
eqatha
eqela
eqeqeshelwa
eqhekeza
eqhele
eqhelekileyo
eqikelelwa
eqingqiweyo
eqinileyo
eqinisekise
eqonce
eqonda
eqongeni
equal
equality
equally
equals
equation
equations
equator
equeenstown
equipment
equka
equkethe
equlethe
equlethwe
equnu
er
eramakgopa
erashiya
erasmus
erected
erhafu
erhangqwe
erhawutini
erhini
eric
erica
erio
erizona
ermelo
ernest
ernesto
ernie
ernst
erobben
error
erwin
erythrina
es
esaba
esabangela
esahara
esahleli
esahlukileyo
esaint
esakha
esakube
esalusa
esanda
esangezelelweyo
esaphila
esaqala
esasibizwa
esasingxamisekile
esasisaziwa
esathi
esaye
esaziwa
esaziwayo
escape
escocia
escotland
ese
esebenza
esebenzayo
esebenzela
esebenzisa
esekapa
esekelwe
esekho
esel
eselapho
esele
eselula
eselunxwemeni
esemantla
esemazantsi
esembindini
esemgangathweni
esemgceni
esemhlabeni
esemncinane
esemncinci
esemoyeni
esempilweni
esempuma
esemthethweni
esemzantsi
esemzimbeni
eseneminyaka
esenga
esengumntwana
esengxakini
esentshona
esenza
esenzeka
esenziwa
esenziwe
esesithathu
esetyenziselwa
esetyenziswa
esetyenziswayo
eseyinkwenkwana
esezantsi
eshicilela
eshiya
eshiyekileyo
eshumayela
eshushu
esi
esiba
esibaca
esibalulekileyo
esibangela
esibangelwa
esibayeni
esibe
esibhakabhakeni
esibhalwe
esibhedlele
esibhozo
esibindini
esibizwa
esibonisa
esichaphazela
esidala
eside
esidibanisa
esidla
esidlangalaleni
esifa
esifana
esifanelekileyo
esifubeni
esifumana
esifumaneka
esifutshane
esigrike
esihambisa
esihambisayo
esihla
esihlahleni
esihlala
esihlalweni
esihle
esihloko
esijamani
esikalini
esikhoyo
esikhulu
esikhumbeni
esikhwenene
esikolo
esikolweni
esikutyayo
esikwabizwa
esikwaziyo
esikwe
esilandelayo
esilawulwa
esili
esilingana
esilithandayo
esilwa
esilwanyana
esime
esimelwe
esimile
esimnandi
esinamandla
esinawo
esincinane
esinecala
esinee
esineempawu
esinemilenze
esinga
esingahoywanga
esingangeminyaka
esingathi
esingcwele
esingesi
esingesini
esingokuziphatha
esingu
esingxamiseileyo
esinomahluko
esinqeni
esintsingiselo
esintsundu
esintu
esintwini
esinxibeni
esinye
esiphakamileyo
esiphakathi
esiphefumlayo
esiphelo
esiphelweni
esiphezulu
esiphila
esiphilayo
esiphuculweyo
esiphuma
esiphungulayo
esiqhubekayo
esiqingatha
esiqinileyo
esiqithini
esiquka
esiqwini
esise
esisebenza
esisemthethweni
esisemzantsi
esisentshona
esisesan
esisetyenziselwa
esisetyenziswa
esisifo
esisifunxi
esisikolo
esisiseko
esisoloko
esisuka
esiswini
esithathu
esithe
esithetha
esithethwa
esithi
esithile
esithileyo
esitsha
esitsho
esitshwezwe
esityeni
esivela
esivulekileyo
esixekweni
esixhathisa
esixhenxe
esixhosa
esixhoseni
esiya
esiyakumphindaphinda
esiye
esiyi
esiyibiza
esiyimfihlelo
esiyimfihlo
esiyithethayo
esiza
esizenza
esizenzayo
esizibona
esizikithini
esizinze
esizwe
esizweni
eso
esokuqala
esoloko
esolusa
esona
esonga
esophiatown
esosulelayo
esosuleleka
esowetho
esoweto
esoyika
espain
espanha
espanol
especially
espn
espnsoccernet
espokane
esportiva
essay
essence
essendon
essential
est
established
estadio
estaduais
estate
estcourt
ester
estimates
estreia
esuka
esuke
esunday
esuthwini
eswatini
eswaziland
eswelekile
eswitzerland
et
etabankulu
etala
etaliban
etanzania
etat
etc
ethaba
ethambileyo
ethanda
ethande
ethandwa
ethandwayo
ethanjeni
ethatha
ethe
ethekwini
ethengisa
ethengisela
ethengiswa
ethetha
ethethwa
ethethwayo
ethi
ethics
ethile
ethimhudi
ethintelwa
ethiopia
ethiywe
ethnic
ethnologue
ethornhill
ethu
ethuleyo
ethumela
ethuthurha
ethwala
ethwele
ethwelwe
etokyo
etranskei
etransvaal
etshayina
etshayinta
etshayo
etshilo
etyaleni
etyalikeni
etyheli
etyhume
etyiwayo
etymology
eu
euclid
euganda
eugene
eukaryotes
eukaryotic
euler
eunited
euro
europa
europe
european
ev
eva
evakala
evakalayo
evan
evana
evander
evangelical
evans
evaton
evd
eve
evela
evelisa
eveliswe
evelyn
even
evenkileni
event
events
eventual
ever
everett
everton
every
everyone
evicted
evidence
evolution
evolutionary
evulekileyo
evuma
evumela
ew
ewales
ewashington
ewayefuna
ewe
ewest
ewisconsin
ewits
ewongwa
ewonke
ewuhan
ex
example
examples
excelsior
exchange
excreted
executive
exelela
exesha
exesheni
exesi
exeter
exhalation
exhaphake
exhaphakileyo
exhasa
exhelwayo
exhibiting
exhukwana
exhukwane
exile
exit
exolobe
expansion
experience
expert
explain
explained
express
expression
expressions
expropriate
extend
external
extinct
extra
extraction
extreme
exutywe
ey
eya
eyaba
eyabangela
eyabo
eyadlulayo
eyafunyanwa
eyahluke
eyahlukeneyo
eyahlukileyo
eyakhe
eyakhiwe
eyakho
eyakuba
eyakuthi
eyalanayo
eyalandela
eyalelwa
eyamabanga
eyamiswa
eyamkelekileyo
eyapapashwa
eyaqalwa
eyasekwa
eyathi
eyathiywa
eyayibekelwe
eyayibhalwe
eyayibizwa
eyayichasene
eyayifudula
eyayihamba
eyayingekho
eyayingentle
eyayiphakathi
eyayiphantsi
eyayiqhutyelwa
eyayiqhutywa
eyayisakuba
eyayisaya
eyayisaziwa
eyayise
eyayisele
eyayisesoweto
eyayishunyayelwa
eyayisilwa
eyayisiya
eyayitshisa
eyayivela
eyayo
eyaziwa
eyaziwayo
eye
eyedwa
eyedwarha
eyeke
eyekhala
eyenkanga
eyenye
eyenza
eyenzeka
eyenzekayo
eyenzekileyo
eyenzelwe
eyenziwa
eyenziwayo
eyenziwe
eyenziweyo
eyes
eyesibini
eyesilimela
eyesithathu
eyethupha
eyeyibangelwa
eyi
eyidlulisela
eyifuna
eyijiya
eyile
eyimbongi
eyimfihlelo
eyimvumi
eyindumasi
eyingozi
eyinikwe
eyinkokheli
eyinkosi
eyinkunzi
eyintlekele
eyintloko
eyinto
eyinxalenye
eyishumi
eyityhefu
eyiyeyakhe
eyiyo
eyo
eyobuhlobo
eyodwa
eyokuqala
eyokwindla
eyomdumba
eyomeleleyo
eyomnga
eyomqungu
eyomsintsi
eyona
eyonanto
eyongameleyo
eyosulelayo
eyugoslavia
eyunayithedi
eyunisa
eyunivesithi
eyurophu
ez
eza
ezaba
ezabo
ezahlukahlukeneyo
ezahlukeneyo
ezahlukileyo
ezakha
ezakhe
ezakhiwe
ezakufika
ezakuphekwa
ezalayo
ezalelwa
ezalelwe
ezalwa
ezama
ezambia
ezanda
ezandleni
ezantsi
ezanyisayo
ezathi
ezaye
ezayo
ezazibanjwa
ezazisa
ezazisaziwa
ezazisenza
ezazisoloko
ezazisukuba
ezaziwa
ezaziwayo
eze
ezekiel
ezele
ezeleni
ezelwe
ezembali
ezemfundo
ezemidlalo
ezempilo
ezentlalo
ezenza
ezenzeka
ezenzekelayo
ezenzelwe
ezenziwa
ezenziwayo
ezenziwe
ezenziweyo
ezenzululwazi
ezi
ezibala
ezibalaseleyo
ezibaluleke
ezibalulekileyo
ezibandakanya
ezibangela
ezibangelwa
ezibe
ezibhabhayo
ezibhalwe
ezibhedlele
ezibi
ezibini
ezibiza
ezibizwa
ezibomvu
ezibonakala
ezibonakalayo
ezibonakalisa
ezibonisa
ezibude
ezibuhlungu
ezibukhanya
ezibulala
ezibuthathaka
ezicace
ezichaphazela
ezichaphazelekayo
ezichasene
ezichongekayo
ezicocekileyo
ezidala
ezidaleka
ezidalwe
ezide
ezidibene
ezidla
ezidluliseka
ezidolophini
ezidubulayo
ezidumileyo
ezidweliswe
ezifana
ezifanayo
ezifanele
ezifanelekileyo
ezifihlakeleyo
ezifileyo
ezifumaneka
ezifuna
ezifunda
ezifunekayo
ezifunwa
ezigcina
ezigidi
ezigwenxa
ezihamba
ezihambelana
ezihlala
ezihlelelekileyo
ezii
eziitshatsheleyo
ezijikeleza
ezijikeleze
ezijolise
ezijoliswe
ezijongene
ezikhethekileyo
ezikhoyo
ezikhula
ezikhulu
ezikhupha
ezikhuselekileyo
ezikhutshwa
ezikhutshwe
eziko
ezikolweni
ezikude
ezikufutshane
ezikulo
ezikumila
ezikummandla
ezikuyo
ezikwafana
ezikwaziyo
ezikwi
ezikwintlobo
ezilahlekileyo
ezilalini
ezilandelayo
ezilawula
ezilayisha
ezili
ezilikhulu
ezilikomkhulu
ezilingana
ezilinganayo
eziliqela
ezilishumi
ezilithoba
ezilokishini
eziluhlaza
ezilula
ezilungileyo
eziluthoba
ezimacala
ezimalunga
eziman
ezimandla
ezimanyeneyo
ezimasikizi
ezimbabwe
ezimbalini
ezimbalwa
ezimbi
ezimbini
ezimdaka
ezimeleyo
ezimemeze
ezimfutshane
ezimhlophe
ezimi
ezimile
ezimiseleyo
ezimngqongileyo
ezimnyama
ezimpawu
ezimpepha
ezimxakayo
ezinale
ezinamagunya
ezinamanani
ezinamandla
ezinamanzi
ezinamaphiko
ezinambuzela
ezinambuzelayo
ezincancisayo
ezincinane
ezincinci
ezincomekayo
ezindala
ezinde
ezindinzi
ezindlini
ezindlwini
ezine
ezinee
ezineempawu
ezinefuthe
ezinegazi
ezinethambo
ezinexabiso
ezinga
ezingabonakaliyo
ezingachongekiyo
ezingafanelekanga
ezingafaniyo
ezingafunekiyo
ezingalunganga
ezingama
ezingamakhulu
ezingamanina
ezingamanzi
ezingamashumi
ezingaphandle
ezingaphantsi
ezingapheliyo
ezingaphezu
ezingaphezulu
ezingaphi
ezingaphiliyo
ezingasebenziyo
ezingathethi
ezingcwele
ezingekho
ezingena
ezingenakubalwa
ezingenalo
ezingendalo
ezingengomanani
ezingengomanzi
ezingongeniso
ezingoompondo
ezingqamanayo
ezingqonge
ezingundoqo
ezingxamisekileyo
ezinika
ezinintsi
ezininzi
ezinjalo
ezinje
ezinjenge
ezinjengee
ezinjeni
ezinkosini
ezinkulu
ezinobom
ezinobomi
ezinokudala
ezinokufumaneka
ezinokukhokelela
ezinokusetyenziswa
ezinokwenziwa
ezinomgada
ezinomphefumlo
ezinomsila
ezintabeni
ezintandathu
ezintathu
ezintlanu
ezintlanzini
ezintle
ezintloko
ezinto
ezintsha
ezintsholongwane
ezintsonkothileyo
ezintsundu
ezintweni
ezinxulumene
ezinye
ezinyibilikayo
ezinze
ezinzileyo
ezinzima
ezinzulu
ezinzulwini
ezipalini
eziphakamileyo
eziphakathi
eziphambili
eziphantsi
eziphatheka
eziphathelele
eziphefumla
eziphefumlayo
eziphethe
eziphezulu
eziphila
eziphilayo
eziphilileyo
eziphothulile
eziphuhla
eziphuma
eziqhamo
eziqhele
eziqhelekileyo
eziquka
eziqulethwe
eziququzelelwe
ezirhubuluzayo
ezisa
ezisebenza
ezisebenzayo
ezisebenzisa
ezisegazini
ezisekelwe
ezisemhlabeni
ezisemthethweni
ezisesidlangalaleni
ezisetyenziselwa
ezisetyenziswa
ezisetyenziswayo
ezishiyekileyo
ezishushu
ezisi
ezisibhozo
ezisingqongileyo
ezisisiseko
ezisixhenxe
ezisoloko
ezisuka
ezithanda
ezithandwa
ezithandwayo
ezithatha
ezithathwe
ezithe
ezithengisa
ezithetha
ezithethi
ezithethwa
ezithethwayo
ezithi
ezithile
ezithwala
ezithwalwa
ezitshatsheleyo
ezityiwayo
ezivaliweyo
ezivela
eziveliswe
ezivenkileni
ezivulekileyo
ezivumela
ezixhaphakileyo
ezixhasa
ezixhathisayo
ezixutywayo
eziya
eziyakuthi
eziye
eziyeleleneyo
eziyi
eziyimfuneko
eziyingozi
eziyingqokolela
eziyingqongileyo
eziyingxaki
eziyityhefu
ezizala
ezizalana
ezizayo
ezizezi
ezizezinye
ezizigidi
ezizii
ezizimeleyo
ezizinto
ezizitho
ezizizigidi
ezizizo
ezizodwa
ezizolileyo
ezizwa
ezizwe
ezo
ezobupolisa
ezolimo
ezomeleleyo
ezomileyo
ezomthetho
ezona
ezondawo
ezongezelelweyo
ezonto
ezonwabisayo
ezophando
ezopolitiko
ezoqoqosho
ezosulelayo
ezulwini
ezweni
ezyifumana
f
f0
f1
f2
f3
f4
f5
f6
f7
f8
f9
fa
fabules
face
facebook
faced
facing
fact
factbook
factor
factorising
factors
facts
facultative
faith
faka
falciparum
falcon
falkland
fall
falls
false
fame
families
family
fan
fanny
fanon
fans
fao
far
farjeon
farm
farmers
farming
faso
fassie
fast
fat
father
fats
fatty
fauna
fausto
favors
fb
fc
fcf
fd
fe
fear
fears
feature
february
februwari
feces
federal
federalism
federation
federico
fedise
feel
feer
feet
feldman
feldspar
felipe
female
females
femur
fenerbahce
feng
ferdinand
ferguson
fernando
ferrari
ferrell
fertilisation
fertilize
feso
festival
fet
fever
few
ff
ffp
fg
fh
fi
fiber
fibers
ficksburg
fiction
field
fields
fifa
fifth
fig
fighter
figures
fiji
file
files
film
final
finally
finals
financial
financing
finate
find
findings
finds
fine
finished
finite
finland
fiona
fiore
fire
firefly
firefox
first
fischer
fish
fisher
fishing
fitzgerald
five
fiziki
fj
fk
fl
flambertenges
flamengo
flanders
flash
flat
flats
flavor
fleeing
fleet
fletcher
flies
floods
flora
floral
florida
flourished
flow
flower
flowering
flowers
floyd
flu
fluids
fluminense
flute
fly
fm
fn
fo
foi
fokoxo
foley
folha
folk
following
follows
font
fonts
food
foods
football
footballer
footballers
footnotelazi
footnotemalcolm
footnotemilazzo
footnotemitrovi
footnotenewman
footnotepavlovi
footnotepavlowitch
footnoteramet
footnoteroberts
footnotetomasevich
footprint
footprints
for
forbes
force
forced
forces
ford
forearm
forecasts
foreign
foreman
forest
forestry
forests
form
formation
formative
forme
formed
former
forming
forms
formula
formulas
fort
fortaleza
forty
foster
found
foundation
foundations
founded
founding
fountain
four
fourteen
fourth
fox
fp
fq
fr
frac
fraction
fractions
fran
franca
francais
francaise
france
frances
francesco
franchise
franchised
francis
francisco
francois
frank
frankfort
frankfurt
franklin
franz
franzen
fred
frederic
frederick
free
freedom
freeman
freestyle
freeworld
french
frentshi
frere
fresh
freshlyground
freud
fried
friedman
friedrich
friendlies
friendly
friends
from
front
frontier
fruits
fs
ft
fu
fuel
fuels
full
fuller
fullerenes
fumana
funakoshi
function
functional
functions
fund
funda
fundamental
fundraising
funeka
fungi
fungus
fur
further
fusion
futbol
futebol
futhe
futhi
future
fuze
fv
fw
fx
fy
fz
g
g0
g1
g2
g3
g4
g5
g6
g7
g8
g9
ga
gaa
gabalala
gabriel
gaika
gaius
galatasaray
galeshewe
galileia
galip
gallagher
gallbladder
gallery
gallstones
gallus
galvanometer
galvao
galvez
gama
game
games
gametes
gamma
gamper
gandhi
ganilau
gaol
gaps
garcia
gardens
gardner
garland
garrincha
garrison
garvey
gary
gas
gases
gaston
gates
gauss
gautama
gauteng
gave
gawulayo
gay
gaye
gazeta
gazette
gazi
gb
gc
gca
gcaleka
gcisa
gcse
gd
ge
gear
gen
gendarmerie
gender
gene
general
generally
generations
genes
genesis
genetic
genetics
geneva
genome
genomes
genotypes
genre
genus
geoffrey
geographic
geographical
geography
geometry
georg
george
georges
georgia
georgian
geqe
gerais
gerald
gerhard
gerhardus
germaine
german
germans
germany
germiston
germs
gerolamo
gerrit
gert
gesi
get
getting
gf
gfe
gg
gh
ghana
ghirlandaio
gi
giant
gibson
gidi
gilbert
gill
gimk
gingci
ginwala
giorgio
giovanna
girl
girls
give
given
giyani
gj
gk
gl
gland
glasi
glass
glen
global
globalization
globe
globo
globoesporte
gloria
glory
glossary
glucose
gm
gn
gnu
go
goal
goalkeeper
goalkeeping
goals
goat
goats
god
godal
godfather
godfrey
godwin
gogh
goias
going
gold
goldberg
golden
goli
golias
golide
gomera
gomes
gomez
goncalves
gonxha
gonzaga
good
goodman
goodreads
google
gordimer
gordon
gore
gospel
got
gottfried
gottlieb
gov
govan
goven
government
governor
govon
gown
gp
gpa
gpi
gq
gqirha
gqitha
gqoba
gqobha
gqolo
gr
graaff
grace
grades
graduate
grafu
graham
grahame
grahamstown
grains
gramma
grammar
grammy
grams
gran
grand
grande
granja
grant
grapevine
graph
graphic
graphics
graphite
grass
grasses
grave
gravitational
gravity
gray
great
greater
greatest
greece
greek
greeks
green
greenberg
greengazette
greenhouse
greenish
greenwood
greg
gregory
greig
grey
greylingstad
griffin
grigio
grills
griswold
groot
gross
grosso
ground
group
groups
grow
growing
grown
growth
gs
gt
gu
guanches
guarani
guarany
guardian
guerrilla
guerrillas
guetta
guevara
gui
guide
guidelines
guillain
guillermo
guinea
gun
gundam
gupta
guququ
gurmukhi
gustave
gut
gutenberg
guthrie
guttman
guy
gv
gw
gwenxa
gx
gxebe
gy
gyatso
gymnasium
gymnosperms
gz
h
h0
h1
h2
h3
h4
h5
h6
h7
h8
h9
ha
habitat
habitats
had
haemoglobin
haemorrhagic
haga
haggard
hague
hai
hair
haire
haiti
hakim
halala
half
hall
halle
halsey
hamba
hambo
hamburg
hamburger
hamer
hamilton
hammarskjold
hampshire
han
hand
handball
handbook
hands
handy
hangklip
hanh
hani
hannes
hannover
hanover
hans
hansen
haploid
happen
happy
hard
hardaway
harder
harding
hardware
hare
harold
harper
harris
harrison
harry
hart
harvard
harvey
harvnb
has
hasan
hat
hathaway
haute
have
having
hay
hayes
hayi
haß
hb
hc
hd
he
head
headquarters
healdtown
health
healthcare
healthline
hear
heard
heart
heat
heath
heats
heavier
heavy
hedge
hegel
heidelberg
heilbron
heinemann
heinrich
heinz
held
helen
helena
helical
helium
hellenistic
hello
help
helped
hemis
hemisphere
hemorrhagic
hemp
hendrik
henri
henrik
henry
hepatitis
hepburn
her
heraclitus
herbert
herbicide
herbivores
hercegovina
hercegovine
here
heritage
herman
hermann
hernan
hernandez
herring
herschel
herzegovina
heso
hess
hesse
heyi
heywood
hf
hg
hh
hi
hicks
hidden
hiding
high
higher
highland
hikmet
hilbert
hilde
hill
hillary
hillel
hills
hilton
him
himself
hindi
hindustani
hintsa
hip
hircus
his
hispan
histology
historia
historical
history
hit
hits
hiv
hj
hk
hl
hlabathi
hlala
hlamba
hlanga
hlaselo
hlathi
hlela
hlelo
hlobane
hlobo
hlonipha
hlukene
hlukeneyo
hlula
hlule
hlulwa
hlungulu
hm
hn
ho
hobbes
hodgson
hoek
hokage
holcombe
holden
holder
holdings
holly
hollywood
holmes
holocaust
holt
holy
hom
home
homer
homes
hon
honda
honey
hong
honorary
honoris
honour
honoured
honours
hons
hop
hope
hopkins
hopper
hops
horace
horizon
horizontal
hormones
horn
horticulture
horton
hospital
host
hostility
hot
hotela
hottentots
hour
hours
house
housed
houses
houston
hout
how
howard
however
howick
hp
hq
hr
hrvb
hs
hsbc
hss
ht
htm
html
http
https
hu
hubbard
hubei
huddleston
huge
hugh
hughes
hugo
hulle
human
humanities
humans
humboldt
hume
humors
humulus
hundred
hundreds
hungary
hunger
hunt
husband
huseyin
hussein
hutchinson
huxley
hv
hw
hx
hy
hydrargyrum
hydro
hydrocarbons
hydrochloric
hydrogen
hydrophilic
hydroxide
hypophosphites
hyraxes
hz
i
i0
i1
i2
i3
i4
i5
i6
i7
i8
i9
ia
iafrica
iafrican
iafrika
iaids
ialbertina
iamazon
ianacostia
ianc
iantarctica
iarctica
iasia
iata
iatlantic
iaustralia
iayodin
ib
iba
ibala
ibalaseleyo
ibali
ibaluleke
ibalulekile
ibalulekileyo
ibambe
ibandakanya
ibandla
ibanga
ibangela
ibangele
ibango
ibanjwa
ibantu
ibase
ibayologi
ibayoloji
ibe
ibeka
ibeke
ibekwa
ibekwe
ibele
ibenamandla
ibencinane
ibende
ibengathi
ibenye
ibero
ibethe
ibeyi
ibeyidyunivesithi
ibeyinkampani
ibge
ibhaktheriya
ibhale
ibhaliwe
ibhalwa
ibhalwe
ibhanti
ibhaso
ibhatyi
ibhayi
ibhayibhile
ibhayisikile
ibhayisikili
ibhekile
ibhekisa
ibhekiswa
ibhinqa
ibhodi
ibhokhwe
ibhokisi
ibhola
ibholorho
ibhotile
ibhulorho
ibhunga
ibiba
ibid
ibifudula
ibilirubin
ibingafane
ibingena
ibinzana
ibisasaza
ibisaya
ibisenza
ibisi
ibisithi
ibisoloko
ibiyintaka
ibizwa
ibizwe
iblack
ibloemfontein
ibm
ibomvu
ibonakala
ibonakalisa
ibone
ibonisa
iboniswe
ibonwa
ibonwe
ibotswana
ibrayi
ibrazil
ibrazzaville
ibritane
ibronze
ibuffalo
ibulala
ibunzi
ibuthathaka
ibuya
ibuyambo
ibuye
ibuyele
ibuyisele
ibuyiselwe
ibuza
ic
icacileyo
icala
icandelo
icao
icapra
icarly
icarnegie
icashmere
icata
icawa
icawe
iccda
ice
icebisa
icebo
ichaphaza
ichaphazela
ichasene
ichaza
ichazwa
ichazwe
ichelsea
ichicken
ichina
ichiza
ichris
ichumie
iciko
icirrhosis
iclimatology
icocaine
icongress
icopa
icovid
ict
icticc
icula
iculo
icwecwe
id
idabi
idaho
idala
idama
idami
idangatye
idatha
idayimani
idc
ide
idea
ideas
idelaweri
idemokhrasi
identified
identity
ideologies
idiagram
idibana
idibanisa
idibene
idigit
idilesi
idinga
idioma
idityaniswe
idla
idlaba
idlala
idlale
idlalwa
idlalwe
idlule
idlulileyo
idolo
idolophana
idolophi
idolophu
idouble
idra
idume
idumileyo
idyakana
idyasi
idyunivesithi
ie
iec
ieconomic
iecosystem
ieurasia
ieurope
if
ifa
ifakiwe
ifakwa
ifakwe
ifana
ifanayo
ifani
ifashoni
ifeni
ifike
ifikelele
ifile
ifilimu
ifilosofi
ifingane
ifiva
ifiziki
iflegi
iflorida
ifomathi
ifomati
ifomu
ifonetiki
ifoodbank
ifort
ifowuni
ifreur
ifreyistata
ifuel
ifumana
ifumane
ifumaneka
ifumaneke
ifumanise
ifumene
ifuna
ifuneka
ifunxwe
ifunyanwa
ifunyenwe
ifuthe
ifuz
ig
igadi
igalelo
igama
igaqa
igazi
igbo
igcina
igcine
igcinwe
igcuwa
igeneva
igeometry
igeorgia
igesi
ighana
igila
igilasi
iglascow
iglucose
ignored
igoli
igolide
igorha
igosa
igqabi
igqala
igqibe
igqirha
igqithileyo
igqiza
igqwetha
igraf
igrafu
igrahamstown
igramma
igreece
igreenland
igugu
igumbi
igunya
iguqulelwe
igusha
igutsi
igwele
igwiba
igxijwa
igxile
ih
ihafu
ihaiti
ihamba
ihambayo
ihambe
ihambisa
ihashe
ihawayi
ihemoglobin
ihepatitis
ihigher
ihlabathi
ihlala
ihlale
ihlasela
ihlathi
ihlazo
ihleli
ihlelo
ihlelwe
ihlise
ihlobo
ihlwili
ihobe
iholide
iholo
ihouse
ihudson
ii
iibgm
iibhaktheriya
iibhasi
iibhaskithi
iibhokhwe
iibhokisi
iibhotile
iibiologists
iicawa
iicell
iidayimani
iidolophu
iidyunivesithi
iifani
iifektri
iifeni
iifilimu
iifomu
iifonetiki
iifoto
iifowuni
iigadi
iigases
iigloves
iigusha
iii
iijografa
iikhemikhali
iikholamu
iikholeji
iikhompyutha
iikhowudi
iiklabhu
iikona
iikopi
iikumkani
iilali
iileta
iilitha
iilokishi
iilwandle
iilwimi
iimaski
iimatshini
iimayile
iimayinegenericname
iimazi
iimbaleki
iimbali
iimbasa
iimbewu
iimbongi
iimbovane
iimeko
iimela
iimelika
iimephu
iimetals
iimfazwe
iimfihlo
iimfundiso
iimfuneko
iimfuno
iimgm
iimidlalo
iiminerali
iimini
iimishini
iimitha
iimolecules
iimoto
iimovie
iimpahla
iimpawu
iimpazamo
iimpembelelo
iimpendulo
iimpukane
iimpuku
iimpundu
iimvakalelo
iimveku
iimveliso
iimviwo
iimvumi
iincoko
iincwadi
iindaba
iindawo
iindevu
iindibano
iindidi
iindima
iindlebe
iindleko
iindlela
iindonga
iindwendwe
iindywala
iingalo
iingcaciso
iingcali
iingcambu
iingcango
iingcaphephe
iingceba
iingcebiso
iingcinga
iingcingo
iingcongconi
iingingqi
iingoma
iingongoma
iingozi
iingqondo
iingubo
iingxaki
iingxangxasi
iingxelo
iingxoxo
iinjineli
iinjini
iinjongo
iinkalo
iinkampani
iinkcazelo
iinkcukacha
iinkedama
iinkokeli
iinkokheli
iinkolo
iinkomo
iinkonzo
iinkosi
iinkozo
iinkqubo
iinkukhu
iinkumbulo
iinkundla
iinkuni
iinkwenkwezi
iinombolo
iinoveli
iinqanawa
iinqununu
iinqwelo
iintaba
iintabamlilo
iintaka
iintambo
iintanga
iintetho
iintlanga
iintlanganiso
iintlanti
iintlanzi
iintlawulo
iintlelo
iintliziyo
iintlobo
iintlobontlobo
iintloko
iintlungu
iinto
iintokazi
iintombi
iintsalela
iintsana
iintsapho
iintshaba
iintsholongwane
iintshukumo
iintshulube
iintsikelelo
iintsimbi
iintsinjana
iintsomi
iintsuku
iintyatyambo
iinwele
iinxalenye
iinyama
iinyamakazi
iinyanga
iinyaniso
iinyawo
iinyembezi
iinyoka
iinyosi
iinzame
iiofisi
iiorganisms
iipattern
iipesenti
iipeyinti
iiphesenti
iiplastiki
iiplatelets
iipoles
iiprojecti
iipropathi
iiproteins
iiproteni
iiprotons
iirandi
iired
iirekhodi
iirestyu
iisampulu
iiseli
iisimboli
iitafile
iithoyilethi
iitshokholethi
iityuwa
iiveki
iivenkile
iivoti
iiwhole
iiyunithi
iiyunivesithi
iizinto
ij
ijade
ijagi
ijamani
ijapan
ijelo
ijerusalem
ijika
ijikeleza
ijikeleze
ijikelezwe
ijiphethe
ijografi
ijojiya
ijolise
ijongana
ijongane
ijonge
ijongene
ik
ikakhulu
ikamva
ikanada
ikansai
ikapa
ikarati
ikat
ikati
ikeiskamma
ikhaba
ikhadi
ikhala
ikhale
ikhalifoniya
ikhalipha
ikhamanga
ikhandlela
ikhankanya
ikhankatha
ikhanya
ikhanyayo
ikhanzasi
ikhasi
ikhathalogu
ikhaya
ikhazi
ikhe
ikhemestri
ikhemikhali
ikhemistri
ikhentakhi
ikhetha
ikho
ikhokelwa
ikhokhela
ikhokhelela
ikholam
ikholeji
ikholorado
ikholumbiya
ikhomishini
ikhompyutha
ikhona
ikhondo
ikhonethikhati
ikhonkco
ikhowudi
ikhoyo
ikhula
ikhulu
ikhupha
ikhuphe
ikhuthaza
ikhutshelwa
ikhutshelwe
ikhutshwe
ikhwelo
ikhweyitha
iklabhu
ikofu
ikoloni
ikomani
ikomiti
ikomityi
ikomkhulu
ikomotyi
ikopi
ikrisimesi
ikroba
ikude
ikufuphi
ikufutshane
ikumfanekiso
ikumgangatho
ikumhlaba
ikumkani
ikunxweme
ikunye
ikuyo
ikwa
ikwabhekisa
ikwabizwa
ikwafumaneka
ikwaguqulela
ikwaligama
ikwalilungu
ikwanceda
ikwanguye
ikwaquka
ikwasetyenziswa
ikwathetha
ikwayi
ikwayinxalenye
ikwayiyo
ikwazi
ikwaziwa
ikwaziyo
ikwenza
ikwi
ikwindawo
ikwiphondo
il
ilahleko
ilake
ilali
ilandelayo
ilandelwa
ilandelwe
ilanga
ilangatye
ilapho
ilaphu
ilawu
ilawula
ilayisensi
ile
ilebhile
ilele
ileta
ili
ilia
ilibode
iliculo
ilifa
ilifu
iligama
ilikomkhulu
ililizwe
ililungu
ilinani
ilincoln
ilindle
ilinga
ilingana
ilinoyi
iliqhwa
ilise
ilishumi
iliso
ilitye
iliverpool
ilixa
ilixhiba
iliza
iliziko
ilizwe
ilizwekazi
ilizwi
illinois
illness
illustrated
ilobola
ilokishi
ilolona
iluhlaza
ilula
ilulwimi
iluncedo
ilungelo
ilungileyo
ilungisa
ilungise
ilungu
iluphawu
iluwiziyana
ilwimi
im
imadison
imadlana
imafikeng
image
images
imaginal
imaginarly
imaginary
imaging
imalariya
imali
imalunga
imandla
imanyano
imaputo
imarilandi
imasetshusethi
imasisi
imaski
imastitis
imathematics
imathematika
imatriki
imatshini
imatshisi
imayini
imazi
imbala
imbalelwano
imbali
imbalwa
imbangi
imbasa
imbeko
imbeleko
imbewu
imbi
imbila
imbiza
imbo
imbola
imbonakalo
imbongi
imbono
imbophelelo
imbumba
imbumbulu
ime
imeko
imela
imele
imelika
imelwe
imephu
imetal
imeyile
imeyl
imfazwe
imfene
imfundiso
imfundo
imfuneko
imfutshane
imfuyo
imhlophe
imi
imiba
imibala
imibandela
imibele
imibengo
imibhaco
imibhalo
imibhiyozo
imibongo
imiboniso
imibono
imibutho
imibuzo
imicimbi
imida
imidange
imiddle
imidlalo
imifanekiso
imifino
imifuno
imigama
imigaqo
imigca
imigqaliselo
imigqomo
imigudu
imihla
imihlaba
imihlambi
imihlathi
imikhala
imikhosi
imikhuhlane
imikhwa
imilambo
imilenze
imililo
imilinganiselo
imilomo
imimandla
imimoya
iminasotha
imini
iminqweno
iminwe
iminweba
iminyaka
iminyanya
iminzwi
imiphakamo
imiphanda
imiphefumlo
imiphunga
imipu
imiqathango
imiqondiso
imirage
imirhumo
imise
imisebenzi
imishigeni
imisisiphi
imisonto
imissionary
imitha
imithambo
imithandazo
imithanjana
imithetho
imithi
imithombo
imithwalo
imitshato
imitsi
imixhaka
imixube
imiyalelo
imiyalezo
imiyinge
imizamo
imizekelo
imizi
imizila
imizimba
imizobo
imizuri
imizuzu
imizuzwana
imizwa
immanuel
immanyuweli
immunoglobulin
immunology
imnandi
imo
imodeli
imontana
imonti
imoto
imovie
imozulu
impact
impacts
impahla
impatho
impawu
impazamo
impela
impempe
impendulo
imperial
impi
impilo
impixano
implementation
implications
impongo
important
impucuko
impuku
impulse
impuma
impumelelo
impumlo
impundu
impungutye
imveku
imvela
imvelaphi
imvelatanci
imveliso
imvo
imvula
imvume
imvumi
imwaru
in
ina
inabafazi
inabantu
inabemi
inabraskha
inaliti
inamacokoza
inamahlathi
inamalungu
inamandla
inamava
inamibia
inanani
inani
inational
inauguration
inavada
inayo
inc
incasa
inceda
incede
inches
inciba
incinane
incinci
incipha
inciphe
incisors
include
includes
including
incoko
incopho
increases
increasing
incwadana
incwadi
indaba
indalo
indathane
indawana
indawo
inde
indebe
independence
independent
index
india
indian
indiana
indibaniselwano
indibano
indiens
indima
indingenileyo
individual
individuals
indiya
indiyana
indlala
indlalifa
indlebe
indleko
indlela
indlovu
indlu
indlunkulu
indo
indoda
indonesia
indonesian
induku
induli
indumiso
industrial
industries
indwe
indyebo
ine
inee
ineelwimi
ineempondo
ineenkqubo
ineentlobo
inefficient
inefuthe
inelson
inenani
inene
inengqokolela
inenkani
inenombolo
inentengiso
inequality
inew
infants
infection
infections
infectious
infective
inferior
infinite
infinitive
infinity
inflorescence
influence
influenza
info
infobase
infobox
information
infrastructure
inga
ingaba
ingabizwa
ingabo
ingabonwa
ingafumaneka
ingakanani
ingako
ingakumbi
ingakwazi
ingalo
ingama
ingamakhulu
ingamanzi
inganceda
ingangeni
ingaphakathi
ingaphandle
ingaphantsi
ingaphezulu
ingaphuncukana
ingase
ingasebenza
ingasebenzi
ingasentla
ingasetyenziselwa
ingasetyenziswa
ingasuka
ingathetha
ingayishukumisa
ingazange
ingca
ingcaciso
ingcakaza
ingcali
ingcamango
ingcambu
ingcaphephe
ingcibi
ingcinezelo
ingcongolo
ingcwaba
inge
ingekho
ingena
ingenakufunyanwa
ingene
ingengabo
ingeniso
ingentla
ingenzeka
ingenziwa
ingezantsi
ingilane
ingingqi
ingoma
ingozi
ingqakaqha
ingqalelo
ingqele
ingqina
ingqiqo
ingqithi
ingqobhoko
ingqokelela
ingqokolela
ingqondo
ingqongqo
ingqongwe
ingqumbo
ingqungquthela
ingubo
inguhulushe
ingumdlezana
ingumzekelo
ingundoqo
ingunobangela
inguqu
inguquko
inguqulelo
ingwe
ingxabano
ingxaki
ingxelo
ingxolo
ingxowa
ingxoxo
ingxubevange
ingxwaba
ingxwabangxwaba
inhabitants
inhalation
inihongo
inika
inikwa
inikwe
inile
ininzi
initials
inja
injalo
inje
injineli
injini
injongo
injured
injuries
inkabi
inkampani
inkanga
inkangeleko
inkathalo
inkawu
inkcaso
inkcazelo
inkcazo
inkcenkce
inkciyo
inkcubeko
inkedama
inkobe
inkoduso
inkohlakalo
inkohliso
inkokeli
inkokheli
inkolelo
inkoliso
inkolo
inkomfa
inkomo
inkonde
inkonkxa
inkonzo
inkos
inkosana
inkosazana
inkosi
inkosikazi
inkqubela
inkqubo
inkukhu
inkulu
inkululeko
inkulumbuso
inkumbulo
inkundla
inkungu
inkunzi
inkuthazo
inkwenkwe
inkwenkwezi
inkxaso
inobude
inobunzima
inokubangela
inokuthi
inoluhlu
inombolo
inophawu
inorganic
inoveli
inoxanduva
input
inqaba
inqabile
inqaku
inqalathi
inqanaba
inqanawa
inqanda
inqobile
inqobo
inqumla
inqumle
inqunyulwe
inqwaba
inqwelo
inqweme
inside
instance
instead
institut
institute
institutes
institution
institutional
institutions
instituto
instruments
insulation
insulators
int
intaba
intambo
intamo
intanethi
intaphane
integer
integers
integrated
integuments
intellectual
intelligence
intelligibility
intensity
inter
interactions
interdisciplinary
interface
intergers
interim
interior
interlingua
interlingue
intermediate
internacional
internal
international
internationals
interned
internet
interpretation
intersex
interval
interventions
interview
intestine
intetho
intiyo
intlalo
intlambo
intlanga
intlanganisela
intlanganiso
intlangano
intlango
intlanzi
intlawulo
intlazi
intle
intlekele
intliziyo
intlobo
intloko
intlonipho
intlungu
into
intokazi
intomb
intombazana
intombi
intonjane
intravenous
introduced
introduction
introductory
intsalela
intsangu
intsapho
intsasa
intsebenziswano
intsha
intshabalalo
intshatsheli
intshayelelo
intshinga
intsholongwane
intshona
intshontsho
intshukumo
intshumayelo
intsimbi
intsingiselo
intsomi
intsukaphi
intsusa
intswelo
intulo
intw
intwana
intwasahlobo
intyabontyi
intyatyambo
invalid
invasion
invented
invention
investigate
investment
invisible
inwebu
inwenwele
inxalenye
inxaxheba
inxenye
inxitywe
inxiwa
inxuba
inxulumene
inyakanyaka
inyama
inyamakazi
inyanga
inyani
inyaniso
inyathelo
inye
inyibilika
inyibilike
inyibilikiswe
inyikima
inyinwe
inyok
inyoka
inyongo
inyu
inyujezi
inyumeksikho
inyuyokhu
inzala
inzalo
inzima
inzululwazi
inzuzo
inzwakazi
io
iofisi
ioksijini
iol
ion
ionic
ions
iorio
iostreliya
ip
ipa
ipac
ipacific
ipaki
ipalamente
ipapashwe
iparis
ipasi
ipattern
ipesenti
ipeyinti
iph
iphakamileyo
iphakathi
iphambili
iphandemikhi
iphandle
iphantsi
iphazanyiswa
iphela
iphele
iphelele
iphemithi
iphepha
iphephandaba
iphethe
iphethwe
iphezulu
iphi
iphicothwe
iphiko
iphila
iphilayo
iphinde
iphondo
iphosphorus
iphulo
iphuma
iphume
iphumelele
iphupha
ipietersburg
ipitoli
ipl
iplascon
iplasma
iplastiki
ipolisa
ipoliyo
iponte
ipopulation
iportlandi
iposi
ipotomac
ipp
iprage
ipremier
iprogram
iprojekthi
iprotini
iputugezi
iputyuzwa
iq
iqaba
iqabane
iqadi
iqakamba
iqala
iqale
iqanda
iqaqa
iqela
iqembu
iqhalo
iqhawe
iqhelekile
iqhenqa
iqhina
iqhinga
iqhiya
iqhosha
iqhuba
iqhubela
iqikelela
iqinileyo
iqokobhe
iqolomba
iqondo
iqondwe
iqonga
iquka
iqulathe
iqulethe
iqumrhu
iqwalasela
ir
iran
irashiya
irayisi
irekhodi
ireland
irene
irhafu
irhamncwa
irhangqwe
irhashalala
irhawuti
irhewu
irhini
irhiphabhlikhi
irhuluneli
iriphabhlikhi
iriphabliki
iroma
iron
irrational
irving
is
isaac
isabc
isabel
isacholo
isacred
isahluko
isahlulo
isakhiwo
isakhono
isalemi
isali
isamoa
isanda
isandi
isandla
isango
isangqa
isanti
isantya
isarha
isasaza
isasazeka
isasazwa
isasele
isasetyenziswa
isatifiketi
isayama
isayensi
isazela
isazinge
isaziso
isaziwa
isbn
iscamtho
ise
isebe
isebenza
isebenzayo
isebenze
isebenzisa
isegazini
isekela
isekelwe
isel
isela
isele
isemgangathweni
isemoyeni
isenokuba
isenokubhalwa
isenokubizwa
isenokuchazwa
isenokudala
isenokusetyenziswa
isenokuthetha
isenokwenza
isenokwenzeka
isenokwenziwa
isento
isenza
isenzeka
isenzeko
isenzi
isenziwa
isenzo
isetyenziselwa
isetyenziswa
isetyenziswe
ishedyuli
ishishini
ishiya
ishukuma
ishumi
ishushu
isi
isialbania
isiba
isibanca
isibhaca
isibhakabhaka
isibhengezo
isibhozo
isibhukubhuku
isibhulu
isibindi
isibini
isibizo
isibonelelo
isibosnian
isicaphucaphu
isicatala
isicelo
isichazi
isiciko
isicwangciso
isicyrillic
isidalwa
isidanga
isidima
isidlo
isidudu
isiduko
isidumbu
isidwandwa
isifo
isifonyo
isifrentshi
isifuba
isifundo
isigaba
isigama
isiganeko
isigcawu
isigidi
isigidimi
isigqibo
isigrike
isigulana
isigulo
isigwebo
isihindi
isihlalo
isihlangu
isihlanu
isihloko
isihlomelo
isihlunu
isihobe
isihoyo
isijamani
isijapani
isikali
isikere
isikhahlelo
isikhanyiso
isikhephe
isikhokelo
isikhululo
isikhumba
isikhumbuzo
isikhundla
isikhuni
isikizi
isiko
isikolo
isikorea
isikwe
isikwere
isilatini
isilevu
isililo
isilivere
isilungileyo
isilvere
isilwanyana
isimanga
isimaphambili
isimbiwa
isimbo
isimboli
isimbonono
isimelabizo
isimilo
isimo
isimpondo
isindebele
isindululo
isine
isinga
isingesi
isingxobo
isinhalese
isinhanha
isini
isininzi
isinqe
isintu
isinye
isinyibiliki
isinyibilikisi
isipanish
isipanishi
isipedi
isiphawuli
isiphelo
isiphithiphithi
isiphiwo
isipho
isiphumo
isiphuthukezi
isipolisa
isiqalo
isiqaqa
isiqebheyi
isiqendu
isiqhamo
isiqingatha
isiqinisekiso
isiqithi
isiqu
isiqwayi
isiseko
isiselo
isiserbia
isishona
isisifo
isisila
isisingesi
isisinguni
isisithuba
isisombululo
isisotho
isispain
isispanish
isisu
isisuthu
isiswahili
isiswati
isiswazi
isita
isiteketiso
isithathu
isithembu
isithethe
isithethi
isithi
isithili
isithsaba
isithuba
isithukuthezi
isithunywa
isithunzi
isitishi
isitofu
isitovu
isitsha
isitshayina
isitshixo
isitsonga
isitswana
isiturkish
isitya
isityalo
isityhilelo
isivakalisi
isivenda
isivumelwano
isivuno
isixa
isixeko
isixhobo
isixhosa
isiya
isiza
isizalo
isizathu
isiziba
isizukulwana
isizulu
isizwe
islam
islamic
island
islands
isle
islets
ismail
iso
isohlwayo
isoka
isol
isolated
isoloko
isondela
isonka
isoprano
isotope
isotopes
isouth
isoweto
ispain
ispanish
ispanishi
israel
israeli
issn
issues
ist
istagira
istanbul
istat
istovu
isuka
isuke
isusela
isuswa
iswekile
iswitzerland
it
ita
itachi
itafile
itali
italia
italian
italy
itambo
itanzania
itapevi
itayitile
iteal
iteknoloji
itempile
itestamente
ith
ithala
ithambe
ithambo
ithande
ithandwa
ithatha
ithathe
ithathwa
ithathwe
ithe
itheko
ithelekiswa
ithemba
ithengise
ithetha
ithethe
ithethwa
ithi
ithile
ithini
ithiyori
ithiywe
ithokazi
ithornhill
ithoyilethi
ithuba
ithumela
ithunyelwa
ithwala
ithwalwa
ithyubhu
iti
itikiti
ititshala
itokyo
itopsport
itoronto
itranskei
its
itsala
itself
itsha
itshantliziyo
itshathi
itshayina
itshesi
itshintsha
itshintshe
itshintshi
itshintshile
itsho
itumente
ityala
ityalike
itye
ityhalwe
ityhefu
ityhila
ityhume
ityuwa
iu
iucn
iuris
iv
ivacuum
ivalwe
ivan
ivangeli
ivanovich
ivasi
ive
iveki
ivela
ivelise
iveliswe
ivenkile
iveza
ivezwe
ivili
ivlamertinge
ivory
ivoti
ivula
ivuleka
ivumba
ivumela
ivutha
ivuthe
iw
iwaka
iwashingthoni
iwashington
iwe
iwebhusayithi
iwela
iwhite
iwho
iwiki
iwikipedia
iwilamethi
iwilberforce
iwonga
iworld
iwoyisayo
ix
ixabiso
ixatyiswe
ixesha
ixeshana
ixhama
ixhaphake
ixhaphakile
ixhaphakileyo
ixhasa
ixhego
ixhiba
ixhoba
ixhomekeke
ixilongo
ixokomezela
ixopo
ixutywa
iy
iya
iyafana
iyafuneka
iyahambelana
iyakuba
iyakulandela
iyakusoloko
iyakuthi
iyakwazi
iyalingana
iyanyibilika
iyapasiswa
iyaphila
iyaphumelela
iyaqhubeka
iyaziwa
iye
iyehla
iyenye
iyenze
iyeza
iyi
iyile
iyileyo
iyiminyaka
iyindoda
iyingozi
iyinto
iyintoni
iyinxalenye
iyise
iyityhefu
iyiyo
iyodwa
iyonke
iyukreyini
iyunayithedi
iyunifomu
iyunisa
iyunithi
iyunivesithi
iyurophu
iz
iza
izaci
izahlulo
izakha
izakhamzimba
izakhiwo
izakhono
izakuba
izalwa
izama
izambia
izandi
izandla
izangotshe
izangqa
izazinge
izdegerdes
ize
izehlo
izembe
izenzele
izenzi
izenzo
izi
izibakala
izibalo
izibhedlele
izibizo
izibongo
izibuko
izibulala
izibulo
izicelo
izicengcelezo
izicutha
izicwangciso
izidalwa
izidanga
izidlo
izidlwengu
iziduko
izifo
izifuba
izifundo
iziganeko
izigaqa
izigidi
izigqibo
izigulana
izigulo
izihlalo
izihlandlo
izihlangu
izihlobo
izihloko
izihlomelo
izihlunu
izii
izikhaka
izikhali
izikhanyiso
izikhukukazi
izikhulu
izikhululo
izikhundla
iziko
izikolo
izikripthi
izikumkani
izililo
izilo
izilonda
izilwa
izilwanyana
izimbabwe
izimbiwa
izimelabizo
izimfimfithi
izimvo
izinambuzane
izincoko
izindlu
izinga
izingela
izingqala
izingqini
izinja
izinto
izintso
izintsu
izinxibo
izinyanya
izinyibiliki
izinyibilikisi
izinze
iziphawuli
iziphumo
iziqendu
iziqhamo
iziqinisekiso
iziqithi
iziqonga
iziqu
izirus
izisa
izisele
iziselo
izitatistiki
izithembu
izithethe
izithethi
izithili
izithixo
izitho
izithuba
izithuthi
izitishi
izitofu
izitovu
izitshixo
izitulo
izitya
izityalo
izityebi
izityholo
izivakalisi
izivumelwano
izixeko
izixhobo
iziyelelane
iziyobisi
iziza
izizathu
iziziba
izizukulwana
izizwe
izohlwayo
izondla
izondlo
izonka
izono
izoyikiso
izulu
izwe
izwi
j
j0
j1
j2
j3
j4
j5
j6
j7
j8
j9
ja
jabavu
jacana
jachisi
jack
jackie
jackson
jacob
jacobus
jacques
jade
jae
jairzinho
jake
jama
jamani
james
jamie
jamison
jan
jane
janeiro
janet
jangadeiro
janse
january
januwari
japan
japanese
jared
jaroslav
jasmine
jason
jasper
java
javier
jaw
jay
jazari
jb
jc
jd
je
jean
jeff
jefferson
jeffery
jelo
jenkin
jenkins
jenner
jennings
jensen
jeremy
jerome
jerry
jersey
jerusalem
jerzy
jesse
jesus
jets
jewel
jf
jg
jh
ji
jibon
jikelele
jim
jimmy
jize
jj
jk
jl
jm
jn
jo
joan
joao
jobs
joburg
joe
jogos
johan
johann
johanna
johannes
johannesburg
john
johnny
johns
johnson
joined
joins
jolobe
jometri
jon
jonas
jonathan
jones
jonga
jongumsobomvu
joni
jordan
jorge
jose
josefa
joseph
josh
joshua
journal
journalism
journalist
joy
joyce
jp
jpg
jq
jr
js
jstor
jt
ju
juan
judge
judith
judy
juice
julayi
jules
julia
julian
juliana
julie
julio
julius
july
jump
june
juni
junior
juniors
junius
juray
jurgen
jurisdiction
jurisprudence
just
justice
justin
juta
juvenil
juventus
jv
jw
jwi
jx
jy
jz
k
k0
k1
k2
k3
k4
k5
k6
k7
k8
k9
ka
kaalice
kaaristotle
kabach
kabanzi
kabawo
kabiko
kabini
kabob
kabuhlungu
kabukhali
kacanzibe
kachungwa
kade
kadebe
kadisemba
kadube
kadukwana
kaeuclid
kaffiraria
kafuze
kagaba
kagabha
kagesi
kagiso
kagqirha
kagqoba
kagwala
kahintsa
kahlanu
kahleke
kahulu
kaizana
kajacob
kajane
kajanuwari
kajohn
kajotello
kajulayi
kajuni
kaka
kakade
kakama
kakekana
kakhawuta
kakhongolose
kakhulu
kakobe
kakubi
kakuhle
kakumkani
kali
kalikhulu
kalishumi
kaliwaka
kallenbach
kaloku
kaloliwe
kamabonakude
kamabonwakude
kamajola
kamakhanda
kamakhulu
kamama
kamandela
kamaqoma
kamasipala
kamatshi
kamaxeke
kambe
kameyi
kamfundisi
kamhlaba
kamhlakaza
kamichelangelo
kamkhwebane
kamlanjeni
kamlawu
kamnandi
kamonaheng
kamongameli
kampethu
kamsinya
kamva
kan
kanajalo
kananjalo
kancinane
kancinci
kandlambe
kane
kanen
kanene
kanga
kangaka
kangakanani
kangako
kangangeenyanga
kangangoko
kangangokuba
kangangokude
kangaphi
kangcongolo
kangcono
kangqika
kanina
kaninzi
kanjalo
kanjani
kankosiyamntu
kankqoyi
kanobom
kanobomi
kanobuyisa
kanomagwayi
kanomathotholo
kanongqawuse
kanoni
kanontetha
kanovemba
kansai
kant
kantaba
kantantala
kanti
kantsikana
kantsikane
kanyanga
kanye
kaokthobha
kaoktobha
kapa
kaphatho
kaplaatje
kaplaatji
karate
karateka
karen
karharhabe
karholihlahla
karhulumente
karl
karpinski
karubusana
kasally
kaseptemba
kashaka
kasifuba
kasifubasibanzi
kasisulu
kasoga
kasol
kat
katata
kate
kathathu
katherine
kathixo
kathrada
katie
katiyo
katolika
katom
katshazimpuzi
katyhali
kaviljoen
kawilliam
kawonke
kaxaka
kaxhosa
kaxhoxho
kay
kayako
kayise
kayvonne
kazakhstan
kazi
kazille
kazulu
kazwelonke
kb
kc
kd
ke
kea
keep
keeping
kei
keiskammahoek
keith
kekana
keller
kelly
kelvin
kemal
kemp
kempton
ken
kengoku
kennedy
kenneth
kent
kenya
kerosene
kerry
kestell
kevin
kewell
key
keyboard
keyboards
keyloggers
keystroke
keystrokes
kf
kg
kgalema
kh
khaka
khama
khan
khangela
khanitsho
kharbhondioxide
kharolayina
khawufan
khawujonge
khawuxele
khawuyek
khaya
khayelitsha
khazi
khe
khelekenkce
khemestri
khemikhali
khemistri
khenkce
khetha
khethe
khilomitha
kho
khole
kholeji
khompyutha
khon
khona
khondo
khontayina
khovidi
khulu
khumalo
khumbula
khuphiswano
ki
kia
kianjavato
kick
kicks
kidd
killed
killer
killingray
kilometres
kim
kimberley
kin
kind
kinds
king
kingdom
kinloch
kinross
kirindy
kirkwood
kirsten
kit
kj
kk
kl
klenk
klerk
kloof
km
kn
knew
knibbs
knives
knockout
know
knowledge
knowles
known
knox
ko
kobe
kobhubhane
kobo
kobu
kobuchopho
kobudlelwane
kobukhwetha
kobukristu
kobukumkani
kobushushu
kobusuku
kochi
kodwa
kogonyo
kogqirha
kohambo
kohlobo
kokani
koko
kokona
kokosulelwa
koksharov
koku
kokuba
kokubanjwa
kokubona
kokubulawa
kokubuya
kokucula
kokudibana
kokufika
kokufumana
kokufuna
kokugqiba
kokugula
kokukhanya
kokukhutshwa
kokunye
kokuphefumla
kokuphuma
kokuqala
kokusasazeka
kokusebenzisa
kokusingqongileyo
kokuswela
kokusweleka
kokuthatha
kokutya
kokuzalwa
kokwabo
kolawulo
kolo
koloni
koloyiso
kolu
koluntu
kolunye
kolusu
kolwandle
kolwazi
kolwimi
komani
komanyano
kombane
kombuso
kombutho
komdlalo
kome
komfundisi
komgaqo
komgca
komhlaba
komile
komiti
komkhosi
komkhulu
komkhwetha
komlambo
komlinganiselo
komlomo
komntu
komntwana
komnyaka
komnye
komoya
komthetho
komthi
komthombo
komyalezo
komyeni
komzi
komzimba
kona
konakalisa
kong
kongcoliseko
kongezwa
kongezwe
konke
konoha
konwatyiwe
konxibelelwano
konyaka
konyulo
koo
koogxa
koomabonakude
koonobangela
koonobuyisa
koonyana
koorhulumente
kopaonik
koqala
koqeqesho
koqoqosho
korea
korean
korhulumente
korinte
kosapho
koshtipathor
kosovo
kosta
kosuku
kosulelo
kothari
kothi
koti
kourkoumpetis
kovavanyo
kowabo
kowakhe
kowakwakhe
kowama
kowayo
kowe
koxinzelelo
koyisa
kp
kq
kr
kraal
krakow
krapiva
kratya
krestu
krieger
krimi
krishnamurthy
kristu
kroonstad
kruger
krugersdorp
krune
ks
kt
ku
kub
kuba
kubafazi
kubafundi
kubahlali
kubakhenkethi
kubakho
kubala
kubalandeli
kubaliswa
kubaluleke
kubalulekile
kubalwa
kubalwe
kubanda
kubandakanya
kubandakanywa
kubangele
kubangeneleli
kubanjiswe
kubanjwa
kubantu
kubantwana
kubaphathi
kubaphulaphuli
kubathwa
kubathwesa
kube
kubekho
kubekwa
kubekwe
kubelula
kubemi
kubemnandi
kubenzima
kubesuthu
kubetha
kubhala
kubhalwa
kubhalwe
kubhekisa
kubhekiswa
kubhengezwa
kubhiyozelwa
kubhubhe
kubi
kubini
kubizwa
kubo
kubob
kubomi
kubonakala
kubonakale
kubonakaliswa
kubonisa
kuboniswa
kubonwa
kubuchule
kubuchwephesha
kubudala
kubugcisa
kubukrestu
kubukumkani
kubulala
kubulawa
kubumnyama
kubungakanani
kubungqina
kubuntatheli
kubunzululwazi
kuburhulumente
kubushushu
kubusuku
kubuxhakaxhaka
kubuye
kubuzwe
kucaca
kucace
kucacile
kucanzibe
kucela
kucentane
kucetyiswa
kuchaphazela
kuchaphazele
kuchaziwe
kuchazwe
kuchithwa
kucingwa
kucingwe
kudade
kudala
kudalwe
kude
kudibana
kudidiyelwe
kudingeka
kudisemba
kudityaniswa
kudityaniswe
kudla
kudlalwa
kudle
kudlula
kudlule
kudonga
kudrawn
kudubula
kudushe
kufa
kufakelwe
kufakwa
kufakwe
kufana
kufanele
kufanelekile
kufanelekileyo
kufebhuwari
kufika
kufike
kufikelela
kufikelele
kufumana
kufumaneka
kufumaneke
kufuna
kufunda
kufundisa
kufundiswa
kufundwa
kufundwe
kufuneka
kufuneke
kufunyaniswe
kufunyanwa
kufunyanwe
kufuphi
kufutshane
kugalelwa
kugalelwe
kugcina
kugcinwa
kugcinwe
kugeleza
kugeorge
kugqityiwe
kugqitywe
kugqunywe
kuguqulo
kugxilwe
kuhamba
kuhambe
kuhambo
kuhlafunwa
kuhlala
kuhlale
kuhlalwe
kuhlanga
kuhle
kuhleli
kuhlobo
kuhlwayo
kuhlwe
kujanuwari
kujohn
kujongwa
kujongwe
kujulayi
kujuni
kuka
kukajanuwari
kukakristu
kukamama
kukanontetha
kukantantala
kukarhulumente
kukasteve
kukatata
kukayise
kukha
kukhe
kukhenketho
kukho
kukhokela
kukhokelela
kukhokelele
kukhokhelela
kukholeleka
kukholelwa
kukhona
kukhula
kukhule
kukhulu
kukhuphiswano
kukhuseleko
kukhuthaza
kukhutshwa
kuko
kuku
kukuba
kukubethwa
kukubi
kukubona
kukucacisa
kukudibana
kukudibanisa
kukudla
kukufa
kukufezekisa
kukufumana
kukufuna
kukufunda
kukugula
kukuhla
kukujonga
kukukhanya
kukukhonkotha
kukulahlwa
kukulamba
kukulawula
kukule
kukulunywa
kukumkani
kukungabikho
kukungcola
kukunqongophala
kukupha
kukuphela
kukuphucula
kukuphumelela
kukuqinisekisa
kukusebenza
kukusebenzisa
kukusetyenziswa
kukuthabatha
kukuthi
kukutshaja
kukutya
kukutyiwa
kukuxoka
kukuzalwa
kukwafuneka
kukwakha
kukwakho
kukwamdlezana
kukwanjalo
kukwanokholeji
kukwaphula
kukwazi
kukweli
kukwenza
kukwesi
kukwimibhalo
kula
kulaa
kulalwa
kulamanani
kulandela
kulandelayo
kulandele
kulandelwe
kulapho
kulawula
kulawulo
kule
kulencwadi
kulendawo
kulenginqgi
kulepoqo
kuleyo
kulila
kulindeleke
kulisiya
kuliwa
kulo
kulonina
kuloo
kulotyolwa
kulowo
kuludwe
kuluhlu
kulula
kulungile
kulungiswe
kuluntu
kulutsha
kulw
kulwa
kulwabelwano
kulwandle
kulwaphulo
kulwazi
kulwimi
kum
kuma
kumabanga
kumabhinqa
kumabonakude
kumabonwakude
kumadoda
kumafutha
kumagama
kumagqibela
kumagumbi
kumahlomela
kumajelo
kumajoni
kumakhaya
kumakhulu
kumakhwenkwe
kumalinge
kumalungu
kumama
kumamkeli
kumanani
kumandla
kumane
kumanqwanqwa
kumantla
kumantombazana
kumanye
kumanzi
kumaphandle
kumaphepha
kumaphondo
kumaqela
kumaqokobhe
kumaqoma
kumaqonga
kumar
kumarharhabe
kumasebe
kumashishini
kumashumi
kumasiko
kumasipala
kumathambo
kumatsha
kumatshi
kumatshini
kumawaka
kumaxa
kumaxesha
kumaxhosa
kumayeza
kumazantsi
kumaziko
kumazwe
kumazwi
kumbindi
kumbona
kumboniso
kumbutho
kumculo
kumdlalo
kumele
kumfazi
kumfundisi
kumgada
kumgama
kumgangatho
kumgaqo
kumgca
kumhla
kumhlaba
kumhobe
kumi
kumila
kumile
kumjikelo
kumkani
kumkhankaso
kumkhosi
kumkhuhlane
kumkhuluwa
kumlambo
kumlanda
kumlinganiselo
kumlo
kummandla
kumngcipheko
kumngcwabo
kumnika
kumntla
kumntu
kumnyaka
kumnyama
kumnyhadala
kumongo
kumoya
kumphakamo
kumphakathi
kumphezulu
kumphulaphula
kumqolo
kumsebenzi
kumsitho
kumthi
kumxube
kumzabalazo
kumzali
kumzantis
kumzantsi
kumzi
kumzila
kunabantu
kunabo
kunakho
kunalawo
kunale
kunaleyo
kunamhlanje
kunaxa
kunayo
kunazo
kunceda
kuncedwe
kuncinane
kunciphisa
kuncitshiswa
kuncitshiswe
kuncwadi
kuncwela
kundalashe
kundlambe
kune
kunee
kunelo
kuneminyaka
kunendlwane
kunene
kunenye
kunezinye
kunezo
kungaba
kungabandakanya
kungabanga
kungabangela
kungabikho
kungachaphazela
kungadala
kungade
kungakho
kungangcono
kungangeni
kunganzima
kungaquka
kungasetyenziswa
kungasuka
kungathiwa
kungayenza
kunge
kungekho
kungekudala
kungena
kungene
kungeniswe
kungenjalo
kungentsuku
kungenxa
kungenzeka
kungenzeki
kungenziwa
kungesizathu
kungeyiyo
kungoko
kungoku
kungokuba
kungona
kungqungqwe
kungu
kuni
kunika
kunikwa
kunina
kuninzi
kunjalo
kunje
kuno
kunobo
kunokuba
kunokubangela
kunokubuyiswa
kunokunciphisa
kunokwenza
kunokwenzeka
kunokwenziwa
kunomhlaba
kunoni
kunqabile
kunqanda
kunqandwe
kunqongophele
kunqulo
kunqumla
kunqunqwa
kunqunyulwa
kuntsuku
kunuka
kunxulumene
kunxweme
kunyaka
kunyange
kunyango
kunyanzelekile
kunye
kunyuka
kunyulo
kunzima
kunzulu
kupapasho
kupapashwa
kuphakamisa
kuphalazwe
kuphalo
kuphando
kuphandwa
kuphawu
kuphekwa
kuphekwe
kuphela
kuphele
kupheleleyo
kuphendlo
kuphendula
kuphi
kuphikisana
kuphinda
kuphinde
kuphucula
kuphuhliso
kuphuhliswa
kuphuhliswe
kuphulo
kuphuma
kuphume
kupoqo
kuqala
kuqale
kuqalisa
kuqalwa
kuqalwe
kuqashwe
kuqeqesho
kuqhankqalazo
kuqhelekile
kuqhube
kuqhubeka
kuqhutywa
kuqhutywe
kuqikeleleka
kuqikelelwa
kuqinisekisa
kuqonda
kuqondwe
kuqoqosho
kuquka
kurhulumente
kurhwebo
kuriphabliki
kurpfalz
kurratu
kurt
kurtz
kusabiwa
kusadliwa
kusakhiwa
kusakube
kusanda
kusapho
kusaqhubeka
kusasa
kusasazo
kusasazwa
kuse
kusebenza
kusehla
kusehliswa
kusekho
kuselubala
kusengwa
kusenjalo
kusenokuba
kusenokubonwa
kusenokwenzeka
kusentshona
kusenzeka
kusenziwa
kuseptemba
kusetyenziswa
kusetyenziswe
kusetyenzwa
kushishino
kushiyeka
kushushu
kusiba
kusikhomo
kusikwa
kusikwe
kusil
kusile
kusilwa
kusilwe
kusindise
kusini
kusithela
kusithiwa
kusiya
kusiyiwa
kuso
kusoloko
kusongezwa
kusube
kusuka
kusuke
kusukela
kusuku
kusuleleke
kusuleleko
kususwe
kutata
kuthabatha
kuthatha
kuthathwa
kuthathwe
kuthatyathwa
kuthe
kuthelekelelwa
kuthelekiswa
kutheni
kuthetha
kuthethe
kuthethwa
kuthethwayo
kuthetwa
kuthi
kuthintelwe
kuthiwa
kuthiwe
kuthotho
kuthungelwano
kuthunyelwa
kuthwa
kutsalwe
kutsha
kutshazimpunzi
kutshazimpuzi
kutshiswa
kutshiwo
kutsho
kutya
kutyhilwa
kutyiwe
kuu
kuuphela
kuuphi
kuva
kuvakala
kuvakalento
kuvaleke
kuvalelwe
kuvavanyo
kuvela
kuvele
kuvelisiweyo
kuvimba
kuviwo
kuvokotheke
kuvuka
kuvula
kuvuleke
kuvulwe
kuvumela
kuvunyelwana
kuvusa
kuvuyiswana
kuw
kuwe
kuwo
kuwonke
kuxa
kuxhaphaka
kuxhaphake
kuxhaphakile
kuxhelw
kuxhelwa
kuxhelwe
kuxhentswe
kuxhomekeke
kuxinzelelo
kuxwebhu
kuya
kuyacetyiswa
kuyafuneka
kuyakubakho
kuyakucaciswa
kuyakunceda
kuyakuthetha
kuyakuthi
kuyakwenzeka
kuyakweza
kuyaphi
kuyazenzekela
kuye
kuyenzeka
kuyi
kuyilwa
kuyimfuneko
kuyinto
kuyinxalenye
kuyinyaniso
kuyiqonda
kuyise
kuyiwa
kuyiwe
kuyo
kuz
kuza
kuzakuphuma
kuzalwa
kuze
kuzelwe
kuzii
kuzimasa
kuzimela
kuzinza
kuziswa
kuziwe
kuzo
kuzwelonke
kuɾi
kv
kvk
kw
kwa
kwaafika
kwaathi
kwaba
kwabakho
kwabamhlophe
kwabanjwa
kwabantsundu
kwabantu
kwabantwana
kwabanye
kwabaphantsi
kwabasekorinte
kwabe
kwabebala
kwabekwa
kwabhalwa
kwabikw
kwabizwa
kwabo
kwabonakala
kwabonwa
kwabuya
kwacaca
kwada
kwade
kwadukuza
kwafakwa
kwafika
kwafikelela
kwafun
kwafuneka
kwafunyaniswa
kwagcaleka
kwagompo
kwaguquka
kwahlwa
kwakabini
kwakha
kwakhe
kwakheka
kwakhiwa
kwakhiwe
kwakho
kwakhokelela
kwakhona
kwako
kwakuba
kwakucwangcisiwe
kwakufika
kwakufuneka
kwakuhlala
kwakukho
kwakula
kwakule
kwakulo
kwakuloo
kwakumele
kwakumngqongile
kwakumnyama
kwakungekho
kwakunye
kwakunzima
kwakusa
kwakusanda
kwakusasa
kwakusenyanyeni
kwakusithiwa
kwakuthetha
kwakuthethwa
kwakuthi
kwakuthiwe
kwakuyi
kwakuyinto
kwakuzo
kwakweli
kwala
kwalaa
kwalandela
kwalanga
kwalapha
kwalapho
kwale
kwalemithetho
kwali
kwalil
kwaliwa
kwalo
kwaloo
kwalula
kwam
kwama
kwamabhinqa
kwamadoda
kwamagama
kwamakhoboka
kwamakholwa
kwamakhulu
kwamalahle
kwamalungelo
kwamalungu
kwamanani
kwamandla
kwamangesi
kwamanina
kwamankazana
kwamanqaku
kwamanqanaba
kwamanye
kwamanzi
kwamapasi
kwamaphepha
kwamaphondo
kwamapolisa
kwamaqela
kwamasele
kwamasiko
kwamathandabuzo
kwamathanga
kwamathematika
kwamathumbu
kwamawa
kwamawaka
kwamawele
kwamaxabiso
kwamaxesha
kwamaxhosa
kwamayeza
kwamaza
kwamazulu
kwamazwe
kwambonisa
kwamehlo
kwamenza
kwamkela
kwamkelw
kwamkhatshane
kwanabanye
kwanda
kwandlambe
kwane
kwanee
kwaneenkqubo
kwaneminye
kwanenani
kwanezinye
kwanga
kwangalo
kwangaloo
kwangaloomini
kwangaphambili
kwangawo
kwangaxeshanye
kwangelo
kwangena
kwangendlela
kwango
kwangoko
kwangolo
kwangolu
kwangowe
kwangqika
kwangu
kwangumnyaka
kwanguye
kwanje
kwanokholeji
kwanokubekwa
kwanokuvelela
kwanti
kwantlandlolo
kwanto
kwantu
kwanyanzeleka
kwaoko
kwapapashwa
kwaphakanyiswa
kwaphakathi
kwaphela
kwaphelela
kwaphuhliswa
kwaphuma
kwaqala
kwaqaliswa
kwaqalwa
kwarharhabe
kwarholihlahla
kwasa
kwase
kwasekufeni
kwasekuzalweni
kwasemva
kwasetyenziswa
kwaso
kwasomgxada
kwathathelwa
kwathathwa
kwathi
kwathiwa
kwathoba
kwatshintsha
kwatsho
kwavakala
kwavela
kwavokotheka
kwavulwa
kwawo
kwawona
kwaxabisa
kwaxhosa
kwaya
kwaye
kwayena
kwayiminyaka
kwayo
kwaza
kwazalwa
kwaze
kwaziwa
kwazo
kwazulu
kwe
kweafrika
kwebandla
kwebhayibhile
kwebholorho
kwebhulorho
kwedabi
kwedatha
kwedini
kwee
kweedolophu
kweedyunivesithi
kweekhompyutha
kweelwandle
kweelwimi
kweemaski
kweembasa
kweemeko
kweempahla
kweempawu
kweempumlo
kweendawo
kweengongoma
kweenkonzo
kweenkosi
kweenkqubo
kweenqwelomoya
kweentlobo
kweentloko
kweentombi
kweentsana
kweentsapho
kweentsholongwane
kweentsuku
kweenyanga
kweenziwa
kweepali
kweepesenti
kwefreeworld
kwegama
kwegazi
kwegrantani
kwegunya
kweguranani
kwehlabathi
kwehlobo
kwekatshazimpunzi
kwekhabhoni
kwekhaya
kwekhompyutha
kwekoloni
kwekomkhulu
kwela
kwelaa
kwelanga
kwelasemaxhoseni
kwelasentla
kwele
kweleentaba
kweli
kwelindle
kwelinye
kweliphephandaba
kweliso
kwelithi
kweliya
kwelizwe
kwelo
kwelokhaya
kwelokuba
kwelokubuyela
kwelona
kwemafeking
kwemali
kwemathematics
kwembali
kwemeko
kwemfazwe
kwemfuneko
kwemifuno
kwemihla
kwemini
kweminwe
kweminyaka
kweminye
kwemiphunga
kwemiqathango
kwemisebenzi
kwemithambo
kwemithi
kwemizi
kwemo
kwemozulu
kwempembelelo
kwempilo
kwempucuko
kwempuma
kwemvelaphi
kwemvume
kwenani
kwenciba
kwendalo
kwendawo
kwendeb
kwendibanisela
kwendima
kwendlela
kwendlu
kwengalo
kwengama
kwengcinezelo
kwengcwaba
kwengqondo
kwengulo
kwengxelo
kwengxoxo
kwenja
kwenjini
kwenkomfa
kwenkomo
kwenkosi
kwenkosikazi
kwenkqubo
kwenkulungwane
kwenkundla
kwenkunzi
kwentaba
kwentambo
kwentlalo
kwentliziyo
kwentloko
kwento
kwentombi
kwentsholongwane
kwentshona
kwentsimbi
kwentsuku
kwenu
kwenyanga
kwenye
kwenza
kwenze
kwenzeka
kwenzekayo
kwenzeke
kwenzekile
kwenziwa
kwenziwe
kwephepha
kweplanethi
kweponte
kweqela
kwequmrhu
kwerhashalala
kwesa
kwesahara
kwesakhono
kwesantya
kweshumi
kwesi
kwesibhakabhaka
kwesibhengezo
kwesibindi
kwesibini
kwesiduko
kwesifo
kwesigidi
kwesihloko
kwesikhumba
kwesiko
kwesingesi
kwesinye
kwesiphumo
kwesiqingatha
kwesiseko
kwesisu
kwesitishi
kwesitoko
kwesixa
kwesixhosa
kwesizwe
kweso
kwesuswa
kwetafile
kwethu
kwethuba
kwetyala
kwewaka
kwexesha
kwexeshana
kweyama
kweyedwarha
kweyekhala
kweyenkanga
kweyesi
kweyesilimela
kweyethupha
kweyeza
kweyokwindla
kweyomdumba
kweyomnga
kweyomqungu
kweyomsintsi
kweyona
kweyunivesithi
kweyurophu
kwezandi
kwezandla
kwezembali
kwezemfundo
kwezemidlalo
kwezempilo
kwezentengiso
kwezentlalo
kwezenzululwazi
kwezi
kwezidalwa
kwezifo
kweziganeko
kwezigidi
kweziko
kwezili
kwezilishumi
kwezilwanyana
kwezimbini
kwezinga
kwezingama
kwezinja
kwezintathu
kwezinto
kwezintso
kwezinye
kweziqendu
kwezityalo
kwezixhobo
kwezizwe
kwezo
kwezokhuseleko
kwezolimo
kwezombuso
kwezomculo
kwezomthetho
kwezoncwadi
kwezopolitiki
kwezopolitiko
kwezopolotiko
kwezoqoqosho
kwi
kwiafrika
kwiarithmetic
kwiatlas
kwibala
kwibandla
kwibanga
kwibhodi
kwibhokisi
kwibhola
kwibhotile
kwibhotwe
kwicala
kwicandelo
kwicape
kwicaribbean
kwicawa
kwichiza
kwicopa
kwicwecwe
kwidabi
kwidatha
kwidemokhrasi
kwidisney
kwidolophu
kwidyunivesithi
kwifama
kwifestile
kwifilosofi
kwifiziki
kwifom
kwigama
kwigazi
kwigoldfields
kwigrafu
kwigrama
kwigramma
kwigumbi
kwihlabathi
kwihlelo
kwiholo
kwii
kwiiamericas
kwiidolophu
kwiikhompyutha
kwiikomiti
kwiilali
kwiilokishi
kwiilwimi
kwiimatshini
kwiimbasa
kwiimbewu
kwiimeko
kwiimfazwe
kwiimfundiso
kwiimo
kwiimovie
kwiimpumlo
kwiimvaba
kwiimviwo
kwiincwadi
kwiindawo
kwiindibano
kwiindlela
kwiingalo
kwiingcali
kwiingcinga
kwiingingqi
kwiingoma
kwiingozi
kwiingxaki
kwiingxoxo
kwiinkalo
kwiinkampani
kwiinkampu
kwiinkolo
kwiinkonzo
kwiinkqubo
kwiinkulungwane
kwiinkundla
kwiinkwenkwezi
kwiintaba
kwiintetho
kwiintlobo
kwiintloko
kwiinto
kwiintsana
kwiintshaba
kwiintsholongwane
kwiintshukumo
kwiintsomi
kwiintsuku
kwiinyanga
kwiiprojekthi
kwiithiyetha
kwiitshathi
kwiiveki
kwiivenkile
kwiiyunivesithi
kwiizitishi
kwijografi
kwikarati
kwikhalenda
kwikhaya
kwikholam
kwikholeji
kwikhompyutha
kwikhuko
kwikhulu
kwikomiti
kwikomkhulu
kwikona
kwikota
kwikwayala
kwilali
kwileague
kwilindle
kwilitha
kwilixa
kwilizwe
kwilizwekazi
kwilokishi
kwilokisi
kwilungu
kwimagazini
kwimalariya
kwimanyano
kwimarike
kwimathematika
kwimbali
kwimbaliso
kwimbasa
kwimbiza
kwimeko
kwimfazwe
kwimfundiso
kwimfundo
kwimibandela
kwimibhalo
kwimibhobho
kwimibongo
kwimiboniso
kwimiceli
kwimicimbi
kwimida
kwimidaka
kwimidlalo
kwimifanekiso
kwimigaqo
kwimigila
kwimihla
kwimikhuba
kwimimandla
kwiminyaka
kwimiphunga
kwimisebenzi
kwimishini
kwimissioni
kwimitha
kwimithambo
kwimithanjana
kwimithi
kwimizekelo
kwimizi
kwimizimba
kwimo
kwimozulu
kwimpilo
kwimpuma
kwimpumelelo
kwimvelaphi
kwimveliso
kwinani
kwincakam
kwincakami
kwincindi
kwincwadana
kwincwadi
kwindalo
kwindawo
kwindibano
kwindima
kwindlela
kwindlu
kwindlw
kwindoda
kwingcinezelo
kwingingqi
kwinginqi
kwingoma
kwingozi
kwingqokolela
kwinguqulelo
kwinickelodeon
kwinile
kwinkampani
kwinkcochoyi
kwinkcubeko
kwinkoliso
kwinkolo
kwinkomfa
kwinkonzo
kwinkosikazi
kwinkqubo
kwinkulungwane
kwinkundla
kwinkunzi
kwinqaba
kwinqanaba
kwinqila
kwinqkubo
kwinqwelo
kwintaba
kwintengiso
kwintetho
kwintlalo
kwintlanga
kwintlanganiso
kwintlangano
kwintlobo
kwinto
kwintolongo
kwintsapho
kwintshona
kwintsingiselo
kwinupedia
kwinxalenye
kwinyama
kwinyanga
kwinyangw
kwinzala
kwinzululwazi
kwiofisi
kwipalamente
kwiphepha
kwiphephandaba
kwiphondo
kwipolitiki
kwiqadi
kwiqela
kwiqondo
kwirhafu
kwiriphabliki
kwisahluko
kwisakhiwo
kwisandi
kwisandla
kwisangqa
kwisayensi
kwisebe
kwishishini
kwishumi
kwisi
kwisibhedlele
kwisidalwa
kwisifo
kwisifrentshi
kwisigaba
kwisigidi
kwisigrike
kwisihlandlo
kwisijamani
kwisikhululo
kwisikhundla
kwisiko
kwisikolo
kwisilatini
kwisilwanyana
kwisingesi
kwisingxobo
kwisininzi
kwisinye
kwisinyi
kwisiqendu
kwisiqingatha
kwisiqithi
kwisiseko
kwisitalato
kwisithethe
kwisithili
kwisithuba
kwisithukuthezi
kwisitishi
kwisitya
kwisityalo
kwisivakalisi
kwisivumelwano
kwisixeko
kwisixhenxe
kwisixhosa
kwisizalo
kwisizikithi
kwisizukulwana
kwisizwe
kwiskolo
kwisoka
kwithafa
kwithala
kwithe
kwithiyetha
kwithuba
kwitumente
kwiudf
kwiuniversity
kwiveki
kwivenkile
kwivlamertinge
kwiwebhu
kwixa
kwixabiso
kwixesha
kwiyunivesithi
kwiyunivesity
kwizakhiwo
kwizandi
kwizehlo
kwizenzi
kwizenzo
kwizibalo
kwizibongo
kwizibulala
kwizicelo
kwizidalwa
kwizifo
kwizifundiswa
kwizifundo
kwiziganeko
kwizigidi
kwizihlunu
kwizihlwele
kwizikhululo
kwiziko
kwizikolo
kwizilwanyana
kwizindlu
kwizinga
kwizini
kwizinto
kwizintso
kwizinyanya
kwiziphumo
kwiziqithi
kwiziswe
kwizithethi
kwizityalo
kwizixeko
kwizixhobo
kwizizukulwana
kwizizwe
kwizwe
kwowu
kx
ky
kz
l
l0
l1
l2
l3
l4
l5
l6
l7
l8
l9
la
laa
laan
laangen
laaqalela
laathi
laawonga
laba
labadlali
labafundi
labalandeli
labamhlophe
labantetho
labantu
labasebenzi
labasetyhini
labathunywa
labe
labeka
label
labemi
labhengezwa
labo
labonakala
labonakalisa
labor
laboratory
labour
lada
lady
ladysmith
lafika
lahambelana
lahla
lahlulwe
lake
lakes
lakhe
lakho
lakhutshwa
lakokwabo
lakowabo
lakowethu
lakudala
lakuqala
lakwa
lakwamathe
lakwasisulu
lakwaxhosa
lakwazulu
lala
lale
lali
lalifutshane
lalikhulu
lalincinane
lalinesihloko
lalingu
lalisetyenziswa
lalo
laloo
lam
lama
lamachiza
lamadoda
lamagama
lamagosa
lamakhowa
lamakhulu
lamakomanisi
lamalinde
lamalungelo
lamalungu
lamanani
lamangesi
lamanzi
lamaphandle
lamaphondo
lamapolisa
lamashumi
lamasoldati
lamathole
lamatsha
lamatye
lamawaka
lamawele
lamaxhosa
lamaziko
lamazwana
lamazwe
lamazwekazi
lamnika
lamtshi
lance
lancet
land
landscape
lang
langa
langalibalele
langasekhohlo
langasekunene
langen
langenhoven
langerhans
langoku
langokuhlwa
language
languages
langue
lanka
lanqwala
lapa
lapha
laphela
laphinda
laphuma
laphumelela
laqala
laqhubeka
large
largest
larisa
larry
las
lase
laseafrika
lasebrazil
lasecanada
lasefort
lasefrance
lasehawai
laseindiya
lasekapa
lasekhaya
lasekuhlaleni
lasekunene
lasekwa
laselimpopo
laselovedale
laselusuthu
lasemaxhoseni
lasemelika
lasemntla
lasempuma
lasempumalanga
lasemzantsi
lasemzini
lasenarrandera
lasenatali
lasenaude
lasentshona
lasentshwana
laseostreliya
lasepakistan
lasepalamente
laserhabe
laserhawutini
lasetransvaal
lasetshetshi
lasetyenziswa
laseyurophu
lashicilelwa
lasisivakalisi
laso
last
late
later
lathengwa
lathi
lathiywa
latin
latini
latinica
latshintshwa
latsho
lattimore
launch
launched
laura
laurel
laurence
law
lawn
lawo
lawrence
laws
lawyers
laya
layal
laye
layer
layo
laza
laze
laziswa
laziwa
laziwayo
lazo
lazyman
lb
lc
ld
lds
le
lead
leader
leaders
leadership
leading
league
leagues
leah
leanc
leandra
learn
learned
learner
learning
learnt
leary
least
leaves
lebala
lebalana
leballo
lebanese
lebhanti
lebhodi
lebhola
lebo
lebowakgomo
lecawa
lech
ledolophu
ledyunivesithi
lee
leeds
leelwimi
leemayile
leemviwo
leencwadi
leendaba
leendibano
leengcali
leenkedama
leenkokheli
leenkomo
leentaba
leentlobo
leenwele
leenyanga
leeward
left
leg
legazi
legend
legislacao
legolide
legraf
legs
legxarha
lehlabathi
lehle
lehouse
lei
leibniz
leiden
leishmania
leishmaniasis
lekhaya
lekhemikhali
lekoloni
lelali
lele
leli
lelinye
lelizwe
lelo
lelona
lemali
lematriki
lembali
lembandezelo
lembongi
lemfazwe
lemfundo
lemibutho
lemicimbi
lemidlalo
lemihla
lemilambo
leminyaka
lemissionary
lemizuzu
lemon
lempuma
lempundu
lemveli
lemveliso
lemvula
lena
lenani
lendalo
lendawo
lendlala
lendlela
lendlu
lendlunkulu
lendoda
lenene
lengcinezelo
length
lenkabi
lenkampani
lenkawu
lenkokheli
lenkomo
lenkonzo
lenkosi
lenkqubo
lenkundla
lentando
lentetha
lentliziyo
lento
lentshona
lentshukumo
lentulo
lenu
lenyama
lenyaniso
lenyuka
lenza
lenze
lenzeka
lenzelwa
lenzelwe
lenziwa
lenziwe
lenzululwazi
leo
leon
leonard
leonardo
leone
leonhard
leopold
lepalamente
lephepha
lephondo
lepolisa
leprosy
leptons
leqakamba
leqela
leqonga
leroy
les
lesebe
leshumi
lesi
lesibhulu
lesibini
lesigaba
lesigrike
lesihlanu
lesijamani
lesikolo
lesilatini
lesilungu
lesine
lesingesi
lesinguni
lesiqhelo
lesiteketiso
lesithathu
lesixeko
lesixhosa
lesizwe
leslie
leso
lesotho
less
let
lethanga
lethu
letter
letters
lettie
level
levi
lewis
leyo
leyunivesithi
lezemfundo
lezempilo
lezenzululwazi
lezi
lezidalwa
lezifo
lezifundo
lezigidi
lezilwanyana
lezinga
lezinto
lezinye
lezixhobo
lezizwe
lezobupolisa
lezokhuseleko
lezokhuselo
lezolimo
lezomculo
lezopolitiko
lf
lg
lh
li
liaison
libala
libaleke
libali
libalulekileyo
libambe
libandakanya
libe
libeke
libekho
liberation
liberia
libertadores
liberty
libhalwa
libhalwe
libhekisa
libhunga
libizwa
libomvu
libonakala
libonelela
libonisa
libonwa
library
libuye
libuyele
libya
licandelo
license
lichaza
lide
lidla
lidlala
lidliwa
lieutenant
lifana
life
lifetime
lifumana
lifumane
lifumaneka
lifumanise
lifutshane
liga
ligama
ligaqa
ligazi
ligcisa
ligcwele
light
ligi
ligosa
ligqibele
ligquthayo
ligqwetha
lihamba
lihlabathi
lihlala
lihlale
lihlathi
lihle
lihlwempu
lijikeleza
lijiye
lijongene
lika
likacolenso
likamhlomi
likanaruto
likanina
likantsikana
likaplaatjie
likasol
likathixo
likayise
like
likely
likhaya
likhe
likhona
likhoyo
likhulu
likhuthazwe
likomkhulu
likukuphela
likwasetyenziselwa
likwasetyenziswa
likwi
lilanga
lilawula
lilawulwa
lilifa
lilifu
lilikhulu
lililo
lilindle
lilingana
lilinye
liliphi
lilishwa
liliso
lilizwe
lilizwekazi
lilizwi
lilkhulu
lillian
lillis
lilo
lilonke
lilungu
lilwimi
lily
lim
lima
limalunga
limbi
limele
limgcine
limi
limisiweyo
limited
limits
limkile
limpopo
lin
linabantu
linani
linanye
lincinane
lincoln
linda
linden
lindiwe
lindsay
line
linear
linegama
linemozulu
linga
lingabangumdla
lingabikho
lingafumaneka
lingaka
lingama
lingaphantse
lingaphezulu
lingasekhohlo
lingekho
lingenaphawu
lingu
lingua
linguasphere
linguist
linguistics
linikwa
linikwe
linje
link
linked
links
linomculo
linoonobumba
linophawu
linqaku
linus
linux
linye
lion
lionel
liorish
liouville
lipelwa
liphakathi
liphantse
liphantsi
liphela
lipheleleyo
liphezulu
liphi
liphinda
liphinde
liphondo
liphuma
liphume
liphumileyo
liqala
liqaqobana
liqela
liqhalo
liqhayiya
liqhenqa
liqhina
liqikelelwa
liquid
liquids
liquka
liqulethe
lisa
lisakufika
lisanda
lisebe
lisebenza
lisebenzisa
lisebenzise
lisehla
lisenokuba
lisenziwa
lisetyenziselwa
lisetyenziswa
lisetyenziswe
lishishini
lishumi
lishunqulwe
lisi
lisifundisa
lisiko
lisithi
lisiwe
lisiya
lisoloko
list
listed
listen
lisuka
literacy
literary
literature
lithambo
lithandwa
lithatha
lithathe
lithathwa
lithathwe
lithe
lithetha
lithethwa
lithi
lithile
lithuania
lithuba
lithwale
lithwalwe
litolwe
litre
litsalwe
litsha
litshantliziyo
litt
little
litye
live
lived
livela
livele
liver
liverpool
lives
living
liwa
liwaka
lixa
lixesha
lixhoba
liya
liyakuba
liyakuhlala
liyakuthi
liyavela
liye
liyi
liyibuyisela
liyinto
liyise
liyithethayo
liz
liza
lizama
lize
lizekelwe
liziko
lizise
lizolile
lizwe
lizwekazi
lj
lk
ll
llb
llm
lloyd
lm
ln
lo
lobhubhane
lobola
lobolo
lobudoda
lobugcisa
lobugqirha
lobuhlobo
lobukhosi
lobukoloniyali
lobukumkani
lobulunga
lobungozi
lobungqina
lobunkokheli
lobuntshatsheli
lobuntwana
lobunzima
lobunzululwazi
lobushushu
local
localucalulo
located
location
lockdown
locke
locomotives
lodumo
logan
logic
logician
logonyo
logos
lohambo
lohlobo
lokhuseleko
lokishi
lokokuba
loku
lokuba
lokubala
lokubamba
lokubangabantu
lokubhala
lokubhubha
lokubuyela
lokudibanisa
lokudlala
lokudlalisa
lokufa
lokufikisa
lokufuduka
lokufumana
lokufunda
lokufundela
lokugada
lokugcina
lokugonya
lokugqibela
lokugxeka
lokuhamba
lokuhlala
lokuhlasela
lokujongana
lokukhangela
lokukhusela
lokulawula
lokulima
lokuloba
lokulwa
lokungena
lokunxibelelana
lokupapasha
lokuphatha
lokuphawula
lokuphefumla
lokuphelisa
lokuphuma
lokuqala
lokuqalisa
lokuqonda
lokusebenza
lokusenga
lokusinda
lokusutywa
lokuthelekisa
lokuthetha
lokuthintela
lokuthutha
lokutya
lokuvota
lokuxuma
lokuzalwa
lokwakha
lokwanda
lokwenene
lokwenza
lolawulo
lolimo
loliwe
lolo
lolona
lolu
loluhlobo
loluhlu
loluntu
lolunye
lolwaluko
lolwande
lolwandle
lolwaphulo
lolwazi
lolwimi
lombhali
lombona
lombuso
lombutho
lomculo
lomdaniso
lomdidiyelo
lomdlalo
lomfana
lomgada
lomgangatho
lomgaqo
lomgca
lomhambi
lomhlaba
lomhluzi
lomkhuhlane
lomlambo
lomlandu
lomlo
lommandla
lomntu
lomntwana
lomoya
lomqolo
lomsebenzi
lomthetho
lomthi
lomthwalo
lomtshato
lomyalezo
lomzabalazo
lomzantsi
lomzimba
lona
loncwadi
london
long
longer
lonke
lonto
lonwabisa
lonxibelelwano
lonyaka
lonyango
loo
loobawo
look
loom
lopez
lophando
lophawu
lophuhliso
loqoqosho
lorca
lord
lorhulumente
los
losapho
losasazo
loshishino
losulelo
lothair
lothotho
lotus
lotywala
lou
louis
louise
love
loved
lovedale
lovedalemissiona
lovelace
lover
low
lowama
lowe
lowell
lower
lowo
loyal
lozano
lp
lq
lr
ls
lsj
lt
ltd
lu
lua
lubaluleke
lubalulekileyo
lubandakanya
lubangela
lube
lubekho
lubiza
lubizwa
lubonakala
lubonakalisa
lubonisa
luboniswe
lubonwa
luca
lucarelli
lucas
luchungechunge
lucia
lucky
luckydubemusic
lucy
ludala
lude
ludeke
ludla
ludlala
ludonga
ludwe
ludweliso
ludwig
lufumana
lufumaneka
lufuzo
lugcinwa
lugcinwe
lugg
lugonyo
luhanjiswa
luhlala
luhlanga
luhlobo
luhlu
luis
luiz
lujolise
luka
lukamabonakude
lukapanini
lukarhulumente
lukathixo
lukayise
lukhawuleze
lukho
lukhokhelwa
lukhona
lukhoyo
lukhule
lukhulu
lukhwekhwe
lukwazi
lula
lulahlekile
lulandelayo
lulapha
lulawulo
lulo
luloo
luludwe
luluhlu
luluntu
lulwandle
lulwazi
lulwimi
lumalunga
lumangalisayo
lumenze
lumkani
lumps
lunamahlwili
lunar
lunayo
luncede
luncedo
lune
lungaka
lungamanzi
lungathi
lungenziwa
lungu
luni
lunike
luninzi
lunxulumano
lunyango
lunyawo
lunye
lunzulu
luphathe
luphawu
luphela
luphelile
luphondo
luphume
luqala
luqale
luquka
lusanda
lusapho
lusebenza
lusebenzisa
lusenzeka
lusenziwa
lusetyenziswa
lusetyenziswayo
lusezandleni
lush
lusinga
lusithi
lusiya
lusiza
lusoloko
lusuku
lusuleleko
lusulelo
luthathwa
luthe
luther
luthetha
luthethwa
luthi
luthile
luthotho
luthuli
lutsha
lutshintsho
luvela
luvele
luvo
luvuyo
luxhomekeke
luxinzelelo
luya
luyakukhula
luyakwazi
luye
luza
luze
luzisa
lv
lw
lwaba
lwababukeli
lwabafundi
lwabamhlophe
lwabantsundu
lwabantu
lwabantwana
lwabazali
lwabemi
lwabo
lwabonisa
lwabuya
lwafika
lwafudukela
lwafumana
lwaganda
lwahlala
lwahlulwe
lwakhe
lwakhiwa
lwakho
lwakowabo
lwakudala
lwakuthi
lwakutsha
lwakwa
lwakwanzululwazi
lwale
lwalo
lwaloo
lwalowo
lwalubizwa
lwalusahlala
lwalutho
lwama
lwamaafrika
lwamabritani
lwamachiza
lwamagama
lwamagosa
lwamahlaya
lwamajamani
lwamalungu
lwamanani
lwamandla
lwamanqaku
lwamanye
lwamanzi
lwamashumi
lwamaxhosa
lwamazwe
lwamkelwe
lwamlandela
lwandle
lwangaphandle
lwango
lwantlandlolo
lwaphakanyiswa
lwaphela
lwaqala
lwaqatshelwa
lwase
lwaseberlin
lwasebritane
lwaseburhulumenteni
lwaseindiya
lwasejamani
lwasekhaya
lwasemelika
lwasemhlabeni
lwasemntla
lwasempumalanga
lwasemzantsi
lwasentshona
lwaso
lwasuka
lwathi
lwavela
lwawo
lwaye
lwayo
lwaza
lwaze
lwazi
lwaziwa
lwaziwayo
lwazo
lwe
lweafrika
lwebele
lwebhaktheriya
lwebhayibhile
lwecandida
lwecovid
lwedatha
lwee
lweekoloni
lweelwimi
lweembaleki
lweemfazwe
lweemoto
lweempawu
lweemvavanyo
lweendawo
lweendlela
lweengcingo
lweenkobe
lweenkokheli
lweenkqubo
lweenqwelo
lweentsholongwane
lwefowuni
lwegama
lwegazi
lwehepatitis
lwehlabathi
lwekhefu
lwekoloni
lwelizwe
lwelizwekazi
lwemalariya
lwembalelwano
lwemdr
lwemfene
lweminyaka
lwemithi
lwemozulu
lwempilo
lwemveli
lwenani
lwencwadi
lwendawo
lwendlela
lwendlu
lwendumasiso
lwengca
lwengingqi
lwengoma
lwengqondo
lwenkampani
lwenkobe
lwenkomo
lwenkqubo
lwenoveli
lwenqwelo
lwentaka
lwentando
lwentetho
lwentlanzi
lwento
lwentsholongwane
lwentshona
lwentshukumo
lwenyoka
lwenza
lwenze
lwenzeka
lwenzeke
lwenzelwa
lwenziwa
lwenziwe
lwephondo
lweqela
lwesakhiwo
lweshishini
lwesi
lwesibhozo
lwesibhulu
lwesibini
lwesidatshi
lwesifo
lwesifrentshi
lwesilwanyana
lwesine
lwesingesi
lwesini
lwesintu
lwesisamoa
lwesisuthu
lwesiswazi
lwesithathu
lwesitswana
lwesitulo
lwesitya
lwesityalo
lwesixhenxe
lwesixhosa
lwesizezuru
lwesizulu
lwesizwe
lwethelevijini
lwevalentine
lweveki
lwexhwili
lweza
lwezakhono
lwezandla
lwezemidlalo
lwezenzululwazi
lwezi
lwezifo
lwezifundiswa
lwezifundo
lweziganeko
lwezikolo
lwezilwanyana
lwezinhanha
lwezinto
lwezinye
lwezityalo
lwezizwe
lwimi
lx
ly
lynch
lysistemon
lz
m
m0
m1
m2
m3
m4
m5
m6
m7
m8
m9
ma
maaba
mababe
mabali
mabandla
mabangalimameli
mabini
mabuyane
mac
macala
macalana
macau
macdonald
macedonian
macedonianame
macgregor
machel
machine
machines
macmillan
macqueen
macroscopic
macwecwe
madagascar
made
madeleine
madiba
madikizela
madison
madoda
madonna
madrid
maestro
mafeking
mafikeng
mafutha
magama
magazine
magema
magic
magie
magnitude
magqobhoka
magunya
magwalandini
magwaza
mahala
maharaj
mahashe
mahatma
mahikeng
mahlambahlaletyeni
mahlangeni
mahlanu
mahluko
mail
mailer
main
mainly
mais
maitland
majelo
major
majority
makabe
makahlanganiselwe
makanyakazele
make
makeba
makedoni
makemake
makenze
makers
makes
makgomo
makhe
makhulu
makhwenkwe
making
makiwane
makube
makubekho
makuphele
makuthandazwe
mal
mala
malagasy
malala
malan
malaria
malcolm
male
males
malformed
mali
malinge
malunga
malungu
maluphakanyis
mama
mamelodi
mammals
man
manageable
management
manager
manani
manchester
mancroft
mandarin
mandatory
mandela
mandenze
mandingene
mandiraja
mandithi
mandla
mandulo
mane
manga
manganese
mangaphi
mangcu
mangesi
mangla
maninzi
mankiewicz
mann
manners
mannya
mano
manqolo
manson
manual
manuel
many
manyano
manyathelo
manzi
manzini
map
maphandle
maphepha
maphumulo
maplandia
mapondera
maps
maqaba
maqanda
maqela
maqoma
mar
marabastad
maracana
maracanazo
marais
marathon
marburg
marcelo
march
marconi
marcos
marcus
margaret
marginal
marguerite
marhamncwa
maria
mariana
marie
marilyn
marine
marinha
marion
maritime
maritz
maritzburg
mark
market
marks
marques
marriage
married
marshal
marshall
martha
martial
martin
martins
martiropolis
marvin
marx
mary
mas
masekela
maseko
masenze
mashinini
masi
masibe
masibuyele
masikhe
masiko
masime
masingavumeli
masipala
masiqaphele
masithi
mask
masks
mason
mass
massive
master
masters
mastitis
mat
matallo
matanzima
matatiele
match
material
materials
maternal
mateyu
math
mathafa
mathanzima
mathathu
mathbb
mathbf
mathematical
mathematicians
mathematics
mathematika
mathers
mathosa
mathrm
maths
matjila
matlala
mato
matroka
matsha
matshi
matshini
matswenyeho
matt
matter
matthew
matthews
maureen
maurice
maurits
mauritsson
maverick
mawuphume
max
maxa
maxamba
maxawambi
maxeke
maxesha
maxhosa
maximum
maxwell
may
maya
mayelana
mayeza
mayibe
mayo
mayonnaise
mayor
mayurnikova
mayweather
maze
mazi
mazibe
maziko
mazwe
mazwekazi
mazwi
mb
mba
mbala
mbali
mbalwa
mbandela
mbangeli
mbasa
mbeki
mbewu
mbhali
mbhalo
mbhiyozo
mbhobho
mbingwa
mbini
mbola
mbombela
mbombo
mbona
mboniso
mbono
mbulelo
mbuli
mbulu
mbuso
mbutho
mbuzo
mc
mccarthy
mccartney
mcglaughlin
mcgraw
mcgregor
mchiza
mcimbi
mcingana
mckay
mcmahon
mculi
md
mda
mdaka
mdala
mde
mdibaniso
mdlali
mdlalo
me
mean
meaning
meanings
means
measured
measurement
measures
meat
meatus
mechanical
mechanics
medal
medals
media
medical
medicine
medieval
mediterranean
medium
meer
meet
meets
mehlo
mehr
meiosis
meir
meko
mel
mela
melana
melbourne
melhor
melika
melkbosstrand
melville
member
members
membrane
memeza
memoir
memorial
memory
men
mendeleev
mendeleyev
menezes
mentioned
menzi
mer
mercedes
merchant
mercury
mere
meredith
merika
merriam
mers
messenger
meta
metabolism
metal
metali
metalloids
metallurgical
metallurgy
metals
meteorites
method
methodist
methods
metro
metropolitan
metropolitana
mexico
meyi
mf
mfa
mfana
mfanekiso
mfazi
mfazwe
mfengu
mfo
mfondini
mfundi
mfundisi
mfundo
mfuneko
mg
mgama
mgangathweni
mgaqo
mgca
mgijima
mgqaliselo
mgqwetho
mh
mhinga
mhla
mhlaba
mhlangala
mhlawumbi
mhlongo
mhlophe
mho
mhudi
mi
miami
miba
mibhalo
mibhobho
mibini
mibuzo
mica
mice
micelles
michael
michel
michelangelo
michigan
mick
mickey
micro
microbes
microbiology
microcephaly
microscope
microscopic
microsoft
mid
middelburg
middle
midfielder
midgley
midlalo
midrand
mifanekiso
mifino
migaqo
migca
migodini
migudu
miguel
mihailovic
mihla
mike
mikhail
mikhosi
mikhuba
mikhulu
milan
milancity
mile
miles
mili
military
milk
mill
millard
miller
milliard
milligan
million
milne
milnerton
milovan
milovanovic
miltefosine
milton
mim
min
mind
mine
mineirao
mineiro
mineral
minerali
minerals
mingaphi
mini
mining
mininzi
miniserie
minister
ministry
minority
minus
minyaka
miqathango
miriam
misebenzi
misela
mises
missing
mission
missionaries
missionary
mit
mitch
mitchell
mites
mitha
mithambo
mithanjana
mithathu
mithetho
mithi
mixed
mixture
mixube
miyamoto
mizekelo
mizuzu
mj
mk
mkhenkce
mkhonzi
mkhosi
mkhuba
mkhulu
mkhwebane
mkhwetha
mkutukana
ml
mladenovi
mlambo
mlilo
mlinganiselo
mlomo
mlonyeni
mm
mmandla
mmwr
mn
mna
mnandi
mncinane
mngeni
mngxuma
mni
mnikelo
mninzi
mnombo
mntanam
mntla
mntu
mntwana
mntwanam
mnyama
mnyamana
mnye
mo
moawad
mobile
mode
model
modem
modern
module
moeti
mofolo
mogoeng
mokae
mokgonane
mokoena
mokopane
mokopu
molar
molars
molds
mole
molecular
molecule
molecules
molema
molteno
moments
momentum
momoko
mompati
mon
monaco
monakalo
monarch
monastery
monde
money
mongameli
mongo
monitors
monoxide
monroe
monte
montenegrin
montenegro
montesquieu
month
monthly
months
monument
monumi
moon
moore
moose
morava
morddeich
more
morena
morens
morgenzon
morley
mormoni
morning
morocco
morolong
morre
morris
morrison
mortality
morton
mosaic
moscou
most
mostly
mother
motherboard
motherland
motion
motivation
motlanthe
moto
motown
mount
mountain
mountains
mouse
mouth
move
moved
movement
movements
moves
movie
moya
mozart
mp
mpama
mpamba
mpandla
mparanyana
mpawu
mpela
mphahlele
mpharanyana
mphathiswa
mpho
mpi
mpikiswano
mpilo
mpondo
mps
mpuma
mpumalanga
mpumelelo
mq
mqhayi
mqolo
mqombothi
mr
mrs
ms
msebenzi
mshini
mshologu
msinya
msinyane
msitho
msuthu
mt
mtakati
mthatha
mthetho
mthethweni
mthi
mthombo
mthubi
mtintso
mtsha
mtshato
mu
much
muckleneuk
mucocutaneous
mugabe
muhammad
muir
muizenberg
multi
multibacillary
multicellular
multilingual
multiple
multiplication
multipurpose
mundial
mundo
municipal
municipalities
municipality
munshi
murray
musa
muscles
museum
museums
mushroom
music
musical
muslim
muslims
mussolini
must
mustafa
muswell
mutation
mutations
mutswairo
mutual
mv
mva
mveku
mvelaphi
mveliso
mvula
mvume
mvumi
mvusi
mvuyelwa
mw
mx
mxube
my
myalelo
myalezo
mycobacterium
myekeni
myinge
myocardium
mystery
myuziyam
mz
mzali
mzamane
mzansi
mzantsi
mzekelo
mzekweni
mzi
mzila
mzimba
mzobo
mzolisa
mzuzu
n
n0
n1
n2
n3
n4
n5
n6
n7
n8
n9
na
naabo
naanko
naba
nabadala
nabadlali
nabafazi
nabafowabo
nabafundi
nabafundisi
nabahlali
nabahlobo
nabalandeli
nabalimi
nabalingane
nabamhlophe
nabandayo
nabane
nabani
nabanina
nabaninawa
nabantakwabo
nabantsundu
nabantu
nabantwana
nabanye
nabaphathi
nabaqambi
nabasebenzi
nabathembu
nabaxhaphazi
nabayili
nabazali
nabazukulwana
nabelungu
nabemi
nabizwa
nabo
nacional
nagalel
naghavi
nail
nailatikau
nair
najlo
nakancinane
nakancinci
nakanjani
nakho
nako
naku
nakuba
nakubani
nakubantu
nakuhlala
nakuma
nakumaxesha
nakumazantsi
nakumaziko
nakumazwe
nakumbindi
nakumntla
nakumzantsi
nakuye
nakwabanye
nakwamanye
nakweminye
nakwenye
nakweyiphi
nakwezinye
nakwezo
nakwezopolitiko
nakwi
nakwii
nakwiindawo
nakwimibutho
nakwimidlalo
nakwimozulu
nakwindawo
nakwindlela
nakwinkulungwane
nakwisikolo
nakwisizukulwana
nakwixesha
nakwizifundo
nakwizinto
nakwizixhobo
nala
nalahla
nalamasetilane
nalapha
nalapho
nalawa
nalawo
nale
naleyo
naliphi
nalizwe
nalo
naloo
naloongcamango
nalowo
naluphi
nam
nama
namabali
namabhulu
namacebo
namachiza
namadoda
namafutha
namagama
namagqabi
namagqala
namagqwetha
namahashe
namajelo
namakhadi
namakhaladi
namakhaya
namakhulu
namalungelo
namalungu
namanani
namandiya
namandla
namandlambe
namanesi
namangesi
namantombazana
namanye
namanzi
namaphondo
namaphulo
namaphupha
namapirates
namaqanda
namaqela
namaqhalo
namaqhina
namaqhinga
namaqhosha
namaqondo
namasebe
namashumi
namasiko
namasilamsi
namathumbu
namatye
namava
namawa
namaxhosa
namaza
namaziko
namazinyo
namazulu
namazwe
namazwi
nambini
name
namecite
named
namehlo
names
namfundo
namhla
namhlanje
namhlophe
naming
namnye
nanamhla
nancy
nande
nanga
nangabantu
nangakumbi
nangakunxweme
nangamalungu
nangaphandle
nangaphezu
nangaphezulu
nangawona
nangayiphina
nange
nangee
nangeempawu
nangeli
nangendlela
nangenxa
nangenyaniso
nangesixhosa
nangezi
nangezinye
nango
nangobukhulu
nangojanuwari
nangoko
nangoku
nangokuhlwa
nangokuthi
nangokwengqondo
nangona
nangubani
nani
nanini
nanje
nanjengempelesi
nanjengoko
nanjengokuba
nank
nanko
nankosi
nanku
nanotubes
nanto
nantoni
nantonina
nantsi
nantso
nanye
naomi
naphantsi
naphezu
naphezulu
naphi
naphila
napier
napoleon
narrow
naruhito
naruto
nasa
nasal
nascimento
nase
naseafrika
nasebotswana
nasedolophini
nasegoli
nasejamani
nasekuhlaleni
nasekuncedeni
nasekuswelekeni
nasemakhaya
nasemanzini
nasemelika
nasemhlabeni
nasempuma
nasemva
nasemzantsi
nasemzimbeni
nasentshona
naseuganda
naseunited
nasezikolweni
nasezinambuzaneni
nasezintakeni
nasezintweni
nash
nasiphi
nasisifo
naso
nasopharyngeal
nat
natal
natala
natalia
natalie
nate
nathan
nathaniel
nathi
nation
national
nationalism
nationalist
nations
native
natural
nature
natya
naude
nav
navigation
navy
nawe
nawo
nawuphi
naxa
naye
nayiphi
nayo
nazi
naziphi
nazo
nb
nbanga
nbc
nc
ncam
nceda
nchu
ncinane
ncoko
ncov
ncryption
ncwadi
ncwane
nd
ndaba
ndabhabha
ndabuyela
ndafunda
ndash
ndaweni
ndawo
ndawoninye
ndawonye
ndaye
ndaza
ndazalelwa
ndebele
ndenyuka
ndenza
ndenze
ndibalise
ndibe
ndibephakathi
ndibonisa
ndicinga
ndide
ndidi
ndidiniwe
ndifike
ndifumana
ndifunde
ndifung
ndihamba
ndihlaba
ndikhule
ndikutyele
ndim
ndima
ndingaphozisanga
ndingathetha
ndingathi
ndingowamazwe
ndininike
ndininikile
ndinomtha
ndiqonde
ndisathe
ndisenza
ndishiya
ndisitsho
ndithe
ndithenge
ndithetha
ndithi
nditsho
ndixhego
ndiya
ndiyathemba
ndiye
ndiza
ndizinike
ndlala
ndlebe
ndlela
ndlovu
ndlu
ndoda
ndzabedvolo
ne
neafrika
near
neasia
neaustralia
neberlin
nebhatyi
nebhokhwe
nebhunga
nebizwa
nebomvu
nebonakalayo
necala
necebo
neceskei
necip
neciskei
neck
necwenge
nedic
nedolophu
nedyunivesithi
nee
neebhaluni
need
needed
needrama
needs
neefractions
neegusha
neekhilomitha
neekholeji
neelali
neelwimi
neemagazini
neematshini
neembasa
neemeko
neemfazwe
neemfene
neemfundiso
neemfuno
neemitha
neemoto
neempawu
neemvumi
neendaba
neendawo
neendlebe
neendlela
neengcali
neengcinga
neengxaki
neengxelo
neengxoxo
neenkampani
neenkasi
neenkcukacha
neenkokheli
neenkolelo
neenkolo
neenkomo
neenkonzo
neenkosi
neenkqubo
neenkunzi
neenkwenkwezi
neenqanawa
neenqwelo
neentaba
neentaka
neentatheli
neentlobo
neentlungu
neento
neentombi
neentsapho
neentsholongwane
neentshukumo
neenyawo
neenzame
neenzwane
neepesenti
neeprinciples
neeproteni
neeqhiya
neetafile
neetitshala
neetoni
neetyuwa
nefilosofa
nefort
nefowuni
nefuthe
negalelo
negama
negative
negatively
negatives
negazi
neglected
negqabi
negro
negumbi
nehectic
nehlabathi
nei
neil
neilos
nejamani
nekhaya
nekorvalisi
nekulelona
nekumkani
nekungoku
nekusesona
nekuthiwa
nekuyeyona
nekuyiyo
nekuzezona
nekwakuyinto
nekwayara
nelanga
nele
nelenza
neli
nelibalaseleyo
nelibizwa
nelinye
nelithetha
nelithi
nelixhaswa
neliya
nelizwe
nelson
nelspruit
nelungelo
nelungu
nemalariya
nemali
nemazi
nembali
nembasa
nembewu
nembonakalo
nembongi
nemeko
nemfazwe
nemfundo
nemfuneko
nemfuyo
nemiba
nemibalabala
nemibhaco
nemibongo
nemiboniso
nemibutho
nemicimbi
nemide
nemidlalo
nemifanekiso
nemifuno
nemigaqo
nemikhosi
nemilambo
nemilenze
nemimandla
nemimiselo
nemincili
neminwe
neminyaka
neminye
nemiphunga
nemipu
nemiqathango
nemisebenzi
nemithetho
nemithi
nemka
nemozulu
nempahla
nempela
nempembelelo
nempilo
nempucuko
nempuma
nempumelelo
nempumlo
nemvelaphi
nemveliso
nemvula
nenani
nenaruto
nencwadi
nendalo
nendawo
nendebe
nendlela
nendlu
nendoda
nengca
nengcinezelo
nengilandi
nengoma
nengqiqo
nengqondo
nengwevukazi
nenkampani
nenkathalo
nenkazana
nenkcazo
nenkcubeko
nenkohlakalo
nenkokheli
nenkolo
nenkomo
nenkonzo
nenkosazana
nenkosi
nenkosikazi
nenkqubela
nenkqubo
nenkululeko
nenkungu
nenkunzi
nenkwenkwe
nenkxaso
nenokubonwa
nenqanaba
nentatheli
nentetho
nentlango
nentlanzi
nentliziyo
nentloko
nentlola
nentlupheko
nento
nentokazi
nentombi
nentsebenziswano
nentsholongwane
nentshutshiso
nenxalenye
nenxaxheba
nenyama
nenye
nenzululwazi
nenzwakazi
neostreliya
neotropical
nepalamente
nephondo
neqela
neqhagamshela
nequlathe
nerhafu
nerve
nerves
nervous
nesakhono
nesanti
nesaziwa
nesebe
nesesi
nesetyenziselwa
nesetyenziswa
neshumi
nesi
nesibhulu
nesidima
nesidinga
nesidudu
nesiduko
nesifo
nesifrentshi
nesigqibo
nesigrike
nesihlanu
nesijamani
nesikhumba
nesiko
nesilivere
nesimboli
nesindebele
nesingesi
nesini
nesipedi
nesiphelo
nesiphiwo
nesiphumo
nesiphuthukezi
nesiqingatha
nesiqithi
nesisetyenziswa
nesisotho
nesisu
nesithi
nesitsonga
nesitswana
nesixeko
nesixhenxe
nesixhosa
nesizathu
nesizulu
nesizwe
neso
nesokulawula
nesona
nesouth
neswazi
neswekile
net
netflix
netheori
netherlands
nethi
nethunga
netrayethloni
netshantliziyo
network
networks
netyuwa
neum
neutral
neutron
neutrons
never
nevi
new
newcastle
news
newspaper
newspapers
newton
nexabiso
nexesha
next
neyama
neyathi
neyayifudula
neyaziwa
neye
neyesine
neyesithathu
neymar
neyona
neyoo
neyunivesithi
neyurophu
nezabakho
nezabanye
nezakha
nezakhamzimba
nezamashishini
nezamazwe
nezandi
nezandla
nezaziphuma
nezaziwayo
nezee
nezembali
nezenkcubeko
nezenzo
nezesondo
nezezilwanyana
nezi
nezibalo
nezibalulekileyo
nezibizwa
nezibongo
nezifo
nezifundo
neziganeko
nezigcawu
nezigidi
nezihlobo
neziko
nezikolo
nezikumkani
nezilwanyana
nezimbabwe
nezimdaka
nezimo
nezinambuzane
nezindlu
nezinga
nezingaphiliyo
nezinja
nezinoboya
nezinto
nezinyanya
nezinye
neziphatha
neziphila
neziphumo
neziqhamo
neziqithi
neziqondakalayo
nezisombululo
nezithethe
nezithi
nezitulo
nezityalo
nezixeko
nezixhobo
nezizalwane
nezizukulwana
nezizwe
nezo
nezobugcisa
nezolo
nezopolitiko
nezoqoqosho
nezoshishino
nf
ng
nga
ngaba
ngababhali
ngabadlali
ngabafazi
ngabafundi
ngabafundisi
ngabahlali
ngabakwa
ngabaninzi
ngabantu
ngabantwana
ngabanye
ngabasebenzi
ngabasemagunyeni
ngabasentshona
ngabashicileli
ngabathwa
ngabazali
ngabemi
ngabesuthu
ngabo
ngabom
ngabona
ngabula
ngakhona
ngako
ngakona
ngakulo
ngakumbi
ngakumda
ngakunxweme
ngakutsha
ngakwicala
ngala
ngalaa
ngalawo
ngale
ngalinye
ngalo
ngalomhla
ngaloo
ngalunye
ngama
ngamaafrika
ngamabele
ngamacandelo
ngamachaphaza
ngamachiza
ngamachule
ngamaculo
ngamadoda
ngamafutha
ngamafutshane
ngamagama
ngamagosa
ngamagqobhoka
ngamagumbi
ngamakhamandela
ngamakhoboka
ngamakhulu
ngamalahle
ngamalulwane
ngamalungelo
ngamalungu
ngamamishinari
ngamanani
ngamandla
ngamangesi
ngamanina
ngamanqaku
ngamany
ngamanye
ngamanz
ngamanzi
ngamaphakathi
ngamaphepha
ngamaphiko
ngamapolisa
ngamaqabaza
ngamaqela
ngamaqhinga
ngamaqokobhe
ngamaroma
ngamasebe
ngamashumi
ngamasiko
ngamaswili
ngamathambo
ngamatye
ngamatyeli
ngamava
ngamawaka
ngamawele
ngamaxesha
ngamaxhego
ngamaxhoba
ngamaxhosa
ngamayurophu
ngamaziko
ngamazinyo
ngamazulu
ngamazwe
ngamazwekazi
ngamazwi
ngamehlo
ngamhla
ngamini
ngamininye
ngamnye
ngamqala
ngandlela
nganeno
ngangokude
ngangona
ngankana
nganto
ngantoni
nganye
ngapha
ngaphakathi
ngaphambi
ngaphambili
ngaphandle
ngaphantsi
ngaphaya
ngaphesheya
ngaphezu
ngaphezulu
ngase
ngasebuhlanti
ngasegcuwa
ngasekhohlo
ngasekunene
ngasekupheleni
ngaselangeni
ngaselwandle
ngasemntla
ngasempuma
ngasempumalanga
ngasemva
ngasentla
ngasentshona
ngasese
ngasinye
ngaso
ngasonye
ngathi
ngaw
ngawakhe
ngawe
ngawo
ngawona
ngaxa
ngaxesha
ngaxeshanye
ngaye
ngayo
ngaze
ngazo
ngcaciso
ngcali
ngcamango
ngcembe
ngcileza
ngcingo
ngcobo
ngcono
ngcu
ngcuka
ngcukaitobi
nge
ngebala
ngebhaqo
ngecala
ngecawa
ngee
ngeegutsi
ngeekhemikhali
ngeekhilomitha
ngeekholeji
ngeekhompyutha
ngeelwimi
ngeembali
ngeembasa
ngeemeko
ngeemini
ngeempawu
ngeempulo
ngeempumlo
ngeemvaba
ngeendaba
ngeendawo
ngeendidi
ngeendlebe
ngeendlela
ngeendonga
ngeengcinga
ngeengcingo
ngeenjongo
ngeenkomo
ngeenkuni
ngeenkwenkwezi
ngeenqwelo
ngeentlanga
ngeentlobo
ngeentloko
ngeentombi
ngeenyawo
ngeevidiyo
ngefowuni
ngegalelo
ngegama
ngegqudu
ngehlabathi
ngejelo
ngekacanzibe
ngekhaya
ngekhompyutha
ngekhulu
ngela
ngelakhe
ngelaphu
ngelaxesha
ngeli
ngelikade
ngelinye
ngelishwa
ngeliso
ngelithi
ngelixa
ngelixesha
ngelizwe
ngelizwekazi
ngelizwi
ngelo
ngelokishi
ngeloxesha
ngelwimi
ngemali
ngembalelwano
ngembali
ngembasa
ngembeko
ngemela
ngemfazwe
ngemfundo
ngemibala
ngemibhalo
ngemibhobho
ngemibuzo
ngemihla
ngemilenze
ngemilomo
ngemini
ngeminwe
ngeminyaka
ngemisebenzi
ngemisonto
ngemithetho
ngemithi
ngemixube
ngemizuzu
ngemizuzwana
ngempilo
ngempucuko
ngempumelelo
ngemva
ngemvelaphi
ngemvume
ngenani
ngencwadi
ngendalo
ngendawo
ngendebe
ngendlala
ngendlela
ngendlu
ngendluzula
ngenene
ngengalo
ngengoma
ngengomtnu
ngengozi
ngengqondo
ngengubo
ngenguquko
ngeniso
ngenjongo
ngenkangeleko
ngenkani
ngenkohlakalo
ngenkolo
ngenkonzo
ngenkqubo
ngenkulu
ngenkulungwane
ngenkxaso
ngenqanawa
ngenqayi
ngenqweme
ngentaba
ngentetho
ngentla
ngentliziyo
ngentloko
ngento
ngentombi
ngentonga
ngentsasa
ngentsebenziswano
ngentsingiselo
ngenwebu
ngenxa
ngenxeni
ngenyameko
ngenyanga
ngenyawo
ngenye
ngenzululwazi
ngephini
ngephulo
ngeplastiki
ngeqhina
ngequbuliso
ngesakhono
ngesandla
ngesantya
ngesaquphe
ngesebe
ngesemiqolombeni
ngesenzo
ngesepha
ngesi
ngesibhulu
ngesibindi
ngesiciko
ngesidanga
ngesiduko
ngesifrentshi
ngesigidi
ngesihloko
ngesikhumba
ngesiko
ngesilatini
ngesilungu
ngesilwanyana
ngesimo
ngesingesi
ngesini
ngesinxibo
ngesinye
ngesiqhelo
ngesiquphe
ngesisuthu
ngesixhosa
ngesiza
ngesizathu
ngesizulu
ngeso
ngesondo
ngesono
ngesuku
ngethamsanqa
ngethemba
ngethiyori
ngethuba
ngetyala
ngeunited
ngeurethra
ngeveki
ngevidiyo
ngewonga
ngex
ngexa
ngexabiso
ngexesha
ngexhoba
ngeyekhala
ngeyenkanga
ngeyethupha
ngeyeza
ngeyokwindla
ngeyomdumba
ngeyomnga
ngeyomqungu
ngeyunivesithi
ngeyure
ngezakhono
ngezandi
ngezandla
ngezantsi
ngezendalo
ngezenzo
ngezi
ngezibalo
ngezicwangciso
ngezifo
ngezifundo
ngezigaba
ngeziganeko
ngezigidi
ngezihlandlo
ngezijekulo
ngezikhali
ngezikolo
ngezilwanyana
ngezimali
ngezimbiwa
ngezimbo
ngezimvo
ngezindlu
ngezinto
ngezinye
ngeziphumo
ngezithebe
ngezithethe
ngezithuba
ngezityalo
ngezixhobo
ngezizathu
ngezizukulwana
ngezizwe
ngezo
ngezomthetho
ngezopolitiko
ngilane
ngingqi
ngo
ngoaprili
ngoba
ngobhontsi
ngobisi
ngobizet
ngobomi
ngobu
ngobubanzi
ngobuchule
ngobude
ngobugqwirha
ngobuhlanga
ngobuhle
ngobukho
ngobukhosi
ngobukhulu
ngobume
ngobumnyama
ngobundlobongela
ngobungqina
ngobuninzi
ngobunjalo
ngobunono
ngobunzululwazi
ngobuqhophololo
ngobuso
ngobusuku
ngobutyebi
ngobuxhakaxhaka
ngocoselelo
ngodisemba
ngofebruwari
ngofilisho
ngoguquko
ngohlaselo
ngohlobo
ngojanuwari
ngojanyuwari
ngojulayi
ngojuni
ngok
ngokholo
ngokhuni
ngokhuseleko
ngoko
ngokobuhlanga
ngokobukhulu
ngokobuzwe
ngokohlobo
ngokokuba
ngokokude
ngokokulandelelana
ngokokutsho
ngokokwakhe
ngokokwazo
ngokombala
ngokomfanekiselo
ngokomgama
ngokomgangatho
ngokomgaqo
ngokomnombo
ngokomphefumlo
ngokomsebenzi
ngokomthetho
ngokomyinge
ngokomzimba
ngokongeza
ngokophando
ngokozonwabisa
ngoku
ngokuba
ngokubaluleka
ngokubamba
ngokubambisana
ngokubanzi
ngokubasa
ngokubeka
ngokubekwa
ngokubhala
ngokubhalwa
ngokubhalwe
ngokubhekisa
ngokubhekiselele
ngokubhukuqa
ngokubizwa
ngokubona
ngokubonwa
ngokubulala
ngokubuyisela
ngokucace
ngokucacileyo
ngokuchanekileyo
ngokuchasene
ngokuchaseneyo
ngokuchukumisa
ngokuchwethela
ngokuchwetheza
ngokucofa
ngokucwina
ngokudibana
ngokudibanisa
ngokufana
ngokufanayo
ngokufanelekileyo
ngokufumana
ngokufunda
ngokufutshane
ngokugqibeleleyo
ngokugqithiseleyo
ngokugqithisileyo
ngokuhamba
ngokuhambelana
ngokuhambisa
ngokuhlala
ngokuhlwa
ngokujonga
ngokuka
ngokukhawuleza
ngokukhohlela
ngokukhula
ngokukhululekileyo
ngokukhuthaza
ngokukodwa
ngokulandela
ngokulandelelana
ngokulandelelanayo
ngokulinganayo
ngokulula
ngokulwa
ngokuma
ngokumalunga
ngokumandla
ngokumangalisayo
ngokumelana
ngokuncipha
ngokunciphisa
ngokunga
ngokungabi
ngokungadinwa
ngokungafaniyo
ngokungathandabuzekiyo
ngokungathanga
ngokungathi
ngokungekho
ngokungenakulinganiswa
ngokungqalileyo
ngokungxama
ngokunika
ngokunjalo
ngokunqumla
ngokunxulumene
ngokuphandle
ngokuphangaleleyo
ngokuphatha
ngokuphathana
ngokuphathelele
ngokuphefumla
ngokupheleleyo
ngokuphelelyo
ngokuphelisa
ngokuphindaphindwe
ngokuphindwe
ngokuqala
ngokuqhelekileyo
ngokuqhubekayo
ngokuqinisekileyo
ngokuqwalasela
ngokusasazeka
ngokusebenza
ngokusebenzisa
ngokuselubala
ngokusemthethweni
ngokusesikweni
ngokusetyenziswa
ngokusisigxina
ngokusoloko
ngokusondeleleneyo
ngokusuka
ngokusungulwa
ngokuthanda
ngokuthandwa
ngokuthatha
ngokuthe
ngokuthelekiswa
ngokuthengisa
ngokuthetha
ngokuthi
ngokuthintela
ngokutsha
ngokutshiswa
ngokutsho
ngokutya
ngokutyeba
ngokuva
ngokuvakalayo
ngokuvavanywa
ngokuvela
ngokuwa
ngokuwela
ngokuxhaphaka
ngokuxhaphaza
ngokuya
ngokuyalezela
ngokuyinxenye
ngokuyokuhlala
ngokuzalana
ngokuzalwa
ngokuzama
ngokuzenzekelayo
ngokuzingela
ngokuzinikela
ngokwa
ngokwabo
ngokwahluka
ngokwahlukana
ngokwahlukeneyo
ngokwahlula
ngokwakhe
ngokwakho
ngokwakwa
ngokwale
ngokwalo
ngokwamanani
ngokwamanqanaba
ngokwamaqela
ngokwamaxesha
ngokwamazwe
ngokwanda
ngokwaneleyo
ngokwase
ngokwaseburhulumenteni
ngokwasekuhlaleni
ngokwasemphefumlweni
ngokwasemthethweni
ngokwasengqondweni
ngokwasentlalweni
ngokwaso
ngokwayo
ngokwazo
ngokwe
ngokwebala
ngokwecebo
ngokwee
ngokweendlela
ngokweengingqi
ngokweesimboli
ngokwelizwi
ngokwemali
ngokwembali
ngokwemeko
ngokwemfundo
ngokwemigaqo
ngokweminyaka
ngokwemithetho
ngokwemo
ngokwempilo
ngokwemveli
ngokwemvelo
ngokwencwadi
ngokwendalo
ngokwendlela
ngokwenene
ngokwengqiqo
ngokwengxelo
ngokwenje
ngokwenjenjalo
ngokwenkcubeko
ngokwentetho
ngokwentlalo
ngokwentsusa
ngokwenza
ngokwenzeka
ngokwenziwa
ngokwenzululwazi
ngokwerandi
ngokwesiko
ngokwesilungu
ngokwesingesi
ngokwesini
ngokwesintu
ngokwesiqhelo
ngokwesithethe
ngokwesondo
ngokwexabiso
ngokwexesha
ngokwezifundo
ngokwezizwe
ngokwindla
ngolawulo
ngoliloe
ngolo
ngolona
ngolu
ngoluhlobo
ngoluntu
ngolunye
ngolwandle
ngolwaphulo
ngolwazi
ngolwesihlanu
ngolwesithathu
ngolwimi
ngoma
ngomama
ngomaqoma
ngomatshi
ngomatshini
ngombala
ngombane
ngombhalo
ngombhobho
ngombona
ngombongo
ngombuso
ngomeyi
ngomfundisi
ngomgca
ngomhla
ngomhlaba
ngomkhenkce
ngomkhondo
ngomkhosi
ngomlenze
ngomlilo
ngomlinganiselo
ngomlo
ngomlomo
ngomntu
ngomntwana
ngomnyaka
ngomnye
ngomoya
ngomsebenzi
ngomsinga
ngomsitho
ngomso
ngomvuzo
ngomxube
ngomyaka
ngomzila
ngomzimba
ngomzuzu
ngomzuzwana
ngonaphakade
ngoncedo
ngongoma
ngononophelo
ngonovemba
ngonxibelelwano
ngonyaka
ngonyama
ngonyango
ngoo
ngoonina
ngoonobumba
ngoonobuyisa
ngoonolali
ngoonyana
ngoorhulumente
ngooyise
ngophando
ngophawu
ngophoyiyana
ngoqoqosho
ngoqweqwe
ngos
ngosasazo
ngoseptemba
ngosiba
ngosuku
ngotata
ngothando
ngothotho
ngotshazimpuzi
ngotyando
ngowama
ngowase
ngowaxa
ngowe
ngowesibini
ngowokokuba
ngowokuqala
ngowona
ngowuphi
ngoxa
ngoxhosa
ngoxolo
ngoyena
ngoyi
ngoyise
ngqalelo
ngqangi
ngqesho
ngqika
ngqo
ngqokolela
ngqondo
ngqondweni
ngqonweni
ngqwayi
ngu
ngualice
nguarchimedes
nguban
ngubani
ngubengcuka
ngubhishophu
ngucopacion
nguelijah
ngugawulayo
ngugcaleka
ngugesi
ngugqirha
nguharry
ngukobe
ngukumkani
ngulo
nguloo
ngulowo
ngumahlulo
ngumama
ngumaqoma
ngumasipala
ngumatshini
ngumba
ngumbala
ngumbhali
ngumbhalo
ngumboko
ngumbono
ngumbutho
ngumcimbi
ngumculi
ngumculo
ngumdali
ngumdibaniso
ngumdlali
ngumdlalo
ngumfanekiso
ngumfazi
ngumfo
ngumfundi
ngumfundisi
ngumgada
ngumgama
ngumgangatho
ngumgca
ngumgodeli
ngumgungundlovu
ngumgwebi
ngumhlaba
ngumhlalo
ngumhobe
ngumkhenkce
ngumkhosi
ngumkhuluwa
ngumlambo
ngumlawuli
ngumlilo
ngumlinganiselo
ngumlinganiswa
ngumlu
ngummandla
ngummeli
ngumninawa
ngumntla
ngumntu
ngumntwana
ngumondli
ngumongameli
ngumongikazi
ngumongo
ngumoya
ngumphathiswa
ngumphunga
ngumpolitiki
ngumprofethi
ngumprofeti
ngumqobo
ngumsebenzi
ngumsitho
ngumthatha
ngumthetho
ngumthi
ngumthumeli
ngumtya
ngumxhosa
ngumxube
ngumyalezo
ngumyeni
ngumzali
ngumzantsi
ngumzekelo
ngumzi
ngumzimba
ngunaphakade
ngundlunkulu
nguneil
ngunelson
ngungqika
nguni
ngunina
ngunkosikazi
ngunobangela
ngunobhala
ngunobutho
ngunobuyisa
ngunongendi
ngunongqawuse
ngunozala
ngunozinti
ngunyaka
ngunyana
ngupete
nguphondo
nguqelezana
nguqob
nguqongqothwane
ngurhulumente
ngusamuel
ngusathana
nguscott
ngusir
ngusmith
ngusopolitiki
ngusuthu
ngutata
nguthixo
ngutiyo
ngutshiwo
nguwe
nguwilliam
nguwo
nguxhosa
nguye
nguyise
ngwevu
ngxaki
ngxasha
ngxelo
ngxi
ngxoxo
ngxwaba
nh
nhat
ni
nibahle
nibe
nibiza
nicholas
nick
nickel
nickelodeon
nicknamed
nicknames
nico
nicolaas
nicolas
nicole
nicolson
nid
niels
nigel
nigeria
night
nightingale
nih
nikho
nikhw
nikola
nile
nin
nina
nine
ningab
ningayigqabi
ninguem
nini
ninja
ninjas
ninombulelo
ninzi
nis
nisuke
nithe
nitheth
nithi
nitrogen
niwazalise
niweyise
niwuzalise
nixon
niya
niyabizwa
niyakubona
niye
niyenze
nize
nizenz
nj
nja
njalo
njani
nje
njenee
njengababo
njengabantu
njengabona
njengakumanani
njengakwesi
njengakwi
njengakwiminxeba
njengaleyo
njengamanani
njengamandulo
njengamanzi
njengangaphambili
njengaxa
njengay
njengaye
njengazo
njenge
njengebhakabhaka
njengebhayibhile
njengedolophu
njengee
njengeempawu
njengeendlela
njengegama
njengekomkhulu
njengekumkani
njengelitye
njengelizwe
njengelizwekazi
njengelungu
njengemali
njengembongi
njengemeya
njengemfazwe
njengemvumi
njengenani
njengendawo
njengendlela
njengenkokheli
njengenkoliso
njengenkosi
njengenkqubo
njengentloko
njengento
njengenxalenye
njengenyama
njengenye
njengephephandaba
njengeqela
njengesenzo
njengesifo
njengesikhumbuzo
njengesingesi
njengesiqalo
njengesiqhelo
njengesithunywa
njengesixeko
njengesixhobo
njengeyona
njengezifo
njengeziko
njengezilwanyana
njengezinto
njengezinye
njengezixhobo
njengo
njengoba
njengogqirha
njengohlobo
njengoko
njengokuba
njengokumkani
njengokungaqatshelwa
njengolona
njengolwandle
njengolwimi
njengombhali
njengomcebisi
njengomdlali
njengomfazi
njengomfundi
njengomfundisi
njengomhleli
njengomhlohli
njengomkhuseli
njengomlawuli
njengommeli
njengomntu
njengomnye
njengomongameli
njengomongikazi
njengomphenyi
njengomsebenzi
njengomthombo
njengomzekelo
njengomzila
njengomzobi
njengonobhala
njengonobulungisa
njengonyana
njengorhulumente
njengosihlalo
njengotitshala
njengoyena
njengoyise
njeya
njing
njl
njongo
nk
nkalo
nkam
nkampani
nkandla
nkazana
nkcaza
nkcazo
nkcubeko
nkokheli
nkolo
nkomfa
nkomo
nkonzo
nkosazana
nkosi
nkosikazi
nkqi
nkqo
nkqu
nkqubela
nkqubo
nkquleqhu
nkulu
nkululeko
nkulungwane
nkundla
nkunzi
nkwenkwe
nkwenkwezi
nkxaso
nl
nlm
nls
nm
nmu
nn
nntv
no
noadriana
noah
noalice
noam
noba
nobangela
nobawo
nobel
nobelprize
nobhala
nobhontsi
nobill
nobizwa
noble
nobomi
nobubi
nobuchwepheshe
nobudala
nobude
nobudlelwane
nobukho
nobukhosi
nobukhulu
nobukomanisi
nobukristu
nobulumko
nobulungisa
nobumba
nobume
nobumnyama
nobuncinane
nobundlobongela
nobungakanani
nobungqina
nobuntatheli
nobuntu
nobunzima
nobushushu
nobuso
nobusuku
nobuyisa
nocalu
nocalucalulo
nochwepheshe
nodade
nodavid
node
nodukwana
noel
nogaba
nogqaza
nogutyulo
nohlanga
nohlaza
nohlaziyo
nohlobo
nojan
nojohn
nok
nokama
nokhanyo
nokhuni
nokhuseleko
noko
nokobe
nokohluka
nokojiwa
nokokuba
nokomelela
nokoyika
noku
nokuba
nokubamba
nokubetha
nokubhala
nokubheka
nokubona
nokubonakalisa
nokucaphuka
nokuchaneka
nokucinezelwa
nokudibanisa
nokudlwengula
nokudumba
nokufa
nokufika
nokufumanisa
nokufunda
nokufundisa
nokufundiswa
nokugcina
nokugqiba
nokugweba
nokuhamba
nokuhlala
nokuhlanganisa
nokuhlanjwa
nokuhlaselwa
nokujonga
nokujongwa
nokukhanya
nokukhula
nokukhulisa
nokukhuliswa
nokukhusela
nokulahlekelwa
nokulawula
nokulungiselela
nokulwa
nokunciphisa
nokuncitshiswa
nokungabikho
nokungalingani
nokungalungi
nokungcola
nokungena
nokungenisa
nokunika
nokunqanda
nokunxitywa
nokunxulumana
nokunyuka
nokupapasha
nokuphathwa
nokuphazamiseka
nokuphefumla
nokuphendula
nokuphila
nokuphonononga
nokuphucula
nokuphuhlisa
nokuphuma
nokuqhama
nokuqondana
nokusasazeka
nokusebenza
nokusebenzisa
nokusekwa
nokusetyenziswa
nokusingqongileyo
nokususa
nokuswela
nokutela
nokuthetha
nokuthintela
nokutshabalalisa
nokutshatyalaliswa
nokutya
nokuva
nokuvula
nokuya
nokuzala
nokuzalwa
nokuzimisela
nokuzingela
nokuzinza
nokuzola
nokwahlula
nokwakha
nokwamkelwa
nokwanda
nokwandiswa
nokwangumhlolokazi
nokwazi
nokwe
nokwenza
nokwenzeka
nokwenzekayo
nokwenziwa
nolawulo
nolilian
nolu
nolumanyano
nolunempembelelo
noluntu
nolunye
nolutsha
noluya
nolwandle
nolwaphulo
nolwase
nolwathi
nolwazi
nolwimi
nom
noma
nomama
nomanyano
nomary
nomasipala
nomathamsanqa
nombane
nombhali
nombolo
nombona
nomboniso
nombono
nombulelo
nombus
nombuso
nombutho
nomcelimngeni
nomcephe
nomcinga
nomculo
nomdange
nomdla
nomdlalo
nomenclature
nomfazi
nomfundi
nomfundisi
nomgama
nomgangatho
nomgaqo
nomgca
nomgijimi
nomgubo
nomhla
nomhlaba
nomhleli
nomhlobo
nomichael
nomkakhe
nomkhosi
nomkhuhlane
nomkristu
nomlambo
nomlinganiselo
nomlobi
nommandla
nomnatha
nomncedisi
nomnqweno
nomntakwabo
nomntla
nomntu
nomntwana
nomnu
nomnumzana
nomnye
nomongameli
nomongikazi
nomoya
nomphathi
nomphezulu
nomqambi
nomququzeleli
nomsebenzi
nomsila
nomsonto
nomthetho
nomthombo
nomtsalane
nomtshato
nomvangeli
nomxhasi
nomyalelo
nomyalezo
nomyeni
nomyinge
nomzabalazo
nomzali
nomzamo
nomzantsi
nomzi
nomzila
nomzimba
non
nonamba
noncwadi
nondlambe
nonelson
noneo
nongqika
noni
nonina
noninzi
nonkala
nonke
nonkosi
nonkululeko
nonmetal
nonmetals
nonobangela
nontando
nontetha
nontsikelelo
nonxibelelwano
nonxulumano
nonxweme
nonyaka
nonyana
nonyengana
nonzwakazi
noo
noochwephesha
noodade
noodadewabo
noogxa
noomama
noonobumba
noonobuyisa
noorhulumente
noosibonda
nopamina
nophando
nophawu
nophondo
nophuhliso
nopolitiko
noqoqosho
nor
nord
norharhabe
norhulumente
norhwebo
normal
norman
norobert
north
northern
norton
noruth
nosakura
nosaphire
nosapho
nosasuke
nose
noshir
nosoloko
nosuleleko
not
notamino
notata
notation
note
notes
nothando
nothe
nothente
nothing
nothintelo
nothixo
nothomas
nothotho
nothumela
nothungelwano
noticia
noticias
notloko
notom
notywala
noun
nouns
nov
nova
novak
novel
novela
novemba
november
novukelo
now
nowally
nowalter
nowaqala
nowathi
nowaye
nowayefudula
nowayesakuba
nowayetshatele
nowazalelwa
nowaziwa
nowe
nowesakhiwo
nowezopoliyiko
noxa
noxolelwaniso
noxolo
noyi
noyise
nozindziswa
nozinzo
nozwane
np
npr
nq
nqa
nqaba
nqadalala
nqaku
nqolo
nqwa
nqwaba
nqwelo
nr
ns
nt
ntaba
ntabethemba
ntaka
ntambo
ntanga
ntantala
ntatala
ntathu
ntetha
ntetho
ntlalo
ntlama
ntlambo
ntlanga
ntlanganiso
ntlango
ntle
ntliziyo
ntlobo
ntloko
ntloni
nto
ntokazi
ntolongo
ntombi
ntoni
ntonina
ntonje
ntonye
ntsapho
ntsebenzo
ntsebeza
ntselamanzi
ntsholongwane
ntshona
ntshontsho
ntshukumo
ntsikana
ntsikelelo
ntsingiselo
ntsomi
ntsuku
ntuli
ntwana
ntweni
ntyatyambo
nu
nuclear
nuclei
nucleic
nucleus
nuit
number
numbers
numerals
numerator
numerical
nupedia
nurizade
nursery
nusas
nussbaum
nutrient
nutrition
nv
nw
nwebu
nwodua
nx
nxa
nxamnye
nxaxheba
nxiba
ny
nyaka
nyakasikana
nyama
nyamakazi
nyamende
nyana
nyanga
nyango
nyaniso
nyawuza
nye
nyengana
nylon
nyoka
nz
nzala
nzame
nzima
nzulu
nzululwazi
nzuzo
nzwakazi
nzwan
o
o0
o1
o2
o3
o4
o5
o6
o7
o8
o9
oa
oates
ob
obakhe
obalaseleyo
obaluleke
obalulekileyo
obambe
obangelwa
obathi
obekwe
obelus
obentlombe
oberlin
obesibini
obesithathu
obhalwe
obhinqileyo
obito
obituary
obizwa
object
objects
obo
obomi
obomvu
obona
obonakalayo
obonakalisa
obonisa
observatory
observed
obstruction
obtained
obu
obubizwa
obudala
obude
obufanelw
obufumaneka
obugqibeleleyo
obuhle
obuhlungu
obukhoyo
obukhulu
obulele
obumnyama
obungama
obungunaphakade
obuninzi
obunjalo
obunye
obuphezulu
obuqokolelweyo
obushushu
obusoloko
obuthile
obutsha
obuvela
obuyi
obuzimeleyo
oc
occupied
occurs
ocean
oceania
oceanography
ochanekileyo
ochman
ochre
ochumileyo
oclc
ococekileyo
oct
october
octubre
od
oda
odale
odd
odibanisa
odlala
odlalwa
odolo
odumileyo
odwa
oe
of
ofana
ofanayo
ofanelekileyo
ofayo
ofc
off
office
officer
official
officially
offspring
ofisi
often
ofuna
ofundele
og
ogama
ogonyo
ogqiba
ogqwesileyo
ogulayo
oh
ohamba
ohanjwe
ohio
ohlala
ohlanga
ohlange
ohlawulwayo
ohleli
ohloniphekileyo
ohlukana
ohlulwe
oi
oid
oil
oisixhobo
oj
ojikeleze
ojiswe
ojongene
ok
okad
okaner
okanye
okatutu
okaviljoen
okhethekileyo
okholo
okhoyo
okhuseleko
okhuselo
okhuthazayo
oko
okoko
okokoko
okokuba
okokugqibela
okokuqala
okokutsho
okomileyo
okona
okoxande
okruqukileyo
oksijin
oksijini
okthobha
oktobha
oku
okuba
okubala
okubalaseleyo
okubangelwa
okubhaliweyo
okubhalwe
okubizwa
okubonakalayo
okubulala
okuchwetheza
okufakwe
okufumana
okufundela
okufunwa
okugonya
okugqibela
okuhle
okukhulu
okulala
okulandela
okulandelayo
okulawula
okumalunga
okumandla
okumgangatho
okumphakamo
okunamandla
okunene
okungagunyaziswanga
okungaphezulu
okungazenzisiyo
okungena
okungummangaliso
okuninzi
okunokwenzeka
okunyanga
okunye
okuphefumla
okuqala
okuqhelekileyo
okuqulethwe
okusela
okusempilweni
okusingqungileyo
okusuka
okusula
okuthe
okuthenga
okuthethwa
okuthi
okuthile
okutya
okutyhala
okutyiwa
okuvela
okuvota
okuya
okwabizwa
okwakho
okwakhokelela
okwangoku
okwazi
okwaziwa
okwaziwayo
okwaziyo
okwe
okwengca
okwenjenje
okwenza
okwenzeka
okwenzekileyo
okwenziwa
okwenziwe
okwesibhakabhaka
okwesibini
okwesihlanu
okwesine
okwesithathu
okwethutyana
okwexeshana
okwiikona
ol
olandelayo
olawulayo
olawulo
olawulwa
old
oli
olidlaka
olifantshoek
olimpiki
oliveira
oliver
olo
olona
olongezelelweyo
olonwabo
olson
olu
olubalulekileyo
olubalwa
olubandakanya
olubangela
olubangelwe
olubanzi
olubizwa
olubonakala
olubonakalisa
olubonisa
olubulalayo
olubuthathaka
oluchasene
oluchaseneyo
oluchuliweyo
olucwangcisiweyo
oludala
olude
oludingekayo
oludumileyo
olufana
olufanelekileyo
olufele
olufumaneka
olugxile
oluhlala
oluhlanganisiweyo
oluhlaza
oluhlobo
olukhawulezileyo
olukhethekileyo
olukhoyo
olukhulu
olukhuselekileyo
olula
olulandelayo
olulodwa
olulolwakhe
olulula
olululo
olulungileyo
oluluqilima
olumandla
olumele
olumelwe
olumhlophe
olumnyama
oluncedisayo
oluncinci
oluneempawu
olunendyebo
olungahambeli
olungama
olungaphaya
olungaqhelekanga
olunge
olungekaphuhli
olungekho
olungu
olungumgubo
olungummangaliso
olungxamisekileyo
oluninzi
olunje
olunokusetyenziswa
oluntsundu
oluntu
olunxulumene
olunye
olunzima
olunzulu
oluphakathi
oluphangaleleyo
oluphezulu
oluphondo
oluphononolongiweyo
oluqhelekileyo
oluquka
oluse
olusekwe
olusemantla
olusemazantsi
olusemthethweni
olusenokuba
olusetyenziswa
olusisigxina
olusuka
oluswe
oluthe
oluthethwa
oluthethwayo
oluthi
oluthile
olutsha
olutyheli
oluvavanyo
oluvela
oluxhaphakileyo
oluya
oluye
oluyi
oluyimfihlo
oluyimpumelelo
oluyintsusa
oluzinzileyo
olwa
olwabo
olwahlukileyo
olwalusenziwa
olwaluzakubanjwa
olwandle
olwathi
olwaziwa
olwela
olwenza
olwenzeka
olwenziwa
olwenziwe
olympics
om
omabini
omabonakude
omalley
omalunga
omama
omane
omar
ombane
ombini
ombutho
omculo
omdaka
omdala
omdalana
omde
omega
omelana
omele
omelwe
omenzi
omfutshane
omfuziselo
omhlaba
omhle
omhlophe
omi
omkhosi
omkhulu
omlomo
omnandi
omncinane
omncinci
omninzi
omnivore
omnivores
omntu
omnyama
omnye
omoya
omthi
omtsha
omzabalazo
omzantsi
omzi
omzimba
on
onamandla
onamava
onaso
onayo
once
onceda
onchocerciasis
oncwadi
one
onee
oneminyaka
onempilo
onepage
onerekhodi
ones
onesi
onesifo
ongangama
ongaphezu
ongasentla
ongathandani
ongayamkela
ongaziwayo
ongcolileyo
ongcwele
ongekho
ongobomi
ongqalileyo
ongu
ongumafrika
ongumama
ongummangaliso
ongumngesi
ongumphushu
ongunyana
onjalo
onje
onjongo
onk
onke
online
only
onobutyebi
onomgca
onomjikelo
onqumla
ons
onse
ontetho
ontsundu
onwabile
onxibe
onyaka
onyango
onye
onyikinyiki
onyulwe
onzima
onzulu
oo
oobhazabhaza
oogenesis
oogqirha
oogxa
ookanye
ookhokho
oololiwe
oom
oomadiba
oomahlamba
oomama
oomasipala
oomatshini
oominenga
oonina
oonobumba
oonobuyisa
oononkala
oonyana
ooqongqothwane
oorhulumente
oosokhemistri
ootata
ootitshala
ooyise
op
open
opened
opening
opens
opera
operating
operation
ophakamileyo
ophakathi
ophambili
ophando
ophantsi
ophethe
ophezulu
ophilayo
ophilileyo
ophuhliswe
ophum
ophuma
ophume
ophumelele
ophumeleleyo
opinion
opland
opopayi
opposite
opposition
opt
oq
oqanda
oqhelekileyo
oqhuba
oqhubela
oqingqiweyo
oqinileyo
oquka
or
oral
orange
orbit
orbitals
orbits
ordained
order
ordered
orders
ordinal
ore
oregon
oregoni
oregonians
orenstein
org
organ
organelles
organic
organisation
organisations
organism
organisms
organization
organs
origin
original
originally
origins
orlando
orochimaru
oromo
orphanage
ors
orson
orthodox
orthography
os
osanxiba
osapho
osasazo
osasco
oscar
osebenza
osebenzisa
osele
osemantla
osemhlabeni
osempuma
osesikweni
osetyenziswa
osezantsi
osezulwini
osiliweyo
osisigxina
osisiseko
osithoba
osman
ossetia
ostreliya
osuka
osukuba
osulelekileyo
oswald
ot
othanda
othando
othandwa
othatha
othe
other
others
othetha
othi
othile
otshatileyo
otto
ottoman
otywala
ou
ouphando
our
ouro
out
outagamie
outbreak
outbreaks
outcome
outer
output
outputs
outside
outstanding
ov
ova
ovela
over
overseas
ovule
ovum
ovuthuzayo
ow
owa
owaba
owabambelela
owabangelwa
owabangumama
owabhalwa
owabo
owabulawa
owafika
owafumana
owafumanisa
owahlukileyo
owahlulwe
owakhe
owakhiwe
owamkela
owamlungiselela
owaphika
owaqala
owaqalwa
owasembonjeni
owasweleka
owathatha
owathi
owavula
owawubizwa
owawuchasene
owawusaziwa
owaya
owayechasene
owayehlala
owayekho
owayekhokela
owayekuqonda
owayelilungu
owayemi
owayeneminyaka
owayengu
owayengumfundisi
owayephethe
owayesakuba
owayesasaza
owayesebenza
owayesele
owayetshatele
owayeziphakamisile
owayongamele
owazalelwa
owazalwa
owaziwa
owaziwayo
owaziyo
owe
owen
owenu
owenza
owenzekayo
owenzelwa
owenziwa
owenziwe
oweshumi
owesibini
owesithathu
oweyesakuba
own
owogqunywe
owokuqala
owomileyo
owona
owosulelayo
owosulelekileyo
ox
oxford
oxhaphakileyo
oxidation
oxide
oxides
oxwesileyo
oxygen
oy
oya
oyaziyo
oye
oyena
oyi
oyile
oyimbongi
oyimfihlo
oyindoda
oyingcwele
oyinkwenkwe
oyintloko
oyintombazana
oyiswe
oz
oza
ozakuphindwaphindwa
ozakuzo
ozalana
ozalwa
ozayo
ozele
ozibhokhwe
ozimeleyo
ozinikeleyo
ozone
ozuko
p
p0
p1
p2
p3
p4
p5
p6
p7
p8
p9
pa
pablo
pac
pacaembu
pacaltsdorp
pacific
pacino
pacioli
packaging
pad
pads
page
pages
pahoa
pain
paint
painted
painter
painting
paints
pair
pais
paki
pakistan
palamente
palate
palestinian
palm
palmeiras
palmer
pam
pamela
pan
panafricanarchives
pancreas
pandemic
pandemics
pap
papasha
paper
papua
papyrus
para
paradise
paragraph
paraguay
paraguayans
parameter
parameters
parana
paranaense
parasites
parc
parents
paris
park
parker
parkes
parliament
parliaments
paromomycin
parsons
part
particle
particles
partisans
parts
party
pass
passage
passed
passing
passion
password
passwords
past
pasteur
pata
patent
paterculus
paterson
pathogens
pathology
paton
patricia
patrick
patrol
pattern
patterns
paucibacillary
paul
paula
pauling
paulista
paulo
pavle
paw
pay
payment
pays
pb
pc
pcr
pcs
pd
pdf
pe
peace
pearce
pearl
peasant
pease
pecanac
peddlers
pediatric
pediatrics
pedro
pela
pele
pella
pelotas
penalty
peninsula
penis
penn
penny
pentacampeao
pentz
people
peoples
pepper
per
perceived
percentage
percy
perdekop
performance
pericardium
perimeter
period
periodic
peripheral
perle
permaculture
permanent
perry
persepolis
person
personagens
personal
personality
perspective
perspectives
peru
pet
petals
pete
peter
petersburg
petersen
petroleum
petros
petrus
pf
pg
ph
pha
phakade
phakamisa
phakathi
phalange
phambi
phambili
phandle
phando
phansi
phantse
phantsi
pharmacotherapy
pharyngeal
phase
phases
phatho
phawu
phaya
phendula
phenomena
phenomenon
phepha
phesha
phesheya
phezu
phezulu
phi
phil
philadelphia
philip
philipp
philippe
philippines
phillips
philosopher
philosophical
philosophy
phina
phinda
phinde
phindo
phindwa
phindwe
phiri
phithi
phlegm
phoenician
phoenix
phofu
phondo
phone
phosphate
phosphates
phosphide
phosphides
phosphine
phosphite
phosphites
phosphoric
phosphorous
phosphorus
photoautotrophs
photons
photos
photosynthesis
php
phrasebook
phulo
phungula
phuthuma
phyllis
physica
physical
physicians
physicists
physics
physiology
phytoplankton
pi
piano
picknpay
pictures
pid
pierre
pieruccetti
piet
pieter
pietermaritzburg
pilgrim
pilisi
pine
pink
pinker
pipes
pipistrelle
pipistrelles
pipistrellus
pitch
pitika
pitje
pitkin
pitoli
pitseng
pitt
pityana
pius
pizza
pj
pk
pl
plaatje
plaatjie
place
places
plain
plane
planet
planethi
planets
plans
plant
plantae
plantao
plants
plaque
plascon
plasma
plaster
plastic
plastics
plastiki
plate
plateau
platelets
platinum
play
played
player
playing
playoffs
please
plint
pliny
plomer
plos
plus
plutonium
pm
pmc
pmid
pn
png
po
poe
poems
poet
poetry
point
points
poland
pole
poles
police
policy
political
politician
politics
pollen
pollock
pollution
polokwane
polonium
polyethylene
polymer
polymerase
polymers
polypropylene
ponte
pooch
pop
pope
popis
popper
popular
popularly
population
populations
poqo
pork
port
portailtemplate
portal
portland
portrait
ports
portugal
portugues
portuguesa
portuguese
position
positioning
positive
positively
positron
post
posthumous
pot
potassium
potchefstroom
potential
pottinger
poverty
povo
powell
power
powerful
powers
pox
pp
pq
pr
practical
practice
practices
praziquantel
pre
precipitation
predation
predator
predominantly
preference
pregnancy
premchand
premier
premolar
premolars
prentice
preparation
preparedness
prepositions
presbyterian
presence
present
presentation
president
presley
press
pressure
preta
pretoria
pretorius
pretty
prevalent
prevention
preview
price
priestley
primary
prime
primera
primigenius
prince
princess
princeton
principal
principle
principles
printers
printing
prints
prior
priscilla
prison
prisoner
private
prix
prize
pro
problem
problems
proceedings
process
processed
processes
processing
processor
proclus
produce
produced
producing
production
productions
prof
professional
professionals
professor
profile
program
programa
programmable
programme
programmed
programmer
programmers
programmes
programming
programs
progress
project
projects
prokaryotes
prokaryotic
prominent
promote
pronunciation
prop
proper
properties
property
prophet
prophetess
proportions
propulsion
prose
prospects
protected
protection
protector
protein
proteins
proteni
protista
protists
proto
protocol
proton
protons
prova
proved
provide
provided
provides
province
provisions
prussia
ps
pseudonym
psychology
pt
ptolemy
pu
pub
public
publication
publications
published
publishers
publishing
pubmed
pullum
pulmonary
pulmonic
pulses
punch
puppet
purcell
pure
purkinje
purposes
pushkin
put
putin
pv
pw
px
pxtemplate
py
pyrimethamine
pz
q
q0
q1
q2
q3
q4
q5
q6
q7
q8
q9
qa
qala
qamata
qaphela
qatar
qatha
qb
qc
qd
qe
qedlana
qela
qelele
qeqesho
qf
qg
qh
qha
qhalo
qhamani
qhinga
qhiwu
qho
qi
qikelelo
qj
qk
ql
qm
qn
qo
qp
qq
qr
qrs
qs
qsrc
qt
qu
quadratic
quadrillion
qualification
qualifications
quality
quantum
quare
quark
quarks
quarter
quartz
que
queen
queenstown
queiroz
query
question
quilt
quite
qulelwa
quotient
quotients
qv
qw
qwaba
qwerty
qx
qy
qz
r
r0
r1
r2
r3
r4
r5
r6
r7
r8
r9
ra
rabbi
rabies
race
racey
raceyi
rachel
racontas
radebe
radiates
radiation
radic
radical
radio
radioactive
radios
radiyo
rae
rafael
ragunanan
raiding
rail
railway
railways
rain
rainfall
rainforest
raise
raising
ralph
ralston
ram
ramaphosa
ran
ranchod
rand
randall
randburg
randfontein
random
range
ranger
ranina
ranked
ranking
rankings
rap
rapid
rare
rather
ratiinal
ratio
rational
ratrimomanarivo
ratu
raul
ravan
raven
ravi
raw
rawls
ray
raymond
rays
rb
rc
rd
re
reach
reached
reaches
react
reaction
reactions
reactive
read
ready
reagan
real
really
reason
reasoning
reasons
rebecca
rebellion
rebels
rebuilding
rec
received
recipe
reckless
recognised
recommended
reconciliation
reconstruction
recopa
record
recorde
recording
recordings
records
recordtv
recruiting
rectangle
rectangles
red
reddish
rede
redirect
reduced
reducing
rees
ref
refer
reference
references
referred
refimprove
reform
reformed
refs
refugees
reg
regarded
reggae
regime
reginald
region
regional
regions
regular
regularities
regulation
regulations
reichstag
reine
reinet
relapse
related
relations
relationship
relative
relativity
release
released
releases
relegated
relembre
relief
rely
remain
remainder
remains
renaissance
renamed
renato
rene
repeating
replacement
report
reporting
reports
represented
reproduction
reproductive
reptile
reptiles
republic
republican
republika
reputation
required
requires
rero
research
reserve
resilience
resistance
resistant
resource
resources
respect
respectively
respiration
respirator
respirators
respiratory
response
responsibility
responsible
restaurant
restaurants
restricted
result
results
retief
retrieved
returned
reuters
rev
reve
revealed
revelacao
reves
review
revised
revision
revisited
revival
revolution
rex
reyi
rf
rg
rh
rharhabe
rhawutini
rhodes
rhodesia
rholihlahla
rhoqo
rhubusana
rhulumente
rhythm
ri
rice
rich
richard
richards
richmond
rick
ridge
ridges
riebeeck
riebeek
rietfontein
rifampicin
right
rights
rind
ring
rings
rio
rise
rises
risk
ritchie
rival
rivaldo
rivalry
river
rivers
rivonia
rj
rk
rl
rm
rn
rna
ro
road
rob
robben
robbins
robert
roberto
roberts
robin
robinson
robles
robust
rocha
rock
rocket
rocks
rodents
roger
rogers
rokomari
role
roll
roma
romain
roman
romance
romania
romario
rome
ron
ronald
ronaldinho
ronaldo
ronga
roodepoort
roofs
roosevelt
roossenekal
root
roots
rosa
rose
rosen
rosenberg
ross
rossetti
rostrum
rot
rotated
rotation
roth
rotterdam
round
rousseau
routledge
roux
rouxinol
rowland
roy
royal
rp
rq
rr
rrt
rs
rsa
rsssf
rt
ru
rubbing
rubin
rubusana
rufus
rugatabi
ruidiaz
ruined
rule
ruled
rules
rumbold
runners
running
runs
rus
rush
rushes
russel
russell
russia
russian
rustenburg
ruth
rutherford
rv
rw
rwanda
rx
ry
ryan
ryle
ryu
rz
s
s0
s1
s2
s3
s4
s5
s6
s7
s8
s9
sa
saa
saabaya
saale
saangcwatywa
saba
sabafazi
sabafundisi
sabana
sabantu
sabantwana
sabata
sabathembu
sabc
sabelani
sabie
sabizwa
sabo
sabotage
sabukhali
sac
sachs
sacked
sacrifice
sada
sadc
sade
sadf
safana
safe
safety
safire
safumana
sahara
saharan
sahistory
sahlukile
said
saint
sakha
sakhe
sakhiwa
sakhiwo
sakho
sakhono
sakowabo
sakudala
sakufa
sakusasa
sakwantu
sakwazi
salernitana
sales
sally
salo
saloo
salt
salts
salvador
sam
sama
samabanga
samajingqi
samalungu
samanani
samandulo
samanina
samanzi
samarharhabe
samaroma
samaxhosa
samazulu
samdl
same
sami
samoa
samowa
sample
samuel
san
sana
sanamhlanje
sanchez
sandflies
sandile
sandra
sandrock
sandton
sandwich
sandzak
sangaphambili
sanger
sango
sangoma
sanikezelwa
sanikwa
sanitation
sannc
santa
santiago
santo
santos
sao
saopstenje
sapho
sapire
saqala
saqwalasela
sara
sarah
sarb
sars
sase
saseafrika
sasebhayi
sasebrazil
sasebritane
sasecampinas
sasecolumbia
sasegoli
saseiberia
sasejapan
sasekapa
sasemelika
sasemerika
sasemishini
sasemntla
sasemonti
sasemthatha
sasemzantsi
sasenew
sasentshona
saseparis
sasepitoli
sasesao
saseserbia
sasesoweto
sasibizwa
sasidla
sasincinane
sasisaya
saso
sasuke
sat
satellite
satellitecitymaps
satellites
sathi
sathiywa
satshiswa
satsho
satyagraha
sauce
saul
saunders
sauvage
saw
sawo
saxon
say
saya
sayithi
sayo
says
saza
sazi
saziswa
saziwa
sazo
sb
sbl
sbt
sc
scale
scattering
scavengers
scent
scheme
schistosomiasis
schlafly
schlee
schneider
school
schools
schopenhauer
schuster
schwartz
schwarze
science
sciences
scientific
scientist
scientists
scob
scolari
score
scored
scorer
scorers
scores
scotland
scott
screen
script
scrolla
sculptor
sculpture
sd
sdg
se
sea
seal
sean
search
searle
seba
sebandla
sebastian
sebe
sebede
sebenzisa
sebesesimeni
sebokeng
secawa
sechaba
sechuana
second
secondary
secoronavirus
secretary
section
sections
sector
secunda
securing
security
see
seed
seeds
seelwimi
seemishinari
seen
seenkosi
seenqanawa
seenqwelo
seentyatyambo
segal
segama
segazi
segolide
segundo
sehlabathi
sehlo
sehobe
sekapa
sekondari
sekusithiwa
sekutshiwo
sel
sele
selecao
selected
selection
selena
self
selizwe
selope
sem
semali
seme
semfe
semfundo
semi
semiconductors
semifinals
seminyaka
semiqhayi
semishini
semngciphekweni
sempilo
semthethweni
senani
senator
sendawo
senditshilo
sendoda
senegal
senekal
senga
sengqondo
senior
senjenje
senkcenkce
senkukhu
senkulungwane
senkundla
sense
senses
sent
sentambo
sentetho
sentlalo
sentliziyo
sentloko
sento
sentsholongwane
senyanga
senyongo
senza
senze
senzeka
senziwa
senziwe
senzo
senzolo
seo
seoul
sep
sephepha
sephondo
septemba
september
seqela
sequence
ser
serb
serbian
serbo
serbs
sercha
sergeant
sergio
serie
series
serological
serote
serum
served
server
service
services
sesangexesha
seshumi
sesi
sesibindi
sesibini
sesifo
sesihlanu
sesikweni
sesinye
sesiphumo
sesisehlo
sesithathu
sesityalo
sesizwe
sesona
sesotho
set
seth
sethu
setjhaba
setropiki
sets
setswana
settings
settlement
settlers
setyenziswa
seu
seuls
seven
several
severe
sewikimedia
sewonga
sex
sexesha
sexual
seymour
seyunivesithi
sezi
sezigidi
sezilwanyana
sezinto
sezixeko
sezizathu
sezolimo
sezona
sezopolitiko
sezulu
sf
sfiso
sfn
sfntemplate
sg
sh
shack
shackleton
shadow
shady
shaft
shaka
shake
shakespeare
shakti
shamsul
shankar
share
sharp
sharper
sharpeville
sharpville
shaw
she
sheepmoor
sheet
sheffield
shelley
shells
shepstone
sheridan
sherman
shibuya
shield
shinobi
shippuden
ships
shirley
shirts
shoe
shoes
shona
shoot
shootout
short
shorts
shot
should
show
shows
shrubs
shtml
shumi
si
siba
sibafundise
sibala
sibalaseleyo
sibaluleke
sibambe
sibandakanya
sibande
sibangelwa
sibanzi
sibe
sibekwa
sibhala
sibhale
sibhalwa
sibhalwe
sibhekisa
sibini
sibizo
sibizwa
sibona
sibone
sibonisa
sibonwa
sibulala
sibuye
sicaka
sichasene
siciko
sidalwa
sidanga
side
sides
sidla
sidlala
sidlo
sidney
sidudu
siduko
siegel
sierra
sifana
sifika
sifo
sifumana
sifumane
sifumaneka
sifuna
sifundisa
sifundo
sifunyanwa
sigaba
sigabh
sigagana
sigama
siganeko
sigcine
sign
signal
signals
signed
significant
signs
sigoduke
sigqibo
sihamba
sihlala
sihlalo
sihleli
sihloko
sijike
sijonga
sijonge
sika
sikajordan
sikali
sikaloliwe
sikamongameli
sikangqika
sikarhulumente
sikawonke
sikelel
sikelela
sikhangela
sikhangele
sikhankanye
sikhe
sikho
sikhokelo
sikhulu
sikhumbeni
sikhundla
sikhuphe
siko
sikolo
sikrakra
sikuyo
sikwabizwa
sikwasetyenziswa
sikwazi
silawule
silibona
silibonile
silicates
silicon
silivere
siluhlaza
silulwimi
siluma
silva
silveira
silver
silvester
silwanyana
simahla
simanga
simboli
sime
simele
simi
similar
simile
simmons
simon
simone
simphinda
simple
simpson
sims
sinako
sinamagama
sinatra
since
sincelejo
sincinane
sinclair
sincoko
sine
sinee
sinenjongo
singabi
singana
singasebenzisa
singathi
singatsho
singaxilongwa
singe
singer
singesi
singh
single
singles
singu
singuvimba
sini
sinikezelo
sino
sinoluntu
sinqabile
sinqol
sintu
sinyangwa
sinye
siouxsie
siphela
siphila
siphile
siphinde
siphumo
siprage
siqala
siqale
siqaphela
siqhele
siqhubeke
siqhutywe
siqiniseke
siqithi
siquka
siqwalasela
sir
sisakhiwo
sisantya
sisasazeka
sisasazeke
sisasetyenziswa
sisebenza
sisebenzisa
sisebenzise
siseko
sisele
sisenokuba
sisenzo
sisetyenziselwa
sisetyenziswa
sisi
sisibindi
sisidlo
sisifo
sisifundiswa
sisifundo
sisigculelo
sisigidi
sisigxina
sisihlalo
sisihlunu
sisike
sisikhumba
sisikolo
sisilo
sisilwanyana
sisimbiwa
sisincoko
sisingesi
sisinike
sisiphumo
sisiqalo
sisiqingatha
sisiqithi
sisiseko
sisishunqulelo
sisisixhobo
sisiso
sisisombululo
sisisu
sisithethi
sisithi
sisitishi
sisitya
sisityalo
sisixa
sisixeko
sisixekokazi
sisixhobo
sisixhosa
sisiya
sisizukulwana
sisizwe
siso
sisoloko
sisuka
sisuke
sisulu
site
sithatha
sithathe
sithe
sithembele
sithetha
sithethayo
sithethe
sithethi
sithethwa
sithi
sithile
sithole
sithuba
sitishi
sitshilo
sitsho
situation
sitya
sityalo
sive
sivela
sivile
siwasebenzisa
siwenze
siwubizile
six
sixa
sixeko
sixhaphake
sixhaphakileyo
sixhenxe
sixhobo
sixoxe
sixth
siya
siyafana
siyakumbiza
siyakuthi
siyanda
siyaphila
siyathetha
siyazazi
siyazi
siye
siyehla
siyele
siyenza
siyi
siyibonayo
siyile
siyintlekisa
siza
sizathu
sizazi
size
sized
sizenza
siziba
sizibona
sizinze
sizukulwana
sizwe
sj
sjid
sk
skills
skottel
skukuza
skull
skysports
sl
slash
slashdot
slate
slater
slave
slavery
slavic
slim
slope
slovene
slovo
slow
sm
small
smaller
smart
smartphones
smit
smith
smithsonian
smoothie
smuts
sn
snail
snake
snodgrass
snoop
snow
so
soap
sobhubhane
sobisi
sobuchule
sobufazi
sobugqirha
sobukwe
sobumbano
sobutitshala
soccer
social
socialism
society
sockets
socrates
soda
sodium
sodwa
sofia
soft
software
soga
sohlobo
soko
sokokuba
soku
sokuba
sokubala
sokubaleka
sokubetha
sokubhala
sokubuya
sokuchaza
sokucinezela
sokufa
sokufunda
sokuhamba
sokuhlalutya
sokukhanya
sokukhula
sokunxibelelana
sokuphatha
sokuphefumla
sokuphunza
sokuqala
sokuqhankqalaza
sokuqonda
sokurhoxisa
sokusebenzisa
sokuthatha
sokuthetha
sokutya
sokuzalwa
sokuzimela
sokwanda
sokwenza
sol
solano
sole
solid
solids
solo
solomon
soluble
soluntu
solute
solution
solutions
solvation
solvent
solwazi
somama
somanyano
sombinza
sombuso
somculo
some
somerset
something
sometimes
somgca
somhlaba
somkhenkce
somlomo
somntu
somnye
sompempe
somqala
somthetho
somthi
somz
somzantsi
somzi
somzimba
son
sona
sonderling
song
songeze
songs
songulen
sonke
sons
sontonga
sonwabile
sonyaka
soon
soqobo
soquko
sort
sosasazeko
soshanguve
sotho
sotyatyazo
sotywala
soul
sound
sounds
source
sources
south
southafrica
southeastern
southern
sovereign
sovereignty
sowetan
sowetanlive
soweto
soxolelwaniso
soxolo
soyisa
soyuz
sp
space
spacecraft
spaces
spain
spanish
spatz
speak
speakers
special
species
specific
specified
specify
speech
speed
spelled
spence
spencer
sperm
spider
spike
spilled
spin
spinoff
spinoza
spirit
sport
sports
spp
spray
spread
spreading
springer
springs
spyware
sq
sqrt
squad
square
squared
sr
src
sri
srpska
srpski
ss
ssh
ssl
ssr
st
stacey
stadium
stadiums
staff
stage
stages
stallman
stan
stand
standard
standardized
standards
standerton
standing
stanford
stanislaw
stanley
star
stars
start
started
state
statement
states
station
statistical
statistics
statssa
statue
status
steak
steam
steatorrhea
steel
steele
stein
stella
stellenbosch
stem
stent
stephanie
stephanus
stephen
steve
steven
stevenson
stevie
stew
stewart
steyitsi
steyn
steynsdorp
stijntje
still
stimulus
stock
stojadinovic
stomach
stone
stoner
stood
stop
store
stories
storm
story
stout
strait
strand
strandfontein
strategic
strategies
strategy
stratford
strathearn
strauss
straw
street
strength
striker
strips
strong
structure
structures
struggle
stuart
stub
student
students
studied
studies
studio
study
studying
style
su
suan
sub
subatomic
subfamilies
subgroup
subhash
subjects
sublime
submission
submissions
subordinate
substance
substances
success
successes
successfully
successor
such
sudan
suduka
suffering
sugar
suggested
suhrawardy
suicide
suid
suit
suka
suke
suku
sukuba
sul
sulfate
sulfide
sulfite
sulfur
sulfuric
sulfurous
sullivan
sulphur
sum
summation
summer
sumter
sun
sunday
sung
super
superconductors
superior
supply
supporters
supports
supraorbital
surface
surgery
surgical
surplus
survey
survie
survival
susan
sustainable
sutherland
suthu
sutton
suzuki
sv
sw
swab
swadesh
swahili
swazi
swaziland
sweden
swims
swinburne
swine
swiss
switserii
switzerland
sx
sy
sydney
sylvia
symbol
symbols
symmetry
symptoms
synchronic
syndicate
syndrome
syndromes
system
systematic
systematics
systemic
systems
systole
sz
t
t0
t1
t2
t3
t4
t5
t6
t7
t8
t9
ta
tabata
table
tabulating
tacoma
taffarel
tafile
tag
tail
tailed
tails
taiwan
take
taken
takes
tales
talk
tambo
tanaka
tanci
tarkastad
tassel
tata
tate
tatyana
taubenberger
taurus
tax
taxonomy
taylor
tb
tbvc
tc
td
te
tea
teacher
teachers
teaching
team
teams
tech
technical
technikon
technique
techniques
technologies
technology
tecumseh
ted
teen
teenage
teide
telegraph
telenovela
television
tell
telling
tem
temba
tembisa
template
temporarily
tempos
ten
tenerife
tengo
tennessee
tennis
tenth
tenzin
terence
teresa
term
terms
terra
territories
territory
tesalonika
tesser
test
testimony
tevfik
texas
text
tf
tg
th
thaba
thabisano
thabo
thafa
thallium
thambo
than
thandathu
thande
thank
thant
that
thatcher
thatha
thathu
thathwa
the
theatre
their
thelekisa
them
thema
themba
themselves
then
theo
theodore
theodorus
theological
theology
theopolis
theorem
theorems
theoretical
theori
theories
theory
therapy
there
therefore
thermocline
theron
these
thesis
thespinoff
thetha
thethiwe
theunissen
they
thiago
thich
thile
thin
thina
thing
things
think
third
this
thixo
thoba
thom
thomas
thompson
thomson
thornhill
thornton
those
thou
thought
thousand
thoyilethi
three
through
throughout
throw
thrush
thsayise
thuba
thula
thuli
thumb
thumela
thungeni
thus
thuthula
ti
tibia
ticket
tier
ties
tight
tiki
tiktoker
tiles
tim
time
times
timeslive
timothy
timoti
tin
tintinalli
tiny
tissue
tissues
titans
tite
title
tiyo
tj
tk
tl
tm
tn
to
tobias
tobolsk
today
todos
together
tokyo
tom
tommy
tongue
tony
too
took
tools
top
topic
topics
toplica
topological
topsport
topuz
torcida
torsten
total
totse
touch
touches
tournament
tournaments
tower
town
township
toynbee
toyota
tp
tq
tr
tracks
tract
trade
traditional
traditionally
tragedy
trail
trailblazers
trails
train
trainer
training
trains
traitor
transcendental
transcription
transfer
transformation
transkei
translate
translated
translation
translations
translator
translucent
transmission
transvaal
travel
travelled
trc
treatise
treatment
treaty
tree
trees
trench
trends
tres
trevor
triangle
tribal
tribute
tributes
trichardt
trichloride
trick
triglycerides
trillion
trim
trioxide
tristan
trisulfide
troops
trophies
tropic
tropical
true
truman
trump
trunk
trust
truth
ts
tsala
tsati
tsatsi
tse
tshatshu
tshayina
tshazimpuzi
tshekisho
tshintsha
tshintsho
tshisa
tshivenda
tshonani
tsietsi
tsomo
tsonga
tss
tt
tu
tube
tuberculosis
tucker
tugela
tumente
tuna
tunisia
tupi
turkey
turkish
turn
turner
turns
tutu
tv
tw
twentieth
twice
twig
twigs
twisted
twitch
twitter
two
twoaie
tx
ty
tya
tyala
tyalike
tye
tyelelo
tyhefu
tyheli
tyhutyha
tyler
type
types
tyu
tywala
tz
tzu
u
u0
u1
u2
u3
u4
u5
u6
u7
u8
u9
ua
uabram
uac
ualberta
ualbertina
ualexander
ualice
uarchibald
uaristotle
uasanda
ub
uba
ubach
ubaldwin
ubaluleke
ubalulekile
ubambane
ubambe
ubandakanya
ubangele
ubani
ubanjwe
ubantu
ubarloworld
ubawo
ube
ubeba
ubeka
ubeke
ubemana
ubengazanga
ubengomnye
ubenomntu
ubernhardt
uberyl
ubesithi
ubesoloko
ubeya
ubeyinkosi
ubeyonce
ubhala
ubhale
ubhalwa
ubhaptizo
ubhed
ubhekisa
ubhembesile
ubhishophu
ubhontsi
ubhotomani
ubhubhane
ubhubhele
ubiko
ubiliswe
ubilly
ubini
ubisi
ubizo
ubizwa
ubizwe
ubob
ubom
ubomi
ubomvu
ubonakala
ubonakalisa
ubonakalise
ubone
ubonga
ubongani
ubonisa
uboniswe
ubonwa
ubonwe
uboruto
uboya
ubrenda
ubrian
ubrownlee
ubu
ububanzi
ububele
ububi
ubuchule
ubuchwepheshe
ubuciko
ubucwebe
ubudala
ubude
ubudlelwane
ubudlobongela
ubudoda
ubufazi
ubufundisi
ubugcisa
ubugqi
ubuhlanga
ubuhle
ubuhlobo
ubuhlwempu
ubukho
ubukhoboka
ubukhosi
ubukhulu
ubukhwenkwe
ubukoloni
ubukrestu
ubukristu
ubukumkani
ubulala
ubulale
ubulewe
ubulongwe
ubulumko
ubulunga
ubulungisa
ubulungu
ubumdaka
ubume
ubumnyama
ubuncinane
ubuncinci
ubundlobongela
ubungabona
ubungakanani
ubungcwele
ubungozi
ubungqina
ubungqondi
ubuni
ubuninzi
ubunjani
ubunkokheli
ubunto
ubuntshatsheli
ubuntu
ubunyulu
ubunzima
ubunzulu
ubuqaqawuli
ubuqhetseba
ubuqu
uburhalarhume
ubusela
ubushushu
ubusi
ubusika
ubusithi
ubuso
ubusobengwe
ubusuku
ubuthi
ubuthongo
ubutishala
ubutitshala
ubutshaba
ubutyebi
ubuxhaka
ubuxoki
ubuya
ubuye
ubuyelekhaya
ubuyile
ubuze
uc
ucalucalulo
ucandiwe
ucanzibe
ucarl
ucarmen
ucarolus
ucatherine
uceba
ucebisa
uchaka
uchalmers
ucharles
ucharlotte
uchaza
uchaze
uchiha
uchitha
uchris
uchungechunge
uchungwa
uchutywe
uchwepheshe
ucinga
ucinge
ucingo
ucirha
ucoceko
ucolenso
ucolumbus
ucrosby
uct
ucwangciso
ucwangco
ud
udaba
udade
udaka
udala
udale
udavid
udavide
ude
udf
udibana
udibanisa
udibene
udidi
udilima
udinizulu
udla
udlala
udlalwa
udlalwe
udliwano
udlula
udlwengulo
udon
udonald
udonga
udongwe
udouglas
udrawn
udube
udubul
uduli
uduma
udumileyo
udumisa
udumo
ue
uedgar
uedward
uefa
uelinor
uepreli
uetersen
ueuclid
uf
ufake
ufaku
ufakwe
ufana
ufane
ufanele
ufassie
ufatima
ufezekise
ufika
ufike
ufikelela
ufikelele
ufikile
ufrank
ufred
ufumana
ufumane
ufumaneke
ufumanisa
ufumanise
ufumene
ufuna
ufunda
ufunde
ufundisa
ufundo
ufune
ufunyanwa
ufuze
ufuzisela
ufuzo
ug
ugaba
ugalelo
ugalelwe
uganda
ugandhi
ugautama
ugawulayo
ugay
ugaye
ugazi
ugcaleka
ugcina
ugcinamazwi
ugeorge
ugerald
ugetrude
ugichin
ugie
ugodel
ugodukile
ugonyo
ugovan
ugq
ugqatso
ugqibile
ugqirha
ugqithiselwa
ugqr
ugqrirha
ugraca
ugrant
ugula
uguqukela
uguqula
uguqulo
ugutyulo
uh
uhamba
uhambe
uhambisa
uhambo
uhame
uharry
uhelen
uhenry
uhilbert
uhili
uhinsta
uhintsa
uhitler
uhlala
uhlale
uhlanga
uhlaselo
uhlaselwe
uhlaza
uhle
uhleke
uhlel
uhleli
uhlelo
uhlobo
uhlolo
ui
uit
uj
ujabavu
ujack
ujacob
ujade
ujames
ujane
ujanet
ujangadeiro
ujanuwari
ujenner
ujessica
ujika
ujikeleza
ujoe
ujohann
ujohn
ujongene
ujongikhaya
ujordan
ujoseph
ujosi
ujosie
ujotello
ujulayi
ujulius
uk
ukaiser
ukakashi
ukama
ukanti
ukapteni
ukarl
ukat
uke
ukekana
ukhalelani
ukhapitali
ukhathalelo
ukhaya
ukhe
ukhenketho
ukhetho
ukho
ukhohlela
ukhokele
ukhokhelo
ukholelwa
ukholelwe
ukhona
ukhukhuliseko
ukhula
ukhule
ukhulele
ukhumbula
ukhumbule
ukhuni
ukhupha
ukhuphe
ukhuphiswano
ukhuseleko
ukhuselo
ukhuthaza
ukinloch
ukobe
ukodlula
ukoma
ukomelela
ukona
ukondla
ukondleka
ukongeza
ukongezelela
ukonoha
ukonwabela
ukopha
ukophulwa
ukosani
ukosuleleka
ukoyika
ukoyisakala
ukraine
ukrainian
ukrelekrele
ukristu
uku
ukub
ukuba
ukubakho
ukubakhulisa
ukubala
ukubaleka
ukubalisa
ukubaluleka
ukubamba
ukubangaba
ukubangabo
ukubanjwa
ukubasa
ukubasusa
ukubeka
ukubekelwa
ukubekwa
ukubetha
ukubhala
ukubhalwa
ukubhatala
ukubheka
ukubhekisa
ukubhideka
ukubila
ukubiza
ukubizwa
ukubola
ukubona
ukubonakali
ukubonakalisa
ukubonelela
ukubongwa
ukubonisa
ukubonwa
ukubulala
ukubulalana
ukubulawa
ukubumba
ukubuyela
ukubuyisela
ukubuza
ukuchaza
ukuchitha
ukuchonga
ukucima
ukucinga
ukucoca
ukucula
ukucutha
ukucwangcisa
ukudada
ukudala
ukudanisa
ukudaya
ukude
ukudibana
ukudibanisa
ukudinwa
ukudla
ukudlala
ukudlalwa
ukudodobala
ukudumba
ukufa
ukufaka
ukufakwa
ukufana
ukufanisa
ukufezekisa
ukufihla
ukufika
ukufikelela
ukufingana
ukufuduka
ukufudumala
ukufudumeza
ukufumana
ukufumaneka
ukufumanisa
ukufunda
ukufundisa
ukufundiswa
ukufunyanwa
ukugabha
ukugawula
ukugcina
ukugcinwa
ukugonywa
ukugqabhuka
ukugqiba
ukugqobhoza
ukugquma
ukugubungela
ukuguga
ukugula
ukuguquka
ukugweba
ukugxekwa
ukugxojwa
ukugxotha
ukugxothwa
ukuhamba
ukuhambelana
ukuhambisa
ukuhanjiswa
ukuhla
ukuhlala
ukuhlalutya
ukuhlamba
ukuhlangabezana
ukuhlanjwa
ukuhlaselwa
ukuhlaziya
ukuhlolwa
ukuhlukunyezwa
ukuhluma
ukuhluza
ukujikeleza
ukujonga
ukujongana
ukujongwa
ukujoyina
ukukha
ukukhalipha
ukukhangela
ukukhanya
ukukhanyisa
ukukhawuleza
ukukhetha
ukukhethwa
ukukhohlela
ukukhonza
ukukhubazeka
ukukhula
ukukhulisa
ukukhululeka
ukukhupha
ukukhuphela
ukukhusela
ukukhuthaza
ukukhutshwa
ukukuxelela
ukukwazi
ukukwenza
ukulahleka
ukulala
ukulandela
ukulandelelana
ukulawula
ukulawulwa
ukulingana
ukulisebenzisa
ukulufunda
ukulunga
ukulungele
ukulungiselela
ukulungiswa
ukulunywa
ukulwa
ukuma
ukumbiwa
ukumela
ukumelana
ukumila
ukumisela
ukumiselwa
ukumiswa
ukumitha
ukumiwa
ukumka
ukumkani
ukumkanikazi
ukumnceda
ukumpompa
ukunaba
ukuncamisa
ukuncancisa
ukunceda
ukuncedisa
ukuncipha
ukunciphisa
ukuncitshiswa
ukuncokola
ukundwendwela
ukunene
ukungabikho
ukungafani
ukungakhuli
ukungakwazi
ukungalingani
ukungasebenzi
ukungathandi
ukungathi
ukungavumelani
ukungazibandakanyi
ukungcola
ukungena
ukungenela
ukungenisa
ukungondleki
ukungxamiseka
ukunika
ukunikwa
ukunqanda
ukunqongophala
ukunqunyulwa
ukunukwa
ukunwenwa
ukunxiba
ukunxibelelana
ukunxitywa
ukunxulumana
ukunyakaza
ukunyanga
ukunyuka
ukupapasha
ukupapashwa
ukuphahlazeka
ukuphakama
ukuphakamisa
ukuphanda
ukuphangela
ukuphanza
ukuphatha
ukuphathwa
ukuphawula
ukuphazamisa
ukuphefumla
ukupheka
ukuphela
ukupheliswa
ukuphendula
ukuphepha
ukuphila
ukuphimisela
ukuphinda
ukuphindaphindwa
ukuphosela
ukuphucula
ukuphuculwa
ukuphuhla
ukuphuhlisa
ukuphuhliswa
ukuphulukana
ukuphuma
ukuphumelela
ukuphumeza
ukuphungula
ukuqala
ukuqalwa
ukuqamba
ukuqaphela
ukuqelelana
ukuqhama
ukuqhekeka
ukuqhekeza
ukuqhuba
ukuqhubela
ukuqikelela
ukuqinisekisa
ukuqiqa
ukuqokelela
ukuqonda
ukuqubha
ukuquka
ukuqwalasela
ukuqwalaselwa
ukurekhodwa
ukurhawuzelela
ukusa
ukusasaza
ukusasazeka
ukusebenza
ukusebenzela
ukusebenzisa
ukusebenzisana
ukuseka
ukusekwa
ukusenga
ukusetyenziswa
ukushicilelwa
ukushiya
ukushukuma
ukushumayeza
ukusinda
ukusingisela
ukusithetha
ukusiwa
ukusoloko
ukusombulula
ukusondela
ukusondelela
ukusuka
ukusukela
ukusuleleka
ukususa
ukususela
ukuswela
ukusweleka
ukuthabatha
ukuthanda
ukuthandwa
ukuthatha
ukuthelekisa
ukuthengiswa
ukuthenjwa
ukuthetha
ukuthi
ukuthibaza
ukuthimla
ukuthini
ukuthintela
ukuthiwa
ukuthula
ukuthumela
ukuthwala
ukuthweswa
ukutitsha
ukutsala
ukutsalwa
ukutshaja
ukutshata
ukutshintsha
ukutshintshiselana
ukutshisa
ukutshiswa
ukutshiza
ukutsho
ukutya
ukutyala
ukutyelela
ukutyiwa
ukuva
ukuvakala
ukuvala
ukuvalelwa
ukuvalwa
ukuvana
ukuvela
ukuvelisa
ukuveliswa
ukuvezwa
ukuviwa
ukuvota
ukuvula
ukuvuleka
ukuvuma
ukuvumela
ukuvunwa
ukuvutha
ukuvuyisana
ukuvuza
ukuwa
ukuwela
ukuwongwa
ukuwuva
ukuxela
ukuxelwa
ukuxhaphaka
ukuxhasa
ukuxhathisa
ukuxhatshazwa
ukuxhela
ukuxhumana
ukuxoka
ukuxoxa
ukuya
ukuyenza
ukuyibamba
ukuyibeka
ukuyibona
ukuyichaza
ukuyilwa
ukuyinika
ukuyisebenzisa
ukuyombona
ukuyonika
ukuz
ukuza
ukuzala
ukuzalwa
ukuzama
ukuzazi
ukuze
ukuzeka
ukuzenzela
ukuzibamba
ukuzibiza
ukuzifumana
ukuzikhethela
ukuzimela
ukuzimisela
ukuzingca
ukuziphatha
ukuziphindezela
ukuziqhelanisa
ukuzisa
ukuzisebenzisa
ukuzoba
ukuzondla
ukwaba
ukwabelana
ukwabizwa
ukwahlukana
ukwahlula
ukwahlulwa
ukwakha
ukwakheka
ukwakhiwa
ukwalinani
ukwamkela
ukwamkelwa
ukwanda
ukwandisa
ukwane
ukwangumsebenzi
ukwaphulwa
ukwazi
ukwazile
ukwazisa
ukwaziwa
ukwaziyo
ukwehla
ukwehlisa
ukwelinye
ukwenda
ukwenjenjalo
ukwenz
ukwenza
ukwenzeka
ukwenzela
ukwenziwa
ukwindla
ul
ulame
ulandela
ulandelayo
ulandele
ulandelwa
ulandingwe
ulandulele
ulangana
ularry
ulawulo
ulebo
uleonardo
ulepoqo
uletta
ulibe
ulieutenant
ulifumene
ulila
ulilela
ulilizwi
ulilungu
ulinde
ulindiwe
ulingana
ullrey
ulo
uloliwe
ulongqin
ulonwabo
ulouis
ulovane
ulowo
uloyiso
ultimate
ulucky
uludwe
ulugxa
uluhlaza
uluhlu
ulundi
ulungele
ulungi
uluntu
uluru
ulusu
ulutsha
uluvo
ulwakhiwo
ulwandiso
ulwandle
ulwanganda
ulwaphulo
ulwazi
ulwelo
ulwim
ulwimi
um
uma
umabuyane
umadara
umafrika
umagema
umagumasholo
umaharaj
umahluko
umajeke
umakhanda
umakhi
umakhosazana
umakhulu
umakiwane
umakoti
umalala
umalefane
umalume
umalunga
umam
umama
umamkeli
uman
umanana
umandela
umanejala
umani
umanxa
umanyano
umanzi
umaqoma
umargaret
umaria
umark
umarshall
umarvin
umary
umasipala
umathanzima
umatholengwe
umathosa
umatshi
umatshini
umatthew
umatwa
umax
umaxeke
umaziphathe
umba
umbala
umbali
umbane
umbele
umberto
umbhaco
umbhali
umbhalo
umbhobho
umbhoxo
umbilo
umbindi
umboko
umbona
umbone
umbongo
umboniso
umbono
umbulali
umbulelo
umbuli
umbusi
umbuso
umbutho
umbuyeleli
umbuzo
umcebisi
umchamo
umcimbi
umculi
umculo
umda
umdali
umdibaniso
umdla
umdlali
umdlalo
umdlezana
umdyarho
umele
umelwe
umendi
umenzi
umeyi
umfama
umfana
umfanekiso
umfazi
umfo
umfundi
umfundisi
umfutho
umfuziselo
umgada
umgama
umgangatho
umgaqo
umgca
umgidi
umgodeli
umgqibelo
umgubo
umgungundlovu
umhala
umhambi
umhla
umhlab
umhlaba
umhlahlindlela
umhlakaza
umhlala
umhlamb
umhlambi
umhlana
umhlangala
umhlaseli
umhlaza
umhleli
umhlobo
umhlolokazi
umhlomi
umhlophe
umhobe
umi
umichael
umichelangelo
umike
uminyaka
umiriam
umise
umizuki
umjikelo
umka
umkakhe
umke
umkhala
umkhatshane
umkhenkce
umkhenkethi
umkhondo
umkhono
umkhonto
umkhonzi
umkhosi
umkhuhlane
umkhwebane
umkhwetha
umkomishinala
umlambo
umlanjeni
umlawu
umlawuli
umlenze
umlibo
umlilo
umlinganiselo
umlinganiso
umlingo
umlisela
umlo
umlobi
umlomo
umlotha
umlungisi
umlungu
ummandla
ummangaliso
ummeli
ummi
ummiselo
umncono
umngcipheko
umngcwabo
umngeni
umngqusho
umngxuma
umnikazi
umninawa
umnini
umniniyo
umnombo
umnqa
umnqwazi
umnqweno
umnt
umntakwabo
umntana
umntla
umntu
umntwan
umntwana
umnu
umnumzana
umnwe
umnxeba
umnyaka
umnyazi
umnye
umoba
umohaneng
umolokazana
umomo
umonakalo
umongameli
umongikazi
umongo
umonostatos
umotloang
umoya
umpapashi
umphakamo
umphakathi
umphanda
umphandi
umphandle
umphathi
umphathiswa
umphefumlo
umphelo
umphezulu
umphunga
umphushu
umpostile
umprofeti
umpu
umqala
umqeqeshi
umqhayi
umqhubi
umqingqi
umqobo
umqolomba
umqombothi
umqulu
umsebenzi
umsengi
umshumayeli
umshweshwe
umsi
umsila
umsintsi
umsitho
umtata
umthamo
umthath
umthendeleko
umthengisi
umthetheli
umthetho
umthi
umthombo
umthumeli
umthunzi
umthwalo
umtsalane
umtshana
umtshato
umtya
umtyholwa
umuhammad
umutswairo
umva
umve
umvundl
umvuzo
umxhaxha
umxhelo
umxholo
umxube
umyalelo
umyalezo
umyeni
umyinge
umz
umzabalazo
umzala
umzali
umzalwana
umzantsi
umzekelo
umzi
umzila
umzimba
umzimeni
umzingeli
umzobo
umzukulwana
un
unabantu
unabemi
unadine
unakho
unako
unam
unamanzi
unamba
unamhla
unanamhla
unani
unantoni
unaphakade
unaruto
unaso
unayo
unazo
unbeaten
uncame
unceda
uncedo
uncle
unconywa
uncumo
uncwadi
und
undefeated
under
understanding
undg
undlambe
undp
une
unee
uneenwele
unelson
unelungelo
unemali
unesco
unexpected
ungabhalwa
ungabi
ungabona
ungabonakala
ungade
ungafuna
ungahamba
ungahambi
ungakhange
ungaphantsi
ungasetyenziselwa
ungasetyenziswa
ungathi
ungayenzanga
ungayonakalisi
ungcoliseko
ungconde
ungcwangu
unge
ungekho
ungena
ungene
ungenelelo
ungeniso
ungenza
ungomnye
ungqika
ungquzulwano
ungu
ungubani
ungubengcuka
ungumbhali
ungumlimi
ungumlobi
ungumntu
ungumntwana
ungumongameli
ungumspanish
ungusekela
unguthixo
unguwena
unguye
unicellula
unicellular
unicode
unidentified
unified
uniform
unika
unikezelo
unikwe
unilateral
unimrodi
unina
uninzi
union
unisa
unit
united
unitra
units
unity
universe
universidad
universidadedofutebol
universities
university
unix
unjalo
unjingalwazi
unkabi
unknown
unkosi
unkosikazi
unlike
unobangela
unobangelasifo
unobhala
unobumba
unokhonya
unokuba
unokufumana
unokujonga
unokutela
unolali
unomamto
unomanti
unomesi
unomlinganiselo
unomonti
unomsa
unomtsalane
unonabe
unondaba
unongqawuse
unoni
unontetha
unontsizi
unontsonta
unothi
unotshe
unowawe
unoyiki
unqwenela
unreliable
unsc
unskz
untantala
untengo
until
untlebi
untsikana
untsikane
untunjana
unusual
unveiled
unwele
unxele
unxibe
unxibelelana
unxibelelwano
unxulumano
unxweme
unyaka
unyana
unyango
unyawo
unyuke
unyulo
uo
uocean
uodwa
uol
up
upamina
upapageno
upaul
upawulos
update
upelo
upete
upeter
uphakathi
uphalo
uphando
uphathe
uphato
uphawu
uphawula
uphehlelelo
uphela
uphele
uphelele
uphendula
uphendule
uphethe
uphethwe
uphi
uphila
uphile
uphinda
uphindaphindo
uphinde
uphiri
uphondo
uphuculo
uphuhlise
uphuhliso
uphulo
uphuma
uphume
uphumelele
uphumile
uphungula
uphuphumela
upierre
upitika
uplaatje
uploads
upon
upper
uprising
uproclus
upton
uq
uqala
uqale
uqamatha
uqanda
uqeqesho
uqhagamshelane
uqhambuko
uqhankqalazo
uqhatanisela
uqhawulo
uqhayisa
uqhekeko
uqhelekileyo
uqhube
uqhubeke
uqikelelo
uqilikwane
uqinisekisa
uqob
uqobo
uqoqosho
ur
uradebe
urainer
uramaphosa
uranium
uray
uraymond
urban
urharhabe
urhili
urholihlahla
urhubusana
urhudo
urhulumente
urhwebo
url
urobert
uroman
urubusana
uruguay
uruth
us
usa
usally
usamuel
usana
usandile
usapho
usaqhwithi
usarah
usarastro
usarhili
usasazeko
usasazo
usasuke
usaziwayo
usb
uscott
usd
usda
use
usebenza
usebenze
usebenzisa
usebenzise
used
useful
usekela
usela
uselula
usenga
usenjenjalo
usenokuba
usenza
usenziwa
user
userote
uses
usetyenziswa
ushamsul
ushishino
ushiya
ushiye
usi
usiba
usibonile
usibusiso
usiddhartha
usidima
usihla
usikhomo
usilelwe
usindiso
using
usisidenge
usisigebenga
usisulu
usithi
usiva
usiya
usmith
usodolophu
usoga
usoloko
usolomon
usondele
ustephen
usteve
usually
usugar
usuka
usuke
usukela
usukile
usuku
usuleleko
usulelo
usululeko
ususe
uswazi
usweleke
ut
utambo
utamino
utat
utata
utatomkhulu
utennyson
utf
uthabathe
uthabo
uthanda
uthandiswa
uthando
uthandwa
uthatha
uthathe
uthathwa
uthe
uthelekiso
uthelekiswa
uthembis
uthengisa
utheth
uthetha
uthethayo
uthethe
uthi
uthile
uthimla
uthini
uthintelo
uthixo
uthomas
uthotho
uthuli
uthumela
uthumele
uthuthula
utitshala
utiyo
utobi
utodu
utogu
utom
utonyane
utrevor
utshaba
utshaka
utshate
utshawe
utshazimpuzi
utshilo
utshintsho
utshiwo
utsho
utsili
utsolo
utsunade
utyando
utyani
utyarha
utyatyazo
utyelelo
utyhali
utyhola
utywala
uu
uv
uvakele
uvalo
uvan
uvavanyo
uvazi
uvela
uvele
uveliso
uviko
uviljoen
uvimba
uviwo
uvuko
uvula
uvuthwe
uvuyo
uw
uwabo
uwafumana
uwalter
uwauchope
uwele
uwilliam
uwilliams
uwinnie
uwongwa
uwonke
ux
uxakekile
uxam
uxanduva
uxel
uxela
uxele
uxelela
uxelelwe
uxhelelwe
uxhosa
uxhoxho
uxili
uxilongo
uxinzelelo
uxolo
uxuba
uy
uya
uyabalahla
uyabandakanyeka
uyafa
uyafana
uyageza
uyagula
uyakuba
uyakufa
uyakufika
uyakufumana
uyakufumanisa
uyakusoloko
uyakusuka
uyakuthi
uyakuzeka
uyakwazi
uyalingana
uyanda
uyaphila
uyaphupha
uyaqondeka
uyasokola
uyathandwa
uyavuma
uyawasela
uyayazi
uyayibona
uyazi
uye
uyehova
uyeke
uyekungena
uyemka
uyes
uyesu
uyi
uyibone
uyichaza
uyicinge
uyidlalile
uyijongile
uyikhabela
uyikhuphile
uyilo
uyimbongi
uyimele
uyimvumi
uyinkulumbuso
uyinto
uyinxalenye
uyinxibileyo
uyise
uyisebenzisa
uyisebenzisayo
uyisekazi
uyisemkhulu
uyithethe
uyiyo
uyolile
uyvonne
uz
uza
uzahara
uzala
uzalelwe
uzalo
uzalwa
uzalwe
uzama
uzame
uzayo
uzazi
uze
uzeke
uzele
uzelwe
uzenani
uzenze
uzibona
uzibone
uzibuthe
uzihlangule
uzille
uzimele
uzinzo
uzisentimitha
uzoba
uzobe
uzola
uzondani
uzuko
uzumaki
uzuze
uzwane
uzwelakhe
uzwelizayo
v
v0
v1
v2
v3
v4
v5
v6
v7
v8
v9
va
vaccination
vaccine
vaccines
vaclav
vacuum
vagus
valence
valenti
valentine
valley
valuable
value
values
valve
valves
van
vanderbijlpark
vapour
variable
variables
varices
variety
various
vary
vasari
vascular
vaughan
vauthors
vaxa
vb
vc
vcite
vd
ve
vector
vectors
vegetables
veki
vela
velela
velocity
vena
venezuela
venice
ventricle
ventricles
ventricular
venule
venules
verde
vereeniging
verlust
vernacular
veronica
versailles
version
vertebrate
vertebrates
vertical
very
vespertilionid
vespertilionidae
vespertilioninae
vessels
veteran
veterans
veterinary
vex
vf
vg
vh
vi
via
vice
vicente
victor
victoria
victories
victorious
victory
vida
video
viduka
vienna
view
views
vii
viii
vilakazi
vili
viljoen
villa
village
villiers
vincent
vinci
vine
vintage
violence
violet
vir
viral
virgil
virginia
virol
virus
viruses
viscera
visceral
viscount
viscus
vision
visit
vista
visual
vital
vitamin
vitamins
vitoria
viwo
viz
vj
vk
vl
vladimir
vlamertinge
vlamertinghe
vm
vn
vo
vocal
voice
voices
vojinovic
vojnogeografski
vojvoda
vol
volcano
volcanoes
volksrust
volta
volume
von
voortrekker
vp
vpd
vq
vr
vs
vt
vu
vukani
vula
vungu
vv
vw
vx
vy
vz
w
w0
w1
w2
w3
w4
w5
w6
w7
w8
w9
wa
waaba
waabhala
waabhubhela
waabuyela
waafika
waafudukela
waafunda
waafundisa
waagxothwa
waahamba
waakwenza
waamisa
waapapasha
waaqala
waaqesha
waasebenza
waathi
waawela
waazala
waazalelwa
waazalwa
waba
wababhali
wabadlali
wabafundi
wabalela
wabalilungu
wabaliphakathi
wabamhlophe
wabandakanyeka
wabanegalelo
wabangomye
wabangu
wabangumfundi
wabangumntu
wabangumongameli
wabangunontlalo
wabanika
wabanjwa
wabantu
wabantwana
wabaseki
wabasikelela
wabathengi
wabayalela
wabazali
wabe
wabeka
wabekwa
wabesuthu
wabethwa
wabhala
wabhalisela
wabhekisa
wabhengeza
wabhubha
wabiwayo
wabiza
wabizwa
wabo
wabona
wabonakala
wabonakalisa
wabonisa
wabonwa
wabulala
wabulawa
wabumba
wabuya
wabuyela
wacalucalulo
wacatshulwa
wacebisa
wacela
wacelwa
wachaza
wachitha
wachongwa
wachukumiseka
wacinga
wacula
wada
wadala
wade
wadibana
wadla
wadlala
wadsworth
waduma
wafa
wafaka
wafakwa
wafela
wafika
wafudukela
wafukama
wafumana
wafuna
wafunda
wafundela
wafundisa
wafunyanwa
wagner
wagqiba
wagqibela
wagqwesa
waguduka
wagula
waguqukela
waguqulela
wagwetywa
wagxininisa
wagxothwa
wahamba
wahambela
wahlala
wahlangana
wahlaselwa
wahlela
wahlola
wahlonitshwa
wahlukana
wahlukile
wahlula
wait
wajongana
wajoyina
waka
wakha
wakhangela
wakhe
wakhenketha
wakhetha
wakho
wakhokela
wakhona
wakhonza
wakhula
wakhulela
wakhulelwa
wakhulisa
wakhuliswa
wakhululwa
wakhumbula
wakhupha
wakhwankqiswa
wakkerstroom
wakowabo
wakowethu
wakubona
wakuchaza
wakw
wakwa
wakwakhe
wakwanzululwazi
wakwazi
wakwenza
wakwethu
wala
walahl
walahlekelwa
walala
walandela
walandelisa
walapha
waldo
wale
walenza
wales
walibonayo
walishiya
walk
walked
walker
wall
wallace
wallet
walls
walo
walsh
walt
walter
walufumana
waluqala
walwa
wam
wama
wamaculo
wamagama
wamagcisa
wamagqunukhwebe
wamagqwetha
wamahashe
wamajingqi
wamajoni
wamakomanisi
wamakrestu
wamalungelo
wamalungu
wamamkela
wamampondo
waman
wamandla
wamangaliswa
wamangesi
wamanina
wamanqina
wamanqindi
wamantombazana
wamanya
wamanzi
wamaqela
wamarharhabe
wamaroma
wamashumi
wamatye
wamawaka
wamaxhoba
wamaxhosa
wamazibulo
wamazisa
wamazwe
wambetha
wambi
wambulala
wamcebisa
wamdala
wamenywa
wamfumana
wamiliselwa
wamisa
wamiselwa
wamkela
wamkelwa
wamkhuthaza
wamnika
wamshiya
wanaso
wancamela
wanceda
wancedisa
wancedwa
wancuma
wandumzela
wanga
wangaphambili
wangcwatyelwa
wangena
wangenela
wango
wangqina
wangumongameli
wanika
wanikezela
wanikwa
wanombono
wanqunyulwa
want
wanyama
wanyamalala
wanyamezela
wanyanzeleka
wanyulwa
wapapasha
wapapashwa
waphawula
waphawulwa
waphehlelelwa
waphela
waphendula
waphikisa
waphinda
waphindela
waphula
waphulukana
waphuma
waphumelela
waphumla
waphusile
waqala
waqalisa
waqamba
waqaphela
waqeqeshelwa
waqeshwa
waqhuba
waqhubeka
waqhubekeka
waqhubela
waqinisekisa
waqokela
waqonda
waququzelela
war
warburton
ward
warden
warm
warner
warren
warrior
wars
warszawa
was
wase
waseafrika
wasebenza
wasebenzela
wasebenzisa
wasebenzisana
wasebrazil
wasebritane
wasebritani
wasefort
waseforthare
wasefransi
wasegeorgia
wasejamani
wasejapan
waseka
wasekwa
wasel
wasela
wasele
wasemakhitshini
wasemathileni
wasemelika
wasemerika
wasemozambiki
wasempumalanga
wasemzantsi
wasentshona
wasenza
waserhabe
wasetrinidad
wasetyenziswa
wasetyhini
waseuganda
waseyurophu
wasezilokishini
wasezimbabwe
washicelela
washicilela
washing
washington
washiya
wasifumana
wasilela
wasinda
wasinga
wasishiya
wasiwa
waso
wasondela
wasuka
wasungula
wasutywa
wasweleka
watch
water
waterston
waterval
wathabatha
wathatha
wathathe
wathathela
wathathwa
wathenga
wathetha
wathi
wathiwa
wathiywa
wathumela
wathunyelwa
wathwalelwa
wathweswa
wathyola
watshata
watshintsha
watsho
watshona
watshutshiswa
watson
watts
watya
watyelela
watyholwa
watyikitya
wauchope
waugh
wava
wavakala
wavakalisa
wavalelwa
wavasa
wave
wavela
wavelela
waves
wavuka
wavukela
wavula
wawa
wawahlula
wawazi
wawela
wawo
wawonga
wawongwa
wawugcina
wawunikwa
wawusenziwa
wawushiya
waxelela
waxhwilwa
way
waya
wayakufunda
wayakuhlala
wayakusebenza
wayalela
wayalelwa
wayamkela
waye
wayebhala
wayebizwa
wayebona
wayebonakala
wayebonwa
wayebuyela
wayecinga
wayecula
wayedlala
wayedume
wayedumile
wayefuna
wayefunda
wayefundisa
wayefundiswe
wayegqiba
wayegxile
wayehamba
wayehlala
wayejongene
wayeka
wayekhe
wayekholelwa
wayekhona
wayekhululekile
wayekhusela
wayekwabandakanyeka
wayekwalilo
wayekwangumbali
wayekwangumbhali
wayelelinye
wayelibhinqa
wayelilungu
wayelinina
wayemndwendwela
wayenabafazi
wayenako
wayenayo
wayene
wayeneembono
wayeneminyaka
wayenenkunzi
wayenesikhwele
wayenesiphiwo
wayenesithembu
wayenezicwangciso
wayengaboni
wayengakuthandi
wayengalungelanga
wayengavinjwa
wayengazange
wayengazuqala
wayengomnye
wayengoyena
wayengu
wayengubhishobhu
wayengum
wayengumakhi
wayengumbhali
wayengumcebisi
wayengumfanekiso
wayengumfazi
wayengumfundi
wayengumfundisi
wayengummi
wayengumntu
wayengumntwana
wayengumongameli
wayengumphathiswa
wayengumqambi
wayengumseki
wayengunyana
wayengusekela
wayenolwazi
wayenomdla
wayenza
wayephila
wayephumelele
wayeqonda
wayesakuba
wayesazi
wayesaziwa
wayesebenza
wayesekroonstad
wayesele
wayeseluvalelweni
wayesithi
wayesiya
wayesoloko
wayethanda
wayethe
wayethetha
wayethumela
wayetshatile
wayevalelwe
wayevela
wayevutha
wayexhasa
wayexhathise
wayexhotyisiwe
wayeyakuba
wayeyazi
wayeye
wayeyikumkani
wayeyimbongi
wayeyimvumi
wayeyindoda
wayeyingqondi
wayeyinkokeli
wayeyinkokheli
wayeyintatheli
wayeyintombi
wayeyiqhelile
wayeza
wayezahlule
wayezele
wayeziqonda
wayibeka
wayibhala
wayibona
wayifumana
wayigqibezela
wayigqithisela
wayijonga
wayila
wayishiya
wayixela
wayne
wayo
waza
wazala
wazalelwa
wazalwa
wazama
waze
wazeka
wazenza
wazi
wazibandakanya
wazibeka
wazibhala
wazibona
wazibonakalisa
wazibophelela
wazibulala
wazichaza
wazifumana
wazifumanela
wazikhethela
wazikhusela
wazimanya
wazinikela
wazisa
wazishiyayo
wazisikelela
waziva
waziwa
waziwayo
wazo
wazoba
wazuza
wb
wc
wd
we
weafrican
weafrika
weakest
wealth
wear
wearing
weather
web
webandla
webarchive
webb
weber
webhola
webhunga
webotswana
webpage
webritish
website
webster
wechelsea
wechiza
wecwecwe
wedatha
wedc
wedding
wednesday
wedolo
wedolophu
wedwa
wee
week
weekhemikhali
weekly
weeleta
weembali
weencwadi
weendaba
weengoma
weenkokheli
weenkosi
weenkwenkwezi
weenoveli
weenqwelo
weentlanga
weenwele
weenza
weenzalelwane
wefilim
wefowuni
wefree
wegazi
wegcisa
weghana
wegqala
wehla
wehlabathi
weight
weil
weimar
wekapa
wekhaya
wekoloni
wekomkhulu
weldon
weli
welinye
weliqela
welizwe
well
wellington
wells
welo
welomzantsi
welondon
wema
wemanyano
wematshisi
wembali
wembongi
wemelika
wemfundo
wemibongo
wemiceli
wemidlalo
wemihla
weminyaka
wemithi
wemithombo
wemizekelo
wemka
wempatho
wempilo
wempuma
wen
wena
wenani
wencwadi
wendalo
wendawo
wendele
wendell
wendlela
wendlu
wendoda
wengcinezelo
wengingqi
wengoma
wengqondi
wengxaki
wenjenje
wenjenjeya
wenkanga
wenkokheli
wenkolo
wenkomo
wenkosi
wenkululeko
wenkulungwana
wenkulungwane
wenkundla
wenqwelo
went
wentando
wentlalo
wento
wentsebenziswano
wentshukumo
wenupedia
wenyaniso
wenye
wenza
wenzani
wenze
wenziwa
wenziwe
weomgca
weparis
wephepha
wephondo
weqela
weqonga
were
werephablikhi
werhamncwa
werner
wesabatha
wesakhono
weshumi
wesi
wesibhozo
wesibini
wesihlanu
wesikolo
wesilwanyana
wesine
wesingesi
wesithandathu
wesithathu
wesithili
wesixeko
wesixhenxe
wesixhosa
wesizwe
wesley
wesouth
wespanish
west
western
westminster
westphal
wesuka
weswekile
wet
wethambo
wethu
wethutyana
wetransvaal
wets
weva
wewomen
wexesha
wexeshana
weyantlukwano
weyunivesithi
weza
wezemfundo
wezemidlalo
wezempilo
wezi
wezibalo
wezifo
weziganeko
wezilwanyana
wezimbabwe
wezimbiwa
wezindlu
wezinto
wezinye
weziphumo
wezitya
weziyobisi
wezizwe
wezobugcisa
wezolimo
wezomthetho
wezopolitiko
wezoqoqosho
wezothutho
wf
wg
wh
what
whats
when
whence
where
whereby
whether
whewell
which
while
whilst
white
whitehead
whitney
who
whole
whose
why
wi
wicketkeeper
widespread
widow
width
wife
wijk
wiki
wikimedia
wikipedia
wikiquote
wikisource
wikt
wiktionary
wilcox
wild
wilde
wildlife
wiles
wiley
wilhelm
wilker
will
willamette
willan
willem
william
williams
willie
willis
wilson
win
winchell
wind
windows
winfrey
winger
winner
winners
winnie
winning
wins
winslet
winston
winter
wires
wisa
wisely
with
within
without
witness
witwatersrand
wj
wk
wl
wm
wn
wo
wobomi
wobugcisa
wobuhlobo
wobukrestu
wobulali
wobumbano
wobunqolobi
woburhulumente
wocalu
wocalucalulo
wod
wodumo
wofika
wogqunywe
wohlobo
wohlulwa
wokhetho
woko
wokokuba
woku
wokuba
wokubala
wokubhala
wokubona
wokubonga
wokubukula
wokufaka
wokufunda
wokufundisa
wokugqibela
wokuhamba
wokuhlamba
wokukhulisa
wokulwa
wokunga
wokunikezelwa
wokuphila
wokuqala
wokusweleka
wokutya
wokutyala
wokuvala
wokuzalwa
wokwahlula
wokwandisa
wokwandiswa
wokwenene
wolawulo
wolf
wolfgang
wolu
woluntu
wolutsha
wolwandle
wolwazi
wolwimi
woman
womanyano
wombona
wombutho
womculo
women
womfazi
womgama
womgubo
womhlaba
womile
womkhosi
womlambo
womntu
womntwana
womnyaka
womoya
womsebenzi
womthetho
womyalezo
womzantsi
womzimba
won
wona
wonder
wonga
wongeza
wonk
wonke
wonyaka
wonyulo
wonyulwa
wonyuselwa
wonzakala
wood
woodard
woods
woomama
woonyana
wophando
wophuhliso
word
words
work
worked
workers
working
works
world
worldcat
worth
wosulelo
wosulelwa
wothuka
wotitshala
wotywala
would
woxinzelelo
woyisa
woza
wozniak
wp
wq
wr
wrath
wright
write
writer
writers
writing
writings
written
ws
wt
wu
wuhan
wumbi
wv
ww
www
wx
wy
wyk
wz
x
x0
x1
x2
x3
x4
x5
x6
x7
x8
x9
xa
xaba
xabiso
xana
xavier
xaxe
xb
xc
xd
xe
xelela
xerca
xesha
xeshikweni
xf
xg
xh
xhaka
xhaxhe
xhosa
xhoxho
xhwele
xi
xii
xinzelelo
xitsonga
xj
xk
xl
xm
xn
xo
xolo
xp
xq
xr
xs
xt
xu
xuma
xv
xw
xx
xxi
xxvi
xy
xylem
xz
y
y0
y1
y2
y3
y4
y5
y6
y7
y8
y9
ya
yaaba
yaafunyanwa
yaapapashwa
yaaphumelela
yaaqala
yaathi
yaba
yababhali
yabadala
yabafazi
yabafundi
yabahlolokazi
yabalasela
yabalawuli
yabancinci
yabangowakwakhe
yabangowe
yabanodumo
yabantsundu
yabantu
yabantwana
yabanye
yabaphathi
yabasebenzi
yabasetyhini
yabathembu
yabazalwane
yabe
yabebala
yabeka
yabekwa
yabemi
yabenza
yabenzela
yabhujiswa
yabizwa
yabo
yabona
yabonakalisa
yabonani
yabonisa
yaboniswa
yabonwa
yabucala
yabumini
yaconis
yada
yadala
yade
yadibana
yadlalwa
yaduma
yafa
yafaka
yafakwa
yafika
yafudukela
yafumana
yafumaneka
[...]
