!
"
#
##0
##1
##10
##11
##12
##13
##14
##15
##16
##17
##18
##19
##2
##20
##21
##22
##23
##24
##25
##26
##27
##28
##29
##3
##30
##31
##32
##33
##34
##35
##36
##37
##38
##39
##4
##40
##41
##42
##43
##44
##45
##46
##47
##48
##49
##5
##50
##51
##52
##53
##54
##55
##56
##57
##58
##59
##6
##60
##61
##62
##63
##64
##65
##66
##67
##68
##69
##7
##70
##71
##72
##73
##74
##75
##76
##77
##78
##79
##8
##80
##81
##82
##83
##84
##85
##86
##87
##88
##89
##9
##90
##91
##92
##93
##94
##95
##96
##97
##98
##99
$
%
&
'
(
)
*
+
,
-
.
/
0
00
000
01
02
03
030
04
05
06
07
08
09
0909090909
1
10
100
1000
1003
101
102
1028
104
106
1063
107
1080
109
11
110
111
115
116
117
118
119
12
120
121
122
123
1236
124
125
126
128
1289
13
130
131
134
135
1361756
139
14
140
1436
1452
147
1487
15
150
1500
159
16
160
1600
1616
162
1620
1623
164
1653
1659
167
1670
1680
1688
169
1693
1697
17
170
1700
1703
1707
1720
173
1740
1748
175
176
177
1779
1780
1789
1790
1791
1795
1796
1798
1799
18
180
1800
1801
1803
1805
1806
1811
1813
1814
1815
1816
1817
1818
1819
1820
1821
1823
1826
1827
1829
1830
1833
1834
1835
1836
1837
184
1840
1843
1844
1846
1847
1848
1849
1850
1851
1852
1854
1855
1856
1857
1858
1859
1860
1861
1865
1866
1867
1868
1869
1870
1871
1872
1873
1874
1875
1876
1877
1878
1879
1880
1881
1882
1883
1884
1885
1886
1887
1889
1890
1891
1892
1893
1894
1895
1896
1897
1898
1899
19
190
1900
1901
1902
1903
1904
1905
1906
1907
1908
1909
1910
1911
1912
1913
1914
1915
1916
1917
1918
1919
1920
1921
1922
1923
1924
1925
1926
1927
1928
1929
1930
1931
1932
1933
1934
1935
1936
1937
1938
1939
1940
1941
1942
1943
1944
1945
1946
1947
1948
1949
1950
1951
1952
1953
1954
1955
1956
1957
1958
1959
1960
1961
1962
1963
1964
1965
1966
1967
1968
1969
1970
1971
1972
1973
1974
1975
1975127
1976
1977
1978
1979
1980
1981
1982
1983
1984
1985
1986
1987
1988
1989
1990
1991
1992
1993
1994
1995
1996
1997
1998
1999
2
20
200
2000
2001
2002
2003
2004
2005
2006
2007
2008
2009
2010
2011
2012
2013
2014
2015
2016
2017
2018
2019
2020
20200925125424
2021
2022
21
212
22
220
2244
225
226
227
2271
23
230
2321
2338
234
235
23591
238
24
240
2478
249
25
250
26
260
261
267
2685
27
270
276
2760
278
28
280
284
2861
29
298
299
3
30
300
3000
301
305
307
309
31
3100
311
316
32
320
3210
3237
324
3245
328
33
34
347
35
350
3528
3534
357
3581
36
3606
366
3666
367
3672
3673
3681
3699
37
3723
38
3801
383
3836
385
388
39
390
393
396
4
40
400
41
410
417
42
428
43
431
44
45
450
453
46
47
478
48
49
491
5
50
500
51
52
53
536
54
55
56
57
58
59
6
60
600
61
62
63
630
64
65
650
66
67
68
686
69
7
70
700
71
718
72
722
73
74
744987
75
750
76
77
770
78
79
8
80
800
81
82
83
84
846
85
850
87
88
89
9
90
900
91
912
92
93
94
95
96
964
97
972
978
98
99
:
;
<
=
>
?
@
\
^
_
`
a
aa
aabo
aaron
ab
aba
ababalulekileyo
ababamnkela
ababandezelekileyo
ababe
ababechasene
ababekhokele
ababephantsi
ababesele
ababesenza
ababezinze
ababhali
ababhinqileyo
ababini
ababizwa
abacinga
abaculi
abacus
abadala
abadlali
abafaka
abafana
abafazi
abafika
abafuna
abafunda
abafundi
abafundisi
abafuni
abafunyaniswe
abagqatswa
abagulayo
abagxothwa
abahamba
abahlala
abahlali
abahlanu
abahlobo
abahlolokazi
abajongene
abakhe
abakho
abakhulu
abakhweli
abakhwetha
abakuzo
abakwa
abakwizikolo
abalandela
abalandelayo
abalandeli
abaleke
abali
abalinganiswa
abaliqela
abalishumi
abaliswa
abaluleke
abalulekileyo
abamalunga
abamaninzi
abambalwa
abambe
abamele
abamelwane
abamelwe
abamhlophe
abamkeli
abamnyama
abamphoxayo
abanakwabo
abanalo
abanayo
abanazo
abancinane
abancinci
abanda
abandakanyekayo
abane
abanempilo
abanga
abangakwazi
abangama
abangamanina
abangamantombazana
abangaphaya
abangaphezu
abangaphezulu
abangavumiyo
abangazange
abangengabo
abaninzi
abanokuba
abanomlandu
abantetho
abantsundu
abantu
abantwana
abanyanisekileyo
abanye
abanyuliweyo
abanzi
abaphakathi
abaphambili
abaphandi
abaphathi
abaphengululi
abaphila
abaphilayo
abaphuma
abaphumeleleyo
abaqhankqalazi
abaqhele
abaqhuba
abaqikelelwa
abaququzeleli
abasebenza
abasebenzela
abasebenzi
abasebenzisa
abasele
abasemagunyeni
abasempilweni
abasetyhini
abasibhozo
abasithetha
abasixhenxe
abathandanayo
abathandathu
abathandayo
abathatha
abathathu
abathe
abathembu
abathetha
abathi
abathile
abathunywa
abatofwe
abatsha
abavela
abaxhasi
abaya
abaye
abayi
abayisebenzisayo
abaza
abazali
abazange
abazenzayo
abazibukeli
abazii
abazimeleyo
abaziwayo
abazizigidi
abazobi
abazukulwana
abbey
abboud
abc
abdomen
abe
abeka
abeke
abekelwe
abelungu
abemi
abengomnye
abengumntu
abenguni
abenza
abenzi
abercrombie
abesuthu
abeza
abhala
abhale
abhaliweyo
abhalwa
abhalwe
abhekisa
abhubhe
abizwa
abizwe
abkhaz
abkhazia
abkhazian
able
abo
abomvu
abona
abonakala
abonakale
abonakalise
abone
aboni
abonwe
abosulelekileyo
abosulelwe
about
above
abraham
abramovich
abramus
absent
absolute
absorbs
absorption
abstract
abuja
abulawa
abundance
abuse
abuye
abuyele
abuze
ac
academic
academy
acceleration
access
accessed
according
accounting
accreditation
accredited
accuracy
ace
acebise
acela
achaza
achievements
achukumise
acid
acidic
acids
acinga
acocekileyo
across
act
active
activist
activity
acton
actor
acts
actually
acule
acute
ad
ada
adam
adams
adapted
adder
addition
ade
adelaide
ademar
adi
adibana
adibane
adinga
adla
adlala
adlale
administration
admitted
adolf
adult
adume
adumileyo
aduru
advertiser
advocate
aerial
afakwe
afana
afe
afele
affairs
afika
afike
afikelela
africa
african
africans
afrika
afrikaans
afrikaner
afrikaners
afro
after
afternoon
afumana
afumane
afumaneka
afuna
afunde
afundwa
afune
afunekayo
afunxa
again
against
agalele
agasti
agcine
age
agency
agent
agents
ages
agnes
ago
agqibe
agqibele
agricultural
agriculture
aguila
aguqukileyo
aguqule
aguqulwe
agwetyelwe
agxininisa
ah
ahaetulla
ahamba
ahambe
ahh
ahlala
ahlale
ahlambe
ahlangane
ahlasele
ahlaziyekileyo
ahlukeneyo
ahlukile
ahlwempuzekileyo
ahmed
aid
aids
aiken
aip
air
airborne
aires
airport
ajikeleze
ajonge
ajongene
ak
aka
akabanga
akafani
akafuni
akakho
akakwazi
akalingani
akaphozisanga
akatsuki
akayi
akazange
akazizo
ake
akekho
akha
akhankanywe
akhawunti
akhe
akhelwe
akhethekileyo
akho
akholelwa
akhona
akhoyo
akhula
akhulu
akhulule
akhuphe
akhusele
akhuselekileyo
akhutshwa
akira
akowabo
akuba
akubaneminyaka
akubanga
akubona
akucetyiswa
akudala
akude
akudingeki
akufika
akufunekanga
akufuneki
akukabikho
akukho
akukhont
akukuphela
akule
akunani
akungawo
akungayinikwa
akunjalo
akunto
akunyanzelekanga
akunye
akusingawo
akuthethi
akuthi
akuva
akuyiyo
akuyo
akuzange
akuzizo
akwa
akwaba
akwabikho
akwantu
akwaye
akwazi
akwenza
akwi
al
ala
alabhama
alain
alan
alandelayo
alandelelana
alandelelanayo
alaskha
alawule
albanians
albert
albertina
alberto
alberts
albetina
album
albums
alchemy
alcohol
aldyr
ale
aleksandr
alele
alex
alexander
alexandra
alexandre
alexandria
alexis
alfred
algae
algebra
algebraic
algebras
algeria
algiers
algorithm
ali
alibale
alice
align
alignbars
alikho
alikwazi
alinayo
alinde
aline
alinganayo
aliqela
alishumi
aliwal
aliziva
alkali
all
allan
allen
alliance
allow
allowed
alloy
alloys
alo
along
alongside
alphabet
alphonse
already
also
alt
although
aluhlaza
alukho
alum
aluminium
alumni
alums
aluteketise
alveoli
alves
alwa
always
alwe
am
ama
amaafrika
amabakala
amabala
amabali
amabandla
amabanga
amabanjwa
amabhaca
amabhanti
amabhaso
amabhinqa
amabhulu
amabini
amabombo
amabomvana
amabritane
amabutho
amacala
amacandelo
amachiza
amacirha
amaculo
amacwecwe
amadabi
amadama
amadami
amade
amadeus
amadoda
amadodana
amafa
amafama
amafu
amafutha
amafutshane
amagama
amagcaleka
amagcina
amagcisa
amagosa
amagqabantshintshi
amagqabi
amagqala
amagqunukhwebe
amagumbi
amahlanu
amahlathi
amahle
amahlongwane
amahlubi
amahlwili
amajamani
amajelo
amajingqi
amajoni
amakhadi
amakhasi
amakhoboka
amakhonkco
amakhosi
amakhulu
amakhwenkwe
amakomkhulu
amalahle
amalawu
amalinda
amalinge
amalulwane
amalungelo
amalungiselelo
amalungu
amamfengu
amampondo
amampondomise
amanani
amancinane
amancinci
amanda
amandiya
amandla
amandulo
amane
amanesi
amangesi
amangqika
amanina
amaninzi
amanqaku
amanqanaba
amantombazana
amantombazane
amantshontsho
amanyathelo
amanye
amanyeneyo
amanz
amanzi
amapasi
amaphakathi
amaphandle
amaphawu
amaphepha
amaphondo
amaphupha
amapolisa
amaqanda
amaqela
amaqhalo
amaqhawe
amaqhinga
amaqhosha
amaqondo
amaqunube
amarharhabe
amaroma
amasaka
amasebe
amasele
amashishini
amashumi
amasiko
amasuntswana
amatanki
amathambo
amathandathu
amathanga
amathathu
amathe
amathemba
amathole
amathuba
amathumbu
amatikiti
amatsha
amatshantliziyo
amatyala
amatye
amatyeli
amava
amavo
amavundle
amawaka
amawele
amawenu
amawonga
amaxa
amaxabiso
amaxesha
amaxesibe
amaxhego
amaxhoba
amaxhosa
amaxwebhu
amayeza
amaza
amaziko
amazimba
amazing
amazinyo
amazon
amazulu
amazwe
amazwekazi
amazwi
ambalwa
amber
ambitious
ambrose
ame
amehlo
amele
amelwe
amen
amendu
america
american
amerika
amhlobhe
amhlophe
ami
amila
amino
aminyaka
amir
amisiweyo
amkele
ammonium
amnyama
among
amos
amount
amparo
amsterdam
amtsalela
amukerile
amundsen
amy
an
ana
anac
analog
analogue
analogy
analysis
analytical
anamabali
anamagama
anamashumi
ananye
anatole
anatomy
anayo
anc
anceda
ancede
ancestors
ancestry
ancient
and
andazi
andere
andersen
anderson
andibonanga
andina
andre
andreas
andrei
andrew
andries
andy
ane
aneminyaka
anesibhozo
anesibini
anesihlanu
anesine
anesithandathu
anesithathu
anesithoba
anesixhenxe
anetyuwa
anga
angaba
angabi
angade
angafaniyo
angafuni
angakhe
angakwazi
angala
angam
angama
angamanani
angamaqela
angamashumi
anganyanzelwa
angaphakathi
angaphambili
angaphandle
angaphantsi
angaphaya
angaphezu
angaphezulu
angasetyenziswa
angathi
angawapha
angazange
angcwele
ange
angekho
angel
angela
angeles
angena
angene
angiosperms
angle
angles
anglican
anglo
angola
angolan
ani
anikele
anikwa
anikwe
animal
animalia
animals
animation
anime
anjalo
anje
anjenge
ann
anna
anne
annie
annual
anokuba
anokubhalwa
anokufundwa
anos
another
anstey
antarctic
antarctica
antetho
anthem
anthology
anthony
anthropology
anti
antimony
anto
antoine
antoinette
anton
antonio
antony
antsundu
antwoord
anus
anxiba
anxulumene
any
anyuke
anzulu
aorta
aos
ap
apartheid
aph
apha
aphakamileyo
aphakathi
aphambili
aphantsi
aphatha
aphele
apheleleyo
aphendule
aphesheya
aphezulu
aphile
aphinde
apho
aphuma
aphume
aphumelele
aphuphuma
appeared
apple
application
applied
appointed
apprentice
approach
approximately
april
aprili
aq
aqala
aqale
aqalisa
aqhelekileyo
aqhubeke
aqhubele
aqinileyo
aqonde
aquinas
aquka
ar
arabhu
arabic
arc
archaea
archaic
archbishop
archibald
archimedes
archipelago
architects
archive
archived
arctic
are
area
areas
argentina
argentine
argument
arhente
aristocracy
aristotle
arithmetic
arlington
arms
armstrong
army
arnold
around
arp
arranged
arrest
arsenic
art
artemisinin
arterial
arteries
arterioles
artery
arthur
article
articles
artist
artists
arts
arun
as
asafumaneka
asakhasayo
asakhulayo
ase
aseafrika
asebenza
asebenzayo
asebenze
asebenzisa
asebenzise
asejamani
asekuhlaleni
asel
asele
aselula
asemantla
asematsha
asemazantsi
asemelika
asemzantsi
asenokubhalwa
asetyenziselwa
asetyenziswa
asetyenziswe
asexual
aseyurophu
asezantsi
ashe
ashiye
ashlag
ashley
asi
asia
asian
asibhozo
asikho
asikuko
asikwazi
asinakuthi
asindise
asinto
asixhenxe
asizamisi
ask
aso
asokuze
asoloko
aspx
assault
assembly
associated
association
astor
astrolabe
astronomical
astronomie
astronomy
asuka
asuke
aswan
asweleke
at
atatu
ataturk
athabatha
athabathe
athathe
athe
athengiswa
athetha
athethe
athi
athile
athle
athletics
athwalwa
athwalwe
atlantic
atlantika
atle
atletico
atmosphere
atom
atomic
atoms
atresia
atria
atrial
atrium
atshatileyo
atshintshe
atshiphu
atsho
attack
attacking
attended
attosecond
attrape
atya
atyelele
atyheli
au
audio
august
auguste
augustine
aureus
austin
austra
australasia
australia
australian
austria
author
authorities
authority
autism
auto
automated
automation
autotrophic
auxiliaries
auxiliary
av
available
avalelwe
avareji
ave
avela
avuke
avume
awadibana
awahlula
award
awarded
awards
awathi
awawafumana
awawushiyayo
away
awayelithanda
awayenza
awayeqhamke
awayesingisele
awayeyicaphukela
awayeyithanda
awayeze
awazenzayo
awaziwa
awo
awodwa
awona
awunayo
axabisa
axes
axis
ay
aya
ayadityaniswa
ayafana
ayakuba
ayakuthi
ayasetyenziswa
aye
ayeke
ayenzayo
ayesilwa
ayi
ayibale
ayibethwa
ayidaho
ayifumaneki
ayifunayo
ayigunqi
ayikho
ayikwazi
ayilibale
ayinakuba
ayinamandla
ayinambala
ayinancasa
ayinanto
ayinavumba
ayinazo
ayinto
ayinyibiliki
ayiphumelelanga
ayithi
ayityhefu
ayiyo
ayizange
ayliff
ayo
ayokufunda
ayowa
az
aza
azalana
azalwe
azama
azame
azange
aze
azi
azibandakanye
azibhalileyo
azibiza
azidingi
azifani
azii
azikho
azikwazi
azimeleyo
azimntakangqika
azisebenzi
azisoloko
aziwa
azizange
azo
azulazula
b
ba
baafunda
baaphumelela
baathi
baaxhela
baba
babandakanyekayo
babantu
babantwana
babazali
babbage
babe
babebukele
babecinga
babecula
babefuna
babehamba
babehlala
babehleli
babekho
babekwa
babenabantwana
babengamalungu
babengengobase
babenxibe
babephumelele
babesithi
babethi
babeyithanda
babeza
babhali
babini
babizwa
babizwe
babo
babona
babone
babonisa
babukela
babukhululekile
babuya
babuye
babuyela
babuyele
baby
bacele
bach
bachelor
bacinga
bacinge
back
bacon
bacteria
bacula
baculum
baculwe
bada
badala
bade
badibana
badityaniswe
badla
badlala
badplaas
bafa
bafaka
bafakwe
bafanele
bafazi
bafika
bafike
bafudukela
bafumana
bafumane
bafumaneka
bafumanisa
bafumene
bafuna
bafunda
bafunde
bafundi
bafune
bagcina
bagonywa
bahamba
bahlala
bahlale
bai
bailey
bajikelezise
bajonga
bajoyine
baka
bakaloliwe
bakamaqoma
bakarhulumente
bakayise
baker
bakha
bakhangele
bakhawuleza
bakhe
bakho
bakhokela
bakholelwa
bakhulele
bakhulelwa
bakhululwe
bakowabo
bakowenu
bakuba
bakufika
bakuthi
bakuzo
bakwa
bakwangoko
bakwazi
bakwenza
bakwenze
bakwicandelo
bala
balahleka
balance
balandela
balapha
bale
balfour
bali
balila
balizwa
balkan
ball
balo
balwa
bam
bamabritane
bamajamani
bamalunga
bamandla
bamandulo
bamane
bamanzi
bamaphondo
bamaroma
bamaxhosa
bamayebeyebe
bamazulu
bamazwe
bamba
bambalwa
bambeke
bambi
bamboo
bamisa
bamisela
bamsa
banabantwana
banakho
band
bandeirantes
bandla
banegunya
baneminwe
banesabelo
bangaphambili
bangaphandle
bangaphezulu
bangayilwela
bangayivotela
bangcwatyelwa
bangena
bangene
bani
banika
banikezela
baninzi
bank
banks
bantu
bantwana
banxiba
banzi
baobab
baphela
baphele
baphelela
baphendule
baphetha
baphile
baphinda
baphuma
baphumelela
baqala
baqale
baqhubeke
baqhulunqa
baquka
bar
baragwanath
barbara
barcelona
barium
bark
barker
barnes
barney
baron
barros
barry
baruch
baryons
base
baseafrika
basebenza
basebenze
basebenzisa
basebenzisana
basebenzise
basebritane
based
basejamani
basekhaya
basekhayelitsha
basekuhlaleni
basel
basela
baselokishini
basemazantsi
basemelika
basemhlabeni
basempuma
basemzantsi
basemzini
basentshona
basentshwana
baseroma
bases
basetranskayi
basetyhini
baseyunayithedi
baseyurophu
basic
basin
basis
baskin
baso
basoloko
basuka
basuke
bat
bates
bath
bathandaze
bathatha
bathathe
bathathu
bathathwe
bathe
bathenge
bathetha
bathethe
bathi
batho
bats
batshate
batsho
batteries
battle
battlefield
batye
batyelela
bavela
bavele
bavuke
bavula
bawa
bawo
bawuthanda
baxela
baxhentsa
bay
baya
bayadityaniswa
bayakuphuma
bayakwazi
bayamnkele
bayathanda
bayazi
baye
bayibukele
bayithiya
bayo
bayoloji
baza
bazalwa
bazama
baze
bazibandakanya
bazibiza
bazibona
bazibone
bazifumanela
bazimanya
bazive
baziwa
bazo
bazonyanzelwa
bbc
bc
bd
be
beach
bead
beam
bean
bear
beard
beast
beatrice
beaufort
beautiful
beauty
bebanga
bebe
bebedla
bebesithi
bebeto
bebhola
bebizwa
bebodwa
bebonke
bebonwa
becala
became
becandelo
because
bechuanas
becinga
become
becomes
bed
beddoes
bedibene
bedlala
bee
been
beengingqi
beer
bees
befika
before
befumana
befuna
befunda
befundisi
began
begin
begins
begula
behamba
behambe
behaviour
behlabathi
behlala
being
bekhula
bekhulile
bekhuselekile
bekufuneka
bekukho
bekungenziwa
bekunjalo
bekunye
bekusithi
bekusithiwa
bekusoloko
bekuthi
bekuye
bekwenza
bel
bela
belafonte
belali
belanga
belawula
bele
belgium
beli
belisoloko
belizwe
belizwekazi
bell
bella
belo
bema
bematriki
bemfazwe
bemini
bemithi
bemka
bemke
bemveli
ben
benani
bench
bencokola
bendinodliwano
bendoda
benedict
bengafuni
bengqisha
benito
benjamin
bennett
bennie
benson
bent
bentley
bento
benu
benza
benze
benziwa
bephethe
bephupha
beplanethi
beqela
berg
berger
berkeley
berlin
bernard
bernardt
berne
bernstein
berry
bertrand
beryl
bes
bese
besebenza
besebenzisa
besenza
besi
besiba
besibini
besidla
besifo
besilwa
besingaqhelekanga
besintu
besisu
besithi
besitsho
besiva
besixhosa
besiya
besizwe
besoyika
best
besuka
bethatha
bethe
bethelsdorp
bethetha
bethu
bette
between
bevele
bewazi
bewela
bexesha
bey
beyers
beyond
beza
bezahlula
beze
bezempilo
bezinto
bezise
bezisoloko
bezizwe
bezopolitiko
bezulu
bhaka
bhanya
bhanyabhanya
bhaso
bhayi
bhele
bhiliyoni
bhola
bhotwe
bhubhane
bhukula
bhulorho
bhuti
bi
bible
bibliography
bibliotheken
bicarbonate
big
biko
bile
biliary
bill
billion
billy
binary
bing
biochemistry
biography
biological
biology
biome
biota
biotic
bird
birds
birkenhead
birth
births
bisi
bismuth
bisulfate
bisulfates
bit
bitesize
bits
bizana
bizet
bk
black
blackface
blair
blanc
bloemfontein
blog
blood
bloubergstrand
blue
bo
board
boast
bob
bobabini
bobby
bobona
bobubi
bobukoloni
bobuso
bodadeka
bodwa
body
boer
boerewors
bohr
bois
bojaxhi
bokubhaca
bokuqala
bokwe
bold
boleyn
bolivia
boloka
boloke
boluntu
bolwandle
bomamkeli
bombela
bombutho
bomculo
bomgangatho
bomhlaba
bomi
bomntu
bomntwana
bomthi
bomvu
bomyeni
bomzantsi
bomzimba
bon
bona
bond
bonds
bongeze
bonke
bono
book
books
boomaqaba
bophando
boris
born
boron
bosapho
bose
bosna
bosnia
boss
boston
bosulelekileyo
both
botha
bottom
bourg
bowles
box
boyiswa
boys
br
braai
bracken
bradley
bragantino
brain
branch
brand
brandt
brasil
brasileiro
brass
braun
brazil
brazilian
breakfast
brenda
brian
bridge
brilliant
brinco
bristol
britain
britane
britannia
britannica
british
broadband
broadcast
broederbond
bronte
bronze
brooke
brooks
brother
brothers
brought
brown
browne
browning
brownlee
bruce
bruno
bryan
bryant
bu
bub
bubonakala
bubonisa
bucala
buchanan
buchaza
buchopho
buchule
buddha
budlelwane
budlulisileyo
bueno
buffalo
buhle
buhlobo
building
buildings
built
buka
bukamichelangelo
bukanoni
bukhawuleze
bukho
bukhosi
bukhulu
bukumkani
bulelani
bulgaria
bulgarian
bulgarians
bull
bulletin
bumalunga
bumnyama
bun
bundle
bune
bungabibuhle
bungakanani
bungama
bungcali
bungekho
bungqina
bunyan
buonarroti
buphakathi
buphi
buphinda
bureau
burger
burgess
burnham
burning
burniside
burns
burr
burroughs
bursa
burton
bush
bushmen
business
busuku
but
buthelezi
butler
buxhomekeka
buxoki
buya
buyelekhaya
buyisa
buza
by
byrd
byrne
c
ca
cable
cables
cabot
cachalia
caesar
cafe
cage
cala
calcium
calculation
calculator
calculators
calculus
caledon
california
call
called
calulo
calvin
cambridge
came
cameron
camp
campbell
campeonato
campinas
campus
can
canada
canal
canary
candelo
candida
candidiasis
canine
cannibalism
cannibals
canva
canzibe
cao
capable
cape
caphu
capillaries
capillary
capital
captured
carbohydrates
carbon
card
cardiac
cardinal
cards
careca
career
carey
cargo
carl
carlo
carlos
carlson
carlyle
carmen
carnivore
carnivores
carol
carolina
caroline
carolus
carolyn
carpenters
carrie
carroll
carrying
carson
carter
cartons
casanova
cash
cassinga
cast
castle
castro
cat
cata
catarina
catarinense
cate
category
catholic
cattle
caucasus
causa
cause
caused
causes
cava
cavades
cbd
cbf
cc
ce
cecil
cell
cells
cellular
cellulose
celtic
cemetery
census
centenario
center
centers
centimeter
central
centre
centres
century
ceremony
certain
cervantes
ch
chain
chaka
chalmers
chambers
champion
champions
championship
championships
chancellor
chancellors
change
changed
chaplin
chapman
chapter
charcoal
charge
charged
charles
charlie
charlotte
charter
charts
chatha
chatham
chaucer
che
chemical
chemicals
chemistry
chenodeoxycholic
chess
chester
chetnik
chetniks
chi
chicago
chicken
chief
chiefs
child
children
chile
china
chinese
chloride
chlorine
choanal
choir
cholera
cholesterol
chris
christ
christiaan
christian
christianity
christina
christmas
christoph
christopher
chrome
chromium
chromosome
chromosomes
chu
chuang
chuck
chungwa
church
churches
churchill
cia
ciccone
cid
cinga
cipher
circuit
circulation
circulatory
circumference
ciskei
cite
cities
citizens
city
cl
cla
clan
clans
clark
classes
classic
classical
claude
claus
clav
clay
cle
clear
cleidoic
clement
click
climate
climbing
clinical
clinton
clock
clockwise
clone
cloning
close
clothes
clouds
clough
club
clube
clubs
clyde
cm
cnn
co
coach
coached
coast
coat
coatings
cobalt
cobar
cochrane
code
coffee
cohen
cold
cole
colenso
colin
collected
collections
college
colleges
collier
collins
colombia
colonel
colonial
colony
color
colors
colour
columbia
column
com
comary
combination
combustion
come
comedy
comes
commentators
commerce
commercial
commission
committee
common
commonly
commons
commonwealth
communist
communities
community
commutative
companion
company
compare
competition
competitions
competitive
complement
complete
complex
component
components
composed
composite
composition
compositions
compound
compounds
computer
computers
computing
compyutha
conan
concentration
concepcio
concept
conde
condenses
condition
conditions
conduction
conductor
conductors
confederation
confederations
conference
confucius
congo
congress
conmebol
conrad
consciousness
consecutive
conservatism
conservative
constand
constant
constantine
constitution
constitutional
contact
contain
containing
contains
contemporary
content
continents
control
controlled
controls
controversial
convention
conway
cook
cooking
cool
cools
cooper
cooperation
copa
cope
copper
copy
core
corea
corkscrew
corn
cornelius
cornell
coronavirus
corporation
correa
correct
corrugated
cory
costa
costalago
could
council
count
counterclockwise
countries
country
county
course
courses
court
courtney
coutinho
cov
covid
cow
cox
cpsa
craik
crane
crate
crates
cre
cream
created
credit
creighton
crescent
cricket
crime
croa
croatian
cropped
crosby
cross
crown
crust
cry
crystal
crystalline
ct
cuisine
cullen
culo
cultural
culture
cultures
cum
cunningham
cup
cups
current
cursor
curtis
curve
cusp
cut
cutaneous
cwaka
cwecwe
cyanobacteria
cyanosis
cycle
cylinder
cypher
cyril
cyrillic
cyte
czech
czechoslovakia
d
da
dabi
daily
daisies
daisy
dala
dalai
dale
dalindyebo
daliwonga
daly
dam
dan
dance
daniel
daniels
danny
dare
dari
dark
das
dat
data
database
date
dated
dateformat
daughter
dave
david
davis
day
days
dc
de
dead
dean
death
deaths
deborah
debut
decafluoride
decay
december
decimal
decker
defeating
defenders
defensive
definition
degree
degrees
del
democracy
democratic
denis
denominator
dense
department
departments
dependent
der
derby
derek
derived
des
descartes
descendants
description
descriptions
desert
design
designed
designer
desmond
destech
destiny
detachments
detection
detectors
development
device
devices
devlin
deyi
dfb
di
diagonal
diagonals
diagram
dialect
dialects
diameter
diamond
diana
diastole
dibanisa
dicalcium
dick
dickinson
dickson
dictionary
did
die
died
diego
dies
diesel
diet
dieter
difference
differences
different
diffusion
digest
digestion
digestive
digit
digital
digits
digraphia
dikoye
dimension
dimensions
dinah
dinamo
dinitride
dintwa
dio
dioxide
diploid
diploma
direction
directions
directly
disallowed
disaster
discography
discourse
discovery
discussion
disease
diseases
disemba
dish
disney
displacement
display
disputed
distance
distances
distinct
distribution
district
disulfide
disulfur
dividend
diving
divisio
division
divisor
dixon
diya
dj
dlala
dlamini
dlomo
dna
do
docs
doctor
doctoral
document
does
dog
dogg
doi
doke
dolophana
dolophu
domestic
don
donald
donations
done
dordrecht
doris
dorothy
dos
double
douglas
douglass
down
download
doyle
dr
dragonball
drake
drama
drawn
dream
dreamer
dreams
dried
drive
drives
droplets
drug
drugs
drums
du
duane
duathlon
dube
dubois
dudes
dudley
duke
dunga
dunn
duodenum
durban
during
dutch
dutywa
dylan
dynamics
dyunivesithi
dzanibe
e
ea
each
eafrica
eafrika
eamerika
earl
earliest
early
earned
earth
eartscape
easia
easiya
east
eastern
eat
eaustralia
eba
ebakhwetheni
ebalaseleyo
ebaleni
ebalisa
ebaluleke
ebalulekileyo
ebanda
ebandakanya
ebangela
ebangladesh
ebantwaneni
ebantwini
ebaxter
ebe
ebebefanelwe
ebedla
ebehlala
ebekelwe
ebekufanele
ebekwe
ebelikhokelwa
ebengumbhali
eberlin
ebesithi
ebesoloko
ebethi
ebeye
ebezisoloko
ebhala
ebhaliweyo
ebhalwe
ebhayi
ebhekisa
ebhodini
ebhofolo
ebibanjwe
ebibonakala
ebisoloko
ebiza
ebizwa
ebloemfontein
ebola
ebomini
ebomvu
ebona
ebonakala
ebonakalayo
ebonakalisa
ebonisa
ebotswana
ebrazil
ebritane
ebritani
ebuchotsheni
ebudaleni
ebudeni
ebudodeni
ebuenos
ebuhlanti
ebuhlungu
ebukhosini
ebumnyameni
ebuntwaneni
ebuqina
ebusika
ebusuku
ebusweni
ebutsheni
ebuyela
ebuyile
ebuza
ecace
ecacileyo
ecaleni
ecalifornia
ecanada
ecand
ecannes
ecape
ecawa
ecaweni
ecela
ecetywayo
echaza
echazwa
echibini
echicago
echile
echina
ecinga
eco
ecocekileyo
ecology
economic
economics
economy
ecosystems
ecroatia
ecuador
ecuadorians
ecula
ecwangcisiweyo
ed
edabini
edala
edalwe
eden
edgar
edibana
edibanisa
edibene
edie
edikeni
edinburgh
edirne
edit
edited
edith
edition
editor
edla
edlala
edlalwa
edlulileyo
edmund
edola
edolophini
eds
edu
eduardo
education
educational
edume
edumileyo
edutywa
edward
edwards
edwarts
edwin
ee
eegrams
eekhemikhali
eekhilomitha
eekm
eelwimi
eemayile
eembali
eemitha
eencwadi
eendaba
eengoma
eentlobo
eenwele
eeurope
efana
efanayo
efanelekileyo
effect
effective
efihlakeleyo
efihliweyo
efikile
efile
eflorence
efort
efrance
efransi
efumana
efumaneka
efuna
efunda
efundileyo
efundisa
efuneka
efunekayo
egama
egameni
egauteng
egazi
egazini
egcina
egcuwa
egg
eggs
eghana
egolgotha
egoli
egqiba
egqibeleleyo
egqorha
egraaff
egula
egwali
egxile
egypt
ehaiti
ehamba
ehambisa
ehankey
ehlabathi
ehlabathini
ehlala
ehlangula
ehlathini
ehleli
ehlonitshwa
ehlotyeni
ei
eight
eighteen
ein
einjahr
einstein
either
ejamani
ejapan
ejele
ejikeleze
ejiphethe
ejiyileyo
ejoe
ejohannesburg
ejolise
ejonge
ejongene
ek
ekanada
ekapa
ekatala
ekhanya
ekhanyayo
ekhatywayo
ekhay
ekhaya
ekhayelitsha
ekhayeni
ekhethekileyo
ekho
ekhohlela
ekhohlo
ekholelwa
ekhompyutha
ekhondweni
ekhoyo
ekhula
ekhululekileyo
ekhuphisana
ekhusela
ekhusini
ekhuthaza
ekhutshwe
ekhwaza
ekhwela
ekhwele
ekimberley
eklabhu
ekoloni
ekroonstad
ekrwada
eku
ekubambeni
ekubeni
ekubhaleni
ekubhalwa
ekubizwa
ekuchaseni
ekucingwa
ekudalweni
ekudibaneni
ekufeni
ekufezekiseni
ekufikeni
ekufuneka
ekufuphi
ekufutshane
ekugqibeleni
ekugwebeni
ekuhambeni
ekuhlaleni
ekukhanyeni
ekukholelwa
ekukhuleni
ekukhutshweni
ekukuphela
ekulweni
ekumbindi
ekumila
ekunciphiseni
ekunene
ekungekho
ekungeneni
ekungeniseni
ekunqandeni
ekunyanzelisweni
ekunye
ekunyinweni
ekunyuseni
ekunzima
ekupheleni
ekuphilwa
ekuphunguleni
ekuqaleni
ekurhuleni
ekuruman
ekusebenziseni
ekuseni
ekusetyenziswa
ekusileni
ekuswelekeni
ekuthabatheni
ekuthanda
ekuthi
ekuthini
ekuthinjweni
ekuthinteleni
ekuthiwa
ekutyeni
ekuveliseni
ekuvukeni
ekuyiloo
ekuyo
ekuziqhelelaniseni
ekwabelwana
ekwabizwa
ekwakusithiwa
ekwangumbhali
ekwanguye
ekwawongwa
ekwazi
ekwaziyo
ekwenzeni
ekwenziwa
ekwi
ekwindla
ekwizinga
el
ela
elakhokhelela
elalibizwa
elalini
elaliphila
elandela
elandelayo
elandelwa
elandelwayo
elanga
elangeni
elapha
elaphela
elathi
elawula
elaziwa
elder
eleanor
elected
election
electric
electrical
electricity
electromagnetic
electrometer
electron
electronic
electronics
electrons
elele
element
elementary
elements
elenza
elenziwa
elephant
elesibini
eleven
eleventh
eli
elibalaseleyo
elibalulekileyo
elibhalwe
elibhekisa
elibi
elibizwa
elibode
elibomvu
elibonakalayo
elichasene
elide
elidibanisa
elidlulileyo
elifanayo
elifanelekileyo
elifumaneka
elifutshane
eligama
eligaqa
elihle
elijah
elijongene
elikhethekileyo
elikhoyo
elikhulu
elikhululekileyo
elikomkhulu
elilandelayo
elilawulayo
elilodwa
elimanzi
elimdaka
elimele
elimhlophe
eliminated
elimisiweyo
elimnyama
elinamakhulu
elinamandla
elinambini
elinanye
elincinane
elincinci
elindelekileyo
eline
elineshihloko
elinesibhozo
elinesibini
elinesihlanu
elinesihloko
elinesine
elinesithandathu
elinesithathu
elinesithoba
elinesixhenxe
elinethoba
elingama
elingaphezu
elingaphezulu
elingenambala
elingu
elingummangaliso
elingwevu
elinikwa
elininzi
elinjalo
elinolwazi
elinye
eliot
eliphakathi
eliphambili
eliphantsi
elipheleleyo
eliphezulu
eliphinda
eliqanda
eliqela
eliqhalo
eliqhelekileyo
elisabeth
elise
elisebenza
elisemthethweni
eliseoceania
elisetyenziswa
elishumi
elishuni
elishushu
elisiko
elisisiphumo
elisuka
elithanda
elithe
elithetha
elithi
elithile
elithoba
elitsha
elityhutyha
elivela
elivisayo
elivuselela
elixabiso
eliya
eliyi
eliyintloko
eliyolisayo
elizabeth
elizayo
elizimeleyo
elizinze
elizwekazi
elizweni
ellen
ellinor
elliot
elliotdale
elliott
ellison
elo
elohim
elokishini
elokuqala
elolu
elona
elondon
elovedale
elu
elubala
elubhacweni
eluhlaza
eluhlobo
eluhlwini
elula
elulutsha
elunge
elungele
elungileyo
eluntwini
elusuthu
eluswini
eluvalelweni
elvis
elwandle
em
emacaleni
emadodeni
emafini
emagqabini
emagqunukhwebeni
email
emakhaya
emakhayeni
emakufundwe
emakusetyenzwe
emalunga
emampondweni
emana
emandla
emandulo
emantla
emanuel
emanyeneyo
emanzi
emanzini
emaphandleni
emaputo
emaqanda
emariazell
emasimini
emathunjini
emaxhoseni
emayilandelwe
emazantsi
emazweni
embala
embalini
embalwa
embeleni
embi
embindini
embokweni
emboneni
embryo
embuthweni
embzimbeni
emculweni
emdaka
emdala
emdlalweni
eme
emehlweni
emele
emelene
emelika
emerson
emexico
emfazweni
emfundo
emfutshane
emgqubeni
emhlabeni
emhlophe
emi
emibini
emicimbini
emidala
emide
emidlalo
emihlanu
emihle
emikhulu
emile
emilenzeni
emilia
emilisiweyo
emily
emincinane
emine
eminem
emini
emininzi
eminyaka
eminye
emiphungeni
emisebenzini
emission
emithandathu
emithathu
emithini
emitshatweni
emizimbeni
emke
emkhosini
emkhulu
emlanjeni
emlilweni
emlonyeni
emlungwini
emma
emnandi
emngxumeni
emnqamlezweni
emntla
emntwaneni
emntwini
emnyama
emnyameni
emnye
emonti
emount
emoyeni
emperor
emphatic
empilweni
empire
employed
empofu
empuma
empumalanga
empumelelweni
emqaleni
emsebenzini
emtee
emthatha
emthethweni
emthini
emtshatweni
emva
emveli
emveni
emxholweni
emzantsi
emzimbeni
emzini
en
enabantu
enama
enamandla
enanda
enatal
encangathi
encediswa
encinane
encinci
encrypted
encryption
encyclopedia
encyclopædia
end
endala
endalweni
endandikhule
endaweni
ende
endinyaniseke
endisuka
endle
endleleni
endlini
endlu
endlwini
endocrine
endogenous
endoi
endwendwela
ene
eneempawu
eneminyaka
eneneni
enenjongo
energy
enesihloko
enetherlands
enevumba
enew
eng
engabonakaliyo
engafuni
engalunganga
engama
engamanzi
engamashumi
enganampilo
enganelisiyo
engange
engaphandle
engaphantsi
engaphaya
engaphezulu
engaqhelekanga
engaqondakaliyo
engasebenzisi
engasentla
engazange
engazi
engaziwayo
engcinezelo
engcobo
engcono
engcwele
enge
engekho
engena
engenabungozi
engenakhaya
engenakwenzeka
engenambala
engenanto
engenazo
engene
engento
engenzi
engeyiyo
engeyoyaseyurophu
engezantsi
engezontsika
engilandi
engilane
engilani
engine
engineering
england
english
engomnye
engqokolela
engqondo
engqondweni
engqongwe
engqushwa
engu
engumbalisi
engumbhali
engumkrestu
engummangaliso
engumntu
engumshumayeli
engumzekeliso
engundoqo
engutitshala
enika
enikezele
eninzi
enjalo
enje
enjenge
enjenje
enjoy
enkanti
enkcubeko
enkomo
enkosi
enkosini
enkulu
enkundleni
enlarge
enoch
enokunikwa
enokusetyenziswa
enokwenzeka
enomahluko
enqabarha
enrolled
enrollments
ensemble
entabeni
entangeni
entanyeni
enter
entertainer
entertainment
entetho
entethweni
entilongweni
entla
entlango
entle
entliziyweni
entloko
ento
entolongweni
entsha
entshona
entshwana
entweni
enu
enuka
environment
environmental
enxibe
enxulumene
enyakeni
enyama
enyanisekileyo
enyanisweni
enye
enyibilika
enyuka
enza
enze
enzima
enziwa
enziwe
enzululwazi
enzymes
eoliver
eostriya
ep
epacaltsdorp
epalamente
epapashwe
eparis
epeli
eperu
ephakamileyo
ephakamisa
ephakathi
ephambili
ephantsi
ephathekayo
epheleleyo
ephepheni
ephethe
ephethwe
ephezulu
ephidemikhi
ephila
ephilayo
ephilileyo
ephilipois
ephindwa
ephulo
ephum
ephuma
ephumelele
ephupheni
epic
epitoli
epoland
epolokwane
eport
epotchefstroom
epreli
eqala
eqaqambisa
eqatha
eqhelekileyo
eqingqiweyo
eqinileyo
eqinisekise
eqonce
eqonda
eqongeni
equal
equals
equation
equations
equator
equka
equlethe
era
erashiya
erasmus
erhafu
erhangqwe
erhawutini
erhini
eric
erica
erio
erizona
ermelo
ernest
ernesto
ernie
ernst
erobben
erwin
erythrina
es
esabangela
esahlukileyo
esaint
esakha
esakube
esakufumana
esalusa
esanda
esangezelelweyo
esaphila
esasibizwa
esasingxamisekile
esasisaziwa
esaziwa
esco
escotland
ese
esebenza
esebenzela
esebenzisa
esekapa
esekelwe
esekwe
esele
eselula
eselunxwemeni
esemazantsi
esembindini
esemgangathweni
esemncinane
esemoyeni
esempilweni
esempuma
esemthethweni
esemzimbeni
eseneminyaka
esenga
esengumntwana
esentshona
esenza
esenziwa
esenziwe
esetyenziswa
esetyenziswayo
eseyinkwenkwana
esezantsi
eshibhini
eshiya
eshumayela
eshushu
esi
esiba
esibalulekileyo
esibangelwa
esibhakabhakeni
esibhedlele
esibhozo
esibindini
esibizwa
esidala
eside
esidla
esidlangalaleni
esifa
esifana
esifubeni
esifumana
esifutshane
esigrike
esihambisa
esihambisayo
esihla
esihlahleni
esihlala
esihlalweni
esihle
esihloko
esikalini
esikhoyo
esikhulu
esikhumbeni
esikhwenene
esikolweni
esikutyayo
esikwabizwa
esilandelayo
esilwa
esimelwe
esimile
esinamandla
esincinane
esineempawu
esinga
esingangeminyaka
esingathi
esingesi
esingesini
esingu
esingxamiseileyo
esintsundu
esinye
esiphakamileyo
esiphakathi
esiphefumlayo
esiphelweni
esiphezulu
esiphila
esiphilayo
esiphungulayo
esiqinileyo
esiqithini
esisebenza
esisemthethweni
esisetyenziswa
esisikolo
esisiseko
esisoloko
esisuka
esiswini
esithe
esithethwa
esithi
esithile
esithiya
esitsha
esitsho
esitshwezwe
esivela
esivulekileyo
esixekweni
esixhathisa
esixhenxe
esixhosa
esixhoseni
esiya
esiyakumphindaphinda
esiye
esiyi
esiza
esizibona
esizikithini
esizwe
esli
eso
esoloko
esolusa
esona
esosulelayo
esowetho
esoweto
esoyika
espain
essential
est
esta
establish
established
estate
esuka
esuke
esunday
esuthwini
eswatini
eswaziland
eswelekile
eswitzerland
et
etabankulu
etc
etempileni
ethaba
ethambileyo
ethanda
ethandwa
ethandwayo
ethanjeni
ethapholisi
ethatha
ethe
ethekwini
ethengisa
ethengisela
ethengiswa
ethetha
ethethwa
ethethwayo
ethi
ethile
ethintelwa
ethu
ethuleyo
ethuthurha
ethwala
etokyo
etranskei
etransvaal
etshayina
etyheli
etyhume
etymology
eu
euclid
euganda
eugene
eukaryotes
eukaryotic
euler
eunited
europe
european
evan
evana
evans
evela
evelisa
eveliswe
evelyn
even
evenezuela
events
eventual
ever
everett
every
everything
evidence
evolution
evulekileyo
evumela
ewales
ewashington
ewayefuna
ewe
ewisconsin
ewits
ewonke
ewuhan
ex
example
examples
exchange
exelela
exesi
exeter
exhaphake
exhaphakileyo
exhasa
exhukwane
exile
express
expressions
extinct
extraction
extreme
extremely
eya
eyaba
eyabangela
eyadlulayo
eyafunyanwa
eyahlukeneyo
eyahlukileyo
eyakhe
eyakhiwe
eyakho
eyakhutshwa
eyakuthi
eyalanayo
eyalelwa
eyapapashwa
eyaqala
eyathi
eyathiywa
eyayibhalwe
eyayibizwa
eyayichasene
eyayihamba
eyayingentle
eyayingo
eyayingonyaka
eyayiphakathi
eyayisakuba
eyayisaya
eyayisaziwa
eyayise
eyayisele
eyayisesoweto
eyayitshisa
eyayo
eyaziwa
eyaziwayo
eye
eyedwa
eyedwarha
eyekhala
eyenkanga
eyenye
eyenza
eyenzeka
eyenzekayo
eyenzelwe
eyenziwa
eyenziwayo
eyenziwe
eyenziweyo
eyesibini
eyesilimela
eyesithathu
eyethupha
eyeyibangelwa
eyi
eyijiya
eyile
eyimbongi
eyimvumi
eyindumasi
eyingozi
eyinikwe
eyinkosi
eyinkunzi
eyintlekele
eyintloko
eyinto
eyityhefu
eyiyo
eyobuhlobo
eyodwa
eyokubuyisa
eyokukhapha
eyokuqala
eyokwindla
eyomdumba
eyomeleleyo
eyomileyo
eyomnga
eyomqungu
eyomsintsi
eyona
eyonanto
eyongameleyo
eyosulelayo
eyugoslavia
eyunivesithi
eyurophu
ez
eza
ezaba
ezahlukeneyo
ezahlukileyo
ezakhe
ezalelwa
ezalwa
ezama
ezamashumi
ezambia
ezanda
ezandleni
ezantsi
ezanyisayo
ezathi
ezaye
ezayo
ezazimi
ezazisaziwa
ezazisenza
ezazisoloko
ezazisukuba
ezazivela
ezaziwa
ezaziwayo
eze
ezele
ezelwe
ezemfundo
ezemidlalo
ezempilo
ezenza
ezenzeka
ezenzelwe
ezenziwa
ezenziwayo
ezenziwe
ezenzululwazi
ezi
ezibala
ezibaluleke
ezibalulekileyo
ezibandakanya
ezibangela
ezibangelwa
ezibe
ezibhabhayo
ezibhedlele
ezibi
ezibini
ezibizwa
ezibomvu
ezibonakala
ezibonakalayo
ezibonakalisa
ezibonisa
ezibuhlungu
ezibukhanya
ezibuthathaka
ezicace
ezichaphazela
ezichaphazelekayo
ezichasene
ezichongekayo
ezichongiweyo
ezicocekileyo
ezidala
ezidaleka
ezidalwe
ezide
ezidibene
ezidla
ezidluliseka
ezidolophini
ezidweliswe
ezifana
ezifanayo
ezifanele
ezifanelekileyo
ezifileyo
ezifumaneka
ezifuna
ezifunda
ezifunwa
ezifunyanwa
ezigidi
ezihamba
ezihlala
ezihlelelekileyo
ezii
eziitshatsheleyo
ezijikeleza
ezijikeleze
ezijolise
ezijoliswe
ezijongene
ezikhathazayo
ezikhethekileyo
ezikhoyo
ezikhucula
ezikhula
ezikhulu
ezikhuselekileyo
eziko
ezikolweni
ezikude
ezikufutshane
ezikulomdibaniso
ezikumgangatho
ezikumila
ezikuyo
ezikwaziyo
ezikwelasemaxhoseni
ezikwi
ezikwintlobo
ezilahlekileyo
ezilalini
ezilawula
ezilayisha
ezili
ezilikomkhulu
ezilinganayo
eziliqela
ezilishumi
ezilithoba
ezilokishini
eziluhlaza
ezilula
ezilungileyo
eziluthoba
ezimalunga
ezimandla
ezimanyeneyo
ezimbabwe
ezimbalini
ezimbalwa
ezimbi
ezimbini
ezimdaka
ezimeleyo
ezimfutshane
ezimhlophe
ezimi
ezimile
ezimnyama
ezimpawu
ezinamandla
ezincancisayo
ezincinane
ezincinci
ezincomekayo
ezindala
ezinde
ezindlini
ezindlwini
ezine
ezinee
ezineempawu
ezinefuthe
ezinethambo
ezinga
ezingabonakaliyo
ezingachongekiyo
ezingafanelekanga
ezingafaniyo
ezingafunekiyo
ezingama
ezingamakhulu
ezingamanina
ezingamanzi
ezingamashumi
ezingaphantsi
ezingaphaya
ezingaphezu
ezingaphezulu
ezingasebenziyo
ezingathethi
ezingekho
ezingena
ezingenakubalwa
ezingenalo
ezingendalo
ezingqamanayo
ezingqonge
ezingundoqo
ezingxamisekileyo
ezinika
ezininzi
ezinjalo
ezinje
ezinjenge
ezinkosini
ezinkulu
ezinobom
ezinobomi
ezinokudala
ezinokufumaneka
ezinokusetyenziswa
ezinomsila
ezintabeni
ezintandathu
ezintathu
ezintlanu
ezintle
ezinto
ezintsha
ezintsonkothileyo
ezintsundu
ezinxulumene
ezinxulumeneyo
ezinye
ezinyibilikayo
ezinze
ezinzima
ezinzulwini
ezipalini
eziphakamileyo
eziphambili
eziphantsi
eziphatheka
eziphefumlayo
eziphezulu
eziphila
eziphilayo
eziphilileyo
eziphuhla
eziphuma
eziqhelekileyo
eziquka
eziququzelelwe
ezirhubuluzayo
ezisebenza
ezisebenzayo
ezisebenzisa
ezisegazini
ezisemaphandleni
ezisemhlabeni
ezisemthethweni
ezisesidlangalaleni
ezisetyenziselwa
ezisetyenziswa
ezisetyenziswayo
ezishiyekileyo
ezishushu
ezisi
ezisibhozo
ezisingqongileyo
ezisisiseko
ezisixhenxe
ezisoloko
ezisuka
ezithandwa
ezithandwayo
ezithatha
ezithathwe
ezithe
ezithengisa
ezithetha
ezithethi
ezithethwa
ezithethwayo
ezithi
ezithile
ezithwala
ezithwalwa
ezityiwayo
ezivaliweyo
ezivela
ezivulekileyo
ezivumela
ezixhaphakileyo
ezixhathisayo
eziya
eziyakuthi
eziye
eziyeleleneyo
eziyi
eziyimfuneko
eziyingozi
eziyingqongileyo
eziyingxaki
eziyityhefu
ezizayo
ezizigidi
ezizii
ezizimeleyo
ezizinto
ezizitho
ezizizigidi
ezizizo
ezizodwa
ezizwe
ezo
ezobupolisa
ezolimo
ezomeleleyo
ezomileyo
ezona
ezonto
ezonwabisayo
ezophando
ezopolitiko
ezosulelayo
ezotywe
ezulwini
ezweni
f
fa
faced
fact
factors
faculty
faith
faka
faku
falciparum
falcon
fame
family
fan
fandesi
fanny
fanon
fans
far
farjeon
farm
farmers
farming
faso
fassie
fast
fat
father
fats
fatty
fauna
favors
fc
fe
fear
feature
february
feces
federalism
federalists
federation
federico
fedise
feel
feldman
feldspar
felipe
fellow
female
females
femur
fenerbahc
fenerbahce
ferdinand
ferguson
fern
fernando
ferrell
fertilisation
fertilize
festival
fet
fever
few
fi
fiber
fiction
field
fields
fifa
fifuroni
fig
fighting
figures
file
filimu
film
final
finals
find
fine
finished
finite
fiona
fire
firefox
first
fischer
fish
fisher
fitzgerald
five
fiziki
fl
flag
flash
flashes
flats
flavor
flesh
fletcher
flora
florida
flourished
flow
flower
flowering
flowers
floyd
fluids
fluminense
fluorescent
flute
flutengesingesi
fly
fm
folklore
following
follows
fontsize
food
foods
football
footballer
footballers
footnotemilazzo
footnotepavlovi
footnotetomasevich
footprint
for
forbes
force
forced
forces
ford
foreign
forest
forests
form
formative
formed
former
forming
forms
formula
formulas
fort
fosforsyra
foster
found
foundation
founded
fountain
four
fourteen
fox
frac
fraction
fractions
frame
frameless
franc
france
frances
francesco
franchise
franchised
francis
francisco
frank
frankfurt
franklin
franz
franzen
fre
fred
frederick
free
freedom
freeman
freestyle
freight
french
frentshi
frere
fresh
freud
friedman
friedrich
friends
from
front
frontier
fruit
ft
fu
fuel
fuels
fulela
full
fuller
fullerenes
fumana
funakoshi
function
funda
fundamental
fungi
fungus
further
fusion
futbol
futboll
futebol
futhi
future
fuze
g
ga
gaa
gaba
gabriel
gaius
galatasaray
galena
galileans
gallagher
gallbladder
gallery
gallo
gallstones
gallus
galva
galvanometer
gama
game
games
gametes
gamma
gamper
gandhi
gando
ganilau
garci
garcia
garden
gardens
garland
garlic
garrincha
garrison
garvey
gary
gas
gases
gaston
gates
gauss
gautama
gauteng
gave
gay
gaye
gazette
gazi
gca
gcaleka
gcina
gcisa
ge
gendarmerie
gene
general
genes
genesis
genus
geo
geoffrey
geographical
geography
geometry
georg
george
georges
georgia
geqe
gerais
gerald
gerhard
germaine
german
germans
germany
gert
gesi
get
ghana
ghirlandaio
gi
giant
gibson
gidi
gilbert
ginwala
giorgio
giovanna
girl
girls
giuliani
give
given
gives
giyani
gje
gland
glasi
glass
glen
global
globe
globo
globoesporte
gloria
glory
glucose
go
goalkeeper
goalkeeping
goat
goats
god
godal
godfather
godfrey
gods
godwin
gogh
gogli
going
goko
gold
goldberg
golden
golela
goli
gomes
gomez
gonc
gonxha
good
goodman
goofy
google
gordimer
gordon
gorky
gospel
got
gottfried
gottlieb
gov
govan
government
governor
govon
gown
gqirha
gqitha
gqoba
gqobha
gqolo
gqunukhwebe
gqwashu
grace
grades
graduate
grafu
graham
grahame
gramma
grammy
grams
grand
grande
granja
grant
grapevine
graph
graphics
graphite
grass
grasses
gravitational
gravity
gray
great
greater
greek
greeks
green
greenhouse
gregory
greig
grey
gridcolor
grills
griswold
ground
group
groups
grow
growing
grupen
gu
guarani
guardian
gubu
guerrilla
guerrillas
guevara
guide
guiding
guillermo
guinea
gun
gundam
gurmukhi
gustave
gut
guthrie
guy
guybon
gwenxa
gxarha
gxebe
gyatso
h
ha
habitat
habitats
had
haemoglobin
haggard
hague
hai
haiti
halala
half
hall
halle
hamba
hambo
hamburg
hamburger
hamburgers
hamilton
hand
handbook
hands
handy
hangklip
hanh
hani
hannes
hanover
hans
hansen
haploid
happen
happy
hard
harder
harding
hardware
hare
harold
harper
harris
harrison
harry
hart
harvey
has
hat
hathaway
haute
have
having
hay
hayes
hayi
hcards
he
head
healdtown
healed
health
healthcare
heart
heat
heavier
hedge
hegel
height
heilbron
heinrich
heinz
held
helen
helena
helical
helium
hello
help
helped
hemis
hemorrhagic
henderson
henri
henry
hepburn
her
heraclitus
herbert
herbivores
here
heritage
herman
hermann
herna
herring
herschel
herzegovina
heso
hess
hesse
hexafluoride
heywood
hi
hicks
hidden
hiding
high
higher
highland
hikmet
hilbert
hill
hillary
hillel
hills
hilton
him
himself
hindi
hindustani
hintsa
hip
his
historical
history
hit
hiv
hlabathi
hlala
hlamba
hlanga
hlaselo
hlathi
hlela
hlelo
hlobo
hlonipha
hlubi
hlukene
hlukeneyo
hlula
hlulwa
ho
hobbes
hodgson
hoffman
hokage
holly
holmes
holomisa
holt
holy
hom
home
homer
homes
hon
honda
honey
hong
honorary
honoris
honour
hood
hop
hope
hopkins
hopper
hops
horace
horizon
horizontal
horticulture
hospital
hot
hottentots
house
housed
houses
houston
hout
how
howard
however
hss
htm
html
htmlhttp
http
https
hubbard
hubei
huddleston
hugh
hughes
hugo
hulle
human
humans
humboldt
hume
hundred
hungary
hunt
hussein
hutchinson
huxley
hydrate
hydrochloric
hydrogen
hydroxide
hymns
hypophosphite
hypophosphites
hypophosphorous
i
iafrica
iafrican
iafrika
iaids
iamazon
iarctica
iartscape
iasia
iastronomi
iata
iatlantic
iaustralia
iba
ibala
ibalaseleyo
ibali
ibaluleke
ibalulekile
ibalulekileyo
ibandakanya
ibandla
ibanga
ibangela
ibangele
ibango
ibanjwa
ibantu
ibase
ibayologi
ibayoloji
ibe
ibeka
ibekwa
ibekwe
ibele
ibencinane
ibethe
ibeyi
ibhaktheriya
ibhaliwe
ibhalwa
ibhalwe
ibhaqa
ibhaso
ibhayi
ibhayibhile
ibhayisikili
ibhekile
ibhekisa
ibhinqa
ibhiyozelwa
ibhodi
ibhokhwe
ibhokisi
ibhola
ibholorho
ibhotile
ibhulorho
ibhunga
ibiba
ibilirubin
ibingafane
ibinjalo
ibinzana
ibisasaza
ibisaya
ibisi
ibisoloko
ibizwa
ibizwe
iblack
ibloemfontein
ibm
ibomvu
ibonakala
ibonakalisa
ibone
ibonisa
iboniswe
ibonwa
ibonwe
ibotswana
ibrayi
ibrazil
ibrazzaville
ibritane
ibronze
ibuffalo
ibukelwe
ibulala
ibunzi
ibuya
ibuye
ibuyele
ic
icacileyo
icala
icandelo
icao
icarly
icarnegie
icata
icawa
ice
icebo
ichaza
ichelsea
ichina
ichiza
ichris
ichumie
icirrhosis
icocaine
icongress
icopa
icovid
ict
icticc
icula
iculo
iculwa
iculwe
icwecwe
id
idabi
idala
idama
idatha
idayimani
ide
idea
idemokhrasi
idibana
idibanisa
idibene
idigit
idilesi
idinga
idityanisiwe
idla
idlaba
idlala
idlale
idlalwa
idlalwe
idlule
idlulileyo
idolophana
idolophu
idols
idrama
idume
idyakana
idyasi
idyunivesithi
if
ifa
ifakwa
ifakwe
ifana
ifanayo
ifani
ifashoni
ifenitshala
ifile
ifilimu
ifilosofi
ifinland
ifiziki
iflegi
iflorida
ifomati
ifonetiki
ifoodbank
ifort
ifowuni
ifumana
ifumane
ifumaneka
ifumanise
ifumene
ifuna
ifuneka
ifuthe
igadi
igalari
igalelo
igama
igaqa
igazi
igcine
igcinwe
igeneva
igeorgia
igesi
ighana
igila
iglascow
iglucose
igoli
igolide
igophe
igorha
igosa
igqabi
igqili
igqiza
igqwetha
igraf
igrafu
igrahamstown
igramma
igreece
igreenland
igugu
igumbi
igunya
iguqulelwe
igusha
igutsi
igwele
igxile
ihafu
ihamba
ihambe
ihambisa
ihashe
ihemoglobin
ihepatitis
ihlabathi
ihlala
ihlale
ihlasela
ihlathi
ihlazo
ihleli
ihlise
ihlobo
ihlwili
ihobe
iholo
ihouse
ii
iialbhamu
iibgm
iibhaktheriya
iibhasi
iibhloko
iibhotile
iicawa
iicell
iidolophu
iidyunivesithi
iifani
iifonetiki
iifoto
iifowuni
iigusha
iii
iijografa
iikhemikhali
iikholamu
iikholeji
iikhompyutha
iikhowudi
iiklabhu
iikopi
iikumkani
iilali
iileta
iilokishi
iilwandle
iilwimi
iimatshini
iimayinegenericname
iimazi
iimbaleki
iimbali
iimbasa
iimbekiselo
iimbewu
iimbono
iimbovane
iimeko
iimela
iimelika
iimephu
iimfazwe
iimfundiso
iimfuneko
iimfuno
iimfuyo
iimgm
iiminerali
iimini
iimoto
iimovie
iimpahla
iimpawu
iimpazamo
iimpembelelo
iimpendulo
iimpikiswano
iimpukane
iimpuku
iimpundu
iimuvi
iimvakalelo
iimvavanyo
iimveku
iimveliso
iimviwo
iimvumi
iincwadi
iindaba
iindawo
iindevu
iindibano
iindidi
iindlebe
iindleko
iindlela
iindonga
iindwendwe
iingalo
iingcali
iingcambu
iingcango
iingcaphephe
iingcebiso
iingcinga
iingcingo
iingcongconi
iingingqi
iingoma
iingqondo
iingubo
iinguqulelo
iingxaki
iingxangxasi
iingxelo
iingxoxo
iinjineli
iinjini
iinjongo
iinkalo
iinkampani
iinkcazelo
iinkcukacha
iinkedama
iinkokeli
iinkokheli
iinkomo
iinkonkxa
iinkonzo
iinkosi
iinkozo
iinkqubo
iinkukhu
iinkumbulo
iinkundla
iinkuni
iinkwenkwezi
iinombolo
iinoveli
iinqanawa
iinqwelo
iintaba
iintabamlilo
iintaka
iintambo
iintetho
iintlanga
iintlanganiso
iintlanzi
iintlekele
iintlelo
iintlobo
iintloko
iintlungu
iintokazi
iintombi
iintsalela
iintsana
iintsapho
iintsholongwane
iintshukumo
iintsikelelo
iintsingiselo
iintsomi
iintsuku
iintyatyambo
iinwele
iinyama
iinyamakazi
iinyanga
iinyawo
iinyembezi
iinyoka
iinzame
iiofisi
iiorganisms
iiplastiki
iiplatelets
iiprojekthi
iiproteins
iiproteni
iiqhiya
iirandi
iired
iireferensi
iiriphabliki
iisampulu
iiseli
iishibhini
iisimboli
iitafile
iithoyilethi
iityuwa
iiveki
iivenkile
iiyunithi
iiyunivesithi
ijagi
ijamani
ijelo
ijerusalem
ijika
ijikeleza
ijikelezwe
ijiphethe
ijografi
ijolise
ijongane
ijonge
ijongene
ikakhulu
ikampala
ikamva
ikapa
ikarati
ikat
ikati
ikeiskamma
ikhaba
ikhadi
ikhala
ikhale
ikhalifoniya
ikhankanya
ikhankatha
ikhanya
ikhasi
ikhatshwa
ikhaya
ikhayelitsha
ikhazi
ikhe
ikhemestri
ikhemikhali
ikhemistri
ikho
ikhokelwa
ikholam
ikholeji
ikholumbiya
ikhompyutha
ikhona
ikhondo
ikhowudi
ikhoyo
ikhula
ikhulu
ikhupha
ikhuphe
ikhuthaza
ikhutshelwa
ikhutshwe
ikhwelo
ikhweyitha
iklabhu
ikoloni
ikomani
ikomiti
ikomkhulu
ikopi
iktas
ikude
ikumkani
ikunxweme
ikunye
ikuyo
ikwa
ikwabizwa
ikwafumaneka
ikwaguqulela
ikwanceda
ikwanguye
ikwaquka
ikwasetyenziswa
ikwayinxalenye
ikwayiyo
ikwazi
ikwaziwa
ikwenza
ikwi
ikwinto
ilahlekelwe
ilahleko
ilali
ilandelayo
ilandelwa
ilandelwe
ilanga
ilangatye
ilaphu
ilawu
ilawula
ilayisensi
ile
ileta
ili
ilia
ilibode
iliculo
ilifa
ilifu
iligama
ilindle
ilingana
ilinoyi
ilise
ilishumi
iliso
ilitye
iliverpool
ilixa
iliziko
ilizwe
ilizwekazi
ilizwi
illinois
illustrated
ilobola
ilokishi
iluhlaza
ilula
ilulwimi
iluncedo
ilungelo
ilungileyo
ilungu
iluphawu
ilwimi
im
imafikeng
image
images
imagesize
imaginary
imaging
imalariya
imali
imalunga
imandla
imanyano
imashumi
imasisi
imastitis
imathematics
imathematika
imatriki
imatshini
imazi
imbala
imbalelwano
imbali
imbalwa
imbangi
imbasa
imbeko
imbeleko
imbewu
imbi
imbila
imbiza
imbo
imbola
imbongi
imbono
imbophelelo
ime
imeko
imela
imele
imelika
imelwe
imenzakalise
imephu
imetal
imfazwe
imfene
imfundiso
imfundo
imfuneko
imfuyo
imhlophe
imi
imiba
imibala
imibandela
imibengo
imibhalo
imibongo
imiboniso
imibono
imibuliso
imibutho
imibuzo
imicimbi
imida
imidange
imiddle
imidlalo
imifanekiso
imifino
imifuno
imigama
imigaqo
imigca
imigqaliselo
imigqomo
imihla
imihlaba
imihlathi
imikhosi
imikhuhlane
imikhwa
imilambo
imilenze
imilinganiselo
imilomo
imimandla
imini
iminqweno
iminyaka
imiphakamo
imiphefumlo
imiphunga
imiqathango
imiqondiso
imisebenzi
imisonto
imissionary
imitha
imithambo
imithandazo
imithetho
imithi
imithombo
imithwalo
imitshato
imivo
imixhentso
imixube
imiyalelo
imiyalezo
imiyinge
imizamo
imizekelo
imizi
imizila
imizimba
imizobo
imizuzu
imizwa
immanuel
immunodeficiency
immunoglobulin
imnandi
imo
imodeli
imontesquieu
imonti
imoto
imozulu
impahla
impatho
impazamo
impela
impempe
impendulo
impi
impilo
important
impucuko
impulse
impuma
impumelelo
impumlo
impungutye
imveku
imvela
imvelaphi
imveliso
imvo
imvula
imvume
imvumi
imwaru
in
ina
inabantu
inabemi
inaliti
inamacokoza
inamalungu
inamandla
inani
inational
inauguracion
inavada
inc
incasa
inceda
inciba
incinane
incinci
inciphe
incisors
include
includes
including
incoko
incopho
increment
incwadana
incwadi
indaba
indalo
indawana
indawo
inde
indebe
independence
independent
index
india
indian
indiana
indibaniselwano
indiens
indima
individual
individuals
indiya
indiyana
indlala
indlalifa
indlebe
indleko
indlela
indlovu
indlu
indlunkulu
indo
indoda
indonesia
induli
industrial
indwe
indyebo
ine
inee
ineempikiswano
ineempondo
ineenkqubo
ineentlobo
inelson
inene
inequality
inew
infection
infectious
infinite
infinitive
influence
info
information
inga
ingaba
ingabo
ingakanani
ingako
ingakumbi
ingakwazi
ingalo
ingama
ingamakhulu
ingamanzi
inganceda
ingangeni
inganyanzelekanga
ingaphakathi
ingaphantsi
ingaphezulu
ingase
ingasentla
ingasetyenziswa
ingavakala
ingazange
ingca
ingcaciso
ingcali
ingcamango
ingcambu
ingcibi
ingcinezelo
ingcwaba
inge
ingekhontle
ingena
ingene
ingenguye
ingeniso
ingentla
ingenziwa
ingilane
ingingqi
ingoma
ingozi
ingqalelo
ingqiqo
ingqobhoko
ingqokelela
ingqokolela
ingqondo
ingqongqo
ingqumbo
ingqungquthela
ingubo
inguhulushe
ingumgama
ingumzekelo
ingundoqo
inguqu
inguquko
inguqulelo
ingwe
ingxabano
ingxaki
ingxelo
ingxolo
ingxowa
ingxoxo
ingxubevange
inika
inikwa
inikwe
inile
ininzi
initiate
inja
injalo
inje
injini
injongo
inkabi
inkampani
inkanga
inkangeleko
inkathalo
inkawu
inkcaso
inkcazelo
inkcazo
inkciyo
inkcubeko
inkobe
inkohlakalo
inkohliso
inkokeli
inkokheli
inkolelo
inkoliso
inkolo
inkomfa
inkomo
inkonde
inkonkxa
inkonzo
inkosazana
inkosi
inkosikazi
inkqubela
inkqubo
inkukhu
inkulu
inkululeko
inkulumbuso
inkumbulo
inkundla
inkunzi
inkuthazo
inkwenkwe
inkwenkwezi
inkxalabo
inkxaso
innervation
inobunzima
inoluhlu
inombolo
inophawu
inorganic
inoveli
input
inqaba
inqabile
inqaku
inqalathi
inqanaba
inqanawa
inqanda
inqkubo
inqumla
inqumle
inqununu
inqwaba
inqwelo
inqweme
inside
instance
instead
institute
institutes
institution
institutional
institutions
instrumentation
int
intaba
intaka
intambo
intanethi
intaphane
integer
integers
inter
interactions
intergers
interior
interlingue
internal
international
internet
intestine
intetha
intetho
intiyo
intlalo
intlambo
intlanga
intlango
intlanzi
intlawulo
intle
intliziyo
intlobo
intloko
intlonipho
intlungu
into
intokazi
intomb
intombazana
intombi
intonjane
introduced
introduction
intsalela
intsapho
intsasa
intsebenziswano
intsha
intshatsheli
intshayelelo
intsholongwane
intshona
intshukumo
intsimbi
intsingiselo
intso
intsomi
intsukaphi
intsusa
intw
intwana
intyatyambo
invasion
invented
invention
inwebu
inxalenye
inxaxheba
inxenye
inyakanyaka
inyama
inyamakazi
inyanga
inyani
inyaniso
inyanzelekile
inye
inyibilika
inyibilike
inyibilikiswe
inyinwe
inyok
inyoka
inyongo
inzala
inzalo
inzima
inzululwazi
inzuzo
io
iodide
iofisi
ioliver
ion
ions
ipa
ipacific
ipaki
ipalamente
ipapashwe
iparis
ipattern
iph
iphakathi
iphambili
iphandemikhi
iphantsi
iphela
iphemithi
iphepha
iphephandaba
iphethe
iphi
iphiko
iphila
iphilayo
iphinde
iphondo
iphosphorus
iphulo
iphuma
iphume
iphumelele
iphupha
ipitoli
ipl
iplasma
ipoland
ipoliyo
iposi
iprage
iprogram
iprojekthi
ipropathi
iprotini
iqaba
iqabane
iqadi
iqakamba
iqala
iqale
iqanda
iqaqa
iqatha
iqela
iqembu
iqhalo
iqhawe
iqhelekile
iqhenqa
iqhina
iqhinga
iqhiya
iqikelela
iqinileyo
iqondo
iqondwe
iqonga
iquka
iqulathe
iqulethe
iqumrhu
iqwalasela
iran
irashiya
irayisi
ireference
irekhodi
ireland
irene
irhafu
irhamncwa
irhashalala
irhini
irhiphabhlikhi
irhuluneli
iriphabhlikhi
iriphabliki
iroma
iron
irrational
irving
irwin
is
isaac
isabc
isabel
isacred
isahluko
isahlulo
isakhiwo
isakhono
isalathiso
isali
isanda
isandi
isandla
isango
isangqa
isanti
isantya
isarha
isasaza
isasazwa
isayensi
isazinge
isbn
ise
isebe
isebenza
isebenze
isebenzisa
isebetyenzisa
isekela
isekelwe
isemoyeni
isenokuba
isenokubhalwa
isenokusetyenziswa
isenza
isenzeka
isenzeko
isenzi
isenziwa
isenzo
isetyenziselwa
isetyenziswa
isetyenziswe
isexesi
ishedyuli
ishishini
ishiya
ishukuma
ishumi
ishushu
isi
isialbania
isiba
isibhakabhaka
isibhengezo
isibhukubhuku
isibhulu
isibindi
isibini
isibizo
isibongo
isibosnian
isicaphu
isicatala
isicelo
isiciko
isicyrillic
isidalwa
isidanga
isidima
isidlo
isidudu
isiduko
isidumbu
isifo
isifrentshi
isifuba
isifundo
isigaba
isigama
isiganeko
isigcawu
isigidi
isigidimi
isigqibo
isigrike
isigulo
isigwebo
isihlalo
isihlanu
isihloko
isihlunu
isijamani
isijapani
isikali
isikere
isikhululo
isikhumba
isikhumbuzo
isikhundla
isikhuni
isikizi
isiko
isikolo
isikrini
isikwere
isilatini
isililo
isilivere
isilwanyana
isimaphambili
isimbo
isimboli
isimelabizo
isimilo
isimo
isimpondo
isindebele
isine
isingesi
isingxobo
isini
isininzi
isintu
isinxibo
isinye
isinyibiliki
isinyibilikisi
isipanishi
isipedi
isiphelo
isiphumo
isiphuthukezi
isipolisa
isiqalo
isiqaqa
isiqebheyi
isiqendu
isiqhamo
isiqingatha
isiqinisekiso
isiqithi
isiqu
isiseko
isiserbia
isishona
isisifo
isisila
isisingesi
isisombululo
isisotho
isispanish
isisu
isisuthu
isiswati
isiswazi
isiteketiso
isithathu
isithembu
isithethe
isithethi
isithi
isithili
isithsaba
isithuba
isithunzi
isitovu
isitsha
isitshixo
isitsonga
isitswana
isitulo
isitya
isityalo
isityhilelo
isivakalisi
isivenda
isivumelwano
isixa
isixeko
isixelela
isixhobo
isixhosa
isiya
isiza
isizalo
isizathu
isizekevu
isiziba
isizini
isizukulwana
isizulu
isizwe
islam
island
islands
islets
ismail
iso
isohlwayo
isoka
isol
isoloko
isonka
isotope
isotopes
isouth
ispain
ispanish
ispanishi
israel
issn
issues
ist
istanbul
isuka
isuke
iswekile
iswitzerland
it
ita
itachi
itafile
italente
italian
italy
itanzania
itapevi
itayitile
itestamente
ith
ithala
ithambe
ithambo
ithatha
ithathe
ithathwa
ithathwe
ithe
ithemba
ithengise
ithetha
ithethe
ithethwa
ithi
ithile
ithini
ithiyetha
ithiywe
ithokazi
ithoyilethi
ithuba
ithumela
ithunyelwa
ithwala
ithyubhu
iti
itikiti
ititshala
itopsport
itranskei
its
itsala
itself
itsha
itshantliziyo
itshathi
itshayina
itshesi
itshintsha
itshintshe
itshintshi
itshintshile
itsho
itumente
itunes
iturkiya
itv
ityala
ityalike
ityhefu
ityhila
ityhume
ityuwa
iucn
iv
ivacuum
ivalwe
ivan
iveki
ivela
ivelise
iveliswe
ivenkile
iveza
ivili
ivory
ivoti
ivula
ivuleka
ivumba
ivumela
ivutha
iwaka
iwashington
iwela
iwele
iwhite
iwho
iwikipedia
iwonga
iworld
ixabiso
ixatyiswe
ixesha
ixeshana
ixhama
ixhaphake
ixhaphakile
ixhaphakileyo
ixhasa
ixhego
ixhiba
ixhoba
ixhomekeke
ixopo
iya
iyafana
iyagungqa
iyahambelana
iyakrazuka
iyakuba
iyakuthi
iyakwazi
iyanyibilika
iyaphila
iyaphuka
iyaphumelela
iyaziwa
iye
iyehla
iyenze
iyeza
iyi
iyiminyaka
iyindoda
iyingozi
iyinto
iyintoni
iyise
iyityhefu
iyodwa
iyonke
iyukreyini
iyunayithedi
iyunifomu
iyunisa
iyunithi
iyunivesithi
iyurophu
iz
iza
izaci
izahlulo
izakha
izakhamzimba
izakhiwo
izakhono
izakuba
izala
izalathiso
izama
izandi
izandla
izangqa
izazinge
izdegerdes
ize
izehlo
izele
izembe
izenzi
izenzo
izi
izibalo
izibizo
izibongo
izibulala
izibulo
izicwangciso
izidalwa
izidanga
izidlo
izidlwengu
iziduko
izifo
izifuba
izifundo
izigaba
iziganeko
izigidi
izigqibo
izigulana
izigulo
izihlalo
izihlandlo
izihlobo
izihloko
izihlunu
izii
izika
izikhali
izikhululo
izikhundla
iziko
izikolo
izikumkani
izilo
izilonda
izilwanyana
izimbabwe
izimbiwa
izimelabizo
izimitha
izimvo
izimvu
izinambuzane
izincoko
izindlu
izinga
izingela
izinja
izinto
izintso
izinyanya
izinze
iziphaluka
iziphawuli
iziphumo
iziqendu
iziqhamo
iziqinisekiso
iziqithi
iziqu
izisa
izisele
izitatistiki
izithembu
izithethe
izitho
izithuba
izithuthi
izitishi
izitofu
izitovu
izitshixo
izitulo
izitya
izityalo
izityebi
izityholo
izivakalisi
izivumelwano
izixeko
izixhobo
izixhumanisi
iziyobisi
izizathu
iziziba
izizwe
izohlwayo
izondlo
izono
izulu
izwe
izwi
j
ja
jabavu
jachisi
jacinta
jack
jackie
jackson
jacob
jacobus
jacques
jadu
jairzinho
jake
jali
jamani
james
jamie
jan
jane
janeiro
janet
january
januwari
japan
japanese
jared
jaroslav
jasmine
java
jay
jazari
jazz
je
jean
jeff
jefferson
jelo
jenkin
jenner
jennings
jensen
jeremy
jerome
jerry
jersey
jerusalem
jerzy
jesse
jessica
jesus
jets
ji
jikelele
jim
jimmy
jize
jo
joan
jobs
joburg
joe
johann
johanna
johannes
johannesburg
john
johnny
johns
johnson
joined
jola
jolobe
jon
jonas
jonathan
jones
jonga
jongumsobomvu
joni
jonson
jordan
jorge
jose
joseph
josh
joshua
journal
journalist
joyce
joyi
jpg
jr
jstor
ju
juan
judge
judith
judy
juice
julayi
jules
julia
julian
julie
julius
july
jump
june
juni
junior
juniors
junius
junr
jurisdiction
jurisprudence
just
justice
justine
juta
juvenil
k
ka
kabach
kabawo
kabiko
kabini
kabob
kabuhlungu
kacanzibe
kacarmen
kachungwa
kade
kadisemba
kadube
kadukwana
kaffiraria
kagaba
kagqoba
kagwala
kahintsa
kahleke
kajanuwari
kajohn
kajulayi
kajuni
kaka
kakade
kakama
kakaza
kakhongolose
kakhulu
kakobe
kakubi
kakuhle
kakukhulu
kakumkani
kakumkanikazi
kali
kalikhulu
kalishumi
kaliwaka
kallenbach
kaloku
kaloliwe
kamabona
kamabonakude
kamakhulu
kamama
kamaqoma
kamasipala
kamatshi
kambe
kameyi
kamichelangelo
kamkhwebane
kamlanjeni
kamlawu
kamnandi
kamonaheng
kamongameli
kamozart
kamsinya
kamva
kan
kananjalo
kancinane
kancinci
kandlambe
kane
kanene
kangaka
kangakanani
kangako
kangangeenyanga
kangangoko
kangangokuba
kangcongolo
kangcono
kangqika
kanina
kaninzi
kanjalo
kanjani
kankqoyi
kanobom
kanongqawuse
kanoni
kanovemba
kant
kantantala
kanti
kantsikana
kantsikane
kanye
kaokthobha
kapa
kaphatho
kaplaatji
karate
karharhabe
karhulumente
karl
karubusana
kasally
kasarastro
kaseptemba
kasifuba
kasisulu
kasol
katata
kate
kathathu
katherine
kathixo
katie
katolika
katom
katshazimpuzi
kaviljoen
kawilliam
kawonke
kaxaka
kaxhosa
kaxhoxho
kay
kayako
kaybee
kayise
kayser
kazakhstan
kazille
kazwelonke
ke
keep
keeping
kei
keiskammahoek
keith
keller
kelly
kelvin
kemal
kemp
kempton
ken
kengoku
kennedy
kenneth
kenya
kerry
kettle
kevin
kewell
key
keyboard
keyboards
keystroke
kg
kgalema
khaka
khama
khan
khangela
khawufan
khawujonge
khawuta
khawuxele
khaya
khazi
khe
khelekenkce
khemestri
khemikhali
khemistri
khenkce
khetha
kho
khoba
khoi
kholeji
khompyutha
khon
khona
khovidi
khulu
khumalo
khumbula
khuphiswano
khwalo
khwange
khwela
ki
kia
kick
kicks
kidd
killed
killer
kim
kimberley
kind
kinds
king
kingdom
kingsley
kinloch
kit
kitcherer
klaas
klerk
km
knives
knockout
know
knowledge
knowles
known
knox
ko
kobe
kobhubhane
kobomi
kobu
kobuchopho
kobukhwetha
kobukumkani
kobushushu
kobusuku
kodwa
kohlobo
kokani
koko
kokona
kokosulelwa
koku
kokuba
kokubanjwa
kokubona
kokubulawa
kokufika
kokufuna
kokufunda
kokugqiba
kokukhanya
kokunye
kokuqala
kokusasazeka
kokusingqongileyo
kokusweleka
kokuthatha
kokutya
kokwabo
kokwenzakalisa
kolawulo
kolbe
kolo
koloni
kolu
koluntu
kolunye
kolwandle
kolwazi
kolwimi
komanyano
kombane
komboniso
kombuso
kombutho
komdlalo
kome
komfula
komfundisi
komgaqo
komgca
komhlaba
komile
komkhosi
komkhulu
komkhwetha
komlambo
komlanjana
komlinganiselo
komntu
komntwana
komnyaka
komnye
komoya
komsebenzi
komthetho
komthi
komthombo
komyeni
komzi
komzimba
kona
konakalisa
kong
kongezwa
kongezwe
konke
konoha
konwatyiwe
konxibelelwano
konyaka
konyulo
koomabonakude
koomathsini
koonobuyisa
koonyana
koorhulumente
koqeqesho
korea
korhulumente
kosovo
kosta
kosuku
kosulelo
kowabo
kowama
kowe
koyisa
kozwelonke
kraal
krestu
krieger
krimi
krishnamurthy
kristu
kroonstad
kruger
krugersdorp
krune
ku
kub
kuba
kubafazi
kubafundi
kubahlali
kubakho
kubala
kubalandeli
kubaliswa
kubaluleke
kubalulekile
kubalwa
kubalwe
kubanda
kubandakanya
kubandakanywa
kubangele
kubantu
kubantwana
kubaphathi
kubaphulaphuli
kubathwa
kubathwesa
kube
kubekho
kubekwa
kubekwe
kubelula
kubemi
kubenzima
kubhalwa
kubhekiswa
kubhubhe
kubi
kubini
kubizwa
kubo
kubomi
kubonakala
kubonakale
kubonakaliswa
kubonisa
kuboniswa
kubuchule
kubugcisa
kubukrestu
kubukumkani
kubulala
kubulawa
kubungakanani
kubuyela
kubuzwe
kucace
kucacile
kucanzibe
kucela
kucetyiswa
kuchaphazela
kuchaziwe
kucingwa
kudala
kudalwe
kude
kudidiyelwe
kudisemba
kudityaniswa
kudityaniswe
kudla
kudlalwa
kudliwano
kudliwanondlebe
kudlwabevu
kudonga
kudrawn
kudushe
kufa
kufakelwe
kufakwa
kufana
kufanele
kufanelekile
kufanelekileyo
kufika
kufike
kufikelele
kufumana
kufumaneka
kufuna
kufunda
kufundisa
kufundiswa
kufundwa
kufundwe
kufuneka
kufuneke
kufunyaniswe
kufunyanwa
kufunyanwe
kufuphi
kufutshane
kugalelwa
kugalelwe
kugcinwe
kugqityiwe
kuguqulo
kugxilwe
kuhamba
kuhambo
kuhlala
kuhlale
kuhlalwe
kuhlanga
kuhlaziyekile
kuhle
kuhleli
kuhlelo
kuhlobo
kujongwa
kujongwe
kujuni
kuka
kukantantala
kukarhulumente
kukasteve
kukatata
kukayise
kukhenketho
kukhetho
kukho
kukhokela
kukhokelela
kukhokelele
kukhokhelela
kukholeleka
kukholelwa
kukhona
kukhu
kukhula
kukhuphiswano
kukuba
kukubi
kukubona
kukudibana
kukudibanisa
kukudla
kukufa
kukufumana
kukufuna
kukufunda
kukuhla
kukulamba
kukule
kukumkani
kukungabi
kukungcola
kukuphela
kukuqinisekisa
kukusebenza
kukusebenzisa
kukusetyenziswa
kukuthi
kukutshaja
kukutya
kukuxoka
kukuzalwa
kukwakho
kukwaphula
kukwazi
kukwenza
kula
kulaa
kulandela
kulandelayo
kulandele
kulapho
kulawula
kulawulo
kule
kulendawo
kulenginqgi
kuleyo
kulindeleke
kulo
kulonina
kuloo
kulowo
kuludwe
kuluhlu
kulula
kulungile
kuluntu
kulutsha
kulwa
kulwabelwano
kulwandle
kulwazi
kulwimi
kum
kuma
kumabanga
kumabhaso
kumabhinqa
kumabonakude
kumafutha
kumagama
kumagqibela
kumajoni
kumalungu
kumama
kumamkeli
kumanani
kumantla
kumantombazana
kumanzi
kumaphondo
kumaqam
kumaqela
kumaqoma
kumasebe
kumashumi
kumasiko
kumasipala
kumathambo
kumatshi
kumawaka
kumaxesha
kumaxhosa
kumayeza
kumazantsi
kumaziko
kumazwe
kumbindi
kumboniso
kumbutho
kumculo
kumdlalo
kumele
kumfazi
kumfo
kumfundisi
kumgada
kumgama
kumgangatho
kumgaqo
kumgca
kumhla
kumhlaba
kumile
kumjikelo
kumkani
kumkhankaso
kumkhosi
kumkhuhlane
kumlambo
kumlanda
kumlinganiselo
kumlo
kummandla
kumngcipheko
kumntla
kumntu
kumnyaka
kumnyhadala
kumongo
kumoya
kumphakamo
kumphakathi
kumphezulu
kumsebenzi
kumsitho
kumthi
kumxube
kumzabalazo
kumzali
kumzantis
kumzantsi
kumzi
kunabantu
kunalawo
kunaleyo
kunamhlanje
kunayo
kunazo
kuncedwe
kuncinane
kune
kunee
kunene
kunenye
kunezinye
kunezo
kungaba
kungabikho
kungadala
kungakho
kungangeni
kunganzima
kungasetyenziswa
kungasuka
kungathiwa
kungekho
kungekudala
kungena
kungeniswe
kungenjalo
kungenxa
kungenzeka
kungenziwa
kungoko
kungoku
kungokuba
kuni
kunika
kunikwa
kunina
kuninzi
kunjalo
kunjalonje
kunje
kuno
kunobo
kunokuba
kunokubangela
kunokwenza
kunokwenzeka
kunoni
kunqabile
kunqanda
kunqulo
kunqunqwa
kunuka
kunxweme
kunyaka
kunyango
kunyanzelekile
kunye
kunyuka
kunyulo
kunzima
kupapasho
kuphalo
kuphando
kuphandwa
kuphawu
kuphekwa
kuphekwe
kuphela
kuphele
kuphinda
kuphinde
kuphuhliso
kuphulo
kuphuma
kuphume
kupoqo
kuqala
kuqale
kuqalisa
kuqaliswe
kuqalwa
kuqalwe
kuqeqesho
kuqhelekile
kuqhubeka
kuqhutywa
kuqhwithwa
kuqikeleleka
kuqikelelwa
kuqinisekisa
kuqondwe
kuqoqosho
kuquka
kurhulumente
kurhwebo
kurpfalz
kurt
kurtz
kusadliwa
kusapho
kusasa
kusasazo
kusasazwa
kuse
kusebenza
kusehliswa
kusekho
kusengwa
kusenjalo
kusenokuba
kusenokwenzeka
kusenzeka
kusenziwa
kuseptemba
kusetyenziswa
kusetyenziswe
kushishino
kushiyeka
kushushu
kusiba
kusikhomo
kusikwe
kusilwa
kusilwe
kusindise
kusini
kusithela
kusithiwa
kusiya
kusiyiwa
kuso
kusoloko
kusongezwa
kusuka
kusuke
kusuku
kusuleleke
kusuleleko
kususwe
kutata
kuthabatha
kuthatha
kuthathwa
kuthathwe
kuthatyathwa
kuthe
kuthelekelelwa
kuthelekiswa
kutheni
kuthetha
kuthethe
kuthethwa
kuthi
kuthiwa
kuthiwe
kuthotho
kuthunyelwa
kutsalwe
kutsha
kutshazimpunzi
kutshazimpuzi
kutshiswa
kutshiwo
kutsho
kutsolo
kutya
kutyhilwa
kutyiwe
kuu
kuva
kuvakala
kuvakalento
kuvalelwe
kuvavanyo
kuvela
kuvele
kuvelisiweyo
kuvimba
kuviwo
kuvokotheke
kuvulwe
kuvusa
kuwe
kuwo
kuwonke
kuxa
kuxhaphakile
kuxhelwa
kuxhelwe
kuxhomekeke
kuya
kuyacetyiswa
kuyakubakho
kuyakuthetha
kuyakwenzeka
kuyaphi
kuyazenzekela
kuye
kuyenzeka
kuyi
kuyilwa
kuyimfuneko
kuyinto
kuyinyaniso
kuyiwe
kuyo
kuyoutube
kuz
kuza
kuzakuphuma
kuzalwa
kuze
kuzelwe
kuzii
kuziwe
kuzo
kuzwe
kuzwelonke
kw
kwa
kwaathi
kwaba
kwabakho
kwabamhlophe
kwabantsundu
kwabantu
kwabantwana
kwabanye
kwabasekorinte
kwabe
kwabebala
kwabekwa
kwabo
kwabonakala
kwabonwa
kwacaca
kwada
kwade
kwafika
kwafikelela
kwafuneka
kwagcaleka
kwagompo
kwahlulwa
kwahlwa
kwakhe
kwakheka
kwakhiwa
kwakhiwe
kwakho
kwakhokelela
kwakhona
kwakuba
kwakufika
kwakufuneka
kwakuhlala
kwakukho
kwakule
kwakuliphulo
kwakulo
kwakumele
kwakungekho
kwakunye
kwakunzima
kwakusa
kwakusasa
kwakuthetha
kwakuthethwa
kwakuthi
kwakuthiwe
kwakweli
kwala
kwalaa
kwalandela
kwalanga
kwalapha
kwalapho
kwale
kwalemithetho
kwalo
kwaloo
kwalula
kwalusathi
kwam
kwama
kwamabhinqa
kwamadoda
kwamagama
kwamagriqua
kwamakhoboka
kwamakholwa
kwamakhulu
kwamalahle
kwamalungelo
kwamalungu
kwamanani
kwamandla
kwamanina
kwamankazana
kwamanqanaba
kwamanye
kwamanzi
kwamapasi
kwamaphondo
kwamapolisa
kwamaqela
kwamasiko
kwamathematika
kwamatshatshu
kwamatshwana
kwamaxabiso
kwamaxesha
kwamaxhosa
kwamayeza
kwamazwe
kwamehlo
kwamenza
kwamkela
kwamnceda
kwamzilikazi
kwanda
kwandlambe
kwane
kwanee
kwaneenkqubo
kwanenani
kwanezinye
kwanga
kwangaloo
kwangaloomini
kwangaphambili
kwangaxeshanye
kwangelo
kwango
kwangoko
kwangolo
kwangowe
kwangqika
kwangu
kwangumnyaka
kwanje
kwanokholeji
kwanokubekwa
kwanto
kwantu
kwanyanzeleka
kwapapashwa
kwaphakanyiswa
kwaphela
kwaphelela
kwaphuhliswa
kwaqala
kwaqalwa
kwarholihlahla
kwasa
kwase
kwasegqubeni
kwasekuzalweni
kwasenxiweni
kwaso
kwathathwa
kwathi
kwathiwa
kwathoba
kwatshintsha
kwatsho
kwavakala
kwavela
kwawo
kwaxhosa
kwaya
kwaye
kwayena
kwayiminyaka
kwayo
kwaza
kwazalwa
kwaze
kwaziwa
kwazo
kwazulu
kwe
kweafrika
kwebandla
kwebhayibhile
kwebholorho
kwebhulorho
kwedabi
kwedini
kwee
kweedolophu
kweedyunivesithi
kweekhompyutha
kweelwandle
kweelwimi
kweemeko
kweempahla
kweempawu
kweempumlo
kweendawo
kweenkomo
kweenkosi
kweenkqubo
kweentlobo
kweentombi
kweentsana
kweentsholongwane
kweentsuku
kweenyanga
kweenziwa
kwefilimu
kwegama
kwegazi
kwegqili
kwegunya
kwehlabathi
kwehlobo
kweka
kwekatshazimpunzi
kwekhabhoni
kwekholam
kwekoloni
kwela
kwelanga
kwelasemaxhoseni
kweleentaba
kweli
kwelinye
kweliphephandaba
kweliso
kwelithi
kweliya
kwelizwe
kwelo
kwelokuba
kwelokubuyela
kwelona
kwemali
kwemeko
kwemfazwe
kwemihla
kweminwe
kweminyaka
kweminye
kwemiqathango
kwemisebenzi
kwemithambo
kwemithi
kwemozulu
kwempembelelo
kwempucuko
kwempuma
kwemvula
kwemvume
kwenani
kwenciba
kwendalo
kwendeb
kwendima
kwendlela
kwendlu
kwengalo
kwengcinezelo
kwengoma
kwengqondo
kwengxoxo
kwenkomfa
kwenkosi
kwenkosikazi
kwenkqubo
kwenkulungwane
kwenkunzi
kwentaba
kwentliziyo
kwentloko
kwento
kwentombi
kwentsholongwane
kwentshona
kwentsimbi
kwentsuku
kwenu
kwenyanga
kwenye
kwenza
kwenze
kwenzeka
kwenzeke
kwenziwa
kwenziwe
kwephepha
kweqela
kwesa
kwesantya
kweshumi
kwesi
kwesibhakabhaka
kwesibhengezo
kwesibindi
kwesifo
kwesigidi
kwesihloko
kwesikhumba
kwesiko
kwesingesi
kwesinye
kwesiphumo
kwesiqingatha
kwesiqu
kwesitoko
kwesizwe
kweso
kwetafile
kwethu
kwethuba
kwetyala
kwexesha
kweyama
kweyedwarha
kweyekhala
kweyesi
kweyesilimela
kweyethupha
kweyokwindla
kweyomdumba
kweyomnga
kweyomqungu
kweyomsintsi
kweyona
kwezandi
kwezemfundo
kwezemidlalo
kwezempilo
kwezentlalo
kwezi
kwezibulala
kwezidalwa
kwezifo
kwezigidi
kweziko
kwezili
kwezilwanyana
kwezimbini
kwezinga
kwezingama
kwezinja
kwezinto
kwezintso
kwezinye
kwezityalo
kwezizwe
kwezo
kwezomculo
kwezomkhosi
kwezomthetho
kwezopolitiko
kwezoqoqosho
kwi
kwiafrika
kwiarithmetic
kwiatlas
kwibala
kwibandla
kwibhodi
kwibhokisi
kwibhola
kwibhotwe
kwicala
kwicandelo
kwicape
kwicawa
kwiculo
kwicwecwe
kwidabi
kwidemokhrasi
kwidisney
kwidolophu
kwidyunivesithi
kwifama
kwifilosofi
kwifiziki
kwifom
kwigama
kwigazi
kwigoldfields
kwigrafu
kwigumbi
kwihlabathi
kwihlelo
kwiholo
kwii
kwiiamericas
kwiidolophu
kwiikhompyutha
kwiilokishi
kwiilwimi
kwiimatshini
kwiimbasa
kwiimbewu
kwiimeko
kwiimfazwe
kwiimfundiso
kwiimviwo
kwiincwadi
kwiindawo
kwiindlela
kwiingalo
kwiingcali
kwiingingqi
kwiingoma
kwiingxaki
kwiingxoxo
kwiinkampu
kwiinkqubo
kwiinkulungwane
kwiinkundla
kwiintaba
kwiintetho
kwiintlobo
kwiintloko
kwiintsana
kwiintshaba
kwiintsholongwane
kwiintsomi
kwiintsuku
kwiinyanga
kwiithiyetha
kwiitshathi
kwiiveki
kwiiyunivesithi
kwiizitishi
kwijografi
kwikarati
kwikhaya
kwikholam
kwikholeji
kwikholum
kwikhom
kwikhompyutha
kwikhuko
kwikomkhulu
kwikota
kwikwayara
kwilali
kwilindle
kwilitha
kwilixa
kwilizwe
kwilizwekazi
kwilokishi
kwilokisi
kwilungu
kwimagazini
kwimathematika
kwimbali
kwimeko
kwimephu
kwimfazwe
kwimfundo
kwimibhalo
kwimibhobho
kwimibongo
kwimiceli
kwimicimbi
kwimidlalo
kwimigaqo
kwimihla
kwimikhuba
kwimimandla
kwiminyaka
kwimiphunga
kwimisebenzi
kwimissioni
kwimitha
kwimithambo
kwimithi
kwimizekelo
kwimizi
kwimo
kwimozulu
kwimpilo
kwimpuma
kwimpumelelo
kwimvelaphi
kwimveliso
kwinani
kwincakam
kwincindi
kwincwadana
kwincwadi
kwindalo
kwindawo
kwindibano
kwindima
kwindlela
kwindlu
kwingcinezelo
kwingingqi
kwingoma
kwingqokolela
kwinickelodeon
kwinkampani
kwinkcochoyi
kwinkcubeko
kwinkolo
kwinkomfa
kwinkonzo
kwinkqubo
kwinkulungwane
kwinkundla
kwinombolo
kwinqanaba
kwinqila
kwinqwelo
kwintetho
kwintlalo
kwintlobo
kwinto
kwintsapho
kwintshona
kwinxalenye
kwinyanga
kwinzala
kwinzululwazi
kwiofisi
kwipalamente
kwiphepha
kwiphephandaba
kwiphondo
kwiqadi
kwiqela
kwiqondo
kwisahluko
kwisandi
kwisandla
kwisangqa
kwisebe
kwishumi
kwisibhedlele
kwisichumisi
kwisidalwa
kwisifo
kwisigaba
kwisigidi
kwisigqibo
kwisigrike
kwisikhululo
kwisikhundla
kwisiko
kwisikolo
kwisilatini
kwisilwanyana
kwisingesi
kwisinye
kwisinyi
kwisiqendu
kwisiqithi
kwisiseko
kwisitalato
kwisithili
kwisithuba
kwisithukuthezi
kwisitishi
kwisitya
kwisityalo
kwisivumelwano
kwisixeko
kwisixhosa
kwisizalo
kwisizikithi
kwisizini
kwisizwe
kwithala
kwithe
kwithiyetha
kwitumente
kwiuniversity
kwiveki
kwixa
kwixesha
kwiyunivesithi
kwizakhiwo
kwizehlo
kwizibalo
kwizibongo
kwizibulala
kwizicelo
kwizicoci
kwizicwili
kwizifo
kwizifundiswa
kwizifundo
kwizigidi
kwizihlunu
kwiziko
kwizikolo
kwizilwanyana
kwizindlu
kwizinga
kwizinto
kwiziphumo
kwiziqithi
kwiziswe
kwizithethi
kwizityalo
kwizixeko
kwizixhobo
kwizizukulwana
kwizizwe
kwowu
l
la
laa
laan
laawonga
laba
labadlali
labafundi
labamhlophe
labantu
labasebenzi
labasetyhini
labe
labeka
label
labemi
labhengezwa
labo
labonakalisa
laboratory
labour
lady
ladysmith
lafika
lahambelana
lahla
lahleko
lahlulwe
laid
lake
lakes
lakhe
lakho
lakhululwa
lakhutshwa
lakowabo
lakudala
lakuxola
lakwa
lakwasisulu
lakwazulu
lala
lale
lali
lalikhulu
lalilibandla
lalinesihloko
lalingu
lalisetyenziswa
lalo
laloo
lam
lama
lamachiza
lamadoda
lamakhowa
lamakhulu
lamalinde
lamalungelo
lamalungu
lamanzi
lamaphondo
lamashumi
lamasoldati
lamatye
lamawaka
lamawele
lamawesile
lamaxhosa
lamaziko
lamazwana
lamazwe
lamazwekazi
lamb
lami
lamnika
lamtshi
lancaster
land
langa
langalibalele
langaphambili
langasekhohlo
langasekunene
langenhoven
langerhans
langoku
langokuhlwa
language
languages
lanka
lanqwala
lapa
lapha
laphinda
laphuma
laqala
large
largely
largest
larry
las
lase
laseafrika
lasebrazil
lasefrance
lasekatala
lasekunene
laselimpopo
laselovedale
laselusuthu
lasemelika
lasempuma
lasempumalanga
lasemzantsi
lasenarrandera
lasentshona
laserhabe
laserhawutini
lasetransvaal
laseyurophu
lasiwa
laso
last
late
later
lathi
lathiywa
lathwalwa
latin
latsho
laura
laurel
laurence
law
lawo
lawrence
lawrie
laws
lawu
lawyers
laya
laye
layer
layo
laza
laze
laziwa
laziwayo
lazo
lazyman
le
lead
leader
leaders
leadership
leading
league
lear
learn
learned
learner
learning
learnt
leary
leave
leaves
lebala
lebanese
lebhodi
lebhola
lecawa
lech
ledolophu
lee
leemviwo
leencwadi
leendaba
leengoma
leenkokheli
leenkomo
leentlobo
leenwele
leeward
lefilimu
left
legazi
legend
legolide
legs
legxarha
lehlabathi
lehouse
leibniz
leishmania
leishmaniasis
lekhemikhali
lelali
leli
lelinye
lelizwe
lelo
lelona
lemali
lematriki
lembali
lembongi
lemfazwe
lemfundo
lemicimbi
lemidlalo
leminyaka
lemissionary
lemizuzu
lempuma
lempundu
lemveli
lemvula
lena
lendalo
lendawo
lendlela
lendlu
lengcinezelo
length
lenkawu
lenkomo
lenkonzo
lenkosi
lentando
lentliziyo
lento
lentombi
lentshona
lentulo
lenyama
lenyaniso
lenyuka
lenza
lenze
lenzeka
lenzelwa
lenzelwe
lenziwa
lenziwe
leo
leon
leonard
leonardo
leone
leopold
lephondo
lepolisa
leptons
leqela
leqonga
leroy
les
lesebe
leshumi
lesi
lesibini
lesigrike
lesikolo
lesilatini
lesine
lesinguni
lesiqhelo
lesiteketiso
lesithathu
lesixeko
lesixhosa
lesizwe
leskikhumbuzo
lesotho
less
let
lethu
leto
letter
letters
lettie
level
lewis
lexesha
leyo
lezemfundo
lezempilo
lezenzululwazi
lezi
lezifo
lezifundo
lezigidi
lezilwanyana
lezinto
lezixhobo
lezizwe
lezobupolisa
lezopolitiko
li
lia
libala
libali
libalulekileyo
libambe
libandakanya
libe
liberation
libertadores
liberty
libhalwe
libhekisa
libizwa
libomvu
libonakala
libonelela
libonisa
libonwa
libotshelelwe
library
libuye
licandelo
lide
lidla
lidlala
lidliwa
lieutenant
lifana
life
lifetime
lifumane
lifumaneka
lifutshane
liga
ligama
ligaqa
ligazi
ligcisa
ligcwele
light
lihamba
lihlabathi
lihlala
lihlale
lihlathi
lijikeleza
lijikeleze
lijiye
lijongene
lika
likantsikana
likasol
likathixo
likayise
like
likhaya
likhe
likhona
likhulu
likhutshiwe
likomkhulu
likwasetyenziselwa
likwasetyenziswa
lilanga
lilikhulu
lilingana
liliso
lilizwe
lillian
lillis
lilo
lilonke
lilungu
lily
limbi
limele
limgcine
limi
limisiweyo
limited
limpopo
linani
lincinane
lincoln
linda
linden
line
linear
linegrey
linentsingiselo
linga
lingabangumdla
lingama
lingaphezulu
lingu
linguist
linguistics
linikwa
linikwe
link
links
linomculo
linomxholo
linqaku
linus
linux
linye
lio
lion
lionel
liorish
lipelwa
liphakathi
liphantse
liphantsi
liphela
liphezulu
liphi
liphinda
liphinde
liphondo
liphuma
liphume
liphumelele
liphumileyo
liqaqobana
liqela
liqhayiya
liqikelelwa
liquid
liquids
liquka
lisa
lisanda
lisebe
lisebenza
lisebenzisa
lisebenzise
lisenokuba
lisetyenziselwa
lisetyenziswa
lisetyenziswe
lishishini
lishumi
lisiko
lisithi
lisiwe
lisiya
lisoloko
list
listed
lisuka
literacy
literary
literature
lithambo
lithandwa
lithatha
lithathe
lithathwa
lithe
lithetha
lithethwa
lithi
lithile
lithuba
lithwalwe
litolwe
litsalwe
litsha
little
litye
live
lived
livela
livele
lives
living
liwa
liwaka
lixa
lixesha
lixhoba
lixoka
liya
liyakuthi
liyavela
liye
liyeke
liyi
liyithethayo
liza
lize
lizekelwe
liziko
lizwe
lizwekazi
ll
ller
lloyd
lo
lobhubhane
lobomi
lobugcisa
lobukoloniyali
lobukumkani
lobulunga
lobungqina
lobunkokheli
lobuntshatsheli
lobuntwana
lobunzima
lobunzululwazi
lobushushu
local
localucalulo
located
location
locke
lodumo
logan
logic
logician
logo
logonyo
lohambo
lohlobo
lokhuseleko
lokishi
loku
lokuba
lokubala
lokubhala
lokubhubha
lokubuyela
lokudibanisa
lokudlala
lokufa
lokufikisa
lokufuduka
lokufumana
lokufundela
lokugcina
lokugonya
lokugqibela
lokugxeka
lokuhamba
lokuhlala
lokuhlasela
lokujongana
lokukhangela
lokukhululwa
lokulawula
lokulima
lokulwa
lokungena
lokupapasha
lokuphatha
lokuphuma
lokuqala
lokuqonda
lokurekhoda
lokusebenza
lokusenga
lokusinda
lokuthetha
lokuthintela
lokutya
lokuvota
lokuzalwa
lokwanda
lokwenene
lokwenza
lolawulo
loliwe
lolo
lolona
lolu
loluhlobo
loluhlu
loluntu
lolunye
lolwande
lolwandle
lolwazi
lolwimi
lombhali
lombutho
lomculo
lomdaniso
lomdlalo
lomfana
lomgada
lomgaqo
lomgca
lomhambi
lomhlaba
lomkhuhlane
lomlambo
lomlandu
lomlo
lomntu
lomoya
lomqolo
lomsebenzi
lomthetho
lomthi
lomtshato
lomyalezo
lomzabalazo
lomzantsi
lomzimba
lona
loncwadi
london
long
lonke
lonto
lonwabisa
lonyaka
lonyango
loo
look
loom
lopez
lophando
lophawu
loqoqosho
lorca
lord
los
losapho
losasazo
loshishino
losulelo
lou
louis
louise
love
loved
lovedale
lovedalemissiona
lovelace
low
lowama
lowe
lowell
lower
lowo
loyal
lp
ltd
lu
lubaluleke
lubalulekileyo
lubandakanya
lubangela
lube
lubekho
lubhekisa
lubiza
lubizwa
lubonakala
lubonakalisa
lubonisa
luboniswe
lubonwa
lucarelli
lucas
luchungechunge
lucky
lucy
ludala
lude
ludeke
ludla
ludonga
ludwig
lugonyo
luhlala
luhlobo
luhlu
luhlulwe
luis
luiz
lujolise
luka
lukamabonakude
lukarhulumente
lukhawuleze
lukhona
lukhoyo
lukhulu
lukhwekhwe
lukwazi
lula
lulandelayo
lulapha
lulawulo
lullabies
lulo
luluhlu
luluntu
lulwandle
lulwazi
lulwimi
lumps
lunar
luncedo
lund
lune
lungaka
lungathi
lungekho
lungu
luni
luninzi
lunxulumano
lunyawo
lunye
luphambi
luphathe
luphawu
luphela
luphondo
luqale
luqobisene
luquka
lusapho
lusebenza
lusebenzisa
lusenzeka
lusenziwa
lusephambi
lusetyenziswa
lusikisiki
lusinga
lusithi
lusiza
lusoloko
lusuku
lusuleleko
lusulelo
luthe
luther
luthetha
luthi
luthile
luthotho
luthuli
lutsha
lutshintsho
luvela
luvo
luvuno
luvuyo
luxhaphake
luxhomekeke
luxinzelelo
luya
luyakwazi
luye
luza
lv
lvez
lwaba
lwababukeli
lwabafundi
lwabantsundu
lwabantu
lwabantwana
lwabo
lwafudukela
lwahlala
lwahlulwe
lwakhe
lwakho
lwakowabo
lwakutsha
lwale
lwalo
lwaloo
lwalowo
lwalubizwa
lwalutho
lwama
lwamachiza
lwamagama
lwamagosa
lwamahlaya
lwamalungu
lwamanani
lwamandla
lwamanqaku
lwamanye
lwamanzi
lwamashumi
lwamazwe
lwamlandela
lwandle
lwangaphandle
lwango
lwangonaphakade
lwaphela
lwaqala
lwaqatshelwa
lwase
lwaseberlin
lwasebritane
lwaseburhulumenteni
lwaseindiya
lwasejamani
lwasekhaya
lwasemelika
lwasemhlabeni
lwasemntla
lwasempumalanga
lwasemzantsi
lwasentshona
lwasuka
lwathi
lwawo
lwaye
lwayo
lwaza
lwaze
lwazi
lwaziwayo
lwazo
lwe
lwebele
lwebhaktheriya
lwebhayibhile
lwecovid
lwee
lweekwayara
lweelwimi
lweembasa
lweemoto
lweencwadi
lweenkobe
lweenkqubo
lweenqwelo
lweentsholongwane
lwegama
lwegazi
lwehepatitis
lwehlabathi
lwekoloni
lwekwayara
lwelizwekazi
lwemdr
lwemfene
lweminyaka
lwemithi
lwemozulu
lwempilo
lwemveli
lwenani
lwendumasiso
lwengingqi
lwenkobe
lwenoveli
lwenqwelo
lwentando
lwentetho
lwentlanzi
lwento
lwentsholongwane
lwentshukumo
lwenza
lwenze
lwenzeke
lwenziwa
lwenziwe
lwephondo
lwesi
lwesibhozo
lwesibhulu
lwesibini
lwesifo
lwesilwanyana
lwesingesi
lwesini
lwesintu
lwesisuthu
lwesithathu
lwesitswana
lwesityalo
lwesixhenxe
lwesixhosa
lwesizulu
lwesizwe
lwexhwili
lwezakhono
lwezandla
lwezemidlalo
lwezenzululwazi
lwezi
lwezifo
lwezifundiswa
lwezikolo
lwezilwanyana
lwezinto
lwezinye
lwezityalo
lwezizwe
lwimi
lysistemon
m
ma
maaba
mabali
mabandla
mabangalimameli
mabaso
mabini
mac
macala
macalana
macdonald
macedonianame
macgregor
machel
machine
machines
macqueen
made
madeleine
madiba
madikizela
madison
madoda
madonna
madrid
maestro
mafikeng
mafutha
magama
magazine
magema
magnetic
magwalandini
magwaza
maharaj
mahatma
mahikeng
mahlambahlaletyeni
mahluko
mail
main
mainly
maintained
maitland
majeke
major
majority
make
makeba
makedoni
makemake
makenze
makes
makgomo
makhanda
makhe
makhulu
making
makiwane
makube
makubekho
mal
malagasy
malala
malan
malandelwa
malangana
malcolm
male
males
mali
malilelwa
malotana
malunga
malungu
mama
mamelodi
mammals
man
management
manager
manani
manchester
manci
mancroft
mandela
mandiraja
mandisa
mandithi
mandla
mandulo
mane
manga
manganese
mangcu
maninzi
mankiewicz
mann
manners
mano
manson
manual
manuscript
many
manyano
manyathelo
manzi
manzini
mao
map
maphandle
maphepha
maphorisa
maplandia
maqanda
maqela
maqoma
mar
maracana
maracanazo
marcelo
march
marconi
marcos
marcus
margaret
marguerite
marhamncwa
maria
marie
marilyn
marimba
marion
maritz
mark
marriage
married
marshal
marshall
martha
marti
martial
martin
martins
marx
mary
masekela
maseko
mashalaba
mashinini
masiguqule
masikhe
masila
masithi
mason
mass
massive
master
mat
matallo
matanzima
matatiele
match
matches
material
materials
math
mathanzima
mathathu
mathbf
mathematical
mathematicians
mathematics
mathematika
mathers
mathosa
mathrm
maths
matiki
matsha
matshaya
matshi
matshini
matt
matter
matthew
matthews
maurice
mawawa
max
maxa
maxeke
maxesha
maxhosa
maxim
maximum
may
maya
mayelana
mayeza
mayibe
mayo
mayonnaise
mayor
mayweather
maze
mazibe
mazwai
mazwe
mazwekazi
mazwi
mba
mbala
mbali
mbandela
mbasa
mbathane
mbeki
mbewu
mbhali
mbhalo
mbingwa
mbini
mbombela
mbona
mboniso
mbono
mbotho
mbuli
mbulu
mbuso
mbutho
mccarthy
mccartney
mcglaughlin
mchiza
mcimbi
mcingana
mckay
mculi
mda
mdaka
mdala
mde
mdibaniso
mdlali
mdlalo
me
mean
meaning
meanings
means
measure
measured
measurement
measures
meat
mec
mechanical
mechanics
medals
media
medical
medicine
medieval
medium
meer
meets
meiosis
meir
meko
mel
melana
melbourne
melika
melville
member
members
memorial
memory
men
mendeleev
menezes
ment
mentioned
menzi
mephu
merchant
mercury
merriam
mers
messenger
metabolism
metal
metalloids
metals
meteorites
method
methods
metro
metropolitan
mexico
meyi
mfana
mfanekiso
mfaz
mfazi
mfazwe
mfecane
mfengu
mfo
mfondini
mfundi
mfundisi
mfundo
mg
mgama
mgaqo
mgca
mgijima
mgqwetho
mhla
mhlaba
mhlambi
mhlawumbi
mhlekazi
mhlongo
mhlophe
mhudi
mi
miami
miba
mibhalo
mibhobho
mibini
mibuzo
mica
mice
michael
michel
michelangelo
mick
mickey
micro
microscope
microscopic
microsoft
middelburg
middle
midfielder
midlalo
mifanekiso
mifino
migaqo
migca
migudu
miguel
mihailovic
mihla
mike
mikhail
mikhosi
mikhulu
milambo
milan
milancity
mile
miles
military
milk
mill
miller
milliard
million
milne
milnerton
milovan
milton
min
mind
mine
mineira
mineiro
mineral
minerals
mini
mining
mininzi
minister
ministry
minority
minus
minyaka
miriam
misebenzi
misela
mission
missionaries
missionary
missions
mitch
mitchell
mitha
mithambo
mithathu
mithetho
mithi
mixed
mixture
mixube
miyamoto
mizamo
mizekelo
mizuzu
mjoli
mk
mkhenkce
mkhont
mkhosi
mkhuba
mkhulu
mkhwanazi
mkhwetha
mkutukana
mladenovi
mlamb
mlambo
mlangeni
mlanjana
mlawu
mlilo
mlinganiselo
mlomo
mlonyeni
mm
mmandla
mn
mna
mncinane
mngeni
mnguni
mngxuma
mni
mnikelo
mninzi
mnombo
mntla
mntu
mntungwa
mntwana
mntwanam
mnyama
mnyamana
mnye
mo
moawad
mobile
model
modern
moffat
mofolo
moh
mokoena
molar
molars
mole
molecular
molecule
molecules
molteno
mome
moment
moments
momentum
momoko
mon
monaco
monarch
monastery
mongameli
mongo
monitor
monitors
mono
monroe
monte
montenegrin
montenegro
montesquieu
month
months
monument
monumi
moon
moore
moose
more
morena
morley
mormoni
morre
morris
morrison
morton
mosaic
moscou
most
mostly
mother
motherland
motion
motlanthe
moto
mount
mountain
mountains
mouse
mouth
move
moved
movement
moves
movie
moya
mozart
mp
mpandla
mparanyana
mpawu
mpela
mpemvu
mph
mphahlele
mpharanyana
mphathiswa
mpi
mpikiswano
mpilo
mpinga
mpondo
mpondomise
mpuma
mpumalanga
mqhayi
mqolo
mqombothi
mr
mrs
msebenzi
msinya
msitho
msuthu
mthatha
mthetho
mthethweni
mthi
mthombo
mthubi
mthwakazi
mtshato
much
muckleneuk
mugabe
muhammad
muir
multi
multibacillary
multicellular
multiple
multipurpose
mundo
municipality
munshi
murray
musa
muscles
museum
music
musical
musician
musk
mussolini
must
mustafa
mutations
mutual
mva
mvaba
mvana
mvelaphi
mveliso
mvula
mvume
mvumi
mxube
my
myalezo
mycobacterium
myocardium
mystery
mzansi
mzantsi
mzekelo
mzekweni
mzi
mzimba
mzimkhulu
mzobo
mzolisa
mzuzu
n
na
naanko
naba
nabadala
nabafazi
nabafundi
nabahlali
nabahlobo
nabalingane
nabamhlophe
nabane
nabani
nabaninawa
nabantakwabo
nabantu
nabantwana
nabanye
nabasebenzi
nabaxhaphazi
nabayili
nabazali
nabazukulwana
nabelungu
nabemi
nabizwa
nabo
nacional
nagalel
nakho
nako
naku
nakuba
nakubani
nakubantu
nakuhlala
nakumaxesha
nakumazantsi
nakumaziko
nakumazwe
nakumzantsi
nakunyaniseka
nakwabanye
nakwamanye
nakwelamandebele
nakweminye
nakwenye
nakweyiphi
nakwezinye
nakwi
nakwii
nakwiindawo
nakwimozulu
nakwindawo
nakwindlela
nakwiqela
nakwixesha
nakwizifundo
nala
nalamasetilane
nalapha
nalapho
nalawo
nale
naleyo
nali
naliphi
nalo
naloo
nalowo
naluphi
nam
nama
namabali
namadoda
namadodana
namagama
namagqabi
namagqwetha
namagubu
namajelo
namakhaladi
namakhaya
namakhulu
namalawu
namalungelo
namalungu
namanani
namandla
namangesi
namantombazana
namanye
namanzi
namaphondo
namaphupha
namaqanda
namaqela
namaqhalo
namaqhina
namasebe
namashumi
namasiko
namathumbu
namava
namawa
namaxhosa
namaziko
namazwe
namazwi
nambini
name
named
names
namhla
namhlanje
namhlophe
namnye
nanamhla
nancy
nande
nanga
nangabantu
nangakumbi
nangakunxweme
nangaphandle
nangaphezu
nangaphezulu
nange
nangee
nangenxa
nangesingesi
nangesixhosa
nango
nangobukhulu
nangojanuwari
nangoko
nangoku
nangokuthi
nangona
nani
nanini
nanjengempelesi
nanjengoko
nanjengokuba
nanko
nanku
nanto
nantoni
nantonina
nantsi
nantso
nanye
naphantsi
naphezu
naphezulu
naphi
naphila
napier
napoleon
narrow
naruhito
naruto
nasa
nasal
nase
naseafrika
naseboston
nasegoli
nasekuhlaleni
nasekuncedeni
nasekuswelekeni
nasekwenzeni
nasemanzini
nasempuma
nasemva
nasemzantsi
nasemzimbeni
nasentshona
nasetoronto
naseunited
nasi
nasiphi
nasisifo
naso
nat
natal
natala
natalie
nate
nathaniel
nathi
nation
national
nationalist
nations
native
natural
nature
natya
naude
navy
nawe
nawo
nawuphi
naxa
naye
nayiphi
nayo
nazi
naziphi
nazo
nbc
ncam
nceda
nchez
nchu
ncia
nciba
ncinane
ncuthu
ncwadi
ncwane
nd
ndaba
ndabhabha
ndabuyela
ndafunda
ndala
ndaweni
ndawo
ndawoninye
ndawonye
ndaye
ndazalelwa
ndebe
ndebele
ndenze
ndibalise
ndibano
ndibe
ndibephakathi
ndidi
ndidiniwe
ndifumana
ndifunde
ndifung
ndihamba
ndikhethe
ndikutyele
ndila
ndim
ndima
ndingowamazwe
ndinomtha
ndisenza
ndishiya
ndithe
ndithenge
ndithetha
ndithi
nditsho
ndiya
ndizeke
ndiziva
ndlebe
ndlela
ndlovu
ndlu
ndoda
nduku
ndzabedvolo
ne
neafrika
near
nebaxter
nebhokhwe
nebizwa
nebomvu
nebonakalayo
necandelo
necip
neck
necwenge
nedic
nedolophu
nee
need
needrama
neegusha
neekhilomitha
neekholeji
neelali
neelwimi
neemagazini
neematshini
neembasa
neemeko
neemfazwe
neemitha
neemoto
neempawu
neempazamo
neempondo
neemvumi
neendaba
neendawo
neendlela
neengoma
neengxaki
neenjongo
neenkasi
neenkomo
neenkonzo
neenkosi
neenkqubo
neenkunzi
neenqanawa
neenqwelo
neentaba
neentaka
neentatheli
neentlobo
neentlungu
neentombi
neentsapho
neentsholongwane
neentshukumo
neentsimbi
neenyawo
neenzwane
neepesenti
neeproteni
neeqhiya
neeristocracies
neetafile
neeteksi
neetitshala
neetoni
neetyuwa
neeyunithi
nefuthe
negalelo
negama
negative
negazi
negumbi
nehectic
nehip
nehlabathi
neil
neilos
nejamani
nekhaya
nekhayelitsha
nekuthiwa
nekuyeyona
nekuyiyo
nekwayara
nekwaziyo
nelanga
nele
neli
nelinye
nelithetha
nelithi
neliya
nelizwe
nelokishi
nelson
nelspruit
nelungu
nemagazini
nemagic
nemali
nembali
nembasa
nembewu
nembi
nembongi
nemeko
nemfundo
nemfuyo
nemiba
nemibhaco
nemibongo
nemiboniso
nemibutho
nemicimbi
nemidlalo
nemifanekiso
nemifuno
nemigaqo
nemigqomo
nemikhosi
nemilambo
nemilenze
nemimandla
nemimiselo
nemincili
neminyaka
neminye
nemiphunga
nemisebenzi
nemithetho
nemithi
nemivo
nemozulu
nempahla
nempilo
nempumelelo
nemvelaphi
nemveliso
nemvumi
nenani
nenaruto
nencwadi
nendawo
nendebe
nendlela
nendlu
nendoda
nengamanzi
nengca
nengcinezelo
nengenamandla
nengenambala
nengilandi
nengoma
nengqiqo
nengqondo
nenkampani
nenkathalo
nenkcubeko
nenkohlakalo
nenkokheli
nenkolo
nenkomo
nenkosana
nenkosazana
nenkosi
nenkosikazi
nenkululeko
nenkunzi
nenqanaba
nentatheli
nentetho
nentlango
nentlanzi
nentliziyo
nentloko
nentlungu
nentlupheko
nento
nentokazi
nentombi
nentsholongwane
nentshutshiso
nenxalenye
nenyama
nenye
nenzululwazi
nenzwakazi
neotropical
nephondo
neqela
neqhagamshela
nequlathe
neriphabhlikhi
nerves
nesanti
nesetyenziswa
neshumi
nesi
nesibhulu
nesidima
nesifo
nesijamani
nesikhumba
nesiko
nesimbo
nesindebele
nesingesi
nesiphelo
nesipho
nesiphumo
nesiphuthukezi
nesiqingatha
nesisetyenziswa
nesisu
nesitsonga
nesitswana
nesixeko
nesixhenxe
nesixhosa
nesizathu
nesizulu
nesizwe
nesouth
neswekile
net
netherlands
nethi
nethunga
netrayethloni
netshantliziyo
network
networks
netyuwa
neutral
neutron
neutrons
never
nevi
nevili
new
newcastle
news
newspaper
newspapers
newton
nexesha
next
neyama
neyathi
neyayifudula
neyaziwa
neye
neyesi
neyityhefu
neymar
neyona
neyoo
neyunivesithi
neyurophu
nezabakho
nezakha
nezamashishini
nezamazwe
nezandi
nezandla
nezaziphuma
nezaziwayo
nezenkcubeko
nezenzo
nezi
nezibizwa
nezibongo
nezifo
nezifundo
nezigidi
neziko
nezikolo
nezikumkani
nezilwanyana
nezimdaka
nezindlu
nezinja
nezinto
nezinyanya
nezinye
neziphumo
neziqhamo
neziqithi
neziqondakalayo
nezithethe
nezityalo
nezixhobo
neziyityhefu
nezizalwane
nezizukulwana
nezizwe
nezo
nezobugcisa
nezolo
nezopolitiko
nezoqoqosho
ng
ngaba
ngababhali
ngabafazi
ngabafundi
ngabafundisi
ngabahlali
ngabakwa
ngabantu
ngabantwana
ngabanye
ngabasemagunyeni
ngabasentshona
ngabasetyhini
ngabathwa
ngabazali
ngabemi
ngabo
ngabom
ngabona
ngabula
ngako
ngakona
ngakulo
ngakumbi
ngakumda
ngakunxweme
ngakutsha
ngakwicala
ngala
ngalaa
ngale
ngalinye
ngalo
ngaloo
ngalunye
ngama
ngamacandelo
ngamadoda
ngamafutha
ngamafutshane
ngamagama
ngamagqobhoka
ngamagumbi
ngamakhamandela
ngamakhoboka
ngamakhulu
ngamalahle
ngamalulwane
ngamalungelo
ngamalungu
ngamanani
ngamandla
ngamanina
ngamanqaku
ngamanye
ngamanz
ngamanzi
ngamaphakathi
ngamaphondo
ngamapolisa
ngamaqela
ngamaqhinga
ngamaroma
ngamasebe
ngamashumi
ngamasiko
ngamathambo
ngamatye
ngamatyeli
ngamava
ngamawaka
ngamaxesha
ngamaxhoba
ngamaxhosa
ngamayurophu
ngamazinyo
ngamazwe
ngamazwekazi
ngamazwi
ngamehlo
ngamhla
ngamini
ngamininye
ngamnye
ngandlela
nganeno
ngangokude
ngangomhlaba
ngangona
ngankana
nganto
ngantoni
ngantsomi
nganye
ngaphakathi
ngaphambi
ngaphambili
ngaphandle
ngaphantsi
ngaphaya
ngaphesheya
ngaphezu
ngaphezulu
ngase
ngasebuhlanti
ngasegcuwa
ngasegqugesi
ngasekatala
ngasekhohlo
ngasekunene
ngasekupheleni
ngasempuma
ngasemva
ngasentla
ngasentshona
ngasese
ngasinye
ngaso
ngasonye
ngathi
ngawe
ngawo
ngawona
ngaxa
ngaxesha
ngaxeshanye
ngaye
ngayo
ngazo
ngcaciso
ngcali
ngcamango
ngcembe
ngcileza
ngcobo
ngconde
ngcono
ngcu
nge
ngebala
ngebhasi
ngecawa
ngee
ngeegutsi
ngeekholeji
ngeekhompyutha
ngeelwimi
ngeembali
ngeempumlo
ngeendaba
ngeendawo
ngeendidi
ngeendlela
ngeengcambu
ngeengcinga
ngeengcingo
ngeenjongo
ngeenkomo
ngeenkuni
ngeenkwenkwezi
ngeentlanga
ngeentlobo
ngeentloko
ngeentombi
ngeevidiyo
ngegalelo
ngegama
ngegqudu
ngehlabathi
ngejelo
ngejoni
ngekacanzibe
ngekhompyutha
ngekhulu
ngelaxesha
ngeli
ngelinye
ngelishwa
ngeliso
ngelithi
ngelixa
ngelixesha
ngelizwe
ngelizwi
ngelo
ngelwimi
ngemali
ngembali
ngembasa
ngembeko
ngemfazwe
ngemfundo
ngemihla
ngemilomo
ngemini
ngeminyaka
ngemisebenzi
ngemithetho
ngemithi
ngemixube
ngemizuzu
ngempilo
ngempumelelo
ngemva
ngemvelaphi
ngemvume
ngenani
ngendalo
ngendawo
ngendebe
ngendlala
ngendlela
ngendlu
ngenene
ngenfazwe
ngengoma
ngengqondo
ngeniso
ngenjongo
ngenkangeleko
ngenkolo
ngenkqubo
ngenkulungwane
ngenombolo
ngenqanawa
ngentengiso
ngentetho
ngentla
ngentloko
ngento
ngentonga
ngentsasa
ngentsebenziswano
ngentsingiselo
ngenxa
ngenxeni
ngenyameko
ngenyanga
ngenye
ngephulo
ngeplastiki
ngeplatinam
ngeqhina
ngequbuliso
ngesakhono
ngesandla
ngesantya
ngesemiqolombeni
ngesenzo
ngesi
ngesibhulu
ngesibindi
ngesiciko
ngesidanga
ngesiduko
ngesifrentshi
ngesigidi
ngesihloko
ngesijamani
ngesikhumba
ngesiko
ngesilatin
ngesilatini
ngesilungu
ngesimo
ngesingesi
ngesinye
ngesiqhelo
ngesiqu
ngesiquphe
ngesisuthu
ngesixhosa
ngesizathu
ngesizulu
ngeso
ngesondo
ngeteksi
ngethemba
ngethuba
ngevidiyo
ngexa
ngexabiso
ngexesha
ngeyenkanga
ngeyethupha
ngeyokwindla
ngeyomdumba
ngeyomqungu
ngeyona
ngeyure
ngezandi
ngezandla
ngezantsi
ngezelelo
ngezenzo
ngezi
ngezibalo
ngezicwangciso
ngezifundo
ngezigaba
ngeziganeko
ngezigidi
ngezihlandlo
ngezilwanyana
ngezinto
ngezinye
ngezithethe
ngezixhobo
ngezizathu
ngezizukulwana
ngezizwe
ngezopolitiko
ngilane
ngingqi
ngo
ngoaprili
ngoba
ngobisi
ngobizet
ngobomi
ngobu
ngobuchule
ngobude
ngobugcisa
ngobugqwirha
ngobuhlanga
ngobukho
ngobukhosi
ngobukhulu
ngobume
ngobumnyama
ngobunjalo
ngobunono
ngobunzululwazi
ngobuso
ngobusuku
ngobutyebi
ngocoselelo
ngodisemba
ngofebruwari
ngoguquko
ngohlaselo
ngohlobo
ngojanuwari
ngojulayi
ngojuni
ngokhuni
ngoko
ngokobuhlanga
ngokobuzwe
ngokohlobo
ngokokuba
ngokokude
ngokokulandelelana
ngokokutsho
ngokokwakhe
ngokokwazo
ngokombala
ngokomfanekiselo
ngokomgaqo
ngokomnombo
ngokomphefumlo
ngokomsebenzi
ngokomthetho
ngokomzimba
ngokongeza
ngoku
ngokuba
ngokubaluleka
ngokubanzi
ngokubasa
ngokubeka
ngokubhalwa
ngokubhalwe
ngokubhekiselele
ngokubhukuqa
ngokubizwa
ngokubona
ngokubulala
ngokucace
ngokucacileyo
ngokuchanekileyo
ngokuchasene
ngokuchaseneyo
ngokudibana
ngokudibanisa
ngokufana
ngokufanayo
ngokufanelekileyo
ngokufumana
ngokufutshane
ngokugqibeleleyo
ngokugqithiseleyo
ngokugqithisileyo
ngokuhamba
ngokuhambelana
ngokuhambisa
ngokujonga
ngokuka
ngokukhanya
ngokukhawuleza
ngokukhululekileyo
ngokukhuselekileyo
ngokukodwa
ngokulandela
ngokulandelelana
ngokulinganayo
ngokulula
ngokuma
ngokumalunga
ngokumandla
ngokumangalisayo
ngokuncipha
ngokunciphisa
ngokunga
ngokungabi
ngokungadinwa
ngokungafaniyo
ngokungathanga
ngokungathi
ngokungenakulinganiswa
ngokunika
ngokunjalo
ngokunqumla
ngokunxulumene
ngokuphandle
ngokuphathana
ngokupheleleyo
ngokuphelelyo
ngokuphindaphindwe
ngokuqala
ngokuqhelekileyo
ngokuqhubekayo
ngokuqinisekileyo
ngokuqwalasela
ngokusasazeka
ngokusebenza
ngokusebenzisa
ngokusemthethweni
ngokusesikweni
ngokusetyenziswa
ngokusisigxina
ngokusoloko
ngokusuka
ngokusungulwa
ngokuthanda
ngokuthatha
ngokuthe
ngokuthetha
ngokuthi
ngokuthintela
ngokutsha
ngokutshiswa
ngokutsho
ngokutya
ngokuva
ngokuvakalayo
ngokuwela
ngokuya
ngokuyokuhlala
ngokuzalana
ngokuzalwa
ngokuzama
ngokuzenzekelayo
ngokuzingela
ngokuzinikela
ngokwa
ngokwabo
ngokwahlukana
ngokwahlukeneyo
ngokwahlula
ngokwakhe
ngokwakho
ngokwakwa
ngokwale
ngokwalo
ngokwamaxesha
ngokwanda
ngokwaneleyo
ngokwase
ngokwaseburhulumenteni
ngokwasekuhlaleni
ngokwasemthethweni
ngokwasengqondweni
ngokwasentlalweni
ngokwaso
ngokwayo
ngokwazo
ngokwe
ngokwebala
ngokwee
ngokweesimboli
ngokwembali
ngokwemigaqo
ngokwemithetho
ngokwemo
ngokwempilo
ngokwemveli
ngokwendalo
ngokwendlela
ngokwenene
ngokwengxelo
ngokwenjenjalo
ngokwenkcubeko
ngokwentetho
ngokwentlalo
ngokwentsusa
ngokwenza
ngokwenzeka
ngokwenziwa
ngokwesikhundla
ngokwesiko
ngokwesini
ngokwesintu
ngokwesiqhelo
ngokwesithethe
ngokwesondo
ngokwezifundo
ngolawulo
ngolo
ngolona
ngolu
ngoluhlobo
ngolunya
ngolunye
ngolwandle
ngolwazi
ngolwesihlanu
ngolwimi
ngoma
ngomama
ngomatshi
ngomatshini
ngombala
ngombane
ngombhobho
ngomeyi
ngomfundisi
ngomgca
ngomgidi
ngomhla
ngomhlaba
ngomkhenkce
ngomlilo
ngomlo
ngomlomo
ngomnqophiso
ngomntu
ngomntwana
ngomnyaka
ngomnye
ngomoya
ngomsebenzi
ngomso
ngomxube
ngomyaka
ngomzila
ngomzimba
ngomzuzu
ngomzuzwana
ngonaphakade
ngoni
ngonongqawuse
ngononophelo
ngonovemba
ngonyaka
ngonyama
ngonyango
ngoo
ngoondiyalwa
ngoonina
ngoonobuyisa
ngoonolali
ngophawu
ngophoyiyana
ngosarastro
ngoseptemba
ngosiba
ngosuku
ngothando
ngotshazimpuzi
ngowama
ngowaxa
ngowe
ngowokokuba
ngowokuqala
ngowona
ngoxa
ngoxolo
ngoyena
ngoyi
ngoyise
ngozi
ngqalelo
ngqika
ngqo
ngqokolela
ngqolomsila
ngqondo
ngqondweni
ngqonweni
ngqwayi
ngu
nguban
ngubani
ngubengcuka
ngugawulayo
ngugeorges
ngugqirha
ngukumkani
ngulo
nguloo
ngulowo
ngumama
ngumanyano
ngumasipala
ngumatshini
ngumba
ngumbala
ngumbhali
ngumbutho
ngumcimbi
ngumculi
ngumculo
ngumdali
ngumdlali
ngumdlalo
ngumfanekiso
ngumfazi
ngumfo
ngumfundi
ngumfundisi
ngumgama
ngumgca
ngumgungundlovu
ngumhlaba
ngumkhenkce
ngumkhosi
ngumlambo
ngumlawuli
ngumlilo
ngumlu
ngummandla
ngumntla
ngumntu
ngumntwana
ngumondli
ngumongameli
ngumongikazi
ngumongo
ngumoya
ngumphathiswa
ngumpolitiki
ngumprofeti
ngumsebenzi
ngumthetho
ngumthi
ngumtya
ngumvelisi
ngumxhosa
ngumxube
ngumyeni
ngumzantsi
ngumzekelo
ngumzi
ngumzimba
ngunaphakade
ngundlunkulu
ngunelson
ngungcwangu
ngunobangela
ngunongendi
ngunozinti
ngunyana
nguphondo
nguqelezana
nguqob
ngurhulumente
ngusamuel
ngusathana
nguscott
ngusuthu
ngutata
nguthixo
ngutiyo
ngutshiwo
nguwe
nguwilliam
nguwolfgang
nguye
nguyise
ngwane
ngxaki
ngxelo
ngxi
ngxoxo
nhat
nhose
ni
nia
nibe
nibiza
nicholas
nick
nickel
nickelodeon
nicknamed
nicknames
nicolas
nicole
nid
niels
nigel
nigeria
night
nikho
nikola
nile
nina
nine
nini
ninja
ninjas
ninombulelo
ninzi
nio
nisuke
nithe
nithi
nitrogen
niyakubona
niye
niyenze
nize
nja
njalo
njani
nje
njenee
njengababo
njengabantu
njengabona
njengakumanani
njengakwi
njengaleyo
njengamanzi
njengaxa
njengaye
njengazo
njenge
njengebhayibhile
njengedolophu
njengee
njengeendlela
njengegama
njengejaji
njengejoni
njengelizwe
njengelona
njengelungu
njengembongi
njengemicimbi
njengemvumi
njengenani
njengendawo
njengendlela
njengenkokheli
njengenkoliso
njengenkosikazi
njengentloko
njengento
njengenxalenye
njengenyama
njengenye
njengephephandaba
njengesenzo
njengesifo
njengesikhumbuzo
njengesiqhelo
njengesithunywa
njengesixeko
njengesixhobo
njengesona
njengeyona
njengezifo
njengezilwanyana
njengezinto
njengezinye
njengo
njengoamanda
njengoba
njengocarmen
njengohlobo
njengoko
njengokuba
njengokungaqatshelwa
njengolona
njengolwimi
njengombhali
njengomfundi
njengomfundisi
njengomhleli
njengomkhuseli
njengomlawuli
njengomntu
njengomnye
njengomongameli
njengomongikazi
njengomsebenzi
njengomthombo
njengomzekelo
njengomzobi
njengonobhala
njengonobulungisa
njengonyana
njengosuleleko
njengotitshala
njengoyena
njeya
njl
njongo
nkam
nkampani
nkazana
nkcaza
nkcazo
nkcubeko
nkoi
nkolo
nkomfa
nkomo
nkonzo
nkosazana
nkosi
nkosikazi
nkosiyamntu
nkosiyane
nkqi
nkqo
nkqu
nkqubela
nkqubo
nkulu
nkululeko
nkulungwane
nkunzi
nkwali
nkwenkwe
nls
nntv
no
noah
noalice
noam
noba
nobangela
nobawo
nobel
nobhala
nobill
nobomi
nobuchwepheshe
nobudala
nobudlelwane
nobukhulu
nobukomanisi
nobulungisa
nobumba
nobume
nobumnyama
nobuncinane
nobundlobongela
nobungakanani
nobungqina
nobuntatheli
nobuntu
nobunzima
nobushushu
nobusuku
nobuyisa
nocalu
nocalucalulo
nodade
node
nodj
nohlanga
nohlaziyo
nohlinzo
nohlobo
nojan
nojohn
nokama
nokhuseleko
noko
nokohluka
nokojiwa
nokokuba
nokoyika
noku
nokuba
nokubamba
nokubhala
nokubheka
nokubona
nokucaphuka
nokucinezelwa
nokufa
nokufunda
nokugcina
nokugweba
nokuhlala
nokuhlanganisa
nokujonga
nokukhuliswa
nokulungiselela
nokulungiswa
nokungabikho
nokungalingani
nokungcola
nokungena
nokunika
nokunqanda
nokunxibelelana
nokunxulumana
nokunyuka
nokupapasha
nokuphazamiseka
nokuphefumla
nokuphendula
nokuphila
nokuphononongwa
nokuphucula
nokuphuma
nokuqondana
nokusebenza
nokusekwa
nokusetyenziswa
nokusilwa
nokususa
nokuswela
nokuthetha
nokuthintela
nokutya
nokuya
nokuzimisela
nokuzingela
nokuzola
nokwahlula
nokwakha
nokwamkela
nokwamkelwa
nokwangumhlolokazi
nokwe
nokwenza
nokwenziwa
nolanga
nolawulo
nolilian
nolu
nolubizwa
nolumanyano
nolunempembelelo
noluntu
nolunye
nolutsha
noluya
nolwandle
nolwazi
nolwimi
noma
nomabonakude
nomama
nomanyano
nomary
nomathamsanqa
nombane
nombhali
nombolo
nombona
nomboniso
nombono
nombulelo
nombutho
nomcelimngeni
nomculo
nomdange
nomdla
nomdlalo
nomfazi
nomfundi
nomfundisi
nomgama
nomgangatho
nomgca
nomgijimi
nomgubo
nomhla
nomhlaba
nomhleli
nomhlobo
nomkakhe
nomkhosi
nomkhuhlane
nomkhuseli
nomkristu
nomlambo
nomlinganiselo
nomlobi
nommandla
nomncedisi
nomnqophiso
nomnqweno
nomntakwabo
nomntla
nomntu
nomntwana
nomnumzana
nomnye
nomongameli
nomoya
nomphathi
nomphezulu
nomsebenzi
nomthetho
nomvangeli
nomvula
nomxhasi
nomyalelo
nomyalezo
nomyeni
nomzabalazo
nomzali
nomzantsi
nomzi
nomzila
nomzimba
non
noncwadi
nondlambe
none
nonelson
nongqika
noni
nonina
noninzi
nonkala
nonkosi
nonkululeko
nonmetal
nonmetals
nontando
nontetha
nontsikelelo
nonxibelelwano
nonxulumano
nonxweme
nonyaka
nonyana
nonyango
nonzwakazi
noo
noochwephesha
noodade
noodadewabo
noogxa
noomama
noorhulumente
noosibonda
nopamina
nopatience
nophando
nophawu
nophuhliso
nopolitiko
noqoqosho
nor
nord
norharhabe
norhulumente
normal
norman
north
northern
noruth
nosakura
nosapho
nosasuke
nose
nosoloko
nosuleleko
not
notamino
notata
notation
note
notes
nothando
nothe
nothente
nothing
nothintelo
nothixo
nothotho
nothumela
notom
notyando
notywala
noun
nouns
nova
novel
novela
novelists
novemba
november
novukelo
now
nowally
nowalter
nowathi
nowaye
nowayefudula
nowayesakuba
nowaziwa
nowe
nowenu
nowezopoliyiko
noxa
noxolo
noyi
noyise
nozindziswa
nozulu
nozwane
nqa
nqaba
nqadalala
nqaku
nqolo
nqwa
nqwelo
ntaba
ntabethemba
ntaka
ntanga
ntantala
ntathu
ntetho
ntlambo
ntlanga
ntle
ntliziyo
ntlobo
ntloko
ntloni
nto
ntombi
ntoni
ntsapho
ntsebeza
ntselamanzi
ntshantsha
ntsholongwane
ntshona
ntshontsho
ntshukumo
ntsikana
ntsingiselo
ntsomi
ntsuku
ntu
ntuli
ntwana
ntweni
nuclear
nuclei
nucleic
nucleus
nueva
nuit
number
numbers
numerals
nupedia
nusas
nussbaum
nutrition
nxa
nxamnye
nxaxheba
nxele
ny
nyaka
nyama
nyana
nyanga
nyango
nyaniso
nyathi
nyawo
nyawuza
nye
nyoka
nzala
nzame
nzima
nzipho
nzulu
nzululwazi
nzuzo
nzwakazi
o
oa
oasis
obakhe
obalaseleyo
obaluleke
obalulekileyo
obathi
obekwe
obele
obelelinye
oberlin
obesithathu
obhalwe
obhinqileyo
obito
obizwa
object
objects
obo
obomi
obomvu
obona
obonakalisa
obonisa
observed
obstruction
obtained
obu
obudala
obude
obufanelw
obugqibeleleyo
obuhle
obuhlungu
obukhoyo
obukhulu
obumnyama
obungama
obunye
obuphezulu
obushushu
obusoloko
obuthile
obutsha
obuvela
obuyi
obuzimeleyo
ocean
oceania
ochre
ococekileyo
october
oda
odd
odlala
odlalwa
odolo
odwa
of
ofana
ofanayo
ofanelekileyo
off
offerings
office
official
officially
offspring
ofisi
often
ofuna
ofunde
ogama
ogonyo
ogqwesileyo
ogulayo
oh
ohamba
ohanjwe
ohio
ohlange
ohleli
oil
ois
ojikeleze
ojiswe
ojongene
oka
okanye
okaviljoen
okhethekileyo
okholo
okhuselo
oko
okoko
okokoko
okokuba
okokugqibela
okokuqala
okona
okoxande
oksijin
oksijini
okthobha
oktobha
oku
okuba
okubala
okubalaseleyo
okubalulekileyo
okubhaliweyo
okubhalwe
okubizwa
okubukele
okubulala
okufutshane
okugonya
okugqibela
okukhulu
okulala
okulandelayo
okulawula
okumalunga
okumandla
okunene
okungazenzisiyo
okungena
okungummangaliso
okuninzi
okunxulumene
okunyanga
okunye
okuqala
okuqhelekileyo
okuqhelwe
okusilwa
okusuka
okuthi
okuthile
okutya
okuvela
okuvota
okuya
okwabizwa
okwakho
okwangoku
okwangugqirha
okwaziwayo
okwaziyo
okwe
okwengca
okwenzeka
okwenzekileyo
okwenziwa
okwesibhakabhaka
okwesibini
okwethutyana
okwexeshana
olandelayo
olawulayo
olawulo
olawulwa
old
oldjohn
oleum
oli
oligarchies
olimpiki
olishumi
oliver
olo
olona
olongezelelweyo
olonwabo
olu
olubalulekileyo
olubandakanya
olubangela
olubangelwe
olubanzi
olubizwa
olubonakala
olubonakalisa
olubonisa
olubulalayo
olucwangcisiweyo
oludala
olude
oludumileyo
olufana
olufanelekileyo
olugxile
oluhlaza
olukhawulezileyo
olukhoyo
olukhulu
olukhululekileyo
olula
olulandelayo
olulodwa
olulolwakhe
olulula
olululo
olulungileyo
oluluqilima
olumandla
olumelwe
olumhlophe
olumnyama
oluncinci
oluneempawu
olungahambeli
olungama
olungaphaya
olungaqhelekanga
olunge
olungekaphuhli
olungekho
olungu
olungumgubo
oluninzi
olunje
oluntsundu
oluntu
olunxulumene
olunye
olunzulu
oluphangaleleyo
oluphezulu
oluphondo
olusemantla
olusemazantsi
olusemthethweni
olusenokuba
olusetyenziswa
oluthe
oluthethwa
oluthethwayo
oluthi
oluthile
olutsha
oluvela
oluye
oluyi
oluyintsusa
oluzinzileyo
olwa
olwahlukileyo
olwalusenziwa
olwaluzakubanjwa
olwandle
olwaziwa
olwela
olwenza
olwenzeka
olwenziwa
olwenziwe
olympics
omabini
omalunga
omane
omar
ombane
omculo
omdala
omde
omega
omelana
omelwe
omenzi
omfutshane
omhlaba
omhle
omhlophe
omkhulu
omnandi
omncinane
omncinci
omninzi
omntu
omnyama
omnye
omthandayo
omthi
omtsha
omzabalazo
omzantsi
omzimba
on
onamandla
onamava
once
onceda
oncwadi
one
onee
oneminyaka
onempilo
ones
ongangama
ongayamkela
ongayibuzwanga
ongcolileyo
ongekho
ongenakho
ongobomi
ongu
ongumama
ongumfazi
ongummangaliso
ongumngesi
ongunyana
onjalo
onke
online
only
onobutyebi
onomjikelo
onqumla
ontsundu
onwabile
onxibe
onyaka
onyango
onye
onyikinyiki
onzima
oo
oogqirha
oogxa
ookhokho
oololiwe
oom
oomama
oomatshini
oonobumba
oonobuyisa
oononkala
oonozakuzaku
oonyana
oorhulumente
ootata
ootitshala
ooyise
op
open
opened
opening
opera
operating
operation
ophakamileyo
ophakathi
ophambili
ophando
ophantsi
ophethe
ophezulu
ophilayo
ophuma
ophumelele
ophumeleleyo
opinion
opland
opopayi
opposite
opposition
opt
oqanda
oqhelekileyo
oqingqiweyo
oqinileyo
oquka
or
oral
orange
orbit
orbits
ordained
order
orders
ordinal
ore
oregon
oregoni
orenji
org
organ
organic
organisation
organisations
organism
organisms
organization
organs
orientation
origin
original
originally
origins
orlando
orleans
orochimaru
orson
os
osapho
osasazo
oscar
osebenza
osebenzisa
osele
osemantla
osempuma
osesikweni
osetyenziswa
osezantsi
osisiseko
oslo
osman
ossetia
ostreliya
osuka
osulelekileyo
oswald
othandwa
othe
other
others
othetha
othi
othile
otto
ottoman
ou
our
ouro
ourselves
out
outer
outlook
output
outside
ova
ovela
over
overseas
ovule
ovum
ovuthuzayo
owaba
owabambelela
owabangelwa
owabangumama
owabulawa
owafika
owafumana
owamisa
owamkela
owamlungiselela
owaphika
owaqala
owasweleka
owathatha
owathi
owavula
owawubizwa
owawucetywa
owawuchasene
owawuthabatha
owaya
owayehlala
owayekuqonda
owayemi
owayeneminyaka
owayengu
owayesakuba
owayesasaza
owayesebenza
owayesele
owayesiya
owayetshatele
owayongamele
owazalwa
owaziwa
owaziwayo
owen
owenu
owenza
owenzelwa
owenziwa
owenziwe
owesibini
owesithathu
own
owogqunywe
owokuqala
owomileyo
owona
owosulelayo
oxford
oxidation
oxide
oxides
oxygen
oya
oyaziyo
oye
oyena
oyi
oyile
oyimbongi
oyingcwele
oyinkwenkwe
oyintloko
oyithethayo
oza
ozakuphindwaphindwa
ozalwa
ozayo
ozele
ozelwe
oziimitha
ozinikeleyo
ozuko
p
pa
pablo
pac
pacalt
pacaltsdorp
pacific
packaging
pad
pads
page
pages
painted
painter
painting
pair
paki
palamente
palm
palmeiras
palmer
pam
pamela
pamla
pan
panafricanarchives
pancreas
paper
papers
papua
papyrus
para
paradise
paraguay
paraguayans
parana
parents
paris
park
parker
parkes
parliament
parsons
part
particle
particles
partisans
parts
party
pass
passed
passion
password
pasteur
paterculus
paterson
paton
patrick
patrol
pattern
patterns
paucibacillary
paul
paula
pauling
paulista
paulo
pay
pc
pcr
pcs
pdf
pe
peace
pearl
pec
pedro
pele
peninsula
penis
penn
penning
penny
pentachloride
pentoxide
pentz
people
peoples
pepper
per
percentage
percy
perimeter
period
periodic
peripheral
perle
permaculture
perry
persepolis
person
personal
peru
pet
pete
peter
petersburg
petrus
pez
pg
ph
pha
phakade
phakamisa
phakathi
phambi
phambili
phandle
phando
phantse
phantsi
phases
phatho
phawu
phaya
phendula
phepha
phesha
phesheya
phetsheya
phezu
phezulu
phi
phil
philip
philippe
philippines
phillip
philosopher
philosophy
phina
phinda
phinde
phindo
phindwa
phindwe
phiri
phoenician
phofu
phondo
phosphate
phosphates
phosphide
phosphides
phosphine
phosphite
phosphites
phosphonium
phosphoric
phosphorous
phosphorus
photo
photons
photosynthesis
php
phrase
phulo
phungula
phyllis
physical
physicists
physics
physiology
phytoplankton
pi
piano
pictures
pierre
piet
pieter
pietermaritzburg
pilgrim
pine
pinker
pipes
pipistrelle
pipistrellus
pitch
pitika
pitje
pitt
pityana
pizza
plaatje
plaatjie
place
places
plain
plane
planet
planethi
plant
plants
plascon
plasma
plaster
plastic
plastiki
plateau
platelets
platinum
play
playing
plaza
please
pliny
plotarea
plotdata
plus
plutonium
pmid
png
poe
poems
poet
poetry
poets
point
poisonous
poland
pole
poles
police
polis
political
politician
politics
pollen
pollock
polokwane
polonium
polymer
polymerase
polymers
ponte
pool
pop
pope
popularly
population
populations
poqo
port
portal
portland
portrait
portugal
portuguesa
portuguese
position
positive
positron
post
potassium
potchefstroom
pottinger
powell
power
powerful
powers
pox
pp
practice
practices
pre
preaching
precipitation
precision
predation
predator
premchand
premier
premolars
presbyterian
presence
present
president
presley
press
preta
pretoria
pretorius
pretty
prevention
priestley
primary
prime
primera
prince
princess
principal
principle
principles
printers
printing
prior
priscilla
prison
private
prix
prize
pro
problems
proceedings
process
processed
processes
processing
proclus
produce
produced
producing
production
prof
professional
program
programa
programmable
programmed
programmer
programmes
programming
programs
progress
project
projection
projects
prokaryotes
prokaryotic
prominent
proper
properties
property
prophet
prophetess
proportions
prose
protected
protein
proteins
proteni
protists
proto
protocol
proton
protons
proved
province
prussia
pseudonym
psychologist
psychology
pt
ptolemy
public
publica
publication
publications
published
publishers
publishing
pulmonary
pulses
punch
punk
puppet
purcell
pure
purpose
purposes
pushkin
put
putin
puzzle
px
pyrite
q
qala
qamata
qanda
qaphela
qatar
qatha
qela
qelele
qha
qhalo
qho
qonga
qongeni
quadrillion
qualification
qualifications
quantum
quark
quarks
quartz
queen
queenstown
quilt
quite
quotient
qwaba
qwerty
r
ra
rabbi
race
racey
raceyi
rachel
racontas
radebe
radiates
radiation
radio
radioactive
rafael
railway
rain
raising
ralph
ralston
ram
ramaphosa
ran
rand
randall
random
range
ranina
ranked
ranking
rap
rare
rather
ratio
rational
ratu
rau
ravi
rawls
ray
raymond
rays
rd
rdoba
re
reach
reached
react
reaction
reactions
reactive
read
readers
ready
reagan
real
reasoning
rebellion
received
recognised
reconciliation
record
recording
records
rectangle
red
rede
redirect
reduction
refer
reference
references
referred
reform
reggae
reginald
region
regional
regions
regulations
reichstag
reidel
reign
reimagines
reine
reinet
related
relations
release
releases
relegated
relief
rely
remain
renaissance
rene
repeating
reporting
represented
reproduction
reproductive
reptile
reptiles
republic
republican
reputation
required
requirements
res
research
reserve
resource
resources
respect
respiration
respiratory
responsibility
responsible
resting
result
retief
retrieved
return
returned
rev
review
revolution
rex
reyi
rgb
rgen
rharhabe
rhodes
rholihlahla
rhoqo
rhubusana
rhudulu
rhulumente
rhythm
ri
ria
ric
rica
rice
rich
richard
richards
rick
ridge
ridges
rie
riebeek
rietfontein
right
rights
rindiens
ring
rio
rique
rise
rises
ritchie
rival
rivaldo
rive
river
rivers
rivonia
rk
ro
road
roasted
rob
robben
robbins
robert
roberto
robin
robinson
robson
rocha
rock
rocket
rocks
rodents
roger
rogers
role
roll
roma
romain
roman
romance
romania
romeo
ron
ronald
ronaldinho
ronaldo
roosevelt
root
roots
rosa
rose
rosenberg
ross
rossetti
rostrum
rot
rotation
roth
rotterdam
round
rousseau
routledge
roux
roy
royal
rsa
rsssf
rtha
rubusana
rufus
ruidi
rule
ruled
ruling
rumbold
runners
rush
russel
russell
russia
russian
rustenburg
ruth
rutherford
ry
ryan
ryu
s
sa
saa
saba
sabafazi
sabafundisi
sabantu
sabantwana
sabatha
sabbath
sabc
sabelani
sabelo
sabie
sabizwa
sabo
sabukhali
sac
sacked
sada
sade
sadf
safe
safire
safumana
sahara
saharan
sahistory
said
saint
sakha
sakhe
sakhiwa
sakhiwo
sakho
sakhono
sakudala
sakusasa
sakwazi
sales
sally
salo
saloo
salt
salts
salvador
sam
sama
samabanga
samagriqua
samalawu
samanani
samandulo
samaroma
samashumi
samaxhosa
samazulu
same
samowa
sample
samuel
san
sana
sanamhlanje
sandile
sandra
sandrock
sandton
sanelly
sanger
sango
sangoma
sanikwa
sannc
santa
santiago
santos
sapho
saqala
sar
sara
sarah
sarb
sarhili
sars
sase
saseafrika
sasebritane
sasegoli
sasejapan
sasekapa
sasemelika
sasemonti
sasemthatha
sasemzantsi
sasenew
sasentshona
saseparis
saseserbia
sasesoweto
sasetapolisi
sasincinane
saso
sasuke
sat
satellites
sathi
sathiywa
satshiswa
satsho
sauce
saul
savannah
sawo
say
saya
saying
sayo
says
saza
saziwa
sazo
sbl
sbt
scale
scalemajor
scaleminor
scent
schistosomiasis
schlee
schneider
school
schools
schopenhauer
schreimer
schwarze
science
sciences
scientific
scientists
scolari
scored
scoreless
scorer
scorers
scotland
scott
screen
script
sculptor
sculpture
se
sea
search
searle
season
sebandla
sebastian
sebe
sebenzisa
secawa
sechaba
second
secondary
secoronavirus
secretary
section
sector
security
see
seed
seeds
seeing
seelwimi
seemishinari
seen
seenkosi
seenqanawa
seenqwelo
segama
segolide
segundo
sehlabathi
sehlo
sekapa
sekusithiwa
sekutshiwo
sel
sele
selec
selected
selenium
self
selizwe
selke
selling
selope
sem
semali
seme
semfe
semfundo
semi
semiconductors
semifinals
semihla
seminyaka
semishini
semngciphekweni
sempilo
semthethweni
semvula
senani
senator
sendoda
senegal
sengqondo
senior
senkcenkce
senkomo
senkulungwane
senkundla
senna
sense
sent
sentambo
sentetho
sentliziyo
sentloko
sento
sentsholongwane
senyanga
senyongo
senza
senzakalisa
senze
senzeka
senziwa
senziwe
senzo
senzolo
sephepha
septemba
september
sequence
serb
serbian
serbo
serbs
serekhodi
serie
series
serote
served
server
service
sesangexesha
sesi
sesibindi
sesibini
sesifo
sesihlanu
sesinye
sesiphumo
sesisehlo
sesithathu
sesityalo
sesizwe
sesona
sesotho
sessions
set
seth
sethu
setjhaba
setswana
settlement
setyenziswa
seu
seven
several
sex
sexesha
sexoki
sexual
seymour
sezi
sezigidi
sezinto
sezizathu
sezona
sezopolitiko
sezulu
sh
sha
shackleton
shady
shaft
shaka
shake
shakespeare
shall
shankar
share
sharpeville
sharpville
shaw
she
sheep
shelley
shells
shepherd
shepstone
sheridan
sherman
shield
shift
shinobi
shippuden
ships
shirley
sho
shoe
shoes
shootout
short
shot
should
show
shtml
shumi
si
siba
sibakhulu
sibala
sibalaseleyo
sibaluleke
sibande
sibanzi
sibe
sibekwa
sibhale
sibhalwa
sibhalwe
sibini
sibizwa
sibona
sibonisa
sibuye
sicaka
sico
sidalwa
side
sides
sidla
sidlala
sidney
sidudu
siduko
siegel
sifana
sifika
sifo
sifumana
sifumane
sifumaneka
sifuna
sifundo
sigaba
sigama
siganeko
sign
signal
signals
signed
signs
sigqibo
sihamba
sihlala
sihlalo
sijike
sijonga
sijonge
sika
sikaedwards
sikali
sikaloliwe
sikangqika
sikarhulumente
sikawonke
sikelel
sikelela
sikhangele
sikhe
sikho
sikhulu
sikhundla
siko
sikolo
sikwazi
silibona
silicates
silicon
siluhlaza
silva
silver
silwanyana
simahla
simboli
sime
simi
similar
simmons
simo
simon
simone
simoni
simple
simpson
sims
sinamagama
since
sinclair
sine
sinee
sinenjongo
singana
singathi
singatsho
singer
singesi
singh
single
singuvimba
sini
sinikezelo
sinqabile
sintu
sinxo
sinye
sio
siphila
siphile
siphinde
siphumo
siprage
siqala
siqaphela
siqhutywe
siqiniseke
siqithi
siqobisene
sir
sisakhiwo
sisantya
sisasazeka
sisasetyenziswa
sisebenza
sisebenzisa
siseko
sisele
sisenokuba
sisenzo
sisetyenziselwa
sisetyenziswa
sisi
sisibindi
sisifo
sisifundo
sisigidi
sisihlalo
sisike
sisilo
sisilwanyana
sisingesi
sisiphumo
sisiqalo
sisiqingatha
sisiqithi
sisiseko
sisishunqulelo
sisisu
sisithethi
sisithi
sisitishi
sisitya
sisityalo
sisixa
sisixeko
sisixhobo
sisixhosa
sisizwe
siso
sisoloko
sisuka
sisulu
site
sithatha
sithe
sithetha
sithethayo
sithethe
sithethwa
sithi
sithile
sithili
sithuba
sitshilo
sitsho
sityalo
sive
sivela
siwubizile
six
sixeko
sixhaphake
sixhaphakileyo
sixhobo
siya
siyafana
siyanda
siyazi
siye
siyi
siza
sizathu
size
sized
sizenza
sizibona
sizinze
sizwe
sjid
ski
skottel
skukuza
skull
slash
slater
slavic
slim
slope
slovene
slovo
small
smaller
smart
smelling
smit
smith
smoothie
smuts
snake
snodgrass
snoop
snow
so
soap
sobhubhane
sobisi
sobuchule
sobufazi
sobugqirha
sobukwe
sobutitshala
soccer
social
society
soda
sodium
sodwa
sofia
software
soga
sohobese
soka
soko
sokokuba
sokongamela
soku
sokuba
sokubala
sokubhala
sokuchaza
sokucinezela
sokufunda
sokugqibela
sokuhamba
sokukhanya
sokukhula
sokunxibelelana
sokuphatha
sokuqala
sokuqhankqalaza
sokurekhoda
sokusebenzisa
sokuthatha
sokuthetha
sokuxhelwa
sokuzalwa
sokwenza
sol
solano
sole
solid
solids
solo
solomon
soluntu
solution
solvent
solwazi
somama
somanyano
sombinza
sombuso
somculo
some
someone
somerset
something
sometimes
somgca
somhlaba
somntu
sompempe
somsebenzi
somthi
somzantsi
somzimba
son
sona
song
songeze
sonke
sontonga
sonyaka
soqobo
sort
sosuleleko
sothando
sotho
sought
soul
source
south
southeastern
southern
sovereign
sovereignty
soweto
soxolelwaniso
soxolo
sp
space
spacecraft
spaces
spain
spanish
speakers
speaking
special
species
specific
speech
spence
spencer
sperm
spider
spike
spin
spinoza
spirit
spitbraai
sport
sports
spp
springs
sq
sqrt
squad
square
sr
ssr
st
stadium
stadiums
staff
stages
stalin
stallman
stan
stand
standard
standardized
standerton
stanford
stanislaw
stanley
star
stars
start
started
state
states
station
statistical
statistics
statue
status
steel
steele
stein
stella
stellenbosch
stem
stephen
steve
steven
stevenson
stevie
stew
stewart
steyitsi
stoffles
stomach
stone
stood
stories
story
stout
strand
strange
strategic
stratford
strauss
stre
street
strength
striker
strong
structure
structures
struggle
stuart
student
students
studies
studio
study
studying
style
su
suan
sub
subatomic
subgroup
subhash
subordinate
substance
substances
success
successor
such
sudoku
sugar
sui
suid
suit
suka
suke
suku
sukuba
sukwini
sul
sulfate
sulfates
sulfide
sulfides
sulfite
sulfites
sulfur
sulfuric
sulfurous
sulphur
sum
summation
sun
sunday
super
superior
supraorbital
surface
surplus
susan
sustainable
sutherland
suthu
svg
swab
swapo
swashbuckling
swazi
sweden
swims
swinburne
switserii
switzerland
sydney
sylvia
symbol
symbols
symmetry
syndrome
system
systematic
systematics
systemic
systems
systole
t
ta
tabata
table
tabulating
tacoma
taffarel
tafile
tail
tailed
tails
take
taken
takes
taking
tales
talk
tambo
tanaka
tanci
tarkastad
tarnovo
tata
tate
taught
taylor
tb
tbvc
te
tea
teacher
teachers
teaching
team
teams
tech
technical
technikon
techniques
technology
tecumseh
ted
teen
teenage
teide
telegraph
telenovela
television
tell
telling
temba
ten
tenerife
tengo
tennessee
tennis
tenth
tenzin
terence
teresa
term
terms
terra
territories
territory
tesseract
testimony
tetrafluoride
tetranitride
tetrasulfur
texas
text
textcolor
th
thaba
thabo
thallium
thambo
than
thandathu
that
thatcher
thatha
thathu
thathwa
the
theatre
their
thelekisa
them
thema
thembu
themselves
then
theo
theodore
theology
theopolis
theorems
theories
theory
therapy
there
therefore
theron
these
thespinoff
thetha
they
thiago
thich
thimerosal
thina
thing
things
think
third
this
thixo
thoba
thole
thom
thomas
thompson
thomson
thornhill
thornton
those
thou
though
thought
thoyilethi
three
through
throughout
throw
thrush
thuba
thukela
thula
thumb
thumbnail
thungeni
thus
thuthula
tico
ties
tiktoker
tiles
till
tim
time
timeaxis
times
timothy
timoti
tin
tissue
tissues
tite
title
tiyo
to
today
together
togu
tokyo
told
tolo
tom
tommy
tony
too
took
tools
top
toplica
topuz
total
touch
tough
tournament
tournaments
toward
tower
town
township
toynbee
toyota
tr
track
tracks
tradition
traditional
tragedy
train
training
trains
transcendental
transcription
transkei
translated
translation
translator
translucent
transmission
transvaal
trap
travel
trc
treaty
tree
trees
trevor
triangle
tribe
tribes
trichardt
trichloride
trick
triglycerides
trillion
trioxide
trisodium
tristan
trisulfide
tropic
true
truman
trump
trust
truth
ts
tsala
tsatsi
tse
tshaka
tshatshu
tshawe
tshayina
tshazimpunzi
tshazimpuzi
tshekisho
tshiki
tshintsha
tshintsho
tshivenda
tsietsi
tsolo
tsomo
tss
tu
tucker
tuna
tunisia
turkey
turkish
turned
turner
tutu
tv
twede
twisted
twitch
two
twoaie
tya
tyalike
tye
tyelelo
tyhefu
tyheli
tyhutyha
tyler
type
types
tyuwa
tywala
tz
tzu
u
ua
uabram
uac
ualbertina
ualexander
uamanda
uarchibald
uasanda
uba
ubach
ubalekele
ubambe
ubani
ubantu
ubarloworld
ubawo
ube
ubeka
ubeke
ubemana
ubernhardt
ubesithi
ubesoloko
ubeya
ubeyonce
ubhala
ubhale
ubhalwa
ubhaptizo
ubhembesile
ubhengeze
ubhishophu
ubhotomani
ubhubhane
ubhubhele
ubiko
ubini
ubisi
ubizo
ubizwa
ubizwe
ubomi
ubonakala
ubonakale
ubonakalisa
ubone
ubonisa
uboniswe
ubonwa
uboya
ubrenda
ubrian
ubrownlee
ububanzi
ububele
ububi
ubuchule
ubuchwepheshe
ubucwebe
ubudala
ubude
ubudlelwane
ubufundisi
ubugcisa
ubugqi
ubuhlanga
ubuhle
ubuhlobo
ubuhlwempu
ubukho
ubukhoboka
ubukhosi
ubukhulu
ubukoloni
ubukrestu
ubukumkani
ubulala
ubulale
ubulongwe
ubulumko
ubulungisa
ubulungu
ubume
ubumnyama
ubuncinane
ubundlobongela
ubungakanani
ubungcwele
ubungozi
ubungqina
ubuni
ubuninzi
ubunjani
ubunkokheli
ubuntshatsheli
ubuntu
ubunzima
ubunzulu
ubuqu
ubusela
ubushushu
ubusika
ubusithi
ubuso
ubusuku
ubuthi
ubuthongo
ubutyebi
ubuxhaka
ubuxoki
ubuya
ubuye
ubuyile
ubuze
ucarl
ucarmen
ucarolus
ucatherine
uceba
ucebisa
uchaka
uchalmers
ucharles
ucharlotte
uchaza
uchiha
uchitha
uchris
uchungwa
ucinga
ucinge
ucingo
ucoceko
ucolenso
ucolumbus
ucrosby
uct
ucula
ucwangciso
ucwangco
ud
udade
udale
udavid
udavide
ude
udesmond
udf
udibana
udibanisa
udibene
udidi
udie
udilima
udityaniswa
udla
udlala
udlale
udlalwa
udon
udonga
udongwe
udouglas
udrawn
udube
udubul
uduli
uduma
udumisa
udumo
udwendwe
uedgar
uefa
uepreli
ueuclid
ufaku
ufakwe
ufana
ufassie
ufatima
ufika
ufike
ufikelele
ufrank
ufrederick
ufudo
ufumana
ufumane
ufumaneke
ufumene
ufuna
ufunda
ufunde
ufundo
ufune
ufunyanwa
ufuze
ufuzo
ugaba
ugalelwe
uganda
ugandhi
ugawulayo
ugaye
ugcaleka
ugcina
ugeorge
ugetrude
ugie
ugonyo
ugottlieb
ugovan
ugq
ugqadushe
ugqatso
ugqibile
ugqirha
ugqr
ugqrirha
ugula
uguqukela
uguqula
uguqulo
ugxeka
uhamba
uhambe
uhambo
uharry
uhelen
uhenry
uhilbert
uhintsa
uhitler
uhlala
uhlale
uhlanga
uhlaselo
uhlaselwe
uhlaza
uhlel
uhleli
uhlelo
uhlobo
ujabavu
ujack
ujacob
ujames
ujane
ujanet
ujanuwari
ujessica
ujipsy
ujoe
ujohn
ujongene
ujongikhaya
ujordan
ujoseph
ujosi
ujotello
ujulius
uk
ukakashi
ukama
ukanti
ukapteni
uke
ukekana
ukhapitali
ukhaya
ukhe
ukhenketho
ukhetho
ukhiwa
ukhokele
ukhokhelo
ukhula
ukhule
ukhulele
ukhulisa
ukhuni
ukhupha
ukhuphe
ukhuphiswano
ukhuseleko
ukobe
ukodlula
ukoma
ukomelela
ukona
ukondla
ukondleka
ukongeza
ukongezelela
ukonoha
ukonwabela
ukopha
ukosuleleka
ukoyisakala
ukraine
ukrainian
ukrelekrele
ukristu
uku
ukub
ukuba
ukubakho
ukubala
ukubaleka
ukubaluleka
ukubamba
ukubambisa
ukubangela
ukubangelwa
ukubanjwa
ukubeka
ukubekelwa
ukubekwa
ukubetha
ukubhala
ukubhalwa
ukubhatala
ukubheka
ukubhekisa
ukubhideka
ukubhukuqwa
ukubila
ukubiza
ukubizwa
ukubola
ukubona
ukubonakali
ukubonelela
ukubongwa
ukubonisa
ukubonwa
ukubuka
ukubulala
ukubulawa
ukubumba
ukubuya
ukubuyela
ukubuza
ukucelwa
ukuchaza
ukuchitha
ukuchonga
ukucinga
ukucula
ukucutha
ukudala
ukudaya
ukudibana
ukudibanisa
ukudla
ukudlala
ukudlalwa
ukudluliseka
ukudlwengula
ukudumba
ukufa
ukufaka
ukufana
ukufanisa
ukufezekisa
ukufihla
ukufika
ukufikelela
ukufuduka
ukufudumala
ukufudumeza
ukufumana
ukufumaneka
ukufumanisa
ukufunda
ukufundisa
ukugabha
ukugcina
ukugcinwa
ukugonywa
ukugqabhuka
ukugqibela
ukugqwetha
ukugula
ukugxojwa
ukuhamba
ukuhambisa
ukuhla
ukuhlala
ukuhlamba
ukuhlaselwa
ukuhlaziya
ukuhlukunyezwa
ukujikeleza
ukujonga
ukujoyina
ukukhalipha
ukukhangela
ukukhanya
ukukhawuleza
ukukhetha
ukukhohlela
ukukhonza
ukukhula
ukukhulisa
ukukhululeka
ukukhupha
ukukhuphela
ukukhusela
ukukhuthaza
ukukhutshwa
ukukuxelela
ukukwenza
ukulahleka
ukulala
ukulandela
ukulandelelana
ukulandula
ukulawula
ukulawulwa
ukulingana
ukuliqhobosha
ukulubuka
ukulunga
ukulungele
ukulungiselela
ukulungiswa
ukulunywa
ukulwa
ukuma
ukumbiwa
ukumela
ukumelana
ukumila
ukumisela
ukumiselwa
ukumiswa
ukumitha
ukumka
ukumkani
ukumkanikazi
ukumnceda
ukunaba
ukuncancisa
ukunceda
ukuncedisa
ukuncipha
ukunciphisa
ukuncokola
ukundwendwela
ukunene
ukungabikho
ukungabinasifuba
ukungakhuli
ukungalingani
ukungathandi
ukungathi
ukungavumelani
ukungazibandakanyi
ukungcola
ukungena
ukungondleki
ukunika
ukunikwa
ukunqanda
ukunqongophala
ukunqunyulwa
ukunxibelelana
ukunxulumana
ukunyanga
ukunyaniseka
ukunyathela
ukunyuka
ukupapashwa
ukuphahlazeka
ukuphakama
ukuphakamisa
ukuphanda
ukuphatha
ukuphazamisa
ukuphefumla
ukupheka
ukuphela
ukupheliswa
ukuphendula
ukuphepha
ukuphila
ukuphinda
ukuphucula
ukuphuhla
ukuphuhlisa
ukuphuhliswa
ukuphulukana
ukuphuma
ukuphumelela
ukuphungula
ukuqala
ukuqalwa
ukuqamba
ukuqelelana
ukuqhubela
ukuqinisekisa
ukuqokelela
ukuqonda
ukuqubha
ukuquka
ukuqwalasela
ukurekhodwa
ukusa
ukusasaza
ukusasazeka
ukusebenza
ukusebenzisa
ukusebenzisana
ukuseka
ukusekwa
ukusenga
ukusetyenziswa
ukushicilela
ukushicilelwa
ukushiya
ukushukuma
ukushumayeza
ukusinda
ukusingisela
ukusoloko
ukusombulula
ukusondela
ukusondelela
ukusuka
ukusukela
ukusuleleka
ukususa
ukususela
ukuswela
ukusweleka
ukuthabatha
ukuthanda
ukuthandwa
ukuthatha
ukuthengiswa
ukuthenjwa
ukuthetha
ukuthi
ukuthibaza
ukuthini
ukuthintela
ukuthiwa
ukuthula
ukuthumela
ukuthwala
ukutsala
ukutshaja
ukutshata
ukutshintsha
ukutshisa
ukutsho
ukutya
ukutyiwa
ukuva
ukuvakala
ukuvala
ukuvalwa
ukuvana
ukuvela
ukuvelisa
ukuveliswa
ukuvezwa
ukuviwa
ukuvula
ukuvuleka
ukuvunwa
ukuvutha
ukuwa
ukuwongwa
ukuwuva
ukuxela
ukuxelwa
ukuxhaphaka
ukuxhasa
ukuxhathisa
ukuxhatshazwa
ukuxhela
ukuxhumana
ukuxoka
ukuxoxa
ukuya
ukuyenza
ukuyibona
ukuyichaza
ukuyigqwetha
ukuyinika
ukuyisebenzisa
ukuyixela
ukuza
ukuzala
ukuzalwa
ukuze
ukuzeka
ukuzibiza
ukuzimela
ukuzingca
ukuziphatha
ukuziphindezela
ukuziqhelanisa
ukuziqhitha
ukuzisa
ukwa
ukwabelana
ukwahlukana
ukwahlula
ukwahlulelana
ukwahlulwa
ukwakha
ukwakhiwa
ukwamkela
ukwamkelwa
ukwanda
ukwandisa
ukwazi
ukwazisa
ukwaziwa
ukwaziyo
ukwehla
ukwehlisa
ukwenda
ukwenjenjalo
ukwenza
ukwenzeka
ukwenzela
ukwenziwa
ulandela
ulandelayo
ulandele
ulandingwe
ulangana
ulawulo
uleonardo
ulepoqo
uletta
ulibe
ulilizwi
ulilungu
ulindiwe
ulingana
ullbright
ullrey
ulo
uloliwe
ulonwabo
ulouis
uloyiso
ulubonise
uludwe
uluhlaza
uluhlebe
uluhlu
ulungele
ulungi
uluntu
uluru
ulusu
ulutsha
uluvo
ulwakhiwo
ulwandiso
ulwandle
ulwaphulo
ulwazi
ulwim
ulwimi
um
uma
umadara
umafrika
umagema
umagic
umagnus
umagumasholo
umahluko
umajeke
umakhanda
umakhi
umakhosazana
umakhulu
umalefane
umalunga
umam
umama
umamkeli
umandela
umanejala
umanyano
umaqoma
umargaret
umarvin
umary
umasipala
umatholengwe
umatshini
umatwa
umax
umaxeke
umba
umbala
umbane
umbele
umberto
umbethe
umbhali
umbhalo
umbhobho
umbhoxo
umbindi
umbingeli
umboko
umbona
umbone
umbongo
umboniso
umbono
umbulelo
umbusi
umbuso
umbutho
umbuyeleli
umbuzo
umccarthy
umcebisi
umchamo
umchoko
umcimbi
umculi
umculo
umda
umdali
umdaniso
umdibaniso
umdla
umdlali
umdlalo
umdlezana
umdyarho
umele
umendi
umfama
umfana
umfanekiso
umfaz
umfazi
umfo
umfundi
umfundisi
umfutho
umfuziselo
umgada
umgama
umgangatho
umgaqo
umgca
umgidi
umgodeli
umgqibelo
umgubo
umgungundlovu
umhambi
umhla
umhlab
umhlaba
umhlahlindlela
umhlala
umhlamb
umhlambi
umhlana
umhlangala
umhleli
umhlobo
umhlomi
umhobe
umi
umicae
umichelangelo
umiriam
umise
umizuki
umjikelo
umkakhe
umkhala
umkhatshane
umkhenkce
umkhondo
umkhonto
umkhosi
umkhuhlane
umkhulhane
umkhwebane
umkhwetha
umkomishinala
umlambo
umlando
umlawuli
umlenze
umlibo
umlilo
umlinganiselo
umlingo
umlo
umlobi
umlomo
umlotha
umlungisi
umlungu
ummandla
ummangaliso
ummi
ummiselo
umngqusho
umngxuma
umninawa
umnini
umnombo
umnqwazi
umnqweno
umnt
umntakwabo
umntana
umntla
umntu
umntwan
umntwana
umnu
umnumzana
umnwe
umnxeba
umnyaka
umnyama
umnye
umolokazana
umonakalo
umongameli
umongo
umonostatos
umotloang
umoya
umozart
umphakamo
umphakathi
umphandi
umphathi
umphathiswa
umphefumlo
umphezulu
umphunga
umprofeti
umpu
umqala
umqeqeshi
umqhayi
umqhubi
umqolomba
umqombothi
umsaki
umsebenzi
umsengi
umshweshwe
umsi
umsila
umsintsi
umsitho
umthatha
umthendeleko
umthengisi
umthetheli
umthetho
umthi
umthombo
umthwalo
umtsalane
umtshato
umtya
umtyholwa
umutswairo
umva
umvelisi
umxhelo
umxholo
umxube
umyalelo
umyalezo
umyeni
umyinge
umz
umzabalazo
umzali
umzantsi
umzekelo
umzi
umzila
umzimba
umzobo
umzukulwana
un
unako
unamakhoboka
unamba
unanamhla
unani
unaphakade
unaruto
unathi
unayo
uncedo
unconywa
uncwadi
und
undefeated
under
undlambe
undp
une
unebala
unee
uneenwele
unelson
unesco
ungabi
ungafunda
ungahamba
ungakhange
ungaphantsi
ungasentla
ungasetyenziswa
ungathi
ungayithethi
ungaze
ungcoliseko
ungcwangu
unge
ungekho
ungena
ungene
ungenelelo
ungowam
ungqika
ungquzulwano
ungu
ungubani
ungumbhali
ungumntu
ungumspanish
unguthixo
unguwena
unguye
unicellula
unicellular
unicode
uniform
unika
unikezelo
unikwe
unilateral
unimrodi
unina
uninzi
union
unisa
unit
united
units
unity
universe
universities
university
unix
unjingalwazi
unknown
unkosi
unkosikazi
unlike
unobangela
unobangelasifo
unobhala
unobumba
unobundlobongela
unokhanyo
unokufumana
unokukhanya
unokutela
unolali
unomakhaya
unomamto
unomesi
unomsa
unomtsalane
unonabe
unongqawuse
unoni
unontetha
unontsizi
unontsonta
unotshe
unova
unoyiki
unqwenela
unreliable
unsc
unskz
untantala
until
untlebi
untsikana
untsikane
untunjana
unveiled
unxele
unxibelelana
unxibelelwano
unxulumano
unxweme
unyaka
unyana
unyango
unyawo
unyuke
unyulo
uodwa
up
upamina
upapageno
upase
upaul
upawulos
upelo
upete
upeter
uphakathi
uphalo
uphando
uphato
uphawu
uphawula
uphehlelelo
uphela
uphele
uphelele
uphendula
uphendule
uphethwe
uphi
uphile
uphinda
uphindaphindo
uphinde
uphiri
uphondo
uphuhliso
uphuma
uphume
uphumelele
uphuphumela
upitika
uplaatje
upload
uploads
upololoza
upon
upper
upright
uprising
uqala
uqale
uqamata
uqeqesho
uqhagamshelane
uqhambuko
uqhankqalazo
uqhawulo
uqhayisa
uqhelekileyo
uqikelelo
uqinisekisa
uqob
uqobo
uqoqosho
ur
urainer
uramaphosa
uranium
uray
uraymond
urban
urharhabe
urholihlahla
urhulumente
urhwebo
urobert
urogers
urubusana
uruguay
uruth
us
usa
usally
usamuel
usana
usandile
usanelly
usapho
usaqhwithi
usarah
usarastro
usasazeko
usasazo
usasuke
usayine
usb
usd
use
usebenza
usebenze
usebenzisa
usebenzise
used
useful
usekela
uselula
usenjenjalo
usenokuba
usenza
usenziwa
user
userote
uses
usetyenziswa
ushishino
ushiya
ushiye
usiba
usibonile
usiddha
usihla
usikhomo
usilelwe
using
usisidenge
usisulu
usithi
usiva
usiya
usodolophu
usoga
usoloko
usolomon
usondele
ustephen
usteve
usually
usuka
usuke
usuku
usuleleko
usulelo
usweleke
utambo
utamino
utata
utennyson
utf
uthabathe
uthabo
uthandiswa
uthando
uthatha
uthathwa
uthe
uthelekiso
uthengisa
uthetha
uthethe
uthi
uthile
uthintelo
uthixo
uthomas
uthotho
uthuli
uthumela
uthunyelwe
uthuthula
utiyo
utobi
utodu
utogu
utom
utonyane
utshaba
utshate
utshawe
utshintsho
utshiwo
utsho
utsili
utsunade
utyarha
utyelelo
utywala
uvakele
uvalo
uvan
uvavanyo
uvazi
uvela
uvele
uvelidyam
uveliso
uviljoen
uvimba
uviwo
uvuko
uvusi
uvuyo
uwafumana
uwalter
uwauchope
uwele
uwhitney
uwilliam
uwilliams
uwinnie
uwonke
uxam
uxanduva
uxel
uxela
uxele
uxelelwe
uxhosa
uxhoxho
uxhumano
uxilongo
uxinzelelo
uxolo
uya
uyafa
uyafana
uyagula
uyakuba
uyakufa
uyakuthi
uyakuzeka
uyakwazi
uyalingana
uyamhlebela
uyampha
uyaqondeka
uyasokola
uyavuma
uyawasela
uyazi
uye
uyehova
uyeke
uyesu
uyi
uyibone
uyichaza
uyidlalile
uyilo
uyimvumi
uyinto
uyinxalenye
uyise
uyisebenzisayo
uyisekazi
uyisemkhulu
uyithethe
uyolile
uyvonne
uz
uza
uzahara
uzakulusika
uzala
uzalelwe
uzalo
uzalwa
uzalwe
uzame
uzayo
uze
uzele
uzelwe
uzenani
uzenze
uzibuthe
uzille
uzimele
uzoba
uzola
uzumaki
uzwane
uzwelakhe
uzwelizayo
v
va
vacuum
valentine
valley
valparai
valparaiso
valuable
value
values
valve
valves
van
variable
variables
varices
various
ve
vector
vectors
veg
vela
velela
veliko
velocity
vena
ventricle
ventricles
ventricular
verbal
verde
vereeniging
veronica
versailles
version
vertical
very
ves
veteran
vi
vice
vicente
victor
victoria
victories
victorious
victory
video
viduka
vie
vienna
view
views
vii
viii
vili
viljoen
villa
village
villiers
viloen
vincent
vinci
vine
violet
vir
viral
virgil
virginia
virus
viruses
visceral
viscount
vista
visualized
vito
vladimir
vogel
voice
vojinovic
vol
volcano
volksfront
volksrust
volume
von
voortrekker
voortrekkerhoogte
vs
vungu
w
wa
waaba
waabhala
waabhubha
waabhubhela
waabuyela
waafika
waaguqula
waamisa
waamiselwa
waapapasha
waaqala
waathi
waawela
waazala
waazalelwa
waazalwa
waba
wababhali
wabadlali
wabafundi
wabaleka
wabalilungu
wabaliphakathi
wabamhlophe
wabandakanyeka
wabanegalelo
wabangomye
wabangumfundi
wabangunontlalo
wabanjwa
wabantu
wabantwana
wabaseki
wabayalela
wabazali
wabe
wabeka
wabekwa
wabethwa
wabhala
wabhengeza
wabhubha
wabhubhela
wabiza
wabizwa
wabo
wabona
wabonakala
wabonakalisa
wabonisa
waboniswa
wabonwa
wabulala
wabulawa
wabuya
wabuyela
wacalucalulo
wacebisa
wacelwa
wachitha
wachongwa
wacinga
wacula
wada
wadala
wade
wadibana
wadlala
wadsworth
waduma
wafa
wafaka
wafakwa
wafika
wafudukela
wafumana
wafumanisa
wafuna
wafunda
wafundela
wafundisa
wagner
wagqiba
wagqibela
wagqwesa
waguduka
wagula
waguqukela
waguqulela
wagwetywa
wagxininisa
wagxothwa
wahamba
wahlala
wahlangana
wahlaselwa
wahlola
wahlonitshwa
wahlukana
wahlukile
wajoyina
waka
wakha
wakhangela
wakhe
wakhetha
wakho
wakhokela
wakhona
wakhula
wakhulela
wakhulisa
wakhuliswa
wakhulula
wakhululwa
wakhumbula
wakhupha
wakhuphisana
wakhwankqiswa
wakhwetyelwa
wakowabo
wakowethu
wakubona
wakubuzwa
wakuchaza
wakudala
wakw
wakwa
wakwanzululwazi
wakwazi
wakwenza
wala
walahlekelwa
walala
walandela
walapha
waldo
wale
walenza
wales
walishiya
walk
walked
walker
wall
wallace
walls
walo
walt
walter
walwa
wam
wama
wamabhastile
wamaculo
wamagama
wamagcisa
wamajoni
wamakhulu
wamakomanisi
wamakrestu
wamamkela
wamampondo
wamangaliswa
wamanina
wamanqindi
wamantombazana
wamanzi
wamaphupha
wamaqela
wamarharhabe
wamaroma
wamashumi
wamawaka
wamaxhoba
wamaxhosa
wamazwe
wambetha
wambi
wambulala
wamiliselwa
wamisa
wamiselwa
wamkela
wamkelwa
wamkhuthaza
wamnika
wamshiya
wancamela
wanceda
wancedisa
wandumzela
wanga
wangaphambili
wangaphandle
wangcwatyelwa
wangena
wango
wanika
wanikezela
wanikwa
wanombono
wanqunyulwa
wanxiba
wanyama
wanyamalala
wanyamezela
wanyanzeleka
wanyulwa
wapapasha
wapapashwa
waphawula
waphehlelelwa
waphela
waphendula
waphikisa
waphinda
waphula
waphuma
waphumelela
waphumla
waqala
waqalisa
waqaphela
waqeqeshelwa
waqhuba
waqhubeka
waqhubekeka
waqhubela
waqinisekisa
waqonda
waququzelela
waqweqwediswa
war
ward
warm
warner
warren
warrior
wars
warszawa
was
wase
waseafrika
wasebenza
wasebenzela
wasebenzisa
wasebenzisana
wasebrazil
wasebritane
wasefort
waseforthare
wasejamani
waseka
wasekhayelitsha
wasekuhlaleni
wasel
wasemakhitshini
wasemelika
wasempumalanga
wasemzantsi
wasentab
wasentshona
wasespeyin
wasetyhini
waseyurophu
washicilela
washing
washington
washiya
wasifumana
wasilela
wasinda
wasinga
wasishiya
wasiwa
waso
wasuka
wasungula
wasutywa
wasweleka
watch
water
waterval
wathabatha
wathatha
wathathe
wathathela
wathathwa
wathenga
wathetha
wathi
wathiywa
wathumela
wathunyelwa
wathwalelwa
wathweswa
wathyola
watshata
watshintsha
watsho
watson
watya
watyelela
watyholwa
watyikitya
wauchope
wavakala
wavakalisa
wavalelwa
wavasa
wave
wavela
wavuka
wavukela
wavula
wawa
wawela
wawo
wawonga
wawongwa
wawusenziwa
wawushiya
waxelela
way
waya
wayakusebenza
wayalela
wayalelwa
wayalwa
wayamkela
waye
wayebambe
wayebizwa
wayebonakala
wayebuyela
wayecinga
wayecula
wayedume
wayefuna
wayefunda
wayegxile
wayehamba
wayehlala
wayeka
wayekhe
wayekho
wayekhohlakele
wayekholelwa
wayekhona
wayekhululekile
wayekhusela
wayekwalilo
wayekwangumbali
wayelilungu
wayelinina
wayemndwendwela
wayemnyama
wayenayo
wayeneembono
wayeneminyaka
wayenenkunzi
wayenesikhwele
wayenesiphiwo
wayenesithembu
wayenezicwangciso
wayengaboni
wayengavinjwa
wayengazange
wayengesosidenge
wayengomnye
wayengoyena
wayengu
wayengum
wayengumakhi
wayengumbhali
wayengumcebisi
wayengumculi
wayengumfanekiso
wayengumfazi
wayengumfundisi
wayengummi
wayengumntu
wayengumongameli
wayengumqambi
wayenobundlobongela
wayenolwazi
wayenomdla
wayenza
wayephila
wayesakuba
wayesanobundlobongela
wayesazi
wayesaziwa
wayesebenza
wayesele
wayeseluvalelweni
wayesithi
wayesiya
wayesoloko
wayethanda
wayethe
wayethembise
wayethetha
wayethumela
wayevela
wayevutha
wayexhathise
wayeyazi
wayeyimbali
wayeyimbongi
wayeyimvumi
wayeyindoda
wayeyingqondi
wayezele
wayeziva
wayibhala
wayigqibezela
wayigqithisela
wayiguqula
wayila
wayishiya
wayne
wayo
waza
wazala
wazalelwa
wazalwa
wazama
waze
wazeka
wazenza
wazi
wazibandakanya
wazibona
wazibonakalisa
wazibophelela
wazibulala
wazifumana
wazifumanela
wazikhusela
wazimanya
waziphosa
wazisa
wazishiyayo
waziswa
waziva
waziwa
waziwayo
wazo
wazoba
wazuza
we
weafrika
weakest
wealth
wear
web
webandla
webb
weber
webhola
webotswana
webritish
website
websites
webster
wechiza
wecwecwe
wedolo
wedolophu
wedwa
wee
weekend
weekhemikhali
weeleta
weembali
weencwadi
weendaba
weengoma
weenkosi
weenkwenkwezi
weenoveli
weenqwelo
weenwele
weenza
weenzalelwane
weesuka
weetyalike
wefilim
wefowuni
wefree
wegazi
wegcisa
wegqala
wehla
wehlabathi
wei
weight
weil
weimar
wekhaledon
wekhaya
wekoloni
weldon
weli
welinye
welizwe
well
wellington
wells
welomzantsi
welondon
wema
wembali
wemfundo
wemibongo
wemiceli
wemidlalo
weminyaka
wemithi
wemithombo
wemizekelo
wemka
wempatho
wempuma
wen
wena
wenani
wencwadi
wendawo
wendele
wendell
wendlu
wendoda
wengcinezelo
wengingqi
wengoma
wengqondi
wengxaki
wenjenje
wenjenjeya
wenkolo
wenkomo
wenkosi
wenkululeko
wenkulungwane
wenkundla
went
wentando
wentlalo
wento
wentshukumo
wenza
wenze
wenziwa
wenziwe
wephepha
wephondo
weqela
weqonga
were
werhamncwa
werner
wesabatha
wesango
weshumi
wesi
wesibini
wesihlanu
wesikolo
wesilwanyana
wesine
wesintu
wesithandathu
wesithathu
wesithili
wesixeko
wesixhenxe
wesixhosa
wesizwe
wesley
wespanish
west
western
wesuka
wetalente
wethambo
wethu
wetransvaal
wets
wewaka
wexesha
wexeshana
weza
wezemfundo
wezemidlalo
wezempilo
wezi
wezibalo
weziganeko
wezilwanyana
wezimbiwa
wezindlu
wezinto
weziyobisi
wezizwe
wezobugcisa
wezopolitiko
wh
what
when
where
whether
whewell
which
while
white
whitehead
whitney
who
whoever
whole
whom
whose
why
wi
widespread
width
wife
wiki
wikibooks
wikimedia
wikipedia
wilcox
wild
wilde
wilhelm
will
willan
willem
william
williams
willie
willis
willy
wilson
winchell
wind
windows
wine
winfrey
winner
winners
winnie
winston
winter
wisa
wise
with
within
without
witwatersrand
wo
wobomi
wobugcisa
wobuhlobo
wobukrestu
wobulali
wobumbano
wobusuku
wocalu
wocalucalulo
wodumo
wofika
wogan
wohlobo
wohlulwa
wokhetho
woko
wokokuba
woku
wokuba
wokubala
wokubonga
wokubukula
wokudibanisa
wokugqibela
wokuhamba
wokuhlamba
wokulwa
wokuphila
wokuqala
wokusweleka
wokuzalwa
wokwahlula
wokwandisa
wokwandiswa
wolawulo
wolf
wolfgang
woluntu
wolutsha
wolwandle
wolwazi
woman
wombona
wombutho
womculo
womdiza
women
womfazi
womgama
womhlaba
womkhosi
womlambo
womlinganiselo
womntu
womntwana
womnyaka
womsebenzi
womthetho
womzantsi
won
wona
wonder
wonga
wongeza
wongezelela
wonke
wonyaka
wonyulo
wonyulwa
wonyuselwa
wonzakala
wood
woodard
woods
woomama
woonyana
wophando
wophuhliso
word
words
work
worked
workers
working
works
world
worship
wosulelwa
wotitshala
would
woxinzelelo
woyisa
woza
wozniak
wp
wrath
wright
write
writer
writers
writing
written
wrongly
wumbi
www
x
xa
xaba
xana
xanduva
xavier
xaxe
xesha
xeshikweni
xesibe
xhaka
xhamela
xhaxhe
xhosa
xhwele
xi
xico
xinzelelo
xitsonga
xolo
xxi
xylem
y
ya
yaafunyanwa
yaapapashwa
yaaphumelela
yaaqala
yaba
yabadala
yabafundi
yabahlolokazi
yabalandeli
yabalasela
yabalawuli
yabancinci
yabangowe
yabantsundu
yabantu
yabantwana
yabasebenzi
yabasetyhini
yabathembu
yabazalwane
yabe
yabebala
yabeka
yabekwa
yabenza
yabenzela
yabizwa
yabo
yabona
yabonisa
yaboniswa
yabucala
yabumini
yadala
yade
yadibana
yaduma
yafa
yafaka
yafikelela
yafumana
yafumanisa
yafunyanwa
yaguqulelwa
yagutyungelwa
yahlala
yahluka
yahluke
yahlukile
yahlulwe
yakha
yakhe
yakhiwa
yakho
yakhokhelela
yakhula
yakhululwa
yako
yakowethu
yakuba
yakudala
yakufika
yakutshanje
yakwa
yakwalanga
yakwamathematika
yakwantombi
yakwantu
yakwaxhosa
yakwazulu
yakwenza
yala
yalandela
yalandelwa
yale
yalemitha
yalencwadana
yalo
yaloo
yam
yama
yamaafrika
yamabali
yamabhulu
yamacala
yamachiza
yamagama
yamagcaleka
yamajuda
yamakhoboka
yamakhulu
yamakhwenkwe
yamakristu
yamalungu
yamampondo
yamanani
yamandla
yamandulo
yamangesi
yamantinde
yamanzi
yamaphepha
yamapolisa
yamashumi
yamasilamsi
yamatyala
yamatye
yamava
yamawaka
yamaxhosa
yamazulu
yamazwe
yamenza
yami
yamisa
yamkela
yamkelwe
yamntu
yamonyula
yampuma
yampumalanga
yanamhlanje
yancinane
yanda
yandiswa
yangaphakathi
yangaphambili
yangaphandle
yangasekhohlo
yangasekunene
yangasese
yangena
yango
yangoku
yangumhla
yani
yanika
yanikezela
yanikwa
yantlukwano
yantshona
yapapashwa
yaphela
yaphuma
yaphumelela
yaqala
yaqalisa
yaqalwa
yaqhuba
yaqhubeka
yaqinisekiswa
yarekhodwa
yarhawuti
yasala
yase
yaseafrika
yasebenza
yasebenzisa
yasebrazil
yasebritane
yaseburhulumenteni
yasefort
yasegoli
yasekapa
yasekhaya
yasekorea
yasekuhlaleni
yasekunene
yasekwa
yasel
yaselondon
yasemantla
yasemaphandleni
yasembo
yasemelika
yasemkhosini
yasemlungwini
yasemntla
yasempuma
yasemthatha
yasemzantsi
yasenatal
yasenelson
yasengilane
yasentshona
yasepapuwa
yasepitoli
yasepretoria
yaseqonce
yaserhabe
yaseroma
yasesahara
yasescotland
yasesikolweni
yasespain
yasethekwini
yasetranskei
yasetyenziswa
yasetyhini
yasetyhume
yaseyurophu
yasezimbabwe
yasezulwini
yashiya
yaso
yasuka
yasungulwa
yathatha
yathathwa
yathi
yathimba
yatransvaal
yatshiswa
yavela
yavulwa
yawela
yawo
yaxelwa
yaxhwaleka
yaya
yaye
yayi
yayibhalwe
yayibonakalisa
yayigqityiwe
yayihlala
yayijikeleza
yayilawulwa
yayilubhelu
yayilwayo
yayingabantu
yayingamanye
yayingu
yayingumfundisi
yayingunosuthu
yayinto
yayiphantsi
yayisasaza
yayisaziwa
yayisele
yayisetyenziswa
yayisithi
yayiyi
yayo
yaza
yazama
yaze
yazi
yazisa
yaziwa
yaziwayo
yazo
ye
yeafrika
yeanc
year
yearbook
years
yeast
yeasts
yebantu
yebest
yebhanki
yebhodi
yebhokhwe
yebhola
yeboah
yecape
yecawa
yecompyutha
yecorona
yecwecwe
yedemokhrasi
yedolophu
yedwa
yedwarha
yee
yeedolophu
yeekhemikhali
yeekhompyutha
yeematshini
yeencwadi
yeendaba
yeendawo
yeendleko
yeendlela
yeendwendwe
yeengingqi
yeengoma
yeengxoxo
yeenkomo
yeenkqubo
yeenkulungwane
yeenkundla
yeentlobo
yeenziwa
yefa
yefifa
yefilosofi
yegama
yegazi
yegolide
yegrammy
yehagu
yehla
yehlabathi
yehuda
yejazz
yekhala
yekhaya
yekhemikhali
yekhompyutha
yekhorona
yekhulu
yekoloni
yekonoha
yelali
yelanga
yeli
yelifa
yelizwe
yelizwi
yellow
yem
yema
yemali
yemazi
yembali
yemfazwe
yemfundo
yemidlalo
yemifanekiso
yemifuno
yemigaqo
yemihla
yemikhosi
yeminyaka
yeminyanya
yeminye
yemisebenzi
yemithetho
yemithi
yemoto
yempilo
yemvelaphi
yemveli
yemveliso
yena
yenani
yencwadi
yendalo
yendawo
yendebe
yendele
yendlela
yengalo
yengingqi
yengozi
yengqondo
yenkcubeko
yenkolo
yenkomo
yenkosi
yenkqubo
yenkukhu
yenkululeko
yenkulumbuso
yenkulungwane
yenkunkuma
yenkxaso
yenqala
yentengo
yentetho
yento
yentsana
yentsebenziswano
yentshona
yentshutshiso
yenu
yenyaniso
yenye
yenyongo
yenza
yenze
yenzeka
yenzekayo
yenzeke
yenzelwe
yenziwa
yenziwe
yeokhestra
yepalamente
yephepha
yephondo
yepolitiki
yeqakamba
yeqela
yeqonga
yereggae
yerekhodi
yerhine
yeriphabliki
yesakhono
yesango
yesebe
yeshumi
yesi
yesibhozo
yesibini
yesiciko
yesifo
yesihlanu
yesikolo
yesilimela
yesilivere
yesimilo
yesine
yesingesi
yesini
yesininzi
yesintu
yesiphumo
yesiqhelo
yesitalato
yesithandathu
yesithanga
yesithathu
yesitshwana
yesixeko
yesixhenxe
yesixhosa
yesizulu
yesizwe
yesoka
yespeyin
yesu
yetheko
yethoba
yethu
yetyala
yeveki
yeviral
yew
yeyakhe
yeyiphi
yeyokokuba
yeyokuba
yeyokubuyisa
yeyona
yeyunivesithi
yeza
yezembe
yezemfundo
yezempilo
yezentlalo
yezepolitiki
yezi
yezibalo
yezibizo
yezibongo
yezifo
yezigidi
yezika
yeziko
yezilwanyana
yezindlu
yezinto
yezinye
yeziphumo
yeziqhamo
yezisa
yezityalo
yezixhobo
yezizwe
yezo
yezobugcisa
yezolimo
yezona
yezophando
yezopolitiko
yezulu
yhini
yhintoni
yhiyo
yhizani
yi
yibilirubin
yibritane
yiccv
yicovid
yidolophi
yidolophu
yigas
yihokage
yikapa
yikhowudi
yikoloni
yikumkani
yikumnkani
yilahleko
yilali
yilanti
yile
yilonto
yiloo
yimbaleki
yimbalela
yimbeko
yimbeleko
yimbonakaliso
yimbongi
yimeko
yimfazwe
yimida
yimishinari
yimithi
yimizekelo
yimpikiswano
yimpumelelo
yimvumi
yimzantsi
yincwadi
yindaba
yindawo
yindlala
yindlela
yindlu
yindoda
yingcali
yingcinga
yingingqi
yingoma
yingqokolela
yingqondo
yingqonyela
yingxaki
yingxelo
yinja
yinkampani
yinkokheli
yinkomo
yinkonzo
yinkosi
yinkosikazi
yinkqubo
yinkunzi
yinombolo
yinoveli
yinqu
yintetho
yintlango
yintlanzi
yintliziyo
yintloko
yinto
yintombi
yintoni
yintshatsheli
yintsholongwane
yintsomi
yintwana
yinwebu
yinxalenye
yinyama
yinyanga
yinyaniso
yipacaltsdorp
yiphondo
yirhiphabhlikhi
yirhuluneli
yiriphabliki
yise
yisoviet
yitranskei
yiyiphi
yiyo
yiyona
yiyunivesithi
yizwa
yo
yoba
yobisi
yobomi
yobu
yobudala
yobugcisa
yobukhaya
yobukho
yobukhosi
yobukhrestu
yobukoloni
yobukrestu
yobukrisru
yobukristu
yobukumkani
yobungcali
yobunkcubabuchopho
yobunzima
yobushushu
yobuso
yobutsha
yocalucalulo
yodidi
yodumo
yodwa
yogonyo
yohambo
yohane
yohlanga
yohlobo
yokhetho
yokhuphiswano
yokhuseleko
yoko
yokokuba
yokomelela
yoku
yokuba
yokubakhapha
yokubala
yokubamba
yokubhala
yokucinga
yokucula
yokudibanisa
yokudlela
yokudluliseka
yokufumana
yokufunda
yokugcina
yokugqibela
yokuhamba
yokuhambisa
yokuhla
yokuhlala
yokuhlanganisa
yokuhlonipha
yokuhluthwa
yokujikeleza
yokukhulelwa
yokulahla
yokulala
yokulandela
yokulawula
yokulwa
yokuma
yokundwendwela
yokunqongophala
yokunxiba
yokuphanda
yokuphathwa
yokuphefumla
yokuphila
yokuphuma
yokuqala
yokuqeqeshela
yokuqonda
yokusebenza
yokusebenzisa
yokusenga
yokusetyenziswa
yokuthabatha
yokuthabatheka
yokuthetha
yokuthintela
yokutya
yokutyela
yokuvalwa
yokuvavanya
yokuvuka
yokuzalwa
yokuzikhusela
yokuzingela
yokuziphatha
yokwakhiwa
yokwanda
yokwenza
yokwindla
yolawulo
yolu
yoluntu
yolutsha
yolwandle
yolwaphulo
yolwazi
yolwimi
yomanyano
yombane
yombhali
yombhoxo
yombuso
yombutho
yomculo
yomdawini
yomdlalo
yomdumba
yomelele
yomgaqo
yomginwa
yomhlaba
yomhlaza
yomibini
yomkhosi
yomkhuseli
yomkhwetha
yomlambo
yomlibo
yomlinganiselo
yomlingo
yommeli
yomnga
yomngxuma
yomntu
yomnyazi
yomnye
yomongameli
yomoya
yomphefumlo
yomqala
yomsebenzi
yomthetho
yomthi
yomxhosa
yomyeni
yomzantsi
yomzi
yomzimba
yona
yoncwadi
yonke
yonyaka
yonyulo
yoo
yophando
yophuhliso
yoqhankqalazo
yoqobo
yorhulumente
york
yoshicilelo
yoshida
yosiwe
yosuleleka
you
young
younger
youngest
your
yousafzai
youtube
yowama
yowe
yowiso
yoyisa
yu
yugoslav
yunivesithi
yurophu
yyyy
z
za
zaba
zabakhweli
zabaninzi
zabantakwabo
zabantsundu
zabantu
zabanye
zabasetyhini
zabe
zabekwa
zabelungu
zabemi
zabizwa
zabo
zabucala
zafa
zafika
zagaleleka
zagreb
zahluke
zahlukene
zahlukile
zahluliwe
zahlulwahlulwe
zahlulwe
zakhawuleza
zakhe
zakhiwe
zakho
zakowabo
zakuba
zakudala
zakwa
zakwangoko
zakwantu
zakwanzululwazi
zakwarharhabe
zakwaxhosa
zala
zalapha
zale
zalemihla
zalo
zaloo
zam
zama
zamabanga
zamaculo
zamadoda
zamahlwili
zamajamani
zamalungu
zamampondo
zamanani
zamandulo
zamanzi
zamapolisa
zamaqhina
zamasiko
zamatyala
zamatye
zamaxhosa
zamazwe
zamenza
zanamhlanje
zanda
zande
zangamashumi
zangaphakathi
zangaphambili
zangaphandle
zange
zangena
zangoku
zankulu
zanqoza
zapapashwa
zaphuma
zaphumelela
zaqala
zar
zase
zaseafrika
zaseburhulumenteni
zasejamani
zasekapa
zasekhaya
zasekuhlaleni
zaselwandle
zasemantla
zasematupi
zasemelika
zasemzantsi
zasemzini
zasendle
zasentshona
zaserhabe
zasetyenziswa
zasewitwatersrand
zaseyurophu
zaso
zathi
zatshintsha
zauberflo
zavela
zawo
zaya
zaye
zayimivo
zayo
zaza
zaze
zazenziwe
zazi
zazii
zazinge
zaziselubhacweni
zazisoloko
zaziwa
zazo
ze
zealand
zeb
zebhayoloji
zebhokisi
zecanary
zecaribbean
zecawa
zecorona
zee
zeelwimi
zeemela
zeempawu
zeendawo
zeendlela
zeenkomo
zeenkosi
zeentaka
zeenwele
zeenza
zeerandi
zefowuni
zegazi
zegesi
zegolide
zehla
zehlabathi
zeit
zekhemikhali
zekhompyutha
zeli
zelizwe
zemali
zemathematika
zematriki
zematshisi
zemazi
zembali
zemetro
zemfazwe
zemfundo
zemibutho
zemidlalo
zemihla
zeminyaka
zemisebenzi
zemishini
zemithambo
zemithi
zemiyalelo
zemizimba
zemk
zempilo
zemveli
zemvula
zenazi
zendalo
zendawo
zengingqi
zengqondo
zenkcubeko
zenkomo
zenkosi
zenkqubo
zentetho
zentliziyo
zentlobo
zentsholongwane
zenu
zenza
zenze
zenzeka
zenzeke
zenzelwa
zenzelwe
zenzile
zenziwa
zenziwe
zenzo
zenzululwazi
zepalamente
zephondo
zeplasma
zeplastiki
zeponte
zeriphabhlikhi
zero
zesi
zesibindi
zesifo
zesijamani
zesikhumba
zesikolo
zesingesi
zesintu
zesixhosa
zesizwe
zesondo
zesosifo
zestudio
zeswekile
zethu
zetiktok
zeveki
zeze
zezi
zezibalo
zezidalwa
zezifo
zezifundo
zezilwanyana
zezinto
zezinye
zeziphi
zezitulo
zezityalo
zezizwe
zezo
zezona
zezopolitiko
zezulu
zgmf
zhuang
zi
ziba
zibakho
zibaleka
zibaliwe
zibaluleke
zibalulekileyo
zibandakanya
zibangela
zibe
zibekhona
zibekwe
zibeninzi
zibhalwa
zibhalwe
zibhekisa
zibizwa
zibomvu
zibonakala
zibonakalayo
zibonakalisa
zibongo
zibonisa
zibonwa
zibulala
zicebisa
zichaphazela
zichaza
zichazwa
zichongwe
zico
zidala
zidalwa
zide
zidibana
zidibene
zidinga
zidityanisiwe
zidityaniswe
zidla
zidlala
zidluliseka
ziduru
zifakwe
zifana
zifika
zifikelela
zifo
zifumana
zifumane
zifumaneka
zifuna
zifundo
zifuneka
zigaba
ziganeko
zigcawu
zigqibe
zigxile
zihamba
zihambe
zihlala
zihlale
zihlanjiwe
zihlanjwe
zihleli
zihlunu
zii
ziilali
ziilwimi
ziimeko
ziimitha
ziimpawu
ziindawo
ziindidi
ziingcali
ziingcongconi
ziingingqi
ziinkomo
ziinkosi
ziinkqubo
ziinkuni
ziinqwelo
ziintaka
ziintlobo
ziintsapho
ziintshatsheli
ziintsholongwane
ziintsuthu
ziintyatyambo
ziiproteni
ziityuwa
zijikeleza
zijonge
zika
zikaloliwe
zikantunjana
zikarhulumente
zikawonke
zikhali
zikhethwa
zikhethwe
zikho
zikhona
zikhoyo
zikhula
zikhule
zikhupha
zikhuphe
zikhusele
zikhuselwe
zikhutshwe
ziko
zikolo
zikude
zikuloo
zikuyo
zikwabizwa
zikwakho
zikwazi
zikwenza
zikwimeko
zilandela
zilandelayo
zilandelelana
zilawulwa
zilawulwe
zilend
zili
ziliqela
zilishumi
zille
ziluhlobo
zilungele
zilwanyana
zimalunga
ziman
zimanyane
zimbabwe
zimbabwean
zimbalwa
zimbi
zimbini
zimdakana
zimi
zimile
zimpawu
zinakho
zinamandla
zinamanzi
zinambuzane
zinc
zinceda
zincinane
zinde
zindlu
zine
zinee
zineekwayara
zineempawu
zinendlela
zinentsente
zineziphumo
zingabhekisa
zingafumana
zingakanani
zinganyibilika
zingaphantsi
zingaphaya
zingaphezulu
zingaphi
zingaquka
zingasetyenziselwa
zingasetyenziswa
zingasonjululwa
zingene
zingenzeka
zingundoqo
zinika
zininzi
zinjalo
zinkomo
zinkulu
zinqabile
zinqanda
zintabamlilo
zintathu
zinto
zintshaba
zinyulwa
ziph
ziphakathi
ziphantse
ziphantsi
ziphefumla
ziphefumle
ziphela
ziphele
ziphi
ziphila
ziphilayo
ziphile
ziphinde
ziphindwa
ziphuma
ziphumo
ziproteni
ziqala
ziqale
ziqhele
ziqhelekileyo
ziqinisekisa
ziqobisene
ziquka
zisanda
zisasazeka
zisaxhaphakile
zisaziwa
zisebenza
zisebenze
zisebenzela
zisebenzisa
zisekho
zisele
zisemanzini
zisemoyeni
zisenokuba
zisenokusetyenziswa
zisenokwenziwa
zisenza
zisetyenziselwa
zisetyenziswa
zisetyenziswe
zisezilokishini
zisiba
zisiwa
zisixhenxe
zisiya
zisoloko
zisuka
zithanda
zithandwa
zithatha
zithathe
zithathwa
zithathwe
zithe
zithetha
zithi
zithintela
zithunyelwa
zitshintsha
zitsho
zitya
zityalo
zitye
zityiwa
zityiwe
zivamise
zivela
zivumele
zixeko
zixhaphake
zixhaphakile
zixhaphakileyo
zixhaswa
zixhobo
zixhomekeka
zixhomekeke
zixutywe
ziya
ziyachuma
ziyafika
ziyafuneka
ziyakuba
ziyakuthanda
ziyakuthi
ziyakwazi
ziyalingana
ziyathandwa
ziyaziwa
ziye
ziyenza
ziyenzayo
ziyeviwa
ziyi
ziyinxalenye
ziza
zizazinge
zize
zizezona
zizi
zizifo
zizifundo
zizigidi
zizii
ziziintlobo
zizilwanyana
zizinambuzane
zizinto
ziziphi
zizisa
zizityalo
zizizwe
zizo
zizodwa
zizonke
zoba
zobomi
zobufundisi
zobugcisa
zobukrestu
zobuntathetheli
zobusuku
zobuthixo
zodwa
zofuzo
zogonyo
zoguqulo
zokhuseleko
zoko
zokokuba
zokuba
zokubala
zokubanceda
zokubiza
zokubona
zokubuya
zokuchaza
zokucinga
zokudlala
zokufika
zokufumana
zokufunda
zokufundisa
zokugonya
zokugqibela
zokugxotha
zokuhamba
zokuhlala
zokukhula
zokulawula
zokulwa
zokunceda
zokuphatha
zokuphefumla
zokupheka
zokuqala
zokusetyenziswa
zokuthetha
zokuthutha
zokutya
zokutyela
zokuxhumana
zokuzama
zokuzimela
zokuzonwabisa
zokwakha
zokwandisa
zokwenza
zolawulo
zoluntu
zolwandle
zolwazi
zolwimi
zomanyano
zombane
zombini
zombutho
zomculo
zomelele
zomhlaba
zomhleli
zomkhuhlane
zomntu
zomnye
zomongo
zomphefumlo
zomsebenzi
zomthetho
zomthi
zomthonyama
zomzantsi
zomzi
zomzimba
zona
zondeni
zone
zonk
zonke
zontathu
zonyaka
zonyango
zonyulo
zoonobumba
zoorhulumente
zophando
zophuhliso
zopolitiko
zoqoqosho
zora
zorhulumente
zorhwebo
zosapho
zosasazo
zoshishino
zosuleleka
zotsho
zovavanyo
zoxinzelelo
zsa
zulu
zuma
zwelandile
zwelibanzi
zygote
{
|
}
~
£
¨
©
°
²
µ
·
º
¼
½
×
æ
÷
ǀ
ǃ
ɑ
ʰ
ʷ
ʻ
ʿ
ˈ
ˌ
ː
̀
́
̂
̃
̄
̆
̇
̈
̌
̓
̔
̣
̦
̧
̩
̱
̸
͂
͡
α
ε
η
μ
ν
ο
π
ς
φ
в
д
ъ
יהושע
ا
ٔ
ं
ख
न
स
ा
ी
े
।
ං
ජ
ත
ය
ස
ා
ි
​
‍
‎
‏
–
—
‘
’
‚
‛
“
”
†
•
…
‬
‭
′
″
⁄
№
™
⅓
←
→
↔
↷
−
√
≤
≥
≪
≫
③
④
⑦
☉
♥
❤
⺀
⺄
⺆
⺈
⺊
⺌
⺕
⺝
⺸
⺼
⿰
⿱
⿲
⿳
⿴
⿵
⿶
⿷
⿸
⿹
⿺
⿻
《
》
〢
え
も
ん
゙
ア
ク
コ
ス
ッ
ト
ナ
ミ
ユ
ラ
ル
㇁
㇂
㇄
㇇
㇈
㇉
㇓
㐁
㐄
㐅
㐌
㐫
㐬
㐭
㐮
㐱
㑒
㒵
㒸
㒼
㓁
㓞
㔾
㕛
㕣
㖾
㘝
㚅
㚇
㚔
㚘
㝉
㝡
㝴
㝵
㞋
㞢
㞷
㠩
㠭
㠯
㡀
㡭
㡿
㢲
㢴
㣇
㣺
㥯
㪅
㫄
㫐
㫒
㫺
㬅
㬎
㬥
㬰
㲋
㳄
㷠
㸒
㸚
㸦
㼌
㼲
㽞
㿟
䀠
䂞
䍃
䏍
䒑
䖍
䖒
䖝
䖵
䙴
䚻
䜌
䝿
䡛
䧹
䪞
一
丁
丂
七
丄
丅
丆
万
丈
三
上
下
丌
不
与
丏
丐
丑
专
且
丕
世
丘
丙
业
东
丞
丢
丣
两
严
並
丨
丩
个
丫
丬
中
丮
丰
丱
串
丵
丶
丷
丸
丹
为
主
丽
丿
乀
乂
乃
久
乆
乇
么
义
之
乌
乍
乎
乏
乐
乑
乔
乖
乗
乘
乙
乚
乛
乜
九
乞
也
习
乡
乳
乾
亀
亅
了
亇
予
争
事
二
亍
于
亏
亐
云
互
亓
五
井
亘
亚
亜
亞
亟
亠
亡
亢
交
亥
亦
产
亨
亩
享
京
亭
亮
亯
亰
亲
亳
亶
亷
人
亻
亼
亾
仁
今
介
仌
从
仐
仑
仒
仓
仕
他
付
仝
代
令
以
任
企
伊
伏
伐
休
会
伯
但
位
何
佘
余
作
佥
使
來
侈
侌
侖
侯
侵
便
保
俞
信
修
倉
倍
候
倠
備
僉
僕
儿
兀
允
兂
元
兄
充
兆
兇
先
光
兊
克
兌
免
兑
兒
兓
兔
党
兜
兟
入
全
兩
兪
八
公
六
兮
兰
共
关
兵
其
具
典
兹
兼
冀
冂
冃
冄
内
冈
冉
冊
冋
册
再
冎
冏
冐
冒
冓
冖
冗
冘
军
农
冝
冡
冥
冫
冬
冷
几
凡
凢
凵
凶
凷
凸
凹
出
函
凾
刀
刁
刂
刃
刄
刅
分
切
刍
刑
刕
刖
列
刘
则
初
別
利
别
到
制
刺
則
削
剌
前
剡
剽
劉
力
功
加
劦
助
劫
劳
劵
勃
勇
勉
勒
動
務
勞
勤
勹
勺
勻
勾
勿
匀
匂
包
匆
匈
匊
匋
匍
匕
化
北
匚
匝
匡
匪
匱
匸
匹
区
医
匽
匿
區
十
卂
千
卄
卅
卆
升
午
卉
半
卌
华
卑
卒
卓
单
卖
南
卜
卝
卞
占
卡
卢
卣
卤
卦
卩
卪
卬
卯
印
危
即
却
卵
卷
卸
卻
厂
厃
厄
历
厈
厉
厌
厓
厘
厚
原
厤
厥
厨
厭
厲
厶
厷
厸
去
厼
厽
叀
参
參
叅
又
叉
及
友
双
反
叐
发
叒
叔
叕
取
受
叚
叜
叟
口
古
句
另
叩
只
召
可
台
叱
史
右
叵
号
司
叹
吂
各
吅
合
吉
吊
吋
同
名
后
吏
向
吕
君
吝
吞
否
含
启
吳
吴
吹
吾
呂
呆
呈
告
员
呙
周
命
咅
和
咎
咠
咢
咨
咸
咼
哀
品
哉
員
哥
哲
唐
商
啇
問
啚
啬
啻
善
喜
喬
單
喿
嗇
噩
嚴
囊
囗
囘
囙
囚
四
回
囟
因
囧
囬
困
囱
囷
固
国
圂
圅
國
圍
圓
土
圡
圣
圥
在
圭
地
圶
圼
坐
坒
坚
坴
垂
垔
垚
埀
埋
埶
執
基
堂
堅
堆
堇
堯
塞
墨
壘
士
壬
壯
声
壳
壴
壹
壺
壽
夂
处
夅
夆
备
夊
夋
夌
复
夏
夒
夕
外
夗
夘
多
夜
夢
大
夨
天
太
夫
夬
夭
央
失
夲
头
夷
夸
夹
夻
夾
奂
奄
奇
奈
奉
奎
奏
奐
契
奓
奔
奚
奞
奠
奢
奥
奭
女
奴
奻
好
如
妄
妙
妟
妥
妻
妾
姑
委
姜
威
娄
婁
婴
嬰
嬴
子
孑
孔
孕
孖
字
存
孚
孛
孝
孟
季
孤
学
孫
孱
學
宀
宁
宂
它
宅
宇
守
安
宋
完
宏
宓
宗
官
定
宛
宜
宝
客
宣
室
宮
宰
害
家
容
宾
宿
寄
寅
密
富
寒
察
寧
審
寫
寬
寮
寸
对
寺
寻
寽
対
寿
封
尃
射
将
將
專
尉
尊
尋
尌
對
小
少
尒
尓
尔
尖
尗
尚
尞
尢
尣
尤
尧
尨
尭
就
尸
尹
尺
尻
尼
尽
尾
尿
局
居
屈
屋
屎
屏
屑
展
屖
屚
属
屠
屡
屬
屮
屯
屰
山
屵
屾
岁
岂
岑
岡
岩
岳
岸
峯
島
崇
崑
崔
崖
崙
崩
嵬
嶲
巂
巛
川
州
巟
巠
巢
巤
工
左
巧
巨
巩
巫
差
己
已
巳
巴
巷
巸
巽
巾
巿
帀
市
布
希
帚
帛
帝
带
師
席
帶
常
干
平
年
幵
并
幷
幸
幺
幻
幼
幽
幾
广
広
庄
床
底
店
庚
府
度
庫
庭
庶
康
庸
廉
廌
廛
廣
廩
廴
延
廷
建
廾
廿
开
弁
弃
弄
弇
弋
式
弓
弔
引
弗
弘
弜
弟
弥
弦
弱
張
強
强
彊
彌
彎
彐
彑
当
彔
录
彖
彗
彡
形
彥
彦
彧
彭
彳
役
彼
往
待
律
徒
得
徙
從
復
微
徵
心
忄
必
忌
忍
志
忝
忠
忩
快
念
忽
忿
思
怠
急
怱
恆
恒
恩
恭
息
悉
患
悤
悲
悶
惠
惡
惢
愁
愈
意
愛
感
慈
慧
慮
憂
憲
應
戀
戈
戉
戊
戋
戌
戍
戎
成
我
戒
戔
或
戚
戠
戢
截
戲
戶
户
戹
戼
戾
房
所
扁
扇
手
扌
才
打
托
执
承
折
拉
拜
拿
掌
推
提
摩
支
攴
攵
收
攸
改
放
政
敄
敏
敕
敖
敗
敝
敞
敢
散
敦
敫
敬
数
敷
數
斂
文
斉
斊
斗
斤
斥
斩
斬
斯
新
方
於
施
斿
旁
旋
族
无
旡
既
旣
日
旦
旧
旨
早
旬
旱
旲
时
旾
昆
昇
昌
昍
明
昏
易
昔
昗
昜
星
春
昬
是
昱
昴
昷
時
晃
晋
晏
普
景
晶
智
暑
暴
曇
曩
曰
曲
曳
更
曷
書
曹
曼
曾
替
最
朁
會
月
有
朋
服
朔
朕
朗
望
朝
木
朩
未
末
本
札
朮
术
朱
朵
朶
朿
杀
杏
杜
束
条
来
東
杲
杳
松
析
林
枚
果
枝
枲
枼
某
柔
查
柬
柰
柴
栗
桀
桑
桼
梁
條
梟
梨
棘
棠
棥
森
楚
業
楽
榮
樂
樊
欠
次
欣
欮
欲
欶
欽
款
歆
歇
歛
止
正
此
步
武
歨
歪
歮
歯
歰
歲
歴
歷
歸
歹
歺
死
殳
段
殷
殸
殹
殺
殻
殿
毋
毌
母
每
毒
比
毕
毚
毛
毳
氏
氐
民
气
氣
水
氵
氶
氷
永
氺
氾
求
汝
汞
江
沃
沓
沙
沝
泉
法
波
泣
泥
泰
洛
洪
活
派
流
浦
浪
浮
淡
淮
清
渚
渠
湯
滿
漸
火
灬
灭
灰
灵
灷
炅
炎
炏
炗
炙
炭
為
烈
烏
烝
焉
無
焦
焱
然
煞
熊
熏
燕
營
燮
爪
爫
爭
爯
爰
爱
爲
爵
父
爻
爽
爾
爿
片
牙
牚
牛
牜
牟
牢
牧
牪
牽
犀
犬
犭
犮
狂
狄
狊
独
狺
猋
猒
猪
献
獻
玄
率
玉
王
玟
玨
珎
班
琴
瑟
瑩
瓜
瓦
甘
甚
生
産
用
甫
甬
田
由
甲
申
电
甶
男
甸
甹
画
甾
畀
界
畏
畐
留
畜
畟
畢
畧
畨
番
畫
異
畱
當
畺
畾
疊
疋
疌
疑
疒
疾
癶
癸
癹
登
發
白
百
皀
皃
的
皆
皇
皋
皐
皕
皮
皷
皿
盃
盆
盇
盈
益
盍
盎
监
盒
盖
盛
盡
監
盤
盧
目
直
相
盾
省
眇
眉
看
眔
眞
真
眷
眼
眾
着
睘
睪
睿
瞏
瞢
瞿
矍
矛
矞
矢
矣
知
矦
短
石
破
碎
磊
磨
示
礻
礼
祟
票
祭
禀
禁
禸
禹
禺
离
禽
禾
禿
秀
秃
秉
秋
科
秝
秦
移
稟
穀
穌
穴
究
穹
空
穿
突
窄
窒
立
竒
竜
竝
竟
章
童
竹
笑
笠
筆
等
答
箕
算
箴
節
篤
篭
米
粉
粛
粟
粤
粦
粲
糞
糸
糹
系
約
納
素
索
紫
累
細
絜
絫
絲
維
綿
縣
繇
纍
纟
缶
网
罒
罔
罕
罗
罙
罡
罢
罪
署
罷
羅
羊
羌
羍
美
羔
羕
羗
羞
羡
羣
群
義
羲
羸
羽
翁
翏
習
翕
翟
翠
翼
老
耂
考
者
耆
而
耎
耑
耒
耳
耴
耶
耷
聂
聊
聖
聚
聶
聿
肀
肃
肅
肉
肖
肙
肥
肩
肯
育
肴
胃
背
胡
胥
能
脊
脩
膚
臣
臤
臧
自
臬
臭
臯
臱
至
致
臺
臼
臽
臾
臿
舀
舂
舄
與
興
舉
舌
舍
舛
舜
舞
舟
般
艮
良
色
艸
艹
艾
芒
芔
芬
芮
花
芳
芺
芻
苔
苗
苟
若
苦
英
茶
茸
荅
草
荒
荣
荼
莆
莧
莫
莽
菆
菊
菐
華
萬
落
葉
著
葛
董
葵
蒙
蒦
蒼
蓋
蓬
蓺
蔑
蔡
蕉
蕭
薄
薛
薦
薰
藍
藏
藥
蘭
虍
虎
虐
虒
虔
處
虖
虗
虘
虚
虛
虜
虞
虫
虽
蚤
蚩
蜀
蜜
蟲
蠡
血
行
衍
衛
衣
衤
表
衮
衰
袁
袞
褭
褱
襄
襾
西
覀
要
覃
見
規
覓
覧
親
覽
见
角
解
言
訁
訇
計
詹
誩
諸
讠
谷
豆
豈
豊
豐
豕
豖
豙
象
豦
豩
豪
豸
貇
貝
貞
貟
負
貢
貧
貪
貫
責
貳
貴
買
費
賁
資
賈
賏
賓
賔
賛
賞
賢
賣
質
賴
贊
贝
贡
责
贯
贲
贵
赖
赞
赤
赦
走
越
足
路
蹇
身
躬
車
軍
軎
軟
輦
车
辛
辜
辟
辥
辰
辱
農
辵
辶
边
达
过
近
进
连
迷
追
退
送
逆
逐
通
速
造
逢
連
逮
進
遀
遂
過
道
達
遣
適
遷
遺
邊
邑
邕
那
邦
邪
郎
部
郭
都
鄉
酉
酋
配
酓
釆
采
里
重
野
量
金
釒
鉤
錢
钅
長
镸
长
門
閃
閉
開
閏
閑
閒
間
閔
閵
閻
闌
门
间
闷
阑
阜
阝
阿
降
陳
隆
隊
隋
隡
隨
隱
隶
隹
隺
隻
隼
隽
难
雀
雁
集
雈
雋
雍
雐
雔
雙
雚
雜
雝
離
難
雨
雩
雪
雲
零
雷
需
霍
霜
霝
霞
霸
靈
靑
青
非
靡
面
靣
革
韋
韦
韭
韯
韱
音
頁
頃
項
須
頗
頡
頻
顛
页
風
风
飛
飞
食
飠
養
館
饣
首
香
馬
馮
駦
马
骨
高
髟
鬥
鬯
鬲
鬼
魚
魯
鮮
鱼
鲁
鳥
鳳
鸟
鹵
鹿
麃
麗
麥
麦
麻
黃
黄
黍
黎
黑
黒
黨
黹
黽
黾
鼎
鼓
鼠
鼻
齊
齋
齐
齒
齿
龍
龙
龜
龟
龠
龰
龱
龴
龵
龶
龷
龸
龹
者
艹
️
？
￼
🌹
🍆
🍾
🎄
🎇
🎉
🎊
🏃
👙
👨
👭
👯
💁
💃
📒
😂
😃
😝
😭
🙃
🙏
🜨
🝼
🤣
🤰
🤸
🥰
🩲
𠀁
𠀃
𠀆
𠀉
𠀎
𠀐
𠁁
𠁣
𠂆
𠂇
𠂈
𠂉
𠂊
𠂋
𠂎
𠂒
𠂔
𠂛
𠂡
𠂢
𠂤
𠂬
𠂭
𠂹
𠃊
𠃋
𠃌
𠃍
𠃎
𠃑
𠃓
𠃔
𠃜
𠄌
𠄎
𠄠
𠄢
𠆢
𠆥
𠇍
𠈌
𠌵
𠓜
𠔉
𠔥
𠔼
𠔽
𠔿
𠕀
𠕁
𠕋
𠘧
𠘨
𠙻
𠙼
𠚏
𠚒
𠚤
𠚪
𠣏
𠤎
𠤕
𠥓
𠦄
𠦑
𠦝
𠧒
𠧗
𠧪
𠩺
𠪚
𠫓
𠫔
𠫤
𠬛
𠬝
𠬞
𠬢
𠬤
𠬶
𠮛
𠮦
𠮷
𠯑
𠱠
𠳮
𠷎
𡈼
𡉀
𡉵
𡌥
𡍮
𡏳
𡕒
𡕩
𡕰
𡖅
𡗗
𡗜
𡘆
𡘤
𡧱
𡨄
𡩧
𡬠
𡭽
𡰣
𡰥
𡰪
𡰯
𡰱
𡷈
𡸁
𡿨
𡿩
𡿪
𡿺
𢀖
𢀛
𢀩
𢁙
𢆉
𢆰
𢆶
𢇁
𢇇
𢉖
𢌬
𢌿
𢏚
𢑑
𢑚
𢖻
𢙣
𢛳
𢦏
𢦒
𢧵
𢼄
𢾕
𣁋
𣄼
𣅀
𣅽
𣍘
𣎳
𣎵
𣏋
𣏼
𣗥
𣥂
𣥖
𣦵
𣦼
𣧄
𣪊
𣪠
𣬉
𣳾
𣶒
𤇾
𤊽
𤐫
𤓰
𤔔
𤕨
𤣩
𤰇
𤰔
𤰞
𤴓
𤴔
𤽄
𥁑
𥁕
𥃦
𥃩
𥃭
𥇡
𥑟
𥘅
𥘈
𥝢
𥫗
𥱡
𦈢
𦉪
𦉬
𦉼
𦍌
𦍒
𦎧
𦐇
𦓔
𦔮
𦘒
𦙃
𦚏
𦣝
𦣞
𦣻
𦥑
𦥔
𦥯
𦨉
𦭝
𦰩
𧆞
𧈧
𧘇
𧰨
𧴪
𧴮
𧵩
𧾷
𨸏
𨾴
𩙿
𩠐
𩫏
𩵋
𪉷
𪜀
𪟽
𪠲
𪩲
𫇦
𫔭
𫜸
𫝀
𫠣
𫠩
𫢉
𫥞
𫩏
𫩠
𫪡
𫲽
𫶧
𬀷
𬐘
𬗌
𬙙
𬛸
𬜯
𬟩
𬯁
𬴘
𬺻
𬼉
𬼖
𭀰
𭁈
𭁨
𭅰
𭑈
𭕄
𭗼
𭤨
𭥫
𭻾
𮅕
𮊿
𮍌
𮍏
𮓗
𮥼
𮧮
廾
𰀁
𰀄
𰀈
𰀉
𰀕
𰀠
𰀡
𰀢
𰀪
𰁜
𰃮
𰆊
𰆘
𰋙
𰕎
𰢴
𰧭
𰯲
02--
03--
10--
11--
13--
14--
15--
16--
17--
18--
20--
21--
24--
25--
30--
33--
38--
41--
42--
47--
50--
51--
68--
73--
79--
8--
87--
93--
a--
aa--
ab--
aba--
ababe--
abah--
abakh--
abali--
abana--
abane--
abanga--
abange--
abangoo--
abany--
abaph--
abasa--
abase--
abath--
abav--
abayi--
abaz--
abazi--
abe--
abene--
abi--
abo--
absor--
abu--
abuk--
ac--
acce--
acha--
act--
ad--
adi--
adopt--
af--
affe--
afu--
afund--
afuny--
ag--
aga--
agcin--
aggres--
ah--
ahla--
ahlu--
air--
ak--
aka--
akav--
akh--
akhu--
aki--
aku--
akuch--
akuh--
akuk--
akun--
akus--
akuse--
akuts--
akuxa--
akuyo--
akwa--
al--
ala--
ale--
alf--
ali--
aling--
alo--
alt--
alu--
alungi--
am--
ama--
amaba--
amad--
amakh--
amany--
amaq--
amath--
ami--
amo--
amsh--
an--
ana--
anc--
and--
ane--
anga--
angayi--
ange--
ango--
angq--
angu--
ani--
ano--
anoko--
anoku--
ant--
anti--
any--
ap--
aph--
apha--
apo--
appear--
aq--
aqeq--
aqh--
aqua--
ar--
arc--
ari--
art--
as--
ase--
asebu--
asel--
ash--
asi--
asiyo--
assassi--
astr--
at--
ath--
aty--
au--
audi--
aust--
auto--
autobio--
av--
avi--
avo--
aw--
awa--
awaba--
awam--
awas--
away--
awe--
awo--
awu--
awud--
awun--
awunan--
awuq--
ax--
axel--
ay--
aya--
aye--
ayi--
ayina--
ayinaku--
ayiv--
ayo--
aza--
azi--
azii--
azina--
azinaku--
azizi--
b--
ba--
bab--
baba--
babe--
babeng--
babhe--
babu--
bace--
back--
bacu--
bad--
badi--
bafu--
bag--
bagq--
bah--
baka--
bakh--
bakhu--
baku--
bakuq--
bakwa--
bal--
bali--
balu--
bam--
bama--
ban--
banc--
bane--
bang--
bangab--
bangazi--
bano--
banoku--
baph--
bapha--
baphu--
baq--
baqh--
baqin--
bar--
basa--
base--
bash--
basi--
baswe--
bat--
bath--
bav--
bava--
bavum--
baw--
bawa--
bawu--
bax--
baxo--
bay--
baya--
bayayi--
bayi--
bayif--
baza--
bazi--
bazin--
bazon--
be--
beau--
bebe--
bec--
bed--
bee--
been--
befu--
beh--
beku--
bel--
beli--
ben--
bendi--
benga--
benge--
bengo--
beni--
beph--
beq--
ber--
bern--
bes--
bese--
besi--
bet--
bev--
bex--
bey--
bezi--
bezinge--
bh--
bha--
bhe--
bhed--
bhla--
bho--
bhob--
bi--
bio--
bla--
black--
ble--
bli--
bo--
bob--
bod--
boh--
boku--
bom--
bon--
boo--
bor--
bou--
br--
brad--
bri--
bro--
bron--
bu--
bub--
bubu--
buc--
buf--
buffel--
bug--
buka--
bulung--
bun--
bune--
bunga--
bunge--
buph--
buq--
bur--
but--
buya--
by--
c--
ca--
cal--
cam--
can--
cap--
car--
cas--
cat--
ce--
centu--
ces--
ch--
char--
che--
chi--
chlo--
cho--
chrysan--
ci--
cir--
citr--
civ--
cl--
cle--
clo--
club--
co--
col--
coll--
colo--
com--
come--
con--
cond--
conne--
consi--
contr--
cop--
cor--
cord--
corp--
cos--
cot--
coup--
cov--
cr--
cri--
crit--
cro--
croc--
cru--
cu--
culp--
cur--
cus--
cy--
d--
da--
dan--
dar--
de--
dec--
decla--
del--
den--
depe--
des--
descri--
destr--
deve--
di--
diag--
did--
dif--
ding--
dis--
disa--
discipl--
disp--
dit--
divi--
dla--
dle--
dmi--
do--
dorn--
dr--
dra--
dro--
du--
dun--
dur--
dy--
dys--
dza--
e--
ea--
eb--
eba--
ebe--
ebex--
ebha--
ebhe--
ebi--
ebit--
ebo--
ebr--
ebu--
ebut--
ebuz--
ece--
ech--
eco--
ed--
edit--
ee--
ef--
efa--
efi--
efu--
efudu--
efund--
eg--
ega--
egq--
egx--
eh--
eham--
eho--
ei--
eisen--
ek--
ekh--
ekha--
ekhe--
ekhoke--
ekhu--
eko--
eku--
ekube--
ekubu--
ekufu--
ekuh--
ekukh--
ekuni--
ekuph--
ekuq--
ekuth--
ekutsha--
ekuzi--
ekwa--
ekwakuc--
ekway--
ekwi--
el--
ela--
elali--
elase--
eldr--
electro--
eli--
elibe--
elibu--
elind--
eline--
eling--
elinge--
eliph--
elise--
elish--
elisi--
elits--
elix--
eliya--
eliyi--
elo--
elu--
em--
ema--
emac--
emah--
emal--
emanga--
emanq--
emat--
eme--
emh--
emi--
emos--
emq--
en--
enc--
end--
endingazi--
endo--
ene--
eng--
enga--
engagq--
engase--
engc--
enge--
engena--
engo--
engq--
engu--
eni--
enje--
eno--
enobu--
enoh--
enoku--
enom--
enq--
ent--
entr--
ents--
entu--
enx--
enya--
ep--
epap--
eph--
ephe--
epidemi--
eq--
eqeqes--
eqh--
eqhe--
equ--
er--
ere--
erho--
erythro--
es--
esah--
esas--
esasi--
ese--
esesi--
eshi--
esi--
esich--
esifu--
esili--
esinoku--
esiph--
esiphucu--
esise--
esiyi--
eso--
et--
eth--
ethi--
ethno--
etsh--
ety--
etyi--
eu--
ev--
eva--
ex--
excel--
exh--
exhat--
exhi--
exo--
exuty--
ey--
eya--
eyase--
eyayi--
eye--
eyi--
eyo--
eyu--
ez--
eza--
ezase--
ezazi--
eze--
ezi--
eziba--
ezibha--
ezibu--
ezid--
ezidi--
ezifu--
ezifuny--
eziham--
ezikh--
ezikwa--
ezikwi--
ezili--
ezin--
ezine--
ezing--
ezinga--
ezingo--
ezingoo--
ezingu--
ezino--
ezinxi--
eziph--
eziq--
ezise--
ezix--
eziya--
eziyi--
eziza--
ezizi--
ezizii--
ezo--
f--
fa--
fac--
fal--
fami--
far--
fav--
fe--
feni--
fer--
fi--
fin--
fis--
fl--
flor--
fo--
fon--
foot--
footnote--
fos--
fow--
fra--
fri--
fro--
fu--
ful--
fur--
g--
ga--
gad--
gali--
gam--
gan--
gar--
gau--
gc--
ge--
gen--
geo--
ger--
gi--
gil--
gins--
go--
gold--
gon--
good--
gq--
gr--
gra--
gre--
gri--
gro--
grou--
gu--
guar--
gui--
gwa--
gxi--
gy--
gymnos--
h--
ha--
had--
hal--
ham--
hamm--
han--
har--
hat--
haw--
he--
hed--
hel--
hen--
hend--
her--
hi--
hil--
his--
histo--
hla--
hlo--
hlu--
ho--
hol--
home--
hon--
hope--
hor--
hot--
hr--
hu--
hur--
hus--
husb--
hy--
hydr--
hydrop--
i--
ib--
iba--
ibe--
ibeyi--
ibha--
ibhe--
ibi--
ibifu--
ibili--
ibing--
ibo--
ibr--
ibu--
ic--
icha--
ichas--
ichun--
icomp--
id--
ide--
ieu--
if--
ifi--
ifun--
ig--
iga--
igq--
igu--
igxa--
ih--
iha--
ihle--
ihlu--
ii--
iib--
iibho--
iico--
iig--
iii--
iim--
iimi--
iimp--
iin--
iind--
iing--
iinq--
iint--
iints--
iiper--
iir--
iits--
ije--
ijike--
ik--
ika--
ikh--
ikhuts--
iko--
ikri--
iku--
ikuku--
ikwa--
ikwi--
il--
ila--
ili--
iling--
ill--
ilu--
ilung--
im--
ima--
imake--
imar--
imbu--
ime--
imfu--
imi--
imin--
iminy--
imo--
imp--
in--
ina--
inama--
inc--
incre--
ind--
indi--
indu--
ine--
inee--
inen--
inesi--
infe--
ing--
inga--
ingabi--
ingc--
inge--
ingena--
ingi--
ingo--
ingq--
ingu--
ingx--
ini--
inju--
inko--
ino--
inom--
inq--
inqo--
instr--
int--
inter--
intsh--
inx--
inya--
inyh--
inyu--
inz--
io--
ion--
ip--
ipa--
ipe--
iph--
ipi--
iq--
iqh--
iqhe--
iqin--
ir--
irha--
is--
isas--
isat--
ise--
iseno--
isenoku--
ish--
isi--
isiba--
isig--
isih--
isikh--
isin--
isiq--
isisi--
iso--
isond--
isp--
isu--
it--
itek--
ith--
itham--
itor--
its--
iur--
iv--
ivi--
ivu--
iw--
iwa--
iwuth--
ix--
ixa--
ixel--
ixha--
ixhe--
ixi--
ixuty--
iya--
iyaqh--
iye--
iyi--
iyo--
iyu--
iz--
iza--
izi--
izihla--
izihlo--
izii--
izikh--
iziq--
j--
ja--
jap--
jar--
je--
jen--
jes--
ji--
jin--
jo--
jor--
ju--
k--
ka--
kaap--
kaf--
kah--
kal--
kama--
kami--
kamp--
kan--
kanga--
kano--
kap--
kar--
kath--
kay--
ke--
ken--
kh--
kha--
khan--
khaw--
khay--
kho--
khu--
ki--
kil--
kilo--
kin--
kir--
kit--
kle--
kli--
knu--
ko--
kobu--
koh--
koku--
kom--
kon--
kong--
koo--
koog--
kova--
kra--
kre--
kri--
ku--
kub--
kuba--
kube--
kubona--
kuc--
kuch--
kud--
kudi--
kufi--
kufu--
kug--
kugq--
kuh--
kuhla--
kuk--
kuka--
kukha--
kuko--
kuku--
kukum--
kukux--
kukwa--
kula--
kule--
kuli--
kulo--
kulu--
kum--
kuma--
kun--
kunama--
kunc--
kuncits--
kunco--
kund--
kune--
kunee--
kung--
kunge--
kungq--
kungx--
kuno--
kunq--
kunxulu--
kupa--
kuph--
kupha--
kuphu--
kuphuh--
kuq--
kuqh--
kuqha--
kuri--
kusa--
kuse--
kuselu--
kusenoku--
kush--
kusi--
kusu--
kuth--
kuts--
kuv--
kuva--
kuvu--
kuvun--
kux--
kuxel--
kuxha--
kuya--
kuyaku--
kuyi--
kuz--
kuza--
kw--
kwa--
kwaba--
kwaku--
kwakum--
kwakuyi--
kwam--
kwama--
kwan--
kwanama--
kwane--
kwanga--
kwano--
kwanoku--
kwaph--
kwaq--
kwase--
kwav--
kwaye--
kwe--
kwee--
kwega--
kwegu--
kweka--
kweli--
kwelo--
kwemi--
kwen--
kwend--
kwesi--
kweze--
kwezi--
kwezo--
kwi--
kwidi--
kwii--
kwimi--
kwimp--
kwin--
kwint--
kwip--
kwisi--
kwisiq--
kwits--
kwizi--
kwizih--
l--
la--
laa--
laba--
lac--
lach--
lah--
lakwa--
lal--
lali--
lama--
lan--
land--
lands--
langa--
laph--
laq--
las--
lase--
lat--
lats--
laur--
lay--
le--
leb--
lebo--
lee--
leg--
leh--
lem--
lemi--
lemp--
len--
leng--
lenko--
lep--
ler--
les--
lesi--
let--
lez--
li--
lib--
liba--
libe--
libu--
lich--
lid--
lifa--
lifu--
ligc--
ligq--
lih--
lik--
lika--
likh--
likhu--
likwa--
lil--
lili--
lilu--
limk--
lin--
lind--
line--
linga--
linge--
lingu--
lino--
liny--
liph--
liq--
liqhe--
liqu--
lis--
lisa--
lise--
lish--
lisi--
lith--
lits--
litsha--
lity--
liva--
liver--
lix--
liya--
liyi--
liz--
liza--
ll--
lo--
lobu--
loc--
lod--
loku--
lokuph--
lokuqh--
lolu--
lolwa--
lom--
lomh--
lon--
long--
loo--
los--
lova--
lu--
lub--
luba--
lube--
lubu--
luch--
lud--
lufu--
lugc--
lugq--
luh--
luji--
luk--
luka--
lukh--
lukho--
lukhu--
lune--
lung--
lungany--
lunge--
lungq--
lunxulu--
luny--
luph--
luq--
lusa--
luse--
lux--
luya--
lwa--
lwaba--
lwak--
lwalu--
lwam--
lwama--
lwase--
lwe--
lwee--
lwemi--
lwesi--
lwi--
ly--
m--
ma--
mab--
maba--
mabu--
mac--
mada--
mafi--
mag--
maga--
magi--
magq--
mah--
mak--
maka--
makah--
make--
makho--
maku--
mal--
malupha--
mam--
man--
mandi--
manq--
map--
maq--
mar--
mari--
mase--
mash--
masi--
masiq--
mat--
math--
maur--
maw--
max--
may--
mba--
mbe--
mbi--
mbo--
mbom--
mbu--
mc--
mcc--
mche--
mckin--
mcm--
md--
mdu--
me--
meas--
meh--
mel--
men--
mer--
merce--
mes--
meta--
mexi--
mfe--
mfi--
mfu--
mg--
mh--
mha--
mhi--
mhla--
mi--
micro--
mid--
mis--
mist--
mit--
mje--
mk--
mkh--
mlo--
mm--
mn--
mnd--
mnt--
mo--
moh--
moko--
mol--
mon--
mor--
mos--
mot--
mots--
mp--
mph--
mpu--
mq--
mr--
msi--
mta--
mth--
mts--
mtshe--
mu--
mun--
mur--
mus--
mush--
muts--
mv--
mve--
my--
mz--
mza--
mzi--
n--
na--
naba--
nai--
naka--
naku--
nakwe--
nakwi--
nakwii--
nam--
nama--
nan--
nanga--
nange--
nangee--
nango--
nanot--
nas--
nase--
naseku--
nasezi--
nav--
nazi--
nc--
nco--
nd--
nda--
ndaa--
ndak--
ndand--
ndi--
ndic--
ndikhu--
ndin--
ndinga--
ndingu--
ndis--
ndiwu--
ndiyi--
ndo--
ndu--
ndwa--
ne--
neb--
nebh--
ned--
nee--
neen--
neeng--
neenko--
nefu--
neg--
negq--
nek--
nekh--
nekule--
nekuse--
nekuyi--
neli--
nelo--
nelu--
nema--
nemi--
nen--
nend--
neng--
nengq--
nent--
nents--
neny--
nep--
neq--
ner--
nerv--
nese--
nesi--
neso--
net--
new--
neyayisaya--
neye--
nezase--
neze--
nezi--
nezo--
ng--
nga--
ngab--
ngaba--
ngak--
ngam--
ngama--
ngase--
ngc--
ngcan--
ngco--
ngcwa--
nge--
ngee--
ngemi--
ngemo--
ngen--
ngesi--
ngez--
ngezi--
ngi--
ngo--
ngob--
ngobu--
ngoko--
ngoku--
ngokwa--
ngokwe--
ngokwee--
ngom--
ngomk--
ngoo--
ngowe--
ngowo--
ngq--
ngqungq--
ngu--
ngum--
ngumg--
ngumk--
ngumm--
ngumnq--
ngumq--
nguno--
nguso--
ngx--
ni--
nico--
nine--
ning--
nix--
nizi--
nje--
njeng--
njengak--
njenge--
njengo--
nji--
nka--
nko--
nku--
no--
nob--
nobu--
nobuh--
noc--
nog--
noh--
noja--
nokh--
noku--
nokugq--
nokuh--
nokun--
nokung--
nolu--
nolwa--
nom--
noma--
nomp--
nomq--
nomv--
nomy--
non--
nonge--
nono--
noo--
nop--
noq--
nor--
nosa--
noso--
not--
noth--
now--
nowe--
nox--
nt--
nta--
nte--
ntla--
ntlo--
nto--
nts--
ntse--
ntshi--
ntsi--
nu--
num--
nur--
nx--
ny--
nz--
o--
oa--
oba--
obe--
obu--
obubu--
oc--
occ--
och--
ocypo--
od--
odi--
odu--
of--
ogi--
ogq--
oh--
ohla--
ohlu--
oka--
okh--
oko--
oku--
okung--
okuph--
okwa--
okwe--
okwesi--
ol--
oli--
olo--
olu--
oluch--
olufu--
olung--
oluq--
oluse--
olux--
olwa--
olwalu--
om--
oma--
omi--
omn--
omniv--
on--
one--
onga--
ongas--
ongazi--
onge--
ongo--
ongu--
ongum--
ono--
onobu--
onoku--
oo--
oob--
oom--
oon--
ooq--
ooso--
oozi--
op--
ophe--
ophuh--
opp--
oqh--
or--
orien--
oro--
os--
osh--
oso--
osule--
ot--
ots--
ou--
out--
ove--
over--
ovi--
ow--
owa--
owahlu--
owak--
owaph--
owaw--
oway--
owaye--
owayengu--
owo--
ox--
oya--
oyi--
oza--
ozi--
p--
pa--
pan--
papa--
par--
paro--
part--
pas--
pat--
pav--
pe--
pear--
pedd--
penta--
per--
pet--
pfe--
ph--
pha--
phe--
pho--
phu--
phuth--
pi--
pin--
pla--
ple--
pli--
plum--
pne--
po--
poly--
pon--
pos--
pra--
pre--
prepa--
pri--
prin--
pro--
provi--
pu--
publi--
pull--
pun--
put--
q--
qha--
qhi--
qu--
qua--
quadr--
quar--
quest--
qun--
quo--
r--
ra--
rabu--
radio--
ran--
re--
rece--
recru--
recup--
red--
reg--
relat--
rele--
reli--
res--
reti--
rev--
rh--
rha--
rhi--
rho--
ri--
rie--
rit--
ro--
rob--
rod--
roos--
rose--
rou--
row--
ru--
rub--
rud--
run--
rus--
ry--
s--
sa--
saa--
saba--
sah--
sal--
sala--
sali--
sam--
sama--
san--
saq--
sar--
sas--
sasa--
sase--
sasi--
sat--
saw--
sax--
say--
scave--
sch--
scho--
sco--
se--
sebe--
sebeh--
sec--
sed--
see--
seh--
seku--
sel--
sem--
semi--
sen--
send--
seni--
senje--
sent--
ser--
sesa--
sesi--
set--
sezi--
sh--
sha--
she--
shi--
shu--
si--
sib--
siba--
sibe--
sibhe--
sibu--
sich--
sid--
sidi--
sifu--
siga--
sigq--
sih--
sika--
sikh--
sikhu--
siku--
silv--
sim--
sima--
sin--
sine--
sing--
singa--
singazi--
singe--
sino--
siny--
siph--
sipha--
siq--
siqh--
sis--
sise--
sisi--
sit--
sits--
sity--
sityhi--
siw--
six--
siya--
siyi--
siz--
siza--
sizi--
sky--
sla--
smo--
so--
sobu--
soc--
soku--
sol--
som--
some--
son--
sosa--
sosul--
sou--
south--
soyi--
sp--
spe--
spi--
spru--
sq--
st--
sta--
step--
ster--
steyns--
sti--
sto--
stra--
su--
sub--
suffe--
super--
supp--
suppor--
sur--
suz--
swa--
swi--
sy--
symp--
syn--
t--
ta--
tai--
tam--
tan--
tas--
tat--
te--
tem--
temp--
ter--
tes--
th--
tham--
the--
them--
theo--
thermocl--
tho--
thu--
ti--
tis--
to--
tol--
top--
tor--
tr--
tra--
trans--
treat--
tri--
tro--
ts--
tsh--
tsha--
tshu--
tso--
tu--
tupi--
tur--
twa--
twi--
ty--
typi--
tz--
u--
ua--
ual--
ub--
uba--
ube--
ubeng--
ubha--
ubhe--
ubi--
ubon--
ubu--
ubuh--
ubulu--
ubun--
ubunga--
ubuq--
ubut--
uca--
uch--
ud--
udin--
ufe--
ufeze--
ufi--
ufu--
ug--
uga--
ugi--
ugq--
ugu--
uguqu--
uh--
uham--
uhi--
uhla--
uho--
uji--
ujike--
uju--
uk--
uka--
ukh--
ukha--
ukho--
ukhu--
ukhum--
ukhuth--
uko--
ukon--
uku--
ukub--
ukuba--
ukuch--
ukud--
ukufu--
ukugq--
ukuh--
ukuham--
ukuk--
ukukh--
ukuli--
ukulu--
ukum--
ukun--
ukung--
ukungab--
ukungayi--
ukungq--
ukupha--
ukuphi--
ukuphum--
ukuq--
ukuqh--
ukurhaw--
ukusi--
ukuth--
ukuts--
ukuv--
ukuvum--
ukuw--
ukuwu--
ukux--
ukuxa--
ukuyi--
ukuzi--
ukwa--
ukwah--
ukwe--
ul--
ula--
ule--
uli--
ulo--
ulu--
um--
uma--
umb--
umbam--
umbi--
umbu--
umd--
umgq--
umh--
umi--
umkh--
umn--
umngc--
umny--
umo--
umoh--
ump--
umpa--
umph--
umq--
umqu--
umth--
umts--
umv--
umx--
umz--
umzi--
un--
und--
under--
une--
unee--
ung--
unga--
ungab--
ungafu--
ungas--
ungay--
ungo--
ungq--
ungu--
ungum--
univer--
unje--
uno--
unoku--
unom--
unon--
unos--
unq--
unya--
up--
uph--
upha--
uphe--
upho--
uphuh--
uq--
uqh--
uqha--
uqhe--
ur--
uro--
us--
usa--
use--
useng--
usenoku--
ush--
usi--
usin--
usisi--
uso--
ut--
uta--
ute--
uth--
uthun--
uto--
uts--
utyha--
utyho--
uv--
uve--
uvi--
uvu--
uw--
ux--
uxi--
uya--
uyayi--
uye--
uyi--
uyikha--
uyo--
uz--
uza--
uzaku--
uzama--
uzi--
uzin--
uzinc--
uzo--
uzon--
uzwe--
v--
va--
vacc--
vale--
van--
ve--
veget--
vehi--
ven--
venezu--
venu--
ver--
verte--
ves--
vi--
vil--
vin--
vio--
vit--
vita--
vlamer--
vo--
vu--
w--
wa--
waa--
waafu--
waaq--
wab--
waba--
wabe--
wabhe--
wabi--
wabu--
wach--
wachu--
wad--
wafu--
wag--
wagqob--
wah--
wain--
wak--
wakh--
wakhu--
wakhuth--
wakwa--
wal--
wali--
walu--
wam--
wama--
wambu--
wan--
wand--
wanq--
wany--
waph--
wapha--
waq--
waqin--
war--
was--
wase--
wat--
wath--
wats--
wav--
waw--
wawa--
wawu--
wawuk--
wawun--
wax--
waxh--
way--
waya--
waye--
wayekwangu--
wayeng--
wayengaz--
wayengu--
wayeph--
wayese--
wayesenoku--
wayeyi--
wayeza--
wayi--
wayo--
wazi--
we--
web--
wed--
wee--
wegq--
weh--
wei--
wek--
wel--
wem--
wen--
wer--
weri--
wes--
wesi--
wet--
wez--
weza--
wezo--
wh--
wi--
wid--
wie--
wil--
win--
wind--
wins--
wit--
wo--
wobu--
wohlu--
woku--
wol--
wom--
won--
woo--
wor--
wu--
wy--
x--
xa--
xi--
y--
ya--
yaba--
yabhu--
yabu--
yach--
yad--
yafu--
yah--
yako--
yaku--
yakwa--
yale--
yam--
yama--
yami--
yan--
yandu--
yaph--
yapha--
yaq--
yaqh--
yas--
yase--
yasemaq--
yasi--
yath--
yav--
yawa--
yax--
yayi--
yayiku--
yayinge--
yayingu--
yayisa--
yayiyi--
yazi--
ye--
yec--
yee--
yeen--
yega--
yeh--
yeka--
yeli--
yem--
yemi--
yemp--
yen--
yend--
yeng--
yents--
yep--
yeq--
yer--
yesi--
yesikh--
yetr--
yey--
yeye--
yez--
yeze--
yezi--
yezo--
yi--
yib--
yibr--
yig--
yim--
yimi--
yimidi--
yimo--
yimp--
yin--
yind--
ying--
yinko--
yints--
yits--
yo--
yobu--
yokh--
yoku--
yokuph--
yom--
yomg--
yomm--
yomx--
yong--
yoo--
yoomabona--
yop--
yorh--
yu--
z--
za--
zaba--
zadi--
zafu--
zah--
zak--
zakhu--
zakwa--
zal--
zalu--
zam--
zama--
zand--
zaq--
zase--
zats--
zazi--
ze--
zeb--
zee--
zeen--
zemi--
zemp--
zen--
zent--
zer--
zese--
zesi--
zeze--
zezi--
zi--
zib--
ziba--
zibe--
zibona--
zibu--
zic--
zich--
zid--
zidi--
zidu--
zifing--
zifu--
zig--
zigc--
zigq--
zih--
zii--
ziib--
ziinko--
ziints--
zika--
zikh--
zikwa--
zila--
zilu--
zim--
zimi--
zimmer--
zin--
zinc--
zine--
zinee--
zing--
zingane--
zingaq--
zingat--
zinge--
zingena--
zingoo--
zingq--
zini--
zinoku--
zint--
zinyibi--
ziq--
ziqh--
ziqhe--
zisa--
zise--
zisenoku--
zish--
zisi--
zith--
zits--
zity--
ziv--
ziva--
zive--
ziw--
zix--
ziya--
ziyah--
ziyi--
ziz--
ziza--
zizi--
zo--
zobu--
zoh--
zoku--
zokuph--
zokuqh--
zokux--
zom--
zomg--
zon--
zond--
zoo--
zoph--
zosu--
zosule--
--0
--00
--1
--2
--29
--3
--4
--5
--51
--6
--7
--8
--9
--a
--ab
--aba
--abatha
--abi
--able
--abram
--ac
--ach
--ack
--ad
--ae
--af
--afa
--age
--ah
--ai
--ain
--ais
--akanya
--akanyeka
--aki
--al
--ala
--ald
--ally
--als
--aluka
--am
--ama
--amba
--ambili
--ambo
--ame
--amo
--an
--ana
--ance
--and
--anda
--angwa
--ani
--ank
--ano
--ans
--ant
--antla
--antly
--ants
--anwa
--ar
--ara
--ard
--ari
--aria
--ariya
--aro
--ars
--aruto
--ary
--as
--asha
--ast
--at
--ata
--ate
--ated
--ates
--ath
--atha
--atho
--athu
--ati
--ation
--ative
--ato
--ator
--au
--auts
--aw
--awe
--awi
--awo
--ay
--ayo
--aza
--b
--ba
--baai
--bala
--bali
--baluleke
--ban
--bane
--banga
--banjwa
--bantu
--bbs
--be
--beck
--beg
--beka
--bekwa
--bekwe
--bele
--beni
--benzi
--benzisa
--ber
--berg
--beth
--betha
--bethwa
--beza
--bh
--bha
--bhabha
--bhaca
--bhakeni
--bhala
--bhale
--bhali
--bhaliweyo
--bhalo
--bhalwa
--bham
--bhanti
--bhaqa
--bhaza
--bhe
--bhedlele
--bheka
--bhekile
--bhekisa
--bhile
--bhileni
--bhinqa
--bhlikhi
--bhlorho
--bho
--bhobho
--bhokhwe
--bhozo
--bhu
--bhulu
--bi
--bia
--bikho
--bila
--bindi
--bini
--bique
--bisa
--biso
--biza
--bize
--bizi
--bizo
--bizwa
--ble
--bliki
--bo
--board
--bola
--bonelela
--bongo
--bonisa
--bonisana
--bonwa
--boom
--botswana
--box
--britani
--bs
--bu
--bude
--bukeli
--buko
--bula
--bulala
--bulawa
--bulo
--burg
--buso
--buye
--buzo
--by
--c
--ca
--cacanga
--cacisa
--caka
--cal
--cala
--calucalulwa
--car
--cawa
--ce
--ceba
--cebisa
--cebo
--ced
--cela
--celo
--cengcelezo
--cer
--ces
--cetyiswa
--ch
--chasa
--chasene
--chaza
--chazwa
--chiza
--chongwa
--chongwe
--chotho
--cht
--chukumisa
--chule
--chwepheshe
--chwetheza
--ci
--ciko
--cing
--cis
--cisa
--ck
--cks
--co
--coceko
--coe
--col
--coni
--cotha
--cothwa
--cothwe
--craft
--cs
--ct
--cts
--cu
--cula
--culela
--culi
--culwa
--cwangcisa
--cwangciso
--cwangciswa
--cwina
--cy
--d
--da
--daba
--dad
--dada
--daka
--dala
--dale
--dali
--dalo
--dalwa
--danga
--dani
--das
--datshi
--dawo
--dayo
--dazo
--dd
--de
--ded
--dela
--dele
--den
--der
--des
--di
--dia
--dibana
--dile
--dima
--din
--ding
--dinga
--dingo
--dini
--dinwa
--disciplinary
--diswa
--diweyo
--dl
--dla
--dlaka
--dlali
--dlalwa
--dle
--dlela
--dlelwane
--dli
--dlo
--dlu
--dluliseka
--dlwengulwa
--do
--doda
--dolo
--dolophini
--dor
--dorp
--dra
--drama
--ds
--du
--dubula
--dudu
--duko
--dul
--dumba
--dumisa
--duna
--dundu
--dus
--dwa
--dwana
--dwe
--dwela
--dy
--dz
--e
--ea
--ean
--eau
--ebhu
--ech
--ect
--ed
--ediswa
--ee
--efumlo
--egi
--ehlo
--eira
--ek
--eka
--eke
--ekile
--ekiso
--eko
--ekwa
--ekwe
--el
--ela
--elana
--elayo
--ele
--eleka
--elekayo
--eleke
--elekileyo
--eleko
--elela
--elelana
--elelo
--elelwano
--elelwe
--elene
--eleneyo
--eleyo
--eli
--ell
--ellite
--elo
--els
--elt
--elwa
--elwano
--elwe
--elweyo
--ely
--em
--eman
--en
--ena
--ence
--ene
--eneyo
--eni
--ens
--ense
--ensi
--ent
--ental
--enywa
--eous
--er
--ered
--erik
--ers
--ert
--ertinge
--ery
--es
--eshe
--ess
--est
--et
--eth
--etha
--ethi
--ethwe
--eti
--etse
--ett
--etz
--eu
--eva
--ey
--eyo
--ez
--eza
--ezu
--ezulu
--f
--fa
--faca
--fake
--fakwa
--fama
--families
--fana
--fane
--fani
--fazi
--fel
--feni
--ference
--fezekisa
--ff
--ffe
--ffo
--fi
--fiers
--fiji
--fika
--fike
--fikelela
--fileyo
--florence
--fo
--fontein
--fort
--fowuni
--fransi
--freyistata
--ft
--fu
--fuba
--fudula
--fudumeza
--fukeni
--ful
--fumaneka
--fumani
--fumanisa
--fumene
--fun
--funa
--funde
--fundi
--fundisa
--fundisi
--fundiswa
--fundo
--fundwa
--funeka
--funi
--funwa
--funxa
--funxi
--funyanwa
--futha
--futhe
--futshane
--fy
--g
--ga
--gadeiro
--gal
--gala
--galelo
--galo
--gama
--gan
--gana
--gane
--ganeko
--ganga
--gaqa
--gate
--gawula
--gazi
--gcini
--gcinwa
--gcwele
--ge
--geal
--gebenga
--gela
--gele
--geli
--gen
--gena
--genericname
--geni
--ger
--ges
--geza
--gh
--gham
--ght
--gi
--gical
--gidi
--gies
--gikazi
--gile
--ginci
--gisa
--giso
--gist
--gists
--giswa
--go
--goduka
--gojela
--golose
--goma
--gompo
--gonya
--gorha
--gos
--gosa
--gozi
--gqa
--gqabi
--gqeba
--gqi
--gqiba
--gqibo
--gqo
--gqobhoka
--gqondo
--gqu
--gqwe
--gqwesa
--gqwetha
--gqwirha
--grafi
--grike
--gruzuka
--gs
--gte
--gton
--gu
--gubhu
--gubo
--gue
--guga
--gula
--gulana
--guli
--gulo
--gumbi
--gunjana
--gunya
--guquka
--guqula
--guqulwa
--gwa
--gwali
--gwana
--gwangqa
--gwe
--gwebo
--gwini
--gxeka
--gxeki
--gxekwa
--gxina
--gxotha
--gxothwa
--gy
--h
--ha
--habhlikhi
--hafu
--hak
--haka
--hala
--halogu
--ham
--hama
--hambi
--han
--hana
--hane
--hanga
--hanjiswa
--hanjwa
--haphu
--hara
--hari
--hashe
--he
--hedral
--heim
--heka
--heke
--heko
--hela
--hele
--helele
--helwa
--henda
--heni
--henxe
--hero
--hes
--hi
--hila
--hile
--hill
--hing
--hini
--hino
--hiswa
--hiwe
--hiy
--hiya
--hiye
--hl
--hla
--hlaba
--hlalutya
--hlalwa
--hlana
--hlangu
--hlanu
--hlatywa
--hle
--hleka
--hleli
--hlelwa
--hlisa
--hlo
--hlohla
--hloko
--hlola
--hloli
--hlolwa
--hluke
--hlukile
--hluko
--hlula
--hlulwe
--hluma
--hlunu
--hlutha
--hlwa
--hlwane
--hlwempu
--hlwili
--ho
--hobe
--hodi
--hoek
--hof
--hold
--holo
--http
--https
--hu
--hula
--hule
--hwa
--hwe
--hy
--i
--ia
--ial
--ian
--ians
--ibhala
--ibiza
--ic
--ica
--ical
--ically
--ich
--icia
--ick
--ico
--ics
--id
--idae
--ide
--ids
--ie
--ied
--ien
--ience
--ier
--iers
--ies
--ig
--igh
--ight
--ii
--ik
--ika
--ike
--iki
--il
--ila
--ild
--ile
--ileni
--ille
--ilo
--im
--ima
--in
--ina
--inal
--inda
--ine
--ing
--ingqi
--ings
--ington
--ini
--ino
--ins
--inwe
--inzi
--io
--ion
--ip
--ipha
--ir
--ira
--ire
--iro
--iros
--irs
--is
--isa
--isana
--ise
--ised
--iseka
--iseko
--iseni
--ish
--ishi
--isi
--ism
--iso
--ist
--ists
--iswa
--iswe
--it
--ite
--itha
--ities
--ito
--ity
--ium
--ius
--iva
--ive
--ively
--ivity
--iwa
--iwe
--iweyo
--ix
--iy
--iya
--iyo
--ization
--ized
--izo
--j
--ja
--jalo
--jana
--je
--jekthi
--ji
--jika
--jikeleza
--jikeleze
--jiki
--jingqi
--jini
--jiswa
--jiswe
--jk
--jo
--jolise
--jongwa
--joni
--juda
--jwa
--k
--ka
--kabza
--kafiki
--kahla
--kal
--kala
--kale
--kali
--kalisa
--kalisi
--kaliswa
--kalo
--kaltsha
--kalyo
--kama
--kanga
--kanya
--kanywe
--katha
--kati
--kavuthwa
--kayo
--kaza
--kazalwa
--kazi
--ke
--keka
--keke
--kela
--kele
--kelela
--kelele
--keli
--kelo
--kelwa
--kelwe
--keni
--ker
--ket
--kett
--kezela
--kezo
--kezwa
--kh
--kha
--khaba
--khadi
--khala
--khalazo
--khalenda
--khali
--khalipha
--khalo
--khawuleza
--khaya
--khe
--khela
--khele
--khelela
--kheli
--khelo
--khenkethi
--khephe
--khi
--khitshini
--khiwa
--khiwe
--khiwo
--kho
--khoboka
--khohlo
--kholwa
--khoyo
--khrasi
--khul
--khula
--khulelwa
--khulisa
--khuliswa
--khulu
--khuni
--khupha
--khusela
--khuthaza
--khutshwa
--khw
--khwe
--khwele
--khwenkwe
--khwiniba
--ki
--kiel
--kile
--kileyo
--kis
--kisa
--kise
--kishi
--kiso
--kiswa
--kiswe
--kiwe
--kiyo
--klyn
--ko
--kokheli
--kolweni
--komanisi
--komiti
--komo
--kotha
--kov
--kra
--krakra
--krala
--krelemnqa
--krokrelwa
--ks
--ku
--kubonwa
--kumbiza
--kwa
--kwazi
--kwe
--kweni
--kxi
--ky
--kya
--l
--la
--lahle
--lahlekelwa
--lahlwa
--lala
--lalisa
--lana
--land
--lane
--langa
--lani
--lanisa
--lapho
--laphu
--lar
--layo
--lazi
--lbart
--ld
--lds
--le
--lebhu
--led
--lei
--lejo
--lek
--leka
--lekanga
--lekayo
--leke
--lekile
--lekileyo
--lekisa
--lekiswa
--leko
--lel
--lela
--lele
--lelene
--leleneyo
--leleni
--leli
--lelwa
--lelwano
--lelwe
--lelweyo
--lene
--leni
--lenye
--ler
--lers
--levu
--ley
--leyo
--leza
--leze
--lezo
--lf
--li
--lic
--lie
--lil
--lila
--lile
--lili
--lim
--lima
--limi
--limo
--lin
--lindeleke
--line
--ling
--linge
--lini
--lino
--linywa
--lis
--lisa
--lisayo
--lise
--liseke
--liseko
--lisi
--liso
--liswa
--liswe
--lity
--liwe
--liweyo
--lizo
--lizwi
--lk
--ll
--lla
--lle
--lles
--lli
--llo
--lls
--lly
--lm
--lo
--loba
--lobi
--logu
--logy
--loji
--loko
--lombe
--lon
--longo
--loo
--loza
--ls
--lsk
--lt
--ltsha
--lu
--lubhelu
--lula
--luleka
--lulekanga
--luleke
--lulekile
--lulekileyo
--lulwa
--lume
--lumkisa
--lumko
--lundini
--lunga
--lungisa
--lungiswa
--lunywa
--lurgy
--lusa
--lusi
--lusizi
--lw
--lwa
--lwana
--lwane
--lwano
--lwazi
--lwe
--lwela
--lweni
--lweyo
--lwimi
--ly
--lying
--lyo
--m
--ma
--madara
--mafrika
--magumbi
--mali
--mampondweni
--man
--mana
--mandleni
--maphela
--masipala
--maso
--mava
--maxhoseni
--mazantsi
--mazi
--mazwi
--mb
--mba
--mbabwe
--mbaleki
--mbalwa
--mbasa
--mbazana
--mbe
--mbeka
--mbeni
--mbezi
--mbha
--mbi
--mbia
--mbindi
--mbis
--mbisa
--mbisene
--mbiwa
--mbiza
--mbo
--mbonjeni
--mbono
--mbu
--mbus
--mbuzo
--mcebisi
--mcenga
--me
--meko
--mela
--mele
--melela
--meleyo
--meleza
--meli
--melwane
--memelela
--meni
--ment
--mer
--merika
--metika
--mezela
--mfama
--mfazi
--mfene
--mfihlo
--mfimfithi
--mfuneko
--mfuno
--mgodeli
--mgxada
--mhla
--mi
--mibutho
--mic
--mida
--mifuno
--mila
--milo
--minye
--miphunga
--miqondiso
--mis
--misa
--mishinari
--mishini
--misi
--miswa
--miyalelo
--mizi
--mizila
--mka
--mkani
--mke
--mkela
--mkele
--mkeli
--mkelwa
--mkhozi
--mkhuhlane
--mkhwa
--mkhwebane
--mko
--mla
--mle
--mlungwini
--mlwa
--mmeli
--mnandi
--mntana
--mntu
--mo
--monti
--moor
--moya
--mpahla
--mpawu
--mpepha
--mphefumlweni
--mphushu
--mpompa
--mpopo
--mpu
--mpulo
--mqeqeshi
--mqondiso
--ms
--msila
--mtoti
--mtshana
--mu
--mva
--mveku
--mveli
--mvelo
--mvo
--mvubu
--mvuzo
--my
--myeni
--myinge
--mzali
--mzi
--mzimba
--mzimbeni
--mzini
--n
--na
--nadine
--nakala
--nakho
--nal
--namibia
--nana
--nani
--nas
--nawa
--nayo
--nca
--nce
--ncedisa
--ncedisi
--ncedo
--ncinci
--ncitshiswa
--ncoko
--nconyelwa
--nconywa
--nd
--nda
--ndaba
--ndakanya
--ndakanyeka
--ndakanywa
--ndal
--ndawana
--ndawo
--ndayo
--nde
--ndela
--ndele
--ndeli
--ndelwa
--ndelwe
--ndemikhi
--ndeni
--nder
--ndi
--ndisa
--ndiswa
--ndiwe
--ndiweyo
--ndla
--ndle
--ndleki
--ndleko
--ndlo
--ndlu
--ndo
--ndonga
--ndoqo
--ndul
--ndulela
--nduli
--ndulo
--nduva
--ndwa
--ndwe
--ne
--nean
--ned
--nela
--nelela
--nelwe
--nene
--neni
--neno
--ner
--nes
--ness
--new
--ney
--neyo
--ng
--nga
--ngabezana
--ngabi
--ngafuni
--ngana
--nganisa
--ngca
--ngcambu
--ngcango
--ngcaphephe
--ngcelele
--ngcingo
--ngcola
--ngcoliseka
--ngcongconi
--ngcutheka
--ngcwatywa
--ngcwele
--nge
--ngekho
--ngela
--ngele
--ngelwa
--ngelwe
--ngena
--ngeni
--ngi
--ngilani
--ngile
--ngileyo
--nginqi
--ngisa
--ngiswa
--ngiswe
--ngiwa
--ngo
--ngondleki
--ngqa
--ngqi
--ngqina
--ngqinelana
--ngqiqo
--ngs
--ngu
--ngula
--nguni
--ngwa
--ngwe
--ngweni
--ngwevu
--nha
--nhekemfu
--ni
--nie
--nika
--nikazi
--nike
--nikela
--nikezela
--nikezelwa
--nikezwa
--niki
--nikiweyo
--nikwa
--nin
--nina
--ning
--nintsi
--nisa
--nise
--nisela
--niselo
--nisi
--nisile
--nisiweyo
--niso
--niswa
--niswe
--nita
--nitt
--niyo
--nja
--njana
--njane
--nje
--njelwe
--njenje
--njini
--njiswa
--njiswe
--njiwe
--njwa
--njwe
--nk
--nkabi
--nkawu
--nkce
--nkcenkce
--nkcukacha
--nketha
--nkethi
--nketho
--nki
--nkokeli
--nkokheli
--nkolo
--nkosi
--nkotha
--nkowane
--nkozo
--nks
--nkulu
--nkundla
--nkwa
--nkxaso
--nky
--nn
--nna
--nne
--no
--nodumo
--nogada
--nongqawuse
--nos
--nozala
--nqanda
--nqe
--nqeni
--nqina
--nqumla
--nqwa
--nqweme
--ns
--nse
--nsi
--nsky
--nt
--nta
--ntaka
--ntal
--ntandathu
--ntaphane
--nte
--ntela
--ntelwe
--ntetha
--nti
--ntified
--ntla
--ntlango
--ntlanu
--ntlanzi
--ntle
--ntlobo
--ntlu
--nto
--ntombazana
--ntonga
--nts
--ntsa
--ntse
--ntshatsheli
--ntshwa
--ntshwe
--ntsi
--ntso
--ntsona
--ntsu
--ntsundu
--ntu
--ntw
--ntwa
--ntwini
--ntyatyambo
--ntyi
--nu
--nuka
--nus
--nwa
--nwabisa
--nwana
--nwe
--nwele
--nxalenye
--nxeba
--nxi
--nxiba
--nxibo
--nxila
--nxweme
--ny
--nya
--nyana
--nyange
--nyangwa
--nyani
--nyaniswa
--nyano
--nyanzela
--nye
--nyela
--nyelwe
--nyi
--nyibiliki
--nyibilikisi
--nyiswa
--nyiswe
--nyo
--nyosi
--nyuka
--nyula
--nywa
--nywe
--nz
--nza
--nzana
--nzanga
--nzayo
--nze
--nzeka
--nzeki
--nzela
--nzele
--nzelwa
--nzelwe
--nzi
--nzile
--nzima
--nzise
--nziselwa
--nzisi
--nziwa
--nziwe
--nzo
--nzwa
--o
--oa
--oba
--oc
--ock
--od
--odt
--ofa
--ofi
--ogen
--ogi
--oi
--ol
--ola
--ole
--olf
--olo
--ology
--ols
--om
--oma
--omi
--omo
--on
--ona
--ongo
--oni
--onia
--ons
--oo
--op
--oqo
--or
--orf
--orhulumente
--orn
--ors
--ory
--os
--osa
--osi
--oso
--ot
--ote
--otho
--otholo
--oto
--otsi
--ou
--ous
--ov
--ovedale
--ovich
--ow
--ox
--oy
--p
--pa
--pala
--pali
--papa
--papashwa
--pasi
--pasiswa
--pawu
--pe
--ped
--pedi
--pela
--peli
--pelwa
--pentecosti
--pes
--peyinti
--ph
--pha
--phalo
--phanda
--phandi
--phangela
--phatha
--phathi
--phathwa
--phazamisa
--phe
--phefumla
--pheka
--phekwa
--phela
--phele
--phelelwa
--phelisa
--phelo
--phi
--phicothwa
--phiko
--phindwa
--phiwo
--pho
--phonononga
--phononongwa
--phu
--phuculwa
--phuhliseni
--phuhliswa
--phula
--phulaphula
--phulaphuli
--phule
--phulwa
--phuma
--phume
--phumla
--phumo
--phupha
--phuth
--pi
--pilweni
--ping
--pitoli
--plato
--plication
--po
--politiki
--polotiko
--pondo
--poort
--ppo
--profeti
--ps
--pu
--py
--q
--qa
--qaku
--qalisa
--qalo
--qambi
--qaqamba
--qe
--qela
--qele
--qelelana
--qendu
--qeqesha
--qesha
--qhakancu
--qhama
--qhamo
--qhawe
--qhekeka
--qhekeza
--qhela
--qhele
--qhelo
--qhinga
--qho
--qhosha
--qhuba
--qhusheka
--qhutywa
--qhwa
--qi
--qikelela
--qikelelwa
--qina
--qinisa
--qinisekile
--qinisekisa
--qinisekiso
--qiqa
--qithi
--qo
--qokelela
--qokobhe
--qonda
--qonde
--qondo
--qondwa
--qoqosho
--qu
--que
--quka
--quko
--qule
--qulwa
--qumrhu
--ququ
--qwa
--qwe
--qweqwe
--qwini
--r
--ra
--rage
--ral
--rals
--rate
--rates
--rati
--rd
--re
--red
--rence
--rett
--rg
--rh
--rha
--rhabe
--rhafu
--rhamncwa
--rhili
--rhini
--rholo
--rhu
--ri
--ria
--rift
--rik
--rium
--riya
--rk
--rly
--rms
--rn
--rns
--ro
--room
--ros
--rov
--rp
--rs
--rsity
--rt
--rta
--rth
--rton
--rts
--ru
--rubin
--rus
--ry
--ryl
--s
--sa
--sai
--san
--sana
--sandi
--sandla
--sane
--sangqa
--saquphe
--sas
--sasazeka
--sasazwa
--sayo
--saze
--sazeke
--sazi
--sazwa
--sbaai
--sburg
--sch
--sco
--sdorp
--se
--sebe
--sebenzi
--sed
--seka
--sekanga
--seke
--sekela
--seki
--sekile
--seko
--sela
--sele
--seleyo
--seli
--selo
--selwa
--sen
--sengi
--seni
--senzi
--ser
--seroma
--sex
--sey
--sezantsi
--sh
--sha
--she
--shi
--shicilela
--shicileli
--shinari
--shini
--shire
--shishini
--shishino
--shiya
--shona
--shu
--shulwa
--shumi
--shunta
--shushu
--shwa
--shwe
--si
--sia
--sidima
--sidlo
--sie
--sier
--sifo
--sihlanu
--sihloko
--sik
--sikili
--siko
--sila
--silamsi
--sile
--silela
--silwa
--sindisa
--sindwa
--singa
--singatha
--siphelo
--sirayeli
--sis
--sise
--sitalatweni
--siva
--siwa
--siwe
--siweyo
--sixhenxe
--sk
--sm
--sms
--so
--som
--somashishini
--son
--spective
--spoort
--sri
--ss
--st
--sta
--stad
--stan
--ster
--stern
--stiki
--sto
--ston
--stown
--sts
--su
--suka
--sulela
--suleleka
--sulelwa
--sus
--susa
--suswa
--sutywa
--sville
--swa
--swahili
--swana
--swano
--swe
--swela
--sweleka
--sy
--t
--ta
--taceous
--tage
--taire
--talato
--talente
--tan
--tana
--tane
--tanga
--tas
--tb
--te
--ted
--tein
--tela
--tely
--teni
--ter
--ters
--tes
--th
--tha
--thafa
--thakatha
--thamba
--thamsanqa
--thathi
--thayo
--thaza
--the
--thebe
--theka
--thela
--thele
--thelekiswa
--thelela
--thelele
--thelwe
--thenjwa
--thethe
--thethi
--thethwa
--thezi
--thi
--thile
--thileyo
--thili
--thini
--thintelo
--thintelwa
--thiwa
--thiweyo
--thiywa
--tho
--thotho
--thotholo
--thu
--thuko
--thulwa
--thumela
--thunjana
--thunyelwa
--thunywa
--thunzi
--thutha
--thutho
--thwa
--thwayo
--thwe
--thweni
--thweswa
--ti
--tia
--tic
--tics
--tifikethi
--tiki
--tiko
--ting
--tion
--tis
--tishi
--tius
--tive
--tla
--tle
--to
--tofu
--tol
--ton
--tone
--topiya
--tor
--toro
--tors
--town
--tres
--tri
--trophs
--ts
--tsa
--tsha
--tshata
--tshate
--tshe
--tshetshi
--tshi
--tshicela
--tshintshe
--tshintshi
--tshintshwa
--tshiwo
--tshixo
--tsho
--tshwa
--tsi
--tsiba
--tso
--tswa
--tswana
--tt
--tta
--tte
--tti
--ttle
--tu
--tucky
--tudiyo
--tulo
--tus
--tv
--twa
--twana
--ty
--tya
--tyala
--tyalo
--tyambo
--tyana
--tyatyambo
--tye
--tyeba
--tyenziselwa
--tyenziswa
--tyenzwa
--tyhala
--tyholo
--tyi
--tyiwa
--tyiwe
--tyo
--tyolwa
--tyu
--tyunjwa
--tywa
--tywe
--tz
--tzer
--u
--ual
--ubi
--ubo
--ucuko
--ud
--ue
--uel
--uer
--ugh
--ught
--uhla
--uhle
--ui
--uk
--uka
--ukhulu
--uki
--uko
--ul
--ula
--ular
--ularity
--ule
--ulela
--ulele
--uleleko
--ulelwa
--uli
--ulo
--ulu
--uluke
--ulwa
--um
--ume
--ums
--umu
--un
--ung
--unga
--uni
--unu
--up
--ur
--ura
--ure
--ures
--us
--ushu
--ushushu
--usi
--ust
--usuthu
--uswa
--ut
--ute
--utes
--utho
--uti
--uto
--ux
--uzwa
--v
--va
--vakala
--val
--vala
--vale
--valela
--valelwe
--valo
--valwa
--vavanya
--vayirasi
--ve
--veki
--vela
--veld
--velisi
--veliswa
--ven
--venda
--venkile
--ver
--vi
--vian
--vidiyo
--vila
--vilakazi
--ville
--vimba
--vlamertinge
--vo
--vota
--voti
--vu
--vuka
--vukeli
--vula
--vulwa
--vuma
--vumelana
--vumelwano
--vunywa
--vutha
--vuthwa
--w
--wa
--waka
--wana
--wandle
--wane
--waneni
--wano
--way
--wd
--we
--wela
--wele
--weni
--wevu
--weyo
--whistle
--wi
--wich
--win
--wini
--wn
--wo
--wood
--work
--worth
--ws
--wu
--wudi
--wul
--wula
--wule
--wuleze
--wulo
--wulwa
--wulwe
--wuti
--wyn
--x
--xa
--xabiso
--xano
--xe
--xeko
--xele
--xesha
--xha
--xhaka
--xhaphaka
--xhaphaza
--xhasa
--xhasi
--xhaswa
--xhego
--xhela
--xhoba
--xhobisa
--xhobo
--xide
--xo
--xoka
--xoxa
--xus
--xutha
--xwa
--xwebhu
--y
--ya
--yaka
--yali
--yana
--yane
--yanga
--yathwa
--ye
--yeho
--yeka
--yeke
--yela
--yelelane
--yelo
--yelwa
--yeni
--yenziselwa
--yenziswe
--yheli
--yi
--yibhile
--yika
--yikiso
--yiko
--yilwa
--yina
--yinti
--yiphi
--yisa
--yiso
--yiswa
--yiwa
--yiya
--yl
--ylococcus
--yn
--yo
--yon
--yuda
--yula
--yulo
--yulu
--yure
--yw
--ywa
--ywe
--z
--za
--zakhiwo
--zala
--zali
--zalwa
--zalwana
--zalwane
--zana
--zandi
--zandisa
--zandla
--zantsi
--zasi
--zathu
--ze
--zeka
--zekayo
--zeke
--zeko
--zela
--zele
--zelela
--zelo
--zelwa
--zelwe
--zembe
--zeni
--zenzi
--zezuru
--zi
--zidolophini
--zikhethela
--ziko
--zila
--zile
--zim
--zima
--zimba
--zimela
--zinga
--zingca
--zinge
--zingela
--zini
--zinza
--zinze
--ziphatha
--ziqithi
--ziqonda
--zisa
--zise
--ziswa
--ziswano
--zitha
--ziwa
--ziwe
--ziyo
--zizwe
--zo
--zondla
--zonwabisa
--zu
--zula
--zulu
--zulwini
--zuzwana
--zw
--zwa
--zwana
--zwe
--zwi
--zz
