!
"
#
##0
##1
##10
##11
##12
##13
##14
##15
##16
##17
##18
##19
##2
##20
##21
##22
##23
##24
##25
##26
##27
##28
##29
##3
##30
##31
##32
##33
##34
##35
##36
##37
##38
##39
##4
##40
##41
##42
##43
##44
##45
##46
##47
##48
##49
##5
##50
##51
##52
##53
##54
##55
##56
##57
##58
##59
##6
##60
##61
##62
##63
##64
##65
##66
##67
##68
##69
##7
##70
##71
##72
##73
##74
##75
##76
##77
##78
##79
##8
##80
##81
##82
##83
##84
##85
##86
##87
##88
##89
##9
##90
##91
##92
##93
##94
##95
##96
##97
##98
##99
$
%
&
'
(
)
*
+
,
-
.
/
0
00
000
00000
000000
0005889
001
0019
002
003
004
005
007
008
009
01
010
012
016
02
025
03
037
04
0493
05
06
07
08
080
09
1
10
100
1000
10000
1001
1002
1006
1007
101
1010
1016
102
1020
1024
1028
1029
103
1034
1035
1037
1038
1039
104
1043
105
1050
1054
1057
1058
106
1064
1065
1066
107
1071
1072
108
1080
1086
109
1093
1095
1096
1098
11
110
1100
1109
111
1111
1112
112
1126
1128
113
1130
1139
114
1140
1143
1145
1146
1147
115
1157
116
117
1175
1179
118
1180
1185
1186
1187
1188
119
1191
1195
1199
12
120
1200
1204
121
1211
1212
1217
122
1220
1223
1228
123
1230
124
125
1250
1254
1255
1258
126
1260
1261
127
1271
1274
1279
128
1289
129
1290
1291
1295
1297
13
130
1300
1303
131
132
1320
1321
1323
1324
1325
1328
133
134
1344
1347
1348
135
1353
1356
1357
136
136472
1368
137
1370
1371
1372
1373
138
1383
1385
139
1390
1392
14
140
1400
1405
141
1410
1412
1415
1418
1419
142
1421
1424
1426
1427
143
1430
1431
1433
1434
1435
1438
1439
144
1440
1441
1442
1443
1446
145
1450
1452
1453
1456
146
1460
1462
1465
1466
1467
1469
147
1470
1471
1473
1474
1476
1478
1479
148
1480
1481
1482
1483
1485
1486
1487
1488
1489
149
1491
1492
1493
1494
1495
1496
1497
1498
1499
15
150
1500
1501
1502
1503
1504
1505
1506
1507
1508
1509
151
1510
1511
1512
1513
1514
1515
1516
1517
1518
1519
152
1520
1521
1522
1523
1524
1525
1526
1527
1528
1529
153
1530
1531
1532
1533
1534
1535
1536
1537
1538
1539
154
1540
1541
1542
1543
1544
1545
1547
1548
1549
155
1550
1551
1552
1553
1554
1555
1556
1557
1558
1559
156
1560
1563
1564
1565
1567
1568
1569
157
1570
1571
1572
1573
1574
1575
1576
1577
1578
1579
158
1580
1581
1583
1585
1586
1587
1588
159
1590
1592
1594
1595
1596
1597
1599
16
160
1600
1601
1602
16025
1603
1604
1605
1606
1607
1608
1609
161
1610
1611
1612
1613
1614
1615
1616
1617
1618
1619
162
1620
1621
1622
1623
1624
1625
1626
1627
1628
1629
163
1630
1632
1633
1634
1635
1636
1637
1638
1639
164
1640
1641
1642
1643
1644
1645
1646
1647
1648
1649
165
1650
1652
1654
1655
1656
1658
1659
166
1660
1661
1662
1663
1664
1665
1666
1667
1668
167
1670
1671
1672
1674
1676
1677
168
1680
1682
1683
1684
1685
1687
1688
1689
169
1690
1693
1694
1695
1697
1699
17
170
1700
1701
1703
1704
1707
1708
171
1711
1712
1713
1715
1718
172
1720
1723
1724
1726
1727
1729
173
1730
1732
1733
1735
1736
1737
1738
1739
174
1740
1741
1742
1743
1744
1745
1746
1747
1748
1749
175
1750
1751
1752
1753
1754
1755
1756
1757
1758
1759
176
1760
1761
1762
1763
1764
1765
1766
1767
1768
1769
177
1770
1771
1772
1773
1774
1775
1776
1777
1778
1779
178
1780
1781
1782
1783
1784
1785
1786
1787
1788
1789
179
1790
1791
1792
1793
1794
1795
1796
1797
1798
1799
18
180
1800
1801
1802
1803
1804
1805
1806
1807
1808
1809
181
1810
1811
1812
1813
1814
1815
1816
1817
1818
1819
182
1820
1821
1822
1823
1824
1825
1826
1827
1828
1829
183
1830
1831
1832
1833
1834
1835
1836
1837
1838
1839
184
1840
1841
1842
1843
1844
1845
1846
1847
1848
1849
185
1850
1851
1852
1853
1854
1855
1856
1857
1858
1859
186
1860
1861
1862
1863
1864
1865
1866
1867
1868
1869
187
1870
1871
1872
1873
1874
1875
1876
1877
1878
1879
188
1880
1881
1882
1883
1884
1885
1886
1887
1888
1889
189
1890
1891
1892
1893
1894
1895
1896
1897
1898
1899
19
190
1900
1901
1902
1903
1904
1905
1906
1907
1908
1909
191
1910
1911
1912
1913
1914
1915
1916
1917
1918
1919
192
1920
1921
1922
1923
1924
1925
1926
1927
1928
1929
193
1930
1931
1932
1933
1934
1935
1936
1937
1938
1939
194
1940
1941
1942
1943
1944
1945
1946
1947
1948
1949
195
1950
1951
1952
1953
1954
1955
1956
1957
1958
1959
196
1960
1961
1962
1963
1964
1965
1966
1967
1968
1969
197
1970
1971
1972
1973
1974
1975
1976
1977
1978
1979
198
1980
1981
1982
1983
1984
1985
1986
1987
1988
1989
199
1990
1991
1992
1993
1994
1995
1996
1997
1998
1999
2
20
200
2000
2001
2002
2003
2004
2005
2006
2007
2008
2009
201
2010
2011
2012
2013
2014
2015
2016
2017
2018
2019
202
2020
2021
2022
203
2030
204
205
206
207
208
209
21
210
2100
211
212
213
214
215
216
217
218
219
22
220
2200
221
222
223
224
225
226
227
228
229
23
230
2300
2307
231
232
233
234
235
236
237
238
239
24
240
2400
241
242
243
244
245
246
247
248
249
25
250
2500
251
252
2520
253
254
255
256
257
258
259
26
260
2600
261
262
263
264
265
266
267
268
269
27
270
2700
271
272
273
274
275
276
277
278
279
28
280
281
282
283
284
285
286
287
288
289
29
290
291
292
293
294
295
296
297
298
299
3
30
300
3000
301
302
303
304
305
306
307
308
309
31
310
311
312
313
314
315
316
317
318
32
320
3200
321
322
323
324
325
326
327
328
329
33
330
331
332
333
334
335
336
337
338
339
34
340
341
342
343
344
345
346
347
348
349
35
350
3500
351
352
353
354
355
356
357
358
359
36
360
361
363
364
365
366
367
368
369
37
370
371
372
373
374
375
376
377
378
379
38
380
381
382
383
384
385
386
387
388
389
39
390
391
392
393
394
395
396
397
398
399
4
40
400
4000
401
402
403
404
405
406
407
408
409
41
410
411
412
413
415
416
417
418
419
42
420
421
4217
422
423
424
425
426
427
428
429
43
430
431
432
433
434
435
436
437
438
439
44
440
441
442
443
444
445
446
447
448
45
450
451
452
453
454
455
456
457
458
459
46
460
462
463
464
465
466
467
468
469
47
470
471
472
473
474
475
476
477
478
479
48
480
483
484
486
487
488
489
49
490
491
492
493
496
497
498
499
5
50
500
5000
501
502
503
504
505
506
507
509
51
510
511
512
513
514
515
516
517
518
519
52
520
521
522
523
524
525
526
527
528
529
53
530
531
532
533
534
535
536
539
54
540
541
542
543
544
545
546
549
55
550
551
552
553
554
556
557
558
559
56
560
561
562
563
564
565
566
567
568
57
570
572
574
575
577
578
58
580
581
582
583
584
585
586
587
589
59
590
593
594
596
597
598
599
6
60
600
6000
601
603
604
605
607
609
61
610
611
612
613
618
6180
619
62
621
622
627
628
63
630
631
632
634
636
639
64
640
641
645
649
65
650
651
653
655
656
658
659
66
660
67
670
671
672
673
674
675
68
680
681
684
687
69
690
691
695
7
70
700
7000
702
705
71
710
711
712
713
7139
714
716
718
72
720
721
722
723
725
726
728
73
730
7309115994
732
734
736
74
740
741
742
745
747
748
75
750
753
754
756
757
758
76
760
761
764
765
767
768
77
770
771
774
775
776
777
779
78
780
781
782
783
784
785
788
79
790
791
792
793
794
795
796
799
8
80
800
8000
801
8018
802
8047
806
807
808
81
810
814
82
825
827
83
830
833
836
838
84
840
841
842
844
847
85
850
856
86
860
866
868
869
87
870
87021
874
88
880
881
883
888
889
89
890
891
892
9
90
900
907
908
91
910
912
913
914
92
920
922
924
925
93
930
933
936
94
940
945
95
950
951
956
96
960
962
963
964
966
967
968
969
97
970
972
97256
975
977
978
979
98
981
984
987
989
99
992
996
998
999
:
;
<
=
>
?
@
[
\
]
^
_
`
a
aa
aachen
aaran
aaro
aaron
ab
aba
abaci
abacus
abade
abades
abadie
abadies
abailable
abaixo
abalada
abalado
abalo
abalua
abaluac
abaluado
abaluados
abaluar
abanc
abandona
abandonada
abandonadas
abandonado
abandonados
abandonan
abandonando
abandonar
abandonasse
abandono
abandonou
abarca
abastada
abastece
abastecer
abastecimiento
abastecimientos
abate
abbas
abc
abd
abdel
abdica
abdicac
abdicar
abdicou
abdolah
abdu
abdullah
abe
abeiro
abel
abelha
abenc
abenida
abenidas
aberage
abermelhada
abermelhado
aberrac
aberro
aberson
abertura
abes
abesta
abi
abiac
abiador
abib
abibamiento
abicena
abidya
abierta
abiertamente
abiertas
abierto
abiertos
abiertura
abierturas
abintura
abinturanc
abinturas
abintureiro
abintureiros
abioge
abion
abiones
abis
abisar
abismo
abiso
abisos
abissi
abistou
abl
abn
abo
abogado
abolic
abolicionismo
abolicionista
abolicionistas
abolida
abolido
abolidos
abolir
aboliu
abominable
aborda
abordado
abordados
abordaige
abordaiges
abordar
abordou
abori
about
abpd
abr
abraa
abrabeses
abrac
abraham
abrahan
abrange
abrangendo
abrangente
abranger
abrangie
abrantes
abraon
abre
abrebiac
abrebiada
abrebiado
abrebiatura
abren
abreu
abri
abria
abriga
abrigaba
abrigan
abrigar
abrigo
abrigos
abrigou
abril
abrindo
abrir
abriran
abriu
abroad
abs
abseluta
abselutamente
abseluto
absinto
absoluta
absolutamente
absolutismo
absolutista
absolutistas
absoluto
absolutos
absorbe
absorber
absorbida
absorbido
absorbidos
absorc
abstenc
abstener
abstine
abstrac
abstrat
abstrata
abstratas
abstrato
abstratos
absurdo
abu
abulsos
abunda
abundan
abundante
abundantes
abuso
abusos
ac
aca
acaba
acababa
acabada
acabado
acabamiento
acaban
acabando
acabar
acabara
acabarian
acabarie
acabo
acabou
acac
acacie
acad
acade
academia
academic
academie
academies
academy
acalmar
acalypha
acampamiento
acampamientos
acapulco
acarreta
acarretou
acas
acasalamiento
acauso
ace
aceder
acedido
acediu
acegua
aceita
aceitable
aceitables
aceitac
aceitan
aceitando
aceitar
aceitas
aceite
aceites
aceito
aceitos
aceitou
acelera
acelerac
acelerada
acelerado
acelerando
acelerar
acelerou
acende
acentuada
acentuado
acentuou
acepc
acer
acerbo
acerca
aces
aceso
acess
acessado
acessadoen
acessar
acessdata
acessdate
acessed
acessible
acessibles
acesso
acessoano
acessodata
acessomesdie
acessos
acha
achaba
achada
achadas
achado
achados
achando
achar
achille
acho
achou
acidentada
acidentado
acidental
acidentalmente
acidente
acidentes
aciento
acincho
acion
aciones
acionistas
aclamac
aclamada
aclamado
acm
aco
acolhido
acolhimiento
acomodac
acomodar
acoplado
acoplamiento
acordada
acordado
acordeon
acordes
acordo
acordos
acos
acostumado
acostumados
acount
acradi
acradita
acraditaba
acraditado
acraditan
acraditando
acraditar
acradite
acradito
acraditou
acre
acrec
acrecenta
acrecentado
acrecentando
acrecentar
acrecientou
acrescentar
acri
acro
across
act
actes
action
actual
actualmente
acu
acuidade
acumpanha
acumpanhada
acumpanhadas
acumpanhado
acumpanhados
acumpanhamiento
acumpanhan
acumpanhando
acumpanhar
acumpanho
acumpanhou
acumparar
acumula
acumulac
acumulada
acumuladas
acumulado
acumulador
acumular
acumulou
acun
acunselhado
acunselhou
acunte
acuntec
acuntece
acuntecen
acuntecendo
acuntecer
acuntecerie
acunteci
acuntecian
acuntecido
acuntecie
acuntecimentos
acuntecimiento
acuntecimientos
acunteciu
acunten
acuntendo
acuntener
acunter
acuntera
acunti
acuntiu
acuolhe
acuolher
acuordo
acuordos
acuordou
acupa
acupaba
acupac
acupada
acupadas
acupado
acupados
acupan
acupando
acupantes
acupar
acupasse
acupo
acupou
acus
acusa
acusac
acusada
acusado
acusados
acusan
acusando
acusar
acusatibo
acusou
ad
ada
adalberto
adam
adamastor
adamente
adami
adams
adan
adas
adata
adatac
adatada
adatadas
adatado
adatados
adatando
adatar
adatatiba
adato
adatou
adbaita
adbanced
adbe
adbentista
adbentistas
adbento
adbenture
adbersa
adbersaira
adbersairo
adbersairos
adberte
adbertir
adbocacie
adbogado
adbogados
adda
addison
ade
adebinac
adega
adelaide
adelantre
ademales
aden
adentrando
adentro
adepuis
adequac
adequada
adequadamente
adequadas
adequado
adequados
adere
aderentes
aderir
aderiran
aderiu
ades
adeson
adespuis
adeto
adetos
adi
adiantado
adic
adichie
adiciona
adicionadas
adicionado
adicionados
adicional
adicionales
adicionando
adicionar
adicionou
adin
aditibos
adius
adjacente
adjacentes
adjetibo
adjetibos
adjunto
adler
admenistra
admenistrac
admenistrada
admenistradas
admenistrado
admenistrador
admenistradores
admenistrar
admenistratiba
admenistratibamente
admenistratibas
admenistratibo
admenistratibos
admenistration
administrac
administration
administrativa
admira
admiraba
admirable
admirac
admirada
admirado
admirador
admiradores
admirar
admisson
admite
admiten
admitian
admitido
admitidos
admitindo
admitir
admitiu
adn
ado
adoc
adoeciu
adolece
adolesce
adolescente
adolescentes
adolf
adolfo
adolphe
adon
adonde
adonias
adonis
adopcionismo
adopcionista
ador
adora
adoraba
adorac
adorado
adorar
adores
adorno
ados
adota
adotada
adotadas
adotado
adotados
adotan
adotando
adotar
adoto
adotou
adquire
adquirida
adquiridas
adquirido
adquiridos
adquirindo
adquirir
adquiriran
adquiriu
adrasteia
adria
adrian
adriana
adriano
adrienne
aduaneira
aduaneiras
adulta
adultas
adulte
adulto
adultos
ae
aero
aerodina
aeroespacial
aerona
aeronabe
aeronabes
aeroporto
aeroportos
aewaa
af
afa
afak
afamado
afasta
afastada
afastadas
afastado
afastados
afastamiento
afastando
afastar
afasto
afastou
afatibamente
afazeres
afe
afeganistan
afegon
afeic
afeliac
afeliada
afeliadas
afeta
afetaba
afetabamente
afetabo
afetada
afetadas
afetado
afetados
afetan
afetando
afetar
afetiba
afetibo
afetibos
afeto
afetou
afetuoso
affairs
afghanistan
afi
afin
afinac
afinal
afines
afirma
afirmaba
afirmac
afirmado
afirman
afirmando
afirmar
afirmatiba
afirmen
afirmo
afirmou
aflue
afluente
afluentes
afluxo
afogamiento
afogamientos
afonsinas
afonso
afora
aforismos
afp
afra
afrescos
africa
africaine
african
africana
africanas
africano
africanos
afrika
afrique
afro
afrodite
after
afundado
afundamiento
afundou
ag
agabon
agadon
again
against
agapornis
agastya
agaties
age
agen
agency
agenda
agente
agentes
ages
agindo
agir
agitac
agitada
agiu
aglomerac
aglomerado
aglomerados
agno
agnosticismo
ago
agora
agostico
agostinho
agostino
agosto
agra
agrabada
agrabar
agrabou
agraciado
agradable
agradar
agradecer
agradecimiento
agrega
agregac
agregada
agregado
agregados
agremiac
agressiba
agressibo
agressibos
agresson
agressones
agri
agricola
agricultor
agricultores
agricultura
agriste
agro
agronego
agronomie
agropecua
agrostis
agrupa
agrupadas
agrupados
agrupamiento
agrupamientos
agrupan
agrupar
agua
aguada
aguantar
aguardando
aguc
aguda
agudo
aguiar
aguieira
aguilera
aguinis
aguirre
agulha
agulhas
agusti
ah
ahimsa
ahmad
ahmadou
ahmed
ahura
ai
aiatola
aimara
ain
ainda
air
aira
airac
airas
aire
aires
airlines
airo
airos
airport
ais
aise
ait
aix
aizen
aj
ajacio
aju
ajuda
ajudaba
ajudado
ajudan
ajudando
ajudante
ajudar
ajudas
ajudo
ajudou
ajunta
ajuntada
ajuntado
ajuntando
ajuntar
ajustar
ajustes
ak
akbar
akhenaton
akiko
akka
akutagawa
al
ala
alabama
alabanca
alagoas
alain
alamanos
alan
alano
alanos
alanteijo
alapuro
alargada
alargado
alargamiento
alargou
alarico
alas
alasca
alassane
alba
albane
albanesa
albaneses
albara
albedo
albeldense
albenarie
alberga
albergar
albergarie
albert
alberta
alberto
albes
albin
albino
albito
albo
albon
albor
alborada
albos
albrote
albrotes
albufeira
albufeiras
albums
albun
albuquerque
alc
alca
alcadute
alcadutes
alcaide
alcala
alcanc
alcance
alcarie
alceu
alchemilla
alcibi
alcifron
alco
alcobac
alcolismo
alcoo
alcor
alcoran
alcoron
alcossebre
alcunha
alde
aldeia
aldinuoba
aldo
ale
aleato
alebiar
alega
alegac
alegadamente
alegado
alegan
alegando
alego
alegoria
alegorias
alegou
alegre
alegres
alegrete
alegrie
aleijadinho
aleisis
aleixo
aleksandr
alelo
alelos
alema
alemanas
alemanha
alembert
alen
alencar
alenquer
alerie
alerta
alertou
ales
alessandro
alex
alexander
alexandra
alexandre
alexandria
alexandrie
alf
alfa
alfabe
alfabetizac
alfabeto
alfaguara
alfaiates
alfandega
alferrarede
alfonso
alfred
alfredo
algarbe
algarbes
algarismo
algarismos
alge
algebra
algo
algodon
algodres
algol
algori
algorithms
algoritmo
algoritmos
algoso
algua
alguas
algues
alguien
algumas
algun
alguns
alha
alheias
alhena
alheno
alhenos
alho
ali
alia
aliada
aliadas
aliado
aliados
alianc
aliando
aliar
alic
alicante
alice
alicerc
alien
alienac
alieni
alifante
alighieri
align
alii
alijo
alimenta
alimentaba
alimentac
alimentadas
alimentado
alimentados
alimentan
alimentar
alimentares
alimenti
alimento
alimentos
alimiento
alimientos
alinhado
alinhados
alinhamiento
alinhar
alio
aliou
alistamiento
alistar
alistou
aliyah
aljamiada
aljubarrota
all
alla
allah
allan
alle
alleine
allen
allgemeine
alliance
allmusic
alma
almada
alman
almana
almanaque
almanc
almanes
almanha
almas
almeida
almendra
almendras
almente
almirantado
almirante
almora
almost
almuorc
alo
alocac
aloha
alojados
alojamiento
alone
alongada
alongado
alongados
alonso
alpes
alpestre
alpha
alqui
alquimia
alquimista
alrabac
alredor
alredores
alredror
alrobe
als
alsa
also
alt
alta
altair
altamente
altan
altar
altara
altarac
altarada
altarado
altarados
altarando
altarar
altares
altarna
altarnatiba
altarnatibas
altarnatibo
altarou
altas
alte
altemoble
altemobles
alterac
alterada
alterado
alterar
alterna
alternatiba
alternatibas
alternatibo
alternatibos
alterou
alteza
alti
altiplano
altitude
altitudes
alto
altos
altrui
altura
alturas
alubiales
alucinac
alude
aluizio
alumi
aluna
alunas
aluno
alunos
aluson
alusones
alves
alvim
alxandre
alxofre
am
ama
amaba
amable
amada
amade
amadeu
amadeus
amado
amador
amadora
amadoras
amadores
amados
amadurecimiento
amalteia
amanac
amanhecer
amante
amantes
amar
amara
amaral
amarante
amares
amarga
amargo
amarican
amaricana
amaricanas
amaricano
amaricanos
amarielha
amarielho
amarielhos
amaro
amarrados
amazo
amazon
amazonas
amba
ambade
ambaden
ambadi
ambadida
ambadido
ambadidos
ambadindo
ambadir
ambadiran
ambadiu
ambaixada
ambaixadas
ambaixador
ambaixadores
ambaixo
ambalaiges
ambarac
ambarcac
ambarcados
ambarcou
ambare
ambargo
ambarque
ambas
ambason
ambasones
ambasor
ambasores
ambassy
ambate
ambates
ambe
ambeija
ambelhecimiento
ambelumes
ambenc
ambenci
ambenenado
ambenenamiento
ambenta
ambentada
ambentado
ambentados
ambentar
ambento
ambentor
ambentores
ambentou
ambergadura
ambersa
ambersamente
amberso
amberson
ambertido
ambertir
ambesible
ambestida
ambestidas
ambestido
ambestidores
ambestidura
ambestiga
ambestigac
ambestigador
ambestigadores
ambestigar
ambestigou
ambestimentos
ambestimiento
ambestimientos
ambestir
ambestiu
ambi
ambia
ambiada
ambiadas
ambiado
ambiados
ambiando
ambiar
ambic
ambiciosa
ambicioso
ambido
ambiental
ambientales
ambiente
ambientes
ambierno
ambiernos
ambiguidade
ambio
ambiou
ambique
ambironment
ambites
ambito
amblema
amblemas
ambo
amboca
ambocac
ambocadura
ambocar
ambolbe
ambolben
ambolbendo
ambolbente
ambolber
ambolbi
ambolbia
ambolbida
ambolbidas
ambolbido
ambolbidos
ambolbimiento
ambolbiu
ambolta
ambolto
ambora
amboras
ambos
amboscada
ambriologie
ambrion
ambriona
ambriones
ambro
ambulgar
ambuolbe
ambuolben
ame
ameac
amenac
ameno
amenos
amento
amer
ameri
america
american
americana
americano
americanos
americas
ameroso
ametista
amg
ami
amiento
amientos
amiga
amigable
amigables
amigas
amigo
amigos
amin
aminoa
amir
amisade
amo
amon
among
amor
amora
amores
amoritas
amorosa
amorosas
amoroso
amorosos
amos
amostra
amostrado
amostrador
amostrar
amostrarie
amostras
amostro
amostrou
amour
amparcial
amparo
ampasse
ampat
ampatar
ampate
ampatie
ampato
ampatos
ampe
ampec
ampede
ampeden
ampedido
ampedidos
ampedie
ampedimiento
ampedindo
ampedir
ampediran
ampediu
ampenhamiento
ampenho
ampenhou
amperador
amperadores
amperatiba
amperatibas
amperatibo
amperatibos
amperator
amperatric
amperial
amperiales
amperialismo
amperialista
amperialistas
ampi
ampire
ampirismo
ampla
amplamente
amplanta
amplantac
amplantada
amplantadas
amplantado
amplantar
amplantou
amplas
amplementa
amplementac
amplementada
amplementado
amplementar
amplementation
amplementou
ampli
amplia
ampliac
ampliada
ampliado
ampliando
ampliar
amplica
amplicaba
amplicac
amplicando
amplicarie
amplicitamente
amplicou
amplio
ampliou
amplitude
amplo
amplos
ampo
ampondo
ampone
amponente
amponentes
amponer
ampor
amporta
amportac
amportado
amportador
amportados
amportanc
amportando
amportante
amportantes
amportar
amposic
ampossado
ampossible
ampossibles
ampossiblidade
amposta
ampostas
amposto
ampostos
ampre
amprega
ampregaba
ampregada
ampregadas
ampregado
ampregador
ampregadores
ampregados
ampregan
ampregando
ampregar
amprego
ampregos
ampregou
ampregue
ampregues
ampreitada
amprender
amprendida
amprendimiento
amprendiu
amprensa
ampresa
ampresairo
ampresarial
ampresariales
ampresas
amprescindible
ampressa
ampressas
ampressionado
ampressionante
ampressionantes
ampressionismo
ampressionista
ampressionistas
ampressionou
ampresso
ampresson
ampressones
ampressora
ampressoras
ampressos
amprestado
amprestados
amprimir
ampro
amprobable
ampulsionado
ampulsionador
ampulsionar
ampulsionou
ampulso
ampulsos
ampunha
ampuosta
ampuosto
ampuostos
ampureza
ampurezas
ampurrados
ampurrar
ampusi
ampuso
amputac
amr
amrigs
ams
amsterdan
amsterdon
amundsen
an
ana
anabatistas
anadie
anais
anakru
anal
anales
analetos
analfabetismo
analfabetos
anali
analisa
analisadas
analisado
analisador
analisadores
analisados
analisando
analisar
analisou
analistas
analo
analogamente
analogie
analysis
anarco
anarquia
anarquismo
anarquista
anarquistas
anas
anasta
anastacie
anato
anatomie
anatomy
anaxa
anc
anca
ancabec
ancansable
ancantado
ancantadores
ancanto
ancapac
ancapacidade
ancapazes
ancarada
ancarado
ancarambiando
ancarar
ancargo
ancarna
ancarnac
ancarnada
ancarnado
ancarrega
ancarregada
ancarregadas
ancarregado
ancarregados
ancarregou
ancarregues
ancarta
ancas
ance
ancenac
ancenada
ancendiadas
ancendio
ancenou
ancenso
ancentiba
ancentibado
ancentibados
ancentibando
ancentibar
ancentibo
ancentibos
ancentibou
ancerra
ancerrada
ancerrado
ancerramiento
ancerran
ancerrando
ancerrar
ancerrou
ancerteza
ancesto
ancestral
ancestrales
ancestralidade
ancha
anchas
anche
anchente
anchentes
ancheon
anchidos
anchieta
anchir
ancho
anchos
anchura
anci
anciclope
anciclopedie
ancide
ancidente
ancidentes
ancien
ancient
ancierta
ancierto
anciertos
anciones
ancipiente
ancitando
anclabe
anclinac
anclinada
anclinado
anclinados
ancluen
anclui
ancluindo
ancluir
ancluiu
anclusibamente
anclusibe
ancluso
ancluson
anco
ancoere
ancomenda
ancomendada
ancomun
ancomuns
anconbeniente
ancondicional
anconfide
ancontra
ancontraba
ancontrada
ancontradas
ancontrado
ancontrados
ancontramos
ancontran
ancontrando
ancontrar
ancontrarie
ancontrasse
ancontre
ancontro
ancontros
ancontrou
ancorajado
ancorajar
ancorajou
ancorpora
ancorporac
ancorporada
ancorporadas
ancorporado
ancorporados
ancorporan
ancorporando
ancorporar
ancorporo
ancorporou
ancorreta
ancorretamente
ancorreto
ancremiento
ancrible
ancruzilhada
ancumbe
ancumbido
ancumpatible
ancumpatibles
ancumpleta
ancumpleto
ancumpletos
ancumpletude
ancunciente
ancunfide
ancuntra
ancuntraba
ancuntrada
ancuntradas
ancuntrado
ancuntrados
ancuntramos
ancuntrar
ancuntrou
ancuontro
ancuontros
ancuontrou
ancurson
ancursones
ancyclopaedie
ancyclopedie
ancyclopædie
and
anda
andaba
andaluc
andalus
andaluzia
andamiento
andan
andar
andaras
andares
ande
andeabour
andebi
andebida
andebidual
andebiduales
andebidualidade
andebidualmente
andeble
andebol
andenizac
andepende
andependence
andependent
andependentista
andependentistas
andependiente
andependientemente
andependientes
anderec
anders
andersen
anderson
andes
andex
andexada
andi
andia
andian
andiana
andianas
andiano
andianos
andias
andibi
andibidual
andibiduales
andibidualismo
andica
andicaba
andicac
andicada
andicado
andicador
andicadores
andicados
andican
andicando
andicar
andicatibo
andico
andicou
andignac
andino
andireta
andiretamente
andiretas
andireto
andiretos
andispensable
andispensables
ando
andochina
andone
andonesie
andorra
andorrana
andrada
andradas
andrade
andre
andrea
andreas
andrei
andrela
andrento
andrew
andro
andu
anduc
andulge
andustria
andustrial
andustriales
andustrializac
andustrializadas
andustrializado
andustrializados
andustrias
anduzido
anduzir
andy
ane
anedotas
aneira
aneixa
aneixac
aneixada
aneixado
aneixados
aneixando
aneixar
aneixo
aneixos
aneixou
anes
anfa
anfainc
anfant
anfanta
anfantarie
anfante
anfantil
anfantis
anfanto
anfatiza
anfatizaba
anfatizan
anfatizar
anfatizo
anfatizou
anfec
anfeciosa
anfeciosas
anfelic
anfelicidade
anfelizmente
anfenidade
anfenita
anfenitamente
anfenitas
anfenito
anfenitos
anfere
anferior
anferiores
anferir
anfermaige
anfermeiros
anfermidade
anfermidades
anfermos
anferno
anfetados
anfi
anfie
anfierno
anfin
anfitriato
anfitrion
anflac
anflamato
anflexible
anflue
anfluenc
anfluences
anfluencia
anfluenciada
anfluenciadas
anfluenciado
anfluenciados
anfluencian
anfluenciando
anfluenciar
anfluencio
anfluenciou
anfluente
anfluentes
anflui
anfluxo
anfo
anfobox
anfope
anfoque
anforcado
anforcamiento
anforma
anformac
anformado
anformados
anformal
anformales
anformalmente
anforman
anformando
anformar
anformation
anformou
anfra
anfrabermelha
anfrabermelho
anfraero
anfraestrutura
anfraestruturas
anfraquecendo
anfraquecer
anfraquecida
anfraquecimiento
anfraqueciu
anfrenta
anfrentaba
anfrentadas
anfrentado
anfrentados
anfrentamiento
anfrentan
anfrentando
anfrentar
anfrento
anfrentou
anfuson
ang
angajamiento
anganhar
anganho
ange
angeinho
angeinhos
angel
angela
angeles
angelin
angelo
angels
angenharie
angenharies
angenheiro
angenheiros
angenhoso
angeston
anginering
angio
angland
anglaterra
angle
anglesa
anglesas
angleses
anglewod
anglicana
anglicanismo
anglicanos
anglish
anglo
angloba
anglobando
anglos
angola
angolana
angolano
angra
angrediente
angredientes
angrenaiges
angressa
angressar
angresso
angressou
angu
angueira
angular
anha
anhanguera
anhas
anho
anhos
anhui
ani
anibersa
anibersairo
anielho
anielhos
anima
animac
animada
animado
animados
animal
animales
animalia
animals
animanga
animar
animation
animator
anime
animismo
animosidade
anistia
anita
anjec
anjo
anjos
anjustic
anmp
ann
anna
annales
annals
annapolis
anne
annenberg
annie
anno
annos
annotated
annual
ano
anonimato
anormal
anormales
anormalidade
anos
anotac
another
anquanto
anque
anquesic
anquietac
anquiric
anquisic
anraizada
anraizado
anredo
anredos
anrico
anrique
anriquec
anriquecer
anriquecida
anriquecimiento
ans
ansai
ansaio
ansaios
ansastifac
ansastifeito
anscrebe
anscrebiu
anscric
anscritas
anscrito
anscritos
anseada
anseguranc
anseio
anseparable
anseparables
anserc
ansere
anserida
anseridas
anserido
anseridos
anserir
anseriu
ansetos
ansi
ansiadade
ansianes
ansina
ansinaba
ansinada
ansinado
ansinados
ansinamento
ansinamentos
ansinamiento
ansinamientos
ansinan
ansinando
ansinar
ansino
ansinos
ansinou
ansiste
ansistia
ansistiu
anso
anspec
anspecionar
anspetor
anspira
anspiraba
anspirac
anspirada
anspiradas
anspirado
anspirados
anspiran
anspiro
anspirou
ansta
anstabelidade
anstable
anstablidade
anstala
anstalac
anstalada
anstaladas
anstalado
anstalados
anstalan
anstalando
anstalar
anstalara
anstalo
anstalou
anstanta
anstantaneamente
anstante
anstaurac
anstaurou
anstinto
anstintos
anstitucional
anstitucionales
anstitui
anstituic
anstituindo
anstituir
anstituiu
anstitut
anstitute
anstitutiones
anstituto
anstitutos
anstruc
anstrui
anstrumentac
anstrumental
anstrumentales
anstrumentista
ansuficie
ansuficiente
ansuficientes
ansular
ansulares
ansurge
ansurgentes
ansurreic
answers
ant
anta
antanto
antarah
antartic
antartica
antas
antato
ante
antecede
antecedente
antecedentes
antecessor
antecessores
antecipar
antegra
antegraba
antegrac
antegrada
antegradas
antegrado
antegrados
antegral
antegrales
antegralmente
antegran
antegrando
antegrante
antegrantes
antegrar
antegridade
antegrou
anteira
anteiramente
anteiras
anteiro
anteiros
antel
anteleto
anteletual
anteletuales
anteletualmente
antelige
anteligente
anteligentes
anteligible
antelligence
antelsat
antemidade
antena
antenas
antenc
antencionalmente
antende
antendemos
antenden
antendendo
antendente
antender
antendi
antendia
antendian
antendida
antendidas
antendido
antendidos
antendimento
antendimiento
antendiu
antener
antensa
antensamente
antensas
antensiba
antensibo
antensidade
antensifica
antensificac
antensificou
antenso
antensos
antepassado
antepassados
anter
anterac
anterage
anteragir
anteraige
anteramericano
anteratiba
anterbalo
anterbalos
anterbe
anterbeio
anterbenc
anterbentores
anterbiew
anterbir
anterca
antercesson
anterconetados
antercontinental
anterface
anterfaces
anterfere
anterferir
anterfire
anterino
anterior
anteriores
anteriormente
anterlhe
anterligac
anterligadas
anterligados
anterme
antermedia
antermediairo
antermitentes
anterna
anternacional
anternacionales
anternacionalismo
anternacionalista
anternacionalmente
anternamente
anternas
anternational
anterneta
anternete
anterno
anternos
antero
anterpessoal
anterpessoales
anterplaneta
anterplanetairo
anterpreta
anterpretac
anterpretada
anterpretadas
anterpretado
anterpretador
anterpretados
anterpretan
anterpretando
anterpretar
anterpretatiba
anterpretou
anterrado
anterrados
anterrar
anterregno
anterro
anterromper
anterrompeu
anterrompida
anterrompido
anterrupc
antersec
antertropical
anterwiki
antes
antestinal
antestino
anthology
anthony
anthropology
anti
antiae
antibio
anticarro
anticiclone
anticlerical
anticoncepcionales
anticristo
antidade
antidades
antierro
antifada
antiga
antigamente
antigas
antiglobalizac
antigo
antigos
antiguidade
antiguidades
antilhas
antima
antimamente
antio
antioquia
antipapa
antipatie
antipessoal
antiqua
antiquity
antitula
antitulada
antitulado
anto
antoce
antoine
antolera
antologi
antologia
antologie
antologies
anton
antonho
antonia
antonieta
antonina
antonino
antonio
antoxicac
antra
antrada
antradas
antrar
antre
antrebista
antrebistados
antrebistas
antrega
antregar
antregou
antregue
antregues
antrelac
antreposto
antrepostos
antressa
antressaba
antressada
antressadas
antressado
antressados
antressan
antressante
antressantes
antressar
antresse
antresses
antressou
antrestelar
antretanto
antretenimento
antretenimiento
antri
antriga
antrigante
antrigas
antrinsecamente
antrisse
antrisses
antro
antroduc
antrodution
antroduto
antroduzida
antroduzidas
antroduzido
antroduzidos
antroduzindo
antroduzir
antroduziran
antroduziu
antroncamiento
antropia
antropo
antropolo
antropologie
antropomo
antrospec
antrou
antruido
antruidos
antue
antuic
antuitibo
antuito
antunes
antusiasmo
anu
anua
anual
anuales
anualmente
anulac
anuncia
anunciaba
anunciada
anunciado
anunciados
anunciando
anunciar
anuncio
anunciou
anwar
anxerga
any
anzac
ao
aonde
aos
aozora
ap
apa
apagado
apagar
apagou
apaixonado
apaixonou
aparato
apare
aparec
aparece
aparecen
aparecenc
aparecendo
aparecer
apareci
aparecian
aparecida
aparecidas
aparecido
aparecidos
aparecie
aparecimento
aparecimiento
apareciu
apareilho
apareilhos
aparenta
aparente
aparentemente
aparentes
aparic
aparta
apartada
apartadas
apartado
apartados
apartamiento
apartamientos
apartar
apartheid
apateado
apateiro
apatos
ape
apela
apelac
apelhido
apelidado
apelido
apelidos
apelo
apelor
apelos
apelou
apenas
aperfeic
aperfundada
aperfundado
aperfundamiento
aperfundar
aperfundou
aperse
apersenta
apersentaba
apersentac
apersentada
apersentadas
apersentado
apersentador
apersentadora
apersentadores
apersentados
apersentan
apersentando
apersentar
apersente
apersenten
apersento
apersentou
apesar
apetite
aphia
aplica
aplicaba
aplicable
aplicac
aplicada
aplicadas
aplicado
aplicados
aplican
aplicando
aplicar
aplicou
apo
apocalipse
apoderar
apodero
apoderou
apogeu
apoia
apoiaba
apoiada
apoiadas
apoiado
apoiados
apoian
apoiando
apoiantes
apoiar
apoio
apoios
apoiou
apolina
apollo
apollonius
apolo
apolodoro
apologe
apologie
aporfilhac
aporfilhada
aporfilhadas
aporfilhado
aporfilhar
aposentadoria
aposentos
aposta
apostar
apostles
aposto
apple
applebaun
application
approach
approaches
apre
aprec
apreciaba
apreciac
apreciada
apreciadas
apreciado
apreciados
apreciar
aprender
aprenson
apresentac
april
aprisionado
aprisionamiento
aproba
aprobac
aprobada
aprobadas
aprobado
aprobados
aprobar
aprobeita
aprobeitada
aprobeitado
aprobeitamiento
aprobeitando
aprobeitar
aprobeito
aprobeitou
aprobo
aprobou
apropiac
apropiada
apropiadas
apropiado
apropiados
aprossima
aprossimaba
aprossimac
aprossimada
aprossimadamente
aprossimado
aprossiman
aprossimando
aprossimar
aprossimou
apu
apud
apuis
apunta
apuntaba
apuntada
apuntadas
apuntado
apuntados
apuntamientos
apuntan
apuntando
apuntar
apuntou
apurado
aqdas
aqua
aquando
aqueilha
aqueilhas
aqueilhes
aqueilho
aquel
aqueme
aquena
aquesic
aqui
aquiles
aquino
aquisic
aquita
ar
ara
arab
arabi
arabidopsis
arac
arado
arafat
araga
arago
aragon
aragone
aragonesa
aragoneses
aral
aramaico
aran
aranhon
arantes
arara
araraquara
ararica
aratiba
arau
araucani
arb
arbaud
arbernos
arbi
arbitra
arbitrariamente
arble
arbles
arborizada
arbustos
arc
arca
arcabouc
arcada
arcaica
arcaico
arcaicos
arcanjo
arcebispo
arcebispos
archaeology
archaic
archibe
archibedate
archibes
archibeurl
archibo
architeture
archive
arco
arcos
arcy
arda
ardanc
arde
ardiente
are
area
areilhos
arena
arenas
arendt
arenito
arestas
arezzo
arga
arganil
arge
argel
argentina
argentino
argentinos
argila
argonautas
argonautica
argos
argozelo
argue
arguer
argueu
argui
arguida
arguidas
arguido
arguidos
arguin
argumenta
argumentac
argumentado
argumentan
argumentando
argumento
argumentou
argumiento
argumientos
ari
arian
ariana
arianismo
ariano
arianos
arias
arie
ariel
aries
arif
arimana
aristarco
aristides
aristo
aristocra
aristocracia
aristocracie
aristocrata
aristocratas
aristote
arithmetic
arithmetica
aritme
arizona
arkansas
arles
arlington
arma
armac
armada
armadas
armadilha
armado
armados
armadura
armaduras
armairo
armamar
armamentista
armamiento
armamientos
armana
armanas
armandade
armando
armano
armanos
armar
armas
armaze
armazena
armazenada
armazenadas
armazenado
armazenados
armazenamiento
armazenan
armazenar
arme
armilar
armindo
armisti
arms
armstrong
army
arnaldo
arno
arnold
aroma
aron
arouca
around
arp
arpanet
arque
arqueiro
arqueiros
arqueo
arqueolo
arqueologie
arqui
arquibada
arquibado
arquibo
arquibodata
arquibos
arquibourl
arquidiocese
arquiduque
arquimedes
arquipe
arquiteto
arquitetos
arquitetura
arquiteturas
arquivo
arquivos
arra
arraial
arranjado
arranjo
arranjos
arrasada
arrastro
arrastrou
array
arrecadac
arrecadados
arrecadou
arredondada
arrefecimiento
arremesso
arrendata
arrependimiento
arriba
arribas
arrigo
arrimado
arrinca
arroc
arroio
arroios
arrow
arruda
arruinada
arruinado
ars
arse
arsenal
arsenales
arsenio
art
arte
artefato
artefatos
arteficial
arteficiales
artemidoro
artes
artesanal
artesanales
artesanato
arteson
artesones
arthur
arti
article
articleid
articles
articulac
articular
artifi
artificial
artificiales
artificialmente
artigo
artigos
artilharie
artilheiros
artillery
artist
artista
artistas
artisticamente
artists
arts
artur
arunachala
arya
arzila
as
asa
asahi
asas
asce
ascende
ascendente
ascendentes
ascender
ascendia
ascendiu
ascenson
ascese
asceta
ascetismo
asch
ascii
asean
ases
asfaltada
asfalto
ashton
asia
asian
asiatic
asilo
asimob
asimov
ask
asked
asma
asociacio
asoka
asp
aspectos
asperar
aspeto
aspetos
aspira
aspirac
aspirar
aspx
assado
assalariado
assalariados
assalto
assaltos
assassi
assassina
assassinada
assassinado
assassinados
assassinar
assassinato
assassinatos
assassino
assassinos
asse
assegura
asseguraba
assegurada
assegurado
asseguran
assegurando
assegurar
assegurou
assemble
assembleia
assembler
assembly
assemelha
assemelhan
assen
assenta
assentaba
assentada
assentado
assentamiento
assentamientos
assente
assentes
assento
assentos
assentou
assesi
assessment
assessor
assessoria
assi
assime
assimetrie
assimilac
assimilado
assina
assinada
assinado
assinados
assinala
assinalado
assinalar
assinando
assinar
assinatura
assinaturas
assino
assinou
assirio
assis
assiste
assisten
assistente
assistentes
assistido
assistir
assistiu
associa
associac
associada
associadas
associado
associados
associan
associar
associated
association
associou
assolaba
assolou
assoreamiento
assume
assumen
assumian
assumida
assumido
assumindo
assumir
assumiran
assumisse
assumiu
assunc
assunto
assuntos
assuon
aste
asteca
astecas
aster
asterix
astero
asteroide
asteroides
astorga
astro
astrofi
astrologie
astrona
astronauta
astronautas
astrono
astronomical
astronomie
astronomy
astrophysical
astrophysics
astros
astu
astur
astures
asturiana
asturianas
asturianes
asturiano
asturianos
asturias
asturies
asturo
at
ata
ataca
atacaba
atacada
atacado
atacados
atacama
atacan
atacando
atacar
ataco
atacou
atai
atalaia
atana
atanor
ataque
ataques
atas
atau
atb
ate
atebidade
atebidades
atebismo
atebista
atebistas
atei
atena
atenas
atenc
atende
atenden
atendendo
atender
atendido
atendimiento
ateneu
ateniense
atenienses
atentado
atentados
atento
atenuar
aterraige
atesta
atestan
ateus
atheisn
athena
athenes
ati
atiba
atibamente
atibas
atibidade
atibidades
atibistas
atibo
atibos
atidon
atinge
atingi
atingida
atingidas
atingido
atingidos
atingie
atingindo
atingir
atingira
atingiran
atingisse
atingiu
ation
atira
atiradeira
atirar
atitude
atitudes
atiu
atl
atla
atlanta
atlantic
atlantis
atlas
atle
atleta
atletas
atletismo
atman
atmosfe
atmosfera
atmosferas
atmosphere
atmospheric
ato
aton
ator
atores
atormentado
atos
atp
atra
atrabec
atrabessa
atrabessaba
atrabessada
atrabessado
atrabessados
atrabessan
atrabessando
atrabessar
atrabesso
atrabessou
atrac
atraen
atraente
atrai
atraindo
atrair
atraiu
atrasado
atrasados
atraso
atrasos
atratibo
atratibos
atrebui
atribuen
atribui
atribuic
atribuindo
atribuir
atribuiu
atributo
atributos
atric
atrito
atritos
atrizes
atrocidades
attack
attila
atua
atuaba
atuac
atual
atuales
atualidade
atualizac
atualizada
atualizado
atualmente
atuan
atuando
atuante
atuar
atuo
atuou
au
auckland
audie
audio
audiobisual
audiovisual
auditiba
auditibo
audito
audrey
auf
aug
auga
augada
augardiente
augas
auge
augsburgo
augu
august
augusta
auguste
augustin
augustine
augusto
augustus
aula
aulas
aun
aura
aure
aureliano
aurelio
auri
aurora
aus
ause
ausente
ausentes
auspi
auster
austeridade
austerlitc
austin
austra
austral
australia
australian
australiana
australiano
australianos
australopithecus
austri
austro
authors
auto
autor
autores
aux
auxelia
auxeliar
auxeliares
auxerre
auxi
auxiliado
auxiliar
auxiliares
avec
aveiro
avenida
avon
avos
aw
award
awards
away
ax
axial
axioma
axiomas
ayala
ayat
ayuno
azambuja
azan
azebedo
azeite
azeme
azenha
azerbaijon
azevedo
azibo
azic
azimute
azinhoso
azo
azob
azoto
azteca
aztecas
azul
azulada
azuleijos
azules
b
ba
baal
baath
bab
baba
babbage
babel
babi
babiera
babilo
baby
bac
baca
bacalhau
bacanc
bacaric
bacas
bach
bacharel
bacharelado
bacia
bacie
bacies
bacina
bacinac
bacinas
back
background
backus
baco
bacon
bacos
bad
badajoc
badajoz
bade
baden
bado
bados
baga
bagabadguita
bagamente
bagas
bagda
bagdade
bage
baginal
bago
bagones
bagos
baha
bahamas
bahia
bahrein
bai
baia
baiana
baiano
baibe
baidade
baikal
bailey
baion
bairrada
bairro
bairros
baixa
baixada
baixas
baixista
baixo
baixos
bajrayana
baker
bakunin
bal
bala
balada
balanc
balancie
balas
balberde
balca
balcanas
baldebec
bale
baleares
baleia
baleias
balen
balenc
balencia
balenciana
balendo
balenteniano
balentin
baler
balera
bales
balfour
balhes
bali
balia
balidac
balidade
baliente
baliosa
baliosas
balioso
baliosos
baliu
ball
balladolid
ballard
balle
balles
ballet
balley
ballis
balmiki
balnea
balneairos
balon
balones
balongo
balor
balores
baloriza
balorizac
balorizado
balorizados
balorizar
balpac
bals
balsa
baltimore
bambu
bamos
bampire
ban
bana
banana
banca
bancada
bancairas
bancairo
bancas
banco
bancos
bancouber
band
banda
bandas
bandeira
bandeirantes
bandeiras
bandidos
bando
bandos
banerje
bang
bangalore
bangladesh
banguarda
banguecoque
banha
banhada
banhado
banhados
banheiros
banho
banhos
banido
baniu
bank
bano
banqueiro
banquete
bantaige
bantaiges
bantu
banu
bao
baopuzi
bar
bara
barack
barak
baralho
baran
baras
barata
baratas
baratheon
barato
baratos
barba
barbacena
barbados
barbara
barbarossa
barbie
barbosa
barbossa
barbra
barbuda
barca
barcarena
barcas
barcelona
barcelos
barco
barcos
barcouc
bardot
bares
bargas
bari
baria
bariaba
bariable
bariables
bariablidade
bariac
bariada
bariadade
bariadades
bariadas
bariado
bariados
barian
bariando
bariante
bariantes
bariar
bariation
barie
bariedade
baries
bario
bariou
barious
barnes
baro
baron
barones
baronesa
baros
barqueiros
barra
barracon
barragem
barraige
barraiges
barrancos
barras
barreira
barreiras
barreiro
barret
barreto
barrett
barriga
barril
barris
barro
barroca
barroco
barron
barros
barroso
barry
barsa
barso
barthes
bartolome
bartolomeu
bartolomiu
baruch
barzin
bas
basa
basal
basalto
basari
basca
basco
basconcelos
bascones
bascos
base
basea
baseaba
baseada
baseadas
baseado
baseados
baseando
basear
basebol
based
baseia
baseian
baseou
bases
basetomie
bashen
basho
basi
basic
basicamente
basileia
basin
baso
basos
basquete
basquetebol
bassalaige
bassalo
bassalos
bassan
bassula
basta
bastante
bastantes
bastarda
bastardo
bastas
bastia
bastidores
bastilha
basto
bastos
bat
bata
batailha
batailhas
batalha
batalhon
batalhones
batarie
bate
batendo
bater
bateriana
baterie
bateries
baterista
baticano
batida
batido
batismo
batista
batistas
batiste
batiu
batizada
batizado
batizados
batizar
batizo
batizou
batman
battista
battle
battleship
battleships
batu
bau
bauer
bautista
bay
bayreuth
baza
bazie
bazio
bazios
baziu
bb
bbc
bbia
bbias
bbio
bc
bcd
bce
bcr
bd
bdc
bditos
be
beach
beagle
beast
beatificac
beatles
beato
beatric
beatriz
beauboir
beaufort
beauregard
beautiful
beauty
bebe
beberly
bebia
bebian
bebido
bebo
bec
because
beche
bechio
beck
beckett
beco
becoming
bed
beda
bedanta
bedas
bedford
bedras
bedui
beethoven
before
bega
began
beganismo
begas
begetac
begetal
begetales
begetarian
begetariana
begetarianas
begetarianismo
begetariano
begetarianos
begin
behabior
behind
bei
beiclo
beiclos
beiga
beija
beijing
beijo
beil
beilado
beilados
beilc
beilce
beile
beiles
beilon
being
beio
beira
beiras
beirute
beis
beisa
beiso
bejita
bejitac
bejitada
bejitadas
bejitado
bejitados
bejitando
bejitante
bejitantes
bejitar
bejitas
bejito
bejitou
beka
bel
bela
belas
belazaima
bele
belen
beleza
belezas
belfast
belfond
belga
belgas
belgrado
belhec
belhete
belhetes
beli
belief
belisa
belize
bell
bella
bellator
belle
belles
belli
bello
belmonte
belo
belocidade
belocidades
beloso
belt
belume
belumen
belumes
belunta
bem
bementemente
bemol
bemos
bemposta
bempuosta
ben
bena
benados
benc
bence
bencedor
bencedora
bencedoras
bencedores
bencendo
bencer
benceu
benci
bencida
bencidas
bencido
bencidos
benciu
benda
bendas
bende
bendedor
bendendo
bender
bendi
bendian
bendida
bendidas
bendido
bendidos
bendiu
bendo
bene
benebole
benebolente
beneditino
benefi
benefice
beneficente
beneficia
beneficiado
beneficiados
beneficiando
beneficiar
beneficiou
benenos
benera
benerable
benerac
benerado
beneran
benerie
benerien
benes
beneza
beneziano
benezianos
benezuela
benezuelano
benfica
benfiquistas
benga
bengala
bengali
benguela
beni
benida
benidas
benido
benidos
benie
benien
benies
benimos
benin
benioff
benir
beniren
benirun
benisse
benissen
benito
benjamin
bennett
bens
benta
bento
bentos
bentosa
bentre
benus
beowulf
ber
bera
beracidade
beracruc
berano
beranos
berbal
berbas
berbere
berberes
berbete
berbo
berbos
berc
bercingeto
berdade
berdadeira
berdadeiramente
berdadeiras
berdadeiro
berdadeiros
berdades
berde
berdes
berdiano
bereador
bereadores
bereficar
beremos
berenice
beres
berg
berga
berganc
berger
bergi
bergman
bergonha
beri
beriato
berie
berifica
berificac
berificada
berificado
berificando
berificar
berificou
bering
berkeley
berkshire
berlag
berlim
berlin
berlusconi
bermont
bermudas
bermudo
berna
bernaclo
bernacular
bernal
bernard
bernardo
bernoulli
bernstein
berona
berones
berrier
bersa
bersalhes
bersiclo
bersiclos
bersion
berso
berson
bersones
bersos
bersus
bert
bertente
bertentes
bertical
bertrand
bery
besi
besibelidade
besible
besibles
besigo
besigodo
besigodos
besiona
besita
besitada
besitado
besitantes
besitar
besitou
bespasiano
bespu
best
besta
besteiros
bestes
bestfa
bestia
bestibular
bestida
bestido
bestidos
bestimenta
bestir
bestua
beta
betanzos
betel
beterano
beteranos
beterina
beth
bethoben
beti
beto
betor
betores
better
betto
between
betwen
beyonce
beyond
bezerra
bezes
bezina
bezinas
bezino
bezinos
bf
bhagabad
bhakti
bi
bia
biabelidade
biable
biafra
biaige
biaiges
biaja
biajaba
biajado
biajan
biajando
biajante
biajantes
biajar
biajo
biajou
bian
biana
bianna
bias
biba
bibas
bibcode
bibe
bibeiro
bibemos
biben
bibendo
bibente
bibeu
bibi
bibia
bibian
bibida
bibido
bibie
bibien
bibir
bibiran
bibiren
bibiu
bible
biblical
biblio
bibliogra
bibliografia
bibliografie
biblioteca
bibliotecairo
bibliotecas
bibliotheca
bibloteca
bibo
bibos
bibrac
bic
bica
bicameral
bicas
bice
bicente
bichas
bicho
bicicleta
bicicletas
bico
bicos
bid
bida
bidas
bide
bideo
bidimensional
bido
bidos
bidro
bidros
bie
bielha
bielhas
bielho
bielhos
bielorru
bielorrusso
bien
biena
bienal
bienense
bieno
biento
bientos
biera
bierzo
bies
biet
bietcong
bietname
bietnamita
bietnamitas
bietnan
biew
bife
big
biga
bigairo
bige
bigente
bigentes
bigg
bigi
bigiar
bigie
bigila
bigneault
bigo
bigor
bigora
bigorosa
bigorou
bigotes
bii
biii
biking
bikings
bil
bila
bilac
bilar
bilareijo
bilareijos
bilarelho
bilarinho
bilas
bilateral
bilaterales
bilbao
bilbo
bild
bilderberg
bilela
bilhon
bilhones
bili
bilingue
bill
billa
billboard
bille
billy
bilnius
bilsack
bimaranense
bimioso
bin
bina
binagre
binairo
binairos
binary
bincent
binci
binculada
binculado
binculados
binda
binganc
bingar
bingren
binhais
binheta
bini
binicius
bino
binos
binte
bintura
bio
biobi
biocant
biodibersidade
biofi
biogra
biografi
biografia
biografias
biografie
biografies
biographical
biography
biol
biolac
biolar
biole
biolenista
biolenta
biolentamente
biolentas
biolento
biolentos
bioleta
biolino
biolo
biological
biologicamente
biologie
biology
biolon
bioloncelo
bioma
biomas
biomassa
biome
bion
bioqui
bios
biosfera
biotecnologie
bipolar
biquipe
bir
bira
birada
birado
biran
birar
bird
birdlife
birge
birgenia
birges
birgi
birgindade
biriato
birma
biro
birou
birth
birtual
birtuales
birtualmente
birtude
birtudes
birtuoso
bis
bisa
bisaba
bisabo
bisando
biscaia
bisconde
biseu
bisexuality
bishnu
bishop
bishtaspa
bisible
bisibles
bisigo
bisigodo
bisigodos
bislumbrar
bismarck
bison
bisones
bispado
bispados
bispo
bispos
bissau
bissexual
bissexuales
bissexualidade
bista
bistas
bisto
bistos
bisual
bisuales
bisualizac
bisualizar
bit
bita
bitae
bital
bitales
bitali
bitalidade
bitamina
bitaminas
bite
biti
bito
bitor
bitoria
bitoriana
bitoriosa
bitoriosas
bitorioso
bitoriosos
bitos
bitrificac
bitru
bits
bittorio
biu
biuola
bixnu
biza
bizantina
bizantino
bizantinos
bizela
bizinhanc
bizir
bjerknes
bl
bla
black
blackwell
bladimir
blaise
blake
blanc
blanco
blasfe
ble
bleda
bles
bleu
bley
blia
blias
blica
blicas
blico
blicomodelo
blicos
blindados
bloch
block
bloco
blocos
blod
bloemfontein
blog
blogs
blogspot
blogue
blogues
blomberg
blon
bloqueado
bloquear
bloqueia
bloqueio
bloqueios
blt
blu
blue
blues
bluetoth
bmb
bo
boa
boabista
boador
board
boat
boatos
bob
bobbio
bobby
bobina
bobino
bobinos
boc
boca
bocabula
bocabulairo
bocac
bocal
bocales
bocalista
bocas
boce
bock
boco
bodin
bodo
bodou
bodun
boduns
body
boe
boegelin
bog
boga
bogal
bogales
bogota
bohr
boicote
bojador
bok
boks
bol
bola
bolar
bolas
bolchebique
bolchebiques
boldsymbol
bole
boleana
boleibol
boleti
boletin
boletines
bolfra
bolga
bolha
bolho
bolhos
boli
bolibiano
bolo
bologna
bolonha
bolos
bols
bolsa
bolsas
bolso
bolta
boltada
boltadas
boltado
boltados
boltando
boltas
bolto
boltou
bolume
bolunta
boluntairo
boluntariamente
bomba
bombain
bombas
bon
bonadei
bonaparte
bond
bondade
bonecas
bones
boni
bonifa
bonifacio
bonn
bono
bontade
book
booker
books
bora
boras
borba
borda
bordas
borde
border
bordo
boreal
borg
borges
borgo
borgonha
bori
boris
borland
born
borne
bornes
boro
boros
borough
boroughs
borraixa
bory
bos
bosco
bosque
bosques
bossa
bostok
boston
bot
bota
botac
botada
botado
botafogo
botantes
botar
botas
botelho
botiba
botibas
boticas
boto
boton
botoneira
botones
botos
botou
botstrap
botton
bou
bouchet
bouffan
bouga
boulebard
bourbon
bourges
bouro
bouzela
box
boxe
boxer
boy
boyage
boyager
boyages
boyd
boyer
boyle
boys
bozes
bpb
br
bra
braamcamp
braba
brabo
brabura
brac
bracara
bracarense
bracarenses
bradford
braga
braganc
bragg
brahma
brahman
brain
bramante
bran
branca
brancas
branco
brancos
branda
brando
brandon
bras
brasa
braseliense
brasi
brasil
brasileira
brasileiras
brasileiro
brasileiros
brasiliense
brason
braun
brazil
brazilian
bre
break
breaking
brebe
brebemente
brebes
brebidade
brega
brenda
brendan
brest
bretanha
bretas
breton
breve
bri
bria
brian
brica
bricas
brico
brics
bridge
brido
bridos
brief
brien
briga
brigada
brigadas
brigadeiro
brigas
brigham
brighan
bright
brigitte
brilha
brilhante
brilhantes
brilho
brill
brincadeira
brincadeiras
brincar
brinquedo
brinquedos
brio
brios
brisa
bristol
brita
britain
britannica
brites
british
brito
broadcasting
broke
broklyn
broks
bronze
bronzes
brota
brother
brothers
brown
browne
brr
bruce
brugos
bruma
brunei
brunel
bruno
brunswick
bruta
brutal
brutalidade
bruto
bruxa
bruxarie
bruxas
bruxedo
bruxedos
bruxelas
bruxo
bryan
bs
bsd
bside
bski
bu
bua
buarque
buas
buber
bubida
bubidas
bubo
buc
buchanan
buckinghan
buco
bucures
buda
budagosa
budapiste
buddha
buddhisn
buddhist
buddy
budismo
budista
budistas
bue
buell
buen
bueno
buenos
buer
buffalo
bui
buick
building
buis
bula
bulada
bulas
bulca
bulcanismo
bulcon
bulcones
bulga
bulgar
bulgaris
bulgarmente
bulina
bull
bulletin
bullets
bulnerable
bulnerables
bulo
bulos
bultos
bumbardeada
bumbardeado
bumbardeamiento
bumbardeamientos
bumbardear
bumbardeio
bumbardeios
bumbardeiros
bumbeiros
bumbilha
bumioso
bun
bundade
bundesarchib
bungaku
buns
buntade
buntades
buolta
buoltada
buoltadas
buoltado
buoltaire
buoltan
buoltando
buoltar
buoltarie
buolto
buona
buonas
buono
buonos
buossa
buosso
buraco
buracos
buran
bureau
burgh
burgo
burgos
burgu
burgue
burguesa
burgueses
burguesia
burguesie
burke
burkert
burmeilha
burmeilhas
burmeilho
burmeilhos
burning
burocra
burocracie
burro
burros
burroughs
burton
burundi
bus
busca
buscaba
buscado
buscan
buscando
buscar
buscas
busco
buscou
bush
business
busto
but
butantan
butler
buton
bx
bxsc
by
byrd
byron
byte
bytes
bz
c
ca
caba
cabala
cabalarie
cabaleiros
cabalharie
cabalhcanti
cabalheiro
cabalheiros
cabalho
cabalhos
caballero
cabalo
cabalos
cabanha
cabanhaige
cabanhas
cabanos
cabe
cabec
cabeceira
cabeceiras
cabedal
cabendo
caberna
cabernas
cabidade
cabido
cabie
cabinda
cabo
cabos
cabra
cabral
cabras
cabril
cabrun
cabul
cac
cacau
cacb
cachac
cache
cachico
cacho
cachoeira
cachon
cachoneirica
cachones
cachorro
cachos
cada
cadabres
cadas
cadastro
cade
cadeado
cadeia
cadeias
cadeira
cadeiras
cadela
cadena
cadenas
caderno
cadernos
cadija
caeiro
caen
caer
caetano
cafe
cafeira
cage
cai
caia
caier
cain
caindo
caio
cairie
cairo
cairota
cairotas
cairu
caiu
caixa
caixas
caixon
caju
cal
cala
calabria
calamidades
calbi
calbino
calc
calca
calcedo
calclo
calclos
calcoli
calcula
calculada
calculado
calculador
calculadora
calculadoras
calculados
calcular
calculou
calcuta
caldas
caldeira
caldeiron
caldo
caldos
cale
calece
calecendo
calecer
calecido
calecimento
calecimiento
calecute
calenda
calendairo
calendairos
cales
calhado
calhar
calhas
cali
calibrac
calibre
calibres
calidade
caliente
calientes
califa
califado
califas
califo
california
caligrafie
caligrama
caligramas
calino
calisto
call
calle
calma
calmo
calor
calorias
calota
calotas
calouros
calouste
cam
cama
camacho
camada
camadas
camara
camaran
camarate
camargo
camarones
camas
cambial
cambodja
camboio
camboios
camboja
cambra
cambridge
came
camelos
camera
camille
camillo
camilo
camina
caminada
caminadas
caminar
caminha
caminho
caminhos
camino
caminones
caminos
camisa
camisas
camo
camp
campa
campaign
campaignes
campana
campanapse
campanas
campanha
campanhas
campbell
campeana
campeon
campeonato
campeonatos
campeones
campi
campinas
campo
camponeses
campos
camposina
camposinas
camposino
campus
camus
camutanga
can
cana
canaana
canada
canadian
canadiano
canadianos
canal
canales
canato
canc
cancela
cancer
cancioneiro
candela
candidata
candidatar
candidato
candidatos
candidatura
candomble
caneca
caneta
cangas
canha
canhal
canhales
canhas
canho
canhon
canhona
canhonas
canhones
canic
canielha
canielhas
cannes
cano
canonizac
cansado
cansar
canso
canta
cantaba
cantada
cantadas
cantadeira
cantado
cantados
cantan
cantando
cantanhede
cantar
cantares
cantarie
cantata
cantidade
cantidades
cantigas
canto
canton
cantone
cantor
cantora
cantores
cantos
cantou
canucks
canyon
cao
caodai
caos
cap
capa
capac
capacetes
capacidade
capacidades
capazes
cape
capela
capella
capelo
capelon
capetiana
capeto
capi
capielha
capielhas
capita
capital
capitales
capitalismo
capitalista
capitalistas
capitan
capitanes
capitania
capitanias
capitanie
capito
capitol
capitulac
capo
capote
capra
capuchinhos
car
cara
carabaggio
carabana
carabanas
carabela
carabelas
caracala
caracas
carai
caraja
carambelo
carambelos
caramono
caramonos
caramulo
caras
carateli
carateliza
caratelizac
caratelizada
caratelizadas
caratelizado
caratelizados
carater
caratere
carateres
carateri
carateriza
caraterizac
caraterizan
caraterizando
caraterizar
caraterizou
carbalhal
carbalho
carbo
carbon
carbonato
carbonatos
carboni
carbono
carc
carcac
card
cardeal
cardeales
cardi
cardo
cardona
cardoso
care
carece
carga
cargas
cargo
cargos
caribbean
caribe
caric
caricaturas
caridade
carioca
cariocas
carisma
carl
carla
carles
carlo
carlos
carlota
carmen
carmo
carnegie
carneiro
carneiros
carni
caro
carol
caroli
carolina
carolinas
caroline
carolus
caronte
caros
carpenter
carpinteiro
carrazeda
carre
carrega
carregaba
carregada
carregadas
carregado
carregados
carregal
carregamiento
carregando
carregar
carreira
carreiras
carrie
carril
carro
carroc
carroll
carros
carruaige
carruaiges
carta
cartac
cartado
cartagineses
cartago
cartas
carter
cartes
cartesiano
cartier
carto
cartogra
cartografie
carton
cartones
cartun
cartuxa
carvalho
casa
casada
casado
casados
casal
casales
casamento
casamiento
casamientos
casan
casar
casara
casario
casarones
casas
casca
cascaboi
cascais
cascalho
cascata
cascatas
casco
cascudo
case
casei
caseira
caseiro
caselle
casimiro
casino
caso
casou
cassini
cassino
cast
casta
castanha
castanhas
castanheira
castanho
castas
castel
castela
castelhana
castelhanas
castelhano
castelhanos
castello
castelo
castic
castidade
castielha
castielho
castielhos
castigo
castigos
castilha
castilho
castilla
castillo
castle
casto
castro
castros
casual
cat
cata
catac
catadorie
catadories
catain
catala
catalan
catalana
catalina
catalisador
catalogados
catalogue
catalunha
catalunya
catapultas
catar
catarina
catarinense
catastro
catecismo
catedra
catedral
catedrales
category
catena
catequese
catete
catherine
catholic
catibeiro
catibo
catibos
cato
catolicismo
catorze
cats
catura
caturada
caturadas
caturado
caturados
caturando
caturar
caturo
caturou
catus
caucasianos
cauda
caudal
caule
caules
causa
causaba
causada
causadas
causado
causador
causadores
causados
causalidade
causan
causando
causar
causas
cause
causo
causos
causou
cavaleiros
caxemira
caxias
cazaquiston
cb
cbc
cbs
cc
ccic
cd
cdot
cdots
cds
ce
cea
ceara
cearense
cearenses
ceas
cebada
cebil
cebiles
ceblizac
cebolhas
cebolles
ceca
ceci
cecil
cedendo
ceder
cedi
cedida
cedidas
cedido
cediu
cedo
cedro
cee
cefet
cegueira
cei
ceilha
ceilon
cel
cela
celano
celas
cele
celebra
celebraba
celebrac
celebrada
celebradas
celebrado
celebrados
celebran
celebrar
celebridade
celebridades
celebro
celebrou
celeiro
celes
celhestre
celhestres
celhestrial
celhestriales
celibato
celindro
cell
celorico
celsius
celta
celtas
celular
celulose
cen
cena
cenairo
cenairos
cenas
cende
cenden
cendente
cendentes
cendo
censo
censos
censura
census
cent
centabos
centauros
centeilha
centeilhas
centena
centenairo
centenas
centener
centennial
centeno
center
centers
centi
centra
centrada
centradas
centrado
central
centrales
centralizac
centralizada
centralizado
centralizadora
centralizar
centre
centri
centro
centros
century
ceo
ceos
cer
cera
cerbantes
cerbeija
cerbeira
cerbical
cerca
cercada
cercadas
cercado
cercados
cerco
cercou
cereal
cereales
cerebral
cerebrales
cereija
cereijas
ceres
cergento
cerilha
cerimo
cerimonial
cerimoniales
cerjano
cermeinho
cerne
cero
cerrada
cerradas
cerrado
cerrados
cerro
cersei
certeza
certezas
certidon
certificac
certificado
cervantes
ces
cesa
cesar
cesare
cesareia
cessar
cesta
cestarie
ceta
ceticismo
cetro
ceu
ceuta
cf
cfa
cfn
cfr
cgadb
cgi
cgp
ch
cha
chabe
chabes
chaco
chade
chafaric
chagas
challenge
challenger
chama
chamaba
chamac
chamada
chamadas
chamadeiro
chamadeiros
chamado
chamador
chamados
chamamientos
chamamos
chaman
chamando
chamar
chamarie
chamas
chamberlain
chamo
chamou
champion
championship
chan
chana
chance
chancelarie
chanceler
chances
chandler
chang
change
channel
chao
chaos
chapa
chape
chapman
chapter
character
charaka
charge
charles
charleston
charlie
charlotte
chart
charts
chas
chase
chater
chaves
che
chebrolet
checa
checker
checosloba
cheetah
chefo
chega
chegaba
chegada
chegado
chegados
chegan
chegando
chegar
chegara
chegarie
chegasse
chego
chegou
chegue
chel
chelsea
chemical
chen
chena
chenas
cheno
chenos
cher
cherrelhones
chesapeake
cheshire
chess
chester
chetah
cheyenne
chez
chi
chia
chiado
chiang
chiapas
chibo
chicago
chicha
chichas
chico
chief
chifres
child
children
chile
chilena
chileno
chimpa
chimpanze
chimpas
china
chine
chinesa
chinesas
chinese
chineses
ching
chino
chipre
chips
cho
chocado
choclate
choice
chombo
chomsky
chongqing
chopin
choque
choques
choro
chouric
chris
christ
christi
christiaan
christian
christiane
christianity
christie
christina
christine
christmas
christol
christopher
chronic
chronica
chronicle
chronology
chu
chua
chuang
chuba
chubas
chubby
chubida
chubioso
chubiosos
chubir
chubiu
chuck
chumbo
chuobe
church
churchill
churrasco
ci
cia
ciano
ciara
cias
cibelizac
cibidade
cibita
ciblizac
ciblizado
cic
ciclismo
ciclo
ciclone
ciclones
ciclopes
ciclos
ciconia
cicuiro
cid
cida
cidadanie
cidadano
cidadanos
cidade
cidadela
cidadelha
cidades
cidas
cido
cidos
cie
ciega
ciego
cielo
cielos
cien
ciencia
ciencias
ciencies
ciente
cientes
cienti
cientificamente
cientificas
cientista
cientistas
ciento
cientos
cierta
ciertas
cierto
ciertos
cies
cifra
cifras
cigana
ciganos
cigarro
cigarros
ciguonha
ciguonhas
cil
cili
cima
cime
cimeira
cimeiras
cimento
cimes
cimiento
cimo
cinarca
cinca
cincinnati
cinco
cine
cineasta
cineastas
cinema
cinemas
cinemateca
cinemato
cinematogra
cinfanes
cinqueciento
cinquenta
cinta
cinto
cintra
cintura
cinturon
cinturones
cinza
cinzas
cinzento
cio
cios
cipion
cipriano
cipriste
circa
circle
circlo
circlos
circo
circuito
circuitos
circula
circulac
circulan
circular
circulares
circulato
circulo
circun
circuncison
circunda
circundan
circundantes
circunfere
circunflexo
circunscric
circunsta
ciri
cirilo
cirklo
cirne
ciro
ciru
cirurgie
cirurgies
cisalhamiento
cisjorda
cisma
cisne
cisnes
cison
cisplatina
cit
cita
citac
citada
citadas
citado
citados
citan
citando
citar
citas
citation
cite
citerior
cities
cito
citos
citou
city
ciu
ciudad
ciudades
cius
civil
civilization
ckgarten
cl
cla
clado
clair
claire
clama
clan
clana
clanas
clandestina
clandestinamente
clandestino
clara
claramente
claras
clare
clarendon
clareza
claridade
clarinetas
clark
clarke
claro
claros
class
classe
classefica
classeficac
classeficada
classeficadas
classeficado
classeficados
classefican
classeficar
classefication
classeficou
classes
classic
classical
classicismo
classics
claude
claudiano
claudio
claustro
clausura
clay
cle
clear
clemenes
clemente
clementina
cleo
cleos
clerical
clermont
clero
cles
cli
clibaige
clica
cliente
clientes
clifford
cliffs
clima
climas
climate
climatolo
climatologie
climatology
clinton
clio
clipe
cliquemusic
clito
clo
clock
clonaige
clonard
cloreto
cloro
clos
cloud
club
clube
clubes
clyde
cm
cn
cnica
cnicas
cnico
cnicos
cnn
cnt
co
coalhada
coalho
coalizon
coat
coauthors
coautor
coautores
cobadonga
cobalto
cober
cobers
cobertura
cobery
cobic
cobilhana
cobol
cobranc
cobrar
cobre
cobren
cobria
cobrindo
cobrir
cobriran
cobriu
coca
cochin
cochino
cochinos
cochrane
coco
cocos
cod
code
codegear
codex
codificac
codificada
codificar
codigo
codinome
cody
coe
coeficiente
coeficientes
coeisiste
coelho
coerc
coerente
coeson
coglossus
cognic
cognitiba
cognitibas
cognitibe
cognitibo
cognitibos
cognome
cografie
cohen
coi
coimbra
coincemos
coincer
coincida
coincidas
coincide
coinciden
coincidindo
coincidiu
coincido
coincidos
coincimento
coincimiento
coincimientos
coinciu
coisas
coito
cok
coke
col
cola
colabora
colaborac
colaborador
colaboradores
colaborando
colaborar
colaborou
colaige
colapso
colar
colares
colas
colaterales
colbert
cold
cole
colec
colecionadores
colega
colegas
colegiada
coleijo
coleijos
coleman
coleophoridae
colesterol
coleta
coletadas
coletados
coletebidades
coletiba
coletibamente
coletibas
coletibidade
coletibizac
coletibo
coletibos
coletor
coletores
colgar
colheita
colheitas
coligac
colin
colina
colinas
colison
colisones
collection
college
colleted
colletion
collins
collor
colo
coloane
coloca
colocaba
colocac
colocada
colocadas
colocado
colocados
colocan
colocando
colocar
coloco
colocou
colombia
colombiana
colombiano
colombo
colonial
coloniales
colonialismo
colonizac
colonizada
colonizado
colonizador
colonizadores
colonizar
colonizo
colonos
coloquial
color
colorac
colorado
colors
colossal
colossales
colossus
colu
columba
columbia
columbus
coluna
colunas
colunista
com
coma
comanda
comandaba
comandada
comandadas
comandado
comandados
comandando
comandante
comandantes
comandar
comando
comandos
comandou
comarca
comarcas
comba
come
comec
comediante
comemora
comemorac
comemorado
comemorar
comemoratiba
comemoratibas
comenda
comendador
comendo
comenta
comentada
comentado
comentadores
comentairo
comentairos
comentando
comentarista
comentou
comer
comercia
comerciais
comercial
comerciales
comercializac
comercializado
comercializados
comercialmente
comerciante
comerciantes
comerciar
comercio
comes
cometa
cometas
comete
cometer
cometi
cometido
cometidos
cometiu
comi
comic
comics
comida
coming
comissa
comissairo
comisson
comissones
comite
comitiba
commedie
comment
commentary
commission
committe
committee
common
commons
commonwealth
communication
communicationes
community
como
companhia
company
completa
complete
completes
completo
composic
compostela
compra
comte
comum
comuna
comunas
comunicac
comunidade
con
conacri
conan
conceic
concelho
concepcio
concert
conchas
conci
conde
condes
cone
coneilho
cones
coneta
conetada
conetado
conetar
conetibo
conetor
conexon
conexones
confianc
congregac
conhec
conhece
conhecedor
conhecemos
conhecen
conhecendo
conheci
conhecian
conhecida
conhecidas
conhecido
conhecidos
conhecie
conhecimiento
conheciu
cono
conos
conotac
conquista
conrad
constituic
construc
conta
conte
contempora
contemporary
contentamiento
contente
contes
contest
conteu
contexto
conti
continente
conto
contos
contra
control
conurbac
convento
cooutores
copa
copacabana
copas
cope
copenhague
coper
coperac
coperar
coperatiba
coperatibas
copiada
copiado
copiar
copiou
copistas
copo
cor
cora
corac
coraige
coral
corales
corbeta
corbett
corbinos
corbo
corbos
corcha
corcobado
cord
corda
cordeiro
cordenac
cordenada
cordenadas
cordenado
cordenador
cordenados
cordenar
cordenou
cordilheira
cordilheiras
cordon
core
coreana
coreano
coreanomodelo
coreanos
coreca
coreia
coreo
coreografie
corgo
cori
corinto
coriolis
corne
cornelius
cornell
cornija
corno
cornualha
coro
coroac
coroar
coron
corona
coronabi
coronada
coronado
coronados
coronavirus
corone
coronel
corou
corpo
corporac
corporal
corporales
corporatiba
corporatibas
corporatibismo
corporatibo
corporatibos
corporation
corpus
corpuscular
corre
correa
correc
corredor
corredores
corregedor
corregir
correia
correio
correios
correlac
correlatos
corren
correndo
corrente
correntes
correntezas
correr
correspo
corresponde
corresponden
correspondence
correspondendo
correspondente
correspondentes
corresponder
correspondia
correspunde
correspundendo
correta
corretamente
corretas
correto
corretos
correu
corria
corrida
corridas
corriente
corrientes
corroson
corrupc
corrutos
corsa
corsairos
corso
corsos
corta
cortada
cortadas
cortado
cortados
cortando
cortar
corte
cortec
corteijo
cortes
cortesano
cortic
cortina
corto
cortou
coruche
corumba
corumbaense
corun
corunha
corvo
cos
cosima
cosme
cosmo
cosmogo
cosmolo
cosmologie
cosmonauta
cosmonautas
cosmopolita
cosmopolitas
cosmos
cossacos
cossery
costa
costas
costeira
costeiras
costeiros
costeras
costielha
costielhas
costra
cota
cotac
cotas
cotidiana
cotidiano
coube
council
countries
country
county
coura
courac
couro
course
court
cousa
cousas
coutico
coutinho
couto
couverture
covid
cox
cozer
cozido
cozina
cozinar
cp
cpi
cpl
cplp
cptec
cpu
cr
cra
crabo
crabos
craig
crasso
cratera
crateras
crates
craticado
crato
cray
cre
creation
crebia
crebir
crebiu
crece
crecen
crecendo
crecente
crecentemente
crecentes
crecer
creci
crecian
crecido
crecie
crecimento
crecimiento
creciu
credenciales
crediblidade
credita
creditada
creditado
credo
credores
credos
creio
crek
creme
creminac
creminal
creminalidade
cremos
crenc
crente
crentes
crepa
crepu
crer
cresc
cresques
crestiana
crestianas
crestianismo
crestianizac
crestiano
crestianos
creta
cretiu
creto
cretos
crew
cri
cria
criaba
criac
criada
criadas
criado
criador
criadora
criadores
criados
crian
crianc
criando
criar
criarie
crias
criatebidade
criatiba
criatibas
criatibo
criatura
criaturas
cribe
criben
cribendo
cric
crifos
crime
crimeia
crimes
criminac
criminalidade
criminoso
criminosos
crio
criobiologie
criogenia
criopreserbac
crioprotetores
criou
crioulo
crioulos
crise
crises
crisis
crisma
criso
crista
cristais
cristal
cristales
cristalina
cristalinas
cristalino
cristalizac
cristandade
cristas
cristiana
cristianas
cristianismo
cristianizac
cristiano
cristianos
cristina
cristo
cristobo
cristolo
crita
critas
crite
critiba
critica
criticada
criticado
critical
criticando
criticar
critico
criticou
crition
critique
crito
critografie
critos
cro
croa
croata
croatas
crocodilo
croft
croma
cromossomo
cromossomos
cromwell
cronista
cronistas
cronograma
cronolo
cronologie
cronos
cross
crosta
crown
cruc
crucial
cruciales
crucificac
cruciforme
crue
cruel
crueldade
cruise
cruj
crusta
crux
cruz
cruza
cruzada
cruzadas
cruzado
cruzados
cruzamiento
cruzamientos
cruzan
cruzando
cruzar
cruzeiro
cruzeiros
cruzes
cruzo
cruzou
cryonics
cryopreservation
crystal
cs
csa
css
cu
cua
cuadernos
cuba
cuban
cubana
cubano
cubanos
cubas
cubierta
cubiertas
cubierto
cubiertos
cubismo
cubo
cubos
cubre
cubren
cubri
cubridor
cubrimentos
cubrimiento
cubrimientos
cubrindo
cubrir
cubriran
cubriu
cuc
cuchara
cucujanes
cuenca
cuentos
cuesta
cui
cuida
cuidado
cuidados
cuidadosa
cuidando
cuidar
cuja
cujas
cujo
cujos
cul
cula
culas
culatra
culha
culhas
culidade
culidades
culina
culmina
culminando
culminante
culminar
culmino
culminou
culo
culos
culottes
culpa
culpado
culpados
culpas
culs
cultiba
cultibada
cultibadas
cultibado
cultibados
cultibar
cultibo
cultibos
culto
cultos
cultrix
cultuados
cultura
culturais
cultural
culturales
culturali
culturalmente
culturas
culture
cumba
cumbate
cumbatendo
cumbatener
cumbatentes
cumbater
cumbates
cumbati
cumbatian
cumbatido
cumbatiu
cumbe
cumbec
cumbenc
cumbence
cumbencer
cumbenceu
cumbenci
cumbencido
cumbencidos
cumbencional
cumbencionales
cumbenciu
cumbenie
cumbeniente
cumbento
cumbentos
cumberge
cumbersa
cumbersac
cumbersar
cumbersas
cumberson
cumbersones
cumberte
cumbertendo
cumbertener
cumberter
cumberti
cumbertida
cumbertido
cumbertidos
cumbertiu
cumbi
cumbibe
cumbiber
cumbic
cumbida
cumbidada
cumbidado
cumbidados
cumbidando
cumbidou
cumbina
cumbinac
cumbinada
cumbinadas
cumbinado
cumbinados
cumbinan
cumbinando
cumbinar
cumbinato
cumbite
cumboca
cumbocac
cumbocada
cumbocadas
cumbocado
cumbocar
cumbocou
cumbustible
cumbustibles
cumbuston
cume
cumes
cumigo
cumo
cumpa
cumpaixon
cumpanha
cumpanhas
cumpanheira
cumpanheiro
cumpanheiros
cumpanhia
cumpanhie
cumpanion
cumpany
cumpaq
cumpara
cumparable
cumparables
cumparac
cumparada
cumparadas
cumparado
cumparados
cumparando
cumparatiba
cumparatibamente
cumparatibe
cumparatibo
cumpareciu
cumparte
cumpartilha
cumpartilhada
cumpartilhado
cumpartilhamiento
cumpartilhan
cumpartilhar
cumpartimiento
cumpartimientos
cumpartir
cumpass
cumpasso
cumpat
cumpata
cumpatibelidade
cumpatible
cumpatibles
cumpatriotas
cumpe
cumpensac
cumpensar
cumpete
cumpetente
cumpetian
cumpetic
cumpetidores
cumpetir
cumpetitebidade
cumpetitiba
cumpetitibidade
cumpetitibo
cumpetiu
cumpilac
cumpilada
cumpiladas
cumpilado
cumpilador
cumpiladores
cumpilados
cumpilar
cumpiler
cumpilers
cumpilou
cumplementar
cumplementares
cumplemiento
cumpleta
cumpletada
cumpletado
cumpletamente
cumpletan
cumpletando
cumpletar
cumpletas
cumplete
cumpleto
cumpletos
cumpletou
cumpletude
cumplexa
cumplexas
cumplexidade
cumplexity
cumplexo
cumplexos
cumplicac
cumplicada
cumplicadas
cumplicado
cumpo
cumpondo
cumpone
cumponen
cumponente
cumponentes
cumponer
cumpor
cumporta
cumportamental
cumportamentales
cumportamiento
cumportamientos
cumportar
cumposic
cumpositor
cumpositora
cumpositores
cumpostela
cumpra
cumprada
cumpradas
cumprado
cumpradores
cumprados
cumprar
cumpras
cumpre
cumpremido
cumpren
cumprende
cumprenden
cumprendendo
cumprender
cumprendi
cumprendia
cumprendian
cumprendida
cumprendidas
cumprendido
cumprendidos
cumprendiu
cumprensible
cumprenson
cumpresson
cumprida
cumpridas
cumprido
cumpridos
cumprimento
cumprimentos
cumprimiento
cumprimientos
cumprindo
cumprir
cumpriu
cumpro
cumproba
cumprobac
cumprobada
cumprobado
cumproban
cumprobar
cumprometida
cumprometido
cumprometie
cumprometimiento
cumprometiu
cumpromisso
cumpromissos
cumprou
cumpulso
cumpunhan
cumpuosta
cumpuostas
cumpuosto
cumpuostos
cumpuso
cumputabelidade
cumputable
cumputac
cumputacional
cumputacionales
cumputado
cumputador
cumputadores
cumputadors
cumputar
cumputation
cumputational
cumputer
cumputing
cun
cunce
cuncebe
cunceber
cuncebida
cuncebido
cuncebidos
cuncebiu
cuncede
cuncedendo
cunceder
cuncedi
cuncedida
cuncedidas
cuncedido
cuncedidos
cuncedie
cuncediu
cunceic
cunceilho
cunceilhos
cunceilhosbianacastielho
cunceilhosbiseu
cunceilhosbraga
cunceito
cunceitos
cunceituados
cunceitual
cuncentra
cuncentraba
cuncentrac
cuncentrada
cuncentradas
cuncentrado
cuncentrados
cuncentran
cuncentrando
cuncentrar
cuncentrou
cuncepc
cuncerne
cuncert
cuncerto
cuncertos
cuncessiona
cuncesson
cuncessones
cuncets
cuncetual
cuncha
cunchas
cunci
cunciente
cuncientes
cunciliac
cunciliar
cuncisa
cuncise
cunclui
cuncluindo
cuncluir
cuncluiu
cuncluson
cunclusones
cunco
cuncorda
cuncordaba
cuncordan
cuncordar
cuncordata
cuncordo
cuncordou
cuncorre
cuncorrente
cuncorrentes
cuncorrer
cuncorreu
cuncreta
cuncretamente
cuncretas
cuncretizac
cuncretizado
cuncretizar
cuncreto
cuncretos
cuncubina
cuncurso
cuncursos
cundado
cundados
cundanac
cundanado
cundanados
cunde
cundecorac
cundecorado
cundeixa
cundena
cundenaba
cundenac
cundenada
cundenadas
cundenado
cundenados
cundenando
cundenar
cundenou
cundensac
cundensada
cundes
cundessa
cundesta
cundic
cundicionado
cundicional
cundit
cundizente
cunduc
cunduta
cundutas
cundutibidade
cundutor
cundutores
cunduzen
cunduzia
cunduzida
cunduzidas
cunduzido
cunduzidos
cunduzindo
cunduzir
cunduziran
cunduziu
cuneiforme
cunexones
cunfec
cunfederac
cunfederada
cunfederadas
cunfederado
cunfederados
cunfere
cunference
cunferida
cunferido
cunferir
cunferiu
cunfessar
cunfessor
cunfessou
cunfi
cunfiabelidade
cunfiable
cunfiables
cunfiado
cunfianc
cunfiar
cunfigurac
cunfinados
cunfines
cunfire
cunfirma
cunfirmac
cunfirmada
cunfirmadas
cunfirmado
cunfirmados
cunfirman
cunfirmando
cunfirmar
cunfirmo
cunfirmou
cunfiscados
cunfisco
cunfisson
cunfissones
cunflit
cunflitantes
cunflito
cunflitos
cunflue
cunformac
cunforme
cunformidade
cunfortable
cunfortables
cunfre
cunfrontac
cunfrontar
cunfronto
cunfrontos
cunfu
cunfucionismo
cunfucionista
cunfucionistas
cunfunde
cunfundida
cunfundido
cunfundidos
cunfundir
cunfuorto
cunfusa
cunfusas
cunfuso
cunfuson
cunfusones
cunge
cungelac
cungelada
cungelado
cungelamiento
cunglomerado
cungo
cungrega
cungregac
cungregacional
cungress
cungresso
cungressos
cunha
cunhada
cunhadas
cunhado
cunhaige
cunhal
cunhar
cunhec
cunho
cuni
cunjetura
cunjeturas
cunjugac
cunjugal
cunjunc
cunjunta
cunjuntamente
cunjunto
cunjuntos
cunjuntura
cunjurac
cunneticut
cunninghan
cunquanto
cunquest
cunquista
cunquistada
cunquistadas
cunquistado
cunquistador
cunquistadores
cunquistados
cunquistan
cunquistando
cunquistar
cunquistas
cunquisto
cunquistou
cunrad
cunrado
cunsagra
cunsagrac
cunsagrada
cunsagradas
cunsagrado
cunsagrados
cunsagrou
cunsante
cunscientemente
cunscientizac
cunsecutiba
cunsecutibas
cunsecutibos
cunsegue
cunseguen
cunsegui
cunseguia
cunseguian
cunseguida
cunseguido
cunseguie
cunseguindo
cunseguinte
cunseguir
cunseguiran
cunseguiren
cunseguisse
cunseguissen
cunseguiu
cunseilho
cunseilhos
cunselheira
cunselheiro
cunselheiros
cunselho
cunselhos
cunsenso
cunsensual
cunsentimiento
cunseque
cunsequente
cunsequentemente
cunserba
cunserbac
cunserbada
cunserbadas
cunserbado
cunserbador
cunserbadora
cunserbadoras
cunserbadores
cunserbadorismo
cunserbados
cunserban
cunserbando
cunserbar
cunserbation
cunserbato
cunserbou
cunservadores
cunsi
cunside
cunsidera
cunsiderable
cunsiderac
cunsiderada
cunsideradas
cunsiderado
cunsiderados
cunsiderando
cunsiderar
cunsidere
cunsidero
cunsiderou
cunsidi
cunsidra
cunsidraba
cunsidrabelmente
cunsidrable
cunsidrablemente
cunsidrablemiente
cunsidrables
cunsidrac
cunsidrada
cunsidradas
cunsidrado
cunsidrados
cunsidran
cunsidrando
cunsidrar
cunsidre
cunsidro
cunsidrou
cunsiga
cunsigo
cunsigue
cunsiste
cunsisten
cunsistente
cunsistentemente
cunsistentes
cunsistia
cunsistian
cunsistie
cunsistindo
cunsistir
cunsistiu
cunso
cunspirac
cunspiradores
cunsuante
cunsuantes
cunsulado
cunsulida
cunsulidac
cunsulidada
cunsulidado
cunsulidando
cunsulidar
cunsulidou
cunsulta
cunsultadata
cunsultado
cunsultar
cunsultas
cunsulte
cunsultiba
cunsultibo
cunsulto
cunsultoria
cunsume
cunsumida
cunsumido
cunsumidor
cunsumidores
cunsumidos
cunsumir
cunsumiu
cunsumo
cunsurte
cunta
cuntaba
cuntabelidade
cuntable
cuntada
cuntadas
cuntado
cuntador
cuntaige
cuntaminac
cuntaminada
cuntan
cuntando
cuntanto
cuntar
cuntas
cuntatar
cuntato
cuntatos
cunte
cuntempla
cuntemplac
cuntemplando
cuntemplatiba
cuntempora
cuntemporary
cuntenc
cuntendo
cuntener
cuntenha
cuntenidade
cuntenido
cuntenidos
cuntenie
cuntent
cuntentamiento
cuntente
cuntentes
cunter
cuntestac
cuntestada
cuntestado
cuntesto
cuntestos
cunteu
cunteudo
cuntext
cunti
cuntida
cuntidas
cuntido
cuntidos
cuntigo
cuntina
cuntinaba
cuntinac
cuntinada
cuntinado
cuntinamente
cuntinan
cuntinando
cuntinar
cuntinara
cuntinaran
cuntinarian
cuntinarie
cuntinas
cuntinasse
cuntine
cuntinental
cuntinentales
cuntinente
cuntinentes
cuntinge
cuntingente
cuntingentes
cuntinhan
cuntinidade
cuntino
cuntinos
cuntinou
cuntinun
cuntista
cunto
cuntornando
cuntornar
cuntorno
cuntornos
cuntos
cuntou
cuntra
cuntrabalanc
cuntrabando
cuntrac
cuntracepc
cuntracetibo
cuntracetibos
cuntracetion
cuntradanc
cuntradic
cuntradito
cuntrai
cuntrair
cuntrairo
cuntrairos
cuntraiu
cuntrapartida
cuntraponto
cuntraposic
cuntrariamente
cuntrario
cuntrasta
cuntrastan
cuntrastando
cuntraste
cuntrastes
cuntrata
cuntratac
cuntratada
cuntratado
cuntratados
cuntratar
cuntrato
cuntratos
cuntratou
cuntrebuic
cuntreriando
cuntreste
cuntribuen
cuntribui
cuntribuic
cuntribuindo
cuntribuinte
cuntribuintes
cuntribuir
cuntribuiu
cuntribution
cuntributo
cuntrobe
cuntrobersa
cuntrobersas
cuntroberso
cuntrobersos
cuntrol
cuntrola
cuntrolaba
cuntrolada
cuntroladas
cuntrolado
cuntroladores
cuntrolados
cuntrolando
cuntrolar
cuntrole
cuntrolo
cuntrolou
cunturbada
cuo
cuonta
cuontas
cuorda
cuordas
cuorpo
cuorpos
cuosta
cuostas
cup
cupido
cura
curar
curas
curba
curbado
curbatura
curbo
curceficado
curdo
curdos
curiosamente
curitiba
curjidade
curjidades
curjidosa
curjidoso
curjidosos
curr
current
curriclo
curry
cursar
curso
cursos
cursou
curta
curtis
cusson
cussones
custa
custaba
custanc
custant
custante
custantemente
custantes
custantin
custantino
custantinopla
custantinopolitano
custar
custas
custata
custatac
custatou
custear
custelac
custitucional
custitucionales
custitucionalista
custituen
custitui
custituic
custituindo
custituinte
custituintes
custituir
custituiu
custitution
custo
custos
custou
custro
custroen
custruc
custrui
custruida
custruido
custruindo
custruir
custruiu
custrution
custrutor
custrutores
cute
cuten
cutian
cutible
cutibles
cutida
cutido
cutidos
cutie
cutindo
cutir
cutiu
cw
cycle
cyclone
cyclones
cynthia
czar
czarista
d
da
daa
daba
dabi
dabid
dabis
dabout
daby
dada
dadai
dadas
dado
dados
dadra
daenerys
dai
daily
daire
daisi
dakar
dakota
dalai
dali
dalma
dalton
dama
damage
damas
damasco
dambas
dambos
dame
damion
damon
dan
dana
danc
dance
dando
danes
danho
danhos
daniel
danificado
danificar
dano
danos
dans
dante
dantes
danton
danu
dao
daprende
daprenden
daprendendo
daprender
daprendi
daprendic
daprendido
daprendiu
daprendizado
daprendizaige
daqueilha
daqueilhes
daquel
daquela
daquelas
daquele
daqueles
daqui
daquilo
dar
dara
dari
darie
darien
dario
dark
dartmoor
dartmouth
darwenismo
darwin
darwinismo
darwish
das
data
database
datac
datada
datadas
datado
datados
datan
datando
datar
datas
date
david
davis
dawn
day
dayan
days
daytona
db
dbase
dbd
dbds
dc
de
dead
deal
dean
deas
death
deb
deba
debagar
debaixo
debastac
debastada
debastou
debate
debates
debe
debeda
debede
debeden
debedian
debedida
debedidas
debedido
debedidos
debedie
debedindo
debedir
debediran
debediu
debelopment
debelopmental
debemos
deben
debendo
deber
debera
deberes
deberi
deberian
deberie
debi
debian
debida
debidamente
debidas
debide
debido
debidos
debie
debil
debina
debinas
debindade
debindades
debino
debinos
debiran
debisa
debison
debisones
debisor
debiu
debo
deboc
debocional
debolber
debolbido
debolbiu
deboluc
debora
deborah
debota
deboto
debotos
debra
debrebe
debruc
debussy
dec
deca
decade
decadente
decapitado
decay
dece
decediu
december
decende
decesiba
decesibo
deci
decida
decide
deciden
decidi
decidida
decidido
decidindo
decidir
decidiran
decidisse
decidiu
decimal
decimales
deciona
deciplina
deciplinar
deciplinas
decisiba
decisibo
decisibos
decison
decisones
declara
declaraba
declarac
declarada
declaradas
declarado
declarados
declarando
declarar
declaration
declares
declaro
declarou
decli
declibe
declinac
declinar
declinou
declo
decolaige
decon
decorac
decorada
decorado
decorados
decoratiba
decoratibas
decoratibos
decorre
decorrer
decorreu
decorriente
decorrientes
decre
decrescente
decretada
decretado
decreto
decretos
decretou
decumenta
decumentada
decumentado
decumentados
decumentairo
decumiento
decumientos
decumposic
decurso
dedica
dedicaba
dedicac
dedicada
dedicadas
dedicado
dedicados
dedicando
dedicar
dedicato
dedico
dedicou
dediculdade
dediculdades
dedo
dedos
deduc
dedutibo
deduzir
deep
default
defe
defeated
defeito
defeitos
defence
defende
defenden
defendendo
defender
defendi
defendia
defendian
defendida
defendidas
defendido
defendidos
defendie
defendiu
defenic
defenida
defenidas
defenido
defenidos
defenindo
defenir
defenitiba
defenitibamente
defenitibo
defeniu
defense
defensiba
defensibo
defensor
defensores
defesa
defesas
defi
deficie
deficiente
deficientes
deficuldade
deficuldades
deficulta
deficultaba
deficultar
define
definen
definia
definic
definida
definidas
definido
definidos
definir
definitiba
definitibamente
definitibo
definition
definiu
deflac
deformac
defrenc
defrencia
defrenciac
defrenciada
defrenciadas
defrenciado
defrenciados
defrencial
defrenciales
defrencian
defrenciando
defrenciar
defrente
defrentemente
defrentes
degital
degitales
degli
degradac
degraus
degredados
dei
deia
deidade
deilha
deilhas
deilhes
deilhi
deimos
deitado
deixa
deixaba
deixada
deixadas
deixado
deixados
deixan
deixando
deixar
deixara
deixarie
deixasse
deixe
deixen
deixo
deixou
del
delacroix
delantre
delaware
delegac
delegado
delegados
delfin
delfos
delgada
delgado
delhi
deli
deliberac
deliberada
deliberadamente
delicada
delimita
delimitac
delimitada
delimitado
delinear
dell
della
delle
dello
delor
delores
delors
delos
delphi
dels
delta
dem
demais
demales
demanda
demandas
demarcac
demarcada
demarcadas
demasiadamente
demasiado
deme
demingo
demingos
deminui
deminuic
deminuindo
deminuir
deminuiu
demisson
demitido
demitir
demitiu
demo
democra
democracie
democracies
democracy
democrata
democratas
democraticamente
democratizac
demogra
demografie
demolida
demolido
demonhos
demora
demorou
demuda
demudado
demudar
demudou
demunstra
demunstraba
demunstrac
demunstrada
demunstrado
demunstran
demunstrando
demunstrar
demunstro
demunstrou
den
dende
deng
denheiro
denic
denidade
denis
dennis
denominac
denominou
denota
denotando
densa
densamente
densas
densidade
densidades
density
denso
densos
dentista
dentre
dentro
denu
denuncia
denunciando
denunciar
denunciou
deo
deodoro
deon
deos
dep
depara
deparou
departamento
departamiento
departamientos
department
depe
depende
dependen
dependendo
dependente
dependentes
depender
dependia
dependian
depo
depoimiento
depois
depor
deportac
deportado
deportados
deportivo
deposic
depositado
depositados
deposto
depressa
depresson
depressones
depriessa
deprimido
depuis
deputada
deputado
deputados
der
derbyshire
dere
derek
deres
deriba
deribac
deribada
deribadas
deribado
deribados
deriban
deribou
derigente
derigida
derigido
derigir
derigiu
derradeira
derradeiro
derrama
derramado
derramamiento
derreter
derretido
derretimiento
derrocada
derrota
derrotada
derrotadas
derrotado
derrotados
derrotando
derrotar
derrotas
derroto
derrotou
derrubada
derrubado
derrubar
derrube
derrubo
derrubou
des
descartes
desconhecido
descric
desde
deseia
deseiaba
deseiando
deseio
deseios
desenvolvimento
desequili
deserto
desertos
desespero
design
designac
desobedie
desorden
desordenada
desordenes
desportivo
dessa
dessas
desse
desseminac
dessertac
desses
desso
desta
destas
deste
destes
desto
desuso
det
detail
details
detalhada
detalhadamente
detalhadas
detalhado
detalhados
detalhando
detalhe
detalhes
dete
detec
detenc
detendo
detener
detenie
detentor
detentora
detentores
deter
deteriorac
determinac
determinada
determinadas
determinado
determinados
determini
determinou
detetado
detetar
detetibe
detetor
detetou
detido
detidos
detinhan
detra
detremina
detreminac
detreminada
detreminadas
detreminado
detreminados
detreminan
detreminando
detreminante
detreminantes
detreminar
detreminismo
detremino
detreminou
detrimiento
detritos
detroit
deus
deusa
deusdado
deuterocano
deuterono
deutsch
deutsche
deutschen
deutscher
deutschland
deux
deve
development
devi
devido
devon
devonshire
dewar
dewey
dexter
dez
dezasseis
dezembre
dezembro
dezena
dezenas
dezenobe
dezenobebinte
dezesseis
dezessete
dezi
dezido
dezie
dezien
dezimos
dezindo
dezir
dezira
dezires
dezisse
dezoito
df
dh
dharma
dhogs
dhul
di
dia
diabo
diabro
diacri
diafragma
diagno
diagonal
diagrama
diagramas
diairo
diairos
diale
dialeto
dialetos
diamante
diamantes
diamond
diana
dianteira
diariamente
diaries
diario
diarreia
dias
dib
diba
dibedida
dibedidas
dibedido
dibedidos
dibediu
diberge
dibergentes
dibersa
dibersas
dibersidade
dibersificac
dibersificada
dibersificado
dibersity
diberson
dibersones
dibersos
dibertimientos
dibesion
dibiase
dibindade
dibindades
dibisa
dibisas
dibison
dibisones
dibo
dibulga
dibulgac
dibulgada
dibulgadas
dibulgado
dibulgador
dibulgando
dibulgar
dibulgou
dic
dica
dicas
diccionario
dice
diche
dici
diciona
dicionairo
dicionario
dicis
dick
dico
dicos
dictionary
dictionnaire
did
dida
didaticamente
diderot
dides
die
diec
diego
diehl
dien
diente
dientes
dies
diesel
diet
dieta
dietas
dieu
diferente
diferentes
diffie
difi
dificilmente
dificuldade
dificuldades
difire
difrac
difre
difterie
difundida
difundidas
difundido
difundidos
difundir
difundiu
difusa
difuson
diga
digambara
digest
digestibo
digeston
digital
digitales
dignidade
digo
digos
dil
dilatac
dilema
dilui
dimenson
dimensones
diminui
diminuic
diminuindo
diminuir
diminuiu
dimna
dimo
din
dina
dinamarca
dinamarque
dinamarquesa
dinamarqueses
dinamismo
dinas
dinastia
dinastie
dinasties
dinic
dinis
dino
dinos
dinosaur
dinosaurs
dinossauro
dinossauros
dio
diocese
dioceses
diocleciano
diodoro
diofanto
diogo
dion
dione
dioni
dionisi
dioniso
dios
diosco
diotima
diploma
diplomacie
diplomas
diplomata
diplomatas
dipo
diques
dir
direc
direcc
direcionada
direcionadas
direcionados
direcionamiento
direta
diretamente
diretas
direto
diretor
diretora
diretores
diretoria
diretos
diretrizes
dirie
dirige
dirigen
dirigente
dirigentes
dirigian
dirigida
dirigidas
dirigido
dirigidos
dirigie
dirigindo
dirigir
dirigiran
dirigiu
dis
disc
disco
discos
discovery
disney
displaystyle
disponi
disse
dissecac
disseluc
disseminac
disses
disside
dissidentes
dissipac
dissolber
dissolbida
dissolbido
dissolbiu
dissoluc
distorc
district
distrito
dit
dita
ditada
ditado
ditador
ditadores
ditadura
ditaduras
ditar
ditas
ditatorial
ditatoriales
ditionary
ditions
dito
ditos
ditou
diu
dius
diusa
diusas
diuses
dixe
dixo
diz
dj
djibouti
dk
dl
dms
dn
dna
do
doac
doada
doadas
doado
dober
dobra
dobrado
dobraige
dobramiento
dobramientos
dobrando
dobro
dobrou
doc
doce
docente
docentes
doces
docs
document
documenta
documentac
documentairo
documentairos
documental
documentales
documents
dodge
doente
doentes
does
dog
dogma
dogmas
doha
doi
dois
dollar
dolo
dolorosa
dolos
dom
domain
dome
domenica
domenicana
domenicanos
domenico
domesticac
domesticadas
domesticado
domesticados
domi
domiciano
domina
dominaba
dominac
dominada
dominadas
dominado
dominados
dominan
dominando
dominante
dominantes
dominar
domingo
domingos
domingues
dominicana
domino
dominou
dominus
domus
don
dona
donac
donald
donaldson
donata
donatairo
donatairos
donato
donde
dones
dong
donna
dontsob
donzela
donzelas
dor
dora
dore
dornelas
dorothea
dorsal
dorset
dorso
dos
dose
doses
dostoie
dostoyevski
dotada
dotadas
dotado
dotados
dote
dotes
dothraki
doto
dotou
dottrina
dou
douard
double
douglas
dourada
dourado
dourados
douro
dous
doutor
doutorado
doutoramiento
doutores
doutorou
doutrina
doutrinal
doutrinales
doutrinas
doutros
dover
down
downbursts
download
downloads
doze
dq
dr
dra
draco
draft
dragon
dragones
drake
drama
dramas
dramaticamente
dramaturgie
dramaturgo
dramaturgos
dran
drasticamente
dream
dreams
drean
dreita
dreito
dreitos
drena
drenaige
drento
dresden
dressler
dreyfus
drica
drico
dricos
droga
drogas
drohiczyn
dromo
dromos
drrb
drumir
drumito
drummond
drun
dsc
dsi
dspace
dt
dtime
dtlink
du
dua
dual
dualidade
dualismo
dualista
duarte
duas
dubida
dubidar
dubidosa
dublin
ducado
ducados
ducal
duce
due
duelo
dues
duet
duke
dulas
dulce
dulin
dulo
dulos
dume
dumont
dun
dunar
dunas
duns
duo
duonho
duonhos
duos
duoze
dupla
duplamente
duplas
duplicac
duplo
duque
duques
duquesa
dura
durables
durablidade
durac
duradoura
duradouro
duradouros
duramente
duran
durante
durar
durarie
duras
durban
durch
durer
dureza
durham
durhan
during
durkhein
duro
duros
durou
dushanbe
dust
dutch
duto
dutra
dux
duzientos
dvd
dw
dwarf
dwarfs
dwight
dword
dynamic
dynamics
dyschoriste
e
ea
eagle
ealing
eanes
earl
earliest
early
earth
ease
east
eastern
easy
eating
eax
eb
ebange
ebchecked
ebentualmente
ebert
ebide
ebing
ebionitas
ebook
ebp
ebro
ebulic
ec
ece
eckert
ecle
eclesia
eclesie
ecli
eclipse
eclipses
eclodiu
ecloson
eco
ecolo
ecologie
ecology
econo
economic
economics
ecossistema
ecossistemas
ecuador
ecume
ecumenismo
ecx
ed
edda
eddie
edessa
edgar
edge
edic
edicio
ediciones
edicions
edifi
editado
edition
editions
editor
editora
editores
editori
editorial
edmond
edmonds
edmund
edo
eds
edsel
edu
eduardo
educac
education
edward
edwards
edwin
ee
eei
eerdmanes
eesiste
eesisten
ef
efe
efefef
efetiba
efetibamente
efetibo
efetibos
efetua
efetuada
efetuadas
efetuado
efetuar
efetuou
effet
effets
efi
efica
eficac
eficazes
eficie
eficiente
eficientes
ega
egeria
ego
ehud
ei
eiba
eibacuac
eibanes
eibange
eibangeilho
eibangelho
eibangelhos
eibangelista
eibaporac
eibaristo
eibe
eibent
eibento
eibentos
eibents
eibentual
eibentuales
eibentualmente
eiberest
eibide
eibidence
eibidencia
eibidenciada
eibidenciado
eibidencian
eibidente
eibidentemente
eibidentes
eibita
eibitan
eibitando
eibitar
eibitou
eibliya
eiboca
eibol
eibola
eiboluc
eiboluciona
eibolucionista
eibolui
eiboluindo
eiboluir
eiboluiu
eibolutiba
eibolutibas
eibolutibo
eibolution
eibolutionary
eicec
eicele
eicelente
eicelentes
eicepc
eicesso
eicessos
eichmann
eicolo
eicologie
eicono
eiconomic
eiconomicamente
eiconomie
eid
eidade
eidades
eidantidade
eidantidades
eidantifica
eidantificac
eidantificada
eidantificadas
eidantificado
eidantificados
eidantifican
eidantificando
eidantificar
eidantifico
eidantificou
eidantity
eide
eidea
eideal
eideales
eidealismo
eidealista
eidealizada
eidealizado
eideas
eidefi
eideia
eideias
eiden
eidentidade
eideograma
eideogramas
eideolo
eideologicamente
eideologie
eideologies
eidic
eidicao
eidiciones
eidifi
eidificac
eidificado
eidificar
eidimburgo
eidison
eidita
eiditada
eiditadas
eiditado
eiditados
eiditar
eidith
eidition
eidito
eiditor
eiditora
eiditoras
eiditores
eiditorial
eiditoriales
eiditorias
eiditou
eiduarda
eiducac
eiducacional
eiducacionales
eiducada
eiducado
eiducador
eiducados
eiducar
eiducatiba
eiducatibas
eiducatibo
eiducatibos
eiducation
eifeito
eifeitos
eiffel
eifica
eificac
eificie
eig
eigas
eigeu
eigi
eigito
eignora
eignorada
eignorado
eignoran
eignorando
eignorantes
eignorar
eignorou
eigo
eigoi
eigreija
eigreijas
eigreja
eigual
eigualdade
eiguales
eigualita
eigualmente
eigyt
eijaculac
eijiste
eil
eila
eilabora
eilaborac
eilaborada
eilaboradas
eilaborado
eilaborados
eilaborar
eilaborou
eilamitas
eilasticidade
eilatricidade
eilba
eilbira
eile
eileba
eilebac
eilebada
eilebadas
eilebado
eilebador
eilebados
eilebando
eilebar
eilebou
eilega
eilegal
eilegales
eilegalmente
eilegante
eilege
eileger
eilegeu
eilegi
eilegie
eilegies
eileic
eileicoes
eileita
eileito
eileitor
eileitorado
eileitoral
eileitorales
eileitores
eileitos
eilementar
eilementares
eilementos
eilements
eilemiento
eilemientos
eilena
eilenco
eiletiba
eiletibas
eiletric
eiletricamente
eiletricidade
eiletro
eiletrodome
eiletromagne
eiletromagnetismo
eiletromeca
eiletron
eiletrones
eiletronic
eiletroqui
eilfos
eilgin
eilha
eilhas
eilhes
eilhetro
eilhetromagne
eilhi
eili
eiliana
eilias
eiliminac
eiliminar
eiliot
eilisabeth
eilisabethentor
eilite
eilites
eilizabeth
eilizalde
eilla
eille
eillen
eillenberger
eillinois
eilliot
eilliott
eillis
eillustrated
eilma
eilo
eilogiado
eilogio
eilogios
eiloque
eilsebier
eilumenismo
eiluminac
eiluminado
eiluminismo
eiluministas
eiluso
eiluson
eilusones
eilustra
eilustrac
eilustrada
eilustrado
eilustrados
eilustrar
eilustre
eilustres
eimaculada
eimage
eimagem
eimagina
eimaginaba
eimaginac
eimaginado
eimaginairo
eimaginar
eimagine
eimagino
eimaginou
eimago
eimaige
eimaiges
eiman
eimana
eimanente
eimanuel
eimatenib
eimaterial
eimdb
eimediac
eimediata
eimediatamente
eimediatas
eimediato
eimediatos
eimensa
eimensamente
eimensas
eimenso
eimensos
eimerge
eimergente
eimergentes
eimergir
eimergiran
eimergiu
eimerso
eimerson
eimi
eimigrac
eimigrante
eimigrantes
eimigrar
eimigrato
eimigro
eimigrou
eimine
eiminente
eiminentemente
eiminentes
eimirado
eimissa
eimisson
eimissones
eimissor
eimissora
eimissoras
eimita
eimitac
eimitar
eimite
eimitida
eimitidas
eimitir
eimitiu
eimmanuel
eimmigration
eimo
eimoble
eimobles
eimoblia
eimoc
eimocional
eimoral
eimortal
eimortalidade
eimune
eimunidade
eimunidades
eimunolo
eimutable
eimutables
ein
einatiba
einaugurada
einaugurado
eine
einebitable
einebitablemente
einebitables
einemigo
einemigos
einerge
einergie
einergies
einergy
einicial
einiciales
einicialmente
einiciatiba
einiciatibas
einigma
einimigo
einimigos
einobac
einorga
einorme
einormes
einougurac
einougurada
einougurado
einougurou
einstein
einu
einundac
eio
eiorque
eip
eipi
eipicentro
eipidemia
eipidemias
eipidemies
eipifa
eipigramas
eipilepsia
eipiscopal
eipiscopales
eipiso
eipisode
eipistemolo
eipistemologie
eipita
eipoca
eipope
eipopeia
eiquac
eiquador
eiquatorial
eiquatoriales
eiquatoriano
eiqueno
eiquenomic
eiquenomicamente
eiquenomie
eiquenomies
eiquenomist
eiquenomista
eiquenomistas
eiquestre
eiqui
eiquibale
eiquibalen
eiquibalente
eiquibalentes
eiquili
eiquino
eiquipa
eiquipada
eiquipado
eiquipados
eiquipamentos
eiquipamiento
eiquipamientos
eiquipas
eiquipe
eiquipes
eira
eiran
eiraniana
eiraque
eiraquiana
eiraquianas
eiraquiano
eiraquianos
eiras
eirie
eirien
eirlanda
eirlande
eirlandesa
eiro
eironicamente
eiroson
eirracional
eirracionales
eirracionalidade
eirradiac
eirrebersible
eirregular
eirregulares
eirregularidade
eirregularidades
eirrelebante
eirrigac
eirritac
eirritado
eirudita
eiruditos
eis
eisabel
eisame
eisames
eisamina
eisaminar
eisata
eisatamente
eisatas
eisato
eise
eisecuc
eisecuta
eisecutable
eisecutada
eisecutadas
eisecutado
eisecutados
eisecutan
eisecutando
eisecutar
eisecutiba
eisecutibo
eisecutibos
eisecutou
eisemplar
eisemplares
eisemplo
eisemplos
eisenhower
eiserce
eisercen
eisercendo
eisercer
eiserceu
eiserci
eisercia
eisercian
eisercida
eisercidas
eisercido
eisi
eisibe
eisiben
eisibia
eisibic
eisibida
eisibidas
eisibido
eisibidos
eisibindo
eisibir
eisibiu
eisige
eisigen
eisigentes
eisigian
eisigido
eisigie
eisigindo
eisigir
eisigiran
eisigiu
eisilado
eisista
eisistan
eisiste
eisisten
eisistenc
eisistencial
eisistencialismo
eisistente
eisistentes
eisisti
eisistia
eisistian
eisistido
eisistie
eisistindo
eisistir
eisistiran
eisistiren
eisistirie
eisistisse
eisistiu
eisla
eislamic
eislamismo
eislan
eislana
eisland
eislands
eislon
eisolada
eisoladamente
eisoladas
eisolado
eisolados
eisolamiento
eisolante
eisolar
eisomorfismo
eisote
eisrael
eisraelense
eisraelenses
eisraeli
eisraelita
eisraelitas
eisse
eissencia
eissencial
eissenciales
eissencialmente
eit
eita
eitaliana
eitalianas
eitaliano
eitalianos
eitapa
eiterna
eiternas
eiternidade
eiterno
eiternos
eitimolo
eitimologie
eitimologies
eixe
eixes
ek
el
ela
ele
elebi
elegi
elementos
eli
elif
eliminac
eliminado
eliminar
elite
elites
elizabeth
elkar
ellas
elles
els
else
elvis
em
emancipac
emanuel
eme
emenda
emerald
emerita
emerson
emi
emigrac
emigrados
emigrantes
emil
emilio
emir
emirado
emissora
emitiu
emma
emmanuel
emmanuelle
emmy
emoc
emocional
emocionales
empire
emre
en
ena
enc
enciclope
enciclopedia
encontrada
encontros
encyclopaedia
encyclopedia
encyclopædia
end
ende
endeavour
endo
ene
eneida
enem
enes
england
english
eniac
enicial
eniciales
eniciatiba
eniciatibas
enigma
enigmas
enimigo
enimigos
enki
enlightenment
enormemente
enquadra
enquadran
enrico
enrique
ensaio
ensaios
ensinamentos
ensino
ent
ente
entente
enterprise
enterprises
entertainment
entes
entorno
entra
entraba
entrado
entran
entrando
entrara
entre
entrevista
entro
entusiasmo
entusiasta
enunciado
enzimas
eo
ep
epi
episo
eps
er
era
eras
erasmo
erasmus
erato
erebus
eremita
eres
eretus
erh
eri
eric
erich
eridu
erie
erik
eriksson
erin
eris
ermida
ernest
ernesto
ernst
ero
eros
eroson
errada
erradas
erradicar
errado
errante
erro
erroneamente
erros
erudic
erudita
erudito
eruditos
erupc
erwin
es
esa
esas
esc
escala
escola
escolar
escrabidon
escrabos
escrita
escrito
escritor
escritores
escritos
escudo
escultura
esfera
esopo
espac
espacial
espada
espan
espanha
espanhol
espanhola
espece
especi
especial
especialmente
esperanc
esperanto
espinho
espiral
essa
essai
essas
essay
essays
esse
essential
esses
essex
esso
est
esta
estac
estado
estados
estadual
estar
estas
estati
estatuto
este
estes
estilo
esto
estrada
estrangeiro
estrate
estrutura
estruturas
estu
estudo
estudos
et
eta
etano
etapa
etapas
etc
ete
eternamente
ethernet
ethics
ethnologue
ethos
eti
etimolo
etimologie
etio
etiqueta
etiquetas
etnia
etnias
etnicamente
etnicidade
etnie
etnies
etno
etnogra
etnografie
etnolo
etnologie
etrusca
etrusco
etruscos
etymology
etzel
eu
eua
eucari
eucaristia
euclides
eufrates
euge
eugene
eugenia
eula
euler
eunuco
eunucos
eur
eura
euri
eurico
euro
europa
europe
european
europeu
eurovision
euse
euskara
eutana
eva
ewe
ex
exchange
exemplo
existem
exists
expansion
explorac
exploration
exposic
express
expresso
extension
extremadura
extremen
eye
eyes
ez
f
fa
faber
fabor
faborable
faborables
faborece
faborecendo
faborecer
faborecida
faborecido
faborecie
faboreciu
faborita
faborito
faboritos
fabrica
fabricac
fabricada
fabricadas
fabricado
fabricados
fabricante
fabricantes
fabricar
fabrico
fac
faca
facas
face
facebook
facelidade
facelidades
facelita
facelitando
facelitar
faces
fachada
fachadas
facilidade
facilitar
facilitou
facilmente
factbook
facto
faculdade
faculdades
facundo
fadas
fado
fados
fafe
faga
fago
fahrenheit
fai
faial
faic
faire
fairway
fairy
faith
faixa
faixas
fala
falaba
falada
faladas
falado
falados
falan
falando
falante
falantes
falar
falas
falco
falcon
fale
falece
falecer
falecida
falecido
falecimiento
faleciu
falha
falhado
falhas
falhe
falho
falhou
fall
falls
falo
falou
falsa
falsas
false
falsidade
falsificac
falso
falsos
falta
faltaba
faltan
faltando
faltas
fama
famalicon
fame
famelia
fameliar
fameliares
fameliaridade
fami
familha
familiar
familiares
family
famosa
famosas
famoso
famosos
fan
fana
fanas
fanatismo
fanes
fang
fanta
fantasia
fantasias
fantasie
fantasma
fantasmas
fantasy
fantoche
fao
fap
fapesp
faq
far
farao
farc
farinha
fariseus
farmace
farmacolo
faro
farol
farrapos
farroupilha
farsa
farsas
faschismus
fasci
fascinado
fascinantes
fascinating
fascio
fascism
fascismo
fascisn
fascista
fascistas
fase
fases
fashion
fast
fat
fatal
fatalmente
fatbok
fatbook
fate
father
fati
fato
fator
fatorac
fatores
fatos
fats
fauna
faust
faustino
fausto
favor
fayard
faz
faze
fazemos
fazenda
fazendas
fazendeiro
fazendeiros
fazendo
fazer
fazera
fazerie
fazerien
fazi
fazie
fazien
fazira
fazirun
fazisse
fazl
fbi
fc
fe
feat
feature
features
feb
febe
febre
febreiro
february
fec
fecha
fechamiento
fechando
fecho
fechou
fecundidade
federac
federados
federal
federales
federalismo
federatiba
federatibas
federation
federico
feed
fego
feia
feic
feijo
feios
feira
feiras
feita
feitas
feitic
feito
feitoria
feitorias
feitos
feixe
felcidade
feldman
feldspatos
felgueira
felgueiras
feliac
felial
felic
felice
feliciano
felicidade
felina
felino
felinos
felipe
felipinas
felipino
felis
felix
felizes
fellow
fellowship
female
femenina
femeninas
femenino
femeninos
femenismo
femenista
femenistas
feminina
feminino
femme
femmes
fen
fendas
feni
fenita
fenitas
fenito
fenitos
feno
fenomenal
fenomenolo
fenomenologie
fera
feras
ferbor
ferboroso
ferdinand
ferdinando
ferguson
feria
feriado
feriados
ferida
feridas
ferido
feridos
ferimientos
ferindo
ferir
feriu
fermat
fermentac
fermentado
ferna
fernanda
fernandes
fernando
fernon
fero
feroc
ferocidade
feros
ferozes
ferozmente
ferradura
ferramienta
ferramientas
ferre
ferreira
ferreiro
ferreiros
ferri
ferro
ferrobia
ferrobiairo
ferrol
ferry
fertelidade
fertelizantes
fertilidade
fertuna
fesicamente
fesiolo
fesiologie
fesionomie
feso
festa
festebidades
festeijos
festibal
festibales
festibidades
festival
fetura
feturamente
feturas
feture
feturismo
feturo
feturologie
feturos
feudal
feudales
feudalismo
feudos
feuerbach
fevereiro
fexeiro
fexeiros
ff
ffclar
fi
fia
fibe
fibonacci
fibra
fibras
fic
fica
ficas
ficc
fice
fices
ficha
ficheiro
ficional
ficit
fico
ficos
fiction
fidalgo
fidalgos
fidel
fidelidade
fie
fiel
field
fields
fierro
fierros
fiesta
fiestas
fifa
fifpro
fifth
fight
fighter
fighting
figueira
figueiredo
figueres
figura
figuran
figurando
figurar
figuras
figure
figures
fiji
fila
filade
filadeiro
filantro
filar
filarmo
filas
file
fileiras
files
filha
filhas
filho
filhos
filhotes
filiac
filial
filinto
filipa
filipe
filipina
filipinas
filipinos
film
filmaiges
filme
filmes
filn
filo
filogene
filogenia
filolo
filologia
filologie
filos
filoso
filosofia
filosoficamente
filosofie
filosofies
filotiu
filtro
fim
fin
fina
final
finale
finales
finalidade
finalidades
finalista
finalizac
finalizado
finalizar
finalmente
financ
financeira
financeiramente
financeiras
financeiro
financeiros
financiada
financiado
financial
financiamiento
financiar
financiou
finas
find
fine
fines
finite
finla
finlande
finlandesa
finlandeses
finn
finnian
fino
finos
fins
fio
firanj
fire
firefox
firma
firmado
firmar
firme
firmemente
firmo
firmou
firo
first
fis
fiscal
fiscales
fischer
fish
fisher
fisiolo
fisiologie
fita
fitas
fiti
fition
fito
five
fixa
fixac
fixada
fixadas
fixado
fixados
fixando
fixar
fixas
fixo
fixos
fixou
fizo
fjparticle
fla
flabiense
flag
flamenga
flamengo
flamengos
flanco
flancos
flandres
flash
flat
flecha
flechas
fleming
flexibelidade
flexible
flight
flip
flo
float
flor
flora
florenc
florence
florentino
flores
florescente
florescer
floresceu
floresci
florescimiento
floresta
florestal
florestales
florestas
floriano
florida
flors
flow
flowers
flubial
flubiales
fluente
flui
fluida
fluidec
fluido
fluidos
fluminense
flutuac
flutuante
flutuar
fluxo
fluxos
fm
fmi
fn
fnla
fo
fobos
foc
foca
focada
focado
focal
focas
focles
foco
focos
fod
foederati
foge
fogon
fogones
fogueira
fogueiras
foguete
foguetes
fogueton
foguetones
foi
folar
folclo
folclore
folha
folk
follow
following
fomentar
fomiento
fon
fona
fonas
fondo
fondos
fondou
fone
fonemas
fono
fonogra
fonologie
fonos
fonseca
fonso
fontaine
fontainebleau
fonte
fontes
for
fora
foral
forall
foram
foras
forbes
forc
forca
force
forces
ford
fore
foreber
forecast
foreign
forense
forest
forma
formaba
formac
formada
formadas
formado
formados
formal
formales
formalismo
formalizac
formalizada
formalizado
formalizou
formalmente
forman
formando
formar
formarian
formas
format
formation
formatnun
formato
formatos
formica
formidable
formiga
formigas
formo
formosa
formoso
formou
formula
formulac
formulada
formulado
formular
formulou
forn
fornece
fornecen
fornecendo
fornecer
forneci
fornecida
fornecidas
fornecido
fornecidos
fornecie
fornecimiento
forneciu
forninhos
forno
fornos
foro
foron
foros
forraige
forro
fort
fortalecendo
fortalecer
fortalecimiento
fortaleciu
fortaleza
fortalezas
fortificac
fortificado
fortificados
fortificar
fortran
fortuna
forun
fos
fossa
fossas
fossil
fosso
foster
fotball
foto
fotogra
foton
fotones
fotos
fotosfera
fotossi
foucault
fouce
found
foundation
foundationes
foundations
four
fourier
fourth
fox
foz
fr
fra
frac
fraca
fracamente
fracas
fracassa
fracassada
fracassado
fracasso
fracassou
fracisco
fraco
fracos
frade
frades
fraga
fragmenta
fragmentac
fragmentada
fragmentado
fragmentos
fragmiento
fragmientos
frags
fraguesie
fraguesies
frailes
fraita
fraitas
frama
framboesa
frame
framework
fran
franc
franca
francas
france
francelos
frances
francesa
francesas
francesc
francesca
francesco
franceses
francia
francis
franciscano
franciscanos
francisci
francisco
franck
franco
francos
franes
frango
frank
frankfurt
franklin
franquia
franquismo
franquista
franquistas
franz
fraqueza
fraquezas
frasco
frascos
frase
fraser
frases
frashe
fraternidade
fratura
fraturas
fraude
fraudes
frauga
fraugado
fraugando
fraugar
fre
frea
frebsd
fred
freddy
frederic
frederick
frederico
fredon
free
freebsd
freedom
frege
freguesias
freguesie
freguesies
frei
freiburg
freijon
freira
freiras
freire
freitas
frelimo
freman
fremont
french
frente
frentes
freque
frequenta
frequentaba
frequentado
frequentar
frequente
frequentemente
frequentes
frequently
frequentou
fresca
frescas
fresco
frescos
fresno
freud
frezno
fri
fric
frica
frie
friedman
friedrich
friedrichsbau
frielas
friend
friends
fries
frigori
frio
friso
fritc
frithjof
fritz
friu
frius
frog
froila
frol
from
fron
frota
frotas
frouseira
fru
fruela
fruita
fruitas
fruiti
fruito
fruitos
fruituoso
frunt
fruntal
fruntcober
frunte
frunteira
frunteiras
frunteiric
frunton
frustrac
frustrada
frustrado
frutar
frute
fry
fryderyk
fs
fshowfull
fsln
fsm
ft
ftp
fu
fudan
fue
fuente
fuentes
fuga
fugas
fugian
fugido
fugindo
fugir
fugiran
fugiu
fuhrer
fui
fuji
fujian
fujiwara
fulcral
full
fuller
fumac
fumar
fumo
fumos
func
funchal
funciona
funcionaba
funcionairo
funcionairos
funcional
funcionales
funcionalidade
funcionalidades
funcionalismo
funcionamento
funcionamiento
funcionan
funcionando
funcionar
funcione
funcionou
fund
fundac
fundacio
fundada
fundadas
fundado
fundador
fundadora
fundadores
fundados
fundamenta
fundamentac
fundamentadas
fundamentado
fundamental
fundamentales
fundamentalismo
fundamentalista
fundamentalistas
fundamentalmente
fundamentals
fundamiento
fundamientos
fundan
fundando
fundar
funden
fundic
fundidas
fundido
fundidos
fundir
fundiran
fundo
fundou
funera
fungo
fungos
funil
funk
funtional
fuogo
fuogos
fuolha
fuolhas
fuolhes
fuonte
fuontelo
fuontes
fuora
fuorc
fuorte
fuortemente
fuortes
fur
fura
furacon
furacones
furioso
furmiento
furnas
furtado
fuso
fuson
fusos
fusse
fustat
futebol
futebolista
futsal
future
futuro
fuzil
fuzileiros
fy
g
ga
gabin
gabinete
gabon
gabriel
gado
gae
gafanha
gagarin
gaia
gaita
gal
gala
galaico
galaicos
galandum
galardoado
galaxia
galaxy
galba
galbon
gale
galega
galegas
galego
galegos
galeno
galeon
galeria
galerie
galeries
gales
galhega
galhego
galhinhas
galho
galhos
gali
galiano
galicia
galile
galilei
galileo
galileu
galison
galistiu
galiza
gallaecie
gallecie
gallego
gallegos
gallery
gallica
gallimard
gallo
galundaina
gama
game
games
gameto
gamma
gamos
gamow
gan
gana
ganado
ganados
gandalf
gandhara
gandhi
gange
ganges
gangues
ganha
ganhaba
ganhado
ganhador
ganhan
ganhando
ganhar
ganhara
ganharie
ganho
ganhos
ganhou
gani
gansu
gante
gap
gara
garaige
garante
garantida
garantido
garantie
garanties
garantindo
garantir
garantiran
garantiu
garc
garce
garci
garcia
garden
gari
garibaldi
garimpeiros
garimpo
garland
garota
garotas
garoto
garotos
garrafa
garrafas
garras
garrett
gary
garzke
gas
gases
gasolina
gasosos
gaspar
gaspard
gassendi
gasta
gastar
gasto
gastos
gastou
gastro
gastrono
gastronomie
gata
gatas
gates
gathas
gato
gatos
gatt
gau
gauguin
gaule
gauleses
gaulle
gauss
gautama
gay
gays
gaza
gazeta
gazette
gazetters
gazoso
gazosos
gb
gbs
gc
ge
geadas
geiger
geira
geleira
geleiras
gelimer
gem
gema
gemas
gemeinden
gemeni
geminac
geminado
gemini
gen
gena
genas
gender
gene
genealo
genealogie
genealogies
genealogy
genebra
genera
general
generales
generalidade
generalizac
generalizada
generalizado
generalizar
generalizou
generation
genericamente
genes
genesis
genet
genetic
geneticamente
genetics
gengis
genitibo
geno
genoba
genobe
genobesa
genobeses
genoci
genoma
genome
genos
genro
genserico
genti
gentil
gentile
gentio
gentios
genui
genuinamente
genus
geo
geoce
geocentrismo
geocities
geode
geoffrey
geofi
geogra
geograficamente
geografie
geographic
geography
geoit
geolo
geological
geologicamente
geologie
geome
geometrie
geomorfologie
geophysical
geopoli
geoqui
georg
george
georges
georgiana
georgiano
georgie
geostro
geote
geq
ger
gera
geraba
gerac
gerada
geradas
gerado
geradora
geradores
gerados
gerais
geral
gerales
gerando
gerar
gerard
geratiba
gere
gerenciador
gerenciales
gerenciamiento
gerenciar
gerida
gerir
germa
germain
german
germania
germano
germanos
germany
germe
gero
gerou
gerrardanthus
gertc
gertrude
geschichte
gesta
gestac
gestalt
gestapo
geste
geston
gestor
get
gets
getu
geyer
gi
gia
giacometti
giacomo
gian
gias
gibbon
gibe
gibraltar
gica
gicas
gico
gicos
gida
gidas
gide
gido
gidos
gie
giente
gientes
gif
gigante
gigantes
gigantesca
gigantescas
gigantesco
gigantescos
gijo
gil
gila
gilada
giladas
gilado
gilados
gilbert
gilberto
giles
gilgamesh
gime
gimpo
gina
ginas
gincana
ginkgo
gio
giobanni
gioconda
giordano
giorgio
gios
giotto
giovanni
gira
giral
girald
giraldo
girales
giralmente
giran
girando
girar
girassol
girassoles
girato
girl
girls
giro
giron
girondinos
girosco
gita
gito
gitos
giulio
giuseppe
giza
gize
gl
gla
glaciac
glacial
glaciares
gladys
glasgow
glasnost
gle
glenn
gli
glicose
glifos
glo
global
globales
globalizac
globalizado
globalization
globalmente
globe
globo
gloria
gloriosa
glorioso
glory
glossa
glossary
gm
gmc
gmg
gmina
gn
gneas
gnia
gnias
gno
gnosticismo
gnu
go
goa
gob
goberna
gobernaba
gobernac
gobernada
gobernadas
gobernado
gobernador
gobernadora
gobernadores
gobernados
gobernamental
gobernamentales
gobernanc
gobernando
gobernante
gobernantes
gobernar
gobernarie
gobernment
goberno
gobernos
gobernou
gobi
gobierno
gobiernos
gobiernou
gobind
god
goddard
godinho
godo
godos
gods
goebbels
goethe
gofas
goff
gogh
gogle
gogol
goia
going
golana
gold
golda
goldberg
golden
goldhagen
goldman
golf
golfe
golfinos
golfista
golfo
gollun
golo
golos
golpe
golpes
golpistas
gombe
gomes
gona
gonc
gondomar
gondwana
gone
gono
gonza
gonzaga
gonzalo
google
goras
gorbacheb
gorda
gordiano
gordo
gordon
gordura
gorduras
gorja
gospel
got
goto
gottfried
goubeia
goulart
gould
goule
gov
government
governo
goya
goza
gozan
gozar
gozo
gprus
gps
gr
gra
graba
grabac
grabada
grabadas
grabado
grabador
grabadora
grabados
grabar
grabe
grabemente
grabes
grabi
grabidade
grabidec
grabiela
grabitac
grabitacional
grabitacionales
grabo
grabou
grabura
graburas
grac
grace
graceland
graciosa
grada
gradatibamente
grade
gradiente
gradiva
grado
graduac
graduado
graduados
gradual
graduou
grady
graeca
graeci
graf
grafado
grafie
grafies
grafite
grafo
grafos
grahan
graimberg
grama
gramado
gramas
gramatical
gramaticales
grami
grammar
grammy
gran
grana
granada
granadas
grand
grande
grandemente
grandense
grandes
grandeza
grandezas
grandiosidade
grandioso
grandura
grani
granito
granja
grano
granos
grant
granth
grass
gratuita
gratuitamente
gratuito
gratuitos
grau
graus
gray
gre
great
greater
greatest
grebe
grebes
grece
greciantiga
grecie
greco
greek
green
grega
grego
gregos
grek
gren
grenoble
grenwich
grid
grieg
griega
griegas
griego
griegor
griegoriano
griegory
griegos
griffin
grima
grimas
grimm
grimn
grin
gripe
grito
gritos
grobe
groening
groenla
grosso
ground
group
groups
growing
growth
grundlage
gruossa
grupamento
grupo
grupos
gruta
gruyter
græcia
gs
gst
gu
gua
guadalajara
guadalete
guadalupe
guadiana
guama
guan
guanabara
guangdong
guangxi
guangzhou
guapa
guapas
guapo
guapos
guarani
guaranis
guarda
guardado
guardar
guardas
guardian
guardion
guarnic
guaruja
guas
guatemala
gue
guec
gueda
guedes
guele
guelfos
guen
guernica
guerra
guerras
guerre
guerreira
guerreiro
guerreiros
guerrilha
guerrilhas
guerrilheiro
guerrilheiros
guetos
guevara
guez
gugu
gui
guia
guiada
guiado
guiados
guiana
guianas
guiar
guias
guide
guido
guila
guilas
guilda
guilherme
guilhotina
guillaume
guillermo
guimara
guine
guinness
guion
guitarra
guitarrista
gula
gulag
gulbenkian
gunderico
gundobad
gungunhana
gunnar
gunther
guo
gurion
guru
gurus
gusmon
gusta
gustab
gustaba
gustabe
gustabo
gustar
gustarie
gustave
gusto
gustos
gustou
guta
gutenberg
guterres
guy
guzerate
h
ha
haapala
haaretc
hab
haba
habai
habana
habe
haben
habendo
haber
habera
haberie
habido
habie
habien
habita
habitaba
habitable
habitac
habitada
habitadas
habitado
habitados
habitan
habitante
habitantes
habitants
habitar
habitat
habitats
habito
habituado
habitual
habituales
habitualmente
habsburgo
habsburgos
hades
hagakure
hai
haia
haifa
haikai
haiku
haiti
hajj
halbelidade
halbelidades
halblidades
halen
hales
half
halicarnasso
hall
halleck
halley
halo
hamas
hamburgo
hamilton
hamlet
hammond
hampshire
hamurabi
han
hand
handbok
handbook
handicap
hanes
hank
hannah
hano
hanrique
hans
hanson
happened
happy
harappa
harbard
harbey
harbor
hard
hardanc
hardback
hardcore
hardeiro
hardeiros
hardware
hardwares
hardy
hare
harlow
harmattan
harmo
harmonia
harmonie
harmoniosa
harmonioso
harmonizar
harmony
harold
haroldo
harper
harpercollines
harris
harrison
harry
hart
harvard
harvey
harvy
has
hasan
hasen
hashimoto
hasi
haskell
hassan
hasta
hat
hatha
hathaway
haumea
hauser
hawaii
hay
haydn
hayes
hazar
hazara
hbo
hc
hd
he
health
hearn
heart
hei
heiaben
heiad
heialth
heian
heiarn
heiart
heibraica
heibraicas
heibraico
heibreu
heibreus
heibron
heidegger
heidelberg
heidelberger
heidra
heidrocarbonetos
heidrodina
heidroele
heidroge
heidrogra
heidrografie
heidrosta
heienan
heigel
heigemo
heigemonia
heigemonie
heigiene
heil
heilbrunn
heile
heilen
heilena
heileni
heilenismo
heilenista
heilico
heilio
heilioce
heiliocentrismo
heill
heillas
heiloisa
heilsinki
heilsinque
heimisfe
heinemann
heing
heinri
heinrich
heinriette
heinriques
heinry
heinslow
heip
heipa
heipatite
heipburn
heipe
heiperbo
heipo
heipona
heipote
heir
heira
heirald
heirba
heirbert
heirbi
heirculano
heirdada
heirdadas
heirdado
heirdados
heirdeira
heirdeiro
heirdeiros
heirdou
heire
heiredita
heireditariedade
heiresie
heiresies
heiritage
heirman
heirmann
heirme
heirmene
heirmenegildo
heirmes
heirna
heirnando
heiro
heirodes
heiroi
heiroles
heirschel
heirtc
heirzegobina
heirzl
heisi
heisitac
heisse
heitares
heitero
heiteroge
heiterossexual
heiterossexuales
heiterossexualidade
heitor
heixa
heixadecimal
heixadecimales
heixisea
heizbollah
helena
helico
hello
help
henri
henrique
henriques
henry
hera
herculano
here
heritage
hermann
hero
herschel
heste
hi
hib
hicsos
hidalgo
hidra
hidrele
hidrocarbonetos
hidroele
hidroge
hidrogra
hidrografie
hidrologie
hiera
hierarchy
hierarquia
hierarquias
hierarquie
hiero
higgins
high
higher
higiene
hijo
hikmet
hilbert
hill
hillary
hills
hilton
himalaia
himalaias
himalayan
himmler
hinaiana
hind
hindenburg
hindi
hindu
hindui
hindus
hino
hinos
hip
hipo
hira
hirohito
hiroshima
his
histo
histoire
histoires
historia
historical
history
hitita
hititas
hitler
hitleriana
hits
hiyori
hizbollah
hl
hm
hms
hn
ho
hoa
hobbes
hobbit
hober
hoc
hockey
hoeren
hoffmann
hoi
hoije
hoje
hok
hoker
hokkaido
hokusai
holanda
hole
holland
holly
hollywod
hollywood
holmes
holocaust
holocausto
holstein
holt
holtei
holy
hombre
home
homem
homenagem
homeostase
homepage
homer
homero
homes
homici
homini
homme
homo
homoerotismo
homofobia
homoge
homosexual
homosexuality
homossexual
homossexuales
homossexualidade
homossexualismo
honduras
hong
hono
honolulu
honora
honori
honoris
honour
honra
honrado
honrar
honras
honrosa
hooker
hoover
hop
hopkines
hopper
hora
horairo
horairos
horas
horda
hordas
horizons
horizontal
horizontales
horizonte
hormo
horn
horror
horrores
horse
horta
hortas
hortense
hortus
hospedaige
hosseni
host
hostelidade
hostelidades
hostil
hostilidade
hostilidades
hostis
hot
hotel
houaiss
houbir
houbisse
houbisses
houbiste
houbo
houghton
houlanda
houlande
houlandesa
houlandesas
houlandeses
houlocausto
houman
houmana
houmanas
houmanes
houmani
houmanidade
houmanidades
houmanismo
houmanist
houmanista
houmanistas
houmanita
houmano
houmanos
houmenageado
houmenagear
houmenageia
houmenaige
houmenaiges
houmero
houmidade
houmildade
houmilde
houmildes
houmilhac
houmilhado
houmor
houmossexuales
houmossexualidade
hounestidade
hounesto
houra
hourizontal
hourizonte
hourizontes
house
houston
houteles
how
howard
howeber
hoy
hp
hq
hs
htm
html
htn
http
https
hu
huang
huangdi
hubble
hubert
huckleberry
hudson
hue
huesca
hugh
hughes
hugo
huguenotes
hui
hull
huma
human
humanidade
humber
humberto
humboldt
hume
hummel
humor
humori
hun
huna
hundred
hung
hungria
hungrie
huno
hunos
huns
hunt
hunter
huorto
huortos
hurricane
hurricanes
husayn
husky
hussein
huxley
huygens
huyges
hyper
i
ia
iaka
iamos
ian
ias
iasd
iate
iau
ib
iba
iban
ibe
ibenes
ibero
ibge
ibid
ibiden
ibm
ibn
ibne
ibope
ibrahin
ic
ica
icar
icarus
icas
ice
icl
ico
icon
iconogra
iconografie
icos
id
ida
idade
ide
ides
idh
idi
idioma
idiomas
ido
idolatria
idoso
idosos
ie
iec
ieee
ien
iene
ienes
if
ig
igbt
igespar
igina
iginas
iglesias
igna
ignorado
igreja
igrejas
igs
ii
iii
ijui
il
ilha
ilhas
ilhe
ilhotas
illinois
iluminac
iluminismo
ilustrac
ilustrador
ilustres
im
image
images
imaging
imdb
impe
imperador
importantes
imprensa
imslp
in
ina
inacabado
inadequada
inag
inalac
inaugurac
inaugurada
inaugurado
inaugurou
inc
inclui
inda
independent
independente
index
india
indian
indiana
indicadores
indo
indocorrcod
ine
inegable
ineisiste
ineisistente
inerente
inerentes
inesperada
ineti
infainc
influe
info
infope
informac
information
ingle
inglesa
ingros
ini
inimiga
inimigas
inimigo
inimigos
ininterruta
initial
ino
inobac
inobador
inobadora
inobadoras
inobadores
inoce
inocente
inocentes
inpe
institut
institute
instituto
intelligence
interior
interlingua
interlingue
internacional
international
internationale
internet
into
introduc
introduction
inu
inumerables
inundac
inva
invalid
io
ioga
iogurte
iol
iorque
iowa
ip
ipa
ipanema
ipb
ipe
ipiranga
ippar
iprage
ir
ira
iran
iraniana
iraniano
iranianos
iraq
ire
ireland
irene
irgun
irineu
iris
irish
irlanda
irlande
irlandesa
irlandeses
irma
iro
iron
ironia
ironicamente
is
isa
isaac
isabel
isai
isaque
isbn
ise
isenc
isers
ishbara
ishikawa
ishmael
isidoro
isito
isla
islam
islamismo
islan
island
isle
ismail
iso
isodo
isolamiento
isolar
israel
iss
issa
issn
isso
issue
issues
ist
istambul
istanbul
istmo
isu
isvn
it
ita
italia
italiano
italo
italy
itemid
iten
itenes
ithaca
itinera
itinerante
ito
its
iucatana
iucn
iugosla
iupac
ius
iv
ivan
iwanami
iwate
iwo
ix
ixaro
ixaros
j
ja
jaba
jabe
jabier
jabr
jacare
jacarepagua
jacarta
jacinto
jack
jacket
jackson
jaco
jacob
jacobinos
jacopo
jacquard
jacques
jacui
jade
jafar
jaguar
jaime
jainas
jainismo
jakarta
jake
jakob
jales
jamaica
jamales
james
jamestown
jan
jane
janeiro
janet
jantar
january
japa
japan
japanese
japon
japone
japonesa
japonesas
japoneses
jar
jardim
jardin
jardines
jardins
jarusalen
jas
jason
jasper
jasus
jatene
jato
jatos
java
jaxa
jay
jazc
jazera
jazidas
je
jean
jeanne
jeff
jefferson
jeffrey
jeito
jennifer
jenny
jeoba
jeremy
jerkins
jero
jerome
jerry
jersey
jerusale
jese
jespersen
jesui
jesus
jet
jewish
jews
jh
jhtn
ji
jia
jihad
jim
jima
jime
jimena
jimmy
jin
jinela
jinelas
jing
jk
jo
joa
joan
joana
joanesburgo
joanna
joao
joaquim
joaquin
jobiano
jobin
jobs
joe
joel
joffrey
joga
jogada
jogadas
jogado
jogador
jogadores
jogando
jogar
jogo
jogos
jogou
johan
johann
johanna
johannes
john
johnes
johnny
johns
johnson
johnston
joias
joint
jon
jonas
jonathan
jones
jong
jorda
jordan
jordanes
jorge
jornada
jornadas
jornal
jornales
jornalhoje
jornali
jornalismo
jornalista
jornalistas
jose
josef
josefo
josep
joseph
josh
jost
josue
jou
journal
joyce
jp
jpa
jpeg
jpg
jpl
jpost
jr
jsp
jstor
ju
juan
juana
juazeiro
jubenco
jubenil
jubenis
jubileu
juca
juda
judai
judaica
judaicas
judaico
judaicos
judaisn
judas
judd
jude
judeia
judicia
judicial
judiciales
judie
judith
judiu
judius
judo
jugo
jugosla
jui
juic
jul
jules
julga
julgaba
julgado
julgados
julgamiento
julgamientos
julgan
julgando
julgar
julgo
julgou
julho
julia
julian
juliano
julie
julieta
julio
julion
julius
july
jun
junc
june
jung
junho
junior
juno
junot
junqueiro
junta
juntado
juntamente
juntan
juntando
juntar
juntas
junto
juntos
juntou
jupiter
jura
jurado
juramiento
jurar
jure
juri
juridicamente
juris
jurisdic
jurisprude
jurista
juristas
juro
juros
jurou
jus
jusante
juscelino
jussila
just
justa
justamente
justeficar
justeniano
justi
justic
justice
justifica
justificac
justificada
justifican
justificatiba
justiniano
justo
justos
jutla
jutos
juvencus
k
ka
kabir
kabuto
kafka
kagami
kahn
kai
kaiser
kaliningrado
kama
kamakura
kamala
kamen
kami
kampf
kampmann
kamran
kan
kang
kanji
kansas
kant
kara
karamazob
karate
kardec
karen
karin
karl
karlsruhe
karma
karnataka
kassel
katherine
kato
katrina
kaufmann
kawabata
kazan
kb
ke
keane
kegan
keith
kelly
kelvin
ken
kennedy
kenneth
kent
kentucky
kepler
kera
kerry
kertbeny
key
keynes
kg
kha
khaled
khan
khmer
khomeini
khrushcheb
khrushchob
khwarizmi
ki
kick
kidman
kids
kieb
kiebana
kiev
killed
kim
kin
kind
king
kingdom
kingdon
kippur
kiranti
kirk
kirtland
kish
kita
kitab
kitchen
kite
kitty
klaus
kleine
klene
klerk
km
kn
knesset
knight
know
knowledge
known
knuth
ko
kobayashi
koch
kodansha
koi
komachi
kong
konrad
konstantin
korea
korean
kosobo
koten
kouroi
kouros
kourouma
krafft
kraft
kredi
kriorus
krishna
kropotkin
kruger
ku
kubitschek
kuhn
kuiper
kulin
kulthun
kumaon
kupala
kuratowski
kure
kursk
kurt
kutuzob
kuwait
kw
kwanza
kwanzas
ky
kyo
l
la
laba
labaige
labar
labas
label
labelo
laborato
laboratory
laboura
lac
lachance
lacorona
lactarius
lacuna
lada
ladeiras
laden
ladino
lado
lados
ladron
lady
lae
laga
lagash
lago
lagona
lagonas
lagos
lagrange
laguna
lai
laiq
lajes
lake
lam
lama
lambda
lamego
lan
lana
lanc
lancaster
lance
land
lander
landesamt
landfall
landi
lang
language
languages
lania
laniakea
lanka
lannister
lao
laos
lapa
laplace
lapo
lar
lara
laranja
laranjas
lares
largamente
large
largest
largo
larry
lars
las
laser
lassell
last
lat
lata
latarius
latas
late
latente
lateral
laterales
latici
latifundia
latim
latin
latina
latinas
latino
latinos
latitude
latitudes
lato
laton
latron
laura
laurence
laurent
lausanne
lavigne
lavoisier
law
lawrence
laws
layer
lazarebic
lazer
lb
lbara
lbarec
lbares
lbaro
lbio
lbula
lbulas
lbum
lbun
lbuns
lcanas
lcar
lcio
lclo
lclos
lcol
lculo
ld
lda
lder
ldica
ldots
le
lea
league
leal
lealdade
leales
leandro
learning
leba
lebado
lebando
lebante
lebar
lebe
lebemente
lebes
lebi
leble
lebo
lebou
lebre
lebres
lec
lecionar
lecionou
leda
lee
left
leftarrow
legacy
legado
legal
legales
legalmente
legend
legenda
legi
legio
legion
legiones
legislac
legislatiba
legislatibas
legislatibo
legislatibos
legislatura
legitimidade
lego
legumes
lei
leia
leibnic
leiden
leigos
leipzig
leirie
leis
leite
leito
leitor
leitores
leitos
leitura
leituras
lema
lembra
lembrado
lembranc
lembrando
lembrar
lemita
lemitac
lemitada
lemitadas
lemitado
lemitados
lemitar
lemite
lemites
lemos
len
lena
lenc
lenda
lendairo
lendas
lendo
lenga
lengua
lenguaige
lenguaiges
lengui
lenguista
lenha
lenin
leningrado
leninismo
lennon
lenta
lentamente
lentes
lento
leo
leoa
leobigildo
leon
leonard
leonardo
leone
leonel
leonhard
leonor
leopold
leopoldo
lepidotera
leq
leque
ler
lera
leray
les
lesbian
lesbos
leslie
leson
lesoto
lessa
lesson
leste
let
leti
letis
leto
letogenys
letra
letras
letrista
letter
letters
lettres
leu
leucemia
leukemia
lewis
lex
lez
leze
lezes
lfia
lgaro
lgaros
lgbt
lgebra
lgebras
lgica
lh
lha
lhaba
lhabo
lhaborato
lhaboura
lhabouras
lhabrador
lhabradores
lhacerda
lhackman
lhada
lhadeira
lhado
lhados
lhadrones
lhafones
lhago
lhagona
lhagonas
lhagos
lhake
lhama
lhamas
lhamego
lhan
lhana
lhanc
lhand
lhanguage
lhanhoso
lhanka
lhao
lhaos
lhapa
lhapo
lhappalainen
lhar
lharanja
lhares
lharga
lhargamente
lhargo
lhaser
lhast
lhata
lhate
lhateral
lhaterales
lhatici
lhatifundia
lhatim
lhatin
lhatina
lhatinas
lhatino
lhatinos
lhatitude
lhatitudes
lhatose
lhazer
lhazio
lhe
lheague
lheal
lhealdade
lheales
lheba
lhebaba
lhebada
lhebadas
lhebado
lhebados
lheban
lhebando
lhebanta
lhebantamiento
lhebantar
lhebante
lhebantou
lhebar
lhebarie
lhebe
lhebes
lhebi
lhebo
lhebou
lhegac
lhegacy
lhegado
lhegal
lhegales
lhegalmente
lhegenda
lhegi
lhegion
lhegiones
lhegislac
lhegislatiba
lhegislatibas
lhegislatibo
lhegislatibos
lhegislatura
lhegitimidade
lhei
lheigos
lheirie
lheis
lheite
lheito
lheiton
lheitor
lheitores
lheitos
lheitura
lheituras
lhema
lhembra
lhembrado
lhembranc
lhembrando
lhembrar
lhemita
lhemitac
lhemitada
lhemitadas
lhemitado
lhemitados
lhemitando
lhemitar
lhemite
lhemites
lhemitou
lhemos
lhenc
lhenda
lhendas
lhengua
lhenguaige
lhenguaiges
lhengui
lhenguista
lhenguistas
lhenha
lhenin
lhenta
lhentamente
lhentes
lhento
lheo
lheon
lheonardo
lheone
lheonesa
lheonor
lheopoldo
lher
lheste
lhetibo
lhetra
lhetrados
lhetras
lhewis
lhi
lhibane
lhibaneses
lhibardade
lhibardades
lhibartac
lhibartar
lhiberac
lhiberada
lhiberais
lhiberal
lhiberales
lhiberalismo
lhiberalizac
lhiberar
lhiberdade
lhiberdades
lhiberta
lhibertac
lhibertado
lhibertador
lhibertados
lhibertar
lhibertou
lhibra
lhibrarie
lhibraries
lhibrary
lhibras
lhibre
lhibremente
lhibres
lhibro
lhibros
lhicenc
lhicenciatura
lhiceu
lhida
lhidar
lhidera
lhiderada
lhideradas
lhiderado
lhiderados
lhideranc
lhiderar
lhiderou
lhido
lhie
lhieba
lhiebado
lhieban
lhiebando
lhiebar
lhiebo
lhife
lhiga
lhigaba
lhigac
lhigada
lhigadas
lhigado
lhigados
lhigan
lhigando
lhigar
lhigas
lhigeira
lhigeiramente
lhima
lhimi
lhimpa
lhimpar
lhimpeza
lhimpo
lhine
lhinear
lhingui
lhinha
lhinhaige
lhinhaiges
lhinhas
lhink
lhino
lhion
lhione
lhionesa
lhisboeta
lhisboetas
lhisboua
lhiselotte
lhista
lhistas
lhitera
lhiterairo
lhiteral
lhiteralmente
lhiteratura
lhiterature
lhitobsk
lhitora
lhitoral
lhitorales
lhitu
lhiturgie
lhixo
lho
lhobato
lhobo
lhobos
lhocal
lhocales
lhocalidade
lhocalidades
lhocaliza
lhocalizaba
lhocalizac
lhocalizada
lhocalizadas
lhocalizado
lhocalizados
lhocalizan
lhocalmente
lhocomoc
lhogi
lhogicamente
lhogro
lhogrou
lhoic
lhoija
lhoijas
lhoinge
lhoire
lhond
lhondon
lhondres
lhong
lhonga
lhongas
lhongebidade
lhongi
lhongitude
lhongo
lhongos
lhopes
lhorena
lhorenzo
lhosango
lhotes
lhoubre
lhouc
lhoucura
lhougo
lhouis
lhouisiana
lhourenc
lhoures
lhousana
lhu
lhuanda
lhuc
lhucas
lhucratibo
lhucratibos
lhucro
lhucros
lhudwig
lhugar
lhugares
lhugo
lhui
lhuic
lhuigi
lhuis
lhuita
lhuitar
lhuitas
lhuminoso
lhuna
lhunar
lhunas
lhuria
lhusita
lhusitana
lhusitano
lhusitanos
lhuso
lhuta
lhutando
lhutar
lhuterana
lhutero
lhuto
lhutou
lhuxemburgo
lhuxo
lhuzes
lhuzia
li
lia
lian
liang
lias
libaneses
libardade
libardades
libe
liber
libera
liberac
liberal
liberales
liberalismo
liberalizac
liberato
liberdade
liberpol
liberta
libertac
libertado
libertar
liberto
libertou
liberty
libing
libra
librar
librarie
libraries
library
libras
libre
libremente
libres
libreto
libri
libris
libro
libros
lic
lica
licas
lice
licenc
licenciado
licenciatura
licenciou
liceu
lichmera
lici
lico
licos
lida
lidar
lidas
liderada
lideradas
liderado
liderados
lideranc
liderar
liderou
lido
lidos
lie
lieba
liebaba
liebada
liebadas
liebado
liebados
lieban
liebando
liebanta
liebantamiento
liebantar
liebante
liebar
liebarie
liebo
liechtenstein
life
liga
ligac
ligada
ligadas
ligado
ligados
ligamiento
ligan
ligando
ligar
ligas
ligeira
ligeiramente
ligeiro
light
ligou
like
lila
lille
lim
lima
limiar
limpa
limpeza
limpo
lin
lina
lincoln
lincolnshire
lindberg
lindley
line
linear
lineares
lines
lineu
lingu
lingua
lingui
linha
linhaige
linhas
link
links
linksastero
linksasteroide
linnaeus
linne
lino
linux
linz
lio
lion
lionel
liones
lios
lira
lis
lisa
lisboa
lisboua
lise
lises
lisp
list
lista
listas
liszt
lit
lite
litera
literacie
literairo
literairos
literal
literales
literalmente
literary
literatura
literature
lites
liti
lito
litora
litoral
litosfera
litros
litte
little
litu
litua
liturgie
liu
live
liverpool
living
livre
livro
livros
lix
lixo
liza
lk
lkerung
lknb
ll
lla
llah
ller
llingua
lloyd
lmc
ln
lo
lobato
lobe
lobelace
lobo
lobos
loc
loca
locac
locado
local
locales
localidade
localidades
localiza
localizaba
localizac
localizada
localizadas
localizado
localizados
localmente
locamiento
locan
locando
locar
lock
locke
loco
locou
locus
lodi
lodigiano
log
loga
logari
logaritmo
logaritmos
logi
logic
logicamente
logo
logos
logoso
logosofia
lohengrin
loija
loijas
loinge
loire
lola
loliun
lombardia
lombardie
lombardo
lombardos
lon
london
londres
londrina
long
longa
longas
longebidade
longi
longitude
longman
longo
longos
lope
lopes
lopo
lord
lorde
lore
lorena
lorentc
lorenzo
lorrain
los
losfeld
loss
lost
lotac
lotus
lou
loubado
loubre
louco
loucura
lougo
louis
louise
louisiana
lourdes
lourenc
loures
love
low
lowell
lp
lpg
lr
ls
lst
ltc
ltd
ltda
ltica
lticas
ltico
lticos
ltima
ltimo
ltipla
ltiplas
ltiplo
ltiplos
ltsin
lu
lua
luanda
luc
luca
lucano
lucas
luci
lucia
luciana
luciano
lucratiba
lucratibos
lucre
lucro
lucros
lucy
ludmilla
ludwig
luftwaffe
lugar
lugares
lugo
lui
luic
luigi
luis
luita
luitas
luiz
luiza
lula
lulas
lumen
lumie
lun
luna
lunae
lunar
lunas
lune
luofu
luoyang
lusa
lusi
lusita
lusitano
lusitanos
luso
lustosa
luta
lutador
lutando
lutar
luterana
luteranos
lutero
luther
luto
lutou
lutyenes
luxemburgo
luxo
luxu
luz
luzes
luzia
lvares
lvaro
lw
lyell
lyndon
lynn
lyon
lyra
m
ma
maaba
maaiana
maaianas
maastricht
mab
mabel
mac
maca
macabeus
macaco
macacos
macanismo
macanismos
macarron
macau
macbeth
macdonald
macedo
machado
machados
machine
machines
macho
machos
macht
macic
maciel
macintosh
macio
mackenzie
macmillan
maco
macro
macrosco
mactutor
mad
mada
madaga
madagascar
madalena
madame
madas
made
madeira
madeiras
madeleine
madero
mades
madhba
madison
mado
madonna
madrasta
madre
madri
madrid
madrugada
madura
maduro
maestri
maestria
maestro
mafalda
mafra
mag
magadha
magalha
magalhanes
magazine
magdalena
magenta
magiares
magic
magie
magiste
magistrado
magistrados
magma
magna
magne
magnetic
magnetismo
magnetosfera
magni
magnitude
magno
magnus
mago
magos
magrebe
maha
mahabira
maharshi
mahatma
mahayana
mahdi
mahmoud
mai
maia
maias
mail
main
mainc
maine
mainyu
maio
maior
maiorca
maiores
maioria
maioridade
maiorie
maioritariamente
mais
maison
maiu
maja
majestade
make
makemake
making
makoto
mal
mala
malaca
malaio
malaios
malas
malawi
malcher
maldic
male
males
malha
malhadas
mali
malik
malina
malinas
mall
mallorca
malo
malos
malta
malte
maltesa
malteses
malthus
malu
mama
mamede
mamelucos
mami
man
mana
management
managua
manaus
mancha
manchas
manchester
manchete
manchu
manchus
manda
mandaba
mandada
mandado
mandados
mandamentos
mandamiento
mandamientos
mandando
mandar
mandara
mandarin
mandarines
mandato
mandatos
mandela
mandi
mandioca
mando
mandou
mane
maneijo
maneira
maneiras
maneirismo
manes
manet
manga
mangane
mangas
mangualde
manhana
manhanas
manhattan
manifesta
manifestaba
manifestac
manifestan
manifestando
manifestantes
manifestar
manifesto
manifestou
manila
manilha
manilhas
manipulac
manipular
maniquei
manitoba
manjor
manjorita
manjoritariamente
mann
mannheim
mannhein
manninen
mano
manobra
manobras
manoel
manos
manselli
manson
mansour
mansur
mante
mantebe
manteiga
manten
mantendo
mantene
mantenendo
mantener
mantenha
mantenida
mantenido
mantenie
mantenien
manter
manti
mantibi
mantida
mantidas
mantido
mantidos
mantimientos
mantiqueira
manto
mantra
mantras
mantubi
mantubo
manu
manual
manuales
manualmente
manuel
manuela
manuelino
manufatura
manufaturados
manufaturas
manuol
manuscrito
manuscritos
manut
manutenc
many
mao
maome
map
mapa
mapas
mapeamiento
mapear
maps
mapu
maputo
maquiable
maquina
maquinarie
mar
mara
maraba
marabilha
marabilhas
marabilhosa
marabilhosas
marabilhoso
maranhon
maras
marat
marata
maratona
marbin
marc
marca
marcac
marcada
marcadamente
marcadas
marcado
marcador
marcados
marcan
marcando
marcante
marcantes
marcar
marcarie
marcas
marcel
marcelino
marcello
marcelo
marceneiro
march
marcha
marcho
marcial
marciales
marciana
marcianas
marciano
marcianos
marco
marcos
marcou
marcu
marcus
mardomo
mare
marechal
mares
marfin
margaret
margarida
marge
marginal
marginales
marguerite
mari
maria
marian
mariana
marianas
marianne
mariano
marido
maridos
marie
marin
marina
marinas
marine
mariner
marines
marinespecies
marinheiro
marinheiros
marino
marinos
mario
marion
mariscal
maritime
marius
mark
markandaya
market
marketing
marlowe
marne
maro
maros
marque
marques
marquesa
marriage
marrocos
marron
mars
marselha
marshall
marta
marte
martha
marti
martianus
martico
martielho
martim
martin
martines
martinho
martino
martins
marx
marxismo
marxista
marxistas
mary
maryland
marzo
mas
masculina
masculino
masculinos
masdei
masked
mason
mass
massa
massachusetts
massacrados
massacre
massacres
massadas
massas
massiba
massibas
massibo
massibos
massin
master
masters
mastite
mastro
mastros
mat
mata
matamiento
matanc
matando
matar
matas
match
mate
matela
matema
matematicamente
material
materiales
materialismo
materialista
materie
materies
materna
maternal
maternidade
materno
mateus
math
mathbb
mathbf
mathematica
mathematical
mathematics
mathilde
mathrm
matic
matilde
matisse
matizes
mato
matos
matosinhos
matou
matri
matric
matricula
matrimo
matrimonho
matrimonial
matrimoniales
matrix
matrizes
matsuo
matsuri
matsushita
matt
mattel
matteo
matter
matthew
mattos
mattoso
maturac
maturidade
mau
maua
mauregato
mauri
maurice
maurita
mauro
maurya
mausole
mauss
max
maximiano
maximiliano
maximizar
maxn
maxwell
maxy
may
maya
mayer
maynard
mayo
mayor
mazda
mazzini
mb
mbar
mbia
mbio
mbito
mbolo
mbolos
mbria
mc
mcauley
mccandles
mccartney
mcclellan
mcdonald
mcgraw
mcmahon
mcs
md
mdb
me
mea
meados
mealhada
mealy
meanes
meaning
meas
meat
meb
mec
meca
mecanicamente
mecanismo
mecanismos
mecenas
mecenato
mechanics
meck
med
meda
medal
medalha
medalhas
mede
medecina
medeiros
meden
medes
medi
media
mediabal
mediac
mediador
mediante
mediar
medic
medica
medical
medicamiento
medicamientos
medici
medicinal
medicinales
medicine
medida
medidas
medido
medie
mediebal
mediebales
medieval
medina
medindo
medio
medir
meditac
meditar
mediterra
mediu
medo
medos
medula
medvedev
mefisto
mega
megali
megalitos
megalo
mei
meia
meias
meidie
meiji
mein
meio
meior
meios
meiose
meir
meirelles
meirinhos
meister
mel
melanco
melancolia
melane
melbourne
melgac
melhor
melhora
melhorado
melhoramiento
melhoramientos
melhorando
melhorar
melhores
melhoria
melhorias
melhorie
melhories
melhoro
melhorou
meli
melinda
melinde
melita
melitante
melitantes
melitar
melitares
melitarismo
melitarmente
melitars
melitary
mello
mellon
melo
melodie
melodies
melquisedeque
membrado
membramiento
membro
memo
memorable
memorando
memorial
memorizac
memory
memphis
men
menachen
menaige
menc
menciona
mencionada
mencionadas
mencionado
mencionados
mencionan
mencionar
mencionou
mendel
mendelssohn
mendes
mendonc
mendoza
mene
menes
meneses
menezes
meng
meni
menimax
menimizar
menisse
meniste
menisterial
menistra
menistro
menistros
menistry
meno
menonitas
menor
menores
menoridade
menos
mensageiro
mensageiros
mensaige
mensaiges
mensal
mensales
mental
mentales
mentalidade
mentalidades
mente
mentes
mentir
mentor
menu
menumental
menumiento
menumientos
mer
mera
meramente
meras
mercado
mercador
mercadores
mercadoria
mercadorias
mercadorie
mercadories
mercados
mercante
mercantes
mercantil
mercantilismo
mercantis
mercator
merce
mercena
mercenairos
mercer
merck
mercosul
mercu
mercury
merda
mere
merece
merecen
mergulho
merian
meridiano
meridianos
meridional
meridionales
merlin
mero
meros
merrian
mersenne
mes
mesa
mesas
mescla
meses
meseta
meshwesh
mesma
mesmas
mesmerismo
mesmo
mesmos
mesoame
mesoamericanas
mesoamericano
mesoli
meson
mesopota
mesorregion
mesozo
mesquita
mesquitas
messe
messia
messias
messina
messiona
mestic
mestra
mestrado
mestre
mestres
met
meta
metabolismo
metacarateres
metade
metades
metafi
metal
metales
metalu
metalurgie
metamo
metamorfose
metamorfoses
metano
metas
metastasio
metazoa
metc
meteorito
meteoritos
meteoro
meteorolo
meteorological
meteorologie
meteorologistas
meteorology
meteoros
method
methods
metical
metis
meto
metodista
metodistas
metodolo
metodologie
metodologies
metraige
metraiges
metralhadoras
metro
metropo
metropolita
metropolitan
metropolitana
metropolitanas
metros
meu
mexicana
mexicanas
mexicano
mexicanos
mexico
meyer
meyerber
mg
mhc
mi
mia
mialhada
miami
mianmar
mias
mic
mica
micas
mice
micenas
michael
michel
michelangelo
michele
michelle
michigan
mickey
mico
micos
micro
microbiol
microndas
microrganismos
microrregion
microsco
microsoft
mid
mida
midas
middle
mide
mides
midlands
mido
midos
mie
miedo
miedos
mielgos
miente
miesmo
mifflin
migne
migrac
migrantes
migrar
migration
migrato
migro
migrou
miguel
mike
mikhail
mikkyo
mil
mila
milagre
milagres
milan
milano
mile
milenar
miles
mileto
milha
milhar
milhares
milhas
milho
milhon
milhones
mili
militantes
militar
militares
military
milk
mill
millenniun
miller
million
milne
milon
milton
mimamsa
mimas
mime
mimo
min
mina
minamoto
minar
minas
mind
mine
mineira
mineiras
mineiro
mineiros
minerac
mineral
minerales
mineralogie
mines
ming
minh
minha
minhas
minho
mini
ministe
minn
minna
minneapolis
minnesota
mino
minor
minoria
minorias
minorie
minories
minorita
minoritairas
minotauro
minsky
mint
minte
mintes
mintira
mintiras
minu
minueto
minute
minutes
minuto
minutos
miny
mio
mios
mir
mira
miradouro
miran
miranda
mirande
mirandela
mirandesa
mirandesas
mirandeses
mirandez
mirando
mirar
mirbeau
miri
mirian
mirinzal
miro
mirror
mirza
mis
miscela
miscigenac
mise
miserable
miserables
miserico
mises
mishima
misri
miss
missa
missas
mission
missiona
missionairo
missionairos
mississippi
misson
missones
missouri
mista
mistas
miste
misteriosa
misteriosas
misterioso
misticismo
misto
mistos
mistura
misturada
misturadas
misturado
misturados
misturan
misturando
misturar
misturas
misturo
mit
mita
mitchell
mitilene
mito
mitolo
mitologie
mitologies
mitos
mitsich
miu
mius
mj
ml
mm
mma
mmajunkie
mn
mnemo
mnras
mo
moaige
mob
mobe
mobelidade
mobelizac
mobement
moben
mobendo
mober
mobi
mobida
mobidas
mobido
mobidos
mobie
mobies
mobimenta
mobimentac
mobimentado
mobimentados
mobimentar
mobimento
mobimentos
mobimiento
mobimientos
mobiu
moble
mobles
moblidade
moblizac
moc
mocidade
moda
modalidade
modalidades
mode
modeficac
model
modelaige
modelar
modelo
modelos
models
moderac
moderada
moderadamente
moderadas
moderado
moderador
moderados
moderar
modern
moderna
modernamente
modernas
modernidade
modernismo
modernista
modernistas
modernizac
modernizar
moderno
modernos
modesta
modesto
modestos
modificac
modificada
modificadas
modificado
modificados
modificar
modifico
modificou
modo
modos
modula
modulac
modular
modules
moeda
moedas
mogadouro
mogol
mogu
mohammad
mohammed
moi
moimenta
moines
moise
moksha
mol
mola
molda
moldada
moldar
molde
moldes
moldura
mole
molecular
moleculares
molie
molino
molinos
mollusca
molotob
molucas
moluscos
mombac
momento
momentos
momiento
momientos
momo
mon
mona
monarca
monarcas
monarquia
monarquias
monarquie
monarquies
monarquista
monarquistas
monaste
monasticismo
monc
mond
monde
mondego
mondin
mondo
mondon
moneda
monedas
monegros
mones
monet
moneta
monetairo
money
monforte
monge
monges
mongo
mongol
mongoles
monic
monismo
monitor
monitoramiento
monitorizac
moniz
monnet
mono
monogatari
monograph
monoide
monoli
monopo
monotei
monroe
monsieur
monson
monstro
monstros
monta
montada
montadas
montado
montador
montados
montaige
montalbo
montalegre
montalvo
montana
montanhas
montanhosas
montante
montar
monte
monteberdi
montebide
monteiro
montemor
montemuro
montenegro
monterey
montes
montesinho
montesquieu
montezuma
montgomery
month
monthly
montijo
montmartre
montou
montre
montreal
monumenta
monumental
monumentales
monumentos
monumiento
monumientos
moon
moore
mor
mora
moraba
morada
moradie
moradies
moradores
moraes
morais
moral
morales
moralidade
moralmente
moran
morando
morar
morcieganos
more
moreau
moreira
moreiruola
morena
moreno
mores
morfemas
morfolo
morfologie
morgan
morgane
morgenstern
mormente
mormon
morning
moro
moronou
morou
morre
morren
morrendo
morrer
morrerie
morri
morrian
morrido
morrir
morris
morrison
morrisse
morriu
morro
morros
morse
mort
morta
mortal
mortales
mortalidade
mortandade
morte
morteiro
morteiros
morti
morton
mortos
mos
mosaico
mosca
moscas
mosco
moscobo
moscow
moshe
mosica
mosse
most
mosteiro
mosteiros
mostra
mostraba
mostrada
mostrado
mostrados
mostran
mostrando
mostras
mostrou
mota
mother
moths
motiba
motibac
motibada
motibado
motibados
motibo
motibos
motibou
motin
motines
motion
moto
motor
motora
motores
motorista
motoristas
motorizados
motors
motric
mountain
moura
mourinho
mouriscas
mourisco
mouriscos
mouro
mouros
mouse
moustapha
movie
mozambique
mozart
mp
mpago
mpagos
mpanos
mpar
mpares
mpb
mpeto
mpf
mpia
mpica
mpicas
mpico
mpicos
mpla
mr
ms
mt
mtb
mu
mubarak
muc
much
muciano
mucosa
muda
mudaba
mudado
mudan
mudanc
mudando
mudar
mudarie
mude
mudo
mudou
muhammad
mui
muita
muitas
muito
muitos
mujahidin
mujer
mukafa
mul
mula
mulas
mulatos
mulhier
mulhieres
mulhiers
muller
mulligan
mulo
mulos
multa
multi
multidon
multidones
multime
multinacional
multinacionales
multipartida
multiplica
multiplicac
multiplican
multiplicar
multiplicidade
multiplico
multirraciales
multiusos
mumadona
mun
munda
mundego
mundi
mundial
mundiales
mundialmente
mundo
mundos
muneci
munecipal
munfuorte
mungo
munheca
munhecas
muni
muniadona
munic
munici
municipal
municipales
municipalidades
municipio
municipios
munido
munique
munster
muntanha
muntanhas
muntanhosa
muntanhosas
muntanhoso
muntanhosos
munte
muntesinho
muolas
muorre
muorta
muortas
muorte
muortes
muorto
muortos
murakami
mural
muralha
muralhas
murc
murcia
murciano
murder
murilo
muro
muros
murray
murtosa
mus
musa
musas
musashi
muscular
museo
museolo
museu
museum
museun
museus
music
musica
musical
musicales
musicalidade
musico
musik
musique
musiqueiro
musiqueiros
mussoleni
mussolini
must
mutac
mutuamente
mw
mwenemutapas
my
myanmar
myeloid
myspace
mystery
myth
mythology
myths
n
na
naan
nabal
nabales
nabarra
nabarro
nabasteroides
nabe
nabega
nabegable
nabegables
nabegac
nabegador
nabegadores
nabegando
nabegar
nabego
nabegou
nabes
nabi
nabio
nabios
nabuco
naby
nac
nace
nacen
nacente
nacentes
nacer
nacera
nacerie
nach
naci
nacia
nacian
nacida
nacidas
nacido
nacidos
nacie
nacimento
nacimiento
nacimientos
nacio
nacion
nacional
nacionales
nacionalidade
nacionalidades
nacionalismo
nacionalista
nacionalistas
nacionalizac
nacionalmente
naciones
naciu
naco
nada
nadar
nadas
nadu
nafta
nagar
nagasaki
nagon
nai
naide
naipe
naked
nalguns
namaka
name
names
nami
nammu
namo
namorada
namorado
namoro
nampula
nan
nana
nanak
nancy
nanhue
nanhun
nanjing
nano
nanos
nanotecnologie
nanquin
nanyang
nao
napoleo
napoleon
napoleonic
naqueilha
naqueilhas
naqueilhes
naqueilho
naquel
nara
narbona
narf
naric
narra
narrac
narrador
narrar
narratiba
narratibas
narratibo
nas
nasa
nasal
nascimento
nash
nassau
nasser
nasu
nat
natac
natal
natales
natalidade
nathan
natiba
natibas
natibe
natibo
natibos
nation
national
nationale
nationes
nations
natl
nato
natura
naturae
natural
naturales
naturaleza
naturalidade
naturalis
naturalismo
naturalista
naturalistas
naturalizado
naturalmente
nature
natureza
naturezas
nau
naubo
naus
nauvoo
navegac
navios
nazare
nazareno
nazarenos
nazi
nazionale
nazis
nazismo
nazista
nazistas
nbc
nc
ncabo
ncaro
ncen
ncepe
ncepes
nchec
nchen
nchez
ncia
ncias
nciau
ncio
ncios
nclo
nclos
ncora
ncrona
nd
ndalo
ndalos
ndalus
ndan
ndaro
ndec
nden
nder
ndez
ndia
ndias
ndice
ndices
ndico
ndido
ndiga
ndio
ndios
ndmc
ndo
ndola
ndole
ndrome
ndula
ndulas
ndulo
ne
nea
neal
near
nearly
neas
nebada
nebado
nebraska
nebre
nebres
nebular
nebulosa
nebulosas
nec
neca
necessa
necessairo
necessairos
necessariamente
necessita
necessitaba
necessitados
necessitan
necessitando
necessitar
necidade
necidades
neckar
necro
ned
nedhan
neerlande
nefertiti
neg
nega
negaba
negac
negada
negado
negan
negando
negar
negatiba
negatibamente
negatibas
negatibo
negatibos
negeb
neglige
nego
negocia
negociac
negociada
negociado
negociar
negocio
negos
negou
negra
negras
negreiro
negri
negrito
negro
negros
nei
neiba
neil
neilha
neilhas
neilhes
neill
neis
nel
nelas
nele
nell
nella
nelson
nembrana
nembro
nembros
nemo
nen
nenhuma
neno
neo
neocla
neoclassicismo
neoli
neologismo
neoplato
neoplatonismo
neos
nepal
nepociano
nepos
neptune
ner
nerba
nerboso
nere
neres
nerlande
nerlandesa
nerlandesas
nerlandeses
nero
neros
neruda
nes
nese
nesis
nessa
nessas
nesse
nesses
nesso
nesta
nestas
neste
nestes
nesto
nestorianismo
net
netanyahu
neto
neton
netuno
network
networks
neue
neumann
neural
neuro
neurocie
neurolo
neurologie
neuronal
neuropreserbac
neuropsicologie
neutra
neutral
neutralidade
neutro
neutrones
neutros
neves
new
newadvent
newman
news
newsletter
newspaper
newton
newtoniana
next
ney
nez
nfase
nfis
ng
nga
ngan
ngara
ngaro
ngaros
ngc
ngel
ngelo
nger
ngie
ngio
ngios
ngis
ngo
ngremes
ngu
ngua
nguas
ngue
nguec
nguen
ngulo
ngulos
nguyen
nh
nha
nhan
nhl
ni
nia
niagara
nias
niassa
nibble
nibe
nibelungo
nible
nibles
nic
nica
nicara
nicaragua
nicas
nice
niceia
niceno
nicho
nicholas
nick
nico
nicola
nicolas
nicolau
nicolaus
nicole
nicolo
nicos
nicotiana
nida
nidas
nides
nie
niebe
niebes
nielismo
niels
nielsen
niemeyer
nien
nieta
nieto
nietos
nietzsche
nig
nige
nigel
nigeriano
night
nigsberg
nihon
nihongo
nikita
nikki
nikolai
nilo
nilsson
nima
nimas
nime
nimo
nimos
nin
nina
ninas
nine
ninfa
ninfas
ninnidh
nino
ninos
nio
niones
nior
nios
nipo
nirbana
nirguna
nis
nisso
nite
nitero
nitidamente
nito
nitobe
nitroge
niu
nius
nix
nixon
njuges
nl
nm
nn
no
noaa
noan
nob
noba
nobarun
nobel
nobela
nobelas
nobelista
nobember
nobembre
nobenta
nobgorod
nobi
nobidade
nobidades
noble
nobre
nobres
nobreza
noc
nocaute
node
nodo
noe
noel
noemi
nogueira
noh
noiba
noibado
noir
noire
noite
nola
noli
noma
nomas
nome
nomeac
nomeada
nomeadamente
nomeadas
nomeado
nomeados
nomeando
nomear
nomeia
nomeinternet
nomenclatura
nomenclature
nomenklatura
nomeou
nomes
nominal
nominalmente
nominatibo
nomo
nomos
non
nona
none
nones
nono
nony
nopcsa
nor
nora
norbert
norberto
nordeste
nordestino
nordestinos
nordiste
norfolk
norma
normal
normales
normalidade
normalizac
normalmente
normalmiente
norman
normanda
normandia
normando
normandos
normas
normatiba
noroeste
noroiste
noronha
norte
north
northern
nortista
nortistas
norton
noruc
noruega
noruegue
norueguesa
noruegueses
norway
nos
nossa
nosso
nostalgie
nostra
not
nota
notabelmente
notable
notablemente
notablemiente
notables
notac
notadamente
notado
notar
notas
note
notes
noti
notices
noticia
noticias
notificac
noto
notoriadade
notoriamente
notou
notre
noturna
noturnas
noturno
noturnos
noubelle
nous
noutra
noutras
noutro
noutros
nouvelle
nouvelles
nova
novas
novel
novela
novels
novembro
novial
novo
now
noza
np
nquo
nr
ns
nsan
nscrita
nscrito
nsia
nsito
nsitos
nsua
nsul
nsula
nsulas
nt
ntan
ntano
ntanos
ntara
ntema
ntemo
ntemos
nten
nterin
ntese
nteses
ntica
nticas
ntico
nticos
ntida
ntima
ntimos
ntios
ntran
ntrica
ntricas
ntrico
ntricos
ntt
ntua
nu
nua
nuas
nubes
nubre
nubres
nubrina
nubrinas
nuclear
nucleares
nucleicos
nue
nueira
nuestra
nueva
nuit
nuite
nuites
nula
nulo
nulos
num
numa
number
numbers
nume
numerac
numeral
numerales
numericamente
numero
numerosa
numerosas
numerosos
numisma
nun
nunca
nunes
nuno
nuns
nuo
nuoba
nuobamente
nuobas
nuobe
nuobecientos
nuobo
nuobos
nuoc
nuolo
nuolos
nuossa
nuossas
nuosso
nuossos
nuozes
nur
nuremberg
nuremberga
nus
nutric
nutrientes
nutritibo
nutrition
nuts
ny
nyman
nz
o
oa
oada
oado
oai
oak
oamiento
oando
oar
ob
oba
obama
obar
obas
ober
oberbiew
obi
obiedo
objects
objeto
oblac
oblast
obra
obras
obres
observations
obsoletos
obulac
oc
oca
ocasion
ocasionalmente
ocasionando
ocasiones
ocasionou
occidental
occita
occitania
ocde
ocea
ocean
oceania
oceanic
ociaa
ocidente
ocio
ocitano
oclc
oclos
oco
ocorra
ocorre
ocorren
ocorrendo
ocorrer
ocorrera
ocorrerie
ocorreu
ocorri
ocorria
ocorrian
ocorrida
ocorridas
ocorrido
ocorridos
ocre
october
oculta
ocultac
ocultar
ocultas
oculto
ocultos
od
odeon
oder
odes
odessa
odibelas
odin
odisse
odisseia
odisseu
odo
odoacro
odos
odyssey
oe
oea
oecd
oeiras
oeste
of
off
office
official
oficial
ofm
oglobo
oh
ohio
oi
oil
ois
oise
oiseaux
oitaba
oito
ojos
ok
okinawa
oklahoma
ol
ola
old
oldest
ole
oleiros
olena
oles
olfato
olga
olhe
oliva
oliveira
olivenza
oliver
olmeca
olmecas
olo
olos
olp
olympia
olympic
olympics
omar
omc
omi
omni
omnia
oms
on
onabe
onabes
onarie
onc
onde
ondulado
ondulato
one
onepage
ones
ong
ongs
oni
online
only
onnami
ono
onoma
ons
onta
ontolo
ontologie
onu
onze
op
ope
open
opep
opera
oportunidade
oposic
ops
or
ora
oraclo
orbita
orbitador
orbital
orbitales
orbitan
orbitando
orbitar
orchestra
orchidaceae
orcs
orde
ordem
ordens
order
orders
ordes
oref
oregon
ores
orfeu
org
orga
organisation
organismo
organismos
organizac
organizado
organization
ori
oriana
orianas
oriano
orianos
orie
origem
origin
original
oristes
orlando
orle
orleanes
ormuc
ornamentac
ornamiento
ornamientos
ornito
oro
orquestra
orquestras
orqui
orsay
ortega
orthodox
ortic
ortodoxia
ortodoxo
ortodoxos
ortogra
ortografie
orton
orwell
os
osa
osaka
osama
osbaldo
oscar
osce
oscilac
oscilan
oskar
oslo
osma
oso
osorkon
osse
ostenta
ostentac
ostentando
ostentar
osterberger
ostrogodos
oswald
oswaldo
ot
ota
otabo
otal
otan
ote
other
otiun
oto
otober
otomana
otomano
otomanos
oton
otras
otros
ots
ottawa
ottheinrichsbau
otto
ottomar
ou
oubar
oubbiamente
oube
oubedece
oubedecen
oubedecendo
oubedecer
oubedie
oubelisco
ouberon
oubi
oubido
oubidos
oubindo
oubinte
oubintes
oubir
oubiu
oubjec
oubjetiba
oubjetibando
oubjetibidade
oubjetibo
oubjetibos
oubjeto
oubjetos
ouboe
oubra
oubras
oubreiro
oubreiros
oubriga
oubrigaba
oubrigac
oubrigada
oubrigadas
oubrigado
oubrigados
oubrigan
oubrigando
oubrigar
oubrigato
oubrigatoriamente
oubrigo
oubrigou
oubserbac
oubte
oubtebe
oubtemos
oubtenc
oubtendo
oubtener
oubtenida
oubtenidas
oubtenidos
oubtenie
oubter
oubtibi
oubtida
oubtidas
oubtido
oubtidos
oubtubo
oubturador
oubus
oubuses
oucas
oucasion
oucasiones
oucea
ouceanie
ouceano
ouceanogra
ouceanografie
ouceanographic
ouceanos
oucidental
oucidentales
oucidente
oucitano
ouclides
ouclidiana
oucorre
oucra
oucraniano
oucranianos
oudic
oufecial
oufeciales
oufecialmente
oufecina
oufecinas
oufender
oufendido
oufensa
oufensas
oufensiba
oufensibas
oufensibo
ouferece
ouferecen
ouferecendo
ouferecer
oufereci
ouferecian
ouferecida
ouferecido
ouferecidos
ouferecie
oufereciu
ouferta
oufertas
ouff
ouffice
oufficial
oufi
ouficial
ouficiales
ouficialmente
ouficina
ouficinas
oufierta
oufrece
oufrecen
oufrecendo
oufrecer
oufreci
oufrecida
oufrecidos
oufrecie
oufreciu
oufrendas
oui
oujetibo
oulesipo
ouli
oulibales
oulibeira
oulibenc
ouliber
ouliga
ouligarquia
ouligarquias
oulimpi
oulimpo
oulinda
oulissipo
oulor
oumenta
oumentaba
oumentada
oumentado
oumentan
oumentando
oumentar
oumento
oumentou
oumiento
ouneficac
ouneficar
ouni
ounib
ounibersal
ounibersales
ounibersalidade
ounibersalista
ounibersalizac
ounibersalmente
ouniberse
ounibersidad
ounibersidade
ounibersidades
ounibersita
ounibersitairo
ounibersitairos
ouniberso
ounida
ounidade
ounidades
ounidas
ounido
ounidos
ounien
ounificac
ouniforme
ouniformemente
ounindo
ounion
ouniones
ounir
ouniu
oup
ouparac
oupc
oupen
oupenion
oupeniones
oupera
ouperac
ouperacional
ouperacionales
ouperado
ouperador
ouperadores
ouperados
ouperairo
ouperando
ouperar
ouperatibo
ouperating
ouperation
oupi
oupin
oupinion
oupo
oupondo
oupone
ouponente
ouponentes
oupor
oupores
ouportunidade
ouportunidades
ouposic
oupositores
ouposta
oupostas
ouposto
oupostos
oupportunity
oupresson
ouprimidos
oupunha
oupunhan
oupus
oupusi
our
oura
ourac
ouracle
ourador
ourago
oural
ourales
ouralmente
ourange
ourano
ourar
ourato
ourban
ourbana
ourbanas
ourbani
ourbanismo
ourbanizac
ourbano
ourbanos
ourc
ourdena
ourdenaba
ourdenac
ourdenada
ourdenadas
ourdenado
ourdenados
ourdenamiento
ourdenanc
ourdenando
ourdenar
ourdenha
ourdenou
ourder
ourdina
ourdonho
oure
ouregin
ouregina
oureginada
oureginado
oureginal
oureginales
oureginalidade
oureginalmente
oureginando
ouregines
ouregino
oureginou
oureilha
oureilhas
ourense
ourg
ourga
ourganismo
ourganismos
ourganiza
ourganizac
ourganizacional
ourganizacionales
ourganizada
ourganizadas
ourganizado
ourganizador
ourganizadores
ourganizados
ourganizando
ourganizar
ourganizo
ourganizou
ourgenc
ourgonha
ourgrama
ourguinhones
ourgulho
ouribes
ouribesarie
ourienta
ourientac
ourientada
ourientadas
ourientado
ourientados
ouriental
ourientales
ourientan
ourientar
ourientation
ouriente
ourientou
ourige
ouriges
ourigin
ourigina
ouriginada
ouriginado
ouriginairo
ouriginairos
ouriginal
ouriginales
ouriginalidade
ouriginalmente
ourigines
ourigino
ouriginou
ourinoco
ourion
ourique
ouriunda
ouriundas
ouriundo
ouriundos
ourixa
ouriya
ouro
ourobison
ouropa
ourope
ouropean
ouropeia
ouropeias
ouropeu
ouropeus
ouros
ourquestra
ourtodoxa
ourtodoxas
ourtodoxo
ourtodoxos
ourtogra
ourtografie
ous
ousa
ousaba
ousada
ousadas
ousado
ousados
ousando
ousar
ouscura
ouscuro
ouse
ouserba
ouserbaba
ouserbable
ouserbac
ouserbada
ouserbadas
ouserbado
ouserbador
ouserbadores
ouserbados
ouserban
ouserbando
ouserbar
ouserbationes
ouserbato
ouserbatory
ouserbe
ouserber
ouserbo
ouserbou
ousesson
ousidiana
ouso
ousoletos
ousou
oustaclo
oustaclos
oustante
oustra
oustraliana
oustraliano
out
outa
outar
outarquia
outarquias
outbreak
oute
outeiro
outeli
outelidade
outeliza
outelizaba
outelizac
outelizada
outelizadas
outelizado
outelizador
outelizadores
outelizados
outelizan
outelizando
outelizar
outelizo
outelizou
outelo
outenticamente
outenticidade
outhor
outhorlink
outilizada
outilizado
outilizados
outilizan
outimismo
outimista
outimizac
outing
oution
outismo
outo
outobiogra
outobiografie
outobiography
outoce
outoconscie
outocra
outocracie
outodidata
outogeston
outoma
outomac
outomano
outomata
outomaticamente
outomobili
outomoble
outomobles
outonho
outono
outonomamente
outonomie
outor
outora
outorales
outores
outorga
outorgada
outorgou
outoria
outoridade
outoridades
outorie
outorita
outoritarismo
outorizac
outorizada
outorizado
outorizados
outorizou
outos
outou
outra
outras
outro
outrora
outros
outubre
outubro
ouxidac
ouxidante
ouxige
over
owen
oxford
oxige
oyakhilome
p
pa
pabie
pabilhon
pabimientos
pablo
pac
pace
pacheco
paci
paciente
pacientes
pacific
pacificac
pacificamente
pacifismo
pacifista
pacifistas
pack
pacote
pacotes
padding
padrasto
padre
padres
padrino
padro
padroeira
padroeiro
padron
padrones
padronizac
padronizada
paes
pag
paga
pagaba
pagamiento
pagamientos
pagan
pagana
paganas
pagando
paganismo
pagar
pagas
page
pagename
pages
pagina
pago
pagon
pagones
pagos
pagou
pahlabi
pai
paiba
paideia
paigc
paine
painel
painting
paio
pais
paisagi
paisagismo
paisaige
paisaiges
paises
paiva
paixarina
paixarinas
pak
pal
pala
palabra
palabras
palac
palacio
paladar
palas
palatina
palatinado
palatino
palatinus
palavra
palavras
palazzo
palco
palcos
paleo
paleoli
paleonto
paleontologie
palermo
palestina
palestine
palestinian
palestino
palestinos
palgrave
palha
palhac
palhestra
palhestras
palheta
palhetas
pali
palma
palmares
palmas
palmeira
palmela
palmer
palmira
palo
palomba
palombos
palos
palumbar
palus
pampa
pampas
pampilhosa
pamplona
pamuk
pan
panama
pandemia
pandemie
pane
panegi
panela
paneni
panes
panfleto
panfletos
panho
panhos
panjabe
panjabi
panleucopenia
pano
panora
panorama
pantanal
pantei
panteon
pantheon
paoli
paolo
papa
papado
papagaio
papagaios
papai
papal
papales
papas
pape
papel
paper
paperback
papers
papiro
papiros
papua
paquistan
paquiston
par
para
parabielh
parabo
parada
paradas
parade
paradela
paradigma
paradigmas
paradigms
parado
parados
paradoxalmente
paradoxo
paradoxos
paraense
paraenses
paraguai
paraguaia
paraguaios
paraguay
paraguaya
parai
paraige
paralela
paralelamente
paralelas
paralelismo
paralelo
paralelos
paramelitares
paramount
parana
paranaense
parando
parano
parar
parasitas
parceira
parceiro
parceiros
parcela
parcelas
parcerie
parceries
parcial
parciales
parcialmente
pardo
pardos
pare
parec
parece
parecenc
parecendo
parecer
pareceres
pareci
parecian
parecida
parecidas
parecido
parecidos
parecie
pareciu
parede
paredes
parentesco
pares
paresiense
parhan
pari
paridade
paridades
pariente
parientes
paris
parisiense
park
parker
parlamentar
parlamentares
parlamentarismo
parlamentarista
parlamento
parlamiento
parlamientos
parma
parme
paro
paroquial
paros
parou
parque
parques
parracha
parro
parses
parsifal
parsing
parsuk
part
parta
parte
parteci
partecipa
partecipac
partecipado
partecipando
partecipante
partecipantes
partecipar
partecipo
partecipou
parten
partenon
partes
parti
partic
partici
participa
participac
participado
participan
participando
participar
participo
participou
particle
particular
particulares
particularidade
particularidades
particularmente
partida
partidairos
partidas
partido
partidos
partie
partilha
partilhado
partilhan
partindo
partir
partiran
partito
partitura
partituras
partiu
parto
partos
party
pas
pascal
pascoal
pasquale
passa
passaba
passada
passadas
passado
passados
passageiros
passaige
passaiges
passan
passando
passaporte
passar
passara
passarian
passarie
passasse
passassen
passatempo
passe
passear
passeio
passeios
passible
passibles
passibo
passibos
passion
passo
passos
passou
past
pasta
pastaiges
paste
pasteur
pasteurizac
pastor
pastora
pastoral
pastoreio
pastores
pastoril
pat
pataca
patacas
patago
patamar
patanjali
patas
patata
pate
patente
patenteia
patentes
paterna
paternidade
paterno
path
pathfinder
patines
pato
patolo
patologie
patologies
patra
patri
patria
patriarca
patriarcado
patriarcal
patriarcas
patricia
patrick
patrimo
patrimonho
patrimonial
patrimonio
patrio
patriotismo
patroci
patrocina
patrologia
patron
patrona
patronato
patrones
patroni
patrono
patronos
patrulha
patta
paul
paula
paulatinamente
pauli
paulina
pauline
paulino
paulista
paulistas
paulo
paulus
pausa
pauta
pax
paxarina
pay
pays
paz
pb
pbp
pc
pcb
pcc
pcia
pcias
pcio
pcios
pcp
pcs
pdf
pdpa
pds
pdt
pe
peace
peano
pearl
pearson
pec
pecado
pecados
pecotche
pecua
peculiar
peculiares
peculiaridades
pedac
pedago
pedagogie
pedamiego
pedamiegos
pede
peden
pedes
pedestre
pedestres
pedi
pedian
pedida
pedido
pedidos
pedie
pedindo
pedir
pediran
pediu
pedreira
pedreiras
pedro
pega
pegar
pegasus
pego
pegou
pei
peijoratibo
peinha
peinhas
peirce
peito
peixe
peixes
peixon
peixones
peixoto
pela
pelaige
pelas
pelayo
peli
pelicano
peligro
peligros
peligrosa
peligrosas
peligroso
peligrosos
pelle
pelo
peloponeso
pelos
pelourinho
pelourinhos
peluso
pen
pena
penacoba
penafiel
penaguion
penal
penalba
penalidades
penas
pence
pendentes
pendioso
pendular
pendurados
peneda
penedo
penedono
penetra
penetrac
penetrando
penetrar
penetro
penetrou
penguin
penhascos
peni
peninsula
peninsular
peninsulares
penite
penny
penrose
pensa
pensaba
pensado
pensador
pensadores
pensados
pensamento
pensamiento
pensamientos
pensan
pensando
pensar
pense
pensilba
penso
penson
pensones
pensou
penta
pentateuch
pentateuco
pentecostais
pentecostal
pentecostales
pentecostalismo
pentecostes
penu
peon
peones
people
pepino
pequeinha
pequeinhas
pequeinho
pequeinhos
pequin
per
pera
perante
peras
perca
perce
percebe
percebendo
perceber
percebi
percebida
percebidas
percebido
percebiu
percentaige
percentual
percepc
percetible
perci
percibal
percipado
percipal
percipales
percipalmente
percipalmiente
percisa
percisaba
percisamente
percisamos
percisan
percisar
percisarie
percisas
perciso
percison
percisos
percisou
percorre
percorren
percorrer
percorreu
percorrian
percu
percunceito
percura
percuraba
percurada
percuradas
percurado
percurador
percurados
percuran
percurando
percurar
percuro
percurou
percurso
percursos
percusson
percussones
percy
perda
perdas
perde
perden
perdendo
perder
perdera
perdi
perdic
perdida
perdidas
perdido
perdidos
perdie
perdiu
perdo
perdoado
perdoar
perdon
perdura
perdurou
perduto
perdutor
perdutora
perdutoras
perdutores
perdutos
pere
perec
pereci
peredo
peregrinac
peregrino
peregrinos
pereira
perene
perenes
peres
perestroika
perfeic
perfere
perfet
perfil
performance
performances
perfunda
perfundamente
perfundas
perfundezas
perfundidade
perfundo
perfundos
perfurac
perfurado
perfurados
pergaminho
pergamino
peri
perie
perife
periferie
perio
period
periodicamente
periodicidade
periodizac
peripate
peritos
perjui
perkeo
perl
permane
permanec
permanece
permanecen
permanecendo
permanecer
permanecera
permanecerie
permaneci
permanecian
permanecido
permanecie
permaneciu
permanente
permanentemente
permanentes
permeada
permisson
permitan
permite
permiten
permitian
permitida
permitido
permitidos
permitie
permitindo
permitir
permitira
permitiran
permitirian
permitirie
permitirieb
permitisse
permitiu
pernambucana
pernambuco
pernas
pernu
pernuncia
pernunciado
pernunciar
pero
perparac
perpe
perpendicular
perpendiculares
perpo
perposic
perpuosta
perpuostas
perpuosto
perrault
perro
perros
perry
persa
persas
perse
perseguic
perseguido
perseguidos
perseguir
perseguiu
persenc
persent
persente
persentemente
persentes
perserbar
perseu
perseus
persian
perside
persidencia
persidencial
persidenciales
persidencialismo
persidencialista
persident
persidente
persidentes
persiste
persistiu
perso
person
persona
personaige
personaiges
personal
personalidade
personalidades
personas
personificac
persos
perspetiba
perspetibas
perspetibe
perspetibes
perspicac
persuadiu
persuason
persunto
pert
perta
pertai
pertando
pertar
perte
pertenc
pertence
pertencen
pertencendo
pertencente
pertencentes
pertencer
pertences
pertenceu
pertenci
pertencia
pertencian
pertencie
pertene
pertenece
perto
pertou
pertual
pertue
pertues
pertuesa
pertuesas
pertuese
pertueses
perturbac
perturbado
peru
perugino
pesa
pesaba
pesada
pesadamente
pesadas
pesadelo
pesado
pesados
pesar
pesas
pesca
pescado
pescador
pescadores
pese
peso
pesos
pesqueira
pesquisa
pesquisador
pesquisadores
pesquisados
pesquisar
pesquisas
pessanha
pessimismo
pessimista
pessoa
pessoal
pessona
pessonal
pessonales
pessonalmente
pessonas
peste
pesticidas
pet
petener
peter
petersburg
petersburgo
peterson
petic
petit
peto
petrarca
petri
petro
petrobras
petrogrado
petroli
petrologie
petroqui
pez
pfalc
pg
pgs
ph
phane
phd
phelip
phelipp
phelippe
phelips
phil
philippe
philippines
phillips
philo
philos
philosopher
philosophiae
philosophical
philosophie
philosophy
photo
photos
php
phragmipedium
phtml
phu
phylogenetic
phylogeny
physical
physics
physik
physis
pi
pia
piadade
piadas
piaget
pianho
piani
pianista
pias
piaui
piazzi
pib
pic
pica
picada
picas
picasso
pice
pico
picos
picote
picuote
pid
pida
pidal
pidas
pide
pides
pidgin
pido
pidos
pie
piec
piece
piedade
piede
piedoso
piedra
piedras
piel
piels
pier
piernas
piero
pierre
pies
pieta
pietro
pigmiento
pigmientos
pilar
pilatos
pilha
pilhaige
pilhaiges
pilho
pilon
pilotar
piloto
pilotos
pimentel
pin
pina
pindo
ping
pinga
pingala
pingas
pinguines
pinhal
pinheiro
pinheiros
pinho
pinhon
pino
pinta
pintada
pintadas
pintado
pintados
pintar
pintassilbo
pinto
pintor
pintora
pintores
pintou
pintura
pinturas
pinyin
pio
pioneer
pioneira
pioneiro
pioneiros
pioner
pior
piora
piorar
piores
piorou
pios
piosbr
piotr
pipas
piper
pipoca
pira
piracicaba
pirata
piratarie
piratas
pirates
piratininga
pirene
pires
pirineus
pisa
pisano
pisanos
piscina
piscinas
piso
pisos
pissarro
pista
pistas
pistola
pistolas
pita
pitago
piter
pito
pitures
piu
pizza
pl
pla
placa
placas
place
places
plan
plana
planaltina
planck
planeada
planeadas
planeado
planeamiento
planear
planeijada
planeijado
planeijados
planeijamiento
planeijar
planeijou
planejo
planet
planeta
planetairo
planetairos
planetary
planetas
planeto
planets
plani
planice
planices
planificac
planitie
planning
plano
planos
plant
planta
plantac
plantado
plantae
plantarun
plantas
plantio
plants
planun
plasma
plata
plataforma
plataformas
plateau
plateia
platina
plato
platon
platonismo
platt
play
player
players
plays
plaza
please
plebe
plebeus
plebiscito
plec
plena
plenamente
plenitude
pleno
plenos
pli
plica
plicas
plice
plotino
plubiome
plubiosidade
plural
plurales
pluralidade
plus
plutarco
pluto
plutoide
pluton
plutonho
plymouth
pm
pmdb
pmid
pnb
pneumonia
png
pnud
po
pobac
poblac
poblado
pobo
poboac
poboada
poboadas
poboado
poboadores
poboados
poboamiento
poboar
pobos
pobre
pobres
pobreza
poc
poca
pocahontas
pocas
pocket
podcast
pode
podemos
podendo
poder
podera
poderemos
poderes
poderian
poderie
poderiemos
poderien
poderio
poderosa
poderosas
poderoso
poderosos
podes
podi
podie
podien
podisse
poe
poeira
poema
poemas
poems
poente
poesi
poesia
poesie
poesies
poet
poeta
poetas
poetisa
poetry
poets
pohl
poiares
poincare
point
poitiers
pokemon
poker
pokerstars
pol
polaca
polaco
polacos
polar
polareda
polares
polarizac
pole
polegadas
polegar
poles
poli
polias
police
policial
policiales
policleto
policy
polida
polido
poliestireno
polietileno
polifonia
poline
polino
polinomial
poliomielite
polis
polite
politei
politica
political
politicamente
politics
pollitt
pollock
polo
polonesa
poloneses
polos
polpa
poluentes
polui
poluic
pomera
pomo
pompeu
pon
ponce
pondo
pone
ponen
ponendo
poner
ponga
poni
ponibelidade
ponibeliza
ponible
ponibles
ponta
ponte
pontebedra
ponteiro
ponthus
ponti
pontiac
pontifi
pontificado
ponto
pontuac
pontual
pontuales
pop
pope
popinsee
popolare
popolo
popper
populac
populacional
populacionales
popular
populares
popularidade
popularizac
popularizar
popularizou
popularmente
populated
population
populationes
populista
populosa
populosas
populoso
populosos
popup
poque
por
porbabelidade
porbabelidades
porbabili
porbablemente
porbablidade
porbi
porbinc
porblema
porblemas
porblems
porblen
porbocar
porboco
porc
porca
porcedimientos
porcelana
porcessamiento
porcesso
porcessoa
porcessos
porcissones
porclamac
pordu
porduc
pordutebidade
pordutiba
pordutibas
pordutibidade
pordutibo
pordutibos
pordution
porduto
pordutor
pordutores
pordutos
porduzen
porduzi
porduzia
porduzian
porduzida
porduzidas
porduzido
porduzidos
porduzindo
porduzir
porduziran
porduziren
porduziu
pore
poren
porfessional
porfeta
porfetas
porfi
porfissional
porfissionales
porfisson
porfissones
porgrama
porgramable
porgramac
porgramado
porgramador
porgramadores
porgramar
porgramas
porgramme
porgramming
porgran
porgresso
porjet
porjetada
porjetadas
porjetado
porjetados
porjetar
porjetista
porjeto
porjetos
porjetou
pormenor
pormenores
pormober
pormoc
porno
pornogra
porpagac
porporc
porporcional
porpulson
porque
porquei
porriba
porsor
porsora
porsores
port
porta
portador
portadora
portadores
portal
portalegre
portanto
portar
portarie
porte
portec
porteger
portegidas
portela
portestantismo
portestos
portiba
portibas
portibo
portibos
porto
portocolo
porton
portones
portos
portrait
portua
portucale
portucalense
portugal
portugue
portuguesa
portuguesas
portuguese
portugueses
posic
posiciona
posicionado
posicional
posicionamiento
posicionar
positiba
positibamente
positibas
positibismo
positibo
positibos
position
posix
posou
posse
posses
possesson
possessones
possibelidade
possibelidades
possibelita
possibelitando
possibelitar
possibilidade
possible
possiblemente
possibles
possiblidade
possiblidades
possiblitando
possiblito
possiblitou
possua
possuan
possuen
possui
post
posta
postal
postales
postas
posteridade
posteriomente
posterior
posteriores
posteriormente
postos
postulados
postumamente
postura
posturas
pot
pota
potable
pote
potencial
potenciales
potencialidades
potencialmente
potente
potentes
potes
potismo
potomac
pouca
poucas
pouco
poucos
poulo
pound
pouqui
pour
pousa
pousar
pouso
pousou
povo
povos
powell
power
powers
pp
ppa
ppc
ppen
ppp
pr
pra
prac
pradaries
pradesh
prado
prados
praga
pragas
pragma
pragmatismo
praia
praias
praina
prainada
prainadas
prainas
praino
prainos
prata
prates
pratica
praticaba
praticada
praticadas
praticado
praticados
praticamente
pratican
praticando
praticante
praticantes
praticar
pratice
praticou
prato
pratos
pratzen
prazer
prazeres
prazo
prazos
pre
preacupac
preacupada
preacupado
preacupados
prealpes
prebale
prebalece
prebalecer
prebaleciu
prebalence
prebe
prebenc
prebendo
prebenir
preber
prebia
prebiamente
prebide
prebile
prebilegiada
prebilegiado
prebison
prebisones
prebista
prebisto
prebiu
prec
preca
precauc
prece
precede
precedendo
precedente
precedentes
precedi
precedida
precedido
precediu
preceitos
preces
precetor
preciosa
preciosas
precioso
preciosos
precipitac
precoce
preconceito
preconceitos
precursor
precursora
precursoras
precursores
predador
predadores
predecessor
predecessores
predefenic
predefinic
predezir
predic
predition
predomi
predomina
predominan
predominante
predominantemente
predominantes
pref
prefa
prefeito
prefeitos
prefeitura
prefeituras
prefere
preferencialmente
preferian
preferida
preferidas
preferido
preferidos
preferie
preferindo
preferir
preferiu
prefi
prefire
prefixo
prefixos
prega
pregaba
pregac
pregada
pregado
pregadores
pregar
pregou
preguic
pregunta
preguntado
preguntando
preguntar
preguntas
pregunto
preguntou
prejudicados
prejudicar
prejudicial
prejudiciales
prejui
prelados
preliminar
preliminares
preliminary
prelu
premanente
prematura
premeio
premetindo
premetir
premetiu
premi
premiac
premiada
premiado
premiados
premier
premio
premios
premissa
premissas
premita
premite
premitido
premitie
premitindo
premitir
premitiu
prencher
prenchido
prencipado
prende
prender
prenha
prensa
prentice
preocupa
preocupaba
preocupac
preocupado
preocupados
preocupar
prepara
preparaba
preparada
preparadas
preparado
preparados
preparando
preparar
preparatibos
preparo
preparou
preponderante
preposic
prerrogatiba
prerrogatibas
presa
presas
presbi
presbiteriana
presbiterianos
presburger
prescott
prese
presenc
presente
presentes
preserba
preserbac
preserbada
preserbadas
preserbado
preserbados
preserbando
preserbar
preserbatibo
preserbatibos
preside
presidente
presidida
presidido
presidir
presidiu
presioneiro
presioneiros
presley
preso
presos
press
pressionado
pressionar
presson
pressones
pressupone
pressuposto
pressupostos
presta
prestac
prestado
prestados
prestar
presti
prestigiada
prestigiadas
prestigiado
prestigiados
prestigioso
prestou
presume
presumibelmente
presumiblemente
preta
pretas
prete
pretende
pretenden
pretendendo
pretendente
pretendentes
pretendia
pretendian
pretendido
pretendie
pretendiu
pretenson
pretensones
pretesto
preto
prezando
prezible
prezo
pri
pria
pribac
pribada
pribadas
pribado
pribados
pribate
pribatizac
pribile
pribilegiada
pride
priessa
priessas
prima
primabera
primado
primairo
primairos
primariamente
primary
primas
primatas
primavera
primazie
prime
primeira
primeiro
primeiros
primer
primera
primitiba
primitibamente
primitibas
primitibo
primitibos
primo
primoge
primordial
primordiales
primordialmente
primos
prince
princepico
princeps
princesa
princess
princeto
princeton
princi
principados
principal
principalmente
principia
principio
principles
print
printsec
prior
priori
prioridade
prioridades
prisciano
prisco
prisioneiro
prisioneiros
prisma
prison
prisones
priste
pristes
privile
prix
prize
pro
proba
probabelmente
probable
probablemente
probablemiente
probables
probada
probado
probando
probar
probas
probe
probedor
probeito
probenc
probeniente
probenientes
prober
probes
probida
probide
probidencia
probido
probincial
probinciales
probinha
probiso
probison
probisones
probisoriamente
problem
probo
proboca
probocaba
probocada
probocadas
probocado
probocados
probocan
probocando
probocou
probou
proc
proca
proce
procede
procedente
procedentes
proceder
procedimiento
procedimientos
procedings
procediu
procedural
process
processada
processado
processador
processadores
processados
processamiento
processar
processing
processo
procisson
procissones
proclama
proclamac
proclamada
proclamado
proclamando
proclamar
proclamo
proclamou
proco
procriac
prodi
produc
production
produtibidade
produto
produtor
produtos
produzido
produzidos
produzindo
produzir
produziu
proeminente
proeminentes
proeza
prof
profana
profano
profe
profecie
profecies
professa
profeta
profetas
profetizado
profile
profissional
profissionales
profisson
profissones
program
programa
progrediu
progress
progressiba
progressibamente
progressibo
progressista
progressistas
progresso
progresson
progressos
progymnasmata
proi
proiadade
proiadades
proibia
proibic
proibida
proibidas
proibido
proibidos
proibindo
proibir
proibiran
proibiu
proje
projec
project
projeto
prol
prole
proleta
proletariado
proli
proliferac
prolog
prolonga
prolongada
prolongado
prolongamiento
prolongar
prolongou
promessa
promessas
promete
prometendo
prometida
prometido
prometiu
promobe
promoben
promobendo
promober
promobi
promobida
promobidas
promobido
promobidos
promobiu
promoc
promonto
promotor
promulgac
promulgada
promulgado
promulgou
pronomes
pronta
prontamente
pronto
prontos
pronu
pronuncia
pronunciac
pronunciada
pronunciado
pronunciou
propagac
propaganda
propagar
propelente
properties
propi
propiadade
propiadades
propiamente
propiata
propiatairo
propiatairos
propicia
propiciou
propiedade
propieta
propo
propondo
propone
proponen
propor
proporc
proporciona
proporcionada
proporcionado
proporcional
proporcionalmente
proporcionan
proporcionando
proporcionar
proporcionou
proposic
proposta
proposto
propostos
propulsion
propulson
propulsora
propulsoras
propulsores
propunha
propusi
propuso
prosa
prosas
proselitismo
prospec
prosperar
prosperidade
prospero
prosperou
prossegue
prosseguindo
prosseguir
prosseguiran
prosseguiu
prossimidade
prossimidades
prostituic
protagonista
protagonistas
protec
protecionistas
protege
protegendo
proteger
protegida
protegidas
protegido
protegidos
protei
protestante
protestantes
protestantismo
protesto
protestos
protetor
protetora
protetorado
protetores
protiu
proto
protocolo
protocolos
protozoa
proua
proudhon
proust
provavelmente
provi
pru
prude
prudente
pruma
prumas
prussiana
prussianas
prussiano
prussianos
pryor
ps
psam
psb
psd
psdb
pseudo
pseudobulbos
psi
psicana
psicanali
psicanalista
psico
psicode
psicolo
psicologie
psicoterapie
psique
psiquia
psiquiatra
psiquiatria
psula
psychological
psychology
pt
ptb
ptierra
ptolemiu
ptolomeu
ptolomiu
ptre
pu
pub
puberdade
public
publica
publicaba
publicac
publicada
publicadas
publicado
publicados
publicamente
publican
publicando
publicar
publication
publicationes
publications
publicidade
publicita
publico
publicou
published
publishers
publishing
puc
pudo
puebla
pueblos
puente
puerta
puerto
puis
pul
pula
pular
pulas
pulgas
pulgones
pulmon
pulo
pulos
puls
pulso
pumienta
punch
punha
punhado
punhan
punic
punido
punidos
punie
punir
punirun
punk
punt
punta
puntas
punto
puntos
puoda
puodamos
puodan
puode
puoden
puodo
puolo
puonte
puontes
puorta
puortas
puosta
puostas
puosto
puostos
pura
puramente
purana
puranas
puras
pureza
purfeita
purfeitamente
purfeito
purfeitos
purgato
purificac
purificar
puritana
puritanos
purma
purmariamente
purmeira
purmeiramente
purmeiras
purmeiridade
purmeiro
purmeiros
purmonie
puro
puros
purparado
purparar
pursidente
pus
pushkin
puso
puta
putada
putadas
putado
putados
putan
putar
putas
putin
putou
puxado
px
pythagoras
python
q
qa
qaeda
qasi
qatar
qdmmodelo
qi
qian
qin
qing
qiu
qquad
qu
qua
quadra
quadrada
quadrado
quadrados
quadrangular
quadrante
quadrantes
quadras
quadratura
quadrinhos
quadro
quadros
quaije
quaijeque
quais
qual
quales
qualesquier
qualesquiera
qualidade
qualidades
qualificac
qualificado
qualificados
quality
qualquier
qualquiera
quan
quando
quanta
quantas
quantidade
quantidades
quantie
quantificador
quantificadores
quantitatibas
quanto
quantos
quantun
quarenta
quaresma
quarks
quarta
quartas
quarte
quartel
quarterly
quarteto
quartetos
quarto
quartos
quartzo
quatorze
quatre
quatro
quatrocientos
quattro
quattrociento
que
quebec
quebra
quebrado
quebrando
quebrar
quebrou
queda
quedaba
quedado
quedan
quedando
quedar
quedara
quedarian
quedarie
quedas
quedasse
quedassen
quedava
quede
queden
quedistas
quedo
quedou
queen
quei
queima
queimada
queimadas
queimado
queimados
queimando
queimar
queimo
queimou
queiro
queiroz
queiso
queisos
queixa
queixas
quejir
quejiren
quejirun
quejisse
quel
quela
quelas
quele
queles
quelimane
quelo
quelonial
queloniales
quelonialismo
quelonizac
quelonos
quelor
quelores
quelorida
queloridas
quelorido
queloridos
quelunas
queluobra
quem
quemandada
quemandante
quemando
queme
quemido
quemidos
quemum
quemumente
quemummente
quemun
quemuna
quemunal
quemunas
quemunes
quemunhon
quemunica
quemunicac
quemunicado
quemunican
quemunicar
quemunicou
quemunidade
quemunidades
quemunismo
quemunista
quemunistas
quemunita
quemunitairo
quemuns
quen
quenhientos
quental
quer
querela
queremos
querendo
querer
querga
querida
querido
querie
querien
query
quest
question
questiona
questionada
questionado
questionamiento
questionamientos
questionan
questionar
questiones
queston
questones
questu
questuma
questumaba
questuman
questume
questumes
quete
quetes
qui
quia
quias
quibir
quic
quica
quico
quida
quido
quidos
quien
quier
quieren
quiero
quijo
quila
quilo
quilogramas
quilos
quina
quinas
quinase
quinta
quintal
quintana
quintas
quinto
quintos
quinze
quio
quios
quioto
quito
quixote
quo
quoc
quociente
quod
quon
quota
quotas
quotation
quotidiana
quotidiano
r
ra
rabe
rabelo
rabena
rabenna
rabes
rabi
rabin
rabino
rabinos
rabisco
rabiscos
rable
rabo
rac
race
racemulosa
races
rachele
racial
raciales
racine
racioci
racional
racionales
racionalidade
racionalismo
racionalista
racionalizac
racismo
racista
racistas
racles
rada
radadeira
radadeiras
radadeiro
radadeiros
radar
radares
radiac
radial
radialista
radiante
radicado
radical
radicales
radicalismo
radicalmente
radio
radiodifuson
radiofo
radiofreque
radioquemunicac
rae
raem
raf
rafael
rai
raia
raias
raic
railway
raimundo
rainha
rainhas
raio
raios
raizes
raja
rajadas
rajaston
ral
rala
ralas
raleigh
ralo
ralos
ralph
ram
rama
ramalhete
ramalho
ramana
ramanuja
ramanujan
ramayana
rami
ramificac
ramiro
ramo
ramon
ramos
ran
rancho
rand
randon
randy
ranking
rankings
rap
rapac
rapadura
rapaza
rapazas
rapazes
rape
raphael
rapidamente
rapidec
rapids
raposa
raposo
rapso
raquel
raramente
rari
raridade
rascunhos
rasgos
rashtrapati
rastro
rat
rata
rate
rateliff
rates
ratico
ratificac
ratificado
ratifico
ration
rato
ratos
rature
ratzel
ratzinger
rau
raul
raw
ray
rayder
raymond
razies
razoable
rbaras
rbaro
rbaros
rbela
rben
rbia
rbio
rbios
rbita
rbitas
rbitro
rboles
rbolo
rbs
rc
rcan
rcega
rcia
rcio
rcios
rcito
rcitos
rclo
rclos
rcules
rculo
rd
rdan
rden
rdene
rdia
rdica
rdico
rdicos
rdie
rdios
rdoba
re
rea
reabastecimiento
reac
reaciona
read
reader
reading
readings
reafirmar
reafirmou
reagan
reagir
reagiu
reais
real
reales
reanimac
reanimamiento
reas
reatores
reb
rebanche
rebatizada
rebe
rebela
rebelaba
rebelac
rebelada
rebeladas
rebelado
rebelados
rebelan
rebelando
rebelar
rebelde
rebeldes
rebelion
rebeliones
rebelo
rebelou
reber
rebere
reberencia
rebersa
reberso
rebestido
rebestimientos
rebibir
rebiew
rebiews
rebindica
rebindicac
rebindicar
rebisada
rebised
rebisionismo
rebison
rebisones
rebista
rebistas
rebiste
rebisto
rebitalizac
reblion
rebliones
rebo
rebocado
rebolta
reboltas
rebolto
reboltosos
reboluc
reboluciona
rebolucionairo
rebolucionairos
rebolucionou
rebolution
rebordo
rebro
rebros
rebue
rebuolta
rebuoltas
rec
recai
recaredo
rece
recebe
recebi
recebida
recebidas
recebido
recebidos
recebie
recebien
recebimiento
recebindo
recebir
recebira
recebirie
recebiu
receio
receita
receitas
recenseamento
recenseamiento
recent
recente
recentemente
recentes
recepc
recesson
recetor
recetores
rechac
reci
recibe
reciclaige
recife
recifes
recinto
reciprocidade
recitac
recitar
reclama
reclamaba
reclamac
reclamando
reclamar
reclamou
recluson
reco
recoincer
recoincida
recoincidas
recoincido
recoincidos
recoincimiento
recoinciu
recolha
recolher
recolheu
recolhida
recolhidas
recolhido
recolhidos
recolhimiento
recombinac
recomec
recomenda
recomendac
recomendado
recomendou
reconceliac
reconciliac
reconhe
reconhec
reconhece
reconhecedores
reconhecen
reconhecendo
reconhecer
reconheci
reconhecian
reconhecibles
reconhecida
reconhecidas
reconhecido
reconhecidos
reconhecie
reconhecimento
reconhecimiento
reconheciu
reconquista
reconquistada
reconstruc
reconstrui
reconstruir
reconstruiu
record
recorda
recordac
recordar
recorde
recordes
recording
records
recorre
recorrendo
recorrente
recorrer
recorreu
recorte
recreac
recreatiba
recreatibas
recreatibo
recreio
recria
recriar
recruta
recrutados
recrutamiento
recrutar
recuar
recumpensa
recumpensada
recumpensado
recumpensas
recumpilac
recunciliac
recunquista
recunquistar
recuo
recuolha
recuou
recupera
recuperac
recuperada
recuperado
recuperados
recuperando
recuperar
recupero
recuperou
recursebidade
recursiba
recursibas
recurso
recursos
recusa
recusaba
recusada
recusado
recusan
recusando
recusar
recuso
recusou
recustruc
red
redac
redadeira
redadeiras
redadeiro
redadeiros
redator
rede
redemocratizac
redemoinhos
redenc
redentor
redes
redetb
redi
redic
redigida
redigidas
redigido
redigiu
redir
reditado
redonda
redondas
redondezas
redondo
redondos
redor
redror
reduc
reducionista
redunda
redundantes
reduto
reduzen
reduzia
reduzida
reduzidas
reduzido
reduzidos
reduzindo
reduzir
reduziran
reduziu
ref
refazer
refe
refeic
refeito
refer
refere
reference
references
referencial
referendo
referente
referentes
referian
referida
referidas
referido
referidos
referie
referindo
referir
referiu
refi
refinada
refinadas
refinado
refinamiento
refinarie
refinaries
refira
refire
reflete
refleten
refletida
refletido
refletie
refletindo
refletir
reflexibo
reflexo
reflexon
reflexones
reflexos
reforc
reforma
reformada
reformadas
reformado
reformador
reformadores
reformados
reformar
reformas
reformista
reformistas
reformou
reformulac
refrac
refre
refree
refrencial
refrendo
refrente
refrentes
refrigerac
refrigerador
refrigerante
refrigerantes
refs
refu
refugia
refugiado
refugiados
refugiar
refugio
refugiou
refuorc
refuta
refutac
refutou
reg
regal
regatas
rege
regen
regencial
regenerac
regente
regentes
reggio
regia
regida
regido
regime
regimes
regimiento
regimientos
regina
regio
region
regional
regionales
regiones
regis
regista
registada
registado
registados
registan
registando
registar
register
registo
registos
registou
registra
registrada
registradas
registrado
registrador
registradores
registrados
registran
registrando
registrar
registro
registros
registrou
regno
regnun
rego
regra
regras
regressa
regressado
regressando
regressar
regresso
regressou
reguengo
reguengos
regula
regulac
regulada
regulado
regulador
regulamentac
regulamentada
regulamentar
regulamientos
regulando
regular
regulares
regularidade
regularmente
rei
reia
reibindica
reibindicac
reibindicou
reich
reichenbachanthus
reichstag
reilly
reimpresso
reims
reina
reinaba
reinado
reinados
reinaldo
reinante
reinar
reinhard
reino
reinos
reinou
reis
reitor
rejeic
rejeita
rejeitaba
rejeitada
rejeitadas
rejeitado
rejeitados
rejeitan
rejeitar
rejeitou
rejiste
rejistir
rela
relac
relaciona
relacionada
relacionadas
relacionado
relacionados
relacional
relacionales
relacionamiento
relacionamientos
relacionan
relacionando
relacionar
relanc
relata
relatada
relatadas
relatado
relatados
relatan
relatar
relatebidade
relatebismo
relatiba
relatibamente
relatibas
relatibe
relatibidade
relatibismo
relatibo
relatibos
relationes
relationships
relato
relatos
relatou
relaxamiento
relaxar
relba
release
releba
relebante
relebantes
relebo
relebos
relegion
relegiosa
relegiosas
relegioso
relegiosos
releic
releito
reli
religia
religio
religion
religiones
religiosa
religiosas
religiosidade
religioso
religiosos
religious
rellenes
reloijo
reloijos
reluta
remancista
remanescente
remanescentes
remanse
remanses
rembrandt
reme
remember
remete
remix
remo
remober
remobidas
remobido
remobiu
remoc
remodelac
remonta
remontan
remota
remotas
remoto
remotos
remunerac
ren
rena
renacenc
renacentista
renacentistas
renacer
renacimiento
renaissance
renal
renamo
renan
renana
renato
rencarnac
renda
rendas
rende
render
rendi
rendic
rendido
rendimiento
rendimientos
rendiu
rene
reno
renoba
renobables
renobac
renobada
renobado
renobar
renobou
renoir
renomado
renomados
renome
renomeada
renomeado
rentable
rentrada
renu
renuncia
renunciar
renunciou
renzo
reo
reorganizac
reorganizada
reorganizar
reos
repair
reparac
reparo
reparos
repartic
repartida
repartidos
repelir
repente
repentina
repercusson
repercussones
reperse
repersenta
repersentaba
repersentac
repersentada
repersentadas
repersentado
repersentados
repersentan
repersentando
repersentante
repersentantes
repersentar
repersentatiba
repersentatibas
repersentatibo
repersentatibos
repersento
repersentou
reperto
repete
repetic
repetida
repetidamente
repetidas
repetido
repetidos
repetir
replan
repleta
repleto
replica
repo
repoboamiento
reporduc
report
reportaige
reportaiges
reporter
reports
reposic
reposito
repouso
represa
represas
represson
reprimido
reprimir
reprint
reproduc
reprodutiba
reprodutibo
reproduzen
reproduzida
reproduzir
repu
republic
republica
republicana
republicanas
republicanismo
republicano
republicanos
repunsable
repuosta
repuostas
reputac
requalificac
requer
requerer
requerida
requerido
requerie
requesito
requesitos
requi
requia
requiem
requinte
requisito
rerun
res
research
reseluc
resende
resenha
reserba
reserbada
reserbadas
reserbado
reserbas
reserbato
resfriamiento
resgatar
resgate
resi
reside
residencial
residenciales
residente
residentes
residian
residie
residindo
residir
residiu
residual
residuales
resistance
resiste
resistente
resistentes
resistido
resistir
resistiran
resistiu
resnun
resolbe
resolben
resolbendo
resolber
resolbi
resolbida
resolbidas
resolbido
resolbidos
resolbiu
resoluc
resolution
resource
resources
respaldo
respeita
respeitada
respeitadas
respeitado
respeitados
respeitando
respeitar
respeito
respetiba
respetibamente
respetibas
respetibo
respetibos
respirac
respirato
responsable
responsables
resposta
respunde
respunden
respundendo
respunder
respundi
respundia
respundido
respundiu
respunsabelidade
respunsabelidades
respunsable
respunsables
respunsablidade
respunsablidades
respunses
respuosta
resqui
ressalta
ressaltar
ressentimiento
ressona
ressucitado
ressurgimento
ressurgimiento
ressurreic
resta
restaba
restablecer
restablecimiento
restan
restando
restante
restantes
restaurac
restaurada
restaurado
restauradores
restaurar
restelo
restitui
resto
restos
restou
restourac
restourada
restourado
restourante
restourantes
restourar
restouro
restric
restringe
restringida
restringindo
restringir
restringiu
restrita
restritas
restritibas
restrito
restritos
restro
restros
restruturac
resulber
result
resulta
resultaba
resultado
resultados
resultan
resultando
resultante
resultantes
resultar
resultarie
resulto
resultou
results
resume
resumida
resumido
resumindo
resumo
resumos
reta
retaguarda
retaliac
retangular
retas
rete
retenc
retina
retira
retirada
retiradas
retirado
retirados
retirando
retirar
retiro
retirou
reto
retoma
retomada
retomando
retomar
retombo
retombos
retomou
retorna
retornaba
retornado
retornando
retornar
retorno
retornou
retrata
retratada
retratado
retratan
retratando
retratar
retratista
retrato
retratos
retratou
retriebed
retro
return
reu
reuni
reunia
reunian
reunida
reunidas
reunido
reunidos
reunificac
reunindo
reunion
reuniones
reunir
reuniran
reuniu
reutelizable
reuters
review
revised
revista
revitalizac
revoluc
revolution
revue
rex
rey
reyes
reynolds
rez
reza
rezar
rezon
rezones
rfica
rficas
rficos
rgamo
rgb
rgia
rgica
rgicas
rgico
rgicos
rgie
rgio
rgula
rhode
rhodes
rhys
ri
ria
rial
rialc
riales
rialeza
rialidade
rialidades
rialismo
rialista
rialistas
riality
rializa
rializaba
rializac
rializada
rializadas
rializado
rializador
rializados
rializan
rializando
rializar
rializo
rializou
rialmente
rias
riba
ribadabie
ribal
ribales
ribalidade
ribalidades
ribas
ribateijo
ribeira
ribeirinha
ribeiro
ribeiron
riber
ribera
ric
rica
ricamente
ricardo
ricas
rice
rich
richard
richardson
richmond
richter
ricimer
rick
rickels
ricklefs
ricky
ricles
rico
ricos
rida
ridas
riddle
ride
rider
rides
ridgway
riding
rido
ridos
rie
rieira
rieiras
rieiro
rieiros
riemann
ries
rift
rig
riga
right
rightarrow
rights
rigidec
rigo
rigor
rigorosa
rigorosamente
rigoroso
rigorosos
rigos
rigular
ril
rima
rimas
rin
rincon
rines
ring
ringo
rings
ringue
rio
rioja
rion
rios
rique
riqueza
riquezas
riqui
rir
ris
risco
riscos
rise
rita
ritmo
ritmos
rito
ritos
ritual
rituales
riu
riuniti
rius
river
rix
rj
rm
rman
rmatas
rmica
rmicas
rmico
rmicos
rmino
rmon
rmones
rmore
rmula
rmulas
rn
rna
rnan
rnia
rnico
rnio
ro
road
rob
robb
robe
rober
robert
roberto
roberts
robertson
robespierre
robin
robo
robot
robustas
robusto
roc
rocha
rochosa
rochosas
rochoso
rochosos
rock
roco
rod
rodada
rodadas
rodando
rodapie
rodar
rode
rodeada
rodeado
rodeia
rodeio
rodes
rodi
rodin
rodney
rodobia
rodobiairo
rodobias
rodolfo
rodri
rodrigo
rodrigues
roedores
roedors
roge
roger
rogers
rogozhin
roi
roixo
roka
rola
roland
rolas
role
rolfe
roll
rolling
rolos
rom
roma
roman
romana
romanas
romance
romances
romancista
romani
romanizac
romano
romanos
romanov
romantismo
romarie
romaries
rome
romena
romeno
romeo
rommel
romon
rompe
rompendo
romper
rompeu
rompi
rompimiento
ron
ronald
ronaldo
ronda
rondon
ronronar
roosevelt
roque
roques
roraima
ros
rosa
rosacruc
rosas
rose
rosebelt
rosen
rosenberg
ross
rossio
rostro
rota
rotac
rotas
roteirista
roteiristas
roteiro
roteiros
rotense
roterdana
roterdon
rotina
rotinas
rotunda
rouba
roubada
roubado
roubar
roubo
rouen
rouge
round
roupa
roupas
rousseau
roussele
routledge
row
roy
royal
royale
rpatos
rpc
rpia
rprete
rpretes
rpura
rquica
rquicas
rquico
rquicos
rr
rrea
rreas
rregos
rren
rreo
rrio
rs
rsega
rsei
rsia
rsias
rsico
rss
rt
rtan
rtaro
rtaros
rteis
rten
rter
rtere
rteres
rtia
rtias
rtica
rticas
rtice
rtices
rtico
rticos
rtida
rtie
rties
rtil
rtio
rtios
rtp
ru
ruanda
rube
ruben
rubenes
rubi
rubin
rubinstein
ruby
rude
rudimentares
rudolf
rue
rues
rufino
rugby
rugido
rugidos
ruhr
rui
ruiba
ruic
ruin
ruina
ruiu
ruiz
rule
rules
rulos
rumo
rumores
rumos
rumou
run
runas
rung
runner
runs
ruoca
ruoda
ruodas
ruodra
ruon
ruperto
rupestre
rupestres
rural
rurales
rus
rushdie
russa
russas
russel
russell
russia
russian
russo
russos
russulales
ruth
rutherford
rutul
rutura
ruy
ry
ryden
ryu
ryunosuke
rza
rzea
s
sa
saab
saalbau
saara
saavedra
saba
sabana
sabanas
sabannah
sabastian
sabbatai
sabe
sabedorie
sabel
sabemos
saben
sabendo
saber
sabido
sabie
sabien
sabimbi
sabin
sabino
sabo
sabor
sabores
sabotaige
sabre
sabrosa
sac
saca
sacaben
sacabenense
sacerdo
sacerdotal
sacerdote
sacerdotes
saco
sacos
sacra
sacramental
sacramento
sacramentos
sacramiento
sacramientos
sacras
sacred
sacrefi
sacrifi
sacrificar
sacro
sacros
sad
sadat
saddam
saddan
sado
saduceus
saeling
saen
safa
safo
safra
saga
sagerado
sagrada
sagradas
sagrado
sagrados
sahib
saho
sai
saia
said
saida
saigon
saindo
saint
sainte
saints
sako
sal
sala
saladino
salado
salairo
salairos
salama
salamanca
salamina
salas
salazar
salba
salbac
salbador
salbaige
salbaiges
salbamiento
salbando
salbar
salbaterra
salbatore
salbo
salbos
salbou
saldanha
saldo
sales
saleso
salgada
salgado
sali
salida
salidas
salido
salidos
salienta
salientan
salientar
saliente
salimiento
salin
salinas
salinidade
salir
saliu
salle
salman
salmon
salmos
salo
salomon
salon
salones
salsa
salt
salta
saltac
saltados
saltando
saltar
salto
saltos
saltou
salud
salude
salvador
salyut
salzburgo
sam
sama
samadhi
samatra
samba
same
sameiro
samhita
sami
samoa
samorin
samos
samotra
sampaio
sampiero
samsara
samuel
samurai
san
sana
sanc
sancha
sanchec
sancho
sanconi
sand
sanda
sandenista
sanders
sandra
saneamiento
sanes
sangre
sangrenta
sangrentas
sangrento
sangrentos
sangue
sangui
sanita
sankara
sankaracharya
sankhya
sansa
sant
santa
santana
santar
santare
santaren
santas
santi
santiago
santidade
santificac
santificante
santo
santos
santua
santuairo
santuairos
sao
sapienes
sapiens
sapo
sappho
saque
saqueada
saqueando
saquear
saqueo
saqueou
saques
sar
sara
saragoc
sarah
saraiba
saramago
sarampo
sarasbati
sarco
sardenha
sardina
sardinha
sardo
sardoura
sardus
sares
sargon
sarmento
sarmiento
sarney
sarojeni
sarojini
sarracenos
sars
sartre
saskia
sassa
sastifac
sastifato
sastifatoriamente
sastifazer
sastifeito
sastifeitos
sat
sata
satamente
satana
satas
sate
satellite
satellites
sati
satidon
sato
saturac
saturday
saturn
saturno
saudable
saudables
saudac
saude
saudita
saul
saunders
saussure
sauston
savassi
sawyer
saxe
saxo
saxon
saxones
say
says
sazonal
sazonales
sb
sbetambara
sbg
sbica
sbicas
sboc
sbt
sc
sca
scabac
scala
scalada
scalas
scale
scaleira
scaleiras
scalon
scalones
scandina
scandinaba
scandinabos
scapa
scapan
scapar
scape
scaphyglottis
scapo
scapou
scar
scara
scaramuc
scaras
scarpa
scarpas
scassa
scassas
scassec
scasso
scassos
scatologie
sce
scec
scedente
sceder
scentricidade
scepc
scepcional
scepcionales
scepcionalmente
scessiba
scessibamente
scessibo
scesso
scessos
sceto
scetuando
schange
scheffel
scheffelterrasse
schiaparelli
schiller
schlechter
schloss
schmidt
schneider
schol
school
schopenhauer
schro
schumann
schuon
schuster
sci
science
sciences
scientific
scimo
scitac
sclabagista
sclamou
sclarecer
sclareciu
sclo
sclos
scluen
sclui
scluindo
scluir
sclusebidade
sclusiba
sclusibamente
sclusibas
sclusibidade
sclusibo
sclusibos
scluson
sco
scoa
scoamiento
scobar
scoce
scoceses
scola
scolar
scolares
scolaridade
scolha
scolhas
scolhe
scolhendo
scolher
scolheu
scolhi
scolhida
scolhidas
scolhido
scolhidos
scolta
scomunhon
sconde
sconder
scondida
scondido
scondidos
scopo
scorbuto
scotland
scott
scottish
scraba
scrabas
scrabatura
scrabidon
scrabistas
scrabizac
scrabizados
scrabizar
scrabo
scrabos
scravos
screan
screbe
screben
screbendo
screbi
screbia
screbian
screbida
screbido
screbidos
screbie
screbindo
screbir
screbira
screbiu
scribas
scribe
scribon
scrit
scrita
scritas
scrito
scritor
scritora
scritores
scritos
scritura
scrituras
scudeiro
scudo
scudos
scuita
scuitar
scula
sculas
sculpida
sculpidas
sculpido
sculpir
sculto
scultor
scultores
scultura
sculturas
sculture
scuola
scuolas
scuolha
scuolhe
scura
scuras
scuridon
scuro
scuros
sd
se
sea
seabra
sean
seara
search
season
seattle
sebastia
sebastian
seber
sebera
seberamente
seberas
seberin
sebero
seberos
sebilha
sebilla
sec
seca
secar
secas
secesson
seclo
seclos
seco
second
secos
secrec
secret
secreta
secretaira
secretairo
secretairos
secretamente
secretariado
secretarie
secretaries
secretas
secreto
secretos
secrets
section
secular
seculares
secunda
secundairo
secundairos
secundidade
security
sed
seda
sedan
sede
sedenta
sedes
sediada
sediadas
sediado
sediados
sediar
sedic
sedie
sedimentac
sedimentar
sedimentares
sedimentos
sedimientos
sediou
seduc
sefarditas
seg
seghers
segmiento
segmientos
segnefica
segneficado
segneficados
segneficatiba
segredo
segredos
segregac
segue
seguen
segui
seguia
seguian
seguida
seguidas
seguido
seguidor
seguidores
seguidos
seguie
seguimiento
seguindo
seguinte
seguintes
seguir
seguiran
seguiu
segunda
segundas
segundo
segundos
seguramente
seguranc
sei
seia
seias
seiba
seicientos
seinhas
seis
seita
seitas
seixal
seixas
seja
selba
selbas
sele
selec
selecionada
selecionadas
selecionado
selecionados
selected
selection
selena
selet
seleted
seletiba
seletion
self
selicatos
selju
seller
selo
selombra
selombras
selos
seltab
seluc
sem
sema
semana
semanal
semanales
semanalmente
semelhanc
semelhante
semelhantes
semestre
semi
semiente
semientes
semimaige
semina
seminairo
semio
semiologie
semita
semitas
semite
semitismo
semiw
semplicidade
sempre
sen
sena
senado
senador
senadores
senatorial
sendim
sendin
sendine
sendo
senefica
seneficaba
seneficac
seneficado
seneficados
seneficando
seneficante
seneficar
seneficarie
seneficatiba
seneficatibamente
seneficatibas
seneficatibo
seneficatibos
seneficou
senegal
senghor
senha
senhal
senhales
senhor
senhora
senhores
senhorial
senhoriales
senhorin
senhorio
senna
seno
sensac
sensibelidade
sensibelmente
sensible
sensiblemiente
sensibles
sensiblidade
senso
sensor
sensores
sensorial
sensoriales
sensors
sensu
sensual
sentado
sentar
sente
senten
sentenc
sentian
sentida
sentido
sentidos
sentie
sentimental
sentimiento
sentimientos
sentimos
sentindo
sentinela
sentir
sentiran
sentiu
seos
seoul
sep
sepa
separa
separac
separadamente
separador
separando
separatista
separatistas
separo
separou
sepo
september
sepulcro
sepultado
sepultados
sepultura
sepulturas
seque
sequeira
sequence
sequencia
sequencial
sequestro
sequestros
sequiera
ser
sera
seran
serbat
serben
serbentes
serber
serbi
serbia
serbian
serbic
serbice
serbida
serbido
serbidon
serbidor
serbidores
serbie
serbindo
serbir
serbira
serbiran
serbiren
serbirie
serbirieb
serbiu
serblet
serbo
serbos
serei
sereia
serena
serenata
serenidade
seres
sergei
sergio
sergipe
seriadade
seriado
seriados
serial
seriamente
serie
serien
series
sermon
sermones
serpa
serpente
serpentina
serpento
serra
serras
serron
serton
servic
servicing
ses
sesimbra
sesmaries
sessenta
sesson
sessones
sesta
sesto
set
seta
setas
setember
setembre
setembro
setenta
setentrional
setentrionales
seti
setion
setor
setores
settlement
setu
setuaginta
seu
seuil
seul
seus
seven
sevilha
seward
sex
sexo
sexos
sexual
sexuales
sexualidade
sexuality
sexualmente
seymour
sfat
sfe
sfera
sferas
sfergante
sfergantes
sforc
sforo
sforza
sfuorc
sgbd
sgota
sgotados
sgotamiento
sgoto
sgotos
sgotou
sh
sha
shabat
shackleton
shafak
shah
shakespeare
shandong
shane
shang
shanghai
shankara
shannon
share
sharon
shaw
shaykh
shebchenko
shek
shell
shelley
shenxian
shepard
sheppard
sheridan
shi
shiatsu
shiba
shin
shinano
ship
ships
shire
shirley
sho
shogun
shopping
short
shoshenq
shoten
should
show
shows
shrewsbury
shtml
shu
shun
shuttle
si
sia
siame
sias
sibe
sic
sica
sicas
sici
sico
sicos
sid
sida
siddhartha
sideru
sidney
sido
sie
siegfried
siempre
sien
siena
sierra
siete
sietenta
sig
siga
sigilo
sigla
siglo
sigma
sigmund
signal
signata
significado
signo
signos
sigue
sigura
siguranc
siguras
siguro
siguros
sikh
sikhismo
sikhs
sil
silado
silados
silar
silas
silba
silbeira
silber
silbes
silbestre
silbestres
silbia
sile
silence
silencio
silent
sili
silicatos
silla
silo
silogismo
silos
silou
silva
silvio
sima
simblo
simblos
simbo
simbolicamente
simbolismo
simboliza
simbolizando
simbolizar
simbolo
simbologie
sime
simetrie
similar
similares
similaridades
simmones
simo
simon
simone
simones
simos
simpa
simpatie
simpatizantes
simples
simplesmente
simpli
simplicidade
simplificac
simplificada
simplificado
simpo
simpson
simpsones
simpsons
simula
simulac
simulador
simular
simulta
simultaneamente
sin
sina
sinagoga
sinagogas
sinai
sinal
sinales
sinatra
since
sincelo
sinceridade
sincero
sinclair
sincretismo
sincronizac
sindbad
sindical
sindicalismo
sindicalista
sindicalistas
sindicato
sindicatos
sine
sinergie
sines
sinfo
sinfonia
sinfonias
sinfonie
sinfonies
singapore
singapura
singapurenses
singer
singh
single
singles
singular
singulares
singularidade
sino
sinta
sintagma
sintaxe
sinte
sintetizar
sintoma
sintomas
sintra
sio
sion
sionismo
sionista
sionistas
sios
sioux
sir
siracusa
sirban
sirbe
siri
sis
sismicidade
sismo
sismos
siste
sistema
sistemas
sistematicamente
sistematizac
sit
sita
site
sites
sitiada
sitio
sito
sitos
situa
situaba
situac
situada
situadas
situado
situados
situan
situando
situar
situation
six
siyyid
siza
size
sk
ska
skirda
sky
skylab
sl
slaba
slabas
slabo
slabos
sloba
slobe
slogan
sm
smagada
smagadora
smagar
small
smaug
sme
smica
smicas
smico
smicos
smirna
smith
smithsonian
smo
smodelo
smolas
smoric
sn
snia
snow
snuka
so
soa
soap
soares
sob
sobe
soberana
soberanie
soberano
soberanos
sobie
sobiete
sobietes
sobra
sobradinho
sobral
sobras
sobre
sobrefic
sobrenome
sobrina
sobrino
soc
sociable
sociadade
sociadades
social
sociales
socialism
socialismo
socialista
socialistas
socializac
socialmente
sociedad
sociedade
societa
societies
society
socio
sociocultural
socioecono
sociolo
sociologie
socorro
socra
sodomie
sodre
soeiro
sofa
sofala
sofia
sofista
sofistas
sofisticac
sofisticada
sofisticadas
sofisticado
sofisticados
sofo
sofos
sofre
sofree
sofren
sofrendo
sofrer
sofrera
sofri
sofria
sofrian
sofrida
sofridas
sofrido
sofridos
sofrimento
sofrimiento
sofrimientos
sofriu
soft
software
softwares
sogro
soja
sol
sola
soladade
solamente
solar
solares
solas
soldados
soleil
solene
solenemente
solenes
soles
solhapa
solica
solicitac
solicitando
solicitar
solicitou
solico
solicos
solid
solidariadade
solidariedade
solidon
solis
solista
solita
solitairo
solo
solos
solsti
solta
solu
soluc
solucionar
soma
somados
somali
soman
somando
somar
somas
somato
sombrio
some
something
somo
somos
son
sonar
sonata
sonatas
sonda
sondas
soneto
sonetos
song
songs
sonhador
sonho
sonido
sonidos
sono
sonora
sonoras
sonoridade
sonoro
sonoros
sons
sont
sony
sope
sophia
sophie
sopo
sopra
sopran
soprano
sopranos
sopro
sor
sorbonne
sorel
soriano
soroban
sorocaba
sorriso
sortac
sos
sotaque
sotaques
sote
sou
soube
soubiran
soul
soult
sound
sounds
source
sourcebook
sources
soure
sous
sousa
soutelo
south
southafrica
southern
souto
souza
soyinka
soyuc
soyuz
sp
spa
spac
space
spacial
spaciales
spada
spadas
spain
spalha
spalhada
spalhadas
spalhado
spalhados
spalhan
spalhando
spalhar
spalho
spalhou
span
spande
spandida
spandido
spandindo
spandir
spandiran
spandiu
spanha
spanhol
spanhola
spanholas
spanholes
spania
spaniae
spaniola
spanish
spano
spansa
spansionismo
spansionista
spansionistas
spanson
sparrow
sparta
spartanos
spathia
spe
spece
speces
speci
speciac
special
speciales
specialidade
specialidades
specialista
specialistas
specializac
specializada
specializadas
specializado
specializados
specializou
specialmente
speciaries
speciation
species
specifica
specificac
specificado
specificamente
specificar
specificidade
specula
speculac
speculan
specular
speculatiba
sped
spedes
spedic
spediciona
speilho
speilhos
speke
spencer
spera
speraba
sperada
sperado
speranc
sperando
sperantista
sperantistas
speranto
sperar
speras
sperie
sperience
speriente
sperientes
spermatozoides
spero
spessa
spessura
spetaclo
spetaclos
spetacular
spetaculares
spetador
spetadores
spetatiba
spetatibas
spetro
spi
spice
spin
spina
spinela
spinelas
spinho
spinosa
spinoza
spio
spion
spionaige
spiones
spiral
spirales
spirit
spiritismo
spiritual
spiritualidade
spiritualmente
spital
spitala
spitalar
spitalares
spitales
spitzer
spivak
splanation
splendor
spli
splica
splicac
splicada
splicado
splican
splicando
splicar
splicitamente
splicou
splodiu
splora
sploraba
splorac
splorada
sploradas
splorado
splorador
sploradores
splorados
splorando
splorar
splorato
splorer
sploro
splorou
splosiba
splosibas
splosibos
spludir
spluson
splusones
spo
spoente
spoentes
spoken
spondo
spone
sponencial
sponencialmente
sponjas
sponta
spontaneamente
spontaneidade
spor
spora
sporo
sport
sportac
sportado
sportador
sportadores
sportados
sporte
sportes
sportiba
sportibas
sportibo
sportibos
sporting
sports
sposa
sposende
sposic
spositores
sposo
sposta
spostas
sposto
spostos
spot
spota
spra
spranc
spress
spressa
spressaba
spressamente
spressan
spressando
spressar
spressas
spressiba
spressibas
spressibo
spression
spressionismo
spresso
spresson
spressones
spressos
spressou
sprie
sprime
sprimir
spring
springer
springs
sprita
spritas
spritismo
sprito
spritos
spritual
sprituales
spulsa
spulsar
spulsas
spulso
spulson
spulsos
spulsou
spuosto
spurgo
spurmenta
spurmentac
spurmentado
spurmental
spurmentales
spurmentando
spurmentar
spurmento
spurmentou
spurmiento
spurmientos
spuso
sputnik
sq
sql
sqrt
squadra
squadras
squadron
square
squecer
squecida
squecidas
squecido
squecidos
squecimiento
squema
squemas
squerdista
squerdistas
squerdo
squi
squierda
squierdo
squilo
squinas
sr
sra
sri
ss
ssan
sse
ssea
sseis
sseles
ssema
ssemas
ssemo
ssemos
ssen
ssia
ssica
ssicas
ssico
[...]
