!
"
#
##0
##1
##10
##11
##12
##13
##14
##15
##16
##17
##18
##19
##2
##20
##21
##22
##23
##24
##25
##26
##27
##28
##29
##3
##30
##31
##32
##33
##34
##35
##36
##37
##38
##39
##4
##40
##41
##42
##43
##44
##45
##46
##47
##48
##49
##5
##50
##51
##52
##53
##54
##55
##56
##57
##58
##59
##6
##60
##61
##62
##63
##64
##65
##66
##67
##68
##69
##7
##70
##71
##72
##73
##74
##75
##76
##77
##78
##79
##8
##80
##81
##82
##83
##84
##85
##86
##87
##88
##89
##9
##90
##91
##92
##93
##94
##95
##96
##97
##98
##99
$
%
&
'
(
)
*
+
,
-
.
/
0
00
000
00000
000000
0001
001
002
004
007
01
010
02
025
03
04
05
06
07
08
09
1
10
100
1000
10000
1001
101
1010
102
1020
1024
1028
103
1037
104
1043
105
1054
1057
106
1064
1065
1066
107
1071
108
1080
109
1093
1095
1096
11
110
1100
1101
111
1112
112
1128
113
1130
1139
114
1140
1143
1147
115
116
117
1179
118
1185
1187
1188
119
12
120
1200
1204
121
1212
122
1223
1228
123
1230
124
125
1250
1258
126
127
1270
1271
1274
1279
128
129
1290
1291
1295
1297
13
130
1300
1303
131
1312
1317
132
1321
1324
1325
1328
133
134
1347
135
1356
1357
136
1368
137
1370
1371
1372
138
1381
1383
1384
1385
139
1392
14
140
1400
141
1410
1415
1418
142
1421
1427
143
1430
1431
1433
1434
1437
1439
144
1440
145
1450
1452
1453
146
1460
1466
1469
147
1471
1478
1479
148
1480
1481
1482
1483
1485
1486
1487
1488
149
1491
1492
1493
1494
1495
1497
1498
1499
15
150
1500
1501
1502
1503
1504
1505
1506
1507
1508
1509
151
1510
1511
1512
1513
1514
1515
1516
1517
1518
1519
152
1520
1521
1522
1523
1524
1525
1526
1527
1528
153
1530
1531
1532
1533
1534
1535
1536
1537
1539
154
1540
1541
1542
1543
1544
1545
1547
1548
1549
155
1550
1552
1553
1555
1556
1557
1559
156
1560
1563
1564
1565
1567
1568
1569
157
1570
1571
1572
1574
1575
1578
158
1580
1581
1582
1583
1585
1586
1587
1588
1589
159
1590
1592
1594
1595
1596
1597
1599
16
160
1600
1601
1602
1603
1604
1605
1606
1607
1608
1609
161
1610
1611
1612
1613
1614
1615
1616
1617
1618
1619
162
1620
1621
1622
1623
1625
1626
1627
1628
1629
163
1630
1632
1633
1635
1636
1637
1638
1639
164
1640
1641
1642
1643
1644
1645
1646
1648
1649
165
1650
1652
1654
1658
1659
166
1660
1661
1662
1663
1664
1665
1666
1668
167
1670
1672
1674
1676
168
1680
1682
1683
1684
1685
1687
1688
1689
169
1690
1693
1697
17
170
1700
1701
1703
1704
1708
1709
171
1710
1711
1712
1715
1716
1718
172
1720
1724
1726
1727
1729
173
1730
1732
1733
1734
1735
1736
1737
1738
1739
174
1740
1741
1742
1743
1744
1745
1746
1747
1748
1749
175
1750
1751
1752
1753
1754
1755
1756
1757
1758
1759
176
1760
1761
1762
1763
1764
1765
1766
1767
1768
1769
177
1770
1771
1772
1773
1774
1775
1776
1777
1778
1779
178
1780
1781
1782
1783
1784
1785
1786
1787
1788
1789
179
1790
1791
1792
1793
1794
1795
1796
1797
1798
1799
18
180
1800
1801
1802
1803
1804
1805
1806
1807
1808
1809
181
1810
1811
1812
1813
1814
1815
1816
1817
1818
1819
182
1820
1821
1822
1823
1824
1825
1826
1827
1828
1829
183
1830
1831
1832
1833
1834
1835
1836
1837
1838
1839
184
1840
1841
1842
1843
1844
1845
1846
1847
1848
1849
185
1850
1851
1852
1853
1854
1855
1856
1857
1858
1859
186
1860
1861
1862
1863
1864
1865
1866
1867
1868
1869
187
1870
1871
1872
1873
1874
1875
1876
1877
1878
1879
188
1880
1881
1882
1883
1884
1885
1886
1887
1888
1889
189
1890
1891
1892
1893
1894
1895
1896
1897
1898
1899
19
190
1900
1901
1902
1903
1904
1905
1906
1907
1908
1909
191
1910
1911
1912
1913
1914
1915
1916
1917
1918
1919
192
1920
1921
1922
1923
1924
1925
1926
1927
1928
1929
193
1930
1931
1932
1933
1934
1935
1936
1937
1938
1939
194
1940
1941
1942
1943
1944
1945
1946
1947
1948
1949
195
1950
1951
1952
1953
1954
1955
1956
1957
1958
1959
196
1960
1961
1962
1963
1964
1965
1966
1967
1968
1969
197
1970
1971
1972
1973
1974
1975
1976
1977
1978
1979
198
1980
1981
1982
1983
1984
1985
1986
1987
1988
1989
199
1990
1991
1992
1993
1994
1995
1996
1997
1998
1999
2
20
200
2000
2001
2002
2003
2004
2005
2006
2007
2008
2009
201
2010
2011
2012
2013
2014
2015
2016
2017
2018
2019
202
2020
2021
2022
2023
203
204
205
206
207
208
209
21
210
2100
211
212
213
214
215
216
217
218
219
22
220
2200
221
222
223
224
225
226
227
228
229
23
230
2300
231
232
233
234
2345
235
236
237
238
239
24
240
2400
241
242
243
244
245
246
247
248
249
25
250
2500
251
252
2520
253
254
255
256
257
258
259
26
260
2600
262
263
264
265
266
267
268
269
27
270
2700
271
273
274
275
276
278
279
28
280
281
282
283
284
285
287
288
29
290
291
292
294
295
296
297
298
299
3
30
300
3000
301
302
303
304
305
306
307
308
309
31
310
311
312
313
314
315
316
316846592
317
318
32
320
3200
321
322
323
324
325
326
327
328
33
330
331
332
333
334
335
336
337
338
339
34
340
341
342
343
344
345
346
347
35
350
3500
351
352
353
354
355
356
358
359
36
360
361
363
364
365
368
369
37
370
371
372
373
374
375
376
377
378
379
38
380
381
383
384
385
386
387
388
39
390
391
392
393
394
395
396
398
4
40
400
4000
401
402
404
405
406
407
408
409
41
410
411
412
413
415
416
417
418
419
42
420
421
4217
422
423
424
425
426
427
428
429
43
430
431
432
433
434
435
436
437
438
439
44
440
441
442
443
444
445
446
447
448
45
450
451
452
453
455
456
457
458
459
46
460
463
464
465
466
467
468
47
470
471
472
474
475
476
477
478
48
480
484
486
487
488
49
490
492
493
496
497
498
5
50
500
5000
502
503
505
506
507
509
51
510
512
514
515
516
518
52
520
521
522
523
525
528
529
53
530
532
533
534
535
536
539
54
540
541
542
544
545
546
548
549
55
550
551
552
553
558
559
56
560
562
563
564
565
567
568
57
570
572
574
575
577
578
579
58
580
581
582
583
584
585
586
587
589
59
590
593
597
599
6
60
600
6000
602176487
603
604
605
607
61
610
612
613
618
62
622
627
63
630
631
632
639
64
640
645
65
650
653
655
66
660
67
670
671
673
674
675
68
680
69
690
691
695
7
70
700
7000
702
71
710
711
713
714
716
718
72
720
721
722
723
728
73
730
7309115994
732
74
740
741
742
747
75
750
753
754
756
76
760
764
768
77
770
771
774
776
78
780
782
783
785411784
788
79
790
791
8
80
800
802
80665
808
81
814
82
825
828
83
830
8316846592
84
840
842
85
850
856
86
860
87
870
874
88
880
883
888
889
89
890
9
90
900
907
91
910
92
920
924
925
93
930
933
936
94
945
95
950
959
96
960
962
967
97
972
975
978
98
981
987
99
996
:
;
<
=
>
?
@
\
^
_
`
a
aa
aachen
aaron
ab
aba
abade
abades
abadie
abadies
abailable
abaixo
abalada
abalado
abalo
abalou
abalua
abaluac
abaluado
abaluados
abaluar
abanc
abandona
abandonada
abandonadas
abandonado
abandonados
abandonan
abandonando
abandonar
abandonasse
abandono
abandonou
abante
abarca
abastecer
abastecimiento
abastecimientos
abate
abbas
abbr
abc
abd
abdel
abdica
abdicac
abdicar
abdicou
abdu
abe
abeiro
abel
abenc
abenida
abenidas
abermelhada
abermelhado
aberrac
aberson
aberta
abertura
abes
abesta
abi
abiac
abiador
abib
abicena
abidya
abierta
abiertamente
abiertas
abierto
abiertos
abiertura
abierturas
abintura
abinturanc
abinturas
abintureiro
abintureiros
abion
abiones
abis
abisado
abisar
abismo
abiso
abisos
abissi
abistou
abl
able
abo
abogado
abolic
abolicionismo
abolicionista
abolicionistas
abolida
abolido
abolidos
abolir
aboliu
abominable
aborda
abordado
abordados
abordaige
abordaiges
abordar
abordou
abori
about
above
abr
abrabeses
abrac
abraham
abrahan
abrange
abrangendo
abrangente
abrangie
abrantes
abraon
abre
abrebiac
abrebiada
abrebiado
abrebiatura
abren
abreu
abri
abria
abriga
abrigado
abrigan
abrigar
abrigo
abrigos
abrigou
abril
abrindo
abrir
abriran
abriu
abroad
abs
abseluta
abselutamente
abseluto
absinto
absoluta
absolutamente
absolutismo
absolutista
absolutistas
absoluto
absolutos
absorbe
absorber
absorbida
absorbido
absorbidos
absorc
abstenc
abstener
abstine
abstrac
abstrata
abstratas
abstrato
abstratos
absurdo
abu
abulsos
abunda
abundan
abundante
abundantes
abuso
abusos
ac
aca
acaba
acababa
acabada
acabado
acabamiento
acaban
acabando
acabar
acabara
acabarian
acabarie
acabo
acabou
acac
acacie
acade
academia
academic
academie
academies
academy
acadianos
acalmar
acampamiento
acampamientos
acapulco
acarretou
acas
acasalamiento
acauso
acceleration
access
accessdate
according
account
accounts
ace
aceder
acedido
acegua
aceita
aceitable
aceitables
aceitac
aceitan
aceitando
aceitar
aceitas
aceite
aceites
aceito
aceitos
aceitou
acelera
acelerac
acelerada
acelerado
acelerando
acelerar
acelerou
acende
acentuada
acentuado
acentuou
acepc
acer
acerbo
acerca
aces
aceso
acess
acessar
acessed
acessible
acessibles
acesso
acessodata
acessos
acha
achaba
achada
achadas
achado
achados
achamiento
achando
achar
achicar
acho
achou
acidentada
acidental
acidentalmente
acidente
acidentes
aciento
acion
acionistas
aclamac
aclamada
aclamado
acm
aco
acolhido
acolhimiento
acomodar
acoplados
acorda
acordado
acordeon
acordes
acordo
acordos
acorrentado
acos
acostumado
acostumados
acradi
acradita
acraditaba
acraditado
acraditan
acraditando
acraditar
acradite
acradito
acraditou
acre
acrec
acrecenta
acrecentado
acrecentando
acrecentar
acrecientou
acrescentar
acri
acro
across
acs
actes
action
active
activities
activity
actual
actualmente
acu
acuidade
acumpanha
acumpanhada
acumpanhadas
acumpanhado
acumpanhados
acumpanhamiento
acumpanhan
acumpanhando
acumpanhante
acumpanhar
acumpanhou
acumparar
acumulac
acumulada
acumuladas
acumulado
acumulador
acumular
acumulou
acun
acunselhado
acunselhou
acunte
acuntec
acuntece
acuntecen
acuntecendo
acuntecer
acunteci
acuntecido
acuntecie
acuntecimentos
acuntecimiento
acuntecimientos
acunteciu
acunten
acuntendo
acunter
acuntera
acunti
acuntiu
acuolher
acuordo
acuordos
acuordou
acupa
acupaba
acupac
acupada
acupadas
acupado
acupados
acupan
acupando
acupantes
acupar
acupasse
acupo
acupou
acus
acusa
acusac
acusada
acusado
acusados
acusando
acusatibo
acusou
ad
ada
adam
adamastor
adami
adams
adan
adas
adatac
adatada
adatadas
adatado
adatados
adatando
adatar
adatatiba
adato
adatou
adbaita
adbanced
adbe
adbentista
adbentistas
adbento
adbersaira
adbersairo
adbersairos
adberte
adbertir
adbogado
adbogados
add
adda
addclass
added
adding
addison
addition
additional
adds
ade
adebinac
adega
adelaide
adelantre
ademales
aden
adenda
adentrando
adentro
adequac
adequada
adequadamente
adequadas
adequado
adequados
adequar
adere
aderentes
aderir
aderiran
aderiu
ades
adeson
adespuis
adeto
adetos
adi
adiantado
adic
adichie
adiciona
adicionadas
adicionado
adicionados
adicional
adicionales
adicionando
adicionar
adicionou
adin
adj
adjace
adjacente
adjacentes
adjetibo
adjetibos
adler
admenistra
admenistrac
admenistrada
admenistradas
admenistrado
admenistrador
admenistradores
admenistrar
admenistratiba
admenistratibamente
admenistratibas
admenistratibo
admenistratibos
admin
administrac
administrador
administradores
administrator
admins
admira
admiraba
admirable
admirac
admirado
admirador
admiradores
admirar
admisson
admite
admiten
admitido
admitidos
admitindo
admitir
admitiu
adn
ado
adoc
adoeciu
adolesce
adolescente
adolescentes
adolf
adolfo
adolphe
adon
adonde
adopcionista
ador
adora
adorac
adorado
adorar
adores
ados
adota
adotada
adotadas
adotado
adotados
adotan
adotando
adotar
adoto
adotou
adquire
adquirida
adquiridas
adquirido
adquiridos
adquirindo
adquirir
adquiriran
adquiriu
adrasteia
adriana
adriano
adrienne
aduaneira
adulta
adulte
adulto
adultos
advanced
ae
aero
aerodina
aeroespacial
aerona
aeronabe
aeronabes
aeroporto
aeroportos
af
afak
afamado
afasta
afastada
afastadas
afastado
afastados
afastamiento
afastan
afastando
afastar
afasto
afastou
afatibamente
afazeres
afe
afeganistan
afegon
afeliac
afeliada
afeliadas
afeta
afetaba
afetabamente
afetabo
afetada
afetadas
afetado
afetados
afetan
afetando
afetar
afetiba
afetibo
afeto
afetou
afetuoso
affairs
affect
affected
afi
afin
afinac
afinal
afines
afirma
afirmaba
afirmac
afirmado
afirman
afirmando
afirmar
afirmen
afirmo
afirmou
aflue
afluente
afluentes
afluxo
afogamiento
afonsinas
afonso
afora
aforismos
afrescos
africa
africaine
african
africana
africanas
africano
africanos
afrika
afrique
afro
afrodite
after
afundado
afundamiento
afundou
ag
agabon
again
against
agamenon
agapornis
agastya
agaties
age
agency
agenda
agente
agentes
ages
aghios
agindo
agir
agitac
agitada
agiu
aglomerac
aglomerado
aglomerados
agno
agnosticismo
ago
agora
agostico
agostinho
agostino
agosto
agra
agrabada
agrabar
agrabou
agraciado
agrada
agradable
agradar
agradecer
agradecimiento
agrado
agrega
agregac
agregada
agregado
agregados
agremiac
agressiba
agressibo
agressibos
agresson
agressones
agri
agricultor
agricultores
agricultura
agriste
agro
agronomie
agropecua
agrupa
agrupadas
agrupados
agrupamiento
agrupamientos
agrupan
agrupar
agua
aguada
aguantar
aguardando
aguc
aguda
agudo
aguiar
aguieira
aguilera
aguinis
aguirre
agulha
agulhas
agusti
ah
ahead
ahimsa
ahm
ahmad
ahmed
ahura
ai
aiatola
aimara
ain
ainda
air
aira
airac
airas
aire
aires
airlines
airo
airos
airport
ais
aise
ait
aix
aizen
ajacio
aju
ajuda
ajudaba
ajudado
ajudan
ajudando
ajudante
ajudar
ajudas
ajudo
ajudou
ajunta
ajuntado
ajuntar
ajustar
ajustes
akbar
akhenaton
akiko
akka
akutagawa
al
ala
alabama
alagoas
alain
alamanos
alan
alanos
alanteijo
alapuro
alargada
alargamiento
alargou
alarico
alas
alasca
alassane
alba
albane
albanesa
albaneses
albara
albe
albedo
albeldense
albenarie
alberga
albergar
albergarie
albert
alberta
alberto
albes
albin
albino
albo
albon
albor
alborada
albos
albrecht
albrote
albrotes
albufeira
albufeiras
albuquerque
alc
alca
alcaide
alcala
alcanc
alcance
alchimista
alcibi
alcifron
alco
alcobac
alcolismo
alcoo
alcor
alcoran
alcoron
alcunha
alde
aldo
aldonc
ale
aleato
alebiar
alega
alegac
alegadamente
alegado
alegando
alego
alegoria
alegorias
alegou
alegre
alegres
alegrete
alegrie
aleijadinho
aleixo
aleksandr
alelo
alelos
alema
alemanas
alembert
alen
alencar
alenquer
alerie
alerta
alertou
ales
alessandro
alex
alexander
alexandre
alexandria
alexandrie
alfa
alfabe
alfabetizac
alfabeto
alfabetos
alfaguara
alfaiates
alfandega
alferrarede
alfonso
alfred
alfredo
algarbe
algarbes
algarismo
algarismos
alge
algo
algodon
algodres
algol
algori
algoritmo
algoritmos
algoso
algua
alguas
algue
algues
alguien
algum
alguma
algumas
algun
alguns
algures
alha
alheias
alhena
alheno
alhenos
alho
ali
alia
aliada
aliadas
aliado
aliados
alianc
aliando
aliar
alias
aliases
alic
alicante
alice
alicerc
alien
alienac
alieni
alifante
alighieri
align
alignbars
alii
alijo
alimenta
alimentaba
alimentac
alimentadas
alimentado
alimentados
alimentan
alimentando
alimentar
alimentares
alimenti
alimento
alimentos
alimiento
alimientos
alinhados
alinhamiento
alinhar
alio
aliou
alistamiento
alistar
aliyah
aljamiada
aljubarrota
all
alla
allah
allan
alleine
allen
allow
allowed
allows
allpoints
allreleased
alma
almada
alman
almana
almanaque
almanc
almanes
almanha
almans
almas
almeida
almendra
almendras
almente
almirantado
almirante
almora
almost
almoxarife
almuorc
alnicola
alo
alocac
aloha
alojados
alojamiento
alongada
alongado
alongados
alonso
alpes
alpha
alqui
alquimia
alrabac
already
alredor
alredores
alredror
alrobe
als
alsa
also
alt
alta
altamente
altan
altar
altara
altarac
altarada
altaradas
altarado
altarados
altarando
altarar
altares
altarna
altarnatiba
altarnatibas
altarnatibo
altarnatibos
altarou
altas
alte
altemoble
altemobles
alterac
alterada
alterado
alterados
alterar
alterna
alternate
alternatiba
alternatibas
alternatibo
alterou
alteza
alti
altiplano
altitude
altitudes
alto
altos
altrui
alttype
altura
alturas
altvalue
alubiales
alude
alumi
aluna
alunas
aluno
alunos
aluson
alusones
alves
alvo
always
alxandre
alxofre
am
ama
amaba
amable
amada
amade
amadeu
amadeus
amado
amador
amadora
amadoras
amadores
amados
amadurecimiento
amalteia
amamentac
amanac
amanhecer
amante
amantes
amar
amara
amaral
amarante
amares
amarga
amargo
amarican
amaricana
amaricanas
amaricano
amaricanos
amarielha
amarielho
amarielhos
amaro
amarrados
amarras
amato
amaya
amazo
amazon
amazonas
amba
ambade
ambaden
ambadi
ambadida
ambadido
ambadidos
ambadindo
ambadir
ambadiran
ambadiu
ambaixada
ambaixadas
ambaixador
ambaixadores
ambaixo
ambalaiges
ambarac
ambarcac
ambarcados
ambare
ambargo
ambarque
ambas
ambason
ambasones
ambasor
ambasoras
ambasores
ambate
ambe
ambeija
ambelhecimiento
ambenc
ambenenado
ambenenamiento
ambenta
ambentada
ambentadas
ambentado
ambentados
ambento
ambentor
ambentores
ambentou
ambergadura
ambersa
ambersamente
amberso
amberson
ambertidas
ambertido
ambertir
ambesible
ambestida
ambestidas
ambestido
ambestidores
ambestidura
ambestiga
ambestigac
ambestigador
ambestigadores
ambestigar
ambestigou
ambestimentos
ambestimiento
ambestimientos
ambestir
ambi
ambia
ambiada
ambiadas
ambiado
ambiados
ambiando
ambiar
ambic
ambicano
ambiciosa
ambicioso
ambido
ambiental
ambientales
ambiente
ambientes
ambierno
ambiernos
ambiguidade
ambio
ambiou
ambique
ambironment
ambites
ambito
amblema
amblemas
ambo
amboca
ambocac
ambocadura
ambocar
ambolbe
ambolben
ambolbendo
ambolbente
ambolber
ambolbi
ambolbia
ambolbida
ambolbidas
ambolbido
ambolbidos
ambolbimiento
ambolbiu
ambolta
ambora
amboras
ambos
amboscada
ambox
ambrion
ambriona
ambro
ambulgar
ambuolbe
ambuolben
ame
amenac
ameno
amenos
amental
amento
ameri
america
american
americana
americanas
americano
americanos
ameroso
amesha
ametista
ami
amiento
amientos
amiga
amigable
amigables
amigas
amigo
amigos
amin
aminoa
amisade
amiu
amo
amon
among
amor
amora
amores
amoritas
amorosa
amorosas
amoroso
amorosos
amos
amostra
amostrado
amostrador
amostrar
amostrara
amostras
amostro
amostrou
amou
amount
amour
amparcial
ampardado
amparo
ampasse
ampate
ampatie
ampato
ampatos
ampe
ampec
ampede
ampeden
ampedido
ampedidos
ampedie
ampedimiento
ampedindo
ampedir
ampediran
ampediu
ampenhamiento
ampenho
amperador
amperadores
amperatiba
amperatibas
amperatibo
amperatibos
amperatric
amperial
amperiales
amperialismo
amperialista
amperialistas
ampi
ampire
ampirismo
ampla
amplamente
amplanta
amplantac
amplantada
amplantadas
amplantado
amplantar
amplantou
amplas
amplementa
amplementac
amplementada
amplementado
amplementar
ampli
amplia
ampliac
ampliada
ampliado
ampliados
ampliando
ampliar
amplica
amplicaba
amplicac
amplicando
amplicarie
amplicitamente
amplicou
amplio
ampliou
amplitude
amplo
amplos
ampo
ampondo
ampone
amponente
amponentes
amponer
ampor
amporta
amportac
amportado
amportados
amportanc
amportando
amportante
amportantes
amportar
amposic
ampossible
ampossiblidade
amposta
ampostas
amposto
ampostos
ampraticable
ampre
amprega
ampregaba
ampregada
ampregadas
ampregado
ampregador
ampregados
ampregan
ampregando
ampregar
amprego
ampregos
ampregou
ampregue
ampregues
ampreitada
amprender
amprendida
amprendimiento
amprendiu
amprensa
ampresa
ampresairo
ampresarial
ampresariales
ampresas
amprescindible
ampressa
ampressas
ampressionado
ampressionante
ampressionantes
ampressionismo
ampressionista
ampressionistas
ampressionou
ampresso
ampresson
ampressones
ampressora
ampressoras
ampressos
amprestado
amprimir
ampro
amprobable
ampulsionado
ampulsionar
ampulsionou
ampulso
ampulsos
ampunha
ampuosta
ampuosto
ampuostos
ampureza
ampurezas
ampurrados
ampurrar
ampusi
ampuso
amputac
amrigs
ams
amsterdan
amsterdon
amu
amundsen
an
ana
anabatistas
anaconda
anacronismo
anadie
anahein
anais
anal
anales
analetos
analfabetismo
analfabetos
anali
analisa
analisadas
analisado
analisador
analisadores
analisados
analisando
analisar
analise
analistas
analo
analogie
analysis
anarco
anarquia
anarquismo
anarquista
anarquistas
anas
anasta
anato
anatomie
anc
anca
ancabec
ancadielha
ancansable
ancantado
ancapac
ancapacidade
ancapazes
ancarada
ancarado
ancarambiando
ancarar
ancarcerado
ancargo
ancarna
ancarnac
ancarnada
ancarnado
ancarrega
ancarregada
ancarregadas
ancarregado
ancarregados
ancarregou
ancarregues
ancarta
ancas
ance
ancenac
ancenada
ancendio
ancenou
ancentiba
ancentibado
ancentibados
ancentibando
ancentibar
ancentibo
ancentibos
ancentibou
ancerra
ancerrada
ancerrado
ancerramiento
ancerran
ancerrando
ancerrar
ancerrou
ancerteza
ancesto
ancestral
ancestrales
ancestralidade
ancha
anchas
anche
anchente
anchentes
ancheon
anchidos
anchieta
anchir
ancho
anchor
anchos
anchura
anci
anciclope
anciclopedie
ancide
ancidente
ancidentes
ancien
ancient
ancierta
ancierto
anciertos
anciones
ancipiente
ancitaba
ancitando
anclabe
anclinac
anclinada
anclinado
ancluen
anclui
ancluindo
ancluir
ancluiu
anclusa
anclusibamente
anclusibe
ancluso
ancluson
anco
ancoere
ancomendada
ancomendado
ancomun
ancomuns
anconbeniente
ancondicional
anconfide
ancontra
ancontraba
ancontrada
ancontradas
ancontrado
ancontrados
ancontram
ancontramos
ancontran
ancontrando
ancontrar
ancontrarie
ancontre
ancontro
ancontros
ancontrou
ancoraja
ancorajado
ancorajar
ancorajou
ancorpora
ancorporac
ancorporada
ancorporadas
ancorporado
ancorporados
ancorporan
ancorporando
ancorporar
ancorporou
ancorreta
ancorreto
ancremiento
ancrible
ancumbe
ancumbido
ancumpatibles
ancumpleta
ancumpleto
ancumpletos
ancumpletude
ancunciente
ancunfide
ancuntra
ancuntraba
ancuntrada
ancuntradas
ancuntrado
ancuntrados
ancuntramos
ancuntrar
ancuntrou
ancuontro
ancuontros
ancuontrou
ancurson
ancursones
ancyclopaedie
ancyclopedie
ancyclopædie
and
anda
andaba
andaluc
andalus
andaluzia
andamiento
andan
andar
andaras
andares
ande
andebi
andebida
andebidual
andebiduales
andebidualidade
andebidualmente
andeble
andebol
andenizac
andepende
andependence
andependentista
andependentistas
andependiente
andependientemente
andependientes
anderec
anders
andersen
anderson
andes
andex
andi
andia
andian
andiana
andianas
andiano
andianos
andias
andibi
andibidual
andibiduales
andibidualismo
andica
andicaba
andicac
andicada
andicado
andicador
andicadores
andicados
andican
andicando
andicar
andicatibo
andico
andicou
andignac
andino
andireta
andiretamente
andiretas
andireto
andiretos
andispensable
ando
andochina
andone
andorra
andorrana
andrada
andradas
andrade
andre
andrea
andreas
andrei
andrela
andrento
andrew
andro
andu
anduc
andulge
andustria
andustrial
andustriales
andustrializac
andustrializadas
andustrializado
andustrializados
andustrias
anduzido
anduzir
andy
ane
anedotas
aneixa
aneixac
aneixada
aneixado
aneixados
aneixando
aneixar
aneixo
aneixos
aneixou
anemia
anes
anfa
anfant
anfanta
anfantarie
anfante
anfantil
anfantis
anfanto
anfatiza
anfatizaba
anfatizan
anfatizando
anfatizar
anfatizou
anfe
anfec
anfeciosa
anfelic
anfelicidade
anfelizmente
anfenidade
anfenita
anfenitamente
anfenitas
anfenito
anfere
anferior
anferiores
anferioridade
anferir
anfermaige
anfermeiros
anfermidade
anfermidades
anfermos
anferno
anfetados
anfi
anfierno
anfin
anfitriato
anfitrion
anflac
anflamato
anflue
anfluenc
anfluencia
anfluenciada
anfluenciadas
anfluenciado
anfluenciados
anfluencian
anfluenciando
anfluenciar
anfluencio
anfluenciou
anfluente
anfluentes
anflui
anfluxo
anfo
anfoque
anforcamiento
anforma
anformac
anformado
anformados
anformal
anformales
anformalmente
anformando
anformar
anformation
anformo
anformou
anfra
anfrabermelha
anfrabermelho
anfraestrutura
anfraestruturas
anfraquecendo
anfraquecer
anfraquecida
anfraquecimiento
anfraqueciu
anfre
anfrenta
anfrentaba
anfrentadas
anfrentado
anfrentados
anfrentamiento
anfrentan
anfrentando
anfrentar
anfrento
anfrentou
ang
angajamiento
anganhar
anganho
ange
angeinho
angeinhos
angel
angeles
angelin
angelo
angels
angenharie
angenharies
angenheiro
angenheiros
angeston
anginering
anglaterra
angle
anglesa
anglesas
angleses
anglicana
anglicanismo
anglicanos
anglischen
anglish
anglo
angloba
anglobando
anglos
angola
angra
angrac
angrediente
angrenaiges
angressa
angressar
angresso
angressou
angu
angueira
angular
anhanguera
anhas
anho
anhos
anhui
ani
anibersa
anibersairo
anielho
anielhos
anima
animac
animada
animado
animados
animal
animales
animals
animar
anime
animismo
animosidade
anistia
anita
anjec
anjo
anjos
anjustic
anmp
ann
anna
annales
anne
annie
anno
annos
annotated
annual
annum
ano
anormales
anos
anotac
another
anprise
anput
anquanto
anque
anquesic
anquietac
anquisic
anraizada
anredo
anredos
anrico
anrique
anriquec
anriquecer
anriquecida
anriquecimiento
ans
ansai
ansaio
ansaios
ansastifac
ansastifeito
anscrebe
anscric
anscrita
anscrito
anscritos
anseguranc
anseio
anselmo
anseparable
anserc
ansere
anserida
anseridas
anserido
anseridos
anserir
ansetos
ansi
ansiadade
ansianes
ansina
ansinaba
ansinada
ansinado
ansinados
ansinamentos
ansinamiento
ansinamientos
ansinan
ansinando
ansinar
ansino
ansinos
ansinou
ansiste
ansistiu
anso
anspec
anspecionar
anspetor
anspira
anspiraba
anspirac
anspirada
anspiradas
anspirado
anspirados
anspiro
anspirou
ansta
anstabelidade
anstable
anstablidade
anstala
anstalac
anstalada
anstaladas
anstalado
anstalados
anstalan
anstalando
anstalar
anstalo
anstalou
anstanta
anstantaneamente
anstante
anstaurac
anstaurando
anstaurou
anstinto
anstitucional
anstitucionales
anstitui
anstituic
anstituindo
anstituir
anstituiu
anstitut
anstitute
anstituto
anstitutos
anstruc
anstrui
anstrumental
anstrumentales
anstrumentista
ansuficie
ansuficiente
ansuficientes
ansular
ansulares
ansultos
ansurge
ansurgentes
ansurreic
ansustentable
answer
ant
anta
antanto
antarah
antartica
antas
antato
ante
antecede
antecedente
antecedentes
antecessor
antecessores
antecipar
antegra
antegraba
antegrac
antegrada
antegradas
antegrado
antegrados
antegral
antegrales
antegralmente
antegran
antegrando
antegrante
antegrantes
antegrar
antegren
antegridade
antegrou
anteira
anteiramente
anteiras
anteiro
anteiros
antel
anteleto
anteletual
anteletuales
antelige
anteligente
anteligentes
anteligible
antelligence
antelsat
antemidade
antena
antenas
antenc
antencionalmente
antenda
antende
antendemos
antenden
antendente
antender
antendi
antendia
antendian
antendida
antendidas
antendido
antendidos
antendimento
antendimiento
antendiu
antener
antensa
antensamente
antensas
antensiba
antensibo
antensidade
antensifica
antensificac
antensificou
antenso
antensos
antepassados
anter
anterac
anterage
anteragir
anteraige
anteramericano
anterbalo
anterbalos
anterbase
anterbeio
anterbenc
anterbentores
anterbir
anterca
antercesson
antercontinental
anterface
anterfaces
anterfere
anterferir
anterfire
anterino
anterior
anteriores
anteriormente
anterligac
anterligadas
anterligados
anterme
antermedia
antermediairo
antermitente
anterna
anternac
anternacional
anternacionales
anternacionalismo
anternacionalista
anternacionalmente
anternamente
anternas
anternational
anternet
anterneta
anternete
anterno
anternos
antero
anterpessoal
anterplaneta
anterpreta
anterpretac
anterpretada
anterpretadas
anterpretado
anterpretador
anterpretados
anterpretando
anterpretar
anterpretatiba
anterpretou
anterrado
anterrados
anterrar
anterregno
anterro
anterrogac
anterromper
anterrompeu
anterrompida
anterrompidas
anterrompido
anterrupc
antersec
antertropical
antes
antestinal
antestino
anthology
anthony
anthropology
anti
antiae
antibio
anticarro
anticiclone
anticlerical
anticoncepcional
anticorpos
antidade
antidades
antierro
antifada
antiga
antigamente
antigas
antiglobalizac
antigo
antigos
antiguidade
antiguidades
antilhas
antima
antimamente
antio
antioquia
antipapa
antipatie
antipessoal
antiqua
antiquity
antitula
antitulada
antitulado
anto
antoce
antoine
antolera
antologi
antologia
antologie
anton
antonho
antonia
antonieta
antonino
antonio
antoxicac
antra
antrada
antradas
antrar
antre
antrebista
antrebistas
antrega
antregar
antregou
antregue
antregues
antrelac
antreposto
antrepostos
antressa
antressaba
antressada
antressado
antressados
antressan
antressante
antressantes
antressar
antresse
antresses
antressou
antrestelar
antretanto
antretenimento
antretenimiento
antri
antriga
antrigante
antrigas
antrinsecamente
antrisse
antrisses
antro
antroduc
antrodution
antroduto
antroduzida
antroduzidas
antroduzido
antroduzidos
antroduzindo
antroduzir
antroduziran
antroduziu
antropia
antropo
antropolo
antropologie
antropomo
antrospec
antrou
antruido
antue
antuic
antuitibo
antuito
antunes
antusiasmo
anu
anua
anual
anuales
anualmente
anuitecer
anulac
anuncia
anunciaba
anunciac
anunciada
anunciado
anunciados
anunciando
anunciar
anuncio
anunciou
anxerga
any
anyone
anything
ao
aonde
aos
ap
apa
apagado
apagar
apaixonado
aparato
apare
aparec
aparece
aparecen
aparecenc
aparecendo
aparecer
aparecera
apareci
aparecian
aparecida
aparecidas
aparecido
aparecidos
aparecie
aparecimento
aparecimiento
apareciu
apareilho
apareilhos
aparenta
aparente
aparentemente
aparentes
aparic
aparta
apartada
apartadas
apartado
apartados
apartamiento
apartamientos
apartar
apartheid
apatos
ape
apeixona
apela
apelac
apelhido
apelidada
apelidado
apelido
apelo
apelos
apelou
apenas
aperfeic
aperfundada
aperfundamiento
aperfundar
aperfundou
aperse
apersenta
apersentaba
apersentac
apersentada
apersentadas
apersentado
apersentador
apersentadora
apersentadores
apersentados
apersentan
apersentando
apersentar
apersente
apersenten
apersento
apersentou
apertado
apesar
apetite
apical
aplica
aplicac
aplicada
aplicadas
aplicado
aplicados
aplican
aplicando
aplicar
aplicatibo
aplicou
apo
apocalipse
apoderar
apoderou
apogeu
apoia
apoiaba
apoiada
apoiadas
apoiado
apoiados
apoian
apoiando
apoiantes
apoiar
apoio
apoios
apoiou
apollo
apolo
apolodoro
apologe
apologie
aporfilhac
aporfilhada
aporfilhadas
aporfilhado
aporfilhar
aporto
aposentadoria
aposentos
aposta
apostar
apostles
aposto
apostrophe
apothekerturm
appear
appearance
appears
apple
application
approach
appropriate
apre
aprec
apreciac
apreciada
apreciadas
apreciado
apreciados
apreciar
aprender
aprenson
apresentac
apresentar
april
aprisionado
aprisionamiento
aproba
aprobac
aprobada
aprobadas
aprobado
aprobados
aprobar
aprobeita
aprobeitada
aprobeitado
aprobeitamiento
aprobeitando
aprobeitar
aprobeito
aprobeitou
aprobo
aprobou
apropiac
apropiada
apropiadamente
apropiadas
apropiado
apropiados
aprossima
aprossimaba
aprossimac
aprossimada
aprossimadamente
aprossimado
aprossiman
aprossimando
aprossimar
aprossimou
apu
apud
apuis
apunta
apuntaba
apuntada
apuntadas
apuntado
apuntados
apuntamientos
apuntan
apuntando
apuntar
apuntou
apurado
apurar
aqaba
aqua
aquando
aqueilha
aqueilhas
aqueilhes
aqueilho
aquel
aqueme
aquena
aquesic
aqui
aquiles
aquino
aquisic
aquita
ar
ara
arab
arabi
arabic
arac
arado
arafat
arago
aragon
aragone
aragonesa
aramaico
aran
aranhon
arantes
araraquara
ararica
arau
arb
arbi
arbitra
arbitrariamente
arble
arbles
arborizada
arbustos
arc
arca
arcada
arcaica
arcaico
arcaicos
arcanjo
arcebispado
arcebispo
arcebispos
archaeology
archaic
archibe
archibo
architeture
archive
archivedate
archiveurl
arco
arcos
arcy
ardanc
arde
ardiente
are
area
areilhos
aren
arena
arenas
arendt
arenito
arezzo
arg
arganil
arge
argel
argentina
argentino
argentinos
argila
argkeys
argo
argola
argonautas
argonautica
argos
argozelo
args
argsi
argsk
argue
arguer
argueu
arguida
arguidas
arguido
arguin
argument
argumenta
argumentac
argumentado
argumentan
argumentando
argumento
argumentos
argumentou
arguments
argumiento
argumientos
arian
ariana
arianismo
ariano
arianos
arias
arie
ariel
aries
aristides
aristo
aristocra
aristocracia
aristocracie
aristocrata
aristocratas
aristote
arithmetica
aritme
arizona
arkansas
arles
arma
armac
armada
armadas
armadilha
armado
armados
armadura
armaduras
armairo
armamentista
armamiento
armamientos
armana
armanas
armandade
armando
armano
armanos
armar
armas
armaze
armazena
armazenada
armazenadas
armazenado
armazenados
armazenamiento
armazenan
armazenar
arme
armilar
armisti
arms
armstrong
arno
arnold
aroma
aron
arones
arouca
around
arp
arpanet
arque
arqueiro
arqueiros
arqueo
arqueolo
arqueologie
arquibo
arquibos
arquidiocese
arquiduque
arquimedes
arquipe
arquitecto
arquiteto
arquitetos
arquitetura
arquiteturas
arra
arraial
arranjado
arranjo
arranjos
arrasada
arrasado
arrastro
arrastrou
array
arrecadac
arrecadados
arrecadou
arredondada
arrefecimiento
arreios
arremesso
arrendata
arrependimiento
arriba
arribas
arrigo
arrimado
arroc
arroio
arruda
arruinada
arruinado
arse
arsenal
arsenales
art
arte
artefato
artefatos
arteficial
arteficiales
artemidoro
artes
artesanal
artesanales
artesanato
arteson
artesones
arthur
arti
article
articles
articula
articulac
articulados
articular
artifi
artificial
artificiales
artificialmente
artigo
artigos
artilharie
artilheiros
artist
artista
artistas
artisticamente
artists
arts
artur
arxiv
arya
arzila
as
asa
asahi
asakaze
asas
asce
ascende
ascendente
ascendentes
ascender
ascendiu
ascenson
asceta
ascetismo
ascii
asean
asfaltada
asfalto
ashton
asi
asia
asian
asilo
asimob
asimov
asin
ask
asma
asociacio
asoka
asp
asperar
aspeto
aspetos
aspirac
aspirar
aspx
assado
assalariado
assalto
assaltos
assassi
assassina
assassinada
assassinadas
assassinado
assassinados
assassinar
assassinato
assassinatos
assassino
assassinos
asse
assegura
asseguraba
assegurada
assegurado
asseguran
assegurando
assegurar
assegurou
assemble
assembleia
assembly
assemelha
assemelhan
assen
assenta
assentado
assentamiento
assentamientos
assente
assentes
assento
assentos
assentou
assesi
assessor
assi
assigned
assim
assime
assimilac
assimilado
assina
assinada
assinado
assinados
assinala
assinalado
assinalan
assinalar
assinando
assinar
assinatura
assinaturas
assino
assinou
assis
assiste
assisten
assistente
assistentes
assistido
assistir
assistiu
associa
associac
associada
associadas
associado
associados
associan
associar
associate
associated
association
associou
assoreamiento
assume
assumen
assumia
assumian
assumido
assumindo
assumir
assumiran
assumisse
assumiu
assunc
assunto
assuntos
assuon
aste
asteca
astecas
asterix
astero
asteroide
asteroides
astorga
astro
astrofi
astrologie
astrona
astronauta
astronautas
astrono
astronomical
astronomie
astronomy
astrophysical
astros
astu
astur
astures
asturiana
asturianas
asturiano
asturianos
asturias
asturica
asturo
at
ata
ataca
atacada
atacadas
atacado
atacados
atacama
atacan
atacando
atacar
ataco
atacou
atai
atalaia
atalho
atana
ataque
ataques
atas
atb
ate
atebidade
atebidades
atebismo
atebista
atebistas
atei
atena
atenas
atenc
atende
atendendo
atender
atendido
atendimiento
ateniense
atenienses
atentado
atentados
atento
atenuar
aterraige
atesta
atestan
ateus
atheisn
athena
athenes
ati
atiba
atibado
atibamente
atibas
atibidade
atibidades
atibistas
atibo
atibos
atidon
atinge
atingi
atingida
atingidas
atingido
atingidos
atingie
atingindo
atingir
atingira
atingiran
atingiu
ation
atira
atiradeira
atirar
atitude
atitudes
atiu
atl
atla
atlanta
atlantic
atlantis
atlas
atle
atleta
atletas
atletismo
atm
atman
atmosfe
atmosfera
atmosferas
atmosphere
ato
aton
ator
atores
atos
atouguia
atra
atrabec
atrabessa
atrabessaba
atrabessada
atrabessado
atrabessados
atrabessan
atrabessando
atrabessar
atrabesso
atrabessou
atrac
atraen
atraente
atrai
atraindo
atrair
atraiu
atrasado
atrasados
atraso
atrasos
atratibo
atratibos
atrebui
atribuen
atribui
atribuic
atribuindo
atribuir
atribuiu
atributo
atributos
atric
atrito
atritos
atrizes
atrocidades
attend
attr
attribute
attributes
attribution
atua
atuaba
atuac
atual
atuales
atualidade
atualizac
atualizada
atualizado
atualizados
atualmente
atuan
atuando
atuar
atuo
atuou
au
auckland
audac
audie
audio
audiobisual
auditiba
auditibo
audito
auf
auga
augardiente
augas
auge
augsburgo
augu
august
augusta
auguste
augustin
augusto
augustus
aula
aulas
aun
aunesluoma
aura
aure
aureliano
aurelio
auri
aurora
ause
ausente
ausentes
auspi
auster
austeridade
austerlitc
austin
austra
austral
australia
australian
australiana
australiano
australianos
australopithecus
austri
austro
author
authority
authors
auto
automatic
automatically
autor
autores
autres
aux
auxelia
auxelian
auxeliar
auxeliares
auxerre
auxi
auxiliado
auxiliar
auxiliares
available
avanc
avec
aveiro
avenir
aventura
average
aviso
avo
avoid
avos
aw
award
awards
away
ax
axial
axioma
axiomas
ayala
ayat
ayuno
azambuja
azan
azebedo
azeite
azeme
azerbaijon
azevedo
azibo
azic
azimute
azinhoso
azo
azoto
azteca
aztecas
azul
azulada
azuleijos
azules
b
ba
baba
babbage
babel
babi
babiera
babilo
baby
bac
baca
bacalhau
bacanc
bacaric
bacas
bach
bacharel
bacharelado
bacia
bacie
bacies
bacina
bacinac
bacinas
back
background
backup
backus
backward
baco
bacon
bacos
bad
badajoc
baden
bado
bados
baga
bagabadguita
bagamente
bagas
bagda
bagdade
bage
baginal
bago
bagones
bagos
baha
bahamas
bahia
bahrein
bai
baia
baiana
baiano
baibe
baidade
baikal
bailey
bainfas
baiona
bairrada
bairro
bairros
baixa
baixada
baixas
baixista
baixo
baixos
bajrayana
baker
bakunin
bal
bala
balada
balanc
balas
balca
balcanas
baldebec
bale
baleares
baleia
baleias
balen
balenc
balendo
balenteniano
balentin
baler
balera
baleriano
bales
baley
balfour
balhes
bali
balia
balidac
balidade
baliente
baliosa
baliosas
balioso
baliosos
baliu
ball
balladolid
balle
balles
ballet
ballis
balmiki
balneairos
balon
balones
balor
balores
baloriza
balorizac
balorizado
balorizar
balpac
bals
baltimore
baluarte
bambu
bamos
ban
bana
banana
banca
bancada
bancairo
bancarrota
bancas
banco
bancos
bancouber
band
banda
bandalismo
bandas
bandeira
bandeirantes
bandeiras
bandeirismo
bandidos
bando
bandos
bang
bangladesh
banguarda
banguecoque
banha
banhada
banhado
banheiros
banho
banhos
banido
bank
bano
banqueiro
banquete
bantaige
bantaiges
bantu
banu
bao
baopuzi
bar
bara
barak
baralho
baran
baras
barata
baratas
baratheon
barato
baratos
barba
barbacena
barbados
barbara
barbarossa
barbie
barbosa
barbossa
barca
barcarena
barcas
barcelona
barcelos
barclays
barco
barcos
barcouc
bare
bares
bareta
baretas
bargas
bari
baria
bariaba
bariable
bariables
bariac
bariada
bariadade
bariadades
bariadas
bariado
bariados
barian
bariando
bariante
bariantes
bariar
barie
baries
bariou
barnes
baro
baron
barones
baros
barqueiros
barra
barragem
barraige
barraiges
barras
barreira
barreiras
barreiro
barrel
barrels
barret
barreto
barrett
barriga
barril
barris
barro
barroca
barroco
barron
barros
barroso
barry
barsa
barso
barthes
bartolome
bartolomeu
bartolomiu
barzin
bas
basa
basal
basalto
basari
basca
basco
basconcelos
bascones
bascos
base
basea
baseaba
baseada
baseadas
baseado
baseados
baseando
basear
basebol
based
baseia
baseian
baseou
bases
basetomie
basho
basi
basic
basicamente
basileia
baso
basos
basquete
basquetebol
bassalaige
bassalo
bassalos
bassula
basta
bastamente
bastante
bastantes
bastardo
bastas
basti
bastia
bastilha
bastion
basto
bastos
bat
bata
batailha
batailhas
batalha
batalhon
batalhones
batarie
bate
batendo
bater
bateriana
baterie
bateries
baterista
baticano
batida
batido
batismo
batista
batistas
batiste
batiu
batizada
batizado
batizados
batizar
batizo
batizou
battista
battle
batu
bau
bauer
bautista
baviera
bay
bayreuth
baza
bazas
bazie
bazio
bazios
bb
bbc
bbia
bbio
bc
bcd
bce
bcr
bd
bditos
be
beagle
beatles
beato
beatric
beatriz
beaufort
beauregard
beautiful
bebe
bebia
bebian
bebido
bec
because
beche
beck
beckett
beckman
become
becoming
bed
beda
bedanta
bedas
bedford
bedras
been
beethoven
before
bega
beganismo
begas
begetac
begetal
begetales
begetarian
begetariana
begetarianas
begetarianismo
begetariano
begetarianos
begin
beginning
behabior
behind
bei
beiclo
beiclos
beiga
beija
beijing
beijo
beilado
beilados
beilc
beilce
beile
beilon
being
beio
beira
beiras
beirute
beis
beisa
beisebol
beiso
beitar
bejita
bejitac
bejitada
bejitado
bejitados
bejitando
bejitante
bejitantes
bejitar
bejitas
bejito
bejitou
beka
bel
bela
belar
belas
belazaima
belber
bele
beleza
belezas
belga
belgrado
belhec
belhete
belhetes
beli
belief
believe
belisa
belize
bell
bella
bellator
belle
belleni
belli
bello
belo
belocidade
belocidades
beloso
below
belume
belumes
belunta
bem
bementemente
bemol
bemos
bempuosta
ben
bena
benados
bence
bencedor
bencedora
bencedoras
bencedores
bencendo
bencer
benceu
benci
bencida
bencidas
bencido
bencidos
benda
bendas
bende
bendendo
bender
bendi
bendia
bendian
bendida
bendidas
bendido
bendidos
bendiu
bendo
bene
benebole
benebolente
beneditinos
benefi
beneficente
beneficia
beneficiaba
beneficiados
beneficiando
beneficiar
beneficiou
benenos
benera
benerable
benerac
beneran
benerie
benerien
benes
beneza
benezianos
benezuela
benezuelano
benfica
benfiquistas
benga
bengala
bengali
benguela
beni
benida
benidas
benido
benidos
benie
benien
benies
benimos
benin
benioff
benir
beniren
benirun
benisse
benissen
benito
benjamin
bennett
bens
benta
bento
bentos
bentosa
bentre
beowulf
ber
bera
beracidade
beracruc
berano
beranos
berbal
berbas
berbere
berberes
berbete
berbo
berbos
berc
bercingeto
berdade
berdadeira
berdadeiramente
berdadeiras
berdadeiro
berdadeiros
berdades
berde
berdes
berdiano
bere
bereador
bereadores
bereficar
beremos
beres
berg
berga
berganc
bergi
bergman
bergonha
beri
beriato
berie
berifica
berificaba
berificac
berificada
berificado
berificando
berificar
berificou
bering
berkeley
berlag
berlin
bermont
bermudas
bermudo
berna
bernacular
bernal
bernard
bernardo
bernoulli
berona
berones
berrier
bersa
bersalhes
bersiclos
bersion
berso
berson
bersones
bersos
bersus
bert
bertente
bertentes
bertical
bertrand
besanto
beshop
besibelidade
besible
besibles
besigo
besigoda
besigodo
besigodos
besita
besitada
besitado
besitantes
besitar
besitou
bespasiano
bespu
best
besteiros
bestfa
bestia
bestibular
bestida
bestido
bestidos
bestir
bestua
beta
betanzos
betel
beterano
beteranos
bethoben
beti
beto
betor
betores
betoriales
better
between
betwen
beyond
bezerra
bezes
bezina
bezinas
bezino
bezinos
bf
bg
bhagabad
bhakti
bi
bia
biabelidade
biable
biaige
biaiges
biaja
biajado
biajan
biajando
biajante
biajantes
biajar
biajo
biajou
bian
biana
bianna
bias
biba
bibas
bibcode
bibe
bibeiro
bibemos
biben
bibendo
bibente
bibeu
bibi
bibia
bibian
bibido
bibie
bibien
bibir
bibiran
bibiren
bibiu
bible
biblio
bibliogra
bibliografia
bibliografie
bibliographic
biblioteca
bibliotecairo
bibliotecas
bibliotheca
bibliotheksbau
bibloteca
biblotecas
bibo
bibos
bibrac
bic
bica
bicas
bice
bicente
bicentena
bichas
bicho
bichy
bicicleta
bicicletas
bico
bicos
bid
bida
bidas
bide
bideo
bidimensional
bido
bidos
bidro
bidros
bie
bielha
bielhas
bielho
bielhos
bielorru
bien
biena
bienal
bienense
bieno
biento
bientos
biera
bierzo
bies
bietcong
bietname
bietnamita
bietnamitas
bietnan
biew
bife
big
biga
bigairo
bige
bigente
bigg
bigi
bigiar
bigie
bigila
bigneault
bigo
bigor
bigora
bigorosa
bigorou
bigotes
bii
biii
biipuri
biking
bikings
bil
bila
bilac
bilar
bilareijo
bilareijos
bilarinho
bilas
bilbo
bilela
bilhon
bilhones
bili
bill
billa
billboard
bille
billion
billy
bimaranense
bimaranenses
bin
bina
binagre
binairo
binairos
binary
bincent
binci
binculada
binculado
binculados
binganc
bingar
binhais
bini
binicius
bino
binos
binte
bintura
bio
biobi
biocant
biodibersidade
biogra
biografi
biografia
biografie
biografies
biography
biolac
biolar
biole
biolenta
biolentamente
biolentas
biolento
biolentos
bioleta
biolino
biolo
biologicamente
biologie
biology
biolon
bioloncelo
bioma
biomas
biome
bion
bioqui
biorxiv
bios
biosfera
biotecnologie
bipolar
biquipe
bir
bira
birada
birado
biran
birar
birdlife
birge
birges
birgi
birgindade
biriato
birma
biro
birou
birtual
birtuales
birtualmente
birtude
birtudes
birtuoso
bis
bisa
bisaba
bisabo
bisando
biscaia
bisconde
biseu
bishnu
bishtaspa
bisible
bisibles
bisigo
bisigodo
bisigodos
bismarck
bison
bisones
bispado
bispo
bispos
bissau
bissexual
bissexuales
bissexualidade
bista
bistas
bisto
bistos
bisual
bisuales
bisualizac
bisualizar
bit
bita
bitae
bital
bitales
bitali
bitalidade
bitamina
bitaminas
bite
bito
bitor
bitoria
bitoriana
bitoriosa
bitorioso
bitoriosos
bitos
bitrificac
bits
biu
biuola
bixnu
biza
bizantina
bizantino
bizantinos
bizela
bizinhanc
bizir
bjerknes
bl
bla
black
blacklist
blackwell
bladimir
blaise
blanc
blanco
blank
ble
bleda
bley
bleza
blia
blica
blicas
blico
blicos
blindados
bloch
block
blocker
bloco
blocos
blod
blog
blogs
blogues
blon
bloqueado
bloquear
bloqueia
bloqueio
blt
blu
blue
blues
blurb
bm
bo
boa
boabista
boador
board
boas
boatos
bob
bobadela
bobbio
bobby
bobina
bobino
bobinos
bobtail
boc
boca
bocabula
bocabulairo
bocac
bocal
bocales
bocalista
bocas
boce
bock
boco
bodo
bodun
boduns
body
boe
boegelin
boga
bogal
bogales
bogota
bohr
boicote
bojador
bok
boks
bol
bola
bolar
bolas
bolchebique
bolchebiques
bold
boldsymbol
bole
boleana
boleibol
boletin
boletines
bolfra
bolga
bolha
bolho
bolhos
boli
bolibiano
bolibianos
bolo
bolonha
bolos
bols
bolsa
bolsas
bolso
bolta
boltada
boltadas
boltado
boltados
boltando
boltarie
boltas
bolto
bolton
boltou
bolume
bolunta
boluntairo
boluntariamente
bom
bomba
bombain
bombas
bon
bona
bonaparte
bond
bondade
bonecas
bones
boni
bonifa
bonn
bono
bontade
book
books
boolean
bora
boras
borba
borda
bordas
borde
border
bordo
boreal
borges
borgonha
boris
borland
born
borne
bornes
boro
boros
borraixa
bory
bos
bosco
bosque
bosques
bossa
bostok
boston
bot
bota
botac
botada
botado
botafogo
botantes
botar
botas
botelho
both
botiba
botibas
botica
boticas
boto
boton
botoneira
botoneiras
botones
botos
botou
bots
botstrap
bottom
botton
bou
bouchet
bouffan
bouga
bourbon
bourges
bouro
bouzela
box
boxe
boxer
boy
boyager
boyd
boyle
boys
bozes
bp
br
bra
braamcamp
braba
brabo
brabura
brac
bracara
bracarense
bracarenses
bracket
bracketclose
bracketopen
brackets
braga
braganc
bragg
brahma
brahman
brain
bramante
bran
branca
brancas
branco
brancos
branda
brandemburgo
brando
brandon
brasa
brasi
brasil
brasileira
brasileiras
brasileiro
brasileiros
brasiliense
brason
braudel
braun
brazil
brazilian
braziliense
bre
break
breaking
brebe
brebemente
brebes
brega
brenda
brendan
brest
bretanha
bretas
breton
breve
bri
bria
brian
brica
bricas
brico
brics
bridge
brido
bridos
brief
brien
briga
brigada
brigadas
brigadeiro
brigas
brigham
brighan
bright
brilhante
brilhantes
brilho
brilhos
brill
brincadeira
brincadeiras
brincar
bring
brinquedo
brinquedos
brio
brios
brisa
bristol
brita
britain
britannica
briteiros
brites
british
brito
bro
broke
broks
bronze
bronzes
brother
brothers
brown
browser
brr
bru
bruce
bruma
brunei
bruno
brunswick
bruta
brutal
bruto
bruxa
bruxarie
bruxas
bruxedo
bruxedos
bruxelas
bs
bsd
bside
btu
bu
bua
buarque
buas
buber
bubida
bubidas
bubo
bubos
buc
buchanan
buckinghan
buckner
buco
buda
budapiste
buddha
buddhisn
budismo
budista
budistas
bue
buell
buen
bueno
buenos
buer
buffalo
bug
bugs
bui
buick
build
builder
building
built
buis
bula
bulada
bulas
bulca
bulcanismo
bulcon
bulcones
bulga
bulgar
bulgarmente
bulina
bull
bulletin
bullets
bulnerable
bulnerables
bulo
bulos
bumbarda
bumbardeada
bumbardeado
bumbardeamiento
bumbardeamientos
bumbardear
bumbardeio
bumbardeios
bumbardeiros
bumbeiros
bumbilha
bumioso
bun
buns
buntade
buntades
buolta
buoltada
buoltado
buoltaire
buoltan
buoltando
buoltar
buoltara
buoltarie
buolto
buona
buonas
buono
buonos
buossa
buosso
buraco
buracos
bureau
burgh
burgo
burgos
burgu
burgue
burguesa
burgueses
burguesie
burke
burkert
burmeilha
burmeilhas
burmeilho
burmeilhos
burning
burnside
burocra
burocracie
burro
burros
burroughs
burton
burundi
bus
busca
buscaba
buscado
buscan
buscando
buscar
buscas
busco
buscou
bush
bushel
bushels
business
busto
but
butler
buton
button
buttons
bx
bxsc
by
byron
byte
bytes
c
ca
caba
cabala
cabalarie
cabaleiros
cabalharie
cabalhcanti
cabalheiro
cabalheiros
cabalho
cabalhos
cabalo
cabanha
cabanhaige
cabanos
cabe
cabec
cabeceira
cabeceiras
cabedal
cabendo
caberna
cabernas
cabidade
cabido
cabo
cabos
cabra
cabral
cabras
cabrun
cabul
cac
cacau
cachac
cache
cachico
cacho
cachoeira
cachon
cachoneirica
cachones
cachorro
cachos
cada
cadabres
cadas
cadastro
cade
cadeado
cadeia
cadeias
cadeira
cadeiras
cadela
cadena
cadenas
caderno
cadernos
caeiro
caen
caer
caetano
caete
cafe
cafeira
cafeiras
cage
cai
caia
cain
caindo
caio
cairo
cairota
cairotas
caiu
caixa
caixas
caixon
caju
cal
cala
calabria
calamidades
calbi
calbino
calc
calca
calcedo
calclo
calclos
calcoli
calcula
calculada
calculado
calculadora
calculadoras
calculados
calcular
calculou
calcuta
caldas
caldeira
caldeiron
caldo
caldos
cale
calece
calecer
calecido
calecimento
calecimiento
calecute
calenda
calendairo
calendairos
calendar
cales
calhado
calhar
calhas
cali
calibrac
calibre
calibres
calidade
caliente
calientes
califa
califado
califo
california
caligrafie
calino
calisto
call
called
calling
calma
calmo
calmos
calor
calorias
calorie
calories
calosotomie
calota
calotas
calouste
cama
camacho
camada
camadas
camara
camaran
camarate
camargo
camarones
camas
cambial
camboio
camboios
camboja
cambridge
came
camera
camille
camillo
camilo
camina
caminada
caminadas
caminar
caminha
caminho
camino
caminones
caminos
camisa
camo
camp
campa
campana
campanapse
campanas
campanha
campanhas
campbell
campeon
campeonato
campeonatos
campeones
campi
campinas
campo
camponeses
campos
camposina
camposinas
camposino
campus
camus
can
cana
canaana
canada
canadian
canadiano
canadianos
canal
canc
cancela
cancelar
cancioneiro
candela
candidata
candidato
candidatos
candidatura
candler
candomble
caneca
caneta
cangas
canha
canhal
canhales
canhas
canho
canhon
canhona
canhonas
canhones
canic
canielha
cannes
cannot
cano
cansar
canso
canta
cantaba
cantabros
cantada
cantadas
cantado
cantados
cantando
cantanhede
cantar
cantares
cantarie
cantidade
cantidades
cantigas
canto
canton
cantor
cantora
cantores
cantos
cantou
canvas
canyon
cao
caos
cap
capac
capacetes
capacidade
capacidades
capazes
cape
capela
capella
capelo
capeto
capi
capielha
capielhas
capita
capital
capitales
capitalismo
capitalista
capitalistas
capitan
capitanes
capitania
capitanias
capitanie
capitel
capito
capitol
capitulac
capitulo
capote
caprichos
caption
capture
capuchinhos
car
cara
carabana
carabanas
carabela
carabelas
caracala
caracas
carai
carambelo
carambelos
caramono
caramulo
caras
carateli
carateliza
caratelizada
caratelizadas
caratelizado
caratelizados
carater
caratere
carateres
carateri
carateriza
caraterizac
caraterizan
caraterizando
caraterizar
caraterizou
carbalhal
carbalhas
carbalheira
carbalho
carbo
carbon
carbonato
carbonatos
carbono
carc
carcac
carcanhal
card
cardeal
cardeales
cardi
cardo
cardoso
cards
care
carece
carga
cargas
cargo
cargos
caribbean
caribe
caric
caricaturas
caridade
carinho
carioca
cariocas
carisma
carl
carla
carlo
carlos
carlota
carmelitas
carmen
carmo
carmona
carnal
carnegie
carneiro
carni
caro
carol
caroli
carolina
carolinas
caroline
carolus
caronte
caros
carpinteiro
carranza
carrazeda
carre
carrega
carregaba
carregada
carregadas
carregado
carregados
carregal
carregamiento
carregando
carregar
carreira
carreiras
carril
carro
carroc
carroll
carros
carruaige
carta
cartac
cartagineses
cartago
cartas
carte
carter
cartes
cartesiano
cartier
carto
cartogra
cartografie
carton
cartones
cartun
cartuxa
carvalho
casa
casada
casado
casados
casal
casales
casamata
casamento
casamiento
casamientos
casan
casar
casario
casas
casca
cascaboi
cascales
cascata
cascatas
casco
case
casei
caseira
caseiro
caselle
cases
casimiro
casino
casinos
caso
casos
casou
cassandra
cassini
cassino
cassitas
cast
casta
castanha
castanhas
castanheira
castanho
castas
castela
castelhana
castelhanas
castelhano
castelhanos
castello
castelo
castic
castidade
castielha
castielho
castielhos
castigo
castigos
castilha
castilho
castilla
castillo
castle
casto
castro
castros
casual
cat
cata
cataba
catac
catadorie
catadories
catain
catala
catalan
catalana
catalanes
catalina
catalogue
catalunha
catalunya
catapultas
catar
catarina
catarinense
catastro
catecismo
catedra
catedral
catedrales
categoria
categories
categorisation
category
categoryhandler
catequese
catholic
catibeiro
catibo
catibos
cato
catolicismo
catorze
cats
catura
caturada
caturadas
caturado
caturados
caturando
caturar
caturo
caturou
catus
caucasianos
cauda
caudal
caules
caus
causa
causaba
causada
causadas
causado
causador
causadores
causados
causalidade
causan
causando
causar
causas
cause
causo
causos
causou
cavaleiros
caxemira
caxias
caxiense
caxienses
cazaquiston
cb
cbs
cc
ccic
cd
cdot
cdots
cds
ce
cea
ceara
cearense
cearenses
ceas
cebada
cebil
cebiles
ceblizac
cebolhas
ceca
ceci
cecil
cedendo
ceder
cedidas
cedido
cediu
cedo
cedro
cee
cegueira
cei
ceilha
ceilon
cel
cela
celano
celas
cele
celebra
celebraba
celebrac
celebrada
celebradas
celebrado
celebran
celebrar
celebridade
celebridades
celebrou
celeiro
celes
celhestre
celhestres
celhestrial
celhestriales
celi
celibato
celindro
cell
cells
celorico
celsius
celta
celtas
celular
cen
cena
cenairo
cenairos
cenas
cende
cenden
cendente
cendentes
cendo
censita
censo
censos
censura
census
cent
centabos
centauros
centeilha
centeilhas
centena
centenairo
centenas
centeno
center
centi
centimeter
centimetre
centra
centrada
centradas
centrado
central
centrales
centralizac
centralizada
centralizadas
centralizado
centralizadora
centralizou
centre
centri
centro
centros
century
ceo
ceos
cer
cera
cerbantes
cerbeija
cerbeira
cerbical
cerca
cercada
cercado
cercados
cercando
cerco
cercou
cereal
cereales
cerebral
cerebrales
ceres
cergento
cerilha
cerimo
cerimonial
cerimoniales
cerjano
cermeinho
cerne
cero
cerrada
cerradas
cerrado
cerrados
cerro
cersei
certeza
certezas
certidon
certificac
certificado
certo
cervantes
ces
cesa
cesar
cesare
cesareia
cessar
cesta
cestarie
ceticismo
cetro
ceu
ceuta
cf
cfa
cfg
cfn
cgadb
cgp
cgt
ch
cha
chabe
chabes
chabi
chaco
chafaric
chafariz
chagas
chain
challenge
challenger
chama
chamaba
chamac
chamada
chamadas
chamadeiro
chamadeiros
chamado
chamador
chamados
chamamientos
chamamos
chaman
chamando
chamar
chamas
chamber
chamberlain
chamo
chamou
champion
championship
chan
chana
chance
chancelarie
chanceler
chances
chandler
chang
change
changed
changes
changing
channel
chao
chaos
chap
chape
chapter
chapterurl
char
character
characters
charaka
charles
charleston
charlie
charlotte
charneca
chase
chater
chattanooga
chaves
che
checa
check
checking
checks
checktype
checosloba
cheetah
chefo
chega
chegaba
chegada
chegadas
chegado
chegados
chegan
chegando
chegar
chegara
chegarie
chegasse
chego
chegou
chegue
chel
chelas
chemical
chen
chena
chenas
cheno
chenos
cher
cherrelhones
chesapeake
chess
chetah
chi
chia
chiado
chiang
chibo
chicago
chicha
chichas
chico
chifres
child
children
chile
chilena
chileno
chimpa
chimpanze
chimpas
china
chine
chinesa
chinesas
chinese
chineses
ching
chips
chiquititas
cho
choclate
choice
chombo
chomsky
chongqing
choose
chopin
choque
choques
choro
chouric
chris
christ
christi
christiaan
christian
christina
christmas
christopher
chronicle
chronology
chu
chua
chuang
chuba
chubas
chubida
chubioso
chubiosos
chubir
chubiu
chuobe
church
churchill
churrasco
ci
cia
ciano
ciara
cias
cibelizac
ciberne
cibidade
cibita
ciblizac
ciblizado
cic
ciclismo
ciclo
ciclone
ciclones
ciclopes
ciclos
ciconia
cid
cida
cidadanie
cidadano
cidadanos
cidade
cidadela
cidadelha
cidades
cidas
cido
cidones
cidos
cie
ciega
ciego
cielo
cielos
cielu
cien
ciencia
ciente
cienti
cientificamente
cientista
cientistas
ciento
cientos
cierta
ciertas
cierto
ciertos
cies
cifra
cifras
cigana
ciganos
cigarro
cigarros
ciguonha
cil
cili
cilindro
cima
cime
cimeira
cimeiras
cimento
cimes
cimiento
cimo
cinco
cine
cineasta
cineastas
cinema
cinemas
cinemato
cinematogra
cinfanes
cinqueciento
cinquenta
cinta
cinto
cintra
cintura
cinturon
cinturones
cinza
cinzas
cinzento
cio
cios
cipriano
cipriste
circa
circle
circlo
circo
circuito
circuitos
circula
circulac
circulan
circular
circulares
circulato
circulo
circunbalac
circuncison
circunda
circundantes
circunfere
circunflexo
circunscric
circunsta
ciri
cirilo
cirklo
cirne
ciro
ciru
cirurgie
cisalhamiento
cisjorda
cisma
cisne
cisnes
cison
cisplatina
cistercienses
cit
cita
citac
citada
citadas
citado
citados
citan
citando
citar
citas
citation
citationclass
citations
cite
citeref
citereia
citeseerx
cito
citoid
citos
citou
city
ciu
ciudad
ciudades
cius
ciutat
ckgarten
cl
cla
clado
claims
clair
claire
clama
clan
clana
clanas
clandestinamente
clandestino
clandestinos
clara
claramente
claras
clare
clareza
claridade
clarineta
clarinetas
clark
clarke
claro
claros
class
classe
classefica
classeficac
classeficada
classeficadas
classeficado
classeficados
classefican
classeficar
classeficou
classes
classic
classical
classicismo
claude
claudio
claustro
clausura
cle
clean
clear
clemenes
clemente
clementina
cleo
cleos
clerical
clermont
clero
cles
cli
clibaige
clica
clicar
click
clidas
cliente
clientes
clifford
clima
climas
climate
climatologie
clinton
clio
clique
clitenestra
clito
clo
clock
clonaige
clonard
cloreto
clos
club
clube
clubes
cm
cmp
cn
cnica
cnicas
cnico
cnicos
cnn
cnt
co
coalizon
coat
cobadonga
cobaias
cober
cobers
cobertura
cobery
cobic
cobilhana
cobol
cobrado
cobranc
cobrar
cobre
cobren
cobria
cobrindo
cobrir
cobriu
coca
cochin
cochino
cochinos
cochrane
coco
cocos
cod
code
codes
codex
codificac
codificada
codificar
codigo
codinome
cody
coe
coeficiente
coeficientes
coeisiste
coelho
coerc
coere
coerente
coeson
coglossus
cognic
cognitiba
cognitibas
cognitibe
cognitibo
cognitibos
cognome
cografie
cohen
coi
coimbra
coincer
coincida
coincidas
coincide
coinciden
coincidindo
coincidiu
coincido
coincidos
coincimento
coincimiento
coincimientos
coinciu
coins
coisas
coito
cok
coke
col
cola
colabora
colaborac
colaborador
colaboradores
colaborando
colaborar
colaboro
colaborou
colaige
colapso
colar
colares
colas
colaterales
colbert
cold
cole
colec
colecc
colecionadores
colega
colegas
colegiada
coleijo
coleijos
coleophoridae
colesterol
coleta
coletebidades
coletiba
coletibamente
coletibas
coletibidade
coletibo
coletibos
coletores
colgar
colheita
colheitas
coligac
colin
colina
colinas
colison
colisones
colle
collection
college
colletion
collins
collor
colo
coloca
colocaba
colocac
colocada
colocadas
colocado
colocados
colocan
colocando
colocar
coloco
colocou
colombiana
colombiano
colombo
colon
colonial
coloniales
colonialismo
colonise
colonizac
colonizada
colonizado
colonizador
colonizadores
colonizar
colonizo
colonos
coloque
color
colorac
colorado
colors
colossal
colossales
colspan
colu
columba
columbia
columbus
column
columns
coluna
colunas
colunista
com
coma
comanda
comandaba
comandada
comandadas
comandado
comandados
comandando
comandante
comandantes
comandar
comando
comandos
comandou
comarca
comarcas
comba
combination
combo
come
comec
comediante
comemora
comemorac
comemorado
comemorar
comemoratiba
comemoratibas
comemos
comenda
comendador
comendo
comenta
comentada
comentadores
comentairo
comentairos
comentando
comentou
comer
comerciais
comercial
comerciales
comercializac
comercializado
comercializados
comercialmente
comerciante
comerciantes
comerciar
comes
cometa
cometas
comete
cometer
cometi
cometido
cometidos
cometiu
comi
comics
comida
comigo
coming
comissa
comissairo
comisson
comissones
comite
comitiba
comiu
comma
command
commedie
comment
comments
committe
common
commons
commonwealth
communication
communities
community
como
compact
companhia
company
compare
compareurl
complete
completes
complex
components
composic
composite
compostela
compra
comte
comum
comunidade
con
conan
concat
concatenation
concepcio
concert
conchas
concordo
conde
condes
condition
cone
coneilho
cones
coneta
conetada
conetado
conetados
conetan
conetar
conetibo
conetor
conexon
conexones
conference
confianc
config
configuration
conhec
conhece
conhecedor
conhecemos
conhecen
conhecendo
conheci
conhecian
conhecida
conhecidas
conhecido
conhecidos
conhecie
conhecimento
conhecimiento
conheciu
conjunto
cono
conos
conotac
consenso
consideration
consistent
conta
contact
contain
containing
contains
conte
content
contentamiento
contente
contes
contest
conteu
context
conti
continue
conto
contos
contra
contrast
contribuidor
contribution
contributions
contributor
contributors
control
conversion
convert
coord
coordinate
coordinates
coordinatespec
copa
copacabana
copas
cope
copenhague
coper
coperac
coperar
coperatiba
coperatibas
copiado
copiados
copiar
copistas
copo
copy
copyright
cor
corac
coraige
coral
corales
corbense
corbett
corbinos
corbo
corcha
cord
corda
cordeiro
cordenac
cordenada
cordenadas
cordenado
cordenador
cordenar
cordilheira
cordilheiras
cordon
core
coreana
coreano
coreanos
coreca
coreia
cori
coringa
corinto
coriolis
corne
cornelius
cornell
cornija
corno
cornualha
coro
coroac
coron
corona
coronabi
coronada
coronado
coronados
corone
coronel
coros
corou
corpo
corporac
corporal
corporales
corporate
corporatibas
corporatibismo
corporatibo
corporatibos
corporation
corpus
corpuscular
corre
correc
correct
correctly
corredor
corregir
correia
correio
correios
correlac
corren
correndo
corrente
correntes
correntezas
correr
correspo
corresponde
corresponden
correspondendo
correspondente
correspondentes
corresponder
correspondia
corresponding
correspunde
correspundendo
correta
corretamente
corretas
correto
corretos
correu
corria
corrida
corridas
corriente
corrientes
corrigindo
corroson
corrupc
corsa
corsairos
corso
corsos
corta
cortada
cortadas
cortado
cortados
cortan
cortando
cortar
corte
corteijo
cortes
cortesano
cortina
corto
cortou
corumba
corumbaense
corumbaenses
corun
corunha
corvo
cos
cosima
cosme
cosmo
cosmogo
cosmogonia
cosmolo
cosmologie
cosmonauta
cosmonautas
cosmopolita
cosmos
cossacos
cossery
cost
costa
costar
costas
costeira
costeiras
costeiros
costeras
costielha
costielhas
costra
cota
cotac
cotas
cotidiana
cotidiano
coto
coube
could
council
count
counter
countries
country
county
coura
courac
couro
court
cousa
cousas
coutico
couto
cov
covid
cozer
cozido
cozina
cozinar
cozineiro
cp
cpi
cplp
cpu
cr
cra
crabo
crabos
craig
crane
cratera
crateras
crates
crato
cray
cre
create
created
creating
creation
crebia
crebir
crebiu
crece
crecen
crecendo
crecente
crecentes
crecer
creci
crecian
crecido
crecie
crecientes
crecimento
crecimiento
creciu
creditado
credo
credores
creio
crek
creme
creminac
cremos
crenc
crente
crentes
crepa
crepu
crer
cresc
crestiana
crestianas
crestianismo
crestianizac
crestiano
crestianos
creta
creto
cretos
cri
cria
criaba
criac
criada
criadas
criado
criador
criadora
criadores
criados
crian
crianc
criando
criar
criarie
crias
criatebidade
criatiba
criatibas
criatibo
criatura
criaturas
cribe
criben
cribendo
cric
crifos
crime
crimeia
crimes
criminac
criminalidade
criminoso
criminosos
crio
criobiologie
criobulcones
criogenia
criopreserbac
crioprotetores
criou
crioulo
crioulos
crise
crises
crisis
crisma
criso
crista
cristais
cristal
cristales
cristalina
cristalinas
cristalino
cristalizac
cristandade
cristas
cristiana
cristianas
cristianismo
cristiano
cristianos
cristina
cristo
cristobo
crita
critas
crite
critiba
critica
criticada
criticado
critical
criticando
criticar
critico
criticou
crition
critique
crito
critografie
critos
cro
croa
croata
croatas
crocodilo
croma
cromossomo
cromossomos
cromwell
croni
cronista
cronistas
cronograma
cronolo
cronologie
cronos
cross
crosta
cruc
crucial
cruciales
crucificac
cruciforme
crudo
crue
cruel
crueldade
cruise
cruj
crusta
cruz
cruza
cruzada
cruzadas
cruzado
cruzados
cruzamiento
cruzamientos
cruzan
cruzando
cruzar
cruzeiro
cruzeiros
cruzes
cruzo
cruzou
crystal
cs
csa
css
csstext
cu
cuba
cuban
cubana
cubano
cubanos
cubas
cubic
cubierta
cubiertas
cubierto
cubiertos
cubismo
cubo
cubos
cubre
cubren
cubri
cubridor
cubrimiento
cubrimientos
cubrindo
cubrir
cubriran
cubriu
cuc
cuchara
cuenca
cuentos
cuft
cui
cuida
cuidado
cuidados
cuidadosa
cuidan
cuidando
cuidar
cuido
cuin
cuja
cujas
cujo
cujos
cul
cula
culas
culatra
culbert
culha
culhas
culidade
culidades
culina
culmina
culminando
culminante
culminar
culmino
culminou
culo
culos
culottes
culpa
culpado
culpados
culpas
culs
cultiba
cultibada
cultibadas
cultibado
cultibados
cultibar
cultibo
cultibos
culto
cultos
cultuados
cultura
culturais
cultural
culturales
culturalmente
culturas
culture
cumba
cumbate
cumbatener
cumbatentes
cumbater
cumbates
cumbati
cumbatian
cumbatiu
cumbe
cumbec
cumbenc
cumbence
cumbencer
cumbenceu
cumbenci
cumbencido
cumbencidos
cumbencional
cumbencionales
cumbenie
cumbeniente
cumbento
cumbentos
cumberge
cumbersa
cumbersac
cumbersas
cumbersi
cumberson
cumbersones
cumberte
cumbertendo
cumbertener
cumberter
cumberti
cumbertida
cumbertido
cumbertidos
cumbertiu
cumbi
cumbibe
cumbic
cumbida
cumbidada
cumbidado
cumbidados
cumbidando
cumbido
cumbidou
cumbina
cumbinac
cumbinada
cumbinadas
cumbinado
cumbinados
cumbinan
cumbinando
cumbinar
cumbinato
cumbite
cumboca
cumbocac
cumbocada
cumbocadas
cumbocado
cumbocando
cumbocar
cumbocou
cumbustible
cumbustibles
cumbuston
cume
cumes
cumigo
cumo
cumpa
cumpaixon
cumpanha
cumpanhas
cumpanheira
cumpanheiro
cumpanheiros
cumpanhia
cumpanion
cumpany
cumpara
cumparable
cumparables
cumparac
cumparada
cumparadas
cumparado
cumparados
cumparando
cumparatiba
cumparatibamente
cumparatibo
cumpareciu
cumpartilha
cumpartilhada
cumpartilhado
cumpartilhamiento
cumpartilhan
cumpartilhar
cumpartimiento
cumpartimientos
cumpasso
cumpata
cumpatibelidade
cumpatible
cumpatibles
cumpatriotas
cumpe
cumpensac
cumpensar
cumpete
cumpetente
cumpetian
cumpetic
cumpetidores
cumpetir
cumpetitiba
cumpetitibidade
cumpetitibo
cumpetiu
cumpilac
cumpilada
cumpiladas
cumpilado
cumpilador
cumpiladores
cumpilados
cumpilar
cumpilou
cumplementan
cumplementar
cumplementares
cumplemiento
cumpleta
cumpletada
cumpletado
cumpletamente
cumpletan
cumpletando
cumpletar
cumpletas
cumpleto
cumpletos
cumpletou
cumpletude
cumplexa
cumplexas
cumplexidade
cumplexity
cumplexo
cumplexos
cumplicac
cumplicada
cumplicadas
cumplicado
cumpo
cumpondo
cumpone
cumponen
cumponente
cumponentes
cumponer
cumpor
cumporta
cumportamental
cumportamentales
cumportamiento
cumportamientos
cumportar
cumposic
cumpositor
cumpositora
cumpositores
cumpostela
cumpra
cumprada
cumprado
cumprados
cumprar
cumpras
cumpre
cumpremido
cumpren
cumprende
cumprenden
cumprendendo
cumprender
cumprendi
cumprendia
cumprendian
cumprendida
cumprendidas
cumprendido
cumprendidos
cumprendiu
cumprensible
cumprenson
cumpresson
cumprida
cumpridas
cumprido
cumpridos
cumprimento
cumprimentos
cumprimiento
cumprimientos
cumprindo
cumprir
cumpriu
cumpro
cumproba
cumprobac
cumprobada
cumprobado
cumproban
cumprobar
cumprometida
cumprometido
cumprometie
cumprometimiento
cumprometiu
cumpromisso
cumpromissos
cumprou
cumpulso
cumpunhan
cumpuosta
cumpuostas
cumpuosto
cumpuostos
cumpuso
cumputabelidade
cumputac
cumputacional
cumputacionales
cumputador
cumputadores
cumputadors
cumputar
cumputer
cun
cunce
cuncebe
cunceber
cuncebida
cuncebido
cuncebidos
cuncebiu
cuncede
cuncedendo
cunceder
cuncedida
cuncedidas
cuncedido
cuncedidos
cuncedie
cuncediu
cunceic
cunceilho
cunceilhos
cunceito
cunceitos
cunceituada
cunceituados
cunceitual
cuncentra
cuncentraba
cuncentrac
cuncentrada
cuncentradas
cuncentrado
cuncentrados
cuncentran
cuncentrando
cuncentrar
cuncentrou
cuncepc
cuncerne
cuncert
cuncerto
cuncertos
cuncessiona
cuncesson
cuncessones
cuncha
cunci
cunciente
cuncientes
cunciliac
cunciliar
cunclui
cuncluindo
cuncluir
cuncluiu
cuncluson
cunclusones
cunco
cuncorda
cuncordaba
cuncordan
cuncordar
cuncordo
cuncordou
cuncorre
cuncorrente
cuncorrentes
cuncorrer
cuncorreu
cuncreta
cuncretamente
cuncretas
cuncretizac
cuncretizar
cuncreto
cuncretos
cuncubina
cuncurso
cuncursos
cundado
cundados
cundanac
cundanado
cundanados
cunde
cundecorac
cundeixa
cundena
cundenaba
cundenac
cundenada
cundenadas
cundenado
cundenados
cundenando
cundenar
cundenou
cundensac
cundensada
cundes
cundessa
cundesta
cundic
cundicionado
cundicional
cundizente
cunduc
cunduta
cundutas
cundutibidade
cundutor
cundutores
cunduzen
cunduzia
cunduzida
cunduzidas
cunduzido
cunduzidos
cunduzindo
cunduzir
cunduziu
cuneiforme
cunexones
cunfec
cunfederac
cunfederada
cunfederadas
cunfederado
cunfederados
cunfere
cunferida
cunferir
cunferiu
cunfessar
cunfessor
cunfessou
cunfi
cunfiable
cunfiables
cunfianc
cunfiar
cunfigurac
cunfinados
cunfines
cunfire
cunfirma
cunfirmac
cunfirmada
cunfirmado
cunfirmados
cunfirmando
cunfirmar
cunfirmo
cunfirmou
cunfiscados
cunfisco
cunfisson
cunfissones
cunflit
cunflitantes
cunflito
cunflitos
cunflue
cunformac
cunforme
cunformes
cunformidade
cunfortable
cunfortables
cunfre
cunfrontac
cunfrontar
cunfronto
cunfrontos
cunfu
cunfucionismo
cunfucionista
cunfunde
cunfundida
cunfundido
cunfundidos
cunfundir
cunfuorto
cunfusas
cunfuso
cunfuson
cunfusones
cunge
cungelac
cungelada
cungelado
cungelamiento
cungo
cungonhas
cungrega
cungregac
cungregacional
cungresso
cungressos
cunha
cunhada
cunhadas
cunhado
cunhaige
cunho
cuni
cunjetura
cunjeturas
cunjugac
cunjugal
cunjunc
cunjunta
cunjuntamente
cunjunto
cunjuntos
cunjuntura
cunjurac
cunneticut
cunninghan
cunquanto
cunquista
cunquistada
cunquistadas
cunquistado
cunquistador
cunquistadores
cunquistados
cunquistan
cunquistando
cunquistar
cunquistas
cunquisto
cunquistou
cunrado
cunsagra
cunsagrac
cunsagrada
cunsagradas
cunsagrado
cunsagrados
cunsagrou
cunsante
cunscientemente
cunscientizac
cunsecutibas
cunsecutibos
cunsegue
cunseguen
cunsegui
cunseguia
cunseguian
cunseguida
cunseguido
cunseguie
cunseguindo
cunseguinte
cunseguir
cunseguiran
cunseguiren
cunseguisse
cunseguissen
cunseguiu
cunseilho
cunseilhos
cunselheiro
cunselheiros
cunselho
cunselhos
cunsenso
cunsensual
cunsentimiento
cunseque
cunsequente
cunsequentemente
cunserba
cunserbac
cunserbada
cunserbadas
cunserbado
cunserbador
cunserbadora
cunserbadoras
cunserbadores
cunserbados
cunserban
cunserbando
cunserbar
cunserbato
cunserbou
cunsi
cunsidera
cunsiderable
cunsiderac
cunsiderada
cunsideradas
cunsiderado
cunsiderados
cunsiderando
cunsiderar
cunsidero
cunsiderou
cunsidi
cunsidra
cunsidraba
cunsidrabelmente
cunsidrable
cunsidrablemente
cunsidrablemiente
cunsidrables
cunsidrac
cunsidrada
cunsidradas
cunsidrado
cunsidrados
cunsidran
cunsidrando
cunsidrar
cunsidrarmos
cunsidre
cunsidrou
cunsiga
cunsigo
cunsigue
cunsiste
cunsisten
cunsistente
cunsistentemente
cunsistia
cunsistian
cunsistie
cunsistindo
cunsistir
cunsistiu
cunso
cunspirac
cunspiradores
cunsuante
cunsuantes
cunsulado
cunsulida
cunsulidac
cunsulidada
cunsulidado
cunsulidando
cunsulidar
cunsulidou
cunsulta
cunsultada
cunsultadata
cunsultado
cunsultar
cunsultas
cunsulte
cunsultibo
cunsume
cunsumida
cunsumido
cunsumidor
cunsumidores
cunsumidos
cunsumir
cunsumiu
cunsumo
cunsurte
cunsustancial
cunta
cuntaba
cuntable
cuntada
cuntadas
cuntado
cuntador
cuntados
cuntaige
cuntaminac
cuntaminada
cuntaminado
cuntaminados
cuntan
cuntando
cuntanto
cuntar
cuntas
cuntatar
cuntato
cuntatos
cunte
cuntempla
cuntemplac
cuntemplar
cuntemplatiba
cuntempora
cuntemporary
cuntenc
cuntendo
cuntener
cuntenha
cuntenidade
cuntenido
cuntenidos
cuntenie
cuntent
cuntentamiento
cuntentes
cunter
cuntestac
cuntestada
cuntestado
cuntesto
cuntestos
cunteu
cunteudo
cuntext
cunti
cuntida
cuntidas
cuntido
cuntidos
cuntigo
cuntina
cuntinaba
cuntinac
cuntinada
cuntinado
cuntinamente
cuntinan
cuntinando
cuntinar
cuntinara
cuntinaran
cuntinarian
cuntinarie
cuntinas
cuntinasse
cuntine
cuntinental
cuntinentales
cuntinente
cuntinentes
cuntinge
cuntingente
cuntingentes
cuntinhan
cuntinidade
cuntino
cuntinos
cuntinou
cuntinun
cunto
cuntornando
cuntornar
cuntorno
cuntornos
cuntos
cuntou
cuntra
cuntrabalanc
cuntrabando
cuntrabenc
cuntrac
cuntracepc
cuntracetibo
cuntracetibos
cuntradanc
cuntradic
cuntradito
cuntrai
cuntrair
cuntrairo
cuntrairos
cuntraiu
cuntrapartida
cuntraponto
cuntraposic
cuntrariamente
cuntrario
cuntrasta
cuntrastando
cuntraste
cuntrastes
cuntrata
cuntratac
cuntratada
cuntratado
cuntratados
cuntratar
cuntrato
cuntratos
cuntratou
cuntrebuic
cuntrebuidor
cuntreriando
cuntreste
cuntribuen
cuntribui
cuntribuic
cuntribuindo
cuntribuintes
cuntribuir
cuntribuiu
cuntributo
cuntrobe
cuntrobersa
cuntrobersas
cuntroberso
cuntrobersos
cuntrol
cuntrola
cuntrolaba
cuntrolada
cuntroladas
cuntrolado
cuntroladores
cuntrolados
cuntrolando
cuntrolar
cuntrole
cuntrolo
cuntrolou
cunturbada
cuo
cuonta
cuontas
cuorda
cuordas
cuorpo
cuorpos
cuosta
cuostas
cup
cupido
cura
curar
curas
curbado
curbatura
curceficado
curdiston
curiosamente
curitiba
curjidade
curjidades
curjidosa
curjidoso
curjidosos
currency
current
currently
curriclo
curry
cursar
curso
cursor
cursos
cursou
curtis
cusson
cussones
custa
custaba
custanc
custant
custante
custantemente
custantes
custantino
custantinopla
custantinopolitano
custar
custas
custata
custatac
custear
custelac
custitucional
custitucionales
custitucionalista
custituen
custitui
custituic
custituindo
custituinte
custituintes
custituir
custituiu
custitution
custo
custom
customary
custos
custou
custro
custroen
custruc
custrui
custruida
custruido
custruindo
custruir
custruiu
custrutor
custrutores
cut
cute
cuten
cutible
cutibles
cutida
cutido
cutidos
cutie
cutindo
cutir
cutiu
cuyd
cvt
cw
cynthia
czar
czarista
d
da
daa
daba
dabi
dabid
dabis
dabout
daby
dada
dadai
dadas
dado
dados
daenerys
dai
daily
daire
daisi
dakar
dakota
dal
dalai
dali
dalma
dalton
dam
dama
damas
damasco
dambas
dambos
dame
damion
damon
dan
dana
danaides
danc
dance
dando
danes
daniel
daniele
danificado
danificar
dano
danos
dans
dante
dantes
danton
danu
dao
daprende
daprenden
daprendendo
daprender
daprendi
daprendic
daprendido
daprendiu
daprendizado
daprendizaige
daqueilha
daqueilhes
daquel
daquela
daquelas
daquele
daqueles
daqui
daquilo
dar
dara
darie
darien
dario
dark
darkgrey
dartmoor
darwin
darwinismo
darwish
das
dash
data
database
datac
datada
datadas
datado
datados
datan
datando
datas
dataset
date
dateformat
dates
david
davis
dawn
day
days
daytona
db
dbaita
dbase
dbd
dbds
dc
dd
de
dead
deal
dean
deas
death
deba
debagar
debaixo
debastac
debastada
debastou
debate
debates
debe
debede
debeden
debedian
debedida
debedidas
debedido
debedidos
debedie
debedindo
debedir
debediran
debediu
debelopment
debemos
deben
debendo
deber
debera
deberes
deberian
deberie
debes
debi
debian
debida
debidamente
debidas
debide
debido
debidos
debie
debina
debinas
debindade
debindades
debino
debinos
debiran
debisa
debison
debisones
debisor
debiu
debo
deboc
debocional
debolber
debolbido
debolbiu
deboluc
debora
deborah
debota
deboto
debotos
debrebe
debruc
debug
debussy
dec
deca
decade
decadente
decapitado
decay
dece
decediu
december
decesiba
decesibo
deci
decida
decide
deciden
decidi
decidida
decididamente
decidido
decidindo
decidir
decidiran
decidisse
decidiu
decimal
decimales
decimals
deciplina
deciplinas
decisiba
decisibo
decisibos
decison
decisones
declara
declaraba
declarac
declarada
declaradas
declarado
declarados
declarando
declarar
declares
declaro
declarou
decli
declibe
declinac
declinar
declinou
declo
decon
decorac
decorada
decoradas
decorado
decorados
decoratiba
decoratibos
decorre
decorrer
decorreu
decorriente
decorrientes
decre
decrescente
decretada
decretado
decreto
decretos
decretou
decumenta
decumentada
decumentado
decumentados
decumiento
decumientos
decumposic
decurso
dedica
dedicaba
dedicac
dedicada
dedicadas
dedicado
dedicados
dedicando
dedicar
dedicato
dedico
dedicou
dediculdade
dediculdades
dedo
dedos
deduc
deduzir
def
default
defaults
defe
defeito
defeitos
defende
defenden
defendendo
defender
defendi
defendia
defendian
defendida
defendidas
defendido
defendie
defendiu
defenic
defenida
defenidas
defenido
defenidos
defenindo
defenir
defenitiba
defenitibamente
defenitibo
defeniu
defensiba
defensibo
defensor
defensores
defesa
defesas
defi
deficie
deficiente
deficientes
deficuldade
deficuldades
deficulta
deficultar
define
defined
definen
definia
definic
definida
definidas
definido
definidos
definir
definitiba
definitibamente
definitibo
definition
definitions
definiu
deflagrac
deformac
defrenc
defrencia
defrenciac
defrenciada
defrenciadas
defrenciado
defrenciados
defrencial
defrenciales
defrencian
defrenciando
defrenciar
defrente
defrentemente
defrentes
deg
degenerac
degital
degitales
degli
degradac
degraus
degredados
degree
degrees
dei
deia
deidade
deilha
deilhas
deilhes
deilhi
deimos
deixa
deixaba
deixada
deixadas
deixado
deixados
deixan
deixando
deixar
deixara
deixarie
deixasse
deixe
deixen
deixo
deixou
del
dela
delantre
delaware
dele
delegac
delegado
delegados
delete
delfos
delgada
delgado
delhi
deli
deliberada
deliberadamente
delicada
delimita
delimitac
delimitada
delimitado
delinear
dell
della
delle
delles
dello
delor
delores
delors
delos
delphi
dels
delta
dem
demais
demales
demanda
demandas
demarcac
demarcada
demarcadas
demasiadamente
demasiado
deme
demetido
demingo
demingos
deminui
deminuic
deminuindo
deminuir
deminuiu
demisson
demitido
demitir
demitiu
demo
democra
democracie
democracies
democrata
democratas
democraticamente
demogra
demografie
demolic
demolida
demolido
demolir
demonhos
demora
demorou
demospace
demuda
demudada
demudar
demudou
demunstra
demunstraba
demunstrac
demunstrada
demunstrado
demunstran
demunstrando
demunstrar
demunstro
demunstrou
den
dende
deng
denheiro
denic
denidade
denis
dennis
denominac
denominator
denominou
denota
denotando
densa
densamente
densas
densidade
densidades
density
denso
densos
dentada
dentista
dentre
dentro
denu
denunciado
denunciando
denunciar
denunciou
deo
deodoro
deon
deos
dep
deparou
departamento
departamiento
departamientos
department
depend
depende
dependen
dependendo
dependente
dependentes
depender
dependia
dependian
depending
deployed
depo
depoimiento
depois
depor
deportac
deportados
deposic
depositado
depositados
deposto
deprecated
depressa
depresson
depressones
depriessa
deprimido
depth
depuis
depusi
deputada
deputado
deputados
der
dere
deres
deriba
deribac
deribada
deribadas
deribado
deribados
deriban
deribou
derigir
dernie
derradeira
derradeiro
derrama
derramado
derramamiento
derretido
derrocada
derrota
derrotada
derrotadas
derrotado
derrotados
derrotando
derrotar
derrotas
derroto
derrotou
derrubada
derrubado
derrubar
derrube
derrubo
derrubou
des
descartes
description
desde
deseia
deseiaba
deseian
deseiando
deseiar
deseio
deseios
deseiou
desequili
deserto
desertos
desespero
design
designac
desktop
desobedie
desorden
desordenada
dessa
dessas
desse
dessertac
desses
desso
desta
destas
deste
destes
desto
desuso
detail
details
detalhada
detalhadamente
detalhadas
detalhado
detalhados
detalhando
detalhe
detalhes
dete
detec
detect
detected
detenc
detendo
detener
detenie
detentor
detentora
detentores
deter
deteriorac
determenismo
determinac
determinada
determinadas
determinado
determinados
determine
determini
determinou
detetado
detetar
detetibe
detetor
detetou
detido
detidos
detinhan
detra
detremina
detreminac
detreminada
detreminadas
detreminado
detreminados
detreminan
detreminando
detreminante
detreminantes
detreminar
detreminismo
detremino
detreminou
detrimiento
detritos
detroit
deu
deus
deusa
deusdado
deuterocano
deuterono
deutsch
deutsche
deutschen
deutscher
deux
deve
developers
development
deveria
devi
devices
devido
devon
devonshire
dewar
dewey
dexter
dezanobe
dezasseis
dezembre
dezembro
dezena
dezenas
dezenobe
dezenobebinte
dezesseis
dezessete
dezi
dezido
dezie
dezien
dezimos
dezindo
dezir
dezisse
dezoito
df
dfs
dh
dharma
di
dia
diabo
diabro
diacri
diafragma
diagno
diagonal
diagrama
diagramas
diairo
diairos
diale
dialeto
dialetos
dialog
diamante
diamantes
diamond
diana
dianteira
diariamente
diario
diarreia
dias
diba
dibedida
dibedidas
dibedido
dibedidos
diberge
dibergentes
dibersa
dibersas
dibersidade
dibersificac
dibersificada
dibersificado
diberson
dibersones
dibersos
dibiase
dibindade
dibindades
dibisa
dibisas
dibison
dibisones
dibo
dibulga
dibulgac
dibulgada
dibulgado
dibulgando
dibulgar
dibulgou
dic
dica
dicas
dice
diche
dicho
dici
diciona
dicionairo
dicionario
dicis
dick
dicker
dico
dicos
dictionary
dictionnaire
did
dida
didaticamente
diderot
dides
die
diec
diego
diehl
diels
dien
diente
dientes
dies
diesel
diet
dieta
dietas
dieu
diferente
diff
different
diffie
diffs
difi
dificilmente
dificuldade
dificuldades
difire
difrac
difre
difree
difundida
difundido
difundidos
difundir
difundiu
difusa
difuson
diga
digambara
digestibo
digeston
digit
digital
digitales
digits
dignidade
digo
digos
dilatac
dilema
dilu
dimenson
dimensones
diminui
diminuic
diminuir
diminuiu
dimo
din
dina
dinamarca
dinamarque
dinamarquesa
dinamarqueses
dinamismo
dinas
dinastia
dinastie
dinasties
dinis
dino
dinos
dinossauro
dinossauros
dio
diocesano
diocese
dioceses
diocleciano
diodoro
diofanto
diogo
dion
dione
dioni
dionisi
dioniso
dios
diosco
diploma
diplomacie
diplomas
diplomata
diplomatas
dipo
diques
dir
direc
direcionada
direcionadas
direcionados
direcionamiento
directamente
direction
directly
direita
direito
direta
diretamente
diretas
direto
diretor
diretora
diretores
diretoria
diretos
diretric
diretrizes
dirie
dirige
dirigen
dirigente
dirigentes
dirigida
dirigidas
dirigido
dirigidos
dirigie
dirigindo
dirigir
dirigiran
dirigiu
dis
disambiguation
disco
discordo
discos
discovery
discussa
discussion
disney
disp
display
displayed
disponi
disse
dissecac
disseluc
disseminac
dissertation
disses
disside
dissidentes
dissipac
disso
dissolber
dissolbida
dissolbido
dissolbiu
dissoluc
dissona
distorc
distrito
dit
dita
ditada
ditado
ditador
ditadores
ditadura
ditaduras
ditar
ditas
ditatorial
diteur
ditionary
ditions
dito
ditongos
ditos
diu
dius
diusa
diusas
diuses
div
dixe
dixo
diz
dizer
dj
djibouti
djs
dk
dl
dm
dms
dmy
dna
do
doac
doada
doadas
doado
dober
dobra
dobrado
dobraige
dobramiento
dobramientos
dobrando
dobro
dobrou
doc
doce
docente
doces
docname
docpage
docs
doctitle
document
documenta
documentac
documentairo
documentairos
documental
documentation
documents
doente
doentes
does
doesn
dog
dogma
dogmas
doi
dois
dolhnikoff
dollar
dolo
dolorosa
dolos
dom
domain
dome
domenica
domenicana
domenico
domesticac
domesticadas
domesticado
domesticados
domi
domiciano
domina
dominaba
dominac
dominada
dominadas
dominado
dominados
dominan
dominando
dominante
dominantes
dominar
domingos
domingues
dominicana
domino
dominou
dominus
domus
don
dona
donac
donald
donata
donatairo
donatairos
donato
donde
done
dones
dong
dontsob
donum
donzela
donzelas
dor
dorsal
dorso
dos
dose
doses
dostoie
dostoyevski
dot
dota
dotada
dotadas
dotado
dotados
dote
dotes
doto
dotou
dots
dottedline
dottrina
dou
double
douglas
dourada
dourado
dourados
douro
dous
doutor
doutorado
doutoramiento
doutores
doutrina
doutrinal
doutrinales
doutrinas
dover
down
downbursts
download
dq
dr
dra
draco
draft
dragon
dragones
drake
drama
dramas
dramaturgie
dramaturgo
dramaturgos
dran
drasticamente
dream
dreams
drean
dreita
dreito
dreitos
drena
drenaige
drento
dresden
dressler
dreyfus
dricos
droga
drogas
dromo
drop
drrb
drumir
drumito
drummond
drun
dry
dsc
dsts
dt
dtime
du
dua
dual
dualidade
dualismo
dualista
duarte
duas
dubida
dubidar
dublin
ducado
ducados
duce
due
dues
duet
dulce
dulin
dulo
dulos
dum
duma
dume
dummy
dumont
dun
dunam
dunar
dunas
duns
duo
duonho
duonhos
duos
duoze
dup
dupla
duplas
duplicac
duplicate
duplo
duque
duques
duquesa
dura
durablidade
durac
duradoura
duradouro
duradouros
duramente
duran
durante
durar
durarie
duras
durban
durch
durer
dureza
durhan
during
durkhein
duro
duros
durou
dutch
dutra
duzientos
dvd
dwight
dword
dx
e
ea
each
ealing
eanes
earlier
early
earth
ease
easier
east
eastern
easy
eating
eax
eb
ebange
ebangelhos
ebchecked
ebentualmente
ebide
ebionitas
ebp
ebro
ebulic
ec
ecle
eclesia
ecli
eclipse
eclipses
eclodiu
ecloson
eco
ecolo
ecologie
economic
ecossistema
ecossistemas
ecoturismo
ecuador
ecume
ecx
ed
edades
edda
eddie
edessa
edgar
edge
edic
ediciones
edicions
edit
editado
edited
editing
edition
editions
editor
editora
editores
editorial
editors
edits
edmund
edo
eds
edsel
edu
eduardo
educac
education
edward
edwards
edwin
ee
eei
eesiste
eesisten
ef
efe
efetiba
efetibamente
efetibo
efetibos
efetua
efetuada
efetuadas
efetuado
efetuar
efetuou
effect
efi
efica
eficac
eficazes
eficie
eficiente
eficientes
efrai
ega
egas
eh
ehud
ei
eiba
eibacuac
eibanes
eibange
eibangeilho
eibangelho
eibangelhos
eibangelista
eibaporac
eibe
eibento
eibentos
eibentual
eibentuales
eibentualmente
eibide
eibidencia
eibidenciada
eibidenciado
eibidencian
eibidente
eibidentemente
eibidentes
eibita
eibitadas
eibitan
eibitando
eibitar
eibitou
eiboca
eibola
eiboluc
eiboluciona
eibolucionista
eibolui
eiboluindo
eiboluir
eiboluiu
eibolutiba
eibolutibas
eibolutibo
eibolution
eicec
eicele
eicelente
eicelentes
eicepc
eicesso
eicolo
eicologie
eicono
eiconomic
eiconomicamente
eiconomie
eidade
eidades
eidantidade
eidantidades
eidantifica
eidantificac
eidantificada
eidantificadas
eidantificado
eidantificadores
eidantificados
eidantifican
eidantificar
eidantifico
eidantificou
eide
eidea
eideal
eideales
eidealismo
eidealista
eidealizada
eidealizado
eidefi
eideia
eideias
eiden
eidentidade
eideograma
eideogramas
eideolo
eideologicamente
eideologie
eideologies
eidic
eidiciones
eidifi
eidificac
eidificado
eidificar
eidimburgo
eidison
eidita
eiditada
eiditado
eiditados
eiditar
eidition
eidito
eiditor
eiditora
eiditoras
eiditores
eiditorial
eiditoriales
eiditorias
eiditou
eiduarda
eiducac
eiducacional
eiducacionales
eiducada
eiducado
eiducador
eiducadores
eiducados
eiducar
eiducatiba
eiducatibas
eiducatibo
eiducatibos
eiducation
eifeito
eifeitos
eiffel
eifica
eificac
eigas
eigeu
eigi
eigito
eignora
eignorada
eignorado
eignoran
eignorando
eignorantes
eignorar
eignorou
eigo
eigoce
eigoi
eigor
eigreija
eigreijas
eigreja
eigual
eigualdade
eiguales
eigualita
eigualmente
eijaculac
eijiste
eil
eila
eilabora
eilaborac
eilaborada
eilaboradas
eilaborado
eilaborados
eilaborar
eilaborou
eilamitas
eilasticidade
eilatricidade
eilba
eilbira
eile
eileba
eilebac
eilebada
eilebadas
eilebado
eilebador
eilebados
eilebando
eilebar
eilebou
eilega
eilegal
eilegales
eilegalidade
eilegalmente
eilegante
eileger
eilegeu
eilegi
eileic
eileicoes
eileita
eileito
eileitor
eileitorado
eileitoral
eileitorales
eileitores
eileitos
eilementar
eilementares
eilemiento
eilemientos
eilenco
eiletiba
eiletricamente
eiletricidade
eiletro
eiletrodome
eiletromagne
eiletromagnetismo
eiletron
eiletrones
eiletroqui
eilfos
eilgin
eilha
eilhas
eilhes
eilhi
eili
eiliade
eiliana
eilias
eiliminac
eiliminar
eiliminou
eiliot
eilisabeth
eilisabethentor
eilite
eilites
eilizabeth
eilla
eille
eillen
eilles
eillinois
eilliot
eilliott
eilma
eilo
eilogiado
eilogio
eilogios
eiloque
eilsebier
eilumenismo
eiluminac
eiluminado
eiluminismo
eiluministas
eiluso
eiluson
eilusones
eilustra
eilustrac
eilustrada
eilustrado
eilustrados
eilustrar
eilustre
eilustres
eilysiun
eimaculada
eimage
eimagina
eimaginaba
eimaginac
eimaginado
eimaginairo
eimaginar
eimagine
eimaginou
eimago
eimaige
eimaiges
eiman
eimana
eimanente
eimatenib
eimaterial
eimediac
eimediata
eimediatamente
eimediato
eimensa
eimensas
eimenso
eimensos
eimerge
eimergente
eimergentes
eimergir
eimergiran
eimergiu
eimerso
eimerson
eimigrac
eimigrante
eimigrantes
eimigrar
eimigro
eimigrou
eimine
eiminente
eiminentemente
eiminentes
eimissa
eimisson
eimissones
eimissor
eimissora
eimissoras
eimita
eimitac
eimitar
eimite
eimitida
eimitidas
eimitir
eimitiu
eimmanuel
eimo
eimoble
eimobles
eimoblia
eimoc
eimoral
eimortal
eimortalidade
eimunidade
eimutable
eimutables
ein
einaugurada
einaugurado
eine
einebitable
einebitablemente
einebitables
einemigos
einerge
einergie
einergies
einergy
einicial
einiciales
einicialmente
einiciatiba
einiciatibas
einigma
einimigas
einimigo
einimigos
einobac
einorga
einorme
einormes
einougurac
einougurada
einougurado
einougurou
einstein
einu
eio
eiorque
eip
eipi
eipidemia
eipidemias
eipidemie
eipidemies
eipifa
eipigramas
eipilepsia
eipiscopado
eipiscopal
eipiso
eipistemologie
eipistola
eipita
eipope
eipopeia
eiquac
eiquador
eiquatorial
eiquatoriales
eiqueno
eiquenomic
eiquenomicamente
eiquenomie
eiquenomies
eiquenomista
eiquenomistas
eiqui
eiquibale
eiquibalente
eiquibalentes
eiquili
eiquino
eiquipa
eiquipada
eiquipado
eiquipados
eiquipamentos
eiquipamiento
eiquipamientos
eiquipas
eiquipe
eiquipes
eira
eiran
eiraniana
eiraque
eiraquianas
eiraquiano
eiras
eirie
eirien
eirlanda
eirlande
eiro
eironicamente
eiroson
eirracional
eirracionales
eirradiac
eirrebersible
eirregular
eirregulares
eirregularidade
eirrelebante
eirrigac
eirritado
eiruditos
eis
eisabel
eisame
eisames
eisaminar
eisata
eisatamente
eisatas
eisato
eise
eisecuc
eisecuta
eisecutada
eisecutadas
eisecutado
eisecutados
eisecutando
eisecutar
eisecutiba
eisecutibo
eisecutibos
eisecutou
eisemplar
eisemplares
eisemplo
eisemplos
eisenhower
eiserce
eisercen
eisercendo
eisercer
eiserceu
eiserci
eisercia
eisercian
eisercida
eisercidas
eisercido
eisi
eisibe
eisiben
eisibic
eisibida
eisibidas
eisibido
eisibidos
eisibindo
eisibir
eisibiu
eisige
eisigen
eisigentes
eisigian
eisigido
eisigie
eisigindo
eisigir
eisigiran
eisigiu
eisista
eisistan
eisiste
eisisten
eisistenc
eisistencial
eisistente
eisistentes
eisistia
eisistian
eisistido
eisistie
eisistindo
eisistir
eisistiran
eisistiren
eisistirie
eisistisse
eisistiu
eisla
eislamismo
eislan
eislana
eisland
eislon
eisolada
eisoladamente
eisoladas
eisolado
eisolados
eisolamiento
eisolda
eisomorfismo
eisote
eisrael
eisraelense
eisraelita
eisraelitas
eisse
eissencia
eissencial
eissenciales
eissencialmente
eissn
eit
eita
eitaliana
eitalianas
eitaliano
eitalianos
eitapa
eiterna
eiternas
eiternidade
eiterno
eiternos
either
eitimolo
eitimologie
eitimologies
eixe
eixes
el
ela
ele
electronvolt
element
elements
eles
eli
elijah
elimina
eliminac
eliminado
eliminar
elite
elitre
elizabeth
elmer
els
else
elseif
elvis
em
emancipac
emancipacionista
emanuel
embargo
embargoed
eme
emenda
emerita
emi
emigrac
emigrados
emigrantes
emiliano
emilio
emir
emissora
emitiu
emma
emmanuel
emmanuelle
emmy
emoc
emocional
emocionales
empire
empty
en
ena
enable
enabled
encerro
enciclope
encode
encontros
encyclopaedia
encyclopedia
encyclopædia
end
ende
endeavour
ene
eneida
energy
enes
engineering
england
english
eniac
enicial
eniciales
eniciatiba
eniciatibas
enigma
enigmas
enimigo
enimigos
enormemente
enquadra
enquanto
ensaio
ensaios
ensino
ent
enta
entanto
ente
entente
enterprise
entes
entity
entorno
entra
entraba
entrada
entrado
entran
entrando
entrara
entre
entrevista
entro
entry
entryparam
entusiasmo
entusiasta
enumerated
enunciado
env
envfuncs
environment
enwiki
enzimas
eo
ep
epi
episo
episode
episodenumber
episodetable
eps
equivalent
er
era
eras
erasmo
erasmus
ere
erebus
eremita
eres
eretus
erg
eri
eric
erik
eriksson
ermida
ernest
ernesto
ernst
ero
eros
eroson
err
errada
erradamente
erradas
erradicar
errado
errante
erro
erroneamente
error
errors
erros
erudita
erudito
eruditos
erupc
es
esa
esas
esboc
escala
escape
escolar
escrabidon
escrabos
escravos
escrita
escrito
escritor
escritores
escritos
escudo
esfera
esopo
espac
espacial
espadeiro
espan
espanha
espanhol
espanhola
espe
espece
especi
especial
especialmente
esperanc
esperanto
esquerda
essa
essai
essas
essays
esse
esses
esso
est
esta
estac
estado
estados
estar
estas
estatuto
este
estes
esti
estilo
esto
estou
estrada
estrate
estrutura
estudo
estudos
et
eta
etal
etano
etapa
etapas
etc
ete
eternamente
ethernet
ethics
ethnologue
eti
etimolo
etimologie
etio
etnia
etnias
etnicamente
etnicidade
etnie
etnies
etno
etnogra
etnografie
etnologie
etrusca
etrusco
etruscos
etzel
eu
eua
eucari
eucaristia
euclides
euforia
eufrates
euge
eugene
eugenia
eula
euler
eume
eunuco
eunucos
eur
eura
euri
eurico
euro
europa
europe
european
europeu
eurovision
euse
eutana
ev
eva
evaluate
even
event
ever
every
everyone
ewe
ex
example
except
exception
exceptions
exemplo
exhaust
exist
existe
existem
existing
exists
expandtemplate
expected
expecttype
experie
experience
experiment
exploration
explorer
exponent
expression
ext
extension
external
externas
extra
extract
extremadura
eye
f
fa
fabor
faborable
faborables
faborece
faborecendo
faborecer
faborecida
faborecido
faborecie
faboreciu
faborito
faboritos
fabrica
fabricac
fabricada
fabricadas
fabricado
fabricados
fabricante
fabricantes
fabricar
fabrico
fac
faca
facas
face
facebook
facelidade
facelidades
facelita
facelitando
facelitar
faces
fachada
fachadas
fachoda
facilidade
facilitar
facilitou
facilmente
facto
factor
faculdade
faculdades
facundo
fadas
fado
fados
fafe
faga
fago
fagotes
fahrenheit
fai
faial
fail
fails
faint
fairway
faith
faixa
faixas
fala
falaba
falada
faladas
falado
falados
falan
falando
falante
falantes
falar
falas
falco
falcon
fale
falece
falecer
falecida
falecido
falecimiento
faleciu
falha
falhado
falhas
falhe
falho
falhou
fall
falls
falo
falou
falsa
falsas
false
falsidade
falsificac
falso
falsos
falta
faltaba
faltan
faltando
faltas
fama
famalicon
fame
famelia
fameliar
fameliares
fameliaridade
fami
familiar
familiares
family
famosa
famosas
famoso
famosos
fan
fana
fanas
fanatismo
fanes
fang
fanta
fantasia
fantasie
fantasma
fantasmas
fantasy
fao
faq
far
farao
farc
farinha
farinhas
fariseus
farmace
faro
farol
farrapos
farroupilha
farsa
farsas
faschismus
fasci
fascinado
fascinantes
fascism
fascismo
fascisn
fascista
fascistas
fase
fases
fassbau
fast
faster
fat
fatal
fatalmente
fatbok
fate
father
fati
fato
fator
fatorac
fatores
fatos
fats
fauna
faust
fausto
favor
favorite
fayard
faz
faze
fazemos
fazenda
fazendas
fazendeiro
fazendeiros
fazendo
fazer
fazera
fazerie
fazerien
fazi
fazie
fazien
fazira
fazirun
fazisse
fazl
fbi
fc
fe
feat
feature
features
feb
febre
febreiro
february
fec
fecha
fechamiento
fechando
fecho
fechou
fecundidade
federac
federados
federal
federales
federalismo
federalistas
federatiba
federico
feedback
feet
fego
feia
feic
feijo
feios
feira
feiras
feita
feitas
feitic
feito
feitoria
feitorias
feitos
feixe
felcidade
felgueira
felgueiras
feliac
felial
felic
felicidade
felina
felino
felinos
felipe
felipinas
felipino
felis
felix
felizes
fellow
female
femenina
femeninas
femenino
femeninos
femenismo
femenista
femenistas
feminina
feminino
femme
femmes
fen
fendas
feni
fenita
fenitas
fenito
fenitos
feno
fenomenal
fenomenolo
fenomenologie
fer
fera
feras
ferbor
ferdinand
ferguson
feria
feriado
feriados
ferida
feridas
ferido
feridos
ferimientos
ferir
feriu
fermat
fermentac
fermentado
ferna
fernand
fernanda
fernandes
fernandinas
fernando
fernon
fero
feroc
feros
ferozes
ferozmente
ferradura
ferramienta
ferramientas
ferreira
ferreiro
ferreiros
ferrobia
ferrobiairo
ferrobiairos
ferrol
fertelidade
fertilidade
fertilizac
fertuna
fesicamente
fesiolo
fesiologie
feso
festebidades
festeijos
festibal
festibales
festibidades
festival
fetura
feturamente
feturas
feturismo
feturo
feturologie
feturos
feudal
feudales
feudalismo
feudos
feuerbach
fevereiro
few
fexeiro
fexeiros
ff
fi
fia
fibe
fibonacci
fibra
fibras
fic
fica
ficas
ficc
fice
fices
ficheiro
ficional
ficit
fico
ficos
fiction
fidalgo
fidalgos
fidel
fidelidade
fie
fiel
field
fields
fierro
fierros
fiesta
fiestas
fifa
fifpro
fifth
fight
fighter
fighting
figueira
figueiredo
figueres
figura
figuran
figurando
figuras
figures
fiji
fila
filade
filadeiro
filar
filarmo
filas
file
fileiras
files
filha
filhas
filho
filhos
filhotes
filiac
filial
filinto
filipa
filipe
filipina
filipinas
filipinos
fill
filled
film
filmaiges
filme
filmes
filmografie
filo
filogene
filogenia
filologie
filos
filoso
filosofia
filosofie
filosofies
filotiu
fim
fin
fina
final
finale
finales
finalidade
finalidades
finalista
finalizac
finalizado
finalizar
finalmente
financ
financeira
financeiramente
financeiras
financeiro
financeiros
financiado
financial
financiamiento
financiar
financiou
finas
find
fine
fines
finite
finla
finlande
finlandesa
finlandeses
finn
finneganes
fino
finos
fins
fio
firanj
fire
firma
firmado
firmar
firme
firmemente
firmo
firmou
first
firstn
fis
fiscal
fiscales
fischer
fish
fisher
fisiolo
fisiologie
fita
fitas
fiti
fito
five
fix
fixa
fixac
fixada
fixadas
fixado
fixados
fixando
fixar
fixas
fixed
fixo
fixou
fizo
fl
fla
flabiense
flag
flamarion
flamenga
flamengo
flamengos
flaming
flanco
flandres
flash
flashback
flecha
flechas
fleming
flexibelidade
flexible
flight
flip
flo
floor
flor
flora
florenc
florence
florentino
flores
florescente
florescer
floresceu
floresci
florescimiento
floresta
florestal
florestales
florestas
floriano
florida
flors
flow
flubial
flubiales
fluente
flui
fluidec
fluido
fluidos
fluminense
fluminenses
flutuac
flutuante
flutuar
fluxo
fluxos
flying
fm
fmargs
fmbox
fmi
fmt
fn
fo
fobos
foc
foca
focada
focado
focas
focles
foco
focos
focou
fod
fods
foederati
foge
fogon
fogueira
fogueiras
foguete
foguetes
fogueton
foguetones
foi
fojo
folar
folclo
folclore
folha
folhadal
folk
folklore
follow
following
fomentar
fomiento
fon
fona
fondo
fondos
fondou
fone
fonemas
fono
fonogra
fonologie
fonos
fonseca
fonso
font
fontainebleau
fontana
fonte
fontsize
foo
foot
for
fora
foral
forall
foram
foras
forbes
forc
forca
force
ford
foreign
forense
forest
form
forma
formaba
formac
formada
formadas
formado
formados
formal
formales
formalismo
formalizac
formalmente
forman
formando
formar
formarian
formas
format
formatnum
formato
formatos
formats
formatted
formatting
formigas
formo
formosa
formoso
formou
forms
formula
formulac
formulada
formulado
formular
formulou
forn
fornece
fornecen
fornecendo
fornecer
forneci
fornecida
fornecidas
fornecido
fornecidos
fornecie
fornecimiento
forneciu
forno
fornos
foro
foron
foros
forrester
fort
fortalecer
fortalecimiento
fortaleza
fortalezas
fortificac
fortificado
fortificados
fortificar
fortran
fortuna
forun
forward
fos
fossa
fossas
fosse
fosso
fossos
fotball
foto
fotoeile
fotogra
fotos
fotosfera
fotossi
foucault
fouce
found
foundation
foundations
four
fourier
fox
foz
fr
fra
frac
fraca
fracamente
fracas
fracassa
fracassada
fracassado
fracasso
fracassou
fraciona
fracisco
fraco
fracos
fraction
frade
frades
fraga
fragmenta
fragmentac
fragmentado
fragmentos
fragmiento
fragmientos
fraguesie
fraguesies
fraita
fraitas
frama
frame
frameless
framework
franc
franca
francas
france
francelos
francesa
francesas
francesc
francesca
francesco
franceses
francia
francis
francisca
franciscano
franciscanos
francisco
franck
franco
francos
frango
frank
frankfurt
franklin
franquia
franquismo
franquista
franquistas
franz
fraqueza
fraquezas
frasco
frascos
frase
frases
fraternidade
fratura
fraturas
fraude
fraudes
frauenzimmerbau
frauga
fraugado
fraugando
fre
frea
fred
frederick
fredericksburg
frederico
fredon
free
frege
freguesie
freguesies
frei
freijon
freira
freiras
freire
freitas
frelimo
freman
fremont
french
frente
frentes
freque
frequenta
frequentaba
frequentado
frequentar
frequente
frequentemente
frequentes
frequently
frequentou
fresca
frescas
fresco
frescos
fresno
freud
frezno
fri
fric
frica
frie
friedman
friedrich
friedrichsbau
frielas
friend
friends
fries
friesental
frigori
friso
fritc
fritz
friu
frius
froila
frol
from
fron
frota
frotas
frouseira
fru
fruela
fruit
fruita
fruitas
fruiti
fruito
fruitos
fruituoso
frunt
fruntal
fruntcober
frunte
frunteira
frunteiras
frunteiric
frunton
frustrac
frustrada
frustrado
frutar
fsm
ft
ftp
fu
fudan
fue
fuel
fuente
fuga
fugas
fugian
fugido
fugindo
fugir
fugiran
fugiu
fuhrer
fui
fuji
fujian
fulcral
fulge
full
fullargs
fuller
fullurl
fumac
fumar
fumo
fumos
fun
func
funchal
funciona
funcionaba
funcionairo
funcionairos
funcional
funcionales
funcionalidade
funcionalidades
funcionalismo
funcionamento
funcionamiento
funcionan
funcionando
funcionar
funcione
funcionou
function
functions
fundac
fundacio
fundada
fundadas
fundado
fundador
fundadora
fundadores
fundados
fundamenta
fundamental
fundamentales
fundamentalismo
fundamentalista
fundamentalistas
fundamentalmente
fundamento
fundamiento
fundamientos
fundando
fundar
funden
fundic
fundida
fundidas
fundido
fundidos
fundir
fundiran
fundo
fundou
funera
fungo
fungos
funil
fuogo
fuogos
fuolha
fuolhas
fuonte
fuontelo
fuontes
fuora
fuorc
fuorte
fuortemente
fuortes
fur
fura
furacon
furacones
furada
furioso
furmiento
furna
furnas
furtado
fuso
fuson
fusos
fusse
futebol
futebolista
futebolistas
futsal
future
futuro
fuzileiros
g
ga
gabinete
gabinetes
gabon
gabriel
gado
gae
gagarin
gaia
gaita
gal
gala
galaico
galaicos
galardoado
galba
galbon
gale
galega
galegas
galego
galegos
galeno
galeon
galeria
galerie
galeries
gales
galhega
galhego
galhinhas
galho
galhos
gali
galiano
galicia
galile
galilei
galileo
galileu
galison
galistiu
galiza
gallaecie
gallegos
gallery
gallimard
gallon
gallons
gama
game
games
gamma
gamos
gamow
gan
gana
ganado
ganados
gandalf
gandhara
gandhi
gange
ganges
gangues
ganha
ganhado
ganhador
ganhan
ganhando
ganhar
ganhara
ganharie
ganho
ganhos
ganhou
gani
gansu
gap
gara
garante
garantida
garantido
garantie
garanties
garantindo
garantir
garantiran
garantiu
garc
garce
garci
garcia
garden
garibaldi
garimpeiros
garimpo
garota
garoto
garotos
garrafas
garras
garsd
gary
garzke
gas
gases
gasolina
gaspar
gastan
gastar
gasto
gastos
gastou
gastro
gastrono
gastronomie
gata
gatas
gates
gathas
gato
gatos
gatt
gau
gauguin
gaule
gauleses
gaulle
gauss
gautama
gay
gays
gaza
gazeta
gazette
gazetters
gazoso
gazosos
gb
gc
ge
geadas
geira
geisel
geleira
gelimer
gem
gemas
geminac
geminado
gemini
gen
gena
genas
gene
genealo
genealogie
genealogies
genebra
genera
general
generales
generalidade
generalista
generaliza
generalizac
generalizada
generalizado
generalizar
generalizou
generate
generated
generates
generation
genericamente
genes
geneticamente
genitibo
geno
genoba
genobe
genobesa
genobeses
genoci
genoma
genos
genre
genro
genserico
gente
genti
gentil
gentile
gentio
gentios
genui
genuinamente
geo
geoce
geode
geoffrey
geofi
geogra
geograficamente
geografie
geographic
geolo
geological
geologicamente
geologie
geome
geometrie
geomorfologie
geopoli
georg
george
georges
georgetown
georgiano
geostro
geote
geotype
ger
gera
geraba
gerac
gerada
geradas
gerado
geradora
geradores
gerados
gerais
geral
gerales
gerando
gerar
gerard
gere
gerenciales
gerenciamiento
gerenciar
gerir
germa
germain
german
germano
germanos
germany
germe
gero
gerou
gerrardanthus
gertc
gertrude
geschichte
gesta
gestac
gestalt
gestapo
geste
geston
gestor
get
getargnums
getargs
getcatforid
getcurrentframe
getcurrenttitle
getenvironment
getmapparams
getparent
gets
gettysburg
getu
geyer
gi
gia
giacometti
giacomo
gian
gias
gibbon
gibe
gibraltar
gica
gicas
gico
gicos
gida
gidas
gide
gido
gidos
gie
giente
gientes
gif
gigante
gigantes
gigantesca
gigantescas
gigantesco
gigantescos
gijo
gil
gila
gilada
gilado
gilados
gilbert
gilberto
giles
gilgamesh
gime
gimpo
gina
ginas
ginkgo
gio
giobanni
gioconda
giordano
giorgio
gios
giotto
giovanni
gira
giral
girald
giraldo
girales
giralmente
girar
girassol
girassoles
girato
girl
girls
giro
giron
girondinos
girosco
gita
gito
gitos
giuseppe
give
given
gives
gize
gj
gje
gl
gla
glaciac
glacial
gladys
glasgow
glasnost
glenn
glicose
glifos
glo
global
globales
globalizac
globalizado
globalization
globe
globo
glockenturm
gloria
gloriosa
glorioso
gm
gmatch
gmg
gmol
gn
gneas
gnia
gnias
gno
gnosticismo
gnu
go
goa
goal
gob
goberna
gobernaba
gobernac
gobernada
gobernadas
gobernado
gobernador
gobernadores
gobernados
gobernamental
gobernamentales
gobernanc
gobernando
gobernante
gobernantes
gobernar
gobernment
goberno
gobernos
gobernou
gobierno
gobiernos
gobiernou
god
goddard
godinho
godo
godos
gods
godsp
goebbels
goethe
goff
gogh
gogol
goia
golana
gold
golda
golden
goldhagen
goldman
golf
golfe
golfinos
golfo
gollun
golo
golos
golpe
golpes
golpistas
gomes
gon
gona
gonc
gondomar
gondwana
gone
gono
gonza
gonzaga
gonzalo
good
google
goras
gorbacheb
gorda
gordiano
gordo
gordon
gordura
gorduras
gorja
gospel
gosto
got
gotoku
gottfried
goubeia
goulart
goule
gov
governo
goya
goza
gozar
gozo
gps
gr
gra
graba
grabac
grabada
grabadas
grabado
grabador
grabadora
grabados
grabar
grabe
grabemente
grabes
grabi
grabidade
grabidec
grabiela
grabitac
grabitacional
grabitacionales
grabo
grabou
grabura
graburas
grac
grace
graceland
graciosa
grada
gradatibamente
grade
grades
gradiente
gradiva
grado
graduac
graduado
graduados
gradual
graduou
grady
graf
grafado
graficamente
grafie
grafies
grafite
grafo
grafos
grahan
graimberg
gram
grama
gramado
gramas
gramatical
gramaticales
grami
grammar
grammy
grams
gran
grana
granada
granadas
grand
grande
grandemente
grandense
grandes
grandeza
grandezas
grandiosidade
grandioso
grani
granito
granja
grano
granos
grant
granth
graphic
gratuita
gratuitamente
gratuito
gratuitos
grau
graus
graxos
gray
gre
great
greater
greatest
grebe
grebes
grece
greciantiga
greco
greek
green
greetings
grega
grego
gregos
grek
gren
grenwich
greyjoy
gridcolor
griega
griegas
griego
griegor
griegoriano
griegory
griegos
griffin
grima
grimas
grimm
grimn
gripe
grito
gritos
grobe
groenla
grosso
grossos
ground
group
groups
gruossa
grupo
grupos
gruta
gs
gsub
gu
gua
guadalajara
guadalupe
guadiana
guan
guanabara
guangdong
guangxi
guangzhou
guapa
guapas
guapo
guapos
guarani
guaranis
guarda
guardado
guardar
guardas
guardian
guardion
guarnic
guaruja
guas
guatemala
gue
guebara
guec
gueda
guedes
guele
guelfos
guen
guernica
guerra
guerras
guerreira
guerreiro
guerreiros
guerrilha
guerrilhas
guerrilheiro
guerrilheiros
guetos
guevara
guez
gugu
gui
guia
guiada
guiados
guiana
guianas
guiar
guias
guidance
guide
guido
guila
guilas
guilda
guilherme
guilhotina
guilin
guillermo
guimara
guine
guinness
guira
guitarra
guitarrista
gulag
gulbenkian
gunderico
gundobad
gungunhana
gunnar
gunther
guo
gurion
guru
gurus
gusta
gustab
gustaba
gustabo
gustar
gustarie
gustave
gusto
gustos
gustou
guta
gutenberg
guterres
guy
guzerate
h
ha
haapala
hab
haba
habai
habana
habe
habendo
haber
habera
haberie
habido
habie
habien
habita
habitaba
habitable
habitac
habitada
habitadas
habitado
habitados
habitan
habitante
habitantes
habitants
habitar
habitat
habitats
habito
habitual
habituales
habitualmente
habla
habsburgo
habsburgos
had
hades
hai
haia
haifa
haikai
haiku
haiti
haja
hajj
hakkari
halbelidade
halbelidades
halblidades
halen
hales
half
hall
halleck
halo
hamas
hamburgo
hamilton
hamlet
hampshire
hamurabi
han
hand
handbok
handbook
handicap
handle
handled
handler
handlers
hands
hanes
hank
hannah
hano
hans
hantula
hapoel
happened
happy
harappa
harbard
harbor
hard
harda
hardanc
hardback
hardcore
hardeiro
hardware
hardy
hare
harlow
harmo
harmonia
harmonie
harmoniosa
harmony
harold
harper
harris
harrison
harry
hart
harvard
has
hasi
haskell
hassan
hasta
hat
hatnote
haumea
hauser
have
haver
haveria
hawaii
hay
hayate
haydn
hazar
hbo
hc
hd
hdl
he
header
heading
health
heart
hectare
hei
heiaben
heiabyweight
heiad
heialth
heian
heiarn
heibraica
heibraicas
heibraico
heibreu
heibreus
heibron
heidegger
heidelberg
heidelberger
heidra
heidrocarbonetos
heidroele
heidroge
heidrogra
heidrografie
heidrosta
heigel
heigelianos
heigemo
heigemonia
heigemonie
height
heigiene
heilbrunn
heile
heilen
heilena
heileni
heilenismo
heilenista
heilico
heilio
heilioce
heiliocentrismo
heill
heillas
heilsinque
heimisfe
heindrix
heinemann
heing
heinri
heinrich
heinriques
heinry
heinslow
heintila
heip
heipa
heipatite
heipburn
heipe
heiperbo
heipo
heipona
heipote
heira
heirald
heirba
heirbert
heirbi
heirculano
heirdado
heirdados
heirdeira
heirdeiro
heirdeiros
heirdou
heire
heiredita
heireditariedade
heiresie
heiresies
heirman
heirmann
heirme
heirmene
heirmenegildo
heirmes
heirna
heiro
heirodes
heiroi
heirschel
heirtc
heirzegobina
heirzl
heisi
heisitac
heisse
heitares
heitero
heiteroge
heiterosseisismo
heiterossexual
heiterossexuales
heiterossexualidade
heitor
heixa
heixadecimal
heixadecimales
heixisea
heizbollah
helena
hello
help
helper
henri
henrique
henriques
henry
here
heritage
hero
herschel
heste
hi
hib
hicsos
hidden
hidra
hidrele
hidrocarbonetos
hidroele
hidroge
hidrogra
hidrografie
hidrologie
hidrosta
hiera
hierarquia
hierarquias
hierarquie
hiero
high
highlight
higiene
higuera
hijo
hikmet
hilbert
hill
hillary
hills
hilton
himalaias
hindenburg
hindi
hindu
hindui
hindus
hino
hinos
hip
hirohito
hiroshima
hirschgraben
his
histo
histoire
histoires
historia
historical
history
hitita
hititas
hitler
hitleriana
hits
hiyori
hizbollah
hl
hler
hlist
hm
hn
ho
hobbes
hobbit
hober
hoc
hoeren
hoffmann
hohenstaufen
hohenzollern
hoi
hoije
hoje
hok
hoker
hokkaido
hokusai
holanda
hold
holding
holds
hole
holland
holly
hollywod
holmes
holocaust
holocausto
holstein
holt
holtei
hombre
home
homem
homer
homero
homes
homici
homini
homme
homo
homoerotismo
homofobia
homoge
homosexuality
homossexual
homossexuales
homossexualidade
homossexualismo
honduras
hong
hono
honolulu
honora
honori
honoris
honra
honrado
honrar
honras
honrosa
hooker
hoover
hop
hopkines
hopper
hora
horairo
horairos
horas
horda
horizontal
horizontales
horizonte
hormo
hormonales
horror
horsepower
horta
hortas
hortense
horti
hortus
hosseni
host
hostelidade
hostelidades
hostil
hostilidade
hostilidades
hostis
hot
hotel
houaiss
houbir
houbisse
houbisses
houbiste
houbo
houlanda
houlande
houlandesa
houlandesas
houlandeses
houlocausto
houman
houmana
houmanas
houmanes
houmani
houmanidade
houmanidades
houmanismo
houmanista
houmanistas
houmanita
houmano
houmanos
houmenageado
houmenagear
houmenagem
houmenaige
houmenaiges
houmidade
houmildade
houmilde
houmildes
houmilhac
houmilhado
houmor
houmossexuales
houmossexualidade
hounestidade
hounesto
hour
houra
hourizontal
hourizonte
hourizontes
hours
house
houston
houteles
houver
how
howard
howeber
however
howorth
hoy
hp
hs
htm
html
htn
http
https
hu
huang
huangdi
hubble
hubert
huckleberry
hudson
hue
huesca
hugh
hughes
hugo
huguenotes
hui
huma
human
humano
humberto
humboldt
hume
humor
humori
hun
huna
hundred
hundredweight
hungria
hungrie
huno
hunos
huns
huorto
huortos
hus
husayn
husky
hussein
huxley
huygens
huyges
hyper
hyphen
hyphenated
hyphens
i
ia
iabe
iamos
ian
ias
iasd
iason
iau
ib
iba
iban
ibe
ibenes
ibero
ibge
ibid
ibiden
ibm
ibn
ibne
ibrahin
ic
ica
icas
ice
icl
ico
icon
iconografie
icons
icos
id
ida
ide
ideas
identifier
identifiers
ides
idh
idi
idioma
idiomas
ido
idolatria
idos
idoso
idosos
ids
ie
ieee
ien
iene
ienes
if
ifige
ig
igina
iginas
ignore
ignored
igreja
ii
iii
ijui
ikio
ikki
il
ilha
ilhas
ilhe
ilhotas
illinois
iluminac
iluminismo
ilustrac
im
image
imageleft
imagem
images
imagesize
imaging
imbox
imdb
imp
impe
imperador
imperial
impgal
implements
important
impoz
imprensa
improve
improved
improvements
improving
in
ina
inacabado
inactive
inadequada
inalac
inaugurac
inaugurada
inaugurado
inaugurou
inch
inches
include
included
includes
including
inclui
increment
inda
indagac
indent
index
india
individual
indo
indulgences
ine
inegable
ineisiste
ineisistente
inerente
inerentes
inesperada
ineti
infainc
info
infobox
infocell
informac
information
infty
ingle
ingros
ini
inimiga
inimigas
inimigo
inimigos
ininterruta
initial
initials
initiative
inline
ino
inobac
inobadora
inobadoras
inobadores
inoce
inocentes
inout
input
insert
inserted
inserter
inserting
inside
instead
instituic
institute
instituto
instructions
integer
interesse
interface
interior
interlingue
internacional
internal
international
internet
interview
interwiki
into
introduc
introduction
inu
inundac
invalid
invisible
invoke
io
ioga
iogurte
iorque
ios
iowa
ip
ipa
ipairs
ipanema
ipiranga
ippar
ir
ira
iraniana
iraniano
iranianos
irc
ireland
irene
irgun
irineu
irish
irlanda
irlande
irlandesa
irlandeses
iro
iron
ironicamente
is
isa
isaac
isabel
isai
isaque
isbn
iscomplex
ise
isenc
ishbara
ishiai
isidoro
isito
isla
islam
islamismo
island
ismail
ismn
isn
isnumber
iso
isodo
isolamiento
isolar
israel
iss
issa
issn
isso
issue
issues
istambul
istmo
isto
isvn
isxn
it
ita
italia
italiano
italic
italicize
italics
italictitle
italo
italy
item
itemid
items
iten
itenes
itinera
itinerante
itinerantes
ito
its
iucn
iugosla
ius
iv
ivan
ix
ixaro
ixaros
j
ja
jaba
jabe
jabier
jacare
jacarepagua
jacarta
jacinto
jack
jackson
jaco
jacob
jacobina
jacobino
jacobinos
jacopo
jacques
jacui
jade
jaguar
jaime
jainas
jainismo
jake
jakob
jakobson
jales
jali
jamaica
jamales
james
jamestown
jan
jane
janeiro
jantar
january
japan
japanese
japon
japone
japonesa
japonesas
japoneses
jar
jardim
jardin
jardines
jardins
jarusalen
jas
jason
jasus
jatene
jato
jatos
java
jaxa
jay
jazc
jazidas
jazz
je
jean
jeanne
jeff
jefferson
jeffrey
jeito
jeje
jennifer
jenny
jeoba
jeremy
jero
jerome
jerry
jersey
jerusale
jese
jespersen
jesucristo
jesui
jesus
jettenbuhl
jewish
jews
jhtn
ji
jia
jiba
jihad
jim
jime
jimmy
jin
jinela
jinelas
jing
jo
joa
joan
joana
joanesburgo
joaquim
joaquin
jobin
jobs
joe
joel
joffrey
joga
jogada
jogado
jogador
jogadores
jogando
jogar
jogo
jogos
jogou
johan
johann
johanna
johannes
john
johnes
johnny
johns
johnson
johnston
join
joins
joint
jon
jonas
jonathan
jones
jorda
jordan
jordanes
jorge
jornada
jornadas
jornal
jornales
jornali
jornalismo
jornalista
jornalistas
jose
josef
josefo
josep
joseph
josh
jost
josue
joule
journal
joyce
jpa
jpg
jr
jsp
jstor
ju
juan
juana
juazeiro
jubenil
jubenis
jubilea
juca
juda
judah
judai
judaica
judaicas
judaico
judaicos
judaisn
judas
jude
judeia
judicia
judicial
judiciales
judie
judith
judiu
judius
judo
jugo
jugosla
jui
juic
jul
jules
julga
julgaba
julgado
julgados
julgamiento
julgamientos
julgando
julgar
julgo
julgou
julho
julia
julian
juliano
julieta
julio
julion
julius
july
jun
junc
june
jung
junho
junior
junot
junqueiro
junta
juntamente
juntan
juntando
juntar
juntas
junto
juntos
juntou
jupiter
jura
juramiento
jurar
jure
juri
juridicamente
juris
jurisdic
jurisprude
jurista
juristas
juro
jurong
juros
jusante
juscelino
jussila
just
justa
justamente
justeficar
justeniano
justi
justic
justifica
justificac
justificada
justifican
justificatiba
justiniano
justo
justos
jutla
jutos
k
ka
kabir
kabuto
kafka
kagami
kahn
kai
kaiser
kama
kamala
kamen
kami
kampf
kampmann
kan
kang
kanji
kansas
kant
kara
karamazob
karate
kardec
kardecista
karen
karl
karlsruhe
karma
karnataka
kassel
katanga
kathmandu
kato
kawabata
kazan
kb
kcal
ke
keep
keith
kelly
kelvin
ken
kennedy
kenneth
kent
kentucky
kepler
kera
key
keyboard
keys
keywords
kg
kgf
kha
khan
khc
khmer
khomeini
khrushcheb
khrushchev
khrushchob
khwarizmi
ki
kibo
kick
kidman
kieb
kiebana
kiev
kilogram
kilograms
kilometer
kilometers
kilometre
kilowatt
kin
kind
king
kippur
kipur
kiranti
kirtland
kita
kj
klaus
klene
klerk
km
kmol
kn
knesset
knight
know
knowledge
known
knuth
ko
kobayashi
koch
kolonaki
komachi
kong
konrad
konstantin
korea
korean
kosobo
kourouma
kpa
kraft
krautturm
kredi
kriorus
krishna
kropotkin
ku
kubitschek
kuhn
kuiper
kupala
kuratowski
kure
kuro
kurt
kusakabe
kutuzob
kuwait
kv
kw
kwanza
kwanzas
kwh
l
la
laba
labar
labas
label
labelo
laborato
laboratory
laboura
labouras
lac
lachaise
lachance
lacorona
lactarius
lada
ladeiras
laden
ladino
lado
lados
ladron
lady
lae
laga
lagash
lago
lagona
lagonas
lagos
lagrange
lai
lake
lama
lambda
lamego
lamiento
lamis
lan
lana
lanc
lance
land
landfall
landi
lang
language
languages
langue
lanka
lannister
lao
laos
lapa
laplace
lapo
lar
lara
laranja
laranjas
lares
largamente
large
largo
lars
las
laser
lassell
last
lastn
lat
lata
latas
late
later
lateral
laterales
latici
latifundia
latim
latin
latina
latinas
latino
latinos
latitude
latitudes
latm
laton
latron
laudes
laura
laurence
laurent
lavoisier
law
lawrence
lay
lazer
lb
lbara
lbarec
lbares
lbaro
lben
lbf
lbio
lbmol
lbula
lbulas
lbun
lbuns
lcanas
lcar
lccn
lcio
lclo
lclos
lcol
lculo
ld
lder
ldica
ldico
le
lea
leading
league
leal
lealdade
leales
learn
learning
least
leave
leba
lebado
lebando
lebante
lebar
lebe
lebemente
lebes
lebi
lebo
lebou
lebre
lebres
lec
lecionar
lecionou
leda
lee
left
leftarrow
legacy
legado
legal
legales
legalidade
legalistas
legalmente
legend
legenda
legi
legio
legion
legiones
legislac
legislatiba
legislatibas
legislatibo
legislatibos
legislatura
legitimidade
lego
legumes
lei
leia
leibnic
leiden
leigos
leipzig
leirie
leis
leite
leito
leitor
leitores
leitos
leitura
leituras
lema
lembra
lembrado
lembranc
lembrar
lemita
lemitac
lemitada
lemitadas
lemitado
lemitados
lemitar
lemite
lemites
lemos
len
lena
lenda
lendairo
lendas
lendo
length
lengua
lenguaige
lenguaiges
lengui
lenguista
lenha
lenin
leninismo
lennon
lenta
lentamente
lente
lento
leo
leoa
leobigildo
leon
leonard
leonardo
leone
leonel
leonhard
leonor
leopold
leopoldo
leque
ler
lera
les
lesbian
lesbos
leslie
leson
less
leste
let
leto
letogenys
letra
letras
letter
letters
lettres
leu
leucemia
level
levels
lewis
lex
ley
leyte
lez
leze
lezes
lfia
lgaro
lgaros
lgbt
lgebra
lgica
lh
lha
lhaba
lhabo
lhaborato
lhaboura
lhabouras
lhabrador
lhabradores
lhacerda
lhackman
lhada
lhadeira
lhado
lhados
lhadrones
lhafones
lhago
lhagona
lhagonas
lhagos
lhake
lhama
lhamego
lhamentac
lhan
lhana
lhanc
lhancaster
lhanhoso
lhao
lhapa
lhapo
lhappalainen
lhar
lharanja
lhares
lharga
lhargamente
lhargo
lhata
lhateral
lhaterales
lhatici
lhatifundia
lhatim
lhatin
lhatina
lhatinas
lhatino
lhatinos
lhatitude
lhatitudes
lhazer
lhazio
lhe
lheal
lhealdade
lheales
lheba
lhebaba
lhebada
lhebadas
lhebado
lhebados
lheban
lhebando
lhebanta
lhebantamiento
lhebantar
lhebante
lhebantou
lhebar
lhebarie
lhebe
lhebemente
lhebes
lhebi
lhebo
lhebou
lheft
lhegac
lhegado
lhegal
lhegales
lhegalmente
lhegenda
lhegi
lhegion
lhegiones
lhegislac
lhegislatiba
lhegislatibas
lhegislatibo
lhegislatibos
lhegislatura
lhegitimar
lhegitimidade
lhei
lheia
lheigos
lheirie
lheirieb
lheis
lheite
lheito
lheiton
lheitor
lheitores
lheitos
lheitura
lheituras
lhema
lhembra
lhembranc
lhembrando
lhembrar
lhemita
lhemitac
lhemitada
lhemitadas
lhemitado
lhemitados
lhemitando
lhemitar
lhemite
lhemites
lhemitou
lhemos
lhenc
lhencastre
lhenda
lhendas
lhendo
lhenguaige
lhenguaiges
lhengui
lhenguista
lhenguistas
lhenha
lhenin
lhenta
lhentamente
lhentes
lhento
lheo
lheon
lheonardo
lheone
lheonesa
lheonor
lheopoldo
lher
lhesa
lheste
lhetibo
lhetra
lhetras
lhevadic
lhewis
lhi
lhibane
lhibaneses
lhibardade
lhibardades
lhibartac
lhibartar
lhiberac
lhiberais
lhiberal
lhiberales
lhiberalismo
lhiberalizac
lhiberar
lhiberdade
lhiberdades
lhiberta
lhibertac
lhibertado
lhibertador
lhibertados
lhibertar
lhibertou
lhibrarie
lhibraries
lhibrary
lhibras
lhibre
lhibremente
lhibres
lhibro
lhibros
lhicenc
lhicenciatura
lhiceu
lhida
lhidar
lhidera
lhiderada
lhideradas
lhiderado
lhiderados
lhideranc
lhiderar
lhiderou
lhido
lhie
lhieba
lhieban
lhiebando
lhiebar
lhiebo
lhife
lhiga
lhigaba
lhigac
lhigada
lhigadas
lhigado
lhigados
lhigan
lhigando
lhigar
lhigas
lhigeira
lhigeiramente
lhima
lhimi
lhimpa
lhimpar
lhimpeza
lhimpo
lhine
lhinea
lhinear
lhingui
lhinha
lhinhaige
lhinhaiges
lhinhas
lhink
lhinks
lhino
lhion
lhione
lhiones
lhionesa
lhirismo
lhisboetas
lhisboua
lhiselotte
lhista
lhistas
lhitera
lhiterairo
lhiteral
lhiteralmente
lhiteratura
lhiterature
lhitobsk
lhitora
lhitoral
lhitu
lhiturgie
lhixo
lho
lhobato
lhobo
lhobos
lhocal
lhocales
lhocalidade
lhocalidades
lhocaliza
lhocalizaba
lhocalizac
lhocalizada
lhocalizadas
lhocalizado
lhocalizados
lhocalizan
lhocalmente
lhocomoc
lhofos
lhogi
lhogicamente
lhogrou
lhoic
lhoija
lhoijas
lhoinge
lhoire
lhondon
lhondres
lhong
lhonga
lhongas
lhongebidade
lhongi
lhongitudinal
lhongo
lhongos
lhopes
lhorena
lhorenzo
lhotes
lhoubar
lhoubre
lhouc
lhougo
lhouis
lhourenc
lhoures
lhousana
lhs
lhu
lhuc
lhucas
lhucratibo
lhucratibos
lhucro
lhucros
lhudwig
lhudwigsbau
lhugar
lhugares
lhugo
lhui
lhuic
lhuis
lhuita
lhuitar
lhuitas
lhula
lhully
lhuna
lhunar
lhunas
lhuria
lhusitana
lhusitano
lhusitanos
lhuso
lhuta
lhutando
lhutar
lhuterana
lhutero
lhuto
lhutou
lhuxemburgo
lhuxo
lhuzes
lhuzia
li
lia
lian
liang
lias
libaneses
libardade
libardades
libe
liber
libera
liberac
liberado
liberal
liberales
liberalismo
liberato
liberdade
liberpol
liberta
libertac
libertado
libertar
libertou
libing
libra
librar
librarie
library
libraryutil
libras
libre
libremente
libres
libreto
libri
libris
libro
libros
lic
lica
licas
lice
licenc
licenciado
licenciatura
license
liceu
lichmera
lici
lico
licos
lida
lidar
lidas
liderada
lideradas
liderado
liderados
lideranc
liderar
liderou
lido
lidos
lie
lieba
liebaba
liebada
liebado
liebados
lieban
liebando
liebanta
liebantamiento
liebantar
liebante
liebar
liebarie
liebo
liechtenstein
life
liga
ligac
ligada
ligadas
ligado
ligados
ligadura
ligamiento
ligan
ligando
ligar
ligas
ligeira
ligeiramente
ligeiro
light
lightgrey
like
likely
lila
lille
lim
lima
limiar
limit
limpa
limpeza
limpo
limpopo
lin
lina
linac
lincoln
line
linear
lineares
lines
lineu
lingua
linguagem
lingui
linha
linhaige
linhas
link
linked
linking
links
linnaeus
linne
lino
linux
linz
lio
lion
liones
lios
lira
lis
lisa
lisboa
lisboua
lise
lises
lisp
list
lista
listas
listnum
lists
listtype
liszt
lit
lite
liter
litera
literairo
literairos
literal
literales
literalmente
literary
literatura
literature
lites
lito
litora
litoral
litosfera
litre
litros
litte
little
litu
litua
liturgie
liu
live
livre
livro
livros
lix
lixo
lk
ll
lla
ller
lloyd
lmc
ln
lnk
lo
loaddata
lobato
lobe
lobelace
lobo
lobos
loc
loca
locac
locado
local
locales
localidade
localidades
localiza
localizac
localizada
localizadas
localizado
localizados
localmente
locamiento
locan
locando
locar
location
lock
locke
locmap
loco
locomoc
locou
lodewijk
lodi
lodigiano
log
loga
logari
logaritmo
logaritmos
logged
logi
logic
logicamente
logo
logos
logoso
logosofia
lohengrin
loija
loijas
loinge
loire
lola
loliun
lombardie
lombardos
lon
london
londres
long
longa
longas
longebidade
longer
longitude
longo
longos
look
looking
lookup
loop
lope
lopes
lopo
lord
lorde
lorena
lorentc
lorenzo
lorrain
los
lost
lot
lotus
lou
loubado
loubar
loubre
loucura
lougo
louis
louise
louisiana
lourdes
lourenc
loures
louvre
love
loves
low
lowell
lower
loyola
lp
lpg
lr
ls
lt
ltc
ltd
ltda
ltf
ltica
lticas
ltico
lticos
ltima
ltimo
ltipla
ltiplas
ltiplo
ltiplos
ltsin
lu
lua
luanda
luc
luca
lucano
lucas
lucia
luciano
lucky
lucratiba
lucratibos
lucre
lucro
lucros
lucy
ludwig
luftwaffe
lugar
lugares
lugo
lui
luic
luigi
luis
luita
luitas
luiz
lula
lulas
lum
lumie
luminosidade
luna
lunae
lunar
lunas
luofu
luoyang
lusi
lusita
lusitano
lusitanos
luso
lustosa
luta
lutando
lutar
luterana
luteranismo
luteranos
lutero
luther
luto
lutou
luxemburgo
luxo
luxu
luz
luzes
lvares
lvaro
lw
lyell
lyndon
lynn
lyon
m
ma
maaba
maaiana
maastricht
mac
maca
macabeus
macabi
macaco
macacos
macanismo
macanismos
macarron
macau
macbeth
macedo
mach
machado
machados
machine
machines
macho
machos
macht
macic
maciel
macio
mackenzie
macmillan
maco
macro
macrosco
mad
mada
madagascar
madalena
madame
madas
made
madeira
madeiras
madeleine
madero
mades
madison
madonna
madre
madrid
madrugada
madura
madureira
maduro
mae
maestria
maestro
mafalda
mafra
magadha
magalha
magalhanes
magazine
magdalena
magellan
magenta
magiares
magic
magie
magiste
magistrado
magistrados
magma
magmas
magna
magne
magnetismo
magnetosfera
magni
magnitude
magno
magnus
mago
magos
maha
mahabira
maharshi
mahatma
mahayana
mahdi
mahmoud
mai
maia
maias
mail
mailing
main
maine
maint
maintenance
mainyu
maio
maior
maiorca
maiores
maioria
maioridade
maiorie
maioritariamente
mais
maison
maiu
maja
majestade
make
makecategorylink
makemake
makes
maketoolbar
makeurllink
makewikilink
making
mal
mala
malabar
malaca
malaio
malaios
malas
malawi
malcher
maldic
male
malefi
males
malha
malhadas
mali
malina
malinas
malinowski
mall
mallorca
malo
malos
malta
maltesa
malteses
malu
maluca
mama
mamede
mamelucos
mami
man
mana
management
manager
managua
manassas
manaus
mancha
manchas
manchester
manchete
manchu
manda
mandaba
mandada
mandado
mandados
mandamentos
mandamiento
mandamientos
mandando
mandar
mandara
mandarin
mandarines
mandato
mandatory
mandatos
mandela
mandi
mandioca
mando
mandou
mane
maneijo
maneira
maneiras
maneirismo
maneirista
manes
manga
mangane
mangualde
manhana
manhanas
manhattan
mani
manifesta
manifestaba
manifestac
manifestando
manifestantes
manifestar
manifesto
manifestou
manila
manilha
manilhas
manipulac
manipular
maniquei
manjor
manjorita
manjoritariamente
mann
mannerhein
mannheim
mannhein
manninen
mano
manobra
manobras
manoel
manos
manselli
manson
mansour
mansur
mante
mantebe
manteiga
manten
mantendo
mantene
mantenendo
mantener
mantenha
mantenida
mantenie
mantenien
manter
mantibi
mantida
mantidas
mantido
mantidos
mantimento
mantimientos
mantiqueira
manto
mantra
mantras
mantubi
mantubo
manu
manual
manuales
manualmente
manuel
manuelino
manufatura
manufaturados
manufaturas
manuol
manuscrito
manuscritos
manutenc
many
mao
maome
map
mapa
mapas
mapeamiento
mapear
mapframe
mappings
maps
mapsto
maputo
maquiable
maquina
maquinarie
mar
mara
marabilha
marabilhas
marabilhosa
marabilhosas
marabilhoso
maranhon
maras
marat
marata
maratona
marc
marca
marcac
marcada
marcadamente
marcadas
marcado
marcador
marcados
marcan
marcando
marcante
marcantes
marcar
marcarie
marcas
marcel
marcelino
marcello
marcelo
march
marcha
marchar
marcho
marcial
marciales
marciana
marciano
marcianos
marco
marcos
marcou
marcu
marcus
mardomo
mare
marechal
mares
marfin
margaret
margarida
marge
margin
marginal
marginales
margrabe
marguerite
marguments
mari
maria
mariana
marianas
marianne
mariano
marido
maridos
marie
marin
marina
marinas
marine
mariner
marineris
marines
marinheiros
marino
marinos
mario
marion
mariscal
marius
mark
markandaya
marked
marker
market
marketing
markhigh
marks
marksize
markup
marlowe
marne
maro
maros
marque
marques
marquesa
marriage
marrocos
marron
mars
marselha
marshall
marsupiales
marta
marte
martenico
marti
martianus
martico
martielho
martim
martin
martines
martino
martins
marx
marxismo
marxista
marxistas
mary
maryland
marzo
mas
mascara
mascarenhas
masculina
masculino
masculinos
masdei
mask
masked
mason
mass
massa
massachusetts
massacrados
massacre
massacres
massadas
massas
massiba
massibas
massibo
massibos
massin
master
masters
mastite
mastro
mastros
mat
mata
matamiento
matanc
matando
matar
matas
match
matches
matching
mate
matema
matematicamente
material
materiales
materialismo
materialista
materna
maternidade
materno
mateus
math
mathbb
mathbf
mathematica
mathematical
mathematics
mathilde
mathrm
matic
matilde
matisse
mato
matos
matosinhos
matou
matri
matric
matrimo
matrimonho
matrimoniales
matrix
matrizes
matsuri
matsushita
matt
matteo
matter
mattha
matthew
mattos
maturac
maturidade
mau
maua
mauregato
mauri
maurice
maurita
maurizio
mauro
maurya
mausole
mauss
max
maximiano
maximiliano
maximinos
maximizar
maximum
maxlen
maxn
maxwell
maxy
may
maya
maybe
mayer
mayo
mayor
mazda
mazzini
mb
mbar
mbia
mbio
mbito
mblos
mbolo
mbolos
mbox
mbria
mbtu
mc
mcal
mcauley
mccartney
mcclellan
mcdonald
mcdougall
mcgraw
mcmahon
mcode
mcs
mdb
mdy
me
mea
meade
meados
mealy
mean
meaning
means
meas
meat
mec
meca
mecanicamente
mecanismo
mecanismos
mecenas
meda
medal
medalha
medalhas
mede
medecina
medeiros
meden
medes
medi
media
mediabal
mediac
mediado
mediador
mediamente
mediante
mediar
mediawiki
medic
medical
medicamiento
medicamientos
medici
medicinal
medicinales
medicine
medida
medidas
medido
medie
mediebal
mediebales
mediebalista
medieval
medina
medindo
medio
medir
meditac
meditar
mediterra
mediu
medo
medos
medula
meeting
meetings
mega
megali
megalo
mei
meia
meias
meidie
meiji
mein
meio
meior
meios
meiose
meir
meirelles
meirinhos
mel
melanco
melancolia
melane
melbourne
melgac
melhor
melhora
melhorada
melhorado
melhoramiento
melhoramientos
melhorando
melhorar
melhores
melhoria
melhorias
melhorie
melhories
melhorou
meli
meliairos
melina
melinda
melinde
melitante
melitantes
melitar
melitares
melitarismo
melitarista
melitarmente
melitary
mello
mellon
melo
melodie
melodies
melquisedeque
members
membrado
membramiento
membro
memo
memorable
memorando
memorial
memorizac
memory
memphis
men
menachen
menahen
menaige
menc
menchebiques
menciona
mencionada
mencionadas
mencionado
mencionados
mencionan
mencionar
mencionou
mendel
mendelssohn
mendes
mendonc
mendoza
mene
menes
meneses
menezes
meng
meni
menimizar
menisse
meniste
menisterial
menistra
menistro
menistros
menistry
meno
menor
menores
menoridade
menos
mensageiro
mensageiros
mensagem
mensaige
mensaiges
mensal
mensales
mental
mentales
mentalidade
mente
mentes
mentir
mentor
menu
menumental
menumiento
menumientos
menus
mer
mera
meramente
meras
mercado
mercador
mercadores
mercadoria
mercadorias
mercadorie
mercadories
mercados
mercante
mercantes
mercantil
mercantis
merce
mercena
mercosul
mercu
mercury
merda
mere
merece
merecen
merecer
merian
meridiano
meridional
meridionales
merlin
mero
merobi
meros
mes
mesa
mescla
meses
meseta
mesma
mesmas
mesmer
mesmerismo
mesmo
mesmos
mesoame
mesoamericanas
mesoamericano
mesoli
meson
mesopota
mesorregion
mesozo
mesquita
mesquitas
message
messagebox
messages
messia
messias
messina
messiona
mestic
mestra
mestrado
mestre
mestres
met
meta
metabolismo
metacarateres
metadata
metade
metades
metafi
metal
metales
metalu
metalurgie
metamo
metamorfose
metamorfoses
metano
metas
metastasio
metatable
metc
meteorito
meteoritos
meteoro
meteorolo
meteorologie
meteorologistas
meteorology
meteoros
meter
method
methods
metical
meto
metodista
metodistas
metodolo
metodologie
metodologies
metraige
metraiges
metralhadoras
metre
metric
metro
metropolitan
metropolitana
metropolitanas
metros
meu
mexicana
mexicanas
mexicano
mexicanos
mexico
mey
meyer
meyerber
mg
mhc
mi
mia
mialhada
miami
mian
mica
micas
mice
micenas
michael
michel
michelangelo
michigan
mickey
mico
micos
micro
microndas
microrganismos
microrregion
microsco
microsoft
mid
mida
midas
middle
mide
mides
midlands
mido
midos
mie
miedo
miedos
mielgos
miente
miesmo
might
migrac
migrantes
migrar
migrato
migro
migrou
miguel
mike
mikhail
mikkyo
mil
mila
milagre
milagres
milan
mile
milenar
miles
mileto
milha
milhar
milhares
milhas
milho
milhon
milhones
mili
militar
militares
milk
miller
million
milne
milon
milton
mim
mimamsa
mimas
mime
mimo
min
mina
minas
mind
mine
mineira
mineiras
mineiro
mineiros
minerac
minerador
mineral
minerales
mineralogie
ming
minh
minha
minhas
minho
mini
miniatura
miniaturadaimagem
ministe
minn
minna
minneapolis
minnesota
mino
minor
minorias
minorie
minories
minorita
minotauro
minte
mintes
mintira
mintiras
minu
minus
minute
minutes
minuto
minutos
miny
mio
mios
mir
mira
miradouro
miradouros
miran
miranda
mirande
mirandela
mirandesa
mirandesas
mirandese
mirandeses
mirando
mirar
miras
miri
mirian
miro
mirror
mirza
mis
miscela
miscigenac
mise
miserable
miserables
miserico
mises
mishima
mismatch
misri
miss
missa
missas
missing
mission
missiona
missionairos
mississippi
misson
missones
missouri
mista
mistas
miste
misteriosa
misteriosas
misterioso
misticismo
misto
mistos
mistura
misturada
misturados
misturan
misturando
misturas
misturo
mit
mita
mitchell
mito
mitolo
mitologie
mitologies
mitos
mitrobica
miu
mius
mj
mk
ml
mla
mld
mm
mma
mmbtu
mn
mo
moaige
mob
mobe
mobelidade
mobelizac
moben
mobendo
mober
mobi
mobida
mobidas
mobido
mobidos
mobie
mobile
mobimenta
mobimentac
mobimentado
mobimentados
mobimentar
mobimento
mobimentos
mobimiento
mobimientos
mobiu
moble
mobles
moblidade
moblizac
moc
mocidade
mod
moda
modalidade
modalidades
mode
modeficac
model
modelaige
modelar
modelo
modelos
moderac
moderada
moderadamente
moderadas
moderado
moderador
moderados
moderar
modern
moderna
modernamente
modernas
modernidade
modernismo
modernista
modernistas
modernizac
modernizar
moderno
modernos
modesta
modesto
modestos
modificac
modificada
modificadas
modificado
modificados
modificar
modifico
modo
modos
modular
module
modules
moeda
moedas
mofb
mogadouro
mogol
mogu
mohamed
mohammad
mohammed
moi
moimenta
moines
moise
moksha
mol
mola
molar
molda
molde
moldes
moldura
mole
molecular
moles
molie
molino
molinos
molotob
molucas
moluscos
mombac
momento
momentos
momiento
momientos
mommsen
momo
mon
mona
monarca
monarcas
monarquia
monarquias
monarquie
monarquies
monarquista
monarquistas
monaste
monasticismo
monastiraki
monc
monde
mondego
mondin
mondo
mondon
moneda
monedas
monegros
mones
monet
moneta
monetairo
money
monge
monges
mongo
mongol
mongoles
monic
monismo
monitor
monitorizac
moniz
monnet
mono
monogatari
monoli
monopo
monotei
monroe
monsenhor
monsieur
monstro
monstros
monta
montada
montadas
montado
montador
montados
montaige
montalbo
montalegre
montana
montanhas
montante
montar
monte
monteberdi
montebide
monteiro
montemor
montemuro
montenegro
montes
montesquieu
montezuma
montgomery
month
months
montijo
montmartre
montou
montre
montreal
monumenta
monumental
monumentales
monumentos
monumiento
monumientos
moon
mor
mora
moraba
morada
moradie
moradies
moradores
moraes
moral
morales
moralidade
moralmente
moran
morando
morar
morcieganos
more
moreira
morena
moreno
mores
morfolo
morfologie
morgado
morgan
morgenstern
mormo
morning
moro
moronou
morou
morre
morren
morrendo
morrer
morrerie
morri
morrian
morrido
morrir
morris
morrison
morrisse
morriu
morro
morros
morse
morta
mortal
mortales
mortalidade
mortandade
morte
morteiro
morteiros
morti
mortos
mos
mosaico
mosca
moscas
mosco
moscobo
moses
mosse
most
mosteiro
mosteiros
mostra
mostraba
mostrada
mostradas
mostrado
mostrados
mostran
mostrando
mostras
mostrou
mota
mother
moths
motibac
motibada
motibado
motibados
motibo
motibos
motibou
motin
motines
motion
motivo
moto
motor
motores
motoristas
motorizados
motors
motric
moura
mourinho
mouriscas
mouriscos
mouro
mouros
mouse
moustapha
move
movie
mozart
mp
mpago
mpagos
mpanos
mpar
mpb
mpeto
mph
mpia
mpica
mpico
mpicos
mpla
mr
ms
msg
mshared
mt
mtb
mu
mubarak
muc
much
mucosa
muda
mudado
mudan
mudanc
mudando
mudar
mudara
mudarie
mude
mudo
mudou
muhammad
mui
muita
muitas
muito
muitos
mujahidin
mujer
mul
mula
mulas
mulatos
mulhier
mulhieres
mulhiers
muller
mulligan
mulo
mulos
multa
multi
multicelulares
multidon
multidones
multilingual
multinacional
multinacionales
multipartida
multiple
multiplica
multiplicac
multiplican
multiplicar
multiplicidade
multiplico
multiplier
multirraciales
multiusos
mumadona
mun
munda
mundana
mundano
mundego
mundi
mundial
mundiales
mundialmente
mundo
mundon
mundos
muneci
munecipal
munfuorte
mungo
munheca
munic
munich
municipal
municipales
munique
munster
muntanha
muntanhas
muntanhosa
muntanhosas
muntanhoso
muolas
muorre
muorta
muortas
muorte
muortes
muorto
muortos
mural
muralha
muralhas
murc
murcia
murciano
murder
murilo
muro
muros
murray
murtosa
mus
musa
musas
musashi
muscular
museo
museolo
museu
museum
museun
museus
music
musica
musical
musicales
musicalidade
musico
musik
musique
musiqueiro
musiqueiros
mussoleni
mussolini
must
mutac
mutilac
mutuamente
mw
mwenemutapas
mwl
my
mystackj
myth
mythology
n
na
nabal
nabales
nabarra
nabarro
nabe
nabega
nabegable
nabegac
nabegador
nabegadores
nabegando
nabegar
nabego
nabegou
nabes
nabi
nabio
nabios
nabuco
nabucodonosor
nac
nace
nacen
nacente
nacentes
nacer
nacera
naci
nacian
nacida
nacido
nacidos
nacie
nacimento
nacimiento
nacimientos
nacio
nacion
nacional
nacionales
nacionalidade
nacionalidades
nacionalismo
nacionalista
nacionalistas
nacionalizac
nacionalmente
naciones
naciu
naco
nada
nadar
nadas
nagasaki
nagon
nai
naide
naipe
naked
nalguns
namaka
name
named
names
namespace
namespaces
nami
namo
namorada
namorado
namoro
nan
nana
nanak
nancy
nanhue
nanhun
nanjing
nano
nanos
nanotecnologie
nanquin
nanyang
nao
naos
napoleo
napoleon
napoleonic
naqueilha
naqueilhas
naqueilhes
naqueilho
naquel
nara
naric
narra
narrac
narrador
narrar
narratiba
narratibas
narratibo
narratibos
nas
nasa
nasal
nascar
nash
nassau
nasser
nasu
natac
natal
natales
natalidade
nathan
natiba
natibas
natibo
natibos
nation
national
nationale
nationes
nato
natura
naturae
natural
naturales
naturaleza
naturalidade
naturalis
naturalismo
naturalista
naturalistas
naturalmente
nature
natureza
naturezas
nau
naubo
naus
nautical
nauvoo
navbar
navbox
naviatv
nazare
nazareno
nazarenos
nazi
nazis
nazismo
nazista
nazistas
nbc
nc
ncabo
ncaro
ncen
ncepe
ncepes
nchec
nchen
ncia
ncias
ncio
ncios
nclo
nclos
ncora
ncrona
ncula
nd
ndalo
ndalos
ndalus
ndaro
ndec
nden
ndez
ndia
ndias
ndice
ndices
ndico
ndido
ndiga
ndio
ndios
ndo
ndole
ndrome
ndula
ndulas
ndulo
ne
nea
neandertal
neanderthalensis
neas
nebada
nebado
nebakibi
neber
nebraska
nebre
nebres
nebulosa
nebulosas
nec
neca
necessa
necessairo
necessairos
necessariamente
necessary
necessita
necessitaba
necessitados
necessitan
necessitando
necidade
necidades
neckar
necro
ned
nedhan
need
needcheck
needed
needs
nefertiti
neg
nega
negaba
negac
negada
negado
negan
negando
negar
negatiba
negatibamente
negatibas
negatibo
negatibos
negative
neglige
nego
negocia
negociac
negociado
negociar
negocio
negos
negou
negra
negras
negreiro
negri
negrito
negro
negros
nei
neiba
neil
neilha
neilhas
neilhes
neill
neis
nel
nelas
nele
nell
nella
nelle
nelson
nem
nembrana
nembro
nembros
nemo
nen
nenhuma
neo
neocla
neoclassicismo
neoli
neoplato
neoplatonismo
neos
nepal
nepociano
nepos
ner
nerboso
nereidas
neres
nerlande
nerlandesa
nerlandesas
nerlandeses
nero
neros
neruda
nes
nese
nesis
nessa
nessas
nesse
nesses
nesso
nesta
nestas
neste
nestes
nesto
nestorianismo
net
netanyahu
neto
netuno
network
neue
neumann
neuro
neurocie
neurolo
neurologie
neuropreserbac
neuropsicologie
neutra
neutralidade
neutro
neutros
never
neves
new
newline
newman
news
newsletter
newspaper
newton
newtoniana
next
ney
nez
nfase
nfis
ng
nga
ngan
ngara
ngaro
ngaros
ngc
ngel
ngelo
nger
ngie
ngio
ngios
ngo
ngremes
ngua
nguas
ngue
nguen
ngues
ngulo
ngulos
nh
nha
nhamo
nhan
nhat
ni
nia
niagara
nias
niassa
nible
nibles
nic
nica
nicara
nicaragua
nicas
nice
niceia
niceno
nicholas
nick
nicmos
nico
nicola
nicolas
nicolau
nicolaus
nicolo
nicos
nicotiana
nida
nidas
nides
nie
niebe
niebes
niels
nielsen
niemeyer
nien
nieta
nieto
nietos
nietzsche
nig
nige
night
nigsberg
nikita
nikki
nikolai
nil
nilo
nils
nilsson
nima
nimas
nime
nimo
nimos
nin
nina
ninas
ninfas
ningue
nini
nino
ninos
nio
niones
nior
nios
nipo
nirbana
nirguna
nis
nissin
nisso
nitero
nitidamente
nito
nitroge
niu
nius
nix
nixon
njuges
nl
nm
nmi
nn
no
noan
nob
noba
nobarun
nobel
nobela
nobelas
nobelista
nobembre
nobenta
nobgorod
nobic
nobidade
nobidades
noble
nobre
nobres
nobreza
noc
nocat
nocaute
node
nodo
noe
noel
nogueira
noh
noiba
noibado
noir
noite
nola
noma
nomas
nome
nomeac
nomeada
nomeadamente
nomeadas
nomeado
nomeados
nomeando
nomear
nomeia
nomenclatura
nomeou
nomes
nominal
nominalmente
nominate
nomo
nomos
non
nona
none
nones
nono
noon
nopcsa
nopp
nor
nora
nordeste
nordestino
nordestinos
nordiste
norma
normal
normales
normalidade
normalizac
normalmente
norman
normanda
normandia
normandos
normas
normatiba
noroeste
noroiste
noronha
norte
north
nortista
nortistas
norton
noruc
noruega
noruegue
norueguesa
noruegueses
nos
nosotros
nossa
nosso
nostalgie
not
nota
notabelmente
notable
notablemente
notablemiente
notables
notac
notadamente
notado
notar
notas
notation
note
notes
nothing
noti
notice
noticia
noticias
notificac
notify
noto
notoriadade
notoriamente
notoriedade
notou
notre
noturna
noturno
noturnos
noubelle
nous
noutras
noutro
noutros
nouvelle
nova
novamente
novas
novel
novela
november
novial
novo
novos
now
nowiki
np
ns
nsan
nscrita
nscrito
nsia
nsito
nsitos
nsul
nsula
nsulas
ntan
ntano
ntanos
ntara
ntema
ntemo
ntemos
nten
nterin
ntese
nteses
ntica
nticas
ntico
nticos
ntida
ntima
ntios
ntran
ntrica
ntricas
ntrico
ntricos
ntua
nu
nua
nuas
nubes
nubre
nubres
nubrina
nubrinas
nuclear
nucleares
nucleicos
nue
nueba
nueira
nuestra
nueva
nuite
nuites
nula
nulo
nulos
num
numa
number
numbered
numbers
numdot
nume
numerac
numeral
numerales
numerator
numericamente
numero
numerosa
numerosas
numerosos
numisma
nums
numsep
nun
nunca
nunes
nuno
nuns
nuo
nuoba
nuobas
nuobe
nuobo
nuobos
nuoc
nuolo
nuolos
nuossa
nuossas
nuosso
nuossos
nuozes
nur
nuremberg
nuremberga
nus
nutric
nutrientes
nutrition
nuts
ny
nz
o
oa
oada
oado
oamiento
oando
oar
ob
oba
obama
obas
ober
obi
obiedo
obj
object
objects
objeto
oblac
oblast
obra
obras
obres
obulac
oc
oca
ocasion
ocasionalmente
ocasionando
ocasiones
ocasionou
occidental
occita
occurs
ocde
ocea
oceania
ociaa
ocicat
ocidente
ocinsoutput
ocitano
oclc
oclos
ocorra
ocorre
ocorren
ocorrendo
ocorrer
ocorrera
ocorrerie
ocorreu
ocorri
ocorria
ocorrian
ocorrida
ocorridas
ocorrido
ocorridos
ocre
october
oculta
ocultac
ocultar
oculto
ocultos
odeon
oder
odessa
odibelas
odin
odisse
odisseia
odisseu
odo
odoacro
odos
oe
oea
oeiras
oes
oeste
of
off
offered
office
official
oficial
oficina
oh
ohio
oi
oil
ois
oise
oiseaux
oitaba
ojos
ok
okinawa
oklahoma
ol
ola
olan
olarie
old
ole
olena
olfato
olga
oliveira
olivenza
olmeca
olmecas
olo
olos
olp
olympia
olympic
olympus
om
omar
ombox
omc
omi
omitted
omni
omnia
omonoia
oms
on
onabe
onabes
onarie
onc
once
onde
ondulato
one
onepage
ones
ong
ongs
oni
onipotente
online
only
ono
onoma
ons
onta
ontolo
ontologie
onu
onze
op
ope
open
opening
opep
opera
operator
opinia
oportunidade
oposic
oppose
ops
opt
option
optional
options
or
ora
oraclo
oraclos
orange
orbita
orbital
orbitales
orbitan
orbitando
orbitar
orchidaceae
orde
ordem
order
ordered
orders
ordes
oregon
ores
oresteia
orfeu
org
orga
organizac
organization
ori
oriano
orianos
orientation
orig
origargs
origem
origin
original
oristes
orlando
orle
orleanes
ormuc
ornamentac
ornamientos
oro
orquestra
orquestral
orquestras
ortega
ortic
ortodoxa
ortodoxia
ortodoxos
ortogra
ortografia
ortografie
orton
os
osa
osama
osbaldo
oscar
osce
oscila
oscilac
osi
oslo
osma
oso
osorkon
osse
ostenta
ostentac
ostentar
osterberger
ostrogodos
oswald
ot
ota
otal
otan
ote
other
others
otherwise
oto
otober
otomana
otomano
otomanos
otras
otros
ots
ottawa
ottheinrichsbau
otto
ottomar
ou
oubar
oubbiamente
oube
oubedece
oubedecen
oubedecendo
oubedecer
oubedie
oubelisco
ouberon
oubi
oubido
oubidos
oubindo
oubinte
oubintes
oubir
oubiu
oubjec
oubjetiba
oubjetibando
oubjetibidade
oubjetibo
oubjetibos
oubjeto
oubjetos
ouboe
oubra
oubras
oubreiro
oubreiros
oubriga
oubrigaba
oubrigac
oubrigada
oubrigadas
oubrigado
oubrigados
oubrigando
oubrigar
oubrigato
oubrigatoriamente
oubrigatoriedade
oubrigo
oubrigou
oubserbac
oubte
oubtebe
oubtemos
oubtenc
oubtendo
oubtener
oubtenida
oubtenidas
oubtenidos
oubtenie
oubter
oubtibi
oubtida
oubtidas
oubtido
oubtidos
oubtubo
oubturador
oubus
oubuses
oucas
oucasion
oucasiones
oucea
ouceanie
ouceano
ouceanografie
ouceanos
oucidental
oucidentales
oucidente
ouclides
ouclidiana
oucra
oudic
oufecial
oufeciales
oufecialmente
oufecina
oufecinas
oufensa
oufensas
oufensiba
oufensibas
oufensibo
ouferece
ouferecen
ouferecendo
ouferecer
oufereci
ouferecida
ouferecido
ouferecidos
ouferecie
oufereciu
ouferta
oufertas
ouff
ouffice
oufi
ouficial
ouficiales
ouficialmente
ouficina
ouficinas
oufierta
oufrates
oufrece
oufrecen
oufrecendo
oufrecer
oufreci
oufrecida
oufrecidos
oufrecie
oufreciu
oufrendas
oui
oujetibo
oula
oulesipo
ouli
oulibales
oulibeira
oulibeiras
oulibenc
ouliber
ouliga
ouligarquia
ouligarquias
oulimpi
oulimpo
oulinda
oulissipo
oulor
oumenta
oumentaba
oumentada
oumentado
oumentan
oumentando
oumentar
oumento
oumentou
oumiento
ounce
ouneficac
ouneficar
ouni
ounib
ounibersal
ounibersales
ounibersalidade
ounibersalista
ounibersalizac
ounibersalmente
ounibersidad
ounibersidade
ounibersidades
ounibersita
ounibersitairo
ounibersitairos
ouniberso
ounida
ounidade
ounidades
ounidas
ounido
ounidos
ouniforme
ounindo
ounion
ouniones
ounir
ouniu
oup
ouparac
oupc
oupen
oupenion
oupeniones
oupera
ouperac
ouperacional
ouperacionales
ouperado
ouperador
ouperadores
ouperados
ouperando
ouperar
ouperatibo
ouperation
oupi
oupinion
oupo
oupondo
oupone
ouponente
ouponentes
oupor
ouportunidade
ouportunidades
ouposic
oupositores
ouposta
oupostas
ouposto
oupostos
oupportunity
oupresson
oupunha
oupunhan
oupus
oupusi
our
oura
ourac
ourador
ourago
oural
ourales
ouralmente
ourange
ourangerie
ourano
ourar
ourato
ourbana
ourbanas
ourbani
ourbanismo
ourbanizac
ourbanizada
ourbano
ourbanos
ourc
ourdena
ourdenaba
ourdenac
ourdenada
ourdenadas
ourdenado
ourdenados
ourdenamiento
ourdenanc
ourdenando
ourdenar
ourdenha
ourdenou
ourder
ourdina
ourdonho
oure
ouregin
ouregina
oureginada
oureginado
oureginal
oureginales
oureginalidade
oureginalmente
oureginando
ouregino
oureginou
oureilha
oureilhas
ourense
ourg
ourga
ourganismo
ourganismos
ourganiza
ourganizac
ourganizacional
ourganizacionales
ourganizada
ourganizadas
ourganizado
ourganizador
ourganizados
ourganizando
ourganizar
ourganizo
ourganizou
ourgenc
ourgonha
ourguinhones
ourgulho
ouribes
ouribesarie
ourienta
ourientac
ourientada
ourientadas
ourientado
ouriental
ourientales
ourientalismo
ourientan
ourientar
ourientation
ouriente
ourige
ouriges
ourigin
ourigina
ouriginada
ouriginado
ouriginairo
ouriginairos
ouriginal
ouriginales
ouriginalidade
ouriginalmente
ourigino
ouriginou
ourinoco
ourique
ouriunda
ouriundas
ouriundo
ouriundos
ourixa
ouro
ourobison
ouropa
ourope
ouropean
ouropeia
ouropeias
ouropeu
ouropeus
ouros
ourquestra
ourquestrac
ourtodoxa
ourtodoxas
ourtodoxo
ourtodoxos
ourtogra
ourtografie
ous
ousa
ousada
ousadas
ousado
ousados
ousando
ousar
ouscura
ouscuro
ouse
ouserba
ouserbaba
ouserbable
ouserbac
ouserbada
ouserbadas
ouserbado
ouserbador
ouserbadores
ouserbados
ouserban
ouserbando
ouserbar
ouserbato
ouserbe
ouserbo
ouserbou
ouso
ousoletos
ousou
oustaclo
oustaclos
oustante
oustra
oustraliana
oustruc
out
outa
outar
outarquia
outarquias
outdated
oute
outeiro
outeli
outelidade
outeliza
outelizaba
outelizac
outelizada
outelizadas
outelizado
outelizador
outelizadores
outelizados
outelizan
outelizando
outelizar
outelizo
outelizou
outelo
outenticidade
outilizada
outilizado
outilizados
outilizan
outimismo
outimista
outimizac
outinfo
outo
outobiogra
outobiografie
outobuses
outoce
outoconscie
outocra
outocracie
outodefesa
outodidata
outogeston
outoma
outomano
outomata
outomaticamente
outomobili
outomoble
outomobles
outonho
outonhos
outonomamente
outonomie
outopropulsado
outor
outora
outorales
outores
outorga
outorgou
outoria
outoridade
outoridades
outorie
outorita
outoritarismo
outorizac
outorizada
outorizado
outorizados
outorizando
outorizou
outorlink
outos
outou
output
outputs
outra
outras
outro
outrora
outros
outside
outubre
outubro
outvalue
ouxidac
ouxige
over
override
owen
own
oxford
oxige
oz
p
pa
pabie
pabilhon
pabilhones
pabimientos
pablo
pac
pace
pacheco
paci
paciente
pacientes
pacific
pacificac
pacificamente
pacificar
pacifismo
pacifista
pacifistas
pack
pacote
pacotes
padding
padrasto
padre
padres
padrino
padroeira
padroeiro
padron
padrones
padronizac
paes
pag
paga
pagaba
pagamiento
pagamientos
pagan
pagana
paganas
pagando
paganismo
pagar
pagas
page
pages
pagetype
pagina
pago
pagon
pagones
pagos
pagou
pai
paiba
paigc
paine
painel
paio
pairs
pais
paisagi
paisagismo
paisaige
paisaiges
paiva
paixarina
paixarinas
pal
pala
palabra
palabras
palac
palace
palacete
palacio
paladar
palas
palatal
palatina
palatinado
palatino
palatinus
palau
palavra
palavras
palazzo
palco
palcos
palenque
paleo
paleoli
paleonto
paleontologie
paleozo
palermo
palestina
palestine
palestino
palestinos
palha
palhac
palhestra
palhestras
palheta
palhetas
pali
palma
palmares
palmas
palmeira
palmela
palmira
palo
palos
palumbar
pampa
pampas
pampilhosa
pamplona
pamuk
pan
panama
pandemia
pandemie
pandemies
panela
panes
panfleto
panfletos
panho
panhos
panjabe
panleucopenia
pano
panora
panorama
pantanal
pantaneira
pantaneiro
pantei
panteon
pantheon
paoli
paolo
papa
papado
papagaio
papagaios
papai
papal
papales
papas
pape
papel
paper
paperback
papers
papiro
papiros
papua
paquistan
paquiston
par
para
parada
paradas
paradela
paradigma
paradigmas
parado
parados
paradoxalmente
paradoxo
paradoxos
paraense
paraguai
paraguaia
paraguaio
paraguaios
paraguay
parai
paraige
paralela
paralelamente
paralelas
paralelo
paralelos
param
paramelitares
parameter
parameters
paramount
params
parana
paranaense
parando
parano
parar
parasitas
parceira
parceiras
parceiro
parceiros
parcela
parcerie
parceries
parcial
parciales
parcialmente
pardo
pardona
pardos
pare
parec
parece
parecendo
parecer
pareci
parecian
parecida
parecidas
parecido
parecidos
parecie
pareciu
parede
paredes
parent
parentargs
parentesco
parenteses
pares
paresiense
parhan
pari
paridade
pariente
parientes
paris
parisiense
park
parker
parlamentar
parlamentares
parlamentarismo
parlamentarista
parlamento
parlamiento
parlamientos
parma
parme
parms
parmsi
paro
paroquial
paros
parou
parque
parques
parracha
parro
parses
parsifal
part
parte
parteci
partecipa
partecipac
partecipado
partecipando
partecipante
partecipantes
partecipar
partecipo
partecipou
parten
partenon
partes
parti
partic
partici
participa
participac
participado
participan
participando
participantes
participar
participated
participo
participou
particle
particles
particular
particulares
particularidade
particularidades
particularly
particularmente
partida
partidairos
partidas
partido
partidos
partie
partilha
partilhado
partilhan
partindo
partir
partiran
partito
partitura
partituras
partiu
parto
partos
parts
party
pas
pascal
pascoal
pasquale
pass
passa
passaba
passada
passadas
passado
passados
passageiros
passaige
passaiges
passan
passando
passaporte
passar
passara
passarian
passarie
passasse
passassen
passatempo
passear
passed
passeio
passeios
passible
passibles
passibo
passion
passo
passos
passou
past
pasta
pastaiges
paste
pasteur
pasteurizac
pastor
pastora
pastoral
pastoreio
pastores
pastoril
pat
pataca
patacas
patago
patamar
patan
patanjali
patas
patata
pate
patente
patenteia
patentes
paterna
paternidade
paterno
path
pathfinder
patines
pato
patolo
patologies
patra
patri
patria
patriarca
patriarcado
patriarcal
patriarcas
patricia
patrick
patrimo
patrimonho
patrimonial
patrio
patriotismo
patroci
patrocina
patron
patrona
patronato
patrones
patroni
patrono
patronos
patrulha
patta
pattern
patterns
paul
paula
pauli
paulina
paulino
paulista
paulistas
paulo
paulus
pausa
pauta
pax
paxarina
pay
paz
pb
pbp
pc
pcall
pcb
pcc
pcia
pcias
pcio
pcios
pcp
pcs
pd
pdf
pdpa
pds
pdt
pe
peace
pearl
pearson
pec
pecado
pecados
pecua
peculiar
peculiares
peculiaridades
pedac
pedago
pedagogie
pedamiego
pedamiegos
pede
peden
pedes
pedestres
pedi
pedian
pedida
pedido
pedidos
pedie
pedindo
pedir
pediran
pediu
pedreiras
pedro
pega
pegar
pegasus
pego
pegou
pei
peinha
peinhas
peirce
peito
peixe
peixes
peixon
peixones
peixoto
pela
pelaige
pelayo
peli
peligro
peligros
peligrosa
peligrosas
peligroso
peligrosos
pelle
pelo
peloponeso
pelos
pelourinho
pelourinhos
peluso
pen
pena
penacoba
penal
penalba
penalidades
penas
pence
pendentes
pendioso
peneda
penedo
penedono
penetra
penetrac
penetrando
penetrar
penetro
penetrou
penguin
penhascos
peni
peninsular
peninsulares
penite
penny
pensa
pensaba
pensado
pensador
pensadores
pensados
pensamento
pensamiento
pensamientos
pensan
pensando
pensar
pense
pensilba
penso
penson
pensones
pensou
penta
pentecostal
pentecostales
pentecostalismo
penu
peon
peones
people
pepino
pequeinha
pequeinhas
pequeinho
pequeinhos
pequeno
pequin
per
pera
perante
peras
perca
percebe
percebendo
perceber
percebi
percebida
percebidas
percebido
percebiu
percentaige
percentual
percepc
percetible
perci
percibal
percipado
percipal
percipales
percipalmente
percipalmiente
percisa
percisaba
percisamente
percisamos
percisan
percisar
percisas
perciso
percison
percisos
percisou
percorre
percorren
percorrer
percorreu
percorrian
percorrida
percu
percunceito
percura
percuraba
percuradas
percurado
percurador
percuran
percurando
percurar
percuro
percurou
percurso
percursos
percusson
percy
perda
perdas
perde
perden
perdendo
perder
perdera
perderie
perdi
perdic
perdida
perdidas
perdido
perdidos
perdie
perdiu
perdo
perdoados
perdon
perdura
perdurou
perduto
perdutor
perdutora
perdutoras
perdutores
perdutos
pere
perec
pereci
peregrinac
peregrino
peregrinos
pereira
perene
peres
perestroika
perfeic
perfere
perfet
perfil
performance
performances
perfunda
perfundamente
perfundas
perfundezas
perfundidade
perfundo
perfundos
perfurac
perfurados
pergaminho
peri
perife
periferie
perio
period
periodical
periodicamente
peritos
perjui
perkeo
perkin
perl
permane
permanec
permanece
permanecen
permanecendo
permanecer
permanecera
permanecerie
permaneci
permanecian
permanecido
permanecie
permaneciu
permanente
permanentemente
permanentes
permisson
permitan
permite
permiten
permitian
permitida
permitidas
permitido
permitidos
permitie
permitindo
permitir
permitira
permitiran
permitirian
permitirieb
permitisse
permitiu
pernambucana
pernambucano
pernambuco
pernas
pernu
pernunciar
pero
perparac
perpe
perpendicular
perpendiculares
perpianho
perpo
perpuosta
perpuostas
perrault
perro
perros
perry
persa
persas
perse
perseguic
perseguido
perseguidos
perseguir
perseguiu
persenc
persent
persente
persentemente
persentes
perseu
perseus
persian
perside
persidencial
persidenciales
persidencialista
persidente
persidentes
persiste
persistiu
perso
person
persona
personaige
personaiges
personal
personalidade
personalidades
personas
personificac
persos
perspetiba
perspetibas
perspetibe
perspicac
persuadiu
persuason
persunto
pert
perta
pertando
pertar
pertenc
pertence
pertencen
pertencendo
pertencente
pertencentes
pertencer
pertences
pertenceu
pertenci
pertencia
pertencian
pertencie
pertene
perto
pertou
pertual
pertue
pertues
pertuesa
pertuesas
pertueses
perturbac
peru
perugino
pesa
pesada
pesadamente
pesadas
pesadelo
pesado
pesados
pesar
pesas
pesca
pescado
pescador
pescadores
pese
peso
pesos
pesqueira
pesquisa
pesquisador
pesquisadores
pesquisar
pesquisas
pessach
pessanha
pessimismo
pessoa
pessoas
pessona
pessonal
pessonales
pessonalmente
pessonas
peste
pesticidas
pet
peta
petener
peter
petersburg
petersburgo
petic
petit
peto
petrarca
petri
petro
petrobras
petrogrado
petroleun
petroli
petroqui
pez
pframe
pg
pgs
ph
phabricator
phane
phase
phelip
phelippe
phelips
phi
phil
philipp
philippe
philippines
phillips
philosophiae
philosophical
philosophy
photometer
photos
php
phu
physics
physis
pi
pia
piadade
piadas
piaget
pianho
piani
pianista
piares
pias
piaui
pib
pic
pica
picada
picas
picasso
pice
pico
picos
picuote
pid
pida
pidal
pidas
pide
pides
pidgin
pido
pidos
pie
piec
piece
piedade
piede
piedoso
piedra
piedras
piel
piels
pier
piernas
piero
pierre
pies
pieta
pietro
pigmiento
pilar
pilatos
pilha
pilhaiges
pilho
pilon
piloto
pilotos
pimentel
pina
pindo
pinga
pingala
pingas
pinguines
pinhal
pinheiro
pinheiros
pinho
pinhon
pino
pinta
pintada
pintadas
pintado
pintados
pintar
pinto
pintor
pintores
pintou
pintura
pinturas
pinyin
pio
pioneer
pioneira
pioneiro
pioneiros
pioner
pior
piorar
piores
piorou
pios
piotr
pipas
pipe
pipeline
piper
pira
piracicaba
pirata
piratarie
piratas
pirates
piratininga
pirene
pires
pisa
pisano
piscina
piscinas
piso
pisones
pisos
pissarro
pista
pistas
pistola
pistolas
pita
pitago
piter
pito
pittsburgh
pitures
piu
pizza
pk
pl
pla
placa
placas
place
places
plain
plainlinks
plana
planaltina
planck
planeada
planeadas
planeado
planeamiento
planear
planeija
planeijaba
planeijada
planeijado
planeijamiento
planeijou
planejo
planet
planeta
planetairo
planetary
planetas
planeto
plani
planice
planices
planitie
planned
planning
plano
planos
plans
planta
plantac
plantado
plantae
plantarun
plantas
plantio
plants
planun
plasma
plata
plataforma
plataformas
plateau
plateia
platina
plato
platon
play
player
players
plays
plaza
please
plebe
plebeus
plebiscito
plena
plenamente
plenitude
pleno
plenos
pli
plica
plicas
plice
plotarea
plotdata
plotino
plubiome
plubiosidade
plural
plurales
pluralidade
plus
plutarco
pluto
pluton
plymouth
pm
pmc
pmdb
pmid
pn
pnb
pneumonia
png
pnud
po
pobac
poblac
pobo
poboac
poboada
poboadas
poboado
poboadores
poboados
poboamiento
poboamientos
poboar
pobos
pobre
pobres
pobreza
poc
poca
pocahontas
pocas
podcast
pode
podeis
podem
podemos
podendo
poder
podera
poderemos
poderes
poderie
poderiemos
poderien
poderio
poderosa
poderosas
poderoso
poderosos
podes
podi
podia
podie
podien
podisse
poe
poeira
poema
poemas
poems
poente
poesi
poesia
poesie
poesies
poeta
poetas
poetisa
poetry
poiares
poincare
point
pois
poitiers
poker
pokerstars
pol
polaca
polaco
polacos
polar
polares
polarizac
pole
polegadas
polegar
poles
poli
polias
police
policial
policiales
policleto
policy
polida
polido
polifonia
poline
polino
polinomial
poliomielite
polis
polish
polite
politei
politica
political
politicamente
politics
pollitt
pollock
polo
polonesa
poloneses
polos
poluentes
poluic
polygon
pombal
pomera
pompa
pompeu
pon
ponce
pondo
pone
ponen
ponendo
poner
ponerie
ponga
poni
ponibelidade
ponibeliza
ponible
ponibles
ponte
pontebedra
ponteiro
ponthus
ponti
pontifi
pontificado
ponto
pontuac
pontual
pontuales
pop
pope
popolo
popper
populac
populacional
populacionales
popular
populares
popularidade
popularizac
popularizou
popularmente
populated
population
populista
populosa
populosas
populoso
poque
por
porbabelidade
porbabelidades
porbabili
porbablemente
porbablidade
porbi
porbinc
porblema
porblemas
porblems
porbocar
porboco
porc
porca
porcedimientos
porcelana
porcessamiento
porcesso
porcessoa
porcessos
porcissones
porciu
pordu
porduc
pordutebidade
pordutiba
pordutibas
pordutibidade
pordutibo
pordutibos
porduto
pordutor
pordutores
pordutos
porduzen
porduzi
porduzia
porduzian
porduzida
porduzidas
porduzido
porduzidos
porduzindo
porduzir
porduziran
porduziren
porduziu
pore
poren
porfessional
porfeta
porfetas
porfi
porfissional
porfissionales
porfisson
porfissones
porgrama
porgramable
porgramac
porgramador
porgramadores
porgramas
porgramming
porgran
porgresso
porjet
porjetada
porjetadas
porjetado
porjetados
porjetar
porjeto
porjetos
porjetou
pormenor
pormenores
pormober
pornogra
porpagac
porporc
porque
porquei
porriba
porsor
porsora
porsores
port
porta
portador
portadora
portadores
portaige
portal
portalegre
portanto
portar
portarie
porte
portec
porteger
portegidas
portela
portestos
portiba
portibas
portibo
portibos
portion
porto
portocolo
porton
portones
portos
portrait
portua
portucale
portucalense
portugal
portugue
portuguesa
portuguese
portugueses
pos
posic
posicionado
posicional
posicionamiento
posicionar
positiba
positibamente
positibas
positibismo
positibista
positibo
positibos
position
positive
posix
posou
possa
posse
posses
possesson
possessones
possi
possibelidade
possibelidades
possibelitando
possibelitar
possibilidade
possible
possiblemente
possibles
possiblidade
possiblidades
possiblitando
possiblito
possiblitou
possua
possuan
possuen
possui
post
posta
postal
postas
posted
posteridade
posteriomente
posterior
posteriores
posteriormente
postos
posts
postscript
postulados
postumamente
postura
posturas
pot
pota
potable
pote
potencial
potenciales
potencialidades
potencialmente
potente
potentes
potes
potismo
potomac
pouca
poucas
pouco
poucos
poulo
pound
pounds
pouqui
pour
pousa
pousar
pouso
pousou
poussin
povo
powell
power
pp
ppa
ppen
pr
pra
prac
pradaries
prado
prados
praga
pragas
pragma
pragmatismo
praia
praias
praina
prainada
prainadas
prainas
praino
prainos
prata
prates
pratica
praticaba
praticada
praticadas
praticado
praticados
praticamente
praticando
praticante
praticantes
praticar
pratice
praticou
prato
pratos
pratzen
prazeiros
prazer
prazeres
prazo
prazos
pre
preacupac
preacupada
preacupado
preacupados
prealpes
prebale
prebalece
prebalecer
prebaleciu
prebe
prebenc
prebendo
prebenir
prebeniu
preber
prebia
prebiamente
prebide
prebile
prebilegiada
prebilegiado
prebison
prebisones
prebista
prebisto
prebiu
prec
preca
precauc
prece
precede
precedence
precedendo
precedente
precedentes
precedido
precediu
preceitos
preces
precetor
preciosa
preciosas
precioso
preciosos
precipitac
precipitada
precision
precoce
preconceito
preconceitos
precursor
precursores
predador
predadores
predecessor
predecessores
predefenic
predefinic
predezir
predic
predomi
predomina
predominan
predominante
predominantemente
predominantes
prefa
prefeito
prefeitos
prefeitura
prefeituras
prefere
preference
preferences
preferencialmente
preferian
preferible
preferida
preferidas
preferido
preferie
preferindo
preferir
preferiu
preferred
prefi
prefire
prefix
prefixed
prefixedtext
prefixes
prefixo
prefixos
prega
pregaba
pregac
pregada
pregado
pregadores
pregar
pregou
preguic
pregunta
preguntaba
preguntado
preguntando
preguntar
preguntas
pregunto
preguntou
prejudicados
prejudicar
prejudicial
prejudiciales
prejui
preliminar
preliminares
preload
prelu
premanente
prematura
prematuramente
premetindo
premetir
premetiu
premi
premiac
premiada
premiado
premiados
premier
premio
premissa
premissas
premita
premite
premitido
premitindo
premitir
premitiu
prencher
prenchido
prencipado
prende
prender
prenha
prensa
prentice
preocupa
preocupac
preocupado
preocupados
preocupar
prepara
preparaba
preparada
preparado
preparados
preparando
preparar
preparatibos
preparo
preparou
preponderante
preprocesssinglearg
prerrogatibas
presa
presas
presbi
presbiteriana
presbiterianos
presburger
prescott
presenc
present
presentation
presente
preserba
preserbac
preserbada
preserbadas
preserbado
preserbados
preserbando
preserbar
preserbatibo
preserbatibos
preside
presidente
presidida
presidido
presidir
presidiu
presioneiro
presioneiros
presley
preso
presos
press
pressionado
pressionar
presson
pressones
pressupone
pressuposto
pressupostos
pressure
presta
prestac
prestado
prestar
presti
prestigiada
prestigiadas
prestigiado
prestigioso
prestou
presume
presumibelmente
preta
pretas
prete
pretende
pretenden
pretendendo
pretendente
pretendia
pretendian
pretendido
pretendie
pretendiu
pretenson
pretensones
pretesto
preto
preunit
prevent
preview
previously
prezando
prezo
pri
pria
pribac
pribada
pribadas
pribado
pribados
pribatizac
pribile
pribilegiada
pride
priessa
priessas
prima
primabera
primaberas
primairo
primariamente
primary
primas
primatas
primavera
primazie
prime
primeira
primeiro
primeiros
primer
primera
primitiba
primitibas
primitibo
primitibos
primo
primoge
primordial
primordiales
primos
prince
princeps
princesa
princeto
princeton
princi
principados
principal
principalmente
principia
principio
principles
print
printsec
printtitle
prio
prior
priori
prioridade
prioridades
priorities
prios
prisa
prisciano
prisco
prisioneiro
prisioneiros
prisma
prison
prisones
priste
pristes
privile
prix
prize
pro
proba
probabelmente
probable
probablemente
probablemiente
probables
probably
probac
probada
probado
probando
probar
probas
probe
probedor
probeito
probenc
probeniente
probenientes
prober
probes
probida
probide
probidencia
probido
probincial
probinciales
probinha
probiso
probison
probisones
probisoriamente
problem
problema
problemas
problems
probo
proboca
probocaba
probocada
probocadas
probocado
probocados
probocan
probocando
probocou
probou
proca
proce
procede
procedente
procedentes
proceder
procedimiento
procedimientos
procedings
procediu
process
processada
processadas
processado
processador
processadores
processados
processamiento
processar
processing
processo
procisson
procissones
proclama
proclamac
proclamada
proclamado
proclamar
proclamo
proclamou
proco
procriac
prodcode
prodi
produc
product
produtibidade
produto
produtor
produtores
produtos
produzido
produzidos
produzindo
produzir
produziu
proeminente
proeminentes
prof
profano
profe
profecie
profecies
professa
profeta
profetas
profetizado
profile
profissional
profissionales
profisson
profissones
progenitor
progesterona
program
programa
progrediu
progress
progressiba
progressibamente
progressibo
progressista
progressistas
progresso
progresson
progressos
proi
proiadade
proiadades
proibia
proibic
proibida
proibidas
proibido
proibidos
proibindo
proibir
proibiran
proibiu
proje
projec
project
projecto
projects
projeto
prol
prole
proleta
proletariado
proli
proliferac
prolog
prolonga
prolongada
prolongado
prolongamiento
prolongar
prolongou
promessa
promessas
promete
prometendo
prometida
prometido
prometiu
promobe
promoben
promobendo
promober
promobi
promobida
promobidas
promobido
promobidos
promobiu
promoc
promotor
promulgac
promulgada
promulgou
pronomes
pronta
prontamente
pronto
prontos
pronu
pronuncia
pronunciada
pronunciado
pronunciamiento
prop
propagac
propaganda
propagar
propelente
proper
properties
property
propi
propia
propiadade
propiadades
propiamente
propiata
propiatairo
propiatairos
propicia
propiciou
propiedade
propiedades
propieta
propo
propondo
propone
proponen
proponente
proponho
propor
proporc
proporciona
proporcionado
proporcional
proporcionan
proporcionando
proporcionar
proporcionou
proposic
proposta
propostas
proposto
propostos
propulson
propulsora
propulsoras
propunha
propusi
propuso
prosa
proselitismo
prospec
prosperidade
prospero
prosperou
prossegue
prosseguindo
prosseguir
prosseguiran
prosseguiu
prossimidade
prossimidades
prostituic
protagonista
protagonistas
protec
protecionistas
protection
protectionlevels
protege
protegendo
proteger
protegida
protegidas
protegido
protegidos
protei
protestante
protestantes
protestantismo
protesto
protestos
protetor
protetora
protetorado
protetores
protiu
proto
protocol
protocolo
protocolos
protozoa
proua
proudhon
proust
provavelmente
provi
provided
provides
pru
prude
prudente
pruma
prumas
prussiana
prussianas
prussiano
prussianos
pryor
ps
psam
psd
pseudo
pseudobulbos
psi
psicana
psicanali
psicanalista
psico
psicolo
psicologie
psicoterapie
psique
psiquia
psiquiatra
psiquiatria
pspace
psula
psychological
psychology
pt
ptolemiu
ptolomiu
ptr
pu
pub
puberdade
public
publica
publicaba
publicac
publicacio
publicada
publicadas
publicado
publicados
publicamente
publican
publicando
publicar
publication
publicationes
publicationplace
publications
publicidade
publicita
publico
publicou
published
publisher
publishers
publishing
puc
pudo
puebla
puente
puerto
puis
pul
pula
pulas
pulgas
pulgones
pulmon
pulo
pulos
puls
pulso
pumienta
punch
punha
punhado
punhan
punic
punido
punidos
punir
punirun
punk
punt
punta
puntas
punto
puntos
puoda
puodamos
puodan
puode
puoden
puodes
puodo
puonte
puontes
puorta
puortas
puosta
puosto
puostos
pura
puramente
puranas
puras
pureza
purfeita
purfeitamente
purfeito
purfeitos
purgato
purge
purificac
purificar
puritana
puritanos
purma
purmariamente
purmeira
purmeiramente
purmeiras
purmeiridade
purmeiro
purmeiros
puro
puros
purparado
purpose
purpuostas
pursidente
pus
push
pushkin
puso
put
puta
putada
putadas
putado
putan
putar
putas
putin
putter
puxado
px
python
q
qa
qaeda
qasi
qatar
qi
qian
qid
qin
qing
qiu
qt
qu
qua
quadra
quadrada
quadrado
quadrados
quadrangular
quadrante
quadrantes
quadras
quadratura
quadridimensional
quadrinhos
quadro
quadros
quaije
quaijeque
quais
qual
quales
qualesquier
qualesquiera
qualidade
qualidades
qualificac
qualificado
qualificando
qualquer
qualquier
qualquiera
quando
quanta
quantas
quantidade
quantidades
quantie
quantificador
quantificadores
quantitatibas
quanto
quantos
quarenta
quaresma
quart
quarta
quartas
quarte
quartel
quarteto
quartetos
quarto
quartos
quartzo
quase
quatorze
quatre
quatro
quattro
quattrociento
que
quebec
quebra
quebrado
quebrando
quebrar
quebras
quebrou
queda
quedaba
quedado
quedan
quedando
quedar
quedara
quedarian
quedarie
quedas
quedasse
quedassen
quedava
quede
queden
quedistas
quedo
quedou
quei
queima
queimada
queimadas
queimado
queimados
queimar
queimo
queimou
queiro
queiso
queisos
queixa
queixas
quejir
quejiren
quejirun
quejisse
quejissen
quel
quela
quele
queles
quelimane
quelo
quelonial
queloniales
quelonialismo
quelonizac
quelonos
quelor
quelores
quelorida
queloridas
quelorido
queloridos
quelques
quelunas
queluobra
queluobras
quem
quemandante
quemando
queme
quemido
quemidos
quemum
quemumente
quemummente
quemun
quemuna
quemunal
quemunas
quemunes
quemunhon
quemunica
quemunicac
quemunican
quemunicar
quemunicou
quemunidade
quemunidades
quemunismo
quemunista
quemunistas
quemunita
quemuns
quen
quenhientos
quental
quer
querela
queremos
querendo
querer
querga
querida
querido
querie
querien
quero
query
questa
question
questiona
questionada
questionado
questionamiento
questionan
questionando
questionar
questiones
questions
queston
questones
questu
questuma
questumaba
questuman
questume
questumes
qui
quia
quias
quibir
quic
quica
quick
quico
quida
quido
quidos
quien
quier
quieren
quiero
quijo
quilo
quilogramas
quilombos
quilos
quina
quinas
quinase
quinta
quintal
quintana
quintas
quintetos
quinto
quintos
quinze
quio
quioto
quit
quito
quixote
quo
quoc
quociente
quod
quon
quota
quotas
quote
quoted
quotes
quotidiana
quotidiano
r
ra
rabe
rabena
rabenna
rabes
rabi
rabin
rabino
rabinos
rabisco
rabiscos
rable
rabo
rac
race
racial
raciales
racine
racioci
racional
racionales
racionalidade
racionalismo
racionalista
racionalizac
racismo
racista
racistas
racles
rad
rada
radadeira
radadeiras
radadeiro
radadeiros
radar
radares
radiac
radial
radiante
radicado
radical
radicales
radicalismo
radicalmente
radio
radiodifuson
radiofo
radiofreque
radioquemunicac
rae
raem
raening
raf
rafael
rai
raia
raic
railway
raimundo
rainha
raio
raios
raizes
raja
rajaston
ral
rala
ralas
ralo
ralos
ralph
ram
rama
ramalhete
ramalho
ramana
ramanuja
ramanujan
ramayana
rami
ramificac
ramirense
ramiro
ramla
ramo
ramon
ramos
ran
rancho
rand
randy
range
ranges
rank
ranking
rap
rapac
rapadura
rapaza
rapazas
rapazes
rape
rapidamente
rapidec
rapids
raposa
raposo
rapso
raramente
rari
raridade
rascunho
rascunhos
rastro
rata
rate
rather
ratico
ratificado
ratio
rato
ratos
ratzel
ratzinger
rau
raul
raw
rawget
ray
raymond
raza
razies
razo
razoable
rbaras
rbaro
rbaros
rbela
rben
rbia
rbio
rbios
rbita
rbitas
rbitro
rcan
rcega
rcia
rcio
rcios
rcito
rcitos
rclo
rclos
rcules
rd
rdan
rdia
rdica
rdicos
rdie
rdio
rdios
rdoba
re
rea
reabastecimiento
reac
reaciona
read
reading
reads
ready
reafirmar
reafirmou
reagan
reagir
reagiu
reais
real
reales
realizado
reanimac
reanimamiento
reanterpretac
reas
reason
reatores
reb
rebanche
rebatizada
rebe
rebela
rebelaba
rebelac
rebelada
rebeladas
rebelado
rebelados
rebelan
rebelando
rebelar
rebelde
rebeldes
rebelion
rebeliones
rebelo
rebelou
reber
rebere
reberencia
rebersa
rebersible
rebersibles
reberso
reberter
rebestido
rebestimiento
rebestimientos
rebibir
rebiew
rebindicac
rebindicar
rebisada
rebisionismo
rebisionistas
rebison
rebisones
rebista
rebistas
rebiste
rebisto
rebitalizac
reblion
rebliones
rebo
rebocada
rebocado
rebolta
reboltas
rebolto
reboltosos
reboluc
reboluciona
rebolucionairo
rebolucionairos
rebolucionou
rebolution
rebordo
rebro
rebros
rebuolta
rebuoltas
rec
recai
recaredo
rece
recebe
recebi
recebida
recebidas
recebido
recebidos
recebie
recebien
recebimiento
recebindo
recebir
recebira
recebirie
recebiu
receio
receita
receitas
recenseamiento
recent
recente
recentemente
recentes
recepc
recesson
recetor
recetores
rechac
reci
recibe
reciclaige
recife
recinto
recintos
recipiente
reciprocidade
recitac
recitar
reclamaba
reclamac
reclamando
reclamar
reclamou
recluson
reco
recoincer
recoincida
recoincidas
recoincido
recoincidos
recoincimiento
recolha
recolher
recolheu
recolhidas
recolhido
recolhidos
recolhimiento
recombinac
recomec
recomenda
recomendac
recomendado
recomendou
reconceliac
reconciliac
reconhe
reconhec
reconhece
reconhecedores
reconhecen
reconhecendo
reconhecer
reconheci
reconhecian
reconhecida
reconhecidas
reconhecido
reconhecidos
reconhecie
reconhecimento
reconhecimiento
reconhecimientos
reconheciu
reconquista
reconstruc
reconstrui
reconstruir
reconstruiu
record
recorda
recordac
recordado
recordar
recorde
recordes
recordings
recordou
records
recorre
recorrendo
recorrente
recorrer
recorreu
recortes
recreac
recreatiba
recreatibas
recreatibo
recreio
recriar
recruta
recrutados
recrutamiento
recrutar
rect
recua
recuar
recumpensa
recumpensada
recumpensado
recumpensas
recumpilac
recunciliac
recunquista
recunquistar
recuo
recuolha
recuou
recupera
recuperac
recuperada
recuperado
recuperados
recuperando
recuperar
recupero
recuperou
recursebidade
recursiba
recurso
recursos
recusa
recusaba
recusada
recusado
recusando
recusar
recuso
recusou
recustruc
red
redac
redadeira
redadeiras
redadeiro
redadeiros
redator
rede
redemocratizac
redenc
redentor
redes
redetb
redi
redigida
redigidas
redigido
redigir
redigiu
reditado
redonda
redondezas
redondo
redondos
redor
redror
reduc
reduce
redunda
redundant
redundante
reduto
reduzen
reduzia
reduzida
reduzidas
reduzido
reduzidos
reduzindo
reduzir
reduziran
reduziu
ref
refazer
refe
refeic
refeito
refer
refere
reference
references
referencial
referendo
referente
referentes
referian
referida
referidas
referido
referidos
referie
referindo
referir
referiu
refi
refinada
refinadas
refinado
refinamiento
refinarie
refinaries
refira
refire
reflete
refleten
refletida
refletido
refletie
refletindo
refletir
reflexibo
reflexo
reflexon
reflexones
reflexos
reforc
reforma
reformada
reformadas
reformado
reformador
reformadores
reformados
reformar
reformas
reformista
reformistas
reformou
reformulac
refrac
refre
refree
refrencial
refrendo
refrente
refrentes
refrigerac
refrigerante
refrigerantes
refu
refugia
refugiado
refugiados
refugiar
refugio
refugiou
refuorc
refutac
regal
rege
regen
regencial
regenerac
regente
regentes
regex
reggio
regia
regida
regido
regime
regimes
regimiento
regimientos
regina
region
regional
regionales
regiones
regis
regista
registada
registado
registados
registan
registando
registar
register
registo
registos
registou
registra
registrada
registradas
registrado
registrador
registradores
registrados
registran
registrando
registrar
registro
registros
registrou
regnun
rego
regra
regras
regressa
regressado
regressando
regressar
regresso
regressou
reguengo
reguengos
regula
regulac
regulada
regulado
regulamentac
regulamentar
regulamientos
regulando
regular
regulares
regularidade
regularmente
rei
reia
reibindica
reibindicac
reibindicou
reich
reichenbachanthus
reichstag
reid
reilly
reimpresso
reims
reina
reinaba
reinado
reinados
reinante
reinar
reinas
reinhard
reino
reinos
reinou
reis
reitor
rejeic
rejeita
rejeitaba
rejeitada
rejeitadas
rejeitado
rejeitados
rejeitan
rejeitar
rejeitou
rejiste
rejistir
rela
relac
relaciona
relacionada
relacionadas
relacionado
relacionados
relacional
relacionales
relacionamiento
relacionamientos
relacionan
relacionando
relacionar
relanc
relata
relatada
relatado
relatados
relatan
relatar
relatebidade
related
relatiba
relatibamente
relatibas
relatibidade
relatibismo
relatibo
relatibos
relationes
relative
relato
relatos
relatou
relaxamiento
relaxar
release
released
releba
relebante
relebantes
relebo
relebos
relegion
relegiosa
relegiosas
relegioso
relegiosos
releic
releito
relevante
reli
religio
religion
religiones
religiosa
religiosas
religiosidade
religioso
religiosos
religious
reloijo
reloijos
reluta
remancista
remanescente
remanescentes
remanse
remanses
rembrandt
reme
remember
remete
remix
remo
remobe
remober
remobidas
remobido
remoc
remodelac
remonta
remontan
remota
remotas
remoto
remotos
remove
removeblanks
removed
remunerac
ren
rena
renace
renacenc
renacentista
renacentistas
renacer
renacimiento
renaissance
renamo
renan
renato
rencarnac
renda
rendas
rende
render
rendering
rendi
rendic
rendimiento
rendimientos
rendiu
rene
reno
renoba
renobables
renobac
renobada
renobado
renobar
renobou
renoir
renomado
renome
renomeada
renomeado
rentable
renu
renuncia
renunciando
renunciar
renunciou
renzo
reo
reorganizac
reorganizada
reorganizar
reorientac
reos
rep
repair
reparac
reparar
reparo
reparos
repartic
repartida
repartidos
repelir
repente
repentina
repercusson
repercussones
repercutiu
reperse
repersenta
repersentaba
repersentac
repersentada
repersentadas
repersentado
repersentados
repersentan
repersentando
repersentante
repersentantes
repersentar
repersentatiba
repersentatibas
repersentatibo
repersentatibos
repersento
repersentou
reperto
repete
repetic
repetida
repetidamente
repetidas
repetido
repetidos
repetir
replace
replaced
replacement
replan
repleta
repletas
repleto
reply
repo
repoboamiento
reporduc
report
reportaige
reportaiges
reports
reposic
reposito
repouso
represa
represas
represson
reprimir
reproduc
reprodutiba
reprodutibo
reproduzida
reproduzir
repu
republic
republicana
republicanas
republicanismo
republicano
republicanos
repunsable
repuosta
repuostas
reputac
requalificac
requer
requerer
requerida
requerido
requerie
requesito
requesitos
request
requested
requests
requi
requia
requiem
requinte
require
required
requirements
requires
requisito
requisitos
rerun
res
rescrebir
research
reseluc
resende
resenha
reserba
reserbaba
reserbada
reserbadas
reserbado
reserbas
reserbato
resfriamiento
resgatados
resgatar
resgate
resi
reside
residencial
residenciales
residente
residentes
residian
residie
residir
residiu
residual
residuales
resistance
resiste
resistente
resistentes
resistir
resistiran
resistiu
resnun
resolbe
resolben
resolbendo
resolber
resolbi
resolbida
resolbido
resolbidos
resolbiu
resoluc
resolution
resource
resources
respeita
respeitadas
respeitado
respeitando
respeitar
respeito
respetiba
respetibamente
respetibas
respetibo
respetibos
respirac
respirato
responsabilidade
responsable
respunde
respunden
respundendo
respunder
respundi
respundia
respundido
respundiu
respunsabelidade
respunsabelidades
respunsable
respunsables
respunsablidade
respunsablidades
respunses
respuosta
resqui
ressaltar
ressona
ressucitado
ressucitou
ressurgimiento
ressurreic
resta
restaba
restablecer
restan
restando
restante
restantes
restaurac
restaurada
restaurado
restauradores
restaurar
restaurou
restelo
restitui
resto
restos
restou
restourac
restourada
restourado
restourante
restourantes
restourar
restouro
restric
restringe
restringida
restringindo
restringir
restringiu
restrita
restritas
restrito
restritos
restro
restros
restruturac
resulber
result
resulta
resultaba
resultado
resultados
resultan
resultando
resultante
resultantes
resultar
resultarie
resulto
resultou
results
resume
resumida
resumido
resumindo
resumo
resumos
ret
reta
retaguarda
retaliac
retangular
retas
retenc
reter
retina
retira
retirada
retiradas
retirado
retirados
retirando
retirar
retiro
retirou
reto
retoma
retomada
retomando
retomar
retombo
retombos
retomou
retorna
retornado
retornando
retornar
retorno
retornou
retrata
retratado
retratan
retratando
retratar
retratista
retrato
retratos
retratou
retriebed
retro
return
returned
returns
retval
reu
reunia
reunian
reunida
reunidas
reunido
reunidos
reunificac
reunindo
reunion
reuniones
reunir
reuniran
reuniu
reuters
review
revisa
revisado
revista
revoluc
rex
rey
reyes
reynolds
rez
reza
rezar
rezon
rezones
rfc
rfica
rficas
rficos
rft
rgamo
rgb
rgia
rgica
rgicas
rgico
rgicos
rgie
rgio
rgula
rhode
rhodes
rhs
ri
ria
rial
rialc
riales
rialeza
rialidade
rialidades
rialismo
rialista
rialistas
riality
rializa
rializaba
rializac
rializada
rializadas
rializado
rializador
rializados
rializan
rializando
rializar
rializo
rializou
rialmente
rias
riba
ribadabie
ribal
ribales
ribalidade
ribalidades
ribas
ribateijo
ribeira
ribeirinha
ribeiro
ribeiron
riber
ribera
ric
rica
ricamente
ricardo
ricas
rice
rich
richard
richardson
richmond
richter
ricimer
rick
rickels
ricklefs
ricky
ricles
rico
ricos
rida
ridas
riddle
rider
riders
rides
rido
ridos
rie
rieira
rieiro
rieiros
riemann
ries
rift
rig
riga
right
rightarrow
rights
rigidec
rigo
rigor
rigorosa
rigorosamente
rigoroso
rigorosos
rigos
rimas
rin
rines
ring
ringo
ringue
rio
rioja
rion
rios
rique
riqueza
riquezas
riqui
ris
risa
risco
riscos
rise
rita
ritmo
ritmos
rito
ritos
ritual
rituales
riu
rius
river
rix
rj
rman
rmatas
rmica
rmicas
rmico
rmicos
rmino
rmon
rmones
rmore
rmula
rmulas
rn
rna
rnan
rnia
rnico
rnio
ro
road
robb
robe
rober
robert
roberto
roberts
robespierre
robin
robo
robot
robusto
rocha
rochosas
rochoso
rochosos
rock
roco
rod
rodada
rodando
rodar
rode
rodeada
rodeado
rodeia
rodes
rodi
rodin
rodobia
rodobiairo
rodobias
rodolfo
rodri
rodrigo
rodrigues
roedores
roger
rogers
roi
roixo
rola
roland
rolas
rolfe
roll
rolling
rolos
rom
roma
roman
romana
romanas
romance
romances
romancista
romani
romanizac
romano
romanob
romanos
romanov
romantismo
romarie
romaries
rome
romeno
romeo
romero
rommel
romon
rompe
rompendo
romper
rompeu
rompi
rompimiento
ron
ronald
ronaldo
ronda
rondon
ronronar
roosevelt
root
roque
roques
roraima
roraimense
rosa
rosas
rose
rosebelt
ross
rossio
rostro
rota
rotac
rotas
roteirista
roteiristas
roteiro
roteiros
rotense
roterdana
roterdon
roth
rotina
rotinas
rotunda
rouba
roubado
roubar
roubo
rouen
rouge
round
rounded
roupa
roupas
rousseau
routledge
row
rowargs
rows
rowspan
roy
royal
rpatos
rpc
rpia
rprete
rpretes
rpura
rquica
rquicas
rquico
rquicos
rr
rrea
rreas
rregos
rren
rreo
rrio
rs
rsega
rsei
rsia
rsias
rsico
rtan
rtaro
rtaros
rteis
rten
rter
rtere
rteres
rtia
rtias
rtica
rticas
rtice
rtices
rtico
rticos
rtida
rtie
rties
rtil
rtio
rtios
rtp
ru
ruanda
rube
ruben
rubenes
rubin
rubinstein
ruby
rude
rudimentares
rudolf
rue
rues
rufino
rugby
rugido
rugidos
rui
ruiba
ruic
ruin
ruina
ruinas
ruiu
ruiz
rule
rulos
rumo
rumores
rumos
run
runas
rung
running
runs
ruoca
ruoda
ruodas
ruodra
ruon
ruperto
rupestre
rupestres
ruprechtsbau
rural
rurales
rus
rushdie
russa
russas
russel
russell
russia
russian
russo
russos
russulales
ruth
rutherford
rutul
rutura
ruy
rw
ry
ryden
ryu
ryunosuke
rza
rzea
s
sa
saalbau
saara
saba
sabana
sabanas
sabannah
sabastian
sabbatai
sabe
sabedorie
sabemos
saben
sabendo
saber
sabes
sabido
sabie
sabien
sabin
sabino
saboaries
sabor
sabores
sabre
sabrosa
saca
sacaben
sacabenense
sacabenenses
sacauen
sacerdo
sacerdotal
sacerdotales
sacerdote
sacerdotes
saco
sacos
sacra
sacramento
sacramentos
sacramiento
sacramientos
sacras
sacred
sacrefi
sacrifi
sacrificar
sacro
sacros
sad
sadat
saddam
saddan
sado
saduceus
saen
safa
safe
safo
safra
saga
sagerado
sagrada
sagradas
sagrado
sagrados
saguna
sahib
sai
saia
said
saida
saigon
saindo
saint
sainte
saints
sako
sakura
sal
sala
saladino
salado
salairo
salairos
salamanca
salamina
salas
salazar
salba
salbac
salbador
salbaige
salbaiges
salbando
salbar
salbi
salbo
salbos
salbou
saldanha
saldo
sales
salgado
sali
salida
salidas
salido
salienta
salientan
salientar
saliente
salimiento
salinas
salir
saliu
salle
salmon
salmos
salo
salomon
salon
salones
salsa
salt
salta
saltac
saltados
saltando
saltar
salto
saltos
salude
salvador
salyut
salzburgo
sam
samadhi
samatra
samba
same
sameiro
sami
samo
samoa
samorin
samos
samotra
sampaio
sampiero
samsara
samuel
samurai
san
sanc
sancha
sanchec
sancho
sanconi
sand
sanda
sandbox
sandboxtitle
sandenista
sanders
sandra
saneamiento
sanes
sangre
sangrenta
sangrentas
sangrento
sangrentos
sangui
sanita
sankaracharya
sankhya
sansa
sant
santa
santana
santar
santare
santaren
santas
santi
santiago
santidade
santificac
santificante
santo
santos
santua
santuairo
sao
sapienes
sapiens
sapo
saque
saqueada
saqueando
saquear
saqueio
saqueo
saqueou
saques
sar
sara
saragoc
sarah
saraiba
saramago
sarampo
sarasbati
sardenha
sardina
sardinha
sardoura
sargon
sarmento
sarmiento
sarney
sarojeni
sarracenos
sars
sartre
saskia
sassa
sastifac
sastifato
sastifatoriamente
sastifazer
sastifeito
sastifeitos
sat
sata
satamente
satana
satas
sate
sati
satidon
sato
saturac
saturday
saturn
saturno
sau
saudable
saudables
saudac
saudita
saussure
sauston
savassi
save
sawyer
saxo
saxon
saxones
say
says
sazonal
sazonales
sbetambara
sbica
sbicas
sboc
sbt
sc
sca
scabac
scala
scalada
scalas
scale
scaleira
scaleiras
scalemajor
scaleminor
scalon
scandina
scandinaba
scandinabos
scantimburgo
scapa
scapan
scapar
scape
scaphyglottis
scapo
scapou
scar
scara
scaramuc
scaras
scarpa
scarpas
scassa
scassas
scassec
scasso
scassos
scatologie
scc
sce
scec
scedente
sceder
scentricidade
scepc
scepcional
scepcionales
scessiba
scessibamente
scessibo
scesso
scessos
sceto
scetuando
scheffel
scheffelterrasse
scheme
schiaparelli
schiller
schlechter
schloss
schol
school
schopenhauer
schro
schumann
sci
science
sciences
scientific
scimo
scitac
sclabagista
sclamou
sclarecer
sclareciu
sclo
sclos
sclui
scluindo
scluir
sclusebidade
sclusiba
sclusibamente
sclusibas
sclusibidade
sclusibo
sclusibos
scluson
sco
scoa
scoamiento
scobar
scoce
scoceses
scola
scolar
scolares
scolaridade
scolha
scolhas
scolhe
scolhendo
scolher
scolheu
scolhi
scolhida
scolhidas
scolhido
scolhidos
scolhiu
scolta
scomunhon
sconde
sconder
scondido
scondidos
scope
scopo
scorbuto
scott
scraba
scrabas
scrabatura
scrabidon
scrabistas
scrabizac
scrabizados
scrabizar
scrabo
scrabocrata
scrabos
scravos
screan
screbe
screben
screbendo
screbi
screbia
screbian
screbida
screbido
screbidos
screbie
screbindo
screbir
screbiu
screenshot
scribas
scribe
scribon
scribunto
script
scriptchapter
scrit
scrita
scritas
scrito
scritor
scritora
scritores
scritos
scritura
scrituras
scudo
scudos
scuita
scuitar
scula
sculas
sculpido
sculpir
sculto
scultor
scultores
scultura
sculturas
sculture
scuola
scuolas
scuolha
scura
scuras
scuridon
scuro
scuros
sd
se
sea
seabra
sean
seara
search
sears
season
seasonentries
seasonrow
seattle
sebastia
sebastian
sebastianense
seber
sebera
seberamente
seberas
seberin
sebero
seberos
sebilha
sebo
sec
seca
secar
secas
secc
secesson
seclo
seclos
seco
second
seconds
secos
secrec
secret
secreta
secretaira
secretairo
secretairos
secretamente
secretariado
secretarie
secretaries
secretas
secreto
secretos
section
sections
secular
seculares
secunda
secundairo
secundairos
secundidade
sed
seda
sedan
sede
sedenta
sedes
sediada
sediadas
sediado
sediados
sediar
sedic
sedie
sedimentac
sedimentares
sedimentos
sedimientos
sediou
seduc
see
seen
sefarditas
segmiento
segmientos
segnefica
segneficado
segneficatiba
segredo
segredos
segregac
segue
seguen
segui
seguia
seguian
seguida
seguidas
seguido
seguidor
seguidores
seguidos
seguimiento
seguindo
seguinte
seguintes
seguir
seguiran
seguiu
segunda
segundas
segundo
segundos
seguramente
seguranc
sei
seia
seias
seiba
seicientos
seinhas
seis
seita
seitas
seixal
seixas
seja
sejam
sel
selba
selbas
sele
selec
selecionada
selecionadas
selecionado
selecionados
select
selected
selena
seletiba
self
selicatos
selju
seller
selo
selombra
selombras
selos
seltenleer
seluc
sem
sema
semana
semanal
semanales
semanalmente
semelhanc
semelhante
semelhantes
semestre
semi
semiente
semientes
semifinales
semina
seminairo
semio
semiologie
semita
semitas
semite
semitismo
semplicidade
sempre
sen
sena
senado
senador
senadores
senatorial
sendin
sendine
sendo
senefica
seneficaba
seneficac
seneficado
seneficados
seneficando
seneficante
seneficar
seneficarie
seneficatiba
seneficatibamente
seneficatibas
seneficatibo
seneficatibos
seneficou
senegal
senhal
senhales
senhor
senhora
senhores
senhorial
senhoriales
senhorin
senhorio
senna
seno
sensac
sensibelidade
sensibelmente
sensible
sensiblemiente
sensibles
sensiblidade
senso
sensor
sensores
sensorial
sensoriales
sensors
sensu
sensual
sentado
sentar
sente
senten
sentenc
sentian
sentida
sentido
sentidos
sentie
sentimental
sentimiento
sentimientos
sentimos
sentindo
sentinela
sentir
sentiran
sentiu
senzalas
seos
seoul
sep
sepa
separa
separac
separadamente
separador
separando
separate
separated
separatista
separatistas
separator
separators
separo
separou
sepc
sepo
september
sepulcro
sepultado
sepultados
sepultura
sepulturas
seq
seque
sequeira
sequencia
sequencial
sequer
sequestros
sequiera
ser
sera
seran
serbat
serben
serbentes
serbi
serbia
serbian
serbic
serbice
serbida
serbido
serbidon
serbidor
serbidores
serbie
serbindo
serbir
serbira
serbiran
serbiren
serbirie
serbirieb
serbiu
serbo
serbos
serbs
serei
sereia
serena
serenata
serenidade
seres
sergei
sergio
sergipe
seria
seriado
seriados
serial
seriamente
serie
serien
series
seriesoverview
sermon
sermones
sernadelo
sernen
serpa
serpente
serpentes
serpento
serra
serras
serron
serton
service
servicing
ses
sesimbra
sesmaries
sessenta
session
sessions
sesson
sessones
sesta
sesto
set
seta
setas
setember
setembre
setembro
setenta
setentrional
setentrionales
seti
setmetatable
setor
setores
sets
setting
settings
setu
setuaginta
seu
seuil
seul
seus
seven
several
seward
sex
sexo
sexos
sexual
sexuales
sexualidade
sexualmente
seymour
sfe
sfera
sferas
sfergante
sfergantes
sfinge
sfondo
sforc
sforo
sfuorc
sgota
sgotados
sgotamiento
sgoto
sgotos
sgotou
sh
sha
shah
shakespeare
shandong
shane
shang
shanghai
shankara
shannon
share
shared
sharon
shaw
shaykh
she
shebchenko
sheikh
shek
shell
shenxian
sheridan
shi
shiba
shift
shinano
shire
shirley
sho
shopping
short
shoshenq
should
shouldbe
show
showing
shown
shows
shrewsbury
shtml
shu
shun
shuttle
si
sia
siame
sias
sibe
sibilante
sic
sica
sicas
sici
sico
sicos
sid
sida
siddhartha
side
sideru
sidney
sido
sie
siegfried
siempre
sien
siena
sierra
sierras
siete
sietenta
sig
siga
sigfig
sigilo
sigismundo
sigla
siglo
sigma
sigmund
sign
signata
significa
significado
significant
signo
signos
sigue
sigura
siguranc
siguras
siguro
siguros
sikh
sikhismo
sikhs
sil
silado
silados
silar
silas
silba
silbeira
silbes
silbestre
silbestres
sile
silence
silencio
silent
sili
silicatos
silla
silo
silogismo
silos
silou
silva
silvio
sim
sima
simblo
simblos
simbo
simbolicamente
simbolismo
simboliza
simbolizando
simbolizar
simbolo
simbologie
sime
simetrie
similar
similares
simmern
simo
simon
simone
simones
simos
simpa
simpatie
simpaties
simpatizantes
simple
simples
simplesmente
simpli
simplicidade
simplificac
simplificada
simplificado
simpo
simpson
simpsones
simulac
simular
simulta
simultaneamente
sin
sinagoga
sinagogas
sinai
sinal
sinales
sinatra
since
sinceridade
sincero
sincretismo
sincronizac
sindbad
sindical
sindicalismo
sindicalista
sindicalistas
sindicato
sindicatos
sine
sines
sinfo
sinfonia
sinfonias
sinfonie
sinfonies
sing
singapura
singer
singh
single
singles
singular
singulares
singularidade
sino
sinta
sintaxe
sinte
sinto
sintoma
sintomas
sintra
sio
sion
sionismo
sionista
sionistas
sios
sir
siracusa
sirban
sirbe
siri
sis
sismicidade
sismo
sismos
siste
sistema
sistemas
sistematicamente
sistematizac
sistina
sit
site
sites
sitio
sito
sitos
situa
situaba
situac
situada
situadas
situado
situados
situan
situando
situar
situou
six
siyyid
siza
size
sk
skin
skip
sky
skylab
sl
slaba
slabas
slabo
slabos
slash
sloba
slobe
slogan
sm
smagada
smagadora
smagar
smago
small
smartphones
smaug
sme
smica
smicas
smico
smicos
smirna
smith
smithsonian
smo
smolas
sn
snak
snapdate
snia
snow
snuka
so
soa
soares
sob
sobe
soberana
soberanas
soberanie
soberano
soberanos
sobie
sobiete
sobietes
sobra
sobradinho
sobral
sobranceiro
sobre
sobrefic
sobrenome
sobrino
sociable
sociadade
sociadades
social
sociales
socialismo
socialista
socialistas
socializac
socialmente
sociedad
sociedade
societa
society
socio
socioecono
sociolo
sociologie
socorro
socra
sodomie
soeiro
sofa
sofala
sofia
sofista
sofistas
sofisticac
sofisticada
sofisticadas
sofisticado
sofisticados
sofo
sofos
sofre
sofree
sofren
sofrendo
sofrer
sofrera
sofri
sofria
sofrian
sofrida
sofridas
sofrido
sofridos
sofrimento
sofrimiento
sofrimientos
sofriu
soft
software
softwares
sogro
soja
sokolnitc
sol
sola
solamente
solano
solar
solares
solas
soldados
solene
solenemente
solenes
soles
solica
solicitac
solicitando
solicitar
solicitou
solico
solid
solidariadade
solidariedade
solidline
solidon
solis
solista
solistas
solita
solo
solos
solsti
solta
solu
soluc
solucionar
soma
somados
soman
somando
somar
somas
somato
some
something
sometimes
somo
somos
son
sonar
sonata
sonatas
sonda
sondas
sonerado
soneto
sonetos
song
songs
sonido
sonidos
sono
sonora
sonoras
sonoridade
sonoro
sonoros
sonsaku
sony
soon
sope
sophia
sophie
sopra
sopran
soprano
sopro
sor
sorbonne
soroban
sorocaba
sorriso
sorry
sort
sortable
sortac
sotaque
sote
sou
soube
soubiran
soult
sound
sounds
source
sources
sous
sousa
soutelo
south
southern
souto
souza
soyinka
soyuz
sp
spa
spac
space
spaces
spacial
spaciales
spada
spadas
spain
spalha
spalhada
spalhadas
spalhado
spalhados
spalhan
spalhando
spalhar
spalho
spalhou
span
spande
spandida
spandido
spandindo
spandir
spandiran
spandiu
spanha
spanhol
spanhola
spanholas
spanholes
spania
spaniae
spanish
spano
spansa
spansionismo
spansionistas
spanson
sparrow
sparta
spe
speak
spec
spece
speces
speci
speciac
special
speciales
specialidade
specialidades
specialista
specialistas
specializac
specializada
specializadas
specializado
specializados
specialmente
speciaries
species
specific
specifica
specificac
specificado
specificamente
specificar
specification
specified
specify
specula
speculac
speculadores
specular
speculatiba
sped
spedes
spedic
spediciona
speed
speilho
speilhos
spell
spelling
spencer
spenta
spera
speraba
sperada
sperado
speranc
sperando
sperantista
sperantistas
speranto
sperar
speras
sperie
speriente
sperientes
spermatozoides
spermicida
spero
spessa
spessura
spetaclo
spetaclos
spetacular
spetaculares
spetador
spetadores
spetatiba
spetatibas
spetro
spetrograph
spi
spice
spin
spina
spinela
spinho
spinosa
spinoza
spio
spion
spionaige
spiones
spiral
spirales
spirit
spiritismo
spiritual
spiritualidade
spiritualmente
spital
spitalar
spitalares
spitales
spitalidade
spitzer
splendor
spli
splica
splicac
splicada
splicadas
splicado
splicados
splican
splicando
splicar
splicitamente
splicou
split
splits
splitseason
splodiu
splora
splorac
splorada
sploradas
splorado
splorador
sploradores
splorados
splorando
splorar
splorato
splorer
sploro
splorou
splosiba
splosibas
splosibo
splosibos
spludir
spluson
splusones
spo
spoente
spoentes
spofacic
spondo
spone
sponencial
sponta
spontaneamente
spontaneidade
spor
spora
sport
sportac
sportado
sportador
sportadores
sporte
sportes
sportiba
sportibas
sportibo
sportibos
sporting
sports
sposa
sposas
sposende
sposic
spositores
sposo
sposta
spostas
sposto
spostos
spot
spots
spra
spread
spress
spressa
spressaba
spressamente
spressan
spressando
spressar
spressas
spressiba
spressibas
spressibo
spressionismo
spresso
spresson
spressones
spressos
spressou
sprie
sprime
sprimir
springer
sprita
spritas
spritismo
sprito
spritos
spritual
sprituales
spulsa
spulsar
spulsas
spulso
spulson
spulsos
spulsou
spurgo
spurmenta
spurmentac
spurmentado
spurmental
spurmentales
spurmentando
spurmentar
spurmento
spurmentou
spurmiento
spurmientos
sputnik
sq
sqft
sqkm
sqmi
sqrt
squadra
squadras
squadron
square
squared
squec
squecer
squecida
squecidas
squecido
squecimiento
squema
squemas
squerdista
squerdo
squi
squierda
squierdo
squilo
sr
sra
sri
ss
ssan
sse
ssea
sseis
sseles
ssema
ssemas
ssemo
ssemos
ssen
ssia
ssica
ssicas
ssico
ssicos
ssida
ssil
ssima
ssimas
ssimo
ssimos
ssio
ssola
ssolas
st
sta
staba
stabais
stabelece
stabelecendo
stabelecer
stabelecida
stabelecido
stabelecimiento
stabeleciu
stabelidade
stabilidade
stable
stablece
stablecen
stablecendo
stablecer
stablecera
stableci
stablecian
stablecida
stablecidas
stablecido
stablecidos
stablecie
stablecimiento
stablecimientos
stableciu
stablidade
stablizac
stac
staca
staciona
stacionados
stacionamiento
stada
stadacona
stadie
stadista
stadler
stado
stadon
stados
stadual
staduales
stadunidense
stadunidenses
staff
stagnac
staleiro
staleiros
stalin
staline
stalingrado
stalinismo
stamos
stampa
stan
stanbul
stand
standard
stando
stanford
stanho
stanley
star
stara
staran
starie
starien
stark
starr
starreija
start
started
starting
stas
stata
statal
statales
state
statement
statements
states
stati
station
statistical
statistics
stato
stats
statua
statue
statuetas
statura
status
statuto
statutos
stauffenberg
stay
ste
steam
steatorreia
steban
stebe
steben
stebenes
stebon
stefano
steia
stein
steiner
stela
stelar
stelares
stelas
stelicon
stelos
sten
stende
stenden
stendendo
stender
stendi
stendia
stendida
stendido
stendiu
stenes
stensa
stensas
stensiba
stensibamente
stensibo
stenso
stenson
stensones
stensos
step
stepe
stepes
stephanie
stephen
stephens
ster
sterelizac
stereo
sterie
sterilizac
sterior
steriores
sterlina
stermi
stern
sterna
sternamente
sternas
sterno
sternos
stewards
stewart
stf
sti
stia
stianc
stias
stica
sticas
stico
sticos
stili
still
stilo
stilos
stima
stimac
stimada
stimado
stimados
stiman
stimar
stimatiba
stimatibas
stimo
stimos
stimou
stimula
stimulado
stimulados
stimulan
stimular
stimulou
stinc
stingue
stinguir
stinguiu
stio
stios
stipula
sto
stocolmo
stoire
stola
stolas
stolo
stologie
stolos
stone
stop
stopin
stoque
stor
stored
stores
storge
storia
storiador
storiadores
storiadors
storical
storicamente
storicismo
stories
storiogra
storiografie
story
stou
stourou
str
stra
strabagante
strabon
strac
strada
stradas
stragos
strai
strair
stran
strange
strangeira
strangeiras
strangeiro
strangeiros
stranha
stranhas
stranho
stranhos
straordina
straordinairo
straordinariamente
strasburgo
strasformac
strasmuntana
strate
strategicamente
straterrestre
stratford
strato
stratos
stratropical
stratropicales
strauss
strean
street
streformac
streia
streilha
streilhas
streita
streitamente
streitas
streito
streitos
strelhado
strema
stremadura
stremamente
stremas
stremenho
stremidade
stremidades
stremistas
stremo
stremos
streou
stret
stria
strias
string
strings
strip
stripmarker
stripmarkers
stripped
strisse
strita
stritamente
strito
stro
strofe
strofes
strong
strumiento
strumientos
strutura
struturac
struturada
struturadas
struturado
struturados
strutural
struturales
struturalismo
struturalista
struturas
struture
sts
stsci
stsi
stu
stua
stuairo
stuart
stubi
stubir
stubisse
stubo
studa
studaba
studada
studadas
studado
studados
studan
studando
studante
studantes
studantil
studar
studies
studio
studios
studioso
studiosos
studo
studos
studou
study
stufa
stula
stuma
stumas
stumo
stupro
stupros
sturiana
sturianas
sturiano
stuttgart
style
styles
styling
su
sua
suabe
suabemente
suabes
suanpan
suas
suazila
sub
suba
subberson
subconjunto
subcontinente
subcuntinente
subdebide
subdebidido
subdebisones
subdiv
subdivs
suberante
subespece
subheader
subindo
subir
subitamente
subiu
subjacente
subject
subjectspace
subjetiba
subjetibas
subjugar
sublebac
sublime
submarino
submarinos
submersa
submetener
submeter
submeti
submetida
submetidas
submetido
submetidos
submetiu
submisson
submundo
subordinada
subordinadas
subordinado
subordinados
subpa
subpage
subpages
subre
subrebibe
subrebiben
subrebibente
subrebibentes
subrebibeu
subrebibi
subrebibir
subrebibiu
subrebo
subregion
subrenatural
subrenaturales
subrenome
subreponen
subreposic
subrepostas
subrepostos
subressaen
subressai
subretodo
subscribe
subscric
subscription
substitute
subterra
subti
subtipo
subtipos
subtrac
subtrai
subtropical
subtropicales
subu
subunit
suburbanas
suc
success
successful
sucede
sucedendo
suceder
sucedi
sucedida
sucedidas
sucedido
sucedidos
sucediu
sucessibamente
sucessibas
sucessibos
sucesso
sucesson
sucessor
sucessora
sucessores
sucessos
such
sucintamente
suco
sucumbiran
sud
suda
sudan
sudeste
sudiste
sudoeste
sudoiste
sue
sueba
suebo
suebos
suec
sueca
suecas
sueco
suecos
sues
sueste
suffix
sufi
suficiente
suficientemente
suficientes
sufis
sufismo
sufixo
sufixos
sufocada
sufocar
sufra
sufre
sufyan
sugere
sugerian
sugerido
sugeridos
sugerie
sugerindo
sugerir
sugeriran
sugeriu
sugeston
sugestones
suggestions
sugi
suharto
sui
suici
suicidas
suidade
suiste
sujeic
sujeira
sujeita
sujeitas
sujeito
sujeitos
sukarno
sul
sulcos
suldado
suldados
sulfato
sulfatos
sulfeto
sulfetos
sulista
sulistas
sulla
sulliban
sultanato
sultanatos
sulton
sum
suma
sumana
sumanas
sume
sumeriana
summary
summer
sumo
sumter
sun
sunday
sung
sunga
sunita
sunitas
suolo
suonho
suonhos
suorte
supe
super
supera
superac
superada
superando
superar
superbison
superfecial
superfi
superfice
superfices
superficial
superficiales
superficie
superior
superiores
superioridade
superou
superpopulac
superpote
superstar
superstic
supertac
suplemiento
suplemientos
supli
supo
supone
suponen
suponhamos
supor
suporta
suportan
suportar
suporte
suportes
suposic
suposta
supostamente
supostas
suposto
supostos
support
supported
supporting
supra
suprema
supremacie
supremo
supresson
suprimido
suprimiento
suprimientos
suprimir
suprir
supunha
sur
sura
surbey
surbeyor
sure
surge
surgian
surgida
surgido
surgie
surgimiento
surgindo
surgiran
surgirieb
surgiu
suriname
surprendente
surprendentemente
surprendidos
surprendiu
surpresa
surrealismo
surrealista
surrealistas
surto
surtos
survey
sus
susaariana
susan
susariana
suscetible
suscetibles
suscitou
susec
susequente
susequentemente
susequentes
susi
susiste
susisten
susolo
suspeita
suspeitaba
suspeitas
suspeitos
suspendiu
suspensa
suspensas
suspense
suspenso
suspenson
suspensos
sussex
susta
sustancial
sustanciales
sustancialmente
sustantibo
sustantibos
suste
sustenta
sustentaba
sustentable
sustentac
sustentada
sustentado
sustentados
sustentan
sustentando
sustento
sustentou
sustitui
sustituic
sustituindo
sustituir
sustituiu
sustituto
sustrato
sutileza
sutis
sutra
sutras
svg
swami
swann
swapping
switch
switching
sydney
sym
symbol
symbols
symlink
syndicate
syntagma
syntax
sysop
system
systema
systems
systen
szterha
t
ta
tab
tabaco
tabares
tabela
tabelas
tabelion
taberna
tabernaclo
table
tables
taborda
tabs
tabuleiro
tac
taca
tacada
tacadas
tacado
tacados
tacamiento
tacamientos
tacan
tacando
tacar
taco
tacos
tacou
tadjiquiston
taekwondo
tag
tagargs
tagname
tags
tai
taifa
tail
taila
tain
taipa
taipas
taiwan
tajiquiston
takamado
take
takelot
takes
tal
talas
talbec
tale
talega
talento
talentos
talentoso
tales
talha
talhadas
talib
taliban
talk
talmud
talo
talos
talvez
tamandare
tamanha
tamanho
tamanhos
tambe
tambor
tamien
tamil
tamisa
tampere
tampouco
tan
tana
tanakh
tancia
tancredo
tang
tanganica
tange
tango
tannha
tanque
tanques
tanta
tantas
tantes
tanto
tantos
tanza
tao
taoi
taoismo
tapa
tapec
tapete
taquari
taque
taques
tar
taras
tarde
tardes
tardiamente
tardie
tardio
tardios
tardo
tarefa
tarefas
targaryen
target
tarifa
tarifas
taros
tarouca
tarqui
tarso
tartaruas
tas
task
tasma
tasso
tate
tato
taurus
tautologie
tavares
taxa
taxas
taxon
taxonomie
taylor
tb
tba
tbl
tbol
tbs
tc
tce
tchaikovsky
tcheca
tchecosloba
tcoins
tcp
td
te
tea
teaching
team
tean
teatral
teatrales
teatro
tebas
tec
tecelaige
technical
technology
tecido
tecidos
tecnicamente
tecnolo
tecnologie
tecnologies
tecto
ted
tedra
tei
teijo
teis
teixeira
tejo
tel
tela
telar
telas
telbison
tele
telebison
telecomunicac
telefo
telefonia
telegraph
teleijornal
telemoble
telemobles
telenobelas
teler
teles
telesco
telescope
telespetadores
telhado
telhados
telibison
telifone
telifones
teliha
tell
telo
telquemunicac
telsco
tem
tema
temas
teme
temendo
temer
temia
temian
temido
temperadas
temperado
temperamiento
temperatura
temperaturas
temperature
tempestade
tempestades
templa
template
templatedata
templates
templatetitle
temple
templo
templos
tempo
tempora
temporada
temporadas
temporairo
temporal
temporales
temporariamente
tempos
temps
temunhas
temunho
ten
tena
tenacidade
tendas
tende
tenden
tendendo
tender
tendian
tendo
tendor
tendores
tendou
tene
tenemos
tenendo
tenente
tener
tenera
tenerie
tenerien
tenermos
tenga
tengo
tenho
tenian
tenida
tenidas
tenido
tenidos
tenie
tenien
tenndo
tennesse
tennessee
tenochtitlan
tenor
tenr
tenra
tenso
tenson
tensones
tenta
tentaba
tentac
tentada
tentado
tentan
tentando
tentar
tentatiba
tentatibas
tente
tento
tentos
tentou
teo
teocracie
teodo
teodomiro
teodorico
teodoro
teofrasto
teogonia
teolo
teologie
teor
teorema
teoremas
teoricamente
teorie
teories
teosofia
teoto
ter
tera
terabada
terana
terape
terapie
terapies
terc
terceira
terceiridade
terceiro
terceiros
[...]
