!
"
#
##0
##1
##10
##11
##12
##13
##14
##15
##16
##17
##18
##19
##2
##20
##21
##22
##23
##24
##25
##26
##27
##28
##29
##3
##30
##31
##32
##33
##34
##35
##36
##37
##38
##39
##4
##40
##41
##42
##43
##44
##45
##46
##47
##48
##49
##5
##50
##51
##52
##53
##54
##55
##56
##57
##58
##59
##6
##60
##61
##62
##63
##64
##65
##66
##67
##68
##69
##7
##70
##71
##72
##73
##74
##75
##76
##77
##78
##79
##8
##80
##81
##82
##83
##84
##85
##86
##87
##88
##89
##9
##90
##91
##92
##93
##94
##95
##96
##97
##98
##99
$
%
&
'
(
)
*
+
,
-
.
/
0
00
000
001
002
003
004
005
006
007
008
009
01
010
011
012
013
014
015
016
017
0177
018
019
02
020
021
022
023
024
025
026
027
028
029
03
030
0303
031
032
033
034
035
036
037
038
039
04
040
041
042
043
044
045
046
047
048
049
05
050
051
052
053
054
055
056
057
058
059
06
060
061
062
063
064
065
066
067
068
069
07
070
071
072
073
074
075
076
077
078
079
08
080
080725
081
0815
082
083
084
085
086
087
088
089
09
090
091
092
093
094
095
096
098
099
1
10
100
1000
1001
1005
101
1013
102
1020
1024
103
104
105
1050
1055
106
1066
107
1070
108
109
1092
1096
11
110
1100
1101
1103
1105
111
1110
112
1125
113
114
115
1150
116
117
1170
118
1185
1189
119
12
120
1200
1201
1202
1206
1209
121
1218
1219
122
1229
123
1230
1231
124
1240
1241
125
1250
1252
1254
1257
1259
126
1260
1265
127
1270
1272
1275
128
1284
129
1299
13
130
1300
1304
131
1313
1314
1316
132
1323
1324
1325
1326
1328
133
1330
1333
134
1347
135
1350
1352
1359
136
1360
1362
1365
1367
1369
137
1371
1377
138
1380
1389
139
1390
1392
1393
1397
1398
14
140
1400
1401
1402
1403
1405
1406
1408
1409
141
1413
1414
1415
14159
1416
1418
1419
142
1420
1421
1422
1425
1427
1428
143
1432
1435
1436
1437
1438
144
1440
1444
1446
1447
1448
145
1450
1451
1452
1453
1455
1457
1459
146
1460
1461
1462
1464
1465
1466
1468
1469
147
1470
1471
1472
1473
1478
148
1480
1481
1483
1484
1485
1486
1488
149
1490
1491
1492
1493
1494
1495
1497
1498
1499
15
150
1500
1502
1503
1505
1506
1507
1509
151
1510
1511
1512
1513
1515
1517
1518
1519
152
1520
1523
1525
1527
1528
1529
153
1530
1532
1533
1534
1535
1536
1538
154
1540
1542
1543
1544
1545
1546
1547
1549
155
1550
1553
1555
1556
1557
1558
1559
156
1560
1561
1564
1565
1566
1567
1569
157
1570
1571
1572
1574
1575
1576
1577
1578
158
1580
1582
1584
1585
1586
1587
1588
159
1590
1594
1595
1597
1598
1599
16
160
1600
1601
1603
1605
1606
1608
161
1610
1611
1614
1615
1616
1617
1618
1619
162
1622
1623
1625
1626
1627
1629
163
1630
1632
1633
1634
1638
164
1640
1641
1642
1643
1644
1646
1647
1648
1649
165
1650
1651
1652
1656
1658
1659
166
1660
1664
1665
1666
1667
1668
1669
167
1670
1671
1674
1677
1679
168
1680
16807
1682
1684
1685
1686
1687
1688
169
1690
1691
1693
1694
1695
1697
1698
1699
17
170
1700
1701
1702
1703
1704
1707
1708
1709
171
1710
1711
1712
1713
1714
1715
1716
1717
1718
1719
172
1720
1721
1722
1723
1724
1725
1727
1728
1729
173
1730
1732
1733
1734
1735
1736
1737
1738
1739
174
1740
1741
1742
1743
1744
1745
1746
1747
1748
1749
175
1750
1751
1752
1753
1754
1755
1756
1757
1758
1759
176
1760
1761
1762
1763
1764
1765
1766
1767
1768
1769
177
1770
1771
1772
1773
1774
1775
1776
1777
1778
1779
178
1780
1781
1782
1783
1784
1785
1786
1787
1788
1789
179
1790
1791
1792
1793
1794
1795
1796
1797
1798
1799
18
180
1800
1801
1802
1803
1804
1805
1806
1807
1808
1809
181
1810
1811
1812
1813
1814
1815
1816
1817
1818
1819
182
1820
1821
1822
1823
1824
1825
1826
1827
1828
1829
183
1830
1831
1832
1833
1834
1835
1836
1837
1838
1839
184
1840
1841
1842
1843
1844
1845
1846
1847
1848
1849
185
1850
1851
1852
1853
1854
1855
1856
1857
1858
1859
186
1860
1861
1862
1863
1864
1865
18650
1866
1867
1868
1869
187
1870
1871
1872
1873
1874
1875
1876
1877
1878
1879
188
1880
1881
1882
1883
1884
1885
1886
1887
1888
1889
189
1890
1891
1892
1893
1894
1895
1896
1897
1898
1899
19
190
1900
1901
1902
1903
1904
1905
1906
1907
1908
1909
191
1910
1911
1912
1913
1914
1915
1916
1917
1918
1919
192
1920
1921
1922
1923
1924
1925
1926
1927
1928
1929
193
1930
1931
1932
1933
1934
1935
1936
1937
1938
1939
194
1940
1941
1942
1943
1944
1945
1946
1947
1948
1949
195
1950
1951
1952
1953
1954
1955
1956
1957
1958
1959
196
1960
1961
1962
1963
1964
1965
1966
1967
1968
1969
197
1970
1971
1972
1973
1974
1975
1976
1977
1978
1979
198
1980
1981
1982
1983
1984
1985
1986
1987
1988
1989
199
1990
1991
1992
1993
1994
1995
1996
1997
1998
1999
2
20
200
2000
2001
2002
2003
2004
2005
2006
2007
2008
2009
201
2010
2011
2012
2013
2014
2015
2016
2017
2018
2019
202
2020
2021
2022
2023
2024
2028
2029
203
204
205
206
207
208
209
21
210
2100
211
212
213
214
215
216
217
218
219
22
220
2200
2201
221
222
223
2237
224
225
226
227
2274
228
229
23
230
2300
231
232
233
234
235
236
237
238
239
2392
24
240
241
2419
242
2421
2425
243
2436
244
245
246
247
2479
248
249
25
250
2500
251
252
253
254
255
2554
256
257
258
259
26
260
261
262
263
264
2646
265
266
267
2673
268
269
27
270
2700
271
272
273
274
275
276
277
278
279
28
280
281
282
283
284
285
286
287
288
289
29
290
291
292
293
294
295
296
297
298
299
3
30
300
3000
301
3011
302
303
304
305
306
307
308
309
31
310
311
312
313
314
315
316
3166
317
318
319
32
320
321
322
323
324
325
326
3265
327
328
329
33
330
331
332
3325
333
334
335
336
337
338
339
34
340
341
342
343
344
345
346
347
348
349
35
350
3500
351
352
353
354
355
356
357
358
359
36
360
3600
361
362
363
364
365
366
367
368
369
37
370
371
372
373
374
375
376
377
378
379
38
380
381
382
383
384
385
386
387
388
389
39
390
391
392
393
394
395
396
397
398
399
4
40
400
4000
401
402
403
404
405
406
407
408
409
41
410
411
412
413
414
415
416
417
418
419
42
420
421
4217
422
423
424
425
426
427
428
429
43
430
431
432
433
434
435
436
437
438
439
44
440
441
442
443
444
445
446
447
448
449
45
450
451
452
453
454
455
456
457
458
459
46
460
461
462
463
464
465
466
467
468
469
47
470
4704
471
472
473
474
475
476
477
478
479
48
480
481
482
483
484
485
486
487
488
489
49
490
491
492
493
494
495
496
497
498
499
5
50
500
5000
501
502
503
504
505
506
507
508
509
51
510
511
512
513
514
515
516
517
518
5188
519
52
520
521
522
523
524
525
526
527
528
529
53
530
531
532
533
534
535
536
537
538
539
54
540
541
542
543
544
545
546
547
548
549
55
550
5500
551
552
553
554
555
556
557
558
559
56
560
561
562
563
564
565
566
567
568
569
57
570
571
572
573
574
575
576
577
578
579
58
580
581
582
583
584
585
586
587
588
589
59
590
591
592
594
595
596
597
598
599
6
60
600
6000
601
602
603
604
605
606
607
608
609
61
610
611
612
613
614
615
616
617
618
619
62
620
621
622
623
624
625
626
627
628
629
63
630
631
632
633
634
635
636
637
638
639
64
640
641
642
643
644
645
646
647
648
649
65
650
651
652
653
654
655
656
657
658
659
66
660
661
662
663
664
665
666
667
668
669
67
670
671
672
673
674
675
676
677
678
679
68
680
681
682
683
684
685
686
687
688
689
69
690
691
692
693
694
695
696
697
698
699
7
70
700
701
702
703
705
706
707
708
709
71
710
711
712
713
714
715
716
717
718
719
72
720
721
722
724
725
726
727
728
729
73
730
731
732
733
734
735
736
737
738
739
74
740
741
742
743
744
745
746
747
748
749
75
750
751
752
753
754
755
756
757
758
759
76
760
761
762
763
764
765
766
767
768
769
77
770
771
772
773
774
775
776
777
778
779
78
780
781
782
783
784
785
786
787
788
789
79
790
791
792
793
794
795
796
797
798
799
8
80
800
8000
801
802
803
804
805
806
80665
807
808
809
81
810
811
812
813
814
815
816
817
818
819
82
820
821
822
823
824
825
826
827
828
829
83
830
831
832
833
834
835
836
837
838
839
84
840
842
843
844
845
846
847
848
849
85
850
851
852
853
854
855
856
857
858
859
86
860
861
862
863
864
865
866
867
868
869
87
870
871
872
873
874
875
876
877
878
879
88
880
881
882
883
884
885
8859
886
887
888
889
89
890
891
892
893
894
895
897
898
899
9
90
900
901
902
903
905
906
907
908
909
91
910
911
912
913
914
915
916
917
918
919
92
920
921
922
923
924
925
926
927
928
929
93
930
931
932
933
934
935
936
937
938
939
94
940
941
942
943
944
945
946
947
949
95
950
951
952
953
954
955
956
957
958
959
96
960
961
962
963
964
965
966
967
968
969
97
970
971
972
973
974
975
976
977
978
979
98
980
981
982
983
984
985
986
987
988
989
99
990
991
992
993
994
995
996
997
998
999
:
;
<
=
>
?
@
\
^
_
`
a
aa
aaben
aabenpualem
aabenraa
aachen
aachst
aachstgratst
aacht
aachtst
aadel
aaden
aadria
aafrika
aafrikoons
aaft
aafter
aaftinoch
aaftjens
aagetanj
aagetanjst
aaiu
aak
aaks
aaksen
aal
aalborg
aalen
aalern
aalernhu
aalge
aalkersem
aalmtoorp
aaltumaal
aamram
aamrem
aamring
aamringer
aan
aaneegn
aanj
aanjen
aanjno
aanjstendig
aapelsiinen
aapler
aarber
aarberen
aarberers
aarberet
aarberi
aarbern
aarbers
aarbert
aarberti
aarebaare
aarebaarin
aarem
aaremmud
aarhus
aarisk
aart
aarten
aartig
aasiaat
aasien
aast
aasten
aaster
aasterhoorne
aastholstiin
aatj
ab
aba
abaca
abasiinisk
abbe
abbey
abc
abchaasien
abchaasisk
abdu
abe
abeba
abel
abelsk
abendblatt
abenteuer
aber
abgedeckt
abgerufen
abgeschafft
abha
abi
abidjan
abies
abituur
abodriiten
abomey
abraham
abruzzeesk
abruzzen
abs
abschied
absinthium
absolutismus
absoluut
abu
abuja
abwaschen
abyssinica
abyssinicus
ac
acacallis
acade
academy
acampe
acanthephippium
acari
acaulis
acca
accent
accipiter
accipitridae
accipitriformes
accra
aceh
acer
aceratorchis
acerifolia
acetosa
acetosella
acetylsalicylsa
ach
ache
achillea
acht
achter
achterdu
achtergru
achtern
achtero
achtersir
achterst
achterweel
achterweelen
achterwehr
achtkarspelen
achtrup
acianthera
acianthus
acineta
acinonyx
acipenser
acipenseriformes
ackermania
aconcagua
aconitum
acorus
acostaea
acoustics
acre
acriopsis
acris
acrocephalidae
acrocephalus
acrochaene
acrolophia
across
act
actinidia
actinidiaceae
actitis
aculeata
aculeatus
acuminata
acuminatum
acuta
acute
ad
ada
adam
adamaua
adamov
adams
adana
adans
adansonia
addax
addfirstcategorydate
addis
ade
adeline
aden
adenauer
adenoncos
adenosintriphosphat
adja
adjarra
adjektiif
adjektiiwen
adjohoun
adler
administrative
administrativos
admiraal
admiraliteet
adolf
adolph
adoxaceae
adrar
adres
adresen
adriaatisk
adrorhizon
adschaarien
adulyadej
adustus
adygeeisk
adygeeja
adygeja
adıyaman
aedes
aegagrus
aeglefinus
aegotheles
aegypti
aegyptiacus
aene
aeonium
aepyceros
aerangis
aeranthes
aerial
aerides
aeroporto
aerosol
aeruginosus
aes
aesculus
aet
af
afa
afadja
afar
afd
affinis
afghaanistaan
afghanicum
afghanistaan
afghanistan
afkoot
africa
african
africana
africanus
afrika
afrikaa
afrikaans
afrikoo
afrikoons
afrikoonsk
afrique
afro
afroasiaatisk
afrotheria
afyonkarahisar
ag
agaawen
agadez
agadir
agalychnis
aganisia
agapanthus
agaricomycetes
agaricus
agatha
agathis
agave
agbangnizoun
age
agency
agg
agglome
agglomerations
agilis
aglomeratschuunen
aglossorrhyncha
agnew
ago
agona
agordino
agostinho
agou
agro
agrostemma
agrostophyllum
agua
aguascalientes
ague
aguila
agulhas
agung
agus
ah
ahafo
ahe
ahenobarbus
ahlefeldt
ahmed
ahmet
ahomade
ahorn
ahornbuumer
ahrensburg
ahrensho
ahrenvio
ahtna
ai
aichach
aichi
aier
aileu
ailo
aimara
ain
ainaarten
aingelsch
ainglisch
ainglische
ainglo
ainu
air
airbus
aires
airport
ais
aisch
aise
aisne
aispro
aiswaampen
aix
ajaccio
ajmag
ak
aka
akadeemisk
akademie
akademii
akademy
akan
akelei
akeroot
akihito
akim
akkordi
akku
akkumula
akkus
akordi
akpro
akronu
aks
aksaray
akse
aksen
aksiomen
akten
aktien
aktiif
aktinoiden
aktiwiteet
aktsjabrski
aktualisiert
aktuel
aktuell
aktuelle
akuraat
akureyri
akusatiif
akustik
akustische
akustisk
akwapim
akwitaanien
al
ala
alaanien
alabama
alamania
alan
alaotra
alaska
alastair
alauda
alaudidae
alb
alba
albaanien
albaans
albaansk
albania
albany
albellus
alben
albersdorf
albert
alberta
alberto
alberts
albescens
albicans
albicilla
albiflora
albifrons
albomarginatus
albrecht
albrechts
albugo
album
albus
alca
alcea
alcedo
alcelaphus
alcidae
alcock
aldgillis
aldrin
ale
alec
aleewen
aleksander
aleksandr
alemanisk
alembo
alentejo
aler
ales
alessandria
alessandro
aleut
aleuten
aleutisk
alexander
alexandra
alexandre
alexandria
alexandrinus
alexandrowsk
alfa
alfabeet
alfons
alfred
algarve
alge
algebra
algeerien
algemian
algemianer
algen
algeria
algier
algimiins
algonkin
algoritmus
ali
alian
alibori
alice
alighieri
align
aliiarten
aliining
aliksa
alima
alining
alis
alisma
alismataceae
alismatales
aliweegen
alk
alkaalimetal
alkaloid
alkaloiden
alken
alkersum
alkersumer
alkohol
all
allada
alle
allein
allen
allenstein
allergische
allerheiligenflud
alles
allgemeine
allier
alliiarten
allium
allonautilus
alma
almaty
alnus
alo
aloe
alopex
alopochen
alp
alpen
alpenruus
alpes
alpestris
alpha
alphabet
alphabets
alpina
alpinus
alruun
alruunen
als
alstom
alsu
alt
alta
altai
altaisk
altaj
alte
alten
altensteinia
alter
alternatiif
altert
altertumskunde
altes
altfriesischen
altgeorgisch
altissima
alto
altona
altonaer
altra
altstadt
altu
alu
aluco
alugha
alumiinium
aluminium
aluque
alutiiq
alutiitstun
alvise
alwat
alwin
alytus
alzette
am
ama
amabilis
amadeus
amagante
amalie
amalienborg
amanbi
amanita
amaranten
amaranthaceae
amaryllidaceae
amaryllisplaanten
amasya
amazon
amazonas
amazonian
amazonica
amba
ambai
amberg
ambi
amboise
amborella
ambriz
ambroocht
ambuchanania
amda
amdat
amdreiangen
amdreiangsobjekt
ame
ameerika
ameerikaa
ameerikaanisch
ameerikoo
ameerikoons
ameerikoonsk
amela
amenbai
amentotaxus
america
american
americana
americanus
ameriitsium
amerika
amerikoonern
amerikoons
amerikoonsk
amerikoonsken
amerlun
amesiella
amfaadang
amfaadet
amfiibi
amfiibie
amfiibien
amfoteer
amgingen
amgung
amgungspriak
amgungsspriak
amhaarisk
amhuuch
ami
amiens
aminosu
amitostigma
amkiard
amkimen
amlun
amman
ammerland
ammodorcas
ammophila
amna
amneemd
amoniak
amoron
amparoa
ampe
ampeloprasum
ampere
amphibia
amphibius
amphigena
amplexicaule
amreegnang
amreegnangen
amreegne
amreegnin
amringer
amrum
amrumbank
amrumer
amsaat
amskrewen
amskriiwang
amslo
amso
amsteld
amsterdam
amstreden
amt
amtelk
amten
amter
amtfrei
amtlik
amtsfrei
amtspriak
amtspriaken
amtsspriak
amtsspriaken
amtsspriik
amtstidj
amtusaaten
amu
amur
amurensis
amwa
an
ana
anacamptis
anagallis
anagoria
anakkale
analamanga
analysis
ananas
anarhichas
anas
anathallis
anatidae
anatinae
anatomii
anatoolien
anc
ancash
anchusa
ancipitia
ancistrochilus
ancistrorhynchus
ancona
ancuabe
and
andaluci
andaluusien
andelys
anden
andere
anderen
anders
andersen
anderson
andhra
andi
andong
andora
andorra
andre
andrea
andreas
andrej
andres
andresen
andrew
androcorys
android
andromeda
andropow
andros
androy
ane
anekdoten
anen
anenfamile
anenfo
anert
anfa
ang
angara
angeben
angela
angeles
angeln
angler
anglia
anglica
anglo
angloamerikoonsk
anglonormans
angoche
angola
angolensis
angoola
angraecopsis
angraecum
anguilla
anguilliformes
angulatus
anguloa
angustifolia
angustifolium
anhalt
anhang
anhima
anhinga
anhui
ani
anie
aniid
aniiden
animalia
anion
anis
ankara
ankırı
anlegen
ann
anna
annaba
annalena
annan
anne
annelida
annette
anno
annobo
annona
annuum
annuus
ano
anoectochilus
anomala
anongs
anonym
anonymous
anrufen
ans
ansbach
anse
anseba
ansellia
anseong
anser
anseranas
anseriformes
anserinae
anserini
anski
anta
antalya
antananarivo
antarctica
antarktikaa
antarktis
antarktisk
antarktisregiuunen
ante
anthemis
anthogonium
anthony
anthriscus
anthus
anti
antidorcas
antigua
antiigua
antiik
antike
antilen
antilla
antillanorchis
antilles
antilocapridae
antiloop
antiloopen
antilope
antilopinae
antilopini
antimony
antimoon
antje
anto
antoine
anton
antoni
antonia
antonio
antonius
antrim
antropologii
antwerpen
anura
any
anzeiger
anzugeben
anø
ao
aon
aorchis
aostada
aou
ap
apa
apache
apachean
apalopteron
aparte
apartheid
aparti
apartig
apbau
apbaud
apdaaget
apdialang
apdiald
apdialing
apeniinen
apenrade
aperoot
apgoowen
apha
aphu
aphyllorchis
apiaceae
apidae
apis
apium
apjiwen
apk
apkaam
apkimen
apklaarang
apkleering
apla
aplaag
aplahoue
aplectrum
apleesen
apliaset
apnimen
apocynaceae
apoda
apodiformes
app
appalachen
appendiculata
appenzell
apple
applegate
approx
apps
apracht
aprel
apricaria
aprikoos
april
aprilmuun
aprocht
apsaat
apsaatet
apschraawen
apska
apskrewen
apstant
apsteld
apta
aptaanj
apteryx
aptiien
aptoide
aptooch
aptreeden
apus
apuulien
apwa
apwaaksen
apwarmin
apwerket
apwoksen
aq
aqa
aqat
aquatica
aquatilis
aquifolium
aquila
aquilegia
aquitaine
ar
ara
araabien
araabisk
araabsk
arab
arabica
arabitragus
araceae
arachnida
arad
arafura
arafurasia
arago
aragoneesk
aragoonien
araliaceae
aralioides
arama
aran
araneae
araneesk
arapaho
ararat
arauca
araucani
araucaria
araucariaceae
araukaanern
araukaanien
araukaansk
araukaarien
arawak
arbeit
arborea
arboreus
arbutus
arc
archa
archaea
archaikum
archangelsk
archeoloogisk
archiif
archimedes
archipeel
architekt
archiv
archive
archives
arcona
arctic
arctica
arctium
ard
ardahan
ardea
ardeidae
ardennes
are
area
areaal
areaalen
areaali
areal
areas
arecaceae
arecales
arenaria
arenarium
arenas
arendt
arenga
arenicola
arezzo
arfst
arfsten
arganbuum
argania
argentatus
argentea
argenteus
argentiinien
argentiinsk
argentina
argentinien
argon
argual
ariana
aridane
aries
aristoteles
aritmeetik
arizona
arizonica
ark
arkansas
arke
arken
arkena
arkes
arkhangelsk
arko
arkona
arktis
arktisk
arlau
arlon
armee
armeen
armeenien
armeens
armeensk
armenia
armeniaca
armiaring
armin
armor
arms
armstrong
army
arn
arnee
arnhem
arno
arnold
arnolf
arnsberg
aromaticum
arondisamant
aronia
arous
array
arre
arriva
arrondissement
arrondissementen
arrondissements
arrondissment
arseen
art
arta
arte
artemisia
arthropoda
arthur
artiikel
artiikeln
artiikle
artiikler
artikel
artikeln
artiodactyla
arts
artvin
aru
arumeensk
arunachal
arundinaceus
aruuba
arvense
arvensis
arvicola
arviligjuaq
arzt
as
asa
asag
asan
asaron
ascalonicum
ascension
asch
aschaffenburg
ascheberg
aschenborn
aschmjany
ascoli
ascorbinsa
aserbaidschaan
aserbaidschaans
aserbaidschaansk
aserbaidschan
asger
ash
ashanti
ashe
asiaatisk
asiatica
asien
asinus
asio
asipowitschy
ask
asmara
asotsiatiifgesets
asow
asp
asparagaceae
asparagales
asparagus
aspects
aspera
asphodelaceae
asphodelus
aspromonte
assaba
assam
assen
association
assr
asstats
astekisk
asteraceae
asteroideae
asteroiid
asteroiiden
astrawets
astrid
astronaut
astronomii
astronoom
astronoomisk
astuurisk
asuncio
asw
asy
at
atacama
atacora
atakora
atakpame
atapaskisk
atatu
atauro
atc
atelier
atembeschwerden
atemwege
atentaat
atenteeter
athabasca
athabaskan
atheen
athen
athene
ati
atla
atlanta
atlantic
atlantica
atlantik
atlantikku
atlantique
atlantiques
atlantis
atlantisk
atlas
atmen
atmosfeer
atmosfeere
atmosfeeri
atmosfiir
atol
atolen
atomaar
atoom
atoome
atoomen
atoomfu
atoomka
atoomkial
atoomnumer
atoomstruum
atoomstruumuunlaagen
atoomta
atp
atra
atriplex
atsimo
atsinanana
atsooren
atthis
atumba
atwima
atyrau
au
aube
aubergine
auch
aucheri
aucuparia
aude
audi
audio
audulf
auer
aueraal
auerblewen
auerbliiwsel
auerden
auerdraanj
auerdreegen
auerdrewen
auerfa
auerfaal
auerfamile
auerfamilin
auergingen
auergung
auergungsmetal
auergungsmetalen
auerhood
auerian
auerk
auerklas
auerleewert
auerlewe
auerlewet
auerlo
auerma
auernaam
auernimen
auerorder
auersaat
auersaatang
auersaatangen
auersaater
auersaating
auersaatingen
auerseet
auerseeter
auersicht
auerspeeld
auerstam
auerwerket
auerwontre
auf
aufbewahren
aufgerufen
aufl
auflage
aug
augen
augenreizung
augenscha
auger
augost
augsburg
august
augusta
auguste
augustin
augustus
aur
aural
aurantiaca
aurantiifolia
aurantium
aurata
auratus
auray
aurblef
aurdat
aurea
aurelia
aureum
aureus
aurich
auriit
auriiten
aurita
auritus
aurlewet
aurn
aurnem
aurnemen
aurnomen
aurnoom
aurora
aurpotset
aurseet
aurseeting
aurseetingen
aurset
aurskot
aurskreften
aus
auschwitz
ausserrhoden
ausspu
austraalien
austraalisk
austral
australasica
australe
australia
australian
australien
australis
austria
austriacum
austroasiaatisk
austroneesk
austrotaxus
ausziehen
aut
authorities
authority
auto
autobaan
autodek
autofabrik
autofirma
autofo
autogeen
autographa
autoka
automaatisk
automobiil
automobil
automobilfabrik
automodel
automotive
autonome
autonomen
autonomii
autonomous
autonoom
autonoomi
autooren
autoorin
autor
autos
autotoch
autotochen
autumn
auvergne
aux
auxis
außer
av
ava
avannaata
ave
aveiro
avellino
avena
aventoft
averrhoa
aves
avesta
aviculare
aviv
avocado
avogadro
avosetta
avr
avrankou
aw
awa
award
awg
awi
awokaado
awt
axel
axis
axolotl
ay
aydın
ayoun
aythya
ayuntamiento
az
azoren
azoricus
azul
azur
azurea
aŋ
b
ba
baadelidj
baakaun
baal
baaler
baali
baan
baanen
baang
baanhof
baanhofsbro
baanhofsskelt
baanhofsskeltern
baantje
baar
baarigasten
baarilir
baarium
baarle
baarlook
baas
baasis
baasisk
babbage
babine
babrujsk
baby
bac
baca
baccata
bach
bachelor
bacteria
bad
badehose
baden
badge
badia
baerbock
bafata
baffin
bafing
baget
baguirmi
bah
bahaamas
bahamas
bahi
bahia
bahiensis
bahn
bahnhof
bahnsen
bahr
bai
baien
baikal
baikalsia
bailey
bailiwick
bailly
bairisch
bairisk
baispal
bait
baja
bak
bakbuurd
baker
bakeri
bakern
bakteerien
bakteerium
baku
bal
balaad
balama
balansae
balanta
balaststofi
baldwin
bale
balearen
bali
balineesk
balkaanen
balkaankrich
balkaarien
balkaarisk
balkan
ball
ballade
ballerup
baltijsk
baltikum
baltimore
baltisk
balıkesir
bam
bamako
bambara
bamberg
bambus
bamingui
bamme
ban
banaan
banaanen
banaba
banat
band
banda
bandama
bandar
bandix
bandung
bane
banen
banenlun
banensta
banenstoot
baner
banfora
bang
bangkok
bangladesch
bangladesh
bangoran
bangsi
bangui
bani
banikoara
banjul
bank
bankivahan
banks
banlun
banluns
banska
bante
banten
bantoid
bantu
bantuspriak
bantuspriaken
bantuspriiken
bantustan
bantustanen
banwa
banyanbuum
baptiste
bar
bara
barack
baragan
baraganen
barambu
baranawitschy
barat
barb
barbaados
barbados
barbara
barbarossa
barbata
barbuda
barbuuda
barcelona
barcino
bardai
barents
bargteheide
bargusin
bari
barishal
barito
bark
barking
barkley
barkly
barlach
barlavento
barletta
barlovento
barmstedt
barnet
barnim
barock
barok
baron
barra
barrier
barrio
barrios
barros
barrow
barry
barschoortagen
barthe
barths
bartling
bartolome
barton
bartz
baruch
barysau
bas
baschkiirisk
baschkir
baschkortostaan
base
basel
basgitari
bashkortostan
basiilikum
basilicum
basilikaata
basin
basis
basiswo
baskenlun
baskisk
baskoop
baskop
bass
bassa
bassanus
basse
basseterre
bassila
bassins
bat
bata
bater
baterii
bateriiaart
bateriien
bath
batha
bathurst
batken
batman
batna
batrachostomus
batschka
battambang
batteriielektrisk
battery
bau
baud
baudial
baudialen
bauen
bauer
bauhaus
baukonst
baum
baumann
baure
baut
bautzen
bauwiis
bavaria
bay
bayburt
bayer
bayern
bayesid
bayezid
bayreuth
bazaruto
bb
bbc
bbe
bbecke
bbet
bbi
bc
bceao
bd
be
bea
beac
beach
beamte
beans
bear
bearbeitet
beatles
beatragus
beaufort
beaver
bebooged
bec
bech
bechning
bechningen
bechningsaart
bechningsreeg
bechstofkraamer
becht
beck
becker
becquerel
beda
bedford
bedfordshire
bedialagt
bedja
bedju
bedobet
bedr
bedraapt
bedrewen
bedriiw
bedrohte
bedu
beed
beeder
beeft
beeintra
beek
beekdo
beend
beenedikt
beenk
beenken
beer
beeren
beergem
beeridmoune
beese
beesem
beesmer
beest
beesten
beeten
beeter
beethoven
befa
befaade
befaadet
befo
befraid
befreid
befu
bega
begaant
began
begand
beganed
begant
begin
begonia
begoniaceae
begoonien
begra
begreewen
begrip
begru
beha
behutsam
bei
beien
beijing
beim
beira
beirut
beisa
beispiel
beitrag
beja
bejewenhaid
bejewenhaiden
beka
bekannt
bekasi
beken
bel
bela
belaagering
belaagring
belaja
belarus
belarusians
belastok
belegt
belewet
belewin
belfast
belfort
belgica
belgien
belgiern
belgisk
belgium
belgorod
belgrad
belize
bella
belle
bellevue
bellingshausen
bellis
bellman
bells
belluno
belmopan
belo
belomorkanaal
belomorsk
belone
belonidae
beloniformes
beloogering
belu
belukin
bemba
bembe
ben
bena
bend
bende
bendsen
benedikt
benelux
benen
benenlo
benes
bengaalen
bengaalkaat
bengaals
bengalensis
benghalensis
bengkulu
bengo
bengoue
benguela
benguelastruum
beni
beniin
benin
benito
benjamin
benjamina
beno
benschi
bensiin
bensiinmaskiin
bensiinmotoor
bensiinwain
benth
bentham
benthamii
benton
benue
benz
ber
bera
beracht
berag
beragan
beragkeed
beragmari
beraiset
berane
berasino
berastawitsa
berat
berberisch
berberspriak
berbice
berchem
bere
berea
bereegent
bereegnang
bereegnangen
bereegne
bereegnin
bereert
beren
berenices
berepen
berg
bergamo
bergamotte
berge
bergedorf
bergen
berger
bergischer
bergkarabach
bergkirchen
bergstraße
berig
beriglungemeenden
bering
beringsia
berkeley
berkenthin
berkru
berkshire
berliin
berlin
berliner
berlingo
bermu
bermuuda
bern
bernard
bernardo
bernay
bernd
berners
bernhard
bernicla
beroun
berry
bertha
berthold
bertram
bertrand
beru
beryllium
bes
besa
besaat
besaatet
besaating
beschankowitschy
beschreibung
beschriwing
beschu
besfleegen
besiidelt
besirk
besju
beskiiden
beskraft
beskrewen
beskriiw
beskriiwang
beskriiwen
beskriiwing
beslo
beslood
beslu
besondere
besoocht
bespreegen
best
besta
bested
bestehen
besteht
bestemang
bestemangen
besteme
bestemet
bestenen
bestimd
bestimt
besto
bestoont
besuners
bet
beta
betaalet
betacoronavirus
bethlehem
beti
betiakent
betiaknang
betiaknangen
betiakne
betiikned
betiiknet
betj
betjocht
beton
betonro
betra
betroffenen
betru
bettongia
betula
betulaceae
betulus
betuunangen
bev
bevo
bewa
bewaaret
beweeging
bewenet
bewerket
bewerkin
bewickii
bewis
bewise
bewiset
bewoksen
bexley
bey
beyla
bezde
bezirk
bezirke
bfaalen
bh
bhimbetka
bhisho
bhp
bhumibol
bhutan
bhuutaan
bhuutoons
bi
bia
biaarbert
biafra
biak
biakin
bian
biand
bianer
bianfask
bianfasker
biard
bias
bib
biberach
bibha
bibleteek
bibleteeken
bibliografii
bibliographisches
bibliography
biblioteca
bibliothe
bibliothek
bicolor
bicornis
biden
bidens
bidos
bidrach
bidrachen
bidracher
bidreft
bidreftsysteem
bidrewen
bidriiwer
bidu
bie
bielefeld
biennis
bieno
bieti
bifreid
bifriit
bifut
big
bigen
bigening
bigensters
bigent
bigenti
bignoniaceae
bigreewen
bigrep
bigrepen
bigrip
bihanelt
bihar
biho
bihual
biibel
biiber
biibern
biike
biikebrennen
biikenmoune
biiki
biin
biir
biiring
biise
biison
biisons
biispel
biispele
biit
bijdragen
bike
bikeent
bikeentest
biko
bil
bila
bild
bilde
bilder
bildern
bildet
bildin
bildung
bile
bilecik
biled
bilen
bilet
bileta
bili
bilingual
bilj
biljen
biljhauer
biljing
biljuunen
bill
billed
billings
billy
biloba
bilong
bilt
biluket
biluki
bilukin
bin
binai
binche
binga
bingen
bingo
binj
binjer
binomisk
binu
bio
biografii
bioko
biologii
bioloog
bioloogisk
biombo
bip
bir
bird
birds
bireeknet
bireekni
bireekning
bireekningen
birgit
birim
birinci
birk
birkebuumer
birkenfiig
birkeplaanten
birkerød
birma
birmaans
birmingham
birocht
bis
bisch
bischkek
biseet
biset
bisher
bisir
bisirs
bisjuk
biskaya
biskiir
biskiiren
biskrewen
biskriiwing
bisliip
bislo
bismarck
bismut
bison
bispal
bispalen
bispalwurden
bispo
bissau
bisselliella
bist
bistel
bisteling
bistelt
bistemet
bistorta
bistruum
bistruumer
bit
bitaalet
bitaali
bite
bitj
bitlis
bito
bitu
bituminaria
bivalvia
biyati
biz
bizaad
bizerte
bj
bjalynitschy
bjarn
bjarne
bjarneto
bjarntoorp
bjarosa
bjen
bjo
bke
bl
bla
blaanern
blaawen
black
blaft
blagoewgrad
blai
blaie
blaine
blaise
blak
blakfasker
blakswaampen
blanc
blanca
blanco
blank
blanker
blansko
blast
blavet
ble
bleed
bleeden
bleedenmo
bleedfangergekos
bleer
bleeren
blees
bleese
bleev
bleew
blef
blefen
blefst
bleft
blek
blekinge
blekpip
blepharocalyx
bleu
bleut
blewen
blica
blick
blif
blift
bligh
bliif
bliir
bliiv
bliiw
blik
blika
blingen
blinj
blinjneeten
blinkers
blinwjarpele
blitta
bliwe
blixen
blo
bloatware
bloemfontein
blokfloit
bloom
bloomen
bloos
bloosen
bloosenkurew
bloosenplaant
bloosenplaanten
bloot
blu
bluas
bluat
bluats
blud
blue
blues
bluetooth
blume
bluum
bluumen
bluus
bmi
bms
bmw
bo
boa
board
bob
bobe
boberrosken
bobo
boca
bocht
bochten
bochum
boden
bodensee
bodenseekreis
body
boffa
bogen
bogota
bohicon
bohm
bohn
bohr
bois
boiss
bok
boke
bokel
boker
bokern
bokhorst
boksbuum
boksbuumplaanten
bokstaav
bokstaawen
bokwiaten
bol
bolama
boleslav
boletus
boli
boliiwien
bolivia
boliviana
bolle
bologna
bolu
bombardier
bombina
bombinatoridae
bombus
bombycilla
bombyx
bon
bonaire
bonaparte
bonasus
bondoukou
bongfru
bonghwa
bongo
boni
bonifatius
boninensis
bonito
bonk
bonken
bonlem
bonn
bonou
booge
booged
boogeden
book
books
boola
boomer
boon
boone
boonhoof
boonhoofer
boonhuf
boonliinje
boor
boorlem
boostedt
boovki
boowen
boowenst
boower
boowerhood
boowerpresident
boowersjiisk
boowerst
boowervolta
bophuthatswana
boquero
bor
bora
borag
boraginaceae
borchert
bordeaux
bordelum
border
bordesholm
boreal
borealis
borek
boren
borgenlunkroatisk
borger
borges
borgo
borgou
borgsum
bori
borig
borigsem
boris
borj
borken
borkum
borla
borneensis
borneo
borneogulkaat
bornho
bornholm
bornmuelleri
borough
boroughs
borovnice
borstel
borstelmann
boryspil
bos
bosau
bosch
boselaphus
bosk
bosken
bosker
bosnia
bosnien
bosnisk
bosporus
bossen
bossito
boston
bot
bota
botaanik
botaaniker
botanic
botanical
botaurus
bote
boten
botlich
botnisk
botos
botsuana
botswana
botticelli
bottom
bottrop
bou
bouake
bouches
boucle
bouenza
bougainville
bougou
boukoumbe
bourbon
bourg
bourges
bourgogne
bourgoin
bousbel
boutros
bouzid
bovidae
bovinae
bovinus
bovista
boy
boyens
boysen
bozankaya
bozen
br
bra
braacht
braahmii
braanboor
braandebei
braanholt
braanna
braant
braanwa
braarep
braaset
brabant
bracciolini
brachionichthys
brachycera
bracteata
brade
braderup
bradford
bradlep
bradtke
brag
braga
braganc
bragen
brahe
brahin
brahmaputra
brahms
brain
brakna
bralan
bram
bramborska
brame
bramstedt
bramstedtlund
branco
brand
brandberg
brandenbo
brandenboorj
brandenborag
brandenborch
brandenborig
brandenborj
brandenburg
brandt
brangt
brannenborg
brant
branta
brar
braren
bras
brasi
brasiilien
brasiliaans
brasilien
brasiliense
brasiliensis
braslau
brassica
brassicaceae
brassicae
brast
bratislava
braun
braunschweig
brava
brazil
brazza
brazzaville
brc
bre
bredsted
bredstedt
breegen
breegtaal
breek
breemen
breemerhuuwen
breer
breerer
breerhair
breetje
breetjin
breetst
breetsteed
breev
brehm
breiaapelbuum
breiaapelplaanten
breipot
breisgau
breitenburg
breitenfelde
brekken
breklum
breklumer
breler
bremen
bremer
bremerhaven
bremsen
bremset
bremsi
bremssaareln
bren
brena
brennbaren
brenstof
brenstofselen
brenstofseli
brent
brenwert
breschnjew
brescia
bresckaja
breslau
bresse
brest
bretagne
bretoonisch
bretoonsk
brevifolia
breyner
briad
briadsteed
briaf
brian
briaw
bridge
bridgetown
brief
brieuc
briggs
brighton
briiden
briiten
brikama
brindisi
bring
bringen
bringi
bringt
brir
brisbane
bristol
brit
britannica
briten
british
britisk
britisken
britten
brjansk
brno
bro
broad
brockhaus
brod
broder
broket
brokopondo
bromeelienplaanten
bromelia
bromeliaceae
bromern
bromley
bromus
brong
brons
bronse
bronsetidj
bronte
broocht
brooklyn
broom
broons
broor
brouwer
brown
brownii
browser
browsing
brt
bru
bruad
bruan
bruarwening
bruce
bruch
brud
bruder
bruhns
bruk
bruket
bruler
brunei
brunelleschi
brunhilde
brunneus
bruno
brunsbu
brunswick
brusca
brussels
brutto
bruun
bruunei
bryophyta
bryophytes
bryophytina
bs
bsidj
bsidjen
bsta
bsteed
bsteeden
bu
bualigsem
bualigsemer
buan
buanen
buark
buat
buaten
buati
bubalus
bubanza
bubo
bucephala
bucerotiformes
buch
buchanan
bucheon
buchholz
buchstabe
buchstaben
bucht
buchtienii
buck
buckinghamshire
buda
budapest
buddha
buddhismus
buddhistisk
bude
budorcas
bue
buenos
buer
buererii
buern
buernstair
buffalo
bufo
bufonidae
bug
buh
build
bujumbura
buk
bukarest
buken
bukit
bukovany
buksteew
buksteewen
buksteewer
bula
bulawayo
bulgaarenrik
bulgaarien
bulgaars
bulgaarsk
bulgaria
bull
bund
bundesarchiv
bundesda
bundesdai
bundesdaiswool
bundesdistrikt
bundesdistrikten
bundesfersiinstkru
bundesfo
bundeskansler
bundeslo
bundesloun
bundesloune
bundesluin
bundeslun
bundeslunen
bundesminister
bundesministerium
bundespresident
bundesrepubliik
bundesrepublik
bundesstaaten
bundesstoot
bundesstooten
bundestoot
bundsfortiinstkru
bundslo
bundsweer
bundwiir
bundwiiren
buonaparte
bupleuroides
burdur
bureau
buren
burg
burgas
burgenland
burgund
burjaatien
burjaatisk
burkiina
burkina
burns
bursa
burundi
bururi
burushaski
buryatia
bus
busan
busch
busdorf
bush
busi
business
buske
but
butelku
buteo
butha
buthe
butler
button
bututs
buum
buumer
buumgrens
buumkaat
buumkaater
buumol
buund
buurd
buurenkrich
buurt
buurter
buxaceae
buxales
buxus
buyeo
bv
bw
by
bychau
byrd
byron
bystr
bystrica
byte
byzantina
byzanz
bzw
błasc
bɑ
bʊ
c
ca
caama
cabinda
cabo
cacao
cacheu
cactaceae
cadiz
cadmium
cadore
caen
caerulescens
caeruleus
caesar
caesia
caffer
cagliari
cahto
cai
caicos
cainito
cal
calabria
calais
calamus
calandra
calavi
calcarea
calcium
caledon
calhoun
cali
calidris
california
californianus
californica
caligula
call
callac
calle
calling
calliphoridae
calluna
calophyllum
caltanissetta
calvados
calvin
calw
calystegia
cam
camara
cambodia
cambridge
cambridgeshire
camden
camelidae
camellia
camelopardalis
camelus
cameron
cameroon
cameroun
camille
camp
campanulaceae
campanulata
campbell
campeche
campestre
campestris
campo
campobasso
can
cana
canada
canadensis
canadian
canal
canaria
canariense
canariensis
canary
canberra
cancajos
cancridae
candela
canescens
canidae
canina
canini
canis
cankuzo
cannabaceae
cannabina
cannabis
canorus
cantagalo
canterbury
cantharellus
canton
cantos
canus
canutus
cao
cap
capacity
cape
capellen
capensis
capital
capitata
capra
caprea
capreolus
capricornis
caprifoliaceae
caprimulgiformes
caprimulgus
caprivi
capsicum
car
caracal
carambola
carassius
caravaggio
carbo
carbon
carcharodon
carduelis
carex
cargo
cariah
cariama
caribou
carica
carinata
carl
carleton
carlisle
carlo
carlos
carmen
carnivora
carolina
caroline
carolinensis
carota
carpentaria
carpinus
carpio
carriacou
carrier
carroll
carson
carsten
carstensen
cartagena
carter
carthusianorum
carum
carvi
carya
caryophyllaceae
caryophyllales
cas
casa
casablanca
casamance
cascabela
cascade
cascades
caspia
cassai
castanea
castel
castello
castelo
castilla
castle
castor
castries
castro
casuariiformes
casuarius
cat
catala
catalana
catalina
catalunya
catania
catanzaro
catappa
catarina
catchpenny
category
cathartes
cathaya
catherine
catio
catopuma
cattleya
catumbela
catus
cau
cauca
caucasian
caucasica
caucasicum
caudata
caudovirales
caue
caulescens
causeway
cavalier
cavan
caxito
caye
cayenne
cayo
cbs
cc
ccs
cd
cdc
cdot
cds
cdu
ce
ceantar
cecil
cedar
cedrela
cedrus
celastraceae
celastrales
celebes
celeste
cell
celle
celsius
census
cent
centai
centauri
center
centers
centime
central
centrale
centre
centro
centrodraco
centrolenidae
cents
century
cepa
cephalophus
cephalopoda
cephalotaxaceae
cephalotaxus
cer
cerastoderma
cerasus
ceratophyllum
cercis
cercles
cerdocyon
cereale
ceremonial
cereopsini
cereopsis
cerevisiae
cernua
cerro
cervidae
cervus
cesa
cesar
cesena
cespitosa
cetacea
cetartiodactyla
ceuta
ceylon
cf
cfa
cgs
ch
cha
chabarowsk
chad
chagang
chai
chain
chaka
chakasien
chalcogrammus
cham
chamberlain
chamerion
champagne
chan
chandigarh
chandragupta
chang
changhua
chanten
chantisk
chao
chapel
chapelle
char
characiformes
charadriidae
charadriiformes
charadrius
charco
charente
chargui
chari
charibert
charkiw
charleroi
charles
charlie
charlotte
charophyta
charta
chartuum
chase
chaskowo
chaucer
chauken
chauna
chaus
chavaria
chbaatar
chbleeden
chde
che
checklist
cheemiker
cheemisk
chelidonichthys
chelsea
chem
chemical
chemie
chemii
chemiker
chemische
chemistry
chemnitz
chemsky
chen
chengdu
cheoljong
cheongdo
cheongju
cheongsong
cheongyang
cheorwon
cher
cherimola
cherokee
cherson
cheshire
chester
chet
cheta
chetco
chevak
chey
cheyenne
chhnang
chi
chiang
chiayi
chicago
chicapa
chicualacuala
chieti
chiho
chihuahua
chiile
childebert
childerich
childers
chile
chileensk
chilena
chilensis
chilgok
chilopoda
chilperich
chilula
chimaera
chimaeriformes
chimaltenango
chimoio
chin
china
chinde
chinensis
chionanthus
chips
chiquimula
chirac
chiricahua
chis
chittagong
chiu
chiune
chli
chlidonias
chlodwig
chloris
chlorobionta
chlorocardium
chlorocebus
chlorophyll
chlorophyta
chloroplasten
chloroplastida
chloropus
chlothar
chlumec
chmeljnytsjkyj
chnik
cho
choa
chobe
chod
chofu
choiseul
chojniki
chologii
cholsky
choluteca
chomsky
chondrichthyes
chongqing
chopin
chor
chorasan
chordata
chorthippus
chote
chov
chow
chr
chra
chris
christ
christchurch
christiaan
christian
christiansborg
christiansen
christiansted
christina
christine
christoph
christophe
christopher
chroma
chromista
chronik
chronist
chruschtschow
chrysantha
chrysanthemum
chrysocyon
chrysolepis
chrysophyllum
chsische
chsisches
chstadt
cht
chtag
chtboor
chtbuumer
chte
chten
chter
chtet
chtfla
chtied
chtigen
chu
chubu
chugach
chuncheon
chunga
chungcheong
chungcheongbuk
chungcheongnam
chuquisaca
church
churchill
chuuk
ci
cia
cibitoke
cicero
cichlidae
cichliformes
ciconia
cicuta
cidlinou
cienfuegos
ciliata
cinerea
cinkasse
cinnamomum
cio
circ
circle
circus
cirsium
cis
ciskei
cistaceae
cistus
citaro
citea
cities
citrinella
citroe
citroen
citrofortunella
citrullus
citrus
citrusfru
citrusplaanten
citta
city
citypopulation
citystromer
ciudad
ciutat
ck
cke
cken
cki
cklingen
cksburg
ckstadt
ckt
cl
claas
cladonia
clangula
clara
clare
clarence
clarendon
clark
clarke
clarkei
class
classic
classification
claude
claudio
claudisk
claudius
claus
clausen
clay
cle
clean
cleburne
clemens
clement
clercq
cleveland
clinton
clipperton
cloppenburg
club
cluj
clupea
clupeiformes
clypeata
cm
cnidaria
co
coast
coat
cobar
cobly
coburg
coca
coccoloba
cochabamba
cochenille
coconut
cocos
code
codein
codes
codex
coelebs
coerulea
coesfeld
coffea
coffee
coffein
coimbra
coin
col
cola
colchicus
cole
coleoptera
coli
collection
collectivite
college
collines
collurio
collybita
colo
colocolo
colombo
colonia
colophospermum
color
colorado
colors
coltrane
columba
columbia
columbus
com
comandeur
comarca
comarcas
combretaceae
come
committee
common
commonwealth
communaute
commune
communes
communis
communities
community
como
comoe
comosus
comp
company
comparative
comparison
comparisons
compie
complement
complete
completes
computer
comte
comunas
comuni
comunidad
con
conakry
concarneau
concelho
concelhos
concepcio
concept
conchilega
concinna
concolor
conde
conferta
confusus
congo
congress
coniferales
coniferopsida
connacht
connecticut
connochaetes
conocephalus
conomiques
conrad
consortium
constant
constantine
constituencies
contae
container
conte
content
contra
contraception
contraceptives
convallaria
convolvulaceae
cook
coolidge
coosa
copargo
copper
copperbelt
coprinus
coptodon
coquille
coraciiformes
coral
corallina
corax
cordata
cordatum
cordes
cordifolia
cordillera
cordoba
coriacea
cork
corn
cornelius
corniculatus
cornix
cornuta
cornwall
corona
coronata
coronaviridae
coronavirus
corone
corozal
corporation
corre
corse
corsica
corte
corv
corvidae
corvus
coryell
corylus
cos
coscoroba
coscorobaswaan
coscorobaswaanen
costa
costaricensis
costata
costus
cotabato
cotonou
cottbus
coturnix
couffo
coulomb
council
count
counties
countries
country
county
countys
courcelles
course
cov
cove
covid
coyah
crafter
cramer
crangon
crassa
crassifolia
crassostrea
crassulaceae
crassus
crataegus
crawford
cre
cream
create
created
crecca
cree
creek
cremona
crenata
crescent
cretense
crew
crex
crispa
crispum
crispus
cristata
cristatus
cristo
croatia
crocus
croix
crop
cropped
cross
crossing
croydon
cruckshanksii
cruenta
crustacea
crustaceae
cruz
crystal
crystals
cs
cshh
css
csu
ct
cu
cuando
cuango
cuanza
cuba
cubango
cube
cuculi
cuculus
cucumis
cucurbita
cucurbitaceae
cugtun
cuito
culex
culicidae
culinaris
culture
cumberland
cumbre
cumbria
cuneifolium
cunene
cunha
cunninghamii
cuon
cup
cupana
cupressaceae
cupressina
cupressus
curac
curacao
curcuma
curie
curlie
curoca
current
curslack
curtin
curtis
curtisii
curvirostra
cusio
cuspidata
cut
cutato
cutter
cuvette
cuvo
cuxhaven
cuxhuuwen
cyanea
cyaneus
cyanistes
cycadopsida
cycliophora
cyclopterus
cyclostomata
cydonia
cygnini
cygnus
cymbidium
cynocephalus
cyperaceae
cyperus
cyprinidae
cypriniformes
cyprinus
cyprus
cyril
cytisus
cz
czech
d
da
daachter
daachterfirma
daafrika
daafrikoons
daagen
daaget
daagibel
daalang
daaling
daans
daansch
daansen
daansers
daanset
daansi
daansiker
daansikeren
daansin
daar
daarfuur
daasien
daasten
daatei
daateien
daaten
daatensku
daatiif
dabola
dabou
dach
dachau
dachtang
dachtangen
dachtangs
dachte
dachten
dachter
dachtern
dachting
dachtingen
dactylifera
dactyloptena
dade
dadeer
dadeere
dae
daegu
daejeon
dafrikoo
dafrikoons
dag
dagebu
dagenham
dagestaan
dagobert
dahab
dahalik
dahan
daheere
dahl
dahme
dahomey
dai
dailk
dailkst
daimler
daimyo
dair
dakar
dakelh
dakhla
dakota
daks
dal
dalaba
dalarna
dalasi
dalasis
dalbergia
dale
dali
dallas
dallmeier
daloa
dam
dama
damaliscus
daman
damaskus
dame
dameerika
dameerikoo
dameerikoons
damerikoons
damerow
damp
damper
dampern
dampf
dampmaskiin
dampskeepen
dampskepfaarts
dan
dana
dande
dane
danen
daneza
dang
dangbo
dangen
daniel
danjong
dannebrogorden
dannenberg
danse
dansk
danske
dante
dantumadiel
danzig
dar
daraabisk
darchan
dardanellen
darf
dargi
dari
darjeeling
dark
darling
darmstadt
darohi
darstellung
darug
darwin
das
dasen
dass
dassa
dassendorf
dat
data
database
datei
datelpualem
daten
daucus
david
davidiana
davidii
davids
davis
davisii
davon
dawson
day
dazu
db
dbo
dbuum
dc
dchen
dd
ddb
ddel
ddial
ddialen
ddistrikten
ddr
de
dea
deakin
debelt
dec
decapoda
decatur
dechter
dechtern
dechting
dechtingen
dechtings
decipiens
decne
decumbens
ded
deddens
dediar
dee
deeg
deege
deek
deel
deelfa
deellaag
deenemark
deenen
deens
deensk
deensken
deer
deeram
deeraw
deerbai
deerdo
deereefter
deerfoon
deerfor
deeriinj
deerma
deero
deertu
deertwasche
deeru
deesbel
deet
deetsember
deetsimeeter
deezbu
default
definiaret
defla
deg
deggendorf
degli
deheer
dei
deich
dejima
dek
dekalb
deklinatschuun
del
delano
delavayi
delaware
delbuumer
deldiarten
delfiin
delfiinen
delgado
delhi
delichon
deliciosa
delig
deling
delings
delk
delken
delkst
dell
della
delle
delmenhorst
delmiatig
delonix
deloortagen
delsdorf
delta
deltaveld
dem
demerara
demersum
demnig
democratic
demogra
demokraaten
demokraatisk
demokratii
demokratische
den
dena
dendritic
dendrobates
dendrobatidae
dendrocopos
dendrohyrax
dene
deneb
denemark
denen
denesuline
denghoog
dengue
denine
denis
denizli
denkyira
denmark
densiflora
denst
dental
departamento
departement
departements
department
departmenten
departments
dependency
depok
deportiaret
depressa
dept
der
deraanj
derationssubjekte
deratjuun
deratschuun
derbianus
derbrarup
derbyshire
derdeich
derdithmarschen
derep
dergooshiirder
dergratst
derho
derhu
deriaret
deritz
deritzbocht
derk
derkro
derlingst
derlu
dermacentor
dermanland
dermarsch
dermatophagoides
dermiast
dermoptera
dermuar
dern
ders
dersem
dersta
derstuf
derta
deruug
deruugsun
des
desa
descartes
descending
deschampsia
description
descriptions
desert
desertas
desfontaines
desierto
desmercie
desoxyadenosin
desoxycytidin
desoxyguanosin
desoxythymidin
dessau
destructor
det
detail
detdiar
detern
detheer
detlef
detlev
detmold
detsa
detsalew
detsember
detsembermuun
deu
deuroopa
deutsch
deutsche
deutschen
deutscher
deutsches
deutschland
deutschlands
deux
devanagari
development
devon
dewan
dextromethorphan
dezember
dfaal
dfg
dfrankrik
dfrenkisk
dgrens
dgzrs
dha
dhaka
dharma
dhiou
dhivehi
dhl
dholstein
dholun
dhualewkuugel
dhuulewkuugel
di
dia
diadeemruadsto
diagonaal
diagonaalen
diagram
dial
diala
diald
dialect
dialects
dialekt
dialekten
dialektik
dialen
dialer
dialing
dialleer
dialt
dialwiis
diamant
diana
dianthus
diar
diarachter
diaram
diarauer
diaraur
diarba
diarbenen
diarbi
diardi
diareeđer
diarefter
diarfaan
diarfan
diarfo
diarfuar
diarhen
diari
diarma
diarmad
diarme
diarmung
diaro
diarom
diaroner
diart
diarten
diartesken
diarto
diartu
diartwesken
diaru
diaruun
diatoonsk
dibe
dice
dichotoma
dicht
dichter
dick
dictionary
dideer
dideere
didelphis
didiar
didiari
die
diedrichsdorf
diego
diekirch
dien
dies
diese
diesel
dieselbus
dieselelektrisk
dieselmaskiin
dieselmaskiinen
dieselmotooren
dieselskep
diesem
dieses
dieter
dietrich
dietrichsdorf
diferens
diferentiaalreegnang
diffa
diffusus
digen
digita
digitaal
digital
digitalis
digitalisiaret
digitata
digt
diheer
diheere
dii
diil
diile
diilen
diili
diiling
diilj
diiljs
diiljstoot
diilt
diip
diiper
diiren
diirt
diirte
diirten
diirter
diirtern
diitsk
diitsklun
diiwaanu
dik
diken
diker
dikhil
diktaato
diktaatoor
diktaator
diktatoor
dil
dili
diling
dillingen
dilolo
dimbokro
dimensioon
din
dina
dinan
dine
dineja
ding
dingen
dinger
dingo
dingolfing
dinguiraye
dinosauriern
dio
diode
dioica
dioode
dios
dioscorea
dioulasso
diourbel
diphosphat
diplomaat
dipol
diprotodontia
dipsacales
diptera
dir
dire
direkt
direkter
direktor
dirham
dirigent
dirk
disalev
disalew
disch
discharge
discolor
disease
disk
disko
diskografii
disktrikten
display
dissecta
distans
distributiifgesets
distribution
district
districts
distrikt
distrikte
distrikten
distrito
dit
ditaalien
ditdiar
ditdiari
diten
dithmarschen
dithmarscher
dithmeersche
dithmeerske
dithmjarsche
ditsalev
diu
dium
divaricata
divaricatum
divaricatus
divehi
diversifolia
division
divisions
diwisioon
diwisioonen
diyarbakır
diz
dj
dja
djakotomey
djamena
djannewoore
dje
djen
djerba
djhu
djibo
djiboua
djibouti
djidja
djka
djooar
djougou
dju
djuula
djuuli
djuuni
dk
dkareelien
dkaukaasisk
dkorea
dkreis
dkreiser
dku
dler
dlich
dliche
dlouha
dm
dma
dna
dnb
dneederfrenkisk
dnipro
dnjepr
do
doagen
doansk
dobelt
doboj
dobr
dobritsch
dobrusch
doc
doch
dochter
dochters
dochterwu
doctor
dodo
dodoma
dogbo
doge
dogrib
doi
dok
dokkum
dokschytsy
dokter
dokterwerk
dokument
dokumenten
dol
dolany
dollar
dolni
dolores
dom
domain
domainnamen
domainno
domestica
domesticus
domiinika
dominans
domingo
dominica
dominican
dominikaans
domitius
domowina
don
donald
donau
donetsjk
dong
donga
dongeradiel
donghae
doochter
doogebal
doogebel
dooler
doolerunstats
doom
doomools
doorn
doos
dootem
dooten
dootenbeenk
dopeljen
dora
dorcatragus
dorestad
dorf
dornod
dorothea
dorsalis
dorsch
dorschen
dorschoortagen
dorset
dortmund
doryanthes
dos
doseetien
dosso
dot
dots
dotsb
dou
douard
double
doubs
douglas
dougou
doumeira
dove
dover
down
dpann
dpasiifik
dplaanten
dpuul
dr
dra
draach
draag
draagbuum
draagbuumer
draage
draagfasker
draanj
draapt
draaten
dracaena
dracht
drachten
drachtendaansers
drachtenfest
drachtenker
draco
dracunculus
draft
dragseth
drahitschyn
drai
draie
draier
draiern
draiers
draii
draikraft
draimoment
drain
draistroom
drait
drakensberger
drama
dramaatiker
drank
drawiidisk
dreaming
dreeg
dreeng
dregiuun
dregiuunen
drei
dreid
dreiimpuls
dreimoment
dreistruum
dreit
drenthe
dresden
drf
drie
drift
driif
driifwain
driifwainer
driikraab
driikraaben
dring
dringer
drink
drinker
drive
driving
driwe
dro
droch
drogeenkarbonaat
drograaf
droid
droksiid
droksiiden
drologii
dromiciops
dronken
droonk
dropen
drosera
drosophila
drosophilidae
dru
druck
drucke
druk
drukt
drummondii
druslun
dry
drybin
dryden
ds
dsb
dsc
dschalalabat
dschawacheetien
dschibuti
dschibuuti
dschineesk
dsdna
dsjarschynsk
dsjatlawa
dsjiisklun
dsjineesk
dsk
dskaja
dslaawisk
dspas
dsrna
dsta
dstridj
dsu
dsudaan
dt
dte
dtirol
dtirool
dtondern
dtuner
du
duad
duaden
dual
duar
duarsjoten
duarsko
duas
duast
duastaasien
duastanatoolien
duastelk
duasten
duasteuroopa
dubia
dubius
dublin
dubre
dubrouna
duc
duch
duck
due
duet
duisburg
duke
dulcamara
dulce
dulcis
dum
dun
dundo
dune
dunsem
duo
dur
durango
durch
duroplasti
durre
dus
duschanbe
dusicyon
dutch
duusend
dvd
dvi
dvory
dvu
dwaast
dwaastaafrika
dwaastelk
dwaasten
dweesten
dwest
dwesthoeksk
dwg
dwight
dwina
dy
dykstra
dynamik
dynastii
dz
dzong
dzongkha
dztwo
də
e
eagle
eala
ealing
earl
earle
early
earth
east
eastern
eaststellingwerf
ebersberg
eberswalde
ebert
ebes
ebi
ebola
ec
ech
echeveria
echiichthys
echinata
echt
echternach
eck
eckernfo
ecomare
economic
ecuador
ed
eden
eder
edgar
edicions
edinburgh
edirne
edit
editintro
edition
edito
editor
editsjoon
edmond
edmonton
edmund
edo
edouka
eds
edu
eduard
eduardo
education
edulis
edunordfriisk
edvard
edward
edwards
edzard
ee
eeb
eeben
eebenmaaget
eedelgaasen
eedelmaan
eeder
eedere
eedomshiird
eefeu
eefter
eeftert
eeg
eegendoom
eegenoort
eegenoorten
eegenskap
eegenskapen
eegentelk
eeker
eel
eelenantiloop
eelenantiloopen
eelun
eemus
een
eenelk
eentlik
eepos
eerd
eerdaaks
eerdbeewrin
eerdbei
eerdbeien
eerden
eerdgas
eerdheleft
eerdlu
eerdmadela
eerdneitidj
eerdno
eerdo
eerdswin
eerdtidja
eerdualtidj
eesel
eesenhuug
eesti
eestlun
eestnisk
eetfiarel
eetik
eetj
eetjsu
eewer
eeđer
eeđerleer
efa
efangeelsk
efekt
efen
efeu
effects
effingham
efoi
efta
efter
efterdru
efterfulger
efterfuliger
efterkemen
eg
egeeis
egg
eggebek
eggs
ego
egypt
egypten
egyptisk
ehec
ehir
ei
eichsta
eidam
eidem
eider
eiderges
eidergus
eiderstedt
eidersteed
eier
eigene
eight
eike
eikiai
eilun
eilunen
eilunsfresk
eilunstoot
ein
einatmen
eine
einem
einen
einer
eines
einfu
einhaus
einholen
einige
einigen
einleitung
einmal
einstein
einzelnachweise
eisenach
eisenbahn
eisenhower
eiwit
ej
ejdersted
ejumpy
ek
ekliptik
eksiil
eksklaawe
eksponentiel
eksport
ekspresionismus
ekstra
ekstremaduura
ekwaator
ekwadoor
ekwatoriaal
ekwatoriaalguinea
ekwiwalent
el
ela
elaeagnaceae
elaeis
elastica
elata
elatiif
elba
elbasan
elbe
elben
elbert
elbgeest
elbing
electric
electrolytic
electron
elefant
elefanten
elefantendiarten
elefantenfo
elegans
elektrik
elektrische
elektrisiteet
elektrisk
elektro
elektroauto
elektroautofirma
elektroautos
elektrobus
elektrobusi
elektrofo
elektrolok
elektromagneetisk
elektromaskiin
elektromaskiinen
elektromootor
elektromotoor
elektromotooren
elektron
elektrooden
elektroodentang
elektroodi
elektroone
elektroonen
elektroonenru
elektroonenskel
elektroonenskelen
elektroonik
elektroonisk
elektrostaatik
elektrotechnik
elektrotransporter
elektrowain
elektrowainer
elema
element
elementaardeelken
elementaardialen
elemente
elementen
elementi
elena
elephantidae
elephas
elern
elfenbeinku
elfenbianku
eli
elias
elice
elieser
elips
elisabeth
elista
elizabeth
elk
elken
elkooner
ell
ella
ellan
ellen
eller
ellho
ellice
ellin
elliptica
ellis
elmenhorst
elmshorn
elodea
elongata
elongatus
elsas
elsass
elsesisk
elster
elvis
elwen
elwenst
ely
elymus
elytropappus
em
emajo
emanuel
emberiza
emberizidae
emden
emi
emil
emilia
emilians
emin
emir
emiraat
emiraaten
emission
emiter
emlembe
emmanuel
emmelsbu
emmendingen
empetrum
empire
ems
emst
en
ena
enachtler
enarken
encephalitis
encyclopedia
end
ende
endeemisk
endgu
endl
ene
enen
enenkui
energii
enescu
enfield
enge
engel
engelbert
engelo
engelsk
engelsken
engine
engineering
engines
engl
england
englisch
english
eni
enice
enkel
enkeldring
enkelt
enkeltbewerewer
enkeltbewerewerfo
enkelten
enklaawe
enko
ennedi
ennepe
enno
eno
enooch
enouder
enrico
ens
ensemble
ensifera
ensiklopedii
ensis
ensu
entfernen
entfernt
entfernung
entha
entleet
entsisk
entsprechen
entsta
entstehen
entstenen
entwickelt
entwicklung
entwicklungen
entzu
enver
environment
enzkreis
enzyklopa
eo
ep
eparchi
epidendrum
epilobium
epsilon
eq
eqc
equatorial
equidae
equus
eqv
er
era
erasmus
erbium
erbrechen
erc
erd
erde
erding
erectum
eremocitrus
erforderlich
erft
erfurt
ergebnisse
erh
erha
erhard
erhielten
eri
erica
ericaceae
ericales
erich
erichsen
erie
erik
erika
erin
eriobotrya
eriophorum
erithacus
eritrea
erk
erka
erkla
erlangen
erleichtert
ermlun
ermna
ern
erna
ernest
erni
ernst
ernste
ernster
erodium
erongo
erosioon
erov
ers
ersetzt
erskine
erste
ersten
ert
erts
eruption
erveny
erwa
erwin
eryngium
erythroxylaceae
erythroxylum
erza
erzeugen
erzincan
erzurum
es
esbjerg
esch
eschen
escuintla
esculenta
esculentum
esens
esf
esi
eska
eskaja
eske
eskebuum
eskebuumer
eskimo
eskis
esky
espan
esperanto
espi
essays
essen
essequibo
essex
esslingen
est
estadi
estado
estados
estaing
estas
estati
este
esteli
ester
estern
estlo
estlun
estnisk
estonia
estrikken
estuaire
eswatini
et
eten
ethanol
ethanool
ethioopien
ethiopia
ethnologue
etice
etioopien
etioopisk
etiopisk
etnisk
etosha
etowah
ets
ettlingen
etymologisches
eu
eucalyptus
eudorcas
euge
eugen
eugenia
euh
eukalyptus
eukariooten
eukarioten
eukaryota
euklid
euler
eulipotyphla
euonymus
eup
euphorbia
euphorbiaceae
euphrat
eur
euraasien
euraasisk
eure
euro
euroopa
europa
europaea
europaeus
europas
europe
european
europeeisk
europeesk
eurozone
euskirchen
eustatius
eutiin
eutin
ev
eva
evangelien
evans
evb
everest
evers
eves
evobus
evolution
evvel
ewakuiaret
ewangeelisk
ewe
ewg
ewolutsion
ex
example
excelsa
excelsior
explosion
explosionsgefahr
explosiv
exposition
expositionsweg
express
extrem
exupe
ey
eyade
eyak
eye
eyre
ez
ezi
f
fa
faadet
faal
faaler
faalsk
faamen
faan
faaneno
faar
faard
faardferanerang
faardferanrang
faart
faarten
faarti
faartju
faarwel
faas
faasen
faaso
faat
faađer
faba
fabaceae
fabales
fabalis
faber
faboideae
fabricius
fabriik
fabriiken
fabrik
facebook
factbook
facto
fada
fagaceae
fagales
fagopyrum
fagus
fahrenheit
failen
fain
faini
fair
fairbanks
faktooren
fal
falcata
falco
falcon
fald
falkland
fall
fallax
falls
falster
falt
faltings
falun
famiili
famiilie
famiilien
famiilii
famile
familia
familiae
familiaris
familie
familii
familin
familje
family
fan
fang
fangd
fangen
fanger
fangt
fanjst
fanjt
fant
fantasii
fanø
fao
far
farad
faragher
faranah
fare
farenburg
farew
faritra
farm
farnen
faro
farsi
farwen
fasaan
fasaanen
fasciatus
fask
fasker
faskerei
fasket
faskiarn
faskkaat
faso
fast
faster
fastlair
fastlo
fastmaaket
fastmaaki
fastnomen
fat
faten
fatick
faure
fawkes
fayette
faz
fcv
fdp
fdroid
fe
febrewaari
febrewoore
febrewooreflud
februar
februwaari
fechner
fecture
fedders
feddersen
feddes
federa
federal
federalny
feeberwoore
feebrewoor
feeder
feedern
feeg
feel
feelen
feeler
feer
feerd
feerer
feerfaole
feering
feert
feesting
feestlun
feestnimen
feeting
fehmarn
fehr
feiert
fein
feit
feje
fekturen
fel
feld
feldbus
felidae
felinae
felipe
felis
felix
feloidea
fels
felsen
felsfo
felstiin
felstiiner
female
fen
fenchel
fender
fenek
fenja
fent
fentelk
fenus
fer
fera
feraal
feranert
ferang
feranrang
feranrangen
feranre
feranret
feranringen
ferba
ferbanjt
ferbant
ferbanter
ferbeeden
ferbining
ferbininge
ferbinj
ferbinjang
ferbinjangen
ferbinjing
ferbraant
ferbroocht
ferbru
ferbu
ferden
ferdialang
ferdiald
ferdialing
ferdinand
ferdra
ferdrach
ferdreeg
ferdreid
ferdrewen
ferfa
ferfaadang
ferfaading
ferfulagt
fergingenhaid
ferglik
fergliken
ferha
ferhu
ferhual
ferhualen
ferian
ferianagt
ferianboorang
feriand
ferianer
ferianigt
feriaret
feriin
feriind
feriinde
ferina
fering
feringen
ferjiiws
ferka
ferkeeft
ferkiar
ferkiard
ferkiarswaier
ferkiir
ferkla
ferklaarang
ferklaaret
ferkuup
ferla
ferlach
ferlang
ferlangd
ferleeden
ferleesen
ferleet
ferlicht
ferlu
ferlus
ferluup
fermi
fermisket
fermo
fermuare
ferna
fernando
fernhalten
fernseen
fernu
feroontwurdelk
ferox
ferrara
ferring
ferro
ferruginea
ferry
fersaamelt
fersaamlang
fersaat
ferscha
ferschilie
ferschu
fersenda
fersiinstorden
fersju
fersk
ferskeel
fersko
fersmolt
fersoocht
ferstarker
ferstenen
fersto
ferstun
ferstunen
fersuragt
fersurge
ferswu
fert
ferta
ferteel
ferteeling
ferteelinge
fertel
ferteld
fertra
fertreeden
fertreeder
fertreedern
ferus
feruursaaget
ferwa
ferwaaret
ferwakselt
ferwaksle
ferwaling
ferwaltang
ferwaltangsianhaid
ferwaltangsianhaiden
ferwaltangsiindialang
ferwaltangsregiuun
ferwaltangsregiuunen
ferwaltangssteed
ferwaltangsteed
ferwaltet
ferwalting
ferwaltingsgebiit
ferwaltingsgebiiten
ferwaltingsgraafskap
ferwaltingsregiuun
ferwaltingsregiuunen
ferwerderadiel
ferwerket
ferwerkin
ferwis
ferwisang
ferwisangen
ferwising
ferwisinge
fesk
fesken
fesker
feskerii
feskers
feski
feskin
fest
festgelegt
festi
festival
festlun
fet
feuer
feuerland
ff
fg
fhauern
fhaur
fhaurn
fho
fhuug
fi
fial
fialahorn
fialen
fialges
fialma
fialsparger
fialtooch
fiar
fiartigst
fiat
fibonacci
fibonaccitaalen
ficedula
fichten
ficos
ficus
fidschi
fiede
fier
fif
fifst
fift
fiftaanj
fiftgratst
figu
figures
figuur
figuuren
fiiber
fiiert
fiig
fiigen
fiin
fiiner
fiir
fiird
fiirdeege
fiirlukireeg
fiirsnaker
fiiw
fiiđer
fiji
fijool
fiks
file
filicaulis
filipes
filipiinen
filipiinsk
filippo
fillmore
film
filmer
filmi
filmkonstler
filmografii
filmrejeso
filmspo
filologekongres
filologii
filology
filoloog
filosofii
filosoof
filosoofen
filosoofisk
fimbriata
finansen
finansiel
fine
finen
fing
fingen
finger
fingerbuurt
fingern
finiste
finj
finjen
finken
finkenfamile
finland
finlo
finlun
finn
finnmark
finno
fins
finsk
firma
firmen
firsich
first
firstvoices
fis
fisch
fischer
fischeri
fischt
fisel
fish
fisher
fisler
fistulosum
fitzhardinge
fja
fjaart
fjauer
fjauertanj
fjauertanjst
fjeld
fjell
fjord
fjouer
fjuard
fjuardens
fjuardgratst
fjuur
fjuurst
fjuurtakt
fk
fl
fla
flaage
flaak
flaaklun
flaaks
flaccida
fladerdiarten
flag
flagen
flagi
flak
flamsteed
flandern
flansborj
flat
flava
flavescens
flaviviridae
flavivirus
flavum
flavus
flecken
fleeg
fleegen
fleegenbitjer
fleegenfanger
fleegenfangern
fleegensnaper
fleegensnaperfamile
fleegensnapern
fleegenswaamp
fleemisk
fleesk
flemming
flenerkbloosen
flenerken
flensborag
flensborch
flensborg
flensborig
flensborj
flensburg
fler
flevolo
flex
flexfix
flexuosa
flexuosum
flicht
flickr
fliewatu
fliiger
fliigern
fliigers
flinders
flintbek
flirt
flo
flocht
floit
floiten
floog
flook
flooken
flooksis
floose
floot
flor
flora
florence
florens
florenz
flores
floribunda
florida
floridana
florido
flos
flot
flower
flowers
flu
fluchpla
flud
flughafen
flugplaats
flugplaatsen
fluor
fluss
fluuchplaats
fluuchplaatsen
fluug
fluughuuwen
flyla
fm
fnla
fo
foar
focht
fochtig
fockbek
foehr
foeniculum
foftiger
foggia
fogo
fol
folerwiik
folge
folgende
folk
folketal
folkgitaren
folks
folksrepubliik
folksteeling
folksteelingen
follast
folmuun
folstendag
folsu
folwinkel
fon
foneem
fontsize
foodermoune
fool
foole
foolk
foomen
foomnen
foon
foone
foonenouder
foonj
foont
foor
foortuft
foos
foosch
foosche
fooschordie
fooschstjart
fooschstjarte
foosen
foosfo
foot
for
fora
foraarbert
forall
foraneri
foranering
foraneringen
foranert
foranerti
forbai
forbeeteri
forbeetering
forbeeteringen
forbeetert
forbi
forbo
forbrent
forbronen
forbru
forbu
force
forchartert
forchheim
ford
fore
forem
foremen
forest
forfa
forheneret
forheneri
forhenering
forheneringsmerel
forhu
foriinigt
foriining
foriiningen
fork
forkaame
forkamt
forkiir
forkiirsmerel
forkiirt
forklaaret
forklaari
forklaaring
forklu
forkooper
forkoopet
forkoopi
forlach
forlair
forleengering
forleesen
forlet
forli
forloof
form
forma
formaak
formaat
formel
formeln
formeltiaken
formenlehre
formosa
formosana
formosastruat
forpommern
forsaacht
forscher
forschungen
forseenket
forseenking
forsinket
forsjuk
forsjukt
forskel
forskelen
forskelig
forskeligi
forskeligst
forsker
forsket
forso
forstarker
forsteri
forsto
forstuun
forswinj
forswu
forsythia
fort
fortel
fortelt
fortiini
fortiinstkru
fortnightly
fortro
fortunei
fortunella
fortwo
foru
forum
forwalting
forwiisen
forwoolnumer
fosfoor
fosiilien
foto
fotograaf
fotos
foue
fouen
fouge
foulk
four
fox
fođermuun
fp
fr
fra
fraag
fraagen
fraaget
fraagi
fraanso
fraansuusen
frac
fracht
frachtskep
fragaria
fragilis
fragment
fragrans
fraidi
franc
franca
france
francesco
franche
francis
francisco
francistown
frank
franken
frankenrik
frankfurt
frankfurter
franklin
franko
frankoprowensaals
frankrik
frans
fransiskus
franso
fransuusen
franz
franziska
franzk
franzo
frasch
frasche
fraschen
fraschescho
fraschlo
fraser
fraseri
fratercula
frau
frauen
fraxinus
fre
fred
fredensborg
fredericia
frederick
fredericton
frederik
frederiksberg
frederikshavn
free
freed
freeden
freedom
freer
frees
freesch
freese
freesendelf
freesk
freeske
freetown
fregatfo
freguesia
frei
freiburg
freid
freidai
freie
freien
freienwill
freihaid
freiheit
freimarke
freising
freistaat
freistoot
frekwens
frekwensen
fremantle
fremde
frenkisk
frenzel
frese
fresena
fresenhof
fresk
freske
fresken
fresklun
fresnel
freude
freudenstadt
freya
freyung
fri
fria
friaul
fricke
frie
friedberg
friedeburg
friedrich
friedrichshafen
friedrichsta
friedrichstadt
friedrichstat
fries
friese
friesen
friesisch
friesische
friesischen
friesischer
friesisches
friesland
friesoythe
frii
friidai
friihair
friimaakin
friisen
friisense
friisk
friiske
friislo
friislon
fringilla
fringillidae
frinj
frinjelk
frinjer
frinjskep
frische
frisia
frisian
frisica
frisii
frisionum
frisist
frisistik
frisk
fritz
frl
fro
from
fromm
front
frontera
froom
froost
frr
frs
fru
frucht
fruchtbarkeit
frugilegus
fruit
fruits
frutescens
fruticosa
fruticosus
fry
frysk
fryske
frysla
fs
fsme
fst
fstedt
ft
ftanj
ftanjst
fte
ften
fteno
fteten
ftgratst
ftgru
ftgrutst
ftig
ftigst
ftlinge
ftp
fu
fuan
fuar
fuaral
fuarbi
fuarderweelen
fuarfalen
fuarhaalingsfaartenskep
fuarhualing
fuarkum
fuarkumt
fuarlees
fuarn
fuarof
fuarseeter
fuarsetendi
fuarseter
fuarskrewen
fuarstand
fuarstel
fuarsteling
fuarstelingen
fuarstelt
fuarteeken
fuaru
fucaceae
fuchs
fucus
fuder
fuderplaant
fuderro
fuel
fuencaliente
fuerteventura
fujian
fukui
fukushima
ful
fula
fulagt
fulda
fulfulde
fulgens
fulgern
fulham
fulica
fulig
fuligula
fulk
fulken
fulkenwaanrang
fulksrepubliik
fulksta
fulmarus
fulton
fulva
fun
funchal
function
fung
fungen
fungi
funk
funksioon
funktjuun
funktjuunen
funktjuunsgeraaden
funktsjoonen
fuon
fur
furchboor
furem
furk
furlaans
furmen
fusca
fuscus
fut
futbaal
futbaalspeler
futhark
futnooten
futnuuten
futuna
future
futuur
fuul
fuula
fwu
fylke
fyn
fynbos
færgeri
g
ga
gaalrut
gaar
gaarding
gabe
gabon
gaborone
gabou
gabriel
gabrowo
gabu
gabuun
gadamer
gadidae
gadiformes
gadus
gafsa
gaft
gagausien
gagnoa
gaillarde
gaillon
gaimardi
gair
gaius
gal
gala
galaksii
galata
galaxy
galego
galericulata
galerida
galerie
galerii
galice
galicien
galicisk
galien
galilei
galileo
galisch
galium
gallen
gallia
gallien
gallier
galliformes
gallinago
gallinula
gallium
gallo
galloromaans
gallotia
galloway
gallus
galmsbel
galmsbu
galway
gambia
game
gamle
gamma
gammaflenerk
gammel
gan
gana
gang
ganges
gangjin
gangneung
gangwon
gans
gansu
gantzel
ganz
gao
gaoua
gaoual
gap
gapyeong
garafi
garci
gard
garden
gardens
garding
gardneri
gare
garfield
garifuna
garland
garmisch
garonne
garrigue
garrulus
garten
gary
gas
gase
gasten
gastropoda
gat
gath
gations
gatselen
gau
gaudi
gauer
gauest
gauhair
gaui
gauiha
gaulle
gautama
gauteng
gauß
gavia
gaza
gazankulu
gazella
gazi
gb
gbana
gbaya
gbe
gd
gde
gdp
ge
geba
gebiet
gebiete
gebiit
gebiite
gebiiten
gebrauch
gebu
gebursdai
gebuurt
ged
gedenksta
gedichte
geegent
geegisk
geeignete
geelisk
geenen
geenitiif
geest
geesteilun
geesteilunen
gefa
gefahr
gefahrlos
gefeerelk
gefoor
gefooren
gegen
gegenwart
gegenwartssprache
geheimnis
gehial
geho
geiern
geige
geiger
geist
geko
gel
gela
gelangen
gelbei
gelbeien
gelderlo
gelfamile
gelfamilin
geliard
geliarten
gelk
gelkhaid
gelkhaiden
gelkhair
gelkhairen
gelko
gelkui
gelkuien
geln
gelpest
gels
gelsenkirchen
gelsko
gelslach
gelt
gelting
gelu
gem
gema
gemeen
gemeend
gemeende
gemeenden
gemeendfertreeding
gemeenen
gemeenferbant
gemeinde
gemeindea
gemeinden
gemeindeverwaltungsverband
gemeinschaft
gemeinschaften
gemianskap
gemianskapen
gemiansoom
gemiinde
gemiindi
gemiine
gemiinefertreesing
gemiinefertreesingergebnis
gemiinschape
gemische
gemu
gen
genau
genaur
gend
gene
genera
generaal
generaator
general
generatjuunstidj
generatooren
generatsjoon
generool
generoolguwerno
generoolsekreteer
genf
genista
genome
genst
genstgratst
gent
gentanj
gentanjst
genten
gentiana
gentianaceae
gentianales
gentilis
gentofte
gentryi
genua
genus
genuugen
geo
geococcyx
geoffrey
geogr
geogra
geograaf
geograafisk
geografii
geografische
geograph
geographie
geologii
geoloog
geoloogen
geomeetrisk
geometrii
geomorfologii
geonames
georg
george
georges
georgetown
georgi
georgia
georgian
georgien
georgisk
gepard
ger
gera
gerald
geraniaceae
gerau
gerd
gerenuk
gerhard
gericht
germaanen
germaanium
germaans
germain
german
germania
germanicum
germanicus
germanischen
germanist
germanistik
germany
gern
gerrand
gers
gert
ges
gesa
gesang
geschichte
geschichten
geschlossen
gesellschaft
gesets
gesetsen
gesichtsschutz
gesina
gesneriaceae
gestageen
gestapo
gesundheitsscha
get
geten
getra
geumsan
geva
gewa
gewalt
gewaltag
gewicht
gewo
gewu
gezeitentu
gfbv
gfk
gge
ggen
gh
ghaana
ghana
ghanzi
gharbi
ghazel
ghobban
gi
gia
giang
giant
giar
gibelio
gibraltaar
gibson
gibt
gibursdai
gibuursdai
gidley
gieppner
gießen
gif
gifiarelk
gift
giftag
giftig
giftige
giftinformationszentrum
gifu
gigantea
gigas
gilbert
gilberts
gilles
gilu
gimcheon
gimiinden
gimiindi
gin
ginau
ginauer
ging
gingen
ginkgo
ginkgoopsida
gion
gions
giordano
giovanni
giraat
giraaten
giraatenkraft
giraf
girafen
giraffa
giraffidae
girocht
girona
gironde
giscard
gisela
gisets
gisjeft
gitaar
gitaren
gitari
gitarispo
gitarre
gitega
gitriibi
gitshals
giuseppe
gjarsmoune
gje
gjirokaste
gjoa
gjumri
gla
glaagen
glabra
glacialis
gladiolus
gladioolen
glandarius
glarus
glasgow
glass
glauca
glaucium
glaucophyta
glaucum
glazoue
gle
gleer
glees
gleesen
gleesfa
glenn
gler
glich
glichkeit
glide
gliederung
gliid
glik
gliktidjag
globaal
global
globosa
globularia
glossary
glostrup
gloucestershire
glu
glucoos
glukoos
gluuw
glycerin
glycerol
gmbh
gmeen
gmelini
gmelinii
gmt
gnaeus
gnassingbe
gnaudiart
gnaudiarten
gne
gned
gnet
gnetales
gnetophyta
gnetopsida
gnou
gnuu
gnuus
go
goa
goat
gochang
god
godhaiden
godsdistrikt
goeppert
goethe
gogh
gogounou
gojong
goku
gol
golba
gold
golden
goldene
golf
golfo
gomera
gona
gondel
gondola
gone
gonger
gongt
gont
good
google
gooki
goor
goorei
goorniks
gooshiarter
gooshiird
gooshiirder
gootik
gootisk
goraz
gorbatschow
gordon
gore
gorgol
gori
gorki
gorodsko
gorontalo
goryeong
goseong
gosławski
got
gotha
gothair
gotland
gottfried
gottlieb
gottorf
gottorp
gou
goud
goue
gough
gouvernement
gouvernements
gouvernorat
gov
government
gow
goya
gps
gr
gra
graad
graaf
graafiker
graafskap
graafskapen
graav
grabau
grabfeld
gracile
gracilis
gracillima
graciosa
grad
gradis
graf
grafeem
grafenau
graham
gram
gramatiik
gramatik
graminea
gramm
grammar
grammatik
gran
granada
grand
grande
grandiflora
grandiflorus
grandifolia
grandis
granite
grant
granti
grapefruit
grapsidae
grapsus
gras
graselfasker
grass
grat
gratbritanien
gratbritannien
grate
graten
gratendials
grater
gratfu
grathertoochdoom
gratin
gratkraaben
gratst
gratsta
gratsten
gratstiangra
graubu
graveolens
grawitatjuun
grawitatsioon
grawitatsioonstaal
gray
graz
grc
grcs
gre
great
greater
greeb
greece
greef
greekenlo
greeksk
green
greene
greenen
greenfink
greenhart
greenkual
greenland
greenlandic
greenlo
greenlun
greenlungus
greenluns
greens
greentju
greenwich
greep
greev
greevstiin
gregor
gregoria
gregoriaans
gregoriaansk
greifswald
grekenlun
greks
greksen
grenaada
grenada
grenadiinen
grenadines
grenoble
grens
grensen
grensi
grepen
gretchen
grevenmacher
grewia
grid
gridcolor
griechenlands
griep
griffith
griffithii
griichen
griichenlun
griichisch
griichische
griikenlo
grimm
grimmelshausen
grin
grinj
gripe
gripfo
griseus
gro
grodno
grof
groltergus
groningen
groningerland
groningerlo
gronings
groof
groofen
groofskap
groofskapen
groot
grosser
grosso
grossularia
grossulariaceae
grote
grotens
groth
grotste
group
grove
grover
groves
groß
große
großen
großer
großes
großglockner
gru
gruiformes
grundwortschatz
grunitzky
grupe
grupen
grus
grut
grute
grutelse
gruten
gruter
grutere
grutst
grutste
grutte
gruug
gruyter
gs
gst
gt
gti
gtidj
gu
gua
guaaw
guadalcanal
guadalquivir
guadeloupe
guajava
guajira
guam
guanchen
guangdong
guangxi
guano
guarana
guarani
guard
guarda
guarder
guart
guatang
guatemaala
guatemala
guating
guaviare
guayaana
guayana
gube
gud
gudka
gudrun
gue
guelmim
guernsey
guez
gui
guide
guidimaka
guier
guiers
guillaume
guine
guinea
guineensis
guingamp
guirec
guiry
guitar
gujarat
gujarati
gul
gula
gulen
gulf
gulfask
gulfleeg
gulkaat
gulku
gulschakaal
gum
gumbinnen
gumebuum
gumi
gumkloster
gun
gung
gunge
gungen
gunger
gungt
gunter
guntram
gunwi
gunzenhausen
gupta
gur
gurjewsk
gurken
guro
gurs
gurt
gurtem
gurtemhair
gurtemsnaker
gurter
gurteri
gurtest
gurthair
gurtmuasem
gus
gusew
gusiarn
gusinje
gustav
gustloff
gut
gutenberg
guthrie
guurien
guverno
guwernement
guwernementen
guwerno
guy
guyaana
guyana
gwanghaegun
gwangju
gwangyeoksi
gwardejsk
gwet
gwich
gyeonggi
gyeongjong
gyeongju
gyeongsan
gyeongsang
gyeongsangbuk
gymnophiona
gyo
gyps
gysbert
gøs
h
ha
haa
haabel
haag
haagedisjin
haageka
haale
haalet
haali
haan
haane
haanewise
haapsalu
haar
haas
haaselno
haasen
haasendiarten
haashood
haast
haatst
haatstinger
haawen
habana
haben
habitantes
habsburg
habsburgern
hackney
hadaikum
hadersleben
haderslev
haeberlin
haematopus
hafen
hafnium
hagen
hagge
hai
haid
haiden
haider
haien
haifa
haik
haile
hainan
hainanensis
hainaut
haithabu
haiti
haitiaans
hajdu
hakka
hal
halag
halagfresk
halaglun
halagruus
halbertsma
halbuum
halbuumer
haleft
halem
halen
halep
halepswerben
halept
half
halgen
hali
haliaeetus
haliaetus
halifax
halifreesk
halig
haligen
haligfo
haliglun
halii
haliie
haliloun
hall
halland
halle
hallem
hallertauer
halley
halleys
hallig
halligen
halligfriesisch
halmahera
halmstad
hals
halt
halten
haltesteed
haltesteeden
halti
haltitunturi
halunder
ham
hambo
hamborag
hamborger
hamborig
hamborj
hamburg
hamburger
hamer
hamfelde
hamgyo
hamilton
hamlets
hamm
hammam
hammer
hammersmith
hampshire
hamra
han
hand
handbook
handbuch
handel
handelsblatt
handhaben
handheld
handschrift
handwo
hanel
haneld
hanelswaier
hanelt
hanenfo
hanenges
hanengus
hangeul
hanja
hanju
hann
hannelore
hannes
hannover
hanoi
hanomag
hans
hanse
hansen
hansesta
hantsawitschy
hapag
happot
happy
har
haradok
harald
harare
harbor
harbour
harburg
harburger
hard
hardap
harde
harder
hardham
hardin
harding
hardveld
hardware
hare
harewst
harewstponkt
harfst
hari
haringey
harju
hark
harki
harlinghausen
harmonii
harmsdorf
harn
harns
harold
harpagon
harriet
harring
harris
harrison
harro
harrow
harry
hart
harten
hartford
harts
harvard
harz
haselund
hastata
hastings
hat
hatj
haudsta
hauke
hauptstadt
hauptstat
haur
haurbjen
haurn
haus
hausa
hauschildt
haussknechtii
haut
haute
hautes
hautjarscher
hautkontakt
hautreizung
hautresker
hauts
havanna
havel
haveli
haven
havering
havneby
havre
hawaii
hawaiiaansk
haydn
hayes
haß
haßberge
hb
hc
hcl
hd
hdi
hdt
he
head
headset
health
heard
hearrenfean
heart
hebbel
hebei
hebreews
hebreewsk
hed
hedehu
hedemora
hedera
hedigen
hedwig
hee
heebel
heed
heef
heeger
heegern
heelium
heelp
heer
heere
hees
heesen
heest
heet
heewe
heewer
heft
hei
heide
heidelberg
heidenheim
heider
heidi
heifasker
heilbronn
heilongjiang
heimat
heimatbund
heimreich
hein
heine
heinrich
heinsberg
heinz
heister
hek
hekbleeden
heken
hektaar
hektar
heleft
helena
helgola
helgoland
helianthus
helichrysum
helig
heliglo
heligoland
helikopter
helioscopia
helium
helix
helm
helmut
help
helpers
helpt
helsingør
helsinki
hemel
hemelsrochtingen
hemelswai
hemelswaier
hemer
hemionus
hemiprocne
hemiptera
hemitragus
hemmingstedt
hemsen
hen
henan
henbecht
hendrik
henep
henepplaanten
henflo
hengiar
hengung
henk
henkum
henlii
henmaalet
hennegau
henning
hennstedt
henri
henriette
henrique
henry
henryi
henschel
hensmeten
henstelt
hento
henwech
heonjong
her
herbeifu
herbert
herbst
here
heredia
herero
herford
heritage
herlev
hermann
hermeliin
hermite
herne
herning
herodes
herpesvirales
herr
herred
herschel
hersegowina
herskap
herskep
hersker
hersteller
hertfordshire
hertog
hertooch
hertoochdoom
hertoochdoomen
hertoogin
hertsegowina
hertz
herz
herzegovina
herzegowina
herzhorn
herzog
herzogdoom
herzogtum
hess
hesse
hessen
het
heterokonta
heterophylla
hettema
heungdeok
heupferd
heute
hevea
hevelius
heydrich
heyne
hf
hg
hh
hhohho
hi
hial
hialandaal
hiale
hialer
hiamelk
hiar
hiarang
hiaranger
hiard
hiaren
hiart
hias
hiaskru
hiasplaanten
hiat
hiaticula
hibiscus
hickory
hiddensee
hiddes
hidj
hier
hieraaetus
hieracium
hieroglyphen
hieronymus
hierro
hig
high
higher
highland
highlands
highveld
highway
hii
hiil
hiile
hiilendal
hiili
hiilj
hiilkunde
hiimstoun
hiir
hiird
hiirde
hiirden
hiire
hiiren
hiirt
hiirtuuchdoom
hiit
hiitj
hiitje
hiiu
hiiumaa
hiiđ
hilag
hildesheim
hilfe
hilig
hill
hillerød
hilligenlei
hillingdon
hillsborough
hilo
himalaya
himalayensis
himbei
himmel
hin
hinawe
hindenburg
hindenburgdoom
hindi
hindmarsh
hinduismus
hindus
hindustani
hinge
hinget
hingi
hingst
hingstantiloop
hingstbuan
hingster
hingstfleeg
hingstkastanje
hingstkastanjin
hingstkralen
hingt
hinrich
hinrichsen
hinter
hinzuziehen
hipos
hippeastrum
hippocampus
hippocastanum
hippoglossus
hippolais
hippotragus
hirohito
hiroshima
hirschfeld
hirse
hirsk
hirsker
hirsuta
hirsutus
hirta
hirudo
hirundinidae
hirundo
his
hispanica
hispaniola
hispida
histoore
histoori
histoorie
histoorii
histooriker
histoorisch
histoorisk
historia
historical
historie
historische
history
hit
hithawi
hitler
hitparaadi
hiva
hiyawe
hja
hjir
hjit
hjørring
hk
hku
hl
hle
hlen
hler
hlergemeinschaft
hlergemeinschaften
hlt
hlungen
hlusk
hlybokaje
hme
hmen
hn
hnrich
ho
hoa
hoadstad
hoatzin
hobart
hobbes
hobbit
hobelfask
hobelfasker
hocei
hoch
hochdonn
hochkant
hochschule
hodh
hodoni
hoeg
hoehne
hoehnea
hoek
hoekstra
hoengseong
hof
hoffmann
hoffnung
hofmann
hofstair
hofstairen
hohe
hohenberg
hohenfelde
hohenzollern
hohn
hohner
hoi
hok
hoken
hoker
hokkaido
hoku
hokusai
hol
holander
holbæk
holcus
holding
hole
holep
holger
holikachuk
holland
hollande
hollo
hollywood
holm
holmer
holmium
holo
holocaust
holocephali
holothyrida
holoza
holpen
holst
holstean
holstebro
holsteen
holstein
holsteinische
holsteinisches
holsteins
holsten
holstian
holstiin
holstiinj
holt
holten
holtenau
holthaker
holtig
holtskuch
holun
holunflud
holuns
holz
hom
home
homeland
homelands
homelj
homer
homo
honduras
honduuras
hong
hongcheon
hongkong
hongseong
hongwu
honolulu
honour
honshu
hood
hoodeilun
hoodgebiit
hoodkategorii
hoodling
hoodmaan
hoodmaaner
hoodpuateten
hoodsa
hoodsko
hoodsta
hoodsteed
hoodsteeddistrikt
hoodsteeden
hoodwerk
hoodwerken
hoodwurden
hoof
hoog
hoogdi
hooge
hooger
hoogi
hoogst
hook
hooke
hool
hooling
hoolme
hoolmer
hooltkoole
hoonel
hoonfa
hoonskraften
hoonwerk
hoop
hoorbel
hoorn
hoorne
hoorninger
hoorst
hoorsta
hoover
hop
hopaarber
hope
hopern
hopfaating
hopfo
hopseet
hopset
hopsteling
hopstelt
hor
hora
hordeum
horka
horki
horky
hormoneli
hormooneli
hormoonen
hormooni
horn
horni
hornos
horrida
horsbu
horst
hortensis
hot
hotel
hotels
houe
houet
hounslow
house
housing
houston
hove
hovedstaden
hovedstadsomra
how
howard
howe
hoxha
hoyer
hp
hpa
hr
hra
hrad
hradec
hradis
hrden
hre
hren
hrend
hrer
hring
hringer
hrodna
hrr
hrsg
hrt
hrung
hryvnia
hrywen
hrywnja
hsen
hsinchu
ht
htm
html
http
https
hu
hua
hual
hualen
hualer
hualev
hualevto
hualew
hualeweilun
hualewges
hualewkuugel
hualewleiter
hualewmetal
hualewmetalen
hualewmuun
hualewwa
hualien
hualwen
huambo
huar
huaram
huarbi
huarem
huarfaan
huarmer
huaro
huaruun
hubble
hubei
hubert
huder
hudson
hue
huehuetenango
hugenberg
hughes
hugo
hui
huilliche
huisman
huista
huk
huken
hul
hulm
human
humanist
humber
humboldt
hume
humile
humilis
hummus
humphrey
humptoorp
humptrup
humulus
hun
hunan
hunco
hunen
hunert
hunertbianer
hunerten
hunertst
hunfol
hungary
hunter
huntingdon
hupa
hur
huraur
hurbenen
hurbi
hureeđer
hurfan
hurfuar
hurfuul
hurme
hurn
hurndiart
hurndiarten
hurner
hurnfask
hurnmo
huro
hurom
hus
husby
husinge
huso
hussel
husum
husumer
hut
huuch
huuchfja
huuchlun
huuchschiisk
huuchsjiisk
huuchsjineesk
huuchskuul
huuchskuulen
huuchsorbisch
huuchsorbisk
huuchst
huuchste
huuchsun
huuchtjiisk
huuchtju
huuchwa
huuchweeder
huude
huug
huuge
huugen
huuger
huugeren
huulefa
huulew
huulewailo
huum
huuwen
huuwensta
huuwner
huygens
hvv
hwacheon
hwanghae
hwe
hy
hya
hybrid
hyderabad
hydrangea
hydrangeaceae
hydrobates
hydrogenium
hydrolea
hyemalis
hyeonjong
hylidae
hylocichla
hylocrius
hylotelephium
hylpersk
hymenoptera
hyo
hyojong
hyperboreus
hypericaceae
hypericum
hypermini
hypertext
hypochaeris
hypoleuca
hypoleucos
hypotenuus
hystrix
hyundai
hz
høje
højer
hørsholm
i
ia
iaa
iaan
iai
iakebuumer
ial
ialberag
ialberger
ialberig
ialer
ialev
ialew
ialges
ialgus
ialkru
ialpoden
ialst
ialto
ialtu
ian
ianag
iandu
ianerlei
ianfach
ianfacher
ianhaid
ianhaidelk
ianhaiden
ianhaidsgemeend
ianhaidsgemeenen
ians
iansagst
ianselefterwisen
iansig
iansis
iantaal
iar
iarangen
iaremfasker
iaren
iarenlasmoot
iarer
iaret
iaringen
iarjuaren
iarmer
iarn
iarner
iarst
iarsten
iartapel
iartapeln
ias
iast
iauliai
ibeerisk
iberoromaans
ibm
ibn
ibo
iboundji
ibrahim
ic
icd
ice
iceland
ich
ichov
ichsorbisch
icterina
ictv
id
ida
idaeus
idaho
ide
idee
ideen
identification
identiteet
idriss
ie
ies
if
ifangni
ig
iged
igem
iger
igeroos
iglesia
ihm
ihr
ihre
ii
iidj
iidjen
iigler
iii
iiindialing
iiljto
iin
iinba
iinbech
iinbecht
iinbu
iindialang
iindialangen
iindiald
iindialing
iindiiling
iindiket
iindo
iindrach
iindracher
iinfach
iinfacher
iinfacheri
iinfachi
iinfachst
iinfeerd
iinflo
iingangshali
iingung
iingungspuul
iinig
iining
iinj
iinje
iinjfa
iinjha
iinjsen
iinjsist
iinka
iinkemen
iinkru
iinkum
iinnimen
iino
iinracht
iinrachtang
iinrachtangen
iinrocht
iinrochting
iinsaat
iinseet
iinselmecha
iinset
iinsig
iinsigst
iinslaanj
iinslebet
iinstel
iinstelt
iinto
iintoochregiuun
iinuun
iinuuners
iinwaanert
iinwaanrern
iinwener
iinwenern
iinwenertaal
iinwenertaalen
iinwuuners
iip
iipen
iipenmaaket
iiper
iipern
iiperplaanten
iir
iirhonert
iirhunert
iirhunerte
iirnge
iirsen
iirsenbaan
iirsern
iirsk
iirstide
iirtids
iisen
iisenboon
iisenhud
iisenkru
iisentidj
iit
iiwag
iiwenbuum
iiwenbuumer
iiwenplaanten
ij
ija
iju
ik
ike
ikerasak
il
ile
ilex
ilha
ilhas
ili
ilina
ilinsky
iljitsch
ille
illinois
illoqqortoormiut
illustration
ilm
ilmenau
iloun
ilse
ilulissat
im
image
imagineer
imandra
imberbis
imbricata
imen
imereetien
imergreen
imf
img
imko
immanuel
immenstedt
immer
imo
imov
imperfekt
imperia
imperialis
impuls
impulse
imsil
in
ina
inboogere
inboogerta
inc
inca
incana
inch
incheon
inconspicua
increment
incubator
indeks
independence
independencia
independent
index
india
indialang
indialing
indian
indiana
indica
indicadores
indicators
indicus
indien
indiiling
indik
indiooner
indioonern
indisk
indium
indo
indogermaans
indoneesien
indoneesk
indonesia
indonesien
indre
induktiwiteet
indus
industrii
ine
inec
inermis
inferior
influenza
influenzavirus
influs
info
informaatik
information
informatjuun
informatjuunen
informatsion
informatsjoon
infrakingdom
infraorder
infraru
infraruad
infrastruktuur
infty
ing
inga
inge
ingeborg
ingefeer
ingefeerplaanten
ingels
ingelsk
ingelsken
ingelskspreegen
ingelun
ingi
inglo
ingo
ingolstadt
ingrisk
inguscheetien
ingwer
ingwers
ingwersen
inha
inhalt
inhambane
inj
inje
injems
injeno
injo
injong
inka
inken
inklinatsion
inland
inlet
inlo
inlun
inn
innerhalb
innerrhoden
innogy
inoch
inodora
ins
insae
insasen
inschape
insecta
insectorum
insekt
insekten
insektenfreedern
insel
inselbaan
inselklang
inseln
insignis
inskij
inst
instaliaret
instaliari
insterburg
institut
institute
instituto
instituut
instructions
instrument
instrumentaal
instrumenti
insularis
inszenierung
int
inta
integraalreegnang
integrifolia
inteligens
intelligence
intercity
interesant
interfresk
interfriisk
interior
intermedia
intermedius
international
internationale
internatjunaal
internatschunaal
internatsionaal
internatsjonaal
internatsjunaal
internet
interpres
interstate
interview
into
intra
intrese
intresen
introduction
inu
inuinnaqtun
inuit
inuktitut
inuttitut
inuttut
inuvialuktun
inuvik
involucrata
inwaschuun
inwers
io
iodiid
ion
ionen
ionic
ioniq
ioone
ioonen
ios
iowa
ip
ipa
ipomoea
iprovense
ipswich
iq
iqaluit
iqli
ir
iraak
iraan
iraans
iraansk
irak
ire
ireland
irene
iridaceae
iridium
iriidium
iriomotekaat
iriomotensis
iris
irish
irkutsk
irlits
irlo
irlun
iron
irpel
irpler
irreversiblen
irsk
is
isaac
isabel
isan
isbn
isch
ische
ischen
ischloun
ischorisk
ischup
isdi
ise
iserlohn
isetta
isfo
ishikawa
isixhosa
isizulu
isk
iske
isklo
isla
islaam
islaamisk
island
islands
islas
isle
islington
islo
islound
islun
isluns
ismail
ismoune
ismuun
isni
iso
isolepis
isoliaret
isotoop
isotoope
isotoopen
isotope
israel
iss
issn
ist
ista
istanbul
iste
ister
istidj
istong
istonger
istrien
it
ita
itaalien
itaalisk
itaaljen
itajeensk
itajeensken
italica
italieensk
italien
italjeens
italjeensk
italy
iter
itilleq
itjholem
itoalien
its
itu
itzehoe
itzstedt
iu
iuje
iulius
iupac
iv
iva
ivindo
iwan
iwanawa
iwanowitsch
iwanowo
iwatsewitschy
iwen
iwolginsk
ix
ixobrychus
ixodes
ixodida
ixodidae
iy
iz
izu
j
ja
jaa
jaade
jaage
jaaget
jaagin
jaakob
jaapaan
jaapaans
jaapan
jaar
jaaren
jaarho
jaartiint
jaartiren
jaat
jaav
jaawa
jaax
jabuuti
jacaranda
jach
jachi
jacht
jackson
jacob
jacobaea
jacobsen
jacobus
jacq
jacques
jaenisch
jaffa
jaft
jagd
jaguar
jaguarundi
jahr
jahrbuch
jahre
jahren
jahres
jahrhundert
jahrhunderts
jakarta
jakob
jakobs
jakobsen
jakobus
jalapa
jam
jamaica
jamaicensis
jamaika
jamal
jambi
jambol
james
jamestown
jammu
jamsalev
jan
janeiro
janewoor
janewoore
jangsu
jangtse
jangtsekiang
janka
jann
jannen
jannsen
janovice
janssen
jantarny
janu
januaar
januar
januwaari
jap
japa
japaans
japan
japicx
japiks
japonica
japonicus
japoonsk
japsun
jara
jard
jardbo
jare
jarich
jaroslawl
jarst
jarste
jasmiin
jasminum
jat
jau
java
javanica
javanicus
jawa
jawaans
jayakari
jazz
jazzmusiiker
je
jean
jeeft
jeeger
jeer
jeerhunert
jeet
jeew
jeewe
jef
jefen
jefferson
jeft
jehuda
jeju
jekaterinburg
jekaterinoslaw
jel
jeljsk
jelle
jelles
jeltsin
jemen
jen
jena
jendouba
jenisej
jenisejsk
jenkins
jenny
jens
jensen
jeolla
jeollabuk
jeollanam
jeongjo
jeongjong
jeongseon
jeonju
jer
jeremer
jeremy
jerer
jerewan
jerez
jersey
jerst
jert
jerti
jerusalem
jeseni
jesenice
jessel
jessen
jest
jestr
jesu
jesus
jetzt
jevenstedt
jever
jezd
jezik
jh
ji
jia
jiang
jiangsu
jiangxi
jic
jicarilla
jidisk
jie
jift
jihlava
jiises
jil
jilin
jilskiiner
jilstak
jilstaken
jim
jimmy
jin
jinan
jinauer
jindial
jineno
jinkateet
jinsats
jinsidjag
jintaal
jip
jipde
jipen
jiper
jipst
jir
jit
jivs
jizerou
jo
joa
joachim
joan
jodiar
jodiaren
joe
johan
johanes
johann
johanna
johannes
johannesburg
johannis
johannisbruadplaanten
johanniskru
johannsen
johansen
john
johnson
johor
johr
jointly
jolof
jom
jonava
jones
jong
jongen
jongensguard
jonger
jongfo
jongfoomen
jongnaamen
jongst
jongstiantidj
jonis
jonk
jonkbla
jonkbru
jonken
jonkgreen
jonkroosa
jood
joosef
jopie
jordaanien
jordan
jordsand
jorge
jose
josef
joseon
joseph
joule
journal
jov
jovice
jpeg
jpg
jr
js
jsk
jskij
ju
juan
juar
juardu
juaren
juarenhuman
juarhunert
juarhunerten
juarstidj
juarstidjen
juba
jubatus
jubileeum
juda
jude
judeo
judet
juglandaceae
juglans
jugoslaawien
jugoslawien
juhl
jul
jula
jules
julflud
juli
julia
juliaans
julian
julie
julius
julsta
july
jumhu
jumpy
jun
juncaceae
juncea
june
jung
jungbohn
junge
jungen
jungens
jungensdracht
jungensgaart
jungenstir
junger
jungere
jungi
jungjong
juni
juniperus
junk
juodkrante
jup
jupik
jupiter
jura
jure
juri
jurist
jurnalist
jurt
jurtkamst
jussieu
justin
jutiapa
jutlo
juuden
juul
juuli
juulii
juulisk
juuni
juunii
juunimuun
juupen
juventud
jynx
k
ka
kaabel
kaal
kaalium
kaam
kaame
kaamertoon
kaamp
kaan
kaankers
kaant
kaanter
kaanu
kaap
kaarelswaanj
kaarl
kaart
kaartel
kaarten
kaasen
kaat
kaater
kaatheier
kaatkral
kaatoortagen
kaatsto
kaawiar
kabansk
kabardiinisk
kabardiino
kabiinen
kabinet
kabupaten
kabuyea
kacheetien
kadai
kade
kadens
kadmium
kadu
kae
kaffrine
kafka
kagera
kagoshima
kahlo
kahramanmaras
kai
kaiman
kairem
kairo
kairouan
kaiser
kaka
kakao
kakaobuum
kaktus
kaktusen
kala
kalaabrien
kalaallisut
kalahari
kalale
kalamondiin
kalawao
kalen
kalender
kalendern
kalener
kalewala
kali
kalifornien
kaliif
kalimantan
kaliningrad
kalinkawitschy
kaljulaid
kalk
kalkutta
kalle
kalmar
kalmu
kaltenkirchen
kaltes
kaltsium
kalu
kaluga
kam
kamala
kambodscha
kambrium
kameelen
kamel
kamenets
kamenz
kamera
kameras
kamerun
kameruun
kameruunliinje
kamp
kampaanien
kampaanisk
kampala
kampong
kampot
kamt
kamtschatka
kan
kana
kanaadisk
kanaadsk
kanaal
kanaaren
kanaarisk
kanada
kanadagus
kanagawa
kanal
kandalakscha
kandi
kandidaat
kandidoot
kandidooten
kaneel
kanem
kang
kangaatsiaq
kangen
kangiryuarmiutun
kango
kangoo
kangwane
kangwo
kani
kanin
kankan
kanme
kann
kannada
kanool
kanooleilunen
kansai
kansas
kansler
kanso
kant
kantaabrien
kanten
kanto
kantolo
kanton
kantone
kantoneesk
kantoon
kantoonen
kantooner
kanuri
kanuunen
kanye
kaohsiung
kaolack
kap
kapadookien
kapatsiteet
kapel
kapita
kapitel
kapituliaret
kappel
kappeln
kapprowins
kapstadt
kapsteed
kaput
kapwerden
kapwerdisk
kapylj
kara
karakal
karakorum
karakter
karakteristisch
karaman
karatschai
karatschi
karbonaaten
karboon
kareelien
kareelisk
karelia
karelija
karelitschy
karen
karfigue
karhiird
karhiirder
kari
karibik
karibikku
kariiben
kariibik
kariibisk
karimama
karimata
karin
karl
karlmann
karlovy
karlshamn
karlskrona
karlsruhe
karlsskuul
karlum
karma
karmen
karmene
karming
karminger
karolingern
karoo
karoserii
karoseriien
karp
karpaaten
karper
karrharde
kars
karstens
karte
kartlien
kartograaf
kartwelsprachen
karuzi
kas
kasachisk
kasachs
kasachstaan
kasachstan
kasai
kasan
kaschaljowa
kaschmir
kaschuubisk
kashmir
kaska
kaskaadenkeed
kaspisk
kassel
kasserine
kast
kastanje
kastanjebuumer
kastanjin
kastiilien
kastrup
kastsjukowitschy
kat
kataar
katalaans
katalaansk
kataloog
kataloonien
katanga
katastroof
katechismus
kateeten
kategorie
kategorii
kategoriin
katharina
katharine
katherine
kathmandu
katima
kating
katingsiel
kation
kato
katoolsk
katriinenheerd
katsushika
katsuwonus
kattegat
katuulsk
kaukaasien
kaukaasisk
kaukasus
kaunas
kauribuumer
kausen
kavango
kavkazskij
kay
kayanza
kayes
kayseri
kazası
kb
kcal
kd
kdf
kdialen
kdom
kdomsforiiningen
ke
kea
kebbi
kebel
kebuumer
ked
keed
keeden
keeft
keegel
keelag
keeling
keemiker
keemisch
keemische
keemisk
keen
keenen
keenia
keening
keent
keenteeken
keer
keerd
keerle
keert
keetmanshoop
keezer
kef
kefamiili
kefloose
kegebiit
kei
keila
kein
keine
keinem
keinen
keiser
keiserdoom
keiserin
keisern
keiserrik
keitum
kelbosk
kelerswinj
kelheim
keliir
kellinghusen
kelly
kelten
keltisch
keltische
keltisk
kelvin
kem
kemal
kemen
kemerowo
kemii
kempten
ken
kenai
kenkenbuum
kennedy
kennzeichen
kennzeichnungsetikett
kenozoikum
kensington
kenst
kent
kentucky
kenya
keoortagen
kep
keplaanten
kepler
ker
kerala
keramag
keran
kerdschali
kere
keren
kerguelen
kerhenk
kerlun
kern
kersti
ket
keta
keteleeria
ketels
ketsal
ketschua
kev
kew
kewaasenschap
kewise
keyboard
keynes
kfz
kg
kgalagadi
kgaolo
kgatleng
kha
khabarovsk
khaet
khag
khama
khan
khe
khet
khmer
kho
khoekhoe
khoisan
khomas
khulna
ki
kia
kial
kialklu
kialspin
kiang
kiar
kiarkreis
kiarkreiser
kiart
kiarwa
kiatak
kichwa
kidal
kidd
kie
kiel
kieler
kieli
kielmeyer
kien
kiesewetter
kiesinger
kiev
kiew
kigali
kiha
kiichiro
kiik
kiil
kiimen
kiina
kiino
kiirt
kiiselsu
kiiwi
kiiwis
kil
kildinsamisk
kilimandscharo
kilo
kilogram
kilomeeter
kilomeetern
kilometer
kilometers
kilowatt
kim
kimen
kin
kinabaluensis
kind
kinder
kindern
kindia
kindler
kindlers
kineetisk
king
kingdom
kinge
kingharde
kinghiird
kinghiirder
kingmanrab
kings
kingston
kingstown
kining
kiningrik
kinoa
kinshasa
kint
kio
kiowa
kipsi
kiptschakisk
kirausk
kirche
kirchspiel
kirchspielslandgemeinde
kirchspielslandgemeinden
kirew
kirgiisk
kirgisk
kirgistaan
kiri
kiribaati
kiribati
kirk
kirke
kirkii
kirow
kirundo
kirwer
kis
kischi
kisdorf
kissidougou
kissingen
kit
kitts
kitzingen
kivu
kiwi
kizunga
kj
kjachta
kjo
kjustendil
kla
klaaifrysk
klaar
kladno
klagenfurt
klaipe
klaipeda
klamath
klang
klangkest
klangsbel
klangt
klantem
klanxbu
klap
klapi
klapruus
klas
klasbel
klasen
klasi
klasifikatjuun
klasisk
klasitsismus
klasse
klassifikation
klaus
klawiarspeler
klawiir
kle
klef
kleidung
klein
kleine
kleiner
kleines
kleinia
klem
klemp
kleopatra
kletsk
kleve
kli
kliawer
kliawerbosker
kliima
kliimadiagram
kliimakirew
kliimatologii
kliimatoloog
klik
klike
kliki
klimadiagramm
klimawitschy
klint
klitschau
klixbu
klo
klok
klook
klookris
klooksdiarten
kloor
klooriid
kloorweederstoof
kloster
kloue
klu
kluader
kluaster
kluađer
kluađern
kluge
km
kmuun
kn
kna
knaakenbiin
knaap
knap
knautia
kne
kneten
knif
kniif
kniip
knip
kno
knob
knober
knooken
knookenbau
knooplook
knooter
knop
knopen
knorho
knortz
know
knowledge
knud
knudsen
knudt
knut
ko
koa
koala
koalitschuun
kob
koblenz
kobryn
kobus
koch
koda
kodierliste
koe
kofe
kofi
kofu
kog
koh
kohl
kojoot
kokain
kokastru
koko
kokos
kokospualem
kol
kola
kolabuumer
kolas
kolben
kolbenmotoor
kolda
kolding
kole
kolektiif
koli
kolkata
kolkerhii
kollumerla
kollumerland
koloniaaltidj
kolonie
kolonii
koloniien
koloniin
kolonisasjoon
kolumbiaans
kolumbien
kolumbus
koma
komandant
komando
komarovii
komati
kombiwain
komeedestak
komeedii
komeet
komer
komert
komfort
komi
komischuun
komitaat
komitaaten
komitee
kommt
kommun
kommunaalwoolen
kommunalwahl
kommune
kommuner
kommunistisk
kommuunen
komo
komooren
komoorsk
komorski
kompaas
kompjuuter
kompjuutern
kompjuuterprogram
kompjuuters
kompleks
komponenten
komponiaret
komponist
komponisten
kompoonist
kompost
komst
komt
komuna
komunaalwoolen
komunistisk
komunitsiari
komutatiifgesets
komuun
komuune
komuunen
kon
kona
konda
kondensaator
kondensatooren
kondopoga
konferens
konflikt
konfo
kong
kongo
kongres
konifeeren
konomii
konoom
konrad
konsept
konsern
konsert
konsertgirarre
konsertgitaren
konsonant
konsonanten
konst
konstant
konstantin
konstantinoopel
konstanz
konstelk
konstelken
konstituschunel
konstler
konstlern
konstmaaler
konstmooler
konstmoolern
konstruiaret
konstrukstjoon
konstruktsjoon
konstruktsjoonskontoor
konsul
konsulen
kontakt
kontakti
kontaktlinguistik
kontaktlinsen
kontaminierte
kontina
kontinent
kontinentaalkliima
kontinentaalplaaden
kontinenten
konto
kontoor
kontrakt
kontrol
kontrolfaarten
kontroliaret
konversations
konya
konzentrationslager
konzern
koobalt
koofala
koog
koolemo
koolestuf
koolnbu
koon
koone
koonkern
koop
koopet
koopeti
koopi
koopman
koor
koord
koorden
koordinaaten
koort
koost
koower
kop
kopeek
kopenhaawen
kopenhagen
kopenhuuwen
koptain
koptainstju
koptein
kopteins
koptisk
kor
kora
koralen
koralenrab
koralenraber
koralensia
korc
kordilleren
kore
korea
koreaans
koreanisk
koreea
korhogo
korn
kornai
korneelis
kornisch
kornisk
koro
korpus
korrigiert
korsika
korsisk
kort
kortdu
kos
kosovo
kosowo
kossi
kostelec
kosten
kosterm
kostet
kostomukscha
kota
kotljarewskyj
kotor
kotschyi
kotsenbel
kotto
kou
kouande
koubia
koudougou
kouilou
koulikoro
koumou
koundara
koupe
kouroussa
koussi
kouyou
kov
kovice
koyukon
koyukuk
kozojedy
kp
kpa
kpalime
kpodji
kpomasse
kpota
kr
kra
kraab
kraaben
kraam
kraamwain
kraanekfo
kraank
kraankenhu
kraankenwain
kraanker
kraankes
kraankhaiden
kraansfo
kraater
kraenzl
kraft
krai
krais
kraise
kraiser
kraisi
kraj
kraje
krakau
kramer
kramper
krasent
krasnapolle
krasnet
krasnodar
krasnojarsk
krast
krastelk
krasten
krastendoom
krchleby
krebs
kreeft
kreeta
krefeld
kreis
kreiser
kreisfrei
kreiskeegel
kreisluup
kreissta
kreistaal
kreiswoolfo
kreol
kreolspriiken
kreool
kreoolspriak
krepdiarten
kriak
krich
krichskutern
krichsmariine
krichsmariini
kriich
kriiger
krim
krimi
krimireeg
krimkrich
kringel
kriol
kris
krisda
krise
krisfri
krisfrie
krispra
kristal
kristen
kristendom
kristianstad
kristus
kriswoole
kritisiaret
kritj
krkonos
kro
kroaasien
kroaatien
kroaatisk
kroatien
kroatisk
krobo
krokusen
kromosoomen
kronach
kronoberg
krook
kroom
kroonik
kroonist
kropp
kroune
kru
krug
kruger
kruhlaje
krupa
krupki
krus
kruse
krypton
krytschau
ks
ksa
ksbel
ksen
kst
ksta
kt
ktaal
kte
kti
ktoorp
ktrisch
ktron
ktrone
ktroone
ku
kual
kuala
kualflenerk
kualplaanten
kualro
kub
kuba
kuban
kuben
kubiiktaal
kubik
kubikmeeter
kubikmeetern
kublai
kudelin
kuehl
kuehneromyces
kui
kuien
kuiseb
kuito
kujalleq
kuk
kuke
kuku
kul
kule
kulmbach
kultu
kultur
kultura
kulturel
kultuur
kultuuren
kultuurhistoore
kultuurplaant
kultuurpris
kum
kumasi
kumst
kumt
kun
kunc
kunda
kunden
kunene
kung
kunming
kunst
kunstma
kunstmoune
kunth
kunz
kup
kuplingsdraier
kur
kurdisk
kurdistaan
kurdufaan
kurewbloosen
kurfu
kurgan
kurier
kurkuuma
kurlun
kurn
kurnskraager
kurpfalz
kurs
kurse
kursi
kursk
kurt
kurter
kurtst
kuschiitisk
kuskokwim
kuter
kutern
kutna
kuuba
kuuch
kuudu
kuudus
kuuge
kuugel
kuugelfasker
kuugelfaskoortagen
kuuger
kuul
kuuler
kuultidj
kuuplidj
kuupmaan
kuurde
kuurisk
kuurlem
kuurn
kuurt
kuurter
kuwait
kv
kvenisk
kw
kwa
kwadacha
kwadraat
kwadraatisk
kwadroot
kwadrootkilomeetern
kwadrootmeeter
kwadroottaal
kwahu
kwaksalwer
kwalhioqua
kwaliteet
kwandebele
kwango
kwantenmechaanik
kwantentaal
kwart
kwartiire
kwarts
kwazulu
kwe
kweeken
kwegels
kwel
kwelen
kweln
kweneng
kwetjkauern
kwh
kwintenkrais
kwise
kwp
ky
kyi
kyj
kyjiw
kyo
kyrgyzstan
kyrilisk
kys
kysyl
kyu
kz
københavn
købstaden
købstæderne
køge
kırklareli
kırs
kırıkkale
kɑ
kɔ
l
la
laa
laabs
laacht
laachtbla
laachtbru
laachtest
laachtgreen
laachtjuaren
laachtma
laachtroosa
laachtruad
laachtstruum
laag
laagen
laangsem
laanouerseeting
laap
laapen
laapwai
laasisk
laasken
laawe
laawed
laawen
labe
labem
laben
labenen
laboe
labor
labour
labrador
labskaus
labuan
lac
lacerta
lacertidae
lachdenpochja
lachlan
lacht
lachter
lachts
laciniosa
lacs
lacustris
ladakh
lade
ladelund
laden
ladiins
ladiinsk
ladino
ladoga
ladogasia
lady
laevigata
laevis
lafayette
laga
lagenaria
lago
lagopus
lagos
lagostern
laguna
lagunes
laguun
laguunen
lahn
lahojsk
lai
laie
laihair
lair
lait
lak
lakadive
lakba
lake
lakeu
lakiaret
laksen
laksfasker
lalo
lam
lama
lamballe
lambda
lambeth
lamiaceae
lamiales
lamium
lampen
lampi
lamprocapnos
lampyridae
lan
lanata
lanatus
lancashire
lancaster
lanceolata
lanceolatum
lanceolatus
land
landau
landes
landesamt
landescode
landestrachten
landing
landkroas
landsberg
landschaft
landsdelen
landshut
landskabet
landskap
lanen
lang
langballig
lange
langeland
langenhorn
langfristiger
langobarden
langs
langsen
langswerk
language
languages
langue
langues
lanice
lanius
lanka
lankerbian
lankerbianer
lannion
lansana
lantaan
lantanoiden
lanvallay
lanzarote
lanzhou
lao
laoghaire
laos
laotisk
lap
lapbloosoortagen
lapbloosplaanten
lapen
lapfasker
lapkru
lappa
lapponica
lapt
laptop
laptops
laramie
large
largo
lari
laridae
larix
larnaka
larry
lars
larus
las
laschet
laser
lasiorhinus
lasis
lasisch
lasmaat
lasmaaten
lasmoot
lasmoote
lasmooten
laspuateten
lassen
lassik
last
lat
late
lathyrus
latifolia
latifolium
latiins
latiinsch
latiinsk
latin
latina
latinsch
latinsche
latium
latj
latje
latjen
latjer
latjere
latrans
latvia
lau
lauderdale
lauenborig
lauenborj
lauenburg
lauenburgische
lauraceae
laurales
laurent
laurentii
laurus
lausitz
laut
lauwers
lava
lavafial
law
lawiin
lawrence
laxiflora
laxum
laye
lb
lbel
lben
lboom
lborg
lbu
lc
lch
ld
lda
lde
ldenswort
ldfrysk
ldiile
ldioksiid
ldots
ldrop
le
leaf
lear
leaves
lebanon
leben
lebensborn
lebensgefahr
lebowa
lebuum
lebuumplaanten
lec
lecco
lech
lechen
lecht
lechte
lechtenbrink
lechter
leck
lectrique
led
ledce
lee
leecht
leechtbo
leechter
leechtern
leed
leeder
leederhen
leedji
leedjis
leefde
leefts
leek
leeksguurd
leengden
leengdi
leenger
leengeri
leengi
leengst
leengt
leengti
leenin
leeningrad
leepra
leept
leer
leeren
leergiraat
leering
leerkraft
leerstatsjoon
leert
lees
leesag
leesen
leesproof
leest
leeste
leet
leeter
leeterhen
leetst
leeuwaarden
leeuwarden
leew
leeward
leewen
leewendig
leewent
leewentsbuum
leewentshelp
leewentsluup
leewentsru
leewer
leewert
leewre
leezen
lef
lefarew
lefer
lefkos
left
leftrightarrow
lefts
legiarangen
legiaring
legiaringen
legislature
leguart
lehrbuch
lei
leibniz
leiden
leien
leinster
leipzig
leiria
leit
leitet
lek
lekelk
leko
leksand
leksikon
lekwe
leljtschytsy
lem
lemba
lemna
lemoune
lemy
len
lena
lenard
lengde
leningrad
lenmuun
lens
lensahn
lentju
leo
leon
leonardo
leone
leonhard
leonid
leontodon
leopard
leopardus
leopold
lep
lepelj
lepen
lepidium
lepidoptera
lepidus
leptailurus
leptophyes
leptophylla
leptophyllum
leptosomus
lepualem
lepus
ler
leraanj
lerche
lere
leren
lerig
lern
lerne
lernen
lerns
lers
les
lesebouk
lesebuch
lesen
lesotho
lesser
lest
let
leten
leti
letisk
letj
letjen
letjer
letjet
letjst
letlo
letlun
letschchumi
letsie
letst
letters
leucanthemum
leuchtturm
leucocephalus
leucogaster
leucomelas
leucopsis
leuven
level
leverkusen
levonorgestrel
levu
levy
lew
lewe
lewer
lewet
lewi
lewin
lewis
lewisham
lex
lexikon
lexis
leyman
leyte
lez
lezgi
lezhe
lf
lfa
lfeld
lfiiber
lfo
lg
lgas
lgemiin
lgien
lhamid
lhasa
lheim
lholankok
lhood
lhota
lhu
li
lia
liach
liachsorbisk
liachst
liachweeder
liager
liam
liaoning
liar
liard
liaren
liarer
liasang
liasangen
liase
liaset
liasin
liaw
libani
libanon
libc
libeeria
liber
liberaal
liberec
liberia
libertad
library
libreville
libyen
lic
lice
lichinga
lichtenberg
lichtenfels
lid
lida
lidice
lidj
lidjestonia
lie
liebe
lieber
liechtenstein
lied
lieder
liefers
liegt
lien
liende
lif
life
ligamenvirales
liger
ligers
light
lighthouse
ligster
ligsters
ligt
ligustrum
liguurien
liguurisk
lii
liibanon
liibien
liibyen
liif
liiflun
liiger
liiken
liim
liin
liinbuum
liinie
liinien
liinienskep
liinje
liinkru
liir
liirbok
liird
liirden
liire
liiren
liirer
liirt
liirti
liit
liitauen
liitauisk
liiter
liitern
liitjeletj
liitjin
liitsium
liiw
liiwen
liiwisk
lik
like
likedenang
likedening
likegrat
likelung
liker
likert
likes
liket
likevirus
likfuul
likmiatag
liknang
liknangen
liknangsu
likouala
liksteld
likstian
likstroom
likstruum
liku
likwa
liliaceae
lilien
liliencron
lilienplaanten
lille
lilo
lilongwe
lima
limanda
limassol
limborags
limborch
limborig
limborj
limburg
lime
limerick
limericks
limet
limeten
limon
limonium
limosa
limpopo
lin
linaceae
linaria
lincoln
lincolnshire
lincom
lincz
lindau
linden
linder
lindinger
lindl
lindley
lindleyana
lindner
line
lineaar
linear
linearifolia
linearis
linegrey
ling
lingd
linge
lingen
linger
lingsmaskiinen
lingst
lingt
lingua
linguist
linguistic
linguistics
linguistik
linie
link
linke
linko
links
linnaeus
linne
lins
linsen
lint
linum
lion
lions
lipan
lipetsk
lippe
liquid
lir
liren
liriodendron
lis
lisa
lisabon
lisboa
lisch
lise
lissabon
list
liste
listen
listi
litai
litauen
litauisk
liter
literaarisk
literatu
literatur
literatura
literatuur
literatuurpris
litern
liters
lithium
lithocarpus
lithuania
litj
litje
litjem
litjer
litjeri
litji
litjmuasem
litocranius
litoral
litoralis
litteratur
little
littoral
littoralis
liu
lium
live
liverpool
living
livingstone
livorno
livvin
liwer
lix
lj
lja
ljachawitschy
lje
ljen
ljfrasch
ljfrasche
ljk
ljke
ljma
ljosna
ljouwert
ljpunkt
ljt
ljtid
ljubanj
ljubljana
ljucht
lk
lkast
lken
lker
lkerung
lkj
lkn
lkrich
lkring
lkw
ll
llano
llanos
lle
lleida
llen
ller
llfeld
lln
lloyd
lmedschid
lmonoksiid
lmoune
lmuun
ln
lni
lo
lobata
lobaye
lobito
lobos
local
localities
locator
locht
lochtwoopen
lock
locke
lodge
lodi
lodsch
loft
loftbil
loftdruk
loftferkiar
log
logan
loganiaceae
logarithmus
logo
logone
lohii
loir
loire
loiret
loit
loja
lojeu
lok
lokaal
lokelk
loket
lokfo
lokomotiiwen
lokomotiiwi
lokossa
loks
lokser
lola
lolland
lolo
loma
lomami
lombardei
lombardisk
lome
london
lonesome
long
longa
longiflora
longifolia
longipes
longleftrightarrow
lonham
lonicera
lonzo
looden
loogik
loogisk
look
loonbedrif
loonda
loong
loongs
loonham
loonkris
loonriad
loonschap
loonsdialen
loonskap
loonskapen
loonsstroot
loorbei
loorbeioortagen
loorbeiplaanten
loosche
loot
lop
lophiiformes
lophius
lor
lord
lorenz
lorenzen
lorenzo
lorient
lornsen
lornsens
lorraine
los
lost
lot
lothar
lotharingen
lothringen
lothringisk
lotte
lottermoser
lotus
lou
louchi
loude
louga
louis
louise
louisiana
louka
louma
loun
louny
lourenc
lov
love
lovelace
low
lower
lowetsch
lowosero
loxia
loxodonta
lp
lpen
lr
lring
lringer
lringern
lru
ls
lsis
lsk
lskrich
lst
lster
lsters
lstoof
lstra
lstrup
lsu
lt
ltd
lte
ltechnik
lten
ltens
lter
lti
ltig
ltige
lting
ltju
ltkrich
ltungs
lu
luad
luadrocht
luanda
luanet
luapula
luar
luari
luarten
luas
luasuur
luba
lubango
lublin
lubombo
luc
lucala
lucas
lucca
luchsteeger
lucht
luchtfaart
luchtreting
luchtskeepen
lucia
lucida
lucidum
lucie
lucilia
lucius
lucorum
lucy
ludvig
ludvika
ludwig
ludwigsburg
ludwigshafen
ludwigslust
luena
luer
luft
luftbil
luftrettung
lugdunensis
lui
luin
luine
luis
luk
lukas
luke
luket
luki
lukin
lukretius
luksemborag
luksemborags
luksemborch
luksemborgisk
luksemborig
luksemborj
luksus
lulea
lullula
lumbricus
lumke
lumpur
lumpus
lun
lunagt
lunaria
luncodes
lund
lunda
lundai
lundaiswool
lunen
lung
lunge
lungemeend
lungemeenden
lungemeenen
lungen
lungi
lungno
lungsem
lungsom
lungst
lunham
lunigt
luninets
lunkreis
lunkreisen
lunkreiser
lunkreisestonia
lunskap
lunskapen
lunwiartskap
lupus
lus
lusaka
luscinia
lustig
lusutfu
lutea
luteum
luther
luton
lutz
luuke
luuken
luum
luumen
luup
luupe
luupen
luupfo
luv
luxemborig
luxemborj
luxembourg
luxemburg
luxemburgs
luz
luzern
luzia
luzon
lv
lva
lvesborg
lwa
lweerm
lwer
lwern
lwersem
lwoole
ly
lycaon
lycopersicum
lymnocryptes
lyndon
lynx
lyon
lyons
lyrik
lysaja
lytse
lz
lzow
løgum
løgumkloster
lıs
lɔ
lə
m
ma
maa
maad
maag
maage
maaget
maagin
maaket
maaketi
maaki
maakin
maakit
maakond
maal
maaler
maalerii
maalet
maali
maan
maaner
maantrau
maaren
maarswin
maarten
maarts
maas
maask
maaskeilun
maasken
maasklun
maast
maastricht
maat
maaten
maatriks
mabberem
mabote
mac
macau
macenta
macerata
mach
machen
macht
mackellar
mackenzie
macleay
macomia
macori
macquarie
macrocarpa
macrocarpus
macron
macrophylla
macrotis
maculata
maculatus
maculosa
mad
mada
madagascar
madagascariensis
madagaskar
made
madeira
madel
madela
madelaafrikoons
madelaasien
madelafrikoo
madelafrikoons
madelafrikoonsk
madelameerikoo
madelan
madelanatoolien
madelbo
madeleine
madeleuroopa
madeleuropeesk
madelfrasch
madelfrenkisk
madelgrat
madelitajeensk
madelmiatig
madelponkt
madelregiuun
madelrik
madelru
madelsjiisk
madelst
madelt
maden
maderensis
madingou
madison
madlem
madlunen
madlunsia
madlunsiakliima
madoqua
madrid
madsen
madts
madureesk
mae
maenouder
mafeteng
mag
maga
magadan
magaliesberger
magallanes
maganja
magazine
magdalena
magdebo
magdeburg
magellan
magellanica
magellanicus
magellanstruat
magen
maggiore
magic
magna
magneesium
magneet
magneetfial
magneetisk
magneetisken
magnesium
magnetisiarang
magnetismus
magnificens
magnituud
magnolia
magnoliaceae
magnoliales
magnolie
magnoliophyta
magnoliopsida
magnoolienoortagen
magnus
mahagoni
mahagooniplaanten
mahaica
mahdia
mahiljou
mahmud
mai
maidenhead
maihuenia
maike
maikop
mail
mailand
mails
maimansingh
maimuun
main
maine
mainz
maipuurisk
mairei
mait
majalis
major
majoraan
mak
makamba
makaroneesien
makassar
make
makedoni
makedoonien
makelk
makelker
makino
makotr
makreel
makreelen
mal
mala
malaaisk
malaawi
malabo
malacorhynchus
malacostraca
maladsetschna
malagasy
malaiisk
malanje
malanville
malaryta
malay
malayalam
malayo
malaysia
maldonado
male
malediiwen
maledive
malema
malenkow
maler
mali
malinke
mallorca
malmo
malmsteen
maln
malo
malpighiales
malta
maluku
malung
malus
malva
malvaceae
malvales
malwenoortagen
malwenplaanten
mam
mambe
mamenspra
mamenspriak
mamenspriik
mammalia
mammuthus
mamou
mamoudzou
man
mana
management
managua
manati
mancha
manchas
manche
manchester
mandaat
mandaaten
mandariin
mandariinen
mandarin
mande
mandela
mandelbuum
mandelno
mandiana
manding
mandinka
mandoul
mandra
mandragora
mandschu
mandschurei
mandschuurisk
maner
manerha
manertaal
manertaalen
manertaalspriak
manertaalspriaken
manfred
manga
mangaan
mangold
mangoro
mangroowen
mangroowenbuumer
mangusten
manhattan
mania
manica
manicaland
manihot
maniitsoq
manila
manilkara
maning
maninka
maniok
manis
manisa
manitoba
manks
mann
mannheim
mannin
mano
manouba
manrique
mans
mansche
manschne
mansen
mansfeld
mansfield
mansisk
manskep
mantel
mantje
mantjin
manuel
manul
manx
manya
manzini
manzoni
map
mapa
mapcarta
maps
mapuche
mapudungun
maputo
mar
mara
maradi
marahoue
marakuja
maranha
marburg
marc
marcel
marcellusflud
march
marco
marcos
marcus
marcuse
mare
mareca
marek
maren
margaret
margarete
margaretha
margarita
margeriten
marginata
marginatus
margot
margrethe
mari
maria
mariaanen
mariane
marianne
marie
marien
marijampole
marila
marin
marina
marine
marino
marinus
mario
marion
maritim
maritima
maritime
maritimum
maritimus
maritsa
mark
marke
markels
marken
marker
markes
market
marki
markt
markus
marmara
marmararegiuun
marmeloode
marmorata
marmorkaat
marmota
marmoten
marne
maroc
marokko
marquesaansk
marquesas
marrakesch
marren
marron
mars
marsch
marschal
marschboon
marschiaret
marseille
marsh
marshall
marshalleesk
marsk
marsupialia
martens
martes
marti
martin
martinen
martinique
marts
martsrewolutsion
maru
marum
marx
mary
maryland
marz
masaryk
mase
masedoonien
masedoons
masenianhaid
maseru
maseta
mashke
mashonaland
masi
masiif
masin
maskiin
maskiinen
maskiinenkraft
mass
massa
massachusetts
massaker
massalia
massana
massingir
masson
master
masty
masuuren
masvingo
masyarakat
masyr
mat
matabeleland
matam
mate
matemaatiker
matemaatisk
matemaatisken
matematiik
matemo
matera
materiaal
materialien
materials
materiol
materiool
materioolen
materjool
mathbb
mathilde
mathrm
mathsf
matiinjs
mato
matola
matricaria
matrix
matrjoschka
matruus
matsedoonien
matsedoonsk
matter
mattha
matthew
matthias
matthiesen
matthiola
mattole
matzen
mau
mauer
maugham
maui
mauretaanien
maurice
mauringer
mauritanica
mauritius
mauritsius
max
maxim
maxima
maximilian
maximowiczii
maximus
maxse
may
maya
mayen
mayenne
mayer
mayo
mayor
mayotte
mays
maz
mazama
mazo
mazz
maßnahmen
mb
mba
mbabane
mbe
mber
mboa
mbomou
mbool
mboolen
mbridge
mbum
mbundu
mc
mcdonald
mchare
mckinley
md
mde
me
mea
mean
meanchey
meath
mecha
mechaanik
mechaanisk
mechanisk
mechlenburg
mechthild
mecklenborag
mecklenborig
mecklenburg
meconema
mecu
med
medan
medelby
meder
medesiin
medesiiner
media
medica
medical
medici
medicine
medien
medienbu
medina
medisiin
medisiiner
meditsiin
medizinal
medweschjegorsk
meecht
meeden
meedien
meedium
meel
meelhurn
meen
meenachtler
meenangen
meening
meenst
meent
meenti
meer
meersch
meesing
meest
meet
meeten
meeter
meetern
meeters
meetrisk
meew
meewen
mefaar
mefo
megalotis
megarhynchos
megascolides
megawatt
meghna
megye
mehmed
mehr
mehri
mehrsprachenland
mei
meiji
meiklooken
mein
meinert
meiningen
meis
meisn
mejer
mekka
meklenbo
meklenborig
mekne
meko
mekong
meksiko
meksikoo
meksikoonsk
mel
melaneesien
melanitta
melanogaster
melanogrammus
melbourne
meldorf
meldorfer
meleagris
melen
meles
meliaceae
mellal
mello
meln
melo
melodii
melolontha
melon
melongena
melsbel
melst
meluco
melville
member
membraan
membraanen
membranacea
membranaceus
memel
memorial
men
mend
mendelssohn
mendst
mendstens
menelik
menelk
mener
menerhair
menferkiar
mengde
mengdeliar
mengden
mengen
menhti
menja
mennoniiten
menomen
menongue
mensis
mensk
mensken
menskhair
menst
ment
mentha
mentool
menu
menzel
menzies
menziesii
mer
meraude
mercator
mercedes
mercer
mercury
merel
merelaaler
mereleuroopa
merelgurt
mereln
meren
merganser
mergellus
merginae
mergus
meri
merian
meridionale
meridionalis
merk
merkel
merkurius
merkuur
merluccius
mermung
mern
merowingern
mersch
mert
merton
merula
mes
mescalero
meshanelt
mesing
mesitornis
mesken
mesopotaamien
mesopotamien
mesostigmata
mesozoikum
mespo
messenger
messina
met
meta
metaan
metafu
metal
metale
metalen
metali
metamorfoose
metamorphosis
meten
meteoriiten
meteoroloog
meteoroloogisk
meter
methanool
metjens
metood
metooden
metoodi
metrii
metrioptera
metro
metropolitan
metropolitana
metropolitansta
metropolitansteed
metropoolregiuun
metropoolregiuunen
metsola
mettmann
metuge
metuji
meurthe
mexicana
mexicanus
mexico
mexiko
mey
meyer
meyers
mez
mezir
mf
mfa
mg
mhnt
mi
mia
miadmari
miami
miaoli
miarnem
miast
miasten
miat
miatag
miaten
mice
michael
michaelisdonn
michail
micheil
michel
michelangelo
michele
michigan
michx
mickiewicz
micmac
micrantha
micranthus
microbial
microcarpa
micronesia
microphylla
microtis
mid
midden
middle
midlands
midlum
midtjylland
midway
mie
miedema
mien
miesto
miev
migration
miguel
mii
miilaan
miilen
miin
miinjd
miiren
miis
miist
miisttirs
miiten
mike
mikkelsen
mikrofoon
mikroneesien
mikroneesk
mikropil
mikrowaagen
mikula
mil
milange
mildstedt
mile
miles
mili
mililiter
milimeeter
milimeetern
milimeter
milion
milita
militeer
militeerisk
milja
miljaard
miljaarden
miljarden
miljoon
miljoone
miljoonen
miljuun
miljuunen
mill
millard
millefolium
miller
million
milne
miltenberg
milton
milvus
min
mina
minas
mindanao
minden
minera
mineraal
mineraalen
mineral
ming
mingreelien
mingreelisk
mingrelisch
minh
mini
miniatur
minima
minimus
minipil
ministeerien
ministeerium
minister
ministern
ministerpresident
ministerriad
mink
minnesota
minor
minsk
minskelk
minsken
minskenaaben
minskenefter
minskenrochten
minssen
mint
minu
minus
minuta
minuten
minutiflorum
minutus
minuuten
mio
mir
mirabilis
mirador
mirai
misch
misionaar
misionaaren
misioon
misk
misket
miss
missale
misse
mission
mississippi
missouri
mist
mistel
misteln
mistmoune
mit
mita
mitchell
mites
mitis
mitochondrial
mitochondrie
mitochondrien
mitochondrjool
mitsubishi
mittarfik
mitte
mittelalter
mitteldithmarschen
mittelfranken
mitterrand
miut
mizoram
mja
mjadsel
mjanmaar
mjarschboon
mjory
mju
mjuks
mk
mken
mkoa
mks
ml
mlada
mlauer
mle
mlik
mm
mme
mn
mne
mno
mo
moa
mobiil
mobile
mobility
mobilsicher
moc
mocenigo
moci
moco
moda
mode
model
modeli
modena
moder
modern
moderni
modesta
modrag
modularis
moduuli
moe
mogilev
moglobin
mohale
mohamed
mohammed
moi
moisant
mokhotlong
mol
moldaawien
moldaawisk
moldau
mole
moleku
molekulaarbiologii
molfsee
molie
molinia
molise
moliseslaawisk
molk
moll
mollis
mollissima
mollusca
moltke
molu
molukken
molwarper
moma
moment
momme
mommsen
momsen
mon
monaco
monako
monarchii
monastir
mondai
mondale
monde
monedula
monet
mongolei
mongols
mongoolen
mongoolisk
mongools
moniari
moniaring
monias
monilophyta
monjes
mono
monoceros
monogr
mononegavirales
monophosphat
monroe
monrovia
mons
monsuun
mont
montagnais
montagnes
montan
montana
montanum
montanus
montauban
monte
monteneegrins
monteneegro
montenegriins
montenegro
monteverdi
montevideo
montfort
montgomery
monticola
monts
montserrat
monument
monza
mooder
moodi
mool
mooler
moolerei
moolet
moolk
moolkfisel
moolksoker
moolkstruat
moolnamst
moolnem
moolnemen
moon
moons
moor
moore
moorei
mooring
mooringer
moos
moosbel
moose
mooselfrenkisk
moost
mooter
mooterspraak
mootor
mopane
mopti
mor
mora
moraceae
moraza
morbihan
mordwiinien
mordwiinisk
more
moresby
morgan
morhua
mori
moritz
morki
morlaix
morris
morrumbala
morsum
morus
mosambik
mosbach
moschata
moschatus
moschee
moschidae
moschus
moschuskru
moscow
mosel
moselle
moshoeshoe
moshulu
moskau
moslem
mossi
most
moster
motacilla
motacillidae
moto
motoor
motooren
motoorweel
motor
motorkraft
motors
motu
mouhoun
moundi
moune
mount
mountain
mountains
moussa
moussieri
mouton
moxico
moyen
mozambique
mozart
mp
mper
mperhu
mpers
mpfen
mpla
mpo
mpoko
mpumalanga
mr
mrang
mrangen
mraz
mrd
mring
mrna
ms
msalev
mshop
msk
msond
msonde
mst
mstasjoon
mstsislau
mt
mtdna
mte
mter
mtianeetien
mtidj
mtkwari
mtland
mtlik
mts
mtsforsto
mtsfri
mtsfrie
mtu
mtwara
mu
mual
mualen
muan
muar
muardu
muaren
muarhaid
muarsis
muartaal
muasem
muasemer
muchachos
muchinga
muell
muelleri
muflon
muh
muhu
muja
mujeserski
muju
mukim
mulch
mulilo
multiflora
multiplitsiarin
multitree
mumbai
mumuye
mun
munama
munch
mund
mundai
mundart
mundarten
mung
mungard
mungards
mungyeong
munici
municipal
municipalities
municipality
municipios
munisi
munisipaliteet
munisipaliteeten
munits
munjong
munkme
munkmeesk
munske
munster
muntiacus
murad
muramvya
murat
murcia
muridae
murmansk
murr
murray
mus
musa
musaceae
musala
muscaria
muscicapa
muscicapidae
musculus
museen
museeum
museo
museum
museums
music
musical
musiik
musiiker
musiikteorii
musik
musiker
musikker
muskaatno
muskaatplaanten
muskeln
muskulatuur
muss
mussolini
mustafa
mustang
mustela
mustelidae
mut
mutabilis
mutare
mutterleib
muude
muun
muunboon
muunen
muuner
muunjonken
muunt
muunten
muur
muurbeiplaanten
muuren
muusiker
muuß
muyinga
mw
mwaal
mwanza
mwaro
mwc
mwg
mwinkel
mwurden
mxarɛ
my
mya
myanmar
myeon
myeongjong
myo
myotis
myriapoda
myristica
myristicaceae
myrmeleotettix
myrtaceae
myrtales
myrtenoortagen
myrtenplaanten
myrtifolia
myrtus
mythos
mytilus
mɑ
mɑɾz
mɔ
mə
n
na
naa
naacht
naachtem
naachthemel
naachtskaad
naachtskaadplaanten
naachtswaalkenfo
naam
naamen
naamik
naan
naar
naarersaksen
naatrium
naatriumhu
naatriumkarbonaat
naatriumkloriid
naatriumnitraat
naatron
nabeul
nac
nacala
nach
nachitschewan
nachrichten
nacht
nacional
nacl
nad
nadagt
nadot
naemorhedus
nagano
nagar
nagasaki
nagoya
nah
nahe
nahouri
nahrung
nahuatl
nai
naibel
naiber
naiberlun
naiberlunen
naibern
naibi
naibu
naie
naier
naiforkiir
naimu
nairobi
nais
naischo
naist
naista
naistgratst
naisthuuchst
naistletjst
naistlingst
naistspriik
naite
naitidj
nak
naka
nakai
nam
nama
nambuangongo
name
namen
namentenga
names
namespace
namib
namibe
namibia
namiibia
namine
namp
nampo
nampula
namt
namur
nan
nana
nancy
nandu
nanduun
nang
nanga
nangbeto
nanger
nangiarn
nangimen
nangin
nangrik
nangriken
nanjing
nann
nanoarchaeota
nanortalik
nantes
nantou
naoh
naos
napa
napellus
napier
napole
napoleon
napus
nara
narcissus
nardus
narigen
naroulja
narsaq
naruhito
narutowicz
narva
naryn
nasa
nashi
nasikabatrachidae
nasikabatrachus
nasjona
nasjoone
naskapi
nassau
nassen
nastii
nat
natal
natalensis
nath
natiirli
nation
national
nationalbibliothek
nationale
nationalpark
nationalsozialismus
nations
natitingou
native
natjunaalbibleteek
natjunaalpark
nato
natrium
natriumchlorid
natschunaal
natschunaalbibleteek
natschunaalfersaamling
natschunaalfersoomling
natschunaalpark
natschunaalparken
natschunaalstruat
natschunalisten
natschuunen
natsilik
natsilingmiutut
natsionaal
natsionaalbibleteek
natsionaalpark
natsioonen
natsir
natsjona
natsjonaalpark
natsjoonen
natu
natuna
natur
natural
nature
natuur
natuursjuts
natuursku
natuurwedenskap
natwerken
nau
naukan
naura
nauru
nautilus
navajo
navarra
navassa
navya
nawahrudak
nazareth
nazis
nb
nbaank
nbai
nbechningen
nbecht
nbedingt
nbeeren
nbeka
nber
nberen
nberg
nbetuunet
nbewenet
nbo
nc
ncbi
nch
nchen
nchengladbach
nchez
nchner
ncia
ncipe
ncu
nd
ndai
ndbar
ndbare
ndbares
nde
ndebele
ndel
nden
nder
ndercodes
nderku
nderte
nderung
nderungen
ndet
ndi
ndig
ndische
ndisches
ndl
ndnis
ndo
ndr
ndreft
ndreften
ndrewen
ndst
ne
nea
neapel
neapolitaans
near
nebel
nebraska
nebulosa
neburg
nec
neckar
ned
neder
nederla
nederland
nederlandse
nederlo
nee
neeb
neebel
neederfrenkisk
neederlo
neederlunen
neederluns
needersaksen
needersaksisk
neegatiif
neegelkbuum
neegelken
neegentigst
neem
neemd
neemt
neen
neepal
neerang
nees
nefe
nefz
neg
negatiif
negatiiw
neglecta
negros
nei
neien
neier
neiguinea
neikaledoonien
neil
neimu
neimuudis
neimuuds
neimuun
neis
neisialun
neist
neitidj
neiße
nek
nekno
nel
nelk
nelken
nelkhaiden
nelson
nelumbo
nem
nema
nemark
nematoda
nemeert
nemelk
nemen
nemer
nemfisel
nemruus
nemruusen
nemso
nemt
nen
nennen
nentelk
nentsen
nentsisk
neo
neocossyphus
neofelis
neon
neotragus
nepaal
nepal
nepalensis
nephrops
neptunus
ner
neretva
nerfen
nerfensu
nergiar
nergingen
neringa
nerium
nerk
nerklas
nern
nero
nerong
nerophis
nerrocht
nerseeting
nerskreft
nerskrewen
nerst
nert
nerts
nerven
nervosa
nerwai
nes
nest
net
netherlands
neto
netto
neu
neuauflage
neubrandenburg
neuburg
neudorf
neue
neuenburg
neuendorf
neuengamme
neuer
neues
neuf
neufestsetzungen
neufundland
neugeorgisch
neuigkeiten
neukirchen
neuko
neumann
neumarkt
neumu
neuss
neustadt
neutraal
neutron
neutroone
neutroonen
nevada
never
neville
nevis
nevs
new
newa
newfoundland
newham
newpipe
newport
newry
news
newsletter
newton
newtonmeeter
newtown
nez
neđerlo
neđersaksen
nf
nfi
nfjb
ng
nga
ngaio
ngan
nganasanisk
ngbaka
ngbandi
ngd
ngde
nge
ngeberg
ngelk
ngeluin
ngen
nger
ngere
ngerer
ngerfristig
ngeri
ngewo
ngh
nghuurn
ngi
ngig
ngigkeit
ngjang
nglisch
nglo
ngounie
ngozi
ngreepen
ngso
ngst
ngt
ngu
nguema
nguni
nguye
ngwo
nh
nha
nhair
nheer
nhiir
nhinger
nhingerkupling
ni
nia
niaciin
niagara
nian
nianmetalen
niari
niassa
nic
nicaragua
nice
nichola
nicht
nickel
nickelsen
nico
nicol
nicola
nicolai
nicolas
nicolaus
nicotiana
nidovirales
nie
nieblum
niebu
nied
niederbayern
niederdeutsch
niederlande
niedero
niedersa
niedersachsen
niels
nielsen
nien
niendorf
nifra
nig
nigeeria
niger
night
nigra
nigricans
nigripes
nigrum
nigsberg
nigstein
nii
niidersaksen
niigata
niigen
niigentiger
niiger
niil
niin
niinj
niis
niisgiirig
nije
nik
nikaraagua
nikel
niken
nikephoros
nikita
nikki
nikobaaren
nikobareesk
nikola
nikolai
nikolajewitsch
nikolaus
nikosia
niks
nil
nilgus
nilo
nilootisk
nils
nim
nimba
nimen
nimer
nin
ning
ninge
ningelk
ningen
ninger
ningin
ninginen
ningrik
ningriken
ningxia
ninh
ninka
ninox
ninte
nio
nioobium
niro
nis
nisch
nischen
nischenhagen
nischer
nischni
nisk
nissan
nissen
nisus
nit
nitens
nitida
nitidus
nitra
nitraaten
niue
nivalis
nixon
nizisk
nizza
nj
nja
njaswisch
njbei
njboogere
njdriwing
nje
njen
njer
njere
njert
njfa
njfiguur
njflaak
njfurem
njgungt
njhaid
nji
njiblem
njiger
njing
njka
njkris
njkrise
njlaag
njlaagen
njlaanj
njlaanjen
njlair
njleien
njleier
njmiat
njmiaten
njmotsen
njoksfleeg
njoortagen
njpa
njsch
njsche
njschrafte
njsicht
njskuul
njskuulen
njsto
njt
njta
njtaal
njtda
njthu
njtstiinjen
njtsto
njtwikled
njtwikling
nju
njwa
njwiinjing
njwiinjinge
nk
nke
nkebel
nkelte
nken
nkieli
nkin
nkirchen
nkisch
nko
nkovice
nkrik
nkru
nksen
nkuku
nkumer
nkurenkuru
nky
nl
nla
nlaag
nlaagen
nlaanjen
nlair
nleeding
nlik
nlike
nlikha
nlikhaide
nlikhaiden
nlok
nluket
nluki
nm
nmark
nmr
nn
nne
nnemen
nnen
nnies
nning
nnrot
nnumer
no
noa
noardeast
noardhoeksk
nob
nobel
nobelpris
nobelprize
nobilis
noch
nochhuaren
noctua
noctuidae
nofember
nogh
noire
nokoue
nol
nolde
noma
nomen
nomer
nommensen
non
nongatl
noobelpris
nooch
noom
noome
noomen
noomern
noominatiif
nooni
noopen
noord
noordaasten
noorden
noordfra
noordfreeschlon
noordfreeschloun
noordfreeskluin
noordsa
noordstro
noordweesten
noorfriisk
noorsaarep
noorsk
noorst
noort
noorweegen
noorweegs
noost
nooten
noowa
norbert
nord
norda
norddeutscher
norddorf
norden
nordende
nordenham
norderdithmarschen
nordergoesharder
norderstedt
nordfrasch
nordfrasche
nordfraschen
nordfraschlo
nordfriesen
nordfriesisch
nordfriesische
nordfriesischen
nordfriesischer
nordfriesisches
nordfriesland
nordfrieslandlexikon
nordfrieslands
nordfriisk
nordfriislo
nordfriislon
nordfrisike
nordfrisland
nordhuulewkuugel
nordica
nordjylland
nordland
nordrhein
nordrhin
nordsee
nordseegebiet
nordsiie
nordstrand
nordstro
nordweest
nordweesten
nordwest
nordzypern
norfolk
norland
norm
norma
normaal
normaalerwiis
normaali
norman
normandie
normdatei
normool
normoolerwiis
normoolkra
norn
norrbotten
norte
north
northampton
northamptonshire
northern
northsea
northumberland
northwest
northwestern
nortorf
norvegicus
norwa
norway
norweegen
norwegen
norðurland
nos
not
notcategory
notch
note
notes
notgeld
nothofagaceae
notoc
notoptera
nou
nouadhibou
nouakchott
noufha
noufhingi
noun
nouvelle
nov
nova
novaehollandiae
novara
nove
november
novgorod
novi
novo
novy
now
nowa
nowaja
nowember
nowgorod
nowosibirsk
np
npaartuanet
npaset
nr
nreegelmiatig
nret
nring
ns
nsamt
nsan
nsb
nsch
nschap
nsche
nscho
nsdap
nse
nsed
nseeker
nsen
nsk
nskaja
nske
nsken
nskene
nskep
nski
nskij
nsko
nslo
nslu
nst
nste
nsteken
nster
nstig
nstiger
nstju
nstler
nstlers
nstreeken
nststof
nststofi
nsuurn
nt
ntaal
ntaalen
nte
ntem
nten
nter
ntfond
ntgen
ntgenstrualen
nther
nti
ntiaken
ntiaknin
ntico
ntiiken
ntistel
ntje
ntjene
ntjerii
ntjes
ntkast
ntkest
nto
ntrum
ntse
ntseach
ntseagersk
ntunion
ntwesken
nu
nuadag
nuadjil
nuar
nuat
nuaten
nuch
nucifera
nuco
nudiflorum
nueva
nuevo
nui
nuku
nul
nullbund
num
number
numenius
numer
numern
numernskelt
nummer
nun
nunatsiavummiutut
nunavut
nunivak
nuorunen
nur
nusa
nusse
nuts
nutt
nuttallii
nuubisk
nuuk
nuurd
nuurdafrikoo
nuurdalbingien
nuurdameerikoo
nuurdatlantik
nuurddial
nuurdeeg
nuurdelk
nuurdelken
nuurden
nuurder
nuurdermiast
nuurdermuar
nuurderuug
nuurderuugsun
nuurdeuroopa
nuurdfrankrik
nuurdfresk
nuurdfresken
nuurdfresklun
nuurdfriisk
nuurdfriislo
nuurdgermaans
nuurdgrens
nuurdholun
nuurdhualewkuugel
nuurdirlun
nuurditaalien
nuurditajeensk
nuurdkap
nuurdkareelien
nuurdkaukaasisk
nuurdkaukasus
nuurdkorea
nuurdneederfrenkisk
nuurdneedersaksisk
nuurdoseetien
nuurdpuul
nuurdrhein
nuurdruslun
nuurdsamisk
nuurdsia
nuurdsiagermaans
nuurdsiaku
nuurdsjiisklun
nuurdstrun
nuurduast
nuurduastelk
nuurduasten
nuurduastkaukaasisk
nuurdwaast
nuurdwaastelk
nuurdwaasten
nuurdwaasteuroopa
nuurdwaastkaukaasisk
nuurdwaastru
nuurdwaastruslun
nuurdzypern
nuurweegen
nuurđ
nuurđen
nuurđer
nuurđern
nuurđersir
nuurđerwuch
nuurđfriisen
nuurđfriisk
nuurđfriislo
nuurđfuar
nuurđsee
nuurđstro
nuurđte
nuurđuast
nuurđweesten
nuwa
nux
nv
nwa
nwt
ny
nya
nyala
nyanga
nyangani
nyanja
nybøl
nyc
nyctereutes
nyctibius
nyelv
nyj
nykirke
nyko
nymburk
nymphaea
nymphaeaceae
nypa
nyungaans
nz
nzas
nzburg
nze
næstved
nørre
o
oa
oan
oas
ob
obama
oberbayern
oberbergischer
oberfranken
oberhausen
obero
oberpfalz
obervolta
obja
object
objekt
objekten
oblast
oblasten
oblasti
oblonga
oblusu
oblysy
obock
obovata
obres
obscura
observatory
obtusifolium
obɫəs
oc
occidental
occidentale
occidentalis
occitanie
oce
ocean
ocellata
ochotskisk
ochrophyta
ochruros
ocimum
ocke
ockholm
oct
octavianus
october
odde
odense
odenwald
oder
odessa
odocoileus
odontoceti
odorata
odoratum
oelrichs
oenanthe
oenothera
oer
oestridae
of
ofdo
ofe
off
offenbach
office
official
officinale
officinalis
officinarum
offiziell
ofgas
ofhengig
ofhengighair
ofhengigi
ofisiar
ofisiel
ofisja
ofitsiirshu
ofnem
ofrailet
ofreten
ofsiar
ofslo
ofslu
og
ogasawara
ogen
oghuusisk
ogo
ogooue
ogou
oh
ohangwena
ohio
ohm
ohne
oi
oil
oio
ois
oise
ok
oka
okahandja
okapia
okavango
okcheon
okeechobee
okholm
okinawa
oklahoma
okpara
okres
okresy
okrug
oksiid
oksitaanien
oksitaans
okt
okta
oktober
oktoober
oktuuber
ol
olaf
oland
old
oldenborig
oldenborj
oldenburg
oldenburger
oldenswort
oldersbek
oldesloe
oldsen
oldsum
ole
olea
oleaceae
oleander
oleifera
oler
oleracea
oleraceus
olerhun
olermiist
olersem
olersemer
oles
olga
oliiwen
oliiwenbuum
oliver
oliveriana
olo
olofstro
olomouc
olonets
olonetsisk
olor
olpe
olter
olterfuul
oluf
olufs
olymp
olympisk
om
omaan
omaheke
oman
omar
ombechning
ombechningen
ombecht
ombella
omberok
ombi
ombraacht
omdo
omdrai
omega
omkemen
ommo
omnibus
omseet
omset
omsk
omto
omusati
on
onager
onagraceae
onca
oncorhynchus
ondimba
one
onega
onegasia
oner
onerdialang
onerdiald
onerdistrikten
onereno
onerfamile
onerfamilin
onergingen
onergongt
onergru
onergung
onerguwerno
onerha
onerklas
onerklasen
onern
onernemen
onernemer
onerorder
onerordern
onerordning
onerprefektu
onerracht
onerrachtet
onerschu
onersju
onerska
onerskiaselk
onersko
onerslach
onerslacher
onersoocht
onerst
onerstam
onersteld
onertiiknet
onerufdialang
onerwais
ongjin
online
only
onondaga
ononis
onopordum
ons
ontario
oo
oober
oobst
oocht
ood
ooder
oofding
oofer
oofting
oog
oogen
ooldenhuus
oome
oomram
oomrambeenk
oomrem
oomycota
oon
oonga
oonlun
ooper
oopern
oore
oornshaud
oors
oort
oorte
oos
ooseaanen
oosean
ooseanen
oosholstean
ooststellingwerf
ootseaan
oowentoft
op
opava
opel
open
opendataforafrica
operating
operatsion
ophidion
ophiostoma
opien
opilio
opilioacarida
opiliones
opinio
oposums
oppeln
ops
opsterla
optik
opulus
or
ora
oral
oran
orang
orange
orangj
oranje
orbitaal
orbitaalen
orchidaceae
orchideen
orchon
orden
order
ordermethod
ordern
ordi
ording
ordino
ordo
ordovizium
oregaano
oregon
orenburg
oreochromis
oreotragus
org
orga
orgaan
orgaanen
orgaanisk
organe
organisasjoone
organisation
organisatjuun
organisatsion
organisatsjoon
organismen
organisms
organismus
organist
organization
orgel
orhan
ori
oriental
orientale
orientales
orientalis
origanum
origin
originaal
original
originalbeha
oriks
oriolus
orion
orkester
orkestergraav
orkney
orlando
orle
orleans
orlici
orlicky
ornata
orne
oro
orobanchaceae
oromo
orrell
orsa
orscha
ort
ortervirales
ortho
orthocoronavirinae
orthographie
orthoptera
ortmann
orum
oruro
orwell
oryctolagus
oryx
oryza
os
osan
oscar
osch
osea
oseaanien
oseanisk
osec
oseetisk
osek
oshana
oshikoto
oskar
oslo
osm
osmaan
osmaanen
osmaans
osmaansk
osman
osmium
osnabru
ossenbru
ossola
ost
osteichthyes
ostenfeld
ostens
osterby
osterode
ostfriesische
ostholstein
ostralegus
ostrava
ostrea
ostrov
ostrownoi
ostsee
ostseestaal
osurgeti
ot
otfried
other
oti
otjozondjupa
otocolobus
otocyon
otostylis
otse
ottawa
otto
otus
ou
ouachita
ouachitas
ouagadougou
ouahigouya
ouaka
ouake
oubritenga
oudalan
ouddorp
ouder
oudere
ouders
oue
oued
ouer
ouerda
ouerfla
ouerhu
ouerla
ouernu
ouers
ouersacht
ouerseet
ouerseetinge
ouessant
ouest
ouf
oufsta
ouham
ouidah
ouinhi
oujda
ould
ouled
oun
ount
our
ourebia
out
outlying
outre
ov
ova
ovalis
ovambo
ovata
ove
over
overijssel
overview
ovibos
ovice
ovis
owen
owl
own
oxalidales
oxford
oxfordshire
oxidationsmittel
oz
ozarks
p
pa
paakistaan
paalau
paali
paamiut
paap
paapen
paar
paart
paartuanet
paaset
pablo
pabst
pac
pace
pacific
pacifica
pack
paderborn
padma
padua
padus
pafos
page
pages
pague
pai
pailin
paimpol
pair
pak
pakbla
pakistaan
pakistan
pal
pala
palaadium
palace
palaeognathae
palaiologina
palaiologos
palais
palanga
palast
palau
palawan
pale
palee
paleozoikum
palermo
palestiina
palestina
palisander
pall
palla
pallas
pallaskaat
pallida
palm
palma
palmas
palmeri
palmyra
paludosa
palustris
pama
pampa
pampau
pampelmuus
pan
panama
panang
panangrisang
panda
pandanaceae
pandanales
pandanus
pandemii
pandion
pando
paneve
pango
paniculata
panjabi
pankow
panoraama
panorama
panoramio
panscho
panten
pantern
panthera
pantherinae
pap
papa
papaver
papaveraceae
papaya
papel
papers
papiir
papilio
papilionacea
papio
paprika
papua
papuaans
papyracea
papyrus
para
paraati
paracetamol
parade
paradisaea
paradise
paradoxa
paradoxus
paraguay
parai
paraiso
parakou
paraleel
paralleel
paralleelakkordi
parallel
parana
parasiit
parasiiten
parchim
pardinus
pardofelis
pardubice
pardus
pare
parfu
pariis
paris
parish
parishes
park
parkplaats
parlament
parlamentaarisk
parlamentswool
parma
parodii
paroot
parque
parro
parryi
parses
part
partai
partei
partein
partement
partements
partenkirchen
parthenocissus
partisiip
partner
partnersta
party
parus
parva
parviflora
parviflorum
parvifolia
parvifolium
parvula
pas
pasaat
pasajiir
pasajiiren
pasajiiri
pasajiirskeepen
pasajiirskep
pasardschik
pascal
pascha
pasco
paset
pashto
pasi
pasiaret
pasiari
pasifist
pasiifik
pasiifikku
pasiifisk
paso
pass
passat
passau
passenger
passengers
passer
passeri
passeridae
passeriformes
pastawy
pastaza
pasuurter
patagonica
patagonicus
patagoonien
patella
patens
patent
patrick
pau
paul
paula
paullinia
paulo
paulsen
paulus
pavane
pavia
pawlowitsch
pays
paz
pazifik
pb
pbechning
pbecht
pc
pdf
pdo
pe
peace
peak
peano
pearl
pebane
pec
pecora
pedagoogisk
pedelec
peder
pedersen
pedi
pedro
pedunculata
peel
peelekaanfo
peer
peerbuum
peerbuumer
peeso
pegasus
pegunungan
pei
peipus
peking
pel
pelagicus
pelamis
pelea
pelecaniformes
pelecanoides
pelecanus
pelhr
pelkin
pellworm
pelly
pelwerem
pelworem
pelworemer
pemba
pen
pence
pende
pendjari
pendula
penelope
pengembangan
penguin
penicillata
penicillium
peninsular
penis
penn
pennata
pennsilwaanisk
pennsylvania
pensa
pensel
penselduel
penuti
people
peperomia
pepo
per
perciformes
perdix
peregrina
peregrinus
pereira
perennis
pereskia
perfekt
performance
pergament
pericallis
perife
period
periode
periodensu
perioode
perioodendu
perioodisch
perissodactyla
perm
permeabiliteet
permisk
pern
pernik
perrieri
perros
perry
persea
persica
persicaria
persien
persisk
perso
person
persoonen
persoonenfo
persoonenkilomeeter
persoonenkilomeetern
persoonentochen
persoonenwainer
persuun
persuunen
perth
peru
perugia
peruu
peruviana
pesaro
pescara
pest
pestis
pet
peter
peterborough
peters
petersburg
petersen
petiolaris
petiolata
petit
petite
petnjica
petr
petra
petrarca
petri
petro
petrosawodsk
petroselinum
petrov
petrovice
petrus
petrykau
petsamo
petschenga
petschora
pettersson
peugeot
pewenche
pf
pfalz
pfeltsisk
pfg
pflanzen
pforzheim
pgaav
pgaaven
pgaawen
pgiar
ph
phacelia
phaeophyceae
phaeopus
phaethon
phalacrocorax
phalangiidae
phalangium
phan
phanerozoikum
pharisa
phaseolus
phasianidae
phasianus
phenylephrin
phi
phil
philadelphia
philantomba
philip
philipp
philippensis
philippinen
philips
phillip
phillips
philomelos
philosophie
phnom
pho
phocidae
phocoena
phoenicurus
phoenix
pholidota
phosphor
photo
photosynthese
php
phragmites
phu
phycodurus
phyllodactylidae
phyllopteryx
phylloscopidae
phylloscopus
phylogeny
phylum
physical
physics
pi
piacenza
piader
piadermaan
piadersdai
pianist
pic
pica
picasso
pice
picea
piceno
picidae
pico
picornavirales
picture
pictus
pidder
pider
pidersdai
pidgin
piemont
piemonteesk
pier
pierce
pieris
pierre
pieter
pietro
pigmenten
piil
piin
piip
piipern
piipga
piiri
pike
pil
pilaris
piloot
pilosa
pimpinella
pin
pinaceae
pinal
pinar
ping
pingster
pingstruus
pingtung
pink
pinnata
pinneba
pinnebeerch
pinneberg
pinneberig
pinneberri
pinophyta
pinsk
pinula
pinus
pinyin
pio
pioneer
pionerski
pios
piper
pipiens
pippin
piraaten
pirkanmaa
pirmasens
pisa
pisces
pisin
pistoia
pisum
pita
pitanga
pitcairn
pitch
pitea
piter
pitersile
pitjantjatjara
pitkjaranta
pituffik
piu
pius
piđer
piđersdai
pjo
pjotr
pkemen
pken
pkw
pl
pla
plaad
plaaden
plaan
plaant
plaanten
plaantenfamile
plaantenfamilin
plaantenko
plaanteno
plaantensko
plaantenslach
plaantenslacher
plaantet
plaat
plaatin
plaats
plaatschiisk
plaatsen
plaatsjiisk
plaattjiisk
place
places
plains
plair
plak
plaket
plan
planch
planck
plancoe
planeet
planeete
planeeten
planifolia
planken
plankton
planning
plant
plantaaj
plantae
plantaginaceae
plantago
planten
planti
plants
plastik
plata
platanoides
platdu
plate
plateau
plateaux
platessa
platfasker
platforem
platforemen
platform
plathoodkaat
platichthys
platinum
platon
platt
plattdeutsch
plattdeutsche
plattdu
platylepis
platyphylla
platyrhynchos
plautdietsch
play
playa
playstore
plaza
ple
plectrophenax
pleeger
pleer
pleeren
pleistoza
pleslin
plestin
pleuronectes
pleuronectidae
pleuronectiformes
plewen
plicata
plisse
plo
ploe
ploon
plooner
ploonet
plos
plotdata
ploue
plouha
ploune
plowdiw
plu
plum
plumbaginaceae
plumbuum
plus
pluuto
pluvialis
pluz
plymouth
plzen
pm
pmaalet
pmatrix
pnem
png
pnomen
po
poaceae
poales
pobe
poc
pod
poden
podgorica
podiceps
podolsk
poelela
poems
poeppigii
poesia
poeticus
poetry
poggio
pohang
pohlmann
pohnpei
poilanei
point
pointe
poir
pol
polaabisk
polaarfoos
poland
polar
polatsk
pole
polen
poli
police
poliitiker
poliitisk
politiik
politik
politiker
politisch
politische
politisk
politsai
politsei
polk
pollachius
polo
poloonium
poltawa
polweerm
polwer
poly
polydor
polygala
polygalaceae
polyglot
polygonaceae
polygonum
polyneesien
polyneesk
polystyrool
pomelo
pomern
pomp
pompen
pompet
pompidou
poni
ponkt
ponkter
pont
pontivy
pontoppidan
pontoppidans
pooken
pool
poole
poolen
poolsk
poop
poositiif
pop
pope
popegeifask
popegein
popen
popenbel
popiir
popiiren
popo
popovii
poppo
poprad
population
populus
por
pordenone
pore
poren
porenkutern
porog
porsche
port
porta
portaal
portal
portalegre
portland
porto
portra
portrait
portreet
portsmouth
portugal
portugiisisk
portugiisk
portunidae
pos
posesiiw
positiif
positiiw
position
positsjoon
post
postma
postos
pot
potaninii
potens
potenuus
potenza
potosi
potou
pots
potsdam
potsdamer
pou
pouch
pound
pour
powder
powenets
power
pp
ppaset
ppasi
ppen
ppingen
ppm
pq
pr
pra
prachtfo
pradesh
praecox
praetermissa
prag
prahl
praia
prairies
praksis
pratense
pratensis
prato
pre
preester
preetz
prefectures
prefektu
prefektuur
prefektuuren
prefiksen
preis
preload
premier
premierminister
prens
prentet
pres
prescott
presen
presenplaanten
presens
present
president
presidente
presidenten
presidentenwool
presidentin
presidentskap
presidentskapswool
presidentskapswoolen
presl
press
presse
preta
pretoria
preusen
preussen
preußen
preußisch
pri
priapulida
price
pridgeon
priil
priilen
priimta
prima
primaaten
primeer
primigenius
primorje
primtaal
primtaalen
prince
princess
princeton
prins
prinsesin
prinsiip
print
prinz
prionailurus
pris
prisdraiern
prisdreegern
prisen
prisma
priwaat
priwoot
prize
prjascha
pro
probleem
probleeme
probleemen
problems
proboscidea
proc
procapra
proceedings
procellariiformes
procht
procumbens
production
produkt
produkten
produkti
produktjuun
produktsjoon
produsent
prof
profa
profeet
profelis
profeser
profesor
profiil
profile
program
programen
programi
programiarspriak
programiarspriaken
programme
project
projekt
prokarioten
proklamiaret
prominens
promised
pronoomen
proobe
proof
proototypen
propaganda
propan
propeler
propelern
propelers
proper
prosa
prosent
proteiin
protein
proteinen
protektoraat
proterozoikum
proto
protoanemonin
protocol
protokol
proton
protoniert
protoone
protoonen
prototyp
prototypen
protozoa
provence
provi
providence
providencia
province
provinces
provincia
provincial
provincie
provinsi
provinsie
provinz
provinzen
prowins
prowinse
prowinsen
prowinsfrei
prowinshoodsta
prowints
prowintse
pru
prufeser
pruinosa
prunella
prunus
pruschany
prusent
pruz
przewalskii
ps
psa
psephurus
pseudacorus
pseudolarix
pseudonarcissus
pseudonym
pseudoryx
pseudoscorpiones
pseudotaxus
pseudotsuga
psi
psidium
psittaciformes
pskailig
pskow
pskrewen
psku
psoolme
pstelt
psu
psyche
pt
ptain
pteeken
pteekningen
pteridophyta
pto
ptoch
ptochen
ptografii
ptolemaios
ptoon
pu
pualem
pualemplaanten
pualemrut
pualmer
puask
puaskeilun
puaskruus
pubchem
pubescens
public
publications
publiik
publikum
publique
publishing
publisiird
publisiirde
publisiirt
publius
puccinellia
pudosch
pueblo
puente
puerto
pugnax
pujol
puk
pulaarkreis
pulchella
pulcher
pulmonaal
puma
pumila
punakha
punctata
punctatissima
pungens
punicea
punkt
punta
puntagorda
puntallana
purcell
purple
purpurea
purpureus
pusa
puschkin
pusilla
pusillus
pustliidjta
pustulata
putin
putorius
putsch
puulsta
puuma
puumas
puurter
puurthidjeten
puy
pv
pvc
pwukset
px
py
pyeongchang
pygargus
pygmaea
pygmaeus
pyo
pyramid
pyramidalis
pyramiidi
pyre
pyreneen
pyrifolia
pyroglyphidae
pyrostegia
pyrrhocorax
pyrrhula
pyrus
pyt
pythagoras
pytheas
q
qa
qaanaaq
qaasuitsup
qacha
qaqortoq
qark
qarken
qarku
qasigiannguit
qenaga
qeqertalik
qeqertarsuaq
qeqqata
qi
qikiqtaaluk
qin
qing
qinghai
qquad
qtl
qu
qua
quad
quagga
quang
quarta
quartal
quartet
quartier
quartiers
quarts
quatre
quayle
que
quebec
quechua
quedens
quedensen
queen
queens
queensland
quelimane
quelle
quellen
quembo
quercus
querquedula
quetzal
quez
quezon
qui
quia
quichua
quickborn
quimby
quimper
quinara
quincy
quinoa
quintus
quirimba
quiryn
quissama
quo
quy
qwaqwa
qyedzıg
r
ra
raadio
raadioaktiif
raadioaktiwiteet
raadionukliiden
raadium
raadius
raage
raaget
raaket
raaki
raakin
raal
raamen
raantem
raantrem
raapelbuum
raar
raarten
raasien
raatsborig
raawen
raawenfo
rabat
raboe
rabstak
racemosa
racht
rachter
rachting
racibo
rad
radar
rade
radiata
radio
radioaktiif
radium
radoon
rady
rae
raf
rafael
raffael
raffaello
rafinesque
rag
ragsidj
ragstringdiarten
ragusa
rahatschou
raid
raidbei
raidga
raidiarn
raidkaat
raidpiiper
raidtromp
rail
railen
rain
rainer
rais
raise
raisen
raiset
raisi
rajo
rajon
rajoni
rajono
rajons
rajonu
rajshahi
rakeet
rakovni
rakvere
ral
ralfr
rallidae
ralph
ram
rama
ramanujan
ramaphosa
ramosa
ramosus
rampen
rampi
ramsay
ramsey
ramsloh
ramsteed
rana
rance
rand
randers
randolph
rang
range
ranges
rangifer
rangpur
ranh
ranidae
ranker
rankin
ranselsberag
rantum
rantzau
ranunculaceae
ranunculus
rapa
rapae
rapallo
raphanus
raphicerus
rapifera
rapla
raps
ras
rasen
rasgrad
rask
rasmus
rasmussen
raso
rasony
rat
rathaus
ration
ratjunaal
ratscha
ratsionaal
rattus
ratzeburg
rau
rauch
rauchen
raueg
rault
rausdorf
raut
ravenna
ravensburg
ray
raymond
rayons
rbara
rbaterii
rbe
rbed
rbere
rbet
rbi
rbil
rbilen
rbis
rbisplaanten
rbo
rbuurd
rchb
rchen
rd
rdag
rdaghaid
rdbrabant
rdc
rde
rden
rder
rdereederei
rdfreesk
rdfreesklo
rdhollo
rdirlo
rdning
rdoba
rdochter
rdochters
rdsii
rdu
rdwa
rdzong
re
reading
reagan
reagiare
reagiaret
reagiari
reaksioonen
reaktjuunen
real
reallexikon
realms
rear
rebro
rech
rechdiil
rechknaaken
recht
rechts
recklinghausen
recognition
records
recurva
recurvirostra
recycling
recyling
red
redakto
redangsbuat
redbad
redbridge
redensarten
reder
redin
redon
redonda
redunca
ree
reed
reede
reederei
reederii
reedin
reef
reeg
reegel
reegeln
reegelt
reegen
reegenst
reegent
reegiment
reegne
reegnin
reekenmaskiin
reekenmaskiinen
reeknet
reekni
reeknin
reekning
reel
reer
reeren
reert
reet
refera
referendum
referensen
referenstabel
referenztabelle
refleksiif
reform
reformatschuun
reformatsioon
reformen
refst
refstmuun
reft
reg
regen
regensburg
regent
reggio
regia
regiarang
regiarangsbesirk
regiarangsdistrikt
regiarangsdistrikten
regiaret
regiaring
regiaringsdistrikt
regiaringsdistrikten
regiaringspartei
regiaringstidj
regie
regierungsbezirk
regiiringsdistrikt
regiiringsdistrikte
regime
regina
reginae
regio
region
regiona
regionaal
regional
regionalbezirke
regionale
regione
regionen
regions
regioon
regioone
regioonen
regiso
register
registriaring
regiunaal
regiunaalferbant
regiunaalhistooriker
regiunen
regiuun
regiuunen
regjona
regjoon
regnum
regulus
rehder
rei
reich
reiche
reichert
reid
reihe
reimer
reinbek
reinhard
reinhold
reise
reizt
rejeso
rejiso
rekla
rekloome
rekord
rekuperatsjoon
rel
related
relatiif
relatiwiteetsteorii
religio
religion
religioon
religiuun
relk
relkerwiis
relkrich
rem
rembrandt
remforslu
remker
remo
rems
remscheid
remt
ren
renaissance
renate
renault
rendalli
rendiart
rendsbo
rendsborag
rendsborch
rendsborig
rendsborj
rendsburg
rene
rennell
rennes
rens
rensk
rensker
rensket
renski
rep
repens
report
representantenhu
representation
reprint
rept
reptilia
repu
republic
republiik
republiiken
republik
republika
republikaanern
republikaans
republiken
republikoons
rer
rere
rerei
rern
rers
res
rescue
research
resorten
respiratory
respu
respublika
respublikasy
rest
restaurant
restig
restionaceae
resultoot
resultooten
results
ret
reticulata
retingsbuat
retingsselskep
retingstiinst
retschytsa
retto
reuter
reutlingen
reußenko
reußenkuuge
reußenkuuger
rev
reveal
reventlou
reverse
review
revolution
rew
rewen
rewolutschoneer
rewolutschoon
rewolutschuun
rewolutsion
rewolutsioon
rex
reykjavi
reykjavik
rfo
rforsker
rfru
rfst
rfstmoune
rfu
rg
rgb
rgen
rgens
rgensen
rger
rgerkrich
rgerkriich
rgerma
rgermeister
rgii
rgiraat
rgisk
rgph
rgung
rgunger
rhabarber
rhammar
rhamnoides
rhea
rhein
rheinfrenkisk
rheingau
rheinisch
rheinisk
rheinlun
rheum
rhiird
rhin
rhinanthus
rhincodon
rhine
rhinlo
rhinoceros
rhinozeros
rhistoore
rhizophora
rhizophoraceae
rho
rhode
rhodium
rhododendron
rhoeas
rhone
ri
ria
riad
riadhu
riam
rian
riaper
riau
ribe
ribeira
ribes
riboflaviin
ric
rica
rich
richard
richardson
richmond
richsem
richt
richter
richthofen
richtmuun
ricinus
rickling
rico
rida
ride
ridge
ridibundus
ridleyi
rie
riecken
riemann
ries
riese
rieti
riewerts
rif
rig
riga
rigen
riger
riget
right
rightarrow
rigi
rigida
rigolet
rigst
rigt
riiblisen
riimen
riin
riinfreenken
riiw
riiwels
rijn
rik
rikdom
rikelk
riken
riko
rikskansler
rila
rimen
rimini
rin
ring
ringen
ringer
rings
rinjt
rinken
rintidj
rintidjen
rintu
rinweeder
rio
riot
rip
riparia
ripen
ripuarisk
ris
riseltoote
risem
risiko
risk
riskeepen
riskep
riskepslinie
rissa
ritoft
river
rivera
riviera
riß
rj
rjasan
rje
rjocht
rk
rka
rke
rkei
rkem
rkemen
rken
rketpla
rkiis
rkisch
rkischer
rkisk
rklik
rko
rkomt
rkreiser
rkrise
rksen
rkskuuch
rlik
rlike
rlis
rlisdiarten
rlitz
rlun
rluuper
rm
rmaan
rman
rmaskiin
rmaskiinen
rme
rmer
rmeter
rming
rmland
rmung
rn
rna
rnangen
rnberg
rnberger
rne
rnem
rner
rnerkirchen
rnfja
rnija
rnin
rnk
rno
rnruar
rnsdai
rnsk
rnswaalk
rnten
rnu
rnum
ro
road
roadster
robbi
robert
roberta
roberts
robin
robusta
robustus
rocha
roche
rochen
rochester
rocht
rochten
rochter
rochtfo
rochthuk
rochting
rochtingen
rochtkant
rochts
rochtskriiwing
rochtswedenskapen
rochtswedenskapsmaan
rochtwinkelt
rock
rockefeller
rockii
rocky
rod
rodena
rodentia
rodiei
rodr
roeloffs
roeseli
roeseliana
roeselii
roger
rok
rol
rolen
rolf
roll
rom
roma
romaanik
romaans
romaansk
romagna
romagnol
roman
romani
romania
romantiik
romantik
romoon
romoonen
ron
ronald
rondo
ronneby
roo
roodium
roog
rook
rookgas
room
rooma
roomelse
roomsch
roos
roosevelt
root
rooten
ropax
roque
roro
ros
rosa
rosaceae
rosales
rosario
rose
rosea
roseau
rosen
rosenheim
rosken
roskilde
rosmarinus
ross
rosso
rostkaat
rostock
rostow
rostratus
rostrenen
rote
rotenburg
roth
rothschild
rottal
rotterdam
rottumeroog
rottumerplaat
rotundifolia
rou
rouane
rouen
rousseau
route
rov
rover
rovigo
rovuma
rowley
rowling
roxb
roy
royal
roz
roßlau
rp
rper
rpomern
rps
rpsdiil
rpsskelt
rpsskeltern
rrach
rri
rro
rromaanik
rs
rsalev
rsbuum
rsbuumplaanten
rsch
rschiinjlik
rsdai
rsdi
rseet
rsen
rser
rshopern
rsi
rsidj
rsk
rskaja
rskbaan
rskij
rsklo
rskrewen
rsku
rslach
rslacher
rslook
rslun
rsnit
rspring
rst
rsta
rstaaler
rsteed
rstel
rstelangen
rsteld
rsten
rstendoom
rstengrube
rstidj
rstof
rstoof
rstook
rstuf
rt
rta
rtang
rtangen
rte
rtebeker
rtel
rtele
rtemba
rter
rterbuch
rterbuchstelle
rterlexikon
rterliste
rtet
rtewa
rtgas
rth
rthersee
rti
rtiaken
rtica
rtie
rtig
rtiger
rtigst
rto
rtochduum
rtoner
rtoochdoom
rtorn
rts
rtse
rtsen
rttemba
rttemberg
ru
ruacana
ruad
ruadbarsch
ruadbo
ruadsto
ruanda
ruar
ruarstiin
ruarstiiner
rubecula
rubens
rubiaceae
rubiginosa
rubra
rubrum
rubus
ruby
rucervus
rucht
ruchte
ruchts
rudolf
rudolph
rudolstadt
rue
rueppelli
rufa
rufescens
ruficollis
rufus
ruggiero
rugosa
ruhigstellen
ruhr
rul
rule
rulsto
rum
ruma
rumantsch
rumeenien
rumeens
rumeensk
rumex
rumija
rumonge
rump
runciman
rund
runde
rundfunk
rundi
rundschau
runees
rung
rungholt
rup
rupestris
rupicapra
rupicola
rural
rus
rusa
ruse
rusen
rusiinsk
ruslo
ruslun
russell
russia
russians
russisch
rustica
rusticola
rut
ruta
rutaceae
rutana
ruteenium
ruteensk
ruter
ruth
rutherford
ruu
ruubel
ruuder
ruunen
ruunenra
ruunenstian
ruus
ruusa
ruusen
ruusenoortagen
ruusenplaanten
ruusmariin
ruuwdiart
ruuwdiarten
ruyigi
ruz
rv
rva
rvi
rw
rwanda
rwe
rwedenskapen
rwedenskapsmaan
rwen
rwes
rwool
rwth
rwu
rwurd
rwurden
ry
ryanggang
rychnov
ryu
rz
rzburg
rzel
rztliche
rztlichen
rður
rødovre
rømø
rı
s
sa
saa
saaba
saaben
saacht
saad
saag
saagen
saak
saakaschwili
saaken
saal
saaldiil
saale
saalfeld
saalt
saalten
saaltplaanten
saaltsu
saaltweeder
saamelno
saamelt
saamlang
saamlet
saamli
saamlin
saamling
saamlingen
saan
saarbru
saare
saaremaa
saarep
saarepskilten
saarepsno
saarlo
saarloun
saarlun
saarpen
saat
saaten
saaterfrasch
saaterfrasche
saaterfresk
saaterlo
saaterlun
saatet
sabieh
sacatepe
saccharomyces
saccharomycetales
saccharum
sacha
sachalin
sachsen
sacht
sachthaid
sackville
sadel
sadeling
saen
safi
saft
sagaar
sagen
sagora
sagt
sahara
saharaansk
sahel
sahtu
sai
saien
saiga
saigrajewo
sail
sailen
sailing
sails
saint
sainte
sair
saison
sait
saka
sakamensk
sake
sakelaad
sakia
sakiet
saksen
sal
sala
salamandra
salamandridae
saldooten
sale
salem
salev
salew
salicaceae
salicifolia
salicina
salicornia
salientia
salihorsk
saline
salix
saljut
salliaruseq
salmo
salmon
salmonidae
salmoniformes
salomoon
salomoonen
salon
saloot
saloum
salpeeter
salpeetersu
salring
salt
salto
salvador
salvadorina
salvelinus
salvia
salwadoor
salwei
salwer
salwern
salwit
salzburg
salzgitter
sam
sama
samar
samara
samba
sambesi
sambia
sambucus
samcheok
same
samer
samermoune
sami
samisk
sammarineesk
sammlung
samoa
samojedisk
samos
samouelle
sample
samsun
samsung
samtgemeen
samtgemeenen
samts
samuel
samur
samurai
samvat
san
sana
sancti
sand
sande
sandelholtbuum
sandelholtbuumer
sandelholtplaanten
sandesberag
sandesneben
sandi
sandro
sandveld
sandvicensis
sandwich
sandwichbo
saneene
saner
sang
sanga
sangen
sangha
sangju
sango
sanguie
saninj
sanjonken
sankarani
sankt
sankuru
sanlu
sans
sansevieria
sansibar
sanskrit
sansu
sant
santa
santalaceae
santalales
santalum
santana
santander
santare
santdeem
santi
santiago
santiano
santo
santos
sao
saosjorsk
sapindaceae
sapindales
saponiin
sapotaceae
sar
saragossa
sarah
sarajevo
sarajewo
saratow
sarcoptiformes
sardiin
sardiinien
sardina
sardisk
sark
sarken
sarkenslaawisk
sarkhoof
sarkozy
sarkspal
sarkspalen
sars
sarsr
sarthe
sas
saskatchewan
sassandra
saster
sastersta
sastersteeden
sat
sate
satelitenbil
satellit
satellite
saten
saterfrasch
saterfriesisch
saterfriesische
saterfriesischen
saterfriesisches
saterland
saterlo
satiirisk
satirische
sativa
sativum
sativus
sats
saturn
saturnus
sauces
saudi
saul
sauna
saurimo
savage
savalou
savanes
savannah
save
savivaldybe
savoie
savona
savorgnan
sawat
saxatilis
saxony
saŋ
sb
sbel
sbloosen
sc
scabiosa
scabra
scandens
scarus
scathophaga
scathophagidae
sch
scha
schaal
schabinka
schadens
schaduw
schaefersphilippen
schaffhausen
schafflund
schal
schan
scharbeutz
scharkauschtschyna
scharrel
schauer
schauspeler
sche
schefflera
scheidemann
schelde
schellenberg
scheme
schen
schenefeld
schengen
schetsing
schewtschenko
schiermonnikoog
schiff
schiffe
schifffahrtsamt
schiina
schiinees
schiineesk
schiisk
schiisken
schiisklun
schimmelreiter
schineesk
schizomida
schklou
schla
schleesien
schleesisk
schlei
schlesen
schleswig
schleswigscher
schlieffen
schlo
schlobin
schloss
schloun
schltr
schlu
schmidt
schmitz
schnaps
schnee
schneekluth
schneider
schnitt
scho
schobu
schocht
schoeniclus
schoenoplectus
schoenoprasum
schoguunen
scholten
scholz
schon
schongster
schoobel
school
schools
schopenhauer
schott
schottel
schoule
schoulere
schraawen
schraft
schraftlik
schraftspra
schrahe
schrank
schriif
schriwe
schriwen
schriwer
schriwster
schriwstere
schriwwis
schriwwise
schro
scht
schtschutschyn
schu
schuarden
schubert
schucht
schuh
schuld
schule
schulwo
schulze
schumann
schumen
schumilina
schutzhandschuhe
schutzkleidung
schwa
schwaben
schwabstedt
schwandorf
schwarz
schwarze
schwarzenbek
schwarzwald
schweinfurt
schweiz
schwere
schwerin
schwyz
schytkawitschy
sciadopityaceae
science
sciences
sciuridae
sciurus
sclateri
sco
scolopacidae
scolopax
scomber
scombridae
scophthalmus
scopulorum
scorpiones
scotia
scotland
scott
screenshot
scrofa
scrophulariaceae
sct
scullin
scyliorhinus
sd
sdiarten
sdorf
sdu
sduk
se
sea
seaborg
seal
search
seat
sebastes
sebastia
sebastian
secale
sechelk
seckler
second
sect
sed
sedelsberg
sediment
sedimenten
sedlec
sedum
see
seebad
seebel
seebras
seed
seede
seedelsbierich
seedorf
seefaarers
seefaart
seegebeerch
seegeberri
seegen
seegna
seeken
seeker
seekerer
seekerhaid
seekerhair
seekeri
seekrin
seeks
seekst
seeksta
seekstanj
seekstanjst
seekstgratst
seekstgrutst
seelew
seeliren
seelo
seelskap
seelter
seelterfra
seelterfrasch
seelterfrasche
seelterlound
seeltersk
seen
seenegal
seenken
seenksteeden
seerie
seerien
seerienauto
seerientoch
seerii
sees
seesel
seesje
seet
seeteeken
seeth
seetplaatsen
segeba
segebeerch
segeberg
segeberig
segebo
segescha
segetum
sehr
sei
seidler
seife
sein
seine
seiner
seit
seiten
seitz
sejo
sejong
sek
sekani
seker
sekerhair
sekering
sekreteer
seksioonen
seksisk
seksjoon
sektion
sektioonen
sektjuun
sektoor
sektooren
sektsioon
sekund
sekunda
sekunde
sekundeer
sekunden
sekundi
sel
selag
selassie
selatan
selayar
selbiologii
selecta
seleen
selen
selenga
selenge
selenginsk
selenogradsk
selent
selger
seli
selim
seljwa
selk
selkial
selkupisk
sell
sellowiana
selma
selo
selskap
selskep
selskepen
selvagens
sem
semant
semarang
semer
semiitisk
semlja
sempervirens
sempervivum
sen
senaat
senaator
senbianer
senchi
send
sendai
sender
sene
seneca
senecio
senegal
senegaleesk
senegalensis
senen
senenskiin
senep
sener
senerk
senerlig
senerligi
senerligs
senf
seninj
senknober
senna
senqu
sensiif
senskiin
sensooren
sensu
sent
sentimeeter
sentraal
sentraalbeenk
sentraalkomitee
sentraalmasiif
sentrum
senweening
seocheon
seongjong
seongju
seonjo
seoul
sep
sepium
sept
septa
september
septembermuun
septentrionalis
ser
seram
serben
serbien
serbisk
serbokroatisk
sere
seremoniel
seretse
sergejewitsch
sericata
sericea
serie
series
serinus
sermersooq
sern
serowe
serpens
serrata
serrator
serratum
serratus
serrulata
sertularia
serval
server
service
seschelen
sesotho
sessilifolia
sester
sesterskep
set
setacea
setaceus
setereke
setminus
seto
setswana
settat
settlement
settlements
setu
severe
severin
severo
sevilla
sewastopol
sex
seychelles
sfa
sfax
sfk
sfsr
sg
sh
sha
shaanxi
shakespeare
shan
shandong
shanghai
sharing
she
sheading
sheano
shell
shelter
sheridan
shetland
shi
shift
shiftphone
shihuangdi
shikoku
ship
shire
shizuoka
shkode
sho
shona
shop
shore
short
shoto
show
shqipe
shu
shual
shualer
shurn
shurner
shuttle
si
sia
siabeer
siabeeren
siabo
siad
siadgus
siadplaanten
siaengde
siafaard
siafo
siafoorer
siaga
siages
siahaas
siaheken
siahu
siakaater
siaki
siakoord
sial
sialaks
sialia
sialidj
sialun
sialuns
siamaan
siamiil
siamiilen
siamo
sian
siana
siap
siapeegel
siapenbuumer
siarem
siaruusplaanten
siaslacht
siasta
siawai
siaweeder
siberia
siberian
sibiirien
sibiirisk
sibirica
sibirisch
sibylla
sic
sich
sicht
sichuan
sicula
sid
side
sident
sidi
sidj
sidjen
sie
sieben
siebenbu
sieboldii
siebs
sieg
siegen
siegessa
siegfried
siehe
siek
siemens
siemer
siena
sierra
siewertsen
sig
sigibert
siglitun
sigmaringen
sign
signa
signaal
siguiri
sii
siid
siidelt
siidlang
siidlangen
siidlern
siidlung
siidlungen
siie
siielo
siig
siigbleedplaanten
siigen
siik
siil
siild
siilern
siilfo
siilkuters
siilo
siinj
siinst
siinsten
siir
siisal
siisen
siisenspaner
siisensto
siit
sik
sikaalisk
sikasso
siker
sikerin
sikis
sikkim
sil
silene
silenth
sileo
silere
silew
siliana
siliitsium
silikaaten
silinder
silistra
silkeborg
silla
silt
silur
silver
silvestris
silwen
sim
sima
simbabwe
simbirsk
simon
simonszand
simple
simplex
simpson
sims
simum
sin
sina
sinai
sinan
sinapis
sind
sine
sinende
sinense
sinensis
sing
singapuur
singe
singen
singer
singhaleesk
single
singt
sink
sinkyone
sino
sinotibeetisk
sinsen
sint
sintenisii
sinti
sinuata
sinus
sio
siologii
sion
sir
siren
sirenia
sirenik
sirenslach
sirep
sirius
sirocco
sis
sisalana
sische
sisimiut
sisk
sissili
siswati
sit
site
sitroon
sitroonen
sitsen
sitten
sivas
sive
six
siz
siziilien
sizilians
sizilien
sj
sjanno
sjauer
sjauerdu
sjauerhuk
sjauerkaant
sjep
sji
sjii
sjiina
sjiinakual
sjiinen
sjiisk
sjiisken
sjiisklun
sjineesen
sjineesk
sjip
sjis
sjit
sjo
sjocht
sjongen
sjongfo
sjongster
sjongswaan
sjongt
sjongtroosel
sjoten
sju
sjuard
sjuarden
sjuk
sjukmaskiin
sjung
sjungen
sjuts
sjuurd
sjælland
sk
ska
skaad
skaafet
skaafin
skaala
skaalen
skaas
skafet
skafi
skag
skagerrak
skaisto
skaja
skak
skal
skala
skalice
skalnasda
skalnastal
skalot
skan
skandinaawien
skandinaawisk
skandium
skap
skapen
skapsferkiar
skarep
ske
skeb
skebet
skebin
skeeb
skeeben
skeel
skeelt
skeepen
skeer
skek
skeken
skel
skele
skelen
skelet
skelfask
skelt
skelter
skeltern
skemel
sken
skep
skepen
skeps
skepsdiesel
skepsfaart
skepswerev
sket
ski
skiar
skiaren
skiermu
skiifer
skiin
skiinboor
skiiw
skiiwen
skij
skilt
skin
skinjt
skirem
skiremplaanten
skit
skitir
sklo
skluin
sko
skol
skolen
skolepdiarten
skolepkrepdiarten
skolerdok
skopje
skorbu
skoren
skorpioonen
skorteldok
skostiiner
skotlo
skotlun
skots
skotsk
skr
skra
skraal
skraft
skraftelk
skraften
skraftspriak
skrafttiaken
skramel
skramelnumer
skramelnumern
skreev
skreew
skref
skrefen
skreft
skreften
skregeljuar
skregeljuaren
skrekeljaar
skrekeljaaren
skrekelkast
skrekelstroom
skrekelt
skrewen
skriif
skriift
skriifwiis
skriiv
skriiw
skriiwen
skriiwer
skriiwern
skriiwers
skriiwing
skriiwwa
skriiwwiis
skrikfo
skringeltoon
skriwer
skroben
skrobflenerken
skrook
skru
sku
skua
skuch
skul
skulptuuren
skur
skuul
skuulen
skuulma
skuulmaister
skuulsters
skuur
sky
skybar
skylge
skłodowska
sl
sla
slaaget
slaageti
slaagi
slaang
slaangdreeger
slaanger
slaanj
slaaw
slaawen
slaawenhanel
slaawerei
slaawische
slaawisk
slach
slachen
slacher
slacht
slagelse
slain
slait
slam
slams
slang
slapen
slaswik
slatina
slauharad
slave
slavey
sleeben
sleep
sleeper
sleesisk
sleeswich
sleeswig
sleeswii
slem
slesvicense
slesvig
slf
sliik
sliike
sliiwen
slim
slimialer
slimsocial
slimst
sliwen
slo
slob
slober
slonim
slood
sloot
slope
slot
slovakia
slowaakisk
slowaka
slowakei
sloweenien
sloweens
sloweensk
slowenien
slowinsisk
slu
sluat
sluch
slun
slutsk
sm
sma
smaag
smak
smaljawitschy
small
smaragd
smarhonj
smarkin
smart
smartphone
smartphones
smc
smcs
smedjebacken
smeel
smeer
smellingerla
smen
smet
smetana
smeten
smink
smit
smith
smithii
smithsonian
smoarge
smog
smok
smokhaid
smolensk
smoljan
smolt
smu
sn
sna
snaak
snaake
snaakehttp
snaaket
snaket
snaketi
snaki
snaps
sne
snek
sneken
snepen
snits
sno
snootebel
snu
so
sobe
socialist
socialistic
society
sodenang
soest
sofala
sofern
sofia
sofo
sofort
software
soglo
sogn
sogoor
soholm
soholmer
sok
sokbaro
sokcho
soken
soker
sokerpualem
sokerraid
sokerro
sokode
sokollu
sokotra
sokrates
soks
sokst
sokstiger
sol
sola
solanaceae
solanales
solano
solanum
soldaaten
soldoot
soldooten
solea
solenodon
solenostomus
soli
solingen
soll
solo
solobus
solomon
solothurn
som
somaali
somaalia
somaalilun
somalensis
somateria
somer
somermuun
somern
somersankiar
somerset
somerspalen
somit
somme
sommerwind
somrem
somtirs
son
sonchus
sonderburg
sondrio
song
songhai
songs
soninke
sonneberg
sonnenbestrahlung
sono
sonora
sooben
soocht
soon
soong
soongreewlang
soonk
soowen
soowenst
soowentiger
sophia
sophie
sophien
sopra
sor
sorbe
sorben
sorbisch
sorbische
sorbischspra
sorbisk
sorbus
sorghum
sori
sortawala
sortiaret
sorø
sos
sosiaal
sosiaaldemokraatisk
sosialistisk
sosnowskyi
soster
sotavento
sotho
sotouboua
sotsiologii
souk
soul
soum
sound
soundtrack
source
sourceforge
sourou
sous
souss
sousse
south
southampton
southend
southern
southwark
sove
sovetskaja
soviet
sowat
sowie
sowjet
sowjetisk
sowjetrepubliik
sowjetru
sowjetunion
sowjetunioon
sp
spa
spaanien
spaans
spaaret
spaari
spaarikasen
space
spach
spain
spal
spalen
spandau
spanien
spaning
spanish
spanje
spansk
spant
spanuth
sparag
spargel
spargeloortagen
spargelplaanten
sparger
sparisoma
spartina
spas
spasahorn
spathodea
spatsiari
spatula
spd
spec
special
species
speciosa
spectabile
spectabilis
speegel
speening
speino
spektrum
spel
spele
spelet
spelster
speothos
spergula
sperma
spermatophyta
spermiziidi
spessart
speyer
spezia
sphagnum
spheniscus
spi
spicata
spicatum
spiegel
spikeliaret
spinescens
spinosa
spinosissima
spinoza
spiralis
spiro
spitaakel
spitsbergen
splaanten
spleed
splendens
split
splitter
spo
spoken
sponsa
spoonien
spoonsk
spoonsken
sport
spra
spraak
spraaken
spraakfamiilien
sprache
sprachen
sprachfamilien
sprachkontakt
sprachkontakte
sprachkurs
sprachlehre
sprachlicher
sprakebu
spree
spreecht
spreeg
spreege
spreegen
spreegennamibia
spreeger
spreegern
spreegers
spreegertaal
spreegwiisen
spreegwurd
spreegwurden
spreegwurdleksikon
spreek
spreeke
spreeken
spreekers
spreekwiis
spreekwiisen
spreng
spriadkoord
spriak
spriaken
spriakenfamile
spriakfamile
spriakfamilin
spriakkurs
spriakregiuun
spriakwedenskap
spriakwedenskapsmaan
spriakwiis
spriakwiisen
sprichwo
spriik
spriiken
spriikfamilje
spriikwedenskapsmaan
spriikwiis
spriikwiise
spriikwiisen
spriikwisen
spring
springe
springer
springfield
springflud
springs
sprit
spro
spru
spruch
spu
spur
spuul
spuulen
sq
sqrt
squadron
squamata
squamosa
square
squez
sr
sri
srii
sroot
srooten
srp
srpska
ss
ssaarep
ssdna
sse
ssel
sseldorf
ssen
ssig
ssigkeit
ssp
ssr
ssrna
sst
sstoofmelen
ssw
st
sta
staacken
staal
staalin
staan
staant
staapken
staat
staaten
staatjis
staatus
stabelholm
stabiil
stachys
stade
stadler
stadt
staheu
stair
stairen
stak
staken
stalin
stalingrad
stam
stama
stambuum
stamer
stamt
stan
stand
standard
standards
stang
stanislaus
stanisław
stanley
stann
stant
staot
stapelholm
stapf
star
stara
stare
stareft
stark
starken
starker
starkhair
starkst
starnberg
starobogatov
starostin
starr
start
starter
startet
stary
staryja
stat
state
staten
states
station
statistical
statistics
statistik
statistikamt
statistikregionen
statistique
statistisches
statistisk
statsjoon
status
staub
stausia
stawropol
ste
stechow
sted
stedesand
steed
steeddial
steeddialen
steeddistrikten
steeden
steedenwiis
steedgemeend
steedgemeenden
steedgraafskap
steedgraafskapen
steedkomuun
steedkreis
steedkreiser
steedregiuun
steedstoot
steeg
steegmagen
steegro
steekdoos
steeker
steel
steem
steemen
steensen
steeplechase
stefan
stefano
steget
steht
steiermark
steiger
stein
steinborig
steinborj
steinburg
steinfurt
stek
steken
stel
steld
stelfertreeden
stellaria
stellaris
stellata
stellingwerfs
stelt
stem
stemaatik
stemen
stemet
stemgaafel
stemgiraaten
stemi
steming
sten
stenfa
stenopetala
stenophylla
stenophyllum
stenrik
stens
stephan
stephanie
ster
stera
steradiant
sterbotten
stercoraria
stercorarius
sterew
stergo
sterheewer
stern
sterna
sternbrook
sternidae
sternorrland
sterreich
sterrik
stersta
stersund
stet
stettin
steuben
steud
steven
stevia
stewa
stewart
stfrasch
stfrasche
stfraschlo
stfreesklo
stgebiite
stgra
stholstiinj
sti
stial
stian
stianang
stianbaker
stianbitjer
stianborch
stianbot
stianer
stianfru
stiankauts
stianko
stiankoralen
stianood
stianpo
stiantidj
stianwinjer
stica
stich
sticht
stiftang
stifting
stiftung
stig
stiger
stigst
stiil
stiin
stiinborj
stiine
stiiner
stiinern
stiinj
stiinjborj
stik
stikstoof
stikstuf
stimmen
stimpson
stine
sting
stipendium
stirbt
stirem
stiremt
stirling
stirme
stizorhina
stjarttru
stjo
stju
stlaanj
stlein
stlik
stlo
stlun
stmanland
sto
stockholm
stockmann
stof
stoffe
stoffen
stofi
stohai
stolba
stolberag
stolin
stolpersteine
stolt
stolypin
stomp
stone
stonger
stooch
stood
stoof
stoofwaksel
stookfask
stookruusen
stool
stoont
stoorew
stoot
stoote
stooten
stootsbaas
stootsboowenho
stootsboowenhood
stootsmaan
stootsminister
stootspresident
stordistriktet
store
storemflo
storemmuun
storev
storew
storewen
stories
storm
stormarn
stormflo
stormmoune
stov
stowell
stp
str
stra
straal
straat
straaten
straatenforkiir
strai
stralsund
strand
stranded
strateegisk
straubing
straus
strausen
strausenfo
straße
straßenbahn
stre
streden
streed
streek
streeken
streeng
streengen
streengenlaag
streenger
streengern
street
streetscooter
streg
streget
streicher
strelitzia
strelitziaceae
strepera
strepsiceros
stresemann
strg
striata
stricta
stricto
strictum
strid
stride
stridj
stridjen
stridjkreeften
strigamia
strigidae
strigosa
strimel
strimler
string
stringen
stripen
strir
strix
stro
strooling
stroom
stroomer
stroomkraft
stroomnat
stroomofnemer
stroomstarkhair
stroote
stroun
strow
stru
strualen
strualflikerten
struat
struaten
struck
structure
strukelje
struktur
struktuur
struktuurformel
strun
strunfresk
strunkru
struthio
struthionidae
struthioniformes
struum
struume
struumer
struumfeerer
struumma
struwwelpeter
strychnin
strychnos
stsiie
stu
stuart
student
studenten
studiare
studiaret
studiareti
studiari
studiarin
studien
studies
study
stuk
stun
stunbil
stunde
sturem
sturemflud
sturemfluden
sturemfo
sturm
sturnus
sturwen
stuttgart
stutthof
stuudien
stuudium
stuun
stuunt
stwa
stwai
style
stylosa
su
suart
suartbu
suarten
suartfutkaat
suarthoodet
suas
sub
subatlantikum
subdialect
subfamilia
subg
subgruppe
subjekt
subjektiif
subkingdom
sublimed
subseteq
subsp
substantiif
substrootspra
subtroopen
subtroopisk
subulata
sucht
sucre
sud
sudaan
sudan
sudeticus
sudoc
sueben
sueskanaal
suffolk
sufiksen
sugcestun
sugihara
sugpiaq
suhl
sui
suidae
suk
suken
sukjong
sul
sula
sulawesi
sulfaaten
suliformes
sullivan
sultaan
sultaanen
sultan
sultanaat
sulzbach
sum
sumatera
sumatra
sumatrana
sumba
sumbawa
sumeerisk
summer
summit
sumter
sun
sunbeenk
sunchang
sunda
sundaneesk
suner
sung
sunjo
sunkaat
sunstian
sunt
suoja
suojarwi
suomi
supergroup
superior
sur
surabaya
suragt
surge
suriname
surrey
survey
surveys
sus
suspensjoon
suspensjoonen
sussex
suster
sut
suttner
sutton
suu
suulu
suur
suurinam
suurpiiri
suurt
suurten
suurter
suutjis
suv
suva
suwereen
suwereenen
suwereeniteet
suwereniteet
suyu
sv
sva
svalbard
svaton
svaty
sve
svecica
sven
svendborg
svg
svi
sw
swa
swaak
swaalken
swaamp
swaampen
swaan
swaanen
swaanenbruad
swaar
swaarer
swaaret
swaarhair
swaarhairen
swaari
swaarkra
swaarmetal
swaarponkt
swaasi
swaasilun
swaawel
swaawelsu
swadesh
swahili
swais
swaiset
swaisgiraat
swaisi
swaisin
swaisstair
swaiswain
swaiswiir
swaits
swaitser
swak
swakop
swakopmund
swampy
swan
swaneetien
swanisch
swark
swarken
sweden
sweebisk
sweeden
sweedisch
sweeds
sweedsk
sweet
sweits
sweitser
swerdlowsk
swet
sweten
swetga
swetlahorsk
swetlogorsk
swetly
swetweeder
swiasing
swietenia
swin
swinbei
swinbeien
swing
swinsbasen
swinsrag
swinswaaler
swir
swislatsch
swjatlana
swo
swu
swum
sy
syddanmark
sydney
sydslesvigdansk
sylhet
syllabics
sylt
sylter
sylterfriesischen
sylvatica
sylvestris
sylvia
sylvicapra
sylviidae
symbool
symphytifolius
syn
syncerus
syndrome
syngnathidae
syngnathiformes
synje
synthese
syrakus
syrien
syringa
syrja
syrphidae
syst
systeem
systeeme
systeemi
system
systema
systems
syzygium
sz
szczepanek
szukalski
sønder
sønderborg
sønderjysk
sɑ
sɛ
t
ta
taa
taacht
taachten
taak
taal
taalen
taalenkuugel
taalenteorii
taalibaan
taalkunde
taaltiakens
taamil
taanj
taapiir
taarbert
taarep
taarepsfertreeding
taarpen
taastrup
taatje
tab
taba
tabak
tabanidae
tabanus
tabel
tabele
tabeli
tabellen
tabiteuea
table
tablet
tableten
tablets
tachentiger
tachentigst
tachybaptus
tacitus
tadjikistaan
tadjourah
tadorna
tadorninae
tadschiikistaan
tadschiiks
tadschikistan
tadsen
taean
taebaek
taejo
taejong
taeniolatus
tafilalet
taft
taftem
tag
tagaalog
tageblatt
tagish
tahiti
tahitiansk
tahltan
tahoua
tahr
tai
taichung
taifuuner
taiga
tail
taimyr
tain
taipeh
taisho
taitung
taiwaans
taiwan
takakiophytina
taksi
takson
taksonomii
takste
takti
tal
taland
talas
talatschyn
talen
talent
tales
tallinn
tamarix
tamazight
tambacounda
tambo
tamil
tammy
tams
tamsulosin
tan
tanacetifolia
tanacetum
tanach
tanacross
tanana
tanebuum
tanekas
tanen
tang
tanga
tangelo
tangent
tanger
tangerang
tangstedt
tanguie
taning
taningsta
tank
tankstair
tanlalle
tannenberg
tanno
tano
tansania
tansaniia
tantaal
tante
tanzania
taol
taoude
tapirus
tarandus
tarapaca
taras
tarawa
taraxacum
tarentola
tarf
tarifa
tarija
tarn
taro
tarragona
tarsius
tarso
tartu
taschenlexikon
tasmaanien
tasman
tasmania
tastatuur
tata
tataarisk
tataouine
tatar
tatarica
tataricum
tatarisch
tatarische
tatarstaan
tating
tatort
tatra
tau
tauchen
taudu
taue
tauen
tauet
taui
taunus
taurage
taurotragus
taurus
tausis
tauspriakag
taust
taustuuningen
tautaal
tauwain
taxaceae
taxman
taxodium
taxonavigation
taxonomy
taxus
taycan
taylor
taz
tazacorte
tba
tbech
tbecht
tbraacht
tc
tchad
tchamba
tchaoudjo
tchaourou
tda
tdeer
tdo
tdru
te
teaater
teaaterspeler
teaaterstaken
team
teau
teaulin
technik
technikmuseeum
technische
technisk
technologii
technology
techt
techter
techtmaaket
tee
teedenbel
teef
teeken
teekner
teeknet
teekning
teekningen
teel
teelen
teeli
teelt
teema
teemos
teenk
teenken
teenkstair
teenkstairen
teenkt
teeplaanten
tegen
tegucigalpa
teguise
teide
teil
teimuras
teisdai
tejn
tekirdag
tekst
tekstbispal
teksten
teksti
tektoonik
tel
telangana
telawi
telefon
telemark
telephium
teleskoop
telk
tels
telt
telugu
teluur
temelk
temmincki
tempel
temperatu
temperaturen
temperatuur
temperatuuren
template
tempo
temporaria
tempratuur
tempratuuren
temu
temuco
ten
tenachtler
tenakourou
tenen
tenera
tenerife
teneriffa
tengah
tenggara
tennessee
tenno
tenochtitla
tenpost
tentative
tenuifolia
tenuis
teologii
teoloog
teooter
teoreetisk
teorii
teplice
ter
teramo
teratornis
terbium
terdistrikt
tergowischte
teritoorien
teritoorium
terminalia
terni
ternowo
terp
terra
terre
terrestris
territoire
territoires
territories
territory
terski
tersloh
terst
tertia
terz
tes
tesk
tesken
tesla
teslin
tessin
test
testament
tet
teta
tete
tetenbu
teti
tetjdiart
tetjdiarten
tetlin
tetracentron
tetracerus
tetraeder
tetragona
tetraodontiformes
tetrapoda
tetrapooden
tetrapoodi
tetrix
tettigonia
tetun
teu
teukbyeol
teukbyeolsi
texas
texel
text
texten
texts
textstyle
tfaarten
tfeelen
tfinj
tflagt
tfo
tforkoopet
tfrac
tfu
tg
tgaav
tge
tgv
th
tha
thaba
thabo
thai
thailand
thailun
thailuns
thalasseus
thalassinum
thames
thanh
that
thazard
the
thea
theaater
theaceae
theater
theda
theema
theer
thel
thelyphonida
thems
then
theo
theobroma
theobromin
theodor
theodore
theory
there
thermoplasti
thet
theudebert
theuderich
thi
thiamiin
thie
thielbek
thieme
thimphu
thiopien
this
tho
tholund
thom
thomapyrin
thomas
thompson
thomsen
thor
thorbecke
thorelii
thraakien
three
through
thu
thua
thuja
thule
thumb
thunnus
thurrock
thusnelda
thy
thymallus
thymus
ti
tia
tiaken
tiakens
tiakent
tiaknang
tiakne
tiakner
tial
tialen
tianjin
tiarem
tiarling
tibeet
tibeetisk
tiberius
tibesti
tibet
tibetana
tibetobirmaansk
tiburtius
tica
tice
ticodendraceae
ticodendron
tid
tidj
tidja
tidjen
tidjreegnang
tidjru
tidjs
tidjskraft
tidjskraften
tidjsoon
tidjwiis
tidjwis
tids
tidschraft
tie
tien
tier
tierra
tif
tiflis
tigre
tigriinsk
tigrinya
tigris
tii
tiibet
tiiger
tiigerkaat
tiikne
tiimor
tiin
tiinet
tiinj
tiinst
tiint
tiiren
tiisdai
tiitel
tija
tijarafe
tik
tiker
tilefoon
tilefoonfo
tili
till
tillabe
tilman
tilos
tilsit
tim
timbuktu
time
times
timijuun
timor
timur
tin
tina
tinctoria
tindi
tindouf
tineke
tinem
tineola
ting
tingen
tini
tinixwe
tinj
tintenfass
tio
tipula
tipulidae
tir
tirana
tiren
tirol
tirschenreuth
tirsted
tis
tischbein
tisk
tistel
tisteln
titaan
titan
titel
titus
tj
tja
tjaap
tjabelstu
tjai
tjarschtrumel
tjbaud
tjbreeg
tjbreegen
tjbroocht
tjbruch
tjbu
tjdeening
tjden
tjdru
tjdruk
tje
tjen
tjenburg
tjenlun
tjenlunen
tjeno
tjenpolitiik
tjenst
tjent
tjer
tjergat
tjet
tjfeerd
tjfinjer
tjfluch
tjfoon
tjfu
tjgingen
tjgoow
tjgoowen
tjgung
tjgungspuul
tjhual
tji
tjiftjaf
tjiin
tjiinbiankraaben
tjiiner
tjiinst
tjiinstgratst
tjiisk
tjiisken
tjiisklun
tjin
tjis
tjkem
tjkimen
tjkomt
tjliase
tjliaset
tjlun
tjluns
tjmaaget
tjno
tjnoom
tjnoote
tjplaanten
tjracht
tjreegne
tjrepen
tjsa
tjsaag
tjsaagen
tjsaagenloogik
tjsaat
tjsen
tjsicht
tjsleden
tjspreegen
tjspriak
tjspriik
tjstand
tjstande
tjsto
tjstu
tju
tjuarel
tjuk
tjuker
tjumen
tjwerket
tjwidjet
tjwool
tka
tkemen
tko
tkum
tkumt
tky
tl
tla
tlahtohcayotl
tland
tlatskanai
tld
tlds
tlik
tlingit
tlo
tlun
tna
tnu
to
tobaago
tobago
tobbi
toc
toch
tochen
tocht
tod
todoque
todus
toffo
togbadji
togo
toho
tohuup
tok
tokat
tokelau
tokio
tokugawa
tokyo
tol
tolaid
toledo
tolkien
tologii
toloogisk
tolowa
tolunioon
toma
tombali
tombigbee
tome
tomentosa
tomoot
tomsk
ton
tondern
tong
tonga
tonger
tonkinensis
tonle
tonto
tonvo
too
tooch
tooche
toocht
toofel
toofelan
toog
toogo
toogolun
toogosia
toon
toonaart
toonaarten
toonket
toonleđer
toonreeg
toonsto
toop
toopet
toor
toorp
toorpe
top
topograafisk
topologii
tor
tora
torda
tori
torn
tornaado
tornaados
torner
toro
toromaans
toronto
torquata
torquatus
torquilla
torr
torre
torrens
torres
torreya
torsten
torter
toskaana
toskisk
tota
totanus
tou
touan
touba
toucountouna
tougue
toulouse
tour
toure
tourismus
tours
tous
touspra
tov
toviklin
tower
town
towns
township
townships
toyama
toyoda
toyota
tozeur
tprobiaret
tr
tra
traachter
traad
traaden
traadgratst
traadhuuchst
traafo
trabant
trabzon
tracheophytes
trachinus
tracking
trafo
tragelaphus
tragen
trago
tragulidae
trak
trakt
transactions
transbaikaalien
transfer
transistor
transit
transitiif
transkaukaasisk
transkei
translation
transnistrien
transport
transporter
transportiaret
transportiird
transvaal
transverse
traore
trap
trapani
trapen
trapet
trapi
trat
traton
traum
trave
tre
tree
treed
treede
treedepa
treedgratst
treedgrutst
treekni
treene
treet
trelleborg
tremolo
tren
trenc
trentino
trenton
tres
tretanj
tretanjst
treviso
tri
triad
triader
triana
triangle
trias
tricolor
tridactyla
trient
trier
triest
trifolium
trigavou
triglidae
trigonometrii
trii
triibus
triibuus
triidu
triihuk
triihuken
triihuktaal
triihuktaalen
triisis
triituankub
triiwain
trinam
trinambai
tringa
trinidad
trinity
trinj
trinjam
trinjenam
trinjom
trinjum
trio
triphosphat
tripleurospermum
trischen
tristan
tristis
triticum
trittau
triturus
trium
trivia
trjoue
trnava
tro
troch
trocheno
trochilus
trochla
trochmeeder
trochodendron
trochsaat
trochtusaaten
troglodytes
trollope
trombidiformes
trompeetenbuumplaanten
troms
tromsø
tron
trondheim
trooldo
troolebel
troopen
troopenwalt
troopisk
trooseln
trooselraidpiiper
tropical
tropisk
tropole
trotski
troy
tru
trucks
truman
trump
trunk
trupen
trussrod
trustees
trutnov
trutta
trutz
ts
tsa
tsaacht
tsacht
tsch
tschad
tschadsia
tschadspriaken
tschaschniki
tschatschersk
tschawusy
tschechien
tschechisk
tschechoslowakei
tscheljabinsk
tscherkasy
tscherkesien
tscherkesisk
tschernjachowsk
tschernjenko
tscherwenj
tscherykau
tschetscheenien
tschetscheens
tschu
tschukotka
tschuktschen
tschupik
tschuwaschien
tschuwaschisk
tsd
tse
tsedreelen
tseeder
tseedern
tseelwe
tseelwie
tsek
tseka
tsen
tsentiliter
tsentimeeter
tsentimeter
tserkwa
tset
tsetsaut
tsez
tsfaarten
tsfaartskep
tsi
tsilhqot
tsimbrisk
tsimshian
tsjiisk
tsjocht
tsk
tsken
tsklo
tskrewen
tsonga
tspra
tspreeken
tst
tstafiaret
tstafiaringen
tsteling
tsu
tsuana
tsuga
tsunami
tsunamis
tsuut
tsuutina
tswana
tt
ttaacht
tte
ttel
tten
ttener
ttenrauch
tter
ttern
ttich
ttii
tting
ttingen
ttju
tto
ttsiel
ttvik
tu
tuamotu
tuba
tubai
tube
tuberhybrida
tuberosum
tudes
tueno
tufa
tufo
tuforen
tugang
tugengelk
tugrip
tuhiar
tuhiarag
tuhiart
tuhuupe
tuiarst
tujarst
tuka
tula
tulaid
tulcea
tuleest
tuleetst
tuletst
tuliarden
tulipa
tulpen
tulpenbuum
tum
tumanst
tumoori
tun
tunant
tunantmaaget
tundra
tuneesien
tunel
tuner
tunesien
tunguusisk
tunis
tunisia
tunka
tup
tupi
tuplaanjen
tupslo
tur
turag
turagtreed
turbo
turdidae
turdus
tureegent
turiin
turin
turing
turismus
turkey
turkmeenistaan
turkmeens
turkmeensk
turkmenistan
turks
turkspriak
turkspriaken
turocht
tus
tussilaginis
tusta
tustant
tustendag
tustruum
tustruumer
tuswaaler
tut
tutchone
tutids
tutool
tutsk
tutsklo
tututni
tuun
tuuner
tuunfasker
tuunschiere
tuup
tuupfaadet
tuuphinge
tuupluup
tuupsaat
tuupsko
tuupslo
tuupsto
tuupstruum
tuupstupe
tuupta
tuupwerket
tuupwerkin
tuupwoksen
tuur
tuusipetji
tuusterpa
tuvalu
tuwa
tuwaalu
tuwiinisk
tuy
tuzi
tuzla
tv
twa
twaalew
twaalewst
twaie
twari
twasche
tweed
tweede
tweelwen
tweer
tweisis
twelev
twer
twerk
twerkwerk
twert
twertdiil
twesken
twiich
twiig
twiigen
twiiger
twiiju
twiiskaalagen
twingo
twizy
two
twu
twuntag
twuntig
twuntiger
twuntigst
tx
ty
tycho
tydskrift
tyler
tymovirales
typ
type
typhaceae
tyr
tyto
tytsjerksteradiel
tyva
tz
tze
tzen
tønder
tłı
tɔ
u
ua
ual
ualaatj
ualang
ualen
ualfresk
ualfriisk
ualgermaans
ualgreks
ualgriichisk
ualhuuchsjiisk
ualingels
ualnoorsk
ualpleistoza
ualpreußisk
ualsibiirisk
ualslaawisk
ualstiantidj
ualun
uar
uaren
uart
uast
uastaafrika
uastaasien
uastafrikoo
uastanatoolien
uastdial
uasteeg
uastelk
uasten
uastenfial
uastenrik
uaster
uasterfuar
uasterheerk
uasterjen
uasterkant
uasterlun
uastermiast
uastern
uasterrik
uasterriks
uastersee
uasteuroopa
uastflandern
uastfrankenrik
uastfrenkisk
uastfresk
uastfresklun
uastfriisk
uastfriislo
uastgrens
uastholstian
uasthualewkuugel
uastjakisk
uastkanada
uastkap
uastku
uastpreussen
uastpreußen
uastrang
uastrangen
uastro
uastroom
uastrumeelien
uastsee
uastsia
uastsiafinsk
uastsjiisklun
uastsjineesk
uastslaawisk
uastsudaansk
ubangi
uc
ucayali
uda
ude
udi
udmuurtien
udmuurtisk
ue
uele
uemoa
uetersen
uf
ufa
ufbaud
ufdialang
ufdialangen
ufdiald
ufdru
ufdu
uffa
uffaal
ufhingig
ufkem
ufkemen
ufkemst
ufkimen
ufko
ufkomt
ufkorting
ufkurting
ufla
ufleitet
ufliaset
ufluup
ufrepen
ufsaat
ufsaatet
ufsaating
ufseekert
ufskaafet
ufspleden
ufstamang
ufstemang
ufstemet
ufta
uftoonket
uftoonking
ug
uganda
ugrisk
uhl
uhr
ui
uighuurisk
uiseong
uk
ukena
ukmerge
ukraine
ukrainisk
ukulele
ul
ulaanbaatar
ulan
ule
uler
ulf
uljanow
uljanowsk
uljin
ulleung
ulm
ulmaceae
ulmanis
ulmer
ulmifolius
ulmus
ulpan
ulrich
ulsan
ulster
ultraviolet
ulysses
um
umbellata
umbrien
umbuluzi
umea
umen
umgebung
umi
umiaq
umland
umm
umperk
umpqua
umwelt
umweltatlas
umweltbundesamt
un
una
unabha
unassigned
unbeka
uncia
und
underbrace
undichtigkeit
undine
undulata
une
uner
unerhu
unerorden
unerrucht
unersa
unerschiisinge
unerst
unesco
ung
ungaarisk
ungaars
ungarisk
ungarn
ungefa
ungefeer
uni
unicolor
uniflora
unincorporated
unio
union
unioon
unit
unita
unitary
united
univ
universal
universita
universiteet
university
uniwersita
uniwersiteet
uniwersiteeten
uniwersum
unjoon
unkel
unn
unna
uno
uns
unser
unsere
unsteed
unt
unter
unterfranken
unti
unwohlsein
unwto
up
upanija
upernavik
uphusum
upiaq
upiatun
upington
upon
upper
uppsala
upright
upstalsboom
upupa
ur
ura
uraal
uraalisk
uraan
ural
uranus
urban
urbicum
urbino
urdem
urdu
ure
uri
uria
url
urocyon
ursa
ursinum
ursinus
ursprache
urspru
ursula
urtica
urticaceae
uruguay
us
usa
usambara
usbeekistaan
usbeeks
usbekisk
usbekistaan
uschatschy
usda
use
usedom
usen
user
usgs
usitatissimum
ust
ut
utah
utara
utc
ute
utena
utersum
uthlande
utho
utilitarismus
utkuhiksalik
utkuhiksalingmiut
utkuhiksalingmiutitut
utrecht
uu
uug
uugen
uuhu
uul
uum
uummannaq
uummarmiut
uummarmiutun
uun
uunbau
uunbaud
uunden
uundial
uundialen
uundrift
uunet
uunfeerd
uunfeerer
uungeleegenhaiden
uungrapt
uungrip
uungriper
uunhinger
uuni
uuning
uuningen
uunit
uunka
uunkateet
uunlaanj
uunluke
uunnem
uunnimen
uunpaaset
uunsen
uunsta
uunstaken
uunsteed
uunsticht
uunt
uuntesken
uunwand
uunwiset
uur
uurbakteerien
uurd
uurde
uurdebo
uurdebuk
uurdiarten
uuren
uurfamiili
uuriinwenern
uurknal
uuroks
uurs
uurslaawisk
uursmoune
uursmuun
uurspru
uurst
uurt
uurter
uurterbok
uurterbokern
uurterbokstair
uusimaa
uust
uusten
uustsii
uut
uuwen
uv
uva
uvea
uvifera
uw
uwe
uwet
v
va
vaal
vaccinium
vakaga
val
vald
valdivia
vale
valencia
valenciana
valencians
valga
vallad
valladolid
valle
valles
valletta
valley
valparai
value
valverde
vamp
van
vancouver
vanellus
vanilla
vannes
vannin
vansbro
vanua
vanuatu
var
varberg
varese
variabilis
varianten
varianti
variegata
variegatus
varroa
varroamel
varroidae
vary
vas
vaughan
vavilov
vdl
vdots
vdu
ve
veb
vec
vectron
ved
vedisk
vee
vega
vegas
vehicle
vehiikel
vejle
vektor
vel
vela
velha
veli
velka
velke
velky
velox
velutina
velutinum
ven
venc
venda
vende
venedig
veneetien
veneetisk
venezuela
venosa
venske
vent
ventura
venus
venusta
ver
vera
veracruz
verapaz
verband
verbano
verbascum
verbena
verbenaceae
verbreitung
vercelli
verde
verdun
verein
vergeben
verhindern
verkehr
verkehrsgesellschaft
verlag
verlagsgesellschaft
vermeer
vermeiden
vermont
vermutlich
verne
vernon
vero
verona
verpackung
versailles
verschlucken
versicolor
versioon
versta
versuch
vert
vertebrata
verticillata
verum
verursachen
verursacht
verwaltungsgliederung
verwenden
verwendet
verwendung
ves
vesiculosus
vespidae
vessel
vessels
vestec
vester
veszpre
vetulus
vi
via
viaf
viana
vianden
viatour
viborg
viburnum
vic
vicente
vicenza
vicia
vicomte
victor
victoria
vicugna
vida
video
videos
vie
vieja
viel
vielen
vienne
vier
viersen
vietnam
view
vii
viii
viken
viking
vikingland
vikram
viktor
vila
vilaine
viljandi
villa
village
ville
villosa
vilnius
vin
vinar
vincent
vinci
vinh
vinifera
vio
viola
violaceae
violett
violine
viral
virens
virgatum
virgin
virginia
virginiana
viridiflora
viridis
viridissima
virosa
viru
virus
viruses
vis
visayas
viscum
vise
viseu
vista
vita
vitaceae
vitamiini
vitamin
vitebsk
vitellaria
viterbo
viti
vitis
vito
vitre
vitte
vivaldi
viverrinus
vize
vka
vkaar
vkast
vlaams
vladi
vle
vleborg
vleborgs
vlore
vltava
vltavou
vo
voblasc
vocabulary
voda
vode
vogansia
voith
vojvodina
vol
volans
volca
volcano
volga
volker
volkert
volkswagen
volt
volta
voltaire
volume
volunteers
vom
von
voor
vor
vora
vorbemerkungen
vore
vorlage
vormals
vormsi
vorn
vossloh
voyager
vr
vra
vran
vrbice
vre
vres
vreux
vriari
vru
vs
vsk
vskaja
vskij
vskru
vt
vu
vulgare
vulgaris
vulgata
vulpes
vulpini
vw
vy
vys
vysoc
vysoka
vysoky
vɔblasts
w
wa
waadfo
waadhoeke
waadt
waag
waagen
waagenlengde
waagenlengden
waaks
waaksen
waal
waaler
waalhei
waalo
waanerroot
waanert
waanj
waanre
waant
waanti
waapen
waar
waaren
waaret
waareti
waari
waarskiinelk
waarskiints
waas
waasen
waasenschap
waast
waastaafrika
waastaafrikoons
waastaasien
waastafrikoo
waastafrikoons
waastbengaalen
waastdial
waasteeg
waastelk
waastelken
waasten
waaster
waasterheewer
waasterhias
waasterhiird
waasterlun
waastermiast
waasteuroopa
waastfaalen
waastfialtooch
waastflandern
waastfrankenrik
waastfresk
waastfresklun
waastgermaans
waastgrens
waasthualewkuugel
waastindien
waastindisk
waastjordanlun
waastkanada
waastkap
waastkarpaaten
waastku
waastpolesisk
waastpreußen
waastsahaara
waastsahara
waastslaawisk
waastwinj
wachholtz
wacholder
wade
wader
wadi
waggons
wai
waibleedplaanten
waieeker
waien
waier
waigiuensis
waiguurd
wailaki
wain
wainer
wainern
wair
wairocht
wait
waiweeger
waiwiiser
waja
wake
waker
wakerer
wakseldru
wakselstruum
wakselt
wakselwiat
wal
walachei
wald
waldeck
waldemar
waldnaab
wale
walens
wales
wali
waliisisch
waliisisk
waling
walk
walker
wall
wallace
wallichiana
wallichii
wallis
wallonien
wallonii
walno
waloonisk
waloschyn
walsersjiisk
walt
walter
waltham
walvis
wan
wanaadium
wanadsor
wancountry
wandsbek
wandsworth
wane
wanel
wanen
wang
wangchuck
wangerooge
wani
wanile
wanju
wankendorf
want
wanuaatuu
waos
war
ward
wards
ware
warekstairen
warel
warelkrich
warem
waremk
waremtidj
waren
warendorf
warep
warianten
warm
warmer
warna
warnowstromer
warren
warschau
wart
warthe
warwickshire
was
waschen
wase
wasen
washington
wasili
wasser
wasserorganismen
wat
water
waterberg
waterloo
waters
watikaansta
watikaansteed
watson
watt
wattenmeer
wattstu
waukawysk
wav
way
wayne
wb
wdr
we
wea
wear
web
webbii
weber
weblink
weblinks
webm
websid
websidj
website
wech
wechnomen
wechstju
wecht
wed
wedd
wedder
wedel
weden
wedenskap
wedenskapelk
wedenskapen
wedenskaplidj
wedenskapslidj
wedenskapsmaan
weder
wederstant
wee
weedensdai
weeder
weederbu
weederdamp
weederdiarten
weederfaal
weederfaaler
weederflaak
weederfo
weederhanen
weederhu
weedermaan
weedermeloon
weedern
weederstant
weederstoof
weederstruat
weeg
weeger
weeget
weegi
weegit
week
weeken
weekst
weel
weele
weelen
weelendraier
weelendraiern
weelet
ween
weene
weenesuela
weensdi
weer
weeram
weerbai
weerdo
weerfoon
weerfor
weering
weerke
weero
weerwe
wees
weese
weesen
weeser
weest
weesten
weester
weesterhedig
weesterheewer
weesterkant
weesterlo
weestern
weestersir
weestfa
weestfra
weestfrasch
weestfrasche
weestfraschlo
weestfriisk
weestfriislo
weestku
weestre
weestsiie
weet
weeten
weetenskep
weetenskepsliren
weeter
weeterkant
weeterkanten
weeterko
weeterstof
weeterstofauto
weetst
weg
wega
wegen
wegener
wehar
weichsel
weiden
weier
weil
weilburg
weilheim
weill
weimar
weimarer
weinert
weinstr
weipelk
weit
weiter
weiterhin
weiße
weißen
weißenburg
wekselstroom
wel
welche
welcome
wele
weler
welerferianiging
welerstant
welerwool
weliko
well
welle
wellingdorf
wellington
wells
welsch
welt
weltarewdial
weltbeenk
weltdial
weltkoord
weltkriich
weltru
welttidj
weltwidj
weltwonern
welwitschia
welwitschii
wen
wendetochen
wendy
wene
wenem
wenet
wenhu
wenhuug
wenka
wenn
wensoker
wenst
wenstgratst
went
wentager
wentanj
wentanjst
wentigst
wentorf
wentworth
wepsisk
wer
werb
werben
werd
werden
weremk
werev
werew
werk
werke
werken
werket
werkin
werkstair
werkstairen
werktju
wern
werner
werra
wersioon
werst
wert
wertskep
werwer
wes
wesel
wesen
wesenberg
weser
wesfriisk
wespen
wesselburen
west
wester
westerhever
westerhoorne
westerkwartier
westerland
westerlandfo
western
westerngitaren
westfalen
westku
westminster
westmoreland
weston
westphal
westphalia
weststellingwerf
wet
wetka
wets
wetstrir
wexford
weđer
wg
wh
when
whilkut
whistle
white
whitehorse
whitlam
who
wi
wial
wiar
wiartskap
wiartskapelk
wiartskapsgemianskap
wiartskapsprefektu
wiartskapstwiig
wiartskaptwiiger
wiat
wiaten
wiatlun
wichtag
wichtagen
wichtagst
wichti
wichtie
wichtig
wichtigi
wichtigst
wichtist
wichtiste
wick
wid
wide
wider
widin
widj
widjajewo
widjer
widjerhen
widjerkemen
width
wie
wiedau
wieder
wiederholter
wiedingharde
wiedingharder
wieland
wien
wiesbaden
wietnam
wight
wii
wiidau
wiideo
wiidinghiird
wiiduu
wiiduufo
wiifke
wiiftje
wiik
wiil
wiir
wiiren
wiirus
wiis
wiisem
wiisen
wiisent
wiiser
wiit
wiitighair
wiitj
wik
wike
wiki
wikidata
wikimedia
wikinger
wikingern
wikingertidj
wikipedia
wikipedias
wikisource
wikispecies
wil
wila
wilag
wilagplaanten
wilaya
wild
wilde
wilejka
wilems
wilger
wilhelm
wilhelmina
wilhelmine
wilhelmshaven
wilj
willem
william
williams
williwitt
willy
wilson
wilsonii
wilster
wilswin
wilt
wilts
wiltz
wim
win
wind
windhoek
windows
windru
windsheim
windsor
windward
wine
winert
wing
winge
wingen
wining
wininger
winingern
winj
winjkraft
winjmaln
winjskiiwen
winkel
winkelsliper
winkler
winnipeg
winplaanten
winru
winston
winter
wir
wirbel
wird
wire
wirem
wiringhiird
wiringhiirder
wirking
wirklichkeit
wirkung
wirkungen
wirmer
wirtschap
wisconsin
wise
wiset
wisiir
wisinghiird
wismar
wist
wit
witamiin
witamiinen
witdu
with
witj
witjbeimistel
witjbo
witjdu
witjen
witjhoodet
witjru
witjruslun
witjsto
witsebsk
witswort
witt
wittdu
witte
wittenberg
wittgenstein
wittmund
wiuwert
wjarn
wjart
wjetnam
wjetnameesk
wladimir
wladiwostok
wo
woche
wochel
wochenblatt
wochler
wohld
wojewo
wok
wokaal
wokaalen
wokatiif
wokdiarten
wokingham
wokool
wokoolen
woksen
woleu
wolf
wolfenbu
wolff
wolfgang
wolfraam
wolfsburg
wolga
wolgaisk
wolgaspriaken
wolgograd
wolken
wollemia
wolof
wologda
woluumen
women
won
wonen
woningstair
wonju
wonter
wonterkleet
wonterkrich
wontern
wonterpalast
wonterregiuun
wontersankiar
wontrem
wood
woodrow
woods
wooks
wool
woolen
woolet
woolf
woolkreis
woolkreiser
woollidj
woolmaaner
woolspro
woon
woopen
woopenrau
woopens
woor
wooret
woorhaid
woorskiinelk
woorskiinelkhaid
woort
woranawa
worcester
worcestershire
word
worden
words
work
workshop
world
worms
woroba
woronesch
wort
worte
wortel
worth
wos
wosponkt
wost
wotisk
wra
wraksem
wraolkrich
wrapper
wrappers
wratsa
wren
wright
ws
wsa
wsgo
wsiad
wstaal
wt
wu
wuch
wuchen
wuchtiger
wuchtigi
wuerzburg
wufsite
wuhan
wuk
wuks
wuksenen
wukset
wukseti
wuksi
wul
wulew
wulff
wulk
wulkaan
wulkaanen
wulkaaner
wulwer
wunerk
wunsiedel
wunter
wuntermuun
wuntermuunen
wuppertal
wurd
wurde
wurden
wurdenbuk
wurdenbuken
wurdenbuksteed
wurfstu
wurk
wursten
wurt
wus
wust
www
wyg
wygosero
wyk
wyker
wyoming
wytschegda
x
xa
xai
xe
xhosa
xi
xia
xico
xii
xiii
xinag
xinjiang
xiv
xjo
xl
xo
xrightarrow
xter
xv
xvi
xvii
xx
xxx
y
ya
yagha
yamanashi
yame
yamoussoukro
yams
yandang
yang
yanggu
yangpyeong
yangyang
yaounde
yard
yat
yatenga
yatı
ye
year
yeast
yecheon
yejong
yellow
yellowknife
yen
yeniseian
yeoncheon
yeongcheon
yeongdeok
yeongjo
yeongju
yeongwol
yeongyang
yeonsangun
yerevan
yersinia
yesan
yi
yilan
yin
yinka
yn
yna
ynlc
ynski
yo
yogyakarta
yola
yomou
yongzheng
yonne
york
yorkshire
you
youne
young
youtube
yozgat
ypsilon
ys
ystad
ysyk
ytterby
yu
yuan
yucata
yucca
yue
yugtun
yukon
yum
yuma
yunlin
yunnan
yunnanensis
yup
yupigestun
yupik
z
za
zabaykalsky
zachary
zaghouan
zagnanado
zagreb
zahna
zaire
zala
zambe
zambesi
zambezi
zambia
zamora
zan
zande
zanzan
zapota
zaragoza
zaran
zava
zavou
zazaki
zce
ze
zea
zealand
zebra
zef
zeidae
zeiformes
zeit
zeitschrift
zeitung
zement
zementpots
zemmour
zen
zenica
zenopsis
zentra
zentraal
zentral
zentrum
zeppelin
zerbst
zerda
zero
zeus
zf
zgeha
zha
zhe
zhejiang
zho
zhrii
zhu
zi
zia
ziguinchor
zika
zimbabwe
zimbrisk
zimmermann
zinave
zinder
zingiber
zingiberaceae
zingiberales
zink
zirpen
zis
zli
zmir
zne
zo
zoarces
zoba
zoe
zogbodomey
zogu
zoll
zollernalbkreis
zone
zoo
zou
zoume
zoungame
zr
zu
zug
zuiderduintjes
zukunft
zuletzt
zulu
zum
zur
zuru
zusammen
zwei
zweistellige
zweiten
zwickau
zwischen
zygopetalum
zygophyllaceae
zygosepalum
zypern
{
|
}
~
¡
¢
£
¤
¥
¦
§
¨
©
ª
«
¬
­
®
¯
°
±
²
³
´
µ
¶
·
¸
¹
º
»
¼
½
¾
¿
×
ß
æ
ærø
ð
÷
ø
øre
ørsted
øster
þ
đ
đa
đer
đerfuar
đerhedig
đerjen
đern
đerpropeler
đerpropelern
đers
đershur
đersir
đi
đo
đweesten
ı
ĸ
ł
ła
łe
łi
łine
ło
łu
ŋ
œ
ǀ
ǁ
ǁkaras
ǂ
ɉ
ɐ
ɑ
ɑlit
ɒ
ɔ
ɕ
ɖ
ə
əl
ən
ɛ
ɛt
ɟ
ɡ
ɡa
ɣ
ɨ
ɪ
ɪjə
ɪkə
ɪtɕ
ɫ
ɯ
ɴ
ɾ
ʀ
ʁ
ʁi
ʂ
ʃ
ʈ
ʉ
ʊ
ʒ
ʔ
ʔa
ʕ
ʰ
ʱ
ʲ
ʳ
ʷ
ʹ
ʻ
ʼ
ʾ
ʿ
ˀ
ˈ
ˌ
ː
ːˈ
ˑ
ˠ
ˤ
˥
˦
˧
˨
˩
̀
́
̂
̃
̄
̆
̇
̈
̉
̊
̋
̌
̍
̑
̓
̔
̚
̛
̜
̝
̞
̟
̠
̢
̣
̥
̦
̧
̨
̩
̪
̭
̮
̯
̰
̱
̲
̸
̹
͂
ͅ
͈
͘
͜
͡
ͤ
α
ας
β
γ
δ
δα
ε
ελλα
επαρχι
ζ
η
θ
ι
λα
μ
μακεδονι
ν
νου
ο
ον
π
πα
περιφε
ρ
ρεια
ς
το
υ
φ
χ
ψ
ω
а
аи
александр
б
бара
бе
бласть
бласць
блика
в
ва
влади
во
вои
вск
вская
вскии
вська
вщина
г
га
го
говор
гора
городско
гро
губе
д
да
дская
е
ж
жскии
з
и
ива
к
ка
ки
ко
краи
кру
круг
къедзыгъо
л
ла
ле
лок
льныи
льскии
ля
м
маг
мез
мец
ми
мир
мицци
мотт
му
н
на
не
никола
но
нохчии
нск
нская
нскии
нскі
нська
ну
ны
нывуӄаӷмит
о
област
области
область
облусу
облысы
он
ону
острова
п
пе
петро
порог
посе
пу
р
ра
рае
раи
респу
республик
республика
республикасы
рния
рныи
рнія
рск
рская
рскии
с
се
ск
ская
скии
скі
сла
советская
социалистическая
сто
сум
т
тия
тр
тыва
у
ф
федера
х
ха
хо
ц
цкии
цкі
ч
ча
чаи
че
чӏал
ш
щ
ъ
ы
ь
э
ю
я
язык
языки
ђ
є
і
іва
ј
љ
њ
ћ
џ
ѯ
ѳ
ѵ
ҁ
қазақстан
ң
ҫ
ү
ӄ
ӈ
ӕ
ө
ӷ
ӽ
ԑ
՟
մարզ
ְ
ֱ
ִ
ֵ
ֶ
ַ
ָ
ֹ
ּ
־
ֿ
ׁ
ׂ
א
ב
ג
ד
ה
ז
ח
חו
י
ך
כ
ל
ם
מ
ן
ס
פ
צ
ר
ש
ת
ا
الا
المنطقة
اول
ب
بلدية
ة
ثالث
جيبوتي
خ
د
دارفور
ر
س
ش
ض
ط
علي
ق
قليم
ل
م
محافظة
منطقة
ن
ه
و
ولاية
ى
ي
َ
ُ
ِ
ّ
ْ
ٓ
ٔ
ٕ
ٰ
ހ
ރ
އ
ވ
މ
ދ
ލ
ގ
ޔ
ޖ
ާ
ި
ު
ޫ
ެ
ޭ
ް
ߘߌߣߋߖߊ
ं
क
ग
घ
ठ
ड
ण
त
थ
द
ध
न
प
म
य
र
ल
ळ
श
स
ह
ा
ि
ी
ु
ृ
े
ो
ौ
्
ং
ক
খ
গ
ট
ঢ
দ
ন
প
ব
ভ
ম
র
ল
শ
ষ
স
হ
়
া
ি
ী
ু
ে
্
દ
લ
વ
ા
ી
ે
க
ச
ட
ணம
த
ந
ன
ம
ய
ல
ழ
வ
ா
ி
ு
ெ
ே
ை
்
ం
ఆ
గ
ణ
త
ద
ధ
ప
బ
ర
ల
శ
హ
ా
ి
ు
ె
ే
్
ౖ
ನ
ಪ
ಲ
ಾ
ಿ
್
ം
ക
ത
പ
ള
വ
ാ
ി
ീ
െ
േ
്
ං
ක
ග
ණ
ත
ද
න
ප
පළ
ම
ර
ල
ව
ශ
ස
හ
්
ා
ැ
ි
ී
ු
ෙ
ง
จ
ต
ท
ภ
ม
ส
อ
ั
ำ
ิ
ี
ื
ุ
ู
็
่
้
๑
ດ
ນ
ັ
ິ
ີ
ົ
້
་
ཀ
ཁ
ཁག
ག
ང
ཆ
ཐ
ད
ན
པ
ཕ
བ
མ
ཙ
ཡ
ར
ལ
ཤ
ས
ཧ
ཱ
ི
ུ
ེ
ོ
ྐ
ྒ
ྗ
ྡ
ྣ
ྤ
ྩ
ྫ
ྱ
ྲ
ྷ
က
င
စ
ည
တ
ထ
န
ပ
မ
ာ
ိ
ု
ေ
ံ
း
္
်
ြ
ენა
მუნიციპალიტეტი
მხარე
경종
고종
광해군
구
군
단종
동구
면
명종
문종
선조
성종
세조
세종
숙종
순조
시
연산군
영조
예종
인조
인종
정조
정종
중구
중종
철종
태조
태종
특별
헌종
현종
효종
ኛ
ዞባ
፬
ᐃᓄᒃᑎᑐᑦ
ᐠ
ᒐ
ᒪ
ᓴᑋᕲᖌᑎᑊᐠᓀᐠ
ᔭᕱ
ᖨ
ᖩ
ᖪ
ᖫ
ᖬ
ᖭ
ᚼ
ᛒ
ក
ខ
ង
ច
ឆ
ជ
ញ
ដ
ណ
ត
តក
ទ
ធ
ន
ប
ព
ភ
ម
យ
រ
ល
វ
ស
ហ
ា
ិ
ឺ
ុ
ូ
ៀ
េ
ែ
ៃ
ោ
ំ
ះ
៉
់
័
្
᠋
ᠠᠶᠢᠮᠠᠭ
ᨩ
ᨾ
᩠
ᩲ
᩵
᷉
᾽
​
‍
‎
‏
–
—
‘
’
‚
‛
“
”
„
†
•
…
‧
‬
‭
‰
‱
′
″
‿
⁄
⁠
⁽
⁾
ⁿ
₂
₃
₠
₩
€
℥
↑
→
↓
↔
↷
⇒
∀
∑
−
∞
∫
≈
≡
⋅
␣
③
④
⑦
◌
◘
☉
☾
☿
♀
♂
♃
♄
♆
♈
♉
♊
♋
♌
♍
♎
♏
♐
♑
♒
♓
⚭
⛎
⛢
✱
ⴰ
ⴱ
ⴳ
ⴵ
ⴶ
ⴷ
ⴸ
ⴹ
ⴻ
ⴼ
ⴽ
ⴾ
ⵀ
ⵃ
ⵄ
ⵇ
ⵉ
ⵊ
ⵍ
ⵎ
ⵏ
ⵓ
ⵔ
ⵕ
ⵖ
ⵙ
ⵚ
ⵛ
ⵜ
ⵟ
ⵡ
ⵢ
ⵣ
⺀
⺄
⺆
⺈
⺊
⺌
⺕
⺝
⺸
⺼
⿰
⿱
⿲
⿳
⿴
⿵
⿶
⿷
⿸
⿹
⿺
⿻
〢
の
゙
ア
ィ
イ
ウ
エ
ク
コ
サ
シ
ス
ソ
ッ
ト
ニ
ヌ
ノ
ハ
フ
ホ
マ
モ
ユ
ラ
リ
レ
ン
・
ー
㇁
㇂
㇄
㇇
㇈
㇉
㇓
ㇼ
㐁
㐄
㐅
㐌
㐫
㐬
㐭
㐮
㐱
㑒
㒵
㒸
㒼
㓁
㓞
㔾
㕛
㕣
㖾
㘝
㚅
㚇
㚔
㚘
㝉
㝡
㝴
㝵
㞋
㞢
㞷
㠩
㠭
㠯
㡀
㡭
㡿
㢲
㢴
㣇
㣺
㥯
㪅
㫄
㫐
㫒
㫺
㬅
㬎
㬥
㬰
㲋
㳄
㷠
㸒
㸚
㸦
㼌
㼲
㽞
㿟
䀠
䂞
䍃
䏍
䒑
䖍
䖒
䖝
䖵
䙴
䚻
䜌
䝿
䡛
䧹
䪞
一
丁
丂
七
丄
丅
丆
万
丈
三
上
下
丌
不
与
丏
丐
丑
专
且
丕
世
丘
丙
业
东
丞
丢
丣
两
严
並
丨
丩
个
丫
丬
中
丮
丰
丱
串
丵
丶
丷
丸
丹
为
主
丽
丿
乀
乂
乃
久
乆
乇
么
义
之
乌
乍
乎
乏
乐
乑
乔
乖
乗
乘
乙
乚
乛
乜
九
乞
也
习
乡
乳
乾
亀
亅
了
亇
予
争
事
二
亍
于
亏
亐
云
互
亓
五
井
亘
亚
亜
亞
亟
亠
亡
亢
交
亥
亦
产
亨
亩
享
京
亭
亮
亯
亰
亲
亳
亶
亷
人
亻
亼
亾
仁
今
介
仌
从
仐
仑
仒
仓
仕
他
付
仝
代
令
以
们
任
企
伊
伏
伐
休
会
伯
但
位
何
佘
余
作
你
佥
使
來
侈
侌
侍
侖
侯
侵
便
保
俞
信
修
倉
倍
們
候
倠
備
僉
僕
儀
儒
儿
兀
允
兂
元
兄
充
兆
兇
先
光
兊
克
兌
免
兎
兑
兒
兓
兔
党
兜
兟
入
內
全
兩
兪
八
公
六
兮
兰
共
关
兵
其
具
典
兹
兼
冀
冂
冃
冄
内
冈
冉
冊
冋
册
再
冎
冏
冐
冒
冓
冖
冗
冘
军
农
冝
冠
冡
冥
冫
冬
冷
几
凡
凢
凵
凶
凷
凸
凹
出
函
凾
刀
刁
刂
刃
刄
刅
分
切
刍
刑
刕
刖
列
刘
则
初
別
利
别
到
制
刺
則
削
剌
前
剛
剡
剽
劉
力
功
加
劦
助
劫
劳
劵
勃
勇
勉
勒
動
務
勞
勤
勸
勹
勺
勻
勾
勿
匀
匂
包
匆
匈
匊
匋
匍
匕
化
北
匚
匝
匡
匪
匱
匸
匹
区
医
匽
匿
區
十
卂
千
卄
卅
卆
升
午
卉
半
卌
华
卑
卒
卓
单
卖
南
博
卜
卝
卞
占
卡
卢
卣
卤
卦
卩
卪
卫
卬
卯
印
危
即
却
卵
卷
卸
卻
厂
厃
厄
历
厈
厉
厌
厓
厘
厚
原
厤
厥
厨
厭
厲
厶
厷
厸
去
厼
厽
县
叀
参
參
叅
又
叉
及
友
双
反
叐
发
叒
叔
叕
取
受
叚
叜
叟
口
古
句
另
叩
只
召
可
台
叱
史
右
叵
号
司
叹
吂
各
吅
合
吉
吊
吋
同
名
后
吏
向
吕
君
吝
吞
否
含
启
吳
吴
吹
吾
呂
呆
呈
告
员
呙
周
味
命
咅
和
咎
咠
咢
咨
咸
咼
哀
品
哈
哉
員
哥
哲
唐
商
啇
問
啚
啟
啬
啻
喃
善
喜
喬
單
喿
嗇
嘉
嘴
器
噩
嚴
囊
囗
囘
囙
囚
四
回
囟
因
囧
囬
困
囱
図
囷
固
国
圂
圅
國
圍
園
圓
土
圡
圣
圥
在
圭
地
圶
圼
坐
坒
坚
坡
坪
坴
垂
垔
垚
埀
埋
城
域
埶
執
基
埼
堂
堅
堆
堇
堤
堯
報
場
塞
墨
壘
士
壬
壯
声
壳
壴
壹
壺
壽
夂
处
夅
夆
备
夊
夋
夌
复
夏
夒
夕
外
夗
夘
多
夜
夢
大
夨
天
太
夫
夬
夭
央
失
夲
头
夷
夸
夹
夻
夾
奂
奄
奇
奈
奉
奎
奏
奐
契
奓
奔
奚
奞
奠
奢
奥
奭
女
奴
她
奻
好
如
妄
妙
妟
妥
妻
妾
始
姑
委
姜
威
娄
婁
婴
嬰
嬴
子
孑
孔
孕
孖
字
存
孚
孛
孝
孟
季
孤
学
孫
孱
學
宀
宁
宂
它
宅
宇
守
安
宋
完
宏
宓
宗
官
定
宛
宜
宝
客
宣
室
宮
宰
害
家
容
宾
宿
寄
寅
密
富
寒
察
實
寧
審
寫
寬
寮
寸
对
寺
寻
寽
対
寿
封
尃
射
将
將
專
尉
尊
尋
尌
對
小
少
尒
尓
尔
尖
尗
尙
尚
尞
尢
尣
尤
尧
尨
尭
就
尸
尹
尺
尻
尼
尽
尾
尿
局
居
屈
屋
屎
屏
屑
展
屖
屚
属
屠
屡
屬
屮
屯
屰
山
屵
屾
岁
岂
岐
岑
岛
岡
岩
岳
岸
峙
峯
峰
峴
島
崂
崇
崑
崔
崖
崙
崩
嵋
嵬
嶲
嶺
巂
巛
川
州
巟
巠
巢
巤
工
左
巧
巨
巩
巫
差
己
已
巳
巴
巷
巸
巽
巾
巿
帀
市
布
希
帚
帛
帝
带
師
席
帶
常
干
平
年
幵
并
幷
幸
幺
幻
幼
幽
幾
广
広
庄
床
底
店
庚
府
度
庫
庭
庶
康
庸
廉
廌
廛
廣
廩
廴
延
廷
建
廾
廿
开
弁
弃
弄
弇
弋
式
弓
弔
引
弗
弘
弜
弟
弥
弦
弱
張
強
强
彊
彌
彎
彐
彑
当
彔
录
彖
彗
彡
形
彥
彦
彧
彭
彰
彳
役
彼
往
待
律
徒
得
徙
從
復
微
徳
徵
德
徽
心
忄
必
忌
忍
志
忘
忝
忠
忩
快
念
忽
忿
思
怠
急
怱
恆
恒
恩
恭
息
悉
患
悤
悲
悶
惠
惡
惢
愁
愈
意
愛
感
慈
慧
慮
慶
憂
憲
應
戀
戈
戉
戊
戋
戌
戍
戎
成
我
戒
戔
或
戚
戠
戢
戦
截
戰
戲
戶
户
戹
戼
戾
房
所
扁
扇
手
扌
才
扎
打
托
执
扶
承
投
折
抱
拉
拜
拿
掌
推
提
揚
摩
支
攴
攵
收
攸
改
放
政
敄
敏
敕
敖
敗
敝
敞
敢
散
敦
敫
敬
数
敷
數
斂
文
斉
斊
斗
斤
斥
斩
斬
斯
新
方
於
施
斿
旁
旋
旌
族
无
旡
既
旣
日
旦
旧
旨
早
旬
旱
旲
时
旺
旾
昆
昇
昌
昍
明
昏
易
昔
昗
昜
星
春
昬
昭
是
昱
昴
昷
時
晃
晋
晏
普
景
晶
智
暑
暴
曇
曩
曰
曲
曳
更
曷
書
曹
曼
曾
替
最
朁
會
月
有
朋
服
朔
朕
朗
望
朝
木
朩
未
末
本
札
朮
术
朱
朵
朶
朿
杀
杉
李
杏
村
杜
束
条
来
杭
東
杲
杳
松
板
枇
析
林
枚
果
枝
枲
枼
某
柔
查
柬
柰
柳
柴
栃
栗
根
桀
桂
桑
桼
梁
條
梟
梨
棘
棠
棥
森
楊
楚
業
楽
榮
槐
樂
樊
樹
橋
橫
檀
檜
檢
權
欠
次
欣
欮
欲
欶
欽
款
歆
歇
歌
歛
止
正
此
步
武
歨
歪
歮
歯
歰
歲
歴
歷
歸
歹
歺
死
殳
段
殷
殸
殹
殺
殻
殿
毋
毌
母
每
毒
比
毕
毚
毛
毳
氏
氐
民
气
氣
水
氵
氶
氷
永
氺
氾
求
汉
汝
汞
江
池
沃
沈
沓
沙
沝
沧
河
油
治
泉
法
波
泣
泥
泰
洗
洛
洞
津
洪
洲
活
派
流
济
浙
浦
浪
浮
海
淑
淡
淮
淳
淵
淸
清
渊
渚
渠
渭
湄
湍
湖
湯
溪
滄
滋
滨
滿
漁
漆
漢
漣
漸
潟
潭
潼
澄
澎
澜
澤
瀾
灘
火
灬
灭
灰
灵
灷
炅
炎
炏
炗
炙
炭
為
烈
烏
烝
焉
無
焦
焱
然
煞
熊
熏
熙
燕
營
燮
爪
爫
爭
爯
爰
爱
爲
爵
父
爻
爽
爾
爿
片
牙
牚
牛
牜
牟
牢
牧
牪
特
牽
犀
犬
犭
犮
狂
狄
狊
独
狺
狼
猋
猒
猪
献
獒
獨
獻
玄
率
玉
王
玟
玨
珍
珎
班
球
理
琴
瑞
瑟
瑩
璋
瓜
瓦
甑
甕
甘
甚
生
産
用
甫
甬
田
由
甲
申
电
甶
男
甸
甹
画
甾
畀
界
畏
畐
留
畜
畝
畟
畢
畧
畨
番
畫
異
畱
當
畺
畾
疊
疋
疌
疑
疒
疾
癶
癸
癹
登
發
白
百
皀
皃
的
皆
皇
皋
皐
皕
皮
皷
皿
盃
盆
盇
盈
益
盍
盎
监
盒
盖
盛
盡
監
盤
盧
目
直
相
盾
省
眇
眉
看
県
眔
眞
真
眷
眼
眾
着
睘
睪
睿
瞏
瞢
瞿
矍
矛
矞
矢
矣
知
矦
短
石
砥
破
碎
碧
磊
磨
示
礻
礼
社
祖
神
祟
票
祭
禀
禁
禎
福
禛
禮
禸
禹
禺
离
禽
禾
禿
秀
秃
秉
秋
科
秝
秦
移
程
稟
稷
穀
穌
穩
穴
究
穹
空
穿
突
窄
窒
立
竒
竜
竝
竟
章
童
端
竹
笑
笠
筆
等
答
策
箕
算
箴
節
篤
篭
米
粉
粛
粟
粤
粦
粲
糞
糸
糹
系
約
紅
納
素
索
紫
累
細
絜
絫
絲
經
綠
維
綿
縣
繇
纍
纟
缶
网
罒
罔
罕
罗
罙
罡
罢
罪
置
署
罷
羅
羊
羌
羍
美
羔
羕
羗
羞
羡
羣
群
義
羲
羸
羽
翁
翎
翏
習
翕
翟
翠
翼
耀
老
耂
考
者
耆
而
耎
耑
耒
耳
耴
耶
耷
聂
聊
聖
聚
聞
聶
聿
肀
肃
肅
肉
肖
肙
肥
肩
肯
育
肴
胃
背
胡
胤
胥
能
脈
脊
脚
脩
膚
臣
臤
臧
自
臬
臭
臯
臱
至
致
臺
臼
臽
臾
臿
舀
舂
舄
與
興
舉
舌
舍
舒
舛
舜
舞
舟
般
艮
良
色
艸
艹
艾
芒
芔
芬
芭
芮
花
芳
芺
芻
苏
苔
苗
苟
若
苦
英
茁
茂
茄
茨
茶
茸
荅
草
荒
荣
荼
莆
莧
莫
莽
菆
菊
菐
華
菱
萬
落
葉
著
葛
董
葵
蒙
蒡
蒦
蒼
蓋
蓬
蓮
蓺
蔑
蔚
蔡
蕉
蕭
薄
薛
薦
薪
薰
藍
藏
藥
蘆
蘇
蘭
虍
虎
虐
虒
虔
處
虖
虗
虘
虚
虛
虜
虞
虫
虽
蚤
蚩
蜀
蜜
蝟
蟠
蟲
蟹
蠡
血
行
衍
衛
衣
衤
表
衮
衰
衿
袁
袞
裕
裳
褭
褱
襄
襾
西
覀
要
覃
見
規
覓
覧
親
覽
见
角
解
言
訁
訇
計
詹
語
誩
諸
議
讠
谷
豆
豈
豊
豐
豕
豖
豙
象
豦
豩
豪
豸
貇
貝
貞
貟
負
貢
貧
貪
貫
責
貳
貴
買
費
賀
賁
資
賈
賏
賓
賔
賛
賞
賢
賣
質
賴
賽
贊
贝
贡
责
贯
贲
贵
赖
赞
赤
赦
走
赴
起
越
足
路
蹄
蹇
身
躬
車
軍
軎
軟
載
輦
车
辛
辜
辟
辥
辰
辱
農
辵
辶
边
辽
达
过
近
连
迷
追
退
送
逆
逐
通
速
造
逢
連
逮
進
遀
遂
過
道
達
遠
遣
適
遷
遺
遼
邊
邑
邕
那
邦
邪
郎
郑
郞
郡
部
郭
都
鄉
鄒
鄕
酉
酋
酌
配
酓
醴
釆
采
里
重
野
量
金
釒
銀
銅
錢
錦
鎭
鎮
鏡
鐘
鐵
钅
银
長
镸
长
門
閃
閉
開
閏
閑
閒
間
閔
関
閵
閻
闌
關
门
间
闷
阑
阜
阝
阪
阳
阿
降
陕
陝
陟
院
陰
陳
陵
陽
隆
隊
隋
隡
隨
隱
隶
隹
隺
隻
隼
隽
难
雀
雁
雄
雅
集
雈
雋
雍
雐
雔
雙
雚
雜
雝
離
難
雨
雩
雪
雲
零
雷
需
霍
霜
霝
霞
霸
靈
靑
青
静
非
靡
面
靣
革
韋
韦
韭
韯
韱
音
頁
頃
項
順
須
頗
頡
頭
頻
顔
顛
页
風
风
飛
飞
食
飠
飴
養
餘
館
饣
首
香
馬
馮
駦
驪
马
骨
高
髟
鬥
鬯
鬱
鬲
鬼
魚
魯
鮮
鱼
鲁
鳥
鳳
鶴
鸟
鹵
鹽
鹿
麃
麗
麟
麥
麦
麻
黃
黄
黍
黎
黑
黒
黨
黹
黽
黾
鼎
鼓
鼠
鼻
齊
齋
齐
齒
齿
龍
龙
龜
龟
龠
龰
龱
龴
龵
龶
龷
龸
龹
ꙋ
ꙗ
ꜜ
ꦁ
ꦂ
ꦃ
ꦏ
ꦑ
ꦒ
ꦔ
ꦗ
ꦛ
ꦠ
ꦤ
ꦧ
ꦩ
ꦪ
ꦫ
ꦭ
ꦮ
ꦯ
ꦱ
ꦴ
ꦸ
ꦺ
ꦼ
ꦾ
꧀
者
艹
？
�
𐌰
𐌲
𐌳
𐌶
𐌹
𐌺
𐌻
𐌿
𐍂
𐍃
𐍄
𐍅
𐍆
𐍉
𑀩
𑀫
𑀭
𑀳
𑀸
𑀻
𑁆
🜨
𠀁
𠀃
𠀆
𠀉
𠀎
𠀐
𠁁
𠁣
𠂆
𠂇
𠂈
𠂉
𠂊
𠂋
𠂎
𠂒
𠂔
𠂛
𠂡
𠂢
𠂤
𠂬
𠂭
𠂹
𠃊
𠃋
𠃌
𠃍
𠃎
𠃑
𠃓
𠃔
𠃜
𠄌
𠄎
𠄠
𠄢
𠆢
𠆥
𠇍
𠈌
𠌵
𠓜
𠔉
𠔥
𠔼
𠔽
𠔿
𠕀
𠕁
𠕋
𠘧
𠘨
𠙻
𠙼
𠚏
𠚒
𠚤
𠚪
𠣏
𠤎
𠤕
𠥓
𠦄
𠦑
𠦝
𠧒
𠧗
𠧪
𠩺
𠪚
𠫓
𠫔
𠫤
𠬛
𠬝
𠬞
𠬢
𠬤
𠬶
𠮛
𠮦
𠮷
𠯑
𠱠
𠳮
𠷎
𡈼
𡉀
𡉵
𡌥
𡍮
𡏳
𡕒
𡕩
𡕰
𡖅
𡗗
𡗜
𡘆
𡘤
𡦂
𡧱
𡨄
𡩧
𡬠
𡭽
𡰣
𡰥
𡰪
𡰯
𡰱
𡷈
𡸁
𡿨
𡿩
𡿪
𡿺
𢀖
𢀛
𢀩
𢁙
𢆉
𢆰
𢆶
𢇁
𢇇
𢉖
𢌬
𢌿
𢏚
𢑑
𢑚
𢖻
𢙣
𢛳
𢦏
𢦒
𢧵
𢼄
𢾕
𣁋
𣄼
𣅀
𣅽
𣍘
𣎳
𣎵
𣏋
𣏼
𣗥
𣥂
𣥖
𣦵
𣦼
𣧄
𣪊
𣪠
𣬉
𣳾
𣶒
𤇾
𤊽
𤐫
𤓰
𤔔
𤕨
𤣩
𤰇
𤰔
𤰞
𤴓
𤴔
𤽄
𥁑
𥁕
𥃦
𥃩
𥃭
𥇡
𥑟
𥘅
𥘈
𥝢
𥫗
𥱡
𦈢
𦉪
𦉬
𦉼
𦍌
𦍒
𦎧
𦐇
𦓔
𦔮
𦘒
𦙃
𦚏
𦣝
𦣞
𦣻
𦥑
𦥔
𦥯
𦨉
𦭝
𦰩
𧆞
𧈧
𧘇
𧰨
𧴪
𧴮
𧵩
𧾷
𨸏
𨾴
𩙿
𩠐
𩫏
𩵋
𪉷
𪜀
𪟽
𪠲
𪩲
𫇦
𫔭
𫜸
𫝀
𫠣
𫠩
𫢉
𫥞
𫩏
𫩠
𫪡
𫲽
𫶧
𬀷
𬐘
𬗌
𬙙
𬛸
𬜯
𬟩
𬯁
𬴘
𬺻
𬼉
𬼖
𭀰
𭁈
𭁨
𭅰
𭑈
𭕄
𭗼
𭤨
𭥫
𭻾
𮅕
𮊿
𮍌
𮍏
𮓗
𮥼
𮧮
廾
𰀁
𰀄
𰀈
𰀉
𰀕
𰀠
𰀡
𰀢
𰀪
𰁜
𰃮
𰆊
𰆘
𰋙
𰕎
𰢴
𰧭
𰯲
000--
070--
101--
496--
819--
a--
aa--
aal--
aapel--
aarbers--
ab--
aba--
abdom--
abe--
abi--
abs--
ac--
acan--
acantho--
acety--
ach--
acry--
act--
actin--
acut--
ad--
ada--
adam--
addit--
ade--
adel--
adenosin--
adje--
admini--
admir--
ady--
aego--
aeo--
aepyornithi--
aet--
af--
afgh--
afro--
ag--
agat--
age--
ago--
ah--
ahua--
ai--
ailu--
ain--
air--
ais--
ak--
akka--
aks--
akti--
aktien--
akts--
aktsjo--
al--
ala--
alb--
albug--
alcedin--
ale--
alexa--
algi--
ali--
alk--
all--
alle--
alni--
alo--
alp--
alpho--
als--
alt--
altai--
alten--
alu--
alve--
am--
ama--
ambly--
ambro--
ambysto--
ame--
ami--
amphi--
amt--
amy--
an--
ana--
analy--
anar--
anc--
and--
andama--
anden--
ane--
ang--
angelsaks--
anglo--
angui--
ani--
anna--
ano--
ans--
anth--
anthe--
antho--
anthro--
anti--
antio--
antro--
anweis--
any--
ao--
aou--
ap--
apa--
apba--
aphro--
apk--
aplodon--
apo--
apot--
app--
april--
aptu--
aq--
aqua--
aqui--
ar--
ara--
arach--
arc--
arche--
archi--
ard--
are--
arens--
argy--
argyro--
arist--
ark--
arn--
art--
aru--
as--
asa--
asco--
ase--
ash--
ask--
asp--
asso--
assy--
aster--
astra--
astur--
asy--
at--
atel--
ati--
atoom--
atro--
au--
auas--
auck--
auer--
auf--
aur--
aureo--
aus--
austro--
aut--
auto--
auß--
av--
ava--
avell--
aw--
awa--
axill--
ay--
az--
b--
ba--
baan--
bac--
bach--
bad--
bag--
baga--
bagh--
bah--
bai--
baj--
bak--
bal--
bali--
balkan--
bam--
ban--
banen--
bar--
barb--
bas--
bass--
bat--
batem--
baterii--
batra--
bau--
bay--
bc--
bd--
be--
bea--
bec--
bech--
beck--
beek--
beesem--
bei--
bel--
belem--
beltri--
belu--
ben--
benen--
ber--
berag--
berber--
bere--
berg--
berig--
berke--
bern--
bes--
besiid--
best--
bet--
beta--
beteekn--
beton--
bev--
bez--
bezeich--
bh--
bi--
bia--
biaar--
bib--
bie--
big--
bil--
bild--
bin--
bio--
bip--
bir--
birai--
bis--
bist--
bit--
bitj--
bitu--
biz--
bj--
bjø--
bl--
bla--
bland--
ble--
bleed--
blo--
bloos--
blud--
bly--
bo--
bob--
boel--
bok--
bol--
bolsche--
bombard--
bon--
boog--
boon--
boower--
bor--
bos--
bosk--
bot--
bota--
bou--
bouj--
boy--
br--
bra--
braam--
brachy--
brachypt--
brachys--
brad--
brag--
branen--
bre--
break--
breiten--
brems--
brevi--
brig--
brit--
bro--
brock--
brook--
bru--
bruar--
brug--
brusn--
bryo--
brø--
bs--
bu--
buch--
bud--
budd--
bug--
buk--
bukov--
bulb--
bulg--
bund--
bundes--
bur--
bus--
but--
buum--
bux--
bw--
by--
byzan--
bø--
bə--
c--
ca--
caec--
cai--
cal--
calci--
callit--
calop--
caly--
calypt--
cam--
camem--
can--
candi--
cantha--
cap--
capil--
cappa--
car--
cardio--
cari--
carolin--
cas--
cat--
catop--
cau--
cay--
cc--
ce--
cedro--
cele--
ceph--
cephalo--
cer--
cerat--
cerci--
cercopi--
ch--
cha--
chaet--
chala--
chde--
che--
cheir--
chelo--
chem--
cheon--
cher--
chhat--
chi--
chiri--
chlamy--
chlo--
chlor--
chloran--
cho--
chor--
chr--
chrys--
cht--
chu--
ci--
ciconii--
cincinn--
cinn--
cio--
cis--
cito--
ck--
cl--
clad--
cland--
clar--
clat--
clav--
cle--
clif--
clo--
clupei--
cly--
co--
cocc--
coch--
cochin--
coel--
col--
colo--
colum--
columbi--
com--
comay--
con--
cor--
cord--
corti--
cory--
cos--
cott--
cour--
cov--
cra--
craig--
cras--
crassi--
cre--
cri--
cricet--
crin--
cris--
cro--
croco--
cru--
cry--
crypt--
crypto--
cs--
ct--
cteno--
cu--
cucu--
cult--
cundi--
cunei--
cup--
cuspi--
cy--
cya--
cyano--
cycl--
cylin--
cymo--
cypho--
cyrto--
cytidin--
cz--
d--
da--
daaten--
dacty--
dactylop--
dae--
dag--
dah--
dai--
dak--
dal--
dam--
damp--
dan--
daou--
dar--
das--
dasy--
dasyu--
dat--
daug--
daup--
daw--
day--
db--
dc--
dd--
de--
dea--
dec--
decem--
dee--
deel--
deer--
deet--
defi--
definit--
deg--
dei--
dek--
del--
dem--
den--
dendro--
densi--
denticu--
deo--
der--
ders--
des--
desim--
det--
deu--
di--
dia--
dial--
dictyo--
dicye--
didel--
didy--
die--
diesel--
diff--
dii--
diil--
dik--
dil--
dimen--
din--
ding--
dinor--
dinos--
dio--
diony--
diplo--
dipter--
dir--
disco--
disp--
dispo--
disse--
diver--
dj--
dja--
dje--
dji--
dju--
dm--
do--
dobel--
doc--
dok--
dol--
dolich--
dom--
domin--
don--
dong--
doom--
dor--
dord--
dorf--
dos--
dot--
dou--
doy--
dr--
dra--
drai--
drei--
dreibuk--
drii--
dro--
dru--
dry--
ds--
dsc--
dsji--
du--
duad--
duar--
duast--
dub--
duck--
dud--
due--
dum--
dun--
dur--
dus--
duven--
dwaast--
dy--
dz--
dʒ--
e--
east--
eat--
eb--
eber--
ebu--
ec--
ech--
echin--
eck--
ed--
edel--
edo--
ee--
eedel--
eeg--
een--
eerd--
eeđer--
eff--
efter--
eg--
egen--
egg--
ehe--
ehr--
ehren--
ei--
eider--
eilun--
ein--
eisen--
ej--
ek--
eksk--
eksp--
eksperi--
el--
ela--
ele--
elec--
elek--
elektri--
elektro--
eleu--
elk--
ell--
ely--
em--
emei--
emi--
emisjoons--
ems--
en--
end--
ene--
enen--
energii--
ens--
ento--
eo--
ep--
epi--
eq--
equi--
er--
era--
erd--
erec--
erem--
eri--
ern--
ers--
erts--
eru--
erup--
ery--
eryth--
erythro--
es--
esch--
est--
et--
ethn--
etrus--
ety--
eu--
eudy--
eup--
eur--
euro--
eury--
ev--
eva--
evange--
ever--
ewe--
ex--
exper--
explo--
exten--
ey--
ez--
f--
fa--
faan--
faar--
face--
fahren--
fakul--
fal--
famil--
fang--
fao--
far--
fasc--
fask--
fass--
fast--
fat--
fe--
fedt--
feest--
fel--
feld--
fen--
fer--
fernseh--
ferru--
fersoom--
fert--
ferwu--
fesk--
fet--
ff--
ffentl--
ffentlich--
fi--
fial--
fici--
fiin--
fiir--
fiird--
fiirluki--
fiiw--
fili--
film--
fimbria--
finan--
finn--
fis--
fish--
fitz--
fja--
fjo--
fjuard--
fl--
fla--
flaaks--
flag--
flavi--
flii--
flu--
fluug--
fo--
foet--
fol--
folk--
folks--
folksuf--
fon--
for--
formel--
foto--
fra--
frachten--
frank--
fre--
frei--
fri--
frii--
fro--
fru--
fs--
ft--
fu--
fuar--
fuhlen--
ful--
fun--
funk--
fur--
fusc--
fusion--
fut--
g--
ga--
gagau--
gal--
gala--
galeo--
gamp--
gan--
gang--
gar--
gara--
gas--
gaster--
gastro--
gat--
gau--
gb--
gd--
ge--
ged--
geden--
geest--
gefa--
gefangen--
gel--
gele--
gem--
gemee--
gen--
generaal--
genst--
gent--
geo--
geoff--
ger--
ges--
gesch--
gestri--
get--
geum--
gh--
gi--
gia--
gif--
gigan--
gille--
gir--
gla--
gle--
glik--
glo--
globi--
globu--
glos--
glosso--
glu--
gly--
glypto--
go--
god--
goes--
goet--
gol--
golf--
gomp--
gong--
gonio--
goobel--
good--
gor--
gorg--
got--
gou--
gov--
gr--
gra--
graci--
grat--
gre--
green--
greev--
grens--
grie--
gro--
gross--
groß--
gru--
grut--
gry--
grylloblat--
grø--
gs--
gu--
gua--
guard--
guate--
gud--
gue--
guer--
gui--
guill--
gul--
gum--
gumi--
gun--
gur--
gurt--
gus--
gut--
gwa--
gwang--
gy--
gye--
gymn--
gymno--
gypt--
h--
ha--
haa--
haag--
haas--
haawen--
hadr--
hai--
haits--
hal--
halig--
halog--
ham--
han--
hand--
haplo--
har--
hart--
hasel--
hass--
hat--
hau--
haup--
haur--
haus--
hav--
have--
haw--
hay--
hb--
he--
heat--
hebr--
hed--
hee--
heef--
heewer--
hei--
heili--
heimat--
hek--
heli--
helic--
hell--
helsing--
hemi--
hemm--
hen--
henwi--
hepa--
her--
hering--
hesp--
hetero--
heterog--
heterop--
hexa--
hi--
hiar--
hias--
hig--
hii--
hiir--
hilde--
himan--
hin--
hipp--
hir--
his--
hit--
hl--
hlen--
hn--
ho--
hoch--
hodgs--
hof--
hohe--
hok--
hol--
holt--
holz--
hom--
hood--
hoof--
hoog--
hool--
hoon--
hoons--
hop--
hor--
horel--
horn--
hosti--
hot--
hr--
hru--
hu--
hua--
hualew--
huar--
hubs--
hue--
hui--
huk--
hul--
humi--
hun--
hur--
hurn--
hus--
hut--
huuch--
hvi--
hy--
hya--
hydro--
hygi--
hylo--
hyper--
hypo--
hyr--
hæ--
hø--
i--
ia--
iake--
ial--
ian--
iar--
iaren--
ic--
ich--
id--
ide--
idio--
ie--
if--
ig--
ii--
iidj--
iin--
iinj--
iintu--
iipen--
iir--
iisen--
ij--
ik--
ike--
il--
ili--
im--
imen--
imper--
in--
ina--
inaug--
inc--
indi--
indo--
ine--
infect--
infra--
ing--
inge--
ingus--
inn--
innen--
ins--
insel--
insol--
inst--
int--
integ--
inter--
interi--
inu--
io--
ion--
ip--
ir--
ire--
is--
ise--
iso--
iss--
ist--
it--
ita--
iu--
iv--
ix--
iy--
iz--
j--
ja--
jaar--
jaares--
jablo--
jade--
jaku--
jam--
jan--
jap--
jard--
jazz--
je--
jen--
jer--
ji--
jia--
jil--
jin--
jo--
jong--
jonk--
jord--
ju--
juar--
jul--
jung--
jur--
jurt--
juudasb--
juup--
jyut--
jø--
k--
ka--
kaat--
kai--
kake--
kal--
kale--
kalk--
kall--
kam--
kameedi--
kamt--
kan--
kap--
kapitulat--
kar--
karbonatis--
kardina--
karj--
karl--
karmen--
karol--
kart--
kas--
kat--
kated--
kauf--
kaut--
kawa--
kay--
kd--
ke--
ked--
keem--
kei--
kem--
ken--
kep--
ker--
ket--
kh--
kha--
khe--
kho--
ki--
kie--
kiil--
kiip--
kiiwi--
kil--
kim--
kin--
king--
kir--
kirch--
kirg--
kis--
kit--
kivallir--
kj--
kjar--
kla--
klaar--
klas--
klawiar--
kle--
kli--
kliima--
klo--
kloken--
klotz--
klu--
km--
kn--
kna--
kne--
kno--
ko--
kob--
koby--
koe--
kofe--
koh--
kol--
koll--
kolon--
kolonis--
komb--
kombina--
komm--
komp--
kompara--
komplitsi--
komposit--
komunaal--
kon--
konst--
kontra--
kool--
koom--
koor--
kop--
kor--
korea--
kos--
kou--
kov--
kow--
kp--
kpa--
kr--
kra--
kraft--
krais--
krasno--
kreis--
krem--
kreuz--
krim--
kris--
kro--
krons--
kru--
kry--
ks--
kst--
kt--
ku--
kubik--
kui--
kul--
kultur--
kultuur--
kum--
kun--
kunst--
kup--
kur--
kurii--
kurn--
kurt--
kurz--
kuugel--
kuup--
kv--
kw--
kwa--
kwadraat--
kwadroot--
kwanten--
kwel--
kwiten--
ky--
kɑ--
l--
la--
laa--
laacht--
laap--
lac--
lacinia--
lai--
lak--
lam--
lamni--
lan--
lanci--
land--
landes--
lang--
lao--
lap--
lari--
las--
lasio--
last--
lat--
lau--
lauen--
law--
laxi--
laz--
lb--
ld--
lde--
le--
lec--
led--
lee--
leecht--
leer--
lef--
legi--
leh--
lei--
leios--
lej--
lek--
lem--
len--
leo--
lep--
lepidot--
lepto--
ler--
lersaa--
les--
let--
letj--
letz--
leuc--
leucan--
leucop--
lew--
lf--
lg--
li--
lia--
lian--
liar--
libo--
lic--
licht--
lid--
lidj--
lie--
lieb--
lif--
lii--
liich--
liin--
lik--
like--
limno--
limnog--
limo--
lin--
lis--
lise--
lisso--
litho--
lito--
litto--
lj--
ljk--
lk--
ll--
lle--
ln--
lo--
lobo--
locht--
lock--
loe--
loft--
log--
logarit--
lokom--
long--
longis--
look--
loon--
loons--
lop--
lopho--
lor--
los--
lot--
lotos--
lou--
lov--
low--
lp--
lr--
ls--
lsotsj--
lst--
lt--
lu--
luar--
luas--
luc--
lucht--
lud--
ludo--
luft--
luk--
luksus--
lun--
lung--
lunsd--
lus--
lv--
lwes--
ly--
lyco--
lycopodio--
læ--
m--
ma--
maa--
maan--
mac--
macbr--
mach--
macra--
macro--
macroceph--
mad--
made--
madel--
mae--
mag--
maha--
mahar--
mahi--
mahn--
mai--
main--
mak--
mal--
mala--
maldi--
mali--
mam--
man--
mans--
mar--
mara--
mark--
marok--
masch--
mass--
mat--
mate--
mathe--
matri--
mau--
mauri--
maxil--
may--
maz--
mb--
mc--
md--
me--
mea--
meaar--
mearn--
med--
meedis--
mega--
megal--
megas--
mei--
meit--
mel--
melam--
melano--
men--
mephi--
mer--
merel--
mero--
mes--
mesop--
mesopot--
met--
meta--
meteo--
metho--
metro--
mexi--
mez--
mg--
mi--
mia--
mic--
micro--
microceph--
microg--
micros--
mid--
mii--
mikro--
mil--
militeer--
min--
mir--
misc--
misk--
mit--
mitocho--
mittag--
mitte--
mix--
mja--
mk--
ml--
mm--
mn--
mo--
moa--
moc--
mocte--
moder--
moe--
moi--
moks--
mol--
molk--
mon--
monan--
mono--
mont--
mool--
moon--
moor--
mor--
[...]
