!
"
#
##0
##1
##10
##11
##12
##13
##14
##15
##16
##17
##18
##19
##2
##20
##21
##22
##23
##24
##25
##26
##27
##28
##29
##3
##30
##31
##32
##33
##34
##35
##36
##37
##38
##39
##4
##40
##41
##42
##43
##44
##45
##46
##47
##48
##49
##5
##50
##51
##52
##53
##54
##55
##56
##57
##58
##59
##6
##60
##61
##62
##63
##64
##65
##66
##67
##68
##69
##7
##70
##71
##72
##73
##74
##75
##76
##77
##78
##79
##8
##80
##81
##82
##83
##84
##85
##86
##87
##88
##89
##9
##90
##91
##92
##93
##94
##95
##96
##97
##98
##99
$
%
&
'
(
)
*
+
,
-
.
/
0
00
000
0000
001
002
003
004
005
006
007
008
009
01
010
011
012
013
014
015
016
017
017485
017770
018
019
02
020
021
022
023
024
025
026
027
029
03
030
031
032
033
034
035
036
037
038
039
04
040
041
042
043
044
045
046
047
0470
048
049
05
050
051
052
053
054
055
056
057
058
059
06
060
061
062
063
064
065
066
067
068
069
07
070
071
072
073
0736
074
075
076
077
078
079
08
080
081
0815
082
083
084
085
086
087
088
089
09
090
091
092
093
094
095
096
098
099
1
10
100
1000
1001
1002
1006
101
1011086
1016
1018
102
1021
1024
1025
103
104
105
1050
106
107
108
109
1096
11
110
1100
1101
1103
111
1110
1111
1115
112
1120
113
114
115
1150
116
116666666667
117
1170
118
1185
1189
119
1198
12
120
1200
1201
1206
1209
121
1218
1219
122
1229
123
1231
1238
124
1240
1241
12411
125
1250
1252
1254
1257
1259
126
1260
1265
127
1270
1272
128
1284
129
1299
13
130
1300
1304
131
1313
1314
1316
132
1323
1324
1325
1326
1328
1329
133
1330
1333
134
135
1350
1351
1352
1359
136
1360
1362
1367
1368
1369
137
1371
1377
138
1380
1389
139
1390
1392
1393
1397
1398
14
140
1400
1401
1402
1405
1406
1408
1409
141
1413
1414
1415
1416
1418
1419
142
1421
1422
1424
1425
1427
1428
143
1432
1433
1435
14356007
1436
1437
1438
144
1440
1444
1446
1447
1448
1449
145
1450
1451
1452
1453
1455
1457
1459
146
1460
1461
1462
1464
1465
1466
1468
1469
147
1470
1471
1472
1473
1478
148
1480
1481
1483
1485
1486
1487
1488
149
1490
1491
1492
1493
1494
1495
1497
1498
1499
15
150
1500
1502
1503
1505
1506
1507
1509
151
1510
1511
1512
1513
1515
1517
1518
1519
152
1520
1521
1523
1524
1527
1528
153
1530
1532
1533
1534
1535
1536
1538
154
1542
1543
1544
1545
1546
1547
1549
155
1550
1553
1555
1556
1558
1559
156
1560
1564
1565
1566
1567
157
1570
1571
1572
1574
1575
1576
1577
1578
1579
158
1580
1582
1584
1586
1587
1588
159
1590
1594
1595
1597
1598
1599
16
160
1600
1601
1602
1603
1605
1606
1608
161
1610
1611
1614
1615
1616
1617
1618
1619
162
1620
1621
1622
1623
1625
1626
1627
1629
163
1630
1632
1633
1634
164
1640
1641
1642
1643
1644
1646
1647
1648
1649
165
1650
1651
1652
1656
1659
166
1660
1661
1664
1665
1666
1667
1668
167
1670
1671
1674
1677
1678
168
1680
16807
1682
1684
1685
1686
1687
1688
169
1690
1691
1693
1694
1695
1697
1698
1699
17
170
1700
1701
1702
1703
1704
1707
1708
1709
171
1711
1712
1713
1714
1715
1716
1717
1718
1719
172
1720
1721
1722
1723
1724
1725
1727
1728
1729
173
1730
1732
1733
1734
1735
1736
1737
1738
1739
174
1740
1741
1742
1744
1745
1746
1747
1748
1749
175
1750
1751
1752
1753
1754
1755
1756
1757
1758
1759
176
1760
1761
1762
1763
1764
1765
1766
1767
1768
1769
177
1770
1771
1772
1773
1774
1775
1776
1777
1778
1779
178
1780
1781
1782
1783
1784
1785
1786
1787
1788
1789
179
1790
1791
1792
1793
1794
1795
1796
1797
1798
1799
18
180
1800
1801
1802
1803
1804
1805
1806
1807
1808
1809
181
1810
1811
1812
1813
1814
1815
1816
1817
1818
1819
182
1820
1821
1822
1823
1824
1825
1826
1827
1828
1829
183
1830
1831
1832
1833
183333333333
1834
1835
1836
1837
1838
1839
184
1840
1841
1842
1843
1844
1845
1846
1847
1848
1849
185
1850
1851
1852
1853
1854
1855
1856
1857
1858
1859
186
1860
1861
1862
1863
1864
1865
1866
1867
1868
1869
187
1870
1871
1872
1873
1874
1875
1876
1877
1878
1879
188
1880
1881
1882
1883
1884
1885
1886
1887
1888
1889
189
1890
1891
1892
1893
1894
1895
1896
1897
1898
1899
19
190
1900
1901
1902
1903
1904
1905
1906
1907
1908
1909
191
1910
1911
1912
1913
1914
1915
1916
1917
1918
1919
192
1920
1921
1922
1923
1924
1925
1926
1927
1928
1929
193
1930
1931
1932
1933
1934
1935
1936
1937
1938
1939
194
1940
1941
1942
1943
1944
1945
1946
1947
1948
1949
195
1950
1951
1952
1953
1954
1955
1956
1957
1958
1959
196
1960
1961
1962
1963
1964
1965
1966
1967
1968
1969
197
1970
1971
1972
1973
1974
1975
1976
1977
1978
1979
198
1980
1981
1982
1983
1984
1985
1986
1987
1988
1989
199
1990
1991
1992
1993
1994
1995
1996
1997
1998
1999
2
20
200
2000
20000
2001
2002
2003
2004
2005
2006
2007
2008
2009
201
2010
2011
2012
2013
2014
2015
2016
2017
2018
2019
202
2020
2021
2022
2023
2024
203
204
205
206
207
208
209
21
210
2100
211
212
213
214
215
216
216666666667
217
218
219
22
220
2200
221
222
223
224
225
226
227
228
229
23
230
2300
231
232
233
234
235
236
237
238
239
24
240
241
242
2421
2425
243
244
245
246
247
248
249
25
250
2500
251
252
253
254
255
256
257
258
259
26
260
261
26169
262
263
264
265
266
266666666667
267
268
269
27
270
2700
271
272
273
274
275
276
277
278
279
28
280
281
282
283
284
285
286
287
288
289
29
290
291
292
293
294
295
296
297
298
299
3
30
300
3000
301
302
303
304
305
306
307
308
309
31
310
311
312
313
314
315
316
3166
316666666667
317
318
319
32
320
321
322
323
324
325
326
327
328
329
33
330
331
332
333
333333333333
334
335
336
337
338
339
34
340
341
342
343
344
345
346
347
348
349
35
350
3500
351
352
353
354
355
3555
356
357
358
359
36
360
3600
361
362
363
364
365
366
366666666667
367
368
369
37
370
371
372
373
374
375
376
377
378
379
38
380
381
382
383
384
385
386
387
388
389
39
390
391
392
393
394
395
396
397
398
399
4
40
400
4000
401
402
4020
403
404
405
406
407
408
409
41
410
411
412
413
414
415
416
416666666667
417
418
419
42
420
4200
421
4217
422
423
424
425
426
427
428
429
43
430
431
432
433
434
435
436
437
438
439
44
440
441
442
443
444
445
446
447
448
449
45
450
451
452
453
454
455
456
457
458
459
46
460
461
462
463
464
465
466
467
468
469
47
470
471
472
473
474
475
476
477
478
479
48
480
481
482
483
484
485
486
487
488
489
49
490
491
492
493
494
495
496
497
498
499
5
50
500
5000
501
502
503
504
505
506
507
508
509
51
510
511
512
513
514
515
516
517
518
519
52
520
521
522
523
524
525
526
527
528
529
53
530
531
532
533
534
535
536
537
538
539
54
540
541
542
543
544
545
546
547
548
549
55
550
5500
551
552
553
554
555
556
557
558
559
56
560
561
562
563
564
565
566
567
568
569
57
570
571
572
573
574
575
576
577
578
579
58
580
5806
581
5812
582
583
583333333333
584
585
586
587
588
589
59
590
591
592
594
595
596
597
598
599
6
60
600
6000
601
602
603
604
605
606
607
608
609
61
610
611
612
613
614
615
616
617
618
619
62
620
621
622
623
624
625
626
627
628
629
63
630
631
632
633
634
635
637
638
639
64
640
641
642
643
644
645
646
647
648
649
65
650
651
652
653
654
655
656
657
658
659
66
660
661
662
663
664
665
666
666666666667
667
668
669
67
670
671
672
673
674
675
676
677
678
679
68
680
681
682
683
684
685
686
687
688
689
69
690
691
692
693
694
695
696
697
698
699
7
70
700
701
702
703
704
705
706
707
708
709
71
710
711
712
713
714
715
716
716666666667
717
718
719
72
720
721
722
723
724
725
726
727
728
729
73
730
731
732
733
734
735
736
737
738
739
74
740
741
742
743
744
7440
745
746
747
748
749
75
750
751
752
753
754
755
756
757
758
759
76
760
761
762
763
764
765
766
767
768
769
77
770
771
772
773
774
775
776
777
7776
778
779
7793
78
780
781
782
783
784
785
786
7868
787
788
789
79
790
791
792
793
794
795
7957
796
797
798
799
8
80
800
8000
8001
801
802
803
804
805
806
80665
807
808
809
81
810
811
8111556
812
813
814
815
816
817
818
819
82
820
821
822
823
824
825
826
827
828
829
83
830
831
832
833
833333333333
834
835
836
837
838
839
84
840
842
843
844
845
846
847
848
849
8493
85
850
851
852
853
854
855
856
857
858
859
86
860
861
862
863
864
865
866
867
868
869
87
870
871
872
873
874
875
87548
876
877
878
879
88
880
88007
88042
881
882
883
884
885
8859
886
887
888
889
89
890
891
892
89234
893
894
895
89500
897
898
89876
899
9
90
900
901
902
903
904
905
906
907
908
9084
909
91
910
911
912
913
914
915
916
916666666667
917
918
919
92
920
921
921860
922
923
924
924422
925
925735
926
927
928
929
93
930
931
932
933
933333333333
934
935
936
937
937467
938
939
94
940
941
942
943
944
945
946
947
948
949
95
950
951
952
953
954
955
956
957
958
959
96
960
961
962
963
964
965
966
967
968
969
97
970
971
972
973
974
975
976
977
978
979
98
980
981
982
983
984
985
986
987
988
989
99
990
991
992
993
994
995
996
997
998
999
:
;
<
=
>
?
@
[
\
]
^
_
`
a
aa
aaben
aabenpualem
aabenraa
aachen
aachener
aachst
aachstgratst
aacht
aachtbianeten
aachtst
aadel
aaden
aadria
aafrika
aafrikoons
aaft
aaftinoch
aaftjens
aagetanj
aagetanjst
aaiu
aak
aaks
aaksen
aal
aalborg
aalern
aalge
aalkersem
aalmtoorp
aaltumaal
aamram
aamrem
aamring
aamringer
aan
aaneegn
aanj
aanjen
aanjno
aanjstendig
aapelbuumer
aapelsiinen
aapler
aarber
aarberen
aarberers
aarberet
aarberi
aarbern
aarbert
aarberti
aarebaare
aarebaarin
aarem
aargau
aarhus
aarisk
aart
aarten
aartig
aasiaat
aasien
aast
aasten
aaster
aastholstiin
aatj
ab
aba
abaca
abakan
abasiinisk
abbey
abc
abchaasien
abchaasisk
abda
abdominea
abdu
abe
abeba
abel
abenaki
abendblatt
abenteuer
aber
aberrantia
abessiinsk
abgedeckt
abgerufen
abha
abidjan
abies
abituur
abku
abodriiten
abomey
abraham
abruzzeesk
abruzzen
abruzzo
abs
abschied
absolutismus
absoluut
abu
abuja
abwaschen
abyssinica
abyssinicus
ac
acacallis
acade
academy
acampe
acanthephippium
acari
acaulis
acca
accipiter
accipitridae
accipitriformes
accra
acer
aceratorchis
acetosella
acetylsalicylsa
ach
ache
achillea
acht
achter
achtergru
achtern
achtero
achtersteewen
achterweelen
achterwehr
achtkarspelen
achtrup
acianthera
acianthus
acineta
acinonyx
acipenser
ackermania
aconcagua
aconitum
acorus
acostaea
acoustics
acre
acriopsis
acris
acrocephalidae
acrocephalus
acrochaene
acrolophia
acrorchis
acryl
act
actinide
actinidia
actitis
aculeatus
acuminata
acuminatum
acuta
acute
ad
ada
adac
adair
adam
adamantinia
adamaua
adams
adana
addax
addis
ade
adelaide
adeline
aden
adenauer
adenochilus
adenoncos
adenosintriphosphat
adja
adjarra
adjektiif
adjohoun
adler
administration
administrative
administratives
administrativno
administrativos
admiraal
admiraliteet
adolf
adolph
adoxaceae
adrar
adres
adresen
adriaatisk
adrorhizon
adscensionis
adschaarien
adygea
adygeeisk
adygeeja
adygeja
adıyaman
ae
aedes
aegagrus
aeglefinus
aegotheles
aegypti
aene
aeonium
aepyceros
aerangis
aeranthes
aerides
aeroporto
aerosol
aeruginosus
aes
aesculus
aet
af
afar
afd
affinis
afghaanistaan
afghanicum
afghanistan
afkoot
africa
african
africana
africanus
afrika
afrikaa
afrikaans
afrikoo
afrikoons
afrikoonsk
afrique
afro
afrosoricida
afrotheria
afyonkarahisar
ag
agaawen
agadez
agadir
aganisia
agapanthus
agaricomycetes
agaricus
agatha
agathis
agave
agbangnizoun
agder
age
agency
agg
agglome
agglomerations
agilis
aglomeratschuunen
aglossorrhyncha
agnew
agordino
agostinho
agriculture
agrigent
agro
agrostemma
agrostophyllum
ague
agulhas
agung
agus
ah
ahafo
ahe
ahenobarbus
ahk
ahlefeldt
ahmed
ahornbuumer
ahrensbo
ahrensburg
ahrenvio
ahtna
ahuachapa
ai
aichach
aichi
aier
ailo
aimara
ain
aingelsch
ainglisch
ainglische
ainglo
ainkelte
ainu
air
aires
airport
ais
aisch
aise
aisne
aiswaampen
aix
aj
ajaccio
ajmag
ak
aka
akaatsien
akademii
akademy
akan
akelei
akelein
akeroot
akim
akkordi
akku
akkumula
akkus
akpro
akronu
akrotiri
aks
aksaray
aksen
aktiif
aktiinium
aktinoiden
aktiwiteet
aktualisiert
aktuel
aktuell
aktuelle
akuraat
akusatiif
akustik
akustische
akustisk
akwapim
akwitaanien
al
ala
alaanien
alabama
alacant
alachua
alajuela
alamania
alameda
alamosa
alan
alaotra
alaska
alastair
alauda
alaudidae
alb
alba
albaanien
albaansk
albania
albany
albaonien
albatrosen
albellus
alben
albersdorf
albert
alberta
alberto
alberts
albertslund
albicans
albicilla
albiflora
albifrons
alboanien
albrecht
albrechts
albuginales
albugo
album
albus
alca
alcea
alcedinidae
alcedo
alcelaphus
alcidae
alcock
aldgillis
aldrich
ale
alec
aleewen
alegre
aleksander
alemanisk
alentejo
aler
ales
alessandro
aleut
aleuten
aleutisk
alexander
alexandra
alexandre
alexandria
alfa
alfaaesar
alfabeet
alfred
algarve
algebra
algeerien
algemian
algemianer
algen
algeria
algerien
algier
algimiins
algonkin
ali
alian
alibori
alicante
alice
aligned
aliiarten
aliining
aliksa
alis
alisma
alismataceae
alismatales
aliweegen
alk
alkaalimetal
alkaalimetalen
alkaloid
alkaloiden
alken
alkersum
alkohol
all
allada
alle
allegheny
allein
allen
allenstein
allergische
allerheiligenflud
allerød
alles
allgemeine
allier
alliin
allium
alma
almaty
almeri
alo
aloe
aloen
alopochen
alp
alpen
alpenruus
alpes
alpestris
alpha
alphabet
alphabets
alpina
alpine
alpinus
alruun
alruunen
als
alstom
alsu
alt
alta
altaar
altai
altaisk
alte
alten
altenburger
altenkrempe
altensteinia
alter
altert
altes
altgeorgisch
altissima
altmarkkreis
alto
altona
altonaer
altra
altu
alu
alugha
alumiinium
aluminium
alutiiq
alutiitstun
alvise
alwat
alwin
alytus
alzette
am
ama
amabilis
amadeus
amador
amagante
amalie
amalienborg
amambay
amanbi
amanita
amaranten
amaranthaceae
amaryllidaceae
amaryllisplaanten
amasya
amazon
amazonas
amazonian
amazonica
amberg
ambi
amblypygi
amboise
ambrella
ambriz
ambroocht
ambuchanania
amda
amdat
amdreiangen
ame
ameerika
ameerikaa
ameerikaanisch
ameerikoo
ameerikoons
ameerikoonsk
amela
ameland
amenbai
amentotaxus
america
american
americana
americanus
ameriitsium
amerika
amerikanischen
amerikoonern
amerikoons
amerikoonsk
amerikoonsken
amerlun
amerorchis
amesiella
amfaadet
amfiibie
amfiibien
amgingen
amgung
amgungspriak
amgungsspriak
amhaarisk
amhuuch
amiens
aminosu
amitostigma
amkiard
amkimen
amlun
amman
ammerland
ammodorcas
ammoniten
ammophila
amna
amneemd
amoniak
amoron
amparoa
ampe
ampeloprasum
ampere
amphibia
amphibius
amphigena
amreegent
amringer
amrum
amrumbank
amrumer
amsaat
amskrewen
amskriiwang
amso
amsteld
amsterdam
amstreden
amstreeden
amt
amte
amtelk
amten
amtfrei
amtlik
amtsfrei
amtspriak
amtspriaken
amtsspriak
amtsspriaken
amtsspriik
amtusaaten
amu
amur
amurensis
amwa
an
ana
anacamptis
anagallis
anakkale
analamanga
analanjirofo
analysis
ananas
anarhichas
anas
anathallis
anatidae
anatoolien
anc
ancash
anchusa
ancipitia
ancistrochilus
ancistrorhynchus
ancona
ancuabe
and
andaluci
andalusien
andaluusien
andamaanen
anden
andere
anderen
anders
andersen
anderson
andora
andorra
andre
andrea
andreas
andrefana
andrej
andres
andresen
andrew
andria
androcorys
android
andromeda
andropow
androy
ane
anekdoten
anen
anenfamile
anenfo
anert
anfa
ang
angad
angara
angeben
angela
angeles
angeln
anglia
anglo
anglonormans
angoche
angol
angola
angolensis
angoola
angraecopsis
angraecum
anguilla
anguilliformes
anguloa
angustifolia
angustifolium
anhalt
anhang
anhima
anholt
anhui
ani
anie
aniid
aniiden
animalia
animas
anion
anis
anjra
ankara
ankırı
anlegen
anleitung
anlıurfa
anmerkungen
ann
anna
annalena
annan
anne
annelida
annen
anno
annobo
annona
annonaceae
annuaire
annual
annuum
annuus
ano
anoectochilus
anomala
anongs
anonymous
anorganischen
anosy
anrufen
ans
ansbach
anse
ansellia
anser
anseriformes
anserinae
anserini
anski
ant
anta
antalya
antananarivo
antarctica
antarktikaa
antarktis
antarktisk
antarktisregiuunen
ante
anthemis
anthogonium
anthony
anthriscus
anthus
anti
antibiotikum
antidorcas
antigua
antiigua
antiik
antike
antilen
antilla
antillanorchis
antilles
antilocapridae
antiloop
antiloopen
antilope
antilopinae
antilopini
antimoon
antje
anto
antofagasta
antoine
anton
antoni
antonia
antonio
antonius
antrim
antropologii
antwerpen
anura
any
anzeiger
anzugeben
anø
ao
aon
aorchis
aosta
aostada
ap
apa
apache
apachean
apalopteron
aparte
apartheid
aparti
apartig
apbau
apbaud
apdaaget
apdiald
apeniinen
aperoot
apfeerd
apgoowen
apha
aphu
aphyllorchis
apiaceae
apiales
apidae
apis
apium
apjiwen
apk
apkaam
apkimen
apklaarang
apkleering
apla
aplaag
aplahoue
aplectrum
apleesen
apliaset
aplodontia
apnimen
apocynaceae
apodiformes
app
appalachen
appendiculata
appenzell
apple
applegate
applied
appling
appoint
approx
apps
apracht
aprel
apricaria
aprikoos
april
aprilbluumen
aprilmuun
aprocht
apsaat
apsaatet
apschraawen
apska
apskrewen
apstant
apsteld
apta
aptaanj
aptiien
aptooch
aptreeden
apulia
apus
apuulien
apwa
apwaaksen
apwarmin
apwerket
apwoksen
aq
aqa
aqat
aquatica
aquatilis
aquila
aquilegia
aquitaanien
aquitaine
ar
ara
araabien
araabisk
araabsk
araalienplaanten
arab
araba
arabica
arabitragus
arabiyya
araceae
arachis
arachnida
arad
arafura
aragatsotn
arago
aragoneesk
aragonien
aragoonien
araliaceae
arama
aran
araneae
araneesk
arapaho
arapahoe
ararat
arauca
araucani
araucaria
araucariaceae
araukaanern
araukaanien
araukaarien
arawak
arbeit
arbeitsagentur
arbeitslosenquoten
arborea
arbutus
archa
archaikum
archangelsk
archeoloogisk
archiif
archimedes
archipeel
archipel
architekt
archiv
archive
archives
archivlink
archiwiaret
archsem
archuleta
arcona
arctic
arctica
arcticnet
arctium
ard
ardahan
arde
ardea
ardeidae
ardenne
ardennes
are
area
areaal
areal
areas
arecaceae
arecales
arenaria
arenarium
arenas
arendt
arenga
arenicola
arensharde
arezzo
arfst
arfsten
argania
argentatus
argentea
argenteus
argentiinien
argentina
argentinien
arges
argon
argual
arica
aridane
arie
aries
aristoteles
aritmeetik
arizona
arizonica
ark
arkansas
arke
arkebek
arken
arkes
arkhangelsk
arko
arkona
arktis
arktisk
arlau
armawir
armee
armeenien
armeens
armeensk
armenia
armeniaca
armor
armstrong
army
arn
arno
arnold
arnolf
arnsberg
aromaticum
arona
arondisamant
aronia
array
arre
arrecife
arrondissement
arrondissementen
arrondissment
ars
arseen
art
arta
artemisia
arthropoda
arthur
artibonite
article
artiikel
artiikle
artiikler
artikel
artiodactyla
arts
artvin
aruba
arumeensk
arundinaceus
aruuba
arvense
arvensis
arvicola
arviligjuaq
arzt
as
asa
asag
asaron
ascalonicum
ascension
asch
aschaffenburg
ascheberg
aschenborn
aschmjany
ascoli
ascorbinsa
aserbaidschaan
aserbaidschaans
aserbaidschaansk
aserbaidschan
asger
ashanti
ashe
ashley
ashmore
asiaatisk
asiatica
asien
asilah
asinus
asio
asipowitschy
ask
asmara
asosiiaring
asotsiatiifgesets
asow
asp
asparagaceae
asparagales
asparagus
aspera
asphodelaceae
asphodelus
assa
assam
assembly
assen
assens
association
assr
astana
astekisk
asteraceae
asterales
asteroiid
astrachan
astrawets
astrid
astronaut
astronomii
astronoom
astronoomisk
asturias
asturien
astuurien
astuurisk
asuncio
asw
at
atacama
atacora
atakora
atakpame
atapaskisk
atatu
atc
atelier
atemwege
atentaat
atenteeter
athabasca
athabaskan
atheen
athen
athene
ati
atkinson
atla
atlanta
atlantic
atlantica
atlantik
atlantikku
atlantique
atlantiques
atlantis
atlantisk
atlas
atmosfeere
atmosfiir
atol
atolen
atomaar
atomic
atoom
atoome
atoomen
atoomfu
atoomkial
atoomnumer
atoomstruum
atoomstruumuunlaagen
atoomta
atp
atriplex
atsimo
atsinanana
atsooren
attika
atwima
atyrau
au
aube
aubergine
aubl
auch
aucheri
aucuparia
aude
audi
audio
audulf
auenland
auer
aueraal
auerblewen
auerbliiwsel
auerden
auerdraanj
auerdreegen
auerdrewen
auerfa
auerfamile
auerfamilin
auergingen
auergung
auergungsmetal
auergungsmetalen
auerhood
auerian
auerk
auerklas
auerleewert
auerlewe
auerlewet
auerlo
auerma
auernaam
auernimen
auerorder
auersaat
auersaatang
auersaater
auersaating
auerseet
auerseeter
auersicht
auerspeeld
auerstam
auertju
auerwerket
auf
aufbewahren
aufgenommen
aufgerufen
aufl
auflage
augen
auger
augost
augsburg
august
augusta
auguste
augustin
augustus
aur
aural
aurantiaca
aurantiifolia
aurantium
aurata
auratus
aurdat
aurea
aurelia
aureum
aureus
aurich
auriit
auriiten
aurita
auritus
aurn
aurnem
aurnemen
aurnomen
aurnoom
aurora
aurseet
aurseeting
aurseetingen
aurset
aurskot
aurskreften
aus
auschwitz
ausgewa
ausserrhoden
ausspu
austraalien
austraalisk
austral
australasica
australe
australia
australian
australien
australis
austria
austriacum
austroneesk
austrotaxus
ausziehen
autauga
authorities
authority
auto
autodek
autofabrik
autofirma
autofo
autographa
autoka
automaatisk
automatisch
automobiil
automobil
automotive
autonome
autonomen
autonomiegebiete
autonomii
autonomous
autonoom
autonoomi
autooren
autoorin
autor
autos
autotoch
autotochen
auvergne
aux
auxis
außer
ava
avannaata
ave
aveiro
avellino
avena
aventoft
averlak
averrhoa
aves
aveyron
aviv
avogadro
avrankou
aw
awa
award
awg
awi
awokaado
awt
ax
axel
axis
ay
aydın
ayoun
ayse
aythya
az
azilal
azoren
azoricus
azur
azurea
aŋ
b
ba
baadelidj
baal
baaler
baan
baanen
baang
baanhof
baantje
baar
baarilir
baarium
baarle
baarlook
baas
baasis
baasisk
babine
babrujsk
bac
baca
baccata
bach
bachelor
bachrain
backhefe
bacon
bad
badajoz
baden
badge
badia
baerbock
bafata
baffin
bagdad
baget
bago
baguirmi
bah
baha
bahaamas
bahamas
bahi
bahiensis
bahnsen
bahr
bahrain
bai
baien
baikal
baikalsia
bailey
bailly
bairisch
bairisk
baispal
bait
baja
bak
bakbuurd
baker
bakeri
bakern
bakteerien
bakteerium
baku
bal
balaad
balama
balansae
baldwin
bale
balearen
baleares
balears
bali
balineesk
balkaankrich
balkaarien
balkaarisk
balkan
ball
ballade
ballerup
balsambuumer
baltijsk
baltikum
baltimore
baltisk
balıkesir
bam
bamako
bambara
bamberg
bambus
bamingui
bamme
ban
banaan
banaanen
banat
band
banda
bandama
bandikuts
bandix
bane
banen
banenlun
banensta
banenstoot
baner
banfora
bang
bangkok
bangladesch
bangladesh
bangoran
bangui
bani
banikoara
banjul
bank
bankivahan
banks
banlun
banluns
banska
banskobystricky
bante
banten
bantoid
bantu
bantuspriak
bantuspriaken
bantuspriiken
bantustan
banwa
banyanbuum
baptiste
bar
bara
barack
baragan
baraganen
baranawitschy
barat
barb
barbaados
barbados
barbara
barbarossa
barbata
barbatus
barbour
barbuda
barbuuda
barcelona
bard
barents
bargen
bargenstedt
bargteheide
bargusin
bari
barishal
barkenholm
barking
barkley
barkly
barlach
barlavento
barletta
barlovento
barlt
barnet
barnim
barok
baron
barrier
barrio
barron
barros
barrow
barry
barschoortagen
barthe
barths
bartling
bartolome
barton
bartow
bartın
baruch
bas
baschkiirisk
baschkir
baschkortostaan
base
based
basel
bashkortostan
basho
basic
basiilikum
basilicum
basilikaata
basin
basis
basiswo
baskenlun
baskisk
baskoop
baskop
bass
bassa
bassanus
basse
basseterre
bassila
bassins
bat
bater
baterii
bateriien
bath
batha
bathurst
batken
batman
batrachostomus
batschka
battery
bau
baud
baudial
bauen
bauer
baukonst
baumann
baunt
baure
baut
bautzen
baxter
bay
bayburt
bayer
bayerisches
bayern
bayesid
bayezid
bayreuth
baze
bb
bbc
bbe
bbecke
bbel
bc
bceao
bd
bdeen
be
bea
beac
beach
beamte
bear
bearbeitet
beatles
beatragus
beaufort
beaver
beaverhead
bebooged
bec
bech
bechning
bechningen
bechningsreeg
becht
beck
becker
becquerel
beda
bedford
bedfordshire
bedialagt
bedju
bedobet
bedraapt
bedrewen
bedriifsu
bedriiw
bedrohte
bedu
beed
beeder
beeft
beeintra
beek
beekdo
been
beend
beenedikt
beenk
beer
beerdiarten
beeren
beerenho
beergem
beeridmoune
beese
beesem
beesemskroben
beest
beesten
beeten
beeter
beethoven
bef
befa
befaade
befaadet
befo
befolkning
befolkningen
befraid
befreid
bega
begaant
began
begand
beganed
begant
begin
begonia
begoonien
begra
begreewen
begrip
begru
beha
behlendorf
bei
beien
beijing
beim
beira
beirut
beisa
beispiel
beitrag
beja
bejewenhaid
bejewenhaiden
beka
bekannt
beken
bel
bela
belaagering
belaagring
belaja
belarus
belastok
belegt
belemniten
belewet
belewin
belfast
belfort
belgica
belgien
belgiern
belgisk
belgium
belglaagen
belgorod
belgrad
belize
bell
bella
belle
bellevue
bellis
bellman
bello
bellona
belluno
belmopan
belo
belomorkanaal
belomorsk
belone
beloniformes
beloogering
beltsville
belu
bemba
bembe
ben
bena
bende
bendsen
benedikt
benelux
benen
benes
benevento
bengaalen
bengaals
bengalensis
benghalensis
bengo
bengoue
benguela
benguelastruum
beni
beniin
benin
benito
benjamin
bennour
beno
bensiin
bensiinmaskiin
bensiinmotoor
bent
benth
bentham
benthamii
bentheim
benton
benue
benz
ber
bera
beracht
berag
beragan
beragkeed
beraiset
berat
berberidopsidales
berberisch
berbersjep
berberspriak
berbice
berblick
berchem
bere
berea
bereegent
bereegnang
bereegnangen
bereegne
bereegnin
bereert
bereits
beren
berenices
berepen
berg
berge
bergen
berger
bergewo
bergisch
bergischer
bergkarabach
bergkirchen
bergmann
bergstraße
berichte
berig
beriglungemeenden
bering
beringsia
beringstruat
berkane
berkeley
berkenthin
berkru
berks
berkshire
berliin
berlin
berliner
berlingo
bermu
bermuuda
bern
bernard
bernardino
bernardo
bernd
berners
bernhard
bernicla
beroortagen
beroun
berrechid
berrien
berrut
berry
bertha
berthold
bertram
bertrand
beru
beryllium
bes
besa
besaat
besaatet
besaating
beschendorf
beschreibung
beschu
besfleegen
besiidelt
besirk
besju
beskiiden
beskraft
beskrewen
beskriiw
beskriiwang
beskriiwen
beskriiwing
beslo
beslood
beslu
besondere
besoocht
best
besta
bested
bestehen
besteht
bestellen
bestemang
besteme
bestemet
bestenen
bestimd
besto
bestoont
bestun
besuners
bet
beta
betaalet
betacoronavirus
betancuria
bethlehem
betiakent
betiaknang
betiaknangen
betiakne
betiikned
betj
betjocht
beton
betra
betroffenen
betru
betsiboka
bettongia
betula
betulaceae
betulus
bevo
bevolking
bevolkingsontwikkeling
bewa
bewaaret
bewaarin
beweeging
bewenet
bewerket
bewickii
bewis
bewise
bewiset
bewoksen
bexley
bey
bezirk
bezirke
bf
bfaalen
bg
bh
bhisho
bhutan
bhuutaan
bhuutoons
bi
bia
biaarbert
biafra
biak
biakin
bian
biand
bianer
bianfask
bianfasker
biard
biardenwaaler
bias
bib
bibb
biberach
bibha
bibleteek
bibleteeken
bibliographisches
bibliography
biblioteca
bibliothe
bicolor
bicornis
biden
bidens
bidos
bidrach
bidrachen
bidracher
bidreft
bidreftsysteem
bidrewen
bidriiwer
bie
bielefeld
bieno
bieti
bifreid
bifriit
bifut
big
bigen
bigening
bigent
bigenti
bignoniaceae
bigreewen
bigrep
bigrepen
bigyra
bihanelt
bihar
biho
bihor
bihual
biibel
biiber
biibern
biike
biikebrennen
biikemuun
biikenmoune
biiki
biin
biir
biiring
biisams
biise
biison
biisons
biispel
bike
bikeent
bikeentest
biko
bil
bild
bilde
bilder
bildern
bildet
bildin
bildung
bile
bilecik
biled
bilen
bilet
bileta
bilhauer
bili
bilingual
biljen
biljhauer
biljuunen
bill
billings
billund
billy
bilogora
biluket
biluki
bin
binai
binder
binga
bingen
bingo
binj
binjer
binomisk
binu
bio
biografii
bioko
biologii
bioloog
bioloogisk
biombo
bip
bir
bird
birds
bireeknet
bireekni
bireekning
birgit
birinci
birkebuumer
birkeplaanten
birkerød
birma
birmaans
birmingham
birocht
bis
bisch
bischkek
bisher
bisjuk
biskaia
biskaya
biskiir
biskiiren
biskrewen
biskriiwing
bisliip
bislo
bismarck
bismut
bison
bispal
bispalen
bispo
bissau
bist
bistel
bistelt
bistemet
bistorta
bistrit
bistruum
bistruumer
bit
bitaalet
bitaali
bitj
bitlis
bito
bitschura
bitte
bitterfeld
bitu
bituminaria
bivalvia
bixaceae
biyati
bizaad
bizerte
bizi
bj
bjarne
bjarntoorp
bjelovar
bjen
bjo
bk
bke
bl
bla
blaanern
blaawen
black
blaft
blagoewgrad
blai
blaine
blair
blaise
blak
blakfasker
blakfat
blakswaampen
blanc
blanca
blanco
blank
blansko
blast
blauort
ble
bleckley
bleed
bleeden
bleedenmo
bleedfangergekos
bleer
bleeren
blees
bleese
bleev
bleew
blef
blefen
bleft
blek
blekinge
blepharocalyx
bleu
bleut
blewen
blica
blick
bliestorf
bligh
bliif
bliir
bliiv
bliiw
blik
blika
blingen
blinj
blinjneeten
blinjwarper
blink
blitta
blixen
blo
bloatware
bloemfontein
blokfloit
bloom
bloomsbury
bloos
bloosen
bloosenplaant
bloosenplaanten
blooska
bloot
blount
bluas
bluat
bluats
blud
blue
blues
bluetooth
bluff
blume
bluum
bluumen
bm
bms
bmw
bn
bo
boa
boaco
board
bobe
bobeln
boberrosken
bobo
boca
bocas
bocht
bochum
bodensee
bodenseekreis
boeny
boffa
bogota
bohicon
bohm
bohn
boiling
boiss
bok
boke
bokel
boker
bokern
bokhorst
bokma
boksbuum
boksbuumer
boksbuumplaanten
bokstaav
bokstaawen
bokwiaten
bol
bolama
boleslav
boletus
boli
boliiwien
bolivia
boliviana
bolivien
bolles
bologna
bolu
bombardier
bombus
bombycilla
bombyx
bon
bonaire
bonaparte
bonasus
bongfru
bongo
bongolava
bongsiiler
bonifatius
boninensis
bonito
bonk
bonken
bonlem
bonn
bonou
booge
booged
boogeden
book
books
boola
boomer
boon
boone
boonhoof
boonhoofer
boonhuf
boor
boorlem
boorsko
boostedt
boovki
boowen
boowenst
boower
boowerhood
boowerpresident
boowersjiisk
boowerst
boowervolta
bopa
bophuthatswana
boquero
bor
bora
borag
boraginaceae
borchert
bordeaux
bordelum
bordesholm
boreal
borealis
boren
borgenlunkroatisk
borger
borges
borgou
borig
borigsem
boris
borken
borkou
borkum
born
borne
borneensis
borneo
borneogulkaat
bornho
bornholm
bornmuelleri
borough
boroughs
borstelmann
bos
bosch
boselaphus
bosk
bosken
bosker
boskgemsen
boskkautsen
boskroomer
bosnia
bosnien
bosnisk
bosporus
bossen
bossito
boston
bot
botaanik
botaaniker
botanic
botaurus
bote
boten
botos
botsuana
botswana
botticelli
bottrop
bou
bouches
boucle
bouenza
bougainville
bougouriba
boujdour
boukoumbe
boulder
boulemane
boulgou
boulkiemde
bourbon
bourges
bourgogne
bourgoin
bousbel
boutros
bouvet
bouzid
bovidae
bovinae
bovinus
bovista
bow
boy
boyens
boysen
bozankaya
bozen
br
bra
braacht
braahmii
braamsta
braanboor
braandebei
braanholt
braanna
braant
braanwa
braarep
braaset
brabant
bracciolini
brachionichthys
brachycera
brachyurus
bracknell
bracteata
brade
braderup
bradford
bradlep
bradley
bradtke
brag
braga
braganc
bragen
brahe
brahmaputra
brahms
brain
bram
bramborska
bramstedt
bramstedtlund
branco
brand
brande
brandenbo
brandenboorj
brandenborag
brandenborch
brandenborig
brandenborj
brandenburg
brandt
brangt
brannenborg
brant
branta
brantley
brar
braren
bras
brasiilien
brasiliaans
brasilien
brasiliense
brasiliensis
braslau
brassica
brassicaceae
brassicae
brassicales
bratislava
braun
braunschweig
brava
brazil
brazza
brazzaville
brc
bre
brecht
bredstedt
breegen
breek
breeklem
breemen
breemerhuuwen
breer
breerer
breerhair
breetje
breetjin
breetst
breetsteed
breev
brehm
breiaapelbuum
breiaapelplaanten
breipot
breisgau
breitenburg
breitenfelde
breklum
breklumer
breler
bremen
bremer
bremerhuuwen
bremset
bremsi
bren
brenstofselen
brenstofseli
brent
brenwert
breschnjew
brescia
breslau
brest
bretagne
bretonisch
bretoonisch
bretoonsk
brevard
brevifolia
breyner
briad
briadsteed
briaf
brian
briaw
brickeln
bridgetown
bridjen
brief
brieuc
briggs
brighton
briiten
brikama
brindisi
bring
bringen
bringi
bringt
brisbane
bristol
britannica
briten
british
britisk
britisken
brjansk
brno
bro
broadwater
brockhaus
brod
broder
brokdorf
broket
brokopondo
bromeelien
bromeelienplaanten
bromelia
bromeliaceae
bromern
bromley
brong
brons
bronse
bronsetidj
bronte
bronx
broocht
brooklyn
brooks
broom
broomfield
broor
brouwer
broward
brown
brownii
browser
browsing
brt
bru
bruad
bruan
bruarwening
bruce
bruch
brud
bruder
bruhns
bruket
bruler
brunei
brunhilde
bruno
brunsbu
brunswick
brusca
brussel
brussels
brutto
bruunei
bryan
bryophyta
brøndby
brønderslev
bs
bse
bsidj
bsidjen
bsta
bsteed
bsteeden
bt
bu
bualigsem
bualigsemer
buan
buanen
buark
buat
buaten
buati
bubalus
bubanza
bubo
bucephala
bucerotiformes
buch
buchanan
buchholz
buchstabe
buchstaben
bucht
buckinghamshire
bucks
buda
budapest
buddha
buddhismus
buddhistisk
bude
budorcas
buenos
buer
buererii
buern
buffalo
bufo
bufonidae
bug
buh
bujumbura
buk
bukarest
buken
bukit
buksteew
buksteewen
buksteewer
bula
bulawayo
bulgaarenrik
bulgaarien
bulgaars
bulgaarsk
bulgaria
bull
bulloch
bullock
bumthang
bund
bundes
bundesagentur
bundesamt
bundesda
bundesdai
bundesdaiswool
bundesdaiswoolen
bundesdistrikt
bundesdistrikten
bundesfersiinstkru
bundesfo
bundeskansler
bundeslo
bundesloun
bundesloune
bundesluin
bundeslun
bundeslunen
bundesminister
bundesministerium
bundespresident
bundesrepubliik
bundesrepublik
bundesstaat
bundesstaaten
bundesstoot
bundesstooten
bundestagswahl
bundestoot
bundeswahlleiter
bundsfortiinstkru
bundslo
bundsweer
bundwiir
bundwiiren
bungsberg
bunsoh
buonaparte
burdur
bureau
buren
burg
burgas
burgenland
burgenlandkreis
burgos
burgund
burjaatien
burjaatisk
burke
burkiina
burkina
burns
bursa
burundi
bururi
burushaski
buryatia
bus
busan
busch
busdorf
busenwurth
bush
busi
business
buske
but
butelku
buteo
butha
buthe
butler
butte
butts
buum
buumelk
buumer
buumgrens
buumkaat
buumkaater
buumol
buund
buurd
buurenkrich
buurt
buxaceae
buxales
buxus
buza
bv
bw
by
byer
byrd
byron
bystrica
byte
byzanz
bz
bzw
błasc
bɑ
bʊ
c
ca
caaguazu
caazapa
caban
cabinda
cabo
cacheu
cactaceae
cadmium
cadore
caen
caerulescens
caeruleus
caesar
caesia
caffer
cagliari
cahto
cai
caicos
cairns
cal
calabria
calais
calandra
calaveras
calavi
calcariidae
calcium
calhoun
cali
calidris
california
californianus
californica
caligula
call
callionymidae
calliphoridae
callorhinchus
calluna
caltanissetta
calvados
calvin
calw
calystegia
cam
camara
cambodia
cambria
cambridge
cambridgeshire
camden
camelidae
camellia
camelopardalis
camelus
cameron
cameroon
cameroun
camille
camp
campanula
campanulaceae
campanulata
campbell
campestre
campestris
campo
campobasso
can
cana
canada
canadensis
canadian
canal
canaria
canarias
canariense
canariensis
canberra
cancajos
cancer
cancridae
candela
candida
candler
canellales
canescens
canidae
canina
canindeyu
canis
cankuzo
cannabaceae
cannabina
cannabis
canorus
cantabria
cantagalo
cantal
canterbury
canton
cantos
canus
cao
cap
capacity
cape
capellen
capensis
capital
capitata
capra
caprea
capreolus
capricornis
caprifoliaceae
caprifolium
caprimulgiformes
caprivi
capsaicin
capsicum
car
caracal
caras
carassius
caravaggio
carazo
carbo
carbon
carcharodon
carcinus
cardiff
carduelis
carex
cariah
caribbean
carica
carinata
carl
carleton
carlisle
carlo
carlos
carmen
carnivora
carolina
caroline
carolinensis
carota
carpinus
carpio
carrara
carrier
carroll
cars
carson
carsten
carstensen
cartago
carter
cartier
carum
carya
caryophyllaceae
caryophyllales
cas
casa
casablanca
casamance
cascabela
cascade
cascades
caserta
caspia
cass
cassiopeia
castanea
castanopsis
castello
castelo
castilla
castle
castor
castries
castro
casuariiformes
casuarinaceae
casuarius
cat
catalina
catania
catanzaro
cathaya
catherine
catoosa
catopuma
catumbela
catus
cau
cauca
caucasian
caucasica
caucasicum
caudata
caue
caulescens
causeway
cavalier
caye
cayenne
cayman
cayo
cbs
cc
ccs
cctld
cd
cdc
cdot
cds
cdu
ce
ceantar
cecil
cedar
cedrela
cedrus
celastraceae
celastrales
celebes
celeste
cell
celle
celsius
cenchrus
censo
census
cent
centaur
centauri
center
centers
centraal
central
centralbyra
centrale
centre
centro
centrodraco
cents
century
cepa
cephalophus
cephalopoda
cephalotaxus
cepheus
cer
cerastoderma
cerasus
ceratophyllum
cercis
cercles
cereale
ceremonial
cereopsis
ceres
cerevisiae
cernua
cerro
cervidae
cervus
cesena
cespitosa
cetacea
cetartiodactyla
ceuta
ceylon
cf
cfa
cg
cgs
ch
cha
chabarowsk
chad
chaffee
chagang
chakasien
chakasisk
chaladschisk
chalatenango
chalcogrammus
cham
chamberlain
chamberlin
chambers
chamerion
champagne
champignons
chan
chandigarh
chandragupta
chang
change
changhua
chanten
chantisk
chao
chaouia
chaplin
characiformes
charadriidae
charadriiformes
charadrius
charco
charente
charentes
chari
charkiw
charleroi
charles
charlie
charlotte
charlton
charophyta
charta
chartuum
chase
chaskowo
chatham
chattahoochee
chattooga
chauken
chauna
chaus
chbleeden
chde
che
cheb
checklist
cheemiker
cheemisk
chefchaouen
chelidonichthys
chelsdorf
chelsea
chem
chemical
chemidplus
chemie
chemii
chemikaalienagentuur
chemikalie
chemische
chemischen
chemistry
chemnitz
chen
chenangaben
chenghua
cheoljong
cheongju
cher
cherokee
cherson
cheshire
chester
cheta
chetco
chevak
cheyenne
chfutet
chi
chiang
chiayi
chiba
chicago
chichaoua
chicot
chief
chieti
chiho
chihuahua
chiile
childebert
childerich
chile
chileensk
chilena
chilensis
chilopoda
chilperich
chilton
chilula
chimaera
chimaeridae
chimaeriformes
chimaltenango
chin
china
chinandega
chinensis
chionanthus
chiquimula
chirac
chiricahua
chiriqui
chis
chittagong
chiu
chiune
chlidonias
chlodwig
chloris
chlorocardium
chlorophyll
chlorophyta
chloroplasten
chlothar
chmeljnytsjkyj
chne
cho
chobe
choctaw
chod
chofu
choiseul
chologii
choluteca
chomsky
chomutov
chondrichthyes
chongqing
chongzhen
chontales
chopin
chorasan
chordata
chorinsk
chorthippus
chouteau
chov
chow
chr
chra
chrarda
chris
christ
christchurch
christiaan
christian
christiansborg
christiansen
christie
christina
christine
christoph
christophe
christopher
chromista
chronik
chronist
chrudim
chruschtschow
chrysantha
chrysanthemum
chrysolepis
chrysophyllum
chsische
chsisches
cht
chtag
chtboor
chtbuumer
chte
chten
chter
chtet
chtfla
chtfleegen
chtied
chtigen
chtouka
chu
chugach
chukha
chuncheon
chungcheong
chungcheongbuk
church
churchill
chuuk
ci
cia
ciaaw
cibitoke
cicero
cichliformes
ciconia
cicuta
cienfuegos
cifras
ciliata
cinerea
cingulata
cinkasse
cinnamomum
cinque
cio
circ
circus
cirsium
cis
ciskei
cistus
citaro
citea
cites
cities
citrinella
citroe
citroen
citrullus
citrus
citrusfru
citrusplaanten
citta
city
citypopulation
citystromer
ciudad
ck
cke
cken
cki
cklingen
cksburg
ckstadt
cl
claas
cladonia
clair
clangula
clara
clare
clarion
clark
clarke
clarkei
class
classic
classification
claude
claudisk
claudius
claus
clausen
claviceps
clay
clayton
cle
clear
clearfield
cleburne
clemens
clement
clercq
clerf
cleveland
climate
clinch
clinton
clipperton
cloppenburg
clp
club
cluj
clupea
clypeata
cm
cn
cnidaria
co
coast
cobb
cobly
coburg
coca
coccoloba
cochenille
cochlearia
cock
cocle
cocos
cod
codata
code
codes
coelebs
coerulea
coesfeld
coffea
coffee
coffein
coimbra
col
cola
colbert
colchicus
cole
coli
collection
collectivite
college
collier
collines
collurio
coln
colo
colocolo
colombo
colonia
colophospermum
color
colorado
colquitt
coltrane
columba
columbia
columbus
colusa
com
comandeur
comarca
comarcas
comayagua
combined
combretaceae
come
commewijne
commissariat
commission
committee
common
commons
commonskategorii
commonwealth
communaute
commune
communes
communis
communities
community
como
comoe
company
comparative
comparisons
compiled
complement
completes
compounds
computer
comte
comunas
comuni
comunidad
con
conakry
concelho
concelhos
concepcio
concern
concinna
concolor
conde
condita
conecuh
conejos
conferta
confusus
congo
congress
coniferales
coniferopsida
connacht
connecticut
connochaetes
conomiques
conrad
consistent
consortium
constant
constantine
constants
constituencies
contae
conte
contra
contraception
convallaria
converse
convolvulaceae
conway
cook
coolidge
coosa
copa
copargo
coplen
copper
copperbelt
coprinus
coptodon
copy
coquille
coquimbo
coraciiformes
coral
corbet
corbusier
cordata
cordatum
cordes
cordillera
coriacea
cork
corn
cornelius
cornix
cornuta
cornwall
corona
coronata
coronaviridae
coronavirus
corone
coronie
corozal
corporation
corre
corrected
corse
corsica
corte
corun
corv
corvidae
corvus
coryell
corylus
cos
coscoroba
coscorobaswaan
cosenza
costa
costaricensis
costata
costilla
costus
cotonou
cottage
cottbus
cotton
coturnix
couffo
coulomb
council
counties
countries
country
county
countys
courcelles
course
cov
covasna
cove
coventry
covid
covington
coweta
coyah
cr
crafter
craig
craighead
cramer
crangon
crash
crashtest
crassa
crassifolia
crassostrea
crassulaceae
crassus
crataegus
craw
crawford
crc
cre
cream
crecca
cree
creek
crenata
crenshaw
cret
cretense
creuse
crex
crisp
crispa
crispum
crispus
cristata
cristatus
cristo
crittenden
croatia
crocus
croix
crook
crops
cross
crossing
crotone
crowley
croydon
cruckshanksii
crustacea
crustaceae
cruz
cs
cshh
css
csu
ct
cu
cuando
cuango
cuanza
cuba
cubango
cuculi
cuculus
cucumis
cucurbita
cucurbitaceae
cuenca
cugtun
culex
culicidae
culinaris
cullman
culture
cumarin
cumber
cumberland
cumbre
cuneifolium
cunene
cunha
cunninghamii
cup
cupressaceae
cupressina
cupressus
curac
curacao
curie
curlie
current
curslack
curtin
curtis
curtisii
curvirostra
cuscatla
cusio
cuspidata
custer
cuvette
cuxhaven
cuxhuuwen
cv
cw
cx
cy
cyanea
cyaneus
cyanistes
cycadophyta
cycliophora
cyclopterus
cyclostomata
cydonia
cygnus
cynocephalus
cyperaceae
cyperus
cyprinidae
cyprinus
cyprus
cyril
cyrl
cytinaceae
cytisus
cz
czech
d
da
daachter
daachterfirma
daafrika
daafrikoons
daagen
daaget
daagibel
daalang
daaling
daans
daansch
daansen
daansers
daanset
daansi
daansiker
daansin
daar
daarfuur
daasien
daasten
daatei
daaten
daatensku
daatiif
dach
dachau
dachtang
dachtangen
dachtangs
dachte
dachter
dachtern
dachtingen
dactylifera
dactyloptena
dactylopteridae
dade
dadeer
dadeere
dae
daegu
dafrikoo
dafrikoons
dafrikoonsk
dag
dagana
dagenham
dagestaan
dagobert
dahab
dahalik
daheere
dahl
dahme
dahomey
dai
dailk
dailkst
daimler
daimyo
dakar
dakelh
dakhla
dakota
daks
daksen
dal
dalarna
dalasi
dalasis
dalbergia
dale
dali
dalian
dallas
dallmeier
dam
dama
damaliscus
daman
damaskus
dame
dameerika
dameerikoo
dameerikoons
damerikoons
damerow
damlos
damp
damper
dampern
dampf
dampmaskiin
dampskeepen
dampskepfaarts
dan
dana
dande
dane
daneza
dang
dangbo
dangeln
dangen
daniae
daniel
daniels
danjong
danmarks
dann
dannebrogorden
dannenberg
dansk
dante
dantumadiel
danzig
dar
daraabisk
dardanellen
darf
dari
darie
darjeeling
dark
darling
darmstadt
darnytsja
darstellung
darug
darwin
das
dasfleegen
dass
dassa
dasypogonaceae
dat
data
database
datei
datelpualem
datelpualmer
daten
datenbank
daucus
dauphin
david
davidiana
davidii
davids
daviess
davis
davisii
dawes
dawson
day
db
dbo
dbuum
dc
dchen
dd
ddb
ddel
ddial
ddialen
ddistrikt
ddistrikten
ddr
de
dea
deakin
debelt
dec
decapoda
decatur
december
dechter
dechting
dechtingen
dechtings
decipiens
decne
decumbens
ded
deddens
dediar
dee
deeg
deege
deek
deel
deellaag
deenemark
deenen
deensk
deensken
deer
deeram
deeraw
deerbai
deerdo
deereefter
deerfoon
deerfor
deeriinj
deerma
deero
deertu
deertwasche
deeru
deesbel
deetsember
definiaret
definition
deg
deggendorf
degli
deheer
dei
deich
deichhausen
dejima
dek
dekalb
dekelia
del
delano
delavayi
delaware
delbuumer
deldiarten
delenie
delfiin
delfiinen
delgado
delhi
delichon
deliciosa
deling
delings
delk
delken
delkst
dell
della
dellstedt
delmenhorst
delmiatig
deloortagen
delta
delve
dem
demerara
demnig
democratic
demogra
demografiche
demokraaten
demokraatisk
demokratii
demokratische
demoscope
den
dena
dendrocopos
dendrohyrax
dene
deneb
denemark
denen
denesuline
denghoog
dengue
denine
denis
denizli
denmark
denmuus
densiflora
densiflorus
density
denst
denver
departamento
departamentos
departement
departements
department
departmenten
dependency
depressa
dept
der
deraanj
derationssubjekten
deratjuun
deratschuun
derbrarup
derbyshire
derdeich
derdorf
derep
derfask
dergooshiirder
dergratst
derhastedt
derheistedt
derho
deriaret
deritz
derk
derkral
derkro
derkru
derlingst
derlu
dermaask
dermacentor
dermanland
dermanlands
dermarsch
dermatophagoides
dermiast
dermoptera
dermuar
dern
ders
dersem
dersta
derstuf
dertriihuk
deruug
deruugsun
derwent
des
desa
descartes
deschampsia
descriptions
desertas
desfontaines
desha
design
desmercie
desna
desoto
dessau
destatis
det
detdiar
detern
detheer
detlef
detlev
detmold
dets
detsa
detsalew
detsember
detsembermuun
deuroopa
deutsch
deutsche
deutschen
deutscher
deutsches
deutschland
deutschlands
deux
devanagari
development
devon
dewan
dezember
dfaal
dfg
dfrankrik
dfrenkisk
dgeorgien
dgrens
dgzrs
dha
dhaka
dharma
dharz
dhiou
dhivehi
dhl
dholstein
dholun
dhualewkuugel
dhuulewkuugel
di
dia
diadeemruadsto
diagonaal
diagonaalen
dial
diala
diald
dialect
dialects
dialekt
dialekten
dialektik
dialen
dialer
dialing
dialleer
dialt
dialwiis
diana
dianthus
diar
diarachter
diaram
diarauer
diaraur
diarba
diarbenen
diarbi
diareeđer
diarefter
diarfaan
diarfan
diarfo
diarfuar
diarhen
diari
diarma
diarmad
diarme
diarmung
diaro
diarom
diaroner
diart
diarten
diartesken
diarto
diartu
diaru
diaruun
diatoonsk
dibe
dice
dichotoma
dicht
dichter
dick
dickens
dictionary
dicyemida
dideer
dideere
didiar
die
diego
diekhusen
diekirch
dien
diepholz
dies
diese
diesel
dieselbus
dieselelektrisk
dieselmaskiin
dieselmaskiinen
diesem
diesen
dieses
dieter
dietrich
diferens
diferentiaalreegnang
diffa
digen
digita
digitaal
digital
digitalis
digitalisat
digitalisiaret
digitata
diheer
diheere
dii
diil
diile
diilen
diili
diilj
diiljs
diiljstoot
diiljstoote
diilt
diip
diiper
diiren
diirt
diirten
diirter
diirtern
diitsk
diitsklun
diiwaanu
diiwen
dik
dikdiks
diken
diker
dikhil
diktaato
diktaatoor
diktaator
dil
dili
diling
dillingen
dimensioon
din
dinan
dine
dineja
ding
dingen
dinger
dingo
dingolfing
dinguiraye
dinosauriern
dio
dioica
dioode
dios
dioscorea
dioscoreales
dioulasso
diouna
diourbel
diplomaat
dipol
diprotodontia
dipsacales
diptera
dipterocarpaceae
diq
dir
dirachma
direction
direkt
direkter
dirham
dirigent
dirk
disalev
disalew
disch
discolor
disease
disk
disktrikten
display
displaystyle
dissecta
distans
distributiifgesets
district
districts
distrikt
distrikte
distrikten
distrito
dit
ditaalien
ditdiar
ditdiari
diten
dithmarschen
dithmarscher
dithmeersche
dithmeerske
dithmjarsche
diu
divaricata
divaricatum
divaricatus
divehi
diversifolia
division
divisions
diwisioon
diwisioonen
dixie
dixon
diyarbakır
diz
dj
djakotomey
djamena
djannewoore
dje
djen
djiboua
djibouti
djidja
djka
djooar
djougou
dju
djuula
djuuli
djuuni
dk
dkareelien
dkaukaasisk
dkorea
dkreis
dkreiser
dku
dler
dlich
dliche
dm
dma
dmg
dmoz
dn
dna
dnb
dneederfrenkisk
dnipro
dnipropetrowsk
dnjepr
do
doagen
doansk
dobelbianer
dobelt
dobr
dobritsch
dobrudscha
doc
doch
dochter
dochters
dodge
dodo
dodoma
dogbo
doge
dogrib
doha
doi
dokkum
dokter
dokterwerk
dokument
dokumenten
dol
dolj
dollar
dolni
dolores
dom
domain
domainnamen
domainno
domains
domaz
domestica
domesticus
domiinika
dominans
domingo
dominica
dominican
dominikaans
domitius
domowina
don
donald
donau
donaugebiet
donetsjk
dong
donga
dongeradiel
donji
doochter
doogebal
doogebel
dooler
dooly
doom
doomools
doorn
dootem
dooten
dootenbeenk
dootenbleed
dopeljen
dorado
dorcatragus
dordogne
dordrecht
dorestad
dorf
dorothea
dorsalis
dorsch
dorschen
dorschoortagen
dorset
dortmund
dos
doseetien
dosso
dots
dotsb
dou
douard
double
doubs
dougherty
douglas
dougou
doukkala
dove
dover
down
downing
download
dpann
dpasiifik
dplaanten
dpuul
dr
dra
draa
draag
draagbuum
draagbuumer
draage
draagfasker
draanj
draapt
draaten
dracaena
dracht
drachten
drachtenker
draco
draconettidae
dracunculus
draft
dragseth
dragør
drahitschyn
drai
draier
draikraft
draimoment
drain
draistroom
drait
drakensberger
dramaatiker
drank
drawiidisk
dreeg
dreeng
dregiuun
drei
dreid
dreierfo
dreiimpuls
dreimoment
dreistruum
dreit
drenthe
dresden
drew
drf
drie
driifwain
driifwainer
driikraab
driikraaben
dring
dringer
drink
driouch
dro
drogeenkarbonaat
drograaf
drograafisk
droid
droksiid
dromiciops
dronken
dropen
drosera
drosophila
drosophilidae
dru
druck
drucke
druk
drukt
drummondii
druslun
dry
drybin
dryden
ds
dsavo
dschalalabat
dschawacheetien
dschibuti
dschibuuti
dschida
dschineesk
dsdna
dsjiisklun
dsjineesk
dsk
dskaja
dslaawisk
dsor
dspas
dsta
dstridj
dsu
dsudaan
dsudan
dt
dte
dtirol
dtirool
dtondern
dtuner
du
duad
duaden
dual
duar
duarsko
duas
duast
duastaasien
duastanatoolien
duastelk
duasten
duasteuroopa
dubia
dubius
dublin
dubre
dubrovnik
duch
duck
duden
duisburg
duke
dulcamara
dulce
dulcis
dun
dundo
dunkel
dunkerque
dunsem
duo
dur
durch
duroplasti
durre
duschanbe
dutch
duval
dvd
dvu
dwaast
dwaastelk
dwaasten
dweesten
dwest
dwight
dwina
dy
dykstra
dynastii
dz
dzongkha
dztwo
dır
də
dʒu
e
eagle
ealing
earl
earle
early
earnshaw
earth
east
eastern
eaststellingwerf
eau
ebersberg
eberswalde
ebert
ebi
ebola
ec
echa
echeveria
echiichthys
echinata
echium
echols
echt
echternach
eck
eckernfo
eclav
economic
ecu
ecuador
ed
eddelak
edelstein
eden
eder
edgar
edicions
edinburgh
edirne
edition
edito
editor
editsjoon
edmond
edmonton
edmund
edo
edoc
eds
edu
eduard
eduardo
education
edule
edulis
edunordfriisk
edvard
edward
edwards
edzard
ee
eeb
eeben
eebenmaaget
eedelgaasen
eedelmaan
eeder
eedere
eedomshiird
eefeu
eefter
eeftert
eeg
eegendoom
eegenoort
eegenoorten
eegenskap
eegenskapen
eegentelk
eel
eelenantiloop
eelenantiloopen
eelun
eembucu
eemus
een
eenelk
eentlik
eerd
eerdaaks
eerdalkaalimetalen
eerdbeewrin
eerdbei
eerdbeien
eerdgas
eerdheleft
eerdlu
eerdmadela
eerdneitidj
eerdno
eerdo
eerdswin
eerdtidja
eerdtrooseln
eerdualtidj
eersfo
eesel
eesti
eestlo
eestlun
eestnisk
eetik
eetj
eetjsu
eewer
eeđer
efekt
efen
efeu
efeuplaanten
effects
effingham
efoi
efta
efter
efterdru
efterfulger
efterfuliger
efterkemen
eg
ega
egedal
egeeis
eggebek
eggstedt
egypt
egypten
egyptisk
eh
ehec
ehemals
ehir
ei
eichsfeld
eichsta
eidem
eider
eiderges
eidergus
eiderkanal
eiderstedt
eidersteed
eigene
eight
eike
eikiai
eilun
eilunen
eilunsfresk
eilunstoot
ein
einatmen
eine
einem
einen
einer
eines
einfu
eingesetzt
einholen
einige
einleitung
einmal
einstein
eintrag
einwohner
einwohnerinnen
eisenach
eisenbahn
eisenhower
ek
ekliptik
eksiil
eksklaawe
eksponentiel
ekspresionismus
ekstra
ekstremaduura
ektam
ekwaator
ekwadoor
ekwatoriaal
ekwatoriaalguinea
el
ela
elaeis
elaphodus
elasmobranchii
elastica
elata
elatiif
elazıg
elba
elbasan
elbe
elben
elbert
elbgeest
elbing
electric
electrive
elefant
elefanten
elefantendiarten
elefantenfo
elefantentes
elegans
elektrische
elektrisiteet
elektrisk
elektro
elektroauto
elektroautos
elektrobus
elektrobusi
elektrofo
elektromagneetisk
elektromaskiin
elektromaskiinen
elektromotoor
elektromotooren
elektron
elektrooden
elektroodi
elektroone
elektroonen
elektroonenskel
elektroonenskelen
elektroonik
elektroonisk
elektrostaatik
elektrotechnik
elektrowain
elektrowainer
elema
element
elementaardeelken
elementaardialen
elemente
elementen
elementi
elements
elephantidae
elephas
elern
elfenbianku
elias
eliisabeth
elisabeth
elista
eliza
elizabeth
elk
elken
elkooner
elkoortagen
ella
ellan
ellen
eller
ellho
ellice
ellin
elliptica
ellis
elmore
elmshorn
elodea
elongata
elpersbu
elsas
elsass
elsesisk
elsfleth
elster
elwen
elwenst
ely
elymus
elytropappus
em
emajo
emanuel
emberiza
emberizidae
emden
emi
emil
emilia
emilians
emir
emiraat
emiraaten
emission
emiter
emmanuel
emmelsbu
emmendingen
empetrum
empire
ems
emsland
emst
en
ena
enachtler
enarken
encephalitis
encyclopedia
encyclopædia
end
endangered
ende
endeemisk
endgu
ene
enen
enenkui
energii
enero
enescu
enfield
eng
enge
engelbert
engelo
engelsk
engelsmanplaat
engine
engineering
engines
engl
england
englisch
english
eni
enice
enie
enkel
enkeldring
enkelt
enkeltbewerewer
enkelten
enklaawe
enko
enna
ennedi
ennepe
enno
eno
enooch
enouder
enrico
ens
ensiaan
ensiaanen
ensifera
ensiklopedii
ensis
ensu
entferne
entha
enthalpies
entleet
entoprocta
entsisk
entsta
entstenen
entwickelt
entwicklung
entzu
enver
environment
enzkreis
enzyklopa
ep
eparchi
epenwo
epilobium
epirus
epsilon
eq
eqc
equatorial
equidae
equus
er
era
erasmus
erbium
erde
erding
erectum
erft
erfurt
ergebnis
ergebnisse
erha
erhard
erhielten
eri
eric
erica
ericaceae
ericales
erich
erichsen
eridanus
erie
erignathus
erik
erika
eriobotrya
eriocheir
eriophorum
erithacus
eritrea
erk
erka
erlangen
erlernung
ermlun
ern
ernest
erni
ernst
ernste
ernster
erongo
erov
errachidia
ers
ersetzt
erste
ersten
ert
erts
erwin
eryngium
erythroxylum
erza
erzeugen
erzgebirgskreis
erzincan
erzurum
es
esbjerg
escambia
esch
eschen
escherichia
escuintla
esculenta
esculentum
esf
esi
eska
eskaja
eske
eskebuumer
eskimo
eskis
esky
espan
esperanto
espi
esq
essaouira
essays
essen
essex
esslingen
essonne
est
estadi
estado
estados
estaing
estati
este
esteli
ester
estern
estimates
estlo
estlun
estonia
estrikken
estuaire
eswatini
et
etanool
eten
ethanol
ethanool
ethioopien
ethiopia
ethnische
ethnologue
etioopien
etioopisk
etiopisk
etnisk
etosha
etowah
ets
ettlingen
etymologisches
eu
eucalyptus
eudorcas
euge
eugen
eugenia
eugenol
euh
eukalyptus
eukariooten
eukarioten
eukaryota
euklid
euler
eulipotyphla
euonymus
eup
euphorbia
euphorbiaceae
euphrat
eur
euraasien
euraasisk
eure
euro
euroncap
euroopa
euroopariad
europa
europaea
europaeus
europas
europe
european
europeeisk
europeesk
eurostat
eurozone
euskirchen
eustatius
eutiin
eutin
ev
eva
evangelien
evans
evci
everest
evers
eves
evic
evobus
evolution
evvel
ewangeelisk
ewe
ewenki
ewg
ewolutsion
ex
excel
excelsa
excelsior
experimental
experimentalphysik
explosionsgefahr
explosiv
exposition
expositionsweg
express
extremaduura
exupe
ey
eyade
eyak
eyre
ez
f
fa
faaborg
faadet
faal
faaler
faalsk
faamen
faan
faaneno
faar
faard
faardferanerang
faardferanrang
faart
faarten
faarti
faartju
faarwel
faas
faasen
faaso
faat
faađer
faba
fabaceae
fabales
fabalis
faber
faboideae
fabricius
fabriik
fabriiken
fabrik
facebook
fachinformation
factbook
facto
fada
fagaceae
fagales
fagopyrum
fagus
fahrenheit
fahrstedt
fahs
failen
fain
faini
fair
fairbanks
fairfield
faktooren
fal
falcata
falco
fald
falken
falkland
fall
fallax
fallon
falls
falsch
falster
falt
faltings
falun
famiili
famiilie
famiilien
famiilii
famile
familia
familiae
familiaris
familie
familii
familin
familje
family
fan
fang
fangd
fangen
fangerhuder
fangt
fanjst
fanjt
fannin
fant
fantasii
fanø
fao
faostat
far
farad
faragher
faranah
farbeingabe
farenburg
farew
faritra
farm
faro
faroer
farsi
farwen
fasaan
fasaanen
fasciatus
fask
fasker
faskerei
fasket
faskiarn
faskiarner
faso
fast
fastlair
fastlo
fastmaaket
fastmaaki
fastnomen
fat
faten
fatick
faulkner
faure
favrskov
faxe
fayette
faz
fc
fdp
fdroid
fe
febrewaari
febrewoore
febrewooreflud
febrewoorejul
februar
februwaari
fechner
fecture
fedderingen
fedders
feddersen
feddes
federa
federacii
federal
federalny
federation
feeberwoore
feebrewoor
feedern
feeg
feel
feelen
feer
feerd
feerer
feering
feert
feesting
feestlun
feestnimen
feeting
fehler
fehlt
fehltvorlage
fehmarn
fehr
feiert
fein
feit
fektur
fekturen
fel
feld
feldbus
felidae
felinae
felipe
felis
felix
feloidea
fels
felstiiner
fen
fenchel
fenek
fent
fentelk
fenus
fer
fera
feranerang
feranert
ferang
feranrang
feranrangen
feranre
feranret
ferba
ferbanjt
ferbant
ferbanter
ferbeeden
ferbininge
ferbinj
ferbinjang
ferbinjangen
ferbinjing
ferbraant
ferbroocht
ferbru
ferbu
ferden
ferdialang
ferdiald
ferdinand
ferdra
ferdrach
ferdreeg
ferdrewen
fereenicht
ferfa
ferfaadang
ferfaading
ferfulagt
ferglik
fergliken
fergus
ferha
ferhu
ferhual
ferhualen
ferian
ferianagt
ferianboorang
feriand
ferianigt
feriaret
feriin
feriind
feriinde
ferina
fering
feringen
ferka
ferkeeft
ferkiar
ferkiard
ferkiarswaier
ferkla
ferklaaret
ferkuup
ferla
ferlach
ferlang
ferlangd
ferleeden
ferleesen
ferleet
ferlicht
ferlu
ferlus
ferluup
fermi
fermisket
fermium
fermo
fermuare
ferna
fernando
fernhalten
fernseen
fernu
feroontwurdelk
ferox
ferrara
ferreng
ferring
ferro
ferruginea
ferrugineum
ferry
fersaamelt
fersaamlang
fersaat
ferscha
ferschilie
ferschu
fersenda
fersiinstorden
fersju
ferskeel
fersko
fersoocht
ferstarker
ferstenen
fersto
ferstun
ferstunen
fersuragt
fersurge
ferswu
fert
ferta
ferteel
ferteeling
ferteelinge
fertel
ferteld
fertiaknis
fertra
fertreeden
fertreeder
fertreedern
ferus
ferwa
ferwaaret
ferwakselt
ferwaksle
ferwaltang
ferwaltangsianhaid
ferwaltangsianhaiden
ferwaltangsregiuun
ferwaltangsregiuunen
ferwaltangssteed
ferwaltangsteed
ferwaltet
ferwalting
ferwaltingsgebiit
ferwaltingsgebiiten
ferwaltingsgraafskap
ferwaltingsregiuun
ferwaltingsregiuunen
ferwerderadiel
ferwerket
ferwerkin
ferwisangen
fesk
fesker
feskerii
feski
fest
festgelegt
festival
festko
festlun
fet
feuer
feuerland
ff
fgov
fhaur
fhaurn
fho
fhuug
fi
fial
fialahorn
fialen
fialges
fiallaask
fialma
fialsparger
fiar
fiartigst
fiat
fibonacci
fibonaccitaalen
ficedula
fichten
ficos
ficus
fidschi
fiede
fiedler
fier
fif
fifst
fift
fiftgratst
figu
figuig
figures
figuur
fiiber
fiig
fiigen
fiin
fiiner
fiir
fiird
fiirdeege
fiirlukireeg
fiirsnaker
fiiw
fiiđer
fiji
fijool
fiks
filast
file
filicaulis
filipes
filipiinen
filipiino
filipiinsk
filippo
fillmore
film
filme
filmer
filmi
filmrejeso
filmspo
filologekongres
filologii
filology
filoloog
filosofii
filosoof
filosoofen
filosoofisk
filoviridae
fimbriata
finansen
finansiel
fine
finen
fing
fingen
fingerbuurt
finiste
finj
finjen
finken
finkenfamile
finland
finlo
finlun
finn
finnmark
finno
fins
finsk
fira
firma
firmen
firsich
first
firstvoices
fis
fisch
fischer
fischeri
fischt
fisel
fishbase
fisher
fisler
fistulosum
fitovinany
fitzhardinge
fiuw
fj
fja
fjaart
fjauer
fjauertanj
fjauertanjst
fjell
fjord
fjouer
fjuard
fjuardgratst
fjuur
fjuurst
fjuurtakt
fk
fl
fla
flaak
flaaklun
flaaks
flaaksfinken
flaccida
fladerdiarten
fladermu
flag
flagen
flagi
flagler
flamenbuum
flamsteed
flandern
flansborj
flathead
flava
flavescens
flaviviridae
flavivirus
flavum
flavus
flecken
fleeg
fleegen
fleegenbitjer
fleegenfanger
fleegenfangern
fleegensnaper
fleegensnaperfamile
fleegensnapern
fleegenswaamp
fleemisk
fleesk
flehde
flemming
flenerkbloosen
flenerken
flensbo
flensboorch
flensborag
flensborch
flensborg
flensborig
flensborj
flensburg
fler
fleutenfasker
flevolo
flevolun
flexuosa
flexuosum
flicht
fliiger
fliigern
fliigers
flinders
flintbek
flirt
flo
flocht
floit
floiten
floog
flook
flooken
flooksis
floose
floot
flor
flora
floraweb
flore
florence
florens
florenz
flores
floribunda
florida
floridana
flos
flot
floyd
flu
fluchpla
flud
flughafen
flugplaats
flugplaatsen
fluor
fluss
fluuchplaats
fluuchplaatsen
fluug
fluughuuwen
flyla
fm
fnideq
fo
foar
foarloage
focht
fochtig
fockbek
foeniculum
foggia
fogo
fol
folerwiik
folge
folgende
folk
folkekirkemedlemsskab
folketal
folkma
folksrepubliik
folksteeling
folksteelingen
folmuun
folstendag
folsu
folwinkel
fon
foneem
food
foodermoune
fool
foole
foolk
foomen
foomnen
foon
foonenouder
foonj
foont
foor
foortuft
foos
foosen
foosfo
foot
for
fora
forall
foraneri
foranering
foraneringen
foranert
foranerti
forbai
forbeeteri
forbeetering
forbeetert
forbes
forbo
forbrent
forbronen
forbu
force
forchheim
ford
fordelt
fore
forem
foremen
forest
forheneret
forhenering
forheneringsmerel
forhu
foriinigt
foriining
foriiningen
fork
forkaame
forkamt
forkiir
forkiirsmerel
forkiirt
forklaaret
forklaari
forklaaring
forkooper
forkoopet
forkoopi
forlach
forlair
forleesen
forli
forloof
form
forma
formaak
formel
formeln
formeltiaken
formen
formenlehre
formosa
formosana
formosastruat
forpommern
forsaacht
forscher
forschungen
forseenket
forsiitsien
forsjuk
forsjukt
forskel
forskelen
forskelig
forskeligi
forskeligst
forsker
forso
forst
forstarker
forsteri
forsto
forstuun
forswu
forsyth
forsythia
fort
fortel
fortelt
fortiini
fortro
fortschreibung
fortunella
fortwo
foru
forum
forwoolnumer
fosfoor
fosfoorsu
fosiilien
foster
fotograaf
fotos
fouge
foulk
four
fox
fođermuun
fpd
fquih
fr
fra
fraag
fraagen
fraaget
fraagi
fraanso
fraansuusen
frac
fracht
fragaria
fragrans
fraidi
franc
france
francesco
franche
francis
francisco
frank
franken
frankenrik
frankfurt
frankfurter
frankiwsjk
franklin
franko
frankoprowensaals
frankreich
frankrik
frans
fransiskus
franso
fransuusen
franz
franziska
franzk
franzo
frasch
frasche
fraschen
fraschescho
fraschlo
fraser
fraseri
fratercula
frau
frauen
fraxinus
fre
fred
fredensborg
fredericia
frederick
fredericton
frederik
frederiksberg
frederikshavn
frederikssund
free
freed
freeden
freedom
freer
frees
freesch
freese
freesendelf
freesk
freeske
freetown
fregatfo
freguesia
frei
freiburg
freid
freidai
freie
freien
freihaid
freihaiden
freiheit
freimarke
freising
freistaat
freistoot
frekwens
frekwensen
fremde
fremont
frenkisk
frese
fresenhof
fresk
fresken
fresklun
fresnel
fresno
frestedt
freudenstadt
freya
fri
fria
friaul
fricke
frida
frie
friedberg
friede
friedeburg
friedrich
friedrichsgabekoog
friedrichshafen
friedrichskoog
friedrichsta
friedrichstadt
friese
friesen
friesisch
friesische
friesischen
friesischer
friesisches
friesland
friesoythe
frii
friidai
friisen
friisense
friisk
friiske
friislo
fringilla
fringillidae
frinj
frinjelk
frinjer
frinjskap
frinjskep
frische
frisendelf
frisia
frisian
frisica
frisii
frisionum
frisist
frisistik
frisk
fritz
frl
fro
from
fromm
frontera
froom
froost
frosinone
frr
frs
fru
frucht
fruchtbarkeit
frugilegus
frutescens
fruticans
fruticosa
fruticosus
fry
frysk
fryske
frysla
fs
fsme
fst
fstedt
ft
ftanj
ftanjst
fte
ften
fteten
ftgratst
ftgru
ftig
ftigst
ftlinge
ftp
fu
fuan
fuar
fuaral
fuarbi
fuarhualing
fuarkum
fuarkumt
fuarn
fuarof
fuarseeter
fuarsetendi
fuarseter
fuarskrewen
fuarstand
fuarstel
fuarstelt
fuarteeken
fucaceae
fuchs
fucus
fuder
fuderplaant
fuderro
fuel
fuencaliente
fuerteventura
fuger
fuji
fujian
fukui
fukushima
ful
fula
fulagt
fulda
fulfulde
fulgens
fulgern
fulham
fulica
fulig
fuligula
fulk
fulken
fulkenwaanrang
fulksrepubliik
fulksta
fulmarus
fulton
fulva
fun
funchal
fund
fung
fungen
fungi
funk
funksioon
funksioonen
funktjuun
funktjuunen
funktsjoonen
fuon
fur
furchboor
furem
furesø
furk
furlaans
furmen
fusca
fuscus
fut
futbaal
futbaalspeler
futuna
future
futuur
fuul
fuula
fuurmaan
fylke
fyn
færgeri
g
ga
gaalrut
gaalrutplaanten
gaar
gaarding
gabe
gabon
gaborone
gabriel
gabrowo
gabu
gabuun
gadidae
gadiformes
gadsden
gadus
gafsa
gagarin
gagausien
gagausisk
gair
gaithersburg
gaius
gal
galaksii
galat
galata
galbulimima
galericulata
galerida
galerie
galerii
galice
galicia
galicien
galicisk
galien
galilei
galileo
galindisk
galisch
galium
gallatin
gallen
gallia
gallien
galliformes
gallinago
gallinula
gallium
gallo
galloromaans
gallotia
gallus
galmsbel
galway
gambia
gamma
gammaflenerk
gan
gang
ganges
gangwon
gans
gansu
ganz
ganzourgou
gao
gaoual
gap
gapyeong
gar
garafi
garci
garcia
gard
garden
gardens
garding
gardneri
garfield
garifuna
garland
garmisch
garna
garneelen
garonne
garrigue
garrulus
gary
gas
gasa
gase
gases
gasten
gastropoda
gat
gath
gations
gatselen
gau
gaudich
gauer
gauhair
gaui
gauiha
gaulle
gaushorn
gautama
gauteng
gauß
gavia
gaza
gazankulu
gazella
gazette
gazi
gaziantep
gb
gbana
gbaya
gbe
gd
gde
gdp
ge
geba
gebiet
gebiete
gebiit
gebiite
gebiiten
gebiitskroopskap
gebrauch
gebu
gebursdai
gebuurt
ged
gedenksta
gedichte
gee
geegent
geeignete
geelisk
geenen
geenitiif
geest
geesteilun
gefa
gefahr
gefeerelk
gefoor
gegen
gegenwart
gegharkunik
gehen
gehial
geho
geht
geiern
geige
geiger
geist
geko
gel
gela
gelangen
gelbei
gelbeien
gelbluum
gelderlo
gelderlun
gelfamile
gelfamilin
geliard
geliarten
gelk
gelkhaid
gelkhaiden
gelkhairen
gelko
gelkui
gelkuien
geln
gelpest
gels
gelsenkirchen
gelsko
gelslach
gelt
geltinger
gelu
gem
gema
gemeen
gemeend
gemeende
gemeenden
gemeendfertreeding
gemeenen
gemeenferbant
gemeenfrei
gemeinde
gemeindea
gemeinden
gemeindeverwaltungsverband
gemeinschaft
gemianskap
gemianskapen
gemiansoom
gemiinde
gemiindi
gemiine
gemiinefertreesing
gems
gemsen
gemu
gen
genau
gend
gene
genera
generaal
generaator
general
generatjuunstidj
generatsjoon
generool
generoolguwerno
generoolsekreteer
genetic
geneva
genf
genista
genome
genscher
genst
genstgratst
gent
gentanj
gentanjst
genten
gentiana
gentianaceae
gentianales
gentilis
gentofte
gentryi
genua
genus
genuugen
geo
geococcyx
geoffrey
geograaf
geograafisk
geografii
geografische
geographic
geological
geologii
geoloog
geomeetrisk
geometrii
geonames
georg
george
georges
georgetown
georgi
georgia
georgien
georgisk
gepru
ger
gera
gerald
geraniaceae
geraniales
gerd
gerenuks
gerhard
gericht
germaanen
germaanium
germaans
german
germania
germanicum
germanicus
germanischen
germanist
germanistik
germany
germplasm
gern
gers
ges
gesa
geschichte
geschichten
geschlossen
gesellschaft
gesets
gesetsen
gesetzt
gesichtsschutz
gesina
gesneerien
gestapo
gestis
gesundheitsscha
get
geten
getra
gettorf
geva
gewa
gewalt
gewaltag
gewicht
gewo
gewu
gezeitentu
gf
gfbv
gfk
gg
gge
ggen
gh
ghaana
ghana
ghanzi
gharb
gharbi
ghazel
gi
gia
giang
giant
giar
gibelio
gibons
gibraltaar
gibson
gibt
gibursdai
gibuursdai
gidley
gieppner
gießen
gifhorn
gift
giftag
giftig
giftige
giftinformationszentrum
gifu
gigantea
gigas
gilbert
gilchrist
giles
gilles
gilmer
gilpin
gilu
gimiinden
gimiindi
gin
ginau
ging
gingen
ginkgo
gion
gions
giordano
giovanni
giraat
giraaten
giraf
girafen
giraffa
giraffidae
giresun
girlits
girocht
girona
gironde
giscard
gisela
gisets
gisjeft
gitaar
gitaren
gitari
gitarispo
gitarre
gitega
gitriibi
gitshals
giurgiu
giuseppe
gjarsmoune
gjirokaste
gjoa
gl
gla
glaagen
glabra
glacialis
glacier
gladbach
glades
gladiolus
gladioolen
gladsaxe
glandarius
glarus
glascock
glasgow
glauca
glaucium
glazoue
gle
gleer
glees
gleesen
gleesfa
glenn
gler
glich
glichkeit
gliederung
glik
gliktidjag
globaal
global
globosa
globularia
glossary
glostrup
gloucestershire
glu
glucoos
glukoos
gluuw
glycerin
glycerol
glycyrrhiza
glynn
gm
gmbh
gmeen
gmelini
gmelinii
gn
gnaeus
gnagna
gnassingbe
gnaudiart
gnaudiarten
gne
gned
gnet
gnetales
gnetophyta
gnetopsida
gno
gnuu
gnuus
go
goat
gobierno
gochang
god
goda
godhaiden
goeppert
goethe
gogh
gogounou
gojong
goku
gol
golba
gold
golden
goldene
golf
golfo
golla
gomera
gomery
gona
gondel
gonger
gongt
gont
goobeldiarten
goobelroom
good
google
goor
goorei
goorniks
gooshiarter
gooshiird
gooshiirder
gootik
gootisk
gora
goraz
gorbatschow
gordon
gore
gori
gorj
gorki
gornji
gorodsko
gorontalo
gorski
gos
goshen
goslar
gossypina
gosławski
got
gotha
gothair
gotland
gottfried
gottlieb
gottorf
gottorp
gou
goud
goue
gough
gourma
gouvernement
gouvernements
gouvernorat
gov
government
governor
goya
gp
gps
gq
gr
gra
graad
graaf
graafiker
graafskap
graafskapen
graav
gracias
gracile
gracilis
gracillima
graciosa
grad
gradis
grady
graf
grafschaft
graham
gram
gramatik
graminea
grammar
grammatik
gran
granada
grand
grande
grandiflora
grandiflorus
grandifolia
grandis
granite
grant
granti
grapefruit
grapsidae
grapsus
graselfasker
grass
grat
gratbritanien
gratbritannien
grate
graten
gratendials
grater
gratfu
grathertoochdoom
gratin
gratkraaben
gratpoolen
gratst
gratsta
gratsten
graubu
graveolens
grawitatjuun
grawitatsioon
grawitatsioonstaal
gray
graz
grc
grcs
grdc
gre
great
greater
greeb
greece
greef
greeksk
green
greene
greenen
greenfink
greenhart
greenhartbuumer
greenkual
greenland
greenlandic
greenlo
greenlun
greenlungus
greenluns
greens
greentju
greenwich
greenwood
greev
greg
gregor
gregoria
gregoriaans
gregoriaansk
gregorioonsch
gregory
greifswald
greiz
grekenlun
greks
greksen
gremersdorf
grenaada
grenada
grenadiinen
grenadines
grenoble
grens
grensen
grensi
gretchen
greve
grevenmacher
grewia
gribskov
griend
griep
griffith
griffithii
griichenlun
griichisch
griichische
griikenlo
grimm
grimmelshausen
grimmia
grin
gripe
gripfo
griseus
gro
grodno
grof
grolterges
groltergus
groningen
groningerland
groningerlo
gronings
groof
groofen
groofskap
groofskapen
groot
grosser
grosseto
grosso
grossulariaceae
grote
grotens
groth
grothu
grothusenkuuch
grotste
group
grove
groven
grover
groves
groß
große
großen
großenbrode
großenrade
großer
großes
gru
grube
grundwortschatz
grundy
grunitzky
grupe
gruppe
grus
grut
grute
grutelse
gruten
gruter
grutere
grutst
grutste
gruug
gruyter
gs
gsjiter
gt
gti
gtidj
gu
gua
guaaw
guaawen
guadalajara
guadalcanal
guadalquivir
guadeloupe
guaira
guajira
guam
guanacaste
guanako
guanchen
guangdong
guangxi
guano
guarana
guarani
guard
guarda
guardchampignon
guarder
guart
guatang
guatemaala
guatemala
guating
guaviare
guayaana
guayana
gube
gud
gudendorf
gudka
gudrun
gue
guelmim
guercif
guernsey
gui
guide
guido
guiers
guillaume
guine
guinea
guineensis
guingamp
guiry
guitar
guizhou
gujarat
gujarati
gul
guldborgsund
gulen
gulf
gulfask
gulkaat
gulkaater
gulku
gulschakaal
gulsparag
gum
gumbinnen
gumebuum
gumi
gun
gung
gunge
gunger
gungt
gunma
gunnison
gunter
gupta
gur
gurk
gurken
guro
gurs
gurt
gurtem
gurtemsnaker
gurter
gurteri
gurtest
gurthair
gus
gusiarn
gusinojesia
gustav
gustloff
gut
gutenberg
guthrie
guurien
guverno
guwernement
guwernementen
guwerno
guy
guyaana
guyana
gw
gwanghaegun
gwangju
gwet
gwich
gwinett
gy
gyeonggi
gyeongjong
gyeongsang
gyeongsangbuk
gyo
gyps
gypten
gysbert
h
ha
haa
haabel
haag
haagedisj
haagedisjin
haageduurnbuumer
haageka
haagwirmer
haakon
haale
haalet
haali
haan
haane
haar
haas
haaselno
haaselwirmer
haasen
haasendiarten
haashood
haasruusen
haast
haatst
haatstinger
haawen
habana
haben
habersham
habitantes
habsburg
habsburgern
hackney
hadaikum
haddeby
haderslev
hadjer
haeberlin
haematopus
hafnium
hagen
hagge
hai
haider
haielluupern
haien
haifa
haik
haile
hainan
hainanensis
hainaut
hainich
haithabu
haiti
haitiaans
hajeb
hakka
hal
halag
halagflud
halagfresk
halaglun
halagruusen
halbertsma
halbuum
halbuumer
hale
haleft
halem
halen
halep
halept
halgen
hali
haliaeetus
haliaetus
halifax
halifreesk
halig
haligen
haligfriisk
haligkru
haliglun
halii
haliie
haliloun
hall
halland
halle
hallem
hallertauer
halley
halleys
hallig
halligen
halligfriesisch
halmahera
halmstad
halogeenen
hals
halsbianhaagedisjin
halsnæs
halt
halten
haltesteed
halti
haltitunturi
halunder
ham
hambo
hamborag
hamborger
hamborig
hamborj
hamburg
hamburger
hameln
hamer
hamgyo
hamilton
hamlet
hamlets
hamm
hammer
hammersmith
hampshire
hamra
han
hancock
hand
handbook
handbooks
handbuch
handel
handelsblatt
handheld
handwo
hane
hanel
haneld
hanelt
hanen
hanenfo
hanenges
hangeul
hangu
hanja
hanju
hannes
hannover
hanoi
hanomag
hans
hanse
hansen
hansesta
hantsawitschy
haouz
haplorrhini
happot
har
haradok
harald
haralson
harare
harbor
harbour
harburg
hard
hardap
harde
hardee
hardin
harding
hardware
hare
harewst
harewstponkt
harfst
harghita
hari
haringey
harju
hark
harke
harki
harlinghausen
harmonii
harmsdorf
harn
harns
harold
harpagon
harper
harri
harriet
harring
harris
harrisburg
harrison
harro
harrow
harry
hart
harten
hartford
harts
harvard
harz
has
haselund
hastata
hastings
hat
hatay
hatj
haudsta
hauke
hauptstadt
hauptstadtdistrikt
hauptstat
haur
haus
hausa
hauschildt
haut
haute
hautes
hautjarscher
hautkontakt
hautresker
hauts
havanna
havel
haveli
havelland
haven
havering
havli
havneby
havre
hawaii
hawaiiaansk
hay
haydn
hayes
haß
hb
hc
hcl
hd
hdi
hdt
he
head
health
heard
hearrenfean
heart
hebbel
hebei
hebreews
hebreewsk
hed
hedehu
hedensted
hedera
hedigen
hedwig
hedwigenkoog
hee
heebel
heed
heef
heeger
heegern
heegerna
heelium
heelp
heer
heere
heerenveen
hees
heesen
heest
heet
heewe
heewer
heft
hei
heide
heidekreis
heidelberg
heidenheim
heider
heidi
heifasker
heiko
heilbot
heilbronn
heiligenhafen
heilongjiang
heimat
heimatbund
heimreich
hein
heine
heinrich
heinsberg
heinz
heist
heister
heistern
hek
hekbleeden
heken
hektaar
hektar
heleft
helemkru
helena
helgoland
helgolander
helianthus
helichrysum
helier
helig
heliglo
heligoland
helikopter
helioscopia
helium
helix
hellschen
helm
helmstedt
helmsun
helmut
help
helpers
helpt
helse
helsingør
helsinki
hemel
hemelswai
hemelswaier
hemichordata
hemionus
hemiprocne
hemiptera
hemitragus
hemlock
hemme
hemmingstedt
hempstead
hen
henan
hendrik
hendry
henep
henepplaanten
henflo
henk
hennegau
henning
hennstedt
henri
henriette
henrique
henry
henryi
henschel
henstelt
hento
henwech
heonjong
her
herausgegeben
herbert
hercules
heredia
herero
herford
heringsand
heringsdorf
heritage
herlev
hermann
hermeliin
hermite
hernando
herne
herning
herodes
herr
herred
herrera
herschel
hersegowina
herskap
hersker
hersteller
herstellers
hertfordshire
hertog
hertooch
hertoochdoom
hertoochdoomen
hertoogin
hertsegowina
hertz
herz
herzegovina
herzegowina
herzhorn
herzog
herzogdoom
herzogtum
hesisk
hess
hesse
hessen
hessisches
het
heterokonta
heterophylla
hettema
heute
hevea
hevelius
heydrich
heyne
hf
hg
hh
hi
hial
hialandaal
hiale
hialer
hiamelk
hiar
hiarang
hiaranger
hiard
hiaren
hiart
hias
hiasbeien
hiaskru
hiasplaanten
hiasruus
hiat
hiaticula
hibiskus
hickory
hiddensee
hidj
hidjju
hier
hieraaetus
hieracium
hieroglyphen
hierro
hig
higgins
high
higher
highland
highlands
highveld
highway
hii
hiil
hiile
hiilendal
hiili
hiilj
hiimstoun
hiir
hiird
hiirde
hiirden
hiire
hiiren
hiirt
hiirtuuchdoom
hiit
hiitj
hiitje
hiiu
hiiumaa
hiiđ
hilag
hildburghausen
hildesheim
hilfe
hilig
hill
hillerød
hillgroven
hilligenlei
hillingdon
hillsborough
himalaya
himalayensis
himbei
himmel
hin
hinawe
hindenburg
hindenburgdoom
hindi
hindmarsh
hinduismus
hindus
hindustani
hinge
hinget
hingi
hingst
hingstantiloop
hingstantiloopen
hingstbuan
hingster
hingstkastanje
hingstkastanjin
hingstkralen
hingt
hinrich
hinrichsen
hinsdale
hinweis
hinzugefu
hinzuziehen
hipos
hippeastrum
hippocampus
hippocastanum
hippoglossus
hippolais
hippotraginae
hippotragus
hircus
hiroshima
hirschfeld
hirse
hirsk
hirsker
hirsuta
hirsutus
hirta
hirundinidae
hirundo
hirzel
his
hispania
hispanica
hispaniola
hispida
histoore
histoori
histoorie
histoorii
histooriker
histoorisch
histoorische
histoorisk
historia
historical
historie
history
hit
hitler
hiva
hiyawe
hja
hjit
hjørring
hk
hku
hl
hle
hlen
hler
hlergemeinschaft
hlergemeinschaften
hlt
hlungen
hlusk
hm
hme
hmen
hn
hnrich
ho
hoa
hoadstad
hoatzin
hobart
hobbes
hobbit
hobelfasker
hocei
hoch
hochdonn
hochsauerlandkreis
hochschule
hochschwarzwald
hodh
hodoni
hoeg
hoehne
hoehnea
hoek
hoekstra
hof
hoffmann
hoffnung
hofmann
hofstair
hofstairen
hohe
hohenberg
hohenlohekreis
hohenzollern
hohn
hohner
hoi
hok
hoken
hoker
hokkaido
hoku
hokusai
hol
holander
holbæk
holcus
holding
hole
holep
holger
holikachuk
holland
hollande
holleman
hollingstedt
hollo
hollywood
holm
holmes
holmium
holo
holocephali
holosijiw
holothyrida
holoza
holpen
holst
holstean
holstebro
holsteen
holstein
holsteiner
holsteinische
holsteinisches
holsteins
holsten
holstian
holstiin
holstiinj
holt
holtdu
holten
holthaker
holthakerfo
holthakern
holtig
holtskuch
holun
holunflud
holuns
holzland
holzminden
homarus
home
homeland
homelands
homelj
homepage
homer
homern
homeroortagen
homo
honduras
honduuras
hong
hongerkralen
hongkong
hongseong
hongwu
hongxi
hongzhi
honolulu
honour
honshu
hood
hoodeilun
hoodkategorii
hoodling
hoodmaan
hoodmaaner
hoodpuateten
hoodsko
hoodsta
hoodsteed
hoodsteeden
hoodsteedregiuun
hoodwerk
hoodwurden
hoof
hoog
hoogdi
hooge
hooger
hoogi
hoogst
hook
hooke
hool
hoolme
hoolmer
hoonfa
hoonskraften
hoonwerk
hoop
hoopbo
hoorbel
hoorn
hoorne
hoorninger
hoorst
hoorsta
hoover
hop
hopaarber
hope
hopern
hopseet
hopset
hopsteling
hopstelt
hor
hora
hordeum
horka
horki
hormoon
hormoonen
horn
horni
hornos
horrida
horsbu
horsens
horst
hortensienplaanten
hortensis
hot
hotel
hotels
houe
houet
houn
hounslow
house
housing
houston
hove
hovedstaden
hovedstadsomra
how
howard
howe
hoyer
hp
hpa
hr
hrad
hradec
hradis
hrden
hre
hren
hrer
hring
hringer
hrodna
hrr
hrsg
hrt
hrung
hrywen
hrywnja
hsen
hsinchu
ht
htm
html
http
https
hu
hua
hual
hualen
hualev
hualew
hualeweilun
hualewges
hualewju
hualewmetal
hualewmetalen
hualewmuun
hualewwa
hualien
hualwen
huambo
huang
huar
huaram
huarbi
huarem
huarfaan
huarmer
huaro
huaruun
hubble
hubei
hubert
hud
huder
hudson
hue
huehuetenango
huelva
huerfano
huesca
hugenberg
hughes
hugo
hui
huilliche
huisman
huk
huken
hulm
hum
human
humanist
humber
humboldt
hume
humile
humilis
hummus
humphrey
humptoorp
humptrup
humulus
hun
hunan
hunco
hunedoara
hunen
hunert
hunertbianer
hunerten
hunertst
hunfask
hunfasker
hunfol
hungary
hunter
hunteri
huntingdon
hupa
hur
huraur
hurbenen
hureeđer
hurfan
hurfuar
hurfuul
hurme
hurn
hurndiart
hurndiarten
hurner
hurnfask
hurnfasker
hurnfaskoortagen
hurnmo
hurnu
huro
hurom
huron
hus
husinge
huso
hussel
husum
husumer
huuch
huuchlun
huuchreegent
huuchschiisk
huuchsjiisk
huuchsjineesk
huuchskuul
huuchskuulen
huuchsorbisch
huuchsorbisk
huuchst
huuchste
huuchsun
huuchsuner
huuchtju
huuchwa
huuchweeder
huude
huug
huuge
huugen
huuger
huugeren
huulefa
huulew
huulewailo
huum
huuwen
huuwensta
huuwner
huygens
hvidovre
hwanghae
hwe
hy
hya
hybrid
hyde
hydrobates
hydrocharitaceae
hydrogen
hydrogenium
hydrolea
hydrozoa
hyemalis
hyeonjong
hylocichla
hylocrius
hylotelephium
hyo
hyojong
hyperboreus
hypericum
hypermini
hypertext
hypochaeris
hypogaea
hypoleuca
hypoleucos
hypotenuus
hystrix
hyundai
hz
høgsdal
høje
højer
hørsholm
i
ia
iaan
iabot
iai
iakebuumer
ial
ialberag
ialberig
ialer
ialev
ialew
ialges
ialgus
ialkru
ialomit
ialoortagen
ialst
ialto
ialtu
ian
ianag
iandu
ianerlei
ianfach
ianfacher
ianhaid
ianhaidelk
ianhaiden
ianhaidsgemeend
ianhaidsgemeenen
ianhurn
ians
iansagst
iansig
iansis
iantaal
iar
iarelk
iaremfasker
iaren
iarenlasmoot
iarer
iarjuaren
iarmer
iarn
iarner
iarst
iarsten
iartapel
iartapeln
ias
iast
iauliai
iba
ibaraki
ibeerisk
iberoromaans
ibn
ibo
ibrahim
ic
icd
ice
iceland
ich
ichsorbisch
ichu
icterina
ictv
id
ida
idaho
ide
idee
ideen
identification
identiteet
idn
idriss
ie
if
ifa
ifangni
ifni
ifrane
ig
ige
igem
iger
ihorombe
ihr
ihre
ii
iidj
iidjen
iigler
iii
iiljto
iin
iinba
iinbecht
iinbu
iindialang
iindialangen
iindiald
iindialing
iindialingen
iindiket
iindo
iindraanj
iindrach
iindracher
iinfach
iinfacher
iinfachi
iinfachst
iinfeerd
iinflo
iingung
iingungspuul
iinig
iining
iinj
iinje
iinjfa
iinjha
iinjsen
iinjsist
iinkru
iinnimen
iino
iinracht
iinrachtang
iinrachtangen
iinrocht
iinsaat
iinseet
iinset
iinslaanj
iinslebet
iinsperet
iinstel
iinstelt
iinto
iintoochregiuun
iinuun
iinuuners
iinwaanert
iinwaanrern
iinwener
iinwenern
iinwenerstatistik
iinwenertaal
iinwenertaalen
iinwuuners
iip
iipen
iipenmaaket
iiper
iipern
iiperplaanten
iir
iirhonert
iirhunert
iirhunerte
iirnge
iirsen
iirsenbaan
iirsern
iirsk
iirste
iirstide
iirtids
iisen
iisenboon
iisenhud
iisenkru
iisensko
iisentidj
iit
iitaolien
iiwag
iiwenbuum
iiwenbuumer
iiwenplaanten
ija
ik
ikast
ike
ikewire
ikewise
il
ila
ilangai
ile
ilex
ilfov
ilha
ilhas
ili
ilina
ilinsky
iljitsch
ille
illes
illinois
ilm
iloun
ilse
ilt
ilulissat
im
ima
imagineer
imandra
imberbis
imbricata
imen
imensteed
imereetien
imergreen
imf
imko
immanuel
immenstedt
immer
imo
imov
impalas
imperia
imperial
impresionismus
impuls
impulse
imsil
in
ina
inboogere
inboogerta
inc
incana
incheon
incubator
indeks
independence
index
india
indian
indiana
indica
indicadores
indicators
indicus
indien
indigenous
indiilingen
indik
indiooner
indioonern
indisk
indium
indo
indogermaans
indoneesien
indoneesk
indonesia
indonesien
indre
induktiwiteet
indus
industrial
industriel
industrii
ine
inebase
inermis
inezgane
inferior
influenza
influenzavirus
influs
info
infobox
informaatik
information
informatjuun
informatjuunen
informatsion
informatsjoon
infrakingdom
infraorder
infraru
infraruad
infrastruktuur
infty
ing
inga
inge
ingeborg
ingefeer
ingefeerplaanten
ingels
ingelsk
ingelsken
ingelskspreegen
ingelun
ingi
inglo
ingo
ingolstadt
ingrisk
ington
ingusch
inguscheetien
ingwer
ingwers
ingwersen
inha
inhambane
inj
inje
injems
injeno
injo
injong
inka
inken
inland
inlet
inlo
inlun
inn
innenstadt
inner
innerhalb
innerrhoden
innlandet
innogy
innsbruck
inoch
inodora
inorganic
ins
insae
insasen
inschape
insecta
insectorum
insee
insekt
insekten
insektenfreedern
insel
inselbahn
inselklang
inseln
insignis
inskij
inst
instaliaret
institut
institute
institution
instituto
instituut
instrument
instrumenti
insularis
inszenierung
int
inta
integraalreegnang
integrifolia
inteligens
intelligence
interactive
intercity
interesant
interfresk
interfriisk
interieur
interior
intermedia
intermedius
international
internationale
internatjunaal
internatschunaal
internatsionaal
internatsjonaal
internatsjunaal
internet
interstate
interview
intibuca
into
intra
intrese
intresen
introduction
inu
inuinnaqtun
inuit
inuktitut
inuttitut
inuttut
inuvialuit
inuvialuktun
inuvik
inventory
involucrata
inwaschuun
inwers
inyo
io
ioba
iodiid
ion
ionen
ionisk
ioonen
ios
iowa
ip
ipa
ipomoea
iprovense
iq
iqaluit
iqli
ir
ira
iraak
iraan
iraans
iraansk
irak
iran
ire
ireann
ireland
irene
iridaceae
iridium
iriidium
iriomotensis
iris
irish
irkutsk
irlits
irlo
irlun
iron
irpel
irpler
irreversiblen
irsk
irwin
is
isaac
isabel
isan
isbn
isch
ische
ischen
ischloun
ischup
isdi
ise
isfo
ishikawa
ishøj
isixhosa
isizulu
isk
iske
isklo
isla
islaam
islaamisk
islam
island
islands
islas
isle
islennost
islington
islo
islound
islun
isluns
ismoune
ismuun
isni
iso
isolepis
isoliaret
isotoop
isotoope
isotoopen
isotope
isparta
israel
iss
issn
ist
istanbul
istat
iste
ister
istidj
istituto
istong
istonger
istrien
it
ita
itaalien
itaalisk
itaaljen
itajeensk
itajeensken
italica
italieensk
italien
italjeens
italjeensk
italy
itapu
itasy
iter
itilleq
itjholem
itoalien
itogi
its
itu
itzehoe
itzstedt
iu
iucn
iulius
iupac
iv
iva
ivindo
iwan
iwano
iwanowitsch
iwanowo
iwatsewitschy
iwen
iwf
iwolginsk
ix
ixiolirion
ixobrychus
ixodes
ixodida
iy
iz
izabal
izard
izu
j
ja
jaa
jaade
jaage
jaaget
jaagin
jaakob
jaapaan
jaapaans
jaapan
jaar
jaaren
jaarho
jaartiint
jaartiren
jaat
jaav
jaawa
jaax
jablonec
jabuuti
jach
jacht
jachthu
jack
jackson
jacob
jacobaea
jacobsen
jacobus
jacq
jacques
jadida
jae
jaenisch
jaffa
jaft
jagd
jaguar
jaguarundi
jahr
jahrbuch
jahre
jahren
jahres
jahrhundert
jahrhunderts
jakaranda
jakarta
jakob
jakobs
jakobsen
jakobskru
jakutisk
jakutsk
jalapa
jalu
jam
jamaica
jamaicensis
jamaika
jamal
jambi
jambol
james
jamestown
jammerbugt
jamsalev
jan
janeiro
janewoor
janewoore
jangsu
jangtse
jangtsekiang
janiwaari
janka
jann
jannen
jannsen
janssen
janu
januaar
januar
januari
januwaari
janvarja
jap
japa
japaans
japan
japicx
japiks
japonica
japonicus
japoonsk
japsun
jara
jard
jardbo
jare
jarich
jaroslawl
jarst
jarste
jasmiin
jasminum
jasper
jat
jau
java
javanica
javanicus
javascript
jawa
jawaans
jayakari
jazz
jazzmusiiker
je
jean
jeeft
jeeger
jeer
jeerhunert
jeet
jeew
jeewe
jefen
jeff
jeffer
jefferson
jeft
jehuda
jeju
jekaterinburg
jel
jeltsin
jemen
jen
jena
jendouba
jenisej
jenisejsk
jenissei
jenkins
jenner
jenny
jens
jensen
jeolla
jeongjo
jeongjong
jeonju
jer
jerada
jerawna
jeremy
jerer
jerewan
jerez
jerichower
jerry
jersey
jerst
jert
jerti
jerusalem
jervis
jeseni
jessen
jest
jetzt
jevenstedt
jever
jezd
jezik
jh
ji
jia
jiang
jiangsu
jiangxi
jic
jicarilla
jidisk
jift
jihlava
jiises
jil
jilin
jilskiiner
jilstak
jilstaken
jim
jimmy
jin
jinan
jinauer
jindial
jindr
jineno
jingtai
jinkateet
jinotega
jinsats
jinsidjag
jintaal
jip
jipde
jipen
jiper
jipst
jir
jit
jivs
jizerou
jj
jm
jo
joa
joachim
joan
joaquin
jodiar
jodiaren
joe
joensuu
johan
johanes
johann
johanna
johannes
johannesburg
johannis
johannisbruadplaanten
johanniskru
johannsen
johansen
john
johns
johnson
johor
jointly
jolof
jom
jones
jong
jongen
jonger
jongfo
jongfoomen
jongkhar
jongnaamen
jongst
jongstiantidj
jonk
jonkbla
jonken
jonkgreen
jood
joosef
jopie
jordaanien
jordan
jordanien
jordsand
jordsun
jorge
jose
josef
joseon
joseph
joule
journal
jov
jovice
jp
jpg
jr
js
jsk
jskij
ju
juan
juar
juardu
juaren
juarhunert
juarhunerten
juarstidj
juarstidjen
juba
jubatus
juda
jude
judeo
judet
judith
juglandaceae
juglans
jugoslaawien
jugoslawien
jul
jules
julflud
juli
julia
juliaans
julian
julie
julius
julsta
july
jumhu
jumpy
jun
juncaceae
juncea
jung
jungbohn
junge
jungen
jungens
jungere
jungi
jungjong
juni
juniata
juniperus
junk
juodkrante
jup
jupik
jupiter
jur
jura
jure
juri
jurist
jurnalist
jurt
jurtkamst
jussieu
jutiapa
jutlo
juudasbuumer
juuden
juudendoom
juul
juuli
juulii
juulisk
juuni
juunii
juupen
jynx
jyutping
k
ka
kaabel
kaal
kaalium
kaam
kaame
kaamken
kaamp
kaankers
kaant
kaanter
kaanu
kaap
kaarelswaanj
kaarl
kaart
kaartel
kaarten
kaasen
kaat
kaater
kaathei
kaatheier
kaatkral
kaatoortagen
kaatsto
kaawiar
kabansk
kabardiinisk
kabardiino
kabelhorst
kabiinen
kabinet
kabul
kacem
kacheetien
kadai
kade
kadiogo
kadmium
kadu
kae
kaffrine
kafka
kagoshima
kahlo
kahramanmaras
kai
kaiman
kainuu
kairem
kairo
kairouan
kaiser
kaiserslautern
kaka
kakaduun
kakao
kakaobuum
kakelaken
kakelakenstaapken
kakteen
kaktus
kaktusen
kala
kalaabrien
kalaallisut
kalale
kalamondiin
kalawao
kalen
kalender
kalener
kalewala
kali
kalifornien
kaliif
kalimantan
kaliningrad
kalium
kaljulaid
kalk
kalkutta
kalle
kalmar
kalmu
kaltenkirchen
kaltsium
kaltsiumkarbonaat
kalu
kaluga
kalundborg
kam
kamala
kambodscha
kambrium
kameelen
kameeleon
kameelie
kameelien
kamel
kamelen
kameras
kamerun
kameruun
kameruunliinje
kampaanien
kampaanisk
kampala
kampen
kampong
kamt
kamtschatka
kan
kana
kanaadisk
kanaadsk
kanaal
kanaaren
kanaarenskroben
kanaarisk
kanada
kanadagus
kanagawa
kanal
kandalakscha
kandi
kandidaat
kandidoot
kandidooten
kaneel
kaneelen
kanem
kangaatsiaq
kangen
kangiryuarmiutun
kangoo
kangwane
kangwo
kani
kanin
kankan
kanme
kann
kannada
kanool
kanooleilunen
kansai
kansas
kansler
kanslern
kant
kanta
kantaabrien
kantabrien
kanten
kanto
kanton
kantoneesk
kantoon
kantoonen
kantooner
kaohsiung
kaolack
kap
kapadookien
kapatsiteet
kapel
kapita
kapitel
kapituliaret
kappeln
kapprowins
kapstadt
kapsteed
kaput
kapwerden
kapwerdisk
kara
karabu
karakal
karakorum
karakter
karakteristisch
karaman
karas
karatschai
karatschi
karbonaaten
karboon
kardinaalsmotsen
kareelien
kareelisk
karelia
karelija
karen
karhiarter
karhiird
karhiirder
kari
kariiben
kariibik
kariibisk
karimama
karimata
karin
karl
karlmann
karlovac
karlovy
karlsbad
karlshamn
karlskrona
karlsruhe
karlsskuul
karlukisk
karma
karmen
karmene
karming
karminger
karolinenkoog
karoo
karoserii
karp
karpaaten
karpatenfo
karper
karpoortagen
kars
karstens
karte
kartlien
kartograaf
kartwelsprachen
karuzi
kas
kasachisk
kasachs
kasachstaan
kasachstan
kasai
kasan
kaschmir
kaschuubisk
kashmir
kashunamiut
kaska
kaskaadenkeed
kaspisk
kasseedorf
kassel
kasserine
kassing
kast
kastamonu
kastanje
kastanjebuumer
kastanjin
kastiilien
kastilien
kastilienla
kastilienleon
kastorf
kastrup
kasuaaren
kata
kataar
katalaans
katalaansk
kataloog
kataloonien
katanga
katastroof
katechismus
kateeten
kategorie
kategorii
kategoriin
katharina
katharine
katharinenheerd
katherine
kathmandu
katingsiel
kation
kato
katoolsk
katriinenheerd
katsushika
katsuwonus
kattegat
katuulsk
kaufbeuren
kaukaasisk
kaukasus
kaunas
kauribuumer
kausen
kautschukbuum
kavango
kavkazskij
kay
kayanza
kayes
kayseri
kazası
kb
kcal
kd
kdom
ke
kea
kebbi
kebel
kebuumer
ked
kee
keed
keeden
keeft
keegel
keelag
keeling
keemiker
keemisch
keemische
keen
keenen
keenia
keent
keenteeken
keer
keerd
keerle
keert
keetmanshoop
keezer
kef
kefamiili
kefloose
kehrt
kei
kein
keine
keinem
keinen
keiser
keiserdoom
keisergranaat
keiserin
keisern
keiserrik
keitem
keith
kelaa
kelbosk
kelerswinj
kelheim
keliir
kellenhusen
kellinghusen
kelten
keltisch
keltische
keltisk
kelvin
kem
kemal
kemen
kemerowo
kemii
kempten
ken
kenai
kengeruus
kenia
kenkenbuum
kennedy
kennungrik
kennzeichen
kennzeichnungsetikett
kenozoikum
kensington
kenst
kent
kentucky
kenya
keoortagen
keplaanten
kepler
ker
kerbel
kerdschali
kere
keren
kerguelen
kerhenk
kerlun
kern
kersti
kerteminde
ket
keta
keteleeria
ketels
ketsal
ketschua
kew
kewaasenschap
kewise
key
keyboard
keynes
kfz
kg
kgalagadi
kgaolo
kgatleng
kh
kha
khabarovsk
khaet
khag
khama
khan
kharkiv
khe
khet
khmer
khoekhoe
khoisan
khomas
khouribga
khulna
ki
kia
kial
kialklu
kialspin
kiang
kiar
kiarkreis
kiarkreiser
kiart
kiarwa
kib
kichwa
kidal
kie
kiel
kieler
kieli
kielmeyer
kien
kiesewetter
kiesinger
kiev
kiew
kiha
kiik
kiil
kiimen
kiina
kiino
kiirt
kiiselsu
kiiwi
kiiwiplaanten
kiiwis
kil
kildinsamisk
kilimandscharo
kilis
kilo
kilogram
kilomeeter
kilomeetern
kilometer
kilowatt
kim
kimen
kin
kind
kinder
kindern
kindia
kindler
kindlers
kineetisk
king
kingdom
kinge
kingharde
kinghiird
kinghiirder
kingmanrab
kings
kingston
kingstown
kining
kiningrik
kinkel
kinmen
kinoa
kinshasa
kint
kio
kiowa
kiptschakisk
kirche
kirchspiel
kirchspielslandgemeinde
kirchspielslandgemeinden
kirew
kirgiisk
kirgisk
kirgistaan
kirgistan
kiribaati
kiribati
kirk
kirkii
kirow
kirowohrad
kirundo
kirwer
kis
kischinga
kisdorf
kissingen
kit
kitts
kitzingen
kivu
kizunga
kj
kjachta
kjo
kjustendil
kk
kla
klaaifrysk
klaar
kladno
klafkraab
klagenfurt
klaipe
klaipeda
klaker
klakern
klamath
klang
klangsbel
klangt
klantem
klanten
klanxbu
klapruus
klas
klasbel
klasen
klasi
klasifikatjuun
klasisk
klasitsismus
klassifikation
klatovy
klaus
klawiarspeler
klawiir
klef
kleidung
klein
kleine
kleiner
kleines
kleinia
klem
klempau
kleopatra
kleve
kli
kliawer
kliawerbosker
kliima
kliimakirew
kliimatoloog
klik
klima
klimainformationen
klint
klixbu
klo
klook
klookenbluumen
klookris
klooksdiarten
kloor
klooriid
kloorweederstoof
kloue
klu
kluader
kluaster
kluađer
kluađern
kluge
km
kmuun
kn
knaakenbiin
knaap
knap
knautia
kne
kneten
knif
kniif
kniip
knip
kno
knob
knober
knobga
knooken
knooplook
knop
knorho
knortz
knowledge
knox
knud
knudsen
knudt
knut
ko
koa
koalas
koalitschuun
koblenz
kobryn
kobus
kocaeli
koch
kodiak
kofe
kofi
kofu
kog
koh
kohl
kojoot
kokain
kokastru
kokos
kokosno
kokospualem
kokospualmer
kol
kola
kolabuumer
kolben
kolda
kolding
kolektiif
koli
kolkata
kolkerhii
kollumerla
kolonie
kolonii
koloniin
kolumbiaans
kolumbien
kolumbus
koma
komandant
komando
komarovii
komeedestak
komeedii
komeet
komeeten
komer
komert
komfort
komi
komischuun
komitaat
komitaaten
komitee
kommentar
kommt
kommun
kommunaalwoolen
kommunalwahl
kommunarealer
kommune
kommuner
kommunistisk
komo
komondjari
komooren
komoorsk
kompaas
kompienga
kompjuuter
kompjuutern
kompjuuterprogram
kompjuuters
kompleks
komponenten
komponiaret
komponist
komponisten
kompoonist
kompost
komst
komt
komuna
komunaalwoolen
komunistisk
komunitsiari
komutatiifgesets
komuun
komuune
komuunen
kon
kona
konda
kondensatooren
kondooren
kondopoga
konferens
konflikt
konfo
kong
kongo
kongres
konifeeren
konomii
konoom
konrad
konsept
konsern
konsert
konsonant
konsonanten
konst
konstant
konstantin
konstantinoopel
konstanz
konstelk
konstelken
konstituschunel
konstler
konstlern
konstmooler
konstmoolern
konstruiaret
konstrukstjoon
konstruktsjoon
konsul
konsulen
kontakt
kontaminierte
kontina
kontinent
kontinentaalkliima
kontinentaalplaaden
kontinenten
konto
kontoor
kontrakt
kontrol
kontroliaret
konversations
konya
konzentrationslager
koobalt
koobaltsko
koog
koolestuf
koolnbu
koon
koone
koonkern
koop
koopet
koopeti
koopi
koopman
koor
koord
koorde
koorden
koordinaaten
koost
koower
kop
kopeek
kopenhaawen
kopenhagen
kopenhuuwen
koprivnica
koptain
koptein
kopteins
koptisk
kora
koralen
koralenrab
koralenraber
koralensia
korc
kordilleren
kore
korea
koreaans
koreanisk
koreea
koresun
kornai
korneelis
kornisch
kornisk
koro
korpus
korrigiert
korsika
korsisk
kort
kortdu
kos
kosovo
kosowo
kosrae
kossi
kostelec
kosten
kosterm
kostet
kostomukscha
kostroma
kota
kotajk
kotar
kotljarewskyj
kotor
kotschyi
kotsenbel
kotto
kotzenbel
kou
kouande
koudougou
kouilou
koulikoro
koulpe
koumou
koundara
kouritenga
kouroussa
kourwe
koussi
kov
kovice
koyukon
koyukuk
kp
kpalime
kpodji
kpomasse
kpota
kr
kra
kraab
kraaben
kraam
kraamwain
kraanek
kraaneken
kraanekfo
kraank
kraankenhu
kraankenwain
kraanker
kraankes
kraankhaiden
kraansfo
kraater
kraenzl
kraft
krai
krais
kraise
kraiser
kraisfrai
kraisfraie
kraisi
kraj
krakau
kramer
kramper
krapina
krasent
krasnet
krasnodar
krasnojarsk
krast
krastelk
krasten
krastendoom
krebs
kreeft
kreeta
krefeld
kreis
kreise
kreiser
kreisfrei
kreisluup
kreissta
kreistaal
kreiswoolfo
krempel
krempermarsch
kreol
kreool
kreoolspriak
krepdiarten
kreuzberg
kriak
kriaken
krich
krichsmariini
kriich
kriiger
krim
krimi
krimireeg
krimkrich
krimtataarisk
kriol
kris
krisda
krise
krisfri
krisfrie
krispra
kristal
kristen
kristianstad
kriswoole
kritisiaret
kritj
kriz
krkonos
kro
kroaasien
kroaatien
kroaatisk
kroasien
kroatien
kroatisk
krokusen
krome
kromosoomen
kronach
kronoberg
kronprinzenkoog
krook
kroom
kroomsko
kroonik
kroonist
kropp
kru
krug
krumlov
krummesse
krumstedt
krus
kruse
ks
ksa
ksbel
ksen
kst
ksta
kt
ktaal
kte
ktoorp
ktron
ktrone
ktroone
ku
kual
kuala
kualewro
kualflenerk
kualplaanten
kualro
kub
kuba
kuben
kubiiktaal
kubik
kubikmeeter
kubikmeetern
kublai
kudelin
kuden
kuehl
kuehneromyces
kugluktuk
kui
kuito
kujaawien
kujalleq
kuk
kuke
kuku
kul
kulmbach
kultu
kultur
kulturel
kultureli
kultuur
kultuuren
kultuurhistoore
kultuurplaant
kultuurpris
kum
kumasi
kumquats
kumt
kun
kuna
kunden
kunene
kunst
kunstma
kunstmoune
kup
kur
kurdisk
kurdistaan
kurewbloosen
kurfu
kurgan
kurier
kuriilen
kurkuuma
kurlun
kurn
kurnfinken
kurnskraager
kurnsparag
kurs
kurse
kursiif
kursk
kurt
kurter
kurtst
kurtsto
kurumkan
kuschiitisk
kuskokwim
kuter
kutna
kuuba
kuuch
kuudu
kuudus
kuugel
kuugelbluumen
kuugelfask
kuugelfasker
kuugelfaskoortagen
kuuger
kuul
kuuler
kuultidj
kuuplidj
kuupmaan
kuurisk
kuurium
kuurlem
kuurt
kuurter
kuwait
kv
kvenisk
kw
kwa
kwadacha
kwadraat
kwadraatisk
kwadroot
kwadrootkilomeetern
kwadrootmeeter
kwadrootmiilen
kwadroottaal
kwahu
kwaksalwer
kwalhioqua
kwaliteet
kwandebele
kwantenmechaanik
kwantentaal
kwart
kwartiire
kwarts
kwazulu
kweeken
kwegels
kwegen
kwel
kwelen
kweneng
kwetjkauern
kwh
kwintenkrais
kwise
ky
kyffha
kyi
kyj
kyjiw
kymenlaakso
kyo
kyrgyzstan
kyrilisk
kysyl
kyu
kz
københavn
købstaden
køge
kırklareli
kırs
kırıkkale
kɑ
kɔ
kə
l
la
laa
laabs
laacht
laachtbla
laachtbru
laachtest
laachtgreen
laachtjuaren
laachtma
laachtruad
laachtstruum
laag
laagen
laama
laangsem
laanouerseeting
laap
laapwai
laasisk
laasken
laawe
laawed
laawen
labe
labelling
labem
laben
labenen
labor
laboratory
labour
labrador
labskaus
lac
lacerta
lacertidae
lachdenpochja
lachlan
lacht
lachter
lachts
lackawanna
lacs
lacustris
lade
ladelund
ladiins
ladino
ladoga
ladogasia
lady
laevigata
laevis
lafayette
laga
lago
lagopus
lagos
lagoster
lagostern
lagouira
laguna
lagunes
laguun
laguunen
lai
laie
lair
lait
laj
lak
lakadive
lake
lakeu
lakeuen
laksen
laksfasker
lalo
lam
lama
lamar
lambda
lambert
lambeth
lamiaceae
lamiales
lamis
lamium
lampen
lampi
lamprocapnos
lampyridae
lan
lanata
lanatus
lancaster
lanceolata
lanceolatum
lanceolatus
lancewadplan
land
landau
landes
landesamt
landesbetrieb
landescode
landkroas
landsberg
landschaft
landsdelen
landshut
landskabet
lanen
lang
langballig
lange
langeland
langenhorn
langli
langobarden
langosten
langs
langsen
language
languages
langue
languedoc
langues
lanier
laniidae
lanius
lanka
lankerbianer
lannion
lansana
lantaan
lantanoiden
lanzarote
lao
laoghaire
laos
laotisk
lap
lapbloosoortagen
lapbloosplaanten
lapen
lapfasker
lapkru
lappa
lappenkorb
lapplun
lapt
larache
laramie
largest
laridae
larimer
larix
larnaka
larry
lars
larus
las
laser
lasiorhinus
lasis
lasisch
lasmaat
lasmaaten
lasmoot
lasmoote
lasmooten
laspuateten
lassen
lassik
last
lat
lathyrus
latifolia
latifolium
latiins
latiinsch
latiinsk
latin
latina
latinsch
latinsche
latium
latj
latje
latjen
latjer
latjere
latn
latvia
lau
lauderdale
lauenbo
lauenborch
lauenborig
lauenborj
lauenburg
lauenburgische
lauraceae
laurasiatheria
laurens
laurent
laurentii
laurus
lausitz
laut
lauwers
lava
lavafial
law
lawiin
lawiinen
lawrence
laxiflora
laye
lb
lben
lboom
lbu
lc
lcea
lch
ld
lda
lde
ldenitz
ldenswort
ldersba
ldfrysk
ldiile
ldioksiid
ldots
ldrop
le
leaf
lear
least
lebanon
leben
lebensgefahr
lebowa
lebuum
lebuumer
lebuumplaanten
lecce
lech
lecht
lechte
lechter
leck
lectrique
led
lee
leebus
leecht
leechtbo
leechter
leechtern
leed
leeder
leederhen
leedji
leedjis
leefde
leefts
leek
leeksguurd
leengden
leengdi
leenger
leengeri
leengi
leengst
leengt
leengti
leenin
leeningrad
leepra
leept
leer
leeren
leergiraat
leering
leerkraft
lees
leesag
leesen
leest
leeste
leet
leeter
leeterhen
leetst
leeuwaarden
leeuwarden
leewen
leewent
leewentsbuum
leewentsbuumer
leewentshelp
leewentsluup
leewentsru
leewer
leewert
leewre
leezen
lef
lefarew
lefer
lefkos
left
leftrightarrow
lefts
legiarangen
legiaring
legiaringen
legislature
leguart
lehe
lehigh
lehrbuch
lei
leibniz
leiden
leien
leinster
leipzig
leiria
leit
leitet
lejre
lek
lekelk
leksikon
lem
lemba
lemna
lemoune
lempira
lemvig
lemy
len
lena
lenard
lengde
leningrad
lenmuun
lens
lensahn
leo
leon
leonardo
leone
leonhard
leonid
leontodon
leopard
leopardus
leopold
lep
lepidium
lepidoptera
lepidus
leptailurus
leptophyllum
leptosomus
leptothecata
lepualem
lepus
ler
leraanj
lerche
lerchen
lere
leren
lerig
lern
lerne
lernen
lerns
lers
les
lesebouk
lesebuch
leselust
lesen
leslie
lesotho
lesser
lest
lester
let
leten
leti
letisk
letj
letjen
letjer
letjet
letjetbianer
letjpoolen
letjst
letlo
letlun
letschchumi
letsie
letst
letters
leucanthemum
leuchtturm
leucobryoides
leucocephalus
leucogaster
leucopsis
level
leverkusen
levu
levy
lew
lewe
lewer
lewet
lewi
lewin
lewis
lewisham
lex
lexikon
lexis
leyman
lez
lezgi
lezhe
lf
lfa
lfet
lfiiber
lfo
lg
lgas
lgemiin
lgien
lhamid
lhasa
lheim
lholankok
lhood
lhota
lhu
lhuntse
li
lia
liach
liachsorbisk
liachst
liachweeder
liager
liam
liaoning
liar
liard
liaren
liarer
liasang
liasangen
liase
liaset
liasin
libani
libanon
libeeria
liber
liberaal
liberec
liberia
libertad
libertador
liberty
library
libreville
libyen
lice
lichinga
lichtenberg
lichtenfels
lid
lida
lide
lidice
lidj
lie
liebe
lieber
liechtenstein
lied
lieder
liefers
liegt
lien
lienchiang
liende
lieth
lieutenant
lif
life
liger
ligers
light
ligster
ligsters
ligustrum
liguurien
liguurisk
lii
liibanon
liibien
liibyen
liif
liiflun
liiger
liin
liinie
liinje
liinkru
liinplaanten
liir
liirbok
liird
liire
liiren
liirer
liirt
liirti
liit
liitauen
liitauisk
liiter
liitern
liitjeletj
liitjin
liitsium
liiw
liiwen
liiwisk
lik
lika
like
likedenang
likedening
likegrat
likelung
liker
likert
likes
liket
likevirus
likfo
liknang
liknangen
liknangsu
likouala
likstian
likstroom
likstruum
liku
likwa
liliaceae
lilien
liliencron
lilienoortagen
lilienplaanten
lille
lilo
lilongwe
lima
limanda
limborags
limborch
limborig
limborj
limburg
lime
limerick
limericks
limestone
limet
limeten
limites
limo
limon
limosa
limousin
limpopo
lin
linaria
lincoln
lincolnshire
lincom
lincz
lindau
linden
linder
lindinger
lindl
lindley
lindleyana
lindner
line
lineaar
linearifolia
linearis
ling
lingd
linge
lingen
linger
lingsmaskiinen
lingst
lingt
lingua
linguist
linguistic
linguistics
linguistik
linie
link
linke
linko
linn
linnaeus
linne
lins
linsang
linsen
lint
linum
liocarcinus
lion
lipan
lipetsk
lippe
lir
liren
liriodendron
lis
lisa
lisabon
lisboa
lisch
lise
lissabon
list
liste
listen
listi
litas
litauen
litauisk
litchfield
liter
literaarisk
literatu
literatur
literatuur
literatuurpris
litern
liters
lithium
lithocarpus
lithuania
litj
litje
litjem
litjer
litjeri
litji
litjmuasem
litocranius
litome
litoral
litoralis
litteratur
little
littoral
littoralis
littorinimorpha
liu
lium
live
liverpool
living
livingston
livingstone
livorno
livvin
liwer
liwermo
lix
lj
lja
lje
ljen
ljfrasch
ljfrasche
ljk
ljke
ljma
ljosna
ljouwert
ljpunkt
ljt
ljubljana
ljwiw
lk
lken
lker
lkerung
lkerungsstand
lkerungsstandes
lkj
lkrich
lkring
ll
llanos
lle
lleida
llen
ller
lln
lloyd
lmedschid
lmonoksiid
lmoune
lmtoorp
lmuun
ln
lndal
lni
lo
lobata
lobaye
lobito
lobos
local
localidad
localities
locht
lock
locke
lodge
lodi
lodsch
loft
loftbil
loftdruk
loftferkiar
loftpomp
log
logan
loganiaceae
logarithmus
logo
logone
lohe
loir
loire
loiret
loit
loja
lojeu
lok
lokaal
lokelk
loket
lokomotiiwen
lokomotiiwi
lokossa
loks
lokser
lola
lolland
lolo
loma
lomami
lombardei
lombardisk
lome
london
long
longa
longiflora
longifolia
longipes
longleftrightarrow
longsneken
lonham
lonicera
lonoke
looden
loogik
loogisk
look
loonbedrif
loonda
loong
loongs
loonriad
loonschap
loonsdialen
loonskap
loonskapen
loonsstroot
loop
loorbei
loorbeien
loorbeioortagen
loorbeiplaanten
loosche
lop
lophiiformes
lophius
lor
lord
lorenz
lorenzen
lorenzo
lori
lorient
lornsen
loroum
los
lost
lot
lothar
lotharingen
lothringen
lothringisk
lotos
lotte
lottermoser
lotus
lou
louchi
louga
louis
louise
louisiana
loun
louny
loup
lourenc
lov
love
lovelace
low
lower
lowetsch
lowndes
lowosero
loxia
loxodonta
loze
lp
lr
lring
lringer
lru
ls
lsis
lsk
lskrich
lsn
lst
lster
lsters
lstoof
lstra
lstrup
lsu
lt
ltd
lte
lten
ltens
lter
lti
ltig
ltige
lting
ltkrich
lu
luad
luadrocht
luan
luanda
luanet
luapula
luar
luari
luarten
luas
lubango
lublin
lubombo
lucas
lucca
luce
lucht
luchtreting
luchtskeepen
luci
lucia
lucida
lucie
lucilia
lucius
lucy
ludvig
ludwig
ludwigsburg
ludwigshafen
ludwigshuuwen
ludwigslust
luena
luer
luft
luftrettung
luganville
lugdunensis
lugo
luhansjk
lui
luin
luine
luis
luk
lukas
luke
luket
luki
lukretius
luksemborag
luksemborags
luksemborch
luksemborgisk
luksemborig
luksemborj
lullula
lumke
lumpkin
lumpus
lun
lunagt
lunaria
luncodes
lund
lunda
lundai
lundaiswool
lunden
lunen
lung
lunge
lungemeend
lungemeenden
lungen
lungi
lungno
lungsem
lungsom
lunham
lunigt
luninets
lunkreis
lunkreisen
lunkreiser
lunskap
lunskapen
lunwa
lunwiartskap
lupus
lusaka
luscinia
lustig
lusutfu
lutea
luther
luton
lutz
luuken
luum
luumen
luup
luupe
luupen
luupfo
luv
luxemborig
luxemborj
luxembourg
luxemburg
luz
luzern
luzerne
luzon
lv
lva
lvesborg
lwa
lweerm
lwer
lwersem
lwesbel
lwoole
ly
lycalopex
lycoming
lycopersicum
lymnocryptes
lyndon
lyngby
lynx
lyon
lyons
lyra
lyrik
lysaja
lytse
lz
læsø
løgum
løgumkloster
lıs
lɔ
lə
m
ma
maa
maad
maag
maage
maaget
maagin
maaket
maaketi
maaki
maakit
maakond
maal
maalet
maali
maan
maand
maaner
maantrau
maaren
maarswin
maarten
maarts
maas
maask
maaskeilun
maasken
maasklun
maast
maastricht
maat
maaten
maatriks
mabberem
mac
macau
macerata
machen
macht
mackenzie
macleay
macomia
macon
macquarie
macrocarpa
macrocheira
macron
macrophylla
macrotis
maculata
maculatus
mad
mada
madagascar
madagascariensis
madagaskar
madagaskarruuwdiarten
made
madebluumen
madeira
madeiradu
madel
madela
madelaafrikoons
madelaasien
madelafrikoo
madelafrikoons
madelafrikoonsk
madelameerikoo
madelan
madelanatoolien
madelbo
madeleine
madeleuroopa
madeleuropeesk
madelfinlun
madelfrenkisk
madelgrat
madelitajeensk
madelmiatig
madelo
madelponkt
madelregiuun
madelrik
madelru
madelruslun
madelsjiisk
madelst
madelt
maden
madera
maderensis
madi
madingou
madison
madlem
madlunen
madlunsia
madlunsiakliima
madoqua
madrid
madriz
madsen
madts
madureesk
mae
maenouder
mafeteng
mag
magadan
magaliesberger
magallanes
magazine
magdalena
magdeburg
magellan
magellanica
magellanstruat
magen
maggiore
magic
magna
magneesium
magneet
magneetfial
magneetisk
magneetisken
magnesium
magnetic
magnetisiarang
magnituud
magnolia
magnoliales
magnolie
magnoliopsida
magnoolien
magnoolienoortagen
magnoolienplaanten
magnus
mahagooniplaanten
mahdia
mahiljou
mahmud
mai
maidenhead
maidstone
maihuenia
maike
mail
mailand
mails
maimansingh
maimuun
main
maine
mainz
maipuurisk
mairei
mait
major
majoraan
mak
makamba
makaroneesien
makassar
makedoni
makedoonien
makelk
makino
makira
makreel
makreelen
mal
mala
malaaisk
malaawi
malabo
malacorhynchus
malacostraca
maladsetschna
malagasy
malaiisk
malaita
malakka
malanje
malanville
malaryta
malatya
malay
malayalam
malayo
malaysia
male
malediiwen
maledive
malenkow
malente
maler
mali
malinke
mallorca
malmo
maln
malo
malpighiales
malta
malteeserorden
maluku
malus
malvaceae
malvales
malwenoortagen
malwenplaanten
mam
mambe
mamenspra
mamenspriak
mamenspriik
mammalia
mammuthus
mamou
mamoudzou
mamuuten
man
mana
management
managua
manatee
mancha
manchas
manche
manchester
mandaat
mandaaten
mandariin
mandariinen
mandarin
mande
mandela
mandelbuum
mandelno
manding
mandinka
mandoul
mandra
mandragora
mandschu
mandschurei
mandschuurisk
mandø
maner
manerha
manertaal
manertaalen
manertaalspriaken
manfred
manga
mangaan
mangaansko
mangold
mangoro
mangroowen
mangroowenbuumer
mangusten
manhagen
manhattan
mani
mania
manica
manicaland
manihot
maniitsoq
manila
manilkara
maning
maninka
maniok
manis
manisa
manitoba
manjeera
manks
mann
mannheim
mannin
mano
manrique
mans
mansche
manschne
mansen
mansfeld
mansfield
mansisk
manskep
mantel
manteldiarten
mantina
mantje
mantjin
manuel
manul
manx
manzini
manzoni
map
mapcarta
maps
mapuche
mapudungun
maputo
mar
mara
maradi
marahoue
marakuja
maramures
maranha
marburg
marc
marcel
marcellusflud
march
marco
marcos
marcus
marcuse
mardin
mare
mareca
maren
marengo
margaret
margarete
margaretha
margarita
margerit
margeriten
marginata
marginatus
margot
margrethe
mari
maria
mariaanen
mariagerfjord
mariana
mariane
marianne
marie
mariino
marijampole
marila
marin
marina
marino
marinus
mario
marion
mariposa
maritim
maritima
maritime
maritimum
maritimus
maritsa
mark
marke
markels
marken
marker
markes
market
marki
markt
markus
marmara
marmararegiuun
marmeloode
marmorata
marmorkaat
marmota
marmoten
marne
marnerdeich
maroc
marokkaans
marokko
marowijne
marquesaansk
marquesas
marrakesch
marren
marron
mars
marsch
marschal
marschiaret
marseille
marsh
marshall
marshalleesk
marsk
marsupialia
martens
martes
marti
martin
martinen
martinique
marts
martsrewolutsion
marx
mary
maryland
marz
masaryk
masaya
mase
masedoonien
masedoons
masenianhaid
maseru
maseta
mashke
mashonaland
masi
masin
maskiin
maskiinen
maskiinenkraft
mason
masoowien
mass
massa
massachusetts
massalia
massingir
masson
master
masty
masuuren
masvingo
masyarakat
mat
matabeleland
matagalpa
matam
mate
matemaatiker
matemaatisk
matemaatisken
matematiik
mateo
matera
materiaal
material
materiol
materiool
materioolen
materjool
mathbb
mathematics
mathrm
mathsf
matiinjs
matisse
mato
matricaria
matrix
matrjoschka
matruus
matsedoonien
matsedoonsk
matsiatra
matsuo
mattha
matthew
matthias
matthiesen
matthiola
mattole
matzen
mau
mauer
maule
mauretaanien
maurice
mauringer
mauritanica
mauritius
mauritsius
max
maxim
maxima
maximilian
maximowiczii
maximus
maxse
may
maya
mayen
mayenne
mayer
mayo
mayotte
mays
maz
mazama
mazedonien
mazo
mb
mba
mbabane
mbae
mber
mboa
mbomou
mbool
mbovit
mbundu
mc
mccone
mcdonald
mcduffie
mchare
mcintosh
mckean
mckinley
mclean
mcpherson
md
mde
me
meade
meagher
mean
mecha
mechaanik
mechlenburg
mechthild
mecklenborag
mecklenborig
mecklenburg
mecklenburgisk
mecu
med
medemsun
medern
medesiin
media
medica
medical
medici
medicine
medien
medisiin
medisiiner
medium
medwedschjegorsk
medweschjegorsk
meecht
meeden
meedien
meedium
meel
meelhurn
meen
meenachtler
meenang
meenangen
meening
meenst
meent
meenti
meer
meersch
meesing
meet
meeten
meeter
meetern
meeters
meew
meewen
mefo
megarhynchos
megascolides
meghna
megye
mehedint
mehmed
mehr
mehri
mei
meier
meiji
meiklooken
mein
meiningen
meiruusen
meis
meißen
mejer
mekka
meklenbo
meklenborig
meklenborj
mekne
meko
mekong
meksiko
meksikoo
meksikoonsk
mel
melaky
melaneesien
melanitta
melanogaster
melanogrammus
melbourne
meldorf
meldorfer
meleagris
melen
meles
meliaceae
melilla
mellal
mello
melloul
meln
melo
melolontha
melongena
melsbel
melst
meluco
member
membraanen
membranacea
membranaceus
memento
men
menabe
mend
mende
mendelssohn
mendocino
mendst
menelik
menelk
mener
menerhair
menferkiar
mengde
mengdeliar
mengden
mengen
menhti
mennoniiten
menomen
menongue
menplaanten
mensis
mensk
mensken
menskhair
menst
ment
mentha
mentool
menzel
menzies
menziesii
mer
mercator
merced
mercedes
mercer
merck
mercury
merel
merelaaler
merelbo
mereleuroopa
meren
merganser
mergellus
mergus
meri
merian
meridionale
meridionalis
meriwether
merk
merkel
merkurius
merkuur
merluccius
mermung
mern
mersch
mersin
mert
merton
merula
mes
mesa
mescalero
meshanelt
mesitornis
mesitornithidae
mesitornithiformes
mesken
mesopotaamien
mesopotamien
mesostigmata
mesozoikum
messenger
messina
met
meta
metaan
metafu
metal
metale
metalen
metali
metamorphosis
meteooren
meteoriiten
meteorological
meteoroloog
meteoroloogisk
meter
methanool
methoden
metjens
metood
metoodi
metrii
metro
metropolitaansta
metropolitan
metropolitana
metropolitansta
metropolitansteed
metropolitansteeden
metropoolregiuun
metropoolregiuunen
metsola
mettmann
metuge
metuji
meurthe
meuse
mexicana
mexicanus
mexico
mexiko
mey
meyer
meyers
mez
mfa
mg
mh
mhnt
mi
mia
miadmari
miami
miaoli
miarnem
miast
miasten
miat
miatag
miaten
michael
michaelisdonn
michail
micheil
michel
michelangelo
michele
michigan
mickiewicz
micmac
micrantha
microbial
microcarpa
micrognathozoa
micronesia
microphylla
mid
middelfart
middle
middlesex
midelt
midi
midlands
midlum
midtfyn
midtjylland
midway
mie
miedema
mien
miesto
miev
mifflin
miguel
miilaan
miilen
miin
miinjd
miiren
miirkru
miist
mike
mikrofoon
mikroneesien
mikroneesk
mikroskoop
mikrowaagen
mil
mile
miles
milimeeter
milimeetern
milion
milita
militeer
militeerisk
milja
miljaard
miljaarden
miljarden
miljoon
miljoone
miljoonen
miljuun
miljuunen
mill
millard
mille
millefolium
miller
million
mills
milne
miltenberg
milton
milvus
mimoosenplaanten
min
mina
minas
mind
mindanao
minden
minera
mineraal
mineraalen
mineral
ming
mingreelien
mingreelisk
mingrelisch
minh
ministeerien
ministeerium
minister
ministern
ministerriad
ministre
minnesota
minor
minority
minsk
minskelk
minsken
minskenaaben
minskenrochten
minskoortagen
minssen
mint
minu
minus
minuta
minutiflorum
mio
miq
miquelon
mir
mirabilis
mirai
mis
misch
misionaar
misionaaren
misiones
misioon
misk
misket
miss
missale
misse
misset
mission
mississippi
missoula
missouri
mist
misteln
mistmoune
mit
mitchell
mitis
mitochondrial
mitochondrie
mitochondrien
mitsubishi
mittarfik
mitte
mittelalter
mittelangeln
mitteldithmarschen
mittelfranken
mittelholstein
mittelmark
mittelsachsen
mitterrand
mitz
miut
mja
mjanmaar
mjarschboon
mjuks
mk
mken
mkoa
mkraaben
mks
ml
mlada
mlauer
mlik
mm
mme
mmerda
mn
mne
mo
moafo
mobiil
mobile
mobilita
mobility
mobilsicher
moc
mocenigo
moci
moda
mode
model
modeli
modena
moderfleegen
modern
moderni
modoc
modrag
modularis
moduuli
moers
moffat
mogilev
moglobin
mohale
mohamed
mohammed
mohammedia
moi
moines
moisant
mokhotlong
mol
moldaawien
moldaawisk
moldau
moldova
mole
moleku
molfsee
molie
molise
moliseslaawisk
molk
moll
mollis
mollissima
mollusca
moltke
molu
molukken
molwarper
moma
momase
moment
momme
mommsen
momsen
mon
mona
monaco
monako
monarchii
mondai
mondale
monde
monet
monetary
mongar
mongolei
mongols
mongoolen
mongoolisk
mongools
moniari
monias
monilophyta
mono
monogr
monroe
monrovia
mons
monsuun
mont
montagnais
montagnes
montan
montana
montanum
montanus
monte
monteneegrins
monteneegro
montenegriins
montenegro
monterey
montevideo
montezuma
montfort
montgomery
monticola
montour
montreal
montrose
monts
montserrat
mooder
mool
mooler
moolerei
moolet
moolk
moolkfisel
moolksoker
moolkstruat
moolkstuul
moolnamst
moolnemen
moon
moonkoop
moons
moor
moore
moorei
mooring
mooringer
moos
moosbel
moose
mooselfrenkisk
moost
mooter
mooterspraak
mopane
mopti
mor
moraceae
moraza
morbihan
mordwiinien
more
moresby
morgan
morgengu
morhua
moritz
morlaix
morris
morss
morsø
morus
mos
mosambik
moschatus
moschee
moschidae
moschus
moschuskru
moscow
mosel
moselle
moshoeshoe
moshulu
moskau
moskusdiarten
moslavina
mossambicus
mossi
most
moster
motacilla
motacillidae
motoor
motooren
motoorweel
motor
motors
motu
mouhoun
moulay
moundi
moune
mount
mountain
mountains
moussieri
mouton
movie
moxico
moyen
mozambique
mozart
mp
mper
mpers
mpla
mpo
mpoko
mpp
mpumalanga
mq
mr
mrang
mrangen
mraz
mrd
mreng
mring
mrna
ms
msalev
mshop
msk
msond
msonde
mst
mstasjoon
mstfrie
mt
mtdna
mte
mter
mtianeetien
mtianeti
mtidj
mtkwari
mtland
mtlik
mts
mtsforsto
mtsfri
mtsfrie
mtskheta
mtu
mu
mual
muar
muardu
muaren
muarhaid
muarsis
muartaal
muasem
muasemer
muchinga
muchorschibir
muell
muelleri
muflon
mug
muh
muhu
muja
mujeserski
muju
mullidae
multiflora
multitree
mumbai
mun
munch
mundai
mundart
mundarten
mung
mungard
mungards
munici
municipal
municipalities
municipality
municipios
munisi
munisipaliteet
munisipaliteeten
munits
munjong
munkme
munkmeesk
munku
munske
munster
muntiacus
muntjaks
murad
muramvya
murat
murcia
mureenen
mures
muridae
murmansk
murr
murray
mus
musa
muscicapa
muscicapidae
muscogee
museen
museeum
museum
museums
music
musical
musiik
musiiker
musik
musiker
muskaatno
muskaatplaanten
muskeln
musophagiformes
muss
musselshell
mussolini
mustafa
mustang
mustela
mustelidae
mut
mutabilis
mutare
mutterleib
muude
muun
muunboon
muunen
muuner
muunjonken
muunt
muunten
muur
muurbeien
muurbeiplaanten
muuren
muusiker
muuß
muyinga
mv
mw
mwaal
mwanza
mwaro
mwc
mwinkel
mwurd
mwurden
mx
mxarɛ
my
mya
myanmar
myeon
myeongjong
mykolajiw
myotis
myriapoda
myristica
myristicaceae
myrtaceae
myrtales
myrtenoortagen
myrtenplaanten
myrtifolia
myrtus
mytilus
myxozoa
mz
møre
mɑ
mɑɾz
mɔ
mə
mɛ
n
na
naa
naacht
naachtem
naachthemel
naachtigal
naachtlaacht
naachtskaad
naachtskaadplaanten
naachtswaalken
naachtswaalkenfo
naam
naamen
naamik
naan
naapern
naar
naarersaksen
naatrium
naatriumhu
naatriumkarbonaat
naatriumkloriid
naatriumnitraat
naatron
naawelswin
nac
nacala
nach
nachitschewan
nachrichten
nacht
nachweise
nacional
nacl
nad
nadagt
nador
nadot
naemorhedus
nafarroa
nagano
nagar
nagasaki
nagoya
nah
nahouri
nahrung
nahuatl
nai
naibel
naiber
naiberlun
naiberlunen
naibern
naibi
naibu
naie
naier
naimu
nairobi
naischo
naist
naista
naistgratst
naisthuuchst
naistletjst
naiststemen
naite
naitidj
nak
naka
nakai
nal
nam
nama
name
namen
namentenga
names
namib
namibe
namibia
namiibia
namine
nampo
nampula
namt
namur
nan
nana
nanduun
nang
nanga
nanger
nangga
nangiarn
nangimen
nangin
nangrik
nangriken
nanjing
nann
nanoarchaeota
nanortalik
nansei
nantes
nantou
naoh
naos
napa
napellus
napier
napole
napoleon
napus
nara
narcissus
nardus
narigen
narsaq
narutowicz
narva
naryn
nasa
naselenija
nashi
nasjona
nasjoone
naskapi
nassau
nastii
nat
natal
natalensis
nath
natiirli
nation
national
nationalbibliothek
nationale
nationalpark
nationalsozialismus
nations
natitingou
native
natjunaalbibleteek
natjunaalpark
natjuunen
nato
natrium
natriumchlorid
natrona
natschunaal
natschunaalbibleteek
natschunaalfersaamling
natschunaalfersoomling
natschunaalpark
natschunaalstruat
natschunalisten
natschuunen
natsilik
natsilingmiutut
natsionaal
natsionaalbibleteek
natsionaalpark
natsioonen
natsir
natsjonaalbibleteek
natsjonaalpark
natsjoonen
natu
natur
natural
nature
naturschutz
natuur
natuursjuts
natuursku
nau
naukan
naura
nauru
nautilus
nautilusen
nava
navajo
navarra
navassa
navya
nayala
nazareth
nazionale
nazis
nbai
nbecht
nbedingt
nbeka
nber
nberen
nberg
nbewenet
nbo
nc
ncap
ncbi
nch
nchen
nchengladbach
ncia
ncipe
ncu
nd
ndai
ndbar
nde
ndebele
ndel
nden
nder
ndercodes
nderku
ndern
nderte
nderung
ndet
ndi
ndig
ndische
ndisches
ndnis
ndo
ndr
ndreft
ndrewen
ndst
ne
nea
neamt
neapel
neapolitaans
near
nebel
nebraska
nebulosa
neburg
nec
neckar
ned
neder
nederla
nederland
nederlandse
nederlo
nee
neeb
neebel
neederfrenkisk
neederlo
neederlunen
neederluns
needersaksen
needersaksisk
neegatiif
neegelkbuum
neegelken
neegentigst
neem
neemd
neemt
neen
neepal
neerang
nees
nefe
nefz
neg
negatiif
neglecta
nei
neien
neier
neiguinea
neikaledoonien
neil
neimu
neimuudis
neimuuds
neimuun
neisialun
neist
neitidj
neiße
nek
nekno
nel
nelk
nelken
nelkhaid
nelkhaiden
nelson
nem
nema
nemark
nematoda
nemdu
nemelk
nemen
nemer
nemfisel
nemruus
nemruusen
nemso
nemt
nen
nentelk
nentelkhaid
nentsen
nentsisk
neo
neocossyphus
neofelis
neon
neotragus
nepaal
nepal
nepalensis
nephrops
neptunus
ner
neretva
nerfen
nerfensu
nergiar
neringa
nerium
nerk
nern
nero
nerong
nerrocht
nerseeting
nert
nerts
nerven
nervosa
nerwai
nes
net
netherlands
neto
netto
network
neu
neuauflage
neubrandenburg
neuburg
neudorf
neue
neuenburg
neuengamme
neuenkirchen
neuer
neues
neufeld
neufelderkoog
neufundland
neugeorgisch
neukirchen
neuko
neumann
neumu
neun
neuss
neustadt
neutraal
neutron
neutroone
neutroonen
nevada
never
neville
nevis
nevs
new
newa
newfoundland
newham
newpipe
newport
news
newsletter
newton
newtonmeeter
newtown
nez
neđerlo
neđersaksen
nf
nfi
nfjb
nftag
ng
nga
ngan
nganasanisk
ngd
ngde
nge
ngeberg
ngelk
ngeluin
ngen
nger
ngere
ngerer
ngerfristig
ngeri
ngguo
ngh
nghe
nghuurn
ngi
ngig
ngigkeit
ngjang
nglisch
nglo
ngounie
ngozi
ngst
ngt
ngu
nguema
nguni
nguye
nh
nha
nhair
nheer
nhinger
ni
nia
niagara
nian
nianmetalen
niari
niassa
nic
nica
nicaragua
nice
nicht
nickel
nickelsen
nickerie
nicol
nicola
nicolai
nicolas
nicolaus
nicotiana
nidovirales
nidwalden
nie
nieblum
niebu
nied
niederbayern
niederdeutsch
niederlande
niederlanden
niedero
niedersa
niedersachsen
niels
nielsen
nien
nienburg
niendorf
nifra
nig
nigeeria
niger
nigeria
night
nigra
nigricans
nigripes
nigrum
nigsberg
nii
niidersaksen
niiderschleesien
niigata
niigen
niigentiger
niiger
niil
niin
niinj
niis
niisgiirig
nije
nik
nikaraagua
nikel
nikelsko
niken
nikephoros
nikita
nikki
nikobaaren
nikobareesk
nikola
nikolai
nikolajewitsch
nikolaus
nikosia
niks
nilgauantiloopen
nilgiri
nilgus
nilo
nilootisk
nils
nim
nimen
nimer
nin
nina
nindorf
ning
ninge
ningelk
ninger
ningin
ninginen
ningrik
ningriken
ningxia
ninh
ninka
ninox
ninte
nio
niobrara
nioobium
nippes
niro
nis
nisch
nischen
nischenhagen
nischer
nischni
nisk
nisou
nissan
nissen
nist
nisus
nit
nitens
nitida
nitidus
nitra
nitraaten
nitroglitseriin
niue
nivalis
nixon
nizisk
nizza
nj
nja
njaswisch
njbei
njboogere
nje
njen
njer
njere
njert
njfa
njfiguur
njflaak
njgungt
njhaid
nji
njiblem
njiger
njkris
njkrise
njlaag
njlaagen
njlaanj
njlaanjen
njlair
njleien
njleier
njmiat
njmiaten
njmotsen
njoksfleegen
njoortagen
njruus
njsch
njsche
njschrafte
njskuul
njt
njta
njtaal
njtda
njthu
njtstiinjen
njtsto
njtwikling
nju
njugen
njwa
njwiinjing
nk
nke
nkelte
nken
nkin
nkisch
nko
nkrik
nkru
nksen
nkuku
nkumer
nky
nl
nla
nlaag
nlaagen
nlaanjen
nlair
nleeding
nlik
nlike
nlikhaiden
nluket
nluki
nlun
nm
nmark
nmiatag
nmr
nn
nne
nnemen
nnen
nnies
nning
nnrot
nnumer
no
noa
noam
noardeast
noardhoeksk
nob
nobel
nobelpris
nobelprize
nobilis
noble
noch
nochhuaren
noctua
noctuidae
noe
nofember
nogh
noire
nokoue
nol
nolde
noma
nomen
nomenclature
nomer
nommensen
non
nonenguus
nongatl
noobelpris
nooch
noom
noome
noomen
noominatiif
noopen
noopruusen
noord
noordaasten
noorden
noorderfriidrichenkuuch
noorderhaaks
noordfra
noordfreeschloun
noordfreeskluin
noordsa
noordstro
noordstroun
noordweesten
noorfriisk
noorsaarep
noorsk
noorst
noort
noortfriislun
noorweegen
noost
nooten
noowa
norbert
nord
norda
norddeich
norddeutscher
norddjurs
norden
nordenham
nordergoesharder
norderheistedt
nordermeldorf
norderstedt
norderwo
nordfrasch
nordfrasche
nordfraschen
nordfraschlo
nordfriesen
nordfriesisch
nordfriesische
nordfriesischen
nordfriesischer
nordfriesisches
nordfriesland
nordfrieslandlexikon
nordfrieslands
nordfriisk
nordfriislon
nordfrisland
nordfyn
nordhastedt
nordhausen
nordhuulewkuugel
nordjylland
nordland
nordrhein
nordrhin
nordsachsen
nordsee
nordsiie
nordstormarn
nordstrand
nordstro
nordweesten
nordzypern
norfolk
norland
norm
norma
normaal
normaalerwiis
normals
norman
normandie
normool
normoolerwiis
normoolkra
norn
norrbotten
norte
north
northampton
northeim
northern
northumberland
northwest
northwestern
nortorf
nortorfer
norvegicus
norwa
norway
norweegen
norwegen
nos
not
notch
notes
nothofagus
notholithocarpus
nothotsuga
notoptera
nou
nouaceur
nouadhibou
nouakchott
noufha
noufhingi
noumbiel
noun
nouvelle
nov
nova
novaehollandiae
novara
nove
november
novgorod
novo
novy
nowa
nowaja
nowember
nowgorod
nowosibirsk
nozoikum
np
npaartuanet
npaset
npd
nr
nret
nring
ns
nsamt
nsb
nsch
nschap
nsche
nscho
nsdap
nse
nsed
nseeker
nsen
nsk
nskaja
nske
nsken
nskene
nskep
nski
nskij
nsko
nslu
nst
nste
nsteken
nster
nstiger
nstler
nststof
nststofi
nsuurn
nsuurner
nsuurnplaanten
nt
ntaal
nte
ntem
nten
nter
nterem
ntfond
ntgen
ntgenstrualen
nther
nti
ntiaken
ntiaknin
ntida
ntiiken
ntistel
ntje
ntjene
ntjes
ntmetalen
nto
ntrum
ntseach
ntunion
ntwesken
nu
nuadag
nuadjil
nuar
nuat
nuaten
nuch
nucifera
nuclear
nuco
nudiflorum
nueva
nuevo
nui
nuku
nul
null
num
number
numeerisk
numenius
numer
numern
numernskelt
nummer
nun
nunatsiavummiutut
nunavut
nunivak
nuniwarmiut
nuorunen
nur
nusa
nussbaumerianum
nusse
nuts
nutt
nuttallii
nuubisk
nuuk
nuurd
nuurdafrikoo
nuurdalbingien
nuurdameerikoo
nuurdatlantik
nuurdbrabant
nuurddial
nuurdeeg
nuurdelk
nuurdelken
nuurden
nuurder
nuurderfriedrichskuuch
nuurderkru
nuurdermiast
nuurdermuar
nuurderuug
nuurderuugsun
nuurdeuroopa
nuurdfrankrik
nuurdfresk
nuurdfresken
nuurdfresklun
nuurdfriisk
nuurdfriislo
nuurdgermaans
nuurdgrens
nuurdholun
nuurdhualewkuugel
nuurdirlun
nuurditaalien
nuurditajeensk
nuurdkap
nuurdkareelien
nuurdkaukaasisk
nuurdkaukasus
nuurdkorea
nuurdneedersaksisk
nuurdo
nuurdoseetien
nuurdpuul
nuurdregiuun
nuurdrhein
nuurdruslun
nuurdsamisk
nuurdsavo
nuurdsia
nuurdsiagermaans
nuurdsiaku
nuurdsjiisk
nuurdsjiisklun
nuurdstrun
nuurduast
nuurduastelk
nuurduasten
nuurduastkaukaasisk
nuurdwaast
nuurdwaastelk
nuurdwaasten
nuurdwaasteuroopa
nuurdwaastkaukaasisk
nuurdwaastmecklenborag
nuurdwaastru
nuurdwaastruslun
nuurdzypern
nuurweegen
nuurđ
nuurđen
nuurđern
nuurđerwuch
nuurđfriisk
nuurđfriislo
nuurđfuar
nuurđsee
nuurđstro
nuurđte
nuurđuast
nuurđweesten
nuwa
nux
nv
nw
nwalde
ny
nya
nyala
nyanga
nyanja
nyborg
nyc
nyctibius
nyelv
nyi
nyj
nykirke
nymburk
nymphaea
nynorsk
nypa
nz
nzas
nze
næstved
nørre
nɑ
nə
o
oa
oas
ob
obama
oberbayern
oberbergischer
oberfranken
oberhausen
oberhavel
oberndorf
obero
oberpfalz
oberspreewald
obervolta
obispo
obja
object
objekt
objekten
oblast
oblasti
oblonga
oblusu
oblysy
obock
obolon
obovata
obres
obscura
observatory
obtusifolium
obwalden
obɫəs
oc
occidental
occidentale
occidentalis
occitanie
och
ochotskisk
ochrophyta
ochruros
ocimum
ocke
ockholm
oconee
ocotepeque
oct
octavianus
odder
odderade
ode
odense
odenwald
oder
oderland
odessa
odocoileus
odontoceti
odorata
odsherred
oe
oelrichs
oenanthe
oer
oesterdeichstrich
oesterwurth
oestridae
oeversee
of
ofe
off
offenbach
offenbu
office
official
officiel
officinale
officinalis
officinarum
offiziell
offizielle
ofgas
ofhengig
ofhengighair
ofhengigi
oficial
oficiales
ofisiar
ofisiel
ofisja
ofrailet
ofreten
ofro
ofsiar
ofslo
ofslu
og
ogasawara
ogen
oghuurisk
oghuusisk
oglethorpe
ogo
ogooue
ogou
oh
ohangwena
ohio
ohm
ohne
oi
oio
ois
oise
ok
oka
okahandja
okaloosa
okapi
okapia
okavango
okayama
okeechobee
okholm
okinawa
oklahoma
okres
okresy
okrug
oksiid
oksitaanien
oksitaans
okta
oktant
oktober
oktoober
oktuuber
oktuuberjul
ol
ola
olaf
olancho
old
oldenborig
oldenborj
oldenburg
oldenburger
oldenswort
oldersbek
oldesloe
oldsen
oldsum
ole
olea
oleaceae
oleander
oleifera
oler
oleracea
olerhun
olermiist
olersem
oles
olga
olhiar
oliiwen
oliiwenbuum
oliva
oliver
olo
olofstro
olomouc
olonets
olonetsisk
olor
olpe
olt
olter
olterfuul
oluf
olufs
olymp
olympisk
om
omaan
omaheke
oman
omar
ombechning
ombecht
ombella
ombi
ombraacht
omdrai
omega
omkemen
ommo
omnibus
omseet
omset
omsk
omto
omusati
on
onager
onagraceae
oncorhynchus
ondimba
one
onega
onegasia
oner
onerdialang
onerdialangen
onerdiald
onerdistrikten
onerfamile
onerfamilin
onergingen
onergongt
onergru
onergung
onerguwerno
onerha
onerklas
onerklasen
onern
onernemen
onernemer
onerorder
onerordern
onerordning
onerprefektu
onerracht
onerrachtet
onerschu
onersju
onerska
onerskiaselk
onersko
onerslach
onerslacher
onersoocht
onerst
onerstam
onersteld
onertiiknet
onerufdialang
onerwais
online
only
onondaga
ononis
onopordum
ons
ontario
oo
oober
oobst
oocht
ood
ooder
oofding
oofer
oofting
oog
oogen
ooldenhuus
oome
oomram
oomrambeenk
oomrem
oomycota
oon
oonga
oonk
oonlun
ooper
oopern
oor
oore
oornshaud
oors
oort
oorte
oos
ooseaanen
oosean
oosholstean
ootseaan
oowentoft
op
opel
open
opendataforafrica
operatsion
ophiostoma
opien
opilioacarida
opiliones
opinio
oposums
oppeln
ops
opsterla
optik
opulus
or
ora
oral
oran
orang
orange
orangj
oranje
orbitaal
orchidaceae
orchideen
orden
order
ordern
ordi
ording
ordo
ordovizium
ordu
oregaano
oregon
orenburg
oreochromis
oreotragus
org
orga
orgaan
orgaanen
orgaanisk
organe
organic
organisation
organisatjuun
organisatsion
organismen
organisms
organismus
organist
organization
orgel
orhan
ori
oriental
orientale
orientales
orientalis
origanum
origin
originaal
original
originalbeha
originool
oriks
oriolus
orion
orjol
orkney
orla
orlando
orle
orleans
orlici
orlicky
orne
oro
oromo
orrell
ort
ortenaukreis
ortervirales
ortho
orthocoronavirinae
orthomyxoviridae
orthoptera
ortmann
ortsteil
orum
orwell
oryctolagus
oryx
oryza
os
osage
osborne
oscar
osceola
osch
osea
oseaanien
oseanisk
oseetisk
osero
oshana
oshikoto
oskar
oslo
osm
osmaan
osmaanen
osmaans
osmaansk
osman
osmaniye
osmium
osnabru
ossenbru
ossola
ost
ostalbkreis
oste
osteichthyes
ostenfeld
ostens
osterby
osterholz
osterode
osterrade
osterzgebirge
ostfriesische
ostholstein
ostprignitz
ostralegus
ostrava
ostrea
ostrohe
ostryopsis
ostsee
ostseestaal
osurgeti
ot
otern
otero
otfried
other
oti
otjozondjupa
otocolobus
otostylis
ottawa
otto
otus
ou
ouachita
ouachitas
ouaddai
ouagadougou
ouahigouya
ouaka
ouake
ouardigha
ouarzazate
oubritenga
oudalan
ouder
oudere
ouders
oue
oued
ouer
ouerda
ouerfla
ouerla
ouernu
ouers
ouersacht
ouerseet
ouessant
ouest
ouezzane
ouf
oufsta
ouham
ouidah
ouinhi
oujda
ould
oun
ount
our
ouray
oure
ourebia
out
outer
outlook
outlying
outre
ov
ova
ovalis
ovambo
ovata
ove
over
overijssel
ovice
ovis
ovsky
ow
owen
own
oxford
oxfordshire
oz
ozark
ozarks
p
pa
paakistaan
paalau
paali
paamiut
paap
paapen
paar
paart
paartuanet
paaser
paaset
pablo
pabst
pac
pace
pacific
pacifica
paderborn
padma
padro
padua
padus
page
pages
pague
pagurus
pahlen
pai
paimpol
pak
pakbla
pakistaan
pakistan
pal
pala
palaadium
palace
palaeognathae
palaiologina
palaiologos
palais
palanga
palast
palau
palawan
pale
palee
palencia
paleozoikum
palermo
palestiina
palestina
palisander
pall
palla
pallas
pallaskaat
pallida
palm
palma
palmas
palmeri
palmyra
palo
palpigradi
paludosa
palustris
pama
pampa
pampelmuus
pampelmuusen
pan
panama
panamakanaal
panang
panangrisang
panda
pandaceae
pandanaceae
pandanales
pandanus
pandemii
pandion
paneve
pangani
paniculata
panjabi
pankow
panorama
panscho
pantanal
panten
pantern
panthera
pantherinae
papa
papaver
papaveraceae
papaya
papayaplaanten
papel
papeln
papers
papiir
papilio
papilionacea
papio
paprika
papua
papuaans
papyrus
para
paracetamol
paradiisfo
paradise
paradoxa
paradoxus
paraguari
paraguay
parai
parakou
paraleel
paralithodes
paralleel
parallel
paramaribo
parana
parasiit
parasiiten
parchim
pardofelis
pardubice
pardus
pare
parfu
pariis
parinacota
paris
parish
parishes
park
parlament
parlamentaarisk
parlamentswool
parliament
parma
paro
parodii
paroot
parque
parro
parryi
part
partai
partei
partein
partement
partements
partenkirchen
parthenocissus
partner
parts
party
parus
parva
parviflora
parvifolia
parvifolium
parvula
pas
pasaat
pasajiiri
pasajiirskep
pasardschik
pascal
pascha
pasco
paset
pashto
pasi
pasiaret
pasiari
pasifist
pasiifik
pasiifikku
pasiifisk
paso
passat
passau
passenger
passer
passeri
passeridae
passeriformes
passifloraceae
passore
patagonica
patagonicus
patagoonien
patella
patellogastropoda
patens
patent
patrick
pattinson
pau
paul
paula
paulding
paullinia
paulo
paulsen
paulus
pavia
pawlowitsch
pawnee
pays
paz
pazifik
pbecht
pc
pd
pdf
pds
pe
peach
peak
peakbagger
peano
pearl
pec
pecora
pedagoogisk
pedelec
peder
pedersen
pedi
pedro
pedunculata
peegel
peel
peelekaanfo
peer
peerbuum
peerbuumer
peeso
pegasidae
pegasus
pei
peine
peipus
peking
pel
pelagicus
pelamis
pelea
pelecaniformes
pelhr
pelkin
pellworm
pelly
peloponnees
pelwerem
pelworem
pelworemer
pemagatshel
pen
penaeidae
pence
pende
pendjari
pendula
penelope
pengembangan
penghu
penicillium
peninsular
penn
pennsilwaanisk
pennsylvania
pensa
pensel
people
pepo
per
perciformes
perdix
peregrinus
pereira
perennis
perepisi
pereskia
perfekt
performance
pergament
perife
periode
periodensu
perioode
perioodendu
perioodisch
perissodactyla
perkins
perm
permeabiliteet
pern
pernik
perrieri
perry
persea
perseus
persica
persicaria
persien
persisk
perso
persoonenfo
persuun
persuunen
perth
peru
perugia
peruu
peruviana
pesaro
pescara
pest
pestis
pet
pete
peter
peterborough
peters
petersburg
petersen
petiolaris
petiolata
petit
petite
petnjica
petra
petrarca
petri
petro
petroleum
petrosawodsk
petroselinum
petrovice
petrus
petsamo
petschenga
petschersk
petschora
pettersson
peugeot
pf
pfalz
pfeltsisk
pforzheim
pg
pgaav
pgaawen
ph
phacelia
phaeophyceae
phaethon
phalacrocorax
phalangium
phan
phanerozoikum
pharisa
phasianidae
phasianus
phi
phil
philadelphia
philantomba
philip
philipp
philippinen
philips
phillip
phillips
philomelos
philosophie
phnom
pho
phocidae
phocoena
phodrang
phoenicurus
phoenix
pholidota
phonology
phosphor
photosynthese
php
phragmites
phraya
phu
phycodurus
phyllodactylidae
phyllopteryx
phylloscopidae
phylloscopus
phylogeny
phylum
phys
physical
physics
pi
piacenza
piader
piaderfask
piaderfasker
piaderfaskoortagen
piadermaan
piadermaaner
piadersdai
pianist
pic
pica
picardie
picasso
picea
piceno
picidae
pickens
pico
pictus
pidder
pider
piemont
piemonteesk
pierce
pieris
pierre
pieter
pietro
pigmenten
piil
piin
piip
piipern
piipga
piiri
pike
pil
pilaris
piloot
pilosa
pimpinella
pin
pinaceae
pinar
pinellas
ping
pingster
pingstruus
pingstruusen
pingtung
pinnata
pinnau
pinneba
pinnebeerch
pinneberg
pinneberig
pinneberri
pinophyta
pinsk
pinus
pinyin
pio
pioneer
pios
piper
pippin
piraaten
piraten
pirkanmaa
pirmasens
pisa
pisces
pisin
pistoia
pita
pitanga
pitcairn
pitch
piter
pitersile
pitersileplaanten
pitjantjatjara
pitkin
pitkjaranta
pituffik
piu
pius
piđersdai
pjo
pjotr
pk
pka
pkemen
pkw
pl
pla
plaad
plaaden
plaan
plaant
plaanten
plaantenfamile
plaantenfamilin
plaantenko
plaantenlu
plaanteno
plaantensko
plaantenslach
plaantenslacher
plaantet
plaatin
plaats
plaatschiisk
plaatsen
plaatsjiisk
plaattjiisk
place
placer
places
plains
plair
plak
plaket
plan
planch
planck
planeet
planeete
planeeten
planken
plankton
planning
plant
plantaaj
plantaajen
plantae
plantaginaceae
plantagineum
plantago
planten
planti
plants
plastik
plata
platanoides
platdu
plateau
plateaux
platessa
platfasker
platforem
platforemen
platform
platichthys
platin
platon
platt
plattdu
platte
platyphylla
platyrhynchos
plautdietsch
play
playa
plaza
ple
pleased
pleeger
pleer
pleeren
pleistoza
pleuronectes
pleuronectidae
pleuronectiformes
plewen
plicata
plo
ploon
plooner
ploonet
plos
plouha
plowdiw
plu
plum
plumas
plumbaginaceae
plumen
plus
plusiinae
plutoonium
pluuto
pluvialis
plymouth
plzen
pm
pmatrix
pmid
pn
pnem
pnomen
po
poaceae
poales
pobe
poblacio
pod
poden
podgorica
podiceps
podil
podkluader
podlachien
podocarpaceae
podolsk
poems
poeppigii
poesia
poeticus
poetry
poggio
pohlmann
pohnpei
poilanei
poinsett
point
pointe
points
poir
poitou
pol
polaabisk
polaarfoos
poland
polatsk
pole
polen
poli
poliitiker
poliitisk
politiik
politik
politiker
politisch
politische
politisk
politsai
politsei
polje
polk
pollachius
polo
poloonium
poltawa
polweerm
polwer
polydor
polygala
polygonaceae
polygonum
polyneesien
polyneesk
polypodiopsida
polystyrool
pomelo
pomern
pommern
pomorskie
pomp
pompen
pompet
pompidou
pondera
poni
ponkt
ponkter
pont
pontevedra
pontivy
pontoppidan
pontoppidans
pooken
pool
poole
poolen
poolsk
poop
poositiif
pop
pope
popegeifask
popegein
popen
popenbel
popiir
popiiren
popo
popovii
poppenbu
poppo
population
populus
por
pordenone
pore
poren
porsche
port
portaal
portal
portalegre
porto
portra
portsmouth
portugal
portugiisisk
portugiisk
portunidae
pos
posavina
posen
posesiiw
positiif
positiiw
post
postma
postos
pot
potaninii
potens
potenuus
potenza
potosi
potou
potsdam
potter
pouch
pour
powder
powell
powenets
power
pp
ppaset
ppasi
ppen
ppingen
ppm
pq
pr
pra
prachatice
prachtfo
pradesh
praecox
praetermissa
prag
praha
prahl
prahova
praia
prairie
praksis
pratensis
prato
pre
preegel
preester
preetz
prefectures
prefektu
prefektuur
prefektuuren
prefiksen
preis
preliminary
premier
premierminister
prens
prentet
pres
prescott
presen
presenplaanten
presens
present
president
presidente
presidenten
presidentenwool
presidentin
presidentskap
presidentskapswool
presidentskapswoolen
presl
press
presse
presseportal
preta
pretoria
preusen
preussen
preußen
pri
priapswirmer
priapulida
pribaikalski
pridgeon
prignitz
priil
priilen
priimeln
priimta
prima
primaaten
primature
primeer
primigenius
primorje
primtaal
primtaalen
prince
princess
princeton
principe
prins
prinsesin
prinsiip
prinz
prionailurus
prionega
pris
prisen
prisma
priwaat
priwoot
prize
prjascha
pro
probleem
probleeme
probleemen
problems
proboscidea
probstei
procapra
proceedings
procellariiformes
procht
procumbens
production
produkt
produkten
produktionsstatistik
produktsjoon
produsent
prof
profa
profeet
profelis
profeser
profesor
profile
program
programen
programi
programiarspriaken
programme
progreso
project
projekt
prokarioten
proklamiaret
pronoomen
proobe
proof
propaganda
propan
propeler
propelern
propelers
proper
properties
prosa
prosent
proste
proteiin
protein
proteinen
protektoraat
proterozoikum
protoanemonin
protocol
protokol
proton
protoone
protoonen
prototyp
protozoa
provence
provi
providence
providencia
province
provinces
provincia
provincial
provincie
provinsi
provinsie
provinz
provinzen
prowers
prowins
prowinse
prowinsen
prowinsfrei
prowinshoodsta
prowints
pru
prufeser
pruinosa
prunella
prunus
prusent
pruz
przewalskii
ps
psa
pseudolarix
pseudonarcissus
pseudonym
pseudoryx
pseudoscorpiones
pseudotaxus
pseudotsuga
psi
psidium
psilotopsida
psittaciformes
pskow
pskrewen
psoolme
pstelt
psu
psyche
pt
pteeken
pteridophyta
pto
ptoch
ptochen
ptografii
ptolemaios
ptoon
pu
pualem
pualemplaanten
pualemrolern
pualemrut
pualmer
puask
puaskeilun
puaskruus
pub
pubchem
pubescens
public
publications
publiik
publique
publishing
publisiird
publisiirde
publisiirt
publius
puccinellia
pudosch
pueblo
puerto
puglia
pugnax
pujol
pulaarkreis
pulaski
pulchella
pulcher
pulver
puma
pumila
punakha
punctata
pungens
punicea
punkt
punta
puntagorda
puntallana
puntarenas
purcell
pure
purpurea
purpureus
pusa
pusilla
pusillus
pustliidjta
putin
putnam
putorius
putsch
puulsta
puuma
puumas
puurter
puurthidjeten
puuten
puutjepaapen
puy
pv
pvc
pw
pwukset
py
pycnogonida
pygargus
pygmaea
pygmaeus
pyramidalis
pyramiidi
pyre
pyrenaica
pyreneen
pyrifolia
pyrmont
pyrostegia
pyrrhocorax
pyrrhula
pyrus
pyt
pythagoras
pytheas
q
qa
qaanaaq
qaasuitsup
qacha
qaqortoq
qark
qarku
qatar
qenaga
qeqertalik
qeqertarsuaq
qeqqata
qi
qikiqtaaluk
qin
qing
qinghai
qq
qquad
qu
qua
quad
quadratkilometer
quadratmeilen
quagga
quang
quarta
quartal
quarter
quartet
quartier
quartiers
quatre
quayle
que
quebec
quechua
quedens
quedensen
queen
queens
queensland
quelimane
quelle
quellen
quercus
querquedula
quetzal
quetzaltenango
quez
qui
quia
quiche
quichua
quickborn
quickfacts
quimby
quimper
quinara
quincy
quinoa
quintus
quiryn
quitman
quy
qwaqwa
qyedzıg
r
ra
raadio
raadioaktiif
raadioaktiwiteet
raadionukliiden
raadiowaagen
raadium
raadius
raage
raaget
raaket
raaki
raakin
raal
raamen
raantem
raantrem
raapelbuum
raar
raarten
raasien
raatsborig
raawen
raawenfo
raba
rabat
rabun
racemosa
racht
rachter
rachting
racibo
rad
radar
rade
radiata
radii
radiisken
radio
radioaktiif
radium
radoon
rae
raf
rafael
raffael
rafinesque
rag
ragstringdiarten
ragusa
raid
raidbei
raidga
raidiarn
raidkaat
raidpiipern
raidtromp
rail
railen
rainer
rais
raise
raisen
raiset
raisfeerer
rajiformes
rajo
rajon
rajono
rajons
rajonu
rajshahi
rakovni
ral
rale
rallidae
ram
rama
ramanujan
ramaphosa
ramhusen
ramosa
ramosus
ramsay
ramsey
ramsloh
ramsta
ramsteed
ran
rana
rance
rand
randers
randolph
rang
range
ranges
rangifer
rangiferina
rangpur
rankin
ranselsberag
rantzau
ranunculaceae
ranunculales
ranunculus
rapa
rapallo
raphanus
raphicerus
rapifera
rapla
raps
rard
ras
rasen
rasgrad
rask
rasmussen
rastatt
rat
ratekau
ration
ratjunaal
raton
ratscha
ratsionaal
rattus
ratzeburg
rau
rauchen
raueg
rault
rausdorf
ravalli
ravenna
ravensburg
ray
raymond
razmes
rb
rbara
rbe
rbed
rbere
rbet
rbi
rbil
rbilen
rbis
rbisen
rbisplaanten
rbuurd
rchb
rchen
rcode
rd
rdag
rdaghaid
rdbrabant
rdc
rde
rden
rder
rdfask
rdfreesk
rdfreesklo
rdhollo
rdirlo
rdning
rdoba
rdochter
rdsii
rdu
rdwa
rdzong
re
reading
ready
reagan
reagiare
reagiaret
reaksioonen
reaktjuunen
real
realiteet
rebecca
rebild
rebro
rech
rechknaaken
recht
recklinghausen
records
recurvirostra
recurvirostridae
recyling
red
redakto
redbad
redbridge
reder
redersta
redingen
redon
redonda
redunca
ree
reed
reede
reederei
reederii
reedin
reef
reeg
reegel
reegeln
reegelt
reegen
reegenst
reegent
reegiment
reegne
reegnin
reekenmaskiin
reekenmaskiinen
reeknet
reekni
reekning
reel
reenium
reer
reeren
reert
reet
reference
referendum
referenstabel
referenztabelle
refleksiif
reform
reformatsioon
reformen
refst
refstmuun
reg
regensburg
regent
reggio
regia
regiarang
regiarangsbesirk
regiarangsdistrikt
regiaret
regiaring
regiaringsdistrikt
regiaringsdistrikten
regiaringspartei
regiaringstidj
regie
regierungsbezirk
regiiringsdistrikt
regime
regina
reginae
regio
region
regiona
regionaal
regional
regionaldatenbank
regionale
regionales
regione
regionen
regions
regioon
regioonen
regiso
register
regiunaal
regiunaalferbant
regiunaalhistooriker
regiunen
regiuun
regiuunen
regjoon
regnum
regulus
rehamna
rehder
rehm
reich
reiche
reichert
reid
reihe
reimer
reinbek
reinhard
reinhold
reinickendorf
reinsbu
reise
reizt
rejeso
rekla
rekloome
rekord
rekuperatsjoon
rel
related
relatiwiteetsteorii
religio
religion
religioon
religiuun
relk
relkerwiis
relkrich
rem
rembrandt
remforslu
remich
remker
remo
rems
remscheid
remt
ren
renaissance
renate
renault
rence
rendalli
rendiart
rendiarten
rendsbo
rendsborag
rendsborch
rendsborig
rendsborj
rendsburg
rene
rennell
rennes
rens
rensket
rep
repens
report
reports
repository
representantenhu
representation
reprint
rept
reptilia
repu
republic
republiik
republiiken
republik
republika
republikaanern
republikaans
republikoons
republique
rer
rere
rerei
rern
rers
res
rescue
research
resident
resorten
resources
respiratory
respu
respublika
respublikasy
rest
restaurant
restig
restionaceae
resultantes
resultoot
resultooten
results
ret
retalhuleu
reticulata
retingsselskep
retto
reunion
reuter
reutlingen
reußenko
reußenkuuge
reußenkuuger
rev
reveal
review
revised
revisio
revolution
rew
rewen
rewmo
rewolutschoneer
rewolutschoon
rewolutschuun
rewolutsion
rewolutsioon
rex
reykjavi
reykjavik
rf
rfo
rforsker
rfru
rfst
rfstmoune
rfu
rg
rgen
rgens
rgensen
rger
rgerkrich
rgerkriich
rgerma
rgermeister
rgii
rgiraat
rgisk
rgph
rgung
rgunger
rhammar
rhaud
rhea
rhein
rheinfrenkisk
rheinisch
rheinisk
rheinland
rheinlun
rhiird
rhin
rhinanthus
rhine
rhinlo
rhinoceros
rhinochimaeridae
rhinozeros
rhistoore
rhizophora
rhizophoraceae
rho
rhode
rhododendron
rhoeas
rhombozoa
rhone
ri
ria
riad
riadhu
rian
riaper
ribe
ribeira
ribes
ric
rica
rice
rich
richard
richardson
richel
richland
richmond
richsem
richt
richter
richthofen
richtmuun
ricinulei
ricinus
rickelshof
rickling
rico
rida
ridge
ridibundus
ridleyi
rie
riecken
riemann
riepsdorf
ries
riese
rieti
riewerts
rif
rig
riga
riger
riget
right
rightarrow
rigi
rigida
rigolet
rigst
rigt
riiblisen
riimen
riin
riinfreenken
riis
riisenbergem
riisenkraab
riiw
riiwels
rijeka
rik
rikelk
riken
riket
riko
rikskansler
rila
rimen
rimini
rin
ring
ringelt
ringen
ringer
ringkøbing
rings
ringsted
rinjt
rinken
rintidj
rintu
rinweeder
rio
rioja
riot
rip
riparia
ripen
ripuarisk
ris
riseltoote
risem
risk
riskeepen
riskep
riskepslinie
rissa
ritoft
ritsinus
rivas
river
rivera
rivers
riverside
riviera
riwne
rize
riß
rj
rjasan
rje
rjocht
rk
rka
rkatastroofen
rke
rkei
rkem
rkemen
rken
rkiis
rkisch
rkischer
rkisk
rkliawerplaanten
rklik
rko
rkomt
rkreiser
rksen
rkskuuch
rkspal
rl
rlik
rlike
rlisdiarten
rlitz
rlun
rluuper
rm
rmaan
rman
rmaskiin
rmaskiinen
rme
rmeersch
rmer
rming
rmland
rn
rna
rnangen
rnberg
rnby
rne
rnem
rner
rnerkirchen
rnfja
rnija
rnin
rnk
rno
rnruar
rnsdai
rnshaud
rnsk
rnten
rnu
ro
road
roadster
robert
roberta
roberts
robin
robusta
robustus
roche
rochen
rochester
rocht
rochten
rochter
rochthuk
rochting
rochtingen
rochtkant
rochts
rochtskriiwing
rochtswedenskapen
rochtswedenskapsmaan
rochtwinkelt
rock
rockdale
rockefeller
rockii
rocky
rod
rodena
rodentia
rodiei
rodr
roeloffs
rogaland
roger
rok
rokycany
rol
rolf
roll
rom
roma
romaanik
romaanisk
romaans
romaansk
romagna
romagnol
roman
romani
romania
romantiik
romantik
romoon
romoonen
romsdal
ron
ronald
rondeshagen
rondo
ronneby
roo
roodium
roog
rookgas
room
rooma
roomelse
roomsch
roortagen
roos
roosevelt
rooten
ropax
roque
roro
ros
rosa
rosaceae
rosales
rosario
rose
rosea
roseau
rosebud
rosendo
rosenheim
rosken
roskilde
rosmarinus
ross
rossijskoj
rosso
rostock
rostow
rostratus
rote
rotenburg
roth
rothschild
rotterdam
rottumeroog
rottumerplaat
rottweil
rotundifolia
rou
roubaix
rouen
rousseau
roussillon
route
routt
rov
rover
rovuma
rowley
roy
royal
roystonea
roz
roßlau
rp
rper
rpling
rpomern
rps
rpsdiil
rquez
rr
rrach
rri
rromaanik
rs
rsalev
rsbuum
rsbuumplaanten
rsch
rschiinjlik
rsdai
rsdi
rseet
rsen
rser
rshavn
rshopern
rsi
rsk
rskaja
rskbaan
rskij
rsklo
rskraft
rsku
rslacher
rslook
rslun
rsmuun
rsnit
rsplaanten
rst
rsta
rstaaler
rsteed
rsteld
rsten
rstendoom
rstide
rstidj
rstof
rstoof
rstuf
rswin
rt
rta
rtang
rte
rtebeker
rtele
rtemba
rten
rter
rterbuch
rterbuchstelle
rterliste
rtet
rtewa
rth
rthersee
rti
rtiaken
rtica
rtie
rtig
rtigjuarig
rtigst
rtkraaben
rto
rtochduum
rtoner
rtoochdom
rtoochdoom
rtorn
rtpoden
rts
rtse
rtsja
rttemba
rttemberg
ru
ruad
ruadbarsch
ruadbarschen
ruadbo
ruadbu
ruadholtplaanten
ruadsto
ruanda
ruar
ruarbiit
rubber
rubens
rubiaceae
rubiginosa
rubiidium
rubra
rubrum
rubus
rucervus
rucht
ruchte
ruchts
rudersdal
rudolf
rudolph
rudolstadt
rufa
rufescens
ruficollis
rufus
ruggiero
rugosa
ruhigstellen
ruhr
ruker
rul
rulsto
rum
ruma
rumantsch
rumeenien
rumeens
rumeensk
rumex
rumonge
rump
runciman
rund
runde
rundfunk
rundi
rundschau
runees
rungholt
runstu
rup
rupestris
rupicapra
rupicola
ruppin
rural
rus
rusa
ruse
rusen
ruslo
ruslun
russell
russia
russian
rustica
rusticola
rut
ruta
rutaceae
rutana
ruteenium
ruteensk
ruter
ruth
rutherford
ruu
ruubel
ruunen
ruus
ruusen
ruusenoortagen
ruusenplaanten
ruusmariin
ruuwdiart
ruuwdiarten
ruuwkuben
ruuwpo
ruyigi
ruz
rv
rva
rvi
rw
rwanda
rwe
rwedenskapen
rwedenskapsmaan
rweegen
rwen
rwes
rwth
rwu
rwurd
ry
ryanggang
rychnov
ryu
rz
rzburg
rzel
rztliche
rztlichen
rður
rødovre
rømø
rı
s
sa
saa
saaba
saaben
saacht
saad
saag
saagen
saak
saakaschwili
saaken
saale
saalekreis
saalfeld
saalt
saalten
saaltplaanten
saaltsu
saaltweeder
saamelno
saamelt
saamlang
saamlet
saamlin
saamling
saamlingen
saan
saarbru
saare
saaremaa
saarep
saarepskilten
saarland
saarlo
saarloun
saarlun
saarpen
saat
saaten
saaterfrasch
saaterfrasche
saaterfresk
saaterlo
saaterlun
saatet
sabieh
sacatepe
saccharomyces
saccharomycetaceae
saccharomycetales
saccharum
sacha
sachalin
sachsen
sacht
sachthaid
sackville
sacramento
sadeling
safety
safi
saft
sagaar
sagen
sagora
sagt
saguache
sahara
saharaansk
sahel
sahtu
sai
saiel
saien
saiga
saigrajewo
sail
sailen
saint
sair
saison
sait
saitama
saka
sakamensk
sakarya
sake
sakelaad
sakia
saksen
sal
sala
salah
salamanca
salamat
saldooten
sale
salem
salerno
salev
salew
salicaceae
salicifolia
salicina
salicornia
saline
salix
saljut
salmo
salmon
salmonidae
salmoninae
salomoon
salomoonen
salon
saloot
salpeeter
salpeetersu
salt
salto
salvador
salvadorina
salvelinus
salvia
salwadoor
salwei
salwer
salwerdaks
salwern
salwit
salzburg
salzgitter
salzlandkreis
salzwedel
sam
samara
sambeesi
sambesi
sambia
sambucus
samdrup
same
samer
samermoune
sametwirmer
sami
samisk
sammarineesk
sammlung
samoa
samojedisk
samos
samouelle
samsun
samsung
samsø
samtgemeenen
samts
samtse
samuel
samurai
samvat
san
sana
sanaa
sancti
sand
sande
sandelholtbuum
sandelholtbuumer
sandelholtplaanten
sanders
sandesberag
sandesneben
sandi
sandro
sandvicensis
sandwich
saneene
saner
sang
sangha
sanguie
saninj
sanjonken
sankarani
sankt
sanlu
sanmatenga
sanruusen
sanruusken
sans
sansevieria
sansibar
sanskrit
sansu
sant
santa
santalaceae
santalum
santander
santare
santdeem
santi
santiago
santo
santos
sao
sapindaceae
sapindales
saporischschja
sapotaceae
sar
saragossa
sarah
sarajevo
sarajewo
saramacca
sarasota
saratow
sarcoptiformes
sardegna
sardiin
sardiinien
sardina
sardisk
sardyk
sark
sarken
sarkenslaawisk
sarkhoof
sarkozy
sarkspal
sarkspalen
sarpang
sarre
sars
sarsr
sarthe
sarzbu
sas
saskatchewan
sassafras
sassandra
saster
sasterprojekten
sat
satakunta
sate
satelitenbil
satellit
satellite
saten
saterfrasch
saterfriesisch
saterfriesische
saterfriesisches
saterland
saterlo
sativa
sativum
sativus
sats
satu
saturn
saturnus
sauces
saudi
saul
saurimo
sava
savage
savalou
savanes
save
savivaldybe
savoie
savona
savorgnan
saw
sawat
saxatilis
saxony
saŋ
sb
sbel
sbloosen
sbluumplaanten
sbongen
sc
scabiosa
scabra
scandens
scandentia
scarus
scathophaga
scathophagidae
sch
scha
schaal
schach
schadens
schaduw
schaefer
schaefersphilippen
schaffhausen
schafflund
schafstedt
schah
schal
schalkholz
schan
scharbeutz
schashagen
schatt
schauer
schaumburg
schauspeler
sche
scheel
schefflera
scheidemann
schelde
schen
schenefeld
schetsing
schewtschenko
schiermonnikoog
schiff
schiffe
schifffahrtsamt
schiina
schiinees
schiineesk
schiisk
schiisken
schiisklun
schima
schimmelreiter
schineesk
schirak
schizomida
schla
schleesien
schleesisk
schlei
schlesen
schleswig
schleswigscher
schley
schlichting
schlo
schloss
schloun
schltr
schlu
schmalkalden
schmaltz
schmedeswurth
schmidt
schmitz
schneekluth
schneider
scho
schobu
schocht
schoeniclus
schoenoplectus
schoenoprasum
schoguunen
scholten
scholz
schongster
schoobel
school
schools
schopenhauer
schott
schottel
schoule
schoulere
schraawen
schraft
schraftlik
schraftspra
schrahe
schrevenborn
schriif
schriwen
schriwer
schriwster
schriwwis
schriwwise
schro
schrum
scht
schtjuur
schu
schuarden
schubert
schucht
schuh
schuld
schule
schulte
schumann
schumen
schutzhandschuhe
schutzkleidung
schuykill
schwa
schwaben
schwartau
schwarz
schwarze
schwarzenbek
schwarzwald
schweinfurt
schweiz
schweizerische
schwere
schweriin
schwerin
schwesing
schwyz
schytomyr
science
sciences
scincomorpha
sciuridae
sciurus
sclateri
sco
scolopacidae
scolopax
scomber
scombridae
scophthalmus
scopulorum
scorpiones
scotia
scotland
scott
screven
scullin
scyliorhinus
sd
sdiarten
sduk
se
sea
seaborg
search
searcy
sebastes
sebastia
sebastian
secale
sechelk
sechs
seckler
second
secretariat
sect
section
sed
sedelsberg
sedgwick
sediment
sedimenten
sedum
see
seebad
seeben
seebras
seed
seede
seedelsbierich
seefaarers
seegebeerch
seegeberri
seegna
seeken
seeker
seekerhaid
seekerhair
seekeri
seeks
seekst
seeksta
seekstanj
seekstanjst
seekstgratst
seelew
seeliren
seelo
seelskap
seelter
seelterfra
seelterfrasch
seelterfrasche
seelterlound
seeltersk
seen
seenegal
seenken
seenksteeden
seerie
seerien
seerienauto
sees
seesel
seesje
seet
seeteeken
seetplaatsen
sefrou
segeba
segebeerch
segeberg
segeberig
segebo
segescha
segetum
segovia
segu
sehr
seidler
sein
seine
seiner
seit
seite
seiten
sejo
sejong
sek
sekani
sekreteer
seksisk
seksjoon
sekstant
sektion
sektjuun
sektoor
sektooren
sektsioon
sekund
sekunda
sekunde
sekunden
sekundi
sel
selag
selassie
selatan
selayar
seleen
selen
selenga
selenginsk
selent
selger
seli
selim
selk
selkial
selkupisk
sell
sellowiana
selma
selo
selskap
selskep
selskepen
selu
selvagens
sem
semant
semara
semer
semiitisk
semily
seminole
semlja
sempervirens
sempervivum
sen
senaat
senaator
senbianer
senchi
send
sendai
sender
sene
seneca
senecio
senegal
senegaleesk
senegalensis
senen
senep
senerk
senerlig
senerligi
seninj
senknober
senna
sensiif
senskiin
sensooren
sensu
sent
sentimeeter
sentraal
sentraalbeenk
sentraalkomitee
sentraalmasiif
sentrum
senweening
seongjong
seonjo
seoul
sepium
sept
septa
september
septemberjul
septembermuun
septembre
ser
seram
serben
serbien
serbisk
serbokroatisk
sere
seremoniel
seretse
sergejewitsch
sericea
serie
series
serinus
sermersooq
sern
serowe
serpens
serrasalmidae
serrata
serrator
serratum
serrulata
sertularia
sertulariidae
serval
server
service
seschelen
sesotho
sessilifolia
sester
sesterskep
set
setacea
setminus
seto
setswana
settat
settlement
settlements
setu
severe
severin
severo
sevier
sevilla
seward
sewastopol
sewernaja
sewerobaikalsk
sex
seychellen
seychelles
sf
sfa
sfax
sfk
sfsr
sg
sh
sha
shaanxi
shakespeare
shall
shan
shandong
shanghai
shanxi
sharp
shasta
she
sheading
sheano
shelby
shelter
sheridan
shetland
shi
shift
shiftphone
shiga
shihuangdi
shikoku
shimane
shire
shizuoka
shkode
sho
shona
shop
short
shoto
shoufeng
show
shqipe
shu
shual
shualer
shurn
shurner
shuttle
shz
si
sia
siabeer
siabeeren
siabo
siad
siadeiwel
siadeiwler
siadgus
siadplaanten
siadu
siaengde
siafaard
siafo
siafoorer
siaga
siages
siahaas
siahaasen
siaheken
siahingster
siahu
siaki
sial
sialaks
sialia
sialidj
sialo
sialun
sialuns
siamaan
siamiil
siamiilen
siamo
sian
siana
siap
siapeegel
siapenbuumer
siarem
siaruusen
siaruusplaanten
siaruuwdiarten
siaslacht
siasta
siawai
siaweeder
siawulwer
siberian
sibiirien
sibiirisk
sibirica
sibirisch
sibiu
sibylla
sic
sich
sicherheitsdatenblatt
sicht
sichuan
sicula
sid
siddhartha
side
sident
sidi
sidj
sidjen
sie
sieben
siebenbu
sieboldii
siebs
sieg
siegen
siegfried
siehe
siek
siemens
siemer
siena
sierksdorf
sierksrade
sierra
siewertsen
sig
siglitun
sigma
sigmaringen
signa
siguiri
sii
siid
siidelt
siidlang
siidlern
siidlung
siidlungen
siie
siielo
siig
siigbleedplaanten
siigen
siigenkliawer
siik
siil
siild
siilern
siilfo
siilo
siinj
siinst
siinsten
siir
siirt
siisal
siisen
siisenspaner
siisensto
siit
sik
sikaalisk
sikasso
siker
sikerin
sikkim
sil
sila
silene
sileo
silere
silew
siliana
siliitsium
silikaaten
silinder
silistra
silkeborg
silla
silt
silur
silva
silver
silvestris
silwen
sim
simbabwe
simbirsk
simon
simonsbeerj
simonsberag
simonszand
simplex
simpson
sims
simum
sin
sina
sinai
sinan
sinapis
sind
sindhi
sinende
sinense
sinensis
sing
singapuur
singe
singen
singer
singhaleesk
single
singt
sink
sinkyone
sino
sinop
sint
sintenisii
sinti
sinuata
sinus
sio
sion
sioux
sipaliwini
sippi
sir
siren
sirenia
sirenik
sirep
sirocco
sis
sisak
sische
sisches
sisimiut
sisk
siskiyou
sissili
siswati
sit
site
sitronaatsitroon
sitroon
sitroonen
sitta
sitten
sivas
six
siziilien
siziliaans
sizilians
sizilien
sj
sjauer
sjauerhuk
sjauerkaant
sjep
sji
sjii
sjiina
sjiinakual
sjiinen
sjiisk
sjiisken
sjiisklun
sjineesen
sjineesk
sjip
sjit
sjo
sjocht
sjongen
sjongfo
sjongster
sjongswaan
sjongt
sjongtroosel
sjonkdiarten
sjoten
sju
sjuard
sjuarden
sjuk
sjung
sjunik
sjuts
sjælland
sk
ska
skaad
skaadfo
skaafet
skaafin
skaala
skaalen
skaas
skafet
skafi
skag
skagerrak
skaisto
skaja
skak
skal
skala
skalang
skalice
skalnasda
skalnastal
skalot
skaloten
skan
skanderborg
skandinaawien
skandinaawisk
skandium
skap
skapen
skapsferkiar
skarep
skdiarten
ske
skeb
skebet
skebin
skeeb
skeeben
skeel
skeelt
skeepen
skeer
skek
skeken
skel
skelebleeden
skelen
skelfask
skelt
skelter
skeltern
skemel
sken
skep
skepen
skeps
skepsdiesel
skepswerev
sket
skflikerten
skhirate
ski
skiar
skiaren
skiermu
skiifer
skiin
skiinboor
skiiw
skiiwdiarten
skiiwen
skij
skilen
skilt
skiltpoden
skin
skinjt
skinks
skirem
skiremplaanten
skirsko
skit
skive
skjern
sklo
skluin
sko
skofel
skol
skolen
skolepdiarten
skolepkrepdiarten
skopje
skorbu
skoren
skorpioon
skorpioonen
skotlo
skotlun
skots
skotsk
skra
skraal
skraft
skraftelk
skraften
skraftspriak
skrafttiaken
skramel
skramelnumer
skramelnumern
skreev
skreew
skref
skrefen
skreft
skreften
skregeljuar
skregeljuaren
skrekeljaar
skrekelstroom
skrewen
skriif
skriift
skriifwiis
skriiv
skriiw
skriiwen
skriiwer
skriiwern
skriiwers
skriiwing
skriiwwa
skriiwwiis
skrikfo
skriwer
skroben
skrobflenerken
skrookluasen
skru
sku
skua
skuch
skul
skur
skuul
skuulen
skuulma
skuulmaister
skuulsters
sky
skylge
skłodowska
sl
sla
slaaget
slaageti
slaagi
slaang
slaangdreeger
slaanger
slaanghalsfo
slaanj
slaaw
slaawen
slaawenhanel
slaawerei
slaawische
slaawisk
slach
slacher
slacht
slagelse
slain
slait
slam
slams
slang
slapen
slaswik
slave
slavey
sleeben
sleep
sleeper
sleesisk
sleeswich
sleeswig
sleeswii
slem
slesvicense
slesvig
sliapmu
sliik
sliike
slikkaater
slim
slimane
slimialer
slimsocial
slimst
sliwen
slo
slob
slober
slood
sloot
slope
slot
slough
slovakia
slowaakisk
slowaka
slowakei
sloweenien
sloweens
sloweensk
slowenien
slowinsisk
slu
sluat
sluch
slun
sm
sma
smaag
smak
smaragd
smarhonj
smarkin
smart
smartphone
smartphones
smc
smcs
smeel
smeer
smellingerla
smen
smetana
smeten
smink
smit
smith
smithii
smithsonian
smog
smok
smokhaid
smolen
smolensk
smoljan
smolt
smu
sn
sna
snaak
snaake
snaaket
snaket
snaketi
snaki
sne
sneken
snepen
snits
sno
snoot
snootebel
snu
snyder
so
social
socialist
socialistic
society
sodenang
soest
sofala
sofern
sofia
sofo
sofort
software
sogn
sogoor
soholm
soholmer
sok
sokbaro
soken
soker
sokermeloon
sokerpualem
sokerraid
sokerro
sokode
sokollu
sokolov
sokotra
sokrates
soks
sokst
sol
sola
solanaceae
solanales
solano
solanum
solbei
soldaaten
soldooten
solea
solenodon
soli
solingen
soll
solo
solola
solom
solomon
solothurn
solrød
som
somaali
somaalia
somaalilun
somalensis
somateria
somer
somerfo
somermuun
somern
somersankiar
somerset
somerspalen
somit
somme
somniferum
somrem
somtirs
son
sonchus
sonderburg
song
songhai
songs
soninke
sonneberg
sono
sonoma
sonora
sonsonate
soo
sooben
soocht
soomling
soon
soong
soongreewlang
soonk
soowen
soowenst
soowentiger
sophia
sophie
sophien
sophiien
soposums
sopra
sor
sorbe
sorben
sorbisch
sorbische
sorbischspra
sorbisk
sorbus
sorghum
sortawala
sortiaret
sorø
sos
sosiaal
sosiaaldemokraatisk
sosialistisk
soster
sotavento
sotho
soto
sotouboua
sotsiaal
sotsiologii
soul
soum
sound
source
sourou
souss
sousse
south
southampton
southend
southern
southwark
southwest
sove
sovetskaja
sowat
sowie
sowjet
sowjetisk
sowjetrepubliik
sowjetru
sowjetunion
sowjetunioon
sp
spa
spaanien
spaans
spaaret
spaari
space
spain
spal
spalding
spalen
spandau
spanern
spanien
spaning
spanish
spanje
spansk
spanuth
spaonien
sparag
spargel
spargeloortagen
spargelplaanten
sparger
sparisoma
spartina
spas
spasahorn
spasmu
spatula
spd
special
species
speciosa
spectabile
spectabilis
speegel
speening
speino
spektraalklo
spektroskopii
spektrum
spel
spele
spelet
spelster
sperma
speyer
spezia
sphagnum
spi
spicata
spicatum
spiegel
spikeliaret
spinescens
spinosa
spinoza
spiralis
spiro
spitsbergen
splaanten
spleed
splendens
split
spo
spoanien
spoken
sponsa
spoonien
spoonsk
spoonsken
spootern
sporobolus
sport
spra
spraak
spraaken
spraakfamiilien
sprache
sprachen
sprachfamilien
sprachkontakt
sprachkurs
sprachlehre
sprachwissenschaft
spree
spreecht
spreeg
spreege
spreegen
spreeger
spreegern
spreegers
spreegerta
spreegertaal
spreegwurden
spreegwurdleksikon
spreek
spreeken
spreekewise
spreekwiis
spreekwiisen
spreekwise
spreewald
spriadkoord
spriak
spriaken
spriakenfamile
spriakfamile
spriakfamilin
spriakkurs
spriakregiuun
spriakwedenskap
spriakwedenskapsmaan
spriakwiis
spriakwiisen
sprianer
sprichwo
spriik
spriiken
spriikfamilje
spriikwedenskapsmaan
spriikwiis
spriikwiisen
spring
springer
springfield
springflud
springs
sprit
spro
spru
spruch
spu
spur
spuul
spuulen
sqrt
squamata
square
squez
sr
sraghna
sri
srii
sroot
srooten
srpska
ss
ssaarep
sse
ssel
sseldorf
ssen
sserkundliches
ssig
ssp
ssr
ssrna
sstoofmelen
ssw
st
sta
staacken
staal
staalglaagen
staalin
staalkru
staan
staant
staapken
staat
staaten
staatus
stabiil
stachys
stacken
stad
stade
stadler
stadt
staheu
stair
stairen
stak
staken
stalin
stalingrad
stam
stama
stamer
stamt
stan
stanbul
stand
standard
standards
stang
stanislaus
stanisław
stanley
stann
stant
staot
stapelholm
stapf
star
stara
stareft
stark
starken
starker
starkhair
starkst
starnberg
starobogatov
starostin
start
starter
startet
stary
stat
statbel
state
staten
states
statesman
station
statistica
statistical
statistiche
statistics
statistiek
statistik
statistikamt
statistikbanken
statistiken
statistikinstitut
statistikregionen
statistique
statistische
statistisches
statistisk
statistiska
statistiskamt
statline
stats
statsjoon
status
stausia
stawropol
ste
steanbo
stechow
sted
stedesand
steed
steeddial
steeddialen
steeddistrikten
steeden
steedenwiis
steedgemeend
steedgemeenden
steedgraafskap
steedkomuun
steedkreis
steedkreiser
steedstoot
steegmagen
steegro
steekdoos
steem
steemen
steensen
steeplechase
stefan
stefano
stegelpoden
steget
steglitz
steht
steiermark
steiger
stein
steinborig
steinborj
steinburg
steiner
steinfurt
stek
stekelsbiar
steken
stel
steld
stelfertreeden
stellaria
stellaris
stellata
stelle
stelt
stem
stemaatik
stemen
stemet
stemhaft
stemi
steming
sten
stendal
stenfa
stenopetala
stenophylla
stenophyllum
stenrik
stens
stephan
stephanie
stephen
stephens
ster
stera
steradiant
sterbotten
stercorarius
sterew
stergo
sterheewer
stern
sterna
sternbrook
sternidae
sternorrland
sterreich
sterrik
stersund
stet
stettin
steuben
steud
steven
stevia
stevns
stewa
stewart
stfrasch
stfrasche
stfraschlo
stfreesklo
stgebiite
stgra
stholstiinj
sti
stial
stian
stianang
stianbaker
stianbitjer
stianbok
stianborch
stianbot
stianboten
stianer
stianfru
stiankauts
stiankautsen
stianko
stiankoralen
stianood
stianpo
stiantidj
stianwinjer
stica
stich
sticht
stico
stiftang
stifting
stiftung
stig
stiger
stigst
stiil
stiin
stiinborj
stiiner
stiinern
stiinj
stiinjborj
stik
stikelwirmer
stikstoof
stikstuf
stillwater
stimmen
stimpson
stine
sting
stipendium
stirbt
stirem
stiremt
stirling
stirme
stizorhina
stjo
stju
stlaanj
stlein
stlik
stlo
stlun
stmanland
sto
stockelsdorf
stockholm
stockholms
stockmann
stof
stoffen
stofi
stolba
stolberag
stolin
stolperstein
stolpersteine
stolt
stolypin
stomp
ston
stone
stonger
stooch
stood
stoof
stoofwaksel
stookfask
stookruusen
stool
stoont
stoorew
stoot
stoote
stootelk
stooten
stootsboowenhood
stootsboowerhood
stootsmaan
stootsminister
stootspresident
stordistriktet
store
storemflo
storemmuun
storev
storew
storewen
stories
storm
stormarn
stormflo
stormmoune
story
stowell
str
stra
straal
straat
straaten
strai
strakonice
stralsund
strand
stranded
straubing
straus
strausen
strausenfo
straßburg
straße
stre
streden
streed
streek
streeken
streeng
streengen
streenger
streengern
street
streetscooter
streg
streget
streicher
strelitz
strelitzia
strelitziaceae
strelitzien
strepera
strepsiceros
stresemann
striata
stricta
stricto
strictum
strid
stridj
stridjen
stridjkreeften
strigamia
strigidae
strigosa
strimel
strimler
stringen
strir
strix
stro
stroof
strooling
stroom
stroomer
stroomkraft
stroomstarkhair
stroote
stroun
strow
stru
strualen
strualflikerten
struat
struaten
struer
strukelje
struktur
struktuur
struktuurformel
strun
strunfresk
strunhuder
strunkru
strunmial
struthio
struthioniformes
struum
struume
struumer
struumfeerer
struumma
struwwelpeter
strychnin
strychnos
stsiie
stu
stuart
student
studenten
studiare
studiaret
studiareti
studiarin
studien
studies
study
stuk
stun
stunbil
sturem
sturemflud
sturemfluden
sturemfo
sturemswaalk
sturemswaalken
stuttgart
stuudium
stuun
stuunt
stwa
stwai
style
stylosa
su
suart
suartbu
suarten
suartfutkaat
suarthoodet
suartrut
suas
sub
subatlantikum
subdialect
subfamilia
subg
subgruppe
subjekt
subkingdom
sublette
subseteq
subsp
substrootspra
subtroopen
subtroopisk
subulata
suceava
suchitepe
sucht
sucre
sud
sudaan
sudafrikoo
sudan
sudeeten
sudeticus
sueben
sueddeutsche
sueskanaal
suffolk
sufiksen
sugcestun
sugihara
sugpiaq
suhl
sui
suidae
suk
suken
sukjong
sul
sula
sulawesi
sulfaaten
suliformes
sullivan
sultaan
sultaanen
sultanaat
sum
sumatra
sumatrana
sumeerisk
sumer
summaries
summenformelsuche
summit
sumter
sumy
sun
sunbeenk
sunchang
sunda
sundaneesk
suner
sung
sunjo
sunkaat
sunstian
sunt
suojarwi
supergroup
superior
sur
surabaya
suragt
surge
suriname
surrey
survey
sus
suspensjoon
suspensjoonen
susquehanna
sussex
suster
sut
sutter
suttner
sutton
suulu
suur
suurinam
suurpiiri
suurt
suurten
suurter
suutjis
suv
suva
suwannee
suwereen
suwereenen
suwereeniteet
suwereniteet
suyu
sv
svalbard
sve
svecica
sven
svendborg
svg
svi
svitavy
sw
swa
swaak
swaalken
swaamp
swaampen
swaan
swaanen
swaanenbruad
swaar
swaarer
swaarhair
swaarhairen
swaari
swaarkra
swaarmetal
swaarmudaghaid
swaarponkt
swaasi
swaasilun
swaawel
swaawelsu
swadesh
swahili
swaisgiraat
swaisi
swaisin
swaits
swaitser
swak
swakopmund
swampy
swaneetien
swanisch
swark
sweden
sweebisk
sweeden
sweedisch
sweeds
sweedsk
sweet
sweetwater
sweewfleegen
sweits
sweitser
sweragbianer
sweraghirsker
swerdlowsk
swerger
swet
sweten
swetga
swetweeder
swiasing
swietenia
swin
swinbei
swinbeien
swinruter
swinsbasen
swinsrag
swinswaaler
swir
swislatsch
switzerland
swjatoschyn
swo
swum
sx
sy
syddanmark
syddjurs
sydney
sydslesvigdansk
sylhet
syllabics
sylt
sylter
sylvatica
sylvestris
sylvia
sylvicapra
sylviidae
symbool
symphytifolius
syn
syncerus
syndrome
syngnathidae
syngnathiformes
synje
syrakus
syrien
syringa
syrinx
syrja
syrphidae
syst
syste
systeem
systeemi
system
systems
syzygium
sz
szukalski
sønder
sønderborg
sønderjysk
sɑ
sɛ
t
ta
taa
taacht
taachten
taak
taal
taalen
taalenkuugel
taalenteorii
taalibaan
taalkunde
taaln
taaltiakens
taamil
taanj
taapiir
taarbert
taarbæk
taarep
taarpen
taastrup
taatje
tab
taba
tabak
tabanidae
tabanus
tabel
tabelen
tabeli
tabelle
tabellen
table
tables
tablet
tablets
tachentiger
tachentigst
tachov
tachybaptus
tacitus
tadjikistaan
tadjikistan
tadjourah
tadla
tadorna
tadorninae
tadschiikistaan
tadschiiks
tadschikistan
tadsen
taebaek
taejo
taejong
tafilalet
taft
taftem
tag
tagaalog
tageblatt
tagish
tahiti
tahitiansk
tahltan
tahoua
tahr
tahya
tai
taichung
taiga
taimyr
tain
taipeh
taisho
taitung
taiwaans
taiwan
takakia
takiinen
takson
taksonomii
takste
takti
tal
taland
talas
talbot
talen
talent
tales
taliaferro
talladega
tallapoosa
tallinn
tamarillo
tamarix
tamazight
tambacounda
tambow
tamil
tams
tan
tanacetifolia
tanacetum
tanach
tanacross
tanana
tanane
tandjile
tanen
tang
tanga
tangelo
tangent
tanger
tanguie
taning
taningsta
tank
tankstair
tanno
tano
tansania
tansaniia
tantaal
tanzania
taol
taole
taoude
taounate
taourirt
tapirus
tapoa
tarapaca
taras
tarawa
taraxacum
tarbagatai
tarent
tarentola
tarifa
tarija
tarn
taroudannt
tarragona
tarsius
tarso
tartu
taschenlexikon
tasmaanien
tasman
tasmania
tastatuur
tata
tataarisk
tataouine
tatar
tatarica
tataricum
tatarisch
tatarische
tatarstaan
tatarstan
tating
tatort
tatra
tats
tattnall
tau
tauber
taue
tauen
taunus
taurotragus
taurus
tausis
tauspriakag
taust
tawil
tawusch
taxaceae
taxonomy
taxus
taycan
taylor
taz
taza
tazacorte
tba
tbecht
tbraacht
tc
tchamba
tchaourou
td
tda
tdeer
tdo
tdru
te
teaater
teaaterspeler
teaaterstaken
teacher
team
teau
teborg
technical
technik
technische
technisk
technologii
technology
techt
techter
techtmaaket
tee
teedenbel
teef
teeken
teekner
teeknet
teekningen
teel
teelen
teelt
teema
teenk
teenken
teenkstair
teenkstairen
teeplaanten
tegen
tegucigalpa
teguise
tehama
teheraan
teide
teil
teimuras
teisdai
tekirdag
tekst
teksten
teksti
tel
telangana
telde
telemark
teleorman
telephium
teleskoop
telfair
telk
teller
tellingstedt
tels
telt
teltow
telugu
teluur
temelk
temmincki
temotu
tempel
temperatu
temperaturen
temperatuur
temperatuuren
tempo
tempratuur
temu
temuco
ten
tenachtler
tenen
tenera
tenerife
teneriffa
tengah
tenggara
tennessee
tenno
tenochtitla
tensbu
tensift
tenuifolia
tenuis
teologii
teoloog
teooter
teoreetisk
teorii
teplice
ter
teramo
terbium
terdistrikt
tergowischte
teritoorie
teritoorien
teritoorium
terminalia
tern
terni
ternopilj
ternowo
terra
terre
terrell
terrestris
territoire
territoires
territorial
territories
territorium
territory
terschelling
terski
tersloh
terst
tertia
tertius
teruel
tes
tesk
tesken
tesla
teslin
tessin
test
testament
tet
teta
tete
tetenbu
tetjdiart
tetjdiarten
tetlin
teton
tetra
tetracerus
tetraeder
tetragona
tetraodontiformes
tetrapoda
tetrapooden
tetrapoodi
tetrodotoxin
tetun
teu
texas
texel
text
texts
textstyle
tf
tfaarten
tfinj
tforkoopet
tfrac
tfu
tg
tge
tgv
th
tha
thaba
thai
thailand
thailo
thailun
thailuns
thames
thanh
that
thazard
the
thea
theaater
theaceae
theater
theda
theema
theer
thelyphonida
thems
theo
theobroma
theobromin
theodor
theodore
theory
there
thermodynamic
thermoplasti
thessaalien
thet
theuderich
thi
thie
thielbek
thieme
thimphu
thiopien
this
thisted
tho
tholund
thom
thomas
thompson
thomsen
thor
thorbecke
thorelii
thraakien
threatened
three
thu
thua
thuja
thule
thunnus
thurgau
thurrock
thusnelda
thy
thymus
ti
tia
tiaken
tiakens
tiakent
tiaknang
tiakner
tialen
tianjin
tianshun
tiarling
tibeet
tibeetisk
tiberius
tibesti
tibet
tibetana
tibetobirmaansk
tiburtius
tica
tice
ticodendron
tid
tidj
tidja
tidjen
tidjreegnang
tidjru
tidjs
tidjskraft
tidjskraften
tidjwiis
tids
tidschraft
tie
tielenhemme
tien
tier
tierra
tiflis
tift
tigre
tigrinya
tigris
tii
tiibet
tiiger
tiigerkaat
tiigris
tiikne
tiimor
tiin
tiinet
tiinj
tiinst
tiint
tiiren
tiisdai
tiitel
tija
tijarafe
tik
tiker
til
tilapia
tilefoon
tili
tillabe
tilman
tilsit
tim
timbuktu
time
times
timijuun
timis
timmendorfer
timor
timorensis
timur
tin
tina
tinajo
tinamuun
tinctoria
tindouf
tineke
tinem
tineola
ting
tinghir
tinixwe
tinj
tintenfass
tio
tioga
tipula
tipulidae
tir
tirajana
tirana
tiren
tirol
tis
tischbein
tisk
tistel
tisteln
titaan
titaansko
titan
titel
titus
tiznit
tj
tja
tjaap
tjaapdiarten
tjaarkliawer
tjabelstu
tjai
tjarschtrumel
tjbaud
tjbreeg
tjbreegen
tjbroocht
tjbruch
tjbu
tjden
tjdru
tjdruk
tje
tjen
tjenburg
tjenlun
tjenlunen
tjeno
tjenst
tjer
tjergat
tjern
tjet
tjfeerd
tjfinjer
tjfoon
tjfu
tjgoow
tjgoowen
tjgung
tjgungspuul
tjhual
tji
tjiftjaf
tjiin
tjiinbianeten
tjiinbiankraaben
tjiiner
tjiinst
tjiinstgratst
tjiisk
tjiisken
tjiisklun
tjin
tjkem
tjkimen
tjkomt
tjliase
tjliaset
tjlun
tjluns
tjmaaget
tjno
tjnoom
tjo
tjplaanten
tjracht
tjreegne
tjrepen
tjsa
tjsaag
tjsaagen
tjsaagenloogik
tjsen
tjsicht
tjsleden
tjspreegen
tjspriak
tjspriik
tjstand
tjstande
tjsto
tjstu
tju
tjuk
tjumen
tjwerket
tjwidjet
tjwool
tk
tka
tkemen
tkum
tkumt
tky
tl
tla
tlahtohcayotl
tland
tlatskanai
tld
tlds
tlik
tlingit
tlo
tlun
tm
tn
tna
tnu
to
tobaago
tobago
toc
toch
tochen
tochigi
tod
todd
todoque
todus
toffo
togo
tohuup
tok
tokat
tokelau
tokio
tokugawa
tokyo
tol
toledo
tolkien
tolland
tologii
toloogisk
tolowa
tolunioon
tom
toma
tombali
tombigbee
tome
tomentosa
tomoot
tomsk
ton
tondern
tong
tonga
tonger
tonkinensis
tonle
tonto
too
tooch
tooche
toocht
toofel
toofelan
toog
toogo
toogolun
toole
toombs
toon
toonaart
toonaarten
toonket
toonleđer
toonsto
toop
toopet
toor
toorp
toorpe
top
topographia
topologii
tor
tora
tori
tornaado
tornaados
toro
toromaans
toronto
torquatus
torquilla
torr
torres
torreya
torsten
torter
toskaana
toskisk
tota
total
totanus
totonicapa
tottori
tou
touan
touba
toucountouna
toulouse
tour
toure
tourismus
tours
touspra
toviklin
tower
town
towns
township
toyama
toyoda
toyota
tprobiaret
tr
tra
traachter
traad
traaden
traadgratst
traadhuuchst
traafo
trabzon
trachinus
tracking
tragelaphus
tragen
tragulidae
trak
trakt
trang
trani
transactinide
transactions
transbaikaalien
transfer
transistor
transit
transkarpaatien
transkaukaasisk
transkei
translation
transliteration
transnistrien
transport
transportiaret
transportiird
transvaal
transverse
trap
trapani
trapen
trashigang
trashiyangtse
traum
trave
tre
treasure
tree
treed
treede
treedepa
treedgratst
treekni
treene
treet
trenc
trennewurth
trentino
trento
trenton
tres
tretanj
tretanjst
treutlen
tri
triad
triader
triadica
triadwirmer
triana
triangle
trias
tricolor
tridactyla
trient
trier
triest
trifolium
triglidae
trigonobalanus
trigonometrii
trii
triibus
triibuus
triihuk
triihuken
triihuktaal
triihuktaalen
triisis
triituankub
triituankuben
trilobiten
trinam
trinambai
tringa
trinidad
trinity
trinj
trinjam
trinjenam
trinjom
trinjum
triphosphat
tripleurospermum
trischen
tristan
tristis
triticum
trittau
trium
trjoue
trnava
tro
troch
trocheno
trochilus
trochla
trochmeeder
trochsaat
trochtusaaten
troglodytes
trollope
trombidiformes
trompeetenbuumplaanten
trompeetenfasker
troms
tromsø
tron
trondheim
trongsa
trooldo
troolebel
troolkraaben
troopen
troopenwalt
troopisk
trooseln
tropisk
tropole
trotski
troup
tru
truhlar
truman
trump
trupen
trustees
trutnov
trutta
trutz
trøndelag
ts
tsa
tsaacht
tsch
tschad
tschadsia
tschechien
tschechisk
tschechoslowakei
tscheljabinsk
tscherkasy
tscherkesien
tscherkesisk
tschernihiw
tscherniwtsi
tschernjenko
tschetscheenien
tschetscheens
tschetscheensk
tschu
tschukotka
tschuktschen
tschupik
tschuwaschien
tschuwaschisk
tsd
tse
tsedreelen
tseeder
tseedern
tseelwe
tseelwie
tseesium
tsek
tseka
tsen
tsentimeter
tset
tsetsaut
tsi
tsilhqot
tsimbrisk
tsimshian
tsirang
tsirkoonium
tsjiisk
tsjocht
tsk
tsken
tsklo
tsonga
tspra
tspraak
tspreeken
tst
tstafiaret
tsteling
tsu
tsuana
tsunami
tsuut
tsuutina
tswana
tt
ttaacht
tte
ttel
tten
ttener
ttenrauch
ttich
tting
ttingen
ttju
tto
ttsiel
tu
tualagbitjern
tuamotu
tuba
tubai
tube
tuberosum
tudes
tueno
tufa
tufo
tuforen
tugang
tugengelk
tugrip
tuharke
tuhiar
tuhiarag
tuhiart
tuhuupe
tuiarst
tuineje
tujarst
tuka
tula
tulare
tulcea
tuleest
tuleetst
tuletst
tuliarden
tulipa
tulpen
tulpenbuum
tum
tumanst
tumoori
tun
tunant
tunantmaaget
tunceli
tundra
tuneesien
tunel
tuner
tunguusisk
tunis
tunisia
tunka
tuolumne
tup
tupi
tuplaanjen
tupslo
turag
turagtreed
turakos
turbo
turdidae
turdus
tureegent
turiin
turin
turing
turkei
turkey
turkmeenistaan
turkmeens
turkmeensk
turkmenistan
turks
turkspriak
turkspriaken
turner
turocht
tus
tuscaloosa
tusta
tustant
tustendag
tustruum
tuswaaler
tut
tutchone
tutool
tutsk
tutsklo
tuttlingen
tututni
tuukan
tuun
tuuner
tuunfasker
tuup
tuupfaadet
tuuphinge
tuupluup
tuupsaat
tuupsko
tuupslo
tuupsto
tuupstruum
tuupstupe
tuupta
tuupwerket
tuupwerkin
tuur
tuusipetji
tuusterpa
tuvalu
tuwa
tuwaalu
tuwiinisk
tuy
tuye
tuzla
tv
tw
twa
twaalew
twaalewst
twanlanger
twari
twasche
tweed
tweede
tweelwen
tweer
tweisis
twelev
twer
twerk
twerkwerk
twert
twesken
twiggs
twiich
twiig
twiigen
twiiger
twiiju
twiiskaalagen
twizy
two
twu
twuntag
twuntig
twuntiger
twuntigst
ty
tycho
tyler
typ
type
tyto
tytsjerksteradiel
tyva
tz
tze
tzen
tønder
tłı
tɔ
tɛ
u
ua
ual
ualaatj
ualang
ualen
ualfresk
ualfriisk
ualgermaans
ualgreks
ualgriichisk
ualhuuchsjiisk
ualingels
ualkurisk
uallo
ualnoorsk
ualpleistoza
ualpreußisk
ualsaksisk
ualsibiirisk
ualslaawisk
ualstiantidj
ualun
uar
uaren
uart
uast
uastaafrika
uastaasien
uastafrikoo
uastanatoolien
uastdial
uasteeg
uastelk
uasten
uastenfial
uastenrik
uaster
uasterfuar
uasterheerk
uasterheewer
uasterkant
uasterlun
uastermiast
uastern
uasterrik
uasterriks
uastersee
uasteuroopa
uastflandern
uastfrankenrik
uastfrenkisk
uastfresk
uastfresklun
uastfriisk
uastfriislo
uastgrens
uastholstian
uasthualewkuugel
uastkanada
uastkap
uastkariibisk
uastku
uastpreussen
uastpreußen
uastrang
uastrangen
uastro
uastroom
uastsee
uastsia
uastsiafinsk
uastsjineesk
uastslaawisk
uastsudaansk
ubangi
ubychisk
ucayali
uckermark
ud
uda
ude
udine
udmuurtien
udmuurtisk
uele
uelvesbu
uelzen
uemoa
uetersen
uf
ufa
ufbaud
ufdialang
ufdialangen
ufdiald
ufdru
ufdu
uffa
ufkem
ufkemen
ufkemst
ufkimen
ufko
ufkomt
ufkorting
ufkurting
ufla
ufleitet
ufliaset
ufluup
ufrepen
ufsaat
ufsaatet
ufsaating
ufseekert
ufskaafet
ufspleden
ufstemet
uftoonket
uftoonking
ug
uganda
ugrisk
uherske
uhl
ui
uighuurisk
uinta
ujezd
uk
ukena
ukraine
ukrainisk
ul
ulaanbaatar
ulan
ulawa
ule
uler
ulf
uljanow
uljanowsk
ullmann
ulm
ulmaceae
ulmer
ulmifolius
ulmus
ulpan
ulrich
ulster
ultraviolet
ulysses
um
uma
umbellata
umbrien
umbuluzi
umea
umen
umi
umiaq
umland
umm
umperk
umpqua
umrechnung
umwelt
umweltatlas
umweltbundesamt
un
una
unabha
unangam
unassigned
unbeka
uncia
und
underbrace
undine
undp
undulata
une
uner
unerrucht
unersa
unesco
unfallversicherungsanstalt
ung
ungaars
ungarisk
ungarn
ungefa
unggo
uni
unicolor
uniflora
unincorporated
unio
union
unioon
unit
unitary
united
univ
universal
universita
universiteet
university
uniwersita
uniwersiteet
uniwersiteeten
uniwersum
unjoon
unkel
unn
unna
uno
uns
unser
unserdeutsch
unsere
unstats
unstrut
unt
unter
unterfranken
unterschaar
unti
unwohlsein
unwto
up
upanija
upernavik
upiaq
upiatun
upon
upper
uppsala
upson
upstalsboom
upupa
ur
uraal
uraalisk
uraan
ural
uranus
urban
urbe
urbicum
urbino
urdem
urdu
urdunn
ure
urens
uri
uria
url
urocyon
ursinum
ursinus
urspru
urtica
urticaceae
uruguay
us
usa
usambara
usbeekistaan
usbeeks
usbekisk
usbekistaan
usbekistan
usda
use
usedom
userkreis
usgs
usitatissimum
ust
usuluta
ut
utah
utara
utc
ute
utena
utersum
uthlande
utho
utilitarismus
utkuhiksalik
utkuhiksalingmiut
utkuhiksalingmiutitut
utrecht
uu
uug
uugen
uuhu
uul
uum
uummannaq
uummarmiut
uummarmiutun
uun
uunbaud
uunden
uundial
uundialen
uundrift
uunet
uunfeerd
uunfeerer
uungeleegenhaiden
uungrip
uunhinger
uuni
uuning
uuningen
uunka
uunkateet
uunlaanj
uunnem
uunnimen
uunpaaset
uunsen
uunsta
uunstaken
uunsteed
uunsticht
uunt
uuntesken
uunwiset
uur
uurbakteerien
uurd
uurde
uurdebo
uurdebuk
uurdiarten
uuren
uurfamiili
uuriinwenern
uurknal
uuroks
uurs
uurslaawisk
uursmoune
uursmuun
uurspru
uurst
uurt
uurter
uurterbok
uurterbokern
uusimaa
uust
uusten
uustholstian
uut
uuwen
uv
uva
uvea
uwe
uwet
uy
uz
v
va
vaal
vaccinium
vaduz
vae
vakaga
vakinankaratra
val
vald
valdivia
vale
valencia
valenciana
valentia
valero
valg
valga
vallad
valladolid
valle
vallensbæk
valles
valletta
valley
valparai
values
valverde
vamp
van
vancouver
vanellus
vanilla
vannes
vannin
vanua
vanuatu
vaporization
var
vara
varaz
varde
varese
variabilis
variegata
variegatus
varroa
varunidae
vary
vas
vaslui
vatovavy
vaughan
vavilov
vaxholm
vc
vch
vd
vdl
vdots
ve
veb
vec
vechta
vectron
ved
vede
vedisk
vee
vega
vehicle
vehicles
vejen
vejle
vektor
vel
vela
veli
velka
velke
velky
vella
velox
velutina
velutinum
ven
venango
venda
vende
venedig
veneetien
veneetisk
venezia
venezuela
venosa
ventura
venus
ver
vera
veraguas
verapaz
verbano
verbascum
verbena
vercelli
verde
verden
verdun
verein
vereinigten
vergeben
verkehrsgesellschaft
verlag
verlagsgesellschaft
vermeiden
vermilion
vermont
vermutlich
verne
vernon
vero
verona
verordnung
versailles
verschlucken
versicolor
version
versioon
versta
versuch
vert
vertebrata
verticillata
verum
verursachen
verursacht
verwaltungseinheit
verwaltungsgliederung
verwenden
verwendet
verwendung
ves
vesiculosus
vestec
vester
vestfold
vesthimmerland
vestland
vg
vi
via
viaf
viana
vianden
vibo
viborg
viburnum
vic
vicente
vicia
victor
victoria
vicugna
video
videos
vie
vieja
viel
vienne
vier
viersen
vietnam
vii
viii
viken
vikingland
vikram
viktor
vikunja
vila
vilaine
viljandi
villa
village
ville
villosa
vilnius
vin
vincent
vinci
vinh
vinifera
vio
viola
violaceae
violine
viral
virens
virgatum
virgin
virginia
virginiana
viridiflora
viridis
viridissima
virosa
viru
virus
viruses
vis
visayas
viscum
vise
viseu
vista
vita
vitaceae
vitamin
vitebsk
vitellaria
viterbo
viti
vitis
vito
vitte
vivaldi
vizcaya
vize
vka
vlaams
vlaanderen
vladi
vle
vleborg
vleborgs
vlieland
vlore
vltava
vltavou
vn
vo
vocabulary
voda
vogtlandkreis
voith
vojvodina
vol
volans
volca
volga
volker
volkert
volkswagen
volltext
vologda
volsemenhusen
volt
volta
voltaire
volume
volusia
volvo
vom
von
voor
vor
vora
vorarlberg
vordingborg
vore
vorhanden
vorlage
vormals
vorn
vosges
vossloh
voyager
vr
vrancea
vre
vres
vreux
vs
vserossijskoj
vseti
vsk
vskaja
vskij
vskru
vt
vu
vulgare
vulgaris
vulnerable
vulpes
vung
vv
vw
vy
vys
vysoc
vɔblasts
w
wa
waadfo
waadhoeke
waadt
waag
waagen
waagenlengde
waagenlengden
waaks
waaksen
waal
waaler
waalfask
waalhei
waalheier
waalo
waalros
waals
waanerroot
waanert
waanj
waanre
waant
waapen
waar
waaren
waaret
waareti
waari
waarskiints
waas
waasen
waasenschap
waast
waastaafrika
waastaafrikoons
waastaasien
waastafrikoo
waastafrikoons
waastbengaalen
waastdial
waasteeg
waastelk
waastelken
waasten
waaster
waasterheewer
waasterhiird
waasterlun
waastermiast
waasteuroopa
waastfaalen
waastflandern
waastfrankenrik
waastfresk
waastfresklun
waastgermaans
waasthualewkuugel
waastindien
waastindisk
waastjordanlun
waastkanada
waastkap
waastkarpaaten
waastku
waastpomern
waastpreußen
waastsahara
waastsjiisklun
waastslaawisk
waasttjiisklun
wachholtz
wacholder
wade
wader
wadi
waggons
wahl
wahldiagramm
wai
waibleeden
waibleedplaanten
waien
waier
waigiuensis
waiguurd
wailaki
wain
wainer
wainern
wairocht
wajots
wakayama
wake
waker
wakerer
wakseldru
wakselstruum
wakselt
wakselwiat
wakulla
wal
walachei
wald
waldeck
waldemar
waldshut
wale
walens
wales
wali
waliisisch
waliisisk
waling
walk
walker
wall
wallace
wallen
wallichii
wallis
wallonii
walno
waloonisk
waloschyn
walsersjiisk
walt
walter
waltham
walton
walvis
wan
wanaadium
wanaadiumsko
wanadsor
wandsworth
wane
wanel
wanen
wang
wangdue
wangels
wangerooge
wani
wanica
wanile
wankendorf
want
wanuaatuu
waos
war
ward
wards
ware
warel
warelkrich
warem
waremk
waremtidj
waren
warendorf
warep
warianten
warkum
warmer
warna
warnowstromer
warren
warschau
wart
wartburgkreis
warthe
wartung
warwerort
warwickshire
was
waschen
wase
wasen
wash
washakie
washington
wasili
wasser
wasserorganismen
wasserstoff
wat
water
waterloo
waters
watikaansta
watikaansteed
watson
watt
wattenmeer
wattstu
wau
way
wayne
wb
wdr
we
wear
weast
weather
web
webachiv
webelements
weber
webseite
websid
websidj
website
webster
wech
wechnomen
wecht
wed
wedd
wedder
weddingstedt
weden
wedenskap
wedenskapelk
wedenskapen
wedenskaplidj
wedenskapslidj
wedenskapsmaan
weder
wederstant
wee
weedensdai
weeder
weederbu
weederdamp
weederdiarten
weederfaal
weederfaaler
weederflaak
weederfo
weederhanen
weederhu
weedermaan
weedermeloon
weedermu
weedern
weederrooten
weederruus
weederslaang
weederstant
weederstoof
weederstruat
weeg
weeger
weeget
weegi
weegit
week
weeken
weekly
weel
weele
weelen
weelet
ween
weene
weenesuela
weensdi
weer
weeram
weerbai
weerdo
weerfoon
weering
weerwe
wees
weese
weesen
weeser
weest
weesten
weester
weesterheewer
weesterkant
weesterlo
weestern
weestfa
weestfra
weestfrasch
weestfrasche
weestfraschlo
weestfriisk
weestfriislo
weestku
weestre
weestsiie
weet
weeten
weetenskep
weeter
weeterkant
weeterkanten
weeterstof
weetst
weg
wega
wegen
wegener
wehar
weichsel
weiden
weights
weil
weilburg
weilheim
weimar
weimarer
weinert
weinheim
weipelk
weit
weiter
weiße
weißenburg
wekselstroom
wel
welche
weld
weldiarten
wele
weler
welerstant
welerwool
weliko
well
welle
wellingdorf
wellington
wells
welmbu
welsch
welt
weltarewdial
weltbeenk
weltdial
weltdialen
weltkriich
weltru
welttidj
weltwidj
weltwonern
welwitschia
welwitschii
wen
wendy
wene
wenem
wenet
wenhuug
wenka
wenn
wennbu
wensoker
wenst
wenstgratst
went
wentager
wentanj
wentanjst
wentigst
wentworth
wepsisk
wer
werb
werben
werd
werden
weremk
werev
werew
werk
werke
werken
werket
werkin
werkstair
werktju
wern
werner
werra
wersioon
wert
wertskep
werwer
wes
wesel
wesen
weser
wesermarsch
wesfriisk
wespen
wesselburen
wesselburener
wesselburenerkoog
wesseln
west
wester
westerborstel
westerdeichstrich
westerland
westerlandfo
western
westerwelle
westfalen
westku
westminster
westmoreland
weston
westphalia
westphaliae
weststellingwerf
wet
wetka
wets
wetstrir
wetter
wetterkontor
wexford
weđer
wf
wg
wh
what
wheatland
wheeler
white
whitehorse
whitfield
whitlam
who
whole
wi
wial
wiar
wiartskap
wiartskapelk
wiartskapsgemianskap
wiartskapsprefektu
wiartskapstwiig
wiat
wiaten
wiatlun
wiatno
wibaux
wiberg
wichtag
wichtagen
wichtagst
wichti
wichtie
wichtig
wichtigi
wichtigst
wichtiste
wid
wide
wider
widin
widj
widjer
widjerfeerd
widjerhen
widjerkemen
widswort
wie
wiedau
wieder
wiedingharde
wiedingharder
wieland
wiemerstedt
wien
wiesbaden
wieser
wietnam
wight
wiidau
wiideo
wiidinghiird
wiiduu
wiiduufo
wiiduus
wiifke
wiiftje
wiik
wiil
wiir
wiiren
wiiringhiarter
wiirus
wiis
wiisem
wiisen
wiisent
wiiser
wiit
wiitighair
wiitj
wik
wiken
wiki
wikibooks
wikidata
wikimedia
wikinger
wikingern
wikingertidj
wikipedia
wikiquote
wikisource
wikispecies
wikivoyage
wiktionary
wil
wila
wilag
wilagplaanten
wilagruusje
wilaya
wilcox
wilde
wilejka
wilems
wiley
wilger
wilhelm
wilhelmine
wilhelmshuuwen
wilj
wilkes
wilkinson
will
willem
william
williams
williamson
willy
wilmesaurisk
wilson
wilsonii
wilstermarsch
wilswin
wilt
wilts
wiltz
wim
win
wind
windbergen
windham
windhoek
windows
windru
windsor
winert
wing
winge
wining
wininger
winingern
winj
winjmaln
winjsdai
winkel
winkelmiat
winkelsliper
winkler
winne
winnert
winnipeg
winnytsja
winplaanten
winru
winston
winter
wipsto
wir
wirbel
wird
wirem
wiringhiird
wiringhiirder
wirklichkeit
wirkung
wirkungen
wirmer
wisconsin
wise
wiset
wisinghiird
wismar
wist
wit
witamiin
witamiinen
witba
witbek
witdu
with
witj
witjbeimistel
witjbo
witjdu
witjen
witjhoodet
witjru
witjruslun
witjsto
witru
witsebsk
witswort
witt
wittdu
wittenberg
wittenwurth
wittgenstein
wittmund
wiuwert
wjarn
wjetnam
wjetnameesk
wl
wladimir
wladiwostok
wo
woche
wochel
wochenblatt
wochler
wochlu
wohld
wojewo
wok
wokaal
wokaalen
wokdiarten
wokingham
woksen
woleu
wolf
wolfe
wolfenbu
wolff
wolfgang
wolfraam
wolfsburg
wolga
wolgograd
wolhynien
wollaston
wollemia
wolmersdorf
wolof
wologda
woluumen
wombats
won
wonen
wonerbluumen
woningstair
wonju
wonter
wonterfo
wonterkleet
wontern
wonterpalast
wonterregiuun
wontersankiar
wood
woodrow
woodruff
woods
wooks
wool
woolen
woolet
woolf
woolkreis
woolkreiser
woolmaaner
woon
woopen
woopenrau
woopens
woor
wooret
woorhaid
woorskiinelk
woorskiinelkhaid
woort
worcester
worcestershire
word
worden
words
work
working
world
worms
woroba
woronesch
wort
worte
wortel
worth
wos
wosponkt
wost
wotisk
wra
wraksem
wraolkrich
wrapper
wratsa
wren
wretern
wright
wrohm
ws
wsa
wsiad
wstaal
wsv
wt
wu
wuch
wuchen
wufsite
wuhan
wuk
wuks
wukset
wuksi
wul
wulew
wulff
wulk
wulkaan
wulkaanen
wulkaaner
wulwer
wunerk
wunter
wuntermuun
wuppertal
wurd
wurde
wurden
wurdenbuk
wurdenbuken
wurdenbuksteed
wurk
wurt
wus
wust
ww
www
wyg
wygosero
wyk
wyker
wyoming
wɛst
x
xa
xai
xe
xenacoelomorpha
xhosa
xi
xia
xico
xii
xiii
xinag
xinjiang
xiv
xls
xlsx
xml
xo
xrightarrow
xter
xv
xvi
xx
xxx
y
ya
yacoub
yagha
yaiza
yaks
yale
yalova
yamaguchi
yamanashi
yame
yams
yang
yangpyeong
yaounde
yap
yard
yat
yatenga
yatı
ye
year
yearbook
yeast
yejong
yell
yellow
yellowknife
yellowstone
yen
yeniseian
yeoncheon
yeongjo
yeonsangun
yersinia
yi
yilan
yiming
yin
yinka
yn
yna
ynlc
ynski
yo
yogyakarta
yola
yolo
yongle
yongzheng
yonne
york
yorkshire
yoro
you
youne
youssoufia
youtube
yozgat
ys
ysyk
yt
ytterby
yu
yuan
yuba
yucata
yucca
yue
yugtun
yukon
yum
yuma
yunlin
yunnan
yunnanensis
yup
yupigestun
yupik
yvelines
yy
z
za
zabaykalsky
zacapa
zachary
zadar
zaer
zag
zagnanado
zagora
zagorje
zagreb
zahl
zahlen
zaire
zambe
zambezi
zambia
zamora
zanzan
zaragoza
zavou
zazaki
zce
ze
zea
zealand
zebra
zef
zehlendorf
zehn
zeidae
zeit
zeitschrift
zeitung
zement
zemmour
zen
zenopsis
zentra
zentraal
zentral
zentrum
zeppelin
zerbst
zero
zeus
zeylanica
zf
zg
zgeha
zh
zha
zhang
zhe
zhejiang
zhemgang
zho
zhrii
zhu
zi
zia
ziguinchor
zika
zimbabwe
zimbrisk
zimmermann
zinder
zingiber
zingiberaceae
zingiberales
zink
zip
ziro
zis
zli
zm
zmir
znojmo
zo
zoarces
zoba
zobel
zoe
zogbodomey
zoll
zollernalbkreis
zondoma
zone
zonguldak
zou
zoume
zoundwe
zquez
zu
zug
zuiderduintjes
zukunft
zuletzt
zulu
zum
zur
zuru
zusammen
zw
zwei
zweibru
zweistellige
zweiten
zwickau
zwischen
zwo
zygophyllales
zyperga
zypern
zz
{
|
}
~
¡
¢
£
§
¨
©
«
¬
­
®
¯
°
±
²
³
´
µ
·
¹
»
½
×
ß
æ
ærø
ð
ðe
ø
øer
ørsted
øster
đ
đa
đer
đerfuar
đern
đerpropeler
đerpropelern
đers
đershur
đi
đie
đo
đweesten
ı
ırnak
ł
ła
łe
łi
łine
ło
łu
ŋ
œ
ǁkaras
ɐ
ɑ
ɑlit
ɒ
ɔ
ɕ
ɕa
ɖ
ə
əl
ən
ɛ
ɛt
ɡ
ɡa
ɣ
ɪ
ɪjə
ɪkə
ɪtɕ
ɲ
ʀ
ʁ
ʁi
ʃ
ʈ
ʉ
ʊ
ʒ
ʔ
ʔa
ʦ
ʰ
ʱ
ʲ
ʷ
ʹ
ʺ
ʻ
ʼ
ʾ
ʿ
ˀ
ˈ
ˌ
ː
ːˈ
ˑ
˙
ˠ
ˡ
ˤ
˥
˦
˧
˨
˩
̀
́
̂
̃
̄
̆
̇
̈
̉
̊
̋
̌
̍
̓
̔
̚
̛
̜
̞
̟
̠
̣
̤
̥
̦
̧
̨
̩
̪
̭
̮
̯
̰
̱
̲
̸
͂
ͅ
͈
͡
ͤ
α
αι
ας
β
γ
δ
δα
ε
ελλα
επαρχι
ζ
ζω
η
θ
θεο
ι
λ
λα
λι
μ
μα
μακεδονι
με
ν
νη
νος
ο
ον
π
πα
περιφε
ρ
ρεια
ς
σος
τε
τη
υ
φ
χ
χνη
ψ
ω
ϑ
а
аи
аму
б
баи
бара
бе
бласть
бласць
блика
в
ва
влади
во
вск
вская
вскии
вська
вщина
г
га
го
говор
городско
гро
губе
д
да
демоскоп
дская
е
ж
жскии
з
и
ива
к
ка
казахстан
ки
ко
краи
кру
круг
къедзыгъо
л
ле
льныи
льскии
ля
м
маг
ми
мир
му
н
на
населения
не
никола
но
нск
нская
нскии
нскі
нська
ну
ны
нывуӄаӷмит
о
област
область
облусу
облысы
озеро
округ
он
ону
острова
п
пе
петро
по
показателеи
приложение
пу
р
ра
рае
раи
ре
република
респу
республик
республика
республикасы
республики
рния
рныи
рнія
рск
рская
рскии
рф
с
се
ск
ская
скии
скі
сла
советская
социалистическая
справочник
статистических
сто
т
тия
тыва
у
ф
федера
федеральныи
х
ха
хо
ц
цкии
цкі
ч
ча
чаи
че
ш
щ
ъ
ы
ь
э
ю
я
язык
языки
ђ
і
іва
ј
љ
њ
ћ
џ
қазақстан
ң
ү
ӈ
ӕ
ө
մարզ
ְ
ִ
ֵ
ֶ
ַ
ָ
ֹ
ּ
־
ֿ
ׁ
א
ב
ד
ה
ו
ז
ח
חו
י
יום
ל
ם
מ
ן
ר
ש
ת
ا
الا
الاردن
الجمهورية
السعودية
العربية
المنطقة
امارات
اول
ایران
ب
بلدية
ة
تونس
ثالث
جمهورية
جيبوتي
د
دارفور
دریای
ر
ط
عمالة
فلسطين
قليم
ل
م
محافظة
مصر
منطقة
ن
ه
و
ولاية
ي
َ
ُ
ِ
ّ
ْ
ٓ
ٔ
ٕ
ހ
ރ
އ
ވ
މ
ދ
ޖ
ަ
ާ
ި
ު
ެ
ް
ߘߌߣߋߖߊ
ߜ
ं
क
ग
त
थ
द
ध
न
प
म
य
र
ल
स
ह
ा
ि
ी
ु
ृ
े
ो
ौ
्
ং
ক
খ
গ
ট
ঢ
প
ব
ভ
ম
র
ল
শ
স
হ
়
া
ি
ী
ু
ে
্
દ
ા
ી
ે
இலங
க
ச
ட
ணம
த
ன
ப
ம
ய
ர
ல
ழ
வ
ஸ
ா
ி
ு
ெ
ே
ை
்
ం
గ
త
ప
ల
ా
ి
ు
ె
్
ಿ
್
ം
പ
ാ
ി
്
ං
ක
ත
ද
න
පළ
ර
ල
ශ
්
ා
ැ
ි
ී
ු
ෙ
น
อ
ั
ิ
ี
ื
ุ
ู
ไทย
่
้
ນ
ັ
ົ
້
་
ཁ
ཁག
ག
ང
ཆ
ཐ
ད
ན
ཕ
བ
མ
ར
ལ
ཤ
ས
ི
ུ
ེ
ོ
ྐ
ྒ
ྗ
ྤ
ྩ
ྫ
ྱ
ྲ
ྷ
င
စ
ည
တ
န
ပ
မ
ာ
ု
ေ
္
်
ြ
ენა
მუნიციპალიტეტი
მხარე
경종
고종
광해군
구
군
단종
면
명종
문종
선조
성종
세조
세종
숙종
순조
시
연산군
영조
예종
인조
인종
정조
정종
중종
철종
태조
태종
한국
헌종
현종
효종
ዓ
ዞባ
፬
ᐃᓄᒃᑎᑐᑦ
ᒐ
ᓴᑋᕲᖌᑎᑊᐠᓀᐠ
ᔭᕱ
ក
ខ
គ
ង
ជ
ដ
ត
តក
ធ
ន
ប
ព
ភ
ម
រ
ល
ស
ា
ិ
ុ
េ
ែ
ំ
ះ
់
្
᠊
᠋
ᠠ
ᠠᠶᠢᠮᠠᠭ
᩠
​
‌
‍
‎
‏
–
—
‘
’
‚
‛
“
”
„
†
•
…
‧
‬
‰
′
″
‿
⁄
⁠
⁡
⁽
⁾
ⁿ
€
ℏ
ℓ
℥
←
↑
→
↓
↔
↦
↷
⇌
⇒
⇔
∀
∁
∂
∃
∅
∈
∑
−
∖
∗
∘
∞
∣
∧
∨
∩
∪
∫
≈
≡
⊆
⊙
⋅
⋮
⋯
⏟
␣
③
④
⑦
△
►
◄
♭
♯
⚭
⟶
⟺
ⴰ
ⴱ
ⴳ
ⴶ
ⴷ
ⴸ
ⴹ
ⴻ
ⴼ
ⴽ
ⵃ
ⵄ
ⵇ
ⵉ
ⵊ
ⵍ
ⵎ
ⵏ
ⵓ
ⵔ
ⵕ
ⵖ
ⵙ
ⵛ
ⵜ
ⵟ
ⵡ
ⵢ
ⵣ
⺀
⺄
⺆
⺈
⺊
⺌
⺕
⺝
⺸
⺼
⿰
⿱
⿲
⿳
⿴
⿵
⿶
⿷
⿸
⿹
⿺
⿻
、
〢
こ
に
ほ
ん
゙
ク
コ
シ
ナ
ユ
リ
・
㇁
㇂
㇄
㇇
㇈
㇉
㇓
㐁
㐄
㐅
㐌
㐫
㐬
㐭
㐮
㐱
㑒
㒵
㒸
㒼
㓁
㓞
㔾
㕛
㕣
㖾
㗂
㘝
㚅
㚇
㚔
㚘
㝉
㝡
㝴
㝵
㞋
㞢
㞷
㠩
㠭
㠯
㡀
㡭
㡿
㢲
㢴
㣇
㣺
㥯
㪅
㫄
㫐
㫒
㫺
㬅
㬎
㬥
㬰
㲋
㳄
㷠
㸒
㸚
㸦
㼌
㼲
㽞
㿟
䀠
䂞
䍃
䏍
䒑
䖍
䖒
䖝
䖵
䙴
䚻
䜌
䝿
䡛
䧹
䪞
一
丁
丂
七
丄
丅
丆
万
丈
三
上
下
丌
不
与
丏
丐
丑
专
且
丕
世
丘
丙
业
东
丞
丢
丣
两
严
並
丨
丩
个
丫
丬
中
丮
丰
丱
串
丵
丶
丷
丸
丹
为
主
丽
丿
乀
乂
乃
久
乆
乇
么
义
之
乌
乍
乎
乏
乐
乑
乔
乖
乗
乘
乙
乚
乛
乜
九
乞
也
习
乡
乳
乾
亀
亅
了
亇
予
争
事
二
亍
于
亏
亐
云
互
亓
五
井
亘
亚
亜
亞
亟
亠
亡
亢
交
亥
亦
产
亨
亩
享
京
亭
亮
亯
亰
亲
亳
亶
亷
人
亻
亼
亾
仁
今
介
仌
从
仐
仑
仒
仓
仕
他
付
仝
代
令
以
们
任
企
伊
伏
伐
休
会
伯
但
位
何
佘
余
作
你
佥
使
來
侈
侌
侖
侯
侵
便
保
俞
信
修
倉
倍
們
候
倠
備
僉
僕
儀
儿
兀
允
兂
元
兄
充
兆
兇
先
光
兊
克
兌
免
兑
兒
兓
兔
党
兜
兟
入
內
全
兩
兪
八
公
六
兮
兰
共
关
兵
其
具
典
兹
兼
冀
冂
冃
冄
内
冈
冉
冊
冋
册
再
冎
冏
冐
冒
冓
冖
冗
冘
军
农
冝
冡
冥
冫
冬
冷
几
凡
凢
凵
凶
凷
凸
凹
出
函
凾
刀
刁
刂
刃
刄
刅
分
切
刍
刑
刕
刖
列
刘
则
初
別
利
别
到
制
刺
則
削
剌
前
剡
剽
劉
力
功
加
劦
助
劫
劳
劵
勃
勇
勉
勒
動
務
勞
勤
勹
勺
勻
勾
勿
匀
匂
包
匆
匈
匊
匋
匍
匕
化
北
匚
匝
匡
匪
匱
匸
匹
区
医
匽
匿
區
十
卂
千
卄
卅
卆
升
午
卉
半
卌
华
卑
卒
卓
单
卖
南
卜
卝
卞
占
卡
卢
卣
卤
卦
卩
卪
卫
卬
卯
印
危
即
却
卵
卷
卸
卻
厂
厃
厄
历
厈
厉
厌
厓
厘
厚
原
厤
厥
厨
厭
厲
厶
厷
厸
去
厼
厽
县
叀
参
參
叅
又
叉
及
友
双
反
叐
发
叒
叔
叕
取
受
叚
叜
叟
口
古
句
另
叩
只
召
可
台
叱
史
右
叵
号
司
叹
吂
各
吅
合
吉
吊
吋
同
名
后
吏
向
吕
君
吝
吞
否
含
启
吳
吴
吹
吾
呂
呆
呈
告
员
呙
周
命
咅
和
咎
咠
咢
咨
咸
咼
哀
品
哉
員
哥
哲
唐
商
啇
問
啚
啬
啻
善
喜
喬
單
喿
嗇
嘉
嘴
噩
嚴
囊
囗
囘
囙
囚
四
回
囟
因
囧
囬
困
囱
囷
固
国
圂
圅
國
圍
園
圓
土
圡
圣
圥
在
圭
地
圶
圼
坐
坒
坚
坡
坪
坴
垂
垔
垚
埀
埋
城
埶
執
基
堂
堅
堆
堇
堤
堯
場
塞
墨
壘
士
壬
壯
声
壳
壴
壹
壺
壽
夂
处
夅
夆
备
夊
夋
夌
复
夏
夒
夕
外
夗
夘
多
夜
夢
大
夨
天
太
夫
夬
夭
央
失
夲
头
夷
夸
夹
夻
夾
奂
奄
奇
奈
奉
奎
奏
奐
契
奓
奔
奚
奞
奠
奢
奥
奭
女
奴
她
奻
好
如
妄
妙
妟
妥
妻
妾
始
姑
委
姜
威
娄
婁
婴
嬰
嬴
子
孑
孔
孕
孖
字
存
孚
孛
孝
孟
季
孤
学
孫
孱
學
宀
宁
宂
它
宅
宇
守
安
宋
完
宏
宓
宗
官
定
宛
宜
宝
客
宣
室
宮
宰
害
家
容
宾
宿
寄
寅
密
富
寒
察
實
寧
審
寫
寬
寮
寸
对
寺
寻
寽
対
寿
封
尃
射
将
將
專
尉
尊
尋
尌
對
小
少
尒
尓
尔
尖
尗
尙
尚
尞
尢
尣
尤
尧
尨
尭
就
尸
尹
尺
尻
尼
尽
尾
尿
局
居
屈
屋
屎
屏
屑
展
屖
屚
属
屠
屡
屬
屮
屯
屰
山
屵
屾
岁
岂
岑
岛
岡
岩
岳
岸
峡
峯
峰
島
峽
崇
崑
崔
崖
崙
崩
嵬
嶲
嶺
巂
巛
川
州
巟
巠
巢
巤
工
左
巧
巨
巩
巫
差
己
已
巳
巴
巷
巸
巽
巾
巿
帀
市
布
希
帚
帛
帝
带
師
席
帶
常
干
平
年
幵
并
幷
幸
幺
幻
幼
幽
幾
广
広
庄
庆
床
底
店
庚
府
度
庫
庭
庶
康
庸
廉
廌
廛
廣
廩
廴
延
廷
建
廾
廿
开
弁
弃
弄
弇
弋
式
弓
弔
引
弗
弘
弜
弟
弥
弦
弱
張
強
强
彊
彌
彎
彐
彑
当
彔
录
彖
彗
彡
形
彥
彦
彧
彭
彳
役
彼
往
待
律
徒
得
徙
從
復
微
徳
徵
德
心
忄
必
忌
忍
志
忝
忠
忩
快
念
忽
忿
思
怠
急
怱
恆
恒
恩
恭
息
悉
患
悤
悲
悶
惠
惡
惢
愁
愈
意
愛
感
慈
慧
慮
慶
憂
憲
應
戀
戈
戉
戊
戋
戌
戍
戎
成
我
戒
戔
或
戚
戠
戢
戦
截
戲
戶
户
戹
戼
戾
房
所
扁
扇
手
扌
才
打
托
执
扶
承
折
抱
拉
拜
拼
拿
掌
推
提
揚
摩
支
攴
攵
收
攸
改
放
政
敄
敏
敕
敖
敗
敝
敞
敢
散
敦
敫
敬
数
敷
數
斂
文
斉
斊
斗
斤
斥
斩
斬
斯
新
方
於
施
斿
旁
旋
旌
族
无
旡
既
旣
日
旦
旧
旨
早
旬
旱
旲
时
旺
旾
昆
昇
昌
昍
明
昏
易
昔
昗
昜
星
春
昬
昭
是
昱
昴
昷
時
晃
晋
晏
普
景
晶
智
暑
暴
曇
曩
曰
曲
曳
更
曷
書
曹
曼
曾
替
最
朁
會
月
有
朋
服
朔
朕
朗
望
朝
木
朩
未
末
本
札
朮
术
朱
朵
朶
朿
杀
李
杏
村
杜
束
条
来
東
杲
杳
松
析
林
枚
果
枝
枲
枼
某
柔
查
柬
柰
柴
栗
桀
案
桑
桼
梁
條
梟
梨
棘
棠
棥
森
楊
楚
業
楽
榮
樂
樊
橫
欠
次
欣
欮
欲
欶
欽
款
歆
歇
歛
止
正
此
步
武
歨
歪
歮
歯
歰
歲
歴
歷
歸
歹
歺
死
殳
段
殷
殸
殹
殺
殻
殿
毋
毌
母
每
毒
比
毕
毚
毛
毳
氏
氐
民
气
氣
水
氵
氶
氷
永
氺
氾
求
汉
汝
汞
江
沃
沓
沙
沝
沧
河
治
泉
法
波
泣
泥
泰
洛
洞
津
洪
洲
活
派
流
浦
浪
浮
海
淡
淮
淳
淵
淸
清
渚
渠
港
湖
湯
湾
溪
滿
漆
漢
漣
漸
潭
澤
澳
濟
灘
灣
火
灬
灭
灰
灵
灷
炅
炎
炏
炗
炙
炭
為
烈
烏
烝
焉
無
焦
焱
然
煞
熊
熏
燕
營
燮
爪
爫
爭
爯
爰
爱
爲
爵
父
爻
爽
爾
爿
片
牙
牚
牛
牜
牟
牢
牧
牪
特
牽
犀
犬
犭
犮
狂
狄
狊
独
狺
猋
猒
猪
献
獻
玄
率
玉
王
玟
玨
珍
珎
班
理
琴
瑞
瑟
瑩
瓜
瓦
甕
甘
甚
生
産
用
甫
甬
田
由
甲
申
电
甶
男
甸
甹
画
甾
畀
界
畏
畐
留
畜
畟
畢
畧
畨
番
畫
異
畱
當
畺
畾
疊
疋
疌
疑
疒
疾
癶
癸
癹
登
發
白
百
皀
皃
的
皆
皇
皋
皐
皕
皮
皷
皿
盃
盆
盇
盈
益
盍
盎
监
盒
盖
盛
盡
監
盤
盧
目
直
相
盾
省
眇
眉
看
県
眔
眞
真
眷
眼
眾
着
睘
睪
睿
瞏
瞢
瞿
矍
矛
矞
矢
矣
知
矦
短
石
破
碎
碧
磊
磨
示
礻
礼
社
祟
票
祭
禀
禁
福
禮
禸
禹
禺
离
禽
禾
禿
秀
秃
秉
秋
科
秝
秦
移
稟
穀
穌
穴
究
穹
空
穿
突
窄
窒
立
竒
竜
竝
竟
章
童
竹
笑
笠
筆
等
答
箕
算
箴
節
篤
篭
米
粉
粛
粟
粤
粦
粲
粵
糞
糸
糹
系
約
納
素
索
紫
累
細
絜
絫
絲
維
綿
縣
繇
纍
纟
缶
网
罒
罔
罕
罗
罙
罡
罢
罪
署
罷
羅
羊
羌
羍
美
羔
羕
羗
羞
羡
羣
群
義
羲
羸
羽
翁
翏
習
翕
翟
翠
翼
老
耂
考
者
耆
而
耎
耑
耒
耳
耴
耶
耷
聂
聊
聖
聚
聞
聶
聿
肀
肃
肅
肉
肖
肙
肥
肩
肯
育
肴
胃
背
胡
胥
能
脊
脩
膚
臣
臤
臧
自
臬
臭
臯
臱
至
致
臺
臼
臽
臾
臿
舀
舂
舄
與
興
舉
舌
舍
舒
舛
舜
舞
舟
般
艮
良
色
艸
艹
艾
芒
芔
芬
芮
花
芳
芺
芻
苔
苗
苟
若
苦
英
茂
茶
茸
荅
草
荒
荣
荼
莆
莧
莫
莽
菆
菊
菐
華
萬
落
葉
著
葛
董
葵
蒙
蒡
蒦
蒼
蓋
蓬
蓺
蔑
蔚
蔡
蕉
蕭
薄
薛
薦
薰
藍
藏
藥
蘭
虍
虎
虐
虒
虔
處
虖
虗
虘
虚
虛
虜
虞
虫
虽
蚤
蚩
蜀
蜜
蟲
蠡
血
行
衍
衛
衣
衤
表
衮
衰
袁
袞
褭
褱
襄
襾
西
覀
要
覃
見
規
覓
覧
親
覽
见
角
解
言
訁
訇
計
話
詹
語
誩
諸
議
讠
话
语
谷
豆
豈
豊
豐
豕
豖
豙
象
豦
豩
豪
豸
貇
貝
貞
貟
負
貢
貧
貪
貫
責
貳
貴
買
費
賁
資
賈
賏
賓
賔
賛
賞
賢
賣
質
賴
贊
贝
贡
责
贯
贲
贵
赖
赞
赤
赦
走
越
足
路
蹄
蹇
身
躬
車
軍
軎
軟
輦
车
辛
辜
辟
辥
辰
辱
農
辵
辶
边
达
过
近
连
迷
追
退
送
逆
逐
通
速
造
逢
連
逮
進
遀
遂
過
道
達
遣
適
遷
遺
邊
邑
邕
那
邦
邪
郎
郡
部
郭
都
鄉
酉
酋
配
酓
醴
釆
采
里
重
野
量
金
釒
銀
銅
錢
錦
鎭
鎮
鏡
鐵
钅
银
長
镸
长
門
閃
閉
開
閏
閑
閒
間
閔
関
閵
閻
闌
门
间
闷
闽
阑
阜
阝
阳
阿
降
陟
院
陳
陵
陽
隆
隊
隋
隡
隨
隱
隶
隹
隺
隻
隼
隽
难
雀
雁
集
雈
雋
雍
雐
雔
雙
雚
雜
雝
離
難
雨
雩
雪
雲
零
雷
需
霍
霜
霝
霞
霸
靈
靑
青
非
靡
面
靣
革
韋
韦
韭
韯
韱
音
頁
頃
項
順
須
頗
頡
頭
頻
顛
页
風
风
飛
飞
食
飠
養
餘
館
饣
首
香
馬
馮
駦
驪
马
骨
高
髟
鬥
鬯
鬱
鬲
鬼
魚
魯
鮮
鱼
鲁
鳥
鳳
鸟
鹵
鹿
麃
麗
麟
麥
麦
麻
黃
黄
黍
黎
黑
黒
黨
黹
黽
黾
鼎
鼓
鼠
鼻
齊
齋
齐
齒
齿
龍
龙
龜
龟
龠
龰
龱
龴
龵
龶
龷
龸
龹
ꙋ
ꙗ
ꜜ
ꦂ
ꦏ
ꦒ
ꦔ
ꦗ
ꦛ
ꦠ
ꦤ
ꦧ
ꦪ
ꦫ
ꦮ
ꦯ
ꦴ
ꦸ
ꦺ
ꦼ
ꦾ
꧀
者
艹
︡
﻿
？
𐌰
𐌲
𐌳
𐌹
𐌺
𐌻
𐌽
𐌿
𐍂
𐍃
𐍄
𑁆
𠀁
𠀃
𠀆
𠀉
𠀎
𠀐
𠁁
𠁣
𠂆
𠂇
𠂈
𠂉
𠂊
𠂋
𠂎
𠂒
𠂔
𠂛
𠂡
𠂢
𠂤
𠂬
𠂭
𠂹
𠃊
𠃋
𠃌
𠃍
𠃎
𠃑
𠃓
𠃔
𠃜
𠄌
𠄎
𠄠
𠄢
𠆢
𠆥
𠇍
𠈌
𠌵
𠓜
𠔉
𠔥
𠔼
𠔽
𠔿
𠕀
𠕁
𠕋
𠘧
𠘨
𠙻
𠙼
𠚏
𠚒
𠚤
𠚪
𠣏
𠤎
𠤕
𠥓
𠦄
𠦑
𠦝
𠧒
𠧗
𠧪
𠩺
𠪚
𠫓
𠫔
𠫤
𠬛
𠬝
𠬞
𠬢
𠬤
𠬶
𠮛
𠮦
𠮷
𠯑
𠱠
𠳮
𠷎
𡈼
𡉀
𡉵
𡌥
𡍮
𡏳
𡕒
𡕩
𡕰
𡖅
𡗗
𡗜
𡘆
𡘤
𡦂
𡧱
𡨄
𡩧
𡬠
𡭽
𡰣
𡰥
𡰪
𡰯
𡰱
𡷈
𡸁
𡿨
𡿩
𡿪
𡿺
𢀖
𢀛
𢀩
𢁙
𢆉
𢆰
𢆶
𢇁
𢇇
𢉖
𢌬
𢌿
𢏚
𢑑
𢑚
𢖻
𢙣
𢛳
𢦏
𢦒
𢧵
𢼄
𢾕
𣁋
𣄼
𣅀
𣅽
𣍘
𣎳
𣎵
𣏋
𣏼
𣗥
𣥂
𣥖
𣦵
𣦼
𣧄
𣪊
𣪠
𣬉
𣳾
𣶒
𤇾
𤊽
𤐫
𤓰
𤔔
𤕨
𤣩
𤰇
𤰔
𤰞
𤴓
𤴔
𤽄
𥁑
𥁕
𥃦
𥃩
𥃭
𥇡
𥑟
𥘅
𥘈
𥝢
𥫗
𥱡
𦈢
𦉪
𦉬
𦉼
𦍌
𦍒
𦎧
𦐇
𦓔
𦔮
𦘒
𦙃
𦚏
𦣝
𦣞
𦣻
𦥑
𦥔
𦥯
𦨉
𦭝
𦰩
𧆞
𧈧
𧘇
𧰨
𧴪
𧴮
𧵩
𧾷
𨸏
𨾴
𩙿
𩠐
𩫏
𩵋
𪉷
𪜀
𪟽
𪠲
𪩲
𫇦
𫔭
𫜸
𫝀
𫠣
𫠩
𫢉
𫥞
𫩏
𫩠
𫪡
𫲽
𫶧
𬀷
𬐘
𬗌
𬙙
𬛸
𬜯
𬟩
𬯁
𬴘
𬺻
𬼉
𬼖
𭀰
𭁈
𭁨
𭅰
𭑈
𭕄
𭗼
𭤨
𭥫
𭻾
𮅕
𮊿
𮍌
𮍏
𮓗
𮥼
𮧮
廾
𰀁
𰀄
𰀈
𰀉
𰀕
𰀠
𰀡
𰀢
𰀪
𰁜
𰃮
𰆊
𰆘
𰋙
𰕎
𰢴
𰧭
𰯲
083333--
566666--
616666--
766666--
a--
aa--
aal--
aapel--
aaster--
ab--
abs--
ac--
acant--
acut--
ad--
adaksanti--
ade--
admin--
admir--
ae--
aegy--
aepyornithi--
aet--
af--
afgh--
ag--
ah--
ai--
ailu--
ain--
ais--
aj--
ak--
akti--
aktien--
aktu--
al--
ala--
alb--
ale--
alexa--
ali--
alk--
all--
alo--
alp--
alpha--
alt--
alu--
am--
ama--
ambor--
amfa--
amphi--
amplexi--
amt--
an--
ana--
and--
anden--
ane--
ang--
angui--
ani--
ano--
ap--
apba--
apen--
apk--
appli--
apterygi--
aq--
aqui--
ar--
ark--
art--
as--
ask--
asp--
assy--
asteroi--
at--
ati--
atmos--
au--
auck--
auer--
auf--
aur--
aus--
austro--
auto--
avi--
avo--
ay--
az--
b--
ba--
bac--
bai--
bal--
balkan--
bam--
ban--
banen--
bar--
barb--
bas--
bat--
bau--
bay--
bd--
be--
bea--
beek--
bef--
bei--
bel--
ben--
ber--
berag--
bes--
bet--
betii--
bezeich--
bh--
bi--
bia--
bib--
bie--
bil--
bild--
bin--
bio--
bip--
bir--
birken--
bis--
bitj--
bitu--
bj--
bk--
bl--
bla--
bland--
ble--
blo--
blud--
bo--
bok--
bol--
bon--
boon--
boower--
bor--
bos--
bosk--
bot--
bou--
bourge--
br--
bra--
brachy--
brachypt--
bre--
brevi--
brit--
bro--
bru--
bruar--
brugm--
bryo--
bu--
bud--
buern--
bug--
buk--
bundes--
bur--
bus--
but--
buum--
by--
c--
ca--
cai--
cal--
cam--
camem--
can--
cantha--
cap--
car--
cas--
cat--
catar--
cau--
ce--
cephalo--
cer--
cere--
ch--
cha--
chde--
che--
chem--
chi--
cho--
chrys--
cht--
chu--
ci--
ciconii--
cl--
clupei--
cly--
co--
cod--
col--
columbi--
com--
con--
cord--
cory--
cr--
crac--
cras--
crassi--
cre--
crit--
cru--
crypto--
cs--
cu--
cult--
cup--
cy--
cycl--
d--
da--
dacty--
dag--
dal--
dam--
dan--
dar--
dat--
day--
db--
dd--
de--
dec--
dee--
deel--
deg--
dei--
dek--
del--
delta--
dem--
den--
denticu--
der--
des--
descrip--
di--
dia--
dial--
dicho--
didel--
die--
diesel--
diff--
dik--
dikta--
dil--
dimen--
din--
dinor--
direc--
diver--
dj--
dji--
dm--
dn--
do--
dobel--
doc--
dol--
dom--
domin--
don--
doom--
dor--
dorf--
dory--
dou--
dr--
dra--
drai--
drii--
dro--
ds--
dsji--
du--
dun--
dur--
dwaast--
dy--
dz--
e--
eat--
eber--
ec--
echin--
econ--
ed--
edel--
ee--
eedel--
een--
eerd--
eetf--
eeđer--
efter--
eg--
eh--
ei--
ein--
ej--
ek--
el--
ela--
elaeag--
ele--
elec--
elek--
elektri--
elektro--
elli--
elon--
em--
emi--
en--
ep--
eq--
equi--
er--
eremiit--
eri--
eros--
ers--
erts--
eryt--
es--
est--
et--
ety--
eu--
eup--
eupom--
eur--
eury--
eurypygi--
ev--
eva--
evange--
ever--
ex--
f--
fa--
faar--
face--
fakul--
famil--
fang--
far--
fasc--
fask--
fast--
fe--
fen--
fer--
fernseh--
fert--
ff--
ffentl--
fi--
fial--
fiir--
fili--
film--
fimbria--
finn--
fis--
fitz--
fj--
fk--
fl--
fla--
flag--
flex--
flie--
flu--
fluor--
fo--
foet--
fol--
folk--
for--
foto--
fra--
frachten--
fre--
frei--
frie--
frii--
ft--
fu--
fuar--
ful--
funk--
fur--
fusc--
g--
ga--
gal--
gamb--
gamp--
gan--
gang--
gar--
gas--
gaster--
gastro--
gat--
gau--
gd--
ge--
ged--
gee--
gel--
gem--
generaal--
geo--
geoff--
ger--
ges--
geum--
gh--
gi--
gigan--
gl--
gla--
gle--
glu--
gly--
gm--
go--
god--
got--
gr--
gra--
grat--
gre--
greev--
grii--
gro--
gru--
grylloblat--
gs--
gu--
gua--
guard--
gud--
gue--
gui--
gul--
gun--
gurt--
gus--
gw--
gwang--
gy--
gymn--
gypt--
h--
ha--
haas--
hae--
hai--
hal--
ham--
han--
hand--
har--
has--
hat--
hau--
hd--
he--
hei--
heimat--
heli--
hemm--
hen--
her--
herpesvi--
herr--
hi--
hiar--
hias--
hilde--
himan--
hin--
his--
histori--
hl--
hm--
hn--
ho--
hoch--
hol--
holt--
hood--
hoog--
hool--
hop--
hor--
horel--
hr--
hu--
hualew--
huar--
huk--
hum--
hun--
hurn--
huuch--
hy--
hya--
hydra--
hydro--
i--
ial--
ian--
iar--
ic--
id--
ide--
ie--
ig--
ii--
iin--
iintu--
ijssel--
il--
im--
imper--
in--
ina--
inc--
inde--
indo--
ing--
inge--
inn--
int--
integ--
inter--
inu--
io--
ip--
ir--
is--
iso--
it--
ita--
iu--
iv--
iva--
j--
ja--
jaar--
jan--
je--
jel--
ji--
jia--
jil--
jin--
jo--
jong--
ju--
juar--
jul--
jø--
k--
ka--
kaat--
kache--
kai--
kale--
kam--
kamt--
kan--
kana--
kap--
kapitulat--
kar--
kardina--
karj--
karl--
karol--
kas--
kata--
kauf--
kd--
ke--
kee--
kem--
ken--
ker--
ket--
kg--
kh--
ki--
kil--
kim--
kin--
kirch--
kis--
kj--
kla--
klas--
klei--
kli--
kliima--
klo--
klu--
kn--
knalan--
kne--
ko--
kol--
kolonia--
komm--
komp--
komunaal--
kon--
konst--
koor--
kop--
kos--
kou--
kow--
kr--
kra--
kris--
kry--
ks--
kst--
kt--
ktris--
ku--
kultuur--
kum--
kun--
kunst--
kup--
kur--
kw--
kwiten--
ky--
l--
la--
laa--
lac--
lak--
lam--
lamni--
lan--
land--
landes--
lap--
las--
last--
lat--
lau--
law--
lb--
ld--
le--
lee--
leer--
lef--
lei--
lem--
len--
lep--
lepto--
ler--
les--
let--
letj--
letz--
leu--
leucan--
leuco--
lf--
li--
lia--
lichten--
lie--
lif--
lii--
liich--
liin--
lik--
like--
lin--
litto--
lju--
ll--
ln--
lo--
lobo--
locat--
locht--
logarit--
long--
look--
loon--
loons--
lop--
lou--
lp--
lr--
ls--
lt--
lu--
lud--
luk--
lun--
lung--
ly--
m--
ma--
maa--
mac--
macro--
macroceph--
macrosce--
madel--
mae--
mag--
mai--
main--
mak--
mal--
mam--
man--
mar--
mark--
masch--
mat--
mate--
mathe--
mau--
mauri--
mb--
mc--
me--
med--
mega--
mel--
memor--
men--
mephi--
mer--
merow--
mes--
met--
meta--
mete--
mi--
mia--
micr--
microcep--
micros--
mid--
mikro--
mil--
militeer--
min--
mis--
misk--
mit--
mja--
ml--
mo--
moc--
moks--
mol--
mon--
moo--
mor--
mos--
mosku--
moul--
mous--
mp--
ms--
mst--
mu--
mucr--
multi--
mun--
mus--
musiik--
musik--
mut--
my--
n--
na--
naa--
nah--
nai--
naist--
nam--
nan--
nang--
nat--
nattiliŋ--
natuur--
nau--
navigat--
nawigat--
nc--
nd--
ne--
nec--
nee--
neg--
nei--
nek--
nem--
nen--
neo--
nept--
ner--
nes--
neu--
neuro--
new--
nf--
ng--
nge--
nh--
nha--
ni--
nia--
nic--
nie--
nig--
nii--
nim--
nipp--
nis--
nj--
nja--
njt--
nk--
nke--
nko--
nl--
nm--
nn--
no--
nob--
noop--
noord--
nord--
norder--
not--
note--
notho--
nov--
nr--
ns--
nsk--
nst--
nt--
nu--
nukleo--
nul--
nunat--
nuurd--
nuurđ--
ny--
nyc--
nz--
o--
oa--
ob--
obova--
observa--
oc--
oce--
octopodi--
odo--
oe--
of--
off--
og--
oganess--
oh--
ok--
ol--
old--
olden--
olhun--
olig--
om--
on--
one--
oner--
onycho--
oo--
oon--
oos--
op--
open--
opera--
or--
orga--
ori--
orkester--
ornit--
oro--
os--
osea--
ost--
ot--
otidi--
ou--
ouer--
ouf--
ov--
ova--
over--
ow--
oxa--
oxy--
p--
pa--
pai--
pal--
pan--
papi--
papil--
para--
pard--
parvi--
pas--
pasaj--
pasajiir--
pauci--
pe--
pec--
pedag--
pelec--
pen--
penn--
per--
pesis--
petromyzo--
pf--
pg--
ph--
pho--
phoco--
pi--
pic--
pil--
pin--
pio--
pipi--
pl--
pla--
platt--
platy--
play--
ple--
plo--
plu--
po--
pod--
podargi--
pol--
poly--
polyo--
pop--
por--
port--
pos--
pot--
poten--
pp--
pra--
pre--
pri--
priono--
pris--
pro--
proca--
produ--
prote--
pru--
ps--
pseu--
psy--
pt--
pter--
pu--
pub--
pul--
puncta--
purp--
puule--
pygo--
qa--
qu--
qua--
quad--
que--
queck--
qui--
quiss--
r--
ra--
raid--
ram--
ramos--
ran--
ras--
rat--
rau--
rd--
rder--
rdu--
re--
reag--
real--
rech--
recu--
red--
reg--
rei--
rein--
rel--
ren--
rep--
res--
ret--
reting--
rf--
rg--
rger--
rha--
rhei--
rho--
rhy--
ri--
rid--
rie--
rik--
rin--
ring--
ris--
rk--
rl--
rlee--
rm--
rn--
ro--
rochts--
rol--
roo--
ros--
rov--
rox--
rps--
rr--
rs--
rsk--
rst--
rt--
rter--
rth--
ru--
ruad--
ruar--
rum--
rup--
rus--
ruu--
rw--
rz--
rø--
s--
sa--
saa--
saalt--
sacc--
sagi--
sal--
sala--
salwer--
sam--
samtge--
san--
sao--
sar--
sark--
sas--
sat--
saterf--
sau--
sb--
sc--
scar--
sch--
sche--
schim--
schrei--
sciu--
sd--
se--
sea--
sechu--
secu--
see--
seefa--
sek--
sel--
sem--
semit--
sen--
seon--
ser--
sesam--
sf--
sha--
she--
shi--
shu--
si--
sia--
sibt--
sic--
sid--
sig--
sii--
siil--
siisen--
sik--
sil--
sim--
sir--
sis--
sit--
situa--
sj--
sjauerhurn--
sjo--
sjuard--
sk--
ska--
skeps--
sko--
skre--
sku--
skulpt--
skuul--
sl--
sla--
slo--
slu--
sm--
sma--
so--
soker--
sol--
solei--
solut--
som--
somer--
son--
sonnen--
sooja--
soq--
sor--
sp--
spa--
sparg--
spe--
spec--
spectro--
spen--
sper--
spi--
spo--
spont--
squa--
sr--
ss--
ssw--
st--
sta--
stadt--
stan--
start--
statistik--
ste--
steator--
steed--
steeg--
stein--
stel--
stem--
ster--
sti--
stian--
stick--
stik--
sto--
stook--
stria--
strun--
stu--
su--
suart--
sub--
suff--
suk--
sul--
sum--
sumat--
sun--
super--
sur--
sus--
suurnp--
sv--
sve--
sw--
swa--
swais--
swet--
swin--
sy--
sylt--
sylter--
symp--
sz--
sø--
t--
ta--
taa--
taal--
tages--
tai--
tal--
talit--
tane--
tannen--
tau--
taust--
taxi--
tc--
te--
tee--
tel--
tele--
ten--
tenui--
ter--
terator--
tere--
terri--
tet--
tettigo--
text--
tf--
tg--
th--
tha--
the--
thess--
thi--
tho--
thu--
thy--
ti--
tia--
tidj--
tigr--
tim--
tin--
tir--
tj--
tjdee--
tjen--
tji--
tjo--
tl--
to--
toc--
ton--
toorp--
tor--
tosc--
tou--
tourne--
touss--
tra--
traad--
tradit--
trans--
trau--
tre--
treed--
tri--
tricho--
trigo--
trii--
tro--
troch--
trogoni--
troosel--
tru--
truun--
ts--
tsa--
tsch--
tsi--
tsk--
tsu--
tt--
tu--
tubu--
tun--
tup--
turke--
tus--
tuup--
tuwi--
tw--
twa--
twu--
ty--
tz--
tze--
tø--
u--
ual--
uar--
uast--
ud--
uf--
ui--
uigu--
uk--
ul--
uluk--
um--
uming--
un--
una--
uner--
ung--
uni--
unter--
up--
ur--
us--
ut--
uu--
uun--
v--
va--
val--
van--
var--
ve--
ven--
ver--
verfass--
verschie--
ves--
vi--
vill--
vio--
vis--
vita--
viver--
vo--
vol--
volks--
vom--
vor--
vr--
vu--
w--
wa--
waanerf--
waar--
waas--
waast--
wai--
wal--
wall--
war--
watt--
way--
we--
web--
wech--
weder--
wee--
weeder--
weelen--
wees--
weest--
weester--
wel--
weler--
welt--
wen--
wer--
wes--
west--
wet--
wh--
wi--
wie--
wiif--
wiki--
wil--
win--
winj--
wir--
wit--
wo--
woj--
wok--
won--
wonter--
wood--
wool--
woor--
work--
wort--
wrix--
wu--
wy--
x--
xa--
xe--
xi--
xy--
y--
ya--
yang--
ye--
yeon--
yo--
yt--
yu--
z--
za--
ze--
zeit--
zen--
zhe--
zi--
zo--
zou--
zu--
zy--
ß--
æ--
ø--
øst--
đ--
đer--
ı--
ɑ--
ə--
ɛ--
ɡ--
ɣ--
ɪ--
ɹ--
ɾ--
ʀ--
ʁ--
ʃ--
ʒ--
ʔ--
β--
γ--
γε--
δ--
θ--
κ--
λ--
ν--
ο--
π--
ρ--
τ--
τρ--
а--
автоном--
б--
ба--
бо--
в--
ве--
ви--
ві--
г--
го--
д--
ж--
з--
за--
к--
крас--
л--
ло--
ль--
м--
ма--
мал--
ме--
мо--
мол--
н--
но--
о--
п--
пе--
по--
р--
ро--
с--
са--
север--
со--
т--
та--
у--
х--
ха--
ц--
ч--
че--
э--
я--
ا--
ال--
الش--
الع--
ب--
سل--
م--
ما--
مح--
--0
--1
--18
--2
--222
--3
--333
--4
--48
--5
--6
--6667
--667
--7
--8
--9
--92
--96
--a
--aal
--aans
--aapel
--aar
--aart
--aat
--ab
--ac
--aca
--aceae
--aceus
--ad
--ado
--ads
--ae
--aea
--aeaceae
--afrikoo
--ag
--aga
--agen
--ah
--ai
--ailo
--ais
--aja
--aje
--ak
--ake
--aken
--aks
--al
--ala
--ale
--alen
--ales
--ali
--alin
--alk
--am
--an
--ana
--and
--ang
--angen
--ani
--anisk
--anj
--ank
--ano
--ans
--ansk
--ao
--ap
--aq
--ar
--arang
--ard
--are
--aren
--aret
--ari
--aria
--ariaceae
--aris
--arius
--aro
--arpa
--arpus
--ary
--as
--asia
--asjoon
--at
--ata
--ate
--aten
--ati
--ation
--ator
--atum
--atus
--atuur
--au
--av
--aw
--awa
--awen
--ax
--ay
--aya
--ayi
--b
--ba
--baan
--bahn
--band
--bank
--bau
--be
--bei
--bek
--ben
--berg
--bert
--bi
--bii
--bo
--bok
--boom
--boon
--borg
--bru
--bst
--bu
--buk
--burg
--burn
--bus
--buum
--by
--bæk
--bøl
--c
--ca
--carpa
--cata
--ce
--cea
--ceae
--cens
--censis
--cept
--ceum
--ch
--cha
--che
--cheon
--chi
--chst
--cht
--chuun
--chy
--ci
--cia
--cidae
--ciidae
--ck
--cka
--cks
--co
--cops
--cta
--cula
--culus
--cum
--cus
--cy
--d
--da
--dae
--dai
--de
--dea
--deae
--delta
--dem
--den
--der
--des
--di
--diaan
--dig
--dii
--dis
--dj
--dle
--do
--doot
--dorf
--dra
--dred
--dru
--ds
--dsted
--dt
--du
--dum
--dus
--dy
--e
--ea
--eae
--eba
--ebo
--ebu
--ec
--eche
--ecta
--ed
--eda
--edt
--ee
--eed
--eeker
--eem
--een
--eer
--eesk
--eet
--efkuugel
--eg
--egen
--eger
--eget
--ego
--egt
--ei
--eidae
--eilun
--eilunen
--ek
--el
--ele
--elen
--eli
--elia
--elk
--ell
--ellum
--ellus
--eln
--elun
--em
--ema
--emen
--emer
--en
--enau
--ence
--eno
--ens
--ense
--ensee
--ensis
--ent
--entomopoxvirus
--enz
--eon
--eong
--eota
--ep
--er
--erdu
--ere
--erfehn
--eri
--ern
--eros
--ers
--ert
--erula
--es
--escens
--ese
--esen
--esk
--et
--eta
--eter
--eti
--etik
--eum
--eus
--eux
--ew
--exa
--ey
--ez
--f
--fa
--famile
--fe
--ferkiar
--ff
--ffen
--field
--fink
--flexiviridae
--flo
--fo
--folia
--foos
--foot
--for
--fra
--ft
--fu
--g
--ga
--gaart
--gall
--gas
--gau
--ge
--gebiet
--gefu
--gen
--ger
--ges
--gh
--ghaid
--gi
--gical
--gie
--gii
--gin
--gisk
--gju
--go
--gra
--graad
--greg
--grens
--grotst
--gs
--gt
--gu
--gua
--gue
--gus
--gy
--h
--ha
--haceae
--hae
--haid
--hair
--ham
--han
--he
--hed
--hedig
--heim
--hem
--hen
--her
--hes
--hi
--hia
--hidae
--hii
--hire
--hium
--ho
--hof
--holt
--hood
--ht
--hu
--hualer
--hus
--hylla
--i
--ia
--iaceae
--iacum
--iaken
--ial
--ian
--iana
--iaret
--iarin
--ic
--ica
--ical
--icata
--ice
--ichte
--ici
--ick
--ico
--ics
--iculata
--iculatum
--iculatus
--icum
--icus
--id
--ida
--idae
--ideae
--ides
--idia
--idj
--idjs
--idus
--ie
--iel
--iella
--ien
--iensis
--ier
--ieri
--iert
--ierung
--ies
--if
--ifolia
--ifolium
--ifolius
--iformes
--ig
--igi
--igo
--igung
--ihe
--ii
--iid
--iidae
--iiden
--iif
--iik
--iil
--iin
--iir
--iis
--iiv
--ij
--ik
--iker
--iki
--ikum
--il
[...]
