!
"
#
##0
##1
##10
##11
##12
##13
##14
##15
##16
##17
##18
##19
##2
##20
##21
##22
##23
##24
##25
##26
##27
##28
##29
##3
##30
##31
##32
##33
##34
##35
##36
##37
##38
##39
##4
##40
##41
##42
##43
##44
##45
##46
##47
##48
##49
##5
##50
##51
##52
##53
##54
##55
##56
##57
##58
##59
##6
##60
##61
##62
##63
##64
##65
##66
##67
##68
##69
##7
##70
##71
##72
##73
##74
##75
##76
##77
##78
##79
##8
##80
##81
##82
##83
##84
##85
##86
##87
##88
##89
##9
##90
##91
##92
##93
##94
##95
##96
##97
##98
##99
$
%
&
'
(
)
*
+
,
-
.
/
0
00
000
0000
0001
001
002
003
005
007
008
01
010
012
013
014
015
016
02
020
021
023
026
029
03
030
033
034
035
036
037
039
04
040
047
05
052
053
054
06
061
062
067
069
07
071
073
074
076
078
08
080
081
082
083
084
086
087
088
09
091
096
099
1
10
100
1000
10000
1001
1002
1003
1004
1005
1006
1007
1008
1009
101
1010
1011
1012
1013
1014
1015
1016
1017
1018
1019
102
1020
1021
1022
1023
1024
1025
1026
1027
1028
1029
103
1030
1031
1032
1033
1034
1035
1036
1037
1038
1039
104
1040
1041
1042
1043
1044
1045
1046
1047
1048
1049
105
1050
1051
1052
1053
1054
1055
1056
1057
1058
1059
106
1060
1061
1062
1063
1064
1065
1066
1067
1068
1069
107
1070
1071
1072
1073
1074
1075
1076
1077
1078
1079
108
1080
1081
1082
1083
1084
1085
1086
1087
1088
1089
109
1090
1091
1092
1093
1094
1095
1096
1097
1098
1099
11
110
1100
1101
1102
1103
1104
1105
1106
1107
1108
1109
111
1110
1111
1112
1113
1114
1115
1116
1117
1118
1119
112
1120
1121
1122
1123
1124
1125
1126
1127
1128
1129
113
1130
1131
1132
1133
1134
1135
1136
1137
1138
1139
114
1140
1141
1142
1143
1144
1145
1146
1147
1148
1149
115
1150
1151
1152
1153
1154
1155
1156
1157
1158
1159
116
1160
1161
1162
1163
1164
1165
1166
1167
1168
1169
117
1170
1171
1172
1173
1174
1175
1176
1177
1178
1179
118
1180
1181
1182
1183
1184
1185
1186
1187
1188
1189
119
1190
1191
1192
1193
1194
1195
1196
1197
1198
1199
12
120
1200
1201
1202
1203
1204
1205
1206
1207
1208
1209
121
1210
1211
1212
1213
1214
1215
1216
1217
1218
1219
122
1220
1221
1222
1223
1224
1225
1226
1227
1228
1229
123
1230
1231
1232
1233
1234
1235
1236
1237
1238
1239
124
1240
1241
1242
1243
1244
1245
1246
1247
1248
1249
125
1250
1251
1252
1253
1254
1255
1256
1257
1258
1259
126
1260
1261
1262
1263
1264
1265
1266
1267
1268
1269
127
1270
1271
1272
1273
1274
1275
1276
1277
1278
1279
128
1280
1281
1282
1283
1284
1285
1286
1287
1288
1289
129
1290
1291
1292
1293
1294
1295
1296
1297
1298
1299
13
130
1300
1301
1302
1303
1304
1305
1306
1307
1308
1309
131
1310
1311
1312
1313
1314
1315
1316
1317
1318
1319
132
1320
1321
1322
1323
1324
1325
1326
1327
1328
1329
133
1330
1331
1332
1333
1334
1335
1336
1337
1338
1339
134
1340
1341
1342
1343
1344
1345
1346
1347
1348
1349
135
1350
1351
1352
1353
1354
1355
1356
1357
1358
1359
136
1360
1361
1362
1363
1364
1365
1366
1367
1368
1369
137
1370
1371
1372
1373
1374
1375
1376
1377
1378
1379
138
1380
1381
1382
1383
1384
1385
1386
1387
1388
1389
139
1390
1391
1392
1393
1394
1395
1396
1397
1398
1399
14
140
1400
1401
1402
1403
1404
1405
1406
1407
1408
1409
141
1410
1411
1412
1413
1414
1415
1416
1417
1418
1419
142
1420
1421
1422
1423
1424
1425
1426
1427
1428
1429
143
1430
1431
1432
1433
1434
1435
1436
1437
1438
1439
144
1440
1441
1442
1443
1444
1445
1446
1447
1448
1449
145
1450
1451
1452
1453
1454
1455
1456
1457
1458
1459
146
1460
1461
1462
1463
1464
1465
1466
1467
1468
1469
147
1470
1471
1472
1473
1474
1475
1476
1477
1478
1479
148
1480
1481
1482
1483
1484
1485
1486
1487
1488
1489
149
1490
1491
1492
1493
1494
1495
1496
1497
1498
1499
15
150
1500
1501
1502
1503
1504
1505
1506
1507
1508
1509
151
1510
1511
1512
1513
1514
1515
1516
1517
1518
1519
152
1520
1521
1522
1523
1524
1525
1526
1527
1528
1529
153
1530
1531
1532
1533
1534
1535
1536
1537
1538
1539
154
1540
1541
1542
1543
1544
1545
1546
1547
1548
1549
155
1550
1551
1552
1553
1554
1555
1556
1557
1558
1559
156
1560
1561
1562
1563
1564
1565
1566
1567
1568
1569
157
1570
1571
1572
1573
1574
1575
1576
1577
1578
1579
158
1580
1581
1582
1583
1584
1585
1586
1587
1588
1589
159
1590
1591
1592
1593
1594
1595
1596
1597
1598
1599
16
160
1600
1601
1602
1603
1604
1605
1606
1607
1608
1609
161
1610
1611
1612
1613
1614
1615
1616
1617
1618
1619
162
1620
1621
1622
1623
1624
1625
1626
1627
1628
1629
163
1630
1631
1632
1633
1634
1635
1636
1637
1638
1639
164
1640
1641
1642
1643
1644
1645
1646
1647
1648
1649
165
1650
1651
1652
1653
1654
1655
1656
1657
1658
1659
166
1660
1661
1662
1663
1664
1665
1666
1667
1668
1669
167
1670
1671
1672
1673
1674
1675
1676
1677
1678
1679
168
1680
1681
1682
1683
1684
1685
1686
1687
1688
1689
169
1690
1691
1692
1693
1694
1695
1696
1697
1698
1699
17
170
1700
1701
1702
1703
1704
1705
1706
1707
1708
1709
171
1710
1711
1712
1713
1714
1715
1716
1717
1718
1719
172
1720
1721
1722
1723
1724
1725
1726
1727
1728
1729
173
1730
1731
1732
1733
1734
1735
1736
1737
1738
1739
174
1740
1741
1742
1743
1744
1745
1746
1747
1748
1749
175
1750
1751
1752
1753
1754
1755
1756
1757
1758
1759
176
1760
1761
1762
1763
1764
1765
1766
1767
1768
1769
177
1770
1771
1772
1773
1774
1775
1776
1777
1778
1779
178
1780
1781
1782
1783
1784
1785
1786
1787
1788
1789
179
1790
1791
1792
1793
1794
1795
1796
1797
1798
1799
18
180
1800
1801
1802
1803
1804
1805
1806
1807
1808
1809
181
1810
1811
1812
1813
1814
1815
1816
1817
1818
1819
182
1820
1821
1822
1823
1824
1825
1826
1827
1828
1829
183
1830
1831
1832
1833
1834
1835
1836
1837
1838
1839
184
1840
1841
1842
1843
1844
1845
1846
1847
1848
1849
185
1850
1851
1852
1853
1854
1855
1856
1857
1858
1859
186
1860
1861
1862
1863
1864
1865
1866
1867
1868
1869
187
1870
1871
1872
1873
1874
1875
1876
1877
1878
1879
188
1880
1881
1882
1883
1884
1885
1886
1887
1888
1889
189
1890
1891
1892
1893
1894
1895
1896
1897
1898
1899
19
190
1900
1901
1902
1903
1904
1905
1906
1907
1908
1909
191
1910
1911
1912
1913
1914
1915
1916
1917
1918
1919
192
1920
1921
1922
1923
1924
1925
1926
1927
1928
1929
193
1930
1931
1932
1933
1934
1935
1936
1937
1938
1939
194
1940
1941
1942
1943
1944
1945
1946
1947
1948
1949
195
1950
1951
1952
1953
1954
1955
1956
1957
1958
1959
196
1960
1961
1962
1963
1964
1965
1966
1967
1968
1969
197
1970
1971
1972
1973
1974
1975
1976
1977
1978
1979
198
1980
1981
1982
1983
1984
1985
1986
1987
1988
1989
199
1990
1991
1992
1993
1994
1995
1996
1997
1998
1999
2
20
200
2000
2001
2002
2003
2004
2005
2006
2007
2008
2009
201
2010
2011
2012
2013
2014
2015
2016
2017
20170529
2018
20180604
20180815
2019
20190612
20190619
202
2020
2021
2022
2023
2024
2025
2026
2027
2028
2029
203
2030
2031
2032
2033
2034
2035
2036
2037
2038
2039
204
2040
2041
2042
2043
2044
2045
2046
2047
2048
2049
205
2050
2051
2052
2053
2054
2055
2056
2057
2058
2059
206
2060
2061
2062
2063
2064
2065
2066
2067
2068
2069
207
2070
2071
2072
2073
2074
2075
2076
2077
2078
2079
208
2080
2081
2082
2083
2084
2085
2086
2087
2088
2089
209
2090
2091
2092
2093
2094
2095
2096
2097
2098
2099
21
210
2100
211
212
213
214
2140
215
216
217
2175
218
219
2192
2194
22
220
2204
221
222
223
224
2243
225
2258
226
227
228
229
2292
2299
23
230
231
232
233
2333
234
235
236
237
2379
238
239
2397
24
240
241
242
243
244
245
2454
246
2464
247
2479
248
2486
249
25
250
2502
251
2512
252
253
2535
254
255
256
257
258
259
26
260
2600
261
262
263
2638
2639
264
265
266
267
2678
2679
268
269
2690
27
270
271
2715
2716
272
273
2733
2737
274
275
2750
276
277
278
279
28
280
2802
281
282
2820
2826
283
284
285
286
287
288
2885
289
2898
29
290
291
292
293
294
295
296
2962
297
2972
298
299
3
30
300
3000
301
302
303
3037
304
305
306
307
308
309
3099
31
310
311
312
313
314
315
316
3166
317
318
319
32
320
321
3212
322
3223
323
324
325
326
327
3272
328
3281
329
33
330
331
332
333
334
335
336
337
338
339
34
340
341
342
343
344
345
346
347
348
349
35
350
351
352
3522
353
354
355
356
357
358
359
36
360
3606
361
362
363
364
365
366
367
368
369
37
370
371
372
373
374
375
376
377
378
379
38
380
381
382
383
384
385
386
387
388
389
3897
39
390
391
392
393
394
395
396
397
398
399
4
40
400
4000
401
402
403
404
405
406
407
408
409
41
410
411
412
413
414
415
416
417
418
4181
419
42
420
421
422
423
424
425
426
4266
427
428
4285
429
43
430
431
432
433
434
435
436
437
438
439
44
440
441
442
443
444
445
446
447
448
449
45
450
451
4512
452
453
454
455
456
457
458
459
46
460
461
462
463
464
465
466
467
468
469
47
470
471
472
473
474
475
476
477
478
479
48
480
481
482
483
484
485
486
487
488
489
49
490
491
492
493
494
495
496
497
498
499
5
50
500
5000
501
502
503
504
505
506
507
5073
508
509
51
510
511
512
513
515
5150
5153
516
517
518
519
52
520
5200
521
522
523
524
525
526
527
528
529
53
530
531
532
533
534
535
536
537
538
539
54
540
541
542
543
544
5446
545
546
547
548
549
55
550
551
552
553
554
555
556
557
558
559
56
560
561
562
563
564
565
5656
566
567
568
569
57
570
571
572
573
574
575
576
577
578
579
58
580
581
582
583
584
585
586
587
588
589
59
590
591
592
593
594
595
596
597
598
599
6
60
600
601
602
603
604
605
606
607
6073
608
609
61
610
611
612
613
614
615
616
617
619
62
620
62039
621
622
623
624
625
626
627
628
629
63
630
631
632
633
634
635
636
637
638
639
64
640
641
642
643
644
645
646
647
648
649
65
650
651
652
653
654
655
656
657
6572
658
659
66
660
661
662
663
664
666
667
668
669
67
670
671
672
673
674
675
676
677
678
679
68
680
68000
681
682
683
684
685
686
687
688
689
69
690
691
692
693
694
695
696
697
698
699
7
70
700
7000
701
702
704
705
706
707
708
709
71
710
711
712
713
714
715
716
717
718
719
72
720
721
722
723
724
725
726
727
728
729
73
730
731
732
733
734
735
736
737
738
739
74
740
741
742
743
744
745
746
747
748
749
75
750
751
752
753
754
755
756
757
758
759
76
760
761
762
763
764
765
766
767
768
769
77
770
771
772
773
774
775
776
777
778
779
78
780
7800
781
782
783
784
785
786
787
788
789
79
790
791
792
793
794
795
796
797
798
799
8
80
800
8001
801
802
803
804
805
806
807
808
809
81
810
811
812
813
814
815
816
817
818
819
82
820
821
822
823
824
825
826
827
828
829
83
830
831
832
833
834
835
836
837
838
839
84
840
841
842
843
844
845
846
847
848
849
85
850
851
852
853
854
855
856
857
858
859
86
860
861
862
863
864
865
866
867
868
869
87
870
871
872
873
874
875
8750
876
8762
877
8775
878
879
88
880
881
882
883
884
885
886
887
888
889
89
890
891
892
893
894
895
896
897
898
899
9
90
900
901
90125
9019
902
903
904
905
906
907
908
909
91
910
911
912
913
914
915
916
917
918
919
92
920
921
922
923
924
925
926
927
928
929
93
930
931
932
933
934
935
936
937
938
939
94
940
9403
941
942
943
944
945
946
947
948
949
95
950
951
952
953
954
955
956
957
958
959
96
960
961
962
963
964
965
966
967
968
969
97
970
971
972
973
974
975
976
977
978
979
98
980
981
982
983
984
985
986
987
988
9889
989
99
990
991
992
993
994
9949
995
996
997
998
999
:
;
<
=
>
?
@
\
^
_
`
a
aaba
aabba
aacciđ
aadolf
aage
aageent
aaiba
aaiga
aaigij
aaigijd
aaina
aaira
aaita
aaitij
aajijn
aak
aakkola
aakkoset
aakula
aala
aaleeb
aalga
aalgij
aali
aalij
aalijn
aaljoki
aalman
aalmug
aalmuga
aalmugeh
aalmugij
aalmugijkoska
aalmugijn
aalmugist
aalmugjeessa
aalmugjesa
aalmugjiena
aalmugkiela
aalmugkode
aalmugkyesih
aalmugla
aalmuglappum
aalmuglii
aalmuglitto
aalmugmaina
aalmugmuusik
aalmugmuusikist
aalmugovda
aalmugpeivi
aalmugpia
aalmugregisterkua
aalmugrekinistem
aalmugs
aalmugta
aalmugteatterist
aalmugtiettuu
aalmugtiggevaalja
aalmugtubda
aalpa
aalpah
aalto
aaltonen
aamna
aamulehti
aan
aanaar
aanaarja
aanaarjuuva
aanaarkiela
aanaarla
aanaarsa
aanoost
aapajoki
aapeli
aapo
aapoot
aaps
aarikkala
aarlahti
aarne
aarno
aaro
aaron
aarre
aarvoe
aas
aasa
aaseest
aasia
aasian
aasiast
aasij
aasijn
aassa
aassum
aata
aatella
aatelnissoon
aatila
aatoom
aatoomenergiaornijdume
aatoomjua
aatoommassa
aatoompoomi
aatoomtia
aatoomva
aatoomvyeimila
aavasaksa
aavis
aaviseh
aavisist
ab
abara
abate
abbadia
abbazia
abbeyst
abbondio
abborfors
abbreviata
abc
abd
abdel
abdelaziz
abdullah
abdulrazak
abdus
abe
abeba
abel
abia
abies
abigail
abivua
abiy
aboard
abound
about
above
abraham
abramov
abreu
abrio
abriola
abrupta
abruzzo
abruzzost
absoluutla
absorbist
abu
aby
acad
academy
accents
accra
accursia
ace
acento
acerenza
acero
aces
acetosa
acetosella
achievement
achillea
acid
ackroyd
acorn
acoustic
acqua
acquacanina
acqualagna
acquasanta
acquaviva
acquavivapicena
across
acs
act
acta
action
aculeata
ad
ada
adai
adalci
adam
adami
adams
adda
addaas
addams
adde
addee
addeh
addel
addet
addis
addo
addoid
addoin
addolorata
addon
addoporree
addopurra
adela
adele
adeleh
adeleijee
adelem
adelij
adeline
adeliđ
adelui
adelum
adelung
adeluvvoo
adepero
adi
adige
adja
adjacenti
adjektiv
adjektiveh
adkins
adler
ado
adoh
adoi
adoiguin
adola
adolf
adolfo
adolph
adolphe
adora
adorada
adormeces
adorned
adriameera
adrian
adumbrata
adunca
advance
advanced
adventure
adventures
adverb
adverbialeh
ae
aedh
aerial
aerla
af
afarkiela
affair
affairs
affinis
afganistan
afi
afri
africa
african
africana
afrik
afrika
afrikan
afrikist
afrikla
afroamerikla
after
ag
aga
again
against
agatha
agbara
age
agejeva
agejevain
agency
agent
agenteh
ages
agglutinatiivla
aggressiivla
aggressiivliih
agiagia
agk
agne
agnesi
agneta
agostino
agosto
agreement
agri
agricola
agromyza
agromyzidae
agronom
agugliano
agusti
ah
ahainen
ahasa
ahasiih
ahde
ahdille
ahera
ahlaja
ahlholm
ahlstedt
ahmad
ahmed
ahmo
ahmovaara
ahnt
aho
ahoinen
ahokas
ahokkala
ahokyla
ahola
aholahti
ahonkyla
ahonpa
ahteentaka
ahti
ahtiala
ahtinen
ahtisaari
ahvenanmaan
ahvenisto
ahvenja
ahvenkoski
ahvensaari
ahvensalmi
ahvenus
ahvionsaari
ai
aicca
aiccum
aid
aidhne
aids
aijala
aijui
aijuin
aika
aikakone
aikamme
aikio
aikioin
aikkola
aila
ailech
aili
aillohas
ailonieida
ailu
aimala
aimarakiela
aime
aimo
aimontappo
ain
aina
ainali
aini
aininen
aino
air
aira
airaksela
airborne
airikkala
airinniemi
airisto
airplane
airport
aisaniemi
aisbo
aiskos
aita
aitis
aitolahti
aitolaks
aitoniemi
aitta
aittii
aittokyla
aittui
aja
ajan
ajlin
ajola
ajonpa
ajoranta
ajosenpa
ajostaipale
ak
aka
akaa
akaast
akade
akadeemia
akaki
akamatsu
akasaki
akatemia
akatemiast
akatemikka
akershus
akiela
akira
akiyama
akkad
akkala
akkoinen
akkola
akkusativha
ako
akonvesi
aksel
akseli
aksnes
aktiivla
aktiivlii
aktiivlub
aktiivlumoseh
aktivist
aktivla
aku
akustisa
akvitania
al
ala
alaafia
alabama
alabamast
aladdin
alaha
alain
alaja
alakeyritty
alakitka
alakuona
alakyla
alamaa
alamuonio
alan
aland
alanen
alankomaat
alanurmo
alapa
alapaakkola
alapitka
alaranta
alaraumo
alas
alasja
alaska
alaskan
alaskast
alaskyla
alasmelkkila
alasotkamo
alaspa
alastaipale
alastaro
alastaron
alaveteli
alavieska
alavieskast
alaviirre
alavojakkala
alavus
alavusist
alawo
alba
albanese
albania
albaniala
albano
albans
albany
albert
alberta
alberto
albrecht
albrektsbo
albright
albu
album
albuma
albumeh
albumij
albumijd
albumijn
albumin
albumis
albumist
albura
alcatraz
alces
alcohol
alda
aldakaavpugeh
aldakieldah
aldakua
aldasa
aldasiih
aldasijn
aldasumos
aldavuođa
alde
aldela
aldemus
alden
alder
aldous
aldrich
aldrin
aldrina
ale
aleaddji
aleh
aleksander
aleksandr
aleksandra
aleksandria
aleksandrian
aleksandriast
aleksei
aleksis
alemus
alemuu
alert
ales
alessandri
alessandria
alessandriast
aletta
alette
alex
alexander
alexanderi
alexanderist
alexanderson
alexandra
alexandre
alexandria
alexis
alf
alfac
alfapieđga
alfons
alfonso
alfre
alfred
alfve
alga
algaah
alge
algeh
alger
algeria
algeriala
algerialijn
algeriast
algii
algu
alguu
alho
alhoja
alhojoki
alholahti
alhoniemi
ali
aliano
alibi
alice
alien
aliens
aliento
alighieri
alikas
alikoski
alima
alison
alist
alit
alitoarpmealli
alive
alkaa
alkaal
alkaaleh
alkaalla
alkaalmetalleh
alkaalmetallij
alkkula
alku
alkupera
all
alla
allah
allan
alle
allee
allende
alley
alli
allia
alliance
allii
allma
allotrooppisa
allston
allui
alluid
alluin
allum
allust
alluu
alluuh
alma
almaa
almaah
almaas
almai
almaid
almaidittum
almain
almaiua
almajid
almajin
almaz
alme
almeest
almeestoonnum
almeh
almeida
almekulmeest
almena
almenaahkijn
almepita
almettemeh
almighty
almma
almmit
almoa
almola
almolii
almoliih
almolijd
almolijn
almolub
almoluboh
almolumos
almoneh
almoon
almoot
almos
almosc
almoshalda
almosin
almossopa
almost
almostit
almostitij
almostitijn
almostitmeh
almostits
almostitta
almostittem
almostittemes
almostittii
almostittiđ
almostittum
almostui
almostum
almostuus
almostuva
almostuvvii
almosumos
almosvalasta
almotta
almotteijee
almottij
almottiđ
almottum
almottuvvoo
almugijkoska
alne
alnees
alnus
aloda
aloduv
aloduva
aloduvva
aloha
alomar
alone
alonso
alosa
alpestris
alpha
alphabet
alphonse
alpi
alpina
alsbo
alsila
alt
alta
altaic
altaica
altar
altberg
alter
alticola
altidona
altino
altivo
altivos
altman
alto
alttareh
alumiin
aluskyla
alva
alvaja
alvar
alvarez
alvettula
alvin
always
alyson
alzaron
am
ama
amada
amadeus
amado
amago
amalia
amanda
amandola
amandolast
amani
amano
amarillo
amas
amasmuvvat
amazing
amazon
ambient
amblin
ambo
ame
amedeo
amen
amenaza
ameprod
america
american
americana
americans
ameriikla
amerik
amerika
amerikanska
amerikist
amerikla
ameriklii
ameriklij
ameriktaapiir
ames
amharakiela
amico
amiga
amino
aminosuuvra
ammakko
amman
ammannati
ammoniak
amna
amnesia
amnesty
amoc
amoghavarsha
amok
amon
among
amor
amore
amos
ampe
ampezzo
ampiala
ampujala
ampuminmaa
amr
amsterdam
amstrad
amy
an
ana
anadze
analyys
anapausis
anara
anarist
anatole
anatolia
anavainen
anc
ancarano
ance
anchise
anchorage
ancient
ancillon
ancona
anconast
and
ande
andelmaa
anders
andersbo
andersen
anderso
anderson
andersson
andeyvy
andina
andka
andkil
andorra
andorrast
andre
andrea
andreas
andrej
andres
andrew
androgyynla
android
andy
ane
aneh
anes
anette
anettu
anfisa
anfissa
angband
ange
angel
angela
angeles
angelesa
angelesist
angeli
angelica
angelin
angelina
angelit
angell
angelniemi
angelo
angelou
angels
angie
angola
angolast
angry
angulata
angusta
angustifolium
angustipennis
anhalt
anhelo
ania
anianniemi
anianpelto
aniara
animaatio
animaatioh
animaatioi
animaatioin
animaatiora
animaatiostudio
animaattor
animaattoreh
animal
animals
animation
animations
anisi
anist
anja
anjala
anjalankoskist
anker
ankka
anla
ann
anna
annaam
annan
anne
anneeđ
anni
annie
annihilation
annika
annikkala
annila
anniversary
annoo
annotaatio
annou
annukka
annula
annulata
annunziata
annuu
ano
anola
anon
another
ans
ansanm
ansku
ant
antamoinen
antananarivo
antarktis
antarktisist
antbo
antby
ante
antennalis
anteroisenma
antes
antheila
anthology
anthomyia
anthomyiinae
anthony
anti
antibioottalkka
antic
antica
antico
antigua
antiik
antikainen
antikkala
antila
antilles
antimon
antinkyla
antist
anto
antoine
antola
antologia
antologiah
anton
antonio
antonova
antonovain
antonsen
antony
antskog
antti
anttila
anttola
antwerp
antwerpen
anu
anwar
any
anyi
anywhere
anza
anzi
ao
aomata
aos
aotsuka
ap
apache
apajapohja
apartheid
ape
apecchio
apek
apicalis
apiro
apirost
apis
apisc
apiskirja
apismeera
apisra
apisrus
apisvia
apisvielga
apocalypse
apokolips
apollo
appa
appelle
appennino
appignano
apple
applest
appleton
apprentice
aprestad
april
aps
apted
apteek
apteekist
apulia
apuliast
aqiskasi
aquarius
aquel
aqui
aquila
aquilonia
ar
ara
arabeh
arabia
arabiakiela
arabialiih
arabian
arabiast
arabiemiirikodeh
arabij
arabisaatio
arado
aragone
aragonia
aragoniakiela
araja
araneus
arantila
arap
aras
arashi
arborea
arca
arcade
arcadia
arcangelo
arcevia
archangelica
archer
archibald
archie
architecture
archive
arco
arctan
arctic
arcuata
arcus
arda
ardem
ardhi
ardimiento
ardro
are
area
areena
arellano
arena
aretino
arevalo
arezzo
arga
argelander
argentast
argentifrons
argentiina
argentiinala
argentiinast
argentina
argir
argon
ari
aria
arinic
ariosto
arise
ariwara
arizona
arizonast
arja
arjan
arjel
arjeplog
ark
arkania
arkanoid
arkansas
arkansasist
arkaŋŋel
arkea
arkeolog
arkeologa
arkeologla
arkham
arkivmagasinet
arkivverket
arkka
arkkiteht
arkkitehteh
arkkitehtin
arkkitehtitoimisto
arkkitehtuur
arkta
arkuntanhua
arli
arlington
armand
armas
armassaari
armen
armenia
armeniala
armeniast
armento
armes
armila
armisvesi
armored
armour
arms
armstrong
army
arnaudi
arne
arnie
arno
arnold
arnø
aro
aroin
arola
aronkyla
aropaltio
around
arov
arp
arpala
arpalahti
arpela
arpola
arppe
arquata
arrajoki
arrancaron
arrankorpi
arrhenius
arribalzaga
arrondissementa
arrondissementeh
arseen
arsun
art
artas
artes
arthouse
arthur
artificial
artikka
artikla
artimino
artist
artisteh
artistin
artistnooma
artja
arto
arts
arttu
artturi
aruba
arva
arveta
arvevyevdist
arvid
arvo
arvvas
as
asa
asad
asan
ascension
ascoli
ase
aseksuaaleh
aseksuaalla
aseksuaalvuota
aseksuaalvuođa
asema
asemankyla
aseme
asemi
asetus
ashes
ashikaga
ashkin
asia
asij
asikkala
asikkalast
asikko
asila
asimov
asinas
aska
askainen
askaisii
askaisiist
askankyla
askeest
askemc
askola
askolast
askoslaavla
aslak
asleep
aslo
asmara
aso
asola
asosa
aspect
aspic
aspo
ass
assaas
assassin
assassins
assault
asseest
assembly
asser
assii
assijd
assijn
association
assunta
asta
astaire
aste
asteljoki
astenosfa
asterholma
asterix
asteroid
asteroidijd
asteroids
asto
astoa
astrahan
astrid
astro
astronaut
astronauteh
astronautij
astronautjua
asturia
asu
asuntila
asus
asylum
at
ata
atahlaavkoehguarkahbi
atala
atamlaavkoemguarkambi
atari
ataru
ate
ateena
atekatt
atella
atena
athal
athalie
athens
athletics
ati
atist
atkinson
atlant
atlanta
atlantic
atlantica
atlantis
atlantist
atlus
ato
atom
atomeh
atomic
atomid
atomij
atomijn
atomin
atomist
atoroxin
atp
atra
atrata
atsutada
atta
attack
attenuata
attii
attila
attimo
attu
atua
atwood
au
aucuparia
audaz
audiovisuaalliih
auditore
audrey
auf
augaire
august
augusta
auguste
augusto
augustoni
auho
aukusti
aulikki
aulis
aune
aunus
aura
aurast
aure
aureja
auringon
aurora
aus
aussi
austen
austin
australia
australiala
australian
australiast
australis
auto
autoid
autoin
automaatla
autonomisa
autonomisii
autopa
autuinen
autumn
auvainen
auvaisma
auvi
auvila
auvola
av
ava
avain
avala
avalanche
avalon
avant
avante
avaruuskirja
avaskari
avatar
avci
ave
avec
aveh
avela
avelist
avellino
avenger
avenir
aventura
avenue
avezzano
avigliano
aviglianopz
avlijtta
avogadro
avram
avveel
avveeljuuha
avveeljuuva
avz
awakening
award
awarded
awards
away
awo
ax
axe
axel
axis
axwan
ay
ayacucho
ayer
ayi
ayisyen
ayiti
azerbaidz
azerbaijan
azkaban
azul
ađa
ađai
ađđiista
aŋlikaanisa
aŋŋel
aŋŋelist
b
ba
baal
baaleet
baareencmeera
baarist
baarooknuota
bab
baba
babel
baby
babylon
bachelor
bachisuta
bachli
bacio
back
backa
backas
backby
backgra
backyard
bad
badalamenti
baden
bader
badge
badia
badth
baeyer
baez
bafta
bagdad
bagdadist
baggbo
baggby
baggholma
bagni
bagnoli
bagnolo
baha
bahama
bahi
bahng
bahrain
bahrainist
bai
baikalja
baikonur
baily
bairenn
baja
bajil
bajo
baker
bakhtadze
bakr
bakteera
bakteereh
bakteerijd
bakteerist
bakteertaavdah
bakteriolog
baku
bal
bala
balance
balaton
balch
baldini
baleaarij
balhae
balkanian
balkanist
balkhi
ball
ballads
balluet
bally
bals
baltia
baltimore
balto
baltrus
balvano
balzac
balzers
bambi
bambo
bana
banana
banco
band
bandai
bande
bandera
bandicoot
bane
bang
bangladesh
bangui
banjul
bank
bankhead
banks
banner
banzi
bao
baptistpappa
bar
barack
baragiano
baranello
barbados
barbadosist
barbara
barbarian
barberi
barberino
barbuda
barcelona
barchi
bard
bardeen
barentsmeera
bari
barile
barium
barkala
barlettast
barn
barnetta
baro
baron
baronale
barra
barre
barreast
barrel
barren
barrett
barruk
barruka
barry
bart
bartaite
bartens
bartolome
bartolomeo
barton
bartsga
bary
bas
basalis
base
baseball
based
basel
basilica
basilicata
basilicatast
basist
basketball
baskikiela
bass
bassey
basshunter
basso
bassokiitaar
bastbo
basterds
basto
bat
batman
battaglia
battista
battle
battlefield
battlegrounds
battles
battlezone
bautista
bava
bay
bba
bbc
bbi
bbin
bbioo
bbjemprojektta
bbo
bd
bda
bdojii
be
beach
beaivegirji
beaivi
beaivva
beaivvi
beaivvit
beans
bear
beaska
beast
beasts
beat
beatles
beatrice
beaty
beau
beaumont
beaute
beautiful
beauty
beauvoir
beavis
became
beck
becker
beckett
becquerel
bed
beda
bedawi
bee
beedle
been
beerh
beetapieđga
beetle
before
begin
beginning
beh
behind
behold
beholder
beiger
being
beirut
beji
bel
belew
belewa
belfaguer
belforte
belgia
belgiala
belgialiih
belgian
belgiast
believe
belize
bell
bella
bellardi
belle
belli
bellincioni
bello
bells
bellunost
belmonte
beln
belo
belushi
belvedere
belyanina
bem
ben
bend
bendby
bene
beneath
benedetto
benedict
benedictus
bengtsbo
bengtsby
bengtsmora
benhaamma
benhama
benin
beninist
benito
benivieni
benjamin
benna
bennington
benoi
bequard
ber
berberkiela
bereiner
berg
berga
bergby
bergen
berghamn
bergmann
bergo
bergsland
bergson
bergstad
berit
berlin
berlina
berlinist
bermuda
bern
bernal
bernard
bernardino
bernardo
bernhard
bernice
bernoulli
bernt
bert
bertby
bertel
bertha
berthier
bertil
bertozzi
bertrand
beru
berzelius
beseech
besnica
besonderer
bessel
best
beste
bestowed
bet
betet
bethe
bethesda
betrayal
betschwanden
bette
better
betty
betula
between
beulah
beverly
beviacqua
beyond
bezzi
bfris
bhutan
bi
bia
biagio
bian
biase
bibbienast
bibionidae
bible
bicolor
bidawid
biden
bidje
biegga
biegŋja
biehta
biekka
bien
bientie
biernna
biferno
biffi
bifida
bifurcata
bifurcatum
big
bigot
bigs
bih
bij
biju
biladi
biles
bill
billbo
billboard
billie
billin
billna
billskog
billy
bilobata
bilten
bimaculata
bin
binnig
binomio
bio
biofysikka
biographical
biography
biokemist
biolan
biolog
bioshock
bipunctata
birc
bird
birdlife
birds
biret
birger
birgitte
birje
birkka
birkna
birmingham
birminghamist
birra
birrasis
birth
birthday
biruvva
bis
bisaccia
biscegliest
biseksuaaleh
biseksuaalla
biseksuaalvuođa
bisenzio
biseta
bisetosa
bishop
biskopsbo
biskopsna
biskopso
bismarck
bismarcksuolluuh
bissau
bisselliella
bist
bisu
bit
bite
bitnje
bitter
bittisa
biu
bivio
bja
bjaljatski
bjensbo
bjo
bjorlo
bjurbo
bjurs
bjursa
bjørnson
bl
bla
black
blackett
blackkklansman
blackpink
blackstar
blade
bladet
blah
blair
blan
blanca
blanchard
blanchett
blasones
blast
blaster
ble
bleed
blesky
bless
blessed
blessing
blest
blev
blind
blinda
blitz
blitzkrieg
bloch
block
blockade
bloed
bloembergen
bloemfontein
blogi
blomstedt
blonde
blong
blood
bloom
bloomington
bloomsbury
blovokiella
blows
blu
blue
blues
bluesist
blumenthal
blut
bly
bma
bmatrix
bo
board
boat
boazun
boađan
bob
boba
bobbie
bobble
bobby
bobo
boccaccio
bocer
bock
bockboda
bocks
boda
bodna
bodom
body
boe
boehmer
bogart
bogsbo
bohart
bohcco
bohr
boikot
boine
boinein
bois
boise
bojano
bokeria
bolax
bolder
bolger
boli
bolivia
boliviast
bollbo
bollsta
bollstad
bologna
bolognast
bolognola
bolsonaro
bolstad
bolstaholm
boluarte
boman
bomb
bomber
bomberman
bon
bona
bonacum
bond
bondarby
bondbo
bondby
bondi
bondtyko
bondy
bonefro
bones
bongbong
bongo
bonham
bonheur
bonifatius
bonnier
bonou
bonsdorff
bonsdorffia
bonse
bonuspita
bonuspitta
book
books
bookshelf
boom
boori
borasda
bordeaux
border
borders
boreaallii
borealis
borg
borga
borgboda
borgby
borgmeieri
borgo
boric
boris
born
borne
borsto
bory
bos
bosch
bosco
bose
boseman
bosga
bosnia
bosschaert
boston
bostonist
botanophila
both
botha
botswana
botswanast
botta
boucher
boulder
boulevard
bound
bounty
bourbon
bouteflika
bouvier
boven
bovik
bowie
bowien
bowiest
bowl
box
boxby
boxing
boy
boyce
boyer
boyle
boyne
boz
bra
brabanc
brad
bradley
bragg
bragi
brahe
brahms
braille
brain
bran
branten
branting
branwell
bras
brasby
brasil
brasilia
brasiliala
brasiliast
brasiliensis
brat
bratia
brattja
brattna
braunwald
braunwaldist
brave
bravely
braving
bravo
bravos
braz
brazzaville
brdo
bre
break
breakout
breath
brecciaroli
bredow
breds
bredsla
bredvik
breed
brega
breidila
breitsbo
bremen
brenda
brentano
brescia
bresciast
brethes
brevicornis
brevifurcata
brevipes
brezje
brezovica
briain
brian
bride
bridei
bridge
bridget
brido
brienza
brigade
bright
brilla
brille
brillo
brindisi
bringing
brisant
bristol
brit
brita
britain
britannia
britanniast
britannica
britih
british
britney
britsbo
britt
brittila
brittiliih
brjansk
brncic
bro
broa
broad
broadway
broadwayst
brobo
broby
broch
brockman
broddbo
broflowski
broka
broken
brokopondo
bromarv
bromi
bronce
bronte
brooklyn
brooklynist
brooks
bros
bross
brotherhood
brothers
brought
brown
bru
bruce
bruciate
bruford
bruges
brugge
brundtlandist
brunei
brunetti
brunila
brunkom
brunnea
brunnila
bruno
brunska
brunswick
brusnice
brutal
bryan
bryant
bryggman
brynikbacka
bryssel
brysselist
brøderbund
bu
bubble
buccinost
buck
buckley
bucks
budapest
budapestist
budast
buddha
buddhala
buddies
budjet
budokai
buffalo
buffy
bug
bugguide
buggy
buh
buhturi
bui
build
builder
building
buildings
bujumbura
bukowski
bulfinch
bulgaria
buljo
bull
bump
bunche
bungie
bunn
bunny
buoni
buorre
buot
burdz
bureau
buren
burgh
burkina
burkinafasola
burla
burlington
burma
burmensis
burn
burner
burning
burns
burr
burrell
burton
burundi
burundist
bury
bush
business
buskbo
buso
bussi
busso
buster
but
butcher
butenandt
butler
butt
butterfly
butters
buxtoni
buzz
by
bye
bygdøy
byin
byrne
bysant
bysantla
byst
byte
byttbo
bæhra
bəħarna
c
ca
cache
cada
cadafalch
cadell
cadenas
caduti
caesar
cafe
caged
caggiano
cagli
cagnola
cahkkehan
caiano
caid
cairpre
caitaani
calabria
calabriast
calabro
calcarius
caldarola
calderon
calein
california
calitri
call
calling
calo
calvario
calvello
calvera
calvin
camarasa
cambridge
came
camerano
camerata
camerino
cameron
camilla
camillo
camilo
camino
cammino
camp
campaign
campania
campaniast
campanile
campbell
campi
campin
camping
campo
campobasso
campochiaro
campodipietra
campofilone
campolieto
campolungo
campomaggiore
campomarino
camporotondo
campos
camus
can
canada
canal
canaria
cancellara
canciani
canillo
canis
cannes
cannesist
cannon
cantagallo
cantar
cantell
cantemos
canterbury
canth
cantiano
canto
canyon
cao
caomha
capcom
cape
caped
caper
capital
capo
cappella
capra
caprea
captain
captains
captive
car
carafa
carassai
caravelli
carbone
card
carduelis
care
career
carelia
carey
carib
caribbean
carinata
carita
carl
carla
carlantino
carlemany
carlist
carlo
carlos
carlsen
carmignano
carmine
carnage
carne
carnegie
carnot
carol
carolina
carolinast
caroline
carolus
carolyn
carovigno
carpegna
carpenter
carpenters
carpet
carrack
carrara
carretto
cars
carson
carter
cartman
cartoceto
cartoon
cartridge
cartwright
cary
cas
casa
casablanca
casacalenda
casalciprano
casale
casalini
casamicciola
casanova
cascading
case
caselle
casette
cash
casino
casle
caspers
cassero
cassiano
cassinost
castagna
castalda
castel
castelbellino
castelbottaccio
castelfidardo
castelgrande
castellana
castellaneta
castellano
castellaro
castelleone
castelletta
castelli
castellino
castello
castellost
castelluccio
castelmauro
castelmezzano
castelnuovo
castelplanio
castelraimondo
castelsantangelo
castelsaraceno
casti
castiglione
castiglioni
castignano
castillo
castle
castles
castorano
castre
castro
castronuovo
castropignano
casual
cat
cataldo
catalogue
catalonia
catalunya
catalysts
catania
cataniast
catch
cate
caterina
cathail
cathal
catherine
cattedrale
cattolica
catwings
caudata
caulfield
cause
cavallino
cavallo
cave
caveman
cavendish
cb
cc
cca
ccalat
ccee
cceelodde
cceemuora
cceevuovdij
cceevuovdijn
cceevyevdistiela
cceevyevdistiella
cceid
ccih
ccin
cciđ
ccuh
ccuhamna
ccuhijn
cd
cdot
ce
ceccanost
cech
cecil
cecilie
ceehi
ceehist
ceelha
cega
ceggust
ceglie
ceinnselaig
cekki
cekkid
cela
celenza
celianet
celiassa
celje
celju
celkkui
celkkuin
celkkust
celkkuu
celkkuuh
celkkuujeessa
celkkuujesa
cellach
cellacha
cellaigh
cellino
celtic
cenn
cenne
cent
center
cento
central
centrale
centre
centro
centros
centrostorico
centrum
century
ceratophaga
ceratopogonidae
cercemaggiore
cercepiccola
ceremony
cerignone
cerny
cerodontha
cerovec
cerqueto
cerreto
cersosimo
certosa
cervantes
cervaro
cesano
cesare
cese
cesium
cessapalombo
cesu
cet
cevzih
cevziđ
ch
cha
chadwick
chaffee
chagas
chain
chalfie
chalky
challenge
chamber
chamberlain
chamberlin
chambers
chamerion
chamonix
champ
champagne
champion
champions
championship
champollion
chan
chandler
chandrasekhara
chanel
chang
change
changing
channel
chante
chao
chaos
chaplin
chapman
chapter
charisma
charleroi
charles
charleston
charlie
charlotta
charlotte
charpentier
chase
chasing
chassagnard
chaudhuri
chauvin
che
cheerful
cheese
chemistry
chen
cheng
chengyuan
cher
cheremis
cherubini
chess
chester
chevalier
chi
chiaki
chiaravalle
chiarenti
chiaromonte
chicago
chicagost
chickasaw
chicken
chienti
chiesa
chiesanuova
child
childhood
children
chile
chilela
chilen
chileno
chilensis
chilest
china
chinese
chiostro
chirico
chironomidae
chironomus
chirosia
chisu
chiwetel
chiwon
chloris
cho
chocar
choe
choice
chongwen
chons
choque
chosen
chou
chow
chris
christian
christiane
christianian
christianiast
christie
christine
christmas
christoph
christopher
chronicles
chu
chuck
chucun
chuhou
churang
church
chuzhi
ci
cia
cicerbita
ciechanover
ciel
cielo
cieux
cih
cijotteemnia
cikia
cikin
cikua
cikuođhuid
cikuođhuu
cikuođhuuz
cilagga
cilievla
cilodeh
cimarosa
cin
cina
cincinnati
cincta
cinema
cinematronics
cinerea
cingoli
cingulata
cinque
cio
cipa
cira
circ
circle
circuit
circus
cirkovce
cis
cisa
cisi
cissa
cisternino
cite
cities
citta
cittadino
city
ciudadanos
civica
cividale
civil
civilization
civilizations
civita
civitacampomarano
civitanova
civitella
civkkas
civyeimila
ck
ckbo
ckby
cke
ckelby
ckelgra
ckelo
cken
cklax
cko
cks
cksichtigung
cladochaeta
claes
clancy
clank
clara
clari
clarke
clash
classic
classics
claude
claudia
claudio
clausen
clauser
clav
clavata
clayton
cle
clemens
clement
clemente
cleveland
clifford
climate
climber
clinton
clock
clone
clonfert
close
cloud
club
cluster
cm
cmi
cmx
cn
cnn
co
coast
cobol
coboldia
cobra
coca
coco
code
codename
coello
coenwulf
coetzee
coffee
coffin
coffman
cogan
cohen
coher
cokka
cokkiittij
col
cola
colbordolo
cold
cole
coleman
colle
collecroce
collected
collection
collector
college
collegest
collegiata
colless
collessi
colletet
colletorto
colli
collina
collins
collinsist
colmurano
colobostema
colobraro
colocarte
colombara
colombo
colonial
colonna
colony
color
colorado
coloradost
colores
colors
colossal
colossus
coltrane
columbia
columbo
columbus
com
combat
combatte
come
comes
coming
command
commander
commando
commerzbank
commewijne
committee
commodore
common
commons
commonsist
communis
como
company
compare
compatriots
compendiose
compilation
complete
compton
computer
computers
comunale
comunanza
comune
con
conakry
conca
concert
conchobar
conchubhar
concinna
concordia
conference
conflict
confusa
congalaig
conghou
congjian
congress
congxiao
congyan
congyi
connacht
connecticut
connecticutist
connie
connor
conquer
conqueror
conquest
conquests
conquis
conquistar
conrad
consagrar
consonant
conspiracy
constant
constantine
constitution
construction
construkction
contact
conte
contents
context
conti
continent
contra
contrada
contrast
controguerra
control
convento
convoca
conza
cook
cool
coolio
cooper
coppa
coppola
coquillett
cor
coral
corazo
cordeiro
cordell
core
coregonus
cori
corinaldo
coriolis
corleto
cormac
cormoran
cornell
cornuta
cornwall
coro
coromines
corona
coronie
corporation
corps
corpse
corpus
corrado
correia
corridonia
corso
corte
cortex
cortina
cos
cosh
cosimo
cosmic
cossali
cossignano
costa
costantino
costanzo
costaricensis
coste
costly
cot
cotonou
cottone
could
council
counselor
count
countdown
counter
country
countryla
countrymusikka
county
coupe
courage
courgette
courier
cours
court
cov
cover
covid
cowboys
cpc
craft
craig
cranston
crash
crassicornis
crazy
creation
creative
creatures
creed
creek
creeps
cremer
cresson
cricket
crime
crimes
crimetime
crimson
crimsona
crimsonist
crisis
crispiero
crispr
cristina
cristo
critical
croc
croce
crocette
crocifisso
crome
cropped
cross
crossbones
crossed
crossfire
crown
cruise
crusade
crusader
cruz
cry
cryme
crypt
crysis
crystal
cs
csc
cseremisz
cu
cua
cuatro
cuckoo
cue
cuello
cui
cultura
cultural
culture
cumberbatch
cumplir
cunningham
cuobbuid
cuobbuuh
cuoco
cuore
cuovkka
cuovkkij
cuozza
cuoŋŋuu
cup
cupa
cupra
cupramontana
cupramontanast
cupro
cur
curie
curl
curran
currie
curse
cursed
curtis
cut
cutthroats
cuvuođa
cyber
cybernoid
cygnus
cylindrica
cyngen
cyril
cyrus
cz
czerny
cœur
cœurs
d
da
dach
dade
dae
dag
daga
dagat
dagerrotypia
dagga
dagger
daglo
dagsmark
dah
dahba
daher
dahl
dahlin
dahooni
dahsaemiestiehleah
dai
daiddar
daigo
daily
daima
daisenryaku
dajven
dakar
dakota
dakotast
dal
dalby
dale
dalen
dali
dalkarby
dalkarlby
dall
dalla
dallas
dals
dalstro
daltese
dalton
dam
damage
dame
damna
dams
dan
dana
danbo
dance
dandelion
dane
danger
dangerous
daniel
dannebrog
danny
dans
dansbacka
danskarby
danskulla
dante
dao
daoying
daphne
dar
dare
darjodh
dark
darker
darkness
darlington
darryl
darude
darwin
daryl
das
dash
dat
data
date
datneba
datnesaemesthleah
dau
daugavpils
daughter
daughters
dava
davas
dave
david
davida
davidson
davies
davis
davison
davout
davvi
davvisa
davy
dawes
dawla
dawn
dawud
day
days
daytona
dba
dbollstad
dc
dd
dda
ddarbo
ddarby
ddarskog
ddejeh
ddejii
ddejui
ddejuvvojii
ddi
ddic
ddie
ddijnis
ddila
ddin
ddrag
ddu
dduluokah
dduluokkaast
dduluptiimist
dduluptim
ddurakettij
dduvyeimi
de
deacon
dead
deadly
dean
deapmi
dear
dearvan
dearvvuođat
death
deathly
debenedetti
debout
debra
debrecen
debrecenist
deception
dedo
dee
deeds
deep
deer
default
defcon
defend
defender
defienden
deflektor
defoliart
dega
degerby
degerbyst
degerdal
degerna
degero
degli
deh
dei
deijee
del
delaware
delawarest
delbru
delfiin
delfiineh
delfinado
delia
delilah
dell
della
dellala
delle
delta
deluxe
dem
demain
demanio
dementia
demille
demiseksuaalvuota
demja
demkua
demla
demokraatla
demokraatlii
demokraatlijn
demokratia
demokratian
demolition
demon
demtiettuu
demulmeh
demvyehi
den
dendrocopos
denis
denmark
denn
dennard
dennis
densetsu
dentata
denver
departamentos
departement
departementa
departementeh
depth
depths
der
derblom
derby
derek
derla
derlammala
dern
dernist
derrumben
dersunda
dersundvik
derudden
des
desalle
descent
desde
desert
design
desmond
desperado
desperados
dessa
destino
destiny
destroyer
destruction
desvoidy
det
detail
detained
detective
detroit
detto
deus
deuterium
deuterostomia
deutsche
deux
deuxie
developers
devil
devils
devise
devlin
devon
dexter
deyu
dezhao
dg
dhaka
dhe
di
diablo
diagnoos
diagnosistij
dialect
dialekt
dialekte
diama
diamond
diamphidicus
diana
diane
diarmaid
diarmait
diarmata
diary
dice
dich
dicha
diciendo
dickinson
dico
dictionary
did
dide
die
diedo
diego
diels
dies
diesbach
diet
dietrich
dieu
dievva
dieđalas
difesa
diftoŋ
diftoŋeh
diftoŋijd
dig
diga
digi
digikirjeh
digitaalla
digital
dignite
digyna
dih
dihkiegærja
dihkkegirja
dihkkegirjja
dii
diidada
dij
dijd
dijjiehba
dijjiehsaemiestidielidie
dijn
dijnis
dikarbo
diktaattor
dilatata
dilophus
dilsa
dim
dimbiejvve
dimensiottemes
dimus
din
dina
ding
dingbao
dinger
dinner
dino
dio
dioksid
diop
dios
diosa
diosgyo
diplom
diplomaat
diploom
dipoli
dipper
diptera
dir
dire
direct
director
directors
dirt
dis
disabilities
disabled
disciples
discipline
discogs
discontent
discordia
discworld
disgaea
dishonored
disko
diskografia
disney
dist
distans
distribution
district
disvuođa
disvuođah
dith
diva
diver
diversa
diversity
diversum
divide
divided
divil
divino
division
divisione
divo
divorce
divorcement
divrrasat
dix
dizzy
diđ
dj
dja
djamena
django
dje
djekenkulla
djibouti
djiboutist
djurvik
dka
dkarby
dkila
dlabdemreaktioi
dm
dma
dmc
dmin
dmist
dmitri
dmitry
dmuudon
dna
dnepropetrovsk
dnipro
dnipropetrovsk
do
doaivagiin
dobleguen
dobrava
dobrova
doc
dodge
dogma
dogs
dohkka
doi
doka
doki
dokument
dokumentelleekove
dokumentelleekovestivrejeijee
dokumentist
dol
dola
dolenja
dolenje
dolenji
dolichovespula
dolini
dolla
dollar
dollarid
dolores
dolos
domain
domarbo
domarby
domarga
dome
domenico
domestica
domesticus
domhnall
domination
dominica
dominikaanisa
domkirken
domna
domnaill
domnall
domo
domov
domstolar
domvik
don
dona
donaci
donald
donato
donde
done
donetsk
dongshan
donizetti
donkey
donn
donna
donnchad
donnchada
donnchadh
donne
donnera
donngaile
donovan
doo
doohan
doom
door
doors
dooseent
dopo
doppe
doppia
dora
dore
dorfstrasse
doris
dorothy
dorsalis
dory
dos
doseon
dou
double
doudna
douglas
douze
dov
dover
dovs
down
downes
downie
dozen
dr
dra
draama
dracula
draga
draghi
dragon
dragons
dragsfja
dragsvik
drakkhen
drama
dramatic
draogo
drapeau
drapo
draupadi
dream
dreamcast
dreaming
dreams
dreamworks
dres
drest
drew
dreyfus
drift
driv
drive
driver
drivin
dro
droit
droits
dronning
drop
drosophilidae
drouot
druckis
druk
drygsbo
dryocopus
ds
dsc
dsi
dso
dt
dtile
dtorp
du
dua
dual
duan
dub
dublin
dublinist
duboh
ducale
duck
duckhouse
ducommun
duda
dudes
due
duel
dufour
dug
duh
dui
duke
dula
dulvie
dulvve
dum
dumas
dumos
dumoseh
dun
dunant
duncan
dune
dungeon
dungeons
dunham
dunn
duo
duodaid
duoddara
duoddariid
duoddaris
duohta
duomo
duost
duottar
duplicata
duras
duration
durazzo
durch
duret
duria
during
duronia
dus
dusa
dusah
dusla
dusmet
dust
dustin
dut
dutch
dutcha
dutnje
duttij
duttiđ
duty
duv
duva
duvah
duvva
duvvan
duvvii
duvvojii
duvvoo
duzee
dvd
dvia
dvuota
dvuođa
dvuođah
dx
dya
dyar
dylan
dynamite
dynastia
dynasty
dz
dziedzicki
dziko
e
ea
each
eadni
eagle
eallima
eallin
eallingeardi
eana
eanan
earl
earth
earthling
earthsiege
east
eastern
easy
eat
eatnamat
eatnan
eaton
eaŋgalsgielas
ebadi
ebbo
ec
ecgberht
echinata
echtigern
eckero
ecko
eco
ecos
ecstasy
ecuador
ed
eda
eddie
ede
edeh
edeijee
edeijen
edelfelt
eden
edesniemi
edgar
edge
edh
edij
edinburgh
edis
edison
edit
edita
edition
editistem
editor
ediđ
edmond
edo
eds
edsevo
edsvik
edu
eduard
eduardo
education
edvard
edvin
edward
edwards
edwardsi
edwin
ee
eec
eeci
eed
eedeenna
eeh
eehid
eeji
eejis
eejist
eeki
eekikiela
eekist
eelih
eelij
eelijn
eellih
eellim
eellima
eellimahe
eellimkeerdi
eellimkerdi
eellimkua
eellimpa
eellimpiira
eellimpira
eellimpirra
eellimstis
eellimta
eellimua
eellimvua
eellimvyevih
eelliđ
eemeed
eemiir
eemil
een
eena
eeneeckiela
eeni
eenih
eenikiela
eenikiella
eenis
eenist
eenna
eerda
eereeb
eergi
eerik
eerikka
eero
eesti
eestieenna
eestiena
eestikiela
eestila
eestiliih
eeva
eevnih
eevnijd
eevris
eevđijd
eeđa
efekteh
effect
efter
eger
egg
egidio
egle
ego
egypt
egyptist
egyptla
egyptlijn
egyptolog
eh
ehida
ehidispeeivi
ehidist
ehtamo
ehto
ei
eide
eidu
eidusa
eidusiih
eight
eighty
eija
eijee
eijeeh
eijeid
eijen
eila
eileen
eilisesta
eilish
ein
einar
einari
einarsen
eine
einer
eino
einstein
einsteina
eira
eirast
eisele
eiskola
eistila
eivi
eiyuu
ejebegovlebegihtjebe
ejedegovledegihtjede
ejedengovledengihtjeden
ejedhgovledhgihtjedh
ejemgovlemgihtjem
ejhgovlhgihtjh
ejijægangovlijægangihtjijægan
ejiofor
ejistis
ejte
ekalin
ekanga
ekelund
ekena
ekero
ekki
ekkila
ekkoslovakia
ekkoslovakiala
ekkulla
ekna
ekniemi
eko
ekologa
ekonoma
ekonomia
ekonomiast
ekonomla
ekonoom
ekow
el
ela
elba
elc
elder
ele
eleanor
electro
electronic
electronics
elefantta
elegans
elektron
elektronegatiivla
elektroneh
elektroniik
elektronij
elektronijd
elektronisa
elektronkoora
elektronkoorah
elektronra
elena
elephant
eletta
elf
elfman
elgon
eli
elia
elias
eliel
elihu
elima
elimin
elimis
elimist
elimistis
elimo
elin
elina
elinor
eliot
elisa
elisabet
elisabeth
elise
elite
eliza
elizabeth
eljas
eljis
ella
elle
elled
ellee
elleeh
elleekoovees
elleekooveest
elleekova
elleekove
elleekovea
elleekovefestivaal
elleekovefestivaalist
elleekoveh
elleekovejuuhlijn
elleekovekarrieer
elleekovekieta
elleekovepalha
elleekovepyevtitteijee
elleekovera
elleekoveroola
elleekovestivrejeijee
elleekovesyergi
elleekoveteatterijn
elleekovveed
elleekuuvij
elleekuuvijd
elleekuuvijn
elleeplankton
elleeplaŋkton
elleerava
elleeriehtipia
elleesiilba
elleesilba
ellei
elleid
ellein
ellen
eller
elli
ellii
ellinen
elliot
ellis
ellola
ellos
elm
elmdal
elmer
elmna
elmo
elna
elof
eloma
elonet
elorinne
elpidio
elsa
else
elsi
elvezia
elvira
elvis
elvsjo
em
ema
emanuel
emanuele
emerald
emerita
emerson
emi
emil
emile
emilia
emiliast
emilio
emily
emkarby
emkua
emma
emmanuel
emmanuelle
emmerson
emmetalla
emmy
empapad
empire
empires
emsalo
en
ena
enala
encamp
encendidos
enchanted
encore
encounter
encounters
encyclopedia
end
endangered
endeemla
enderlein
endless
ene
enemigo
enemy
energia
energian
enfants
engel
engelsby
engi
engine
engisby
england
englanda
english
englund
engordany
enijnis
enix
enjh
enke
enklinge
enkoski
enkyla
enma
enna
enne
ennen
ennenda
enni
ennijn
ennikiella
ennust
ennusta
ennuu
ennuv
ennuvgin
eno
enoin
enokunta
enolahti
enonkoski
enonkoskist
enonsalo
enpa
ensamble
ensen
ensimma
entaka
enter
entertainment
entex
entre
enwald
eo
ep
epaala
epic
epidemia
epidemiah
epidemiast
epidij
epijiec
epimeetaal
epimetalleh
epimia
epiorgaanla
epis
episcopia
episode
epista
epita
epitieva
epituota
epivirga
epivises
epoo
epper
eppi
eppin
er
era
eraserhead
erchie
erda
erde
erecta
eren
erenkov
eres
ereskin
eresla
ereslasseen
eresna
eric
erich
ericsson
erik
erika
eriksdal
eriksen
eriksna
eritrea
eritreala
erja
erkasy
erkki
erkyla
erlanger
erlingsson
ernaux
ernest
ernholm
ernihiv
ernivtsi
erno
ernst
ero
eroma
erres
errih
erriheh
errihist
ersa
ersby
ertpeelijn
ertpeleh
ertra
erutta
eruuđa
ervastbo
ervasto
ervela
ervi
erwin
erythropus
es
esa
esaias
esaki
esakii
esanatoglia
esc
escaldes
escape
eschen
esclavo
esclavos
escribio
escudo
escupan
ese
esi
esiva
eska
esken
eskil
eskin
eskis
esko
eskola
eso
espada
espan
espanja
espanjac
espanjakiela
espanjala
espanjaliih
espanjalijn
espanjan
espanjast
espanjataavda
espanjatavda
espe
esperanto
esperantokiela
espings
espinosa
esplendor
espoo
espoost
espronceda
esquivan
esquivel
essa
essays
esse
essebsi
esseec
esseeh
esseid
essex
est
esta
estampe
estby
este
esteban
ester
esterno
estes
estiđ
esto
estonia
estonian
estournelles
estruendo
estudios
eswatini
et
ete
etebelaavkobeguarkebebi
etedelaavkodeguarkedebi
etedenlaavkodenguarkedenbi
etedhlaavkodhguarkedhbi
eteh
etela
etele
etern
eternal
eternity
eterno
ethnologue
etiehlaavkoehguarkahbi
etiehlaavkoehguarkoehbiejiehgovloehgihtjieh
etiejæganlaavkoejæganguarkajæganbi
etienlaavkoenguarkanbiejiengovloengihtjien
etima
etiopia
etiopiala
etna
etnisa
etola
eton
etpeln
etpia
etroobda
etsa
etsi
etta
etter
ettum
etty
eu
eucken
eugene
eugenio
euler
eura
euraasia
euraasiala
euraasiast
eurajoki
eurajokist
eurakoski
euran
eurasia
eurasiast
eurast
eure
euro
eurocom
eurod
eurokua
euroop
euroopa
euroopan
euroopist
euroopla
eurooplii
eurooplij
europa
europaeus
europe
european
euroviisuh
eux
eva
evakko
evakkon
evakuistojii
evakuistum
evaluistee
evan
evandrost
evangelium
evangeliumist
evans
evardnadze
eve
evelyn
evening
event
ever
everest
evert
every
everybody
everything
everywhere
evetja
evija
evil
evind
evinsalo
evje
evo
evolution
evolved
evz
evđiellee
evđielleeh
evđiellen
evđikaardijn
evđimuoca
evđimuosa
ewe
ex
exalt
excludedcategories
excludedtemplates
excoluisse
exechia
exemplary
exhalar
exigua
exile
existan
exit
exoddus
exodus
expanded
expansion
experience
experiment
exploding
explorer
expo
express
expression
extase
extra
extran
extranjera
exupe
eye
eyes
eymu
eyvind
ez
ezi
eziokwu
eđa
eŋg
eŋga
eŋgelat
eŋla
eŋland
eŋlanda
eŋlandist
eŋlandla
eŋlandlii
f
fa
faala
faalla
faarpa
faasaan
faaŋga
fabio
fable
fabri
fabriano
fabricius
fabrik
fabrikkua
fabrizio
fabulous
facciata
face
facebook
facebookist
faces
factbook
facts
faelan
faenzast
faetano
fagerholm
fagerkulla
fagerna
fair
fairlight
fairy
faith
falck
falco
falcon
falconara
falerone
falkberg
falklandsuolluin
fall
fallax
fallbo
falle
fallen
fallie
fallii
fallout
falls
false
fame
famen
family
famous
fan
fang
fanij
fanning
fanningist
fanny
fano
fans
fantasiakirjera
fantasies
fantastic
fantasy
fantsna
far
fardella
farewell
fargga
farm
farno
farnsworth
faroe
farrah
fartyal
fas
fasano
fasciata
fascipennis
fashion
fasin
faso
fasost
fast
fasta
fatal
fate
father
fathers
faure
favor
favorite
fawcett
faz
faŋga
fbi
fc
fe
fear
fears
febbraio
fecunda
fed
federico
federley
feeding
feeila
feeilah
feeriimijd
feerim
feet
feila
feilij
feist
feklama
fele
felice
felicita
felipe
felix
feliz
fell
fellow
fels
feltria
fem
female
feminist
femme
feng
fengji
fennia
fenno
fennoskandia
fennoskandiast
feodoroff
feodoroffa
ferdinand
fergola
ferguson
ferm
fermana
fermignano
fermo
fermost
ferna
fernando
ferneiella
ferrarast
ferrazzano
ferrer
ferri
ferriitin
ferro
ferromagneetla
ferruginea
ferry
fertile
ferttee
ferttejeh
ferttejii
ferttiic
ferttij
ferttim
fest
festiva
festivaal
festivaala
festivaalist
festival
feu
ffaja
fgren
fi
fia
fiachrach
fiastra
fiastrone
fib
fichte
fiction
fiddler
fide
fidz
field
fields
fiera
fiers
fifa
fight
fighter
fighters
fighting
figma
figueiredo
figueroa
fiijna
fiilma
fiinaal
fiji
fijna
fikk
fiktiivla
filantropist
file
filhos
fili
filiano
filinkova
filipe
filippiineh
filippiinij
filippo
filix
fill
fille
filles
film
filma
filmdatabas
filmografia
filolog
filosof
filosofia
filottrano
filppula
fils
filzbach
fin
final
finala
finaleh
finalist
finbo
finby
fincke
find
fine
fingers
finholma
finiitliih
finites
finkulla
finland
finlandia
finlands
finlex
finmarken
finn
finna
finnarv
finnbacka
finnbo
finnby
finneas
finnee
finnejeh
finnejii
finnii
finniic
finniis
finnij
finnijn
finnim
finnimna
finnish
finniđ
finnmark
finnmarkist
finno
finnoda
finnoduv
finnoduva
finnoduvah
finnoduvva
finnudden
finsjo
finska
finskyla
finstro
fionn
fiordimonte
fiorentino
fire
firelight
firenze
firenzela
firenzest
firm
firmament
first
fischer
fish
fisher
fishing
fiska
fiskari
fiskars
fiske
fiskis
fiskisjyelgc
fiskiskirja
fiskisla
fiskismaijuukaali
fiskispes
fiskisrua
fiskissia
fisko
fist
fittkau
fitzgerald
fiume
fiuminata
five
fizz
fja
fjodorovna
flag
flags
flagstaff
flaithbertaigh
flaithbheartaigh
flaka
flame
flander
flandera
flann
flash
flashback
flat
flava
flavia
flavicornis
flavipes
flaviventris
fleming
flesh
flickan
flickr
flight
flink
fliso
flodoard
flood
floor
florence
florida
floridast
flossbo
flower
flowers
flowing
floyd
flugbo
fluori
fluorijn
fluorist
fly
flying
flyt
flytrap
flyttsamelag
fm
fo
focus
fodder
fodiens
foes
fofonoff
foglia
fognini
foi
folch
folignano
folignost
folk
folkemedisin
folkmusikka
folkrock
folkskolla
folsom
fon
fonda
fonetiik
fonkiela
fontana
fontanelle
fonte
fontsize
food
fool
fooneetla
football
for
forbidden
force
forcella
forces
forcipata
ford
fore
forenza
forest
foresta
forever
forfod
forga
forget
forgetful
forgotten
forli
form
formaalla
formons
formosa
formosus
formula
fornace
fornaci
forney
forsbacka
forsby
forsius
forsman
forssa
forssast
fort
forte
forth
fortificato
fortifie
fortress
forts
fortuna
fortunato
fortune
fortunes
forza
foschini
fosfor
fossalto
fossato
fosse
fosso
fossombrone
foster
foto
fotosyntees
foudila
foula
foundation
four
fourah
fourth
fowlds
fowler
fox
foxtrot
foyers
fra
frac
fractured
fragile
framed
franc
franca
francan
francavilla
france
frances
francescano
francesco
francis
francisco
franciscost
francoeur
frank
frankenstein
frankie
frankium
frankivsk
frankkila
frankkilij
franklin
frans
franz
fraser
fraternite
fratta
fratte
fre
frebbenby
fred
freddie
freddy
frederick
frederik
fredrik
free
freedom
freeman
freemani
freetown
freie
freiheit
frentani
frente
fretti
frey
frick
fridtjof
friedrich
friend
friends
friendship
friggesby
frigida
friis
friisila
friitala
frilla
friman
fripp
frippa
frippist
frithjof
fritz
friuli
friulist
fro
frogger
froh
from
fromme
front
frontale
frontier
frontino
frontone
frosolone
frost
frosta
frozen
fruit
fruits
frullani
fs
fsby
ft
fto
fu
fue
fuera
fuerteventura
fuguang
fujita
fujiwara
fukui
fulanikiela
full
fullereen
fullereenist
fulva
fulvipes
fulvithorax
fumio
fumipennis
fun
functions
funeral
funerals
funk
funktio
funktioh
funktioi
funktioid
funktionaalla
furat
furious
fursta
fury
fusca
fuscipes
fust
future
futuro
fuusioreaktio
fuusioreaktiost
fuusiost
fuutur
fuyutsugu
fwe
fx
fylkeslag
fysika
fysikaalla
fysikka
fysiolog
fysiologia
fyysiik
fyysiikpalha
fyysilii
g
ga
gaajhkesi
gaalast
gabicce
gabna
gabon
gabor
gaborone
gabriel
gabriela
gabrielle
gabrje
gad
gadolin
gaetana
gaetano
gage
gagliole
gaiden
gaire
gakharia
gal
galactic
galactica
galaga
galaxy
galdo
gale
galgga
galiciala
galilei
galileo
galkina
gallery
gallicchio
gallium
gallo
galtarby
galtby
gama
gamal
gambatesa
gambia
game
gamecube
gameljne
games
gamescom
gamlebyen
gammelbacka
gammelboda
gammelby
gammelga
gamprin
gamsakhurdia
gan
gao
garci
garde
garden
gardner
garg
gargano
garmisch
garou
garrett
gars
garsbo
gary
gas
gaskaijagirjera
gaskiya
gason
gaston
gata
gate
gates
gathering
gauna
gauntlet
gaup
gauriloff
gauriloffa
gavin
gaza
gazzetta
gba
gbacka
gbe
gben
gbif
gbo
gbogbo
gbowee
gbu
gby
gdc
ge
geaidnosta
geaidnu
gear
gears
geassai
geavva
geddon
gee
geenitotkee
gees
geh
geijee
geim
gekijouban
gellar
gels
gelvik
gem
gemeinde
gemeindehaus
gemini
gemmano
gen
genbo
gender
gene
general
generation
generator
genesis
genetic
geneve
genga
geniculata
genius
genna
gennaio
genome
genova
genovast
genovese
gent
gentil
gentili
gentlemen
genzano
geo
geodeet
geoffrey
geograph
geographic
georg
george
georges
georgia
georgiala
georgiast
geos
ger
gera
gerald
gerby
gerd
gerhard
gerkna
germaanla
german
germanium
germany
germundo
germundsvedja
gerrit
gerroos
gerry
gertrud
gerty
gervasio
gesetz
gesterby
get
geta
getast
getberg
getting
gg
gga
ggais
ggbo
ggesbo
ggi
ggimonni
ggin
ggiđ
ggna
ggoid
ggojohtimiid
ggu
ggum
ghana
ghanala
ghanaliih
ghanast
gherardini
ghost
ghostbusters
ghosts
gi
gia
giacomo
giambattista
gianni
giardini
gibb
giberto
gibraltar
gibraltarc
gida
giddavuonnjat
gide
giedat
giella
giellaeala
giellagas
gierasch
gievrie
gif
gifts
giga
gigas
giger
gigi
gih
gii
giitevas
giitu
gij
gijd
gilbert
gildone
giles
gilla
gilles
gillespie
gillobacka
gilmour
gimmerthal
gin
ginesio
ginesiost
ginestra
ginga
ginsburg
gioacchino
giordani
giorgi
giorgia
giorgio
giovanni
giove
giovedi
girjec
girjegiisa
girji
girjja
girl
girls
girma
girolamo
giron
girradullve
girvasra
gist
git
gitega
giuliano
giuliari
giuliast
giuseppe
giustino
giusto
giv
give
gizmondo
giđđa
giđđala
gje
gjellerup
gk
gks
gl
gla
glam
glarnerland
glarus
glarusnord
glasgow
glashow
glass
glenn
glitterscenen
glo
global
globalis
globe
glodda
gloire
gloria
glorioso
glorious
glory
glossar
glottolog
glover
glu
glukhov
gmajna
gmo
gna
gnassingbe
gnome
go
goabdes
goahti
goal
goalsenja
goaskinviellja
goavddis
goađastallan
goblet
gobliins
goblins
god
godby
goddard
goddesa
goddesses
godelsjo
godfrey
godnatt
gods
godwin
godzilla
goeppert
goes
goetghebuer
gohtet
going
gojt
goku
golbma
gold
goldberg
golden
goldrunner
golf
golfo
golfvirde
golleva
golme
golmma
golob
golpe
golubeva
gomera
gomerast
gomero
gomerost
gone
gonts
gonza
good
goodbye
goodenough
goose
gora
goran
gorbats
gordon
gore
gorenja
gorenje
gorenji
gorgoglione
goric
gorica
gorozia
gorut
goryeo
gos
gospel
got
gotlandist
gott
gottbo
gottby
gottlieb
gottorp
gourrier
gov
goza
gozar
gozo
gpa
gra
graafeen
graafiit
grabbacka
grabbskog
grac
grace
gracie
gracilis
graciosa
grad
gradara
gradec
gradis
gradu
grady
grafenist
graffiti
grafikka
grafitist
graham
grahame
grain
graiul
gramma
grammar
grammatica
grammatical
grammatik
grammatikk
grammy
gran
grana
granberg
granboda
grand
grande
grandeza
grano
grant
granvik
grany
grapes
graphics
gras
grass
grau
grauen
grave
gravitaatio
gravitaatiostaađa
gravity
gray
grazie
grc
great
greater
greatest
greekkig
green
greene
greenlaw
greenville
greg
gregor
gregoriaanla
gregorio
gregorius
grelsby
gremlin
gremlins
gren
grenada
grenadiineh
greta
grey
grier
griffith
griffiths
grifo
grigol
grimaldi
grimano
grimm
grimrock
grimshaw
grindelwald
gripsbo
grisans
grisbo
grisescens
grissom
grito
grm
gro
groening
grop
gros
groschke
gross
grotbacka
grottaferratast
grottammare
grottammarest
grottazzolina
ground
group
grow
gru
grubbs
grumento
grundsjo
grundstro
grundsunda
grundtra
grus
gs
gsa
gsar
gt
gu
gua
guado
guagnano
guaire
guaktahba
guaktahsaemiestæganlægan
gualae
gualdo
guam
guamensis
guan
guangye
guanxiu
guanzhi
guaranikiela
guard
guardia
guardialfiera
guardian
guardians
guardiaregia
guatemala
guatemalala
guatemalast
guayana
gudnedoavttirin
gudnejahtatgo
gudni
guerra
guerrero
guess
guglielmo
guglionesi
guha
guhkkin
guhtur
gui
guid
guide
guila
guild
guillaume
guillemin
guin
guinea
guinealuovta
guinness
guirnaldas
guitar
gujht
guktie
gula
gulag
gulbme
guldal
gulf
guliih
gullievoepte
gullkrona
gulo
gumbacka
gumbo
gummerus
gumna
gun
gundby
gunn
gunnar
gunnars
gunnarsby
gunnarskulla
gunnarsna
gunnila
guns
gunship
guo
guoldu
guossa
guovssahasat
guovz
gupta
gurnah
gus
gusenleitner
guskirje
gussdal
gust
gustaf
gustafsson
gustav
gustave
gustavo
gutsy
guttorm
guttormsen
guvlui
guy
guyana
guðjo
guðnado
gx
gyeongmun
gyeongsun
gyllenhaal
gylto
gyo
gyttja
gælok
gærja
gəbu
gəmja
gərma
h
ha
haaha
haahkala
haaja
haajainen
haajaiskyla
haajaissyda
haakanala
haakon
haalda
haali
haalijd
haamij
haamijd
haamijn
haamma
haankyla
haanpera
haapainen
haapaja
haapajoki
haapakimola
haapakoski
haapakyla
haapala
haapalahti
haapama
haapanala
haapaniemi
haapasaari
haapasalmi
haapasalo
haapataipale
haapavesi
haapavesist
haapi
haapimaa
haapist
haapkyla
haapoja
haara
haaraja
haarakallio
haarja
haarla
haaro
haaroinen
haas
haatala
haatila
haavemaasta
haavij
haavijd
haavisto
habarovsk
haber
habsburg
hacer
hacker
hackett
hackman
haddbo
hadde
haddna
hade
hadvala
haenni
haga
hagalund
hahkala
hahkiala
hahmaja
hahtipera
haihara
haijainen
haikala
haikarila
haikka
haikkaanlahti
haikola
hail
haile
hailila
hailuoto
hailuotost
haimila
hainari
haine
haines
haistila
haiti
haitula
haja
hakala
hakima
hakkala
hakkarainen
hakkaraisen
hakkarala
hakkenpa
hakkila
hakoila
hakola
hakosalmi
hakula
hakulila
hakusho
hakuteos
hala
halda
haldane
haldis
halesma
half
hali
halida
haliday
halijda
halijdeh
halijdic
halijdii
halijdij
halikko
halikkola
halikkost
halila
halivaara
halki
halkia
halkivaha
hall
halla
hallayo
halldo
hallela
hallett
hallila
hallilanma
hallinpenkki
hallinto
hallitus
halloween
hallows
hallvard
halmeja
halmeniemi
halo
halogeen
halogeenij
halogeenijn
haloila
halola
halonen
haloniemi
halso
halsua
halsuast
haltia
halttula
halvari
halvdels
halvt
ham
hama
hamari
hambur
hamburger
hamburgist
hameenlinna
hamilton
hamina
hammarland
hammarlandist
hammarsboda
hammarskjo
hammarudda
hammaskallio
hammer
hammiima
hammiitta
hammim
hammiđ
hampshire
hampshirest
hampula
hampus
hamsun
hamula
han
hand
handby
handmaid
hands
hang
hangasma
hangastenmaa
hangelby
hangist
hangon
hangslax
hanhija
hanhijoki
hanhikemppi
hanhikoski
hanhineva
hanhitaipale
hanhivaara
hanho
hank
hanka
hankaa
hankaanpera
hankala
hankama
hankasalmi
hankasalmist
hankavaara
hankavesi
hankkila
hanko
hankost
hankuri
hanna
hannah
hannele
hannes
hannigan
hanninkyla
hannolanpelto
hannu
hannula
hans
hansa
hansakaavpugist
hansalito
hansen
hanski
hantikiela
hanzhi
hao
hapitteijen
hapittemloho
happamoituminen
happened
happi
happier
happijn
happiness
happy
har
hara
harainen
harald
haraldsby
haraldsholm
harare
haravankyla
harbour
hard
harder
hardship
hardy
hardyi
harhala
harjavalta
harjavaltast
harju
harjuja
harjumaa
harjunkyla
harjunmaa
harjunpa
harkova
harlem
harley
harlu
harmaa
harmaala
harmoinen
harola
harold
harparskog
harpoon
harppuc
harri
harrier
harris
harrisi
harrison
harrisoni
harrstro
harry
harshavarman
hartaanselka
hartikkala
hartley
hartman
hartoinen
hartola
hartolast
haruhisa
harvaluoto
harvard
harvest
harvey
harviala
harvii
harvs
has
hasegawa
haseman
haskell
haslen
haslena
haslumseter
hasoru
hassala
hassan
hasselmann
hassi
hassu
hassut
hast
hasta
hastersboda
hasula
hat
hatchett
hate
hatim
hatsola
hattelmala
hattula
hattulan
hattulast
hattusaari
hattuvaara
hatula
hau
haudankorva
haugland
hauhiala
hauho
hauhula
haukanmaa
haukija
haukila
haukilahti
haukiniemi
haukipudas
haukivaara
haukivesi
haukivuori
haukivuorist
haukka
haukkakorhola
haukkala
haukkamaa
hauklappi
hauman
haunia
haunting
haurala
hauranki
haus
hausja
hauska
haut
hauta
hautaja
hautakyla
hautja
hautolahti
hauvala
hauvola
havaiji
havaijist
havdaja
have
havel
haver
haveri
havero
havet
having
havinki
haviokoski
haviseva
havoc
havola
havtra
havu
havuma
havvuusta
hawai
hawaii
hawk
hawke
hawking
hawomersleya
hawortha
hay
haza
hazan
hc
hd
hde
hden
hdet
hdyspohja
he
head
heading
heads
heaika
healthy
heandarat
hearra
heart
hearts
hearva
heat
heath
heathen
heather
heaven
heavy
heck
hedmark
hedy
heeger
heeja
heels
heemecht
heenda
heenna
heerkih
heerkiht
heervah
heeđa
heffley
hege
hegel
heh
hehren
hehtaar
hehtaarid
hehtaarist
heidi
heights
heightsist
heijala
heikberg
heike
heikel
heikinma
heikinpoika
heikka
heikki
heikkila
heikkinen
heikkola
heikkolankangas
heikkurila
heikoinen
heikola
heimala
heimdal
heimdall
heimola
heimos
heina
heinija
heinijoki
heininen
heinisto
heinjokist
heinlahti
heinlein
heinola
heinolahti
heinoniemi
heinoo
heinrich
heinu
heinutsuu
heir
heisala
heisenberg
heiskanen
heittola
heivejeh
heiviitta
heiviittui
heiviittuu
heizei
heja
helala
helander
helen
helena
helene
heleomyzidae
helge
helgeboda
heli
helium
heliumaatoom
heliumist
hell
hella
helle
hellesby
hellestorp
hellila
hello
hellso
hellste
helmi
help
helppanala
helsig
helsiga
helsigist
helsingby
helsingfors
helsingin
helsinginkyla
helsinki
helttula
helyla
hem
hema
hembo
hemingway
hemminkila
hemmola
hemsworth
hemulii
hen
hena
hendel
henderson
hendrik
henjo
henley
henna
hennig
hennijoki
henning
henri
henrik
henry
hentola
hentunen
hepburn
hepburnist
hepojoki
heponiemi
her
hera
herama
herbert
hercegovina
hercules
here
heretic
hergenrother
hering
heritage
herkis
herlofsen
hermala
herman
hermann
hermanos
hermansena
hermione
hermit
hermosa
hermula
herneja
hero
heroes
heroico
heroicos
heroism
heroquest
herra
herrala
herrarna
herrene
herrera
herrn
herschel
hershko
herskedala
hersku
herson
herta
hertsbo
hertta
herttola
herttua
herttuala
herttuatar
herttula
hertz
herva
hervanta
hess
hesse
het
hetero
heterosfa
hettee
heungdeok
heureux
heva
hevonkoski
hevonoja
hevonpa
hevonselka
hevosoja
hevossaari
hevossalo
hevva
hexen
heydər
heyrovsky
heyse
hezboch
heđa
hha
hhojeh
hhojii
hhoo
hi
hia
hibernian
hideki
hidima
hidoisenpyo
hiduplah
hiedo
hiemalis
hieroglyfeh
hieronymus
hierro
hietainen
hietaja
hietakyla
hietala
hietalahti
hietama
hietamies
hietana
hietaniemi
high
highway
hih
hihna
hihnala
hiidenvainio
hiippavuori
hiirenja
hiirenoja
hiirija
hiirima
hiirla
hiiroinen
hiirola
hiironen
hiirsa
hiirsah
hiisi
hiisma
hiitola
hiitolast
hiittinen
hiittisii
hiittisiist
hiivala
hiivaniemi
hiivij
hiivola
hijo
hijos
hijven
hikia
hikka
hila
hilaba
hilda
hildur
hilgo
hilgoi
hilja
hill
hilla
hilleinen
hiller
hilli
hillila
hilloinen
hillon
hills
hiloosta
hiltula
him
himahuuha
himainen
himalaja
himalansaari
himanka
himno
himoinen
himottula
hindersbo
hindersby
hindha
hindrabo
hindsby
hinganmaa
hinkkala
hinkmar
hinnerjoki
hinnerjokist
hinnuri
hinsala
hinthaara
hintikkala
hintsala
hintsholm
hipanlahti
hiphop
hippi
hiragana
hirdal
hirma
hirmosstorma
hirmula
hiroshi
hirs
hirsa
hirsala
hirsila
hirsja
hirssa
hirsund
hirtolahti
hirvas
hirvasvuopio
hirvela
hirvenlahti
hirvenoja
hirvensalmi
hirvensalmist
hirvihaara
hirvija
hirvijoki
hirvikallio
hirvikoski
hirvilahti
hirviniemi
hirvisaari
hirvoinen
hirvola
hirvonen
his
hispaniola
hispida
hist
histim
histo
histoire
historia
historiaa
historiaan
historja
historjistee
history
hisvuota
hit
hita
hitis
hitler
hitman
hitola
hits
hitumaa
hiukkaa
hiv
hivand
hivatal
hiđa
hiđes
hja
hjaaskon
hjalmar
hjolga
hjorto
hjua
hka
hkadit
hke
hkeh
hki
hkia
hkineh
hkis
hkisua
hkitoima
hko
hkodde
hkoddeest
hku
hkua
hl
hla
hlaaha
hlaava
hlberg
hle
hlehorn
hlodda
hlodde
hluuvijn
hlyes
hmelnytskyi
hmustiela
hmuusik
hne
hnjaarga
hnjarga
hnjus
hnpiegga
hnuba
ho
hobbies
hobbit
hoch
hockey
hodgkin
hodos
hogan
hogar
hogs
hogwarts
hoho
hoi
hoilola
hoipala
hoitta
hoivala
hoka
hokka
hokkaido
hold
hole
holiday
holland
hollande
hollandist
hollandkiela
hollandla
hollola
hollolast
hollstens
hollywood
hollywooda
hollywoodist
holm
holma
holmberg
holmberga
holmegilkappel
holmes
holmgren
holmoos
holonyak
holopainen
holoplagia
holst
holstein
holvastbo
holy
homage
hombre
home
homel
homeland
homer
homeworld
homma
hommana
hommansby
homme
hommes
homo
homoh
homosfa
hondo
honduras
hong
hongisto
hongjin
hongjing
hongxin
honkaja
honkajoki
honkajokist
honkakoski
honkakyla
honkala
honkapyo
honkasalo
honkilahti
honkilahtist
honko
honkola
honolulu
honor
honore
honorius
honour
honskby
hood
hook
hoon
hooper
hoople
hoops
hooteel
hoovda
hop
hope
hopkins
hoppa
hopper
hopsala
hora
horaga
hordes
horinen
horisontaalla
horizon
horja
hormis
horn
horo
horontaipale
horri
horror
horse
horsholma
horta
horttera
hostrup
hot
hotakainen
hotel
hotella
hotelli
hotellist
hotelo
hotels
hotu
houghton
houhaja
houma
hounds
hour
hours
house
housest
houssay
houston
houtsala
houtskari
houtskarist
hova
hovda
hovdimlaava
hovdimtooima
hovga
hovi
hovirievtih
hovirinta
how
howard
howe
hoy
hoyle
hoŋkoŋ
hpa
hpi
hpita
hppes
hrastje
hregister
hregistera
hria
hrib
hriehti
hriehtid
hrievtih
hromu
hromy
hrus
hrvoje
hs
hsaje
hskia
ht
hta
htaavda
hte
hteba
htee
hteeh
hteenkyla
hteenma
hteenoja
htein
hten
hter
htesaemestelea
hti
htih
htile
htim
htima
htimin
htimist
htimta
htipitta
htiriddo
htirido
htis
htitivga
htiđ
html
htoima
htojeh
htojii
htoo
htooima
htooimah
htta
htte
htti
httnam
htto
http
https
httu
htu
htua
htui
htuin
htula
htulii
htum
htume
htumeh
htun
htus
htusa
htusah
htuseh
htusist
htussa
htuu
htuumijn
htuva
htuveh
htuvvee
hu
hua
huang
hubert
hudson
huggins
hughes
hugo
huhta
huhtaa
huhtala
huhtama
huhti
huhtimaa
huhus
hui
huiguo
huikuri
huilo
huilu
huit
huitila
huittinen
huittisii
huittisiist
huittistenkyla
huittula
huivoo
huja
hujakkala
hujala
hukkala
huksee
huksejii
huksejui
huksejum
huksiimist
huksiis
huksiitta
huksiittij
huksij
huksim
huksimamna
huksimmia
huksiđ
hulaus
huldresteinen
hulipas
huljala
hulkkio
hulkkola
hull
hullby
hullunkurinen
hullus
hulmuuh
hulta
hulttila
hulvela
humalaniemi
humaloja
human
humanistla
humanite
humans
hume
humea
humeralis
humikkala
humleholm
hummelsund
hummerkila
hummerso
humoristla
humphrey
humppila
humppilast
hunde
hundred
hungarica
hunger
hungerla
hungry
hunky
hunsala
hunt
hunter
huntila
hunting
huntington
huo
huola
huolhijdis
huoli
huomanninkyla
huomola
huopainen
huopana
huopioniemi
huopola
huovaristo
huovila
huovilansalmi
huovinen
hurec
hurissalo
hurjan
hurrila
hurskala
hurt
hurttala
huruinen
hurula
hurunkorpi
hus
husa
husat
huseh
huset
hush
husist
huso
hussein
hust
husula
hutkos
huttala
hutton
huttula
huttunen
huuhkaala
huukainen
huutka
huuvari
huxley
hva
hveen
hvem
hvi
hybrideh
hydra
hydraateh
hydroksidioni
hyejong
hyelhih
hyelkki
hyenebeht
hyeneeb
hyeneeht
hyenemus
hyenes
hyeni
hykkerla
hykkila
hyko
hylkila
hyllila
hyllykallio
hylta
hymn
hymns
hynnila
hyo
hyogong
hyperboreus
hypo
hypoteetla
hypotenuusa
hyppa
hyppeinen
hyppeis
hyrka
hyrkka
hyrkko
hyrko
hyrsyla
hyrva
hyrynsalmi
hyrynsalmist
hyssa
hyto
hyttila
hyva
hyvela
hyvikka
hyvinka
hyynila
hyypia
hyyppa
hyyryla
hætta
hđula
hđulii
hđuliih
hđulijd
hđuttem
i
ia
iaea
ian
ianni
iar
ib
iba
ibanez
ibbas
ibbeerd
iberdij
iberdiđ
iberdum
iberia
ibi
ibmon
ibmu
ibn
iboo
ibrahim
ibuma
ibəy
ic
ica
iccu
ice
ich
ichi
ichijo
ichiro
ickabog
icon
icrc
icu
id
ida
idaho
idahost
idda
ide
idea
ideaalkaasu
ideaid
ideal
ideas
identiteet
identity
identliih
idi
idis
idiskuin
idiđ
idja
idjagieđas
idnasat
idols
idriss
idrissa
idstro
idu
idudum
idula
iduttii
iduttum
idyt
ie
ieee
iega
ieha
iehc
ielga
ielgee
ielgejum
ielgi
ielgiimist
ielgiitta
ielgij
ielgimielga
ielgist
ielgita
ielgiđ
iep
ies
ietaka
iev
ieva
ievra
ievta
ievva
iez
if
ife
iga
igbe
igboya
ige
igec
igema
iggy
igi
igic
igidem
igih
igiha
igijn
igikooska
igikyevdilis
igilovo
igimuddo
igimuudon
igin
igioornigist
igipaje
igis
igist
igistis
igna
ignacy
igodat
igor
igu
iguh
igui
iguin
igum
igus
igusa
igutta
ih
iha
ihaksela
ihala
ihalainen
ihalempi
ihama
ihamaa
ihamaniemi
ihastja
ihe
ihec
ihelove
iheluuvij
iheluuvijn
ihenmatka
ihepele
ihes
ihetuhha
ihheed
ihi
ihih
ihist
ihistis
ihittemesvuođa
ihli
ihlikia
ihmiselle
ihmisen
ihmisoikeusliiton
iho
ihode
ihui
ii
iida
iihola
iii
iiiiiiivvvi
iija
iiljon
iilva
iina
iinainen
iinattija
iira
iirikiela
iiroinen
iirola
iisakki
iisalmi
iist
iitia
iitlahti
iittala
iitti
iittist
iivanala
iivantiira
iivga
iivgah
iivij
iivijd
iivijn
iivne
iivnijd
iiđa
iiđeed
iiđij
iiŋa
ij
ija
ijahis
ijd
ijejeh
ijejum
ijge
iji
ijih
ijiha
ijiheh
ijihist
ijihja
ijihjoorŋa
ijihkeđgi
ijihpoolva
ijihpoolvah
ijihs
ijihsuollust
ijihsuolluu
ijin
ijja
ijminister
ijministerio
ijn
ijojeh
ijojii
ijoo
iju
ijum
ijun
ijuv
ijuvva
ijuđ
ik
ika
ikaala
ikaalinen
ikaalisii
ikaalisiist
ikari
ikela
ikiela
ikiirjijd
ikiirjijn
ikirja
ikirje
ikirjec
ikirjeh
ikirjera
ikistan
ikka
ikkala
ikki
ikkieec
ikkieenna
ikkikisa
ikkikissa
ikkikonsol
ikkikua
ikkilodde
ikkinooma
ikkinoomah
ikkisa
ikkisiijđoh
ikkisijđo
ikkitia
ikko
ikoinniemi
ikola
ikonsert
il
ila
ilaavla
ilahti
ilaja
ilavainen
ild
ile
iliih
ilij
ilijn
ilizwe
iljo
iljoost
ilkka
illa
illan
illans
illativ
illby
illinois
illinoisist
illo
illohas
illukansaari
illusions
ilmaja
ilmajoki
ilmajokist
ilmakuva
ilmar
ilmari
ilmarinen
ilmee
ilmio
ilmmi
ilmoila
ilmola
ilmolahti
ilmoniemi
ilo
iloinen
ilola
ilomantsi
ilomantsist
ilottula
ilta
iltalehti
ilu
iluh
ilui
ilum
iluttiđ
ilva
ilvesjoki
ilya
im
ima
imabayashi
image
images
imaginaarua
imago
imaina
iman
imani
imas
imatra
imbi
imc
imdb
imee
imela
imeleh
imelij
imelijn
imen
imet
img
imi
imia
imih
imilito
imilitto
imilittolaava
imilittoost
imisa
imma
immala
immanen
immanuel
immeel
immeella
immeelpalva
immel
immersby
immila
immink
immola
immortelle
immula
impact
imperativ
imperfetto
imperialismo
imperializmu
imperium
impola
impossible
impressionistla
improvisaatioh
improvisaatiost
imspella
imu
imuh
imuinfarkt
imukeerdi
imukeerdist
imukerdi
imukia
imun
imunua
imus
imuseh
imusfysikka
imusin
imusist
imusla
imusliih
imussua
imust
imusundeh
imusuona
imutedduu
imuteeda
imutile
imuvuoimij
imvua
in
ina
inari
inarija
inarilappischen
inarilappisches
inarin
inarinlappalaista
inarinsaame
inarinsaamelaisia
inarinsaamen
inarinsaamenkielinen
inc
incana
incompleta
incomplete
incredible
increment
independence
index
india
indiala
indian
indiana
indianapolis
indianast
indiast
indiataapiir
indica
indicativo
indigenous
indigo
indikativ
indoeuroopla
indoeurooplij
indonesia
indonesiala
indoor
industrial
ineh
inehumtaavda
inen
inermes
inferiore
infinite
influensan
influenssa
influenssavirus
info
infocom
informant
informanteh
information
infraruopsissuonja
inga
ingarskila
ingby
ingels
inger
inglourious
ingniemi
ingor
ingresso
ingrid
ingvallsby
ingvalsby
ini
inifra
inij
inikorp
inimc
inimna
inio
inis
inista
inistii
iniđ
inka
inkarila
inker
inkeranta
inkeri
inkeroiskiela
inkila
inkinen
inkoinen
inkoo
inkoost
inkula
inkurinen
inland
inmenso
inmortal
innala
innamo
innanba
innas
inner
innevato
innig
innila
innovatiivlumos
ino
inoe
inojeh
inojeijee
inoo
inooh
inoos
inornata
inoue
inquisition
ins
insanity
inside
insignis
insiner
inskaja
insner
inspiraatio
institut
institute
instituto
instituut
instituutist
int
intel
intelligence
intelligent
intellivision
intensiteet
intente
interactive
interceptor
intermedia
internacional
internasjonal
international
internet
interno
interrupta
into
intola
introduction
inttila
inu
inuh
inui
inuid
inuktitutkiela
inula
inusa
inusist
inussa
inust
invaders
invasio
invasion
inventas
investistmist
invictus
invisible
io
iohjelm
iohjelmist
ioneh
ioni
ionic
ionijn
ionin
ionistemenergia
ios
iowa
iowast
ip
ipa
ipad
ipe
iphone
ipila
ipmas
ippa
ippolito
ipsykiatra
ir
ira
iracunda
irak
iran
iranist
iranla
ire
iren
ireti
irga
irgga
irja
irjala
irjanne
irkutsk
irland
irlanda
irlandist
irlandla
irliih
irlp
irma
iron
iroomaan
irra
irras
irrationaallovo
irrationaallovoh
irree
irreeh
irres
irsina
irving
irwin
is
isa
isaac
isabel
isak
isaksen
isakso
isaku
isamu
isauro
isbn
isca
ischia
ischiast
isen
isernia
iset
isfi
ishaq
ishar
isi
isidoro
iska
iskmo
iskola
iskyla
isla
islam
islamla
island
islanda
islandist
islandkiela
islandla
islands
isle
isles
isluupiin
ismail
isna
isniemi
iso
isoalho
isohiisi
isoja
isojoki
isojokist
isokartano
isokorpi
isokuusto
isokyla
isokyro
isola
isolahti
isole
isoluoto
isoma
isoniemi
isonokami
isopalike
isopera
isopoikko
isosa
isosilkkila
isotoop
isotoopeh
isotoopin
isovahe
israel
israelist
israella
iss
issa
ist
ista
istanbul
istanbulist
isten
istruala
istu
istunma
isyys
it
ita
itaavda
italia
italiakiela
italiala
italialas
italialiih
italian
italiani
italiano
italiast
italy
iti
itih
itihta
itips
itis
itko
itkonen
itkos
itkosii
ito
itoima
its
itsena
itta
ittee
itteeh
itteemuin
itteemus
itteemuuh
itteht
itteid
itti
ittih
ittim
ittimaigijd
ittimoorniga
ittimoornigist
ittimvuoiga
ittis
ittiđ
ittojeh
ittu
ittud
ittus
ittusa
ittuseh
ittusij
ittusijd
itu
ituid
itula
ituliih
itulumos
itus
ityopp
iua
iucn
iupac
iuvat
iv
iva
ivalo
ivan
ivano
ivar
ive
ivea
iveaigijd
iveh
ivema
iversena
ivga
ivgeh
ivi
ivia
iviartistin
ivic
ivih
ivihovda
ivihua
ivij
ivijdis
ivijua
ivikaavpug
ivikaavpugeh
ivikaavpugijn
ivikaavpugin
ivikaavpugist
ivikaavpugkua
ivikonsertist
ivikonttur
ivila
ivild
ivildeh
ivildum
ivilijd
ivilist
iviminister
iviministereh
iviministerin
ivio
ivioma
ivipersovn
ivira
ivirava
iviroola
ivis
ivist
ivitoima
ivna
ivne
ivnees
ivneest
ivneh
ivnera
ivnes
ivo
ivoire
ivoiriens
ivu
ivuda
ivudijn
ivui
ivula
ivum
ivuma
ivummooduul
ivuđ
ivva
ivveest
ivyeijee
ivyeijen
iweala
iwo
ix
iyambo
iz
izu
izzo
iđ
iđedist
iđejeijee
iđi
iđoid
iđosijd
iđu
iđuh
iđui
iđuid
iđuin
iđukerris
iđukove
iđukoveh
iđukovesa
iđukuuvijd
iđukuuvijn
iđula
iđun
iđust
iđut
iđuva
iđđa
iŋa
iŋga
iŋgga
iŋŋa
j
ja
jaakkima
jaakko
jaakkola
jaakola
jaakonvaara
jaakoppi
jaala
jaama
jaamala
jaamij
jaamijn
jaammus
jaan
jaapaan
jaapaanla
jaara
jaatila
jaavrij
jaavrijn
jabir
jacinto
jack
jackarby
jackie
jackson
jacob
jacobi
jacobsen
jacques
jade
jag
jaga
jagged
jagger
jagi
jaguar
jah
jahkola
jaikoje
jair
jakan
jakari
jakko
jakkukyla
jakkula
jakob
jakobson
jakokoski
jakov
jakova
jakovlev
jakszyk
jakutiast
jakutsk
jalasja
jalasjoki
jalassaari
jalkala
jalkavala
jalonoja
jalvi
jam
jama
jamaica
jamaicensis
jamaika
jamaikala
jamais
jambala
james
jamhuri
jamie
jammii
jan
janakkala
janakkalast
janas
janaslahti
janc
jane
jani
janne
jannok
jansson
jantoniemi
january
japan
japanist
japarov
japonica
jari
jarkko
jaroslav
jaska
jaskatvuođa
jasko
jassala
jauhiala
jauhokuononmaa
jauhola
jauhoma
jauhoniemi
javelin
javier
javlaj
javrij
jawbreaker
jaws
jay
jayavarman
jazyk
jazz
jazzist
jazzmusikka
jby
jdbo
je
jea
jean
jeannie
jeddehusain
jedi
jee
jeegih
jeegij
jeegijn
jeesio
jeessa
jeesus
jeff
jefferson
jeffrey
jeggijuuŋa
jeggijuuŋah
jeggijuŋŋa
jeggikua
jeggilua
jeggiluudijn
jeggis
jeh
jeijee
jeijeeh
jeijei
jeijen
jekaterinburg
jels
jelsi
jeltsin
jemen
jemenist
jemenla
jenisei
jenkins
jenni
jennie
jennifer
jenny
jens
jensen
jeppis
jerdust
jeremy
jermo
jernvik
jero
jerome
jerry
jersey
jerseyst
jerso
jerusalem
jerusalemist
jesa
jesi
jesist
jesper
jesse
jessica
jet
jetpac
jeune
jezek
jeđe
ji
jia
jian
jianli
jiansu
jidai
jie
jiec
jiedushi
jiega
jiegga
jieh
jiehki
jieija
jieijah
jieja
jiejah
jiekŋaa
jiela
jiella
jiem
jiena
jienah
jienat
jienna
jienniis
jierpma
jierva
jies
jieta
jietnaneavtta
jievja
jieŋa
jieŋah
jih
jii
jiivijd
jijuuha
jikosa
jikŋon
jiliang
jim
jima
jimi
jimmy
jin
jinaabureh
jing
jingzong
jis
jisoo
jist
jiwan
jka
jna
jo
joa
joachim
joan
joaqui
joaquin
joba
jobs
jobson
joddbo
jodi
jodie
joe
joel
joenniemi
joenpera
joensuu
joentaka
johan
johanas
johann
johanna
johannes
johannesberg
johannesburg
johannesburga
johannesburgist
johannislund
johannsen
johannseni
johansen
johansson
johanssona
johka
john
johnny
johnsen
johnson
johtit
johtti
joid
joie
joikuja
join
joka
jokeinmaa
jokela
joki
jokija
jokijalka
jokikyla
jokin
jokioinen
jokioisii
jokioisiist
jokipii
jokipohja
jokisalo
jokist
jokue
jola
jolga
jolie
joliot
jolkby
jollasiid
jomala
jomalaby
jomalast
jomalvik
jomo
jon
jonas
jonassen
jones
jonesist
jong
joni
jonkeri
jonku
jonni
jonsahpeivi
jonsahpeivka
joorŋah
jooska
joođeet
joođhij
joođoost
jora
jordahl
jordan
jordania
jordaniast
joreh
joreha
jorga
jorgaluvvo
jorge
jorgeet
jorgoa
jorgola
jorma
jormaskyla
joroinen
joroisii
joroisiist
jorree
jorreeh
jorubakiela
jorvas
jos
jose
josef
josep
joseph
josephson
josh
joshkar
joshua
joska
joskii
jota
joteh
jotela
jotelis
jotelub
jotelubbon
jotelubbooht
jotka
jotkui
jotkum
jotoenergia
jotola
joton
jotta
jottee
jotteel
jotteem
jottees
jotteeđ
jouhenniemi
jouhkola
joukio
jouko
joukokyla
joule
joulu
joulupukki
jouni
jouppila
jour
journal
journalistiik
journalists
journey
jousitie
jouste
joutsa
joutsan
joutsast
joutsenma
joutsenniemi
joutseno
joutsensalmi
joutsiniemi
joutsja
jovna
jovnna
joy
joyce
joyeux
joyful
joyner
joystick
jođa
jođes
jođetta
jođetteijee
jođetteijeeh
jođetteijeevuota
jođetteijei
jođetteijen
jođettem
jođettii
jođettij
jođettiđ
jođi
jpeg
jpg
jr
jra
js
jttuzeh
ju
jua
juan
juankoski
juarez
juauto
juautoh
juba
jubeh
juc
juda
judinsalo
judit
juh
juha
juhana
juhani
juheh
juhla
juhle
juhlec
juhleh
juhlepeeivih
juhlepeivi
juhlo
juhlom
juho
juhtima
jui
juid
juin
jukagiirkiela
jukka
jukkasja
jukoja
jukola
juksa
jules
julesvernex
julevsa
julga
julia
juliaanla
julian
julie
juliet
julius
julkaisuja
jului
julum
july
jum
jumesniemi
juminen
jumo
jumping
jun
juna
junckars
june
jung
jungen
jungfruska
jungle
jungsund
juni
juniperus
junna
junnikkala
junnila
junnin
junninma
juntos
junttola
junttura
juntula
juo
juohhui
juohhum
juohhuuha
juohkehac
juoiga
juoigamat
juoiggas
juoja
juokslahti
juolgevuođđu
juolggit
juolgij
juolgijn
juona
juonah
juorkuna
juornaankyla
juostu
juotola
juottila
juova
juovij
juovla
juovlah
juovllaide
jupiter
jur
juran
jurassic
jurba
jurda
jurdemist
jurdui
jurduid
jurduin
jurduu
juremos
jurg
jurga
jurgis
jurkka
jurmo
jurmu
jurons
jurssee
jursseeh
jurssees
jursseh
jurssei
jursseid
jurssein
jurva
jurvala
jurvansalo
jus
jussaari
jussaro
jussbo
jussi
jussila
just
justice
justicia
justin
jutans
juti
jutikkala
jutila
jutteseelgi
juttila
juttua
juudala
juuha
juuka
juukast
juulevsa
juupajoki
juupajokist
juuraackiela
juurakko
juurba
juurda
juurdij
juurihoito
juuriist
juurikkala
juurikkama
juurikkaniemi
juurra
juuso
juutila
juutuan
juuva
juuvah
juuvda
juuđij
juuŋa
juva
juvakkala
juvankoski
juvast
juvduu
juvduujuuha
juvduujuuva
juvela
juvelius
juvla
juvola
juvvoo
juyi
juŋŋa
jyddo
jyehi
jyehih
jyehila
jyehim
jyehipia
jyehiđ
jyeigee
jyeigeeh
jyelgi
jyelgia
jyelgih
jyelgipa
jyelgisuorma
jyelgivieva
jyemeha
jyla
jylha
jyllinkoski
jyllinmaa
jyly
jynka
jyra
jyrinki
jyrki
jyva
jørgensdatter
k
ka
kaabelttes
kaabi
kaajaan
kaakila
kaalahti
kaaldua
kaalekiela
kaama
kaamanniemi
kaamuv
kaanda
kaandah
kaanij
kaaos
kaaraat
kaarakkala
kaaraslahti
kaardijn
kaarela
kaarenkyla
kaarenoja
kaari
kaariainen
kaarina
kaarinast
kaarle
kaarlela
kaarlenkyla
kaarlo
kaarniitta
kaarret
kaarta
kaartila
kaartilanma
kaartilanranta
kaartinen
kaarto
kaasmarkku
kaastla
kaasu
kaasuh
kaasui
kaasuin
kaasun
kaasuriggee
kaata
kaatamo
kaateet
kaava
kaavha
kaavi
kaavist
kaavna
kaavpa
kaavpijn
kaavpug
kaavpuga
kaavpugeh
kaavpugfia
kaavpughoovdah
kaavpughovda
kaavpugid
kaavpugij
kaavpugijd
kaavpugijn
kaavpugin
kaavpugist
kaavpugkielda
kaavpugkieldah
kaavpugkirjera
kaavpugkirkko
kaavpugkua
kaavpugossijd
kaavpugpirra
kaavpugservikodde
kaavpugta
kaavpugua
kaavpugvuoiga
kaba
kabaia
kaboom
kabuki
kabul
kabusa
kac
kaerla
kaffa
kaffast
kafka
kafur
kagogo
kah
kahanpa
kaharila
kaharla
kahila
kahiluoto
kahimala
kahl
kahloja
kahnala
kai
kaida
kaihari
kaihlama
kaihtula
kaihunma
kaija
kaijola
kaikki
kaikkien
kailash
kainasto
kainu
kainuu
kainuunkyla
kaipaala
kaipiala
kaipinen
kaipola
kairala
kairamo
kairila
kairinen
kairo
kairost
kais
kaisa
kaisela
kaislaja
kaisu
kaitainen
kaitaja
kaitalahti
kaitamo
kaitsor
kaituri
kaiturinpa
kaivattula
kaivoinen
kaivola
kaivonen
kaivuona
kaj
kaja
kajaani
kajala
kajana
kajanist
kajantila
kajoo
kajsa
kakkarainen
kakkulainen
kakola
kakonaho
kakskiela
kaksoinen
kal
kala
kalaila
kalainen
kalaja
kalajoki
kalajokin
kalajokist
kalaks
kalalahti
kalaniemi
kalanikaumaka
kalans
kalantist
kalax
kalce
kaldbak
kaldna
kale
kaledonia
kaledoniast
kalela
kaleleona
kalender
kalendera
kalenderist
kalenderive
kalervo
kaleva
kalevala
kalevi
kalga
kalgeh
kalholampi
kalibusiswe
kalifornia
kalifornian
kaliforniast
kaline
kalium
kaljula
kalkila
kalkka
kalkkila
kalkkinen
kalkkonen
kalkku
kalkulla
kalkunma
kallas
kallba
kalle
kallela
kalliala
kallio
kallioja
kalliokoski
kalliola
kallionkieli
kallis
kallislahti
kallmusna
kallo
kallola
kallso
kallunen
kallweit
kalma
kalmar
kalmari
kalmavirta
kaloinen
kalpiala
kalsium
kalsor
kaltenbach
kaltila
kaltsila
kaluga
kalvdal
kalvholm
kalvola
kamachi
kamajauhola
kamala
kamaskiela
kambodz
kamen
kamenje
kamera
kamerlingh
kamerun
kammola
kammuu
kampanja
kampen
kamppari
kan
kanada
kanadac
kanadala
kanadamaaijuv
kanadan
kanadast
kanaja
kanala
kanalampi
kanama
kanariasuolluid
kanariasuolluin
kanariasuolluuh
kanata
kanava
kanavan
kanavast
kanavilla
kanda
kandidaat
kandidaatin
kanepi
kanesuke
kang
kangas
kangasala
kangasalan
kangasalast
kangasha
kangaskyla
kangaslampi
kangasniemi
kangasniemist
kani
kanih
kanij
kaninkola
kankaanpa
kankaantaka
kankaantausta
kankahainen
kankainen
kankare
kankari
kanmu
kann
kannas
kannat
kannatteijei
kannatteijeid
kannila
kannisto
kannonkoski
kannus
kannusist
kansa
kansainva
kansallisbiografia
kansallispa
kansallisteatteri
kansannimitysten
kansantietoutta
kansas
kansasist
kansbacka
kansja
kansler
kansola
kanssa
kanta
kantala
kanteenmaa
kantele
kantokyla
kantola
kanton
kantonist
kantosyrja
kantskog
kanttor
kanturbo
kanturpyo
kantvik
kanunki
kap
kapala
kapelle
kapellstrand
kapiala
kapiti
kapitsa
kapkaavpug
kaplinski
kappala
kappeer
kappel
kappela
kappeli
kappeltupe
kappeltuuveest
kappfjell
kapteen
kapteenstaata
kapybara
kapybarast
kar
kara
karaluoto
karankama
karasjok
karate
karavainen
karby
kardinaal
kardrag
kareksela
karel
karelia
karen
karenina
karhe
karhi
karhia
karhila
karhiniemi
karhoinen
karhula
karhunoja
karhunpa
karhusaari
karhusja
kari
karibia
karibiameera
karibiast
karijoki
karijokist
karilanmaa
karima
karin
karinainen
karine
karinkanta
karinkorva
karinkyla
karintaka
karis
karist
karisto
karjaa
karjaan
karjaast
karjakoski
karjala
karjalainen
karjalan
karjalohja
karjalohjan
karjula
karjulanma
karjus
karkkila
karkkilast
karkkola
karkku
karkkula
karkkust
karkunkyla
karl
karlby
karleby
karlfeldt
karlsen
karman
karnainen
karnevaal
karniliih
karo
karpatia
karpero
karppi
karppinen
karrbo
karrieer
karrieeris
karrieerist
karsattila
karsby
karsikkovaara
karskog
karstu
karstula
karstulast
karsturanta
kart
kartanonkyla
kartansalo
karteljevo
karting
kartta
karttii
karttu
karttula
karttulast
karuby
karuna
karunki
karunkist
karvala
karvasalmi
karvat
karvatti
karvela
karvetti
karvia
karviainen
karviala
karviast
karvila
karvoskyla
karvsor
kas
kasabacka
kasabo
kasaby
kasala
kasavuori
kaska
kaskala
kaskeinkyla
kaskii
kaskinen
kaskisii
kaskisto
kaskoo
kasmir
kasna
kasperi
kaspiameera
kasseet
kassor
kastari
kastelholm
kasukkala
kasuri
kasurila
kasurla
kata
kataisto
katalaankiela
katalin
kataloinen
kataloniala
katalyytin
katariina
katarina
katavainen
kate
katedraalist
kategoriast
katerma
katharine
kathleen
kati
katinala
katinha
katja
katko
katolila
katolilii
katosivat
katri
katriina
katrina
kattby
kattelus
kattelussaari
katterno
kattholm
kattilainen
kattilama
kattim
katz
kauhaja
kauhajoki
kauhajokist
kauhala
kauhanoja
kauhava
kauhavan
kauhavast
kauhianpa
kauhun
kaukalampi
kaukaritsa
kaukasusist
kaukela
kaukelmaa
kaukja
kaukka
kaukkala
kauklainen
kauko
kaukoila
kaukoinen
kaukola
kaukoma
kaukonbo
kaukonen
kaukonpieli
kaukonpyo
kaukuri
kaukurla
kaukvuori
kaul
kaulakko
kaulanpera
kaulansuu
kauliala
kauniainen
kauniaisii
kaunis
kaunislahti
kaunissaari
kauppaloista
kauppila
kauppilanma
kaupungeista
kaupungintalo
kaupunki
kaurama
kauramaa
kaurila
kaurilanvaara
kaurinkoski
kaurissalo
kaurula
kausala
kauskila
kaustaja
kaustari
kaustinen
kaustio
kaustisii
kaustisiist
kautiala
kautio
kautokeino
kautranta
kauttu
kauvainen
kauvatsa
kavala
kavalto
kavantola
kavasto
kavattila
kavna
kavnii
kavnui
kavnum
kavnuu
kavpa
kavra
kawai
kawasaki
kaxska
kaydar
kaye
kazakstan
kazakstanist
kazan
kazuno
kbo
kde
ke
kea
keburia
kec
keec
keeja
keejih
keejij
keejist
keelda
keele
keen
keene
keep
keerdi
keerdih
keerdijn
keerdist
keerrivrievtih
kees
keesi
keesijd
keesis
keesist
keessiv
keessiđ
keest
keeva
keevti
keevtij
keez
keezih
keeđgi
keeđgih
keeđgij
keeđgijn
keeđgist
keeđhi
keeđhih
keeđhist
kehitys
keho
kehro
kehvo
kei
keigee
keigij
keiha
keijainen
keikya
keina
keipila
keistio
keitele
keitelepohja
keith
keitila
keittio
keituri
keja
kejeijee
kejij
keka
kekkila
kekkola
kekkonen
kekkos
kekrops
keksi
keksim
kela
kelhoinen
kelja
keljo
kelkkala
kello
kellogg
kellokoski
kellolahti
kelly
kelontekema
keltaniemi
keltia
kelturi
keluja
kelvin
kem
kemi
kemia
kemialla
kemiallij
kemiapalha
kemiast
kemie
kemihaara
kemijoki
kemio
kemist
kemisteh
kempele
kempelest
kemperla
kemppaanma
kemppila
kenbo
kendall
keng
kenia
keniala
keniast
kenichi
keniga
kennedy
kennelly
kenneth
kenny
kenraal
kenraalinkyla
kenski
kent
kentucky
kentuckyst
kenya
kenyatta
kepaje
kepidemrekinistem
kepileh
kepilijguin
kepis
kepiskumes
kepisvahan
kepler
kepola
keppa
keppisub
keppisuboh
keppola
kepua
kepuinen
ker
kera
kerava
kerdi
kerdid
kerho
kerima
keriniemi
kerkkola
kerkkoo
kerkola
kernaala
kernell
kerppola
kerris
kerry
kers
kersilo
kert
kerte
kertesz
kertomuksia
kertomus
kerttee
kerttu
kerttula
keruberosu
kes
kesa
kesamonsaari
kesi
kesima
kesiolympiala
kesiolympialiih
kesiolympialij
kesiolympialijn
kesipa
kesisoovsa
kesita
keski
keskija
keskikyla
keskinen
keskisenpa
keskitalo
keskusoja
keskusta
keskustaa
keso
kesoinen
kesola
kesselila
kestila
kesusmaa
keta
ketarsalmi
ketelinen
ketki
ketkid
ketkina
ketola
kets
ketto
kettu
kettula
kettumaa
kettunen
ketunbo
ketunkyla
ketunpyo
keuru
keuruu
keuruust
keva
kevtis
kevttee
kevtteeh
kevtteejua
kevttih
kevttii
kevttim
kevttima
kevttimist
kevttimmerha
kevttimohta
kevttimvua
kevttiv
kevttiđ
kevttui
kevttum
key
keyl
keyong
keyritty
keys
kezis
keđgi
keđgia
keđgiamna
keđgiplaaneet
keđgiplaneteh
keđgira
kg
khalid
khalifa
khazin
khmerij
kholm
khomjuk
khomjuka
khoroshev
khuzayma
khuzestan
ki
kia
kibaki
kick
kid
kida
kidda
kiddejum
kiddiistum
kiddiiva
kiddoda
kiddoduv
kidman
kids
kiedijn
kiedist
kieffer
kieima
kiel
kiela
kielah
kielda
kieldah
kieldimha
kieldimlaaha
kieldimverba
kieldiđ
kieldui
kieldum
kielen
kielenna
kielesta
kielioppi
kiella
kielten
kiema
kiemunkivaara
kiera
kierga
kierikainen
kierikkala
kierinki
kierla
kieronpera
kierruu
kiesa
kiesler
kieta
kietka
kiettare
kieva
kievhis
kievra
kievđa
kieđa
kieŋa
kieŋŋa
kigali
kih
kihheen
kihla
kihlala
kihnia
kihnio
kihnu
kii
kiia
kiiala
kiiha
kiihtelysvaara
kiikala
kiikalast
kiikanoja
kiikka
kiikku
kiikoinen
kiila
kiilanma
kiilholma
kiilu
kiilud
kiima
kiimaja
kiimasja
kiiminki
kiimkallio
kiina
kiinakiela
kiinala
kiinalas
kiinan
kiinast
kiinii
kiipu
kiipula
kiirdij
kiirja
kiirjij
kiirjijd
kiirjijn
kiirkon
kiis
kiiskila
kiiskilahti
kiitaar
kiitaarc
kiitos
kiiva
kiivsa
kiivsah
kiiđa
kij
kikkela
kiknadze
kiku
kikuchi
kikujuh
kikujukiela
kikyla
kila
kilbisja
kilby
kildee
kildinsa
kiljander
kiljula
kilkinsaari
kilkki
kill
killa
killainen
killala
killer
killing
killuva
kilo
kilomeetter
kilomeetterid
kilomeetterist
kilpi
kilpia
kilpijoki
kilpisaari
kilpola
kiltin
kilusa
kilvakkala
kim
kimaa
kimala
kimea
kimekyepi
kimifusa
kiminki
kimmo
kimo
kin
kina
kinahmo
kincaid
kind
kinect
king
kingdom
kingdoms
kingmaker
kings
kinma
kinnala
kinnarila
kinnarla
kinnarniemi
kinney
kinnula
kinnulast
kinnunen
kinshasa
kintada
kintaus
kintel
kintikkala
kintta
kinttala
kinttula
kio
kiova
kip
kipa
kiparluoto
kipling
kiprianoff
kirakka
kirby
kirche
kirchner
kirda
kirdedijn
kirdee
kirdeh
kirdel
kirdeleh
kirdem
kirdema
kirdemeh
kirdemjiena
kirdemkieddi
kirdemkiedist
kirdemma
kirdemmaas
kirdemmas
kirdemmooduul
kirden
kirdes
kirdeđ
kirgisia
kirgisiala
kirho
kirhoh
kirhoin
kirhoost
kirhosta
kiri
kiribati
kirja
kirjailija
kirjaimet
kirjais
kirjakkala
kirjala
kirjallisuuden
kirjasampo
kirjasniemi
kirjasto
kirjavala
kirjayhtyma
kirje
kirjec
kirjed
kirjees
kirjeest
kirjeh
kirjeka
kirjekiela
kirjeluosa
kirjen
kirjera
kirjestis
kirjeteddilemla
kirjevua
kirjijnis
kirjoitetaan
kirjola
kirkes
kirkjubøur
kirkka
kirkkaammat
kirkko
kirkkoeenna
kirkkohia
kirkkohuksiitta
kirkkoma
kirkkonummi
kirkkonummist
kirkkosali
kirkkostaata
kirkniemi
kirkonkyla
kirkonma
kirovohrad
kirpu
kirsi
kirste
kirsten
kirsti
kirstila
kirvela
kirveskoski
kirvesniemi
kirvu
kis
kisa
kisalmi
kisalo
kisauru
kisc
kishida
kiskirja
kisko
kiskola
kiskost
kiskuobz
kisra
kiss
kissa
kist
kisto
kistola
kiswahili
kit
kita
kitarist
kitaristin
kitee
kiteenkyla
kiteenlahti
kiteest
kitinoja
kitsinvaara
kitta
kittfall
kitti
kittila
kittisvaara
kitts
kittuinen
kittuis
kitula
kiukainen
kiukkoila
kiurala
kiuru
kiurula
kiuruvesi
kiuruvesist
kiusala
kiveinen
kivela
kivennapa
kivesja
kivi
kivija
kivijoki
kivikyla
kivilahti
kivilampi
kivimaa
kivimo
kivinen
kiviniemi
kiviranta
kivis
kivisalmi
kivisenoja
kivisoja
kivisto
kivitok
kivivuori
kiyohara
kiđa
kiđđa
kiđđuv
kj
kja
kjell
kjo
kk
kka
kki
kkija
kkila
kkilsa
kkim
kkimist
kkinjunnjuhc
kkipa
kkipaaihijn
kkis
kkisahe
kkitupe
kko
kkojeh
kkojeijee
kkoo
kku
kkyla
kl
kla
klamydia
klaresund
klarinet
klas
klassikko
klassikkon
klassikla
klassillinen
klassisa
klassism
klaukkala
klaus
klax
kleemola
klemensson
klemet
klemetsby
klemola
klerk
kleven
klinkbacka
klobbna
klokkarla
klondike
kloori
klotzi
klovni
klubi
klug
km
kna
knaapila
knab
knappbo
knapsby
knight
knights
kning
knivar
knivsund
knopps
know
knox
knoxville
knoxvillest
knud
knut
knutna
knutsboda
knutsson
ko
koarrdo
kobayashi
kobbo
kobdeeb
kobdoda
kobe
kobie
koc
koca
kocca
koda
kodda
koddbo
kodde
koddee
koddeest
koddeh
koddem
koddesa
koddetiettee
koddeđ
kode
kodeh
kodesja
kodettij
kodin
kodisjoki
kodjala
kofi
kofije
kofji
kohara
kohmansalo
kohoniemi
kohvipo
koija
koikkala
koila
koiluoto
koipeliinin
koirama
koirapuisto
koiravaara
koisaari
koisja
koisto
koitsanlahti
koittila
koivakkala
koivisto
koivistost
koivu
koivuja
koivukyla
koivula
koivulahti
koivulahtist
koivuma
koivuniemi
koivuporras
koivuranta
koivusaari
kojo
kojola
kojonpera
kokaiin
kokaiinist
kokema
kokkala
kokkila
kokko
kokkokangas
kokkola
kokkolain
kokkolan
kokkolast
kokolahti
kokonniemi
kokonsaari
kokoomus
kola
kolari
kolarist
kolba
kolbe
kole
kolga
kolgee
kolgii
kolgos
kolgosijn
kolhi
koli
koliini
koliseva
koljala
koljola
koljonkanta
kolkkinen
kolkko
kolko
kolkontaipale
kolla
kollaa
kollafjørður
kollarla
kolle
kolleest
kollehovi
kollehovist
kollekiela
kollekua
kollekurga
kollemecci
kollemiitaal
kollemitalid
kollepoođa
kollepoođah
kollepotta
kolleruuki
kolliista
kollij
kollola
kolma
kolme
kolmoskanavast
koloradokuorija
kolppola
kolsarby
koltan
koltansaame
koltansaamen
kolumbia
kolumbiala
kolumbiast
kolumbusist
kom
koma
komar
kombat
komedia
komendeijee
komendeijen
komerola
kometta
komettiđ
komi
komikiela
komikka
komipermjakkiela
komissio
komisuo
komitea
kommerniemi
kommunism
komoinen
komoreh
komori
komorij
komossa
komovuota
komovuođa
kompero
komplekslovoi
komppa
komunumo
komyo
kon
konditional
kondom
kondomtta
kone
konfederaatio
konferens
konferensist
kong
konginkangas
konginkangasist
kongo
kongost
kongres
konkola
konnevesi
konnevesist
konnuslahti
konrad
konsert
konserteh
konsertijn
konsertist
konsertturnee
konservatiivla
konsol
konsola
konsoleh
konsolspeelah
konsolsuha
konsonant
konsonanteh
konsonantid
konsonantij
konsonantovta
konstantin
konstantinopol
konstantinopolist
konstantinos
konstantinov
konsul
kontila
kontiola
kontiolahti
kontioma
kontiovaara
kontrast
konttila
konttima
kontu
kontula
konungsbo
kooboolt
kooc
kooda
koolba
koolda
koolga
koolma
koora
kooripa
koorla
koorrum
koorta
kooska
kooskah
kootut
koovla
koovlah
kooza
koozah
koper
kopff
kopila
kopio
kopois
kopola
koponen
koppala
kopparholm
kopparna
kopparo
koppeloja
koppholm
koppskog
kopsala
kopsamo
kopsuo
koptila
kopula
kora
koranist
korea
koreala
koreast
koren
korentovaara
koreograf
koreyoshi
korhola
korholanma
korhona
korhonen
koripa
koriseva
korjola
korkeakoski
korkeama
korkkulla
kormu
kornberg
korneliussen
koroinen
koroiskyla
koronapandemia
koronavirus
koronaviruspandemia
korp
korpela
korpi
korpija
korpikyla
korpilahti
korpilahtist
korpinen
korpiniemi
korpisalmi
korpiselka
korpivaara
korpo
korpoga
korppila
korppoo
korppoost
korra
korruptio
korsba
korsna
korso
korte
kortela
korteniemi
kortesja
kortisbacka
kortta
korttaja
kortteinen
kortteiskyla
korttia
korvala
korvaluoma
korvenkanta
korvenkyla
korvensuu
kos
kosini
koska
koskaan
koskeby
koskeinkyla
koskela
koskenkorva
koskenkyla
koskenniska
koskenpa
koskentaipale
koski
koskija
koskima
koskimies
koskinen
koskist
kosko
koskoho
koskoinen
koskokko
koskue
koskutja
kosminen
kosmolog
kosmonaut
kosola
kosovo
kossa
kossuv
kost
kosten
kosterlitz
kostiala
kostila
kostroma
kostula
kostylev
kosula
kosundbo
kota
kotaja
kotalahti
kotaniemi
kote
koti
kotikatu
kotila
kotimaisten
kotiranta
kotka
kotkaja
kotkan
kotkaniemi
kotkatvesi
kotola
kots
kou
koukkela
koukunniemi
koulu
koum
kouma
koume
koumeku
koumm
kouppo
koura
kouraniemi
kourjoki
kourla
kourula
kourulanma
kousaniemi
koustar
koutaja
koutbo
kouttu
kouvala
kouvoinen
kouvola
kova
kovala
kovalentla
kovalentsa
kovalev
kovalevskaja
kovama
kove
kovegalleria
koveh
kovela
kovelahti
koveri
kovero
kovetaaida
koveverree
kovio
kovja
kovjoki
kovla
kovlasa
kovliitta
kovlim
kovos
kovoseh
kovvee
kovveen
kovvejeh
kovvejeijee
kovvejui
kovvejum
koza
kozma
kozza
kozzsa
kođa
kođeh
kođo
koŋruens
koŋruist
koŋruisteh
koŋruistiđ
kpfc
kpia
kra
kraatter
krahe
kramsu
kranj
krannila
krapl
krasnodar
krautrock
kre
kreatiivla
krebs
kreikakiela
kreikka
kreikkala
kreikkalii
kreiva
kreivi
kreivila
krek
krekila
krekola
kreolikiela
kreppelby
kriittisa
krim
kristalra
kristersson
kristian
kristiina
kristiinankaupunki
kristin
kristina
kristine
kristoffer
kristus
kritikka
kritisisteh
kritisistii
kritisistij
krki
kro
kroatia
kroatiala
kroeber
kroemer
krogga
krogiusa
krok
kroksna
krokstad
kromi
krondor
krookkinen
krootila
kropyvnytskyi
kroto
krouvi
krs
kruseman
kruunupyy
kruunupyyst
kruusila
kry
krynn
kryntaipale
krypta
krypton
krzemin
ks
ksa
ksiđ
ksja
kslahti
ksma
ksniemi
kstro
ksun
ksy
kt
kte
kteha
kter
kti
ktom
ku
kua
kuae
kubasov
kubda
kubduuh
kubduv
kubrick
kuddii
kuddum
kudiby
kuggbo
kuha
kuhaja
kuhala
kuhebeh
kuheh
kuhemus
kuhes
kuhesa
kuheskirkko
kuhha
kuhheeb
kuhlefelt
kuhmalahden
kuhmalahti
kuhmalahtist
kuhminen
kuhmisi
kuhmo
kuhmoinen
kuhmoisii
kuhmoisiist
kuhmost
kuhmunen
kuikka
kuikkala
kuikkavaara
kuin
kuipers
kuisema
kuitia
kuitta
kuittila
kuittilo
kuitula
kuivaja
kuivakangas
kuivalahti
kuivanen
kuivaniemi
kuivanto
kuivasalmi
kuivasja
kuivasma
kuivaspa
kuivasto
kuivila
kuka
kukertaja
kukin
kukka
kukke
kukkee
kukken
kukkila
kukko
kukkoda
kukkoduva
kukkoduvah
kukkoduvva
kukkola
kukkosa
kukkosii
kukkosiih
kukola
kukolainen
kukonharja
kukonkorpi
kukonkyla
kukonpohja
kula
kulamaa
kulda
kuldi
kuleh
kulen
kulennoinen
kulga
kulhua
kulij
kulju
kulkkila
kulla
kullaa
kullee
kullii
kullojeh
kullojii
kulloo
kullui
kullum
kulluu
kulluus
kulluuttem
kulluuttui
kulma
kulme
kulmelia
kulmii
kulmuntila
kulo
kuloinen
kulola
kulostui
kulostum
kultahovi
kultaranta
kultela
kultola
kulttuur
kulttuura
kulttuureh
kulttuurhistorja
kulttuurijn
kulttuurist
kulttuurkua
kulttuurla
kulttuurlovna
kulttuurpalha
kulttuurrutta
kulttuursia
kulttuursiijda
kulttuurta
kulttuurtua
kulttuurvaigutteijee
kuma
kumar
kumc
kume
kumes
kumila
kumionpa
kumiruona
kumlinge
kumlingest
kummila
kumppi
kumpu
kumpuranta
kumryevdi
kun
kuna
kuneinen
kungliga
kungso
kuni
kuningas
kuninkaanjoki
kuninkainen
kunna
kunnainen
kunnantalo
kunnarainen
kunnarla
kunnas
kunnasniemi
kunneeha
kunneemiitaal
kunneepalha
kunneetua
kunnen
kunnija
kunonniemi
kunta
kuntien
kunttula
kuoba
kuobba
kuobz
kuoca
kuohatti
kuohijoki
kuohtii
kuohtuid
kuohtuin
kuohtuuh
kuoimijn
kuokkala
kuokkalampi
kuolaja
kuolanlapin
kuolanlappalaisia
kuolba
kuolema
kuolemaa
kuolemaja
kuolga
kuolij
kuolijd
kuolijn
kuolismaa
kuollut
kuomio
kuomiolahti
kuona
kuopio
kuopiola
kuopion
kuopiost
kuoppakoski
kuoppala
kuora
kuoraja
kuoreniemi
kuorevesi
kuorevesist
kuorga
kuorgah
kuori
kuorsa
kuorsumaa
kuortane
kuortanest
kuortti
kuos
kuosa
kuosijd
kuoska
kuosku
kuosmala
kuostano
kuotila
kuottii
kuova
kuovda
kuovga
kuovgis
kuovgisfiskis
kuovgisra
kuovgisrua
kuovgisruopsa
kuovgisrus
kuovila
kuovs
kuovska
kuovttijn
kuovđa
kuođij
kuođđii
kuođđum
kuperkeikat
kuppa
kuppis
kupsenkyla
kupusja
kurala
kurbo
kurby
kurckas
kurenlahti
kurenniemi
kurhila
kurikka
kurikkala
kurikkast
kurina
kurinen
kuris
kurittula
kuriyama
kurjala
kurjalanranta
kurjanrauma
kurkela
kurki
kurkija
kurkijokist
kuro
kurolanlahti
kuronlahti
kurosawa
kurra
kurrago
kurri
kurrola
kursalo
kursivistum
kurt
kurtakko
kurtti
kuru
kuruc
kurun
kurust
kurvila
kurzenko
kus
kusa
kusans
kusisit
kusiy
kusni
kussa
kustaa
kustannus
kustavi
kustavist
kusti
kut
kutala
kutemaja
kutila
kutinen
kutka
kutsila
kutsu
kutsunvaara
kutta
kuttii
kuttila
kuttoor
kutuma
kuuba
kuuban
kuudij
kuukkaja
kuuksenvaara
kuula
kuulas
kuuleminen
kuuliala
kuulila
kuulla
kuulma
kuulmijn
kuuloold
kuuluu
kuumpi
kuumpih
kuumpimyerji
kuun
kuurila
kuurmanpohja
kuurola
kuursa
kuus
kuusa
kuusaa
kuusamo
kuusankoski
kuusankoskist
kuusela
kuusi
kuusia
kuusisto
kuusja
kuusjoenpera
kuusjoki
kuusjokist
kuuskorpi
kuuskoski
kuuslahti
kuusniemi
kuusto
kuuva
kuuvij
kuuvijd
kuuvl
kuuvse
kuuz
kuuđa
kuuđđa
kuva
kuvaaja
kuvalehti
kuvansi
kuvasanakirja
kuverno
kuvla
kuvviimeh
kuvviimijd
kuvviis
kuvvij
kuvvim
kuvvimvyevi
kuvviđ
kuwait
kuwaitist
kuz
kuđa
kva
kvaliteet
kvanttifysikka
kvarnbo
kvarnby
kvarvbacka
kveenikiela
kvigos
kvik
kvikant
kvimo
kvinnor
kvirikas
kvis
kvivlax
kvrivis
kwa
kwame
kx
kya
kyeddiđ
kyehti
kyehtlov
kyeimis
kyele
kyeleh
kyeli
kyelic
kyelija
kyelipivdemnia
kyelipurra
kyelis
kyelisieidi
kyepi
kyeppi
kyeppirellei
kyesih
kyeskee
kyessi
kyessila
kyessin
kyeteh
kyetih
kyeto
kyettiđ
kyevdi
kyevdih
kyevti
kyevtiha
kyevtikiela
kyevtiloho
kyevtilovo
kyevtilovvoost
kyevtis
kyevtiua
kyevtkia
kyevtkiela
kyevtsa
kyevtua
kyeđih
kyeđđiđ
kyla
kyle
kylkka
kyllia
kyllikki
kyllo
kylma
kymi
kymijuuha
kymileehi
kymileevi
kymo
kyna
kynnar
kynnysma
kyo
kyoto
kypros
kyprosarabia
kyprosist
kyrka
kyrkbacka
kyrkby
kyrkoby
kyrkoga
kyrkstad
kyro
kyrsya
kyta
kyto
kytta
kyyhkyla
kyyhkyset
kyyja
kyyna
kyyro
københavn
kəbra
kəmtə
kənsəlma
kəsa
l
la
laaga
laaha
laahkon
laahul
laaija
laaja
laajah
laajis
laajoki
laaka
laakaja
laakinen
laakkola
laakso
laaksonen
laakspohja
laalahti
laaleinen
laamala
laanan
laapi
laapio
laapist
laas
laasa
laasala
laasola
laava
laavah
laavainen
laavda
laavla
laavlomh
labba
labbna
labbo
labby
labdemist
labj
laboratoriost
laboratory
labour
laby
labyrinth
lac
lackschewitz
ladd
ladder
ladies
ladvo
lady
lae
laestadius
lafayette
laffoon
lafiya
lag
lagerlo
lagerspetz
lagga
laggarna
lagmansby
lago
lagonegro
lagonegrost
lah
laha
lahdenkyla
lahdenpera
lahdenpohja
lahdenranta
lahdenvainio
lahdinko
lahinen
lahjat
lahka
lahkin
lahko
lahkon
lahnaja
lahnaniemi
lahnus
lahta
lahtem
lahtemeh
lahtemist
lahti
lahtist
lahto
lahtojeh
lahtojeijee
lahtojii
lahtoo
lahttosearvvit
laidcne
laidike
laigosa
laigoseh
laigosist
laigut
laihala
laihia
laihiast
laihonen
laikko
laila
laina
lainein
laino
lair
laisniemi
laiterla
laiti
laitiala
laitikkala
laitila
laitilast
laitinen
laitio
laitja
laitla
laitos
laitsalmi
laiđiitta
laja
lajinnimet
lak
lake
lakes
laki
lakkala
lakkola
lakovnice
laks
laksiainen
lallinen
lam
lama
laman
lamarr
lamarrist
lamas
lamb
lamborghini
lamek
lamen
lamkulla
lammainen
lammaspera
lammassalo
lammela
lammentaka
lammi
lamminkyla
lamminpa
lampaanja
lampan
lampelto
lampi
lampila
lampinen
lampis
lamu
lan
lance
land
landau
lander
landing
landist
lando
landrock
lands
landsgemeinde
lane
lang
langansbo
lange
lango
language
languages
lani
lanie
lanka
lankila
lankkinen
lankoski
lanne
lanneest
lannevesi
lans
lansbury
lantoinen
lanttispeela
lanttispeelah
lanttispella
lanviikki
lanza
lanzarote
lanzo
laos
lapedona
laperla
lapijoki
lapila
lapin
lapinja
lapinkyla
lapinlahti
lapinlahtist
lapinneva
lapinniemi
lapinsalo
lapiovaara
lapista
lapland
laporta
lapp
lappa
lappaja
lappalainen
lappalaiset
lappalaisten
lapparla
lappbo
lappdal
lappee
lappeenranta
lappeest
lapperne
lappetela
lappfja
lappfors
lappi
lappijoki
lappila
lappilanma
lappische
lappischen
lappisches
lappisk
lappiske
lappna
lappo
lapponica
lapponicus
lappui
lappum
lappuus
lappvik
lapsema
lapset
lapsuudesta
lapua
lapuast
lapva
lara
largo
larino
larinsaari
larks
larry
lars
larsen
larsson
las
lasa
lasana
lasaneh
lasanem
lasanema
lasanii
lasaniđ
lasatta
lase
laser
laserdisc
lasespella
lasetia
lasetteh
lasettem
lasettij
lasettiđ
lasettui
lasettum
lasettuvvojii
lasettuvvoo
lasikyla
laskenta
laskija
lasola
lassaan
lassaans
lasse
lasseen
lasseet
lassila
lassinbo
last
lastovka
lastunen
late
lateralis
lati
latiano
latifrons
latin
latium
latiumist
latokartano
latonpa
latovainio
latronico
lattim
lattmark
latva
latvaja
latvia
latviast
latvo
lau
lauhala
lauhamaa
laukaa
laukaast
laukansaari
laukeela
laukka
laukkala
laukkaniitty
laukkavirta
laukkoski
laukniemi
laukola
laukula
laula
laulainen
laulu
laulujen
launonen
laupunen
laura
laurel
laureles
laurence
laurent
laurenzana
lauri
lauria
laurikkala
laurila
lauritsala
lauroinen
laurola
lausti
lautanala
lauteala
lautela
lauterbur
lautiosaari
lautkankare
lautsia
lauttakyla
lauttala
lauttija
lava
lavama
lavda
lavello
lavia
laviano
laviast
lavila
lavinia
lavinto
lavkkij
lavlui
lavluid
lavluin
lavlum
lavlust
lavluu
lavluuh
lavo
lavola
lavrukka
lavsbo
lavva
law
lawrence
lax
laxness
laxpojo
lay
laze
lazzaro
laǥ
lba
lbi
lbib
lbo
lbolsta
lbur
lbusij
lby
lbəsa
lc
ld
lda
ldarga
ldee
ldeeh
ldeelukka
ldeh
ldeijee
ldeijeeh
ldeijeeska
ldein
lden
lderlin
ldest
ldi
ldic
ldideh
ldidem
ldidii
ldidij
ldidiđ
ldih
ldij
ldikoda
ldikodde
ldikodden
ldikode
ldikomettem
ldim
ldimamna
ldimeera
ldimeerah
ldimist
ldimmuorah
ldin
ldinge
ldipaje
ldis
ldist
lditeh
lditij
lditta
ldittem
ldittempierga
ldittes
ldittiđ
ldivirde
ldiđ
ldman
ldo
ldojeh
ldojii
ldoo
ldu
ldua
lduamna
lduartikka
ldui
lduin
ldukiela
ldukirjera
ldukonttur
ldumaađij
lduroola
ldusa
ldust
ldustiivra
ldustiivrah
lduv
lduva
lduvah
lduvva
ldvik
le
lea
leaders
leading
league
leahkastin
leal
lean
learning
leat
leather
leaves
leavgabeaivvit
leavgga
lechuck
led
ledger
lee
leeds
leeha
leehi
leeibi
leeibist
leem
leena
leenma
leesmi
leevi
leevijn
leevist
leevva
leeđga
left
leftrightarrow
legacy
legend
legendary
legends
leggistij
legi
legion
legittimo
legnano
lego
leh
leha
lehdesma
lehma
lehmann
lehmija
lehmo
lehnwo
lehti
lehtima
lehtinen
lehtiniitty
lehtola
lehtolainen
lehtorin
lehtovaara
lei
leia
leib
leibi
leif
leigh
leijee
leijeeh
leijeejua
leijei
leijeid
leijein
leijen
leikkila
leikkinen
leikkuu
leiklahti
leikluoto
leikola
leila
leimme
leinainen
leinakkala
leine
leinia
leinma
leinola
leinovaara
leinster
leipa
leipi
leipyo
leipzig
leira
leisala
leistila
leisure
leitsamaa
leivo
leivola
leivonma
lejeh
lekka
lekkui
leksvall
lela
lelkola
lellainen
leloir
lem
lembo
lemena
lemi
lemin
lemist
lemkarrieer
lemkua
lemlahti
lemland
lemlandist
lemlax
lemlito
lemlitto
lemmakkala
lemmee
lemmeejuuha
lemmeejuuva
lemmettyla
lemmetyinen
lemming
lemmings
lemna
lemoga
lemohjelm
lempa
lempainen
lempans
lempersjo
lempia
lempila
lempio
lempna
lempoinen
lemservi
lemsyergi
lemtooima
lemu
lemula
lemunkartano
lemust
lemvua
lena
lene
leniemi
leningrad
lenita
lennon
lensula
lenta
lentiira
lentola
lentua
leo
leon
leonard
leonardo
leone
leopold
lepa
lepaa
lepeletier
lepes
lepisto
leppa
leppeđ
leppi
leppija
lepsa
leptochilus
lepus
lernejo
les
lesa
lesboh
leska
leskela
leskovcu
leskovec
lesotho
lesser
leste
lester
lestija
let
lethal
letku
letter
letters
leucophenga
leudd
leuddav
leuggelbach
leutola
leuven
leva
levanpelto
levantarabia
levante
levanto
level
levels
levene
levi
leviathan
levin
levo
levon
levy
lewis
lexica
ley
leydi
leymah
lez
leza
lezimbabwe
leđe
leđga
lfəz
lg
lga
lggis
lgih
lgikirjera
lgim
lgiroola
lgis
lgislia
lgispel
lgispeln
lgiđ
lgu
lguidiskuin
lguinis
lgun
lgus
lha
lham
lhis
lhismeera
lho
lhuh
lhus
li
lia
liangjie
libanon
libanonist
libby
libe
libera
liberaalpia
liberation
liberdade
liberia
liberiala
liberiast
liberta
libertac
libertad
libertasaun
liberte
liberties
liberty
libna
library
libre
libres
liby
libya
libyast
lic
lico
lid
liden
lidiar
lido
lie
lieb
liebe
liechtenstein
liechtensteinist
liedakkala
liedda
liedema
liedenpohja
liedonpera
liega
liegga
lieggee
lieksa
lieksan
lieksast
lielahti
liepa
lieranta
lies
liesja
liesniemi
lieso
liet
lietema
lietisten
lieto
lietost
lietsa
lietsala
lietsamo
liettistenmaa
liettua
liettuala
liettuast
lievestuore
lievikoski
lievio
lievisenma
lievla
lieđeh
lieđi
lieđiloostah
lieđđee
life
lifou
lift
lig
ligeh
light
lightning
lights
ligijd
liguria
liguriast
lih
liha
lihasula
lihkastagat
lii
liiamaa
liian
liiansaari
liiba
liidan
liidutavlukua
liiga
liigata
liih
liiha
liijka
liikala
liikka
liikola
liimatainen
liimatta
liimattala
liina
liipola
liipu
liipuh
liipun
liipust
liira
liiri
liisa
liist
liiston
liistonsaari
liite
liiton
liitsola
liittinen
liitto
liittyvien
liivala
liivikiela
liiŋkah
lij
lijd
lijjii
lijjim
lijkkojeh
lijkkojii
lijkkoo
lijkkui
lijkkum
lijkkuu
lijn
lijne
lijoki
likannus
like
likyla
lil
lilian
lilibet
lilja
liljeqvist
lill
lillby
lille
lillehammer
lillehaug
lilleprinsen
lillevik
lillfinnhova
lillfors
lillian
lillma
lilltervo
lillvik
lima
limba
lime
limin
limingoja
liminka
liminkast
limist
limited
limits
limosano
limpopo
lin
lincoln
linda
lindahl
lindberg
lindbladia
linde
lindelo
lindeman
lindemann
lindgren
lindner
lindqvist
lindstro
line
lineas
lineola
lines
linevich
lingby
lingua
linguapax
linguistic
linguistica
linguistics
lingvist
lingvistisk
linikkala
linja
linji
linka
linkin
linkola
links
linkulla
linna
linnaeus
linnainen
linnamaa
linnankyla
linnarna
linnea
linnunpa
linse
linth
linthal
lintila
lintuatlas
lintujen
lintula
lintuniemi
lintusalo
linus
linux
liolgos
lion
lionheart
liperi
liperinsalo
liperist
lipetsk
lipia
lipinlahti
lipoglav
lipola
liponsalmi
lippo
lippu
lippuin
lippukoddeest
lippukode
lippukodeh
lippun
lippus
lippusta
lips
lipstick
liputtempeeivi
liputtempeeivih
liputtempeeivijn
liputtempeivi
liputtempeivid
liputtempeivin
liriomyza
lis
lisa
lisabeth
lisagay
lisciano
lisensiaatin
lisensiaatpargo
lisensistum
lismanaapa
list
lista
listed
listee
listeeh
listeh
listei
listem
listersby
listii
listij
listijn
listiđ
listma
listmist
listo
listoh
listoid
listoin
listokeeji
listokia
listoost
listui
listum
listuđ
lite
literature
litil
litium
litmaniemi
lito
litosfa
litteraturpris
littiđ
little
littlebigplanet
litto
littoinen
littois
littokanslerin
littostaata
littota
liu
liuhala
liuhtari
liuhto
liukkola
liukola
liuksiala
liuskallio
liusvaara
liuttula
liv
live
livealbum
livealbumeh
liven
livermorium
liverpool
liverpoolist
lives
livet
livgejeijee
livgim
livgimist
liviirre
living
livingstone
livische
livischen
livisches
livkka
livo
livre
livvtejeijee
livvtij
livvtijn
livđe
livđojeijee
livđui
liz
lizard
lizards
lizzola
liđ
liŋkka
lja
ljars
ljee
ljejeh
ljejii
ljejui
ljejum
ljejuvvojeh
ljejuvvojii
ljejuvvoo
ljis
ljubljana
ljukodde
ljukoddeest
ljuv
lka
lkala
lkia
lkila
lkja
lkka
lkkas
lkkeb
lkkee
lkkeebeht
lkkeeh
lkkeht
lkken
lkki
lkkila
lkku
lkkurapu
lko
lkytta
ll
lla
llama
llamara
llamasoft
llar
llarby
llbo
llby
lle
lled
llee
lleeh
lleejua
lleevua
llei
lleid
llein
llejeijee
llen
llenar
ller
llest
lli
llii
llim
llimfeeila
llimna
llimvua
llimvyevi
llin
llinma
llis
lliv
lliđ
llna
llningen
llo
llojeh
llojii
lloo
lloyd
llsby
llskog
llskulla
llsna
llu
llubeln
llud
lludmist
llui
llukis
llum
llun
lluspellee
llutorna
llvik
lm
lma
lmai
lmc
lmeh
lmejeijee
lmemvuota
lmettumvuođa
lmi
lmiharppa
lmij
lmijd
lmijn
lmin
lmiseeksi
lmiseeksist
lmiseksi
lmiseksisyeje
lmiseksisyejetta
lmiseksisyeji
lmist
lmkia
lmmat
lmo
lmos
lmumos
ln
lnarby
lo
loaded
loalwa
lobamba
loc
location
locus
lodda
lodde
loddec
lodded
loddeest
loddeluovdijn
loddelyevdi
loddes
loddevuovdah
lode
lodeh
lodger
loew
lofsdal
log
logo
lograron
loh
loha
lohhee
lohheeh
lohhoo
lohija
lohijoki
lohilahti
lohilampi
lohja
lohjankyla
lohjantaipale
lohjast
lohkemekra
loho
lohomere
lohosa
lohosaanijd
lohrmann
lohta
lohtaja
lohtajast
lohtui
lohtum
loi
loikansaari
loila
loima
loimaa
loimaast
loin
loiri
lojes
loka
lokalahti
lokanlahti
lokativ
loke
lokka
lokkekove
lokkila
lokve
lombardia
lombardiast
lomby
lome
lommola
london
lonely
lonesome
long
longipennis
longiseta
longobardij
longonvaara
longtemps
longyan
lonlas
lonotteijen
lontoo
lontoon
lontoost
loo
look
lookila
loom
loopa
loopah
looppa
loosari
loosta
loostah
loova
loovda
lopa
lopatnik
lopeda
lopes
lopez
loppa
loppi
loppist
loptejii
lora
lorca
lord
lordi
lords
lore
lorenz
lorenza
lorenzo
lorenzoni
loretello
loreto
loro
lortzing
los
lose
losers
loska
loskarna
lost
losta
lostii
lota
lothar
lotta
lotus
lou
louhi
louhisaari
louhivaara
louis
louisa
louisiana
louisianast
loukinainen
loukola
loukunvaara
loukusa
lounaala
lounge
lousaja
lov
lova
lovduu
love
loveh
lovely
lovensalo
lovers
loves
lovi
loviha
loviisa
loving
lovisa
loviselund
lovmat
lovna
lovnim
lovo
lovoh
lovoi
lovoin
lovva
lovvoid
lovvoin
lovvoost
low
loxia
loyalty
loyaute
loz
lp
lpa
lppa
lpub
ls
lsa
lsbo
lsby
lsiih
lskua
lsta
lt
lta
ltimas
lto
ltoidee
ltooima
ltta
ltti
lttic
lttinalliisvuota
lttisyeini
lu
lua
lub
lubbon
luboh
luc
luca
lucania
lucaniast
lucano
lucanost
lucas
lucasfilm
lucca
lucharon
luchsingen
luchsingena
lucia
lucien
lucito
luck
lucky
lucy
ludila
ludovico
ludvi
ludvig
ludwig
lue
lugano
luganon
luh
luha
luhalahti
luhanka
luhansk
luhhii
luho
luhola
luhostui
luhostum
luhostuva
luhottesvuota
luhottesvuođa
luhtanen
luhtees
luhtiala
luhtikyla
lui
luic
luid
luigi
luikala
luikkio
luikonlahti
luikua
luin
luiro
luis
luistaata
luistaatah
luiz
lukaasuh
lukashevich
luke
lukemisto
lukio
lukkarainen
lukkari
lukkarila
lukkarisa
luksa
lukua
lukuvuodelta
lul
lula
lule
lulesamisk
lulesamiskan
luliih
lulu
lum
luma
lumbanyeni
lumiainen
lumiaro
lumijoki
lumijokist
lumikivi
luministerio
lumisalmi
lummaja
lumos
lumosa
lumoseh
lumosijn
lumparby
lumparland
lun
lunano
lunar
lund
lundahl
lundstro
lundstrom
lundui
lungomare
lunkielda
lunkua
lunttila
luo
luoda
luodda
luode
luodonkyla
luohta
luohti
luohtoja
luohua
luoiha
luojavr
luoka
luokama
luokatta
luokitta
luokka
luokkaast
luola
luolaja
luolala
luolavuori
luoma
luomala
luomankyla
luomi
luonddua
luonnon
luonnosta
luontoportti
luopa
luopaja
luopioinen
luoppa
luoppii
luos
luosa
luosah
luosta
luostarijn
luostars
luosto
luotij
luotja
luoto
luotola
luotolahti
luotost
luotta
luottat
luova
luovij
luovta
luovva
luođa
lupaja
lupara
lupeeleest
lupita
lupta
lupyevtitta
luqi
lurago
lurbo
lurking
lus
lusa
lusah
lusarski
lusi
lusila
lusis
luskala
luskulij
lussa
lust
lusta
lusteh
lustiđ
lusvua
luta
lutea
luterilii
luther
luthuli
lutikkavaara
lutta
luttula
luudij
luudijd
luudijn
luuha
luuja
luukas
luukkaala
luukkala
luukkola
luukulkkula
luuma
luupuvesi
luus
luusa
luusniemi
luusua
luutalahti
luuva
luv
luva
luvah
luvankyla
luvaton
luveh
luvia
luviast
luvulla
luvva
luxemburg
luz
luđ
luđiin
lva
lvi
lvia
lvih
lvikia
lvinjua
lvioija
lviolympialiih
lviolympialij
lviolympialijn
lvipa
lvipeeivijorga
lvisoovsa
lvisua
lviv
lvivalasta
lvojii
lvoo
lvu
lvuh
lvui
lvuota
lvuođa
lvuđ
lvv
lvvoslatjna
lwa
ly
lydia
lyeddejeijee
lyeme
lyes
lyettiđ
lyevdi
lyeve
lyevi
lyhyt
lylyinen
lylyja
lylykyla
lylyma
lymnocryptes
lynch
lynchin
lyndon
lynx
lyo
lyon
lyperto
lyseo
lyseon
lyseost
lyyli
lyyskila
lyytika
lyytikka
lyytila
lyytinen
lz
lzel
løkling
lə
m
ma
maa
maaca
maada
maahan
maailm
maailma
maailmist
maailmkongres
maailmkove
maailmmia
maailmmuusik
maailmseervij
maailmsua
maailmturnee
maailmuba
maailmvijđosa
maaina
maaja
maajeeb
maajeeld
maajeeldpua
maalahti
maalahtin
maalahtist
maalaiskunnista
maali
maalih
maalu
maan
maanah
maanam
maaneest
maaninka
maaninkast
maaninkavaara
maanpa
maanselka
maantieteellis
maarala
maaret
maaria
maarianhamina
maarianhaminast
maarianvaara
maarit
maartin
maas
maasa
maasila
maassa
maast
maati
maatiala
maatij
maavehmaa
maavesi
maavsij
maađha
maađhijd
maađij
maađijist
maaŋga
maaŋgah
mac
maca
macbook
macbride
macca
macchia
maccii
macdiarmid
macerata
machaquila
mache
machiavelli
machine
machinein
machines
macintosh
mackay
mackerras
mackinnon
macmillan
macquart
macron
maculata
maculipennis
maculosa
mad
mada
madagaskar
madame
madda
madden
madduid
madduu
madduuh
made
madeleine
madetkoski
madge
madiba
madisen
madison
madness
madonna
madrazo
madre
mael
maestre
mafalda
mafia
magadan
magareh
magarijd
magazine
magdalena
magga
maggaar
maggaargin
maggie
maggiore
maggioreja
maghrebarabia
magic
magical
magicland
magik
magliano
magna
magnaat
magne
magneetla
magnesium
magnification
magnum
magnus
magreda
magyar
mahala
mahamat
mahan
mahe
mahittula
mahjong
mahkola
mahlu
mahnala
maht
mahte
mahtnii
mai
maid
maiden
maidnii
maigh
maija
maijanen
maikkala
mail
maila
main
maina
maine
mainest
mainiemi
mainoni
mainste
mainz
maiolati
maironiemi
mais
maisaari
maisenranta
maisterin
maitila
maivala
maj
maja
majalainen
majanoja
majebaarga
majebarga
majebeh
majebij
majemui
majemuid
majemus
majemusta
majemuu
majemuuh
majemuz
majniemi
major
makarchenko
makarla
makaziwe
make
makedonia
maker
makes
makila
making
makiza
makkarbo
makkarjoki
makkarkoski
makkola
makkuu
makkuus
makkuutta
makoto
maksamaa
maksimovna
maksjoki
maksniemi
mala
malaisei
malala
malarby
malatesta
malawi
malcolm
male
malediiveh
malediivij
malesia
malho
mali
maliskyla
malist
malko
malli
mallin
mallisa
malloch
mallusjoki
malm
malma
malmo
malmquista
malo
malta
maltakiela
maltast
maltignano
malvaldi
malvaniemi
maman
mamelukeh
mamuka
mamytov
man
mana
manabe
manager
managua
manana
manchar
manchester
manchesterist
mancini
mandela
mandelan
mandoliin
manduria
mane
maneh
manemus
manga
manhattan
manhattanist
mania
maniac
manic
manifesto
manila
manimus
mankell
mankila
mankind
mann
manna
mannbo
manne
manneba
mannee
manneed
mannejeh
mannekiin
mannerheim
mannervaara
mannesaemestemleam
manni
mannila
manninen
mannu
mano
manor
mans
mansell
mansfield
mansikiela
mansikkala
mansion
mansur
manterkaisti
manu
manual
manuel
many
manzanera
maozhen
map
mapiri
mar
marakatt
maratea
marble
marbo
marby
marc
marca
marcellana
marcelli
marcello
march
marche
marchesale
marchest
marchons
marcia
marcial
marco
marconi
marcos
marcus
marcy
mare
maren
mares
maresca
marest
margareeta
margaret
margareta
margareth
margarita
marge
margherita
marginalis
margot
margrethe
margvelas
mari
maria
mariaanij
mariah
mariam
marianne
maribor
maric
marie
mariehamn
marielle
marija
marika
marike
marikiela
marikielah
marilyn
marin
marina
marine
marinkainen
marino
marinost
mario
marion
marisha
marit
marita
maritime
marittima
marius
marja
marjaniemi
marjatta
marjo
marjoniemi
marjorie
marjotaipale
marjunen
marjut
mark
market
markin
markka
markkala
markku
markkula
marko
markomby
marks
markus
markusbo
marlene
marokko
marokkoarabia
marokkon
marokkost
marowijne
marquina
marry
mars
marsalk
marsh
marshall
marshallsuolluuh
marsico
marsicovetere
marston
martbo
martedi
martel
martha
marti
martikkala
martin
martina
martinez
martini
martinique
martinkyla
martino
martinus
martire
martiri
martius
martnem
martno
martonvaara
martta
martti
marttila
marttilast
marttin
marttisenja
marty
marvel
marvin
mary
maryam
maryland
marylandist
mas
masa
masaba
masaby
masah
masanobu
maschito
maschwitz
mase
maseru
masia
mask
maskawa
maskila
maskinnamo
masku
maskulainen
maskun
maskust
mason
mass
massa
massaast
massachusetts
massachusettsist
massala
massaloho
massalovoh
massana
massby
masseria
massignano
massimo
mast
mastelotto
master
masters
mat
matarama
matate
match
matelica
matemaatla
matematiik
matematiikla
matematikka
matenano
mateos
materiaal
materiaalij
materiaalijn
material
materialeh
matese
mathbf
mathilda
mathilde
mathismoen
matigari
matikkala
matile
matilei
matkaniva
matkantaka
matkaselka
matku
matkusjoki
matrice
matrix
matsa
matsumura
matt
mattarila
mattbo
mattby
matteus
matthew
matthias
mattholm
matti
mattii
mattila
mattinen
mattis
mattka
mattna
mattus
maturidi
maud
maudist
mauds
maukkula
maun
mauno
maunola
maunu
maunula
maunus
maupertuis
mauren
mauri
mauriala
maurice
maurier
mauritania
mauritaniast
mauritius
mavsa
mawsili
max
maxis
maxt
may
maya
mayer
mayhew
mayi
mayne
mayor
mayotte
maze
mazzoleni
mađe
mađha
maŋa
maŋaluva
maŋanui
maŋasa
maŋela
maŋga
maŋgii
maŋŋa
maŋŋaal
maŋŋeed
mbabane
mbi
mbo
mc
mcalpine
mcatee
mccafferty
mccartney
mccarty
mcculloch
mcdonald
mcevey
mcguinne
mcintosh
mckracken
mcmillan
mcnab
mcqueen
me
mea
meahci
mean
means
mearoeni
mecci
meccihalda
meccika
meccikaavra
meccikavra
meccikirkko
meccikua
meccipua
mecciroobda
meccitua
mechwarrior
mecipua
med
meda
medal
medda
meddei
medeiros
medelby
media
mediai
mediapargee
mediapargen
medical
medici
medicine
medieval
medievale
medinast
medium
medoacus
meeci
meecih
meecij
meecijn
meecist
meeini
meeinijd
meekaanla
meen
meendu
meendugin
meenkoski
meenkoskist
meenkyla
meenkyro
meenlinna
meenlinnan
meenma
meer
meera
meerah
meereest
meerha
meerhah
meeri
meerijd
meerrid
meet
meetaal
meetaalla
meetaalmuusik
meetaaloksideh
meetaalsia
meeting
meetter
meettereh
meetterid
meettersa
meg
mega
megablast
megami
megiela
megielat
megillii
meh
mehta
meic
meid
meiddei
meiden
meidgin
meier
meigen
meijere
meilahti
meillon
meinikkala
meisala
meissa
mejak
mekaniik
mekrija
meksiko
meksikola
meksikoluovta
meksikost
mel
melalahti
melander
melanie
melanogaster
meldal
meles
melfi
melga
melia
melina
melkkila
melkkola
melkola
melkoniemi
melli
mellila
mellin
mellon
mellotron
melocchi
melody
meloni
meltdown
meltola
meltosja
melville
melvin
memoir
memorial
memoriam
memories
memphis
men
mena
menace
menchu
mendelejev
mendelssohn
mendes
menetysten
meng
menis
menonen
mentalahti
mente
mentre
mentula
menyanthes
mer
mera
merabis
mercalli
mercatale
mercatello
mercatino
mercedes
mercia
mercury
mercy
merdeka
mere
mereh
meren
merenlahti
merethe
mergo
merha
meri
merida
merideh
meridii
meridij
meridiđ
meridui
meridum
merihuhti
meriinaho
merija
merikarvia
merikarviast
merikyla
merimasku
merimaskust
meripitta
merja
merkka
merkkejeh
merkkejum
merkkiđ
merkurius
merrama
merrasma
merry
merstola
mervi
meryl
mes
mesagne
mesalo
meskala
mesopotamia
mesopotamiast
mesosfa
mesosyklon
messapica
messina
messinast
messukyla
mesta
mestila
mesto
met
metacritic
metacriticist
metal
metalla
metalleh
metallij
metallijn
metallin
metallurgiast
metaltech
metauro
meteoriit
mether
methods
metodeh
metodiikkaa
metralla
metres
metro
metroid
metropoliit
metropolkaavpug
metropolkua
metsa
metsikko
metso
metsola
metta
mette
mettula
mettum
mettumeh
meunier
mexican
mexicano
mexicanos
mexico
mexicost
mezzana
mezzo
mg
mgaloblis
mgin
mgm
mhia
mhm
mhnt
mi
mia
mianiripluti
miarkka
miba
micah
michael
michailova
michel
michele
michelin
michelle
michigan
michiganist
michizane
micissa
mick
mickelso
mickey
micro
microcosm
microprose
microsoft
microvariation
microvision
mid
middle
mideaaleh
mideijee
midi
midnight
midway
midwinter
mieenna
miehen
miehikka
miehoila
miehola
miekka
miekkio
miekkula
miela
mielaanniemi
mield
mielde
mieldi
mielga
mielhi
mielhist
mielikki
mielis
mielisholm
mielisma
mielkki
mieloja
miemala
miemois
miemola
mienna
mierla
mierola
mies
miesa
mieskee
mieskonma
mieslahti
miesta
miestui
miestust
miestuu
mieta
mietinsaari
mietipia
mieto
mietoinen
mietta
miettila
miettinen
miettula
miettyla
mievta
mieđa
mieđeet
mieđetta
mieđetteijee
mieđettem
mieđettij
mieđettui
mieđettuvvoo
mig
might
mighty
miguel
mih
miha
mihail
mihajlo
mihe
mihheen
mihkkel
mihkku
mii
miia
miiainen
miid
miika
miikka
miin
miina
miinala
miinii
miinut
miinuut
miirha
miitaal
miitaaltavlusta
miitaaltavlustuvah
miiŋki
miiŋkih
miiŋkijd
miiŋkijn
miiŋkist
mij
mija
mijd
mijdis
mijgijn
mijguin
mijjiehba
mijjiehsaemiestibielibie
mijn
mijnejeijeekia
mik
mika
mikael
mikaela
mikalsen
mikalsena
mike
mikey
mikheil
mikiel
mikiela
mikielah
mikirjera
mikka
mikkaja
mikkel
mikkeli
mikkelin
mikkelist
mikkelsen
mikko
mikkola
mikkolanniemi
miklavz
mikli
mikola
mikonsaari
mikrobiolog
mikrofon
mikronesia
mikrotia
mikua
mikulttuur
mil
mila
milanese
milano
mildred
mile
miley
milippu
milja
miljard
miljovn
miljovna
miljovneh
miljovnij
milla
mille
millefolium
millennium
miller
milli
millikan
millington
millions
millola
milne
milton
mima
mimeh
mimi
mimis
mimist
mimosa
mimuseo
mimuusik
min
mina
minamoto
minaret
minas
mind
mindbenders
mine
minecraft
mineost
miner
mineraaleh
mineraalijn
mines
minilex
minira
minister
ministerin
ministerio
minki
minkio
minkkila
minna
minne
minneapolis
minnefors
minneparken
minnesota
minnesotast
minni
minor
minoritet
minority
minot
minsby
minstituut
minun
minuora
minuorah
minuorra
minus
minuta
minutes
minutissimus
minuttid
minuttist
minutus
mio
mioppa
mioppuu
mipalha
mipolitikka
mir
mira
mirabello
miracle
miracles
miramax
miranda
mirha
mirja
mirkka
mirror
mirzakhani
mis
mise
miseervi
miseervih
miservi
misk
miskolc
miskolcist
misola
misoster
miss
missa
missanello
missile
mission
missions
mississippi
mississippijuuva
mississippist
misska
missoula
missouri
missourist
mist
mistral
mit
mita
mitaaida
mitala
mitaleh
mitalid
mitalijd
mitalisteh
mitchell
miten
mitige
mitigge
mitiggeaaira
mitiggeaira
mitiggeest
mitiggepresident
mitiggera
mitiggevaalja
mitiggevaaljah
mitiiga
mitlo
mitloedi
miton
mitsusuke
mitta
mittedeh
mittedui
mittedum
mitto
mive
miveh
mivvees
mix
mixed
miŋkki
mja
mjiena
mjo
mjua
mjuhle
mjuuha
mjuuva
mk
mka
mkaasu
mkeerdijn
mkia
mkirje
mkirjeh
mkis
mkodde
mkoddeest
mkoddekua
mkoddelodde
mkode
mkodeh
mkomissio
mkooda
mkoora
mkua
mkuddijd
mkuudij
mkuudijn
ml
mla
mlb
mliha
mlii
mliih
mlij
mlijd
mlopa
mlua
mlungu
mm
mma
mmaterial
mmađha
mme
mmejeh
mmejeijee
mmejum
mmer
mmi
mmid
mmil
mmila
mmileh
mmilelleeh
mmilellei
mmilii
mmiliih
mmilij
mmilijd
mmilijn
mmim
mmima
mmimalmotta
mmimihe
mmimiveh
mmimsuija
mminmaa
mmir
mmis
mmiđ
mmkar
mmol
mmootaavdah
mmootavda
mmul
mmum
mmuđ
mna
mnangagwa
mne
mnieida
mningen
mnja
mo
moai
moaresluohti
moarra
moarseluohti
mobile
mode
model
modena
modenast
modern
modesto
modiano
mods
moe
mogenpo
moggio
mogliano
moh
mohamed
mohammed
mohamud
mohan
mohheest
mohjelm
mohs
moi
moid
moie
moiguin
moijonen
moikipa
moin
moiniemi
moinsalmi
moires
moisio
moisiovaara
moisiust
moiskala
mojgorod
moji
mokke
moks
mol
mola
molaug
moldova
mole
molekyyl
molekyylbiolog
molekyyleh
molie
molina
molino
molise
molisest
moliterno
mollis
molnby
molso
molsoh
molsoi
molsom
molsomeh
molsođ
moltsia
mom
moma
mombaroccio
moment
momma
mommola
mon
mona
monacilioni
monaco
monarkia
monastero
mondaino
mondavio
monday
monde
mondiet
mondo
mondola
mondolfo
monet
moneta
money
mongoleh
mongolia
monica
monika
monikkala
monittula
monkey
monnii
monniila
monnim
monninkyla
monniđ
monnja
monnoinen
monod
monogatari
monoksid
monola
monolith
monopis
monopoly
monroe
monrovia
monsampietro
monsampolo
monsano
monster
monsters
mont
montagano
montagna
montagnier
montale
montalto
montan
montana
montanast
montappone
monte
montecalvo
montecarotto
montecassiano
montecchio
monteciccardo
montecilfone
montecopiolo
montecosaro
montecosarost
montedinove
montefalcone
montefano
montefelcino
montefiore
montefioredellaso
montefortino
montegallo
montegiardino
montegiorgio
montegranaro
montelabbate
monteleone
montelongo
montelparo
montelupone
montemaggiore
montemarciano
montemilone
montemitro
montemonaco
montemurlo
montemurro
montenegro
montenero
montent
montepiano
monteprandone
monterado
monterubbiano
montesano
monteurano
montevecchio
monteverde
montgomery
monticchio
monticola
montoku
montola
montorio
montottone
montre
montreal
montrealist
monts
monty
monumento
moobiilspeela
moodrai
mooduul
moody
moojis
moola
moomeent
moomintroll
moon
moona
moonbase
moonijd
moonna
moore
moos
moottorkia
mor
morano
moraz
mordor
mordvalas
more
morelli
moresco
morey
morfologia
morfologisa
morfologisii
morga
morgan
morhe
morhedeijee
morhedui
morhedum
moria
morico
morir
moritz
mormor
morning
morocco
morottaja
morottajain
morris
morrison
morro
morrone
morrovalle
morse
morsepustaveh
mortaja
mortal
morte
morten
mortensson
morton
morukov
mos
mosambik
moscow
moseley
moser
moshnikoff
moshoeshoe
moskeija
moskova
moskovast
moskuvaara
moskva
mosnikoff
moson
mosquitoes
moss
mossala
mosshaga
most
mot
motacilla
mother
motherland
motion
motogp
motoma
motomeh
motomij
motomijd
motomijn
motomin
motorola
motosuke
motoyoshi
mott
mottelson
mottoom
mottoomla
mottoomverd
moturoa
moubayed
mouhija
moun
mount
mountain
mountains
mountbatten
mourir
mouse
move
moved
movement
moves
movie
movies
moving
movta
movtigis
mozart
mp
mpa
mpajanem
mpargo
mpbacka
mpeeivi
mpeeivis
mpeeivist
mpeivi
mpeivid
mpeivin
mphakanyiswa
mphamvu
mpi
mpia
mpiira
mpna
mproosees
mqhekezwenin
mr
mra
mraađeest
mras
mrađan
mrađemooduul
mrijja
mrinalini
mrs
ms
msa
msaajeest
msaje
msajeh
msberg
msbo
msby
msisu
mso
msoojijd
msoojijn
mspella
mstaata
msureh
msvik
mswati
msx
mta
mtendere
mtia
mtieđa
mtila
mtoha
mtoima
mtooima
mtsə
mtua
mtukudzi
mtv
mu
mua
muc
muccia
mucha
muchachos
mucisi
muda
muddais
muddo
muddoost
muddusja
mudoi
mudoigin
muerte
muerto
mugello
mugen
muh
muhammad
muhola
muhos
muhosist
mui
muid
muide
muijala
muikku
muikkula
muin
muir
muirchertach
muireca
muiredach
muiredaig
muiris
muistikirja
muita
muitalan
muitalus
muitalusat
muitot
muittut
mujeja
mujo
mukaan
mukirho
mukirhoost
mukirkko
mukirkkon
muldelejeh
muldema
muldesa
mulgi
mulholland
mulino
muljula
mulkoila
mulkue
muller
mullila
mulsa
multia
multiala
multiast
multilingual
multiplayer
multitaaida
mumensta
mumenva
mumi
mun
muna
munapirtti
munch
mundo
mungu
municipal
municipale
municipio
municipios
munittula
munka
munkbacka
munkkulla
munks
munne
munnje
munnuinen
munsala
munsmo
munster
muntee
munthe
munttinen
muoca
muodostuksen
muohtana
muoi
muolaa
muolda
muonio
muoniost
muora
muorah
muorjij
muorjijd
muorjijn
muorra
muos
muosah
muota
muotiala
muotin
muotisunda
muotisyergi
muotka
muottiis
muottust
muottuu
mura
murad
murakami
murales
muratov
murazzano
murchad
murchada
murchadh
murder
murmansk
murmanskii
murmu
muro
murole
murom
murphy
murray
murs
murska
murteen
murteiden
murto
murtoinen
murtola
murtomaa
mus
musah
musar
musculus
museo
museoh
museoi
museoin
museokoorta
museokortta
museost
museum
museveni
music
musicist
musihkka
musiikkipalkinto
musiikkiuutiset
musikaal
musikka
muskrat
muslimeh
muslimla
musone
mussaari
mussala
mussalo
mussolini
must
musta
mustaja
mustajoki
mustama
mustamaa
mustanoja
mustasaari
mustasaarin
mustasaarist
mustela
mustiala
mustianoja
mustila
mustilahti
mustinma
mustio
mustisi
mustlahti
mustola
mustoo
mustoovlih
mustoovlin
mustovli
mustovlijd
mustovlijn
mut
muta
mutainen
mutaisi
mutala
mutanabbi
mutant
mutants
mutenia
muti
mutikko
mutinen
mutkalampi
mutta
mutteđ
muttojeh
muttoo
muttui
muttum
muttuusta
muu
muudon
muuh
muuiku
muukkola
muulsa
muum
muumeista
muumi
muumieec
muumieeji
muumieeni
muumienni
muumih
muumihua
muumij
muumikirje
muumilaakso
muumileehi
muumileevi
muumileevist
muumioskua
muumiperruu
muumista
muumit
muumita
muuraisja
muurama
muurame
muuramest
muurasja
muuratja
muurikkala
muurila
muurla
muurlast
muurola
muuruvesi
muusik
muusika
muusikalbum
muusikalbumeh
muusikfestivaal
muusikfestivaalist
muusikist
muusikjua
muusikkarrieer
muusikko
muusikla
muusikmaailmist
muusikpalha
muusikpalva
muusikra
muusiks
muusikvideo
muusikvideoh
muusikvideoin
muuta
muuttaa
muuvra
muva
muvra
muz
muzong
muđusiih
muŋkki
mv
mva
mvia
mvijdoda
mvijđoda
mvilja
mvua
mvuovda
mvuođa
mw
mwai
my
mya
myanmar
mycetophila
mycetophilidae
mycodrosophila
mycomya
myenster
myerjee
myerji
myerjih
myerjis
myerjist
myevvir
myevvireh
myeđhituodda
mykolajiv
mylanguage
mylla
mylly
myllyksela
myllykyla
myllyla
myllyma
myllypera
myna
mynterla
mynttila
myo
myrans
myrbergsby
myrby
myrkky
myrskyla
myself
mysterious
mystery
mystisa
myth
mythologies
mytologia
mytta
myy
myyra
məmmədov
n
na
naabur
naabureh
naaburkielda
naaburkieldah
naahkijd
naaija
naaja
naakkala
naalijd
naalijn
naamiokia
naantali
naantalin
naappila
naarajoki
naaranoja
naarjoki
naarkoski
naarslahti
naarvansalo
naatula
naavij
naavit
nabda
nabdeđ
nac
nacer
nach
nacio
nacional
nad
nada
nadia
nadie
naefels
nagara
nagirva
nagu
naharij
nahca
nahits
nai
nainen
naipaul
nairobi
naiset
naissance
naistenmatka
naja
najdarabia
najeriya
nak
nakahira
nakamura
nakatomi
naked
nakkila
nakkilast
nala
nalkkila
nalliisvuota
nalliisvuođa
nam
nambu
namco
name
names
namibia
namibiala
namibie
nampa
namur
nan
nana
nanama
nanamist
nancy
nango
nanhia
nannaam
nannaamjua
nannaamla
nanne
nannee
nanodem
nanodiđ
nanook
nanopoccee
nanopocceest
nanos
nanosa
nanosmij
nanosub
nansen
nanya
naomi
napiala
napoleon
napoli
napolist
napue
nara
narihira
narila
narkotiikamna
narnia
narsakkala
narva
narvik
nas
nasa
nasaret
nasaun
nascar
nasiona
nasost
nasser
nast
nastola
nastolast
nat
natale
natalie
natas
natasha
natelas
nathan
nation
national
nations
native
nato
natrium
natsəna
natural
nature
nauriskoski
nauru
nautela
nauvo
nauvost
nava
navajo
navajokiela
navala
navarra
navda
navra
navy
nayrizi
nba
nbr
nc
nchez
nchi
ncipe
ncipela
nd
nda
ndar
ndde
nde
ndeenda
nder
ndez
ndi
ndic
ndikia
ndimist
ndist
ndla
ndo
ndor
nds
ndu
nduamna
ndukoska
ndukua
ndula
ndulij
ndun
nduriggoduva
ndust
ndustaađa
ndustaađah
ndusuoja
nduva
ne
nea
neas
neavrri
nebraska
nebraskast
nebularia
nebulosa
nebulus
nec
nech
ned
neder
nedervetil
need
neelji
neeljic
neeneeckiela
neenkartano
neeta
neeti
neetist
negatiivla
negga
negishi
neh
nehammer
nehvonniemi
nei
neighbours
neil
nejla
nekka
nekketsu
nekoski
nekoskin
nekoskist
nel
nelji
neljiha
neljii
neljijn
neljijnc
neljinuba
nella
nellim
nelson
nem
nemapogon
nemesis
nemlia
nemoli
nems
nemvuota
nen
nene
neo
neoempheria
neon
neorealistla
nepal
nepola
neptunus
neq
nera
nerkoo
nerkoonniemi
neropa
neropatin
nes
neskin
nest
net
netflix
netflixist
netiellee
netielleeh
netstal
nettika
nettisaje
nettisiijđoh
nettisiijđoin
nettisijđoh
network
neuf
neula
neulaniemi
neurotiettee
neutraalla
neutron
neuvo
neuvoinen
neuvola
neuvoston
neva
nevada
nevadast
nevala
nevalainen
nevalainena
nevas
neve
never
neverwinter
nevila
nevis
nevo
new
newman
newport
news
newton
next
nez
nfl
ng
nga
ngaahika
ngaikomborerwe
ngainaye
ngal
ngam
nganasankiela
ngaraama
ngbergso
nge
ngel
ngeles
ngelma
ngen
ngesleva
ngin
ngmanska
ngna
ngo
ngola
ngolo
ngozi
ngsfo
ngstand
ngstekta
ngstjert
ngstrand
ngu
nguvu
nguyen
ngvik
ngwenyama
nha
nhia
nhijoki
nhl
ni
nia
nica
nicaragua
niccolo
nichibutsu
nicholas
nicia
nick
nickel
nickerie
nico
nicola
nicolaas
nicolas
nicole
nicolle
nid
nidaros
nidfurn
niditinea
nidui
nidum
niederurnen
niegadit
niehku
nieida
nieidah
niels
nielsen
niemela
niemenkyla
niemenmaa
niemenpa
niemi
niemikyla
nieminen
niemisja
niemiskyla
niemisto
niemisvesi
niemola
niera
nierah
nieto
nieuw
nig
nigel
niger
nigeria
nigeriala
nigerist
night
nightmare
nights
nightwish
nigra
nigricans
nigricauda
nigricornis
nigrifrons
nigripalpis
nigripes
nigriventris
nigrum
nih
niha
nihattula
nihdeinen
nihis
nihisdokument
nihiselleekove
nihiselleekoveh
nihisfiilma
nihisfiilmah
nihisfilma
nihon
niht
nihtio
nihub
nihubbooht
nihuboh
nihumos
nii
niijtoin
niila
niili
niillas
niillasa
niilo
niin
niina
niinijoensuu
niinikoski
niinikumpu
niinilahti
niinima
niinisaari
niinisalo
niinisto
niinivaara
niipala
niirpi
niit
niitlahti
niitsuma
niitty
niittylahti
nij
nijd
nijgijn
nijla
nijlas
nijmegen
nijn
nijttomarikiela
nik
nika
nike
nikinoja
nikirje
nikirjeh
nikka
nikkarila
nikkarla
nikkaroinen
nikkel
nikkila
niko
nikola
nikolaas
nikolai
nikolaus
nikula
nikuolij
nile
nilla
nille
nilodde
nils
nilsby
nilsen
nilsia
nima
nimi
nimo
nin
nina
nine
nineteen
ning
ninja
ninmyo
nino
nintendo
ninu
nio
nioornig
nippean
nipso
nira
nirihha
nirijja
nirppi
nis
nisa
nisja
niska
niskala
niskama
niskanen
niskapietila
niske
niskirja
niskyla
nislehto
nisola
nisona
nisoneh
nisonid
nisonieida
nisonij
nisra
nisrus
nissalo
nissen
nissi
nissila
nissoon
nissoonc
nissoonla
nissoontoima
nissoonua
nist
nistee
nistem
nistmist
nisu
nisvuonja
nit
nitia
nitida
nitlax
nitraationi
nitro
nits
nittiđ
nituodda
niue
niuhala
niukkala
niuttula
niuvanmaa
niva
nivala
nivalast
nivalis
nivelax
niviaq
nivuota
nivuođa
niz
niđ
niħ
niŋa
nja
njaal
njaala
njaalga
njaddon
njados
njadosin
njale
njama
njamba
njameh
njamonjune
njarga
nje
njees
njeiga
njellim
njellima
njellimist
njes
njia
njice
njiz
njobz
njoki
njolla
njoma
njooma
njua
njuhc
njukc
njune
njunijnis
njunja
njunnejeh
njunos
njuola
njuolga
njuolgist
njuolla
njuoska
njurga
njurgo
njurgum
njus
njuurga
njuuvc
njyebz
nk
nka
nkaavpuga
nkangu
nkaro
nke
nki
nkia
nkiela
nkipohja
nkis
nkko
nko
nkorva
nkoski
nkoskin
nkrumah
nkyla
nla
nlahti
nlaing
nlainge
nland
nlaskua
nlund
nm
nma
nmaa
nmaanoost
nmeh
nmid
nmij
nmijn
nmin
nmist
nn
nna
nnai
nnam
nnboda
nne
nnevirta
nnhammar
nni
nnia
nniemi
nnii
nnikbo
nnila
nningeby
nninma
nninsalo
nnisto
nnja
nnk
nno
nnoehba
nnoehsaemiestienlean
nnrot
nnud
nnynma
no
noastra
nobel
nobelfondd
noble
nobunaga
nobuo
nobutomo
noce
nocera
noel
noepoli
noha
nohka
nohkua
noir
noire
noise
noitarumpu
noja
nojanmaa
nokia
nokian
nokiast
nokkahiisi
nokkala
nokoinen
nola
nolla
nom
noma
nombre
nominativist
nomineh
nomma
nomo
non
nonnij
nonniđ
nooma
noomah
noomin
noona
noormarkku
nooveel
nooveelc
nopola
nora
norcia
nord
nordana
nordanvik
norden
nordenmarkia
nordenskio
nordic
nordica
nordisk
nordiska
nordland
nordvik
norfolksua
norike
norilsk
norma
normaalihe
normaalliega
norman
normandla
normanni
norola
norra
norrboda
norrby
norrla
norrlammala
norrna
norrstrand
norrsunda
norrsundvik
norsk
norstedts
north
northern
northumbria
norton
norway
norwegian
nos
nossa
nostra
not
notata
nothing
notizie
notoc
notre
notte
nou
nouakchott
noude
noume
nous
nousee
nousiainen
nousiaisii
nousiaisiist
nousiala
nousu
nouvelle
nova
novelleh
novellijd
novgorod
novo
novoselov
novosibirsk
now
nowakowski
nowhere
noxa
npa
npera
npieija
npua
npuohtum
npuovtij
npyehtee
npyehtim
npyehtiđ
nqvist
nr
nranta
nrk
ns
nsa
nsaari
nsalmi
nsalo
nsauru
nsbo
nsby
nses
nsi
nsikyla
nsiniemi
nskog
nsman
nsmana
nsna
nspeelah
nspella
nsr
nssa
nsson
nstaata
nstaatah
nstaatta
nster
nsula
nsun
nsuo
nsust
nsuu
nsw
nta
ntadulvvit
ntaipale
ntaka
ntamo
ntaus
ntausta
nte
ntela
nter
nthal
ntico
ntila
nto
ntsa
ntta
ntte
ntus
ntyharju
ntyharjust
ntyla
ntylahti
ntynen
ntyniemi
nu
nua
nuasja
nub
nuba
nubbe
nubben
nubbijd
nubbijn
nube
nubebeln
nubeh
nubena
nubij
nubijdis
nubijkulij
nubijnis
nuca
nuclear
nucleo
nuda
nuduv
nuduva
nuduvva
nue
nuestra
nuestros
nueva
nuh
nuhhii
nuhjala
nuhta
nui
nuijamaa
nuin
nuit
nujuuha
nujuuva
nukari
nukem
nukkila
nulto
numana
numereh
numerid
numerist
numlahti
nummeer
nummeerla
nummeervua
nummela
nummenkyla
nummenpa
nummi
nummija
numminen
numos
numoseh
nun
nunca
nunna
nunnanlahti
nuo
nuoliala
nuolija
nuora
nuorah
nuoraja
nuoramoinen
nuorat
nuorgam
nuorikkala
nuorlahti
nuorra
nuorta
nuortabiegga
nuortta
nuorttii
nuorttiibeln
nuota
nuotioranta
nuotta
nuottiimist
nuottij
nuottim
nuova
nuove
nuovo
nuppaajeest
nuppaijeed
nuppaje
nuppebeliid
nuppola
nura
nure
nurejev
nurkkila
nurmaa
nurme
nurmela
nurmes
nurmi
nurmiainen
nurmija
nurmo
nurmonjokilaakso
nurmost
nursery
nus
nusia
nust
nutimja
nutturla
nuu
nuuba
nuubij
nuubijd
nuuha
nuupala
nuura
nuurra
nuuskala
nuuski
nuutaja
nuutala
nuutila
nuuva
nuuvt
nuuvta
nuuvtko
nuuvtkoc
nuuvtpa
nuuvttii
nuva
nuvvus
nva
nvaara
nvalo
nvatsa
nvik
nvuoiga
nvuota
nvuođah
ny
nya
nyby
nyelvtan
nyere
nyeti
nyettee
nyetti
nyettilyevdi
nyevt
nyga
nyhka
nyi
nyia
nyika
nyka
nylander
nyong
nyrhila
nyrkko
nyro
nyrok
nystro
nyt
nyu
nyungala
nyyna
nz
nza
nzi
nzo
næjla
nærum
nəhnətsa
nəlmə
o
oa
oahpa
oahppan
oainna
oak
oapmi
oarjel
oarreluohti
ob
obama
obbna
obelix
oben
ober
oberurnen
obey
objekt
obliqua
oblivion
obodo
oboe
obscura
obscuripennis
obstalden
oca
ocarina
occhio
occidentale
occidentalis
occoon
ocean
oceans
oceh
och
ochropus
oda
odd
odda
oddbjørg
oddii
oddity
oddworld
oddysee
odeh
odessa
odii
odij
odiđ
odui
odum
oduvvojeh
oduvvoo
oduye
odyssey
oe
oelberg
of
off
offagna
office
official
offida
offrons
og
oglio
ognor
ogre
oh
oha
ohc
ohcalan
ohcejohka
ohe
ohensaari
ohensalo
ohhoost
ohio
ohiost
ohje
ohjelm
ohjelma
ohjelmijd
ohjelmist
ohjelmistee
ohjelmistemkiela
ohjus
ohkola
ohm
oho
oholoopa
ohopeivi
ohta
ohtaanniemi
ohtavaara
ohtii
ohtnuba
ohtola
ohtsa
ohtsii
ohtsis
ohtuu
ohtuunis
ohtuunisorroo
ohtuuspeela
ohtuuspella
ohtuuvuoiga
oi
oija
oikea
oikeudet
oikeus
oikkola
oil
oin
oinaala
oinasja
oinen
oinola
oinui
oinum
ois
oise
oitbacka
oitti
oittila
oiva
oivu
oja
ojainen
ojaja
ojakkala
ojakyla
ojala
ojamo
ojaniemi
ojanpera
ojansuu
ojeh
ojii
ojoinen
oka
okada
okala
okapi
okapih
oke
okerla
okka
okke
okkiđ
okko
okkod
okkola
oklahoma
oklahomast
okonjo
okr
oksaalsuvra
oksala
oksanen
oksas
oksid
oksideh
oksoniumioni
okteetist
ol
ola
olaf
olas
olaus
olav
olavi
olbe
olbmo
old
ole
oles
olesva
olga
olgo
olgoeenna
olgoelektron
olgoelektroneh
olgoelektronid
olgoena
olgoha
olgola
olgolumos
olgominister
olgoministerio
olgomuseo
olgon
olgopia
olgos
olgosadalduvah
olgostiijla
olgosua
olgosuonja
olgova
olhava
oli
oliva
olive
oliver
olivia
oljo
olkinen
olkinuora
olkitaipale
olkkala
olkkola
olkkolanniemi
olla
olle
olli
ollikkala
ollila
olluuh
olluv
olma
olmoos
olmoz
olof
olofsna
olsen
olsna
olssis
olsson
olthuis
olympia
olympiala
olympialiih
olympialij
olympialijd
olympialijn
olympian
olympic
olympics
olympio
om
oma
omaan
oman
omanist
omar
omega
omh
omist
omo
omsk
omubotu
omurtag
on
ona
once
one
ones
onkamo
onkema
onkijoki
onkimaa
onkiniemi
onkivesi
onkkaala
online
only
onna
onne
onnea
onnenvuori
onnes
onni
onnii
onnikmaa
onnistaipale
onnui
onnum
ono
onon
ons
onst
ont
ontala
ontario
ontronvaara
onward
ony
onze
oo
oobijn
oobijnis
ooda
oogij
oogijn
ooh
oohc
oohta
ooinij
oola
ooleest
oolla
oolmij
ooma
oona
oonij
oonna
oonnum
oopa
oopah
ooppera
oopperala
oopperanuota
ooraans
oorjijd
oorlahti
oornig
oornigist
oornigloho
oorniglovo
oortah
oorvijd
oosij
oosijd
oosijn
ooskij
ooskon
oosmo
oost
oostij
ootoinen
oovc
oovca
oovce
oovcenuba
oovda
oovdeb
oovded
oovdedma
oovdedmist
oovdeds
oovdis
oovsijd
oovsijn
oovta
oovtka
oovtkia
oovtla
oovtvia
oođa
ooŋa
ooŋah
op
opa
opas
open
opera
operation
operatorname
oppa
oppeet
oppido
oppitekoisten
oppolzer
oppstandne
oppus
oppuu
oppuuh
oppuuluudij
opresio
ops
or
ora
oraja
orala
orange
oranjestad
oranseh
oratino
oratorio
orava
oravainen
oravais
oravaisii
oravala
oravaniemi
oravasaari
oravisalo
oravivaara
oravula
orbitaal
orchestra
orciano
ord
orda
ordbog
ordbok
order
ordino
ordre
oregon
oregonist
orehek
ores
orespua
oressoorvah
org
orgaan
orgaaneh
orgaanij
orgaanin
orgaanla
organic
organisaatio
orge
oria
oriast
oriental
orientales
orientalis
original
origins
orija
orile
orimattila
orimattilast
oriniemi
orion
oripa
orismala
orivesi
orivesin
orivesist
orja
orjanhirsi
orkester
orkola
orkovakkinen
orlandi
orlando
orleans
orleansist
ornata
ornatipennis
ornatus
orniista
ornij
ornijdume
ornim
ornitolog
orniđ
oro
oroh
oroi
orola
orologio
orostij
orostittij
orozco
orra
orrby
orrenkyla
orrna
orroo
orroomha
ors
orslahti
orsna
orson
ortezzano
orto
ortodoksila
ortografia
ortovety
orvietost
orvlax
orwell
os
osa
osagela
osakeyhtio
osamu
osara
osare
osasto
oscar
oscarsborg
oseania
oseaniast
osheroff
osian
osikonma
osimo
oskal
oskarsson
osko
oskoh
oskola
oskolda
oskolduv
oskolduva
oskolduvah
oskolduvla
oskolduvlii
oskolduvliih
oskomus
oskoost
oslo
oslost
osmaja
osmalahti
osmani
osmanki
osmundsbo
ospedale
oss
ossijd
osta
osten
osteria
ostlappische
ostoc
ostra
ostrense
ostrom
ostronsaari
ostroverkhova
ostuni
ostunist
oswald
ota
otamo
otava
otavan
oterma
other
others
otito
otne
otoc
otome
ottele
otto
ottomaaneh
otu
ou
ouagadougou
oue
ougrienne
oukkula
oulainen
oulaisii
oulaisiist
oulu
ouluja
oulujoki
oulun
oulunsalo
oulust
ounas
our
ourajoki
ours
out
outamo
outer
outi
outila
outokumpu
outokumpust
outrun
outside
ouvrage
ov
ova
ovana
ovc
ovca
ovda
ovdeba
ovdebeh
ovdebii
ovdebij
ovdebijn
ovdeda
ovdedeh
ovdedeijee
ovdedeijen
ovdedem
ovdediđ
ovdedum
ovdela
ovdemus
ovdii
ovdiih
ovdil
ovdilgo
ovdla
ove
over
overkill
overwatch
ovlla
ovssijd
ovta
ovtta
ovttas
owen
own
owuro
oxford
oxfordist
oxyd
oxyria
oy
oyewo
oz
ozerov
ozi
ozu
ođ
ođa
ođba
ođđa
oŋŋa
p
pa
paa
paacca
paadar
paadij
paajaabeln
paajala
paajeeb
paajeed
paajeeld
paajeest
paajii
paajij
paakkala
paakkola
paakkonen
paakkunainen
paakkunala
paalanen
paalasmaa
paalda
paalila
paapah
paappala
paara
paargon
paarmala
paarra
paarskyla
paas
paasa
paasaatpiegah
paasi
paasij
paasikivi
paasilinna
paasilinnan
paasniemi
paasola
paasto
paatela
paatelainen
paatiala
paatio
paatta
paattinen
paattisiist
paavainen
paavi
paavin
paavo
paavola
paavolast
paavva
paaŋki
pablo
pac
paca
paccii
pace
pacheco
pacific
pack
packais
padankoski
padasjoki
padasjokist
paddainen
paddim
padonmaa
padovast
padres
padula
padus
padustaipale
padva
paese
page
pahikainen
pahikkala
pahka
pahkakyla
pahkama
pahkavuori
pahloinen
pahudij
pai
paihola
paijaan
paijeel
paijeelmia
paijeen
paijeentoolla
paijeentua
paijula
paikka
paima
paimala
paimio
paimion
paimiost
pain
paino
paippinen
pair
paistanoja
paistila
paix
pajala
pajalda
pajama
pajan
pajana
pajaneijee
pajanem
pajanii
pajanij
pajaniđ
pajarila
pajas
pajaskulij
pajass
pajbo
paje
pajea
pajec
pajedeijee
pajedij
pajehovda
pajekiela
pajela
pajemus
pajeolmoos
pajepotta
pajeroobda
pajes
pajeta
pajetua
pajeua
pajeulmuuh
paju
pajuja
pajukanta
pajukoski
pajula
pajulahti
pajuma
pajuniemi
pajusaari
pajusalu
pak
pakaa
pakainen
pakalniskis
pakapyo
pakarinen
pakasela
pakinainen
pakistan
pakistanla
pakka
pakkala
pakkasela
paksalo
paksuniemi
pala
palace
palacios
paladio
palaearctic
palainen
palata
palau
palazzo
palda
pale
palermo
palestiina
palestiinast
palga
palha
palhas
palho
palhojainen
palikainen
palike
palikkala
paljakka
paljon
palkinnoista
palkinnon
palkinto
palko
palladium
pallens
pallida
pallidum
pallipes
pallosenvaara
palm
palma
palmas
palmer
palmga
palmiano
palmieri
palo
paloinen
palois
paloistenkyla
paloja
palojoki
palokka
palokyla
palolainen
palomaa
palombare
palomino
palonen
paloniemi
palonkyla
palpalis
palsala
palsam
paltamo
paltamost
paltta
palttila
paltto
paltvuori
palus
palva
palvala
palviala
palvis
pam
pama
pamacca
pamela
pamflet
pamo
pamoja
pan
panala
panama
pancrazio
pandemia
panelia
panic
panigrahy
panike
pankaja
pankakoski
pankkio
pannamia
panne
panoraamkove
panorama
panoramica
panoramio
panseksuaaleh
panseksuaalvuota
pansexual
pantana
pantanelle
panther
panthers
pantomiim
pantsarna
panzer
paolo
papa
papala
paperboy
papers
papp
pappa
pappila
pappilanma
pappinen
paprika
paprikah
paprikast
papua
papuana
papuma
papunen
par
para
parade
paradigms
paradiis
paradise
paradisea
paraguay
parainen
paraisii
paraisiist
parallel
parallelinervis
paramacca
paramaribo
parancistrocerus
parantala
paraolympialiih
parasiitin
parasites
parattula
paravetyst
parco
parga
pargas
parged
pargee
pargeevia
pargeipia
pargo
pargoadeleijeeh
pargoh
pargoi
pargoid
pargoin
pargojua
pargokirje
pargon
pargoos
pargoost
pargosaje
pargostis
pargovyeimi
parhalahti
pariisi
pariisin
pariisist
parikka
parikkala
parikkalast
parila
paris
parisi
parjala
park
parkano
parkanost
parkatniemi
parker
parkinson
parkist
parkkala
parkkarila
parkkila
parkkola
parkkuu
parkuma
parlament
parlamentaarla
parma
parmaferia
parmast
parnij
parnijd
parny
paro
parola
paroni
parrila
parrocchiale
parrs
parsas
parsby
parsila
part
partala
parte
partela
partenkirchen
particolare
partila
partio
partiolaiset
partola
partout
partsinmaa
partti
party
parva
parvela
pas
pasa
pasanen
pascelupo
paschalis
pase
paseolmoos
pasepeeivi
pasepeeivih
pasepeivi
pasifist
pasila
paskos
pasquale
pasquini
passa
passado
passage
passato
passau
passer
passiivla
passionate
passo
past
pasta
paste
pasteh
pastel
pastelis
pat
pata
patagonica
patajoki
patakoski
pataksela
patala
patamo
patapoutian
patarautila
patenttoima
paterno
path
pathe
pato
patria
patricia
patrick
patrie
patrik
patrikka
patrio
patrios
patrizio
patrol
patsola
patterns
patti
pattijoki
pattijokist
paturs
pauanne
pauha
paukarlahti
paukkula
paul
paula
paulensis
paulette
pauli
pauliina
pauline
pauling
paulo
paulson
pauni
paunonen
pave
pavel
pavi
pavlova
pawn
payne
pays
paz
paŋkki
paŋkkihovda
paŋkkiolmoos
pbacka
pc
pcw
pdf
pe
peace
peak
peaks
peaksist
pearl
pearson
peary
pecikua
pectinata
pedagog
pedagogiik
pedar
pedaso
pedazo
pedersa
pedersen
pederso
pedretti
pedro
peeccih
peeci
peegga
peeivi
peeivic
peeivih
peeivij
peeivijd
peeivijn
peeivisia
peeivist
peeivita
peele
peeleest
peeli
peelijd
peelijn
peeljih
peeljij
peenuv
peera
peers
peerust
peerustha
peesa
peesi
peesih
peesist
peessa
peevola
peeŋka
pega
peggim
peggy
peglio
pegomya
pegomyinae
pehr
peht
pehti
pehtila
pehtilis
pehtsalo
pehula
pei
peic
peijari
peik
peiliin
peinikkala
peipohja
peippola
peippu
peiv
peivi
peiviaktiivla
peivialmai
peivid
peivij
peivijd
peivikia
peivikirje
peivimeeri
peivin
peiviv
peiviva
peking
pekka
pekkala
pekkola
pekola
peksala
pekurila
pel
pela
pelduvva
pele
pelea
peleds
pelgi
pelhola
peli
pelifiinaal
pelifinaleh
pelikyeimi
pelikyeimis
peliluma
pelimetalleh
pelimuddoost
pelimudo
pelitaavda
peliua
peliucceeblovoh
peliucceeblovoi
peliucceeblovvoid
pelivilja
peljira
pelkola
pelkosnjaarga
pelkosnjarga
pelletier
pellico
pellila
pellinen
pellinge
pellinki
pellionella
pello
peln
pelni
pelnub
pelo
pelonniemi
peltoinen
peltoinlahti
peltokorpi
peltola
peltomaa
peltoniemi
pema
pen
pendo
pendones
pendula
peng
pengonpohja
penicillata
penn
penna
pennala
pennanen
pennetta
pennsylvania
pennsylvaniast
pennuu
pennuuh
pennuujuŋŋa
pensalo
pensar
pensilis
pensor
pentinkyla
pento
pentti
penttila
penuvellee
penza
people
pepper
per
pera
percy
perfect
performance
performer
pergola
perhe
perheniemi
perho
perhost
peri
pericle
pericoma
periferia
perifrastliih
perilliset
perils
perinka
perio
periodika
perkio
permila
permiliih
permilij
pernaja
pernio
pero
perpoinen
perrui
perruid
perruin
perruinis
perrus
perrust
perruu
perruuh
perruujesa
perruus
pers
persbo
persby
persen
persia
persiala
persialuohta
person
persona
personal
persovn
persovnist
persovnla
persovnlii
persovnlijd
persovnpronomineh
persovnpronominijn
persovnsaemiestidhlea
persovnunion
perticara
perttala
pertteli
perttelist
perttila
perttula
pertunmaa
peru
peruanos
perugia
perula
perus
perusta
perustum
perutz
pes
pesa
pesaro
pesarost
pescara
pesco
pescopagano
pesio
pesipa
pesky
pesolansaari
pesonen
pessee
pessejeh
pessejeijee
pessii
pessij
pessija
pessim
pessima
pessimkua
pessimna
pessiđ
pest
pestee
pet
peta
petacciato
petalaks
pete
peter
petersburg
petersen
peterson
petite
petkele
petkula
petolahti
petolahtist
petra
petravaara
petrelius
petrella
petri
petriano
petriolo
petritoli
petroma
petrosjan
petroskoi
petroskoist
petrovaara
petruma
petrus
petsmo
petta
pettbo
petter
petteri
pettersson
pettila
pettinen
pettu
peuple
peurala
peyi
pez
pga
ph
phalaropus
phantasie
phantasmagoria
phantom
pharaoh
phil
philadelphia
philadelphiast
philharmonic
philip
philipp
philippi
philips
phillip
phillips
philosopher
phobos
phoenix
phonetic
phonetics
phonological
phonology
phorbia
phoridae
php
physics
physiology
pi
pia
piaf
piagge
pian
piana
piandimeleto
piane
pianello
pianisi
pianist
piano
pianoc
piatra
piave
piazza
piazzetta
pic
pica
picard
piccolo
picea
picena
picenast
piceno
picenost
picerno
pico
picoides
picswiss
pictures
pictus
pie
pieca
piece
pieces
piega
piegah
piegga
piehinki
pieija
pieijii
pieijui
pieijum
pieinis
pieja
pieksa
pielavesi
pielavesist
pielinen
pielisensuu
pielisja
piemma
piemonte
piemontest
pieni
pienisto
pienoiskuva
piensa
piera
pierce
pierga
piergiitta
pierre
pierva
pieta
pietarsaari
pietila
pietola
pietolansaari
pietra
pietracatella
pietracupa
pietragalla
pietrangeli
pietrapertosa
pietrarubbia
pietro
pietta
piettinen
pieuvres
pieux
pieve
pievebovigliana
pievla
pieđga
pieđgij
pigby
pigeon
pigga
pignola
pigs
pih
pihalla
pihkainma
pihkala
pihkalanja
pihkova
pihla
pihlaisto
pihlaja
pihlajalahti
pihlajaniemi
pihlajavaara
pihlajavesi
pihlajavesist
pihlaus
pihlava
pihleja
pihta
pihtipudas
pihtipudasist
pihtsijd
pii
piic
piiha
piikkila
piikkio
piilijoenmaa
piiloinen
piiloot
piilovaara
piima
piippola
piipsja
piira
piiraatpia
piirit
piirlahti
piis
piisam
piispaja
piispala
piispalanma
piitanoja
piitta
piittala
piivdost
piivnoh
pijavs
pijssa
pikia
pikin
pikka
pikkala
pikkola
pikku
pikonkorpi
piktij
pikua
pila
pilgrim
pilletivreh
pilli
pilosa
pilot
pilpala
piltola
piluokka
pimea
pin
pinball
ping
pinguicula
pinjainen
pink
pinlahti
pino
pinochet
pinsio
pintaremontti
piobbico
pioneer
pioraco
piparby
pipin
pipola
pippin
pippurimylly
pira
pirano
pirate
pirates
pirc
pire
pirgit
pirhia
pirhola
pirila
pirinen
pirita
pirkanmaa
pirkka
pirkkala
pirkkalankyla
pirkkalast
pirkkio
pirra
pirtti
pirttija
pirttikoski
pirttikyla
pirttima
pis
pisa
piskola
piso
pisoh
pisoi
pisotta
pisova
pispala
pispe
pispekodde
pispekode
pissoin
pissoom
pissoođ
pissuu
pistocchi
pistoiast
pit
pita
pite
piteja
pitka
pitkiskallio
pitolamminma
pitt
pitta
pittsburgh
piutula
pivda
pivdeh
pivdem
pivdema
pivdeđ
pivdii
pivdo
pivdoellee
pivdum
pivnoheh
pivnohis
pivnohist
pivnohub
pivnohumos
pivnohumosijn
pivnohvuota
pivta
pivva
pixar
piŋa
pjotr
pk
pla
plaaneet
place
places
placid
plague
plaine
plains
plan
planck
planet
planetaarisa
planete
planeteh
planetij
planetijn
planina
planken
plankton
planman
plano
planta
plantaasij
plante
plants
plasma
plasmafysikka
plasman
plassmann
platinum
plaumanni
play
player
playground
playing
playoff
playstation
please
pleasure
plectrophenax
pledge
pleikila
pleistoseenpaje
plenty
ples
plig
pliga
pligeh
pligij
pligijd
pligijn
pligist
pligna
pligoppuu
plotdata
pluhppa
plummer
pluppa
plus
pm
pma
pmelac
pmelas
pmi
pmu
pna
png
po
poc
poccee
pocceela
poccud
poccui
poccuid
poccuin
poccuu
poccuuh
poccuupia
pocket
pocketful
pockets
pod
podboc
poder
podgorje
podgrad
podljuben
podlog
podopagouros
poe
poems
poggio
pogguu
pohc
pohja
pohjakyla
pohjala
pohjalahti
pohjalainen
pohjan
pohjankapee
pohjankartano
pohjankuru
pohjankyla
pohjanmaa
pohjanmaast
pohjanta
pohjaslahti
pohjast
pohjiinkyla
pohjoinen
pohjois
pohjoisen
pohjoisma
pohjoismaiden
pohjoisosa
pohjola
pohjolan
poika
poikelus
poikko
poikola
point
poitsilanmaa
poitsiniemi
pojoga
poke
poker
pokka
pokkaast
pokkola
poksa
pola
polanyi
polar
polaris
poldii
pole
polfe
police
politics
politiik
politiika
politiikist
politiikla
politikka
pollenza
pollino
polmak
polo
polonium
poltergeist
poltergeists
polttija
polttila
polva
polverigi
polverina
polvija
poly
polye
polynesia
polypedilum
polyteknisa
pomarkku
pomarkkust
pomona
ponce
pond
pone
pongspella
ponne
ponnec
ponneest
ponsa
pont
pontano
ponte
ponti
pontoppidan
ponzano
pooh
poojij
poojijd
poojijn
pool
poola
pooliitla
pooliitlii
pooliitlij
poolis
pooliseh
poolisist
poolista
poolitla
poolitlii
poolitliih
poolva
poona
poora
poorah
poorga
poos
poosta
poota
poođa
poođij
poođijn
pop
popa
popkulttuura
popla
popmuusik
poprock
populaarmuusik
populaarmuusika
populaarmuusikist
populaatio
populaatioh
popular
population
populous
por
pora
poreh
porga
porge
porgema
porhonkallio
pori
porin
porkkala
pormia
pornainen
pornaisii
pornaisiist
pornoc
porosaari
porosalmi
porovesi
porque
porras
porrojii
porsanger
porsaŋg
port
porta
portable
portal
portale
porter
porthan
portimoja
portland
porto
portocannone
portrait
portsmouth
portta
portti
portugal
portugalist
portugalkiela
portugalla
portuguesa
porvola
porvoo
porvoost
porzio
pos
poseidon
posial
positiivla
position
positions
poso
posoh
posonja
possijdvaja
post
posta
posten
posti
postman
posto
pot
pota
potentiaalenergia
potentiaalenergiast
potential
potentilla
potenza
potenzast
potholes
potila
potkela
potocki
potoskavaara
potro
potta
potter
pottii
pou
poukkala
poulsson
pound
pour
poussu
poutala
poutuis
povo
povos
povrs
povu
povva
powder
powell
power
powermonger
powers
powys
poya
poytyan
poznan
pozzo
pozzuolo
pp
ppa
pped
ppee
ppeeh
ppei
ppeid
ppein
ppelo
ppen
ppi
ppih
ppija
ppil
ppila
ppin
ppinen
ppl
ppo
ppoid
ppojeh
ppoo
ppu
ppud
ppukia
ppuluva
ppus
ppusa
pra
practice
praha
prahast
praia
praise
pramila
pras
pratchett
prato
prayer
pre
prebralo
precious
predikat
preesens
preesensist
prefektuura
prefektuureh
preghejo
preitti
prekmurje
prelog
prelude
premier
premiere
prepare
pres
presea
presente
presents
president
presidenteh
presidentia
presidentin
presidentit
presidentvaalja
presidentvaaljah
presley
preso
press
presso
pressure
prestige
pretoria
pretty
preux
prevail
prey
prez
pri
pria
price
pride
pridefestivaal
pridepaaraat
pridest
priinsa
priivaat
priivaateellim
priivaatla
prima
prime
primo
primorska
primsæssa
prince
princess
prins
prinsasj
prinses
prinsetje
prinsiip
prinsiipijd
prinssa
prinssas
prinze
priora
pris
prison
prisoner
pristava
private
prix
prize
pro
problems
proceedings
proclaiming
productions
profanar
professional
professor
professoreh
professorin
profile
progress
progressiivla
project
projekct
projekta
projekteh
projektijd
projektijn
projektist
promise
promised
pronomin
pronomineh
pronominijn
pronssimiitaal
pronssimitalid
pronti
pronuncia
proofiilkove
proojeekt
proosac
prooseent
proosees
prootoon
prooviins
proper
prophecy
prophet
pros
prosenttid
prosimulium
prosodic
prosody
prospe
prossimo
prost
prostvik
prote
protect
protege
proteiineh
protektoraat
protestin
protium
protocol
protonij
prototype
proud
provani
providence
province
provinseh
provinsist
provvidenti
proxima
prozess
prunkila
prunkkala
prvac
ps
psa
psectrosciara
psp
psv
psycho
psychoda
psychodidae
psykedeelisa
pt
ptu
ptuh
ptuj
pu
pua
pubescens
public
publishing
puccini
puda
pudas
pudasja
pudda
pudding
pue
pueblo
pueblos
puerto
pues
puglia
pugliast
pugnax
puh
puharila
puhdistus
puheenjohtajaksi
puheenjohtajat
puhelimijd
puhelin
puho
puhos
puhossalo
pui
puid
puidis
puig
puiga
puikkola
puikonniemi
puin
puinis
pukara
pukbo
pukinma
pukkala
pukki
pukkila
pukkilast
pulci
pule
pulijdem
pulitzer
pulkbacka
pulkkala
pulkkila
pulkkinen
pulla
pulli
pullila
pullola
pulp
pultava
pummainen
pummiharmonia
pump
pun
punch
punctata
pungbo
punittu
punk
punkaharju
punkalaidun
punkalaidunist
punnonma
punola
puntala
puntama
puntsi
punttinen
puocca
puoh
puoha
puohah
puohc
puohha
puohla
puohporree
puohporreeh
puohta
puohtii
puoida
puoidust
puoiduuh
puokio
puola
puolakkavaara
puolala
puolanka
puolankast
puolast
puolij
puolimatka
puollii
puolueet
puoluekokoukset
puoluesihteerit
puolva
puolvah
puontpyo
puopyo
puorijd
puosa
puosta
puota
puotila
puotunen
puovta
puovtij
pupillkassa
pupin
puppa
pura
purala
purcell
pure
purhala
purhola
puri
purja
purjala
purmo
purmoja
purnuja
purnumukka
purnus
purovaara
purple
purra
purrii
pursila
pursinen
pursuit
purtoisma
purunpa
pus
pusa
pusilla
puskamarkki
puso
pussila
pussyfooting
pust
pustava
pustaveh
pustavid
pustavijd
pustavijguin
pusula
put
putes
putesin
putestem
putin
putkela
putkija
putkilahti
putkisalo
putt
putta
puttola
putty
putula
puu
puuda
puuja
puujaa
puujalkala
puukkoinen
puukonsaari
puulasalmi
puumala
puumalast
puupa
puupuu
puura
puurila
puurkankari
puurra
puustav
puustavoornig
puustavoornigist
puusti
puutikkala
puuza
puuzah
puvstaveh
puyo
puza
puzza
puzzle
puđa
pv
px
pyecceeh
pyecceitips
pyecceivia
pyehtih
pyeidicissa
pyelimist
pyellim
pyellimta
pyera
pyere
pyerebeht
pyerebij
pyeredii
pyerediđ
pyeredum
pyereeb
pyereed
pyereedma
pyereest
pyereestvaijeemkua
pyereh
pyeremuin
pyeremus
pyeremusa
pyeremussa
pyeremusta
pyeremuu
pyeremuuh
pyeri
pyerrin
pyevti
pyevtit
pyevtitmist
pyevtitta
pyevtitteh
pyevtitteijee
pyevtitteijeeh
pyevtitteijen
pyevtittem
pyevtittemfinnoda
pyevtittij
pyevtittiđ
pyga
pyha
pyhitty
pyhta
pyinbya
pyla
pylkinautio
pylkki
pylko
pylva
pynta
pyo
pypoika
pyramid
pyrenij
pyrila
pysalo
pyterlahti
pythagoras
pyttyla
pyyrinlahti
pz
q
qatar
qatarist
qatarlijn
qd
qe
qhisphiyataw
qi
qian
qld
qu
quadrata
quaglieri
quake
qualitativen
qualley
quan
quand
quando
quanhao
quanhuo
quantity
quantum
quanwu
quaranta
quartiers
quate
quatre
quattro
que
quechua
queen
queensland
quentin
quercia
querida
quest
questron
quetzal
qui
quidditch
quijote
quinn
quinta
quintast
quintodecimo
quirico
quiz
quvenzhane
quynh
qwak
qəmbərov
r
ra
raahe
raahen
raahtij
raajij
raala
raanskan
raanuja
raasepori
raasij
raasijd
raatala
raatikainen
raattama
raava
raavva
raađha
rabbih
rabbit
rabe
rabin
raboe
rac
raccuta
race
racer
racers
races
rachel
racine
racing
radansuu
radcliffe
raddala
radde
raddeest
radets
radiance
radiant
radio
radioaktiivla
radioc
radioisotoop
radioisotoopeh
radioisotoopid
radiokemist
radiopersovn
radium
radon
radostuva
radus
raevaara
rafael
rafehisvuohta
ragazza
rage
raggio
ragnar
raha
rahi
rahikkala
rahkmala
rahkoila
rahkola
rahman
rahola
raholanvaara
rahtii
rahtijn
rahtui
rahtum
rahula
rahvola
raid
raidanlahti
raider
raiders
raidisto
raija
raijala
raijiitta
raijiđ
raikkaus
raikkola
raikku
raikuu
raili
railroad
railway
raimela
raimo
raimonda
rain
rainbow
rainer
rainforest
rainio
rainwater
raipio
raippaluoto
raippaluotost
raise
raised
raisio
raisiost
raitniemi
raitoo
raivala
raja
rajala
rajalahti
rajalanniemi
rajattomuuden
rajijtta
raka
rakel
rakenne
rakesh
raketta
rakettij
rakettist
raki
rakkaudesta
rakkaus
rakkeet
rakkola
rako
rala
ralf
rally
ralph
raman
rami
ramirez
ramo
ramon
ramos
rampage
rampala
rampart
ramsay
ramsey
ramsjo
ramskulla
ran
rance
randal
randolph
randy
range
ranger
rangneng
rangsby
rankila
rankka
rannankyla
ransk
ranska
ranskaast
ranskakiela
ranskala
ranskaliih
ranskan
ransom
ranta
rantakyla
rantala
rantasalmi
rantasalmist
rantasalo
rantaseppa
rantast
rantavakkinen
rantonen
rantsila
ranttila
rantuu
ranua
ranuast
ranya
rapagnano
rapala
raparo
rapattila
rapids
rapola
rapolla
rapone
raportist
rapp
rapu
rapuelleeh
rapurotto
rard
rare
rarenes
raronsalo
ras
rasala
rasdal
raseborg
rashtrakuta
rasi
rasila
rasima
rasivaara
raskala
rasmus
rasmussen
rassemble
rasta
rastenberger
rastila
rasula
rasvala
rasvaniemi
rat
ratasalo
ratchet
ratcliffe
ratez
rathaus
ratifisista
ratifisistij
ratikyla
ratsula
ratula
rau
raudaskyla
rauhaja
raukkala
raukko
raukunen
raula
rauma
raumharja
raun
rauna
rauni
rautaja
rautajoki
rautalahti
rautalampi
rautalampist
rautatieasema
rautavaara
rautavaarast
rautela
rautiala
rautila
rautio
rautionkyla
rautionmaa
rautiost
rautja
rautsuo
rautu
rautuinen
rauvanniemi
rauvola
rava
ravattila
raveala
ravga
ravi
ravija
ravijoki
ravintola
ravna
ravne
ravno
rawa
rawdna
ray
raya
raymond
rayo
razbor
razi
razo
rba
rbacka
rbbolac
rbe
rbeeatnamat
rbeln
rbi
rbikua
rbis
rbisin
rbitia
rbivua
rbivuovijd
rbivyehi
rbivyevi
rbivyevih
rbivyevist
rbo
rbu
rby
rc
rca
rd
rda
rdeh
rdeijeeh
rdem
rdemkua
rden
rdi
rdih
rdin
rdist
rdiđ
rdo
rdoo
rdsbo
rdskulla
rdso
rdu
rdud
rduin
rdukulma
rdum
rdumcia
rdura
re
rea
reaalkomovuođa
reaallovoh
reaallovoi
reach
reachea
ready
reagan
reagist
reagisteh
reaktiivliih
reaktio
reaktioh
reaktioid
reaktiost
real
reality
realm
realms
reasons
reavey
rebecca
rebel
rebro
rec
recanati
recanatist
recent
recht
recorded
recordings
records
recordsa
recordsist
recostada
rect
recta
recuerdo
red
redemption
redshank
redusistem
ree
reed
reeiva
reenna
reetta
reeve
reeves
reeviir
reeviirstis
ref
reformpia
reg
reggio
region
registeristum
regno
reh
rehman
rehtija
rehtor
rehtoreh
rehtorin
rehula
reibo
reichertella
reid
reign
reijee
reijeeh
reijeiornijdume
reijo
reijola
reima
reims
rein
reindeer
reindriftsamers
reinhardt
reinikkala
reinila
reino
reinsamelag
reisja
reiss
reissij
reitala
reitola
reitula
reiva
reivila
reizei
rekia
rekijoki
rekinist
rekinisteh
rekinistiđ
rekinistma
rekinistojeh
rekinistoo
rekinistum
rekinistuvvoo
rekipelto
rekistero
rekoinen
rekola
reku
rekuby
rela
relander
relationship
relativceelha
relayer
religion
relletti
remain
remember
remembrance
remes
remeskyla
remix
remoja
remonte
remoto
rempel
ren
renaissance
renault
renberg
rene
renegade
renessans
renko
renniemi
reno
renum
repetir
replot
repola
repoma
report
repubblica
republic
requiem
res
resavonist
rescue
research
reservoir
resident
resirkulert
resistance
resogun
resolution
resort
respect
ressa
rest
resuenen
results
resurrection
ret
reta
retais
retiemble
retoromaankiela
retour
retro
retunen
return
returns
reunus
reva
revelation
revelations
revenge
review
revirist
revitalisaatio
revo
revoluc
revolution
revolver
revonlahti
revonlahtist
revonniemi
rewarded
rex
rey
rez
rf
rflyttningarna
rga
rgb
rgen
rgico
rgis
rgistij
rgoo
rgu
rguh
rguin
rgum
rgums
rgupurra
rgus
rgusijd
rgusstua
rgutta
rguđ
rha
rhegmoclema
rhegmoclemina
rhein
rhexoza
rhi
rhib
rhibeht
rhila
rhis
rhistem
rho
rhode
rhodiola
rhodri
rhu
rhuid
rhust
rhythm
ri
ria
rias
ribeiro
ribera
ric
rica
riccia
rice
rich
richard
richards
richardson
richist
richly
richmondensis
richter
rick
ricky
rico
ricotta
riddo
riddoaaitijd
riddoc
riddoid
riddoin
riddokaavpugist
riddokilomeetterist
riddokua
riddolodde
riddoniijtoin
riddoost
riddoviemma
riddu
ride
rider
riders
ridge
ridley
rido
ridoi
ridoin
ridum
rie
rieban
riebannieida
riedern
rieflin
riega
rieggee
riegisla
riegistum
rieguen
rieha
riehen
riehti
riehtiaktivist
riehtijotteem
riehtiliha
riehtiministerio
riehtita
riekkala
riema
riemma
riemmbe
riemnjis
rienila
rieppola
ries
rieskala
riesola
riess
rieti
rieva
rievdeeliega
rievssatbivddus
rievti
rievtis
rievtti
rievvee
rievvim
rift
riga
riges
rigg
rigga
riggeeh
right
rightful
rights
riginaldi
rigoberta
rih
rii
riiainen
riidon
riihija
riihikoski
riihilahti
riihima
riihiranta
riihivainio
riihivalkama
riihmaga
riiho
riijka
riika
riikka
riikola
riikonen
riilahti
riimala
riina
riipi
riippi
riis
riisi
riiska
riispyy
riista
riistakeskus
riistavesi
riitaar
riitalho
riitia
riitiala
riitlampi
riitta
riittila
riittio
riittonpa
rij
rijd
rijdis
rijdo
rijeessa
rijja
rijn
rijtta
rika
rikainen
rikala
rikaniemi
rikantila
rike
rikkaranta
rikkila
rikkola
rikkoos
rikkođ
rikola
rikolii
rikos
rikosa
rikosaas
rikoselleekove
rikoselleekoveh
rikosijd
rikosjua
rikoskirjec
riku
rila
rilax
rimal
rimarikiela
riminist
rimito
rimma
rin
rinaldo
rinco
ring
ringe
ringo
rings
ringsbo
rinki
rinkoski
rinmaja
rinne
rinranta
rinta
rintala
rio
rione
rionero
riordan
ripabottoni
ripacandida
ripalimosani
ripalta
ripatransone
ripatti
ripe
rippa
rippers
rippo
ripresident
ripresidentin
ris
risaava
risby
rise
rishi
risin
rising
risis
risk
rissala
rist
rista
ristaniemi
risten
risti
ristiina
ristiinast
ristija
ristima
ristina
ristinkyla
ristniemi
risto
rit
rita
ritaala
ritaapiir
ritala
ritalahti
rite
ritma
ritoniemi
ritosaari
ritva
ritvala
riukula
riuttala
riuttanen
riuttaskorpi
rivdul
rivello
river
rivera
rivers
riverside
rivne
rivosecchi
riđ
riđu
riđđu
rja
rjal
rjazan
rje
rjenkoski
rjenniemi
rjestyksessa
rji
rjika
rjil
rjilist
rjilkiela
rjillijn
rjilodde
rjin
rjisa
rjiua
rjivuota
rjj
rjoin
rjolga
rju
rjua
rjuh
rjui
rjuid
rjulii
rjutta
rjutteh
rjuđ
rk
rka
rkboda
rkby
rkela
rkema
rki
rkija
rkijoki
rkila
rkilahti
rkinen
rkis
rkisalo
rkisalost
rkisenkyla
rkivaara
rkja
rkka
rkki
rkkila
rkkinen
rkko
rkkojeh
rkkojeijee
rkku
rkmeri
rkna
rkniemi
rko
rkodde
rkode
rkua
rkulla
rkvik
rla
rlaks
rlax
rlii
rlo
rma
rmelahti
rmeniemi
rminne
rmitta
rmmpa
rmola
rmuttemes
rna
rnbo
rnbollstad
rnee
rnejeh
rnejui
rnejum
rnejuvvojeh
rnejuvvojii
rnejuvvoo
rnholma
rnhuvud
rni
rnic
rnid
rnih
rnila
rnin
rnis
rnist
rnistis
rnivuota
rnivuođa
rnod
rnoi
rnoid
rnoin
rnoo
rnooh
rnooloho
rnten
rnu
rnuh
rnui
rnum
rnumist
rnumkiela
rnumkua
rnus
rnusist
rnusjuuva
rnuđ
rnvik
ro
road
roadhouse
roadkill
roadwar
roald
roasting
roback
robben
robbie
robda
robert
roberto
roberts
robin
robineau
robinson
robocod
robocop
robopon
robosport
robot
robotron
robots
robusta
rocca
roccafluvione
roccanova
roccavivara
rocchetta
rocco
rochester
rock
rocket
rockist
rockjua
rockmuusik
rocks
rockstar
rockta
rod
rodas
roderick
rodgers
rodio
rodney
rodriguez
roeg
roes
roger
rogers
rogi
rogue
rohdainen
rohdendorf
roi
roid
roinila
roiskola
roismala
rojak
rojas
rojo
rokainen
rokansalo
rokiela
rokkala
rola
role
rolex
rolf
rolihlahla
roll
rollercoaster
rolling
rom
roma
romaani
romagna
romagnast
romain
roman
romana
romance
romancing
romaneh
romania
romaniast
romanid
romanien
romanij
romanijd
romanijn
romanikiela
romanikielen
romanist
romano
romanov
romantiik
rome
romeo
romsarby
romsila
ronald
ronan
rondani
ronkala
ronkka
ronkolanma
ronni
ronson
roobda
roobdah
rooke
roola
roolah
rooli
roolijn
roolist
room
rooma
roomaan
roomaanaas
roomaanla
roomaanstis
roomala
roomalii
roomaliih
rooman
roomast
rooms
roonnig
roonnigin
roopa
roope
roosa
roosevelt
roosij
roosijn
roovva
roppa
roque
ros
rosa
rosala
rosario
rose
rosea
rosenberg
rosendal
roser
roskifte
rosklax
roslax
rosora
ross
rosseland
rossi
rossila
rosso
rostock
roswell
rota
rotblat
rotella
rotello
rotkirch
roto
rotoena
rotoi
rotonda
rotondo
rotta
rotten
rotterdamist
rotto
rottoost
rouge
rouhu
roukalahti
roukko
round
routio
rova
rovaniemi
roveresca
roveresche
row
rowan
rowley
rowling
roxana
roxy
roy
royal
royale
roz
rođoin
rpa
rpeln
rpia
rpio
rpoolva
rppa
rppi
rppila
rpura
rquez
rr
rra
rras
rre
rree
rreeh
rreemyerji
rreena
rrei
rreid
rrejeh
rrejeijee
rrejeijeid
rrejii
rret
rri
rriddoin
rriddoost
rrido
rriehti
rrievti
rrievtih
rrila
rrinautio
rrk
rroonnig
rrstedt
rru
rrud
rrufinnoduva
rrui
rruleggisteijee
rrum
rrun
rrus
rruspellee
rruđ
rrynen
rs
rsa
rsaari
rsbacka
rsbo
rsboda
rsby
rshavn
rskia
rsm
rso
rssejii
rst
rster
rstorp
rstro
rsua
rsuollui
rsuolluin
rsuolluuh
rsvik
rt
rta
rtavlu
rtel
rtensby
rter
rterbuch
rterverzeichnis
rtha
rtih
rtila
rtist
rtnit
rto
rtom
rtsby
rtsila
rtsna
rtta
rtti
rttih
rttihist
rttil
rttist
rttsa
ru
rua
ruaidhri
ruanda
rubber
rubidium
ruble
rubtsov
rubus
ruda
rudanko
rudesind
rudolf
rudolph
ruduv
ruduva
rudyard
rueti
ruffino
ruficollis
ruficornis
rufipes
ruga
rugby
ruggell
rugir
rugnola
ruh
ruha
ruhade
ruhala
ruhovaara
ruhtinansalmi
ruhvana
rui
ruid
ruido
ruikkala
ruin
ruinas
rukiela
rukkoila
rukoushuone
rukukkoda
rukukkoduv
rula
rule
rules
ruma
rumar
rumbal
rumbalin
rumbu
rumex
rumi
rumma
rummukka
rummut
run
rundberg
rune
runeberg
runebomma
runist
runko
runner
runnereh
running
runoinen
runoja
runolelu
runot
runsor
ruohiala
ruohoisenmaa
ruoidah
ruoja
ruoka
ruokka
ruokoja
ruokola
ruokolahti
ruokolahtist
ruokoma
ruokonen
ruokoniemi
ruokorauma
ruokotaipale
ruoksamo
ruola
ruolahti
ruomi
ruona
ruonas
ruoni
ruonkallio
ruonlahti
ruonna
ruopsa
ruopsis
ruopsisjyelgc
ruopsiskia
ruopsismeera
ruopsisriemnjis
ruopsisrus
ruopsisryeivil
ruorasma
ruos
ruosa
ruossa
ruosta
ruota
ruotaanlahti
ruotaanma
ruoti
ruotnas
ruotsala
ruotsalainen
ruotsalo
ruotsila
ruotsinkyla
ruotsinma
ruotsinpyhta
ruotsula
ruotta
ruottala
ruottila
ruovesi
ruovesist
ruppovaara
rus
rusa
rusakko
ruseh
rush
rusii
rusiih
rusila
rusist
ruska
ruskeala
ruskela
rusko
ruskolainen
ruskon
ruskost
ruskulla
russell
russia
rust
rustis
rusvuođa
rut
rutaja
rutakko
rutalahti
rutare
ruth
rutherford
rutta
ruttem
ruttij
ruttiđ
ruttui
rutuna
ruuga
ruuhija
ruuhikoski
ruuhilampi
ruuhima
ruuhola
ruukipargei
ruukist
ruukki
ruuma
ruumbuh
ruumbuid
ruunaa
ruunala
ruustig
ruustigalmostitmeh
ruusu
ruusuruota
ruusuruotta
ruusus
ruutila
ruuvdust
ruuvna
ruuvta
ruuđa
ruuđah
ruvaikutta
ruvna
ruvo
ruđa
ruŋgo
rv
rva
rvall
rvaltningsdomstolar
rvaltningsomra
rvela
rven
rvenkyla
rvenoja
rvenpa
rvenpera
rvenranta
rvensivu
rvensuu
rventaus
rventausta
rvessa
rvi
rvia
rvib
rvih
rviht
rvijoki
rvik
rvikyla
rvila
rviliih
rvin
rvina
rvinub
rvinubbooht
rvio
rvis
rvist
rvois
rvsor
rvu
rvuda
rvuh
rvui
rvuid
rvuođa
rvus
rvusa
rvuseh
rvust
rvusta
rvustaaiđa
rvusubbon
rvuvua
rvuvuoiga
ry
ryan
rydder
ryden
ryes
ryevdi
ryevdikua
ryevdin
ryevdipaje
ryevdirađe
ryevdirađesajatta
ryevdisia
ryevdist
ryevjih
ryha
ryhma
ryhta
ryksela
ryma
rynka
ryo
ryser
ryssbo
rysso
ryti
rytia
rytko
rytky
rytty
ryttyla
ryu
ryytsa
rz
rŋu
rəħ
s
sa
saa
saadaan
saaha
saahkarlahti
saaiva
saajeest
saakas
saaksan
saala
saaledes
saalla
saam
saamelaiska
saamelaisten
saamenkielisia
saami
saamma
saamskij
saamskoi
saanij
saanijd
saanijn
saapas
saappala
saara
saareks
saarela
saaren
saarenkyla
saarenmaa
saarenpa
saarentaka
saaret
saari
saarija
saarikkala
saarikoski
saarinen
saario
saaristolaiskyla
saariston
saarits
saarivaara
saarla
saarniala
saaroinen
saatiir
saatij
saava
saavah
saavedra
saavola
saavza
saavzah
saba
sabah
sabe
sabina
sabre
sabremos
saby
sacken
sacra
sacramento
sacred
sacrifice
sadakata
sadat
saddest
sade
sadi
sadyr
saemieh
saemien
saether
safaris
saga
saggo
sagn
sagrado
sah
saha
sahalahden
sahalahti
sahalin
sahara
sahhiitta
sahis
sahloinen
sahraja
sai
said
saied
saijaasvuota
saijaavuota
saijaavuođa
saijanlahti
saijeed
saijeen
saijets
saijonmaa
saijoos
saikkala
saikkola
saimaa
saimaanua
saimaast
saint
saintluciala
sairakkala
sairala
sairalanma
sairiala
sairila
sairinen
sait
saiva
saivikkala
sajada
sajaduvah
sajan
sajaniemi
sajanma
sajasa
sajatta
sajattuv
sajattuva
saje
sajeh
sajeha
sajestis
sajos
sajosist
sakai
sakanoue
sakari
sakkali
sakkola
sakoinen
saksa
saksaast
saksajuudala
saksakiela
saksala
saksaliih
saksila
saksofon
saksofonist
saksofonsoolo
sala
salahmi
salam
salamaja
salamanna
salavainen
salcito
salem
salentino
salice
salience
saliens
salinger
salinmaa
salittu
salix
salkola
salla
salli
sallila
sallinen
sallisa
sally
salmela
salmenkyla
salmenoja
salmensuu
salmi
salmija
salminen
salming
salminiittu
salmo
salo
saloin
saloinen
saloisii
saloisiist
salome
salomon
salomone
salomonsuolluuh
salon
salonen
salonkyla
salospohja
salost
salt
saltara
saltvik
salut
salute
salva
salvador
salvaje
salvatore
salve
salvela
salviano
salvum
sam
sama
samani
samantha
samara
sambia
same
sameland
samene
samenes
samer
sami
samia
samimuseum
samisk
samiska
samiske
sammalisto
sammaljoki
sammalkallio
sammallahti
sammalma
sammalo
sammatti
sammeli
sammi
samminmaja
samna
samnium
samoa
samojedikiela
samojedikielah
sampela
sample
sampo
sampoinen
sampsa
sampu
samslax
samt
samuel
samurai
san
sanabria
sanakirja
sanc
sanctum
sand
sanda
sandberg
sandburg
sandholm
sando
sandpiper
sandra
sandstro
sandvik
sandwichsuolluuh
sandy
sane
sang
sanger
sanginjoki
sanginkyla
sangokiela
sangre
sangrienta
sangriento
sangrientos
sanijgijn
sanijguin
sanila
sankila
sankola
sanmarinola
sanna
sannainen
sanniitta
sannij
sannim
sannio
sanniost
sannita
sannitico
sanoma
sanomat
sans
sant
santa
santala
santasaari
sante
santi
santiago
santissima
santissimo
santo
santos
santtio
santuario
sanxion
sanz
sao
saoirse
sapalahti
sapmi
sappee
sar
sara
sarabande
sarabhai
sarah
saraja
saramacca
saramo
sarapisto
sarastus
saratov
sarby
sarconi
sardinia
sardiniast
sare
sareh
sargon
sargsjan
sargum
sari
sarien
sarivaara
sarjankyla
sarkalahti
sarkama
sarkaniemi
sarkissian
sarkkila
sarkofag
sarkola
sarkozy
sarnano
sarnum
sarnuu
saro
sarre
sarrio
sars
sarsala
sartre
sarv
sarva
sarvela
sarves
sarvijoki
sarvikas
sarvilahti
sarvisalo
sas
sasa
sasakawa
sasi
sassali
sasseta
sassila
sasso
sassocorvaro
sassofeltrio
sassoferrato
sastamala
satakoski
satakunta
satchell
satchmo
satelliit
satelliitkove
satellite
satni
sato
satopa
satriano
sattanen
satte
sattiala
sattii
sattila
sattula
satu
satuja
satulavaara
satupuu
saturn
saturnus
satyendra
saudi
sauer
saukko
saukkola
saukonsaari
saul
sauli
saunaja
saunavaara
saussure
saustila
sautu
sauvala
sauvo
sauvon
sauvonkyla
sauvost
sava
savage
savaloja
savannah
savasava
save
savela
savena
saverio
saverkeit
savija
savijoki
savikumpu
savikyla
savilahti
saviniemi
savino
savio
savisalo
saviselka
savitaipale
savitaipalest
savkalanla
savo
savoia
savola
savolahti
savonia
savonkyla
savonlahti
savonlinna
savonranta
savonrantast
savosuona
saxby
say
sayf
sbacka
sbo
sby
sc
scalo
scandinavian
scaptomyza
scarlet
scarlett
scarperiast
scary
scatopse
scatopsidae
sch
schaan
schacht
schale
scheggia
schellenberg
schengen
schiavi
schiavoni
schindler
schiner
schinzii
schizoid
schjerfbeck
schlegel
schloß
scho
scholl
scholz
school
schoola
schoolist
schouhamer
schrank
schro
schrowe
schulthess
schuster
schwa
schwaendi
schwanden
schwartz
schweizerpsalm
sciamma
science
sciences
scient
scientists
scifi
sciomyzidae
sclc
scorcher
scorcio
scorsese
scott
scout
scouter
scrabble
scramble
scream
screen
screwtape
scriptstyle
scrolls
sdp
se
sea
seaborg
seal
sean
search
searvi
searvvi
seas
season
seasons
seattle
sebastia
sebastian
sebastiano
sebeok
sec
secc
sech
sechsela
second
secret
secretary
secrets
secure
seda
sede
sedgwick
see
seed
seeibi
seeibist
seeing
seeinih
seek
seeksi
seekunt
seela
seeland
seelanda
seelandist
seelandla
seele
seeleen
seelgi
seelgist
seemeentkiedist
seemila
seenaat
seenti
seerva
seervi
seervih
seervist
sefro
sega
seggio
segis
seglinge
seguid
seguir
seguy
seh
sehe
sehgal
sei
seibi
seibita
seibitta
seija
seijainen
seijee
seikkailut
seili
seiluu
seina
seine
seipa
seipiharju
seipsaari
seisyllwg
seitlahti
seitsema
seitsye
seiva
seivis
seiwa
seka
sekle
seksi
seksitaavda
seksitaavdah
seksitavda
seksuaal
seksuaalla
seksuaallii
seksuaalliih
seksuaalucceeblovoin
seksuaalvuota
seksuaalvuođa
seksualvuota
sektor
sektora
sekuntist
sel
sela
selassie
sele
selected
selgi
selgipeeleest
selgipeeli
selgipele
selgisuona
selholm
selibaatist
selka
selki
selkie
selkupkiela
sella
sellee
selleeh
selleid
selling
sellmo
sello
selma
selman
selo
selva
selznick
sem
semifiinaal
semifinaleh
semifinalij
semifinalist
seminaarist
semiotiik
sen
senatist
sendte
senegal
senegalist
senegalla
senhora
senigallia
senior
senise
senkyla
sense
sensible
sensual
sent
senta
senticosa
sentino
senttid
senttimeetter
senttimeetterid
senttisa
senus
senvaara
senyhdistys
seo
sepa
separata
sepino
sepolcrostst
seppa
seppo
september
sepulcro
ser
sera
seratti
serba
serbia
sereine
serenade
sergio
sergius
serie
series
serpyllum
serra
serrapetrona
serrapetronapanorama
serrata
serravalle
serrungarina
serva
serve
servi
service
services
servid
servigliano
servii
servij
servikodda
servikodde
servikoddeest
servikode
servikooda
servil
servira
serz
ses
sesa
sessiojeessa
sessiomusikka
sessions
sestini
sestino
set
setosa
settembre
settlementaktivist
settlers
seule
seura
seuran
seuruja
sevastopol
sevcik
seve
seven
severino
severo
severodvinsk
severomorsk
severost
sevveekia
sevŋa
sevŋis
sexnappa
seychelleh
seychellij
seydoux
seymour
sfinnoduv
sfondo
sg
sga
sgp
sha
shabana
shadow
shadowgrounds
shadows
shahadi
shakespeare
shaking
shalda
shall
sham
shamlou
shanghai
shango
shannon
shao
shaocheng
shaolin
shaowei
shar
shark
sharon
sharp
sharpless
shatuo
shaw
shawi
shcherbakov
she
shechtman
sheikh
sheldon
shelley
shenmue
shepard
shepherd
sherlock
sherman
sherwood
shewell
shi
shibli
shield
shift
shigu
shijo
shikoku
shilova
shimomura
shin
shining
shinsho
shirin
shirley
shiryar
shitago
shizhen
sho
shobanov
shock
shockley
shoes
shoot
shore
short
shot
should
shouzou
shovda
show
showst
showtime
shu
si
sia
siam
sibby
sibelius
siberia
siberian
siberiast
sibirica
sic
sica
sicard
sich
siculo
sid
side
sideby
sideijee
sidney
sidorenko
sidsbacka
siegbahn
siege
sieiddit
sieidi
sieiva
siekkinen
siellu
siema
siemin
siempre
sienast
sienes
sienten
sieppala
sieppija
siepta
siera
sierah
sieraja
siergi
sierla
sierra
sierriđ
sievi
sievist
sigbjørn
sigga
siggans
siggbo
siggby
siggna
sight
siglos
signa
signe
signor
sigurdssonist
sih
sihyaj
sii
siida
siih
siijda
siijdah
siijđoin
siijđost
siikainen
siikaisiist
siikaja
siikajoki
siikajokist
siikakoski
siikala
siikalahti
siikalatva
siikama
siikavaara
siilba
siilinja
siipyy
siipyyst
siirdij
siiri
siirin
siiropa
siisa
siisia
siiskis
siist
siitama
siitola
siivikkala
siivonen
sij
sijd
sijda
sijguin
sijja
sijn
sijvo
sijđo
sijđod
sijđoh
sijđohua
sijđojua
sijđojuuha
sijđojuuvah
sijđostuva
sijđostuvva
sik
sika
sikala
sikia
sikila
sikosaari
sikovaara
siksalo
sikua
sikuri
sila
silba
silbaba
silberfeldt
silbo
sild
sildala
silence
silent
siliega
silikaatkeeđgist
silja
silje
silkkila
silkworm
silla
sillankorva
sillanpa
sillantaka
sillbo
sillila
silta
siltakyla
siltala
silva
silver
silverman
silvestro
silvio
silvola
sim
simala
simanala
simant
simcity
simearth
simgolf
similis
simisle
simlife
simma
simo
simola
simolsom
simon
simonby
simone
simoniemi
simonkyla
simost
simpala
simplex
simpson
simpsoneh
simpsonij
simpsonijn
simpsons
sims
simska
simtown
simulations
simulator
simuliidae
sin
sinatra
sinbad
sinclair
sinerva
sinfield
sinfonia
sing
singapore
singaporest
singer
singh
singing
single
singleh
singlelisto
singlen
singlest
sings
singsby
sinh
sini
sinia
sinica
sinikka
sinisalo
sinkkola
sinni
sino
sinoigijn
sinokiedijn
sinoussi
sins
sint
sintsi
sinua
sinuhe
sinun
sio
sionkyla
sioornigist
sipaliwini
siperia
sipia
sipila
sipinen
sipola
sipoo
sipoost
sippola
sipsio
sir
siracusa
siracusast
sirda
sirdem
sirdemist
sirdes
sirdeđ
sirdii
sirdoeenna
sirdojii
sirdui
sirdum
sirduđ
siren
siri
sirkja
sirkka
sirkkala
sirkusjuttuja
sirleaf
sirma
sirna
siro
sirolo
sis
sisa
sisas
sisc
siseenna
sisena
sisi
sisilia
sisiliast
siska
siskeeld
siskeldeh
siskeldeijee
siskeldij
siskeldiđ
siskiibeln
sisko
sispella
sispolitiik
sist
sistaata
sistaatah
siste
sistees
sister
sisthuksim
sistis
sistonnum
sisua
sisulu
sisva
sit
sitarla
site
sitemetaforat
sithean
sitia
sitikkala
sitlahti
sitolahti
sitong
sitruunpes
sittala
siuntio
siuntiost
siuri
siuro
siurua
siusluoto
siutila
siv
siva
sivakkajoki
sivakkavaara
siverdisa
sivert
sivis
six
siđ
siđhes
sj
sja
sjiena
sjo
sjoki
sjundby
sk
ska
skag
skalaarstua
skaltje
skamma
skammama
skandij
skandinavia
skandinaviast
skappui
skarpbo
skarpkulla
skarpna
skartveit
skater
skavabo
skavank
skbo
skby
skeaikit
skeeŋka
skeeŋkah
skela
skevttim
skeŋkka
skeŋkkij
ski
skia
skidmarks
skiela
skierri
skies
skiftesvik
skiijpa
skij
skim
skimsaje
skin
skinnarbo
skinnarby
skinnarila
skinnarla
skinnars
skinnarvik
skinnfa
skipa
skippa
skira
skirja
skitma
skitmist
skittee
skittem
skja
sko
skobo
skodde
skoddeest
skoddepia
skoddevaalja
skoddevaaljah
skode
skofatt
skog
skoga
skogbo
skogboda
skogby
skogens
skoglund
skogsbo
skoila
skoltlappischen
skooda
skoođa
skopets
skoski
skotland
skotlanda
skotlandist
skotlandla
skou
skođa
skra
skraatila
skrittskog
sku
skua
skud
skudeijen
skugga
skuggan
skulij
skull
skum
skun
skuneh
skunijd
skunjuolga
skuru
skuse
skuvga
skuvla
skweeks
sky
skychase
skyelfi
skyeli
skyfall
skyla
skylanders
skylines
skynsaari
skyrim
skyttala
skyttbo
sla
slaavila
slahti
slam
slane
slater
slatnik
slava
slave
slaves
slayer
slicko
slii
sliih
slij
slijd
slincraze
slipstream
slitto
sllat
slot
slova
slovakia
slovakiakiela
slovenia
sloveniakiela
sloveniala
sloveniast
slovenj
slovensko
sly
sm
sma
smaaka
smakka
small
smalley
smash
smavva
smedabo
smeds
smedsbo
smedsby
smedskulla
smeeri
smeh
smemave
smere
smerillo
smettum
smieta
smietta
smij
smile
smiles
smiljovn
sministerio
smit
smiteh
smith
smitij
smitmist
smitta
smittee
smittem
smittems
smittiđ
smittui
smittum
smiđ
smiŋkka
smn
smo
smolsom
smooduul
smp
smua
smugga
smui
smum
smuorjijd
smuveh
smuđ
smyerji
sna
snaarta
snake
snappertuna
snartta
snellman
sni
snih
snii
snin
snitiettee
snitieđa
snjaarga
snjarga
snjuktja
snk
snooker
snoorra
snow
snowboard
snowman
snowy
so
soahki
soanlahti
soberbio
sobhuza
sobota
sobre
soccer
sochlachan
social
socie
societatis
society
soda
sodabo
sodankyla
soddy
sofi
sofia
sofie
sofja
soft
software
soga
sohva
soika
soikallio
soikkala
soil
soini
soiniemi
soinila
soinilansalmi
soininen
soinist
soixante
soja
sojeh
sojuz
sokkala
sokoja
soksa
sol
sola
solala
solar
solberg
sold
soldado
soldan
soldier
sole
solid
solida
solitaria
solitary
solju
solkeinkyla
solla
solmu
solo
soloja
solomon
solttila
som
soma
somalia
somalikiela
somby
some
somerniemi
somerniemin
somero
someron
somerost
somersoja
something
sommaro
sommer
sommerman
sompio
son
sonabacka
sonan
sonasund
sondby
song
songs
sonic
sonja
sonjosua
sonkaja
sonkari
sonkarinsaari
sonnboda
sonnila
sonoro
sonoros
sonos
sonro
sons
sontu
sony
soojij
soojijd
soojijn
sool
soola
sooloalbum
soolokarrieer
soolokarrieeris
sooppa
sooppum
soorma
soorva
soorvah
soova
soođij
sopa
sopala
sophie
sopola
sopra
sopron
sor
sorbus
sorcerer
sordida
sorex
soria
sorila
sorjo
sorjola
sorkka
sorkkala
sorkkinen
sormais
sorme
sormejeh
sormija
sormula
sornijdume
soro
sorola
sorpo
sorrbo
sorrow
sors
sorsakoski
sorsala
sortavala
sorttila
sorva
sorvali
sorvarila
sorvasto
sorvisto
sorvola
sosed
sosiaal
sosiaalla
sosiaalliih
sosiaallijd
sosiaaltoorvon
sosialdemokraateh
sosialdemokraatla
sosioekonoma
sosiolog
sosiologia
sosiologla
sota
sotilas
sotjala
sotkaja
sotkamo
sotkamost
sotkuma
sots
sotto
sottunga
sottungast
sou
soukainen
soukka
soukkio
soukko
soul
souls
sound
soundscapes
soundtrack
soundtrackist
soup
soupas
source
sous
south
southern
sov
sova
soviet
sovjetliiton
sovjetlito
sovjetlitto
sovjetlittoin
sovjetlittola
sovjetlittoliih
sovjetlittoost
soyayya
soyons
sp
spa
spaargon
spabba
space
spajeh
spakana
spalha
spalo
spangled
spargo
spargoost
sparse
speaks
spears
spec
special
species
spectabilis
spectrum
speech
speed
speedball
speeija
speela
speelah
speera
speiser
speja
spektri
spektrisa
spekulistmeh
spella
spellbound
spellee
spelleeh
spellei
spencer
spenner
sperrings
spesiaalis
spesiaaltua
spezia
spia
spiaggia
spice
spider
spiders
spieka
spielberg
spielbergin
spielbergist
spiert
spies
spike
spin
spinazzola
spineh
spinete
spinetoli
spinifera
spink
spinosa
spinoso
spirit
spirou
spjutsund
splashdown
splatoon
splendour
split
spodnja
spodnje
spodnji
spohja
spoken
spontini
spor
spore
sporijdem
sport
sports
sportta
spot
spotlight
spra
sprache
sprengtporten
spring
springfield
springs
sprint
sprog
spruce
spua
spuler
spy
spyro
sqrt
squad
squadron
square
squinzano
squire
squirrel
sr
sra
sraŋga
srednje
sri
ss
ssa
sse
ssed
ssee
sseeh
sseelohhoos
sseeloho
sseelovo
sseelovoin
sseelovvoost
sseervi
sseesaaha
ssei
sseid
ssein
ssi
ssid
ssila
ssin
ssoo
ssp
sspella
ssr
sst
ssu
ssua
ssud
ssysteem
st
sta
staalu
staappa
staata
staatah
staatta
staavda
staavva
staađa
staađah
stackelbergi
stackska
stadion
stadt
stae
staeger
staffan
staffolo
staffolost
stage
staival
stalinin
stallan
stalli
stallu
stamperia
stan
stana
stanberg
stanby
stand
standard
standardistum
standpunkt
stanfja
stanford
stanka
stanley
stannius
stans
stappa
star
stardust
starflight
starglider
stari
stark
starkom
starless
starpath
starrbo
starring
stars
starship
start
state
states
station
stations
statistics
statistiikkua
statistisk
statisztikai
status
statute
stavanger
stay
stazione
stbo
ste
stealth
steaz
stee
steel
steers
stefan
stefano
stefanus
steg
stegana
steggo
steh
steijed
steijee
steijeeh
steijei
steijeid
steijein
steijen
stein
steinbeck
steinfjell
stella
stellar
stelliilda
stelliđ
stem
stema
stemcelkkuin
stemcelkkuu
stemkia
stemsaje
stemvuoiga
stemvyevih
sten
stenba
stenberg
stenberga
steninge
stenmo
stensbo
stenska
stenso
stenstadvold
stentorpa
step
stephen
stephenson
ster
stera
sterby
sterbygge
stergeta
sterhankmo
sterkulla
sterling
sterma
stermark
stermunkby
stern
sterna
sternberg
stero
sterska
stersolv
stersund
stersundom
sterudden
stervik
steryttermark
steve
steven
stewart
steŋgimist
stga
sti
stick
stid
stida
stideijee
stidemsopa
stidij
stiela
stien
stierdna
stiettust
stieđa
stig
stigliano
stii
stiijla
stiivra
stij
stijla
stila
still
stim
stipend
stis
stit
stiteh
stitij
stittee
stittem
stittiđ
stittum
stivra
stivree
stivrejeh
stivrejeijee
stivrejeijeeh
stivrejeijei
stivrejeijen
stivrejii
stivrij
stivrim
stivriđ
stiđ
stjottee
stjotten
stkulla
stmeh
stmij
stmijn
stmin
stmist
stmyra
stna
sto
stoat
stockfleth
stockholm
stoha
stokkespa
stone
stones
stoorma
stop
stopic
stor
stora
storai
storby
storelv
storfallan
storfinnhova
storga
storico
stories
storkansskog
storm
storma
stormi
stormora
storms
storuman
story
stpargo
stpargoost
stra
strada
strafkolonie
straight
stralsund
strand
strandby
stranded
strange
stranger
strask
strategios
strategy
stratia
stratosfa
strauss
straz
stream
streep
street
streets
strega
strengell
strength
strenzke
streymoy
striata
strider
strike
strikes
strindberg
strip
strixino
stro
strobl
stromae
strong
strontium
structure
struggle
stta
sttemijd
stten
sttit
stu
stua
stuart
stubbans
stubbhagen
stubbna
stubbo
stubbooht
stuckenbergi
stud
studia
studie
studies
studio
studioalbum
studioalbumeh
studios
studiosa
studiost
study
stui
stulet
stum
stume
stumstaata
stumvuota
stumvuođa
stunt
stuntman
stuntnissoon
stuorra
stuppeeivi
stuppeivi
stura
sturm
sturtevant
stus
stusa
stusah
stusna
stutmist
stuu
stuv
stuva
stuvah
stuveh
stuvuođa
stuvva
stuvvii
stuvvojeh
stuđ
styeres
styeresin
styeresvuota
style
su
sua
suasa
sub
subarkta
subbon
subbooht
subiacost
subjekt
sublette
submarine
suboh
substantiiveh
substantiv
substantivcia
substantiveh
suburbia
subvittata
such
sud
sudan
sudanist
sudda
suddeh
sudes
sue
suec
sueiro
suelo
suen
suez
suffolk
sufi
sugawara
suh
suha
suhadol
suhonen
sui
suialmai
suicide
suija
suikinsilta
suikkala
suikkila
suin
suinula
suiolmoos
suioma
suisa
suisse
suistamo
suit
suitsula
suitta
suittila
suitua
suja
sukechika
sukeva
sukhodrev
sukka
sukkila
sukkinen
suksela
suksenbo
suksenpyo
sukula
sul
sula
sulama
sulkava
sulkavanja
sulkavast
sulla
sulmuuh
suluhu
suluslahti
sulva
sulvast
sum
suma
sumeliuska
sumiainen
sumiaisii
sumiaisiist
summa
summala
summer
sumohia
sumos
sumosa
sumoseh
sumosijn
sumsa
sumy
sun
sunak
sund
sunda
sundal
sundaran
sunday
sundby
sunde
sundeest
sundenummeer
sundes
sundesson
sundist
sundmania
sundo
sundom
sundsberg
sundsvall
suni
sunikkala
sunila
sunjin
sunna
sunnana
sunnanberg
sunnanvik
sunniemi
sunnimuslimeh
sunnui
sunnust
sunnuu
sunshine
suo
suoanttila
suoc
suodenniemi
suoga
suogga
suoha
suoi
suoijiimettumes
suoinij
suoinijd
suoinijn
suoivust
suoja
suojoki
suoksa
suokumaa
suol
suola
suolahti
suolahtist
suolan
suolija
suollud
suollui
suolluid
suolluin
suollust
suolluu
suolluuh
suoloppi
suom
suoma
suomalainen
suomalais
suomalaisen
suomalaista
suomalaisten
suomasema
suomatka
suomela
suomen
suomenkulma
suomenkyla
suomenmaa
suomenniemi
suomessa
suomi
suomija
suomma
suomusja
suomussalmi
suomussalmist
suonenjoki
suonenjokist
suoniala
suoniemi
suoniemist
suonja
suonola
suonpohja
suonsaari
suonsalmi
suontaka
suontakainen
suontientaipale
suoparsaari
suorama
suorgiittum
suorgijn
suorlahti
suorma
suorsala
suorttila
suosmeri
suota
suova
suovanlahti
suovsa
suovsah
super
superior
superiore
superman
superseela
supersella
superstar
superstars
superta
supervision
supipeenuv
supo
suprema
supreme
sur
surf
suriname
surma
surno
surnuinma
surpeenvaara
surrealistla
sus
susan
susanna
susanne
susikas
susiniemi
susivuori
sussex
sust
sut
sutarkulla
sutela
sutherland
suts
suttem
suttii
suttila
suttui
suttum
suttume
suu
suuha
suuhha
suuja
suujah
suula
suulla
suuna
suunda
suur
suuret
suuri
suurila
suurimaa
suurkyla
suurniemi
suurola
suurpa
suutarkyla
suutarla
suutila
suuva
suuvah
suuvra
suuvrah
suva
suvanto
suvi
suvra
suvroduv
suvrom
suzaku
suzuki
sv
sva
svaara
svalka
svante
svarta
svartba
svartbo
svartsa
svartsbo
svartsmara
svarvarbo
svedja
svedjeby
sveeici
sveeicin
sveeicist
sveeigi
sveicci
sveiccila
sveicciliih
sveiccilijn
svein
sven
svensbo
svensk
svenska
svenskby
svenskt
sverige
sveriges
sverre
sveta
sveti
svetlana
svg
sviby
svinhufvud
svino
svirta
svizzer
svo
svonni
svt
svuoimij
svuota
svuotta
svuovdijn
svuođa
svuođah
swa
swahili
swahilikiela
swahilin
swan
swancrystal
swap
swat
sweat
sweden
sweeney
sweet
swimming
switchblade
switzerland
swiv
sword
syda
sydmo
sydney
syeini
syeinima
syeinis
syejeest
syeji
syejia
syele
syeliga
syelinooma
syemmila
syemmilii
syemmiliih
syemmilij
syemmilijn
syergi
syergist
syfilis
syklist
syksyn
syllo
sylva
sylvanus
sylve
sylvestris
sylvi
sylvia
symbol
symboleh
symboliik
symbolij
symbolijd
symbolijn
symbolin
symbool
syme
syn
synagoge
syndicate
syndrome
synge
synnøve
synopsis
synsia
synsio
syntaks
syntaktlii
synteesist
syntetisaattor
syo
syracuse
syrja
sysilax
sysima
sysma
systeem
system
systems
systrar
syukuro
syva
syvertsen
syvinki
syyria
syyriala
syyriast
sz
sza
sze
szeged
szent
szo
sø
sønneland
sør
səlt
səma
t
ta
taah
taaida
taaiđa
taalha
taalikkala
taalintehdas
taalvij
taam
taamarla
taampa
taampah
taan
taansa
taanskan
taapiirs
taarba
taas
taasia
taasnij
taasnijn
taat
taatila
taattinen
taavaabeln
taavaakec
taavaapele
taavaapeln
taavaapia
taavda
taavetti
taavgijn
taavlu
taavtijd
taaz
taađeest
taba
table
tac
tackork
tactical
tactics
tadahira
tadeusz
tadg
tadgh
tadhg
tadz
taekwondo
taeuber
tag
tagara
tagareh
tagarij
tagarijd
tagarijn
tagarin
taggaar
taha
tahdon
taheh
tahhee
tahheeh
tahheevuoiga
tahkoniemi
tahvanainen
tahvanala
tai
taid
taida
taidemuseo
taidg
taiga
tail
taimo
tain
taina
tainuskyla
taipale
taipalee
taipalsaari
taipalsaarist
tais
taisen
taista
taito
taivaallinen
taivaankalat
taivalkoski
taivalkoskist
taivassalo
taivassalost
taiwan
taiz
taiđa
taiđui
taiđust
taiđuu
taka
takada
takahashi
takahuhti
takaja
takala
takamaa
takapera
takatoki
take
taken
taking
takka
takku
takkula
tala
talala
talant
tale
tales
talha
talias
taljala
talk
talking
talkka
tallaa
tallaah
tallas
tallbacka
tallbo
tallchief
talle
tallinn
tallinna
tallinnast
tallmo
tallola
tallulah
tallus
talo
taloinen
talola
talon
talonen
talonpojanteijo
talossa
talpela
talpia
taluskyla
talvi
talviainen
talviaistaipale
talvisilta
talvisodan
tamar
tamara
tamare
tamazightkiela
tambie
tambo
tammela
tammelast
tammenlahti
tammenpa
tammentaka
tammi
tammiainen
tammija
tammilahti
tammisaari
tammisaarin
tammisto
tampa
tampere
tamperen
tamperest
tamppa
tamuramaro
tan
tana
tanah
tane
taneli
tang
tanganjikaja
tangent
tangerist
tanguy
tanh
tanhua
tanila
tank
tankou
tannet
tannila
tansania
tansaniala
tanska
tanskaast
tanskakiela
tanskala
tanskalais
tanskaliih
tanskansaari
tanskila
tanssa
tanttila
tanya
tao
taoiseach
tapala
tapanahony
tapani
tapaninen
tapanivaara
tapavainola
tape
tapila
tapine
tapio
tapiola
tapireh
tapirij
tapirijn
tapirus
tapola
tappo
tappuri
tapwave
tar
tara
tarandus
tarantino
taraxacum
tarba
tarhapa
tarhola
tarina
tarinmaa
tarinoita
tarja
tarjesa
tarkeela
tarkis
tarkkinen
tarkkum
tarmio
tarmo
tarnala
taro
tarpila
tarttila
tartto
tartu
tarvainen
tarvas
tarvasjoki
tarvasjokist
tarvola
tas
taskala
tasnijkoska
tassaas
tassaaz
tassi
tasso
tassulan
tast
tastko
tastmaŋa
tastoo
tatangelo
tate
tatrou
tattara
tattula
tau
taube
taucher
taukaniemi
taulunoja
tauno
tauriala
taurica
tausela
tausti
taustiala
tautou
tavas
tavaskulij
tavastby
tavastia
tavastila
tavastkenka
tavasttrona
tavda
tave
taveamerikla
tavec
tavegermaanla
taveirlandla
tavejua
tavekua
tavela
tavemeera
tavemus
tavemuu
tavena
tavenna
tavenuorta
tavenuortta
tavenuorttii
tavenuorttiiena
taveoosij
taveoosijn
taveriddoost
tavernelle
tavesa
taveua
taveviesta
tavinsalmi
tavlu
tavlusta
tavlustuva
tavlustuvva
tavo
tavola
tavoleto
tavullia
tavveen
tawa
tawakkol
tawakkul
taylor
taz
tađe
tbilisi
tchadien
te
tea
teaching
team
teana
tears
teatraalla
teatro
teatter
teatterc
teatteri
teatterijn
teatterist
teatterla
teatterolla
teatterstivrejeijee
teborg
teborgs
tech
techno
teda
teddih
teddila
teddilum
teddiđ
teddui
teddust
tedduu
tee
teeda
teehi
teeiva
teeja
teema
teemah
teemaid
teeman
teemu
teenage
teenoorsaksofon
teerija
teerijn
teersalo
teesta
teevdij
teevsta
teevstah
tego
tegu
tegul
teh
teha
teheran
tehi
teide
teijee
teijo
teijula
teika
teikari
teikarla
teikka
teisko
teissala
teiva
teivaa
teividij
teja
tekkala
tekken
tekniik
tekniika
tekniikpalha
teknisa
teknisii
teknologia
teknologiapalha
teksta
tekstideijeen
tekstiiltaaida
telataipale
telegraph
teleskoop
televisio
televisioelleekooveest
televisioelleekove
televisioelleekoveh
televisiokanava
televisiora
televisiost
televisiouđa
telford
telkinniemi
telkka
tell
tellervo
telluur
tem
tembipyra
temin
temmes
temo
temola
tempa
template
templates
temple
templos
temporal
temppa
ten
tena
tenala
tenebrosa
tenerife
tengelio
tenhia
tenhola
tenholan
tenhunen
tenkaichi
tenna
tennby
tennessee
tennesseest
tennila
tennio
tennis
tennisspellee
tennisturnam
tensei
tenuis
teodoro
teolog
teoreetla
teoria
teoriaid
teoriast
teos
tepasto
teppala
teppo
ter
tera
teras
tere
teresa
terga
terhi
terho
terijoki
terinen
terje
terma
terme
termest
terminal
terminator
termodynamiik
termoli
termosfa
terms
termwiki
ternary
ternopil
tero
terra
terrain
terranova
terre
terrestrial
terriniemi
territorioh
terror
terry
terttila
terttu
tervahauta
tervaja
tervajoki
tervakoski
tervala
tervalampi
tervama
tervaniemi
terveisia
terveyskirjasto
tervo
tervoinen
tervola
tervolast
tervon
tervsund
tes
tesino
tesjoki
tesla
tesoro
tessva
test
testa
testament
tet
tetriniemi
tetris
teu
teukkula
teulie
teuro
teus
teutari
teuva
teuvast
teuvo
teva
tevaniemi
tevdim
tevkis
tevkisra
tevkisruopsa
tevkisrus
tevkka
texas
texasist
text
texte
textrm
texts
tez
teđ
tgo
tgolfspellee
th
tha
thaieenna
than
thankful
tharaba
that
the
theater
theatre
thee
theft
their
them
thembekile
thembu
theme
then
theodor
theodore
theodorus
there
these
theta
thexder
they
thgen
thibaut
thief
thienemann
thieves
thin
thine
thing
things
thinking
thiong
third
this
thomas
thompson
thomson
thor
thorntonist
those
thou
thouless
thrak
three
thrill
throne
throttle
through
throw
thumb
thumbnail
thunberg
thunbergi
thunder
thurman
thursday
thy
thymus
ti
tia
tialanma
tialmai
tian
tibbs
tiber
ticino
ticket
tida
tiden
tidsskrift
tie
tieck
tiekko
tieksma
tien
tiensuu
tienuuvt
tieppi
tieppiseibi
tier
tierra
tierva
tiet
tieta
tieto
tietoa
tietoja
tietosanakirja
tiettee
tiettiđ
tiettui
tiettum
tiettumkua
tiettuu
tiettuđ
tieva
tieđa
tieđe
tieđettem
tieđettemc
tieđij
tifashi
tifernina
tig
tige
tiger
tigershark
tigge
tiggeest
tigrinjakiela
tigwirizane
tih
tihia
tihta
tihusniemi
tii
tiigerkaccuu
tiihala
tiihalanniemi
tiihola
tiijme
tiijmest
tiijpa
tiijpah
tiila
tiileest
tiilijd
tiilijn
tiilikka
tiilikkala
tiiliskivi
tiimaant
tiimola
tiina
tiipila
tiips
tiirola
tiisala
tiistenjoki
tiitia
tiivga
tiivreh
tiivrij
tiivrijd
tiivta
tiivtah
tiiŋga
tiiŋgah
tij
tijda
tijme
tijmed
tijmeest
tijmepele
tijoux
tijpa
tijppa
tikanoja
tikirdee
tikka
tikkakoskist
tikkala
tikkalanma
tikkamannila
tikkekia
tikku
tiko
til
tila
tilastoa
tilastokeskus
tilastollinen
tile
tileh
tilekomedia
tilekua
tiles
tiliipu
tilja
tilkkala
till
tillandz
tilo
tilt
tim
tima
timbo
time
timeline
times
timi
timin
timma
timo
timola
timoniemi
timor
timorla
timothy
timovaara
timperila
timperla
timtamande
tin
tina
tinbergen
tindall
tinea
tineidae
tineinae
tineola
ting
tingyin
tinta
tintin
tiny
tio
tipasoja
tippett
tippur
tips
tiranos
tirila
tirkkonen
tirkkos
tirlihha
tirmo
tirttula
tis
tiskarla
tisseurs
tissot
tisuja
titan
titanic
titans
titij
title
tito
titoima
tittelijd
tiukka
tiukkast
tiurla
tiuruniemi
tiusala
tiuvainen
tivga
tivia
tivieha
tivieva
tivo
tivra
tivre
tivreh
tivta
tivvoomohjelm
tiđ
tiŋga
tja
tjaajanidh
tjalle
tjihkkom
tjo
tju
tjua
tjuda
tjudo
tjuetiekra
tjusterby
tka
tkesuola
tketty
tki
tkimahan
tkimavveest
tkitia
tkiđ
tkojii
tkoo
tku
tkulla
tkyla
tl
tla
tlii
tma
tme
tmin
tmist
tna
tnam
tnoehba
tnoehsaemiestidienlidien
to
tobago
tobbeen
tobda
tobddi
tobdeh
tobdoidis
tobdokuolgah
tobdomeerhah
tobdomerkka
tobdoo
tobdos
tobdoseh
tobdosin
tobdosumos
tobdosumoseh
tobdosumosijn
tobias
tobo
toby
toda
today
todd
todos
toe
toedi
together
togo
togola
toh
toha
tohe
tohhee
tohhejeh
tohhii
tohkala
tohmaja
toho
toholahti
toholampi
toholampist
tohon
toi
toid
toiguin
toija
toijala
toijalast
toijois
toijola
toikkala
toikkola
toim
toima
toimii
toimituksia
toin
toirdhealbhach
toivaala
toivakka
toivakkast
toivakko
toivala
toivarila
toiviainen
toivila
toivo
toivola
toivonen
toivos
toivosdatter
tojii
tokihira
tokio
tokoinen
tokraja
tokunaga
tokyo
toleba
tolentino
tolfsna
tolkien
tolkis
tolkkinen
tollander
tollet
tollii
tolliittui
tolliittuvvojii
tolls
tollui
tollum
tolvanniemi
tolvasniemi
tolve
tolvuu
tom
tomas
tomasbo
tomatoes
tomatoesist
tomb
tomboy
tome
tommala
tommaltaig
tommaso
tommi
tommila
tommit
tommola
tommonma
tomonaga
tomorrow
tomujoki
tomula
ton
tona
tonava
tondiet
tone
tonga
tongues
toni
tonight
tonnoir
tonnoiri
tonttu
tony
too
tooha
toohum
tooima
tooimah
toola
tooleeb
toolla
toollum
toomaat
toonse
toorja
toos
toosila
toost
tootula
toova
toovla
toovva
tooŋa
top
topeivi
topeno
topographic
topoinen
toppari
topsenjunc
tor
toraja
toras
torasalo
torasbacka
torby
torchiarolo
torella
torhola
tori
torikka
torin
torina
torinese
torino
torinost
torittu
torjuu
torkel
torkkala
torkkila
torkkola
tormato
tormod
torn
torna
tornado
tornadoh
tornadoi
tornadoin
tornio
tornioniemi
toro
toroinen
toronto
torontost
toroppala
torp
torppa
torppi
torquato
torquayst
torre
torrente
torrents
torres
torretta
torricella
torrione
torro
torsansalo
torsantaka
torsbo
torsholma
torstholm
torstila
torsvik
tortilla
tortora
torttila
torvela
torvenniemi
torvinen
torvoila
torvola
tos
tosarby
toscana
toscanast
tose
tosh
toshihide
tossavalansaari
tossavanlahti
tostain
tot
total
totally
totanus
totila
totka
totkee
totkeeh
totkei
totken
totkos
totta
tottes
tottija
totuus
tou
touch
touched
toujours
touppa
tour
toure
tournament
tourula
tous
tout
tova
tove
tovla
tovle
tovnbeln
tovo
towards
tower
town
townes
towns
toy
toyday
toyota
toŋa
toŋŋa
tra
trabajo
tracey
track
tracy
tradition
trai
trail
trailer
train
tramutola
tran
transatla
transformers
transliteraatio
translitteraatio
transulmui
transulmuuh
transworld
tranvik
trap
trapassato
trash
trast
trauma
travail
travis
tre
treasure
treasures
trebeljevo
trecastelli
trecchina
trees
tregua
treia
trek
treksila
trente
tres
trespass
trespyo
treviso
trevor
trey
tri
tria
trial
trials
tribes
tribune
tricarico
trick
tricolor
tridactylus
tridens
triesen
triesenberg
triestest
trifoliata
triglav
trigno
trigonometrisa
triller
trilogias
trilogy
trimble
tringa
trinidad
trinidadla
trinita
trio
trip
triple
tripoli
triseta
trispinosa
tritium
triunfal
triunfo
trivento
trivial
trivigno
trivinho
trivittata
trn
tro
trollbo
trollen
trolls
trollshovda
trollvik
trombi
trombih
trombijn
tromsa
tromssa
tromssaast
trond
trono
tronto
trontost
trooper
trooppisa
trophy
troposfa
trosten
trosterud
trotby
trouble
troubled
trs
trubaduur
truck
trude
true
truenen
trump
truncata
trunso
truth
trygve
trøndelag
ts
tsa
tsacas
tsalo
tsbo
tscheremissische
tscheremissischen
tschiel
tse
tsele
tsendhen
tsi
tsmora
tso
tsunesada
tsən
tt
tta
ttara
ttbo
ttee
tteeh
tteevuota
tteevuođa
tteh
tteijee
tteijeeh
tteijeejua
tteijees
tteijei
tteijeid
tteijen
tteleh
ttellee
ttelser
ttem
ttema
ttemeh
ttemes
ttemla
tten
tter
ttes
ttesstaavva
tti
ttih
ttii
ttij
ttijd
ttila
ttim
ttin
ttinkiela
ttinla
ttir
ttis
ttist
ttiđ
ttiđla
ttl
ttlax
tto
ttojeh
ttojeijee
ttojii
ttoo
ttu
ttui
ttum
ttumena
ttun
ttur
tturfestivaal
tturspeelah
tturspella
tturtoima
tturvalasta
ttus
ttusist
ttuv
ttuva
ttuvah
ttuvva
ttuvvojeh
ttuvvojii
ttuvvoo
ttyla
tu
tua
tubda
tubdii
tubdum
tuberkuloosa
tuberkulosa
tublealbum
tucker
tucson
tuellee
tuelleeh
tuellei
tufara
tufillo
tuha
tuhha
tuhhiitta
tuhhiittem
tuhhiittii
tuhhiittij
tuhhiittiđ
tuhhiittui
tuhhiittum
tuhhit
tuhkala
tuhtuu
tuhtuuluudij
tui
tuija
tuimala
tuisku
tuiskula
tuittula
tujula
tukholma
tukholman
tukholmast
tukiala
tukirja
tukirje
tukirjec
tuksejeh
tuku
tula
tulevat
tulgijdis
tuli
tulii
tulindberg
tulkka
tulkkila
tulkkum
tulkkuđ
tulla
tulodde
tulola
tuluskukkaro
tulva
tulve
tulvepa
tum
tumas
tumba
tumist
tun
tundra
tundrakua
tune
tunhamn
tunila
tunis
tunisia
tunisiala
tunisian
tunisiast
tunkelo
tunne
tunnila
tuntematon
tunturi
tuo
tuoda
tuodda
tuohilampi
tuohiniemi
tuohisaari
tuohitto
tuohittu
tuohu
tuoi
tuoivust
tuoivuu
tuojij
tuojijd
tuojijn
tuokkola
tuokslahti
tuolba
tuoldimc
tuoma
tuomaala
tuomala
tuomarainen
tuomarla
tuomas
tuomioja
tuomo
tuomoinen
tuora
tuorakka
tuorila
tuorla
tuosta
tuota
tuovilanlahti
tuođa
tupa
tupala
tupavuori
tupe
tupiegga
tuppurinma
tupurla
turaja
turakkala
turbo
turdus
tureh
turenki
turi
turismo
turisteh
turkhauta
turkka
turkki
turkkila
turkkiliih
turkmenistan
turku
turnam
turnamra
turnee
turneejeessa
turneest
turrican
tursola
tursunpera
turtianniemi
turtles
turtola
turulila
turun
turunen
turunmaa
turviđ
tus
tusa
tuseh
tusijd
tust
tuswangane
tuta
tutasimama
tutjunniemi
tutka
tutkimuskeskuksen
tutkum
tutpussent
tutu
tuu
tuubda
tuuh
tuukkala
tuula
tuuli
tuulikki
tuulos
tuuma
tuunaansaari
tuunaja
tuuni
tuupa
tuurala
tuure
tuurha
tuurki
tuurkist
tuurku
tuurkust
tuus
tuusja
tuusma
tuusniemi
tuusniemist
tuusula
tuusulast
tuutta
tuuva
tuuvda
tuuveest
tuuđha
tuvalu
tuve
tuvua
tuvva
tuvvoo
tuwe
tuđa
tv
tva
tvangsflyttingen
tvik
tvirgeoma
tvo
tvrdo
twaliilubula
twikatane
twilight
twin
twinn
twins
twisted
twister
two
tycho
tycoon
tye
tyehin
tyeje
tyejeest
tyejeh
tyejestis
tyeji
tyelji
tyellita
tyellitta
tyemmejui
tyestilis
tykko
tyko
tyllila
tynglax
tynkkyla
tyo
type
typhoon
typpi
typpidioksid
typpimonoksid
typpin
typpisuuvra
typpo
tyra
tyrannie
tyriseva
tyrja
tyrkko
tyrna
tyrone
tyrva
tyta
tyto
tytti
tyy
tyypi
tyypist
tyyrinma
tzingen
tə
təllibov
u
ua
uakiela
uari
ub
uba
ubba
ubisoft
uc
uca
ucasteddro
ucc
ucca
ucce
ucceeb
ucceeblohhoon
ucceeblovoin
ucceeblovokiela
ucceeblovokielah
uccen
uccpa
uccua
ucebeh
ucebijd
ucebijn
uceh
ucemus
ucemusta
uces
ucesla
uchun
ucjuuha
ucjuuva
ucjuv
ucjuvnja
ud
uda
udayadityavarman
udda
udeh
udinesest
udmurtkiela
udo
uematsu
ufficiale
ufo
ufulu
uganda
ugra
ugricae
ugrila
ugrilainen
ugrilaisen
ugulava
uh
uha
uhc
uhca
uhke
uhkeda
uhketa
uhkevua
uhkoila
uhlu
uhre
uhreda
uhredum
uhreh
uhren
uhuru
ui
uid
uiga
uiherla
uimaniemi
uiminniemi
uimola
uin
uit
uittamo
uivat
uja
ujotta
ujotteh
ujottum
ujottuvvoo
uk
uka
ukkila
ukko
ukonlahti
ukonniemi
ukraina
ukrainakiela
ukrainast
ukraniakiela
uksa
ul
ula
ulaid
ulda
uldda
ulddageađgi
ulf
ulga
ulguu
ulguubeln
ulguupia
uljanovsk
ulla
ullainen
ullava
ullavast
ullim
ullo
ulloskerreerapu
ullstro
ulmala
ulman
ulme
ulmen
ulmui
ulmuid
ulmuin
ulmust
ulmuu
ulmuuh
ulriika
ulrika
ultima
ultimas
ultimate
ultra
ultravioletsuonja
ulverso
ulvi
ulvila
ulvilast
ulysses
um
uma
uman
umberto
umbra
umbria
umbriast
umbrosa
ume
umea
umed
umeh
umen
umeruuđa
umesa
umetila
umi
umk
ummeed
umodzi
umoga
umolijd
un
una
unaja
unajala
unchained
uncharted
uncinata
und
under
underbara
undercover
underdark
underground
underra
underso
underworld
undici
undulata
une
unesco
ung
ungern
unhcr
unhinged
uni
unicolor
unida
unidos
unio
union
uniona
unionist
unis
unit
unite
united
units
unity
universal
universe
universitet
universitetsforlaget
university
universityst
unkerla
unknown
unna
unnukansalo
unnukkala
uno
unohdus
unoi
unoiena
unoiska
unonen
unreal
unreliable
uns
unser
unsere
untamala
untamo
unter
untila
uoga
uoiga
uoja
uolda
uoldda
uolma
uolmah
uoma
uopa
uoppa
uoppum
uos
uosa
uotila
uotsola
uova
uovgga
uovggat
uovja
uovjis
uovjisc
uovjisjerja
uovjisra
uovjisrista
uovva
uovviitta
uođij
uođijd
uođijn
uoŋa
uoŋah
up
upjohn
upmi
upon
upper
uppsala
uppsalast
upright
ups
upseer
ur
ura
uraja
uralic
uralica
urallijn
urano
uranus
urban
urbana
urbania
urbano
urbi
urbino
urbisaglia
[...]
