!
"
#
##0
##1
##10
##11
##12
##13
##14
##15
##16
##17
##18
##19
##2
##20
##21
##22
##23
##24
##25
##26
##27
##28
##29
##3
##30
##31
##32
##33
##34
##35
##36
##37
##38
##39
##4
##40
##41
##42
##43
##44
##45
##46
##47
##48
##49
##5
##50
##51
##52
##53
##54
##55
##56
##57
##58
##59
##6
##60
##61
##62
##63
##64
##65
##66
##67
##68
##69
##7
##70
##71
##72
##73
##74
##75
##76
##77
##78
##79
##8
##80
##81
##82
##83
##84
##85
##86
##87
##88
##89
##9
##90
##91
##92
##93
##94
##95
##96
##97
##98
##99
$
%
&
'
(
)
*
+
,
-
.
/
0
00
000
001
004
005
006
007
01
010
011
017
02
0208
021
023
029
03
030
031
032
038
04
040
042
0430
047
048
05
06
062
067
07
075
08
081
084
085
09
0928
093
097
1
10
100
1000
1005
101
1010
1011
1014
102
1022
1025
1027
103
1030
1038
104
105
1050
106
1066
107
1070
1073
1079
108
1087
109
1093
1094
1095
1098
11
110
1100
1102
1103
1104
1105
1106
1107
111
1111
1113
1115
112
1124
1125
1127
113
1130
1138
114
1144
1147
115
1152
1153
1155
1156
1157
1158
116
1160
1164
1169
117
1171
1172
1173
1175
118
1184
1185
1186
1187
119
1191
1194
1199
12
120
1200
1202
1204
1205
1207
121
1213
1216
1217
122
1225
1226
1228
1229
123
1230
123456
1235
1237
1238
1239
124
1241
1245
1246
1248
125
1250
1252
1253
1257
126
1261
1262
1263
1265
1266
1269
127
1275
1278
128
1280
1282
1283
129
1290
1293
1294
1297
13
130
1300
1301
1305
131
1313
1316
132
1323
1328
133
1333
1334
1339
134
1340
134340
1344
135
1356
136
136108
136199
1364
136472
1367
137
1373
1375
138
139
1392
1399
14
140
1400
1405
1406
141
1414
142
143
1431
1437
144
145
1450
1451
1452
1455
1459
146
1460
1464
1468
147
1471
1475
1476
148
1480
1482
1483
1487
1488
149
1490
1491
1492
1494
1496
1497
1499
15
150
1500
1501
1502
1503
1504
1505
151
1512
1518
1519
152
1520
1521
1522
1526
1528
153
1532
1533
1534
1536
1537
1539
154
1540
1541
1542
1543
1544
1546
1547
1548
155
1550
1555
1556
1557
1558
156
1560
1562
1564
1569
157
1575
158
1580
1582
1583
1584
1587
1588
159
1590
15924
1593
1595
1596
1598
1599
16
160
1600
1601
1602
1603
1604
1605
1607
1608
1609
161
1610
1612
1613
1614
1616
1617
1618
1619
162
1620
1621
1623
1624
1625
1627
1628
1629
163
1630
1631
1632
1633
1634
1635
1636
1637
1639
164
1640
1641
1642
1643
1644
1645
1647
1648
1649
165
1650
1651
1652
1654
1655
1656
1659
166
1660
1663
1665
1666
167
1672
1673
1674
1675
1677
1678
168
1680
1683
1684
1685
1686
1687
169
1690
1691
1692
1695
1697
1698
1699
17
170
1700
1701
1702
1703
1704
1705
1706
1707
1709
171
1710
1711
1712
1713
1714
1716
1718
1719
172
1720
1721
1722
1723
1724
1725
1726
1727
1728
1729
173
1730
1731
1732
1733
1734
1735
1736
1737
1738
1739
174
1740
1741
1742
1743
1744
1745
1746
1747
1748
1749
175
1750
1751
1753
1754
1755
1756
1757
1758
1759
176
1760
1761
1762
1763
1764
1765
1766
1767
1768
1769
1770
1771
1772
1773
1774
1775
1776
1777
1778
1779
178
1780
1781
1782
1783
1784
1785
1786
1787
1788
1789
179
1790
1791
1792
1793
1794
1795
1796
1797
1798
1799
18
180
1800
1801
1802
1803
1804
1805
1806
1807
1808
1809
181
1810
1811
1812
1813
1814
1815
1816
1817
1818
1819
182
1820
1821
1822
1823
1824
1825
1826
1827
1828
1829
183
1830
1831
1832
1833
1834
1835
1836
1837
1838
1839
184
1840
1841
1842
1843
1844
1845
1846
1847
1848
1849
185
1850
1851
1852
1853
1854
1855
1856
1857
1858
1859
186
1860
1861
1862
1863
1864
1865
1866
1867
1868
1869
1870
1871
1872
1873
1874
1875
1876
1877
1878
1879
188
1880
1881
1882
1883
1884
1885
1886
1887
1888
1889
1890
1891
1892
1893
1894
1895
1896
1897
1898
1899
19
190
1900
1901
1902
1903
1904
1905
1906
1907
1908
1909
191
1910
1911
1912
1913
1914
1915
1916
1917
1918
1919
192
1920
1921
1922
1923
1924
1925
1926
1927
1928
1929
193
1930
1931
1932
1933
1934
1935
1936
1937
1938
1939
194
1940
1941
1942
1943
1944
1945
1946
1947
1948
1949
195
1950
1951
1952
1953
1954
1955
1956
1957
1958
1959
196
1960
1961
1962
1963
1964
1965
1966
1967
1968
1969
197
1970
1971
1972
1973
1974
1975
1976
1977
1978
1979
198
1980
1981
1982
1983
1984
1985
1986
1987
1988
1989
199
1990
1991
1992
1993
1994
1995
1996
1997
1998
1999
2
20
200
2000
2001
2002
2003
2004
2005
2006
2007
2008
2009
201
2010
2011
2012
2013
2014
2015
2016
2017
2018
2019
202
2020
2021
2022
2025
203
204
205
206
207
208
209
21
210
211
212
213
214
215
216
2163
217
218
219
22
220
220013
2207
221
222
223
224
225
226
227
228
229
23
230
231
232
233
234
235
236
237
238
239
24
240
241
2414
242
243
244
245
246
247
248
249
25
250
2500
251
252
253
254
255
256
257
258
259
26
260
261
262
263
264
265
266
267
268
269
27
270
271
275
276
277
28
280
281
282
283
284
285
286
287
288
289
29
290
291
292
293
294
295
296
297
298
299
3
30
300
3000
301
302
303
304
305
306
307
308
309
31
310
311
312
314
315
316
3166
317
318
319
32
320
321
322
323
325
326
327
33
330
331
332
333
336
338
339
34
340
342
343
345
346
349
35
350
351
352
353
354
355
356
357
358
359
36
360
361
364
365
368
37
370
371
372
373
374
375
376
377
378
379
38
380
381
383
384
385
386
387
388
389
39
390
391
392
393
394
395
396
397
4
40
400
4000
401
40170
402
4020
404
405
406
407
408
409
41
410
411
412
413
414
415
417
418
419
42
420
421
4217
422
423
424
425
426
427
429
43
430
431
432
433
434
435
436
437
438
44
4400
441
443
444
445
447
448
449
45
450
452
454
456
457
459
46
460
461
462
463
464
465
467
469
47
470
472
473
47494
475
476
477
478
48
481
482
483
484
486
487
488
489
49
491
492
494
495
496
497
498
499
5
50
500
50000
501
502
503
504
506
507
508
509
51
510
511
512
513
515
517
52
520
521
527
528
529
53
531
532
535
538
539
54
542
544
55
550
551
555
556
55671
557
559
56
560
561
563
565
566
568
57
570
572
574
577
578
58
580
582
588
59
590
591
592
593
594
595
597
598
599
6
60
600
601
607
61
610
611
613
614
616
617
618
62
620
621
622
624
625
626
63
630
631
632
633
637
639
64
640
646
649
65
650
65489
655
656
658
659
66
661
665
666
669
67
670
671
672
674
675
676
677
678
679
68
681
682
683
684
685
686
687
688
689
69
690
691
692
693
6934
694
695
696
697
698
699
7
70
700
704
706
709
71
712
714
715
72
723
725
726
729
73
735
739
74
746
75
750
751
757
758
759
76
761
763
765
766
768
769
77
770
774
78
7818
784
785
787
789
79
790
7907
797
799
8
80
800
801
802
803
804
8047
805
8050
806
807
808
809
81
810
814
817
818
82
824
826
8263
8264
829
83
831
833
834
836
84
840
843
845
85
850
851
852
85323
856
857
858
859
86
860
8601
862
864
866
867
868
869
87
870
872
874
875
876
877
878
879
88
880
881
88192
882
884
885
886
887
888
889
89
892
896
9
90
900
90377
90482
909
91
911
914
916
919
92
929
93
930
938
939
94
940
941
944
945
946
95
950
951
952
96
960
961
9614728
963
964
965
966
967
968
969
97
970
971
972
973
974
975
976
977
978
9781403917232
9781403938695
979
98
988
99
990
992
994
995
996
997
999
:
;
=
>
?
@
\
^
_
`
a
aa
aachaptan
aachaptanys
aacheoid
aachiangley
aachlou
aachlouit
aachooinaghtyn
aachouyr
aachroo
aachrooit
aachruinnaght
aachummaghyn
aachummey
aachummit
aachur
aaenmyssit
aafilley
aafilleydagh
aafillit
aafilltagh
aagail
aagherrid
aagherridyn
aagherrym
aaghoaill
aaght
aah
aahaghyrtagh
aahassooagh
aahirrey
aahjioogh
aahjiooghagh
aahoiaghey
aahoilshaghey
aahoilshey
aahoilshit
aahroggal
aahroggalys
aahroggit
aaie
aajioogh
aajiooghagh
aalaghtyn
aaley
aalhiassaghey
aalhiasseeyn
aalhiassit
aalhieeney
aalhiemmagh
aalhiemmaght
aalid
aalin
aalinid
aaloayrt
aamaid
aanchorragh
aane
aaneyn
aaniartaghey
aaniartit
aanoaghey
aaphooaraghey
aappilattoq
aaraa
aaragh
aarang
aaraue
aardman
aareaghey
aareayrtys
aarey
aarheynn
aarheynnit
aarheynnyn
aarkey
aarlagh
aarlaghey
aarlee
aarlit
aarloo
aaroagh
aaroish
aaron
aaruggyr
aarys
aasagh
aascellaghey
aascreeu
aascreeut
aase
aaseyn
aash
aashag
aashagh
aashit
aasit
aasoil
aavestey
aavestit
aavioghee
aavioghey
aavioghit
aavolcaanyn
aavriwnys
aavuilley
aavuilltagh
aawoalley
aayannoo
aayeeilley
ab
ababa
abad
abane
abar
abb
abba
abbas
abbey
abbyr
abbyrlhit
abbyrlhittyn
abbyrlhityn
abbyrt
abbyrtagh
abbyrtyn
abc
abcaaish
abcaaishish
abdelli
abderrahmane
abdul
abdullah
aberdeen
aberdon
aberdyfi
abergwaun
abertawe
aberteifi
aberystwyth
abhainn
abhann
abidjan
abies
abigail
abjad
abjadyn
abkhazia
ablid
abo
aboriginal
aborigines
about
above
abraham
abrahamagh
abril
absaloidagh
abstand
abstract
abu
abugida
abugidaghyn
abuja
abyl
abysseen
ac
academia
academic
academy
acadoil
accan
accident
accolaidyn
according
account
accra
accrington
accusative
ace
acer
acetosella
ach
achadh
achene
acheneyn
achill
achillea
achmhai
acht
acinos
acquisition
acre
acreyn
acrocephalus
act
actagh
action
acton
actor
actors
actress
acyr
acyryn
ad
ada
adaigh
adair
adam
adams
add
addams
addis
adelaide
adha
adhaerens
adhagh
adjacent
adjani
administration
ado
adobe
adolf
adolph
adolphe
adomna
adria
adrian
adsyn
adult
adults
adulyadej
adventure
adventures
advocate
adyr
aeg
aegeria
aegey
aegid
aeglagh
aejeeanagh
aengus
aer
aeragh
aeraght
aeraghtagh
aeronautics
aesthetagh
aesthetaght
aether
afc
affair
affairs
affricaid
affricaidyn
affrick
affrickaanish
affrickagh
affrickee
affro
afganiszta
afghaanagh
afghanistaan
afghanistan
african
afro
after
afterglow
afternoon
ag
against
agamagh
agan
agardh
age
agency
agent
agents
aggair
aggairagh
agglagh
aggle
agglish
agglishagh
agglishyn
aggyrt
aggyrtagh
aggyrtit
aggyrtys
aggyrtyssyn
aggyrtysyn
aggys
agh
aghill
aghin
aghinyn
aght
aghtagh
aghtal
aghtallagh
aghtallys
aghterbee
aghtey
aghteyr
aghteyryn
aghteyrys
aghtinoidyn
aghtyer
aghtyn
aghtys
aghtyssyn
aghyn
agla
aglais
aglaja
agnes
ago
agoura
agreement
agricultural
agriculture
aguila
agus
agyeman
ah
ahern
ahmad
aht
ai
aidan
aiden
aidreeatagh
aidyn
aigh
aignagh
aignaghyn
aigney
aiken
aikidoka
ail
ailanthus
aile
aileyn
aill
aillen
aillte
ailt
aime
aimun
ain
ainey
aingeal
aini
ainjys
ainjyssagh
ainle
air
airaght
airaghtyn
airavatesvara
aird
aireamh
aires
airh
airhey
airlann
airlines
airn
airnag
airnagyn
airney
airnyn
airport
airt
airways
ais
aise
aishanagh
aishey
aishwarya
aisne
aistragh
aistraght
aitt
aittin
aittyn
aittys
aittyssyn
aiwo
aiyr
aka
akan
akin
akinagh
akiner
akinyn
akira
akko
akmajian
akrotiri
akureyri
al
ala
alabama
aladdin
alain
alan
alashath
alaska
alba
albaan
albaanagh
albaanish
albaneagh
albaneaghtyn
albaneish
albania
albans
albany
albedo
albert
alberta
alberto
albertson
albey
albicans
albinagh
albinee
albion
albrecht
album
albuquerque
albym
albymyn
alchemilla
alcoal
alcoalagh
alda
alderney
alec
aleister
alejandro
aleksandr
alemanagh
alencar
alessandro
aleutagh
alex
alexa
alexander
alexandra
alexandre
alexis
alfalfey
alfey
alfie
alfonso
alfred
alfredo
alfreton
algae
algagh
algaghyn
algear
algearagh
algeeragh
algeerey
algey
alghero
algiris
algonquiagh
algonquian
ali
alice
alicia
alignment
alistair
alistreeney
aliyah
alk
alkalaih
alkalaihagh
alkalaihaght
alkaloyd
alkaloydyn
all
alla
allan
alle
allen
allerjagh
alley
alliaceae
alliance
allie
allies
allison
allium
allosido
allsoonagh
alma
almaty
almon
almonds
almonyn
aloe
alofa
alofi
aloideasa
alone
along
alonso
alpagh
alpha
alphabet
alpina
alpine
alre
als
alsaash
alsaasish
alt
alta
altaiagh
altan
altar
altenkunstadt
altermaal
alternative
alto
altoc
altrincham
alumni
alun
alusalu
alvarez
always
alycia
alyga
alytes
alþingi
am
ama
amadeus
amager
amanda
amanita
amara
amas
amason
amateur
amateyragh
amazing
amazon
ambassadeyr
ambasseyder
ambasseydeyr
ambee
amber
ambrosio
ame
amelio
amen
america
americaanagh
americaanee
american
americana
americanagh
americkey
amerigo
amh
amharish
amhra
amica
amida
amigos
amile
amini
amino
amlaght
amlee
amm
amman
ammet
ammoiney
ammyn
ammyr
ammyryn
ammys
ammyssit
amniota
amniotagh
amoebae
amoebagh
amoebaghyn
amoebosoa
amon
among
amonn
amor
amos
ampeloprasum
ams
amsterdam
amus
amvlass
amy
amygdalus
an
ana
anaasagh
anaase
anaaseyn
anabar
anagh
anal
anale
analysis
analytical
ananda
anas
anastasia
anatole
anatolia
anatomy
ancestry
anchaslagh
anchaslaghey
anchasley
anchaslys
anchaslyssyn
anchaslysyn
ancheirdagh
ancheirdee
anchochredjuagh
anchoodaghey
anchoodit
anchorage
anchorragh
ancienne
ancient
and
andaluci
andeeyn
andere
anders
andersen
anderson
andhra
andooghyssagh
andorra
andre
andrea
andreas
andrew
andrews
android
andy
andzhighatova
anerit
anetan
ang
angel
angela
angeles
angell
angelo
angels
angiosperm
angiospermae
angiospermagh
angiospermyn
anglia
anglicaanagh
anglicaanaght
anglicaanee
anglo
anglorum
angoley
anguilla
angus
angustifolia
anhalt
anhickyr
anhui
anilingus
animal
animalia
animals
animated
animation
animations
anime
anis
anissa
anjee
anjeeal
anjou
anka
ankara
ankiniz
anlheiltyssyn
anmagh
anmey
ann
anna
annabelle
annaghyn
annales
annals
annane
anne
anneliese
annes
anney
anneydagh
anneyder
annie
anniversary
annotated
annual
annym
anoayshagh
anomagh
another
ansa
anser
ansherbee
antananarivo
antarctagh
antheridia
anthocharis
anthonie
anthonis
anthony
anthropological
anthropology
anthus
anthyryn
anti
antient
antigua
antillaghyn
antoine
anton
antoni
antonio
antony
antraie
antraieagh
antraks
antrapoamorfagh
antrapoayllee
antrapoaylleeagh
antrapoaylleeaght
antwerp
anura
anvenkey
anvennick
anvio
anvioys
anvroie
anwar
anxiety
any
anything
ao
aodha
aodou
aoife
aok
aonghas
aontrym
aos
aosda
aosta
ap
apachean
apag
apagyn
apatow
apeyn
apg
aphasia
apia
apiaceae
apollo
apollonia
apoptosis
appaghey
appee
appert
apple
appleseed
appyn
apr
april
apulia
apus
aqaba
aquatica
aquaticus
aquitaine
aqwa
ar
ara
araab
araba
arabagh
arabaght
arabah
arabee
arabish
arable
arago
aragon
aragonagh
aragonish
araigh
aramaagh
aramaaish
aramaic
aran
arang
aranish
arann
arasaneyn
araucana
araucaria
arbor
arbutus
arbyl
arbyllagh
arc
arcade
arcana
archaea
archaeagh
archaebacteria
archaeological
archegonium
archer
archibald
archiv
archive
archives
arctagh
arctic
arctigenin
arctium
arcus
arcyn
ard
ardan
ardane
ardaneyn
ardea
ardey
ardghooagh
ardjaghey
ardjey
ardjid
ardjyn
ardjynagh
ardleigh
ardmarragh
ardmarraght
ardnieu
ardnieughyn
ards
ardscrutaght
ardsmooinaght
ardwhaill
ardwhaillagh
ardwhaiyl
ardyn
are
area
areas
arecibo
areeney
arena
arezki
arfon
arganagh
argane
arganeagh
arganeit
arganey
arganeyn
arganeys
arganeyssyn
arganys
arganyssyn
argenteen
argenteenagh
argenteenee
argentina
argentino
argid
argidagh
argidoil
argidyn
argidys
argir
argon
argyle
ari
ariana
arias
ariel
aries
aris
ariste
aristotle
arizona
ark
arkan
arkansas
arm
armai
armeain
armeainagh
armeainish
armean
armeanagh
armee
armeniaca
armentie
armin
armit
armor
armorica
arms
armstrong
army
armyn
armys
arnarson
arnhem
arnold
aromaanish
arpitaanish
arquette
arr
arragh
arraghee
arragheryn
arraghey
arraghit
arraghyn
arraghys
arraghyssyn
arral
arran
arrane
arraneagh
arraneyder
arraneyderyn
arraneyn
arraneys
arranyn
arras
arree
arrey
arreydee
arreyderyn
arrish
arrishagh
arrishaght
arrishee
arrisheyr
arrisheyryn
arrishyn
arrit
arrival
arroo
arrow
arrowsmith
arryltagh
arryltee
arrym
arrymagh
arrys
arsenal
art
arte
artebudz
artemisia
arthooragh
arthropodyn
arthur
article
artist
artists
arts
artu
artur
artyn
arunachal
arvensis
arvor
arzhanaou
as
asa
asaph
ascii
asclepias
ascot
ascq
asdyn
ase
ash
ashdod
ashdown
asher
ashford
ashgabat
ashistagh
ashistee
ashkelon
ashkenazagh
ashley
ashlinagh
ashlish
ashlishyn
ashmore
ashoon
ashoonagh
ashoonaght
ashoonaghteyr
ashoonaghteyryn
ashoonaghys
ashooneyder
ashooneyderyn
ashooneyragh
ashooneyryn
ashoonyn
ashton
asimov
asin
ask
askaidyn
asl
aslaynt
asmara
asmodelle
asnagh
asnaghyn
asney
asp
aspects
aspick
aspickagh
aspickyn
aspickys
aspickyssyn
aspx
asquith
ass
assag
assagyn
assaig
assam
assdaue
assee
asseeagh
asserbajaan
asserbajaanagh
asserbajaanish
assey
assia
assize
assjee
asslaynt
association
assphurtal
assphurtanyn
assyn
astana
astatc
asteckagh
asteraceae
aston
astoorish
astreeaghey
astreeit
astro
astroaylleeaght
astronaut
astronomy
asturias
astyr
astyral
astyrit
astyrt
asuka
asuncio
at
ata
atalanta
atc
athabaskagh
athabaskan
athair
atheen
athletic
athol
atholl
athollyn
atkins
atlanta
atlantagh
atlantel
atlantic
atlas
atlasagh
atomu
atp
attack
attenborough
attitude
attractions
attys
au
aucubin
auden
audioslave
auf
auflage
august
augusta
auguste
augustin
augustine
augustus
auley
aundeyr
aundyr
aundyryn
aunlyn
aunt
aunydr
aurora
aus
auschwitz
austeyr
austeyragh
austin
austrail
austrailagh
austrailee
austraineeshagh
australia
australian
austro
author
authority
auto
autumn
auvergne
aux
auxin
ava
avan
avant
avatar
aven
avengers
averil
avery
aviv
avn
avon
avril
aw
awabakal
award
awards
away
awdry
awin
awinagh
awiney
awintragh
awinyn
awk
awree
ay
ayd
aym
aymara
aymarish
ayn
ayndagh
ayndaue
ayndauesyn
ayndoo
aynjee
ayns
aynsyn
ayr
ayraghyn
ayre
ayreeanagh
ayrey
ayrn
ayrnagh
ayrneen
ayrneenyn
ayrnyn
ayrshirecoontae
ayryn
ays
aythya
az
azaria
azem
azov
aztec
azura
að
b
ba
baa
baad
baagh
baaghyn
baaish
baanreydee
baanrid
baarail
baare
baarlagh
baarle
baarleagh
baarleyryn
baarnaghyn
baarney
baarool
baase
baaseyn
baataghyn
baatey
baatyn
bab
babbagh
babban
babbanagh
babbanaght
babbanyn
babblal
babe
baby
babylon
bac
baccata
bach
bacillus
back
backed
bacon
bacteria
bacteyr
bacteyragh
bacteyrofageeyn
bacteyryn
bad
baden
badi
badlag
badmyntyn
bae
baffin
bafta
bagan
baggyrt
baggyrtagh
baggyrtys
baghdad
baghee
baght
baghtagh
baghtal
baghtalyn
baghtyn
baghyl
bagoon
baha
bahamagh
bahamaghyn
bahrain
bai
baiaghyn
baie
baieyn
baih
baihaghey
baiheyder
baiheyderyn
baiht
baile
bailey
bailliage
baillym
bainnagh
bainney
bains
baird
baisantagh
baitc
baix
baker
bakery
bal
baldwin
balearagh
balfe
balgarski
baljagh
baljaght
baljaghtyn
baljey
baljyn
baljys
balkanagh
ball
ballay
ballet
balley
ballon
balloon
baloc
balochi
balochistaan
balor
baltagh
balthasar
baltimore
baluchi
bamako
bambi
ban
banc
bancyn
band
bandar
bande
bandiagara
bane
baneag
baney
bang
banga
bangbros
bangkok
banglane
banglaneagh
banglaneaght
banglaneyn
bangor
bangui
banian
banjee
banjul
bank
banks
bann
bannaght
bannaghtyn
bannagyn
banned
bannee
bannyn
bantawaish
bantiarna
bantu
banyan
baoill
baollaigh
baptiste
bar
barack
barakaldo
barbadagh
barbados
barbaght
barbara
barbaragh
barbarea
barbera
barbuda
barcelona
bard
bardagh
bardaght
bardd
bardoil
bardyn
bare
barel
barelyn
barents
barganaghyn
bargane
barganey
barganeyn
barker
barkhausen
barkley
barks
barlow
barnaghyn
barnard
barnes
barnet
barney
barngarla
barnsley
barockagh
baron
baroose
barr
barra
barraie
barran
barranaghtyn
barrant
barrantagh
barrantee
barrantoil
barrantys
barranys
barranyssyn
barrett
barrey
barriaght
barriaghtagh
barriaghtyn
barrie
barrington
barrit
barroose
barrooseyn
barrow
barry
barthe
barto
bartoli
barton
barœul
bas
bascagh
bascaidagh
bascee
bascish
base
basel
bashtaghyn
bashtee
bashtey
bashtit
bashung
basic
basics
basidosporragyn
basil
baskin
bass
bassag
basse
basseterre
bassett
basshunter
bastag
bastille
bat
bates
bath
batman
baton
bator
battle
battlestar
baudouin
bauer
baumgartner
baveyr
baveyragh
baveyrish
bay
bayleeaght
bayonne
bayr
bayryn
baywatch
bazeleg
bbc
bd
bdr
bdsm
be
bea
beach
beag
beaga
beagh
beaghee
beaghey
bealach
bean
beannchar
bear
bearkan
bearkanagh
bearna
bearnaraigh
beasagh
beasaghey
beashneyderyn
beashnys
beashnyssagh
beashnyssyn
beast
beasts
beat
beatles
beattie
beauchamp
beaufort
beaumont
beautiful
beauty
beayf
beayn
beaynaghey
beays
bec
because
beck
beckett
beckford
beckwith
bective
bed
beda
bede
bedford
bedfordshire
bedia
bedtime
bee
beeal
beed
been
beersheba
bees
beethoven
beetys
before
beg
began
begawan
beggan
beggey
begin
beginners
begnagh
behan
behind
behrt
bei
beign
beigthigh
beih
beihll
beihyn
beijing
beill
beineix
being
beinn
beinnyn
beirdd
beirut
beisht
beishteig
beishteigyn
beishtyn
beisteigyn
beit
beithi
beiyn
bel
belaroosh
belarooshagh
belarooshish
belfast
belg
belgagh
belgraaid
belhare
belharish
beliefs
believers
belinda
belkacem
bell
bella
belle
bellis
belmopan
below
belsen
belushi
belvedere
ben
bender
bendiuic
beneath
benedict
benelux
benfro
bengaalagh
benghalensis
benin
benjamin
benjamins
bennett
benoded
benrein
benreinyn
benson
bent
bentham
bentrup
bentyn
benz
beoyn
beoynagh
beoynyn
ber
berberagh
berberisheyryn
berc
berg
bergen
bergman
bering
berkeley
berkshire
berlebeck
berleen
berlin
berliner
berman
bermioodee
bernard
bernardino
bernauer
berne
bernhard
bernstein
berreen
berresford
berrien
berrish
berrishyn
berry
bersoonidyn
berstein
bert
berthold
bertie
bertolt
bertrand
berwick
bessarabia
besson
best
beta
betelgeuse
beth
bethlehem
better
betty
betula
between
beverley
bewick
beyonce
beyond
bh
bha
bhaile
bhaloir
bhasa
bhatia
bhe
bheag
bheanntrai
bhearaigh
bheatha
bheileogaigh
bhi
bhiataigh
bhlainse
bhlarna
bho
bhoayl
bhoth
bhreatainn
bhreathnach
bhru
bhu
bhumibol
bi
biallagh
biallee
biallys
bianca
biała
białystok
bibi
biblagh
bible
bibleagh
biblical
bibliotheken
bic
bickel
bideford
biden
bieauaghey
bieauid
biel
bielefeld
bielsko
biesterfeld
big
bigginagh
bigginyn
bihan
biilked
bikini
bikol
bilateria
bilbao
bilbo
bildungsroman
bilingual
biljagh
biljyn
bill
billagh
billaghyn
billboard
billed
billey
billiardyn
billie
billioon
billioonyn
billoon
billooneyryn
billy
bin
bindung
bineal
bineenyn
bineyn
bing
bingen
bingyn
bingys
binh
binjey
binn
bio
bioag
bioagyn
biodiversity
biogeographical
bioghid
bioghit
bioghys
biographies
biography
biol
biological
biology
biomane
bioyrid
bioys
bir
birch
bird
birds
birk
birkenau
birling
birmingham
birr
birragh
birragyn
birrinbirrin
birth
birthplace
births
biscaayn
bishagh
bishaghey
bishaght
bishee
bishit
bishkek
bishop
bismarck
bissau
bistorta
bit
bites
bivaidonas
bivalvia
bizaad
bjo
bjørnson
bjørnstjerne
bk
bkc
bla
blaa
blaag
blaagh
blaaghey
blaaghyn
blaagyn
blaanid
blaaoil
black
blackburn
blacked
blackley
blackpool
blackwell
blade
bladma
blaenau
blaic
blair
blake
blank
blass
blasstal
blasstalys
blasstan
blassyn
blastyn
blavezh
bleastagh
bleastey
bleayst
bleaystagh
bleaystan
bleaystanyn
bleaystee
bleaystey
bledel
bleeanagh
bleeanaght
bleeaney
bleeantyn
bleeth
blein
bleiney
bleinoil
bleintag
blessed
blest
bleu
blinders
bloch
block
blod
bloemfontein
blog
bloggyn
blonde
blood
bloody
bloom
bloomfield
bloomington
blow
blu
bluckan
bluckaneyr
bluckaneyryn
bluckaneyrys
bluckanyn
blue
blunt
blythe
bmdf
bnc
bnei
bnj
bnr
bo
boad
boaghan
boaldyn
boallagh
boallaghyn
boalley
boallit
boandey
boandyr
boandyrys
board
boardwalk
boat
boayl
boaylagh
boayll
boaylley
boayloaylleeaght
boayneyder
boayrd
bob
bobby
boccaccio
bochilley
bock
bocki
bod
bodhmall
bodhra
bodjal
bodjallagh
bodjallyn
body
boe
bog
bogdanovich
boggaghey
boggaghys
boggart
boggey
boggit
boght
boghtey
boghtinys
bogota
bohai
bohemia
bohemian
boiddee
boileau
boilet
boing
boiraghyn
boirey
boirinn
boirit
bois
boiss
bokma
bold
bolg
bolgan
bolganyn
bolgey
boli
bollagh
bollan
bollee
bollywood
bologna
bolsheavee
bolton
bolvaneagh
bon
bonaparte
bond
bondeeys
bondeeyssyn
bondiaght
bone
bonelli
bonn
bonner
bonnie
bont
booa
boodeeys
boodeeyssyn
booiagh
booise
book
books
bookshelf
boom
boon
boone
boord
boorse
boots
bootysyn
boraraigh
bord
border
borgia
borgo
boring
boris
bork
born
borneo
borsley
borðoy
bosnia
bosnish
boss
bossan
boston
bosworth
bot
botany
boteil
botero
bother
bothnia
botorrita
bottom
boubacar
bouin
bouinagh
boulogne
bound
bounders
bounty
bourbonnais
bourne
bournemouth
boutros
bouvet
bouyr
bow
bowaghyn
bowen
bowes
bowles
box
boxing
boy
boyce
boyd
boyle
boyn
boynyn
boys
boz
br
braagyn
braar
braaraghyn
braaraghys
braarey
braaryn
brace
brachot
brad
bradda
braddag
braddagyn
braddan
braddanyn
braddeeaght
bradford
bradley
brady
braew
bragg
braggyn
bragh
braghee
braghtyn
brahms
braih
brain
braintree
brak
bram
bran
branch
brand
brandenburg
brandon
branlaadys
branlaig
branta
brash
brashlagh
brasi
brasiliensis
brasnagh
brasnaghey
brasneyder
brasseel
brasseelagh
brasseelee
brassica
brassicaceae
brassicae
brastyl
brastylagh
brastyllyn
brastylyn
brat
bratislava
brattagh
bratteeyn
brattyn
bratyn
braun
brave
braveheart
bray
brazzaville
brazzers
bre
breaaryn
breac
break
breakfast
breakthrough
breasted
breatainn
breb
brebbal
brecht
breck
breckag
breckeragh
breckeyderyn
breckyn
bree
breeaghys
breear
breearagh
breearyn
breec
breeocklagh
breeockle
breeocklyn
breeoil
breeshey
breesheykio
breeu
breh
breid
breinn
breinney
breiz
breizh
bremen
bremerhaven
bremke
brendan
breneen
breneenagh
breneenyn
brenn
brennan
brent
brentford
brentwood
brescia
breshag
brest
brestisson
bretagne
bretin
bretnagh
bretnee
bretneyr
bretneyryn
bretnish
bretnisheyryn
breton
bretonne
brettania
bretyn
brey
brezhnev
brezhoneg
bri
briain
brian
briant
brick
bridge
bridget
bridgetown
bridjeen
bridson
brief
brieg
brien
brier
brigaid
briggs
bright
brighton
brigi
brihadisvara
brill
briota
bris
brisbane
brishaghyn
brishey
brisht
brishtag
bristol
britaan
britaanagh
britaanee
britaanish
britaanisheyr
britain
britannia
britannica
british
brittany
britten
briw
briwnagh
briwnyn
briwnys
briwnyssagh
briwnyssit
briwnyssyn
briwyn
bro
broadcasting
broadway
broc
broccoli
brochmand
brock
brockyn
brocquy
brod
broddag
broddagyn
broderick
broghil
broie
broiou
broit
brokeback
brokhausen
bromeen
bromwich
bronchyssyn
bronney
bronnit
bronson
bronte
bronx
broo
broogh
brooinyn
broojey
broojit
brooke
brooklyn
brooks
bros
brother
brothers
brotistyn
broudig
brought
brout
brower
brown
browne
bru
bruach
bruce
bruightaghyn
bruightey
brunei
bruno
brunswick
brusy
bruton
bryan
bryci
bryn
brythonagh
brythonee
brythonish
brzesko
bs
bsc
bu
buada
buaile
bucephalophorus
bucha
buchanan
bucharest
buck
buckinghammac
buckinghamshire
buckley
bucures
budapest
buddha
buddhagh
buddhaghys
buddleja
buddy
budget
buena
buenos
buffy
bufo
bufonidae
buggane
bugogue
bui
buiggey
buiggys
buigh
buighag
buighey
buighid
building
builg
buill
buillagh
buillaghyn
builley
buillvollee
buinn
buinnaghyn
buinney
buird
buiri
buitc
bujumbura
bukkake
bukovina
bulgaria
bulgeyragh
bulgeyree
bulgeyrish
bull
bulletin
bullock
bun
bundeilit
bundesland
bundesrepublik
bundestag
buneashagh
bunnee
bunneeaght
bunneeaghtyn
bunney
bunneydagh
bunneydaght
bunneyder
bunneyderyn
bunneydys
bunnit
bunnys
bunraght
bunraghtoil
bunreacht
bunscoill
bunscoillyn
bunsen
bunstoo
bunstooghyn
bunting
bunyn
burbank
bureau
buren
burgenlandkreis
burgess
burgh
burgoonagh
burke
burkina
burley
burlington
burmagh
burman
burn
burning
burnley
burns
burqa
burrell
burt
burton
burundee
bury
buryatish
bus
buscemi
bush
bushaid
business
bussalyn
buster
busy
but
butaan
butaanish
buteo
butler
butterflies
butterfly
buttooryn
buxus
buzzard
bwaane
bwaaneyn
bwee
bwo
bwoaillee
bwoaillit
bwoallee
bwoalley
bwoalleyder
bwoayneyder
bwoid
bwoideeaght
bwoirrin
bwoirrinagh
bwoirrinys
bwooise
bwrdd
by
byd
bydgoszcz
byrne
byron
bysshe
bytermyn
byto
byzantium
c
ca
caa
caabil
caabylagh
caaghyn
caaig
caair
caairliagh
caairliee
caairyn
caarjoil
caarjyn
caarjys
caarjyssagh
caarjyssyn
caartrey
caaryn
caashaghyn
caashey
caayl
caaylag
caaylagyn
caaynt
caayr
caayragh
caayryn
caballeros
cabbag
cabbal
cabbash
cabbil
cabbyl
cabdil
cabdilyn
cabot
caco
caddee
cadee
cadfael
cadhain
cadjin
cadjinagh
cadjincliaghtagh
cadjincliaghtit
cadjiney
cadjinit
cadjinys
cadley
caerffili
caerfyrddin
caergybi
caerlwytgoed
caernarfon
caerulea
caesar
cafe
caffee
cage
caggaghyn
caggee
caggeeagh
caggeeaght
caggey
caggeyder
caggoil
cagh
caghlaa
caghlaaderyn
caghlaaee
caghlaaghyn
caghlaait
caghlaays
caghlee
caglee
cagleeit
cagliagh
cagliari
cagliee
caglit
cah
cahnagh
caicos
caie
caigh
caighdea
caigney
caigneyderyn
cailjynys
caill
caillagh
cailleeyn
cailli
caillin
caillinyn
caillit
caillt
cailt
cain
caine
cainle
cainleagh
cainleyn
cair
cairbre
cairlinn
cairn
cairnigh
cairo
cairscreeu
cairscreeuagh
cairscreeuyn
cairt
cairyn
cairys
caisht
caislea
caitlin
cake
cal
calabria
calais
calamintha
calamita
calandra
calcutta
caldwell
calendar
calendula
caley
calgary
calidris
california
caligula
call
callaghan
callan
called
callin
callish
callister
calloo
cally
calmane
calpernia
caltha
calum
calvary
calveenaghys
calvin
cam
camanachd
camboydagh
cambriae
cambridge
cambridgeshire
came
cameo
camerey
cameron
cameroon
cameroonagh
camling
cammag
cammageeaght
cammee
cammeeyn
camomile
camp
campania
campbell
camphire
campus
campyn
camryn
camys
can
cana
canaan
canaaragh
canada
canadagh
canadee
canadey
canadian
canale
canaria
canberra
candida
candy
cane
canger
canidae
canis
cannablaght
cannan
cannell
cannes
cannian
cannogenol
cannoo
cannyssagh
canoes
cantabria
canterbury
cantoanish
canton
cantoon
cantoonyn
caola
cap
capaldi
cape
capital
capitata
capitlagh
caplan
capone
cappan
cappanyn
cappeeys
caprona
captain
captan
captanyn
capyn
car
cara
caracas
carbey
carbid
carboan
carboanaayt
carbyd
cardamines
cardiff
cardinaal
cardo
cardoon
carduelis
cardunculus
career
cares
carey
caribagh
caricom
carl
carli
carlina
carlisle
carlito
carlo
carlos
carlson
carly
carmane
carmarthen
carmeish
carmel
carmen
carmine
carn
carna
carnane
carnaneyn
carnegie
carnivora
carol
carole
carolina
caroline
carolus
carota
carotenoidyn
carpenter
carpenters
carpyllyn
carr
carrach
carradjeyn
carraig
carraneyn
carrey
carrick
carrickyn
carrie
carrier
carroll
carrooagh
carruth
carsley
carson
carswell
cart
carter
cartier
cartoon
cartoonists
cartoonyn
cartwright
carvallyn
carvat
carvatyn
carved
carving
cary
casa
case
casey
caseyn
cash
casherick
cashtal
cashtallyn
cashteel
caslagh
casley
caslit
caslys
caslyssagh
caslyssyn
caslysyn
casnewydd
cass
cassag
cassagh
cassagyn
cassan
cassanyn
cassee
cassey
cassid
cassidagh
cassidy
cassie
cassini
cassit
cassyn
cast
castagh
castell
castellana
castey
casteyder
casting
castit
castle
castletown
castries
castro
cat
catalina
cataloanagh
cataloanish
catalog
catalogue
catalonish
catalysys
catarrhini
catch
category
caterpillar
cathair
cathal
cathartica
cathedral
catherine
cathrach
catoleagh
catoleaghys
catolee
catreeney
cats
catt
catwalk
caudata
caulgagh
caulgyn
cauliflower
caullery
cause
cavan
cavendish
cavia
cayman
cayr
cayrn
cb
cbe
cbeebies
cbs
ccl
ccs
cd
cdot
cdu
ce
ceaghey
ceaghlagh
ceaghlaghyn
ceaghlee
ceaghley
ceaghlid
ceaghlit
cealla
ceanannas
ceann
ceannaigh
ceatharlach
ceau
ceauee
ceaueyder
ceaueyderyn
ceaut
ceboidea
cece
cecil
cecilia
cedar
cedric
cedrus
ceeprey
ceithleann
celastrina
celebrating
celebration
celebrity
celeste
celestine
celina
cell
celle
celsius
celt
celtiagh
celtibeirish
celtic
celtiee
celtish
census
centaurea
centauri
center
central
centre
century
cepa
cercle
cercopithecidae
cercopithecinae
cercopithecoidea
cerddi
ceredigion
cerevisiae
cern
cesar
cet
ceto
ceuta
cf
cfs
ch
cha
chaair
chaairliagh
chaarjyn
chaarjys
chaart
chaashey
chaayr
chaayragh
chaayryn
chabbal
chabbil
chabbyl
chabdil
chad
chadjin
chadjinagh
chadjinit
chadlee
chadley
chaenomeles
chaerffili
chaetognatha
chaffee
chagg
chaggee
chaggeeagh
chaggey
chaghlaa
chaghlaaee
chaghlaaghyn
chaghlaays
chagliagh
chaglit
chah
chahnagh
chaie
chaighdea
chaill
chaillin
chaim
chair
chairbre
chairn
chairo
chairscreeu
chairys
chaisht
chaislea
chakvetadze
chaladoan
chalifornia
challenger
challin
chaluim
chamassish
chamberlain
chambers
chamboyd
chambriagh
chambridge
chammag
chammah
champ
champenois
champion
champions
championship
champlain
champyn
chan
chanadagh
chanadey
chandler
chanel
chang
change
changed
changeover
changes
changhyr
changing
channel
chant
chantoon
chaoi
chapel
chapelle
chaplin
chapman
chappan
chaptan
chapter
char
characteyr
characteyryn
charadriiformes
charadrius
charane
charbad
charbid
charboan
charbyd
charelia
charente
chargys
charib
charibagh
charity
charlemagne
charles
charli
charlie
charlotte
charlton
charmane
charmed
charn
charon
charracteyr
charradje
charraig
charrey
charrick
chart
charthaigh
chartvelagh
chase
chasherick
chashoob
chashoobish
chashtal
chashteel
chaslagh
chasley
chaslys
chaslyssagh
chaslyssyn
chaspagh
chass
chassagh
chassaghstaan
chassan
chassee
chassey
chassyn
chast
chastain
chataloan
chataloanish
chatalonish
chatalooin
chatar
chathair
chatoleagh
chatterjee
chaucer
chaudhry
chavan
chayt
che
cheaghil
cheaghlagh
cheaghley
cheanannais
cheann
cheap
cheatharlach
cheathru
cheau
cheaueyder
cheayin
cheayll
cheayllagh
cheayllys
cheayn
cheayrt
cheayrtagh
cheayrtee
cheayrtyn
check
cheddin
cheder
cheead
cheeadyn
cheeagh
cheeal
cheeall
cheeallagh
cheeayll
cheeayllagh
cheeayllaght
cheeil
cheeill
cheeillyn
cheeprey
cheer
cheesh
cheiley
cheilley
cheiltyn
cheim
cheimagh
cheimee
cheimeeaght
cheimnagh
cheimyn
cheinney
cheintagh
cheintee
cheintys
cheintyssagh
cheintyssaght
cheintyssee
cheird
cheirdagh
cheirdey
cheirdyn
cheiy
chelkagh
chelloorey
chelsea
cheltenham
cheltiagh
cheltiaghys
cheltibeirish
cheltish
chemie
chemistry
chemmicagh
chemmig
chemmigagh
chemmigee
chemmyrk
chen
cheng
chengaghyn
chengdu
chengey
chengoaylleeaght
chennee
chentreen
chernihiv
chernivtsi
cherokee
cherree
cherrin
cherrinagh
cherroo
cherrooyn
cherry
cheshire
chester
chesterfield
chestius
cheyenne
cheyl
cheyll
cheyllaghey
cheylley
cheylljagh
cheyllys
cheyrrey
chełmno
chi
chiaddee
chiaddey
chiaddeyder
chialg
chiang
chianglagh
chianglaghyn
chianglee
chiangley
chianglt
chiannoort
chiannoortagh
chiannoortyn
chiara
chiarail
chiare
chiarkylagh
chiarn
chiarneen
chiaroo
chiarrai
chiarroo
chiart
chiartaghey
chiartee
chiartys
chiaull
chiaulldramey
chiaullee
chiaulleyder
chiaulleyderyn
chicago
chicken
chicklipaid
chied
chiedyn
chief
chieftains
chihiro
chilatu
child
childers
childhood
children
chill
chillag
chillagagh
chillagee
chillagh
chillaghyn
chillagyn
chille
chilton
chime
chimmeeagh
chimmeeys
china
chinensis
chinese
ching
chiondeeaght
chione
chioneys
chionnaghey
chionnee
chionneeym
chionnit
chionyssagh
chios
chipewyan
chirac
chiribati
chirpey
chirree
chis
chisholm
chishtey
chiyt
chla
chlaair
chlaare
chlaareyn
chlaasagh
chlag
chlagh
chlaghagh
chlaghan
chlaghyn
chlannaghey
chlannit
chlashtyn
chlashtynagh
chlassicagh
chlastyn
chle
chlea
chleaney
chleaoil
chleayee
chleayney
chleaysh
chleayshagh
chlee
chleeah
chleeau
chlein
chleragh
chleree
chliaghtagh
chliaghtaghyn
chliaghtey
chloaie
chloan
chloe
chlogh
chloiaghyn
chloie
chloieder
chloiederyn
chloreed
chloris
chlorobalius
chlorophyll
chloroplast
chloroplastyn
chlou
chlowan
chluain
chlub
chlwyd
chnida
cho
choad
choadanyn
choadee
choadey
choagaash
choagyraght
choagyrey
choardail
choardailagh
choardailys
choardrail
choayl
choca
chochaarjys
chochiangle
chochiangley
chochionneeaght
chochorp
choghooysagh
chohaggloo
chohaglym
choheiyderys
chohionnal
chohirrey
chohoiggal
choice
choipyn
choirce
choire
choirib
chojnice
cholaashtey
cholb
cholby
cholhaihagh
chollaigh
chollane
cholleish
cholloo
cholm
cholma
choloayrtys
chologid
choloin
choloinagh
choloinaghey
choloinaghys
choloinyn
cholombagh
cholombey
cholught
cholughtyn
cholula
chommagh
chommee
chommeeys
chommishoon
chommyoon
chomoro
chomsky
chonaant
chonaantagh
chonamara
chonastagh
chonastey
chonchoor
chondaigys
chongo
chongqing
chonnaghtey
chonnaghyn
chonnal
chonsyl
chontae
chooatyn
choobey
choodagh
choodaghey
chooid
chooie
chooilleeney
chooilley
chooinaght
chooinaghtyn
chooinaghyn
chooish
chooishagh
chooishyn
choonceil
choondaeghyn
choonee
chooney
choonree
choonseil
choontae
choontey
choontys
choorsagh
choorsal
choorse
choose
choowait
chooyl
chooyleeacklagh
chooylley
chooylloo
chooylrey
chooyrt
chopail
chopin
choptish
chor
choraa
chorcai
chordata
chorea
chorkee
chormaic
chormid
chorn
chornah
chornish
chornobyl
chorockle
chorocklyn
chorp
chorpagh
chorpane
chorpaneyn
chorpoilys
chorpyn
chorra
chorralagh
chorrym
chorshey
chorsickey
chorys
choryssyn
chosh
choshee
choshey
chosnee
chosney
chosneyder
chosneyderyn
chosovo
chosoylagh
chosoylaghey
chosoylaght
chosoylaghtyn
chosoylee
chossackagh
chossyn
choud
chouds
chovaljys
chovestey
chowrag
chowraghey
chowraghyn
chowree
chowrey
chowreydagh
choyrle
choyrlee
choyrt
chraa
chraaee
chrackan
chrackanagh
chrackanyn
chragh
chraghagh
chragheyder
chragheyderyn
chraishtee
chraishtey
chraishteyder
chraitnys
chrantessenagh
chraplit
chraue
chrauee
chraueeaght
chreaghnit
chrean
chreauagh
chreck
chred
chredjal
chredjuagh
chredjue
chree
chreeagh
chreest
chreestee
chreestiaght
chreg
chreid
chremeydagh
chreoi
chrestomanci
chretooryn
chrig
chrimeea
chrimeeagh
chrink
chris
christ
christendom
christensen
christian
christianity
christina
christine
christkind
christmas
christo
christoph
christopher
christy
chro
chroghey
chrogheydys
chrois
chroit
chroitish
chron
chronicle
chronicles
chronk
chronkagh
chronnaghey
chronnaneagh
chronneyder
chronneyderyn
chroo
chrooagh
chrooaght
chrooin
chrooinagh
chrooinaghey
chrooinyn
chrosh
chrottyl
chrouw
chrouwyn
chroymasoom
chroymmit
chruinn
chruinnag
chruinnagh
chruinnaghey
chruinnaght
chruinnaghtyn
chruinney
chrysanthemum
chryslid
chryss
chu
chuan
chubblane
chubut
chuck
chuilceach
chuilinn
chuilleig
chuilleigagh
chuirrey
chuirtlagh
chuishlin
chuishlinyn
chullee
chultoor
chultooragh
chultooryn
chum
chumaadagh
chumbria
chumbrish
chumhall
chumm
chummaght
chummaghtagh
chummaghyn
chummal
chummalagh
chummaltagh
chummaltee
chummaltit
chummaltys
chummey
chummeyder
chummit
chummynagh
chummynys
chumraag
chumraagyn
chur
church
churchill
churdish
churmeyder
churonish
churree
churrit
churrym
churrymyn
chuse
chwedlau
chyndagh
chynnee
chynneeagh
chynneeyn
chynney
chynneydee
chypragh
chyprys
chyrgistaan
chytosol
ci
cia
ciak
ciao
cicadas
cicadettini
ciconiiformes
cie
cierzyna
cilia
ciliocincta
cill
cille
cim
cinclus
cinderella
cinerea
cinn
cio
cionn
cionnaola
circle
circles
circus
cirsium
cit
cities
citizen
citrus
city
civil
ck
ckenau
cl
cla
claar
claaraghey
claare
claareeyn
claareyderyn
claareyn
claaryn
claasagh
cladach
claddagh
clade
cladocera
clag
clageen
claggys
clagh
claghagh
claghan
claghyn
clague
claigin
claire
clancy
clane
clann
clannad
clannit
clara
clare
clarita
clark
clarke
clarkia
clarkson
clash
clashtyn
classicagh
classicee
classification
clattag
clattys
claude
claudius
claus
clavagh
clavish
clayton
cle
clea
cleabaght
cleanaghyn
cleaney
cleaoil
cleaoilagh
cleaoilaghey
cleaoilit
cleayee
cleayn
cleaynagh
cleaynaghey
cleaynaghyn
cleayney
cleayneyder
cleayneyderyn
cleaynit
cleaynt
cleaynyn
cleaysh
cleayshagh
cleayshey
cleayshyn
clee
cleeader
cleeah
cleeau
cleeshag
cleigh
cleighee
cleighyn
clein
cleinney
cleinyn
cleiy
cleiyagh
cleiyee
clements
cleragh
clere
clermont
cleveland
clg
cliafuine
cliaghtagh
cliaghtaghyn
cliaghtey
cliaghtit
cliath
click
clickable
clieau
cliejeeneydys
cliejeenys
clienney
cliftonville
climate
cline
clinopodium
clint
clinton
cliogee
clistagh
clive
cliwe
clo
cloaie
cloan
cloch
clocha
clochair
cloiaghyn
cloich
cloider
cloie
cloieder
cloiederyn
cloiedeyr
cloiet
cloieyderyn
cloieyn
cloit
clone
cloodit
clooie
clooieagh
clooieyn
cloreed
cloreen
close
clou
clougraafeeaght
clouit
clout
clouyn
clovack
clovackish
clovean
cloveanish
clovis
clowan
cluain
cluaini
club
clubyn
clucas
clugeyn
cluicyn
cluig
cluinnee
clwyd
clyde
clyne
clyst
cm
cms
cn
cne
cnida
cnidaria
cnidoctyeyn
cnidocyte
cnidocyteyn
cnn
cno
cnobha
cnoc
cnoca
cnoic
cnucha
co
coad
coadagh
coadan
coadee
coadey
coadit
coadyn
coagaash
coagaashagh
coagyraght
coagyrey
coagyrit
coair
coamraghyn
coamree
coamrey
coan
coar
coardail
coardailyn
coardailys
coardit
coast
coat
coates
coayl
cobar
cobbyr
coburg
coca
cochaarjagh
cochaarjyn
cochaarjys
cochaarjyssyn
cochaarjysyn
cochaslys
cochaslyssyn
cochaslysyn
cocheayllagh
cochianglaghyn
cochiangle
cochiangley
cochiangleyn
cochianglt
cochianglyn
cochionneeaght
cochleayney
cochorp
cochorpagh
cochorpit
cochorpyn
cochruinnagh
coco
cocos
code
codes
codex
coding
cody
coe
coearroodeyr
coed
coen
cofioosagh
coghooysagh
coghooyssagh
cognitive
cohaggloo
cohaglym
cohassooagh
coheeynt
coheiyderys
coheks
cohen
coheshaght
coheshaghtagh
cohionnal
cohionnalyn
cohirraghyn
cohirrey
cohirreydagh
cohirreyderyn
cohortys
cohoyrtagh
cohoyrtee
cohoyrtyssyn
cohuittym
coill
coillar
coillte
coimisiu
coinnagh
coins
coip
coipyn
coirea
coirib
cois
cola
colaashtey
colaastey
colb
colby
colchester
cold
cole
coleman
colette
colheit
colias
colin
colioartys
collagh
collane
collaneagh
collected
collection
collee
colleeaght
colleeys
college
colleges
colleish
colleishyn
collett
collins
collinson
collister
colloo
collooghyn
colloonagh
colloonee
colloonyn
colloquial
collyr
colm
coloayrt
coloayrtys
coloayrtyssagh
coloayrtyssyn
colobinae
colobus
cologne
coloin
coloinagh
coloinaghey
coloinaght
coloinaghys
coloinee
coloinyn
colombagh
colombey
color
colorado
colossianee
colour
colught
colughtyn
colum
columba
columbia
columbianus
columbus
column
colwyn
com
comaidyn
comain
combaasey
come
comedy
comer
comes
comhairle
comic
comiccon
comics
coming
comintern
comix
commagh
commee
commeeys
commended
commishoon
commission
committee
common
communication
communications
communis
communities
community
commyn
commynyn
commyoon
commyoonyn
commyssey
como
comoro
companion
company
comparative
comparison
compilation
complete
complex
composition
compton
comrie
comys
comyssyn
con
conaant
conaantit
conaantyn
conachair
conaire
conakry
conamara
conan
conas
conastagh
conastaght
conastey
conastit
concepcio
concepts
concert
conchinn
conchobair
conchobar
concise
concord
concraid
condaigagh
condaigee
condaigys
conde
condughteyr
conference
confidential
conflict
congo
congoagh
congress
conidia
conmhai
conmhaigh
conn
connacht
connachta
connaghtagh
connaghtey
connaghyn
connantey
connecticut
connection
connections
conneeyn
connell
connemara
connery
conney
conning
connolly
connor
connspee
conor
conquest
conrach
conrad
conradh
conrieugh
consequences
consert
conservation
conspiracy
constance
constant
contact
contae
contemporary
content
context
continuum
contoyrtagh
contoyrtys
contoyrtyssyn
contoyryssyn
contraartagh
contraartys
control
convallaria
conversation
conversational
conwy
coo
cooag
cooan
cooat
cooatyn
coobagh
coobey
coodagh
coodaghey
coodaghyn
coodee
coodit
cooid
cooidjagh
cooidjaght
cooidjyn
cooie
cooieys
cooil
cooill
cooilleeinaghyn
cooilleeiney
cooilleeinit
cooilleeney
cooilleenit
cooillyn
cooinaghtyn
cooinaghyn
cooinee
cooiney
cooinseil
cooinseilee
cooish
cooishyn
cooitinagh
cook
cooke
cool
coolidge
coolio
coon
coonceil
coonceilyn
coondaeghyn
coondit
coonee
cooney
cooneyder
cooneyderyn
coonit
coonree
coonrey
coonseil
coonseilagh
coonseilee
coonseilyn
coontae
coontaghyn
coontey
coontit
coontys
coontyssyn
cooper
coorse
coorseyn
coose
cooseyn
cooyl
cooyllagh
cooyllaghey
cooylley
cooylrey
cooyn
cooyrt
cooyrtey
cooyrtoil
cooyrtoilid
cooyrtyn
copeland
copenhagen
copepodyn
copernicus
copharteeys
copper
coppola
coptagh
cor
cora
coraa
coraagh
coraciiformes
corann
corby
corc
corcoran
cordata
coreggyragh
coreir
coreiragh
coreiryn
corey
corinthianee
cork
corkan
corkanyn
corkee
corkill
corkish
corlett
cormac
cormaghey
cormal
cormid
cormidyn
corn
cornagh
cornard
cornee
corneil
cornelius
cornell
cornish
cornisheyr
cornisheyryn
cornu
cornus
cornwall
corocklagh
corockle
corocklyn
coronation
coronopus
corp
corpagh
corpane
corpaneyn
corporagh
corporation
corps
corpus
corpyn
corr
corra
corraa
corragh
corral
corralagh
corran
corranagh
corree
correy
corrillagh
corrs
corryl
corrym
corrymyn
corsaid
corsaideen
corsaidyn
corsickish
corte
corteen
coruggyragh
corvus
cory
corymb
coryn
corys
coryssyn
corysyn
cos
cosgrave
cosh
cosheeaght
coshey
cosmaid
cosmaidagh
cosmaidyn
cosmos
cosnee
cosney
cosneyder
cosneyderyn
cosnit
cosoyl
cosoylagh
cosoylaghey
cosoylaght
cosoylaghtyn
cosoylee
cosoyley
cosoylit
cosplay
cossackee
cossyn
costa
costal
costello
costys
costyssyn
cottage
cotton
cougar
coughlan
council
count
countess
countries
country
county
coup
cour
courier
cours
course
court
courtenay
courteney
courtney
couyr
cov
covaljys
covaljyssyn
coventry
coventyn
coventys
covestagh
covestaghyn
covestey
covestit
covial
covid
covuilley
covunstooghyn
cowag
cowell
cowes
cowin
cowrag
cowraghey
cowraghyn
cowragyn
cowree
cowrey
cowreydagh
cowrit
cox
coyin
coyrd
coyrlagh
coyrlaghey
coyrle
coyrlee
coyrlyn
coyrt
cp
cr
craa
craaee
craaish
craayn
craaynagh
crabhann
crackan
crackanagh
crackanyn
crafts
cragh
craghagh
cragheyder
cragheyderyn
craghoil
craghtys
craghyn
craid
craidoil
craidoilagh
craig
craine
craishtee
craishtey
craishteyder
craishteyderyn
craitnagh
craitnagyn
craitnys
crake
crammag
crammagyn
cramman
crammanyn
cramp
crampey
crampit
crampys
crampyssyn
cranberries
crane
cranfill
crank
cranncha
crantessen
craobh
craplagh
craplaghey
crapley
craplit
craue
craueagh
crauee
craueeagh
craueeaght
craueeaghtyn
crauelagh
craueyn
craven
crawford
cray
crazy
cre
creaghney
creaghnit
crean
create
creau
creauagh
creck
creckeyder
creckit
creckyn
creddal
credjal
credjit
credjue
credjueyn
cree
creeagh
creeaght
creeaghyn
creear
creearey
creeghyn
creeish
creeisheyryn
creek
creeley
creeleyder
creeney
creest
creestee
creesteenyn
creestiagh
creestiaght
creg
cregeen
creggagh
creggey
creggyn
cregyn
crellin
cremeydagh
cremeyder
cremeyderyn
cremeydys
cremmit
crenarchaeota
creneash
creoi
creoiaghey
cretoor
cretooryn
crewe
cri
cribbey
criggad
criggadee
criggaragh
criggyn
crime
crimeea
criminal
crimmey
crimson
cringle
crink
crispus
cristatus
cristina
crithmum
critical
criticoil
critics
crivassanagh
cro
croa
croagane
croaglagh
crockanys
crockett
croe
croghagh
croghane
croghaneyn
croghey
crogheydagh
crogheydee
crogheydys
crogheydyssyn
croghit
croink
croit
croitagh
croitee
croiteyr
croitish
croix
cromium
cromwell
cronenberg
cronk
cronkagh
cronnaghey
cronnaghit
cronnane
cronnaneagh
cronneyder
cronneyderyn
cront
crontessen
croo
crooaght
crooin
crooinagh
crooinit
crooinyn
crooit
crookall
crootagh
crootaght
crootee
cropped
crops
crosby
crosh
croshagh
croshaid
croshey
croshyn
cross
crossag
crossagyn
crossey
crottag
crottyl
crottylagh
crottylyn
crou
crouw
crouwyn
crovan
crow
crowe
crowley
crown
croyn
cruacha
crubbagh
cruella
cruillit
cruink
cruinlagh
cruinlaghey
cruinlee
cruinn
cruinnaghey
cruinnaght
cruinnaghtyn
cruinney
cruinnit
cruinnlaghey
cruinnys
cruise
cruitc
crush
crusoe
crustee
cruz
cry
crying
cryslid
cryss
cryssyn
crystal
crystallagh
crystallografeeaght
crystalyn
cs
csd
cseremisz
csi
css
csu
ctenophora
ctenophoranyn
cthulhu
cu
cua
cuala
cuan
cubblane
cubblaneyn
cubblit
cubbon
cubbyl
cuckoo
cucumis
cucurbitaceae
cughlin
cughlinagh
cughlinyn
cuin
cuir
cuirraghyn
cuirrey
cuirreydagh
cuirreyder
cuirreyderyn
cuirtlagh
cuirtlee
cuishlagh
cuishleeyn
cuishley
cuishlin
cuishlinaght
cuishlinyn
cullee
cultoor
cultooragh
cultooryn
cultural
culture
cultures
cultys
cum
cumaadagh
cumaghyn
cumann
cumberland
cumbria
cumhall
cumma
cummaght
cummaghtagh
cummaghtyn
cummaghyn
cummal
cummaltagh
cummaltee
cummaltit
cummaltys
cummaltyssyn
cummey
cummeyder
cummeyderyn
cummit
cummynagh
cummynaghyn
cummynee
cummynys
cummys
cummyssagh
cumraag
cumraagyn
cunavali
cunha
cunnilingus
cunningham
cuoco
cup
cur
curain
curie
curiosolitae
curitiba
curlew
curmeydagh
curmeyder
curnagh
curnal
currach
curragh
curree
curreeyn
current
currit
currym
currymyn
curse
curt
curtis
cushag
custameyryn
customs
custym
custymyn
cut
cuthbert
cuttagh
cuttee
cuxhaven
cw
cwidder
cya
cyaneus
cyanobacteria
cycle
cygnus
cymdeithas
cymraeg
cymru
cynara
cynfeirdd
cyngor
cynon
cyril
cyrus
cytosol
cz
czarna
cze
czi
czo
człucho
d
da
daa
daaeed
daag
daagh
daaghey
daaghooaghtyn
daaghyn
daaghys
daah
daahagh
daahder
daahghey
daahghyn
daahit
daahoil
daahyn
daalettyr
daan
daaneyn
daanyn
daaphloid
daase
daawheeylleyder
daawheeylleyderyn
daawheeylyn
dab
dad
daeed
daemon
dafoe
dafydd
dag
daggyr
dagh
daghyr
daghyrt
dahl
dai
daily
daiman
dainava
daingean
daink
daire
daishbyney
daisy
daj
dakar
dakota
dakuten
dal
dale
daleks
dalemark
dali
dalla
dallas
dallooyn
dalmaateyr
dalmaatish
dalmatians
dalmatische
dalrymple
dalton
daly
damara
damascus
dame
dames
damhliag
damhshraith
damien
damon
dan
dana
danaus
dance
dancing
dane
danger
daniel
daniela
daniella
danielle
daniels
dannigirls
danny
dans
dante
danube
danvarg
danvargagh
danvargee
danvargish
dany
danzig
daoudour
daoulaz
dar
dara
dardjee
darey
dark
darlington
darmstadt
darnell
darr
darragh
darree
darren
dart
daru
darwin
das
dasyn
dasystyla
data
database
date
daten
dates
dateyn
daucus
daue
dauesyn
daugava
daughter
daughters
daunse
daunsey
daunseyr
daunseyryn
dave
daveigh
davenport
david
davidson
davies
davis
davison
davy
dawn
dawson
day
dayindi
days
daytime
dayton
dc
dchen
dd
ddinbych
ddr
de
dea
deacon
dead
deaisht
dealga
deam
deamey
dean
deaneyder
deanyn
dear
dearmhai
deassouth
death
deayrtaghyn
deayrtey
debates
decapod
december
declan
decoration
dee
deeck
deed
deep
deeth
definition
defoe
defrancisco
degeneres
degree
deheree
deherree
deimne
deimos
dein
deinchaarjyn
deiney
deinney
del
delaney
delaunay
delaware
delbee
delfino
delft
delhi
delicious
deliver
della
dellal
dellalys
delle
delleyder
delleyderyn
dellit
delta
deltey
deluca
dem
demi
demotagh
dempsey
den
dene
deng
denis
denmys
dennis
dentatus
denton
denver
denzel
deoxy
department
depp
dept
der
derangement
derby
derbyshire
derek
derkholm
dermot
derrey
derry
derval
dervish
des
desc
descartes
descendants
deschanel
description
design
desire
desired
desmond
dessine
destiny
det
details
detective
detmold
detroit
detta
dettyl
deu
deus
deuteronomy
deuterostomagh
deuterostomia
deutsch
deutsche
deutscher
deutschland
deux
development
devil
devito
devon
devonagh
dew
dewey
dewi
dewil
dexter
deyil
deyn
deynlagh
deynlaght
deynlaghteyryn
deynlaghtyn
deynlaghys
deynoaylleeaght
deynphobblaght
deyr
deyrey
deyrit
deyrsnagh
dg
dgn
dh
dha
dhabi
dhaigh
dhaka
dhe
dhekelia
dhiarmada
dhieyn
dhimal
dho
dhoa
dhoire
dhomhnaill
dhone
dhoney
dhoo
dhoon
dhossan
dhossanyn
dhu
dhubh
dhyt
di
dia
diagram
dialect
dialects
diamond
diana
diane
dianne
diaries
diarmada
diarmait
diarmuid
diary
dick
dickens
dickinson
dicotyledonyn
dictionary
dictyosteliida
did
die
diego
diepholz
dies
diesel
diestelbruch
dietrich
digby
diger
digest
digital
dili
dill
dillon
din
dinan
dindal
dindia
dine
dingle
dinosaur
dinsh
dioecious
dioica
diospyros
diploamagh
diploamee
diploid
diploidagh
diplomagh
dipper
direct
director
directory
dirree
dirty
disc
disch
disclosure
disco
discourse
discovered
discovery
discreajagh
discussion
disney
disneyland
disneytoon
display
distribution
district
dit
ditchfield
ditt
diuc
diucagh
diucaght
diucaghtyn
diuney
diunid
diunidyn
diver
diversity
divisio
division
divlyn
divlynagh
diwan
diwanyn
dixie
dixon
diz
dj
djamena
djed
djibouti
djigirr
dk
dmitri
dms
dnieper
dnipropetrovsk
do
doal
doaltattym
doarlish
doarney
doarneyr
doarneyryn
doarneyrys
doarnyn
dob
dobberran
dobbree
dobbyr
dobhair
dobhra
doc
docamad
docamadyn
docamadys
doccar
doctor
documents
dod
dodoma
doe
does
dog
doghan
doghaney
doghanyn
dogma
dogrib
dogs
dogsbody
doha
doherty
dohring
doi
doillee
doilleeid
doilleeidyn
doire
doiri
doirich
doirrey
dol
dolca
dolce
dolittle
doll
dolland
dollar
dolley
dollit
dolls
dolly
dolny
doltee
doltey
doltit
dom
domenico
domestica
domesticus
domhain
domhnach
dominance
domingo
dominic
dominica
dominici
dominique
domino
domnaill
domnall
domrane
don
donald
donbas
doncaster
donegal
donets
donetsk
dong
donita
donna
donnchad
donnchada
donnchadh
donnchadha
donnchado
donne
donnell
donnie
donostia
donovan
dons
donu
donzis
doo
dooanagh
dooar
dooarchoo
dooarchooyn
dooblagh
dooblaghey
dooblaghyn
dooble
dooblit
dooey
dooghys
dooghyssagh
dooghyssee
dooghyssyn
dooie
dooieaght
dooieyn
dooillee
dooin
dooiney
dooinney
dooint
dooisht
dooishtid
doolane
doolish
doom
doon
doonagh
doonaght
doonee
dooney
doont
doonyn
door
doors
doostee
doour
doouryn
dooyrt
doraidyn
doral
dord
dordrecht
doreen
dormer
dorota
dorothea
dorothy
dorraghey
dorraghys
dorree
dorrys
dorryssyn
dorsal
dorset
dorval
dory
dos
doshee
doshiaghey
doshil
dostoevsky
dot
dou
douarnenez
double
douglas
douvyr
dove
dover
dow
dowan
dowanagh
dowd
dowilghreim
dowin
dowiney
down
downstairs
downtown
doyle
dps
dr
dra
draameyder
dracula
draft
dragan
draght
draghtey
dragon
dragons
draig
drake
drama
dramadagh
dramadeyr
dramadeyryn
dramadys
dramaghyn
dramatic
dramey
drane
draneyn
drappal
dravidagh
draw
dre
dreagh
dream
dreams
dreamworks
drean
dredd
dreeym
dreeyminyn
dreeymyn
drefaldwyn
dreger
dreih
dreihyn
dreill
dresden
driaght
driem
drigit
drine
driscoll
driver
droggal
drogh
droghad
droghadyn
droichead
droichid
droim
drom
droma
drommey
dronuillagagh
dronuillinag
drooid
droop
drop
droste
drowned
droyn
druaiaghtagh
druaight
druaightagh
druaightys
drualtagh
drualtys
druggaghyn
druggey
druiaght
druiaghtagh
druight
drummaghyn
drummey
drummeyder
drummyn
drundin
ds
dt
dte
dty
du
dubai
dubh
dubha
dubhadh
dublin
dubliners
duc
duck
duckenfield
duero
duff
duffy
duffyl
dug
duibhne
duic
duicaght
duicyn
duillag
duillagagh
duillageen
duillageenagh
duillageenyn
duillagyn
duillagys
duinid
duirree
duke
dullyr
dullyrnee
dumb
dumbo
dumha
dumhach
dumi
dumosus
dumpit
dun
dunbartonshirecoontae
duncan
dundas
dundee
dune
dunes
dunganish
dungeons
dunkerque
dunkirk
dunlop
dunn
dunphy
duns
dunst
dunver
dunverys
dunveryssyn
dupre
dura
duraish
duran
durango
durham
durrell
dursley
dushanbe
dussan
dustin
duties
dutton
duva
dvd
dvdyn
dvor
dw
dwarfs
dwight
dwj
dwo
dy
dyck
dyer
dyfed
dying
dyke
dylan
dymmyrk
dyn
dynamickyn
dynamite
dynsaghey
dynsee
dys
dysnomia
dystiolaeth
dz
dze
dztwa
e
ea
eab
eabbaghyn
eabban
eabbyn
eabyn
each
eaddagh
eaddee
eaddeeyn
eaghtyr
eaghtyragh
eaghtyrane
eaghtyraneagh
eaghtyraneyn
eaghtyraneys
eaghtyryn
eaghtyrys
eaghtyryssyn
eagle
eagles
eaillere
eailley
eairk
eairkag
eairkagh
eairkagyn
eairkey
eairkyn
eaisht
eaishtagh
eaishtaght
eaishteeagh
eaishteyder
eajipt
eajiptagh
eajiptee
ealaghol
ealisaid
ealish
eam
eamon
eamyn
ean
eanaigh
eanish
eanishagh
ear
earack
earagail
eareast
eared
earish
earisheyr
earisheyraght
earisheyryn
earishlioar
earishlioaryn
earl
earlishlioaryn
early
earnshaw
earoo
earraghtyn
earro
earroo
earrooagh
earrooaghey
earrooaghit
earrooaght
earrooder
earrooderyn
earrooghyn
earrooit
earrooyn
earth
eas
easa
eash
eashagh
eashit
eashyn
east
eastern
eastman
easton
eastwood
easy
easyn
eau
eayil
eayn
eaynagh
eaynee
eayney
eaynid
eaynin
eayninyn
eaysley
eayst
eaystyn
eb
ebcdic
ebenezer
ebert
ebo
ebook
ebro
ebwy
ec
ecb
ecclesiastica
eccleston
eces
ech
echey
echeysyn
echidna
echinodermata
echinodermyn
eck
ecksh
eclesiastes
ecliptagh
ecology
economic
economist
ecser
ecseri
ecuador
ed
edard
edardagh
edd
eddan
eddie
eddin
eddinagh
eddinyn
eddrym
eddryman
eddrymee
eddrymey
eddyn
eddyr
eddyraghey
eddyraishnyssyn
eddyrashoonagh
eddyrashoonaght
eddyrlhieen
eddyrscarrey
eddyrvoggyl
eden
eder
edgar
edge
edgeworth
edin
edinburgh
edited
edith
edition
edjagagh
edjaghys
edmond
edmonton
edmund
edo
eds
edu
eduard
education
educational
edvard
edward
edwards
edwin
edziza
ee
eeacklagh
eeackle
eeacklee
eeacklyn
eeadeen
eeagh
eeaght
eeaghtyragh
eeal
eean
eeanagh
eeane
eeaneagh
eeaneyn
eeanlee
eear
eearagh
eearcheaghlid
eearlaghyn
eearley
eearrooagh
eearvee
eearvooir
eeasaght
eeasaghtyn
eeassaghey
eeassit
eeast
eeastagh
eeastee
eeasteragh
eeasteyr
eeasteyragh
eeasteyraght
eeasteyryn
eeastyn
eebyrt
eebyrtagh
eebyrtys
eeck
eeckit
eeder
eederyn
eeghtyragh
eeit
eelee
eeleeaght
eelipsagh
eelipsoydagh
eemil
eer
eeraan
eeraanagh
eeslynn
eeslynnagh
eeslynnee
eeslynnish
eesotoyp
eesti
eethyr
eetoip
eetoipagh
eeym
eeyn
effect
efta
egan
egede
egg
eggaghyn
eggey
eggo
eggoayllee
eggoaylleeagh
eggoaylleeaght
eggoayllyssagh
eggochorys
eggochoryssyn
eggs
eggys
eggyssagh
eggyssyn
egin
eginagh
eglise
egret
egypt
egyptagh
egyptee
eh
ehkio
ei
eich
eichholz
eidesgaard
eie
eieyn
eight
eighth
eiginit
eignaghey
eignit
eigsoylagh
eilat
eilean
eileanan
eileen
eili
eill
eilley
eillit
ein
einar
eine
einem
einfu
einstein
eiraghey
eiraght
eiraghtagh
eirey
eirinagh
eirinaght
eirinee
eirinys
eirys
eisenhower
eisht
eishtagh
eisner
eisteddfod
eivør
eiyrt
eiyrtagh
eiyrtys
eiyrtyssagh
eiyrtyssee
eiyrtyssyn
eiyrtysyn
eiza
ek
el
elam
elatine
elba
elbla
elders
eleanor
election
electricity
electronic
elefant
elegant
elementary
elements
elena
eleutherodactylus
elfdalish
elgar
eli
eliana
eliant
elias
eliezer
elijah
elinor
eliot
elisabeth
elisha
elite
eliza
elizabeth
ella
ellan
ellanagh
ellanee
ellaneen
ellaneenyn
ellanragh
ellanree
ellanyn
elle
ellen
ellesmere
elley
ellingsen
elliott
ellis
ellmann
ellyn
ellynagh
ellyner
ellyneyr
ellyneyryn
ellynyn
elmint
elmintyn
elon
elongata
elsa
elsevier
elsie
elveeish
elveeishagh
elveeishee
elveeshagh
elvet
elvis
ely
em
emanuel
emb
emberiza
emblem
embraer
embryophyteyn
emil
emilia
emilianish
emilie
emilio
emily
emin
emma
emmanuel
emmerdale
emmet
emmiraidjyn
emmiraidyn
emmy
emperor
empire
emshir
emshiragh
emshiree
emshiryn
emshyr
emshyragh
emshyraghey
emshyraght
emsley
en
encanto
enclos
encounter
encyclopaedia
encyclopedia
encyclopædia
end
enda
endangered
endoplasmagh
endosporragyn
enella
enemy
energy
enetsish
eney
enez
enezeusa
enezvriad
engels
engine
england
englert
english
eni
eniagh
eniee
enmyn
enmys
enmyssagh
enmyssaght
enmyssaghtyn
enmyssey
enmyssit
enmyssyn
enmysyn
enn
ennagh
ennaghtagh
ennaghtaght
ennaghtyn
ennal
ennalagh
ennalaghey
ennalaghys
ennalit
ennalyn
ennee
enney
enneydagh
enneydys
ennit
ennoil
ennoilid
ennym
ennymagh
ennymocklagh
ennymockle
ennymocklyn
ennymoil
ennymoilagh
enrichment
ens
ensler
ensymeyn
enterprise
entertainment
entreilys
entroapaght
entry
environment
environmental
enya
eo
eoghain
eoin
ep
epedia
ephesianee
epic
epidalea
epiderm
epidermagh
episode
episodes
episodeyn
epitaphs
epp
epsilon
epsom
epyn
equality
equestrian
er
eraill
erash
erasmus
erbee
erebus
eretz
erfurt
erg
ergatagh
ergative
erge
ergooyl
ergosfeir
eric
erich
erie
erik
erika
eriksson
erin
eriophorum
eris
erithacus
eritrea
eriugena
erlangen
ernest
ernie
ernst
erotica
erreish
errigal
erriu
erskine
erskyn
ersool
ersooyl
ersyn
ert
eryri
erysimum
erythrolamprus
es
esb
esbo
escape
eshyn
eskilstuna
eskimagh
eskimo
esmaeli
espan
espanyol
espoo
essays
essential
essex
essyl
essylagh
essylys
est
estaan
estaanagh
estaanish
estados
estate
estelle
esteragh
esther
estiano
estoinagh
estoinish
et
eta
etc
ethanol
ethnological
ethnologue
ethnology
etlagh
etlan
etlanyn
etlanys
etleyder
etleyderyn
eto
etruscagh
etruscish
eu
euar
euchlora
eucken
euclidagh
eugene
eukaryota
eukaryotagh
eukaryote
eukaryotes
eukaryoteyn
euler
eumetasoa
eunys
eunysseyr
eunysseyragh
eunysseyryn
eunysseyrys
euphoria
euro
europa
europaea
europagh
europaghyn
europe
european
europey
eurovision
euterpe
ev
eva
evan
evans
eve
ever
everard
everett
everton
every
everybody
everyone
everything
evidence
evil
evolution
ew
ewa
ewagh
ewaghys
ewan
ewdish
ewnagh
ewnaghys
ewnish
ewnyn
ewyn
ex
examiner
exchange
exeter
exodos
exodus
experience
exploration
express
extinction
extra
ey
eye
eyes
eyjar
eysenck
eysturoy
ez
ezekiel
ezra
f
fa
faagail
faagit
faagys
faaie
faaishnagh
faaishnys
faalyn
faare
faarkaghyn
faarkee
faarkey
faarkeydys
faarkeylann
faarney
faaroagh
faaroee
faaroish
faasaagagh
faasagh
faasaghyn
faase
faasee
faasrey
faastguinyn
faba
fabaceae
faber
fable
faboideae
fabricius
face
facebook
faces
factbook
facto
factor
facts
factsheets
fada
fadaneagh
fadeyragh
fadhla
faerie
faggys
faggyssagh
faggyssaght
faggyssaghtyn
faghteyryn
faghtys
faghtyssyn
fahnaghtagh
fai
faih
faihderyn
faill
faillee
failleil
failleilys
failley
failleyderyn
faillit
faillyn
failt
fainagh
fainaghyn
fainey
faing
fainnaghyn
fainney
fair
fairaig
fairaigagh
fairaigyn
fairbanks
fairfax
fairy
faisean
faith
faiyr
faiyragh
faiyryn
fakider
fakin
fakinagh
fakinit
fakten
fala
falaroap
falco
falcon
falicon
falkenburg
fall
fallen
falls
fallsoonagh
fallsoonee
fallsoonys
falsoonagh
fame
familiaris
family
famlee
famman
fammanagh
fammanyn
famous
fan
fancy
fannag
fannagyn
fansee
fantasia
fantasies
fantastic
fantasy
fantasyland
fante
faoghla
faoi
faou
faoued
far
faragher
farang
farangagh
fareham
farenmyn
farennym
fargher
fargo
faris
farkee
farkiaghtyn
farkyl
farkylagh
farm
farmenmyn
farmington
farnborough
faroe
faroeislands
farr
farraghtyn
farrane
farraneyn
farrell
farrys
farskeealaght
farvollee
fashion
fashistagh
fashistaghys
faso
fassan
fassanagh
fassanit
fassee
fasta
fastee
fastyr
fastyragh
fat
fatales
fate
father
fauconnier
fauna
fawr
fay
fayder
fayderyn
faye
fazal
faðir
fc
fe
fea
feabhail
feabhal
feaillaghyn
feaillere
feaillereyn
feailley
feallee
feamagh
feaneeckagh
feanish
feanishagh
feanishyn
fear
fearann
feasley
feature
features
feaym
feayn
feaynid
feayr
feayraghey
feayree
feayrey
feayrid
feayslee
feaysley
feayslit
february
feddag
feddan
feddanagh
feddaneyr
feddanyn
feddish
feddishagh
feddishaght
feddyn
feddynagh
feddynaght
feddynit
feddynyn
feddynyssyn
federation
federer
federico
fedjagagh
fee
feeacklagh
feeackle
feeacklyn
feeagh
feeaghan
feeaghyn
feeaih
feeaihee
feeaihyn
feeal
feealee
feeam
feed
feederaght
feedoo
feedyn
feeit
feel
feelee
feeleeagh
feeleeaght
feeleeghyn
feeleeyn
feer
feeraghey
feerid
feeshan
feeshanyn
feet
feeu
feeuid
feeuidyn
feevey
feeyn
feeyney
fegooish
feie
feill
feillagh
feilley
feirshtey
fele
felger
felicity
felim
felipe
felix
fellag
fellatio
felse
felton
female
feme
femeyn
feminagh
feminee
femmes
femoil
fendeil
fendeilagh
fendeilee
fendeilyssyn
fenech
fenee
fenella
feniagh
feniaghtagh
feniaghtys
feniaghtyssyn
feniee
feoh
feoiltagh
feoiltaghey
feoiltys
fer
ferdinand
ferdorraghey
ferguson
ferhat
fering
ferm
fern
ferna
fernaig
fernando
ferns
ferrand
ferrari
ferrishyn
fest
festival
festuca
feudagh
fever
feysht
feyshtagh
feyshtyn
ff
fflint
fg
fhaili
fhaola
fheilimi
fheusda
fhirdhia
fhm
fi
fiac
fiacal
fianna
fibonacci
fiction
ficus
fidderaght
fiddleyryn
fidleyr
fieaumanys
fiee
field
fielding
fields
fiennes
fierce
fifa
fifth
fig
figaro
figgagh
figgyr
fighters
figoor
figueres
fiji
file
fillamad
fillee
filleeyn
filley
filleydagh
fillit
fillmore
fillmyn
fillym
film
films
filmyn
final
finch
find
finding
finds
fine
fingal
finlynn
finn
finnagh
finne
finnegas
finneigagh
finnlynn
finnlynnagh
finnlynnish
finno
fioghey
fiona
fionn
fionnachaidh
fioragyn
fiore
fiorentino
fir
fire
firebirds
firelight
firenze
firm
firrinagh
firrinaght
firriney
firrinys
firryn
firrynagh
first
firth
fis
fischer
fish
fishag
fisher
fishig
fishigagh
fishigee
fishigoil
fishman
fitzgerald
fitzpatrick
five
fk
fl
fla
flaaoil
flag
flagella
flagellagh
flagellum
flagstaff
flah
flaherty
flahoil
flainn
flamsteed
flanagan
flandrynagh
flandrynee
flandrynish
flandyryn
flann
flavum
fleet
fleetwood
fleming
fleshlight
fletcher
fliaghee
fliaghey
flickr
flight
flint
fliugh
fliughane
fliughaneagh
fliughaneyn
fliughey
fliughid
floag
floagyn
flod
flodaigh
floo
floor
flooyr
flor
flora
florence
flores
florian
florida
flower
flowers
flown
floyd
flueger
fluke
fluoreen
flwyddyn
fly
flycatcher
fm
fo
foaddey
foalley
foalsey
foast
foawir
foawr
foawragh
foaynoo
foaynooee
foaynooyn
foayr
foayragh
foayroil
foays
foayssagh
focklagh
focklaghey
focklaghyn
fockle
fockley
fockleyder
fockleyn
fockleyr
fockleyreyder
fockleyreyderyn
fockleyryn
focklit
fockly
focklymagh
focklyn
focus
focys
fod
foddee
foddeeaght
foddeeaghtyn
foddey
foddid
foddyr
fodjeeaght
fodmayd
fodreayrtan
fogh
foghaney
foghlaare
fograghey
fograghyn
fogrey
fogrit
foiee
foillan
foillanyn
foillycan
foillycanyn
foinse
folican
folk
folketing
folklore
follaghey
follaghtyn
follanid
folley
folliaght
folliaghtagh
folliaghtyn
follit
folly
follym
folmaghey
folmid
folmidyn
folt
foltagh
folwark
fonda
fondagh
fondaghey
fondid
fondit
foneemyn
font
fontanka
fonts
fontyn
foo
food
fooillagh
fooillee
fool
football
for
foras
forbes
force
ford
foreign
forest
forever
form
forma
formation
former
formlaghyn
formley
formoil
formyn
forrest
forsaghyn
forsdal
forse
forsey
forseyn
fort
fortune
forum
forym
fosfaar
foshlee
foshley
foshlit
foslee
fosley
foslit
fossa
fossyl
fossylagh
fossylyn
foster
fosyn
fotograafee
fotograf
fotografagh
fotografeeaght
fotografeeyn
fotografyn
foue
fouenant
foundation
four
fourth
fouwr
fouyir
fouyr
fowder
fowderyn
fox
fr
fra
frac
frame
frameless
franc
franca
france
frances
francesco
francis
francisco
franciszek
franck
franco
francois
franconagh
francophonie
frangagh
frangee
frangish
frangisheyryn
franja
frank
frankagh
frankee
franken
frankenstein
frankfurt
frankivsk
franklin
frankyn
frans
fransiscagh
franz
fraser
frassaghey
frastyl
frauaig
frauaigagh
frauaigyn
fraue
fraueagh
fraueoilagh
fraueyn
fraxinus
fray
frd
fre
freayl
freayll
freaylt
freayltys
fred
freddie
frederick
fredrik
free
freedom
freeman
freeney
freeshlannagh
freeshlannish
freetown
freggyragh
freggyrt
freggyrtagh
freggyrtyn
freggyrtys
freggyrtyssyn
freill
freillagh
freilleyder
freillt
freilt
frels
french
freoaie
freoghane
fresco
fresenius
fresh
freud
friant
fribourg
fricative
friday
friedrich
friend
friends
friendship
fries
frigaidyn
frightened
fringe
frinn
frioggan
friogganagh
friogganyn
fritz
friu
fro
frobisher
frog
frogs
from
front
frost
frozen
frs
fry
frysla
ft
ftv
fu
fuaigh
fuar
fucked
fud
fueginus
fuego
fughlaigh
fugitive
fuglafjordur
fuglafjørður
fuill
fuillaghtagh
fuillaghtyn
fuilleeaght
fuilloilagh
fuilt
fuiltagh
fuinnee
fuinney
fuirraghtyn
fujian
fujiwara
fulham
full
fun
funafuti
fund
funeral
funet
fungi
fungys
fungyssagh
fungyssyn
fungysyn
funny
funnyl
furlan
further
fury
fuscus
fushag
futbolo
futhark
futuna
future
fuygh
fuyghagh
fwee
fweeghyn
fwirran
fwirranagh
fwirranyn
fx
fy
fylde
fylke
fynn
fynnag
fynnagh
fynneig
fynneigyn
fynney
fynwy
fyodor
fys
fyshoayllee
fyshoaylleeaght
fysseree
fysserree
færeyinga
føroya
g
ga
gaa
gaachreeley
gaafilley
gaal
gaalaghey
gaase
gable
gabon
gabor
gabriel
gad
gadley
gaeil
gaeilge
gael
gaelagh
gaelg
gaelgagh
gaelgey
gaelgeyr
gaelgeyryn
gaelic
gaeltacht
gaeltachta
gaeltaght
gaeltaghtyn
gaerfyrddin
gagarin
gaggyrt
gagh
gaghlaa
gah
gahagh
gaihghyn
gaihyn
gailck
gailckagh
gailley
gaillimh
gaiman
galactagh
galactica
galatia
galatianee
galatish
galaxy
gale
galeesh
galeeshish
galega
galerie
galicia
galilei
galileo
galindish
gall
gallagher
gallaibh
galle
galleree
gallery
gallia
gallinago
galliu
gallium
gallo
galloish
gallup
galway
game
gamecocks
games
gameteyn
gametophyte
gametophyteyn
gamhna
gamma
gamman
gammanyn
gan
ganagh
gandaki
gangaikondacholisvaram
gangster
ganish
gansee
ganseeyn
gansu
gant
gantyn
ganymede
gaoth
gappaghey
gar
garagh
garaghyn
garbh
garbha
garbho
garci
garcia
garda
garde
garden
gardening
gardjaghey
garee
gareth
garey
gareyder
gareyderyn
gareydys
garff
garfield
garibay
garland
garmad
garmadyn
garman
garner
garofalo
garraghey
garraghyn
garral
garret
garrett
garrey
garroo
garrulus
garry
garth
garvagh
gary
gas
gaspard
gass
gassagh
gasson
gassyn
gasteiz
gastey
gastid
gastidyn
gaston
gastreypodyn
gasyn
gate
gates
gathering
gaue
gaueagh
gaueghyn
gaulle
gavia
gawne
gay
gaye
gayt
gaza
gazette
gazetteer
gcaorach
gce
gceithre
gcse
gdan
gdansk
gdn
gdp
gdynia
ge
gea
geabbey
geaghley
geaishtagh
geaishtaght
geamagh
gear
gearasdan
geau
geay
geayaghyn
geayee
geayghyn
geayil
geayl
geaylinyn
geayney
geayr
geayrag
geayragh
geayraghey
geayryn
geayshteenagh
geddyn
geddyr
geddyraghey
gee
geeaaney
geearree
geeastaghey
geeck
geek
gees
geeseryn
geid
geill
geilley
geillyn
geiltagh
geinee
geinnagh
geinnee
geirr
geiyrt
gelderland
gell
gelling
gelteg
gem
gemara
gemma
gemmifera
gen
genas
gender
gene
genedlaethol
genera
general
generation
generative
genesis
genetagh
genetic
geneva
genius
gennaghtyn
gennal
genney
genome
genre
genreyn
gentis
genus
geo
geobreizh
geoffrey
geograph
geographic
geographical
geography
georg
george
georges
georgetown
georgia
georgian
georgie
gerald
geraldine
gerard
gerhard
gerhart
germaan
germaanagh
germaanee
germaanish
germaanisheyryn
germain
german
germany
germplasm
gerne
geronimi
gerrard
gerrey
gerrid
gerroil
gerry
gerrymagh
gerrymoil
gerson
gerstein
geschichte
get
getlagh
gets
getting
getxo
geuraghyn
geuree
geurey
gevrezeg
geyraghey
geyre
geyrey
geyrid
geyrragh
geysir
ggk
gh
gha
ghaa
ghaaghey
ghaaghooaghtyn
ghaal
ghaalaghey
ghaan
ghaanyn
ghaeilge
ghaelg
ghaelgagh
ghaelgeyr
ghaeltacht
ghaeltaght
ghailckagh
ghailley
ghainimh
ghaleesh
ghaleeshish
ghalf
ghalilee
ghallioo
ghalloish
ghaltyn
ghambia
ghamman
ghammanyn
ghana
ghaney
ghaobhach
gharbh
gharbhain
gharbho
gharey
gharleid
gharmad
gharmadyn
gharroo
ghas
ghass
ghassyn
ghaue
ghaunse
ghaza
ghean
gheay
gheayee
gheayil
gheayney
gheddin
gheddyn
gheg
gheid
gheiney
gheinnee
ghelbee
ghellal
ghelleyder
ghenre
ghenus
ghenussyn
ghenys
ghermaan
ghermaanagh
ghermaanee
ghermaanish
ghermaanisheyryn
gherrid
gherrym
gheuree
gheurey
gheynlagh
gheynphobblaght
gheyre
ghial
ghiare
ghiarey
ghiarmad
ghiarmuid
ghiarrey
ghiastyllagh
ghib
ghibraaltar
ghien
ghienteyder
ghientit
ghientyn
ghil
ghineraal
ghitar
ghiucaght
ghivlyn
ghlaareyn
ghlack
ghlackan
ghlackey
ghlane
ghlare
ghlaschu
ghlass
ghlasseraght
ghlassey
ghlassraghyn
ghleann
ghleashagh
ghleashaghey
ghleashaght
ghleashiddagh
ghleashtan
ghleiynagh
ghlen
ghlenney
ghlion
ghlioon
ghloo
ghlooaghey
ghlooaght
ghlooghey
ghlooit
ghlottys
ghlottyssagh
ghlout
ghni
ghoaill
ghoaillagh
ghoal
ghoaldagh
ghoalish
ghoaltaght
ghoan
ghoarney
ghoarneyryn
ghob
ghocamad
ghoillee
ghoirrey
gholfeyr
gholl
ghollrish
ghominicagh
ghone
ghonney
ghoo
ghooagh
ghooan
ghooblit
ghooey
ghooghys
ghooghyssagh
ghooie
ghooieyn
ghooin
ghooiney
ghooinney
ghoolag
ghoolish
ghoon
ghooney
ghoont
ghoostee
ghoragh
ghorlagh
ghorlaghyn
ghorley
ghorma
ghorraghey
ghorree
ghorrym
ghortey
ghost
ghostbusters
ghothagh
ghothaght
ghoull
ghoulraght
ghow
ghowanagh
ghowin
ghra
ghraa
ghraafagh
ghraagh
ghraaghys
ghraih
ghraihagh
ghrama
ghrammadys
ghrammeydys
ghrappal
ghreag
ghreagagh
ghreagee
ghreagish
ghreasane
ghreenlynn
ghreenlynnish
ghreenwich
ghreie
ghreieyn
ghreih
ghreim
ghreimmee
ghreimmey
ghreinnaghey
ghreinneyder
ghrian
ghrianagh
ghrianchryss
ghrianchryssagh
ghroamid
ghroghad
ghroudal
ghruaight
ghu
ghuatemaley
ghuernsey
ghuillag
ghuillagagh
ghuillageenyn
ghuillagyn
ghuilley
ghuinea
ghuirragh
ghunver
ghunverys
ghunveryssyn
ghurneilys
ghutnish
ghyn
gi
gia
giacomo
gial
gialdyn
gialdynys
giallaghey
giant
giard
giare
giareskeealagh
giarey
giark
giarraghey
giarrey
giarrit
giartagyn
giastyllagh
giat
giatyn
giau
gib
gibb
gibraaltar
gibson
gica
gie
gied
gien
giennaghtyn
gienneydagh
gienneyder
gienneyderyn
gienntag
gienntagyn
giense
gienteyder
gienteyderyn
gientit
gientyn
gientynagh
gientynyn
gif
gifford
gigi
gil
gilbert
gilchrist
gile
giles
gill
gillespie
gilley
gillian
gillies
gillingham
gillings
gilmore
gimmagh
gimman
gimmee
gimmeeaght
gimmijey
gina
gineraal
gineraalyn
ging
gingen
ginger
ginjillaghey
ginsh
gione
gionnaghey
gions
gioot
giootit
giootyn
giovanni
gipuzkoa
gireg
giri
girl
girlfriend
girlfriends
girls
girlsway
girp
girraghey
girree
girrey
gish
gitar
gitayrn
giu
giulia
giuseppe
give
given
gje
glaare
glabbag
glach
glackan
glackaney
glackanyn
glackey
glackit
gladiator
glagh
glam
glamorgan
glamour
glandarius
glare
glareyderyn
glas
glasa
glaschu
glasgow
glass
glassag
glassan
glasseraght
glassey
glassraghyn
glassrey
glassyraght
glau
glaucium
gle
gleann
gleannta
gleash
gleashagh
gleashaghey
gleashaght
gleashaghtyn
gleashiddagh
gleashit
gleashtan
gleashtanagh
gleashtanyn
gleayragh
glebionis
gleckeyder
gleeson
gleihagh
glein
gleiynagh
gleiynaghey
glen
glenn
glennee
glenney
glennid
gliggyryn
glion
glionfaba
glionteenyn
glionteeyn
glioonyn
glish
glisreed
gloagh
gloasagh
global
globalsportsarchive
globe
gloiaghyn
glonney
gloo
glooaght
glooey
glooie
glooiey
gloria
glory
glossary
glou
gloucester
gloucestershire
glout
glover
gloyr
glycogen
glyn
glyndw
gmina
gmt
gnathostomata
gniezno
go
goadey
goaill
goaillyn
goair
goal
goalagh
goaldagh
goaldee
goalish
goan
goaney
goanyn
goayl
gob
gobbey
gobbragh
gobbraghey
gobbyr
goblan
gobyn
god
godal
goddard
godfather
gododdin
godred
godtha
goes
goethe
gogh
going
goipyn
goit
goju
gokkun
golan
gold
goldberg
goldblum
golden
goldie
goldsmith
golf
golfeyr
golfeyryn
golgi
goll
gollan
gollanyn
golliaghtagh
gollianee
gollrish
gollroosyn
gomer
gomez
gone
gong
gonne
gonney
gonza
goo
gooagh
good
goodfellas
goodman
goodwin
goofy
google
gooid
goolag
gooley
goon
goorse
goorseyn
goose
goossen
gooyn
gooynyn
gorbachev
gordon
gordy
gore
gorlagh
gorlaghyn
gorley
gorllewin
gorma
gormal
gormenghast
gormley
gorocklyn
gorre
gorree
gorry
gorrym
gorrymag
gorsedd
gort
gortey
gortit
gorzo
goshen
gosney
gossip
got
goth
gotha
gothagh
gothaght
gothic
gothish
gottfried
goueled
gouelou
gough
goul
gould
goull
goullyn
goulragh
goulraghey
goulraght
gour
gourin
gov
government
govestey
govt
gow
gowaltagh
gowaltys
gowaltyssyn
gowit
gowraghyn
gozh
gra
graa
graafagh
grace
gracie
graf
grafenstein
graffiti
graham
graih
graihder
graihderyn
grainnaghyn
grainney
grainnit
graishteyderyn
grammadeys
grammar
grammatical
grammatik
gramme
grammeydagh
grammeydys
grammy
gran
granada
grand
grande
grandiflora
grannies
grant
graphic
grass
grave
graves
gravett
gray
grayn
gre
greag
greagagh
greagaghtyn
greagee
greagish
greasane
greasaneyn
grease
great
greater
greatest
grebe
greck
greeb
greeish
greeishyn
greek
green
greene
greenlynn
greenlynnish
greenock
greensboro
greenwich
greenwood
greesaghey
greeseyder
greestee
greg
gregoiragh
gregory
greie
greienyn
greienys
greieyn
greim
greimmee
greimmey
greimmit
greiney
greinnaghey
greinney
greinneyder
greme
grenada
grenadagh
grenadeenyn
grey
gri
griagh
grian
griana
grianagh
grianaig
grianchryssagh
grianna
grianyn
griboyedov
griffel
griffin
griffith
griffiths
grimaldi
grimes
grimm
grimsby
grin
grinderagh
grinderyn
grinderys
grine
grineen
grineenyn
grineyn
griomasaigh
grischun
grn
grnr
gro
groamagh
groening
gromit
groningen
groo
grooaneyn
grooby
grooish
groove
grossulariaceae
groth
group
grove
grover
growing
growth
gruaie
grudzia
gruffudd
gruyter
gu
gua
guadeloupe
guaiacum
guail
guam
guanahani
guangdong
guangxi
guardian
guee
guernsey
guerra
guez
guide
guido
guilckagh
guild
guildford
guillaght
guillaume
guilley
guillyn
guinea
guinn
guinness
guinney
guintee
guirec
guirr
guiry
guiy
guizhou
gull
gullad
gulliver
gulpilil
gum
gummaghyn
gummal
gummaltee
gummey
gump
gun
gunn
gunnaghyn
gunnar
gunney
gunning
guns
guoiee
gur
gura
gurneil
gurneilagh
gurneilit
gurneilys
gurrymyn
gurungish
gus
gush
gustaf
gustav
gustave
gusteau
gutenberg
guy
guð
gv
gw
gwaien
gwasg
gwen
gwened
gwenedish
gwengamp
gwenrann
gwent
gwich
gwilen
gwiler
gwilym
gwitreg
gwlad
gwybod
gwyn
gwynedd
gy
gya
gyle
gyllagh
gymmeydey
gymmydey
gymmyrkey
gymnasium
gymnosperm
gymnospermyn
gymraeg
gyn
gynney
gynoecium
gynsagh
gynsaghey
gyo
gys
gøta
gøtu
h
ha
haacke
haag
haaghey
haakon
haanrey
haarlem
haart
haase
haasilagh
haaue
haayr
hab
habana
habbakkuk
habhann
habsburg
habsburgyn
hackett
hackman
hacsonagh
had
hadashi
hadera
hadid
hadj
haeckel
haem
hafnarfjo
hag
hagan
hager
haggai
haggil
hagglish
haggloo
haggyrt
haggyrtyn
hagh
haghnagh
haghney
haghnoaylleeagh
haghnoaylleeaght
haghnoaylleeaghtyn
haghnoil
haghnyssyn
haghter
haghteragh
haghteraght
haghteraghtyn
haghteryn
haghtyn
haghyr
haghyrt
haghyrtagh
haghyrtyn
haghyrys
haghys
hagleyder
haglit
haglym
haglymyn
hague
haharagh
hahn
hai
haieit
haifa
haile
hailium
hainan
hainaut
haink
haishbyn
haishbynee
haishbyney
haishbynys
haishbynyssyn
haiti
haittin
haiǁom
hajjar
hakedahl
hakkaish
hal
hale
halee
haley
half
halifax
hall
hallageen
hallageenyn
halle
halley
hallidagh
halligen
halloo
hallooin
hallooinagh
hallooinit
hallooyn
haloarchaea
hals
halse
halyn
ham
hamburg
hambyl
hamed
hamilton
hamlet
hammer
hammershaimb
hammersmith
hamoidagh
hampleyr
hampleyragh
hampleyryn
hampshire
hampstead
hamraig
hamyr
hamyragh
han
hancock
hand
handakuten
handbook
handel
handmaid
hanes
hank
hanlon
hanna
hannad
hannadeyr
hannaght
hannaghtyn
hannah
hannee
hanney
hannibal
hannon
hanoi
hanover
hans
hansard
hanseatagh
hanson
hansyleyr
hanukkah
hanyn
hanyu
haoiseach
hapaan
hapaanagh
haploid
haploidagh
happ
happagh
happee
happy
har
hara
harald
harare
harbour
harcourt
hard
harding
hardjyn
hardman
hardy
hare
hareaghey
harey
harkyl
harlech
harlem
harmaynagh
harmaynys
harmoan
harn
harold
harp
harper
harpercollins
harral
harrelson
harriers
harriet
harrington
harris
harrisburg
harrish
harrison
harroo
harry
harrymagh
hart
hartlepool
hartley
harvard
harvey
haryana
has
hashey
hasht
hashtee
hashtey
hass
hassan
hasselt
hassid
hassoo
hassooagh
hastings
hatcher
hate
hatfield
hathaway
hatshepsut
hauail
haualtagh
haubourdin
hauc
haughey
hauptbahnhof
hauptmann
havana
have
haven
hawai
hawaii
hawaiiagh
hawaiian
hawaiish
hawin
hawk
hawking
hawkins
hay
hayao
hayes
hayll
hayrn
hayrnagh
hayworth
haza
haze
hazel
hazell
hb
hbk
hbo
hbs
he
hea
heabin
head
headed
headin
heads
health
heamhair
heaney
heanse
hear
heart
hearts
heater
heath
heather
heathrow
heaven
heayagh
heb
hebbal
hebbey
hebbeyder
hebbeyderyn
hebe
hebei
hebrew
hebrewnee
hebridean
hebrides
hec
heche
heck
heckish
heckoslovack
heckoslovak
hecks
hecksyn
hectare
hectareyn
hector
hed
heddagh
hee
heeabin
heean
heeanagh
heeanoil
heeanyn
heear
heeid
heeidey
heeintagh
heeintee
heelagh
heeley
heelnaue
heeloghe
heeltagh
heen
heenagh
heer
heeragh
heeraghyn
heerey
heeroaylleeagh
heeroaylleeaght
heeroydjagh
heertc
heervooar
heese
heesside
heet
heeyney
heeynt
heffernan
hegelmann
hegoalde
heh
hehey
hei
heidenoldendorf
heidi
heidylyn
heifer
height
heights
heihill
heihll
heihys
heike
heiligenkirchen
heill
heillagh
heilltagh
heilongjiang
heiltagh
heiltynagh
heiltynys
heineken
heinrich
heinz
heionagh
heiy
heiyderys
heiyderyssyn
heiyderysyn
heks
heksyn
hel
helen
helena
helg
helgeyr
helianthus
heliconius
helier
hell
hellagh
hellanyn
helleborus
helleeragh
hellinsh
hellmich
hello
helloo
hellooder
hellooderagh
hellooishan
hellurium
hellvane
hellvaney
hellvaneyn
hellvaneys
hellveeish
hellveeishagh
hellynyn
helmholtz
helmut
help
helsingfors
helsinki
hem
hemichordata
hemichordates
hemingway
hemittagh
hemlock
hemmal
hemmaltey
hemmit
hempreilagh
hen
henan
henbont
hendeeagh
henderson
hendrik
hene
hengag
hengagh
hengaght
hengaghyn
hengaghynethnologue
hengah
hengey
hengeyderyn
hengoayleeagh
hengoaylleaght
hengoayllee
hengoaylleeagh
hengoaylleeaght
hengoaylleeghyn
hengoaylleeyn
henjaght
henn
hennaghys
hennaghyssagh
hennayr
henndaaleeagh
henndeeagh
henndiaght
henneraght
henney
hennid
hennymocklyn
henri
henrik
henry
henryk
heorit
heose
hepburn
her
hera
heragh
herald
heraldagh
herbal
herbert
hercules
herder
here
hereford
herefordshire
heritage
herkynagh
hermagh
hermann
hermannsdenkmal
hernandez
hero
herod
herodotus
heroes
heron
herrera
herschel
hershey
hertfordshire
herzegovina
herzog
hese
hesh
heshaght
heshaghtagh
heshaghtyn
heshee
heshell
heshey
heshoil
heshvean
heshveanagh
heshveanyn
hess
hesse
hessen
hestur
hetch
hetchy
heterotrophyn
hetlynn
hetmanaght
hetra
heu
heuagh
heualagh
heughey
heughit
heughyn
heumooie
heushtie
heusthie
heuyn
hevea
hewitt
hexwood
hey
heyder
heyderyn
heyoo
heyr
heyraanagh
heyraanee
heyrey
heyrsnys
heysham
heywood
hg
hi
hiaghtin
hiaghtoo
hiaghtyn
hialg
hiamble
hiambleyn
hiamblyn
hiar
hiarn
hiarnaght
hiarnyn
hiarnys
hiarrym
hiart
hiass
hiassaghey
hiassid
hiassidyn
hiaulley
hibbeyr
hibbin
hibbraghyn
hibbyr
hibernia
hibernian
hibernicus
hibet
hicklaagagh
hickyr
hickyraghey
hickyrys
hid
hidden
hiddesen
hiddragien
hide
hidoor
hidooryn
hie
hieoil
hieoilagh
hieyn
hig
higgins
higginson
higgs
high
higher
highlight
hild
hilda
hildesley
hilgey
hill
hillab
hillary
hillee
hilleydagh
hills
him
himachal
himagh
himalaya
himalayagh
himalayaghyn
himalayan
himbabwe
himmelen
himno
himys
hindenburg
hindi
hindish
hindooee
hindooghys
hindu
hindustaanish
hines
hing
hingapore
hingyl
hingys
hingyssyn
hinney
hinse
hinshey
hinvaal
hiollagh
hionn
hionnal
hionney
hionnid
hionnit
hionnraa
hionnraaghyn
hiort
hiow
hip
hipparchia
hippophae
hiragana
hirmaghey
hirmid
hirmit
hirraghyn
hirrey
hirreyderyn
hirrym
hirst
hirveish
hirveishagh
hirveishyn
his
hish
hispaniola
hisslish
hissyl
historia
historical
history
hit
hitaanium
hitchcock
hitchhikers
hitler
hiu
hivoilagh
hler
hms
hner
ho
hoal
hoanney
hoaral
hoarym
hoayllee
hoaylleeaghtyn
hobart
hobbes
hobbit
hobbyr
hochberg
hochschule
hocine
hockee
hodder
hodges
hodgson
hoe
hogan
hoggit
hoght
hoghtoo
hoi
hoiag
hoiagh
hoiaghey
hoie
hoig
hoiggal
hoiggalagh
hoiggalys
hoijer
hoilshagh
hoilshaghey
hoilshee
hoilshey
hoilsheyderyn
hoilshit
hoit
hokkaido
hokkien
hoku
hokusai
holarctagh
hold
holden
hole
holiday
holkins
holland
hollande
hollantide
hollin
hollow
holloway
holly
hollyoaks
hollys
hollysh
hollyssyn
hollywood
holmes
holocaust
holomon
holon
holstein
holt
holteyryn
holy
hom
home
homer
homeward
hommanyn
homocheintee
homocheintys
homocheintyssagh
hon
honderagh
hondooraghyn
hone
honey
hong
honiara
honn
honnagh
honnick
honno
honnyn
honolulu
honor
honore
honour
hoo
hooar
hoob
hood
hooill
hooillagh
hooilley
hook
hooke
hoolynnagh
hooper
hoor
hooree
hoorys
hoover
hooyl
hooylagh
hooylaghan
hop
hope
hopen
hopewell
hopf
hopkins
hopper
horace
horc
horizons
horn
hornoldendorf
horragh
horror
horse
horsetails
horshagh
horshey
horshish
horslips
horst
hortensius
horthy
horys
horyu
hosea
hoshee
hoshiagh
hoshiaghey
hoshiaght
hoshiallagh
hoshtal
hosni
hospital
hostallyn
hostnagh
hostnee
hostyn
hostynagh
hot
hotel
hotspur
hottentot
houghton
houlihan
hound
hounds
houney
hour
houree
hournamint
hours
house
housewives
houston
hove
hoveidjagh
how
howard
howe
howells
howl
howse
howshanagh
howshit
howth
hoylee
hoyrt
hoyvi
hr
hraa
hraartys
hraase
hradishoon
hradishoonagh
hraght
hraghtalee
hraghtee
hraghtey
hraie
hrass
hree
hreig
hreih
hreoghe
hrer
hrie
hrimmid
hrimmidagh
hro
hroailt
hroailtee
hroar
hroaragh
hroarey
hroaryn
hrodna
hrog
hroggal
hroggalys
hroggeyder
hroggit
hrome
hrooid
hroosyn
hropickagh
hroyn
hrung
hryal
hsi
htm
html
http
https
hu
hua
huang
huarystal
huarystalyn
huatl
hubble
hubei
hubert
huc
hucsyn
hud
huddersfield
hudson
hue
huesca
hug
hugg
hugh
hughes
hugo
hugyr
hui
huill
huitt
huittym
huizhouish
hulk
hull
hullad
hulu
hum
human
humber
hume
hummid
hummidagh
humphrey
hunan
hunchback
hundred
hundreds
hundrey
hung
hungarian
hunnaghyn
hunt
hunter
hunters
huntingdon
huntington
hup
hur
hurd
hurkagh
hurneyr
hurransagh
hurrys
hurryssagh
hurt
hurva
husband
hushtallagh
hussein
hustle
hustler
hut
hutchinson
huws
huwyler
huxley
huyr
hvalba
hvannasund
hwoaie
hybbyrt
hyde
hyderabad
hydra
hydraadyn
hydrocseed
hylem
hym
hymbylaght
hymbylaghtyn
hymbyllagh
hymbyllaght
hymbyllaghtyn
hymcheayrt
hymey
hymmyltaght
hymmyltaghtoil
hymmyltaghtyn
hymn
hymney
hymnit
hymnyn
hymsagh
hymsaght
hymshal
hymshallagh
hymyllaght
hyn
hynagh
hynaght
hyndaa
hyndaader
hyndaaderyn
hyndaaee
hyndaaghyn
hyndaait
hyndaays
hynskyl
hynskylagh
hynskylaghey
hynskyllagh
hynskylyn
hyperion
hypothalamus
hys
i
ia
iaaf
iain
iaith
ian
iar
iaragh
iarainn
iarnro
iarwest
iascach
iascaigh
iata
iau
iauliai
ibeir
ibhi
ibhte
ibm
ibn
ibrahim
ibsen
ic
icao
icarus
icc
ice
iced
iceland
icelandic
ich
iche
id
idaeus
idaho
idbhaile
idd
iddaal
iddaalagh
iddaalee
iddaalish
iddalagh
ide
ideas
identification
identity
idh
idhealtachd
idhlig
idi
idir
idris
ie
ieithoedd
iene
if
ifa
ifne
ifta
ig
ige
igh
igor
iguerbouche
ii
iii
ija
ik
iks
il
ilahi
ile
ili
ilia
iliad
iliza
ill
ille
illegal
illiam
illiamagh
illinois
illustrated
illyria
illyriagh
ilo
ilya
im
image
images
imax
imbagh
imbaghyn
imbee
imbyl
imdb
ime
img
imlee
imman
immanagh
immanaght
immanee
immaneeyn
immeaghtagh
immee
immeeaght
immeeaghtagh
immeeaghtee
immeeaghtyn
immeeit
immigration
imnea
imp
impir
impiraght
impiraghtyn
impiroil
impiroilaghys
impiryn
impressionagh
imraa
imraaghyn
imraait
imuseum
in
ina
inachis
inauguracion
inbetweeners
inbhear
inbhir
inc
incana
inception
includes
incredible
incredibles
ind
independence
independent
index
indi
india
indian
indiana
indianapolis
indians
indios
indo
indoneesh
indoneeshagh
indoneeshish
indreabha
ine
ineagh
inferno
infinity
influence
information
ingagh
ingham
inginagh
ingo
ingria
ingrid
ingrish
ingushetia
ini
inigh
inis
inishmaan
injey
injil
injillaghey
injillit
injinagh
injinee
injyn
inn
inne
inneen
inneenyn
innlynnish
innocent
innovation
innu
innys
inry
insan
inse
inseach
insh
inshey
insheyder
inshley
inshyn
inside
insititia
instagram
instant
instinct
institiu
institute
institution
instituto
insula
int
intelligence
interdit
interior
interlinguagh
intermedia
intermediate
intermedius
international
internationale
internet
interpretation
interstellar
interview
into
intoshia
introducing
introduction
introductory
inuinnaqtun
inuit
inuitagh
inuitee
inuktitut
inuujingajut
inuvik
invasive
inver
inversus
inveryn
investigation
invisible
inymmyrkey
io
iolo
iom
ioosagh
ioraird
iorras
ios
iota
iowa
ip
ipa
ipswich
iqaluit
ir
ira
irc
ire
ireann
ireannach
ireland
irene
ireton
irfu
irge
iri
iris
irish
irma
irne
iron
irons
iroquoian
irpin
irra
irree
irreeyn
irreyder
irreyderyn
irriel
irrinagh
irryn
irrynagh
irsheisear
irti
irun
irvy
irwin
is
isaac
isabel
isabella
isabelle
isaiah
isbn
isc
ise
iseult
ish
ishag
ishig
ishigagh
ishigoil
ishiguro
ishøj
isiah
isis
isiu
isla
islam
islamabad
islamagh
islamic
island
islands
isle
isleofman
isles
ismail
iso
isobel
israel
israelagh
israelee
israeli
israelitee
israeliteyn
issn
issue
issues
ist
istanbul
iste
isten
isti
istva
isy
it
italia
italian
italica
italy
ite
itf
ith
ithi
its
itu
itv
iu
iuaagagh
iuar
iugas
iuit
iupiter
iv
ivan
ivano
ivanovich
ives
ivo
ivy
ixion
izel
izium
izu
izzard
j
ja
jaacht
jaagh
jaapi
jaapiyn
jabe
jabeyn
jac
jack
jackie
jackman
jackson
jacksonville
jacob
jacobs
jacques
jade
jae
jafar
jaffa
jaggad
jaggadyn
jagh
jaghee
jaghin
jaghinyn
jaghteyr
jaghteyraght
jaghteyrys
jaghteyryssyn
jaglym
jain
jainaghys
jaincentre
jakarta
jake
jakez
jako
jakob
jakobsen
jakobson
jalil
jalloo
jallooag
jallooagh
jallooaghey
jallooagyn
jallooder
jallooderyn
jallooderys
jallooyn
jam
jamaicagh
jamaicey
james
jamestown
jamie
jamil
jamys
jan
jane
janeane
janeiro
janet
jannoo
jannooit
jannooyn
jantagh
jantee
jantys
jantyssaght
jantyssyn
january
japan
japanese
jared
jargaght
jargaghtyn
jargal
jarroo
jarrooagh
jarrood
jasione
jasmine
jason
jasper
jastan
jastanyn
jastarnia
jastee
java
javier
jay
jazz
jc
jd
je
jeadys
jean
jeant
jeantagh
jeantaneyn
jeantee
jebb
jeceris
jecrean
jed
jedi
jedoonee
jee
jeeagh
jeeagheyder
jeeaght
jeeaghteyr
jeeaghtyn
jeeaghyn
jeean
jeeaney
jeeaneyder
jeeaneyderyn
jeebyrtagh
jeed
jeeg
jeeghyn
jeeigey
jeeiginyn
jeeil
jeeill
jeeillagh
jeeillaght
jeeilley
jeelane
jeelaneyderyn
jeeley
jeelys
jeen
jeenagh
jeenane
jeeneysoar
jeeneysoaryn
jeeoil
jeeoilagh
jeeoilys
jeeragh
jeeraghan
jeeraghey
jeeraghit
jeereyder
jeerit
jees
jeeslaghyn
jeesley
jeesoil
jeesyn
jeet
jeeveanit
jeeyl
jeeyll
jeeyllagh
jeeylley
jeeyllit
jeff
jeffares
jefferson
jeffrey
jeh
jeheiney
jei
jeianagh
jeianaghey
jeig
jeigeyr
jeigeyryn
jeih
jeihaght
jeihaghtyn
jeihoo
jeinagh
jeir
jeirk
jelliu
jelune
jemayrt
jena
jeneeve
jenga
jengaghyn
jengey
jenkins
jenna
jenner
jennifer
jennings
jenny
jeoraght
jeorit
jepson
jerdein
jeremiah
jeremy
jerkal
jerkallys
jerkit
jerome
jerraghyn
jerree
jerrey
jerrinagh
jerry
jersee
jersey
jerusalem
jervis
jerxen
jerzy
jesarn
jesh
jeshaghey
jeshaght
jeshaghteyr
jeshaghteyryn
jeshaghteyrys
jeshaghtyn
jeshaghtys
jeshee
jesheen
jesheenagh
jesheenaghey
jesheenit
jesheenys
jesheenyssyn
jesper
jessae
jesse
jessica
jessie
jethro
jeu
jeusyn
jewel
jewish
jeylley
ji
jia
jialg
jialgagh
jialgan
jialgyn
jiangsu
jiangxi
jiaotong
jiarg
jiargaghey
jiargey
jiass
jiassagh
jiassbroderick
jiassey
jiastyn
jibraltey
jig
jili
jilin
jim
jimi
jimmy
jin
jingit
jini
jinlag
jinnair
jinshi
jioinagh
jiole
jiolgan
jiooldagh
jiooldey
jiooldit
jirree
jishag
jiu
jj
jmiasto
jo
joachim
joan
joaney
joanna
joanne
joaraghyn
joaree
joarey
joarree
job
jobs
jocht
jodie
joe
joel
joey
jogia
johan
johann
johannes
johannesburg
johansson
john
johnny
johns
johnson
johnston
johnstone
johr
joint
jon
jonah
jonas
jonathan
jonava
jones
jool
jorby
jordaan
jordaanagh
jordan
jorge
jorgensen
jose
josef
joseph
josephine
josh
joshua
josiah
jough
joughinyn
joughyn
journal
journey
jouyll
jovi
jovovich
joy
joyce
joyful
jpeg
jpg
jpl
jr
ju
juan
jucht
judaea
judd
judea
judith
judoka
juglans
jules
julia
juliana
julie
juliet
juliette
julius
july
jumanji
jummal
jump
jun
junction
june
jung
jungle
jungyl
junior
junt
juntagh
juntee
jupiter
jurassic
jurby
jure
juremos
jurnaa
jurnaaghey
jurnyl
jurtina
jus
jussi
just
justice
justin
justine
juvenile
juys
juyssyn
jylland
jyndaa
jysk
jyskagh
jyskyn
k
ka
kaart
kaartgraafeeaght
kaartgraafeeyn
kaartyn
kaayrt
kabul
kabylee
kaela
kaer
kaesar
kai
kaikilee
kaishum
kak
kako
kalaallit
kali
kaling
kaliningrad
kalisz
kallag
kalmar
kama
kamassish
kamel
kameled
kamen
kami
kampala
kan
kana
kanadai
kanal
kandahar
kane
kanghyr
kanghyragh
kanji
kansas
kant
kanta
kanys
kaodan
kapoor
kappa
kar
kara
karabakh
karacteyr
karacteyryn
karaez
karagher
karateka
karelia
karen
karey
kari
karl
karlheinz
karnag
karnataka
karnoed
karracteyr
karracteyryn
karran
karson
karst
karte
karter
kartuzy
kartvelagh
kasai
kashoobee
kassaghish
kastell
kastellin
kat
katakana
kate
katharina
katharine
katherine
kathleen
kathmandu
kathryn
kathy
katie
katowice
kaukau
kauniainen
kauno
kaup
kay
kaya
kaye
kayt
kazan
kazimierz
kazuo
kbc
kbo
kcb
ke
keane
keartyn
keaton
keats
keayin
keayllaghey
keayn
keayney
keayrt
keayrtagh
keayrtee
keayrtyn
keck
keckey
keddin
kee
keead
keeadchaggee
keeadyn
keeagh
keeaghyn
keeal
keeall
keeallagh
keeallaghey
keeallyn
keealyn
keeayl
keeayll
keeayllaghey
keeayllaght
keegan
keeil
keeill
keeilley
keeir
keeley
keeling
keenan
keep
keeping
keesh
keeshyn
keflavi
keiko
keillit
keiltnys
keiltynys
keim
keimagh
keimee
keimeeaght
keimyn
keinney
keintys
keintyssagh
keintyssaght
keintyssyn
keird
keirdagh
keirdee
keirdey
keirdyn
keirn
keisht
keith
keiy
kej
kelk
kelkagh
kelkium
kellagh
kellaloys
kellaloyshagh
kellee
kellie
kelloorey
kelloorit
kelly
kelvin
kemmig
kemmigagh
kemmigee
kemmigyn
kemmyn
kemmyrk
kemmyrkee
kemper
kemperle
kempten
ken
kenai
kendall
kendoka
kennain
kennaugh
kennedy
kenneth
kenney
kennish
kenny
kensington
kent
kentimeadar
kentimeader
kentish
kentrosoom
kentucky
kepler
ker
kerala
keratinagh
kerc
kerch
kere
kereagh
kerebellum
kereen
keres
kergrist
kerien
kerman
kermode
kern
kerne
kernewek
kernish
kernow
kernowek
kerr
kerraghey
kerree
kerrin
kerrinagh
kerrinyn
kerrit
kerroo
kerrooyn
kerruish
kerry
kersaout
kershaw
keshleenagh
keskowethyans
kevin
kew
kewenn
key
keyl
keyley
keyljyn
keyll
keyllaghey
keylley
keylljagh
keylljyn
keyllys
keyllyssyn
keynes
keyrragh
keyrrey
keys
kg
kham
khan
khanty
khao
kharkiv
khartoum
kherson
khoekhoe
khoekhoegowab
khoisan
khuylo
khz
ki
kiaddaghyn
kiaddee
kiaddey
kiaddeyder
kiaddeyderyn
kiaddit
kialteenyn
kian
kianglagh
kianglaghey
kianglaghyn
kianglee
kiangley
kianglt
kianglyn
kiannoort
kiannoortagh
kiannoortyn
kiannoortys
kiannoortyssyn
kiaraid
kiarail
kiarailyn
kiare
kiarit
kiark
kiarkil
kiarkley
kiarkyl
kiarkylagh
kiarkyn
kiaroo
kiarr
kiarroo
kiart
kiartaghey
kiartaghyn
kiartit
kiartyn
kiartys
kiartyssyn
kiaull
kiaullane
kiaullaneagh
kiaulldramaghyn
kiaulldramey
kiaullee
kiaulleeaght
kiaulleyder
kiaulleyderyn
kiaullit
kiberen
kichwani
kick
kicklipaid
kicklipaidyn
kid
kidderminster
kidrys
kids
kied
kiedoonys
kiedyn
kiel
kielce
kiev
kigali
kije
kilbane
kilcher
kilda
kildare
kill
killag
killagagh
killagh
killaghyn
killagyn
killed
killer
killey
killing
kilmer
kilogram
kilomeadar
kilomeader
kilomeaderyn
kilometer
kilometeryn
kim
kimball
kimberly
kimmee
kimmeeagh
kimmeeys
kimmeeyssyn
kimura
kind
kindagh
king
kingdom
kingeesh
kingeeshagh
kings
kingsley
kingston
kingstown
kinjagh
kink
kinley
kinmen
kinnauri
kinneigyn
kinseyraght
kinshasa
kintin
kinvig
kiondeeaght
kione
kioneraadagh
kioneraadee
kioneys
kioneyssagh
kionfenee
kionnaghey
kionnan
kionnee
kionneyderyn
kionnit
kionyssagh
kip
kipling
kippeenagh
kira
kiranti
kirby
kirche
kirchner
kirk
kirkey
kirkham
kirkjubøur
kirkpatrick
kirp
kirpey
kirree
kirsten
kiryat
kis
kishtag
kishtaghyn
kishtey
kiss
kistinid
kit
kita
kitazawa
kitterland
kitts
kitty
kiune
kivu
kiyt
kið
klaksvi
klaus
klaver
kledenn
kleger
kliszo
klitschko
kloar
klt
klu
klubas
kluwer
km
kneale
kneen
knesset
knight
knocker
knoll
know
knowledge
knowles
knox
knoxville
ko
kobzar
koch
koda
kohlrabi
koibalish
koine
koji
kolas
kolker
koloin
kolomna
kolrinn
komanda
komi
komish
kommuna
kon
kong
konsson
korablestroiteley
kore
korea
koreaish
koreeagh
koreeish
korle
koro
koror
korra
kos
kosack
kosovo
koszalin
kotlin
kozloff
kr
kraft
krahulik
krako
krall
kramer
kraozon
krayot
kre
kreis
kreiz
kreuk
krimi
kris
kristen
kristin
kro
kronach
kronberg
kronstadt
kroymasoom
kroymasoomyn
krym
krynica
krypton
kryvyi
krzyz
ks
ku
kuala
kuban
kuhn
kuiper
kujawy
kum
kunis
kunming
kunoy
kupala
kur
kurddal
kurdish
kurfuerstendamm
kurortny
kurpfalz
kurt
kurylenko
kurzeme
kuse
kushner
kusundaish
kuznetsov
kv
kvo
kwangu
kwidzyn
kyary
kyiv
kyivagh
kyle
kylie
kylliu
kymenlaakso
kyndagh
kynnaghyn
kynnee
kynneeagh
kynneeyn
kynney
kyo
kyrillagh
kys
københavn
kıbrıs
kǃ
kǃx
l
la
laa
laagh
laaghey
laaghyn
laaoil
laaragh
laare
laaree
laareyn
laarit
laarney
laarvaghyn
laarvey
laatc
lab
labour
labov
labrador
labreeyn
laburnum
laccal
lace
lacey
lacroix
lacuscurtius
lacy
ladefoged
ladinish
ladjyn
ladjynagh
lado
ladoga
ladoosagh
ladt
lady
lag
laga
lagerlo
laggagh
laggaghey
laghyn
lagmann
lago
lagopus
lagrange
lah
lahnit
lahti
laibeer
laigh
laighean
laine
lainn
lajer
lajerid
lake
laki
lakoff
laksaa
lam
lamb
lambaanid
lambert
lamh
lamiaceae
lamium
lamprag
lampragyn
lampropeltis
lan
lana
lanarkshirelannraig
lancashire
lancaster
lance
lancelot
land
landevenneg
landkreise
landlords
landna
landreger
lands
landscape
lane
lang
langedig
langford
langguth
langley
langlish
language
languages
langue
languedoc
langues
lanius
lanka
lann
lanna
lannoon
lannoonagh
lannooney
lannoonit
lannoonyn
lannoonys
lannoonyssyn
lannoy
lannraig
lansbury
lansdu
lantanoidyn
lantern
laoghaire
laoire
laos
laplann
laplannagh
lapolla
lappa
lapsana
lara
large
largey
laridae
larkin
larmour
larry
lars
larsson
larus
las
lascaux
lasseter
last
lat
late
lateks
later
latgalish
latifolia
latin
lattyssagh
latvagh
latvey
latvish
lauderdale
laue
laueagh
laueaghey
laueaght
laueanyn
lauescreeuee
laueyn
laugh
laughter
launshey
launyssagh
laura
lauren
laurence
laurent
laurie
laurys
lav
lava
lavigne
lavignes
lavoisier
law
lawrence
laws
lawyer
laxey
lay
laynt
laz
lazio
lazish
lazzaro
lb
lc
lcweb
lder
le
leabhar
leac
leacht
leadhb
leaf
leagh
leaghagh
leaght
leaghtey
leaghteyr
leaghtyn
leaghyn
league
leah
leahys
leahysyn
leaie
leamhca
leann
leanna
learned
learning
learnmanx
leary
leathros
leavey
leayr
leayrane
leayreder
leayreyder
leayrtagh
leaystagh
leaystey
leblanc
lechitagh
lectragh
lectraght
lectraghys
lectrane
lectraneagh
lectraneyn
lectro
lectrofioosagh
lectrovagnaidagh
lectures
led
leda
ledden
leddoge
leddogeyr
leddogeyryn
lee
leeb
leece
leeds
leeg
leegyn
leeid
leeideil
leeideilagh
leeideilee
leeideiltys
leeidit
leek
leela
lees
leesh
leesosoomyn
leet
leeuwenhoek
leffyr
lefkosia
left
leftovers
legal
legend
legends
leggad
leggadyn
legged
legislation
leguizamo
leicester
leicestershire
leiden
leigh
leighagh
leighalagh
leighaltys
leighder
leighderyn
leighoil
leighoilid
leighton
leighyn
leih
leion
leionyn
leipzig
leirvi
leitir
leitrim
lemass
lemgo
lemma
lemy
lena
lenape
lengua
lenguas
lenin
leningrad
lennon
lens
lenseeaght
lent
lenticellyn
leo
leoaie
leodagh
leodaghey
leodee
leodit
leoie
leon
leona
leonard
leonardo
leone
leonid
leonidio
leonish
leopold
lepeta
lepidium
lepidoptera
lepontish
lerexpress
lerphoyll
lerroux
les
lesbeeagh
leseratten
lesh
leshtal
lesley
leslie
lesneven
lesoonyn
lesoto
lespert
less
lesser
lessons
lessoon
lessoonyn
lester
let
lethal
letter
letters
lettragh
lettraghey
lettryn
lettyr
lettyragh
lettyraghey
lettyraght
lettyryn
leuc
leucoviridis
levaant
leval
level
levi
levinson
leviticus
levitt
levreag
levy
lewis
lexi
lexical
lexicon
ley
lez
lezion
lff
lfr
lfur
lgbtiq
lhag
lhaggaghey
lhaih
lhaihder
lhaihderaght
lhaihderyn
lhargee
lhargeeyn
lhargey
lhasa
lhea
lheah
lheamyssagh
lhean
lheanaghey
lheaney
lheanid
lheanit
lhee
lheead
lheeadagh
lheeadyn
lheeah
lheeahid
lheeahidyn
lheeahtrim
lheeannee
lheeantyn
lheelann
lheent
lheeyn
lheeys
lheeyssagh
lheh
lheid
lheie
lheieagh
lheieit
lheihll
lheiht
lheihys
lheiltagh
lheiltee
lheiltys
lheim
lheimmeyder
lheimmeyderyn
lheimyragh
lhein
lheinaghyn
lheiney
lheit
lhemeenyn
lhen
lhesh
lheshyn
lheu
lhiabbagh
lhiabbee
lhiackagyn
lhiaggan
lhiaght
lhiaghtyn
lhiah
lhiam
lhiann
lhiannan
lhiannoo
lhiannooyn
lhiantagh
lhiantyn
lhiareagh
lhiargee
lhiargeeyn
lhiasaghey
lhiasee
lhiasit
lhiass
lhiassagh
lhiassaghey
lhiassaghyn
lhiassee
lhiassit
lhiastanys
lhiat
lhiateeagh
lhiattagh
lhiattaghan
lhiattaghanyn
lhiattee
lhiatteeagh
lhiatteean
lhiatteeanyn
lhie
lhied
lhieed
lhieen
lhieenaghyn
lhieenar
lhieenee
lhieeney
lhieent
lhieggal
lhieggan
lhiegganyn
lhieggey
lhieh
lhiennoo
lhiettal
lhiettalagh
lhiettalit
lhiettalys
lhiettalyssyn
lhiettit
lhiettrimys
lhiettrimyssyn
lhieu
lhieusyn
lhig
lhigg
lhiggey
lhiggeyder
lhiggit
lhimmaghyn
lhimmey
lhimnagh
lhing
lhingey
lhingyn
lhionney
lhisagh
lhiungey
lhiurey
lhiurid
lhiuridyn
lhoamey
lhon
lhondoo
lhong
lhongaghyn
lhongey
lhongeydys
lhongfort
lhongvrishaghyn
lhongyn
lhoo
lhoob
lhoobagh
lhoobeenyn
lhoobey
lhoobit
lhoobyn
lhott
lhottyn
lhouan
lhuingey
lhuingys
lhuingyssagh
lhuingysseyr
lhuingyssyn
lhune
lhuneyn
li
lia
liag
liaghee
liaghey
liam
liaoning
liare
liargee
liath
liatha
liauyr
liauyrey
libertad
libraalagh
library
libres
libreville
lichfield
liddell
lie
lieau
liechtenstein
lieen
lieenvluckan
lieh
liehlagh
lieragh
lies
lietava
lieutenant
life
lifeboat
lifetime
lig
liga
liger
liggar
liggaryn
liggooryn
light
lighthouse
lightnin
lights
ligoorish
ligue
lihou
like
liklee
lille
lillian
lilly
lilongwe
lily
lima
limbu
limburg
limited
limmer
limmeragh
limmey
limon
limonaid
limosa
lin
lina
lincoln
lincolnshire
lincom
linda
lindsay
lindsey
line
linegrey
linei
lines
ling
lingua
linguist
linguistic
linguistics
linguistique
lingus
link
linn
linnaeagh
linnaeus
linnagh
linnaghyn
linne
linneeaghtyn
linney
linneyder
linsey
linux
lioar
lioaragh
lioaran
lioarish
lioarlan
lioarlann
lioarlannee
lioaryn
lioas
liom
lion
lionel
lions
liooar
lioree
liorish
lioroo
lioroosyn
lios
lipa
lipaid
lipaidagh
lipaidyn
lippe
lir
lis
lisa
lisboa
lisbon
lissotriton
list
listal
litaan
litaanagh
litaanish
litc
literacy
literary
literature
litom
litoralis
littagh
little
littyr
liturgagh
liturgey
liu
liugh
liuraghey
liurey
liurid
liv
livaan
livaanagh
live
liverpool
lives
living
livingstone
livonagh
livonee
livonia
livonish
livonisheyr
livonisheyryn
livreit
livrey
livreys
liz
lizzie
lizzy
ljocht
ljubljana
ljucht
lk
lkakirkjan
lkf
ll
llaes
llandaf
llandovery
llandudno
llanelli
llanrwst
lld
lle
ller
lleuad
llew
lli
lliw
lloyd
llyfr
llyfrau
llywelyn
ln
lno
lo
loaded
loaf
loaghtagh
loaghtan
loaghtey
loart
loauaghey
loayeyderyn
loayr
loayredeyryn
loayreyder
loayreyderyn
loayrit
loayrt
loayrtagh
loayrtee
loayrtys
lobel
loc
local
loch
locha
locht
lochte
locke
locust
lodainn
loess
log
logan
logh
loghan
loghanyn
loghey
loghlin
loghlinagh
loghlinish
loghlyn
loghlynagh
loghlynee
loghlynish
loghlynnagh
loghlynnish
loght
loghtal
loghtyn
loghyn
logo
loire
lois
lokmaria
lokrist
lola
lolo
lomarcan
lomarcanys
lombardish
lome
lomme
lomonosov
lonan
londeyryn
london
lonely
lonesome
long
longifolius
longman
longyearbyen
loo
loob
loobagh
loojey
look
looking
looney
loose
looyran
lopez
lorca
lord
lore
lorene
lorg
lorgey
lorgyn
lorraine
lorre
los
loshtaght
loshtit
lossagyn
lossan
lossanagh
lossanyn
losseragh
losseree
losserey
lossey
lossreeyn
lost
lostanyn
lostee
losteeagh
lostey
lostit
lothianlodainn
lotus
lou
louaghey
loud
loudieg
lough
loughlin
loughnane
louis
louisa
louisagh
louise
louisiana
louisville
loune
lounge
lounis
lout
louvre
love
lovecraft
loved
lovelace
loves
loving
lowal
lowaltys
lowansey
lowe
lowell
lower
lowit
lozier
loßbruch
lsa
lsdo
lsoy
lt
ltd
lting
lts
lu
luachra
luain
luanda
luanistyn
luas
lubbock
lubin
lublin
lubusz
luc
luca
lucan
lucas
lucasfilm
lucht
luci
lucia
luciano
lucien
lucius
lucky
lucsemburg
lucsemburgish
lucy
ludmila
ludovico
ludwig
lugdunensis
lugh
lughee
lught
lughtee
lughtit
lughtyn
lughyn
luhansk
luigi
luinn
luis
luisel
luke
lukys
lule
lumbagh
lumpur
luna
lunae
lungane
lunganeagh
lunnin
lunninagh
lupus
lurg
lurgagh
lurgaghyn
lurgey
lurgnaneyn
lus
lusaka
luscinia
luske
luss
lussagh
lusseyryn
lussyn
lust
luther
lutheragh
lutheraghys
luton
lviv
ly
lycaena
lydia
lyga
lygodium
lyle
lynch
lynda
lynde
lyndon
lynn
lyon
lyons
lyreeyn
lys
lyst
lystagh
lystyn
m
ma
maail
maanalys
maarliagh
maarliee
maastricht
maayl
mabo
mac
macarthur
macau
macbeth
macbride
macclesfield
macdiarmada
macdonagh
macdonald
mach
machaire
machine
macintosh
mack
mackenzie
macmannys
macmanus
macmillan
macpherson
macquarie
macrath
macro
macron
maculata
maculatum
mad
madagascar
madame
maddaght
maddaghteyr
maddaghteyryn
maddaghtoil
maddie
maddieson
maddrell
made
madeleine
madison
madness
madonna
madrid
madrigal
mae
mael
maelor
maeterlinck
maeve
mag
magazine
magdalena
magdalene
magdeburg
magellanicus
maggie
maggiore
maggleyn
magh
maghal
magher
magheragh
magheryn
maghey
maghouin
maghouinyn
magic
magical
magicians
magics
magids
magnaidagh
magnaishum
magners
magnu
magnus
magyar
magyart
mahican
mahjong
mahomet
mahommad
mahon
mahoz
mai
maid
maidenhead
maidjaghyn
maidjey
maigh
mail
main
maine
mainistir
mainshter
mainshtyr
mair
maire
maireanagh
mairyn
maitland
majalis
majandra
majesty
maji
major
make
makemake
makers
makes
makhtesh
mal
malaarey
malabo
malachi
maladzyechna
malagasish
malawi
malayagh
malayish
malbork
malcolm
maldeevaghyn
male
malee
malew
malik
malika
mallorca
malo
malone
malory
malou
malpys
malta
maltagh
maltish
malveenaghyn
mama
man
manach
management
managh
managua
manama
manannan
manche
manchester
manchuin
mandalay
mandareenish
mandarin
mandate
mandela
mandrake
mandy
manfred
manga
mangaka
manganaish
mango
mangrove
manhattan
manhua
manila
maniola
manitoba
manks
mann
mannagh
mannakeen
mannelli
manniae
mannin
manninagh
manninee
mannishter
mannishteryn
mannix
mannoragh
mansfield
mansi
mantan
manu
manual
manuel
manuscript
manx
manxliterature
manxnotebook
many
maoile
maol
maola
maonais
maothail
map
mappings
mapuc
maputo
mar
mara
maralyn
marat
marbella
marc
marcel
march
marco
marcq
marcus
maree
marenmyn
marennym
margaghyn
margaret
margarita
margee
margery
margey
margrethe
marguerite
margyn
mari
maria
marian
mariana
marianne
marie
mariehamn
marilyn
marilynyn
marin
marina
marine
mariner
marino
marinus
mario
marion
marisa
marish
maritima
maritimum
maritimus
mariupol
marjorie
mark
markee
market
markiagh
markiaght
marks
marksagh
marksee
markyn
marlene
marley
marlon
marmara
marmyr
marmyreen
maroc
marocagh
maroneetee
maroo
marooney
marown
marquette
marragh
marree
marrey
marriage
marrinagh
marrinys
marrinyssyn
marrish
marroit
marroo
marrooagh
marrooit
mars
marsh
marshal
marshall
marshyl
marstrander
marszałek
mart
martha
marti
martin
martinet
martinez
martinique
martins
marty
martyn
martyr
marvel
marvin
marwan
marx
mary
maryam
maryland
marys
mas
maseru
mask
masks
masoonee
mass
massachusetts
massadoan
massey
massi
mast
masteen
master
masters
mastey
masthag
materials
matha
mathbf
mathers
matheus
mathieu
mathrm
matilda
matin
matisse
matorish
matoub
matricaria
matrix
matsu
matsumoto
matt
matteo
matter
matters
matthew
matthews
matthias
matthiola
maud
maude
mauer
maughold
maui
maule
maureen
maurice
mawr
max
maxim
maximilian
maximus
maxwell
may
maya
mayagh
mayen
mayfair
maylartagh
maylartey
maynagh
maynaghoil
maynaghyn
maynard
maynee
mayor
mayotte
mayrey
mayrn
mayrnaght
mayrnee
mayrnt
mayrt
mazepa
mazowiecka
mazowsze
mazury
mbabane
mbe
mbo
mbule
mc
mcaleese
mcardle
mccarroll
mccarthy
mccartney
mccloud
mcconaughey
mcconnell
mcdonald
mcdonough
mcfadden
mcgahern
mcgee
mcginley
mcgowan
mcgrath
mcgregor
mcguinness
mcguire
mcilroy
mckay
mckenna
mckenzie
mckinley
mclinden
mclynn
mcqueen
md
me
mea
meadar
meadaryn
meader
meaderyn
meadow
meadows
meadragh
meagher
meaig
meain
meainagh
meaineraght
meainyn
meala
mealta
mean
meanagh
meaney
means
meansalaght
meanscoillyn
meanvooir
meanvooiragh
meanvrastyl
meanyn
measures
meat
meayl
meayll
mebyon
mec
mecklenburg
mecsico
med
medal
medall
meddal
medelli
media
medical
medicine
medieval
medina
medley
medshin
medusa
mee
meeaighar
meeammyssagh
meeanaghey
meechoardailys
meechredjuagh
meechredjue
meeghyn
meegra
meegrafoynyn
meegrasteatyn
meeilaghyn
meeiley
meeillaghyn
meeilley
meein
meelowit
meenaghey
meeney
meenieunagh
meenit
meenlinna
meer
meereiltagh
meeryn
meet
meetane
meeting
meevlasstal
meevlasstalys
meeyl
meeyllagyn
meg
megan
meggotta
mego
mehoz
mehozot
meic
meidil
meih
meihyn
meiji
meill
meilley
meillyn
meinhof
meiosis
meir
meiygh
meksicagh
meksico
mel
melanie
melanitta
melbourne
melekeok
melilla
melissa
melitopol
melley
mellon
mellyn
mellynyn
melo
melocco
melody
melon
melvin
memoir
memorial
memories
memphis
men
mendeleev
meneng
menez
menguellet
menhir
menkey
menkid
menkidyn
mennick
menorah
mens
meoir
meoiragh
meoiraght
meoiraghtyn
meoiryn
mer
mercer
merchant
merci
mercur
mercury
mere
merg
mergey
merlin
mermaid
merrill
merriu
merseyside
merthyr
meryl
meshtit
mesnil
mesoamericaanagh
mesophyll
mesopotamee
mesopotamia
mesosoa
mess
messaoudi
messey
messi
messier
messyn
mestey
mesteyder
mestit
met
meta
metaphyta
metasylem
metazoa
meteryn
methodist
methuen
metrical
metro
metropolitan
mettane
mexicana
mexico
meyer
með
mg
mgm
mh
mha
mhachaire
mhamed
mhanaich
mhara
mhea
mheasa
mhi
mhic
mhichi
mhinn
mhionu
mhnt
mho
mhorna
mhothair
mhuilinn
mhuine
mhuinneelagh
mhuire
mhz
mi
mia
miallee
miami
mian
miandagh
miasta
micah
mice
michael
michel
michelangelo
michele
michell
michelle
michigan
mick
mickey
micrographia
microsoft
middle
middlesbrough
middlesex
middletown
midi
midland
mie
mielec
migdal
miguel
mika
mike
mikhail
miklo
mikołaj
mila
milaan
milan
milano
milazzo
mile
miles
milford
milfs
milis
miljanyn
miljyn
mill
millaghyn
millard
millefolium
miller
milley
milligan
millington
million
millioon
millioonyn
millish
millit
mills
millwall
milne
milton
milvus
milwaukee
min
mind
minden
minder
minds
mindy
ming
minh
minish
minister
minn
minnag
minneapolis
minnesota
minnid
minnidyn
minnie
minor
minority
minsk
minygululu
mio
mioagyn
miok
miquelon
miracle
miramax
miranda
miriam
mirren
mirril
mirror
mirza
mis
misery
mish
mishmish
mishna
mishoon
mishoonyn
miss
mission
mississippi
missouri
missy
mist
misto
mistral
mit
mitchell
mithun
mitochondria
mitosis
mitterrand
miu
mixeagh
mixed
miyazaki
mm
mn
mnai
mnr
mo
moaadys
moal
moan
moana
moanaghey
moanee
moaney
moar
mock
mod
moddee
moddey
mode
model
modeling
models
modern
modest
modesto
modi
modine
modyn
moe
moee
mofos
mogadishu
moggyl
moggylagh
moggyley
moggylyn
moghraghyn
moghrey
moha
mohamed
mohammad
mohammed
mohand
mohawk
mohini
moidyn
moin
moir
moiraghyn
moirrey
moirvaljagh
moiryn
mol
moldaav
moldova
mole
moliain
molina
mollag
mollagh
mollaght
mollaghtagh
mollaghtyn
mollee
molley
molleydagh
mollis
molloy
molly
molotov
moment
moms
mon
mona
monaco
monark
monarkyn
monday
monera
monet
money
monge
mongoil
mongoilagh
mongoilish
monica
monk
monmouth
monnee
monney
monocseed
monograph
monographs
monophyletagh
monroe
monrovia
mons
monster
monsters
mont
montacute
montagnish
montana
monte
montenegro
montevideo
montgomery
month
monthly
montre
montserrat
monumenta
moo
mooad
mooadagh
mooadaghey
mooadit
mooadyn
mooadys
mooadyssyn
mooan
mooar
mooaran
mooarane
mooarey
mooarheer
mooarheeragh
mooee
mooghee
mooghey
moogheyderyn
mooghit
mooidjeen
mooie
mooin
mooiney
mooinjer
mooinjeragh
mooinjerey
mooinjerys
mooinjeryssyn
mooir
mooiragh
mooirlagh
moojey
moon
moone
moons
moooie
moor
moore
mooring
mor
mora
moralagh
moraltaght
moran
morddeich
more
moreau
morecambe
moreno
moresby
morfeen
morgan
morgannwg
moriarty
morir
moritz
morna
morning
moroni
morphology
morris
morrison
morska
mortensen
morton
morus
moschopolis
moscow
mosebeck
moses
moshe
mosk
moskva
moskyn
moslymagh
moslymee
moss
most
mota
motacilla
mother
mothers
motherwell
motor
mouloud
mouloudji
moune
mount
mountain
mountains
mountbatten
mourdiah
mourning
mouse
mouton
movie
moving
mow
moy
moyka
moyl
moylagh
moyllagh
moyllee
moylley
moylleyderyn
moyllit
moyoni
moyrn
mozart
mp
mpec
mr
mraane
mrang
mraz
mreih
mrs
ms
msa
msey
mt
mtv
mu
mubarak
muc
much
mucyn
mugwort
muhammad
muickey
muigh
muileann
muill
muinaghan
muinchille
muine
muinneelyn
muir
muirchertach
muirchertaig
muiri
muirne
mujer
mulac
mulan
muldoon
mullach
mullagh
mullee
mulleeyn
multi
multidict
mumba
mumbai
mun
mundo
munich
munlaa
munro
munyn
mur
murachver
murchad
murchada
murcia
murder
murdoch
muriel
murmansk
murmur
murphy
murray
murrey
mus
musa
muscat
muse
museo
museum
music
musical
musk
musker
muskylagh
muskyllyn
muskylyn
mussolini
must
musta
mustang
mustart
mustelidae
muun
muzychuk
mv
mw
mwaaee
mwaagh
mwane
mwangu
mwannal
mwannalagh
mwilini
mwmbwls
mwoalley
mwyljyn
mwyllin
my
myanmar
mycetosoa
mychione
mycobacterium
mycorrhisagh
mycsogastria
myechione
mygeart
mygeayrt
myghin
mykines
mylchreest
myn
mynayrnyn
mync
mynchooishagh
mynchreck
mynlagh
mynlee
mynlught
mynlughtyn
mynoashyryn
mynolt
mynoltyn
mynphaartyn
mynphiobanyn
mynphlanaidyn
mynphoyntyn
mynreayrtagh
mynreayrtaght
mynreayrtan
mynreayrtanyn
mynscrutaghey
myntan
mynvioagh
mynvioee
mynviogaghagh
mynvreetc
mynwy
mynyngione
myo
myr
myrane
myrddin
myrgeddin
mys
mysh
myspace
mysterious
mystery
mystic
mythopoeic
myths
n
na
naa
naaplish
naaroo
naas
naboo
naboonys
naboonyssyn
nabooyn
nabooys
nabooyssyn
naceri
nach
nacho
nacional
nacl
nadia
nadine
nadja
nadu
naeear
naeearane
naeearaneagh
naeearaneyn
nafa
nafarroa
nafn
nafot
nagano
naggyr
nagh
naghtyr
nagorno
nagqu
nah
nahariya
nahua
nahuatl
nahum
nai
naidh
naigeer
naigeeragh
naigh
naight
naighteyr
naighteyraght
naim
nair
nairobi
naiste
naisti
najoor
najooragh
najooree
nak
nalbin
nam
nama
name
named
nameeb
names
namibiensis
nan
nanci
nancy
nane
nanjing
nanpa
nantwich
naofa
naoned
napin
napinyn
napole
napoleon
napoleonagh
napoli
nappinagh
nar
nara
narasimha
narayana
narcissus
narrative
nas
nasa
nasair
nash
nasha
nashville
nassau
nastaghyn
nasze
nat
natal
natalia
natalie
natasha
nate
nathan
nathaniel
natica
nation
national
nations
native
nato
natseeagh
natseeyn
natseeys
natural
naturalis
naturalists
nature
naughty
naunt
nauntyn
nauru
navaho
navajo
navarra
navarre
navya
nay
naypyidaw
nazer
nb
nban
nbc
nc
nchen
nchini
ncipe
nd
nder
ndez
ndo
ndorfi
ne
nea
neaghtyragh
neaghtyraght
nealta
neanderthalee
near
nearag
nearagyn
neaynin
neayr
neayrhengoaylleeaght
neb
nebraska
necked
ned
nedd
nee
neeal
neear
neegeyr
neegeyragh
neel
neelane
neen
neesht
neeson
neetrageen
neetragien
neeym
nef
negev
negro
nehemiah
nehme
neil
neill
neion
nekue
nel
nell
nellie
nelson
nemark
nematocyst
nematodeyn
nemertea
nen
nenetsish
neobatrachia
neoin
neon
neose
nepaal
nepaalish
nepal
neptioon
neptune
neptuneagh
ner
nereus
nerin
nero
net
netball
netflix
netherlands
netochka
network
neu
neuaarloo
neuaashagh
neuabyl
neuakinagh
neuappee
neuchadjin
neuchadjinagh
neuchadjinit
neuchadjinys
neuchaghlaaee
neuchair
neuchasley
neuchaslid
neucheintyssagh
neuchiart
neuchinjagh
neuchleaynit
neuchoardailagh
neuchommeeagh
neuchommeeys
neuchooishagh
neuchosoylagh
neuchosoylaght
neuchosoyley
neuchowrit
neuchramp
neuchredjallagh
neuchroghagh
neuchrogheydagh
neuchrogheydys
neuchronnal
neuchronnaneagh
neuchummaltit
neuellanagh
neuennalit
neufarskeealaght
neufarskeeallaght
neuformoil
neugheyr
neughollrish
neughooagh
neughooghyssagh
neughooghyssaght
neughrammeydoil
neughrianagh
neughruggagh
neugollrish
neuhaglit
neuhallooinagh
neuheiltagh
neuhickyr
neuhoilshaghey
neulhaihderys
neulheieagh
neulhiettalyssyn
neulhiggey
neulhiggit
neulhoobagh
neulhoobid
neulivreit
neuloaghtagh
neunhee
neuoardit
neuorgaanagh
neuphersoonagh
neurea
neureiltagh
neurheynnit
neuroscience
neuskielleydagh
neuslane
neuvaghtal
neuvanglaneagh
neuvarvaanys
neuveainyn
neuveayn
neuvio
neuvioyrid
neuvoirvaljagh
neuvondeish
neuvondeishagh
neuvonnagh
neuyeearagh
neuyeen
neuyeenagh
neuyeeragh
neuyerrinee
neuyesh
neva
nevada
neve
never
nevez
nevis
nevsky
new
newar
newark
newbery
newburgh
newcastle
newgrange
newman
newmarket
newport
news
newspapers
newton
next
nez
nezvanova
nfl
ng
ngabhar
ngaedhael
ngall
ngallo
ngari
ngc
ngeddyn
ngerulmud
ngoaill
ngoll
ngra
ngu
nguyen
ngxi
ngzu
nh
nha
nhadau
nhagen
nhat
nhee
nheeghyn
nheeoil
nhegin
ni
nia
niaghtee
niaghtey
niall
niamey
niamh
niar
niart
niartaghey
niartal
niartallaght
niartee
niartit
niau
niauagh
nic
nica
nice
nicholas
nichols
nicht
nick
nickelodeon
nickeraag
nicki
nicky
nickyl
nicola
nicolas
nicolaus
nicole
nicosia
nicoteen
nidaros
nie
niebie
niedersachsen
niederscho
niels
niemeyer
nienhagen
niente
niessey
niessid
nieu
nieughyn
nieunagh
nieunaght
niewald
nigel
niger
night
nightfall
nightingale
nightmoves
nights
niglus
nigra
nikita
nikki
nikolaevich
nikolai
nikolaus
nikolayev
nina
nine
nineteen
nineteenth
ningxia
ninian
ninon
nippon
niqa
nir
nis
nish
nitrageen
niue
niva
nivalis
nivish
nivison
nix
nixon
nj
nji
nk
nko
nl
nm
nmhai
nn
nna
nnchen
no
noa
noad
noader
noadyn
noadyr
noah
noaid
noaidyn
noal
noalittagh
noam
noaskeeal
noaskeealagh
noaskeealaght
noaskeealee
noaskeealyn
nobel
noble
nod
noddagh
nodmayd
nodyn
noe
noel
noght
noh
noi
noichraghagh
noichraghtys
noid
noidagh
noidyn
nolan
nollaig
nollick
nomi
nominated
nominoe
non
none
nonney
noo
nooghyn
nooieyn
noon
noonan
noonday
nor
norbert
nord
nordagh
noreg
norfolk
norish
norlynn
norlynnagh
norlynnee
norlynnish
norma
normal
norman
normanagh
normanee
normanish
nornish
norske
norte
north
northampton
northamptonshire
northeast
northern
northumberland
northwest
norton
norwalk
norway
norwegian
norwich
norðoyar
norðr
norðreyjar
nos
noster
not
note
notebook
notes
notey
noteyn
notoc
notre
nottingham
nottinghamshire
notts
notyn
nouakchott
noun
nouns
nouveau
nouvelle
nova
novel
novels
november
novo
novosibirsk
now
nowa
nowy
nr
ns
nsdap
nsigh
nsw
nt
nta
nter
nu
nua
nuadat
nuala
nubiagh
nueva
nuevo
nui
nuku
nulin
number
numbers
nunavut
nur
nuremberg
nusair
nuts
nuttall
nuuk
nuy
nuyoo
ny
nyannoo
nye
nyees
nyingchi
nymphalidae
nyn
nynorsk
nyu
nyumbani
nzi
o
oa
oai
oaie
oakland
oaldey
oallee
oanluckaghyn
oanluckee
oanluckey
oanluckit
oar
oaraishey
oardagh
oardaghey
oardaghyn
oardee
oarderit
oardit
oardragh
oardraghey
oardraghit
oardrail
oardrailagh
oardree
oardreilagh
oardyn
oardyr
oardyryn
oarey
oarlagh
oarlee
oarleeyn
oarn
oarpagh
oarpee
oarpey
oarpish
oaseir
oaseiraghey
oaseirys
oash
oashyn
oashyraght
oashyryn
oasle
oast
oastagh
oastan
oastanyn
oastee
oastys
oaye
oayghyn
oayldyn
oayll
oayllagh
oaylleagh
oaylleaght
oayllee
oaylleeagh
oaylleeaght
oaylleeaghtyn
oaylleeyn
oayllyn
oayllys
oaylyssagh
oayn
ob
obadiah
obair
obama
obar
obbal
obbalagh
obballagh
obballee
obbee
obbeeys
obbragh
obbraghey
obbragheyn
obbraghyn
obbraghys
obbraid
obbraidagh
obbraidyn
obbree
obbreeaght
obbreeaghtyn
obbreeyn
obbreyder
obbrinagh
obbrinaght
obbrinys
obbur
obbyr
obbyraghyn
obbyryn
obe
oberscho
obhainn
obituary
object
objects
oblast
observations
obst
obtusifolius
oc
occidental
occidentalis
occitaanish
ocean
ocha
ocht
ochta
ocklagh
ocklaght
ocklaghyn
ockle
ockley
ockleyderyn
ockleyr
ocklyn
ocs
ocsaid
ocsaidaghey
ocseed
ocsitaan
ocsitaanish
ocsygien
ocsygienit
ocsyn
october
od
oddagh
oddeeaght
oddey
oddys
oded
odense
oder
odesa
odi
odjey
odra
odreayrtan
odyssey
oe
oedipus
oenanthe
oesophagus
oettern
of
off
office
officer
official
officinale
officinalis
officio
offish
offishear
offishearyn
offishyn
offiziellen
ofis
og
ogden
oge
oghachd
ogham
oghe
ogher
ogheragh
ogheryn
oghtread
ogledd
ogonek
ogre
ogwr
oh
ohio
oi
oie
oik
oikagh
oikan
oikanagh
oikee
oikoil
oikyn
oil
oilea
oireachtas
oirr
oirragh
oirryn
ois
oisi
oisin
ok
okf
okfyn
okkum
oklahoma
oksana
ol
ola
olaf
olau
olav
olave
old
oldham
oleracea
oleraceus
olga
olive
oliveira
oliver
olivia
olivier
olk
ollagh
ollan
ollanagh
ollanee
ollanish
ollannagh
ollay
ollee
olleethomson
olley
ollish
ollit
olloo
ollooagh
ollooaght
ollooscoil
ollooscoill
ollooscoillagh
ollooscoillyn
ollooscooill
ollooscooillyn
ollooyn
ollscoil
ollymin
olmos
olonkinbyen
olsen
olsztyn
olt
oltagh
oltaghyn
oltenyn
oltey
olteyn
olteynagh
olteynyn
olteynys
olteyr
olteyryn
oltit
oltscarree
oltscarrey
oltyn
olympagh
olympia
olympiad
om
oma
omaan
omaha
omar
omee
omega
omer
omh
omhair
omicron
ommidjagh
omnibus
omniglot
omurano
on
ona
once
onchan
one
onega
onegin
onion
online
only
onlyfans
onnane
onnee
onnor
onnoragh
onnoroil
onnoryn
ono
ontario
oo
ooashlaghey
ooashlaght
ooashley
ooaslagh
ooasle
ooasley
ooastyryn
oochrooagh
ooganda
oogandagh
oogragh
ooh
ooha
oohchrooagh
oohrey
oohyn
ooig
ooigyn
ooiley
ooill
ooilley
ooillit
ooillyn
ooir
ooirey
ooirragh
ooirrey
ooisht
ooist
ooive
ookraan
ookraanagh
ookraanee
ookraanish
oolaghyn
ooley
oolit
oonlee
oor
ooraguay
ooraguayagh
ooral
ooralagh
ooree
ooreyderyn
oort
ooryn
oosbeckish
oosbeckistaan
oostende
ooyl
ooyllyn
op
opb
opec
open
opera
operculum
opgenort
ophiocomae
ophiuroidea
opold
opole
opus
opyn
or
ora
oraatagh
oraid
oral
orange
oranje
orbke
orc
orcus
ordaag
order
ordinary
ordnaidyn
ordnance
ordrail
ordrailagh
oregon
org
orgaanagh
organagh
organe
organeyn
organeyr
organisation
organization
ori
orianka
oriant
oriental
orientale
orientales
origin
originally
originals
origins
orion
orkaid
orlando
orle
orleans
ornaidagh
orpen
orraghey
orree
orrin
orroo
orroosyn
orry
orrym
orsay
ort
orthonectida
orton
orwell
os
osaka
osamu
osborne
oscar
osgood
oshin
oshley
oshlit
osismii
osley
oslo
osmunda
osnabru
oss
osseed
ossetia
ossetish
ossian
ostaig
osteichthyes
ostro
ostwestfalen
oswald
ot
other
others
oto
otranto
ottawa
otto
ottomanagh
ou
ouagadougou
ouest
oulu
our
ourys
ouryssagh
out
outer
outfest
outline
outside
outstanding
outward
ouwr
ouyir
ouyr
ouyragh
ouyrey
over
overijssel
overland
overview
ovid
ovis
owain
owen
owensboro
owl
own
oxford
oyr
oyragh
oyryn
oz
p
pa
paa
paab
paabagh
paag
paagaghyn
paagey
paal
paarantyn
paart
paartagh
paarteeas
paartyn
paarys
paase
paayl
pabaigh
pablo
pabyr
pabyryn
pacific
pacino
pack
packet
paddington
paddy
padjer
padjeryn
padraic
paei
paganagh
page
pages
paggad
pago
pai
paige
pairk
pairkal
pairkyn
paisean
paitc
paitt
pakistaan
pakistaanagh
palaase
palace
palasteen
palasteenagh
palasteenee
palau
palermo
palgrave
palikir
palin
pallas
palm
palma
palmas
palo
palustris
pam
pama
pamela
pamplona
pamyu
pan
panabaker
panamaa
pandemagh
paneve
pangu
panicle
pannylyn
paol
paolo
papa
papar
paper
papers
papillon
papooey
papyr
paraantyn
parade
paradise
paraguayagh
parail
paramaribo
parameter
paramount
pararge
parasoa
parbateish
pardoonit
parenchyma
parents
pargeter
pargys
paris
park
parker
parks
parlamaid
parlamaidagh
parlamaidyn
parlane
parler
parliament
parliamentary
parnell
part
partan
partanyn
partee
parteeas
parteeghyn
parteeyn
partement
partick
particular
partido
partners
partnership
partridge
party
parva
pas
pasheydys
paso
passeriformes
passiflora
past
pasteur
pat
patagonia
pater
path
pathe
patriae
patricia
patrick
patriot
patrol
patroonys
patsy
patterns
paul
paula
pauline
paulo
pavlo
pavogur
paweł
pawl
pays
paz
pazieg
pbk
pbs
pcg
pdf
pe
peabody
peace
peadar
peairt
peak
peake
peaky
pearl
pearse
pearson
peccaghyn
peccee
peck
peckham
peddyr
peear
peel
peer
peesh
peeshyn
pegg
peiagh
peile
peint
peintal
peinteyr
peinteyryn
peintit
peitshag
pejic
pelas
pelasgiaghtyn
pelecaniformes
pellegrini
pelvagh
pelvis
pen
pendula
pene
penelope
penfro
penguin
penh
penisillin
penmarc
penn
pennsylvania
penny
penshyn
penshyneyryn
penshynyn
pentevr
penthouse
pentreath
people
peptidoglycan
per
peran
percival
percy
perennial
perennis
perfect
perfoliata
pergamon
perick
perkins
perkynyn
perlman
peroo
perrick
perros
perroz
perry
perseus
pershagh
pershey
pershish
person
personal
personale
persoon
persoonagh
persoonid
persoonidyn
persoonyn
perspective
perspeghtaght
perth
pesmadyn
peso
pesson
pest
pestivien
pet
petah
pete
peter
peterborough
peterma
peters
petersburg
petersen
petra
petro
petruchka
pets
petyllagh
petyllyn
petylyn
peyton
pfalz
pga
pgg
ph
pha
phaab
phaag
phaal
phaarantyn
phaart
phaartyn
phaarys
phaase
phaayl
phabyr
phadjer
phaganagh
phairk
phaitc
phaiteen
phakistaan
phalarope
phalaropus
phalasteen
phalateenaght
phalau
phalearctagh
phalm
phanamaa
phanie
phapanaght
phapua
pharaguay
pharaoh
pharlamaid
pharlamaidagh
phartan
phartee
pharteeagh
pharteeaght
pharteeghyn
pharva
phatagoan
phch
pheairt
pheddyr
pheeikearys
pheesh
pheiagh
pheintal
pheinteyr
phenn
phenohorc
phenomena
phenomenon
phenomenonyn
pherick
pheroo
phershish
phersoon
phersoonagh
phersoonaght
phersoonid
phersoonyn
phesson
phetyllagh
phh
phi
phian
phicardish
phictish
phil
philadelphia
philemon
philip
philipiannee
philipp
philippe
philippeenagh
philippines
philips
phillippeenagh
phillips
philosophical
philosophy
phineas
phishyr
phiyr
phlaaney
phlaase
phlaeas
phlaih
phlan
phlanaid
phlanaidagh
phlanaidyn
phlannad
phlannadyn
phlasmey
phloem
phlumbis
phnom
pho
phoagey
phobail
phobblaght
phobblaghtagh
phobblaghtyn
phobble
phobbyl
phobbylagh
phobbylyn
phobos
phoenicurus
phoenix
phointeil
pholaneesey
pholaneesh
pholasee
pholitickagh
pholitickaght
pholitickeyr
phollnaghey
pholynn
pholynnagh
pholynnish
phone
phonetic
phonetics
phonk
phonological
phonology
phontreilagh
phooar
phoos
phoose
phoosee
phoosey
phop
phornograafagh
phornograafaght
phortiugagh
phortiugal
phortiugish
phossan
phossanyn
phost
phostagh
photinus
photo
phott
photuris
phoull
phoullagh
phoynt
php
phraase
phraaseyn
phraddag
phrase
phrases
phreeu
phreevaadjagh
phrentyn
phresbyteyragh
phretereitagh
phrinsaght
phrinse
phris
phrokaryota
phroosh
phrooshish
phrostaitagh
phroteen
phroteenyn
phrotestoonagh
phrotisyn
phroto
phrow
phrowaltyssyn
phryssoon
phryssoonee
phu
phuirt
phuish
phunt
phurt
phurtagh
phurtyn
phyla
phylloscopus
phylogeny
phylum
phyramid
physics
pi
piacere
pian
pianney
pianneyder
pianneyderyn
piazzi
pibbin
pibbinyn
pibbyragh
picard
picardie
picardish
picasso
pick
pickens
pictee
pictiaid
pictish
pictures
pie
pied
piemonte
pier
pierce
pieridae
pieris
pierre
pietro
pig
pike
pilib
pin
pinchot
pinder
pine
pines
ping
pingyn
pinhoe
pink
pinker
pinocchio
pinter
pinus
pinyin
pio
piob
pioban
piobanagh
piobanyn
piobeyryn
piper
pipit
pirkanmaa
pirree
pishagagh
pishyryn
pistacia
pisum
pit
pitcairn
pitt
pittsburgh
pius
pivitsheide
pixar
piyr
piyral
piyryn
pl
plaaney
plaase
plaaseyn
place
placed
placosoa
plaid
plain
plains
plait
plaityn
plan
planaid
planaidagh
planaidyn
plandail
plandailyn
planet
plankton
plannal
planning
plannit
plant
planta
plantae
plantago
plantbase
plants
plantyn
planxty
planyn
plasmagh
plasmaidyn
plasmey
plasmoidjagh
plastagh
plastaid
plastaidyn
plastic
platanus
platero
platforms
platinum
plato
platyhelminthes
platyphyllos
platyrrhini
play
playboy
players
playground
playmates
plays
playstation
plaza
plc
ple
pleasant
please
pleasure
plerin
plexippus
pliny
plk
ploeneg
ploermael
plooghey
plotnikova
plougastell
plouge
plouha
ploumanac
ploveilh
plover
plumbis
plumbissyn
plunkett
plus
pluto
plutoynagh
pluvialis
plymouth
pm
pmi
png
po
poagaghyn
poagey
poanragh
poanraghyn
pobblaght
pobblaghtagh
pobblaghtyn
pobblaghtys
pobblaghyn
pobble
pobbyl
pobbylagh
pobbylyn
pocahontas
pod
podgorica
podiceps
podkarpacie
podlasie
podlaska
poe
poem
poems
poet
poetry
poets
pogues
pohjanmaa
pohlldal
pohllder
pohllderyn
pohlldey
pohlldit
point
pointeil
pointit
pointyn
poison
poitevin
poitier
poitou
poj
pol
polaase
poland
polaneesagh
polasee
polaseeyn
poleen
poleenee
poleenyn
police
politeness
political
politickagh
politickaght
politickeyr
politickeyryn
politickoil
politics
polk
poll
pollexfen
pollin
pollnaghey
polo
poltava
poly
polychaeta
polyester
polygala
polygonia
polynn
polynnagh
polynnee
polynnish
polyommatus
pombe
pome
pomorze
pompee
pompidou
poncho
pondi
pont
pontekroaz
pontreilagh
pooar
pooaraghyn
pooaryn
poodyr
pooh
poole
poorhouse
poosaghyn
poosee
poosey
poosit
poost
pop
pope
popeye
popper
poppins
population
por
porifera
porkeri
porn
pornograafagh
pornograafaght
port
porter
porthynys
portilla
portiugagh
portiugal
portiugee
portiugish
portland
portman
portmeirion
porto
portrait
portsmouth
portugalete
porzana
porzh
position
possan
possanagh
possanyn
post
postagh
postal
postyn
pot
potacareeagh
potashum
potato
potecaree
potsdam
potter
poualed
poullagh
pound
pour
pourater
powell
power
powers
powiat
powys
poyll
poynt
poyntyn
poznan
pp
ppe
pr
praag
praase
praaseyn
practical
practice
practices
praddag
praddagyn
pradesh
praeger
pragmatics
prague
praia
prairie
praise
prashageenyn
prayer
pre
preays
predator
pree
preeu
preevaadjagh
prefix
prefixes
preis
prejudice
preliminary
premier
premium
prental
prentit
prentyn
presbyteyragh
presbyteyraght
presbyteyree
present
president
presidential
presley
press
preston
pretereitagh
pretoria
pretty
preuß
pri
price
pride
priestley
prifardd
prima
primary
prime
primetime
prince
princess
princeton
principal
principles
prindeys
prindeysaght
prinsabylyn
prinsaght
prinse
printing
prioraghtyn
prioseil
pris
priseil
prishtina
prisoner
pritchard
private
prix
prize
pro
problems
proceedings
process
processus
productions
prof
professor
profile
program
programme
progress
project
prokaryota
prokaryotagh
prokaryotee
prokaryoteyn
prometheus
pronnagyn
pronunciation
proosh
prooshagh
propaganda
proper
proposal
pros
prose
prosoid
protabase
protaneyn
protection
proteen
proteenagh
proteenyn
protestoonagh
protestoonee
protestoonys
proteus
prothallus
protista
protistyn
proto
protonema
protosoa
protosylem
provenc
provide
providence
province
prowal
prowallagh
prowallyn
prowaltagh
prowaltys
prowaltyssyn
prowaltysyn
prowit
prunus
pryer
pryssoon
pryssoonagh
pryssoonaght
pryssoonee
prætoriagh
psalmyn
pseudacorus
pseudoplatanus
psr
pss
psycho
psychological
psychology
pt
pteridophyta
ptolemy
ptuj
pu
pub
puberty
pubescens
publ
public
publica
publication
publications
published
publishers
publishing
puck
puebla
pueblo
puerto
puffinus
puill
puirt
puke
pulcher
pulitzer
pulp
pulrose
pulsar
puma
pumbaa
pump
pumpkins
pumpyn
punkaghey
punt
pupa
purcell
purchase
purdue
pure
purple
purpose
purpureum
purrott
purt
purtyn
purushamriga
pushkin
puss
pussy
pussycat
put
putin
puławy
pvp
px
pye
pyha
pynt
pyongyang
pyotr
pyramid
pyramidagh
pyramidyn
pyre
pyreanagh
pyshoonyn
płock
q
qa
qajar
qamdo
qi
qin
qing
qinghai
qoppa
qu
quaagh
quaaltys
quaaltyssyn
quaid
quail
quaill
quaillagyn
quaillyn
quaiyl
quaiyllagh
quaiyllyn
quaiylyn
qualleeaghtyn
quallianyn
quallid
quallidyn
qualtrough
quang
quantum
quaoar
quaranteen
quarralyn
quarrymen
quarterly
quartet
quasar
quasimodo
quassia
quayle
que
quebec
quechua
quechuaish
queen
queens
queensland
queeyl
queeyllagh
queeyllyn
queig
queiggagh
queiggaghyn
queiggey
queiggoo
queigoo
quele
quentin
quercus
quest
questions
qui
quick
quieg
quincy
quine
quing
quinlivan
quinn
quinsh
quintanilla
quirk
quisling
quito
quixote
quo
quocunque
quoi
quoid
r
ra
raa
raad
raadeeoil
raadyn
raaghyn
raah
raahoil
raaidey
raaidyn
raait
raatys
raaue
raauee
rab
rabat
rabbi
rabbinagh
rabbit
rach
rachel
rachid
rachis
racine
racing
radcliffe
radicata
radio
radom
radwan
rae
raf
rafael
raga
rage
raghidey
raghlid
raghtal
raghyn
ragnald
ragnarok
rah
rahat
rahilly
rahoil
rahys
rai
raidio
raigheacht
rail
raillaghyn
railley
railroad
railway
railways
rain
rainbow
rainbows
rainer
rainier
raink
rainn
rainy
raip
raipey
raiseyder
raisoam
raisoamagh
raisoamyn
raithin
raithni
raja
rakuten
rale
raleigh
ralph
ram
ramat
ramhar
ramla
ramon
ramona
ramos
ramsar
ramsay
ramsey
ramzy
ran
rana
randolph
random
randy
rane
ranft
rang
rangagh
range
rangers
rangish
rangyn
ranidae
rank
rankin
ranking
rankonish
rankyn
rann
rannag
rannagagh
rannagyn
ransh
ranunculus
raonasa
rapa
rapae
raphaelagh
rapid
rapids
rapunzel
ras
raspberry
rass
rassagh
rassan
rassanyn
rassey
rassinyn
rassyn
rat
ratc
rath
rather
rattus
raue
raueagh
rauee
raueyn
raunyn
raven
ravin
rawson
ray
raymond
rc
rcah
rctl
rcto
rcz
rd
re
rea
reachlainn
read
reader
readers
reading
reaey
reagan
reaghee
reaghey
reagheyder
reagheyderyn
reagheydys
reagheydyssyn
reaghit
reaghys
reaghyssyn
reaghysyn
reaisht
reajagh
reajyssagh
real
reality
really
ream
reamyn
reamys
reamyssagh
reamyssyn
reardon
reason
reat
reayll
reayltys
reayn
reaynyn
reayrt
reayrtagh
reayrtyn
reayrtys
reayrtyssyn
reays
rebecca
rebel
recipes
record
recordings
records
recortit
recortys
recortyssagh
recortyssee
recortyssey
recortyssit
recortyssyn
rect
red
reda
redbubble
reddaghey
reddyn
redmond
redon
redones
redpoll
redvers
redyn
ree
reeagh
reeaghyn
reealt
reeastaneyn
reeastyn
reece
reed
reeghyn
reejereeyn
reejerey
reejeryn
reejerys
reel
reeoil
reeraghtagh
reeraghtys
reeriaght
reeriaghtyn
rees
reeshlann
reeshlannee
reeshlannish
reesht
reeve
reeves
reference
refrane
refraneyn
regalis
reggyrt
reggyrtagh
reggyrtee
reggyrtys
regia
regierungsbezirk
regierungsbezirke
regiment
regina
reginald
region
regional
regions
regius
regnum
regulation
regulus
rehovot
reich
reichstag
reign
reih
reihdagh
reihdee
reihderaght
reiht
reihys
reihyssagh
reihyssyn
reihysyn
reill
reillaght
reilley
reilleyder
reillt
reilly
reillyn
reillys
reiltagh
reiltee
reiltys
reiltysagh
reiltyssagh
reiltyssyn
reiltysyn
reimann
rein
reir
reiragh
reiree
reirey
reireyder
reireyderyn
reirit
reise
reitherman
rejects
rejimentyn
rejoice
related
relations
relief
religion
remember
remembrance
remlad
remladyn
remmighausen
remus
remy
ren
renaigagh
renaigyn
renaissance
rene
renewable
renfrewshirecoontae
reni
rennes
renniagh
renniee
renoir
rent
repens
report
reports
repr
representation
representative
reprint
reproductive
reptilia
republic
republik
republika
rer
rere
res
rescue
rescuers
research
resh
resident
resoon
resoonagh
resoonaghey
resoonaght
resoonaghtyn
resooney
resource
resources
responden
respublika
rest
reston
results
retrieved
return
returns
reunion
rev
review
revised
revival
revolution
revolver
rewiz
rex
rey
reykjanesbær
reykjavi
reynolds
rez
rezensionen
rf
rfc
rg
rgen
rh
rhaa
rhamnoside
rhamnus
rhea
rheam
rheamys
rheamyssagh
rheamyssaght
rheamyssyn
rheaymyssagh
rhenk
rhenkit
rhenkyn
rhennee
rheyn
rheynn
rheynnag
rheynnagh
rheynnagyn
rheynnit
rheynnyn
rhiannon
rhine
rhiney
rhisoidyn
rhizobium
rho
rhoades
rhode
rhodeesh
rhodes
rhodri
rhombosoa
rhondda
rhopalura
rhs
rhuddlan
rhumsaa
rhuthun
rhyl
rhymers
rhys
ri
ria
riada
ribagorza
ribbey
ribbon
ribbosoomyn
ribes
ric
ricaid
ricci
rice
rich
richard
richards
richardson
richie
richmond
rick
rickad
rickman
ricky
rico
rid
ride
rider
riders
ridge
ridjimiraril
ridley
rieau
rieltys
ries
rieugagh
rieughagh
rieughee
rieughid
rifa
riga
rigel
right
rights
rih
riket
rile
riley
rim
rimini
rimmeig
rimmeigagh
rimmeigyn
rimpar
ring
ringen
ringo
rings
rinkyn
rinn
rinne
rio
rioee
riojag
riojey
riojit
rios
rise
rises
rish
rishi
rishon
risi
rising
rita
ritchie
riteriai
ritter
riu
river
rivera
riverdance
riverside
rivne
rix
rjc
rko
rlain
rmainn
rn
rnaig
rnberg
rne
rngs
rnsson
ro
road
roar
roauyr
roazhon
rob
robbie
robbins
robby
robert
roberts
robertson
robin
robinson
robot
robotagh
robotyn
robson
roc
rocco
rocha
rochdale
roche
rock
rocky
rodan
roddan
roddanyn
roddy
rode
roderick
rodri
rodrigo
rodriguez
roemer
rogen
roger
rogers
roggad
rogier
roibi
roie
roievollagh
roievollee
rois
roish
roland
rolaue
role
roles
rolf
roll
rollage
rollageagh
rollageydagh
rollageyder
rollageyderyn
rollageydyn
rollageydys
rollageyn
rollageys
rollageyssyn
rollaghyn
rolley
rollian
rollianagh
rolling
rollit
roltag
roltageagh
roltagee
roltagyn
rolteen
rom
roma
romaain
romaan
romaanagh
romaanee
romaanish
romaanisheyryn
romagnolish
romain
roman
romanagh
romanaghey
romance
romandie
romanee
romannee
romano
romansagh
romanseeagh
romanseeaght
romansh
rome
romeo
romero
ron
ronald
ronaldo
ronaldsway
ronan
ronnag
ronnaghyn
ronney
ronniaght
ronnie
ronsaghey
ronsaght
ronsaghtyn
ronsaghyn
ronsee
ronseeyn
ronseyder
ronseyderyn
roo
rooandey
rooisht
rooishtee
rooishteyder
rooishteyderyn
rooishtid
room
roonagh
roonaghtyn
rooney
roonyn
roonysvaie
rooragh
roorid
roortagh
roortaghys
roortee
roortys
roortyssyn
roosevelt
roosh
rooshagh
rooshaghey
rooshee
rooshish
roost
roostey
roosteyryn
roosteyrys
roosyn
rorippa
rory
ros
rosa
rosaceae
rosae
rosanna
rose
roseag
roseagh
roseau
roses
rosetta
roseyn
rosh
roshit
roshtyn
roshtynagh
roshtynyn
roshtynys
rosie
rosien
rosin
rosinagh
ross
rossa
rossi
rostey
rostit
rostock
rostov
rostrenenn
roswell
rotagh
roth
rotherham
rotherhithe
rotiferyn
rouailtagh
roubaix
rouge
rough
rouiched
rourke
roussillon
route
routh
routledge
rouyr
rovers
rovreear
row
rowan
rowe
rowlal
rowland
roxanne
roy
royal
rpa
rr
rsa
rsczi
rshavn
rt
rte
rterbuch
rtt
rttemberg
ru
rua
ruadh
ruairc
ruanaid
rubber
rubbyr
rubecula
rubens
rubenstein
rubiddjum
rubus
ruby
rudolf
rudolph
rudy
rudyard
ruegey
ruegeyderyn
rueggit
ruegit
ruegys
ruegyssagh
ruegyssyn
ruffalo
rug
rugby
rugg
ruggey
ruggit
ruggyr
ruggyree
ruggyrit
ruggyryn
ruillick
ruillickyn
ruissagh
rule
rules
rumantsch
rumantscha
rumbo
rumex
rumia
run
runavi
runner
runt
runtit
rupert
rupestris
rus
ruscus
rush
rushen
rushforth
rusk
ruska
ruslan
russ
russel
russell
russia
russian
rusyn
ruth
rutheen
rutherford
ruthven
rutland
ruy
rva
rvi
rvusz
ry
ryan
ryanair
rybban
rybbanagh
ryddim
ryddimagh
ryder
rye
rymer
ryukyu
rzeszo
rður
s
sa
saa
saab
saagh
saaghyn
saailley
saamagh
saamee
saamish
saarland
saase
saaseyn
saasilagh
saasilaght
saasilee
saasit
saasyn
sabh
sabhal
sabrina
saccharomyces
sachs
sachsen
sacks
sacragh
sacramento
sadi
safed
safety
safin
saga
sage
saggyrt
saggyrtyn
sahara
sahllagh
sai
saiagh
saiaghey
said
sailea
saileach
sailing
sailjey
sailjys
sailley
saillit
sailliu
sailor
saint
saintongeais
saints
saki
saksonagh
sal
salamandridae
salamandroidea
saldan
salem
salford
salicifolius
salicornia
salicylagh
salina
salisbury
salix
sallagh
sally
salome
salpa
salsa
salt
salud
saludos
salvador
salzburg
sam
sama
samaar
samaaree
samain
samantha
samara
sambiagh
sambil
sambucus
sambyl
sambylyn
samhain
samhnai
samhuinn
sami
samir
samoa
samogitish
samoidagh
sampang
sampleyr
sampleyragh
sampleyryn
sampleyrynsampleyryn
sampson
samuel
samurai
samy
san
sand
sanders
sandomierz
sandoy
sandpiper
sandra
sandringham
sands
sandwich
sandy
sangpang
sanguineus
sankt
sanmarinosite
sannish
sans
sanskrit
sant
santa
santiago
santo
santos
santurtzi
sapir
saponaria
saponin
sapp
sar
sara
saraghyn
sarah
sarajevo
saran
sarcopterygii
sardeenish
sarey
sark
sarkil
sarkozy
sarkyl
sarkyllyn
sarkylyn
sarmentogenin
sarmiento
sarn
sars
sasha
saskatchewan
sassari
sassey
satakunta
satellite
saterlandish
satire
sativa
sativum
saturday
saturn
sauail
sauc
saudi
saue
sauin
saum
saussure
sava
savage
save
saved
saveenys
savo
saw
sawajiri
saxe
saxicola
say
saynt
says
sc
scaa
scaadooagh
scaailan
scaaillagh
scaailley
scaalhean
scaalheanee
scaalheaney
scaalheaneyder
scaalheaneyderyn
scaalheanit
scaanagh
scaanaghyn
scaanit
scaanjoon
scaanjoonagh
scaanjoonyn
scaanyn
scailley
scammylt
scanlon
scannane
scannaneagh
scannaneaght
scannaneeaght
scannaneyn
scannanyn
scansh
scanshoil
scanshyn
scapail
scape
scar
scarborough
scarlatti
scarlet
scarlett
scarr
scarree
scarrey
scarreydagh
scarreydee
scarrit
scarroo
scart
sce
sceilig
scell
scellyn
scene
scensh
sceolan
scheim
scheimyn
schimmeig
schist
schizosaccharomyces
schlei
schleioil
schleiyn
schleswig
schmid
schmidt
schneider
scho
schodt
schoenoprasum
schoill
schoillar
schoillaragh
schoillaryn
scholars
school
schools
schro
schu
schulze
schwarze
schwarzschild
schwerin
science
sciences
scientific
sclate
scoagh
scoaghagh
scoaral
scoarnagh
scoarnee
scoaryn
scoil
scoill
scoillar
scoillaragh
scoillaryn
scoillyn
scollag
scollagyn
scoltan
scoltey
scolymus
scone
scooillaragh
score
scorsese
scotch
scoter
scotia
scotland
scots
scott
scottish
scottsdale
scotus
scout
scowan
scowanagh
scowanyn
scraayl
scraaylyn
scrai
scranton
scratch
scream
screaming
screeaghag
screebagh
screebee
screen
screeu
screeuaght
screeuder
screeuderyn
screeudeyr
screeudeyryn
screeudeyrys
screeuee
screeueyrys
screeuit
screeunyn
screeut
screeuyn
screeuynyn
scri
scrialtee
script
scriptyn
scroig
scrollaghyn
scrolley
scrope
scrophularia
scrudeyr
scrudeyryn
scruit
scrutaghey
scrutaght
scrutaghtyn
scryss
scryssey
scryssit
scrysst
scuba
scugh
scughey
scughit
scuirr
scuirrey
scuitc
scunthorpe
se
sea
seachlainn
seacht
seagal
seal
seamus
sean
seanad
seanaidh
seanbho
seanchaislea
sear
search
sears
season
seattle
seaward
sebastian
sec
sechlainn
sechnaill
seclin
second
secondary
secret
secrets
section
secunderabad
sedna
seduction
see
seeckaghys
seeckee
seed
seeing
seelan
seelanagh
seelynn
seelynnagh
seen
seepalyn
seeragh
segel
segetum
segreti
segunda
seihill
seihll
seihlltagh
seionagh
seionaght
seiy
seiyu
sejmik
selected
selena
self
selkupish
sell
selma
sem
semantagh
semantaght
semantics
semele
semetagh
semittagh
sempervirens
sen
senate
sendai
senecio
senegaalagh
senhouse
senna
senri
sensations
sense
seoige
seoighe
seose
seoul
sephardagh
september
ser
serb
serbagh
serbee
serbish
sercquiais
sergei
sergio
seri
serie
series
serkis
service
services
sesame
seshoonyn
set
seth
sett
settlement
sevastopol
seven
sevilla
sex
sexy
seyr
seyraad
seyraanaght
seyraanee
seyranee
seyrey
seyrit
seyrlan
seyrlann
seyrlannyn
seyrnagh
seyrnaght
seyrsnys
sf
sgeir
sgri
sgt
sgyf
sha
shaanraghyn
shaanrey
shaanxi
shackleton
shad
shadow
shadows
shaghey
shagheydagh
shaghney
shaghnit
shaghrey
shaghrynys
shah
shake
shakespeare
shalee
shaleeyn
shall
shallee
shalleeyn
shallidagh
shamrag
shamraig
shamraigyn
shamyr
shamyryn
shan
shandong
shane
shanghai
shannad
shannadeyr
shannadeyryn
shannan
shannon
shansyleyr
shansyleyryn
shanxi
shapaan
shapaanagh
shapaanee
shapaanish
shape
shapiro
shapp
shappal
shappyn
sharaghey
share
shareaghey
sharmanyssyn
sharon
sharp
sharpsteen
sharroo
sharvaant
shass
shassagh
shassee
shassoo
shassooagh
shassooyn
shaughnessy
shaun
shaw
shawk
shay
shayl
shayll
shayllyn
she
shea
sheadane
sheadaneagh
sheadin
sheadinyn
sheansagh
sheanse
sheanseyr
shearwater
sheayney
sheckagh
sheckish
sheckteraght
sheckteryn
shee
sheeagheyryn
sheealtagh
sheean
sheeanagh
sheeanaghtys
sheeanane
sheeanchoryssagh
sheeanchoryssaght
sheeanchoryssaghtys
sheeancoryssagh
sheeanoaylleeaght
sheeanoil
sheeanyn
sheear
sheebaghyn
sheebey
sheeidey
sheeintagh
sheeintee
sheeinteyder
sheel
sheelagh
sheelaghey
sheelaght
sheelaghtagh
sheelagyn
sheeley
sheelnaue
sheeloghe
sheelogheydys
sheelogheyn
sheelragh
sheelraghey
sheelree
sheeltagh
sheelyn
sheen
sheenagh
sheenaghtys
sheenee
sheenish
sheeoil
sheep
sheer
sheese
sheeyney
sheeynit
sheeynt
sheffield
shegin
sheh
sheidey
sheikh
sheila
sheiltyn
sheiltynagh
sheiltynee
sheiltynys
sheiltynyssyn
sheiltynysyn
sheinys
sheinyssagh
sheinysyn
shelg
shelgey
shelgeyr
shelgeyryn
shellagh
shellanyn
shellee
shelley
shelloo
shellooagh
shelloodagh
shelloodee
shellooder
shellooderaght
shellooderyn
shellooderys
shellooghys
shellooghyssyn
sheltish
shemale
shen
shendeeagh
shenn
shennaghyn
shennaghys
shennaghyssagh
shennaghyssyn
shennayr
shennayraght
shennayraghyn
shennayryn
shenndaalee
shenndaaleeagh
shenndaaleeaght
shenndeeagh
shenndiaght
shennearish
shennockle
shennocklyn
shennvayr
sheose
sheridan
sherman
sheshaght
sheshaghtyn
sheshee
sheshengoayllee
sheshengoaylleeagh
sheshengoaylleeaght
sheshey
sheshoaylleeaght
sheshoil
shetlynn
shey
sheyoo
shi
shiaght
shiaghteeyn
shiaghtin
shiaghtinoil
shiaghtinyn
shiaghtoo
shiaghtyn
shiar
shiartanse
shiartase
shiast
shiaull
shiaulley
shiaulleyder
shiaullit
shiaulteyr
shiaulteyryn
shibber
shibbeyr
shicklaagagh
shicklaage
shicklaahengoaylleeaght
shickyr
shickyraghey
shickyrit
shickyrys
shid
shields
shift
shillab
shillabyn
shillaghyn
shillagon
shillee
shilleeagh
shilley
shilleydagh
shillish
shillishyn
shimbosh
shimboshagh
shimmey
shimmin
shimon
shin
shine
shines
shinney
shinsear
shinsharagh
shinty
shinyn
shioltane
shirgaghey
shirgane
shirganeyn
shirley
shirragh
shirree
shirrey
shirreyder
shirreyderyn
shirreydys
shirreydyssyn
shirrit
shirrym
shirrymaghtyn
shirveish
shirveishagh
shirveishaght
shirveishee
shirveishey
shirveishit
shirveishyn
shishkin
shissyl
shiu
shiva
shiveeltaghtyn
shivoil
shivoilee
shla
shlea
shlee
shleiy
shleiyghyn
shlesinger
shlig
shliggagh
shligganee
shligganyn
shliggee
shmona
shmuel
sho
shocklaid
shogakukan
shogun
shoh
shollane
shooil
shooill
shooting
shooyl
shooylagh
shooylaghan
shooylee
shooyll
shore
shorshagh
shorshey
shorshish
short
shorts
shorty
shorys
shot
should
show
showtime
shrewsbury
shrike
shriya
shropshire
shtein
shtetlyn
shughlaig
shugyr
shugyryn
shuin
shuster
shuyr
shuyragh
shuyraghyn
shuyryn
shymlee
shymley
shymmey
shynnagh
shynnee
si
sia
siais
siar
siaradai
sibelius
sichuan
sid
side
sident
sidney
sidoor
sidooryn
sie
siedlce
siegfried
sienna
sierra
sigma
sigmund
sigmundur
signs
sigoat
sigurðsson
sikkim
sil
sileesh
sileeshish
silence
silene
silentia
sillanpa
silva
silver
silverman
silvstedt
simba
simbad
simferopol
simmons
simo
simon
simone
simpson
simpsons
sin
sinai
sinaitagh
sinapis
sinche
sinclair
sine
sing
singapore
singer
singh
singil
singilyn
sings
singyl
singylyn
sinik
sinise
sinkal
sinn
sinna
sino
sio
siobha
sionainne
sioned
sionna
sionnaigh
siorrachd
sir
sistan
sisters
sit
sitcom
sitcomyn
site
siumut
siverskyi
six
sixty
siyn
siyraghey
sjerree
sk
ska
skaa
skaal
skaer
skahit
skairt
skanderbeg
skansin
skarszewy
skart
skeabey
skeabeydys
skead
skeadyn
skealleydaght
skeayley
skeayll
skeayllee
skeaylley
skeayllit
skeayllt
skeaylt
skeddan
skedjalit
skedjallit
skeeal
skeealagh
skeealaght
skeealeydagh
skeeallaght
skeealleydagh
skeealleydaght
skeeallyn
skeealyn
skeeandagh
skeeaylley
skeeragh
skeeraghyn
skeerey
skeet
skeilt
skeiltyn
skeim
skell
skellal
skelloo
sker
skeryn
sketc
sketch
skeym
ski
skian
skianagh
skianyn
skibbag
skillee
skilley
skillicon
skimmee
skin
skinner
skinny
skioot
skiootyn
skit
sko
skopje
skopun
skorf
skovoroda
sku
skua
skull
sky
skybbyltagh
skye
skyline
skyll
skylley
skyn
skynn
skynnaghyn
skynneydys
skyrrey
skyrreyder
skyrreyderyn
skyrt
skyrtyn
skywalker
sla
slaanee
slade
slain
slam
slands
slane
slanjeant
slat
slate
slater
slattag
slattagyn
slattyn
slattys
slattysagh
slattyssagh
slattyssyn
slatyn
slavagh
slave
slavee
slavey
slavish
slayer
slaynt
slayntoil
sle
sleab
sleabyn
sleaie
sleaydey
sleeanagh
sleep
sleeping
sleih
sleitagh
sleitoil
sleityn
sliabh
slieau
sliennoo
sliennooyn
sligeach
sligo
slimane
sliught
sloo
slope
slough
slovack
slovackagh
slovackish
sloveanagh
sloveanish
slug
sluggey
sluggidagh
sluigh
sluight
sluightagh
sluightee
sluightyn
slur
slyst
slystagh
slystyn
slættaratindur
sm
smagh
smaght
smaghtagh
smaghtaghey
smaghtaghys
smaghtey
smaghteyder
smaghteyr
smaghtit
smaghyn
small
smashing
smei
smeir
smenkey
smessey
smeyr
smith
smithsonian
smoke
smollett
smoo
smooinaghey
smooinaght
smooinaghtagh
smooinaghtoaylleeaght
smooinaghtyn
smooirlagh
smookal
smookeyder
sms
sn
snaefell
snag
snagchiaull
snaie
snaieagh
snaieyn
snake
snaue
snaueagh
snaueaneagh
snaueder
snauee
sniaghtee
sniaghtey
sniaul
sniaull
sniemmey
sniemmit
sniengan
snienganyn
sniessey
sniggal
snipe
snodaigh
snoggeyder
snooker
snow
snowman
snyder
so
soaigh
soar
sobrarbe
soc
soccar
soccer
soccerway
social
society
sociolinguistics
sociology
sockyr
soda
soderick
sodjey
sodjum
sodor
soe
sofascore
sofia
soft
software
soiag
soiagh
soiaghey
soiaghyn
soiagyn
soie
soieag
soillyn
soilsaghey
soilshaghey
soilshaghit
soilshaghyn
soilshean
soilsheanagh
soilshee
soilsheenee
soilsheeney
soilsheenyn
soilsheenys
soilshey
soilsheyder
soilsheyderyn
soilsheydys
soilshit
soit
sokuon
sol
solace
solanaceae
solanum
solar
solariella
soldier
soldiers
soli
solihull
solitaire
sollaghar
sollaghey
sollan
sollanyn
sollit
sollys
sollysh
sollyssid
solomon
som
soma
somaal
somaalish
some
somerled
somerset
something
somme
son
sonata
sonchus
sondage
sonderagh
song
songs
sonia
sonney
sonreeaght
sons
sony
soo
sooagh
soogh
sooill
sooillag
sooilley
sooillyn
soolagh
soolking
soolooish
soolynagh
soolynn
soolynnagh
soolynnee
soolynnish
sooree
soorinamagh
sophia
sophie
sophocles
sopot
sorbee
sorbish
sorbus
sorc
sord
soria
sornaigys
sorrow
soshialagh
soshiallagh
soshiallee
soshiallys
sostnagh
sostnee
sostyn
sostynagh
sostynee
sots
sotsialisticheskaya
sou
souad
souls
sound
sounds
souney
souraghyn
source
sourceforge
souree
sourey
sous
south
southampton
southend
southern
soveidjagh
soveidjee
sovet
sovetskaya
soylagh
soylee
soyley
soyllaghyn
soylley
sp
spa
spaag
spaaidjag
spaainagh
spaainaghyn
spaainee
spaainey
spaainish
spaanish
space
spacex
spaddylagh
spade
spaghetti
spain
spalding
spallanzani
sparkling
sparroo
sparrow
spd
spe
speak
speakers
speaking
spears
special
species
specimens
spectabilis
spectrum
speech
speed
speeideilagh
speeideilys
speeiney
speekag
speicher
speid
speied
spein
speiri
speke
spell
spellcoats
spencer
spenser
sperriu
speyr
speyragh
speyrey
speyryn
sphinx
sphinxyn
spider
spielberg
spieß
spike
spinosa
spios
spiossyn
spiral
spirit
spirocystyn
spitsbergen
spittag
spittal
spitzer
splash
spoar
spohttagh
spokane
spoken
sponk
spork
sporophyll
sporophyteyn
sporrag
sporragyn
sport
sporteyr
sportive
sports
spot
spotc
spotted
spoyrt
spoyrtagh
spoyrteyryn
spoyrtyn
sprache
spring
springfield
springs
sprite
spuir
spuit
spuitt
spy
spyrryd
spyrrydoil
spyrrydyn
spyrrydys
sq
sqi
squad
squadron
squadroon
squamata
square
sr
sra
sraith
srath
srd
sri
sruth
ss
sseldorf
ssp
st
sta
staaitchishtey
staanys
staartaght
staartaghyn
staartey
staayney
stabit
stac
stacy
stad
stadd
staddyn
staddyssaght
staddyssaghtoil
stadionas
stadt
stadyn
stafford
staffordshire
stage
staid
staidyn
staikey
staillin
staimyn
staimynyn
stainnagh
stainney
stalin
stamford
stampe
stan
stanbul
stand
standard
standing
stanford
stangey
stanlagh
stanleeyn
stanley
stanton
stap
stappal
star
stark
starkey
starlight
starling
starogard
starostin
starr
stars
start
starz
stasey
stashoon
stashoonyn
stat
state
staten
states
station
statistics
statue
statues
status
stay
stayd
staydraa
staydraaoil
staydyn
staydys
ste
steab
stealer
steam
steampunk
steaon
steat
steateyr
steatyn
steaytyn
steel
steele
steelers
steere
stefan
stein
steinbeck
steip
stella
steornavaie
step
stephanie
stephen
stephens
stephenson
ster
sterbotten
stercorarius
sterling
stern
sterna
sternag
steroidyn
sterrym
sterrymyn
steuart
steve
steven
stevenage
stevens
stevenson
stevie
stewart
sthaagey
sthie
sthilk
sthock
sthockyn
sthole
stholeyn
stholk
sthollane
sthollaneyn
sthoo
stiagh
stick
still
stipule
stipuleyn
stiur
stiurag
stiuraghyn
stiuree
stiurey
stiureyder
stiureyderyn
stiureydys
stiurit
sto
stoandey
stochowa
stockhausen
stockholm
stockport
stockton
stoecharthrum
stoke
stoker
stokes
stolon
stomata
stondane
stone
stones
stoo
stooaltane
stooaltaneyn
stooghyn
stop
stoppard
stopping
store
stori
storia
storie
stories
storm
stormont
story
stowell
stoya
stoyl
stoyll
stoyr
stoyral
stoyryn
str
stra
strabo
stracult
strah
strahovski
straid
straiddey
straiddyn
straidey
straidyn
straih
straihagh
straihyn
strandhill
strane
straneyn
strange
stranger
strangers
strasberg
stratavolcaan
stratavolcaanyn
strategy
strateysh
strateyshagh
strateyshyn
stratos
strauss
stravinsky
straw
streean
streeaney
streeanit
streebagh
streebee
streep
street
streeu
streeuder
streeuderyn
streeuyn
strelitz
streng
strengit
strengyn
strepaghyn
strepey
streymoy
strictly
strimmey
string
stripes
stroak
stroaney
stroanney
stroie
stroin
stroit
stroll
strong
strongbow
stronnag
stronnagh
stronnaghey
stronnaghys
stronnagyn
stronnee
stronney
stroo
strooan
strooanagh
strooaney
strooanyn
stroodeyr
strooghyn
strooh
strooley
stroos
strooyn
strophanthidin
stroshey
structure
structures
strughtoor
strughtooragh
strughtooryn
stu
stuart
stubbin
student
students
studeyr
studeyryn
studeyrys
studeyryssyn
studies
studio
studios
study
stuff
stuggan
stugganyn
stundayrt
stundayrtit
stundayrtyn
stunkard
stuttgart
style
styles
su
sua
subbuteo
subh
subject
subularia
subversive
successful
succession
such
sucre
sucrose
sud
sudbury
sudden
sudreys
suez
suffolk
sugababes
sugar
suicide
suite
sukhumi
sula
sulby
sulfaayt
sulfeed
sulfur
suline
sullivan
sultan
sum
sumatra
sume
summer
summers
summit
summum
sumy
sun
sunak
sund
sunday
sunderland
sung
sunny
sunrise
sunset
sunt
supe
super
superbike
supergirl
superman
sur
surexit
surf
surransagh
surranse
surrey
surtsey
survey
survivor
susan
sushtal
sushtallagh
sushtallaghtyn
sushtallee
sushtallyn
sushtallys
sussex
sutherland
sutton
suva
suzhou
suzuki
suðuroy
sv
svalbard
svanish
sve
sveinn
svg
svi
svislach
swadesh
swahilish
swan
swansea
swassee
sweden
sweeney
sweet
sweetin
sweetser
swift
swim
swindon
sword
sy
sydney
sykes
sylem
syllabics
sylvatica
sylvester
sylvia
sym
symbol
symney
symnit
symoil
symposium
symyn
syn
synagog
synagogyn
syndacait
syndrome
synge
syntax
syracuse
syrdjey
syrincs
syrjey
system
systematic
systems
sz
sza
szczecin
sze
szo
sztum
sørva
słupsk
t
ta
taabyl
taabylyn
taagher
taaghey
taah
taahit
taahyn
taaishnyssyn
taaley
taarnagh
taarnee
taartys
taaue
taaueagh
tabby
tablad
table
taboo
tadg
tae
taf
taft
taganrog
taggloo
taghyrt
taghyrtagh
taghyrtyn
taha
tahara
tai
tailed
taillaghyn
tailley
tailor
taipei
taishbynagh
taishbyner
taishbyney
taishbynit
taishbynys
taishbynyssyn
taitnys
taitnyssagh
taitnyssid
taiwaan
taiwaanagh
tajikistaan
tak
takahashi
take
takeru
takfarinas
taking
tal
taland
talbot
tale
tales
talk
talking
tallahassee
tallinn
talmud
talvador
tamaar
taman
tambia
tamer
tamhlacht
tamhnach
tamil
tamilish
tammy
tammylt
tampa
tampere
tampleyr
tamworth
tan
tanakh
tang
tangled
tania
tank
tanko
tankyn
tannaght
tannaghtyn
tannen
tansibar
tanzania
taoiseach
taoisigh
taos
tapp
tappee
tappeeys
tar
tara
tarantino
tarawa
tarbh
tardeen
tarhoilshagh
tarkyl
tarlheim
tarmaynagh
tarmaynee
tarmaynys
tarmaynyssyn
tarmestey
tarneyderyn
tarnobrzeg
tarnovo
tarot
tarpon
tarragh
tarrooagh
tarroogh
tartu
tarzan
tash
tashey
tashkent
tasht
tashtaghyn
tashtee
tashtey
tashteyder
tashtlann
task
taskmaster
tasmaan
tasow
tastagh
tastaghyn
taste
tastey
tastid
tat
tataragh
tatarish
tatarstaan
tatuz
tau
taubman
taunus
taurida
tavas
taves
taxon
taxus
taylor
tayrmanagh
tayrn
tayrnagh
tayrneyderyn
tayrnit
tayrnys
tayrnyssagh
tb
tbilisi
tbs
tchaikovsky
tchathach
tczew
td
tdyn
te
teach
teacher
teaching
teachta
teachtai
teaddyn
teallach
team
teamhair
teampall
teanga
teare
tears
teau
teaumey
teaym
teayst
teborg
technology
teck
tectonagh
ted
teddy
teelan
teelynn
teemor
teen
teenage
teens
teer
tees
teese
teesside
tehran
teicneolai
teihill
teihll
teihys
teihyssyn
teilifi
teionaght
teisht
teishtys
teiy
tej
teks
tekslioar
teksyn
tel
tele
telegraph
telescope
television
tell
temporaria
tempreilagh
tempreilys
tempreilyssane
tempreilyssaneyn
ten
tendeil
tendeilagh
tendreil
tenegaal
tenerife
tennessee
tennis
tennoragh
tennys
tenochtitlan
teoraghyn
tera
terb
terbish
tercera
terence
teresa
teri
term
termeeaght
terminal
terminology
terms
tern
ternopil
terra
terrence
territories
territory
terrug
terry
teruel
tesla
tesmad
tessen
tessera
test
tethys
tetrapoda
tetsuwan
teutoburg
teutonagh
texas
text
texts
textstyle
tey
teyrlann
teyrsnys
tezuka
tf
tg
th
tha
thai
thaidhg
thaimish
thair
thaish
thalloo
thallooin
thallooinagh
thallooinit
thalloon
thalloonit
thallooyn
than
thannaghey
thanney
thar
tharmane
tharmaneagh
that
thatcher
thayer
thchleas
the
theas
theater
theateragh
theateryn
theatre
theay
theayagh
thebes
thee
theer
theft
theihill
theihll
theiley
theill
their
them
then
theo
theodor
theodore
theory
there
theresa
thesaurus
thesis
thessalonianee
theta
they
thi
thiar
thibert
thie
thieoil
thieoilagh
thiers
thieves
thieyn
thieys
thimphu
thin
thine
thing
things
think
thiollane
thiollaneyn
thiolley
thiomargarita
this
thistle
thnaid
thoagyn
thoanagh
thoanney
thoir
thollag
tholtanyn
thomaase
thomas
thomase
thompson
thomson
thooillaghyn
thooilley
thor
thora
thoracks
thoracksagh
thorai
thorn
thornaby
thorne
thornton
thorpe
thorran
thorranyn
thortagh
thought
thousane
thousaneyn
thoyn
thra
thrall
three
threlkeld
thrinn
throated
thrones
through
thrush
thu
thuaidh
thulung
thumb
thumbnail
thumbtime
thummee
thummey
thummeyder
thummeyderyn
thummid
thummidagh
thunder
thunnag
thunnaghyn
thunney
thurrock
thy
ti
tia
tianjin
tibet
tibetagh
tibetan
tibetish
tibeto
tiddlywinks
tide
tidee
tideyr
tierra
tif
tiffany
tiger
tigernach
tigh
tiktok
tikva
til
tileesh
tileeshish
tilgaghyn
tilgey
tilgit
tilia
till
tim
time
timer
times
timesonline
timon
timothy
tina
ting
tinganes
tingyl
tinker
tinvaal
tir
tirana
tirane
tircis
tirol
tit
titan
titans
titchmarsh
titicaca
title
titrandi
tits
titus
tiudaragh
tiuder
tla
tlachtga
tmo
tn
tnt
to
toads
toan
toanyn
toaster
tobago
tobair
tobar
tobbyr
tobias
toby
toccer
tocharagh
tocharish
tod
today
todd
together
toghailt
toghailtyn
toghiaght
toghtey
togo
toiag
toiaghey
toiggal
toiggalagh
toiggaltagh
toiggaltys
toiggalys
toiggit
toilc
toilsheraght
toirc
toirrdelbach
tokavagh
tokelau
tokyo
tokyopop
told
toledo
tolerance
tolkien
tollan
toltec
tom
toma
tomaal
tomainaght
tomaineyn
tomas
tomasz
tomato
tomb
tombagey
tome
tomentosa
tomlinson
tomman
tommanyn
tommasi
tommy
tomorrow
tomos
tonga
tongey
tongue
toni
tonight
tonkin
tonn
tonnagh
tonnyn
tony
too
toodaan
tooder
tooill
tooilley
tooishey
tool
toole
toolynn
toolynnish
tooneesh
tooneeshagh
toonis
toor
toorinam
tooth
top
topanga
topeka
topic
tor
torah
toraigh
torc
toren
torfaen
tori
torino
torminalis
toronto
torpaid
torquay
torragh
torraghey
torraghys
torres
torrey
torsha
tort
torun
tory
toshee
tosheeaght
toshiagh
toshiaghey
toshiaght
toshiaghys
toshiallys
toshiee
toshtal
tosk
tostagh
tostid
tostyl
tostylyn
tottenham
touch
tough
toulouse
tour
tourcoing
touree
tourey
tourism
tower
towl
towlit
towlley
town
townsend
township
towo
towse
towseyn
towsh
towshan
towshanagh
towshanee
towshaney
towshanit
towshanyn
towshit
toy
toyrt
toyrtagh
toyrtys
tr
tra
traa
traagh
traaght
traaghtyn
traaghtys
traaghyn
traartys
traartyssyn
traase
traaseyn
traaue
tracey
tracheagyn
tracheidjyn
tracheidyn
tracy
tradishoon
tradishoonagh
tradishoonyn
tradition
traditional
traen
traenagh
traenal
traenyn
traffic
trafford
tragh
traght
traghtal
traghtalagh
traghtee
traghtey
traghteyr
traghteyryn
tragic
traid
traie
traieyn
traih
train
training
trajan
trajans
tralee
tram
tramman
tramp
tramyn
tranlaasagh
tranlaase
tranmere
tranny
trans
transactions
transamerica
transferrin
transgender
transit
translation
transnistria
transport
transsensual
transsexual
transylvania
trask
trasna
trass
traveller
travellers
travels
travis
travolta
tre
treacy
trean
treanid
treasure
treasury
treatment
treats
tredegar
tree
treealagh
treealtys
treealtysyn
treealys
treeghaagh
treen
treeoo
trees
treeskeealag
treger
tregerish
treigit
treiglad
treih
treisht
treishteilee
treishteilys
treishtit
trek
trellag
trent
treoghe
treoin
treshlen
trey
tri
tria
triadobatrachus
trial
triangle
triangulum
triassagh
tribe
tribune
trichoplax
trick
trie
trieghyn
trieyn
trillioon
trimmey
trimmid
trimmidagh
trimshagh
trinaid
tringa
trinian
trinidad
trinity
triple
tripoli
triskelion
tristan
triton
triumph
tro
troa
troaghyn
troailt
troailtagh
troailtaghey
troailtee
troailtys
troar
troarag
troaragagh
troaragh
troaraght
troaragyn
troarey
troarit
troaryn
troddan
troddanagh
troddanyn
troggal
troggalagh
troggalaght
troggalit
troggallyn
troggalyn
troggalys
troggalyssyn
troggee
troggeyder
troggeyderyn
troggit
trogh
troiddey
troim
trol
trome
tromey
tromlagh
tromman
trondheim
trongisva
trood
trooid
troor
troorane
trooraneagh
trooreen
trophe
trophophyll
tropical
troshey
troshtagh
troy
troyn
trubbylyn
trubetzkoy
trudgill
true
trughanagh
trujillo
truman
trump
truss
trust
trustyr
truth
trutlag
trwynol
ts
tsalainn
tsar
tscheremissischen
tshanglaish
tsocair
tsratha
tsu
tsunami
tt
ttir
tu
tuar
tuarastyl
tuarastyllyn
tuarastylyn
tuarym
tuarymyn
tuarystal
tuarystallys
tuarystalyn
tuathail
tuathnorth
tuberosum
tuberosus
tuchola
tuck
tucker
tudful
tudjeen
tudjeenyn
tudyk
tuill
tuinney
tuittym
tuittymagh
tul
tulach
tullagh
tumblr
tundra
tundrey
tunes
tungsten
tungusagh
tuone
turdus
turf
turing
turkagh
turkaghtyn
turkee
turkish
turkmenish
turkmenistaan
turku
turlach
turlaigh
turner
turneyr
turneyryn
turnip
turnips
turrys
turrysagh
turrysaght
turrysee
turrysid
turryssagh
turryssee
turryssyn
turtylyn
tuscaanagh
tushtal
tushtey
tuum
tuvalu
tuzla
tv
tvoje
tvøroyri
twahilish
twain
tweet
tweetyn
twelve
twentieth
twenty
twi
twilight
twist
twisted
twitter
two
twoaie
twoaieagh
twoie
tx
ty
tya
tyddewi
tydfil
tyler
tyndall
tyne
tyneside
tynwald
typha
tyson
tywyn
tønsberg
tłı
tə
u
ua
uachtair
uachtara
uachtarach
ual
uci
ucla
ud
udaina
udmurt
udmurtish
ue
uefa
uesca
uetersen
ughtar
ughtaryn
ughtarys
uhel
ui
uill
uillin
uillinagh
uinnag
uk
ukaccessiontreaty
ukl
ukowo
ukraine
ukrainian
ula
uladh
ulan
ulf
ullanish
ullans
ullee
ulley
ulliel
ulmer
ulste
ulster
ultagh
ultimate
ultra
ulysses
um
umbilicus
umbyl
un
una
unaneyssit
unbearable
unchillagagh
uncle
und
undaagagh
undaagee
under
undercover
underground
understand
understanding
underwood
undin
undinagh
undinys
undinyssyn
une
unesco
unexpected
ungaar
ungaaragh
ungaaree
ungaarish
ungaarisheyryn
unheeleydagh
unicef
unicode
union
unit
united
univ
universal
universals
universe
universelle
universite
universities
university
unjin
unnanaghey
unnanaghit
unnane
unnaneagh
unnaneaghey
unnanee
unnaneyns
unnaneys
unnaneysagh
unnaneysee
unnaneysey
unnaneyseyryn
unnaneysit
unnaneyssey
unnaneyssit
unnaneyssyn
unnid
unnidagh
unnidyn
unnish
uno
unscr
unshagh
uo
up
upernavik
upon
uppsala
upright
upss
uraanus
uranus
urban
urbana
uria
urla
urley
urree
urticae
urza
us
usa
usc
usda
use
used
usenet
usgs
ushag
ushagyn
ushaw
usher
ushlagh
ushlee
ushtagh
ushtaghey
ushtaghyn
ushtar
ushtee
ushtey
ushylagh
ushylee
uss
ustinov
ustka
usually
ut
utah
utc
utrecht
uu
uusimaa
uyezd
v
va
vaagh
vaaghyn
vaaish
vaare
vaarle
vaarool
vaase
vaataghyn
vaatey
vaayl
vabbagh
vac
vacteyr
vacteyrofagagh
vacteyryn
vad
vadagascar
vaddaght
vaduz
vael
vaghee
vagher
vagheragh
vagheryn
vaghouin
vaght
vaghtal
vaghtoor
vagnaidagh
vagnaishum
vagur
vahlhausen
vaie
vaik
vaillant
vainney
vainshtyr
vair
vaisantagh
vakin
val
valaysia
valde
valdez
valdømi
vale
valee
valencia
valenciennes
valensish
valentina
valentine
valera
valerie
valjagh
valjaght
valjaghtyn
valjey
valjyn
valkanagh
valladolid
vallay
valle
vallejo
valletta
valley
valloo
valoc
valor
valta
valtagh
valtish
value
vampire
van
vananan
vanannan
vanc
vanchuin
vancouver
vanda
vandarin
vane
vanessa
vaney
vanga
vangladesh
vanglane
vanglaneyn
vann
vannee
vannes
vanney
vannin
vanninagh
vannishter
vannor
vantaa
vanuatu
var
varaigyn
varbagh
varc
vard
vardaght
varel
varennym
varganey
vargeeaght
vargey
varitaan
varksagh
varksaght
varkys
varkysh
varoc
varockagh
varoneetagh
varr
varrantagh
varranys
varrey
varriaght
varriaghtyn
varroo
varshyl
vart
varuna
vascagh
vascish
vashkortostaan
vasil
vasoonagh
vass
vassadoan
vassadoanish
vasseydoan
vatenberg
vathek
vaughan
vaveyr
vavilov
vay
vaylart
vayleeaght
vayr
vayrey
vayrnt
vayrt
vayryn
vdalish
ve
vea
veader
veagh
veaghagh
veaghee
veagheeyn
veaghey
veain
veainagh
veaineraght
veainey
veainyn
vean
veanagh
veanaghey
veanit
veanvooir
veanvooiragh
veanvrastyl
veashneyderyn
veashnys
veashnyssagh
veayn
veaynushag
vecho
vecsico
veddyn
vedshin
vee
veeaghee
veeaghey
veeagheyder
veeagheyderyn
veeal
veedyr
veeghyn
veeilaghyn
veeiley
veeilley
veein
veen
veenaghey
veenid
veenidyn
veer
veerys
veeryssyn
veerysyn
vees
veeylyn
veg
vega
vegas
veggan
veggey
veglia
veh
veih
veihyn
veill
veillagh
veishteigyn
veiyn
veksicagh
veksico
vel
vela
velaneesh
velaroosh
velarooshish
veleesh
velg
velgagh
veliko
vella
vellyn
velmayd
velvet
ven
vende
vendita
veneesh
veneeshish
veneswaalagh
veneswaaley
venkid
vennick
venom
venrein
ventral
ventura
ventyr
ventyryssyn
venus
veoir
veoiraght
veoiraghtyn
veoiryn
vepsee
vepsish
vepsisheyryn
ver
vera
verb
verbena
verbs
verc
vercur
verdi
vergara
vergish
verlag
verleen
vermeer
vermont
verna
verne
vernon
veronica
verragh
verrier
verrish
versailles
verse
vertebra
vertebrae
vertebragh
vertebraghyn
vertebrata
vertebree
verthyr
vervine
very
verym
verys
verði
veshtallagh
vesoamerica
vespucci
vess
vessyn
vestey
vestit
vestmanna
vestmannabjørgini
vez
vgys
vi
via
viallagh
viallys
vian
vible
vic
vicar
vice
vicente
vicinity
vickers
victims
victor
victoria
victorianagh
victorious
victory
vida
vidal
video
vie
vieauid
vientiane
vietnam
vietnamagh
vietnamish
view
vigdi
viggar
vihan
vii
viii
viking
viktor
vil
vila
viljyn
villa
village
villagh
ville
villegailhenc
villemarque
villeneuve
villeret
villey
villioon
villish
villoon
vilnius
vimeo
vinca
vince
vincent
vinci
vine
vineen
ving
vinishter
vinishteryn
vinnid
vio
vioag
vioagh
vioagyn
vioee
vioghey
vioghit
vioghys
viol
viola
violence
violet
vioys
vir
virgil
virgin
virginia
virjeeney
virtual
viscaayn
viscount
vishaghey
vishee
visheydys
vision
visit
vista
vita
vitali
vitoria
vitro
vittoria
vivian
vivid
vivien
vixen
viz
viðareiði
viðoy
vlaa
vlaaghey
vlaaghyn
vlaagyn
vladimir
vlass
vlasstal
vleayst
vleaystaghyn
vleaystan
vleaystey
vleeanagh
vleeaney
vleeantyn
vlein
vleinoil
vlock
vluckan
vluckaneyr
vluckaneyrys
vn
vo
voaid
voal
voaldyn
voalley
voallit
voan
voawir
voayl
voayrd
vocabulary
vochilley
vockley
vocklyn
vod
voddagh
voddee
voddey
vodjal
vodka
voee
vog
voggyl
voggylagh
voghrey
voghtinys
vogue
voice
voices
voidjyn
voidyn
voir
voirrey
voish
voivode
vojvodina
vol
volcaan
volcaanagh
volcaanaghys
volcaanyn
voldaav
voldova
volg
volga
volgan
volivia
vollagh
volley
volleydagh
volodymyr
vologda
vols
volume
vomentum
von
vona
vonaco
vondeish
vondeishagh
vondeishyn
vongoil
vongoilagh
vontenegrish
vooad
vooadaghey
vooadee
vooadys
vooan
vooar
vooarey
vooarheer
vooarheeragh
voodeeys
vooghee
vooie
vooinjer
vooinjeragh
vooinjerys
vooir
vooiragh
vootaan
vor
vora
vorpommern
vors
vort
vosambeeck
voses
voslymagh
vosnish
voss
vost
voston
votagh
votal
vote
voteyn
votish
votswaan
voue
vouesyn
vouin
vour
vous
voy
voyage
voyager
voyllagh
voyllaghyn
voylley
voyn
voznesensky
vraag
vraane
vraar
vradda
vraddagyn
vraddan
vraew
vrangisheyryn
vras
vrash
vrasnee
vrasseel
vrasseelagh
vrastyl
vrat
vrattagh
vrebbal
vreck
vree
vreear
vreearyn
vreeockle
vreeshey
vreid
vreizh
vreneen
vreneenagh
vreneenyn
vretin
vretnagh
vretnish
vretyn
vreyagh
vrish
vrishey
vrisht
vristol
vritaan
vritaanagh
vritaanish
vriw
vriwnys
vriwnyssagh
vro
vroca
vronchyssyn
vroo
vroogh
vrown
vrussyl
vrythonagh
vrythonish
vs
vu
vuc
vud
vuggane
vuigh
vuill
vuillagh
vuilley
vuinaghan
vuinneelagh
vuir
vuirchol
vuird
vuitton
vuk
vulcan
vulgare
vulgaris
vulgeyr
vulgeyrish
vullagh
vulley
vun
vunlaa
vunnaghey
vunneeaght
vunney
vunneydagh
vunneyder
vunnit
vunraght
vunraghtoil
vunscoill
vunstoo
vunstooghyn
vurgoon
vurmey
vus
vutaan
vvo
vwirranyn
vy
vyn
vynchooishee
vynlagh
vynneeys
vynoltyn
vynreayrtagh
vynreayrtan
vynsheean
vynvioee
vynviogaghagh
w
wa
waagh
wabash
wade
waffen
wagner
wagtail
wake
wakefield
wakeman
wald
waldron
wales
walfrid
walk
walker
walking
wall
wallace
wallis
wallkill
walloon
walloonish
wally
walpole
walsall
walsh
walt
walter
walton
wambule
wan
wanda
wanderers
wanderings
wandrail
wang
wanna
wannal
wannalagh
want
wappin
war
warbler
warburg
warburton
ward
wardysyn
warmia
warming
warner
warp
warren
warrington
warriors
wars
warsaw
warszawa
warta
warte
warton
warwick
warwickshire
was
washington
wasmann
wasserscheid
watch
watchmen
water
waters
watertown
watford
watson
watterson
waugh
wave
waverley
way
wayne
ways
wayuu
wazeg
wb
wbo
we
weakest
wealas
wear
weary
web
webcomic
website
webster
weddell
wedding
weddings
wednesday
wee
weeds
week
weekly
weern
weihnachtsmann
weimar
weir
weird
weismain
wejherowo
welch
welcome
well
wellington
wells
welmann
welmoon
welsh
wendy
weppes
were
werner
wes
weser
wesley
wessex
west
westblad
western
westfalen
westlife
westminster
westmorland
westphalen
wet
weyden
wh
whaagh
whaalid
whaiyl
whaiylagh
whalleeaght
whantum
what
whatever
wheatear
wheddyryn
wheel
wheeler
wheels
wheesh
wheeyl
wheeylleyder
wheiggaghyn
wheiggey
wheiggoo
wheigoo
when
where
which
while
whingaghey
whingys
whitaker
whitbread
white
whitehorse
whitney
who
whole
why
wiar
wichita
wick
wicked
wide
widow
wie
wiecie
wielkopolska
wielkopolski
wien
wiener
wiesbaden
wigan
wiggynagh
wiggynee
wiggynnee
wiki
wikimedia
wikipedia
wilbur
wild
wilde
wildlife
wiley
wilfred
wilfrid
wilhelm
wilhelmina
wilkins
wilkinson
will
willard
willem
william
williams
willie
willis
willows
willsher
wilmer
wilmington
wilson
wiltshire
wimbledon
win
winchester
wind
windhoek
window
windows
windsor
winehouse
wing
wings
winifred
winnie
winning
winsen
winston
winter
winters
wire
wirral
wirran
wirrish
wisconsin
wisdom
wise
wish
wisła
witch
with
witherspoon
within
without
witness
witt
wittgenstein
witton
witwatersrand
wives
wlad
wo
woaill
woaillee
woalley
woda
woese
woirrin
woirrinagh
woish
wojewo
wola
wolf
wolfe
wolfgang
wolverhampton
woman
women
won
wonder
wonderland
wong
wood
woodrow
woods
wooise
wooishlagh
woolf
woolton
worcester
worcestershire
word
words
wordsworth
work
workers
working
workman
works
workshop
world
worthies
wouin
would
wreck
wreckers
wrecsam
wren
wrexham
wright
write
writers
writing
written
wrocław
wta
wu
wuhan
wuigh
wuish
wus
ww
www
wyatt
wycliffe
wycombe
wyddgrug
wylie
wyllin
wyn
wynn
wynne
wyoming
wyrwał
wysg
władysławowo
włocławek
x
xbiz
xenon
xenoturbella
xey
xi
xian
xianfan
xiang
xico
xigaze
xii
xinjiang
xiv
xml
xrco
xvi
xxvii
xxviii
xxx
y
ya
yacob
yafo
yakthungish
yale
yalloo
yallooyn
yamaicagh
yamaicey
yamoussoukro
yamphu
yamys
yan
yangtze
yanka
yann
yannoo
yantagh
yantys
yantyssyn
yaounde
yaren
yasmin
yasmine
yates
yazzie
ye
yeaman
yeant
year
yearbook
yearreeyn
years
yeats
yeaylin
yee
yeeagh
yeeaght
yeeaghyn
yeeallyn
yeearree
yeearreeaght
yeearreyder
yeearreyderyn
yeearreydys
yeearrit
yeeast
yeeastyn
yeenaght
yeeneysoaryn
yeeragh
yeeraghey
yeeralparil
yees
yeesey
yeesooagh
yeh
yehuda
yei
yeianagh
yeig
yeih
yeihaght
yellow
yellowknife
yeltsin
yen
yeoraght
yer
yerevan
yerkal
yernagh
yernee
yernish
yernisheyryn
yerree
yerrey
yerrinagh
yersee
yes
yesh
yeshaght
yeshaghteyr
yesheenaghey
yeshiva
yet
yi
yialgagh
yiall
yiare
yiarg
yiargey
yiarn
yiarney
yiarrey
yiass
yiassagh
yienneydagh
yiense
yientynagh
yindys
yindyssagh
yindyssyn
yinnagh
yioghe
yiooldagh
yiooldee
yiooldey
yisrael
yitzhak
yl
yllagh
yllaghey
yllee
ym
yml
ymmd
ymmoddee
ymmodee
ymmyd
ymmydagh
ymmydee
ymmydey
ymmydeyr
ymmydeyryn
ymmydit
ymmydoil
ymmydyn
ymmyl
ymmyllagh
ymmyltee
ymmyrc
ymmyrkagh
ymmyrkee
ymmyrkey
ymmyrkit
ymobbraghey
ymobbreeagh
yn
yna
ynesteeaght
ynlaghey
ynlaght
ynlaghteyr
ynlaghteyryn
ynlaghtyn
ynneig
ynnyd
ynnydagh
ynnydaght
ynnydee
ynnydoil
ynnydyn
ynrican
ynrickan
ynsagh
ynsaghey
ynsaghit
ynsee
ynseydagh
ynseydee
ynseyder
ynseyderyn
ynsit
ynstaair
ynveanagh
ynys
yo
yoal
yoarree
yohn
yoko
yolŋu
yongle
york
yorkshire
yosemite
yoshkar
you
yough
young
youngstown
your
youth
youtube
yr
yrdjaghey
yrdjey
yrdjid
yrdjidagh
yrjaghey
yrjaghyn
yrjee
yrjey
yrjid
yrjidyn
yrjit
ys
ysaig
ysbal
yssaght
ysseraght
yu
yuan
yude
yugoslaavagh
yugoslaavey
yukon
yunnan
yuri
yves
yvonne
yw
z
za
zachary
zack
zagreb
zalgiris
zandt
zane
zap
zaporizhzhia
zaragoza
zblewo
zdf
ze
zechariah
zed
zee
zeiss
zeit
zeitschrift
zeitz
zelenskyy
zendaya
zephaniah
zephyrus
zero
zeus
zha
zhangzhung
zhe
zhejiang
zheng
zhengzhou
zhi
zho
zhuang
zi
zidi
ziegler
zielona
zilveren
zimmer
zimmerman
zinzag
zo
zoe
zoey
zohary
zohre
zol
zombieland
zone
zoo
zoology
zoom
zoqueagh
zquez
zu
zuckermann
zug
zur
{
|
}
~
¡
£
§
¨
¯
°
±
²
³
´
·
½
×
ß
æ
ð
ðreyjar
ø
øresund
þ
þe
þingvellir
þitt
þjo
þo
þu
þvi
đo
ı
ł
łeba
łine
ło
łobez
łobzie
ŋ
ſhin
ƕ
ɑ
ɔ
ə
ɟ
ɡ
ɡe
ɣ
ɪ
ɫ
ɲ
ɹ
ɾ
ʃ
ʐ
ʒ
ʕ
ʝ
ʣ
ʤ
ʥ
ʦ
ʧ
ʨ
ʰ
ʲ
ʻ
ʼ
ʾ
ʿ
ˀ
ˈ
ˌ
ː
ˠ
ˣ
̀
́
̂
̃
̄
̆
̇
̈
̉
̊
̋
̌
̓
̔
̚
̛
̝
̣
̤
̥
̦
̧
̨
̩
̪
̮
̱
̺
͂
ͅ
͠
͡
α
β
γ
γε
δ
δρα
ε
ευ
ζ
ζω
η
θ
ι
κ
λ
λιον
μ
ν
νεσις
ξ
ξοδος
ο
ον
π
ρ
ρα
ς
σ
της
υ
φ
χ
ω
ϕ
ϝ
а
в
г
д
е
з
и
к
ка
л
м
марии
мост
н
на
о
п
по
республика
республикасы
россии
с
ская
скии
ского
совет
советская
социалистическая
т
у
ф
ч
э
я
языка
языки
є
і
ґ
ӈ
ӕвзаг
ִ
ָ
ּ
ד
ו
י
ש
ا
ع
ٓ
ٔ
ی
܀
ܢ
ई
क
ज
द
न
प
ब
भ
म
य
र
ल
व
श
ष
ह
़
ा
ि
ी
ु
ू
े
्
ਂ
ਦ
ਲ
ਿ
ੀ
ੱ
ખ
ર
સ
ા
ો
્
ด
บ
ภ
ย
อ
ั
་
ང
ད
ན
བ
ལ
ས
ོ
ྐ
ྔ
ྗ
ྱ
​
‌
‎
‑
–
—
‘
’
“
”
„
†
‡
•
…
′
″
⁄
⁠
₂
€
₴
→
↔
↷
∀
∆
−
√
≈
③
④
⑦
─
└
├
△
☉
♀
♁
♂
♄
♇
⚳
⯓
⯰
ⴰ
ⴱ
ⴻ
ⴽ
ⵉ
ⵍ
ⵎ
ⵓ
ⵔ
ⵖ
⺀
⺄
⺆
⺈
⺊
⺌
⺕
⺝
⺸
⺼
⿰
⿱
⿲
⿳
⿴
⿵
⿶
⿷
⿸
⿹
⿺
⿻
「
」
〢
い
う
お
か
き
っ
て
と
な
に
の
は
ゃ
や
ゅ
ゆ
ょ
よ
ろ
を
ん
゙
゚
゛
゜
ア
ィ
イ
ウ
エ
ォ
オ
ク
ケ
コ
サ
ス
ソ
タ
ッ
テ
ト
ハ
ヒ
ヘ
マ
ミ
ム
ュ
ユ
レ
ロ
ヲ
ン
ー
㇁
㇂
㇄
㇇
㇈
㇉
㇓
㐁
㐄
㐅
㐌
㐫
㐬
㐭
㐮
㐱
㑒
㒵
㒸
㒼
㓁
㓞
㔾
㕛
㕣
㖾
㘝
㚅
㚇
㚔
㚘
㝉
㝡
㝴
㝵
㞋
㞢
㞷
㠩
㠭
㠯
㡀
㡭
㡿
㢲
㢴
㣇
㣺
㥯
㪅
㫄
㫐
㫒
㫺
㬅
㬎
㬥
㬰
㲋
㳄
㷠
㸒
㸚
㸦
㼌
㼲
㽞
㿟
䀠
䂞
䍃
䏍
䒑
䖍
䖒
䖝
䖵
䙴
䚻
䜌
䝿
䡛
䧹
䪞
一
丁
丂
七
丄
丅
丆
万
丈
三
上
下
丌
不
与
丏
丐
丑
专
且
丕
世
丘
丙
业
东
丞
丢
丣
两
严
並
丨
丩
个
丫
丬
中
丮
丰
丱
串
临
丵
丶
丷
丸
丹
为
主
丽
丿
乀
乂
乃
久
乆
乇
么
义
之
乌
乍
乎
乏
乐
乑
乔
乖
乗
乘
乙
乚
乛
乜
九
乞
也
习
乡
乳
乾
亀
亅
了
亇
予
争
事
二
亍
于
亏
亐
云
互
亓
五
井
亘
亚
亜
亞
亟
亠
亡
亢
交
亥
亦
产
亨
亩
享
京
亭
亮
亯
亰
亲
亳
亶
亷
人
亻
亼
亾
仁
今
介
仌
从
仐
仑
仒
仓
仕
他
付
仝
代
令
以
仮
任
企
伊
伏
伐
休
会
伯
但
位
体
何
佘
余
作
佥
使
來
侈
侌
侖
侯
侵
便
保
俞
信
修
倉
倍
候
倠
傈
備
傣
僉
僕
僳
儿
兀
允
兂
元
兄
充
兆
兇
先
光
兊
克
兌
免
兑
兒
兓
兔
党
兜
兟
入
全
兩
兪
八
公
六
兮
兰
共
关
兵
其
具
典
兹
兼
冀
冂
冃
冄
内
冈
冉
冊
冋
册
再
冎
冏
冐
冒
冓
冖
冗
冘
军
农
冝
冡
冥
冫
冬
冷
几
凡
凢
凵
凶
凷
凸
凹
出
函
凾
刀
刁
刂
刃
刄
刅
分
切
刍
刑
刕
刖
列
刘
则
初
別
利
别
到
制
刺
則
削
剌
前
剡
剽
劉
力
功
加
劦
助
劫
劳
劵
勃
勇
勉
勒
動
務
勞
勤
勹
勺
勻
勾
勿
匀
匂
包
匆
匈
匊
匋
匍
匕
化
北
匚
匝
匡
匪
匱
匸
匹
区
医
匽
匿
區
十
卂
千
卄
卅
卆
升
午
卉
半
卌
华
卑
卒
卓
单
卖
南
卜
卝
卞
占
卡
卢
卣
卤
卦
卩
卪
卬
卯
印
危
即
却
卵
卷
卸
卻
厂
厃
厄
历
厈
厉
厌
厓
厘
厚
原
厤
厥
厨
厭
厲
厶
厷
厸
去
厼
厽
叀
参
參
叅
又
叉
及
友
双
反
収
叐
发
叒
叔
叕
取
受
叚
叜
叟
口
古
句
另
叩
只
召
可
台
叱
史
右
叵
号
司
叹
吂
各
吅
合
吉
吊
吋
同
名
后
吏
向
吕
君
吝
吞
否
含
启
吳
吴
吹
吾
呂
呆
呈
告
员
呙
周
命
咅
和
咎
咠
咢
咨
咸
咼
哀
品
哈
哉
員
哥
哲
唐
商
啇
問
啚
啬
啻
喀
善
喜
喬
單
喿
嗇
噩
嚴
囊
囗
囘
囙
囚
四
回
囟
因
囧
囬
困
囱
囷
固
国
圂
圅
國
圍
圓
土
圡
圣
圥
在
圭
地
圶
圼
坐
坒
坚
坴
垂
垔
垚
埀
埋
埶
執
基
堂
堅
堆
堇
堯
塞
墨
壘
士
壬
壮
壯
声
壳
壴
壹
壺
壽
夂
处
夅
夆
备
変
夊
夋
夌
复
夏
夒
夕
外
夗
夘
多
夜
夢
大
夨
天
太
夫
夬
夭
央
失
夲
头
夷
夸
夹
夻
夾
奂
奄
奇
奈
奉
奎
奏
奐
契
奓
奔
奚
奞
奠
奢
奥
奭
女
奴
奻
好
如
妄
妙
妟
妥
妻
妾
始
姑
委
姜
威
娄
婁
婴
嬰
嬴
子
孑
孔
孕
孖
字
存
孚
孛
孝
孟
季
孤
学
孫
孱
學
宀
宁
宂
它
宅
宇
守
安
宋
完
宏
宓
宗
官
定
宛
宜
宝
客
宣
室
宮
宰
害
家
容
宾
宿
寄
寅
密
富
寒
察
寧
審
寫
寬
寮
寸
对
寺
寻
寽
対
寿
封
尃
射
将
將
專
尉
尊
尋
尌
對
小
少
尒
尓
尔
尖
尗
尚
尞
尢
尣
尤
尧
尨
尭
就
尸
尹
尺
尻
尼
尽
尾
尿
局
居
屈
屋
屎
屏
屑
展
屖
屚
属
屠
屡
屬
屮
屯
屰
山
屵
屾
岁
岂
岑
岡
岩
岳
岸
峯
島
崇
崑
崔
崖
崙
崩
嵬
嶲
巂
巛
川
州
巟
巠
巢
巤
工
左
巧
巨
巩
巫
差
己
已
巳
巴
巷
巸
巽
巾
巿
帀
市
布
希
帚
帛
帝
带
師
席
帶
常
干
平
年
幵
并
幷
幸
幺
幻
幼
幽
幾
广
広
庄
庆
床
底
店
庚
府
度
庫
庭
庶
康
庸
廉
廌
廛
廣
廩
廴
延
廷
建
廾
廿
开
弁
弃
弄
弇
弋
式
弓
弔
引
弗
弘
弜
弟
弥
弦
弱
張
強
强
彊
彌
彎
彐
彑
当
彔
录
彖
彗
彝
彡
形
彥
彦
彧
彭
彳
役
彼
往
待
律
徒
得
徙
從
復
微
徵
德
徽
心
忄
必
忌
忍
志
忝
忠
忩
快
念
忽
忿
怒
思
怠
急
性
怱
恆
恒
恩
恭
息
悉
患
悤
悲
悶
惠
惡
惢
愁
愈
意
愛
感
慈
慧
慮
慶
憂
憲
應
戀
戈
戉
戊
戋
戌
戍
戎
成
我
戒
戔
或
戚
戠
戢
截
戲
戶
户
戹
戼
戾
房
所
扁
扇
手
扌
才
打
托
执
承
折
拉
拜
拿
掌
推
提
搖
摇
摩
支
攴
攵
收
攸
改
放
政
敄
敏
敕
敖
敗
敝
敞
敢
散
敦
敫
敬
数
敷
數
斂
文
斉
斊
斗
斤
斥
斩
斬
斯
新
方
於
施
斿
旁
旋
族
无
旡
既
旣
日
旦
旧
旨
早
旬
旱
旲
时
旾
昆
昇
昌
昍
明
昏
易
昔
昗
昜
星
春
昬
昭
是
昱
昴
昷
時
晃
晋
晏
普
景
晶
智
暑
暴
曇
曩
曰
曲
曳
更
曷
書
曹
曼
曾
替
最
朁
會
月
有
朋
服
朔
朕
朗
望
朝
木
朩
未
末
本
札
朮
术
朱
朵
朶
朿
杀
杏
杜
束
条
来
東
杲
杳
松
析
林
枚
果
枝
枲
枼
某
柔
查
柬
柰
柴
栗
桀
桑
桼
梁
條
梟
梨
棘
棠
棥
森
楚
業
楽
榮
樂
樊
欠
次
欣
欮
欲
欶
欽
款
歆
歇
歛
止
正
此
步
武
歨
歪
歮
歯
歰
歲
歴
歷
歸
歹
歺
死
殳
段
殷
殸
殹
殺
殻
殿
毋
毌
母
每
毒
比
毕
毚
毛
毳
氏
氐
民
气
氣
水
氵
氶
氷
永
氺
氾
求
汉
汝
汞
江
沃
沓
沙
沝
沧
河
治
泉
法
波
泣
泥
泰
洛
津
洪
洱
活
派
流
浙
浦
浪
浮
海
淡
淮
清
渚
渠
湖
湯
溪
滚
滾
滿
漢
漸
火
灬
灭
灰
灵
灷
炅
炎
炏
炗
炙
炭
為
烈
烏
烝
焉
無
焦
焱
然
煞
熊
熏
燕
營
燭
燮
爪
爫
爭
爯
爰
爱
爲
爵
父
爻
爽
爾
爿
片
版
牙
牚
牛
牜
牟
牢
牧
牪
牽
犀
犬
犭
犮
狂
狄
狊
独
狺
猋
猒
猪
献
獒
獻
玄
率
玉
王
玟
玨
现
珎
班
現
理
琴
瑟
瑩
璠
瓜
瓦
甘
甚
生
産
用
甫
甬
田
由
甲
申
电
甶
男
甸
甹
画
甾
畀
界
畏
畐
留
畜
畟
畢
畧
畨
番
畫
異
畱
當
畺
畾
疆
疊
疋
疌
疑
疒
疾
癶
癸
癹
登
發
白
百
皀
皃
的
皆
皇
皋
皐
皕
皮
皷
皿
盃
盆
盇
盈
益
盍
盎
监
盒
盖
盛
盡
監
盤
盧
目
直
相
盾
省
眇
眉
看
眔
眞
真
眷
眼
眾
着
睘
睪
睿
瞏
瞢
瞿
矍
矛
矞
矢
矣
知
矦
短
石
破
硏
碎
磊
磨
示
礻
礼
祖
祟
票
祭
禀
禁
福
禸
禹
禺
离
禽
禾
禿
秀
秃
秉
秋
科
秝
秦
移
稟
穀
穌
穫
穴
究
穹
空
穿
突
窄
窒
立
竒
竜
竝
竟
章
童
竹
笑
笠
筆
等
答
箇
箕
算
箴
節
篤
篭
米
粉
粛
粟
粤
粦
粲
糞
糸
糹
系
約
納
素
索
紫
累
細
絜
絫
絲
維
綿
縣
繇
纍
纟
红
纳
缶
网
罒
罔
罕
罗
罙
罡
罢
罪
署
罷
羅
羊
羌
羍
美
羔
羕
羗
羞
羡
羣
群
義
羲
羸
羽
翁
翏
習
翕
翟
翠
翼
老
耂
考
者
耆
而
耎
耑
耒
耳
耴
耶
耷
聂
聊
聖
聚
聶
聿
肀
肃
肅
肉
肖
肙
肥
肩
肯
育
肴
胃
背
胡
胥
能
脊
脩
膚
臣
臤
臧
自
臬
臭
臯
臱
至
致
臺
臼
臽
臾
臿
舀
舂
舄
與
興
舉
舌
舍
舛
舜
舞
舟
般
艮
良
色
艸
艹
艾
芒
芔
芝
芬
芮
花
芳
芺
芻
苏
苔
苗
苟
若
苦
英
茶
茸
荅
草
荒
荣
荼
莆
莧
莫
莽
菆
菊
菐
華
萨
萬
落
葉
著
葛
董
葵
蒙
蒦
蒼
蓋
蓬
蓺
蔑
蔡
蕉
蕭
薄
薛
薦
薰
藍
藏
藥
蘇
蘭
虍
虎
虐
虒
虔
處
虖
虗
虘
虚
虛
虜
虞
虫
虽
蚤
蚩
蜀
蜜
蝋
蟲
蠡
血
行
衍
衛
衣
衤
表
衮
衰
袁
袞
褭
褱
襄
襾
西
覀
要
覃
見
規
覓
覧
親
覽
见
角
解
言
訁
訇
計
詹
誕
語
誩
論
諸
讠
诞
语
谷
豆
豈
豊
豐
豕
豖
豙
象
豦
豩
豪
豫
豸
貇
貝
貞
貟
負
貢
貧
貪
貫
責
貳
貴
買
費
賁
資
賈
賏
賓
賔
賛
賞
賢
賣
質
賴
贊
贝
贡
责
贯
贲
贵
赖
赞
赤
赦
走
越
足
路
蹇
身
躬
車
軍
軎
軟
輦
车
辛
辜
辟
辥
辰
辱
農
辵
辶
边
辽
达
过
近
连
迪
迷
追
退
送
逆
逐
通
速
造
逢
連
逮
進
遀
遂
過
道
達
遣
適
遷
遺
遼
邊
邑
邕
那
邦
邪
郎
郑
部
郭
都
鄉
鄭
酉
酋
配
酓
釆
采
里
重
野
量
金
釒
錢
钅
長
镸
长
門
閃
閉
開
閏
閑
閒
間
閔
閵
閻
闌
门
间
闷
阑
阜
阝
阿
降
陕
陝
陳
隆
隊
隋
隡
隨
隱
隶
隸
隹
隺
隻
隼
隽
难
雀
雁
雄
集
雈
雋
雍
雐
雔
雙
雚
雜
雝
離
難
雨
雩
雪
雲
零
雷
需
霍
霜
霝
霞
霸
靈
靑
青
靖
非
靡
面
靣
革
韋
韦
韭
韯
韱
音
韵
頁
頃
項
須
頗
頡
頻
顛
類
页
颇
風
风
飛
飞
食
飠
養
饣
首
香
馬
馮
駦
马
骨
高
髟
鬥
鬯
鬲
鬼
魚
魯
鮮
鱼
鲁
鳥
鳳
鳴
鸟
鹵
鹿
麃
麗
麥
麦
麻
黃
黄
黍
黎
黑
黒
黨
黹
黽
黾
鼎
鼓
鼠
鼻
齊
齋
齐
齒
齿
龍
龙
龜
龟
龠
龰
龱
龴
龵
龶
龷
龸
龹




者
艹
ﷴ
，
？
𐌵
𐌸
𐌾
𐌿
𐍀
𐍁
𐍂
𐍃
𐍆
𐍇
𐍈
🜨
𠀁
𠀃
𠀆
𠀉
𠀎
𠀐
𠁁
𠁣
𠂆
𠂇
𠂈
𠂉
𠂊
𠂋
𠂎
𠂒
𠂔
𠂛
𠂡
𠂢
𠂤
𠂬
𠂭
𠂹
𠃊
𠃋
𠃌
𠃍
𠃎
𠃑
𠃓
𠃔
𠃜
𠄌
𠄎
𠄠
𠄢
𠆢
𠆥
𠇍
𠈌
𠌵
𠓜
𠔉
𠔥
𠔼
𠔽
𠔿
𠕀
𠕁
𠕋
𠘧
𠘨
𠙻
𠙼
𠚏
𠚒
𠚤
𠚪
𠣏
𠤎
𠤕
𠥓
𠦄
𠦑
𠦝
𠧒
𠧗
𠧪
𠩺
𠪚
𠫓
𠫔
𠫤
𠬛
𠬝
𠬞
𠬢
𠬤
𠬶
𠮛
𠮦
𠮷
𠯑
𠱠
𠳮
𠷎
𡈼
𡉀
𡉵
𡌥
𡍮
𡏳
𡕒
𡕩
𡕰
𡖅
𡗗
𡗜
𡘆
𡘤
𡧱
𡨄
𡩧
𡬠
𡭽
𡰣
𡰥
𡰪
𡰯
𡰱
𡷈
𡸁
𡿨
𡿩
𡿪
𡿺
𢀖
𢀛
𢀩
𢁙
𢆉
𢆰
𢆶
𢇁
𢇇
𢉖
𢌬
𢌿
𢏚
𢑑
𢑚
𢖻
𢙣
𢛳
𢦏
𢦒
𢧵
𢼄
𢾕
𣁋
𣄼
𣅀
𣅽
𣍘
𣎳
𣎵
𣏋
𣏼
𣗥
𣥂
𣥖
𣦵
𣦼
𣧄
𣪊
𣪠
𣬉
𣳾
𣶒
𤇾
𤊽
𤐫
𤓰
𤔔
𤕨
𤣩
𤰇
𤰔
𤰞
𤴓
𤴔
𤽄
𥁑
𥁕
𥃦
𥃩
𥃭
𥇡
𥑟
𥘅
𥘈
𥝢
𥫗
𥱡
𦈢
𦉪
𦉬
𦉼
𦍌
𦍒
𦎧
𦐇
𦓔
𦔮
𦘒
𦙃
𦚏
𦣝
𦣞
𦣻
𦥑
𦥔
𦥯
𦨉
𦭝
𦰩
𧆞
𧈧
𧘇
𧰨
𧴪
𧴮
𧵩
𧾷
𨸏
𨾴
𩙿
𩠐
𩫏
𩵋
𪉷
𪜀
𪟽
𪠲
𪩲
𫇦
𫔭
𫜸
𫝀
𫠣
𫠩
𫢉
𫥞
𫩏
𫩠
𫪡
𫲽
𫶧
𬀷
𬐘
𬗌
𬙙
𬛸
𬜯
𬟩
𬯁
𬴘
𬺻
𬼉
𬼖
𭀰
𭁈
𭁨
𭅰
𭑈
𭕄
𭗼
𭤨
𭥫
𭻾
𮅕
𮊿
𮍌
𮍏
𮓗
𮥼
𮧮
廾
𰀁
𰀄
𰀈
𰀉
𰀕
𰀠
𰀡
𰀢
𰀪
𰁜
𰃮
𰆊
𰆘
𰋙
𰕎
𰢴
𰧭
𰯲
00--
01--
010--
011--
02--
03--
04--
04151--
05--
06--
07--
08--
09--
39--
46--
51--
60--
64--
66--
73--
74--
77--
79--
81--
82--
83--
84--
85--
89--
896--
90--
92--
93--
952--
98--
a--
aa--
aagh--
aah--
aalaa--
ab--
abbyrt--
aber--
ac--
acad--
acce--
ach--
acou--
ad--
ada--
aeg--
aff--
afr--
ag--
ah--
ai--
ail--
air--
ais--
ak--
aka--
aku--
al--
ala--
alek--
algon--
ali--
all--
alt--
alto--
am--
ama--
ame--
amphi--
amu--
an--
ana--
and--
ang--
anna--
ans--
anth--
anthro--
ao--
ap--
apoc--
appro--
aqu--
aqui--
ar--
ara--
arau--
arc--
ard--
are--
ari--
aristo--
arje--
arm--
arr--
art--
artic--
aru--
as--
ash--
asp--
ass--
aste--
astu--
at--
ata--
ath--
atlanti--
atta--
au--
audi--
aus--
av--
ave--
avo--
aw--
awa--
ax--
ay--
ayr--
az--
b--
ba--
baa--
baanrey--
bac--
bad--
bai--
bakh--
bal--
ball--
ban--
bar--
bas--
bat--
bau--
bay--
be--
bea--
bear--
beau--
beayn--
bec--
bee--
bei--
bel--
ben--
ber--
berg--
bess--
bh--
bha--
bhe--
bhu--
bi--
bibli--
bil--
bin--
bio--
bioghey--
bit--
bla--
blanc--
ble--
blee--
bli--
blo--
bo--
bod--
boe--
bog--
bol--
bom--
bomby--
bon--
bor--
bos--
bot--
bou--
bous--
bow--
br--
brachy--
brah--
bre--
bri--
bro--
broad--
bry--
bu--
buch--
buck--
bul--
bull--
bun--
bur--
burgoo--
burr--
bus--
but--
bw--
bwa--
bwo--
by--
c--
ca--
caa--
cab--
cad--
cadjin--
cadlag--
caer--
cag--
cah--
cal--
cam--
can--
caort--
cap--
car--
cat--
cau--
cauca--
cd--
ce--
cear--
cele--
celt--
cephalo--
cert--
ch--
cha--
chapit--
char--
che--
chear--
chi--
chion--
chlo--
chni--
cho--
chohaah--
chond--
chont--
chor--
chou--
choyr--
chrai--
chre--
chremey--
chro--
chruin--
chry--
chu--
chy--
ci--
cinc--
ck--
cl--
cla--
cladd--
cle--
clo--
clou--
co--
cob--
cock--
col--
cold--
coll--
colo--
colum--
com--
come--
compo--
con--
conqui--
convi--
coo--
cor--
cos--
cou--
coul--
cov--
cover--
cow--
cr--
crai--
cran--
cre--
cremmey--
cri--
crib--
cro--
cruci--
cs--
cu--
cucu--
cum--
cur--
cw--
cy--
cya--
cyff--
cym--
cz--
d--
da--
daa--
dacty--
dag--
dai--
dal--
dalma--
dan--
dar--
dart--
day--
dd--
de--
deb--
deca--
dee--
def--
defe--
dein--
del--
dem--
democ--
den--
der--
des--
devanag--
dh--
di--
dia--
dicye--
die--
diff--
din--
dioclet--
dion--
dip--
dir--
dis--
diss--
dist--
dj--
do--
dob--
dog--
dol--
dom--
domh--
don--
doo--
door--
dor--
dos--
dou--
dr--
dra--
dre--
dreig--
drum--
dt--
du--
dub--
dun--
dur--
dut--
dw--
dy--
dyn--
dys--
dz--
dzia--
e--
ea--
eagh--
eam--
ear--
east--
eb--
ec--
eccle--
ech--
ed--
eddyr--
edu--
ee--
eer--
eff--
eg--
eh--
ei--
eidh--
eisen--
ek--
el--
elec--
em--
emb--
en--
ency--
end--
eng--
enn--
eo--
ep--
equ--
er--
erree--
eryth--
es--
escu--
est--
estab--
et--
ethi--
ethno--
etym--
eu--
euro--
ev--
evange--
ever--
ew--
ex--
exam--
expec--
exper--
expi--
expl--
ey--
f--
fa--
faas--
faase--
fai--
fair--
faj--
fal--
falc--
fami--
fan--
far--
farr--
fat--
fau--
fe--
fea--
fee--
fem--
fer--
ff--
fhi--
fi--
fig--
finl--
fir--
fire--
fitz--
fl--
fla--
fleu--
floa--
fo--
fod--
fog--
fol--
foll--
folli--
foo--
for--
foto--
foud--
fow--
fox--
fr--
fra--
fre--
fred--
free--
frei--
fried--
frin--
fro--
fu--
fuill--
ful--
fy--
g--
ga--
gaa--
gab--
gad--
gaed--
gael--
gaill--
galin--
gall--
gan--
gar--
gas--
gau--
ge--
gee--
gem--
gen--
geo--
ger--
gh--
gha--
ghar--
gher--
ghi--
ghio--
ghoss--
ghot--
ghra--
ghre--
ghu--
gi--
gil--
gle--
glen--
gli--
glo--
glott--
glu--
gly--
go--
gob--
god--
gold--
gonc--
goo--
good--
gor--
got--
gou--
gra--
gre--
green--
grees--
gri--
gro--
gross--
gru--
grua--
grub--
gry--
græ--
grønl--
gu--
gua--
guate--
guer--
gult--
gun--
gur--
guð--
gw--
gwa--
gy--
gyn--
gyp--
h--
ha--
had--
haf--
hag--
hai--
hal--
hall--
ham--
han--
hang--
har--
hard--
hart--
has--
hass--
hat--
haw--
hay--
he--
hea--
hee--
heel--
heer--
hei--
heilb--
hel--
helle--
hen--
henn--
her--
heshen--
hete--
hetero--
heu--
hex--
heyr--
hi--
hiau--
hib--
hiber--
hiddra--
hie--
hig--
high--
hil--
him--
hion--
hippo--
hir--
his--
hit--
hiu--
ho--
hob--
hoch--
hoff--
hohen--
hol--
holb--
holl--
hom--
home--
hoo--
hor--
horr--
hort--
hous--
how--
hoyl--
hr--
hro--
hry--
hu--
hua--
huff--
hui--
hum--
hur--
hush--
hwo--
hy--
hydrob--
hyl--
hym--
hymby--
hymmylt--
hyn--
hyper--
i--
ia--
iau--
ic--
ich--
id--
ide--
ie--
ig--
ik--
il--
im--
imp--
in--
inc--
incor--
indugh--
infi--
info--
ing--
ini--
inst--
int--
inte--
inter--
inu--
io--
iom--
ip--
ir--
ire--
is--
iso--
ist--
it--
iu--
iv--
j--
ja--
jac--
jam--
jan--
japo--
jay--
jc--
je--
jee--
jei--
jeih--
jeng--
jer--
ji--
jiang--
jin--
jo--
joa--
jou--
joy--
ju--
jym--
jø--
k--
ka--
kaby--
kai--
kal--
kalaa--
kali--
kan--
kar--
kashoob--
kassagh--
kat--
kay--
ke--
ken--
ker--
key--
kh--
kha--
khe--
ki--
kian--
kiar--
kib--
kid--
kilo--
kim--
king--
kins--
kir--
kirk--
kiro--
kister--
kle--
kli--
kno--
ko--
kom--
komm--
kon--
kos--
kou--
kr--
kre--
kro--
ks--
ku--
kur--
ky--
kyl--
kyr--
l--
la--
laa--
lab--
lac--
lag--
lam--
lan--
lapp--
lar--
las--
lat--
lau--
lav--
le--
learga--
lec--
leh--
lehr--
leptop--
les--
leucop--
lhar--
lhee--
lhi--
lhias--
lhu--
li--
lia--
libr--
lig--
lim--
lin--
ling--
lip--
lipp--
lis--
liz--
lk--
ll--
llan--
lland--
lli--
lo--
lom--
lond--
long--
loo--
lou--
low--
lt--
lu--
lux--
ly--
lyca--
lyud--
løg--
m--
ma--
maai--
mac--
macro--
mad--
mae--
mag--
mah--
mai--
maid--
mak--
mal--
man--
mandr--
mang--
mar--
mari--
marva--
mas--
mat--
mau--
may--
maz--
mc--
me--
mec--
med--
medic--
mee--
meh--
mel--
melanocep--
melo--
men--
mer--
meso--
met--
meta--
mexi--
mh--
mha--
mhi--
mhui--
mi--
micro--
mid--
mik--
mil--
min--
mio--
mis--
mit--
mitoc--
mo--
mod--
moe--
mol--
mon--
mont--
moo--
moon--
moor--
mor--
mou--
mr--
mret--
ms--
mu--
multi--
mun--
munic--
mur--
mus--
musci--
mw--
mwyl--
my--
myko--
myn--
myr--
mys--
n--
na--
naa--
nai--
nam--
nan--
nar--
nas--
nat--
nc--
nd--
ne--
neb--
nel--
nema--
net--
neu--
neufar--
neuhr--
new--
news--
ng--
ni--
nia--
nic--
niko--
no--
noa--
noc--
nor--
nord--
norð--
nos--
not--
ns--
nt--
nu--
nuci--
nur--
ny--
o--
oa--
oar--
oayl--
ob--
oc--
ocs--
octa--
od--
oe--
of--
og--
oh--
oi--
oie--
oilly--
ok--
ol--
old--
om--
ommi--
on--
ontoay--
oo--
oor--
op--
or--
ora--
orbic--
orc--
org--
ori--
orni--
ort--
os--
ot--
ou--
our--
out--
over--
ox--
oz--
p--
pa--
paa--
pag--
pai--
pala--
pall--
pam--
pan--
par--
para--
paras--
pas--
pat--
pay--
pe--
peama--
pec--
pel--
pelmato--
pemm--
pen--
per--
pere--
pet--
ph--
pha--
phalacro--
phar--
phen--
pher--
phil--
pho--
phoh--
photo--
phro--
phry--
phu--
phyl--
pi--
pic--
pick--
pie--
pil--
pin--
pine--
pit--
pl--
plas--
platy--
play--
ple--
plei--
plone--
plot--
plou--
plu--
po--
pod--
pol--
polanee--
pop--
por--
pot--
poten--
pou--
poz--
pp--
pr--
pra--
pre--
pri--
princ--
pro--
pry--
prys--
prze--
pter--
pu--
pur--
put--
pyr--
q--
qa--
qi--
qian--
qu--
que--
qui--
r--
ra--
rab--
rad--
radio--
rag--
rai--
ram--
rams--
ran--
ranuncu--
ras--
rau--
ray--
rc--
rd--
re--
rea--
recur--
red--
ree--
reeas--
reg--
regi--
regie--
rei--
rein--
reluc--
ren--
res--
reticu--
reu--
rev--
rey--
rg--
rh--
rham--
rhein--
rho--
ri--
ric--
rich--
rid--
rigsfæ--
rim--
rn--
ro--
road--
rob--
roc--
ron--
ros--
rose--
rou--
roua--
row--
rr--
rt--
ru--
rua--
rub--
rue--
run--
rush--
ry--
s--
sa--
sab--
sac--
sad--
sai--
sal--
sali--
sam--
san--
sand--
sant--
sar--
sav--
say--
sc--
sca--
scaa--
scal--
scar--
sce--
sch--
scha--
sche--
schei--
schr--
schu--
scient--
scolop--
scrobbey--
scru--
scu--
se--
sea--
sean--
see--
sel--
sem--
semig--
sen--
ser--
sex--
seyr--
sf--
sh--
sha--
shar--
she--
shea--
shel--
shi--
shimmea--
sho--
shog--
show--
shr--
si--
sia--
sib--
sie--
sig--
sigh--
sin--
sinterk--
sio--
sk--
skea--
ski--
sky--
skyrr--
sla--
slane--
sle--
sli--
slo--
slu--
sm--
small--
smol--
smu--
sn--
snow--
so--
soc--
soil--
sol--
som--
son--
song--
soo--
sopr--
sotsia--
sp--
spa--
spe--
spec--
speck--
spor--
sq--
sr--
sree--
sri--
ss--
st--
sta--
stall--
stan--
stat--
ste--
ster--
sto--
str--
strep--
stroi--
stu--
su--
sub--
suc--
sud--
sug--
sum--
sun--
super--
supp--
sur--
sve--
sw--
swa--
sweet--
sy--
syl--
syll--
sym--
syn--
syndi--
sz--
sza--
sze--
t--
ta--
taf--
tag--
tai--
tak--
tal--
tan--
tar--
tat--
tau--
taw--
tay--
te--
tech--
techni--
tegu--
tel--
tele--
temm--
temp--
ten--
terr--
territ--
test--
tetra--
teut--
tey--
tg--
th--
tha--
the--
theo--
thi--
thu--
ti--
tig--
til--
tim--
tins--
tir--
tn--
to--
togh--
toil--
toko--
tol--
tong--
tor--
toten--
toy--
tr--
tra--
trait--
trans--
tre--
tree--
tremo--
treog--
tri--
tro--
tru--
trud--
try--
ts--
tschere--
tt--
tu--
tul--
tur--
tush--
ty--
tze--
tzi--
u--
ua--
ud--
ug--
ugh--
uhtlequetz--
ui--
uk--
ul--
uli--
ult--
ulu--
um--
un--
und--
up--
ur--
ura--
urd--
uri--
urr--
urrys--
us--
ut--
uu--
ux--
uy--
uz--
v--
va--
vaar--
vaas--
vac--
vad--
vag--
vagnai--
val--
valla--
van--
var--
vati--
vay--
ve--
vee--
veg--
ven--
ver--
veso--
vi--
vic--
vie--
vig--
vil--
vir--
vitt--
vo--
vog--
voir--
vol--
voll--
von--
vooi--
vor--
vra--
vran--
vri--
vu--
vulc--
vun--
vur--
vv--
vy--
vyn--
w--
wa--
wain--
wal--
wall--
waln--
wan--
war--
was--
way--
we--
wea--
weat--
wein--
weiz--
wel--
west--
wh--
whis--
whit--
white--
wie--
wig--
wiki--
wil--
wild--
wim--
win--
wis--
wit--
wiza--
wo--
wode--
woll--
wood--
wool--
x--
xa--
xen--
xi--
y--
ya--
yak--
ye--
yee--
yer--
yeu--
yi--
yl--
ym--
yn--
yndy--
ynva--
yo--
yoru--
yr--
ys--
yu--
yw--
z--
za--
zam--
zap--
ze--
zem--
zha--
zhy--
zi--
zo--
zoo--
zu--
zucker--
æ--
ð--
þ--
ł--
ə--
ɪ--
ɾ--
β--
γ--
δ--
δε--
λ--
μ--
ν--
π--
ρ--
σ--
τ--
χ--
а--
в--
д--
да--
до--
и--
иро--
ист--
кол--
л--
м--
ме--
н--
но--
рус--
с--
социал--
т--
ф--
--0
--00
--01
--05
--1
--10
--11
--14
--16
--17
--2
--20
--22
--23
--3
--32
--33
--36
--4
--49
--5
--54
--6
--63
--66
--7
--762
--77
--8
--82
--87
--88
--9
--91
--98
--a
--aa
--aagh
--aan
--aanagh
--ab
--aban
--able
--aby
--ac
--aca
--aceae
--ach
--acha
--ack
--acus
--ad
--adh
--ado
--adyn
--ae
--aea
--ael
--aeus
--ag
--aga
--agagh
--age
--ages
--agh
--aghan
--agheeyn
--aghey
--aghit
--aght
--aghtyn
--aghyn
--aghys
--ague
--agyn
--ah
--ahu
--ai
--aid
--aidh
--aig
--aign
--ail
--ain
--aine
--air
--ais
--ak
--aki
--al
--alagh
--ale
--aleg
--alha
--all
--ally
--altys
--alus
--alyn
--alys
--am
--an
--ana
--anan
--ance
--and
--ane
--anee
--aney
--aneyn
--ang
--ani
--anit
--ank
--ann
--ano
--ans
--ant
--anta
--ante
--ants
--anus
--any
--anyn
--aq
--ar
--aragh
--ard
--art
--ary
--arya
--arys
--arzh
--as
--ash
--ast
--at
--ata
--ate
--ated
--ath
--ati
--ation
--ations
--ator
--atus
--au
--aur
--ava
--aw
--ax
--ay
--aya
--ayo
--az
--azi
--b
--ba
--bagh
--bbc
--bbyltee
--bc
--be
--berg
--bet
--bey
--bh
--bi
--bia
--bian
--bium
--ble
--bo
--bok
--borg
--bourg
--bs
--bu
--burg
--bus
--by
--byl
--byn
--c
--ca
--cal
--cas
--cca
--ce
--ceae
--cens
--ception
--ces
--cey
--ch
--cha
--che
--ches
--cht
--chta
--chy
--ci
--cia
--cile
--cing
--cis
--ck
--cka
--cki
--cks
--cle
--co
--coe
--com
--con
--cot
--cott
--cq
--craft
--cs
--ct
--ctic
--ctus
--cula
--cus
--cy
--cyn
--d
--da
--dae
--dagh
--daght
--dal
--day
--dd
--ddan
--ddee
--de
--ded
--dee
--den
--der
--deryn
--derys
--des
--dey
--deyr
--deyragh
--deyryn
--dge
--dh
--di
--dia
--die
--ding
--dio
--dis
--dit
--dium
--dix
--djum
--dle
--dn
--do
--don
--dorf
--dos
--dovish
--dr
--dra
--drion
--ds
--dt
--du
--dur
--dus
--dy
--dyn
--dyr
--dys
--e
--ea
--each
--eagh
--eaght
--eal
--ebus
--eca
--ect
--ed
--eda
--ee
--eed
--een
--eenagh
--eenee
--eenyn
--eeyn
--eg
--ega
--eh
--ei
--eid
--eil
--eilagh
--eilaght
--eish
--eit
--ek
--ekh
--el
--ela
--elia
--ell
--elyn
--em
--ema
--eman
--en
--enant
--enburg
--ence
--ences
--end
--ene
--ens
--ensis
--ent
--enta
--ento
--enyn
--eo
--er
--era
--eragh
--eraght
--ere
--ered
--eree
--erey
--erg
--eri
--eria
--ern
--ero
--ers
--ert
--ery
--eryn
--erød
--es
--ese
--esh
--ess
--est
--et
--ete
--eth
--ets
--ett
--ette
--eu
--eur
--eus
--eux
--ev
--evich
--evin
--ex
--ey
--eyder
--eyderyn
--eydys
--eyn
--eyr
--eyragh
--eyraght
--eyryn
--eyrys
--eys
--ez
--f
--fa
--fal
--fe
--feld
--ff
--fi
--field
--fin
--fn
--fo
--fon
--foot
--ford
--ft
--ful
--fyn
--g
--ga
--gach
--gad
--gagh
--gal
--gan
--gat
--gate
--ge
--ged
--gee
--gel
--ger
--ges
--gest
--gey
--geyr
--gg
--ggin
--ggyl
--ggyr
--gh
--ghagh
--ghee
--ghey
--ghit
--ghlas
--ghney
--ght
--ghyn
--ghys
--gi
--gin
--girls
--git
--gn
--gne
--gneg
--go
--goad
--gol
--gon
--gr
--graafee
--gs
--gton
--gu
--gus
--gy
--gyn
--gyr
--h
--ha
--hal
--ham
--han
--har
--haus
--hchyna
--he
--head
--hecus
--hem
--hen
--her
--hes
--hew
--hey
--hi
--hian
--hians
--hiro
--hit
--hl
--hn
--hna
--hnikov
--ho
--holm
--hra
--hs
--ht
--http
--hu
--hua
--hus
--hy
--hyllus
--hyn
--hys
--hyta
--hyte
--i
--ia
--iad
--iagh
--iaght
--ial
--ian
--iana
--ias
--ib
--ible
--ic
--ica
--ical
--ich
--ick
--icon
--ics
--icum
--icus
--id
--ida
--idae
--idagh
--ide
--idea
--idee
--idh
--ido
--idyn
--ie
--ied
--ieg
--iel
--iemi
--ien
--iens
--ientia
--ier
--iers
--ies
--iest
--if
--iformes
--ig
--iga
--igagh
--igan
--igh
--igo
--igyn
--ih
--ii
--iidae
--ik
--ika
--ike
--iki
--iko
--il
--ila
--iliz
--ill
--illo
--im
--ima
--iman
--in
--ina
--inagh
--inaghit
--inas
--ine
--iney
--ing
--inga
--inger
--ings
--ington
--ini
--init
--ink
--inn
--inneen
--ino
--ins
--inus
--inys
--io
--ioidea
--ion
--ional
--ions
--ios
--iou
--ious
--ip
--ique
--ir
--irk
--iro
--irr
--irt
--is
--ische
--ish
--ism
--ist
--it
--ita
--itan
--ite
--ities
--ito
--itt
--ity
--itz
--iu
--iuk
--ium
--ius
--iva
--ive
--ivity
--ivna
--ix
--iy
--iyama
--iyn
--iz
--ið
--j
--ja
--jal
--jan
--je
--jey
--jeyder
--ji
--jit
--jo
--ju
--jum
--jyn
--k
--ka
--ke
--kel
--kes
--ket
--kh
--ki
--kia
--kin
--kio
--kish
--ko
--kov
--kova
--ks
--ku
--ky
--kyn
--l
--la
--lach
--lagh
--laght
--laghtyn
--laidyn
--lais
--lak
--land
--lane
--lann
--lannyn
--las
--lby
--ld
--le
--lea
--lean
--lee
--len
--ler
--les
--less
--let
--lev
--ley
--lf
--li
--lic
--lid
--lin
--lio
--lious
--lip
--lis
--list
--lit
--lity
--ll
--lla
--llagh
--lle
--llo
--lloo
--llooyn
--lls
--llus
--lly
--llys
--lm
--lo
--lock
--loes
--logical
--lon
--loo
--lore
--low
--ls
--lt
--lty
--ltyn
--ltys
--ltz
--lu
--lus
--ly
--lyn
--lys
--m
--ma
--mac
--man
--map
--mayd
--mb
--me
--meier
--ment
--ments
--mes
--mey
--meyder
--mi
--mic
--mid
--mir
--mm
--mma
--mmee
--mmey
--mmyn
--mo
--mon
--mont
--more
--mos
--mp
--mron
--ms
--mu
--my
--myn
--mys
--myssyn
--n
--na
--nac
--nad
--nada
--nag
--nagh
--naghtyn
--nai
--nais
--nal
--nc
--nce
--nco
--ncy
--nd
--nda
--ndi
--ne
--neagh
--nee
--neg
--ner
--nes
--ness
--ney
--neyder
--neyn
--neys
--ng
--nga
--ngan
--ngin
--ngton
--ni
--nia
--nid
--nik
--nin
--ning
--nis
--nish
--nit
--nium
--nk
--nka
--nn
--nne
--nnee
--nney
--nning
--nnit
--no
--nock
--non
--nou
--nrey
--ns
--nse
--nsis
--nsk
--nska
--nskan
--nt
--nte
--nted
--nti
--nto
--ntry
--nts
--ntyn
--num
--nus
--ny
--nyn
--nys
--nyssyn
--nz
--nze
--nzen
--o
--oa
--oam
--oc
--ocarp
--ock
--ockyn
--od
--oe
--oee
--og
--oge
--ogi
--ogy
--oi
--oid
--oidyn
--oil
--oilagh
--oilaght
--oin
--oir
--ois
--ok
--oke
--okes
--ol
--ola
--ole
--ologie
--ology
--om
--ome
--on
--ong
--oni
--onia
--onne
--ons
--ont
--onyn
--oo
--oon
--ooney
--oonys
--oot
--op
--oper
--ophyta
--or
--ore
--oree
--orn
--ors
--ory
--os
--osa
--oso
--osus
--ot
--ote
--oth
--ott
--otti
--ou
--oud
--oun
--ous
--out
--ov
--ova
--ovich
--ovna
--ovo
--ow
--owed
--owitz
--own
--owo
--ows
--ox
--oxin
--oyn
--oz
--p
--pa
--pard
--pe
--pect
--pey
--ph
--phey
--phy
--phyta
--pi
--plaase
--pn
--poda
--polis
--port
--posed
--pp
--ps
--psis
--pterus
--ptes
--pton
--pu
--pus
--pyn
--q
--que
--ques
--r
--ra
--rad
--rag
--ragh
--raghey
--raght
--raghtyn
--rai
--raigh
--ral
--rc
--rch
--rd
--rdi
--re
--red
--ree
--reg
--rek
--rel
--rere
--res
--rey
--rf
--rfield
--rg
--ri
--ria
--rie
--ried
--rier
--rin
--rio
--ris
--rit
--rk
--rkagh
--rks
--rl
--rly
--rm
--rn
--rna
--rni
--ro
--rod
--rop
--rra
--rree
--rrey
--rro
--rs
--rse
--rt
--rth
--rton
--rtyn
--rtys
--ru
--rum
--ry
--ryl
--ryn
--rys
--s
--sa
--sagh
--saghey
--saght
--saigh
--sal
--sch
--schaft
--se
--see
--sel
--sen
--ser
--ses
--sey
--sford
--sh
--shchyna
--shi
--ship
--shire
--shtagh
--si
--sibo
--sica
--side
--siens
--sion
--sis
--sit
--sk
--ska
--sky
--sl
--slow
--sm
--sne
--sno
--so
--soa
--son
--ss
--ssa
--ssagh
--ssen
--sson
--ssyn
--st
--stad
--star
--sti
--ston
--styn
--su
--sul
--sus
--sy
--syl
--syn
--sz
--t
--ta
--tag
--tagh
--taght
--tagyn
--tal
--talk
--tan
--tanyn
--tas
--tc
--tch
--te
--tech
--ted
--tee
--teen
--tein
--ten
--ter
--ters
--tes
--tey
--th
--the
--throat
--ti
--tia
--tic
--tica
--tid
--tidae
--tier
--ties
--tin
--tine
--tion
--tions
--tis
--tish
--tit
--tium
--tius
--tive
--tl
--tle
--tnag
--tner
--to
--tois
--ton
--tos
--town
--tr
--ts
--tsa
--tsi
--tsky
--tt
--tta
--tte
--tti
--ttin
--tto
--ttrimit
--tu
--tum
--ture
--tus
--tva
--ty
--tyn
--type
--tyr
--tys
--tz
--u
--ua
--ub
--uc
--ucci
--uccio
--uck
--ud
--uda
--ue
--uel
--uf
--ug
--ugh
--ugs
--uh
--uin
--uis
--uit
--uk
--uke
--ul
--ula
--ule
--uli
--ult
--um
--un
--ung
--unn
--up
--ur
--ura
--ure
--urg
--ury
--us
--uska
--ut
--ute
--uth
--uts
--utus
--utz
--ux
--uyn
--uz
--v
--va
--vaadjys
--vagh
--van
--ve
--ved
--vei
--ves
--vi
--via
--vik
--vim
--vin
--vius
--vo
--vs
--vsk
--vsky
--vy
--vych
--w
--wa
--way
--we
--wn
--wo
--wood
--work
--worth
--wr
--wryn
--ws
--wska
--wski
--wu
--wy
--wyd
--wydd
--x
--xa
--xton
--xus
--xx
--xy
--y
--ya
--yal
--yan
--yard
--yd
--ydd
--yddion
--yddol
--yder
--yderyn
--ye
--yi
--yl
--yll
--ylla
--ylus
--ym
--yn
--ynee
--ynt
--yon
--ypus
--yr
--yre
--yrey
--yrtagh
--yrtys
--yryn
--ys
--ysagh
--yseyr
--yssagh
--yssyn
--yst
--ysyn
--yt
--yu
--z
--za
--ze
--zec
--zer
--zh
--zi
--zia
--zim
--zine
--zing
--zno
--zo
--zoa
--zon
--zung
--zz
--zzo
--ß
--ð
--ði
--ød
--ı
--ım
--ła
--łe
--ɐ
--ɕ
--ə
--ɛ
--α
--ι
--νο
--ο
--ς
--υ
--ω
--а
--ан
--вич
--во
--д
--е
--еи
--ер
--з
--и
--ик
--ин
--ия
--к
--м
--н
--не
--нии
--ник
--ны
--ныи
--нь
--о
--ов
--ова
--ович
--ор
--ра
--ья
--я
--ܐ
