!
"
#
##0
##1
##10
##11
##12
##13
##14
##15
##16
##17
##18
##19
##2
##20
##21
##22
##23
##24
##25
##26
##27
##28
##29
##3
##30
##31
##32
##33
##34
##35
##36
##37
##38
##39
##4
##40
##41
##42
##43
##44
##45
##46
##47
##48
##49
##5
##50
##51
##52
##53
##54
##55
##56
##57
##58
##59
##6
##60
##61
##62
##63
##64
##65
##66
##67
##68
##69
##7
##70
##71
##72
##73
##74
##75
##76
##77
##78
##79
##8
##80
##81
##82
##83
##84
##85
##86
##87
##88
##89
##9
##90
##91
##92
##93
##94
##95
##96
##97
##98
##99
$
%
&
'
(
)
*
+
,
-
.
/
0
00
000
0000
001
002
005115906552
01
02
03
04
05
06
07
0755
08
09
1
10
100
1000
1001
1004
1007
1009
101
1010
1016
102
1020
1024
1025
1029
103
1030
1031
1032
1035
1036
1037
1038
104
1040
1044
1045
1048
105
1050
1054
1055
1059
106
1060
1063
1066
1067
107
1070
1071
1072
1073
1074
1075
1077
1078
1079
108
1080
1081
1082
1083
1085
1086
1088
109
1090
1093
1094
1095
1096
1097
1098
1099
11
110
1100
110095
1101
1102
1104
1105
1107
1108
1109
111
1110
1111
1112
1113
1114
1115
1116
1118
1119
112
1120
1121
1122
1123
1124
1125
1126
1127
1129
113
1130
1131
1132
1134
1135
1137
1138
1139
114
1140
1142
1143
1144
1145
1146
1147
1148
1149
115
1150
1151
1152
1153
1154
1155
1156
1157
1158
1159
116
1160
1161
1162
1163
1164
1165
1166
1167
1168
1169
117
1170
1171
1172
1173
1174
1175
1176
1177
1178
1179
118
1180
1181
1182
1183
1184
1185
1186
1187
1188
1189
119
1190
1191
1192
1193
1194
1195
1196
1197
1198
1199
12
120
1200
1201
1202
1203
1204
1205
1206
1207
1208
1209
121
1210
1211
1212
1213
1214
12148
1215
1216
1217
1218
1219
122
1220
1221
1222
1223
1224
1225
1226
1227
1228
1229
123
1230
1231
1232
1233
1234
1235
1236
1237
1238
1239
124
1240
1241
1242
1243
1244
1245
1246
1247
12473
1248
1249
125
1250
1251
1252
1253
1254
1255
1256
1257
1258
1259
126
1260
1261
1262
1263
1264
1265
1266
1267
1268
1269
127
1270
1271
1272
1273
1274
1275
1276
1277
1278
1279
128
1280
1281
1282
1283
1284
1285
1286
1287
1288
1289
129
1290
1291
1292
1293
1294
1295
1296
1297
1298
1299
13
130
1300
1301
1302
1303
1304
1305
1306
1307
1308
1309
131
1310
1311
1312
1313
1314
1315
1316
1317
1318
1319
132
1320
1321
1322
1323
1324
1325
1326
1327
1328
1329
133
1330
1331
1332
1333
1334
1335
1336
1337
1338
1339
134
1340
1341
1342
1343
1344
1345
1346
1347
1348
1349
135
1350
1351
1352
1355
1356
1357
1358
1359
136
1360
1361
1362
1363
1364
1365
1368
1369
137
1370
1371
1373
1374
1375
1376
1377
1378
1379
138
1380
1381
1382
1383
1384
1385
1386
1387
1388
1389
139
1390
1391
1392
1393
1394
1395
1396
1397
1398
1399
14
140
1400
1401
1402
1403
1404
1405
1406
1407
141
1410
1411
1412
1413
1414
1415
1418
1419
142
1420
1421
1422
1423
1424
1425
1426
1427
1428
1429
143
1430
1431
1433
1434
1435
1436
1437
1438
1439
144
1440
1441
1442
1443
1444
1445
1446
1448
1449
145
1450
1451
1452
1453
1454
1455
1456
1457
1458
1459
146
1460
1461
1462
1463
1464
1465
1466
1467
1468
1469
147
1470
1471
1472
1473
1474
1475
1476
1477
1478
14783413
1479
148
1480
1481
1482
1483
1484
1485
1486
1487
1488
1489
149
1490
1491
1492
1493
1494
1495
1496
1497
1498
1499
15
150
1500
1501
1502
1503
1504
1505
1506
1507
1508
1509
151
1510
1511
1512
1513
1514
1515
1516
1517
1518
1519
152
1520
1521
1522
1523
1524
1525
1526
1527
1528
1529
153
1530
1531
1532
1533
1534
1535
1536
1537
1538
1539
154
1540
1541
1542
1543
1544
1545
1546
1547
1548
1549
155
1550
1551
1552
1553
1554
1555
1556
1557
1558
1559
156
1560
1561
1562
1563
1564
1565
1566
1567
1568
1569
157
1570
1571
1572
1573
1574
1575
1576
1577
1578
1579
158
1580
1581
1582
1583
1584
1585
1586
1587
1588
1589
159
1590
1591
1592
1593
1594
1595
1596
1597
1598
1599
16
160
1600
1601
1602
1603
1604
1605
1606
1607
16075
1608
1609
161
1610
1611
1612
1613
1614
1615
1616
1617
1618
1619
162
1620
1621
1622
1623
1624
1625
1626
1627
1628
1629
163
1630
1631
1632
1633
1634
1635
1636
1637
1638
1639
164
1640
1641
1642
1643
1644
1645
1646
1647
1648
1649
165
1650
1651
1652
1653
1654
1655
1656
1657
1658
1659
166
1660
1661
1662
1663
1664
1665
1666
1667
1668
1669
167
1670
1671
1672
1673
1674
1675
1676
1677
1678
1679
168
1680
1681
1682
1683
1684
1685
1686
1687
1688
1689
169
1690
1691
1692
1693
1694
1695
1696
1697
1698
1699
17
170
1700
1701
1702
1703
1704
1705
1706
1707
1708
1709
171
1710
1711
1712
1713
1714
1715
1716
1717
1718
1719
172
1720
1721
1722
1723
1724
1725
1726
1727
1728
1729
173
1730
1731
1732
1733
1734
1735
1736
1737
1738
1739
174
1740
1741
1742
1743
1744
1745
1746
1747
1748
1749
175
1750
1751
1752
1753
1754
1755
1756
1757
1758
1759
176
1760
1761
1762
1763
1764
1765
1766
1767
1768
1769
177
1770
1771
1772
1773
1774
1775
1776
1777
1778
1779
178
1780
1781
1782
1783
1784
1785
1786
1787
1788
1789
179
1790
1791
1792
1793
1794
1795
1796
1797
1798
1799
18
180
1800
1801
1802
1803
1804
1805
1806
1807
1808
1809
181
1810
1811
1812
1813
1814
1815
1816
1817
1818
1819
182
1820
1821
1822
1823
1824
1825
1826
1827
1828
1829
183
1830
1831
1832
1833
1834
1835
1836
1837
1838
1839
184
1840
1841
1842
1843
1844
1845
1846
1847
1848
1849
185
1850
1851
1852
1853
1854
1855
1856
1857
1858
1859
186
1860
1861
1862
1863
1864
1865
1866
1867
1868
1869
187
1870
1871
1872
1873
1874
1875
1876
1877
1878
1879
188
1880
1881
1882
1883
1884
1885
1886
1887
1888
1889
189
1890
1891
1892
1893
1894
1895
1896
1897
1898
1899
19
190
1900
1901
1902
1903
1904
1905
1906
1907
1908
1909
191
1910
1911
1912
1913
1914
1915
1916
1917
1918
1919
192
1920
1921
1922
1923
1924
1925
1926
1927
1928
1929
193
1930
1931
1932
1933
1934
1935
1936
1937
1938
1939
194
1940
1941
1942
1943
1944
1945
1946
1947
1948
1949
195
1950
1951
1952
1953
1954
1955
1956
1957
1958
1959
196
1960
1961
1962
1963
1964
1965
1966
1967
1968
1969
197
1970
1971
1972
1973
1974
1975
1976
1977
1978
1979
198
1980
1981
1982
1983
1984
1985
1986
1987
1988
1989
199
1990
1991
1992
1993
1994
1995
1996
1997
1998
1999
2
20
200
2000
2001
2002
2003
2004
2005
2006
20061227
2007
2008
2009
201
2010
2011
2012
2013
2014
2015
2016
20161115015531
2017
2018
2019
202
2020
2021
2022
203
204
205
206
207
208
209
21
210
2100
211
212
213
214
215
216
217
218
219
22
220
221
222
223
224
225
226
227
228
229
23
230
231
232
233
234
235
236
237
238
239
24
240
241
242
243
244
245
246
247
248
249
25
250
2500
251
252
253
254
255
256
257
258
259
26
260
261
262
263
264
265
266
267
268
269
27
270
271
272
273
274
275
276
277
278
279
28
280
281
282
283
284
285
286
287
288
289
29
290
291
292
293
294
295
296
297
298
299
3
30
300
3000
301
302
303
304
305
306
307
308
309
31
310
311
312
313
314
315
316
3166
317
318
319
32
320
321
322
323
324
325
326
327
328
329
33
330
331
332
333
334
335
336
337
338
339
34
340
341
342
343
344
345
346
347
348
349
35
350
3500
351
352
353
354
355
356
357
358
359
36
360
361
362
363
364
365
366
367
368
369
37
370
371
372
373
374
375
376
377
378
379
38
380
381
382
383
384
385
386
387
388
389
39
390
391
392
392934
393
394
395
396
397
398
399
4
40
400
4000
401
402
403
404
405
406
407
408
409
41
410
411
412
413
414
415
416
417
418
419
42
420
421
422
423
424
425
426
427
428
429
43
430
431
432
433
435
436
437
438
439
44
440
441
442
443
445
446
448
449
45
450
451
452
453
454
455
456
457
458
459
46
460
461
462
464
465
466
467
468
469
47
470
471
472
473
474
475
476
477
479
48
480
481
482
483
484
485
486
487
488
49
490
491
492
493
496
498
5
50
500
5000
501
502
506
507
509
51
510
511
512
516
517
518
52
520
521
522
523
524
525
526
527
53
530
531
532
534
535
536
539
54
540
542
543
545
546
547
55
550
552
554
56
560
561
565
567
568
569
57
570
571
574
575
577
578
58
580
581
582
584
585
586
587
589
59
590
591
596
598
6
60
600
6000
602
604
605
606
608
609
61
610
612
614
616
618
62
620
621
622
625
626
627
628
629
63
630
631
632
633
634
636
637
638
639
64
640
641
642
644
647
65
650
651
655
656
657
658
66
660
661
668
67
670
672
674
675
676
68
680
681
683
685
687
69
690
691
695
7
70
700
7000
701
705
71
710
711
712
713
715
717
718
72
720
722
73
730
732
737
74
74111
743
745
747
74854
75
750
751
755
756
757
76
762
767
768
77
770
77101733
774
78
780
783
787
79
795
8
80
800
8000
802
804
81
811
812
813
814
82
820
827
83
830
84
840
842
843
844
85
850
855
86
860
867
87
870
875
877
88
880
884
885
886
888
89
890
9
90
900
9000
90696
907
909
91
910
911
912
92
920
923
925
928
929
93
930
933
934
936
939
94
940
945
946
947
95
950
951
955
96
960
961
9616679
962
963
965
966
968
969
97
970
972
973
974
975
976
978
979
98
980
983
984
987
988
99
990
996
999
:
;
<
=
>
?
@
\
^
_
`
a
aa
aaron
ab
abadia
abandon
abandona
abandonada
abandonadas
abandonant
abandonar
abandonat
abandonats
abandone
abandonne
abans
abant
abat
abatut
abbas
abbassida
abbassidas
abbatiale
abbaye
abbayes
abbe
abbesse
abbeville
abbott
abc
abcazia
abd
abdallah
abdicacion
abdicar
abdique
abdome
abdul
abdullah
abe
abel
abelha
abelhas
abi
abidjan
abies
abiletat
abitacion
abitacions
abitada
abitant
abitants
abitat
abitats
abitual
abituala
abitualament
abitualas
abitud
abituds
ablatiu
able
abo
abolicion
abolida
aboligue
abolir
abolit
abonda
abondant
abondanta
abord
aborige
about
abraam
abraham
abre
abreujat
abreviacion
abrial
abric
abriga
abril
abrite
abriu
absborg
abse
absent
absenta
absents
absida
absoluda
absoludament
absolut
absorbe
absorbeix
absorbir
absorbit
absorpcion
abstraccion
abstrach
absurd
abu
abuses
ac
aca
acaba
acabada
acabadas
acabament
acaban
acabant
acabar
acabara
acabat
acabats
acabava
acabe
acacia
acade
academia
academic
academica
academy
acamp
acampa
acampar
acarnada
accademia
acce
accedi
accedir
accele
acceleracion
accelerada
accelerar
accelerat
accelere
accent
accentuacion
acceptable
acceptacion
acceptada
acceptadas
acceptant
acceptar
acceptat
acceptats
accepte
access
accessed
accessibla
accessible
accession
accesso
accident
accidents
accion
accions
acco
accompagne
accord
accorde
account
accounts
accueil
accueille
accusat
accuse
ace
aceh
acer
ache
achete
achille
aci
acid
acida
acidas
aciditat
acids
acie
acier
acion
acions
aclapament
aco
acoblament
acomenc
acomence
acompanha
acompanhada
acompanhadas
acompanhament
acompanhan
acompanhar
acompanhat
acompanhats
acompanhe
acon
acorcha
acordada
acordar
acordat
acorde
acostica
acquis
acre
acronim
acropo
across
act
acta
acte
actes
action
actions
actitud
actituds
actiu
actius
activa
activacion
activament
activar
activas
active
activisme
activista
activistas
activitat
activitats
activite
activity
actor
actors
actritz
actual
actuala
actualament
actualas
actualitat
actualite
actuals
actuau
actuaus
actuel
actuelle
actuellement
acu
acue
acuelh
aculhi
aculhigue
aculhir
aculhit
acum
acumalbert
acumulacion
acusacion
acusacions
acusat
acusats
acy
ad
ada
adad
adaigat
adam
adamawa
adams
adapta
adaptacion
adaptacions
adaptada
adaptadas
adaptar
adaptat
adaptats
adapte
adara
adas
add
added
addicion
addis
additiu
ade
adelai
aden
ader
adere
aderigue
aderir
ades
adesion
adhe
adieu
adige
adishatz
adiu
adjectiu
adjectius
adjunt
adme
admesa
admet
admetre
admin
administracion
administracions
administrada
administrador
administrar
administrat
administratifs
administration
administratiu
administratius
administrativa
administrativament
administrativas
administrative
administrativement
administrator
administrators
administrats
admiracion
admission
adn
ado
adobar
adolesce
adolescent
adolescents
adolf
adolfo
adolphe
adonc
adonis
adopcion
adoptada
adoptadas
adoptar
adoptat
adoptats
adopte
adoption
ador
adoracion
adorna
adour
adrec
adreic
adrian
adriatica
adrien
adult
adulta
adulte
adultes
adults
aduras
advanced
adve
adventures
adversari
adversaris
ae
aerian
aeriana
aerianas
aerians
aerodro
aeronau
aeronaus
aeronautica
aeropo
af
afaire
afaires
afar
afarensis
afars
afe
afeblida
afebligue
afebliment
afeblir
afeblit
afeblits
afeccion
afectat
afere
affaire
affaires
affiche
affichtexte
affluent
affluents
afganistan
afi
aficha
afichar
afichas
afichatge
afiermar
afin
afinatge
afinitat
afirma
afirmacion
afirman
afirmant
afirmar
afirmat
afirmava
afirme
aflaquiment
afluent
afluents
afogat
afondrament
afondre
afonso
afp
afranquir
africa
african
africana
africanas
africans
africanus
afrikaans
afrikaners
afrique
afroasiatica
afrodita
afronta
afrontament
afrontaments
afrontan
afrontar
afronte
after
ag
agac
agach
agachar
again
against
agamemnon
aganta
agantar
agantat
agante
agardh
agave
agde
age
ageish
agen
agenais
agenc
agence
agency
agenda
agene
agenesa
agent
agents
ages
agglome
agi
agionime
agir
agissent
agissia
agisson
agit
agitacion
agla
aglomeracion
aglomeracions
agne
agnosticisme
ago
agora
agost
agot
agotament
agra
agrada
agrandiment
agrandir
agrandit
agravada
agravament
agravar
agravat
agrave
agre
agregacion
agregats
agression
agressiu
agressiva
agressivitat
agrico
agricola
agricole
agricoles
agricultors
agricultura
agriculture
agrippa
agronomia
agropament
agrostis
aguda
ague
aguent
aguest
aguesta
aguestes
aguesti
aguilar
agulha
agulhas
agusti
agustin
agut
aguts
ah
ahmad
ahmed
ahore
ai
aia
aic
aicesta
aiceste
aici
aide
aiga
aigada
aigadas
aigas
aigatge
aigats
aigla
aigua
aijo
aila
ailleurs
aima
aiman
aimar
aimat
aime
aimeric
aimet
ain
ainada
ainat
ainsi
air
aira
airal
airals
airard
airas
airau
airbus
aire
aires
airo
airy
ais
aisada
aisadas
aisament
aisat
aisats
aise
aises
aisida
aisidament
aisina
aisinas
aisit
aisne
aisse
aisses
ait
aital
aix
aj
aja
ajan
ajo
ajoute
ajuda
ajudada
ajudan
ajudar
ajudas
ajudat
ajudats
ajude
ajuntament
ajust
ajusta
ajustar
ajustat
ajuste
ak
akira
akkad
aksum
al
ala
alaba
alabama
alabastre
alacant
alain
alairac
alamans
alan
alans
alara
alari
alaric
alas
alaska
alavetz
alba
albacete
alban
albane
albania
albe
albedo
albert
alberto
albi
albige
albigeses
albin
albrecht
albret
album
albums
alca
alcali
alcalin
alcalins
alcaloi
alce
alco
alcoo
alcoran
alcover
aldei
aldo
aldrin
ale
aleato
alejandro
aleksandr
alemand
alemanda
alemandas
alemands
alemanha
alemanic
alemannisch
alembert
alen
alenc
alentejo
alentir
alentours
ales
alessandro
alex
alexa
alexander
alexandra
alexandre
alexandria
alexis
alfa
alfabet
alfabetic
alfabetizacion
alfabets
alfons
alfonso
alfred
alfredo
alga
algarve
algas
alge
algebrica
algebricas
algoritme
algoritmes
alh
alhors
ali
alia
aliada
aliadas
alianc
aliar
alias
aliat
aliatge
aliatges
aliats
alibe
alice
alie
alienacion
alieno
aliganc
align
alignbars
alii
aliment
alimenta
alimentacion
alimentar
alimentari
alimentaris
alimente
aliments
aline
alinhament
alinhar
alise
alite
all
alla
allah
allan
allant
alle
allegoria
allegro
allemagne
allemand
allemande
allemandes
allemands
allen
aller
alliance
allie
allier
allium
allusion
allusions
alluvions
alma
almas
almens
almeri
almoads
almodo
almohades
alo
aloge
alongada
alongament
alongat
alonso
alora
alors
alpenc
alpes
alpha
alphabet
alphonse
alpin
alps
alquimia
alquimista
alquimistas
already
als
alsa
alsace
also
alt
alta
altai
altar
alte
alteracion
alterna
alternanc
alternatiu
alternativa
alternativament
alternativas
alternative
alterofilia
althusser
altitud
altitude
altituds
alto
altres
altru
alumini
alunchada
alunchadas
alunchament
alunchar
alunchats
alunche
alunha
alunhada
alunhadas
alunhament
alunhar
alunhat
alunhats
am
ama
amaga
amagada
amagar
amagat
amai
amainatjament
amaisar
amalric
aman
amanc
amance
amand
amanita
amant
amants
amar
amara
amassa
amassada
amassadas
amassan
amassant
amassar
amassas
amassat
amassats
amasse
amat
amateur
amator
amators
amatritz
amazo
amazonas
amazonica
amb
ambaissada
ambaissador
ambaissadors
ambe
ambedkar
ambedo
ambedoas
ambedos
ambic
ambicio
ambicion
ambicions
ambient
ambigu
ambigui
amboise
amborg
ame
amenac
amenatjament
amendament
amendaments
ament
aments
america
american
americana
americanas
americanes
americans
americas
amerindianas
amerindians
ami
amians
amic
amics
amidon
amie
amiens
amiga
amin
aminats
aminoacids
amir
amiral
amirau
amis
amistat
amistats
amn
amna
amnistia
amo
among
amoniac
amont
amor
amore
amoro
amorosa
amoroses
amorritas
amors
amour
ampe
ampla
ample
amplitud
amplor
amsterdam
amudiment
amundsen
an
ana
analisa
analisar
analisi
analisis
analitica
analizar
analo
analogia
analogic
anals
analyse
analysis
anant
anar
anarchie
anarquia
anarquisme
anarquista
anarquistas
anas
anat
anato
anatole
anatolia
anatomia
anatz
anautit
anautita
anautitas
anava
anavan
anc
ance
ances
ancessor
ancessors
ancia
ancian
anciana
ancianament
ancianas
ancianes
ancianetat
ancians
ancien
ancienne
anciennement
anciennes
anciens
ancient
and
andalo
andalosia
andalu
andelle
andersen
anderson
andes
andhra
andicap
andicapats
andina
andlau
ando
andre
andrea
andreas
andrei
andres
andreu
andrew
andrews
andrieu
andrino
andriu
androme
andronic
andy
ane
anecdo
aneci
anem
anestesia
anfiteatre
anfo
ange
angel
angeles
angelo
angels
angers
angevin
angevine
angieus
angkor
anglais
anglaise
anglars
anglate
angle
angles
anglesa
anglesas
angleses
anglet
anglete
angleterre
anglo
anglofo
anglosaxon
anglosaxons
ango
angulara
anha
anhan
anhe
ani
anientada
anientament
anientar
anima
animacion
animacions
animada
animal
animala
animalas
animals
animat
animats
animau
animaus
animaux
anime
anique
aniversari
anjau
anjou
ankara
anmoins
ann
anna
annada
annadas
annades
annadie
annal
annala
annalas
annales
annals
anne
annecy
annee
annexada
annexadas
annexar
annexat
annexats
annexe
annexes
annexion
annibal
annie
anniversaire
anniversari
anno
annuaire
annual
ano
anomalias
anoncia
anonciar
anonciat
anoncie
anonim
another
ans
anse
ansin
ant
anta
antan
antany
antartic
antartica
antartida
ante
antena
antenas
anterior
anteriora
anteriorament
anterioras
anteriors
anthologie
anthony
anthropologie
anthropology
anti
antiaeriana
antibiotics
antic
antica
anticarri
anticas
anticipacion
antico
anticomunista
anticomunistas
antics
antige
antigo
antigua
antilhas
antimo
antinou
antio
antique
antiques
antiquitat
antiquitats
antiquite
antiquity
antisemita
antisemitisme
anto
antoine
antoinette
antologia
anton
antoni
antonin
antonio
antropolo
antropologia
ants
anualas
anuaus
anum
anumalbert
anve
any
anys
ao
aoc
aost
aosta
aou
aout
ap
apara
aparada
aparar
aparat
apare
apareguda
aparegudas
aparegue
aparegut
apareguts
apareis
apareish
apareissent
apareisson
aparelh
aparelhs
aparent
aparenta
aparentament
aparentat
aparentats
aparicion
aparicions
apartament
aparte
aparten
apartene
apartenent
apartenia
apartenon
apartheid
apc
ape
apelacion
apelada
apeladas
apelan
apelat
apelats
apellacion
aperada
aperaqui
aperat
aperats
aperavans
apercep
aperte
aperten
apertene
apertenent
apertenenta
apertengut
apertenia
apertenon
api
apicultura
apie
apis
aplant
aplegue
aplica
aplicacion
aplicacions
aplicada
aplicadas
aplican
aplicant
aplicar
aplicat
aplicats
aplique
apo
apocalipsi
apoge
apollo
apollon
apond
aponde
apondent
apondi
apondon
apondre
aponduda
apondudas
apondut
aponduts
aposto
apparai
apparait
appartenait
appartenant
appartenu
appartient
appel
appelait
appele
appellation
appellations
appelle
apple
application
applications
applique
apporte
approche
apps
apr
apre
apreciacion
apreciar
apreciat
apremont
apren
aprendi
aprendissatge
aprendre
aprene
aprengue
apres
april
apro
aprobacion
aprochar
aprofichant
aprofichar
aprofiche
apropriat
aprovada
aprovar
aprovat
aprove
aproximacion
aproximativa
aproximativament
apud
apue
aq
aqu
aqua
aque
aquel
aquela
aquelas
aquelei
aqueleis
aqueles
aquellos
aquels
aquemenida
aquera
aqueras
aqueri
aquerida
aquerigue
aquerir
aquerit
aquerits
aquest
aquesta
aquestas
aqueste
aquestei
aquestes
aqueth
aqueths
aqueu
aqui
aquiles
aquilles
aquin
aquistar
aquiste
aquita
aquitaine
aquitan
aquitanic
aquitans
aquiu
aquo
aquosa
ar
ara
arab
araba
arabas
arabe
arabes
arabi
arabia
arabic
arabica
arabis
arabs
arago
aragon
aragone
aragonesa
aral
aram
arame
aran
arane
aranesa
aranha
aranhas
arbitra
arbitrari
arbitratge
arbitre
arbitres
arbre
arbres
arbrilhon
arc
arca
arcada
arcadas
arcai
arcas
arce
arch
archaeology
arche
archeve
archibald
archidiacone
archidioce
archipe
archipre
architecte
architecture
archiu
archius
archive
archives
archivesenligne
arcis
arcs
ard
arda
arde
ardecha
ardena
ardenas
ardenne
ardennes
are
area
arena
arenas
arg
argele
argelie
argenc
argent
argentan
argentin
argentina
argeria
argeriana
argie
argiela
argier
argila
argo
argonne
argos
args
argues
argument
argumentacion
arguments
ari
aria
ariana
ariane
arid
aridas
ariditat
arie
ariel
aristo
aristocra
aristocracia
aristocrata
aristocratas
aristofanes
aristophane
aristote
aristoteliciana
aritmetica
arizo
arizona
ark
arlay
arle
arles
arma
armada
armadas
armadura
armaduras
armagnac
armament
armaments
armand
armanhac
armas
armat
armats
arme
armenia
armes
armistici
armoiries
armonia
armonica
armonicas
armonizacion
armor
armorial
armoricain
armorique
arms
armstrong
army
arn
arnais
arnaud
arnaut
arne
arnm
arno
arnold
arnt
aro
aromaticas
aromatics
aron
around
arpa
arpas
arpista
arpita
arpitan
arpitana
arqueolo
arqueologia
arqueologic
arqueologica
arqueologicas
arqueologics
arquet
arquetipe
arquevescat
arquevesque
arquie
arquime
arquite
arquitectura
arquitectural
arquitecturau
arras
arrasic
arre
arrecebo
arredondida
arredondit
arrefusa
arren
arrestacion
arrestacions
arrestada
arrestar
arrestat
arrestats
arreste
arri
arriba
arribada
arribadas
arriban
arribant
arribar
arribat
arribats
arribava
arribe
arrie
arriu
arrius
arrive
arro
arroi
arron
arrondiment
arrondiments
arrondissement
arrose
arrui
ars
arsac
arse
arsenal
arsenaus
arsenic
art
artaud
arte
arteriala
artesan
artesanala
artesanat
artesans
arthur
arti
artic
article
articles
articula
articulacion
artifici
artificial
artificiala
artificialament
artificialas
artificials
artificiau
artiga
artilharia
artillerie
artisanat
artisans
artista
artistas
artistes
artistic
artistica
artisticas
artistics
artois
artropo
arts
artu
arturo
arunachal
arundo
arve
arvo
as
asagatge
asce
ascende
ascendent
ascension
ascensor
ase
asean
ases
asia
asian
asiatic
asiatica
asiaticas
asiatics
asili
ask
asma
asp
aspa
aspe
aspect
aspects
aspiracion
aspiracions
ass
assag
assage
assags
assai
assaia
assaian
assaiant
assaiar
assaie
assais
assajar
assalt
assam
assassin
assassinar
assassinat
assassinats
assassine
assassins
assaut
assauts
asse
assecament
assegura
assegurada
asseguran
asseguranc
assegurant
assegurar
assegurat
assegurava
assegure
assemblada
assembladas
assemblar
assemblatge
assemble
assets
assez
assie
assimilacion
assimilar
assimilat
assimilats
assiria
assirian
assiriana
assirians
assise
assisi
assiste
assistent
assisti
assistigue
assistir
assistit
asso
assoan
associa
associacion
associacions
associada
associadas
associant
associar
associat
association
associativa
associats
associe
assompcion
assosta
assostava
assumir
assur
assure
ast
astarac
aste
asteroi
asti
astier
astor
astrada
astre
astres
astrofisica
astrologia
astronauta
astronautas
astronautica
astrono
astronomia
astronomic
astronomica
astronomical
astronomicas
astronomics
astronomy
astrophysical
astrophysics
astruc
astu
astyanax
at
atac
ataca
atacada
atacan
atacant
atacar
atacas
atacat
atacats
atacs
atal
atanben
ataque
atari
atau
ate
atei
atelier
atemptat
atemptats
atena
atenas
atencion
atenenc
atenenca
atenencs
atengue
atengut
atenh
atenhent
ateniana
atermena
aterratge
atestacion
atestacions
atestada
atestat
atestats
atge
ath
athe
athle
athletic
athletics
atic
atica
atics
atila
ation
atirar
atire
atla
atlanta
atlantic
atlantica
atlantics
atlantida
atlantique
atlas
atle
atletica
atletisme
atletismo
atmosfe
atmosferic
atmosferica
atmosferics
atmosphere
ato
atomic
atomica
atomicas
atomics
aton
ator
atoriala
atorialas
atot
atots
atp
atraccion
atrach
atraire
atribucion
atribucions
atribui
atribuida
atribuidas
atribuir
atribuisson
atribuit
atribuits
atribut
atributs
atro
atrocitats
ats
attache
attaque
atteint
attention
atteste
attestent
attribue
atudada
atudat
atude
au
auans
auba
aubadaurada
auban
aubane
aubaro
aube
auberge
aubert
aubigny
aubin
aubrac
aubre
aubres
auc
auca
aucas
auce
aucit
aucun
aucune
aucupacion
aude
audie
audio
audiovisuals
audito
aue
auer
aug
auge
auger
augmente
august
augusta
auguste
augustin
augusto
augustus
auia
auie
auien
aujo
aujourd
aula
aulaia
aulne
auloron
aumale
aumenatge
aumens
aument
aumenta
aumentacion
aumentada
aumentan
aumentant
aumentar
aumentat
aumente
aumont
aunay
aunor
aup
auparavant
aupre
aups
auquel
aur
aura
auragan
auraient
aurait
auratge
aure
aurelha
aurelhas
aurelian
aurenja
auria
auriac
aurinhac
aurio
auro
aus
auschwitz
ause
aush
ausida
ausir
aussau
ausse
aussi
austeritat
austin
austra
australa
australia
australian
australiana
australians
australopithecus
austria
austriac
austrian
austriana
austrianas
austrians
austronesianalynch
aut
auta
autan
autant
autar
autariba
autas
aute
autel
autentic
autentica
autenticitat
autes
auteur
auteurs
author
authority
auti
auto
autobiografia
autobu
autocto
automatic
automatica
automaticament
automne
automobil
automobila
automobilas
auton
autono
autonomia
autor
autora
autoretrach
autorise
autorita
autoritari
autoritaris
autoritarisme
autoritat
autoritats
autorite
autoriza
autorizacion
autorizada
autorizar
autorizat
autorizats
autorize
autorn
autorota
autoroute
autoroutes
autors
autostradas
autour
autra
autrament
autras
autre
autreco
autrefois
autrege
autrei
autreis
autrejat
autrement
autres
autresco
autriche
auts
autun
auve
auvergne
auvernha
auvernhassa
auvernhat
auvernhata
aux
auxerre
auxiliar
auxiliars
av
ava
avaient
available
avairon
avait
aval
avallon
avan
avana
avanc
avance
avans
avant
avantatge
avantatges
avantgarda
avars
avatar
avc
ave
avec
avem
aven
avenguda
avenidor
aveniment
avenir
avent
aventura
aventuras
aventure
aventurie
avenue
aver
avere
averroe
avertiment
avertir
avescat
avesnes
avesnois
avesque
avesques
avet
aveyron
avi
avia
aviacion
aviada
aviadament
avian
aviat
aviation
avie
avienguda
avignon
avinhon
avion
avions
avis
avit
avitalhament
avitalhar
aviv
avo
avocat
avocats
avogadro
avoine
avoir
avold
avons
avortament
avre
avricourt
avril
avut
aw
award
awards
ax
axe
axel
axes
axio
axom
ay
ayant
aymard
ayrault
az
azard
aze
azerbaitjan
azo
azur
b
ba
babel
babilo
babilonians
baby
bac
bach
bachelierat
bacin
bacins
back
background
bacon
bacte
bacteria
bacteriana
bacterias
bactriana
bacus
bad
badajoz
bade
baden
baez
bagdad
bahamas
bahasa
bahia
bai
baia
baias
baie
baikal
baile
bailey
bailleul
bailli
bailliage
bailly
bains
baiona
baird
bais
baish
baisha
baissa
baissar
baisse
baker
bako
bakr
bakufu
bal
bala
balaguer
balanc
balas
balcanica
balcanicas
balcans
balcon
baldur
bale
balear
balearas
balena
balenas
balet
balets
balha
balhada
balhan
balhant
balhar
balhat
balhe
bali
ball
ballet
ballon
balma
balmar
balne
baloard
balon
baltica
balticas
baltics
baltimore
balzac
bambo
ban
bana
banal
banana
banas
banc
banca
bancari
bancas
bancs
band
banda
bandas
bande
bandie
bandits
bane
bang
banglade
bangladesh
banh
banhada
banhat
banhe
banhs
bank
banle
banlieue
bano
banquet
banquie
banquisa
banto
bantos
bantu
bapaume
baptisme
baptista
baptiste
bar
barack
baranhas
barba
barbados
barbara
barbaras
barbaria
barbarossa
barbars
barbasan
barbe
barbuda
barc
barca
barcas
barcelona
barcelone
barcilona
bard
bardo
bare
bari
barnes
baron
baronia
baronnie
barons
barquement
barr
barra
barrada
barradas
barradura
barrage
barralha
barralhas
barranc
barrar
barras
barrat
barratge
barre
barreja
barri
barrie
barriera
barris
barro
barrois
barry
bars
barta
barthe
bartolome
bartolomeo
bartomieu
bas
basa
basada
basadas
basalt
basant
basas
basat
basats
basc
basca
bascas
basco
bascoat
bascos
bascs
base
based
bases
basic
basica
basicament
basicas
basics
basie
basile
basili
basilica
basque
basques
basquet
basquetbo
bass
bassa
bassas
basse
basses
bassin
basta
bastet
basti
bastia
bastida
bastidas
bastide
bastides
bastien
bastigue
bastiment
bastiments
bastion
bastir
bastison
bastissa
bastissas
bastisson
bastit
bastits
baston
bastons
bat
bataille
bataillon
batalha
batalhas
batalhier
batalhon
batalhons
bataria
bate
bategue
batejar
batejat
bates
batista
batman
batre
battista
battle
batuda
batudas
batut
batuts
bauc
bauces
baucita
baudelaire
baudoi
baudouin
bauer
bauge
baugeois
bauma
baumas
baume
bause
bavay
bavie
baviera
bay
bayard
bayeux
bayle
bazalgues
bbc
bc
bd
bdtopoc
be
beach
bearn
bearne
bearnesa
beat
beate
beatles
beatritz
beau
beauce
beaucoup
beaufort
beaujeu
beaujolais
beaulieu
beaumont
beaune
beauregard
beaurepaire
beauvais
beauvoir
beaux
bec
because
beck
becker
becquerel
bedel
been
beethoven
beffroi
before
begin
behavior
behind
bei
beillac
being
beirot
bel
bela
belau
bele
belfo
belfort
belga
belge
belgica
belgique
belgrad
belgrano
belin
belize
bell
bella
belle
bellegarde
belles
belleville
bellevue
belley
bello
bellum
belmont
belt
belve
bemo
ben
bena
benda
bendas
bende
bendit
bene
benedetto
benedictina
benedictins
benefi
benefici
beneficia
benefician
beneficiant
beneficiar
beneficiaris
beneficis
beneset
benestar
bengala
bengalin
benin
benito
benjamin
benle
benleu
benlhe
bennett
benoi
benoit
bens
benvenguda
ber
berbe
berceau
bercht
berenguie
berenguier
berg
berge
berger
bergman
bering
berkeley
berlin
bermudas
bernard
bernardo
bernart
bernat
bernay
bernhard
bernoulli
bero
berri
berric
berry
bert
bertomiu
bertram
bertran
bertrand
bes
besanc
besie
besonh
besonhs
bessin
besson
bessons
best
bestial
beta
beth
beton
better
betty
between
beu
beure
beutat
beuvron
bevenda
bevendas
bey
beyond
bg
bhns
bi
bia
biais
bianchi
biarn
biarne
bias
biat
bibcode
bible
biblic
biblica
biblics
biblio
bibliografia
bibliographie
bibliote
biblioteca
bibliothe
bicarbonat
bicicleta
bicicletas
bie
bieloru
bielorussia
bien
biens
big
bigatana
bigo
bihan
bihar
bilan
bilanc
bilbao
bilbon
bilhets
bilingu
bill
billy
bin
bina
binari
bingen
bio
biobi
biodiversitat
biografia
biografias
biographie
biography
biologia
biologic
biologica
biological
biologicas
biologics
biologie
biologista
biology
biomassa
bioquimia
bioquimista
biosfe
bir
bird
birman
birmana
birmania
birmans
biron
bis
biscaia
bismarck
bison
bissau
bit
bitche
bits
biu
bizanci
bizantin
bizantina
bizantinas
bizantins
bjo
bl
bla
black
blackwell
blaia
blaie
blair
blaise
blament
blanc
blanca
blancas
blanche
blanco
blancs
blangy
blanhac
blas
blasi
blason
blasons
blast
blat
blau
blaus
blava
blavas
ble
blec
blench
bles
blesse
bleu
bleue
bli
blia
blica
blindadas
blindat
blindatge
blindats
blinde
blo
blocada
blocar
blocat
blocatge
blocats
bloch
blocus
blog
blois
blood
bloom
bloque
bloquie
bloquier
blu
blue
blues
blum
blume
bn
bnf
bo
board
bob
bobby
bobsleigh
boc
boca
bocage
bocas
bocla
boda
bodisme
bodista
bodistas
bodon
body
boe
boeck
boeing
boers
bogota
bohr
boi
boico
boie
bois
boise
boisgontier
boissie
boisson
boita
boitas
bol
bola
bolas
bolchevic
bolchevics
bole
bolero
bolet
bolets
bolh
boli
bolonha
bols
bomb
bomba
bombai
bombardament
bombardaments
bombarde
bombardement
bombardements
bombardier
bombas
bombus
bon
bona
bonaparte
bonas
bonau
bond
bonet
bonheur
bonifaci
bonjour
bonn
bonne
bonnet
bonneton
bons
book
books
bor
borbo
borbon
borbone
borbons
bord
bordada
bordale
bordalesa
bordat
borde
bordeaux
border
bordes
bordie
bords
bordure
bore
borg
borgada
borge
borges
borgesa
borgeses
borgesia
borgo
borgonha
borgs
boris
born
bornat
bornats
borne
borno
borra
borrons
borsa
bos
bosc
bosch
bosco
boscs
boson
bosons
bosquet
bosso
boston
bot
bota
botan
botanic
botanica
botanique
botanista
botar
bote
botelha
botelhas
both
botiga
botigas
boton
bots
botswana
bottom
bouchard
bouche
boue
bouillon
boulaur
boulay
boulenger
boulogne
bourbon
bourbonnais
bourg
bourgade
bourgeois
bourges
bourget
bourgogne
bourgs
bourguignons
bouriane
bout
bouvier
bovina
bovins
box
boy
boyer
boyle
boyrie
boys
bpt
br
bra
brabant
brac
braces
bradley
braganc
brageirac
brahe
braille
brain
bram
braman
bramans
bran
branca
brancas
branche
brandeborg
branto
bras
brasil
brasilian
brasilie
brassens
bratislava
braun
brava
brave
bray
braye
brazil
bre
brec
breda
bregada
brel
bres
bresle
bressa
bresse
brest
bretagne
bretanha
breteuil
breton
bretona
bretonne
bretons
breuil
brevet
brevets
brexit
bri
bria
brian
brianc
brica
bricas
brice
brick
bridge
brie
brienne
brieuc
briga
brigada
brigitte
brilhant
brilhanta
brill
brion
brionnais
briques
brisson
brita
britain
britanic
britanica
britanicas
britanics
britannica
britannique
britanniques
british
briude
briva
bro
broa
broadway
broas
broglie
bronsted
bronze
brooklyn
brooks
bros
brossa
brots
brouwer
brown
bru
bruc
bruce
bruch
bruche
brue
bruguie
brujas
brulhe
brumaire
brun
bruna
brunas
brunehaut
brunei
brunet
bruno
brunswick
brusse
brut
bruta
brutala
brutlar
bruxelles
bruye
bs
btv
bu
buc
bucare
budape
budge
budget
budgeta
bue
buenos
buf
buffalo
buffon
bug
bugey
building
buis
buisson
bulgar
bulgara
bulgaria
bulgars
bull
bulle
bulletin
bun
buo
bure
bureau
burgan
burgos
burke
burkina
burnett
burns
burocracia
burocrata
burre
burton
burundi
bus
bush
business
bussie
bussiera
bust
but
buta
butan
butar
bute
butin
butler
buts
butte
button
by
byron
byzantin
c
ca
cabala
cabana
cabanas
cabarde
cabaret
cabdet
cabeladura
cabildo
cabina
cabinas
cabinet
cable
cables
cabo
cabra
cabral
cabras
cabus
cac
cacau
cache
caco
cactus
cada
cadastre
cadavre
cadavres
cade
cadena
cadenas
cadi
cadie
cadiera
cadilhac
cadis
cadre
cadun
caduna
caen
caesar
cafe
cafo
cahiers
cai
caiac
caira
cairat
caire
caireforc
caires
cairn
cais
caissa
caius
cal
cala
calais
calameo
calandreta
calas
calava
calc
calca
calcaire
calcaires
calcari
calcaris
calci
calcul
calcula
calculada
calcular
calculat
calculs
calde
caldeira
caldra
caldria
cale
caledo
calendie
calendier
calendrier
calere
calgue
calhau
calho
calia
calibre
calici
califa
califas
califat
califo
california
caligula
call
called
callisto
calma
calmann
calme
calo
calor
calvado
calvados
calvaire
calvet
calvin
calvinisme
cama
camarga
camba
cambajon
cambaro
cambas
cambe
cambi
cambia
cambiament
cambiaments
cambian
cambiar
cambiat
cambie
cambis
cambo
cambon
cambra
cambrai
cambras
cambre
cambridge
came
camelat
cament
camera
cameron
camille
camin
camina
caminada
caminament
caminar
camino
camins
camion
camions
camo
camomilha
camp
campa
campagne
campairo
campan
campana
campanal
campanar
campanas
campanha
campanhas
campbell
campe
campion
campionat
campionats
campions
campo
campos
camps
campus
camus
can
cana
canaan
canada
canadenc
canadian
canadiana
canadiens
canal
canaletto
canals
canas
canau
canaus
canave
canc
cance
cancelie
cancelier
cancer
cancerige
canche
cande
candidat
candidata
candidates
candidats
candidatura
cane
canet
canis
cannabis
canne
cannes
cano
canoe
canon
canonge
canonic
canonica
canons
cans
cant
canta
cantada
cantaira
cantaire
cantaires
cantal
cantan
cantar
cantat
cantautor
cantautora
cante
cantigas
canto
canton
cantonal
cantonala
cantonau
cantons
cantor
cants
cao
caors
cap
capa
capabla
capablas
capable
capables
capacitat
capacitats
cape
capelan
capella
capellanus
capelle
capi
capita
capitada
capitaine
capital
capitala
capitalapopulacion
capitalas
capitale
capitalisme
capitalista
capitalistas
capitals
capitan
capitani
capitanis
capitar
capitat
capitau
capite
capito
capitulacion
capitular
capitulara
capitule
caplo
capluo
cappella
capra
caps
capsicum
capsot
capsula
captar
captaus
captivitat
captor
captors
captura
capturada
capturar
capturat
capturats
capture
capvath
capvirament
capvirar
capvirat
car
cara
caracas
caracte
caracteristic
caracteristica
caracteristicas
caracteristics
caracteristiques
caracteriza
caracterizada
caracterizadas
caracterizan
caracterizar
caracterizat
caracterizats
caramanh
caras
caravaggio
caravanes
carbo
carbon
carbona
carbonat
carbonats
carburant
carburants
carcasse
carcassona
carcassonne
carcin
carcino
cardenal
cardiac
cardiaca
cardinal
cardinals
cardinau
care
carestia
carga
cargada
cargadas
cargament
cargar
cargas
cargat
cargats
cargue
cariba
caribas
caritat
carl
carles
carlesmanhe
carlo
carlos
carlyle
carmauc
carme
carmen
carmes
carn
carnaval
carnegie
carnivo
carnot
caro
carol
carolina
caroline
carolingian
carolingiana
carolingians
carolingien
caront
carpats
carpe
carrada
carradas
carranza
carrat
carrats
carre
carrefour
carri
carrie
carriera
carrieras
carris
carro
cars
cart
carta
cartage
cartagena
cartagine
cartaginesa
cartagineses
cartas
carte
carter
cartes
cartesian
carthage
cartier
cartografia
carton
cartulaire
cartulari
cas
casa
casablanca
casals
casamance
casas
casau
casaus
cascada
cascadas
casco
case
caseriu
caserius
cases
cash
cashmir
casimir
casino
cason
caspiana
cassacion
cassandra
cassanha
casse
casses
cassini
casta
castagniccia
castan
castanet
castanh
castas
caste
castel
castelana
castelet
castelha
castelhan
castelhana
castelhans
castell
castella
castellers
castello
castellum
castelnau
casterar
castig
castigar
castigat
castilhon
castilhone
castillo
castillon
castle
castras
castri
castro
castrum
casuda
casudas
cat
catala
catalan
catalana
catalanas
catalanes
catalanisme
catalanista
catalans
catalo
catalogue
catalonha
catalunya
catar
catara
cataracta
catarina
catarisme
catars
catastro
catastrofica
cate
catedrala
catedrau
categ
categori
categoria
categorias
categorie
categories
category
caterina
cathare
cathares
cathe
catherine
catholic
catholique
cation
cations
cato
catocantas
catolic
catolica
catolicas
catolicisme
catolics
caton
cats
cau
cauc
cauca
caucasenca
caucasencas
caucho
caud
cauda
caudas
caudie
cauds
caufar
caufatge
caulet
cauma
caumaires
caumas
caumatge
caumont
cauna
caunas
caus
causa
causada
causadas
causalitat
causant
causar
causas
causat
causats
cause
causeish
causes
causi
causida
causidas
causigue
causir
causisson
causit
causits
causse
causses
caux
cava
cavada
caval
cavalaria
cavaleria
cavalie
cavalier
cavaliers
cavals
cavaments
cavar
cavau
cavaus
cave
cavilha
cavitat
cavitats
cavo
cazac
cazacstan
cbs
cc
cci
cd
cda
cdot
cdots
ce
ceba
ceci
cecil
cedi
cedir
cedit
cedric
cee
cef
cei
ceilan
cela
cele
celebracion
celebracions
celebrada
celebrant
celebrar
celebrat
celebre
celebritat
cell
cella
celle
celles
cellula
cellular
cellulara
cellulas
cellulo
celsius
celte
celtes
celtic
celtica
celticas
celtics
celtique
celtiques
celui
cembre
cemente
cemment
cencha
cendre
cendres
cens
censat
censura
census
cent
centena
centenari
centenas
centenat
centenats
centenau
centenaus
center
centime
centolh
centra
centrada
centradas
central
centrala
centralas
centrale
centralizacion
centralizada
centralizat
centralizator
centrals
centrat
centrats
centrau
centraus
centre
centres
centri
centrifuga
centro
cents
centura
century
cependant
cer
cera
ceramica
ceramicas
cerca
cercaire
cercaires
cercan
cercant
cercar
cercat
cercava
cercle
cercles
cerda
cerdanha
cerealas
cerebrala
ceremo
ceremonia
ceremonias
ceres
cerf
cerie
cernay
cerque
cerro
cert
certa
certain
certaine
certaines
certains
certan
certana
certanas
certanei
certaneis
certans
certitud
cervantes
cerve
cervus
ces
cesana
cesar
cesare
ceselha
cessaire
cesse
cession
cet
cetace
cette
ceucle
ceuta
ceux
cevenas
ceveno
cf
cfg
cg
cgt
ch
cha
chaco
chacun
chad
chadic
chadica
chafrat
chafre
chah
chai
chain
chal
challenge
chalon
chaman
chamanisme
chamans
chambe
chambellan
chambon
chambord
chambra
chambras
chambre
chament
chamin
chamine
chamonix
champ
champagne
champanha
champion
champolion
champs
chan
chance
chang
change
changed
changement
changements
changes
changeur
changing
chanoine
chanoines
chanson
chansons
chant
chantal
chante
chantier
chantiers
chants
chanvre
chap
chape
chapela
chapelle
chapitre
chaple
chaples
chaplin
chapluo
chapman
chappe
chaque
char
character
charanta
charantas
charbon
chardin
charente
charge
charlemagne
charleroi
charles
charleville
charlie
charlotte
charmes
charolais
charte
chartes
chartres
chartreuse
chartsinfrance
chas
chasse
chasseurs
chaste
chastel
chasteu
chat
chateau
chau
chaumont
chausida
chausigue
chausir
chausit
chausits
chausse
chauve
chauvency
chaux
chavana
chavanas
che
check
checoslovaquia
chef
chelem
chelle
chemical
chemille
chemin
chemins
chemistry
chen
chequia
cher
cherche
ches
chet
cheval
chevalier
chevaliers
chevaux
chez
chi
chiang
chic
chicago
chico
chiffres
chifra
chifras
chifre
chifres
chiisme
chiita
chiitas
child
children
chile
chilen
chilena
chimie
chimpanze
chin
china
chine
chinesa
chinesas
chinese
chineses
chinon
chiny
chipre
chirac
chis
chistera
chivalier
chivaliers
chivau
chivaus
cho
choa
chocolat
choiseul
choix
cholet
chos
choses
chouans
chre
chris
christ
christiaan
christian
christiane
christianisme
christie
christine
christmas
christoph
christophe
christopher
chronique
chroniques
chs
chu
chuc
church
churchill
chute
chœur
ci
cia
cial
cian
cians
cianur
cias
cibernetica
cibla
ciblas
cicero
ciceron
cicle
cicles
ciclisme
ciclista
ciclistas
ciclo
ciclons
cicne
cicr
cid
cide
cidtexte
cie
ciel
cies
cile
cili
cilindre
cilindrica
cima
cimas
cime
ciment
cimente
cimento
cimetie
cinc
cincinnati
cine
cineasta
cinema
cinematografic
cinematografica
cinetica
cinq
cinquanta
cinquante
cinquantena
cinquen
cinquena
cio
cipre
cir
circ
circle
circonfere
circonscripcion
circonscripcions
circonscriptions
circonsta
circuit
circuits
circula
circulacion
circulan
circular
circulara
circulation
circulato
cirdo
cirenai
cirgue
ciril
cirillic
cirurgia
cirurgian
cis
cisalpina
cise
cision
cisjordania
cisme
ciste
cit
cita
citacion
citacions
citada
citadas
citadelle
citan
citant
citar
citat
citation
citations
citats
cite
cites
citoid
citron
cits
citta
city
ciudad
ciutadan
ciutadanetat
ciutadans
ciutade
ciutat
ciutats
civics
civil
civila
civilas
civile
civilisation
civilisations
civilizacion
civilizacions
civilization
civils
civitas
civiu
civius
ck
cl
cla
clad
claim
claims
clair
clairac
claire
clamenc
clan
clans
clar
clara
clarac
clarament
claras
clare
clarence
clarineta
claris
clark
clarke
clarmont
clars
class
classa
classada
classadas
classament
classar
classas
classat
classats
classe
classes
classic
classica
classical
classicas
classicisme
classics
classificacion
classificacions
classificada
classificadas
classificar
classificat
classification
classificats
classique
classiques
clastras
clau
claude
claudi
claudio
claus
clausa
clausas
clausula
clausura
clave
clavelada
clavie
cle
clear
clemenc
clemencic
clement
cleopatra
clergat
clerge
clerk
clermont
cles
clicatz
click
client
cliente
clients
clifford
clima
climas
climat
climate
climatic
climatica
climaticas
climatics
clin
clinat
clinica
clinton
clio
clo
cloche
clocher
clodove
cloquie
cloridric
clorur
clos
close
cloud
clovis
club
clubs
clunhic
cluny
cluse
cluses
cm
cn
cnrs
cnt
co
coa
coabitacion
coalicion
coalizats
coan
coat
cobalt
cobe
cobertura
coble
cobri
cobrint
cobrir
cobrissent
cobrissia
cobrisson
coca
coco
cocon
cocteau
code
codex
codificacion
coe
coeficient
coeficients
coemperaire
coere
coerent
coerenta
coesion
coexiste
cog
cognitiva
cognitivas
cognomen
cohen
cohn
coi
coimbra
coin
coire
coires
col
cola
colada
coladas
colar
colbert
colchicum
cole
coleopte
coles
colestero
colin
coll
collaboracion
collaboracions
collaborar
collaboration
collaborator
collaborators
collabore
collation
colle
colleccion
colleccions
collectar
collectif
collection
collections
collectiu
collectius
collectiva
collectivas
collectivitat
collectivitats
collectivizacion
college
collegiada
colline
collines
collins
collision
collisions
collo
colloque
colmar
colo
cologie
coloma
colomb
colomba
colombe
colombian
colombie
colombier
colombo
colome
colomna
colomnas
colon
colona
colonas
colonel
colonha
colonia
colonial
coloniala
colonialas
colonialisme
colonias
coloniau
coloniaus
colonizacion
colonizar
colons
color
coloracion
coloradas
colorado
colorant
colorants
colors
columbia
com
coma
comanda
comandada
comandament
comandaments
comandant
comandar
comandas
comandat
comandats
comande
comarca
comarcal
comarcas
comba
combas
combat
combate
combatent
combatents
combatre
combats
combe
combina
combinada
combinant
combinar
combinason
combinasons
combinat
combustible
combustibles
combustion
come
comedia
comedian
comedians
comenc
comence
comenge
comentari
comentaris
comerc
comerci
comercial
comerciala
comercialas
comercializacion
comercializat
comercials
comerciau
comerciaus
comes
comestible
cometa
cometas
comic
comics
coming
comissari
comission
comissions
comitat
comitats
comite
commande
commandement
commanderie
comme
commedia
commemorativa
commence
commencement
comment
commentaire
commentaires
commerce
commerces
commercial
comminges
commission
committee
common
commons
commonwealth
commun
communal
communale
communales
communard
communautat
communaute
commune
communes
communication
communications
communities
community
commutatiu
comne
como
compa
compacta
compacte
compagnie
companh
companha
companhia
companhon
companhons
companhs
companion
company
companys
compara
comparabla
comparable
comparada
comparant
comparar
comparason
comparasons
comparat
comparative
compare
compartiments
compatibilitat
compatibla
compatible
compausa
compausada
compausadas
compausan
compausant
compausanta
compausantas
compausants
compausar
compausat
compausats
compausava
compause
compe
compenha
compensacion
compensar
compete
competent
competents
competicion
competicions
compie
compilacion
comple
complement
complementa
complementari
complementaris
complements
complet
completa
completada
completadas
completament
completar
completat
completats
complete
complex
complexe
complexitat
compli
complica
complicacions
complicada
complicar
complicat
compliment
complique
complir
complit
complo
compo
comportament
comportaments
comportant
comportar
comporte
compose
composicion
composicions
composition
compositor
compositors
composits
composte
comprar
compre
compren
comprenait
comprenant
comprend
comprendre
comprene
comprenenc
comprenent
compreneson
comprengue
compreni
comprenia
comprenon
compres
compresa
compresas
compreses
compression
compris
comprome
compromi
compta
comptadors
comptait
comptan
comptant
comptar
comptava
compte
comptes
compton
computer
comtal
comtat
comtats
comte
comtes
comtessa
comtesse
comun
comuna
comunal
comunala
comunament
comunas
comunau
comunauta
comunautari
comunautat
comunautats
comune
comuni
comunica
comunicacion
comunicacions
comunicar
comunion
comunisme
comunista
comunistas
comunitat
comunitats
comuns
con
conca
concas
conce
concebe
concebre
concebuda
concebudas
concebut
concebuts
concentra
concentracion
concentracions
concentrada
concentradas
concentran
concentrar
concentrat
concentrats
concentre
concep
concepcio
concepcion
concepcions
concept
concernant
concernent
concerni
concernissent
concernisson
concernits
concert
concertacion
concerto
concertos
concession
concessions
concili
conciliar
concilis
conclugue
conclure
conclusion
conclusions
concluson
conclut
conclutz
conco
concordat
concors
concours
concre
concretament
concure
concurre
concurrents
condamna
condamnacion
condamnacions
condamnar
condamnat
condamnats
condamne
condat
conde
condemnat
condemnats
condensacion
condensator
condicion
condicionada
condicionat
condicions
condition
conditions
condo
condorcet
conduccion
conduch
conducha
conductivitat
conductor
conductors
cone
conego
coneguda
conegudas
conegue
conegut
coneguts
coneis
coneish
coneishuda
coneishut
coneisse
coneissenc
coneisser
coneissia
coneisson
coneissut
confe
confederacion
confederats
confere
conference
conferi
confession
confessions
confia
confiada
confiat
confie
confierme
configuracion
configuration
confins
confirma
confirmacion
confirmada
confirmant
confirmar
confirmat
confirme
confiscacion
confisque
conflans
conflent
conflicte
conflictes
conflit
conflits
conflue
confluence
confluent
confluisson
confo
confond
confondre
confondut
conformitat
confre
confronta
confrontacion
confrontat
confucianisme
confusion
confusions
congelacion
congo
congre
congregacion
congress
coni
conica
conife
conilh
conjugada
conjugason
conjugat
conjunt
conjuracion
connai
connais
connaissance
conne
connectant
connectar
connectat
connectats
connecticut
connexes
connexion
connexions
connor
connu
connue
connut
cono
conogue
conoi
conois
conoisse
conoissenc
conomie
conomique
conomiques
conque
conquerida
conquerir
conquista
conquistada
conquistadas
conquistador
conquistadors
conquistaire
conquistar
conquistas
conquistat
conquistats
conquiste
conrad
consacra
consacrada
consacrar
consacrat
consacrats
consacre
consagrada
consagrat
conscie
conscience
conscient
conscienta
conscripcion
conse
consecutius
consecutiva
conseil
conseiller
conselh
conselha
conselhat
conselhe
conselhie
conselhier
conselhiers
conselhs
consens
consensus
consentiment
conseque
consequent
conserva
conservacion
conservada
conservadas
conservador
conservadors
conservant
conservar
conservat
conservation
conservatisme
conservato
conservator
conservators
conservatritz
conservats
conserve
conseu
conseus
conside
considera
considerabla
considerablament
considerablas
considerable
considerables
consideracion
consideracions
considerada
consideradas
consideram
consideran
considerant
considerar
considerat
considerats
considerava
consideravan
considere
consiste
consisti
consistissia
consistisson
consisto
conso
consolidacion
consolidar
consoma
consomacion
consomator
consomators
consomits
consonanta
consonantas
consort
conspiracion
constanc
constant
constanta
constantas
constantin
constantino
constat
constata
constatar
constate
constellacion
constellacions
constitucion
constitucional
constitucionala
constitucionalas
constitucionalitat
constitucions
constitue
constituent
constituenta
constituents
constitui
constituida
constituidas
constituigue
constituir
constituissent
constituissi
constituissia
constituisson
constituit
constituits
constitution
constitutionnel
constrench
constrencha
constrenchas
construccion
construccions
construch
construcha
construchas
construction
constructions
constructor
construgue
construire
construit
construite
construites
construits
construrre
consul
consulat
consulta
consultable
consultacion
consultada
consultar
consultat
consultation
consultatiu
consulte
consulter
consumacion
conta
contact
contactar
contacte
contactes
contada
contaire
contaminacion
contan
contant
contar
contat
conte
contemporaine
contemporane
conten
contenant
contencio
contenent
contenguda
contengut
contenguts
contenia
contenir
contenon
content
contentament
contentar
contente
contenus
contes
contestacion
contestacions
contestada
contestar
contestat
contestats
conteste
context
contexte
contient
contigu
continent
continental
continentala
continentalas
continentau
continentaus
continents
contingent
contingents
continu
continua
continuament
continue
continuitat
continuum
contorn
contornejar
contorns
contra
contraccion
contracte
contractes
contradiccion
contradiccions
contradicto
contrafo
contrapartida
contrape
contrar
contrari
contrariament
contraris
contraro
contrarotlada
contrarotlar
contrarotlat
contrarotlats
contrast
contraste
contre
contrebas
contreforts
contribucion
contribucions
contribue
contribui
contribuigue
contribuir
contribuisson
contribuit
contribution
contributions
contributor
contributors
contro
control
controve
controversiat
contunh
contunha
contunhan
contunhar
contunhava
contunhe
contunia
contuniacion
contuniar
contunie
conve
conveccion
conven
convenc
convencion
convencional
convencionala
convencionalas
convencions
convencut
convenque
convent
convention
converge
conversacion
conversion
conversions
converti
convertigue
convertir
convertit
convertits
conviccion
conviccions
convidat
convidats
convo
convocacion
convocar
convoque
conway
coo
cook
coope
cooper
cooperacion
cooperativa
coord
coordenadas
coordinacion
coordonadas
cop
copa
copable
copada
copar
copas
copat
cope
copenaga
copernic
copia
copiar
copiat
copie
copley
copo
copy
copyright
coq
cor
coralament
coralh
coran
coratge
corau
corba
corbadura
corbas
corbie
cordon
core
corean
coreana
coriandre
corint
coriolis
corne
corneille
cornelius
cornet
cornouaille
cornus
coro
coromines
corona
coronada
coronament
coronas
coronat
corone
coronha
corporala
corporation
corps
corpus
corre
correccion
correccions
corredor
corregida
corregir
corregit
correguda
correja
correlacion
corrent
correnta
correntament
correntas
corrents
corresa
correspo
correspon
correspond
correspondance
corresponde
correspondent
correspondents
correspondia
correspondon
correspondre
corrie
corrosion
corrupcion
corruption
cors
corsa
corsari
corsaris
corsas
corse
corsega
corses
corsica
cort
corta
cortas
corte
cortesia
corteta
corts
corupcion
corvus
cos
cosa
cosco
coserans
coseson
cosin
cosina
cosinas
cosmic
cosmologia
cosmos
cosse
cossi
cost
costa
costalats
costat
costats
coste
costie
costo
costosa
costs
costum
costuma
costumas
costumie
costums
cote
coteau
coteaux
coton
cou
coucy
coudray
couesnon
could
coule
couleur
couleurs
coulomb
council
count
country
county
coup
coupage
coupe
cour
courant
courcelles
couronne
courrier
cours
course
court
courtenay
courtes
courtois
couvent
couvert
couverte
couvertes
couverts
couvrant
couvre
couvrir
cowboy
cox
cp
cr
cra
craco
craig
cran
cranc
crane
crani
craon
cras
crate
crau
crc
cre
crea
creacion
creacions
creada
creadas
creador
crean
creant
crear
creat
create
created
creation
creator
creatritz
creats
creatura
creaturas
credit
credits
credo
cree
creek
crei
creire
creis
creissement
creissenc
creissent
creissenta
cremada
cremar
cremat
cremats
cremona
crenhenc
crenicichla
crenta
creo
cres
crese
cresenc
cresent
cresents
cresi
cresia
creson
crespin
cresque
cresta
crestas
crestian
crestiana
crestianas
crestianisme
crestians
cret
creta
cretace
creuse
cri
cric
crida
cridar
cridat
cride
crim
crime
crimes
criminal
criminala
criminalitat
criminals
crims
criovolcanisme
crire
crise
crisi
crisis
crist
cristal
cristallin
cristallizacion
cristallizat
cristals
cristau
cristaus
cristian
cristianisme
cristina
cristo
crit
crite
critic
critica
criticada
critical
criticar
criticas
criticat
critics
critique
crits
criture
cro
croa
croat
croata
croats
crocus
croisade
croise
croissance
croix
cromoso
crompa
crompaires
crompar
crompat
crompe
cronica
cronicaire
cronicas
cronologia
cronologic
cronos
crop
cropole
cropped
cros
crosada
crosadas
crosaire
crosaires
crosament
crosat
crosats
croses
crosiera
cross
crosta
crotz
crow
crowley
crown
crucifixion
crude
cruesa
crus
crustace
cruz
crystal
cs
css
ct
cta
ctament
ctan
ctas
cte
ctenent
ctes
ctesifont
cths
ctor
ctre
ctres
cts
cu
cuba
cuban
cubana
cubans
cube
cubic
cuc
cue
cuenca
cuer
cuert
cuertas
cuirassat
cuirassats
cuisine
cul
culara
culas
culex
culheires
culhida
culhidas
culhie
culina
culmina
culminant
culmine
culmini
culo
culpabilitat
culs
cult
culte
cultes
cultiva
cultivada
cultivadas
cultivar
cultivars
cultivat
cultivats
cultive
cultura
cultural
culturala
culturalament
culturalas
culturals
culturas
culturau
culturaus
culture
culturel
cultures
cum
cunha
cup
cupe
cura
curacio
curat
curcuma
curd
curdistan
curds
cure
curia
curie
curio
curiosament
curiositat
curite
curling
currency
current
currently
curtis
curzon
cus
cusco
custer
cut
cutane
cution
cuvette
cuvier
cuyer
cuzco
cy
cyberne
cyr
cyril
cœur
d
da
dab
dabans
dacs
daction
dada
dahomey
dai
daily
daire
daissa
daissada
daissan
daissant
daissar
daissat
daisse
dait
dakar
dakota
dal
dala
dalai
dale
dalfin
dali
dalits
dallas
dalma
dalton
dama
damas
damasc
damatge
damatges
damatjar
damb
dambe
dame
dames
dampierre
dan
danc
dance
dane
danemarc
danesa
dangie
dangiero
dani
danie
daniel
dans
danse
dant
dante
danubi
dapasset
dar
dard
darfor
dari
dark
darney
darre
darrie
darrier
darriera
darrierei
darriereis
darriers
darrire
darwin
das
dat
data
database
datacion
datada
datan
datant
datar
datas
datat
datats
date
dateformat
datent
dates
datiu
dats
dau
daufin
daufinat
dauna
dauphin
dauphine
daurada
daurat
daus
dauzat
davala
davalada
davalant
davalar
davancie
davant
dave
david
davies
davis
davy
dawkins
dawn
day
days
db
dc
de
dead
dean
death
debana
debanament
debanan
debanant
debanar
debane
debans
debat
debate
debats
debit
debits
debord
debre
debut
debuta
debute
dec
deca
decade
decas
decatlon
dece
december
decembre
deceme
decenni
decennia
decennias
decennis
decernit
decibe
decide
decidi
decidida
decidigue
decidir
decidisson
decidit
decimal
decimala
decimalas
decime
decin
decine
decision
decisions
decisiu
decisiva
decisivas
declara
declaracion
declaracions
declarada
declarant
declarar
declarat
declare
declin
declinar
declinason
declinasons
decline
deco
decoracion
decoracions
decorada
decorat
decoratiu
decoratius
decre
decret
decrets
dedal
dedicada
dedicadas
dedicat
dedicats
dedins
deduch
deduire
deep
default
defaut
defautoc
defe
defend
defende
defendent
defendia
defendigue
defendon
defendre
defenduda
defendut
defenduts
defensa
defensas
defensiu
defensius
defensiva
defensivas
defensor
defensors
deficit
defini
definicion
definicions
definida
definidas
definigue
definir
definissent
definisson
definit
definition
definitiu
definitiva
definitivament
definits
deflacion
defo
deformacion
defugir
defunt
defuntat
defunte
degalhs
degli
degradacion
degre
deguda
degudas
degue
degun
degut
deguts
dehens
deho
dei
deis
deishar
deishe
deja
dejo
dejos
del
dela
delai
delamarre
delaware
delegacion
delegacions
delegada
delegadas
delegat
delegats
delh
delhi
delicte
delictes
delimita
delimitacion
delimitat
delivery
dell
della
delle
delos
dels
delta
deluvi
dem
demai
deman
demanda
demandada
demandan
demandant
demandar
demandas
demandat
demandava
demande
demandi
deme
demeni
demenicion
demenigue
demenir
demenit
demest
demete
demeure
demi
demission
demissionar
demissione
demo
democracia
democracias
democrata
democratas
democratic
democratica
democraticas
democratics
democratizacion
democrit
demografia
demografic
demografica
demonstracion
demonstracions
demora
demorada
demoradas
demoran
demoranc
demorant
demorar
demorara
demorat
demorats
demorava
demoravan
demore
demoste
demostracion
demostrada
demostrar
demostrat
demostre
dempu
dempue
dempuei
dempui
dempuish
den
dene
dengue
deni
denis
dennis
deno
denominacion
denominacions
denominator
denonciacion
denonciar
denoncie
dens
densa
densitat
densitats
densite
dent
dentada
dents
dentzer
departament
departamental
departamentalas
departaments
departement
department
depaus
depausar
depausat
depauses
depen
depend
depende
dependent
dependenta
dependia
dependon
depinta
depintan
depintant
depintar
depinte
deportacion
depression
depressions
depue
depuis
deputacion
deputada
deputat
deputats
der
dera
deras
derek
deriva
derivacion
derivada
derivadas
derivan
derivat
derivats
dernie
dernier
derniers
derrida
derrie
ders
des
desaco
desapare
desapareguda
desaparegue
desaparegut
desapareguts
desapareis
desapareisson
desaparicion
desarmament
desastre
desbarcament
desbarcar
desbarque
desbocadura
desbranda
descarga
descartes
descendants
descende
descendent
descendenta
descendents
descentralizacion
descentralizada
descle
descobe
descobri
descobrigue
descobrir
descolonizacion
descompausa
descomposicion
desconeguda
desconegudas
desconegut
desconeguts
descopatge
descreissenc
descrich
descricha
descrichas
descrichs
descrigue
descripcion
descripcions
descriptif
description
descrit
descriu
descriure
descrivent
descrivon
descube
descubrir
descurbigue
desde
desdemona
dese
desembre
desempuish
desen
desena
desenant
desenas
desenau
desenaus
desequilibri
desert
desertic
desertics
desfach
desfacha
desfachas
desfachs
desfar
desgatjar
desgrade
design
designa
designacion
designada
designan
designant
designar
designat
designats
designava
designe
desine
desintegracion
desir
desira
desirada
desiranc
desirat
desirava
desire
desiro
desirosas
desirs
desl
desligat
desliuranc
deso
despacha
desparie
despart
despartida
despartiment
despartit
despassa
despassar
despend
despendon
despens
despensas
despiech
desplac
desplace
desplegament
desportats
desprovesida
desprovesit
despue
despuei
despuish
desse
dessenh
dessenha
dessenhada
dessenhadas
dessenhaire
dessenhar
dessenhat
dessenhe
dessenhs
dessepara
desservi
desservida
desservie
dessota
dessous
dessu
dessus
destaca
destacada
destacan
destacar
destacat
destaque
destenduda
destillacion
destin
destinacion
destinacions
destinada
destinadas
destinat
destinats
destine
destitucion
destituit
destrech
destria
destriadas
destriament
destrian
destriar
destriat
destriats
destrie
destroie
destruccion
destruccions
destruch
destrucha
destruchas
destruchs
destruction
destrugue
destrui
destruida
destruir
destruire
destruit
destruits
destrurre
desvelopa
desvelopada
desvelopament
desvelopar
desvelopat
desvelopats
desvelope
desviament
desviar
desvolo
desvolopa
desvolopada
desvolopadas
desvolopament
desvolopaments
desvolopan
desvolopar
desvolopat
desvolopats
desvolope
det
detadas
detail
details
detalh
detalhada
detalhadas
detalhat
detalhs
deteccion
detectar
detencion
determina
determinacion
determinada
determinadas
determinan
determinant
determinar
determinat
determinats
deth
deths
detla
detlas
detlo
detlos
detractors
detriment
detroit
dets
detz
detzeas
deu
deuant
deura
deuria
deus
deute
deutes
deutsche
deux
deuxie
devait
devant
devath
deve
development
deven
devengut
devenir
devent
devenu
devenue
dever
devers
devesi
devesida
devesidas
devesigue
devesir
devesit
devesits
devi
devia
deviendra
devient
devil
devint
devisa
devisas
devo
devocion
devon
di
dia
diabe
diable
diables
diacritics
diaghilev
diagnostic
diagonala
diagrama
diale
dialectala
dialecte
dialectes
dialectica
dialectologia
dialo
diamant
diamants
diame
dian
diana
diane
dias
diaspo
diaspora
diazo
dic
diccionari
diccionario
diccionaris
dich
dicha
dichas
diches
dichs
dicitur
dick
dickens
dico
dicod
dicodoc
dicotopo
dictator
dictatura
dicte
dictin
dictine
dictins
dictionary
dictionnaire
did
diderot
didier
didon
die
diego
dieppe
dies
diesel
dieta
dietrich
dieu
dieus
dieux
dieuze
difere
diferenciacion
diferenciala
diferenciar
diferent
diferenta
diferentas
diferentei
diferenteis
diferents
diferi
diffe
different
diffusion
difice
dificil
dificila
dificilament
dificilas
dificils
dificultat
dificultats
difie
difteria
diftong
diftongue
difusa
difusada
difusar
difusat
difuse
difusion
dige
digestion
digestiu
digestius
digital
diglossia
digne
dignitat
digue
diidroge
dijo
dijon
dilatacion
dile
dilhe
diluns
dimanche
dimars
dime
dimenge
dimenjada
dimension
dimensions
diminucion
diminui
diminuir
diminutiu
din
dinamic
dinamica
dinamicas
dinamisme
dinan
dinastia
dinastias
dinc
dine
dinger
dinguirard
dinosaure
dinosaures
dins
dintra
dintrada
dintradas
dintran
dintrar
dintrat
dintratz
dintre
dio
dioce
dioclecian
dioge
dion
dioni
dios
dioscorides
dioxid
dioxige
diplo
diploma
diplomacia
diplomat
diplomata
diplomatic
diplomatica
diplomaticament
diplomaticas
diplomatics
diplomatique
dir
dira
dire
direccion
direccions
direct
directament
directe
directement
directeur
direction
directiva
directivas
director
directors
directritz
dirige
dirigent
dirigents
dirigi
dirigida
dirigidas
dirigigue
dirigir
dirigissia
dirigit
dirigits
dis
disc
disci
disciple
disciplina
disciplinas
disco
discografia
discors
discours
discovery
discre
discriminacion
discriminacions
discriminant
discs
discussion
discussions
discutida
discutidas
discutir
discutit
dise
disease
disen
disent
disi
disia
disney
dison
dispare
dispareguda
disparegue
disparegut
disparicion
disparie
disparu
dispausa
dispausadas
dispausan
dispausant
dispausar
dispausat
dispausats
dispausava
dispausavan
disperse
dispersion
displayformat
disponibilitat
disponibla
disponiblas
disponible
disponibles
dispose
disposicion
disposicions
dispositiu
dispositius
disputa
dispute
disques
dissabte
dissimilacion
disso
dissolucion
dissuasion
dista
distanc
distance
distant
distante
distinccion
distincion
distincions
distincte
distinctes
distingue
distingui
distinguir
distinguisson
distint
distinta
distintas
distints
distribucion
distribui
distribuir
distribution
district
districte
districtes
districts
dit
dita
dite
diterrane
diteur
dition
ditions
dits
ditz
diu
diue
diuersi
dium
dius
div
divali
dive
divendres
diverge
divers
diversas
diverses
diversificacion
diversificada
diversitat
diversite
diversity
divertiment
dives
divesa
divessa
dividi
dividida
dividit
divin
divina
divinas
divinitat
divinitats
divins
divisa
divisada
divisat
divise
division
divisions
divo
dix
dizaine
dizier
dj
django
dms
dnie
do
doa
doana
doanas
doanie
doas
dobe
dobertura
dobla
doblament
doblas
doble
dobles
doblets
dobri
dobrigue
dobrir
dobs
dobte
dobtes
doc
doces
docplayer
docteur
doctor
doctorat
doctrina
doctrinas
document
documenta
documentacion
documentaire
documentari
documentaris
documentat
documentation
documents
does
dog
doi
dois
doit
dol
dolar
dolars
dole
dolmen
dolor
dolors
dols
dom
doma
domaine
domaines
domaise
domaniale
domat
dombes
dome
domenge
domeni
domenico
domenis
domergue
domestic
domestica
domesticacion
domesticas
domestics
domfront
domi
domician
domicili
domina
dominacion
dominada
dominan
dominant
dominanta
dominantas
dominants
dominar
dominat
dominats
dominava
dominavan
domine
domingo
domini
dominica
dominican
dominicana
dominicans
dominique
domino
dominus
dommartin
dompierre
domus
don
dona
donada
donadas
donald
donan
donant
donar
donara
donaria
donat
donation
donats
donava
donavan
donax
donc
doncas
donde
done
donjon
donna
donnant
donne
donnees
donner
donques
dons
dont
dopamina
dor
dordogne
dordonha
dore
dormir
dormito
dorothy
dorsala
dorsalas
dos
dossie
dossier
dossiers
dot
dotada
dotadas
dotar
dotat
dotats
dote
dotze
dotzena
douai
douard
double
doubs
douce
douglas
douleur
douro
doute
douze
dover
down
download
doyenne
dq
dr
dra
drac
dragon
dragons
draguinhan
drake
drale
dralha
drama
dramas
dramatic
dramatica
dramaturg
drape
dre
dream
drech
drecha
drechas
dreches
drechs
dreit
dreita
dreits
dres
dret
dreta
drets
dreux
dreyfus
dridi
drive
dro
droit
droite
droits
droma
drona
droz
druida
ds
dt
du
dualitat
duas
dubai
dube
dubertura
dublin
dubreuil
dubrigue
dubrir
duc
ducat
ducation
ducats
duche
duchesse
duck
ducs
due
dues
duke
dumas
dume
dumont
dumort
dun
duna
dunas
duncan
dune
dunod
dunque
duo
dupont
dupuy
dur
dura
durabla
durable
durada
duradas
durament
duran
durand
durant
durar
duras
durban
durbir
dure
durenc
durengues
duretat
during
durs
dus
dusau
dvd
dvor
dwight
dx
dy
dylan
dynamics
dynasty
dz
e
ea
each
early
earth
east
eastern
eau
eaux
ebla
ebrai
ebre
ebrieu
ebrieus
ebullicion
ec
eca
eccl
eccle
ecclesia
ecclesiam
ecclesie
eclesiastic
eclesiastica
eclesiastics
ecliptica
eco
ecole
ecologia
ecologic
ecologica
ecological
ecologics
ecology
economia
economias
economic
economica
economicament
economicas
economics
economista
economistas
economy
ecosiste
ecozo
ecran
ecrans
ectara
ectaras
ecu
ecumenic
ed
edat
edats
eddy
ede
edessa
edgar
edi
edicio
edicion
ediciones
edicions
edicte
edificacion
edifici
edificis
edimborg
edip
edison
edit
editada
editar
editat
edited
editing
edition
editions
editor
editorial
editors
edmond
edmund
edo
edoard
edoi
edouard
eds
edu
eduard
eduardo
educacion
educat
education
educatiu
educats
edvard
edward
edwards
edwin
ee
ef
efe
efectiu
efectius
efectiva
efectivament
efectua
efectuadas
efectuar
efectuat
efectue
efeme
effect
effects
effectue
effet
eficac
eficaces
eficacitat
efie
efiech
efiechs
eg
egal
egala
egalament
egalas
egalitat
egals
egau
egaus
ege
egemonia
egipcian
egipciana
egipcianas
egipcians
egipte
egiptolo
egiptologic
egleisa
eglise
ego
egoi
egypt
egypte
ehess
ei
eiffel
eigenmann
eila
ein
eine
einstein
eiretatge
eirete
eiretie
eiretier
eiretiers
eis
eisenstein
eissida
eissidas
eissiduelh
eissit
eissits
eissuch
eissuchs
eivissa
eixample
ej
ejeccion
ek
el
ela
elaboracion
elaborada
elaborar
elaborat
elam
elas
elastic
elasticitat
elbeuf
ele
eleccion
eleccions
election
elections
elector
electoral
electorala
electoralas
electorau
electoraus
electors
electric
electrica
electricas
electricitat
electrics
electro
electrolisi
electromagnetic
electromagnetica
electromagneticas
electromagnetics
electromagnetisme
electron
electronegativitat
electronic
electronica
electronics
electrons
electroquimia
elefant
elefants
elegi
elegida
elegigue
elegir
elegit
elegits
elei
element
elementa
elements
elena
eles
elevacion
elevada
elevar
elevat
elevatge
elevats
elfs
eli
elias
elic
elicopte
elie
eliminacion
eliminar
eliminat
eliminats
elimine
eliocentric
elisabe
elisabeta
elisabeth
elise
elizabeth
ell
ella
elle
ellenistic
ellenistica
elles
ellipsa
elliptica
ellipticas
ellis
ellul
ellum
elo
els
else
elseif
em
emai
emancipacion
emb
embarcacions
embarcar
embarg
embarra
embe
embessonatges
emble
emblematic
emblematica
embocadura
emboscada
embrancament
embrion
embut
eme
emerge
emergigue
emesa
emesas
emet
emete
emetor
emetre
emi
emigracion
emigrats
emigre
emil
emile
emili
emilia
emilio
emir
emirat
emirats
emisfe
emissari
emission
emissions
emma
emmanuel
emocion
emocions
emoglobina
empacha
empachan
empachant
empachar
empachava
empache
empare
empe
empedigue
empedir
emperador
emperaire
emperaires
empereur
empilament
empire
empires
empiric
empirica
empirisme
emplac
emplacement
emplec
emplecs
emplega
emplegada
emplegadas
emplegan
emplegar
emplegat
emplegats
emplegava
emplegue
emplir
emplit
emploi
employe
empo
empont
empordan
emportar
emporte
empresa
empresonament
empresonat
emprunte
empty
empu
en
ena
enabled
enamore
enauc
enaut
enc
encaminament
encara
encargada
encargadas
encargat
encargats
encargue
encastre
encausa
enceinte
encencha
encendi
encens
encenta
enceuclament
enceuclar
enche
enciclope
enciclopedia
enciclopedic
enclava
enclave
enclinason
enco
encobrir
encontra
encontran
encontrar
encontrat
encontre
encora
encoratge
encoratja
encoratjada
encoratjar
encoratjat
encoratje
encore
encreuament
encuei
encyclopaedia
encyclope
encyclopedia
encyclopædia
end
endaco
endavant
ende
endeman
endemica
endemicas
endorei
endre
endrech
endreches
endrechs
endret
endroit
endroits
ene
enebi
enebida
enebidas
enebigue
enebiment
enebir
enebit
enebits
enei
enemic
enemics
enemiga
enemigas
energetic
energetica
energia
energias
energy
enes
enfa
enfanc
enfant
enfants
enfer
enfin
enforc
enfugigue
enfugir
engana
enganar
engatge
engatja
engatjada
engatjament
engatjaments
engatjar
engatjat
engatjats
engatje
enge
engels
engendra
engendrar
engendrat
engendre
engenh
engenhaire
engenhaires
engenharia
engenhs
engineering
engl
england
english
engoleime
engolme
engrais
engranatge
engranatges
enguarda
enigma
enjo
enkidu
enla
enlil
enlo
enne
ennes
eno
enonciat
enonciats
enqu
enque
enquia
enquiath
enquista
enre
enregistra
enregistrada
enregistradas
enregistrament
enregistraments
enregistrar
enregistrat
enregistrats
enregistre
enric
enrico
enrique
enriquiment
enriquir
enro
enrodada
enrodat
ens
ensag
ensage
ensages
ensags
ensaja
ensajan
ensajar
ense
enseguida
enseignement
ensejar
ensem
ensemble
ensembles
ensems
ensenha
ensenhaire
ensenhaires
ensenhament
ensenhaments
ensenhar
ensenhat
ensenhe
ensign
ensuite
ent
enta
entamene
entau
entaus
ente
entend
entendement
entendre
entenduda
entendut
enter
enterin
enterrada
enterrament
enterrat
enterre
entie
entier
entierament
entiers
entitat
entitats
entite
entity
entorn
entornar
entorne
entorns
entoure
entra
entrada
entrai
entrar
entre
entrepreneire
entrepreneires
entrepresa
entrepresas
entreprise
entreprises
entresenhas
entreten
entretenenc
entretenir
entretien
entretiens
entrevista
entro
entropia
env
envai
enve
enveja
envia
enviada
enviar
enviat
enviats
envie
environ
environa
environada
environament
environamental
environamentala
environamentalas
environamentals
environaments
environat
environment
environmental
environnement
environs
enviroutat
envolopa
envoutat
enzim
enzims
eo
eoliana
ep
epci
ephesos
epic
epictet
epicur
epide
epidemia
epidemias
epira
episcopal
episcopala
episo
episto
epite
epo
epoca
epope
epte
equ
equacion
equacions
eque
equilibrar
equilibrat
equilibri
equilibris
equino
equipa
equipada
equipadas
equipament
equipaments
equipar
equipas
equipat
equipatge
equipatges
equipats
equitable
equitacion
equival
equivale
equivalent
equivalenta
equivalentas
equivalents
equus
er
era
eracles
eraclit
eraldica
eran
eras
erasme
erau
erbace
erbivo
erc
ercegovina
ercules
ere
erectus
eredita
ereditari
ereditaris
ereditat
eren
eresia
eretatge
erete
eretgia
eretics
eretie
erfs
eri
eric
erich
erigida
erigir
erigit
erik
eritatge
eritie
eritre
erme
ermita
ermitage
ermitatge
erne
ernest
ernesto
ernst
ero
erodo
eroi
erosion
errance
erreur
erreurs
errone
error
errors
ers
erstein
erudit
erudits
erupcion
erupcions
eruption
erwin
es
esa
esbo
esca
escac
escacs
escadenc
escafar
escai
escais
escaissada
escaissat
escala
escalas
escalfament
escalie
escaliers
escambi
escambiar
escambis
escampa
escampilhat
escampilhats
escandal
escandalh
escandau
escandina
escandinaus
escando
escapa
escapar
escape
escaramochas
escart
escartar
escartons
escasenc
escassa
escasses
escatas
escaut
escavacions
esclairatge
esclat
esclatament
esclate
esclau
esclaus
esclavatge
esclo
esco
escoce
escocesa
escola
escolament
escolan
escolans
escolar
escolara
escolarizacion
escolastica
escomesa
escomesas
escondre
esconduda
escondut
escorbut
escota
escotar
escri
escribas
escrich
escricha
escrichas
escriches
escrichs
escrigue
escrima
escrit
escrita
escrits
escritura
escrituras
escriu
escriure
escriut
escrivan
escrivana
escrivans
escrivent
escrivia
escrivon
escrutinh
escuelhut
escultor
escultura
esculturas
escur
escura
escuras
escut
escuts
esfe
esfemenin
esferica
esfinx
esfo
esio
esitacions
esite
eslau
eslaus
eslava
eslavas
eslogan
eslovac
eslovaquia
eslove
esmenda
esmirna
esmogudas
eso
esp
espac
espace
espaces
espaci
espacial
espaciala
espacialas
espaciau
espacis
espagne
espagnol
espagnole
espagnols
espan
espandi
espandida
espandidas
espandigue
espandiment
espandir
espandissia
espandisson
espandit
espandits
espandre
espanha
espanho
esparra
esparta
espartenca
espartencs
espasa
espasas
espatla
espe
especial
especiala
especialament
especialas
especialista
especialistas
especialitat
especialitats
especializacion
especializada
especializadas
especializat
especializats
especials
especiau
especiaus
especific
especifica
especificament
especificas
especificitat
especifics
especime
espectacle
espectacles
espectaclo
espectacular
espectator
espectators
especulacion
espeleologia
espelida
espeligue
espelir
espeluga
esper
espera
esperanc
esperant
esperanto
esperar
esperat
esperava
espere
esperel
esperela
espereles
esperit
esperital
esperitala
esperits
esperon
esperse
espessa
espessor
espetat
espin
espina
espinas
espinosa
espirala
espiralas
espiritual
espiritualitat
espital
espitalie
espitals
espitau
esplech
esplecha
esplechar
espleches
espleitacion
espleitacions
esplendor
espo
espontane
esportiu
esportius
esportiva
esportivas
esposa
esposar
espose
esposes
esprit
espro
esquadra
esque
esquele
esqueleta
esquerra
esqui
esquic
esquichada
esquichar
esquil
esquina
esquiro
esquis
essai
essais
essay
essays
esse
essencial
essenciala
essencialament
essencialas
essencials
essent
essentiel
essentiellement
esser
essonne
essor
est
esta
estabilitat
estabilizacion
estabilizar
estabilize
establa
establas
estable
estables
establi
establida
establidas
establigue
establiment
establiments
establir
establissent
establisson
establit
establits
estaca
estacada
estacat
estacion
estacions
estada
estadas
estadi
estadis
estado
estajants
estalin
estalivar
estam
estamparia
estampat
estanc
estandard
estandardizacion
estandards
estanh
estanhs
estant
estapa
estapas
estar
estat
estatala
estatalas
estatge
estatges
estatica
estatistic
estatistica
estatisticas
estatjants
estats
estatsunidenc
estatsunidenca
estatsunidencas
estatsunidencs
estatua
estatuas
estatut
estatuts
este
estela
estelas
estella
estench
estend
estende
estendia
estendigue
estendon
estendre
estenduda
estendudas
estendut
estent
esterlina
estetic
estetica
esteve
esti
estienne
estigmatas
estil
estile
estiles
estils
estima
estimacion
estimacions
estimada
estiman
estimar
estimat
estimats
estime
estimulacion
estimular
estiu
estius
esto
estocatge
estoco
estoi
estomac
estonian
estot
estrabon
estrangie
estrangier
estrangiera
estrangieras
estrangiers
estranh
estranha
estrasborg
estrasburg
estrategia
estrategias
estrategic
estrategica
estrategicas
estrategics
estratosfe
estre
estrech
estrecha
estrechament
estrechas
estreches
estrechs
estricta
estrictament
estrictas
estricte
estro
estructura
estructuracion
estructurada
estructurala
estructurar
estructuras
estructurat
estu
estuaire
estuari
estudi
estudia
estudiada
estudiadas
estudiant
estudianta
estudiants
estudiar
estudiat
estudiats
estudie
estudio
estudios
estudis
estut
et
eta
etano
etapa
etapas
etat
etats
etc
ete
eternal
eternala
eternitat
eterogenei
eth
ethiopia
ethnologue
eths
etica
etienne
etime
etimologia
etimologic
etimologica
etimologicament
etiopia
etiopian
etiopiana
etiopians
etiqueta
etnia
etnias
etnic
etnica
etnicas
etnics
etrusc
etrusca
etruscs
etudes
etum
eu
eua
eucario
euclides
euclidian
euclidiana
eudes
eufrates
euge
eugene
eula
eulalia
euler
euphorbia
eur
eurasia
eurasiatica
eure
euridice
euripides
euro
europa
europe
european
eurovision
euse
eustache
eut
eux
ev
eva
evacuacion
evacuar
evaluacion
evaluar
evange
evangelista
evangelizacion
evans
evaporacion
evasion
eve
even
eveniment
eveniments
eventuala
eventualament
eventualas
eventuals
every
everyone
evescat
evesque
evesques
evide
evidence
evident
evidenta
evidentament
evita
evitament
evitant
evitar
evo
evoca
evocacion
evocada
evocant
evocar
evocat
evolua
evolucion
evoluciona
evolucionant
evolucionar
evolucionat
evolucione
evolucions
evolue
evolui
evolution
evolutiva
ex
exacta
exactament
exactas
exacte
exame
examen
examina
examinar
example
exaustiva
exce
excelle
excellent
excellenta
excentricitat
excepcion
excepcional
excepcionala
excepcionalament
excepcionalas
excepcions
exceptat
excessiva
exclu
exclure
exclusion
exclusiu
exclusiva
exclusivament
exclusivitat
excomunicacion
exe
execucion
execucions
executar
executat
executats
execute
executiu
executius
executiva
exege
exemplar
exemplaris
exemplars
exemple
exemples
exerc
exerci
exercici
exercicis
exercida
exercigue
exercir
exercissia
exercisson
exercit
exhibition
exige
exigi
exigigue
exigir
exigissia
exil
exilar
exile
exili
exiliar
exiliat
exiliats
exilie
existait
existe
existeish
existence
existent
existentas
existents
existi
existia
existigue
existir
existisse
existissent
existissia
existisson
existit
exo
expansion
expansionisme
expausa
expausada
expausadas
expausar
expausat
expausats
expause
expe
expedi
expedicion
expedicionari
expedicions
experie
experience
experimentacion
experimental
experimentala
experimentalas
experimentats
expleitacion
expleitacions
expleitar
explica
explicacion
explicacions
explicada
explican
explicant
explicar
explicaria
explicat
explicava
explicita
explicitament
explique
exploitation
exploitations
exploite
exploracion
exploracions
explorador
explorar
exploration
explorator
explorators
explore
explorer
explosion
explosions
explosiu
explosius
explosiva
explosivas
expo
exportacion
exportacions
expose
exposicion
exposicions
exposition
expre
express
expression
expressions
exprimi
exprimida
exprimigue
exprimir
exprimisson
exprimit
exprimits
expropriacion
expulsar
expulsat
expulsats
expulse
expulsion
exte
extension
extensions
exterior
exteriora
exterioras
exteriors
exterminacion
externes
extinccion
extincion
extinction
extra
extraccion
extrach
extracha
extrachs
extraction
extrai
extraire
extrait
extraits
extraordina
extraordinari
extraterre
extre
extremadura
extremitat
extremitats
exupe
eyck
eye
eyes
eynaud
ez
f
fa
fabla
fablas
fables
fabre
fabrica
fabricacion
fabricada
fabricadas
fabricant
fabricants
fabricar
fabricas
fabricat
fabrication
fabricats
fabrique
fabulous
fac
faccions
face
facebook
fach
facha
fachas
faches
fachs
faciada
faciar
facil
facilament
facilita
facilitar
facilitat
facilite
factbook
facto
factor
factors
facultat
facultatiu
facultats
fada
fadas
faga
fagin
fague
fagus
fai
faic
faidits
fair
faire
fais
faisait
faisant
faissa
faissisme
faissista
faissistas
fait
faite
faits
falaise
falaises
falcon
falguie
falha
falhas
falhida
fall
fals
falsa
falsas
false
fam
fama
familha
familhala
familhas
familial
familiala
familialas
famille
familles
family
famina
faminas
famo
famosa
famosas
famoses
fan
fanga
fanlac
fanny
fantasia
fantassins
fantastic
fantastica
fantastique
fantasy
fao
faq
far
fara
faraday
faraon
faraons
farc
fare
farga
faria
farina
farmacia
farmacope
faro
fas
fasa
fasas
fase
fasent
fasia
faso
fatimida
fatimidas
fau
faubourg
faucogney
faula
faulas
fauna
faune
faure
faus
faussa
faust
faut
fauta
fautas
faux
favas
faveur
favor
favorabla
favorablas
favorable
favorables
favorit
favoriza
favorizada
favorizan
favorizant
favorizar
favorizat
favorize
fay
fayard
faye
fc
fcadastre
fe
feature
features
feb
febla
feblas
feble
febles
feblessa
febrie
febrier
february
febus
fecondacion
feconditat
fectoral
fecture
feda
fedas
federacio
federacion
federacions
federal
federala
federalas
federalisme
federation
federats
federau
federico
feedback
feel
fei
felen
felibre
felibrenca
felibres
felibrige
felibritge
felic
felidae
felin
felip
felipe
felis
felitz
felix
fellini
feme
femenin
femenina
femeninas
femenins
femes
feminin
feminina
feminisme
feminista
feministas
femme
femmes
femna
femnas
fen
fender
fene
fenicia
fenician
feniciana
fenicianas
fenicians
fenolhede
fenome
fenomenologia
fense
feodau
fer
fera
ferdinand
ferit
ferits
fermat
ferme
fermentacion
fermes
fermi
ferna
fernand
fernando
fero
feromo
ferran
ferrand
ferrat
ferre
ferrer
ferrette
ferrie
ferro
ferrolh
ferrovia
ferroviaire
ferroviari
ferry
ferte
fertil
fertila
fertilitat
fes
festa
festenal
festenals
festival
fet
fetge
feu
feudal
feudala
feudalitat
feux
few
ff
fi
fia
fial
fials
fias
fibonacci
fibra
fibras
ficcion
ficha
fiche
fichie
fichier
ficie
fico
fiction
fictiu
ficus
fide
fidel
fidelitat
fides
fie
fief
fiefs
field
fielding
fifa
figaro
figueres
figuie
figura
figuran
figurant
figuras
figure
figures
fijac
fiji
fil
fila
filade
filantro
filat
file
files
filh
filha
filhas
filhs
filiacion
filie
filipinas
fill
fille
filles
film
filmatge
filme
filmes
filmografia
films
filogenetic
filogenetica
filogenia
filolo
filologia
filoso
filosofia
filosofic
filosofica
filosoficas
filosofics
fils
filtracion
filtre
filtres
fin
fina
finage
final
finala
finalament
finalas
finalement
finalista
finalitat
financ
finance
financiament
financiar
financie
financier
financiera
financieras
financiers
finas
finau
find
fine
finesa
fini
finigue
finir
finiste
finit
finition
finitivement
finla
finlande
finlandesa
fins
fire
firefox
firent
firma
first
fis
fisabilitat
fisable
fisada
fisanc
fisar
fisat
fiscal
fiscala
fiscalas
fiscalitat
fischer
fise
fish
fishbase
fisher
fisic
fisica
fisicament
fisicas
fisician
fisicians
fisics
fisiocratas
fisiologia
fission
fit
fitzgerald
fitzinger
fiu
fius
five
fix
fixa
fixacion
fixada
fixadas
fixant
fixar
fixas
fixat
fixats
fixe
fixes
fj
flac
flaca
flag
flage
flama
flamas
flamenc
flamenca
flamencs
flammarion
flanc
flancs
flandra
flandre
flandres
flaquesa
flash
flau
flaujac
flavi
flavius
fle
fleming
flers
fletxa
fleur
fleurs
fleury
fleuve
flexion
flexions
flight
flo
floor
flor
flora
florals
florason
flore
florenc
florence
florent
florentin
flores
floret
florian
florida
flors
flota
flotant
floyd
fluctuacions
flueix
fluid
fluids
flum
flume
flumes
fluoresce
flus
fluses
fluvi
fluvial
fluvis
flux
flying
fm
fmi
fo
foce
focus
fogal
fogals
fogue
foguet
foi
fois
foish
foix
fol
fola
folclo
folia
folio
folk
folklore
fon
fonccion
foncion
fonciona
foncional
foncionala
foncionament
foncionan
foncionant
foncionar
foncionari
foncionaris
foncione
foncions
fonction
fonctions
fond
fonda
fondacion
fondacions
fondada
fondadas
fondador
fondadors
fondament
fondamental
fondamentala
fondamentalament
fondamentalas
fondamentals
fondamentau
fondamentaus
fondaments
fondan
fondant
fondar
fondat
fondateur
fondation
fondator
fondators
fondats
fonde
fonderie
fondre
fonds
fone
fonetic
fonetica
foneticament
foneticas
fonetics
fonologia
fons
fonsie
font
fontaine
fontainebleau
fontaines
fonte
fontenay
fontenoy
fonts
fontsize
fonzie
food
football
for
forala
forall
forbach
forbes
forc
forca
forcauquier
force
forces
ford
fore
foreign
forest
forestal
forestie
forestier
forez
forge
forges
forja
forkel
form
forma
formacion
formacions
formada
formadas
formal
formala
formalament
forman
formant
formar
formas
format
formatge
formatges
formation
formatnum
formats
formava
formavan
forme
forment
former
formes
formiga
formigas
formosa
formula
formulacion
formulada
formular
formulas
formule
forn
forne
forni
fornie
fornir
forns
forradura
fort
fortalesa
fortalesas
fortament
forte
fortement
forteresse
fortificacion
fortificacions
fortificada
fortificat
fortifications
fortificats
fortifie
fortuna
forum
fosc
fosfo
fosque
fosse
fossil
fossils
foster
fotbo
fotbolaire
foto
fotograf
fotografia
fotografias
fotografic
fotografica
foton
fotons
fotos
fotosinte
fotovoltai
fou
foucault
fouge
fouilles
found
foundation
four
fourier
fournier
fours
fox
foy
fr
fra
frac
fraca
fracac
fraccion
fraccions
fragaria
fragil
fragila
fragment
fragmentacion
fragmente
fragments
fraire
fraires
fraisse
frame
franc
franca
francas
france
frances
francesa
francesas
francesc
francesca
francesco
franceses
francfo
francfort
franche
francia
francic
francie
francis
francisco
francisme
franck
francmac
franco
francofo
francolin
francoprovenc
francs
franja
frank
frankenstein
franklin
franque
franquista
franz
frasa
frasas
fraternitat
fraudas
frbnf
fre
fred
freda
frederic
frederick
free
freedom
freeman
freg
fregatas
fregs
freja
frejas
freju
frema
fremas
french
frequ
freque
frequent
frequenta
frequentament
frequentas
frequents
fresc
fresca
frescas
frescs
fresne
freud
friccion
friche
frichement
friedrich
frigia
frigola
friol
frisa
frison
fritz
fro
from
fromatge
fromatges
froment
front
frontal
frontalie
frontalier
frontaliera
frontalieras
frontaliers
frontenac
frontie
frontiera
frontieras
fronton
frontonh
fruch
frucha
fruches
fruchs
fruit
fruits
frustracion
fry
fs
ft
fu
fue
fuelhas
fugi
fugida
fugie
fugigue
fugir
fugissent
fugue
fuguet
fujimori
fulham
full
fum
fume
fums
fun
function
fundacio
fune
funera
funeralhas
funerari
funeraris
funicular
funk
fuo
furent
furio
fus
fusada
fusadas
fusille
fusion
fusiona
fusionada
fusionar
fusionat
fusione
fusionne
fusiu
fusius
fusta
fustas
fustie
fut
futur
futura
futuras
future
futurs
g
ga
gabe
gabelle
gabinet
gabon
gabrie
gabriel
gaddafi
gae
gaelic
gagarin
gai
gaia
gaillac
gaillard
gaire
gaireben
gaita
gal
gala
galaria
galas
galaxia
galaxias
gale
galement
galen
galeria
galhac
gali
galile
galilei
galileo
galina
galinas
galite
galle
gallery
gallesa
galleses
gallic
gallica
gallimard
gallo
galloroman
galloromana
gallus
galo
gama
game
games
gamma
gan
gand
gandalf
gandhi
ganges
ganh
ganha
ganhada
ganhadas
ganhaire
ganhant
ganhar
ganhat
ganhe
ganhs
ganime
gant
gants
gap
gara
garait
garanti
garantida
garantidas
garantir
garas
garc
garci
garcia
gard
garda
gardan
gardant
gardar
gardas
gardat
gardats
gardava
garde
garden
gardes
gardian
gardians
gardner
gardy
gare
gares
gargame
garibaldi
garir
garison
garnier
garnison
garnisons
garo
garona
garonne
garric
garriga
garrigas
garro
garros
gary
gas
gasc
gascoa
gascogne
gascon
gascona
gasconas
gasconha
gascons
gases
gaso
gasosa
gaspar
gaspard
gaston
gastronomia
gat
gate
gates
gation
gats
gau
gaucha
gauche
gaud
gaudenc
gaudi
gaudille
gaug
gaujac
gaule
gaulle
gaulois
gauloise
gausi
gausir
gauss
gauthier
gautier
gavach
gavaudan
gave
gay
gaz
gaza
gazzetta
ge
gel
gelada
geladas
gelatina
geli
gelo
gelosia
gema
gemma
gen
genc
gende
gender
gendes
gendre
gene
genealogia
geneanet
generacion
generacions
general
generala
generalament
generalas
generalitat
generalitats
generalizacion
generalizada
generalizar
generalizat
generalize
generals
generar
generation
generator
generau
generaument
generaus
genere
generic
genericenregistrament
genet
genetic
genetica
geneticas
genetics
genevie
genghis
gengibre
genie
genier
genitiu
geno
genocidi
genre
genres
gens
gent
gentilefp
gentilefs
gentilemp
gentilems
gentilici
gentilo
gents
geo
geoffrey
geoffroy
geograf
geografia
geografic
geografica
geograficament
geograficas
geografics
geographic
geography
geolo
geologia
geologic
geologica
geological
geologicas
geologics
geometria
geometric
geometrica
geometricas
geometrics
geomorfologia
geoportail
georg
george
georges
georgescu
georgia
georgian
ger
gerais
gerald
gerard
gerhard
geri
gerida
gerir
gerit
gerits
germa
germain
german
germania
germanic
germanica
germanicas
germanics
germanique
germans
germany
gers
gervais
gervasi
gervasoni
ges
geschichte
gessa
gestacion
gestapo
gestion
get
geta
getar
getparent
gevaudanesa
gfdl
gh
ghana
gi
gia
giacomo
giale
giant
gibartar
gibson
gica
gide
gie
gien
gierman
giessen
gif
gifrance
gigant
giganta
gigantas
gigants
gil
gilbert
gilg
gilgamesh
gilles
gilliam
gilson
gime
giment
gimnastica
gina
gine
gines
ginie
ginkgo
gion
gional
gionale
gionales
gions
giorgio
giotto
giovanni
gip
gique
girard
giraud
girl
giro
girolamo
girona
gironda
gironde
girondins
gis
giscard
gita
giuliano
giuseppe
give
givet
gje
gjorn
gjornala
gl
gla
glac
glace
glacia
glaciacion
glaciari
glacie
glacier
glaciers
glament
glandas
glas
glasgow
glass
glaudi
glaurenc
gle
gleisa
glenn
gles
gli
glise
glises
glo
global
globala
globalament
globau
globe
globuls
gloria
glottolog
glucids
gluco
gma
gn
gne
gnes
gno
gnu
go
goa
god
godolin
godwin
goethe
gogh
gogol
goire
gojat
gojata
gojats
gold
golden
gole
golf
goma
gomes
gontier
gonza
good
google
gor
gorbachov
gordon
gore
gorges
gorie
gorilla
gos
gost
gosts
got
gota
gotas
gotic
gotica
gottfried
gou
goulamas
gould
gournay
gouv
gouvernement
gouverneur
gov
gove
govern
governada
governador
governadors
governaire
governaires
governament
governamentala
governamentalas
governar
governat
governe
government
goya
gps
gr
gra
graal
grace
grad
grade
gradient
graf
grafia
grafias
grafic
grafica
graficas
grafics
grafit
graham
gral
grama
gramas
gramatica
gramine
grammaire
grammar
grammy
gramont
gran
grana
granada
granadas
granas
grand
granda
grandas
grande
grandei
grandeis
grandes
grandor
grandors
grands
granes
grange
granges
granho
grani
granie
granit
granja
granjas
grans
grant
grapaud
graphie
gras
grasal
grases
grasilha
grassa
grassas
grasses
grasset
grassfields
grat
gratace
gratuit
grau
grava
gravadura
gravaduras
gravas
grave
gravetat
gravina
gravitacion
gravitacionala
gravitacionalas
gravitacionau
gravitat
gray
gre
great
greatest
grec
greco
grecque
grecs
greda
gredon
gredons
greek
green
greene
greenwich
greenwood
grego
gregor
gregorian
gregorio
gregory
grenada
grenier
greno
grenoble
gres
greu
greus
greva
grey
grimal
grimaldi
grin
gripa
gris
grisa
griso
gro
groenla
grop
gropa
gropadas
gropament
gropaments
gropan
gropant
gropar
gropats
gropava
grope
gropes
grops
gros
grosclaude
grosse
grossie
grosso
grotte
group
groupe
groups
gru
grua
gs
gsub
gu
gua
guadalajara
guadalope
guaiana
guam
guarani
guarda
guardia
guardian
guatemala
gue
guerche
guerdons
guerilha
guerilhas
guerra
guerre
guerrero
guerres
guerrie
guerrier
guerriers
gues
gueux
guevara
guez
gui
guiana
guida
guidar
guide
guido
guier
guiers
guilhe
guilhem
guillaume
guillem
guillermo
guine
guinea
guipuscoa
guiraut
guise
guit
guitarra
guitarras
guitarrista
gujarat
gujarati
gulie
gulliver
gun
gupta
gur
gustau
gustav
gustave
gutenberg
guy
guyana
guyenne
guyot
guzma
gw
gy
gyo
gypte
h
ha
hab
habitants
habitat
habitation
habitations
habite
habsborg
habsbourg
hachette
had
hadith
hadiths
haguenau
hai
haile
hainaut
haiti
hal
half
hall
halle
halley
halo
halte
ham
hameau
hameaux
hamilton
hamlet
hamlin
hammarstro
hammurabi
hampshire
han
hand
handbook
hannover
hano
hans
happy
har
hara
harbor
harcourt
hard
hare
hari
harmattan
harmonia
harold
harper
harris
harrison
harry
harvard
harvey
has
hase
haso
hassan
hastings
hat
haut
hauta
haute
hautes
hauteur
hauteurs
hautmont
hautor
hauts
have
haven
havisham
havre
hawaii
haydn
haye
hayes
hc
hd
he
head
health
heart
heaven
heavy
hebdo
hec
hectares
hector
hegel
hegibeltz
heidegger
heidelberg
height
heinrich
heinz
helen
helena
helens
hell
hello
helmut
help
helpe
helsinki
hemna
hen
henri
henry
hens
her
herbert
here
heritage
herman
hermann
herna
hero
herschel
hertz
herve
hesse
het
heure
heures
hezbollah
hi
hicar
hidalgo
hie
hier
high
hilaire
hilh
hilha
hilhs
hill
hills
him
hip
hippie
hippies
hippolyte
hiroshima
hirundo
his
hispania
histo
histoire
histoires
historia
historical
historiens
historique
historiquement
historiques
history
hita
hitchcock
hitler
hits
hiver
hl
hler
hms
ho
hobbit
hoc
hockney
hoffmann
hokkaido
holland
hollande
hollywood
holmes
holstein
holy
home
hommage
homme
hommes
homo
homophobie
hon
honda
honduras
hong
honneur
honor
honore
hons
hont
honts
hop
hope
hopkins
hora
horace
horde
hore
horizontal
hormis
horn
horneish
hors
horse
horta
hortalessa
hosse
hot
hotel
houille
hours
house
houston
how
howard
hr
hrair
hregadas
htm
html
htmlhttps
http
https
hu
huang
hubble
hubert
hudson
hue
huec
huelva
hugh
hughes
hugo
huguenots
hugues
hui
huile
huit
huma
humain
humaine
humaines
human
humanite
humbert
humboldt
hume
humide
humides
huns
hunt
hunter
hussein
husta
hutus
huxley
huygens
hyphessobrycon
hypothe
hz
i
ia
iacum
iade
iago
ian
iana
iaqaaiaaj
ias
iazyki
ibe
iberia
iberic
iberica
ibid
ibm
ibn
ibrahim
ibrid
ibrids
ic
icaria
icarus
ice
icebe
ici
ico
icon
icone
iconoclasme
iconografia
id
ida
idaho
ide
idea
ideal
ideala
idealisme
ideals
ideas
ideau
idem
identic
identica
identicas
identics
identifica
identificacion
identificada
identificadas
identificar
identificat
identificats
identifique
identitat
identitats
identite
ideologia
ideologias
ideologic
ideologica
idio
ido
idraulic
idraulica
idrocarburs
idroelectrica
idroge
idrografia
idrografic
idrologia
idronime
idroxid
ie
ieme
ieo
ier
ierarquia
ierarquizada
ieras
ieroglifs
ieu
if
igie
ign
ignacio
ignora
igor
ii
iii
il
ilari
ile
ilh
iliada
ilkhanat
ill
illa
illas
ille
illegal
illegala
illi
illinois
illo
illusion
illusions
illustra
illustracion
illustracions
illustrada
illustrant
illustrar
illustrat
illustrated
illustrations
illustre
illustres
ils
im
image
images
imagesize
imagina
imaginacion
imaginar
imaginari
imaginat
imagine
imalaia
imam
imatge
imatges
imdb
ime
img
imigracion
imigrants
imitacion
imitar
immanuel
imme
immediat
immediata
immediatament
immens
immensa
immersion
immigracion
immigrants
immo
immortalitat
immunita
immunitari
immunitat
imne
imnes
impact
impacte
impactes
imparcialitat
impausa
impausada
impausadas
impausan
impausant
impausar
impausat
impausats
impause
impe
imperatiu
imperatius
imperator
imperatritz
imperfach
imperial
imperiala
imperialas
imperialisme
imperiau
imperiaus
implantacion
implantada
implantar
implantat
implantation
implante
implica
implicacion
implicadas
implican
implicant
implicar
implicat
implications
implicats
implicitament
implique
impo
impopular
importa
importacion
importacions
importanc
importance
important
importanta
importantas
importante
importantei
importantes
importants
importar
importat
importats
importe
imposicion
impossibilitat
impossibla
impossible
impr
impression
impressionisme
impressions
imprimerie
improbable
improve
impulsion
impuretats
in
ina
inacabat
inatestat
inauguracion
inaugurada
inaugurat
inaugure
inc
inca
incapabla
incapable
incapables
incapacitat
incarna
incarnacion
incas
ince
incendi
incendiat
incendie
incendis
incertitud
incide
incident
incidents
inclinason
inclu
include
including
incluent
inclure
inclus
inclusa
inclusent
inclusi
inclusion
inclusissent
inclusisson
incluson
inclutz
incomple
inconscient
inconvenient
inconvenients
incorporacion
incorporada
incorporat
incorpore
incorre
increment
incursion
incursions
inde
indeci
indemnitat
independe
independent
independenta
independentament
independentas
independentista
independentistas
independents
index
indi
india
indian
indiana
indianas
indians
indica
indicacion
indicacions
indicada
indican
indicant
indicar
indicat
indicatiu
indicator
indici
indicis
indifere
indige
indigne
indique
indire
indispensabla
indispensable
individu
individual
individuala
individualas
individuals
individus
indo
indoariana
indoarianas
indochina
indoeurope
indoi
indonesia
indonesian
indonesiana
indra
indre
indu
induccion
induch
indus
industria
industrial
industriala
industrialas
industrializacion
industrializats
industrials
industrias
industriau
industriaus
industrie
industriel
industrielle
industries
ine
inegalitat
inegalitats
inercia
ines
infant
infanta
infantaria
infanterie
infantila
infe
infeccion
infeccions
inferior
inferiora
inferioras
inferioritat
inferiors
infide
infinida
infinidament
infinit
infinitiu
inflacion
inflamacion
infligigue
infligir
infloresce
influe
influence
influenciada
influenciadas
influenciar
influenciat
influenciats
influencie
influent
influents
info
infobox
informa
informacion
informacions
informal
informar
informat
informatic
informatica
informatics
information
informations
informator
informe
infra
infraccion
infraccions
infraroge
infraroges
infrastructura
infrastructuras
infty
infusion
ing
inge
ingestion
ingmar
ingredients
inhume
inici
iniciacion
iniciada
inicial
iniciala
inicialament
inicialas
iniciar
iniciat
iniciativa
iniciativas
iniciau
iniciaus
inicie
initialement
initiativa
initiative
injeccion
injusti
innocenci
innocent
innocents
innovacion
innovacions
innovanta
ino
inondacion
inondacions
inondations
inorganica
inorganics
inquiete
inquietud
inquisicion
inra
inrap
inscrich
inscricha
inscrigue
inscripcion
inscripcions
inscription
inscriptions
inscrit
inscriu
inscriure
inse
insectes
insee
insegur
insercion
inseri
inserir
insert
inside
insisti
inspeccion
inspector
inspira
inspiracion
inspirada
inspiradas
inspirant
inspirar
inspirat
inspirats
inspire
insta
instabilitat
instabla
instable
installa
installacion
installacions
installada
installadas
installan
installar
installat
installation
installats
installe
installer
instant
instantane
instauracion
instaurar
instaurat
instaure
institucion
institucional
institucionala
institucions
institui
institut
institute
instituteur
institution
institutions
instituto
institutoccitan
instruccion
instruccions
instrument
instruments
insufise
insufisenta
insulina
insureccion
insureccions
insurgents
insurreccion
insurreccions
int
inte
integracion
integrada
integradas
integral
integrala
integralitat
integrant
integranta
integrar
integrat
integrats
integre
integritat
intel
intelle
intellectual
intellectuala
intellectualas
intellectuals
intellectuau
intellectuaus
intellige
intelligence
intelligent
intencion
intencions
intens
intensa
intensas
intensificacion
intensitat
intensiva
inter
interaccion
interaccions
intercom
intercomunalitat
intercomunalitats
interdiccion
interdire
interdit
interdits
intere
intereses
interessa
interessant
interessanta
interessantas
interessants
interessar
interessat
interessats
interesse
interesses
interfa
interface
interfere
interim
interior
interiora
interioras
interiors
intermedia
intermediari
intermediaris
intermodalitat
internacional
internacionala
internacionalament
internacionalas
internacionals
internacionau
internacionaus
international
internationale
internes
internet
interpre
interpretacion
interpretacions
interpretada
interpretar
interpretat
interprete
interrogar
interrupcion
interseccion
intersection
interstellar
interval
intervals
interven
intervencion
intervencions
intervengue
intervenir
intervenon
interview
intervocalic
intervocalica
interwiki
intestin
intitulat
into
intoxicacion
intra
intrada
intradas
intran
intrar
intrat
intre
intriga
intrigas
intrinse
introduccion
introduch
introducha
introduchas
introduction
introdugue
introduire
introdurre
introdusigue
introdusit
intuicion
inutil
inv
invalid
invasion
invasions
inve
invencion
invencions
inventada
inventaire
inventar
inventari
inventat
invente
invention
inventor
invenzione
inversion
invertebrats
investigacion
investigacions
investiment
investiments
investir
investit
invisibla
invisible
invita
invitacion
invitat
invite
inwonertal
io
iogoslavia
ion
iona
ionia
ionic
ionics
ionizacion
ions
iowa
ip
iperbo
ipertension
ipno
ipo
ipocrates
ipolit
ipote
ipotetic
ipotetica
ir
ira
iran
irange
iranian
iraniana
iranianas
iranians
iraniens
iraq
iraquian
iraquiana
iras
irc
ire
ireland
irenicus
ires
iris
irish
irlanda
irlande
irlandesa
iron
ironda
ironia
irregular
irregulara
irregularas
irregulars
irrigacion
irs
irving
is
isa
isaac
isabe
isabel
isabelle
isai
isas
isbn
ise
ish
isher
isia
isigny
isin
isis
isla
islam
islamic
islamica
islamista
islamistas
islamizacion
island
islande
islands
islas
isle
ismae
ismail
isme
iso
isoglo
isola
isolacion
isolada
isoladas
isolament
isolant
isolar
isolat
isolats
isole
isoto
ispa
israe
israel
israelian
israeliana
israelianas
israelians
issa
issenc
isser
issn
isson
issu
issue
issues
issus
ist
ista
istambol
istas
istat
istic
istica
isticament
isticas
istics
istme
isto
istorian
istorians
istoric
istorica
istoricament
istoricas
istorics
istoriografia
it
ita
itaca
italia
italian
italiana
italianas
italiano
italians
italica
italie
italien
italiens
italy
itas
itat
item
itemid
items
itine
itinerari
itineraris
itis
itita
ititas
its
ius
iv
ivan
ive
ivelinas
ivern
ives
ivry
ix
iz
j
ja
jac
jaces
jaciment
jaciments
jack
jackson
jacme
jaco
jacob
jacobins
jacqueline
jacques
jade
jadis
jae
jaguar
jai
jaime
jakob
jamai
jamaica
jamais
jame
jamei
james
jammu
jan
jancso
jane
janeiro
janet
janissaris
jansemin
january
janue
janvier
japan
japanese
japon
japonais
japone
japonesa
japonesas
japoneses
jar
jardin
jardins
jas
jasmin
jasminum
jason
jaufre
jaume
jauna
jaunas
jaune
jaunes
jaure
java
javier
jay
jazz
jc
je
jean
jeanne
jeff
jefferson
jeffrey
jehan
jennifer
jeremy
jero
jerome
jerry
jersei
jersey
jerusale
jerusalem
jesu
jesucrist
jesuista
jesuistas
jesus
jet
jeter
jette
jeu
jeune
jeunes
jeunesse
jeux
jewish
ji
jiboti
jihad
jim
jimmy
jin
jiro
jn
jo
joa
joachim
joan
joana
joanne
joao
joaqui
joaquim
joe
joel
joen
joga
jogada
jogador
jogadors
jogaira
jogaire
jogaires
jogant
jogar
jogat
jogava
jogue
johan
johann
johannes
johannis
john
johnny
johns
johnson
joie
join
joinessa
joinville
jol
jols
joly
jon
jonas
jonathan
joncion
jonction
jones
jonh
jonhe
jonhent
jordan
jordania
jordi
jorftext
jorge
jorn
jornada
jornadas
jornal
jornalet
jornalie
jornalisme
jornalista
jornalistas
jornals
jornau
jornaus
jorns
jos
jose
josef
josep
joseph
joshua
josieu
josieus
josieva
josievas
jospin
joue
joule
jour
journal
journe
journey
jours
joux
jouxte
jova
jovas
jove
jovenc
jovent
joventa
jovents
joventut
joves
joyce
jpeg
jpg
jr
json
jstor
ju
jua
juan
juba
juda
judai
jude
judicia
judiciari
judiciaris
judieu
judieus
judieva
judith
judius
judo
jue
juec
juge
juifs
juillet
juin
jul
jules
julh
julhe
julhet
juli
julia
julian
juliana
julie
julien
juliet
julieta
julio
julius
july
jun
june
jung
jungla
junh
junien
junior
juno
junon
junta
jupite
jupiter
jura
jurada
jurament
jurar
jurassic
jure
juridic
juridica
juridicament
juridicas
juridiccion
juridics
juridiction
jurisdiccion
jurisdiccions
jurisprude
jurista
juristas
jus
jusieu
jusieus
jusieva
jusievas
jusqu
jusque
juss
just
justa
justament
juste
justi
justice
justifica
justificacion
justificar
justify
justin
justinian
jutge
jutges
jutja
jutjada
jutjadas
jutjament
jutjaments
jutjan
jutjar
jutjat
jutjats
k
ka
kabol
kafka
kai
kalahari
kali
kane
kanem
kansas
kant
karabagh
karaman
karate
karenni
karl
karma
karthala
kate
kategori
kategorie
kategorija
ke
keith
kelly
kelvin
kemal
ken
kennedy
kenneth
kent
kentucky
kenya
kepler
kerala
kerenski
kesey
kevin
key
keynes
kg
khan
khanat
khartom
khmer
khmers
khrushchov
khwarezm
ki
kick
kiev
kilimanjaro
kilome
kim
king
kingdom
kings
kirchner
kiribati
kitsune
kj
klan
klaus
klein
klincksieck
klux
km
know
knowledge
ko
koch
koine
kong
konrad
kosova
kosovo
kowait
krishna
ku
kubrick
kuiper
kurosawa
kurt
kw
kwa
ky
kyiv
kyo
kyoto
l
la
labastide
labe
label
laberint
labirint
labor
laborato
laboratory
labord
labour
labrador
labrit
lac
lacan
lach
laci
lacroix
lacs
lacte
lade
ladepeche
lady
lae
laffont
lafon
lafont
lagarda
lagarde
lagash
lagos
lagrange
laguens
lai
laissa
laissant
laissar
laissas
laissat
laissava
laisse
lake
lakes
lakshmi
lama
lamas
lambda
lambert
lament
lamotte
lampa
lampas
lan
lana
lanamesa
lanas
lanc
lancastre
lance
land
landa
landas
lande
landes
lane
lang
langage
langatge
lange
langes
langfr
langlois
langres
language
languages
langue
languedoc
langues
lanka
lannion
lano
lao
laon
laos
laplace
laquelle
lar
lare
laref
larg
larga
largament
largas
large
largement
largeur
largor
largs
lari
larousse
larry
lars
larsa
lartiga
larva
larvas
larzac
las
lase
last
lat
latas
late
later
lateral
laterala
lateralas
laterals
latex
latin
latina
latinas
latine
latinise
latinizacion
latinizat
latins
latitud
latitude
latituds
laton
latran
latz
lau
laura
laurada
laurague
laure
laureat
laurenc
laurence
laurens
laurent
laurie
laus
lausa
lausana
lausanne
lause
lausun
lautre
lava
laval
lavas
lavedan
lavetz
lavoir
lavoisier
law
lawrence
lay
laye
layer
layon
lazare
lb
lc
ld
le
lea
league
leakey
lear
learn
learning
leave
lec
leclerc
lection
lections
lector
lectorales
lectors
lectrique
lectura
lecturas
lecture
led
leda
lee
left
leg
legal
legala
legalament
legalas
legalitat
legat
legats
legau
legenda
legendari
legendas
legi
legifrance
legion
legions
legir
legislacion
legislacions
legislatiu
legislatius
legislativa
legislativas
legislator
legislatura
legit
legitim
legitima
legitimar
legitimat
legitimitat
legitims
legum
leguminosas
legums
lei
leibniz
leic
leiden
leigh
leipzig
leire
leis
leitora
lem
lemai
lembeye
lemo
lemoine
lemonde
lemosin
lemosina
lempe
lemy
len
lena
lenga
lengado
lengadocian
lengadociana
lengadocians
lengas
lengatge
lengatges
lengon
lengu
lengua
lenha
lenhie
lenin
leningrad
lens
lent
lenta
lentament
lentilha
lentilhas
lents
leo
leon
leonard
leonardo
leone
leonid
leons
leopard
leopold
leopoldo
lepage
lepidopte
leptis
lepus
lequel
ler
lerinage
lerins
leroy
les
lescar
lesinhan
lesions
lesotho
lestat
let
leto
leton
letra
letras
letter
letters
lettre
lettres
leu
leuge
leugie
leugier
leugiera
leugierament
leugieras
leugiers
leur
leurs
lev
leva
levada
levadas
levaduras
levage
levant
levar
levat
levats
levava
leve
levi
levy
lewis
lex
lexic
lexicografia
lexicon
lexique
ley
lez
lf
lfes
lfia
lga
lgas
lgbt
lh
lha
lhas
lhe
lher
lhi
lhs
lhuec
lhuecs
li
lia
liada
liadas
liame
liames
liams
lian
liar
liard
lias
liason
liasons
liat
liats
liban
libane
libe
liber
liberacion
liberada
liberal
liberala
liberalas
liberalisme
liberalizacion
liberalizar
liberals
liberar
liberat
liberats
liberau
liberaus
libere
liberta
libertaire
libertari
libertat
libertats
liberte
libes
libia
libido
liborna
libra
librairie
libraria
library
libre
libres
libret
librige
libro
lic
lice
license
lichtenberg
lideratge
lidia
lie
liechtenstein
lien
liens
lieu
lieux
life
liga
ligada
ligadas
ligam
ligams
ligan
ligant
ligar
ligas
ligason
ligat
ligats
light
ligne
lignes
ligny
ligu
ligue
ligur
like
lilla
lille
lily
lima
limit
limita
limitacion
limitacions
limitada
limitadas
limitan
limitant
limitar
limitas
limitat
limitation
limitats
limitava
limite
limited
limites
limitro
limitrophe
limitrophes
limits
limo
limoges
limon
limousin
lin
lincoln
linda
lindal
lindl
line
linear
lineara
linedata
linfocits
linga
lingu
lingua
linguistic
linguistica
linguistics
linguistique
linha
linhada
linhas
linhatge
link
links
linnaeus
linne
linus
linux
linx
lio
lion
lione
lionel
lipids
lique
liquid
liquida
liquids
lira
lire
liric
lirica
lis
lisa
lisabeth
lisboa
lisbona
lise
lisie
lisieux
lissa
lissagaray
list
lista
listas
liste
listra
liszt
lit
litera
literal
literalament
literari
literaris
literatura
literature
litica
litigi
litigis
litoral
litorala
litoralas
litorau
litoraus
litosfe
litre
litres
litte
little
littoral
litua
lituanian
liturgia
liu
liura
liurada
liurament
liurar
liuras
liurat
liure
liures
live
liverpool
lives
livi
living
livius
livre
livres
lix
ll
lla
lle
llengua
ller
lles
lli
llia
llias
llobregat
lloyd
llui
llull
lme
lmont
ln
lnau
lno
lo
loa
loas
lobe
loc
local
locala
localament
localas
localdata
locale
locales
localisacion
localisation
localitat
localitats
localite
localites
localizacion
localizada
localizar
localizat
locals
location
locatiu
locau
locaus
loccitan
locke
loco
locomocion
locongres
locus
locutor
locutors
lodeva
lodi
log
loga
loges
logic
logica
logicament
logicial
logicials
logiciau
logiciaus
logistica
logo
logos
loi
loin
loing
loir
loira
loire
loiret
lois
loisirs
lola
lomagne
lomanha
lombard
lombarda
lombardia
lombards
lombe
lon
london
londras
londres
long
longa
longada
longas
longe
longeant
longevitat
longitud
longitude
longor
longors
longs
longtemps
longue
longues
longueur
lonicera
lons
look
looking
looxix
lop
lope
lopes
lopez
lops
lor
lord
lorda
lords
lorena
lorentz
lorenzo
lorgeril
loron
lorrain
lorraine
lorrains
lors
lorsqu
lorsque
los
losera
lost
lot
lothaire
lotharingie
lotissement
lotissements
lotjament
lotjaments
lou
loubatie
loue
louhannaise
louis
louise
loup
louvain
louvre
love
lovelock
loves
lovre
low
lower
lp
lpg
lr
ls
lsd
lt
lta
ltas
ltd
lu
lua
lube
luc
luca
lucas
luce
luces
lucha
luchar
luchas
luche
luci
lucia
lucian
luciano
lucien
lucille
lucio
lucius
lucrativa
lucre
lucy
lude
lududes
ludwig
lue
luec
luecs
luenh
lugo
lui
luigi
luis
luishon
lum
lumie
lumino
luminosa
luminoses
luminositat
luna
lunar
lunara
lunaras
lunars
lunas
lune
lunetas
luo
lupus
lure
lus
luse
luses
lusinhan
lussac
luta
lutar
lute
luther
lutte
lutz
lux
luxe
luxemborg
luxembourg
luxeuil
luz
lv
lvarez
lvaro
lve
lvre
ly
lynch
lyndon
lynn
lynx
lyon
lyons
lys
m
ma
maastricht
mac
macau
macbeth
mace
macedo
macedonian
macedoniana
macedonians
maceracion
machine
machu
macmillan
macro
macron
mad
madagascar
madama
madame
made
madeish
madeisha
madeleine
madero
madison
mado
madon
madonna
madre
madrid
madur
maduracion
maduretat
mae
magalona
magazine
magdala
magdalena
magdalenian
mage
magellan
magenta
magerament
magia
magic
magica
magicas
magician
magics
maginot
magistrat
magistrats
magistratura
magma
magmatica
magna
magne
magnetic
magnetica
magneticas
magnetics
magnetosfe
magnific
magnitud
magnolia
magnus
magny
magre
magwitch
mahayana
mai
maia
maias
mail
maimonides
main
mainat
mainatge
mainatges
mainats
maine
mains
maintenant
maio
mair
maira
mairal
mairala
mairaria
maire
maires
mairie
mais
maison
maisonneuve
maisons
maissa
maitas
maites
maitot
maivalenc
majestat
majeure
major
majora
majoras
majorita
majoritari
majoritaris
majoritat
majorite
majors
majuscula
make
making
mal
mala
malaca
malacca
malaga
malai
malaiopolinesiana
malais
malaisada
malaisadas
malaisat
malaisats
malaisida
malaisit
malastre
malau
malaut
malautia
malauts
malawi
malcolm
male
malediccion
malgash
malgrat
malgre
malho
malhum
malhums
mali
malik
mallorca
malo
malon
mals
malta
malte
malurosament
malvinas
mama
mame
mamelocs
mament
mamife
mammife
man
mana
management
manca
mancan
mancant
mancar
mancas
mancat
mancava
mance
mancha
manche
manchester
mancho
manchoria
manciet
mand
manda
mandada
mandadas
mandadi
mandar
mandara
mandarin
mandat
mandats
mande
mandela
mandement
mandolina
mandrago
mane
manescau
manga
mangane
mange
mangro
manhattan
manie
maniera
manife
manifesta
manifestacion
manifestacions
manifestants
manifestar
manifeste
manila
manio
manipulacion
manipular
manipur
manja
manjan
manjar
manle
manlevat
mann
mano
manoir
manque
mans
manson
mansus
mantas
mante
manten
mantenement
mantenenc
mantenent
mantenguda
mantengue
mantengut
mantenir
mantenon
mantes
mantuas
mantun
mantuna
mantunas
mantuns
manu
manual
manuala
manualament
manuel
manufactura
manufacturas
manufacture
manuscrit
manuscrits
many
mao
maoi
maomet
map
mapa
mapas
maps
mapsto
maquiave
maquina
maquinas
maquis
mar
mara
marais
maraton
marbre
marc
marca
marcada
marcadas
marcan
marcant
marcar
marcas
marcat
marcats
marce
marcel
marcellin
marcello
march
marcha
marchand
marchanda
marchandas
marchandisas
marchands
marchas
marche
marciac
marcial
marciala
marcilhac
marcilly
marco
marcus
marduk
mare
marengo
marescal
mareuil
marga
margalida
margaret
margarida
margarita
marge
marges
marginal
marginala
margue
marguerat
marguerite
mari
maria
mariage
mariana
marianas
marianne
mariano
marida
maridada
maridar
maridat
maridatge
maridatges
maride
marie
marigny
marilyn
marin
marina
marinas
marine
marines
marins
mario
marion
marit
maritim
maritima
maritimas
maritime
maritimes
maritims
marius
mark
market
marly
marmanda
marmoutier
marna
marne
maro
marque
marques
marquesa
marquesat
marquis
marquisat
marquise
marraque
marrida
marridas
marrit
marrits
marro
marron
mars
marsan
marseille
marselha
marselhe
marsh
marshall
mart
marta
marte
martegue
martel
martes
martha
marti
martial
martigues
martin
martina
martine
martini
martinica
martino
martinus
martir
martiri
martirizat
martirs
martres
marue
maruelh
marx
marxisme
marxista
marxistas
mary
maryland
mas
masamet
masatge
masatges
masc
masca
mascaria
mascas
mascle
mascles
mascs
masculin
masculina
masculins
mase
maspero
masqueta
masquetas
mass
massa
massachusetts
massacre
massais
massas
masse
massendari
massi
massif
massisa
massissa
massissas
massiu
massiva
masson
mast
master
masters
mat
mata
matabiau
match
mate
matematic
matematica
matematicas
matematician
matematicians
matematics
mateo
material
materiala
materialas
materialisme
materialista
materials
materiau
materiaus
math
mathbb
mathcal
mathe
mathematics
mathieu
mathrm
matie
matieu
matin
matique
matiques
mato
matrimo
matritz
matthew
maturitat
maturs
mau
maubeuge
maucontentament
maufisanc
mauges
maugrat
maur
maure
mauriac
maurice
maurici
maurin
maurita
maurizio
maurya
mausole
mauvesin
max
maxi
maxim
maxima
maximal
maximala
maxime
maximilian
maximilien
maximin
maximom
maximum
maximus
maxwell
may
maya
mayenne
mayer
maynard
mayo
mazarin
mb
mbia
mbiament
mbian
mc
mcdonald
mcgraw
me
means
meaux
mecanic
mecanica
mecanicas
mecanics
mecanisme
mecanismes
mecanizacion
mece
mecenat
med
medalha
medalhas
medalhie
medard
mede
medecina
medes
media
mediacion
mediana
medias
mediate
mediator
mediawiki
medica
medical
medicala
medicalas
medicals
medicament
medicaments
medicas
medicau
medici
medicina
medicinala
medicinalas
medicine
medicis
medieval
medievala
medievalas
medievals
medievau
medievaus
medina
medio
medish
medisha
meditacion
mediterrane
medo
medoc
medusa
meeting
mehmet
mei
meiji
meile
meitat
mej
mejan
mejana
mejanas
mejanc
mejancie
mejans
mekong
melaine
melbourne
meles
melhau
melhor
melhora
melhoracion
melhorada
melhorament
melhoraments
melhorar
melhoras
melhorat
melhore
melhors
mellifera
melodia
melon
mema
members
membrana
membranas
membre
membrement
membres
meme
memo
memorial
men
mena
menac
menace
menada
menadas
menaire
menaires
menan
menant
menar
menara
menas
menat
menats
menava
menc
menchevics
mencion
menciona
mencionada
mencionadas
mencionan
mencionar
mencionat
mencionats
mencions
mende
mendeleiev
mendoza
mendra
mendre
mendres
mene
menelik
menerbe
menhir
meno
menor
menora
menoras
menors
mens
mensh
ment
menta
mental
mentala
mentalas
mentals
mentha
mention
mentionne
menton
mentre
mentretant
ments
menu
mequinenza
mer
meravilhas
merc
mercadie
mercands
mercants
mercat
mercats
merce
mercedes
mercenaris
merci
mercure
mercuri
mercury
meridian
meridional
meridionala
meridionalas
meridionau
meridionaus
merit
merita
meriti
merle
merma
mermar
merme
mermoz
meroe
merovingians
merry
mers
mertyl
mery
mes
mesa
mesas
mescla
mesclada
mescladas
mesclan
mesclant
mesclar
mesclas
mesclat
mesclats
mescle
meses
mesma
mesme
mesnil
mesoamerica
mesopotamia
mesopotamiana
messa
message
messages
messas
messatge
messatges
messatgie
messe
messenger
messias
messier
messin
messina
messire
mesti
mestie
mestre
mestrejar
mestres
mestresa
mestressa
mestritge
mesura
mesurada
mesuradas
mesuran
mesurant
mesurar
mesuras
mesurat
mesure
mesures
met
meta
metabolisme
metafisica
metafo
metal
metallic
metallica
metallicas
metallics
metallurgia
metals
metamorfo
metan
metate
metau
metaus
mete
meteis
meteissa
meteissas
meteissei
meteisses
metent
meteorits
meteorologia
meteorologic
meteorologica
meteorologicas
meteorologics
meto
meton
metratge
metratges
metre
metres
metric
metrica
metro
metropo
metropolitan
metropolitana
mettre
metz
meu
meurthe
meuse
mexic
mexican
mexicana
mexicans
mexico
meyer
mez
mg
mhnt
mi
mia
miaire
miami
mias
mica
mice
micene
michael
miche
michel
michelangelo
michele
michelle
michigan
mickey
micolau
micro
micronesia
microorganismes
microsco
microsoft
mid
middle
midi
mie
mieg
miei
mieidia
mieja
mielhs
mies
mieu
mieux
mig
migracion
migracions
migrants
migrar
migration
migrato
migre
miguel
mike
mikhai
mikhail
miklo
mil
mila
milan
milas
mildio
mile
miles
milet
milh
milhac
milhau
milhor
mili
miliard
miliards
milie
milier
milierats
miliers
milieu
milion
milions
milita
militaire
militaires
militant
militanta
militants
militar
militara
militarament
militaras
militars
military
mill
mille
millenari
millenaris
milleni
millenni
miller
millet
millime
million
millions
milly
milton
milza
min
mina
minaire
minaires
minare
minas
mind
mine
minerai
mineral
minerala
mineralas
mineralogia
minerals
minerau
mineraus
mines
ming
minh
mini
miniatura
minie
minier
miniera
minieras
minim
minima
minimala
minimom
minimum
ministe
ministra
ministre
ministres
minjar
minneso
minor
minora
minorita
minoritari
minoritaris
minoritat
minoritats
minors
minos
minotaure
minsert
minuit
minuscula
minuta
minutas
minutes
mio
mioce
mique
miquel
miquelon
mir
mira
mirabe
miracle
miracles
miralh
miralhs
miramont
miranda
mirapeis
mire
mirecourt
mirga
miro
mis
mise
miss
missil
missils
mission
missionaris
missions
mississipi
mississippi
missori
miste
misterio
mistic
mistica
mistral
mistralenca
mistralencahttps
mit
mitan
mitani
mitans
mitat
mitchell
mite
mites
mitic
mitica
mitologia
mitologias
mitologics
mitra
mitralhaire
mitralhie
mitre
mitterrand
mixta
mixtas
mixte
mixtes
mk
ml
mla
mm
mme
mn
mo
mobil
mobila
mobilas
mobile
mobilier
mobilitat
mobilizacion
mobilizar
mobilize
mobils
moc
mocion
mocratie
moctezuma
mod
modalitats
mode
model
modelizacion
modelizar
moderacion
moderada
moderat
moderats
modern
moderna
moderne
modernes
modernisme
modernista
modernitat
modernizacion
modernizar
modernize
modeste
modifica
modificacion
modificacions
modificada
modificadas
modifican
modificant
modificar
modificat
modificats
modifie
modifique
modul
module
moe
mogo
mographique
mogut
mohamed
mohammad
mohammed
moi
moignage
moigne
moignent
moine
moines
moins
moire
moires
mois
moissac
moissals
moitie
mol
molda
mole
molecula
molecular
moleculara
molecularas
moleculas
molhe
moli
molie
molin
molina
molins
molly
molon
molsheim
molt
molucas
moment
moments
momia
momo
mon
monaco
monarca
monarcas
monarquia
monarquias
monaste
monasterium
monastica
mond
monde
mondes
mondial
mondiala
mondialament
mondialas
mondiale
mondials
mondiau
mondiaus
mondina
mondo
monds
mone
moneda
monedas
monenh
monestie
monestier
moneta
monetari
money
monge
monges
mongeta
mongetas
mongo
mongolia
monica
monnaie
monnaies
mono
monofisisme
monoi
monolit
monolo
monopo
monotei
monoxid
monroe
mons
monsieur
monson
monstre
monstres
mont
monta
montada
montagne
montagnes
montagny
montagut
montalban
montana
montanha
montanhac
montanhas
montanhes
montanho
montanhosa
montanhosas
montant
montar
montargis
montastruc
montat
montatge
montauban
montaut
montbe
montbrun
montcada
montcarles
montclar
monte
montelaimar
montem
montenegro
montes
montesquieu
montesquiu
montevideo
montfaucon
montferrand
montflanquin
montfo
montfort
montgomery
month
monthly
montigny
montinhac
montis
montlaur
montluc
montmartre
montme
montmorency
montpelhie
montpelhierenc
montpellier
montpesat
montrant
montre
montreal
montrejau
montreuil
monts
montsegur
montserrat
monument
monumental
monumentala
monuments
moon
moore
mor
mora
moral
morala
moralas
morale
morales
moralitat
morals
morau
morbihan
more
moreau
moreno
morfologia
morgan
mori
morigue
morir
morisson
morlaix
morlans
moro
moros
morre
morris
morrison
mors
mort
mortagne
mortal
mortala
mortalas
mortalitat
mortals
morte
mortie
mortier
morts
morvan
mos
mosai
mosca
mosco
mose
moselle
moses
mosque
mosqueta
mosquetas
mossa
most
moste
mostra
mostran
mostrant
mostrar
mostrat
mostre
mot
mota
mothe
motion
motiu
motius
motivacion
motivacions
motivar
motivat
motive
moton
motor
motors
motritz
mots
motte
mou
moulin
moulins
mount
mountain
mourir
mouton
mouvement
mouvements
mouzon
movement
movements
movie
moviment
moyen
moyenne
mozart
mp
mpico
mpte
mr
ms
mt
mte
mtes
mu
much
muda
mude
muhammad
muisha
mujeres
mul
mulhouse
multime
multipartisme
multipla
multiplas
multiple
multiples
multiplica
multiplicacion
multiplican
multiplicar
multiplique
multitud
mun
munch
mundi
mundo
munic
municion
municions
municipal
municipala
municipalas
municipalitat
municipalitats
municipalite
municipals
municipau
municipi
municipis
munster
mur
muralha
muralhas
murat
mure
muret
murphy
murray
murs
murtre
murtres
murtrie
mus
musa
musas
muscle
muscles
muse
museo
museu
museum
music
musica
musical
musicala
musicalas
musicals
musicas
musicau
musicaus
musician
musicians
musique
muslim
mussolini
must
mustafa
mustela
musulman
musulmana
musulmanas
musulmans
mut
mutacion
mutacions
mutinaria
mutuala
mutualament
mw
my
myers
myste
myth
mythe
mythes
mythologie
n
na
nabate
nac
nacio
nacion
nacional
nacionala
nacionalas
nacionalisme
nacionalista
nacionalistas
nacionalitat
nacionalitats
nacionalizacion
nacionals
nacionau
nacionaus
nacions
nad
nada
nadal
nadar
nadare
nadas
nadau
nadu
nafrat
nagasaki
nage
nagement
nai
nail
naire
nais
naissanc
naissance
naisse
naissenc
naissent
naisson
naissut
najac
nakai
name
namelong
nament
names
namespace
namibia
namur
nan
nana
nanas
nancy
nans
nant
nantas
nanterre
nantes
napole
napoleon
napoleonencas
napoleonien
napoli
nar
narbona
narbone
narbonesa
narci
nard
narracion
narrativa
narrator
nas
nasa
nasala
nasalizacion
nascuda
nascudas
nascut
nascuts
nasque
nassau
nasser
nat
natacion
natal
natala
natalia
natalitat
nathalie
nathan
nation
national
nationale
nationales
nations
natiu
natius
nativa
nativitat
natron
nats
natura
natural
naturala
naturalament
naturalas
naturalisme
naturalista
naturals
naturas
naturau
naturaus
nature
naturel
naturelle
naturelles
nau
naua
nauc
naufrag
nauru
naus
naut
nauta
nautas
nautor
nautors
nauts
nava
naval
navala
navalas
navarra
navarre
navarro
navas
navau
navaus
nave
navegacion
navegador
navegadors
navegar
naveta
navigacion
navigation
navigator
naviri
naviris
navy
nazaire
nazaret
nazari
nazi
nazia
nazionale
nazis
nazisme
nb
nba
nc
ncarnacion
ncbi
ncer
nchez
ncia
nciala
ncian
ncias
ncidi
ncies
ncipe
nd
nda
nde
nder
ndez
ndia
ndias
ndre
ndria
ne
neandertal
near
nebo
nebosan
nebot
nebraska
nebulosa
necessa
necessari
necessariament
necessaris
necessita
necessitan
necessitant
necessitat
necessitats
necessitava
necessite
necropo
nectar
need
needs
neerlande
neerlandesa
neerlandesas
neerlandeses
nef
nega
negacion
negar
negatiu
negatius
negativa
negativas
negligibla
negligible
nego
negociacion
negociacions
negociar
negocie
negra
negras
negre
negres
negro
negue
negus
neil
neishenc
neishut
nel
nelli
nelson
nement
nements
nen
nenet
nenon
neo
neoli
neolitic
nepal
neptun
neptune
ner
nerac
neron
nervio
nes
neste
net
neta
netament
netejar
netejatge
network
neucha
neuf
neufcha
neuilly
neumann
neuro
neutra
neutralitat
neutralizar
neutre
neutres
neutrino
neutron
neutrons
neuve
neuville
neuvy
nevada
never
nevers
neveu
nevis
new
newbks
newman
news
newsletter
newton
next
nez
nfc
ng
nga
ngas
ngc
nge
ngel
ngels
nger
ngo
ngs
ngtemps
nguyen
nh
nha
nher
nhers
nhs
ni
nia
nian
niana
nians
nias
niasegon
nic
nica
nicaragua
niccolo
nice
niche
nicholas
nick
nico
nicola
nicolas
nicolau
nicole
nida
nidas
nie
nied
niels
nietzsche
nificacion
nige
niger
nigeria
nigerian
night
nigue
nihon
nijinski
nikita
nikolai
nil
nimai
nimeiry
nimes
nimrod
nin
nina
ninfa
niniva
nino
nintendo
nio
nion
nions
niphargus
nipon
nipona
nique
nir
nirvana
nis
nisme
nit
nitrat
nitrats
nitric
nitrocellulo
nits
nive
niveau
nivernais
nix
nixon
niz
nl
nm
nn
nnas
nni
no
noa
nobel
noble
nobles
noblesa
noblesse
noche
nocion
nocions
noe
noeditsection
nogent
noi
noir
noire
noireau
noiri
noiridura
noirir
noirisson
noiritura
noirs
nois
nol
nols
nom
noma
nomada
nomadas
nomades
nomads
nomar
nomat
nomats
nombre
nombres
nombreuses
nombreux
nombro
nombrosa
nombrosas
nombroses
nome
nomen
nomena
nomenada
nomenadas
nomenan
nomenar
nomenat
nomenats
nomenava
nomenavan
nomenclatura
nomene
nominacion
nominacions
nominal
nominala
nomination
nominatiu
nominau
nominis
nommait
nommat
nomme
nommer
noms
non
none
norbert
nord
nordic
nordica
nordistas
noreiev
norfolk
norma
normal
normala
normalament
normalas
normalizacion
normalizada
norman
normand
normanda
normande
normandes
normandia
normandie
normands
normas
normativa
normau
norridura
norrigatge
norrois
norte
north
northern
norton
norve
norvegian
norvegiana
nos
nosaltre
nosaltres
nosautres
noses
nosta
noste
nostra
nostre
not
nota
notabla
notablas
notable
notables
notacion
notacions
notada
notadament
notamment
notar
notari
notas
notat
note
noter
notes
nothing
noti
notice
notices
notion
noto
notoc
notorietat
notre
notz
nou
noureev
nous
nouveau
nouveaux
nouvel
nouvelle
nouvelles
nov
nova
nove
novel
novela
novelum
novelums
november
novembre
noveme
novena
novo
novum
now
noyelles
noyon
ns
nsa
nsdap
nsia
nsol
nsols
nt
nta
nte
nter
ntes
nther
ntra
ntre
ntres
nts
nu
nuanc
nubia
nucle
nuclear
nucleara
nuclearas
nuclears
nuclei
nucleotids
nud
nuda
nuds
nue
nuech
nuechs
nueva
nuevo
nuit
nuits
nul
nulla
nuls
num
number
numbers
nume
numeracion
numeric
numerica
numericament
numericas
numerics
numero
numidia
nuo
nur
nuremberg
nurse
nus
nutricion
nutriments
nuvola
nuwas
ny
nz
o
oaaaaqaaj
oasi
oasis
obama
obe
obei
obelisc
obertura
obje
object
objectiu
objectius
objectiva
objet
objets
oblast
oblidar
oblidats
obliga
obligacion
obligacions
obligada
obligadas
obligant
obligar
obligat
obligato
obligats
obligue
oblit
obra
obrador
obradors
obras
obratge
obratges
obrie
obrier
obriera
obrieras
obriers
obrir
obse
observa
observacion
observacions
observada
observadas
observan
observant
observar
observat
observations
observato
observator
observators
observats
observe
observer
obsole
obstacle
obstacles
obte
obten
obtencion
obtenguda
obtengudas
obtengue
obtengut
obtenguts
obtenir
obtenon
obtie
obu
obus
oc
ocampo
ocasion
ocasions
occam
occasion
occident
occidental
occidentala
occidentalas
occidentale
occidentals
occidentau
occidentaus
occita
occitan
occitana
occitanas
occitane
occitanes
occitania
occitanica
occitanie
occitanisme
occitanista
occitanistas
occitanofo
occitans
occupacion
occupation
occupe
occure
ocde
oce
ocean
oceania
oceaniana
oceanianas
oceanic
oceanica
oceanicas
oceanics
oceanografia
oceans
oclc
oct
octavi
octavius
octo
october
octobre
ocupa
ocupacion
ocupada
ocupadas
ocupan
ocupant
ocupants
ocupar
ocupat
ocupats
ocupava
ocupavan
ocupe
odal
odale
ode
oder
odessa
odile
odisse
odon
odor
odorat
odore
odors
oe
oest
of
ofe
ofensiva
ofensivas
off
office
official
officiel
officielle
officiers
officinalis
offre
ofici
oficial
oficiala
oficialament
oficialas
oficials
oficiau
oficiaument
oficiaus
oficie
oficier
oficiers
oficis
ofri
ofrigue
ofrir
ofrissent
ofrisson
ogaden
oganda
ogedei
ogivas
ognon
ographie
ographique
ographiquement
ographiques
oh
ohio
oi
oigors
oil
ois
oise
oiseau
oiseaux
oit
ok
oklahoma
ol
ola
olanda
olande
olandesa
olandeses
old
ole
olga
oli
oligarquia
olimp
olimpic
olimpica
olimpics
olithique
oliva
olivares
olivas
oliveira
oliver
olivie
olivier
olme
olocaust
ologie
ologique
ologiques
olp
olympia
olympic
olympique
om
oman
omane
omar
ombra
ombras
ombre
omc
ome
omega
omeia
omeias
omenatge
omer
omicidi
ominid
ominids
omofo
omogene
omogenei
omolo
omonim
omonima
omonime
omonimia
omosexualitat
omosexuals
oms
on
ona
onard
onaria
onc
once
oncle
onda
ondada
ondas
ondulato
one
onem
onepage
ong
ongan
ongre
ongresa
ongresas
ongria
onien
online
only
onne
onoma
onomastique
onor
onorar
onorat
onors
ons
ont
onta
onte
onu
onze
oocities
oort
op
opale
opausa
opausada
opausadas
opausan
opausant
opausants
opausar
opausat
opausats
opausava
opause
opcion
opcional
opcions
ope
open
openstreetmap
opep
opera
operacion
operacions
operas
operatiu
operator
operators
opinion
opinions
opold
oportunitat
oposants
oposat
oposicion
oposicions
oppidum
oppose
opression
optic
optica
opticas
optics
option
options
opus
oquei
or
ora
oraci
oracle
orador
oral
orala
oralas
oran
orange
orari
oraris
oras
orato
oratoire
orator
orau
orbita
orbital
orbitala
orbitalas
orbitan
orbitas
orchestra
ordenanc
ordenat
ordene
order
ordina
ordinari
ordinaris
ordinator
ordinators
ordo
ordona
ordonanc
ordonar
ordonat
ordone
ordonnance
ordre
ore
oregon
ores
orfane
orfe
orfeo
org
organ
organic
organica
organicas
organics
organisation
organise
organisme
organismes
organista
organiza
organizacion
organizacions
organizada
organizadas
organizan
organizant
organizar
organizat
organization
organizats
organize
organs
orge
orgue
orgues
ori
orie
orient
orientacion
orientacions
orientada
orientadas
oriental
orientala
orientalas
orientale
orientales
orientals
orientar
orientat
orientation
orientau
orientaus
oriente
orige
origin
origina
originaire
original
originala
originalament
originalas
originalitat
originals
originari
originaris
originas
originau
origine
origines
origins
orion
orizont
orizontal
orizontala
orizontalas
orlando
orle
orleans
orlhac
ormona
ormonas
ornament
ornaments
orne
oro
orogene
oromo
oronime
orphe
orpustan
orque
orror
ors
orsa
orsay
orses
orte
orthographe
orthographie
ortodo
ortodoxia
ortografia
ortografiat
orwell
os
osaka
oscar
oscars
oscillacion
osiris
ossa
osse
ossetia
ossi
ossum
ost
ostal
ostalaria
ostals
ostatges
ostau
ostaus
ostil
ostila
ostilas
ostilitat
ostilitats
ostils
ostrogo
otan
ote
othe
othello
other
oti
otoman
otomana
otomanas
otomans
oton
otra
otramar
ots
otto
ou
oublie
ouche
ouen
ouest
oui
our
ourense
out
outils
outre
ouvert
ouverte
ouverture
ouvrage
ouvrages
ouvriers
ov
ovala
over
overline
overrightarrow
overview
ovidi
owen
own
oxford
oxid
oxidacion
oxids
oxige
oyo
oz
ozbe
ozbequistan
ozo
ozu
p
pa
pablo
pac
pace
pacha
pacient
pacients
pacific
pacifica
pacificacion
pacifista
pacte
paga
pagament
pagaments
pagan
pagana
paganini
paganisme
pagans
pagar
pagat
pagats
page
pages
pagina
paginas
pago
pague
pagus
pai
pain
pair
paire
paires
pairin
pairs
pais
paisan
paisatge
paissie
paix
paja
pakistan
pal
pala
palace
palai
palais
palas
palatalizacion
palatin
palatinat
palau
palay
palazzo
pale
paleo
paleolitic
paleontolo
paleontologia
palestina
palestiniana
palestinians
palestrina
paleta
palha
palhars
pali
palladio
pallars
pallas
palm
palma
palmare
palmas
palmie
palmons
palo
pals
paludisme
palun
paluns
pampa
pampalona
pan
panama
panat
panato
pandemia
pandemias
pandora
pane
pange
panica
panie
panjab
pano
panorama
pans
panteon
panthera
panzer
paolo
papa
papala
papas
papautat
papaver
pape
paper
papers
papie
papier
papir
papo
papoa
paquebo
paquistan
paquistane
par
para
parabo
paracelse
parada
paradi
paradigma
paradigme
paradis
parado
paradoxalament
paragraf
paraguai
parai
paralle
parallel
parame
parameter
parameters
params
parana
paranthropus
parasit
parasitas
parasits
parat
paratge
paration
paraula
paraulas
parc
parca
parcatge
parce
parcelles
parcial
parciala
parcialament
parcialas
parcours
parcs
pardo
pardon
pardoux
pare
paregue
paregut
pareguts
pareis
pareissent
pareisson
parelh
parelhs
parent
parentat
parente
parents
paret
parets
pareu
pareus
parfois
pargue
pargues
pari
parie
paris
parisenc
parisenca
parisien
paritat
park
parker
parks
parla
parlada
parladas
parlament
parlamenta
parlamentari
parlamentaris
parlaments
parlan
parlant
parlar
parlars
parlat
parlava
parlavan
parle
parlem
parlement
parlementa
parler
parlers
parliament
parma
parmenides
parmi
paro
parochia
parodia
paroisse
paroisses
paroissial
paroissiale
parole
paroles
parpalho
parro
parrochia
parroquiala
pars
parsac
parsis
part
partage
partant
partatge
parte
parteja
partejada
partejan
partejant
partejar
partejat
partejats
partement
partemental
partementale
partementales
partements
partenari
partenariat
partenaris
partenc
partenon
partent
parti
partiada
partial
particion
particions
participa
participacion
participan
participant
participants
participar
participat
participation
participava
participavan
participe
participi
particula
particular
particulara
particularament
particularas
particularitat
particularitats
particularite
particulars
particulas
particulie
particulier
partida
partidas
partie
partiellement
parties
partigue
partiment
partir
partis
partisan
partisans
partit
partition
partits
parts
party
parucion
pas
pascal
pascas
pascual
pasha
pasmens
pasolini
passa
passada
passadas
passage
passait
passan
passant
passar
passara
passat
passatge
passatges
passatgie
passats
passava
passavan
passe
passeig
passejada
passejadas
passer
passes
passion
passions
passiu
passiva
past
pasta
pastas
paste
pasteur
pastor
pastorala
pastore
pastre
pastres
pastura
pat
patas
pate
pater
paternitat
pati
patigue
patiment
patinatge
patir
patissent
patisson
patit
patoge
patois
patologia
patologias
patria
patriarca
patriarcat
patric
patrice
patrici
patricia
patricians
patrick
patrimo
patrimoine
patrimonials
patro
patrocini
patron
patronage
patronatge
patronim
patrons
patronyme
pattern
patton
patz
pau
pauc
pauca
paucas
paucs
paul
paula
paulhac
pauli
paulin
paulo
paumons
paur
paura
pauras
paure
paures
pauretat
pausa
pausada
pausadas
pausan
pausanias
pausant
pausar
pausat
pausats
pause
pauvre
pauvres
pavarotti
pave
pavia
pavo
pax
payot
pays
paysage
paysages
paysans
paysflag
paysflagbycio
paysflagbyname
paz
pc
pcc
pcf
pdf
pe
peabody
peace
pearl
pearson
peatge
peau
pebre
pebron
pec
pecat
pecats
pedago
pedagogia
pedofilia
pedrera
pedro
pega
peine
peintre
peinture
peir
peira
peire
peirego
peireguers
peirie
peiro
peirosa
peis
peisses
peissons
peitau
peitavin
peitavina
peitieus
pejoratiu
pel
pelagrua
pelatge
pele
pelegrinatge
pelegrins
pelena
pellicula
pelo
pelopone
pelote
pels
pen
pena
penal
penala
penas
pench
pend
penda
pendaient
pendait
pendance
pendant
pendante
pendas
pendent
pendenta
pendentas
pendi
pendnet
pene
penede
penetracion
penetrar
penguin
peni
peninsula
penjal
penjals
penjat
penjats
pennsilva
pensa
pensada
pensadas
pensaire
pensaires
pensament
pensan
pensant
pensar
pensat
pensatz
pensava
pensavan
pense
penser
pensi
pension
penson
pentatlon
pente
pentes
people
pepin
pequin
per
pera
peras
perbosc
percac
perce
percebre
percebuda
percebut
percentatge
percep
percepcion
percepcions
perche
perco
percors
percussion
percussions
percy
perd
perde
perdent
perdigue
perdon
perdre
perdu
perduda
perdudas
perdure
perdut
perduts
pere
pereira
pereu
perfe
perfeccion
perfie
perfil
performa
performanc
performance
perfum
perfumaria
perfums
pergam
pergamin
pergamins
peri
pericles
perie
periferia
periferic
perifericas
periferics
perigo
periguers
perilh
perilho
perilhosa
perilhs
perime
perio
period
periodic
periodica
periodicas
periodicitat
periodics
perlongament
permane
permanent
permanenta
permanentas
permanents
perme
permes
permeses
permet
permetava
permete
permetent
permetia
permeton
permetra
permetre
permetria
permettant
permettent
permis
permission
pero
peron
perosa
peroviana
perpe
perpendicular
perpinhan
perque
perrier
perrin
perrot
perry
pers
persan
perse
persec
persecucion
persecucions
persee
persefo
persegui
perseguida
perseguigue
perseguir
perseguit
persic
persiste
persona
personal
personala
personalament
personalas
personalitat
personalitats
personals
personas
personatge
personatges
personau
personaus
persones
personificacion
personne
personnes
perspectiva
perspectivas
perspective
perspectives
pertine
pertinent
perto
pertocant
pertot
pertu
perturbacion
perturbacions
peru
pes
pesa
pesadas
pesant
pesantor
pesar
pesca
pescadors
pescaires
pese
peses
peste
pesticidas
pesuc
pesuca
pesucas
pesucs
pesuga
pesugas
petals
pete
peter
peters
petersborg
peth
peticion
petit
petita
petitas
petite
petites
petits
petra
petri
petro
petrograd
petrolie
petroliera
petrus
peu
peugeot
peuple
peuplement
peuples
peus
peut
peuvent
peyre
pez
pg
ph
phane
phase
phaseolus
phe
phi
phil
philadelphia
philip
philipp
philippe
philippson
philips
phillips
philosophical
philosophie
philosophique
philosophy
phoenix
phone
phonology
photo
photographie
photos
php
physical
physics
physique
pi
pia
pianista
piano
pias
pib
pic
pica
picar
picard
picardia
picardie
picasso
picchu
piccolo
picho
pichon
pichona
pichonas
pichons
pico
pics
picture
pictures
pide
pie
pied
pieds
piemont
piemonte
pier
piero
pierre
pierres
pietat
pieter
pietro
pieve
pigeonnier
pigment
pigments
pikchu
pila
pilar
pilars
pilas
pilat
pilhada
pilhar
pilhatge
pilhatges
pilhe
pille
pilo
pin
pinal
pinc
pince
pine
pingoi
pinhas
pink
pins
pinta
pintat
pinte
pintor
pintors
pintre
pintres
pintura
pinturas
pinus
pinyin
pio
pion
pioneer
pionie
pions
piotr
pip
piramida
piramidas
pirata
pirataria
piratas
pire
pirene
pirenenc
pirenenca
pirolisi
pis
pisa
piscina
pisode
pista
pistas
piste
pistolet
piston
pitago
pital
pitre
pitron
pittoresque
piu
pizarro
pk
pl
pla
plac
placa
placas
placatge
place
placenta
places
plafon
plaga
plage
plai
plain
plaine
plaisance
plaja
plajas
plan
plana
planas
planck
plancton
plane
planet
planeta
planetari
planetary
planetas
planh
planie
planificacion
plano
plans
plant
planta
plantacion
plantacions
plantada
plantaires
plantar
plantas
plantat
plantats
plante
plantes
plantilla
plants
plaque
plaquetas
plasenc
plaser
plasma
plasmodium
plastic
plastica
plastics
plat
plata
plataforma
plataformas
plate
plateau
plateaux
platin
platon
platonisme
plats
play
plaza
ple
please
plebei
plei
plein
pleine
pleistoce
plen
plena
plenament
plens
ples
plesiosaure
plesiosaures
plessis
plini
plioce
plo
plomb
plon
plotarea
plotdata
plotin
plue
plueja
pluejas
pluma
plumacho
plumas
plumatge
plupart
plural
pluralitat
plurau
plus
plusieurs
plusors
plutarc
pluto
pluton
pluvio
pm
pmid
pneumatic
png
po
poblacion
poblada
pobladas
poblament
poblants
poblar
poblat
poblats
poble
poce
poche
pocket
podava
podavan
pode
podem
poden
podent
poder
podere
podero
poderosa
poderosas
poderoses
poders
podia
podio
podium
podon
podria
podut
poe
poema
poemas
poems
poesi
poesia
poesias
poeta
poetessa
poetic
poetica
pogue
pogut
poi
poids
poincare
point
pointe
points
poira
poire
poiria
poison
poissanc
poisson
poitiers
poitou
poix
pojada
pol
polar
polara
polaras
polaritat
polarizacion
polars
pole
polemica
polemicas
polha
poli
police
policie
policy
polida
polidas
polie
poligo
polime
polimerasa
polinesia
polinesiana
polino
poliomieliti
polis
polit
politei
politic
politica
political
politicament
politicas
politician
politiciana
politicians
politics
politique
politiques
polle
pollen
pollinizacion
pollucion
pollucions
polluents
polo
polone
polonesa
polonesas
polonha
pols
polsa
polvera
poly
poma
pomas
pome
pomera
pomie
pompa
pompas
pompe
pompidor
pompie
ponc
ponce
ponch
poncha
ponches
ponchs
pondre
ponduda
ponent
pons
pont
pontarlier
ponte
pontet
pontevedra
ponthieu
pontificat
ponts
pontuacion
pop
popa
pope
populacion
populaciondensitat
populacions
populaire
populaires
popular
populara
popularament
popularas
popularitat
populars
population
populations
poque
por
porcelana
porche
porcion
porgir
pornografica
porpra
port
porta
portada
portadas
portail
portaire
portaires
portait
portal
portals
portamante
portant
portar
portara
portat
portats
portau
portava
portavan
porte
porter
portes
portie
porto
portrait
portraits
portua
portugal
portugau
portugue
portuguesa
portuguesas
portugueses
pos
posca
poscas
poscut
pose
poseidon
poses
posicion
posicionament
posicions
position
positiu
positius
positiva
positivas
positivisme
posse
possedi
possedir
possedissent
possedissia
possedisson
possession
possessions
possessius
possessor
possibilitat
possibilitats
possibla
possiblament
possiblas
possible
possibles
post
postal
postau
poste
posterior
posteriora
posteriorament
posterioras
posteriori
posteriors
posteritat
postula
postulat
postulats
postum
postuma
postura
pot
potabla
potassi
pote
potencial
potenciala
potencialament
potencials
potenciau
poterie
poteries
poton
potz
poue
pouille
pouillhistoriq
pouilly
pound
pour
pourquoi
pourrait
pourtant
pousa
pouse
poussa
pouvait
pouvera
pouvoir
poux
pova
powell
power
pp
ppen
ppp
pr
pra
practic
practica
practicada
practicament
practican
practicant
practicar
practicas
practicat
practicava
practicavan
prada
pradas
prade
prades
pradesh
prado
praga
prairies
prat
pratique
pratiques
prats
praube
pre
prealabla
prealable
preambul
preca
precaucion
precaucions
prece
precedent
precedenta
precedentas
precedents
precedi
precedit
preceltic
preceltica
preci
precio
preciosa
preciosas
precioses
precipitacion
precipitacions
precipite
precisa
precisament
precisar
precisas
precise
precises
precision
precisions
preco
preconiza
preconizacions
precursor
precursors
predacion
predator
predators
predecessor
predecessors
predicacion
prediccion
prediccions
predomina
predominant
prefa
prefaci
prefe
prefectorau
prefectura
prefecturas
prefere
preferi
preferible
preferigue
preferisson
preferit
prefixe
prefond
prefonda
prefondament
prefondas
prefondor
prefondors
prefonds
prega
pregar
preguie
prehistoric
prei
preindoeurope
prejudici
prelatin
preludi
premi
premiat
premie
premier
premiera
premieras
premierei
premiereis
premiers
premsa
pren
prend
prendra
prendre
prene
prenent
prenga
prengo
prengue
prenia
prenom
prenon
prensa
preocupacion
preocupacions
preocupar
preocupe
prepara
preparacion
preparacions
preparada
preparar
preparat
preparato
preparats
prepare
prepaus
prepausa
prepausada
prepausadas
prepausan
prepausant
prepausar
prepausat
prepausats
prepausava
prepause
prepausi
preponderant
preposicion
prerogativas
pres
presa
presas
presbyte
prescripcion
prese
present
presenta
presentacion
presentada
presentadas
presentan
presentant
presentar
presentas
presentat
presentats
presentava
presentavan
presente
presents
preservacion
preservar
preses
preside
presidencial
presidenciala
presidencialas
presidenciau
president
presidenta
presidents
presidi
presidit
presl
presoe
preson
presonie
presoniers
presons
presqu
presque
press
presse
presses
pression
pressions
prestigi
prestigio
prestigiosa
prestigiosas
prete
pretencions
pretend
pretendent
pretendents
pretendre
preterit
preto
pretonic
pretonica
pretty
pretz
pretzfach
pretzfachs
preuve
prevei
preveire
prevencion
prevenir
preventiva
prevesia
prevision
previsions
previst
prevista
previstas
prevists
pri
pria
priam
priament
prias
price
priest
prieur
prieure
prigond
prigonda
prigondament
prigondas
prigondor
prigondors
prigonds
prim
prima
primari
primaris
primas
primat
primats
primautat
prime
primie
primier
primiera
primitif
primitiu
primitius
primitiva
primitivas
primitive
primo
primordial
primordiala
primordiau
prims
prince
princes
princesa
princessa
princeton
princi
principal
principala
principalament
principalas
principale
principalei
principalement
principales
principals
principat
principats
principau
principaus
principaute
principaux
principe
principes
principi
principis
principles
printemps
prior
priorat
prioratus
priori
priorita
prioritat
pris
prise
prison
prisonie
prit
privacion
privada
privadas
privat
private
privats
prive
privile
privilegiada
privilegiar
privilegiat
privilegiats
prix
pro
proa
probabilitat
probabilitats
probabilite
probabla
probablament
probable
probablement
probablhament
proble
problem
problema
problemas
problematica
problems
procacci
procario
proce
procedi
procediment
procediments
procedir
procedura
proceduras
proceedings
process
processes
procession
processor
processus
proche
proches
proclama
proclamacion
proclamada
proclamar
proclamat
proclame
proco
procuraire
produccion
produccions
produch
producha
produchas
produches
produchs
production
productions
productiu
productiva
productivitat
productor
productors
productritz
produgue
produire
produit
produits
produrre
produseish
produsent
produsi
produsida
produsigue
produsir
produsisson
produsit
produson
produtz
profe
profecia
profession
professional
professionala
professionalas
professionals
professionau
professionaus
professions
professor
professora
professors
profie
profiech
profit
program
programa
programacion
programas
programme
progre
progressar
progression
progressista
progressistas
progressiu
progressiva
progressivament
progressivement
proi
proje
projeccion
projeccions
project
projecte
projectil
projectils
projects
projet
projets
prokofiev
proletariat
proliferacion
prolo
prolongacion
prolongament
prome
promesa
promet
promete
promo
promoccion
promocion
promogut
promotor
promotors
promulgacion
promulgue
pron
prono
pronom
pronoms
prononce
prononciacion
prononciacions
prononciada
prononciar
prononciat
prononciation
prononcie
propaga
propagacion
propaganda
prope
properties
property
prophe
propi
propice
propici
propietat
propo
proporcion
proporcional
proporcionala
proporcionalitat
proporcions
propos
proposal
proposat
propose
proposicion
proposicions
propre
propres
proprie
proprieta
proprietari
proprietaris
proprietat
proprietats
propulsion
proserie
prospe
prosper
prosperitat
prospero
prostitucion
protagonista
protagonistas
prote
proteccion
proteccions
protection
protector
protectorat
protectorats
protectors
protectritz
protegi
protegida
protegidas
protegir
protegissia
protegit
protegits
protei
protestacion
protestacions
protestant
protestanta
protestantas
protestante
protestantisme
protestants
protestar
proto
protoco
proton
protons
protoss
prototipe
proudhon
prouve
provar
prove
proven
provenc
provence
provenent
provenir
provesi
provesida
provesiment
provesir
provesisson
provesit
provi
provide
provient
province
provinces
provincia
provincial
provinciala
proviso
provisoirement
provo
provocada
provocadas
provocant
provocar
provocat
provoque
proximitat
proximite
pru
prude
prudent
prudenta
prudhomme
prume
prumie
prumier
prunet
prunie
prunus
prussian
prussiana
prussians
prussienne
prussiens
ps
pseudo
pseudonim
psi
psicanalisi
psicanalista
psicanalitica
psico
psicolo
psicologia
psicologic
psicologica
psicologics
psicoterapia
psique
psiquiatre
psiquiatria
psiquic
psiquica
psychanalyse
psycho
psychologie
pt
pta
ptan
ptas
pte
pteropus
pterosaure
pterosaures
ptes
ptolemai
ptoleme
pts
pu
pub
public
publica
publicacion
publicacions
publicada
publicadas
publicain
publicament
publicar
publicas
publicat
publication
publications
publicats
publicitat
publics
publie
publique
published
publishers
publishing
pue
puebla
puech
pueg
puei
puente
puerto
puf
pug
puget
pui
puig
puis
puish
puisqu
puisque
puits
puja
pujada
pujar
pujo
pujol
pulsion
pulsions
pulture
pultures
punch
punic
punica
punicas
punics
punk
punt
punta
puntas
puntejadas
punts
punycode
puo
pur
pura
purament
puras
pure
puretat
purga
purgas
purificacion
purificar
purme
purs
pus
pusle
pusleu
put
pute
puy
px
py
pyeongyang
pygmalion
pyre
q
qatar
qi
qian
qid
qin
qing
qpc
qu
qua
quad
quadre
quadres
quae
qual
quala
qualas
qualifica
qualificacion
qualificada
qualificar
qualificat
qualificatif
qualificatiu
qualificats
qualitat
qualitats
qualite
quality
qualqu
qualquas
qualque
qualques
quals
quan
quand
quant
quantic
quantica
quantitat
quantitats
quaranta
quarante
quarantena
quaresma
quark
quarks
quart
quarterly
quartie
quartier
quartiers
quarto
quarts
quase
quasi
quasiment
quate
quatorze
quatre
quatren
quatrena
quau
quauqu
quauquas
quauque
quauquei
quauqueis
quauques
quaus
que
quebe
queen
queens
queer
quei
quel
quela
quelque
quelques
quences
quente
quentin
quercus
quercy
quere
query
ques
quesnoy
questa
question
questions
queu
qui
quia
quias
quicho
quico
quie
quilha
quilhada
quilhan
quilhat
quilograma
quilogramas
quilome
quimia
quimic
quimica
quimicament
quimicas
quimics
quimista
quimistas
quimper
quin
quina
quinas
quines
quinina
quint
quinta
quinzaine
quinze
quinzena
quio
quipe
quirguizstan
quis
quista
quita
quitament
quitar
quitas
quitat
quite
quites
quito
quitte
quo
quocient
quod
quoi
quora
quotidian
quotidiana
r
ra
rabastens
rabelais
rabin
rac
racategoria
race
rache
rachete
raciala
racina
racinas
racine
racing
racional
racionala
racionalisme
racionalitat
racionals
racisme
raco
raconta
raconte
racontes
rada
radar
radars
rade
radi
radiacion
radiacions
radical
radicala
radicalament
radicalas
radicals
radicau
radicaus
radio
radioactiu
radioactius
radioactiva
radioactivitat
rafael
rafe
rafinaria
rafinatge
rahman
rai
raiaduras
raic
raices
raid
raimon
raimond
rain
rainal
rainier
raionament
raionaments
raire
raires
rais
raison
raja
rajasthan
ral
rale
ralement
ralhs
raliar
ralite
ralph
ram
rama
ramaderia
ramas
rambervillers
rament
ramo
ramon
ramonvila
ramos
rampe
rams
ramse
ran
ranc
rance
rand
random
randonne
rang
range
ranger
rant
raon
raoul
rap
rape
raphae
rapid
rapida
rapidament
rapidas
rapide
rapidement
rapiditat
rapids
rapo
rappelle
rapport
raprochament
raprochar
raproche
raqueta
rar
rara
rarament
raras
rard
rare
rares
rars
ras
rase
rasic
rasim
rasims
rason
rasonable
rasonament
rasons
raspotin
rat
rata
ratapenadas
ratificacion
ratificar
ratificat
ratio
ration
rations
rats
rattache
rattachement
rattus
rature
rau
rauba
raubament
rault
raultaises
raux
ravage
ravel
ravena
rawls
ray
raymond
rb
rba
rbas
rbe
rbes
rbi
rbis
rbs
rc
rca
rcan
rcas
rce
rces
rci
rcia
rcis
rcs
rd
rda
rdan
rdas
rde
rdi
rdia
rdis
rdoa
rdoba
rdon
rdre
rdres
rds
re
rea
reabilitacion
reaccion
reaccions
reactiu
reactius
reactivitat
reactor
reactors
read
reading
ready
reagan
reagi
reagir
reagrupa
real
reala
realament
realas
realisme
realista
realistas
realitat
realitats
realiza
realizacion
realizacions
realizada
realizadas
realizador
realizan
realizant
realizar
realizat
realizator
realizators
realizats
realizava
realizavan
realize
reals
rearmament
reau
reaus
reba
rebat
rebaton
rebe
rebellion
rebellions
rebomb
rebut
rebuta
rebutada
rebutan
rebutar
rebutat
rebutats
rebute
rec
recampa
recampar
rece
recebe
recebent
recebia
recebon
recebre
recebuda
recebut
recensada
recensament
recensats
recense
recensement
recension
recent
recenta
recentament
recentas
recents
recep
recepcion
recepta
receptor
receptors
recerca
recercas
recession
recherche
recherches
reciclatge
recipiendari
recipient
recipro
recit
recits
reclama
reclamant
reclamar
reclams
reco
recobe
recomanda
recomandacion
recomandacions
recomandat
recompensa
recompensas
reconciliacion
recone
reconeguda
reconegudas
reconegue
reconegut
reconeguts
reconeis
reconeissenc
reconeissent
reconeisson
reconnaissance
recono
reconogue
reconoissenc
reconquista
reconquistar
reconquiste
reconstitucion
reconstruccion
reconstruction
reconstruire
reconstruit
reconstruite
record
records
recorregut
recors
recorses
recrutament
recrutar
recrutats
rectangle
rectangulara
rector
recue
recueil
recuelh
reculada
reculament
recular
reculhir
recuperacion
recuperar
recupere
recurrent
recurrentas
recurrents
red
redaccion
redactor
rede
redescube
redigi
redigida
redigigue
redigir
redigit
redigits
redir
redireccion
redon
redond
redonda
redreic
reduccion
reduch
reducha
reduchas
reduchs
reductor
reduire
redurre
redusent
redusi
redusida
redusidas
redusir
redusit
redusits
reed
reedicion
reeleccion
reelegit
ref
refecto
refere
reference
references
referencial
referencias
referenciau
referendum
referent
referi
referir
refle
reflexion
reflexions
refo
reforma
reformada
reformar
reformas
reformat
reformats
reforme
refraccion
refregiment
refrejament
refu
refugi
refugiar
refugiat
refugiats
refugie
refusa
refusan
refusant
refusar
refusat
refuse
reg
rega
regan
regard
regarda
regardan
regardant
regardava
regarde
regards
rege
regent
regenta
regents
reggae
regi
regia
regim
regime
regiment
regiments
regimes
regims
regina
regio
region
regional
regionala
regionalas
regionals
regionau
regionaus
regions
registre
registres
regla
reglada
reglament
reglamentacion
reglaments
reglar
reglas
regle
regna
regnat
regne
regression
regropa
regropament
regroupe
regulacion
regular
regulara
regularament
regularas
regularitat
regulars
rei
reial
reiala
reialas
reialme
reialmes
reials
reialtat
reiau
reiaume
reiaumes
reiaus
reich
reims
reina
reinas
reine
reinhardt
reire
reis
rejo
rejoindre
rejoint
rejonh
relacion
relacions
relai
relais
relambi
relanc
relarg
relat
related
relatif
relation
relations
relatiu
relatius
relativa
relativament
relativas
relative
relativement
relativitat
rele
relevada
relevait
relevant
relhac
reli
reliant
relie
relief
religa
religant
religieuse
religieuses
religieux
religio
religion
religions
religiosa
religiosas
religioses
reliques
relo
rem
remanda
remandar
remanie
remarca
remarcabla
remarcable
remarcables
remarcar
remarcas
remarcat
remarquable
remarque
rembrandt
reme
remembra
remembran
remembranc
remembrant
remembrar
remembre
remembres
rement
remesa
remiremont
remo
remonta
remontada
remontan
remontant
remontar
remonte
remontent
remparts
remplac
remplace
rems
remy
ren
rena
renaissance
renaissenc
renan
renat
renaud
renault
rence
rences
rencontra
rencontre
rend
renda
rendas
rende
rendement
rendements
rendiment
rendre
rendu
rendut
renduts
rene
renfo
renforc
renforce
reng
rengs
renhe
rennes
reno
renoir
renom
renomada
renomme
renonciar
renoncie
renovacion
renove
renovelablas
renovelament
rens
rent
rente
rentes
rents
reorganizacion
reorganizar
reorganize
repai
repais
reparacion
reparacions
reparar
reparticion
repartidas
repartits
repaus
repausa
repausan
repausant
repe
reperto
repeticion
repic
replanat
replegar
replica
replicacion
repo
report
reports
repre
repren
reprendre
reprengue
represa
represalhas
representa
representacion
representacions
representada
representadas
representan
representant
representants
representar
representat
representatiu
representativa
representats
representava
representavan
represente
representents
repression
repressiu
reprimida
reprimidas
reprimigue
reprimir
reprimit
reprimits
repris
reprises
repro
reproduccion
reproduire
reptil
reptils
repu
republic
republica
republican
republicana
republicanas
republicans
republicas
reputacion
reputada
reputat
reputats
reque
request
require
rer
res
rescat
rescaufament
resco
rescontre
rese
research
reserva
reservada
reservadas
reservat
reservats
reside
residents
residi
residu
resina
resinas
resiste
resistent
resistentas
resistents
resisti
resistigue
resistir
resnum
reso
resolucion
resolucions
reson
resona
resources
respe
respectada
respectant
respectar
respectat
respecte
respectius
respectivament
respectivas
respie
respiracion
respirato
respo
respond
responde
respondon
respondre
responsa
responsabilitat
responsabilitats
responsabla
responsable
responsables
responsas
resse
resso
resson
ressorc
ressorsa
ressorsas
ressort
ressources
resta
restablida
restabligue
restabliment
restablir
restablit
restacada
restacament
restacat
restanca
restancas
restant
restauracion
restaurada
restaurant
restaurants
restaurar
restaurat
restauration
restaure
reste
restes
restitucion
restituir
restrench
restriccion
restriccions
result
resulta
resultan
resultant
resultat
resultats
resulte
results
resumir
resumit
resurge
resurreccion
ret
retard
retaule
rete
reten
retenguda
retengut
rethel
retira
retirada
retirament
retirar
retirat
retirats
retire
retorica
retorn
retorna
retour
retourne
retrach
retrachs
retrait
retraite
retre
retrieved
retro
retrobar
retrobe
retrouve
rets
return
retz
reu
reule
reunion
reus
rev
reve
reveal
revelacion
revelacions
revelada
revelar
revelat
revele
revendica
revendicacion
revendicacions
revendicada
revendicar
revendicat
revendicava
revendique
revenge
revengut
revenguts
revenus
reversament
reversar
reversat
reverse
revest
review
reviews
revirada
reviradas
revirat
revisar
revisco
revision
revista
revistas
revo
revocacion
revolucio
revolucion
revoluciona
revolucionari
revolucionaris
revolucions
revolum
revolution
revoute
revue
rex
rey
rez
rf
rfa
rg
rga
rgas
rge
rgi
rgue
rgues
rh
rhe
rhin
rhinolophus
rho
rhode
rhodes
ri
ria
riala
rialas
riament
rian
rias
riau
riaux
riba
riban
ribas
ribe
ribeiro
ribemont
ribera
ribie
ribiera
ribo
riboso
ric
rica
ricain
ricaine
ricains
ricard
ricardo
ricas
rich
richard
richards
richardson
riche
richelieu
riches
richessa
richessas
richesse
richmond
richter
rico
rics
ricœur
rida
ride
ridionale
rie
riel
rien
rienne
ries
rieur
rieure
rieux
rif
rifkin
rift
rige
right
rights
rigor
rigord
rigoro
rigorosa
rima
rimas
rimbaud
rime
rimini
rin
ring
rinoce
rio
riode
rioja
riphe
rique
riques
riquesa
riquesas
riquet
riquier
rire
ris
risation
risc
risca
riscs
rise
risle
risque
risques
ristique
ristiques
rita
ritable
ritage
rite
rites
ritme
ritmes
ritual
rituals
riu
rius
rival
rivala
rivalas
rivalitat
rivalitats
rivalizar
rivals
rivau
rivaus
rive
river
rivera
rives
rivie
rizo
rja
rjas
rk
rla
rlas
rle
rm
rma
rman
rmas
rme
rmes
rms
rn
rna
rnan
rnas
rne
rnes
rnha
rnhe
rni
rnia
rns
ro
road
roan
roazhon
robe
robert
roberto
roberts
robertson
robin
robinson
robo
robot
roc
roca
rocasso
rocca
roch
rocha
roche
rochefort
rocher
rochers
roches
rochette
rock
roco
rocongolesas
rocosas
rode
rodoreda
rodri
rodrigo
rodriguez
rodrome
roe
roegen
roerga
roergassa
roergue
roge
roger
rogers
roges
rogie
roglo
rohan
rohlfs
roi
rois
roja
rojas
roland
role
roll
rolling
rom
roma
romain
romaine
romaines
romains
roman
romana
romanas
romanc
romance
romancie
romane
romanes
romanesa
romanha
romani
romania
romanic
romanica
romanicas
romanilha
romanin
romanizacion
romano
romans
romantic
romantica
romantics
romantisme
romavatge
rome
romeo
romieu
rompadura
rompe
rompedura
rompre
romul
ron
ronald
ronc
rond
ronda
ronde
ronique
ronne
roosevelt
roport
roque
roquebert
roqueta
roquetas
ros
rosa
rosada
rosas
rosats
rose
rosegaire
rosegaires
roses
rosie
ross
rossa
rosselhon
rostaing
rota
rotacion
rotas
rothschild
rotie
rotland
rotlant
rotle
rotterdam
roue
rouen
rouergue
rouge
rougemont
rouges
roule
round
roure
roures
rousseau
roussel
roussillon
route
routes
routie
routier
routledge
roux
rovingienne
rovingiens
row
roy
royal
royale
royaume
royaute
rp
rps
rpus
rr
rra
rras
rratrem
rratrems
rre
rrer
rres
rritz
rs
rsa
rsan
rsari
rsas
rsei
rseis
rses
rsi
rsia
rsias
rss
rt
rta
rtament
rtan
rtas
rte
rtes
rti
rtl
rts
rttemberg
ru
rubio
rude
rudolf
rue
rues
rugbi
rugby
rui
ruine
ruines
ruisseau
ruisseaux
ruiz
rule
rum
rumans
rumor
rumors
run
rupe
rupt
ruptura
rural
rurala
ruralas
rurale
rurals
rurau
rus
rusalem
rusca
rushdie
russa
russas
russe
russell
russes
russia
russian
russie
rustica
rute
ruth
rutherford
rv
rva
rvan
rvas
rvi
rvis
rwanda
ry
ryan
rze
s
sa
saba
sabadell
sabarthe
sabatie
sabe
sabent
sabenta
sabents
saber
sabers
sabi
sabia
sabina
sabine
sabla
sablayrolles
sable
sables
sabon
sabor
sabre
sabres
sac
sacatge
sacerdo
sacrada
sacramento
sacrat
sacrats
sacre
sacrifici
sacrificis
sacs
saddam
safavida
safran
saga
sage
sageta
sagrada
sagrat
sahara
sai
said
saigon
sailles
sainct
saint
sainte
saints
sais
saison
sait
sal
sala
salada
saladas
saladin
salamanca
salamina
salamon
salari
salariat
salariats
salaris
salas
salat
salazar
salc
sale
salen
sales
salias
salina
salinas
salines
salinitat
salins
salisbury
salix
salle
salles
salm
salomon
salon
salons
sals
salsa
salt
salta
salut
salva
salvada
salvador
salvament
salvar
salvat
salvatge
salvatges
salvatja
salvatjas
salve
salvetat
salzborg
sam
sama
samba
sambre
same
samoa
samorais
samos
samsara
samson
samue
samuel
san
sana
sanas
sanc
sanccion
sance
sanch
sancho
sancion
sancions
sancta
sancte
sancti
sancto
sanctuari
sanctus
sand
sang
sanguin
sanguina
sanguins
sanha
sanhas
sanita
sans
sanscrit
sanskrit
sant
santa
santana
santas
santat
sante
santerre
santi
santiago
santo
santonge
santos
sants
santuari
santuaris
sao
sap
sapie
sapiens
saquejat
sar
sara
saragossa
sarah
sarde
sardenha
sargon
sarkozy
sarlat
sarnin
sarra
sarrada
sarradura
sarrar
sarrasins
sarre
sarrebourg
sarrebruck
sarreguemines
sarro
sars
sarthe
sarthois
sartre
sas
sasida
sasina
sasir
sasit
saskatchewan
sason
sasonie
sasons
sassanida
sassanidas
satan
satellit
satellite
satellites
satellits
satge
satges
satira
satiras
satiric
satisfaccion
satisfar
sativum
saturacion
satureja
saturn
saturne
saturnin
sau
sauc
saud
saudita
sauf
saulnois
sault
saulx
saumur
saumurois
saunie
sauno
saunosa
saunosas
saus
sause
saussure
saut
sauta
sautaire
sautar
sauts
sauvador
sauvage
sauvages
sauvament
sauvar
sauvate
sauve
sauvetat
sauveur
sava
savana
savarte
save
savents
saverne
savi
saviesa
savigny
savinhac
savis
savo
savoie
savoir
saxo
saxon
saxons
say
sc
sca
scale
scalemajor
scan
scar
scarf
scas
sce
scena
scenari
scenaris
scenarista
scenas
scepticisme
scheduled
schleswig
schmidt
schneider
scho
schook
school
schro
schubert
schumpeter
schuster
schwentzel
sci
scie
science
sciences
scientific
scientifica
scientificament
scientificas
scientifics
scientifique
scientifiques
scipion
scission
sciurus
scla
scott
scriptstyle
scs
sd
sda
sdn
se
sea
sean
search
searchwithinvolume
seattle
seau
sebastia
sebastian
sec
seca
secada
secadas
secar
secaressa
secas
secatge
secats
seccion
seccions
secession
secessionistas
second
seconda
secondaire
secondaires
seconde
secors
secre
secrecion
secret
secreta
secretari
secretariat
secretaris
secrets
secs
secteur
section
sections
sector
sectors
securitat
sed
seda
sedan
sedenc
sedenta
sedentaris
sedentarizacion
sedimenta
sedimentaris
sediments
see
sega
segal
segalar
segle
segles
seglhe
segment
segments
sego
segon
segoncomuna
segond
segonda
segondari
segondaris
segondas
segonds
segons
segontes
segovia
segre
segregacion
segue
seguent
seguenta
seguentas
seguents
segui
seguida
seguidas
seguigue
seguir
seguissent
seguissia
seguisson
seguit
seguits
segur
segura
segurament
seguretat
seguritat
sei
seiche
seigneur
seigneuriale
seigneurie
seigneuries
seigneurs
seille
sein
seine
seis
seisen
seisena
seissanta
sejorn
sel
seldjokidas
seldjokides
seleccion
seleccionat
seleccions
select
selected
seleuc
seleucida
self
selle
selon
selva
selvas
selze
sem
semantica
sembla
semblabla
semblablas
semblable
semblables
semblan
semblanc
semblant
semblar
semblaria
semblava
semble
semenada
semi
semiconductors
seminari
sempre
sen
senador
senadors
senat
senate
senator
senators
sence
sench
sene
senegal
senegale
senegau
senescaucia
senhal
senhala
senhalar
senhalizacion
senhals
senhor
senhoria
senhors
senon
senones
sens
sensa
sensacion
sensacions
senscomptesdobles
sense
senses
sensibilitat
sensibla
sensiblament
sensiblas
sensible
sensibles
sensu
sent
senta
sentant
sentation
sente
senti
sentier
sentiers
sentiment
sentiments
sentir
sentit
sentonge
sents
senyera
seol
separa
separacion
separacions
separada
separadas
separan
separant
separar
separat
separats
separe
sept
september
septembre
septentrional
septentrionala
septentrionalas
septentrionau
septima
sepultura
seque
sequo
ser
sera
serada
serait
serbia
sere
seren
serena
serge
sergei
sergent
sergio
seria
serias
serie
series
serio
seriosa
seriosament
serment
sernin
seront
serra
serral
serre
serres
sers
sert
servada
servant
servar
servat
servats
serve
servent
serveur
servi
service
services
servici
servicial
serviciala
servicials
servicis
servidor
servidors
servigue
servir
servissent
servissia
servisson
servit
ses
sesilha
sesilhas
session
sessions
set
seta
setanta
setembre
seteme
seten
setena
seth
seti
setmana
setmanas
setmanie
setze
seu
seuil
seul
seule
seulement
seulles
seuna
seunas
seus
seuva
seuvas
seve
seven
sever
severac
several
sevilha
sex
sexe
sexual
sexuala
sexualas
sexualitat
sexuals
sfio
sg
sganarelle
sh
shackleton
shah
shakespeare
shalo
shan
shandy
shanghai
share
sharon
shaw
she
shelley
shens
sherman
shi
shift
sho
shogun
shogunat
short
should
show
showalter
shttps
shu
shut
shylock
si
sia
siague
siam
siame
sian
siana
siatz
siberia
sic
sica
sici
sicilian
sida
side
sidence
sident
sidentielle
siderurgia
sidney
sido
sie
siegue
siena
sierck
sierra
sies
sieu
sieuna
sieunas
sieur
sieus
sig
sigismond
sigla
siglo
sigmund
sign
signa
signada
signale
signar
signat
signataris
signats
signatura
signaturas
signe
signes
signifiant
significa
significacion
significacions
significant
significar
significat
significatiu
significatius
significativa
significativament
significativas
significava
signifie
signy
sigue
siguec
sigueren
sigut
sikkim
sil
sile
silence
silenci
silex
silicats
silici
silla
sillaba
sillabas
silmarillion
silva
silve
silver
silves
silvestris
silvina
sim
sima
simbe
simbo
simbolic
simbolica
simbolicament
simbolics
simbolisme
simboliza
simeon
simetria
simetric
similar
similara
similaras
similars
similituds
simin
simo
simon
simone
simpatia
simpla
simplament
simplas
simple
simples
simplicitat
simplificacion
simplificada
simplificar
simplificat
simpson
simpto
simulacion
simultane
sin
sinago
sinai
since
sindic
sindicat
sindicats
sindro
sinfonia
sing
singale
singapor
singer
singh
singlar
single
singles
sings
singular
singulara
singularitat
singulars
sinhau
sinhaus
sino
sinon
sinonim
sinonime
sinonims
sintaxi
sinte
sintetica
sintetics
sintetizar
sinus
sio
sion
sir
siracusa
sire
siren
sires
siria
sirian
siriana
sirians
sirius
siro
sirvente
sis
sisa
sisas
sistance
siste
sistema
sistematic
sistematica
sistematicament
sisteron
sit
site
sitelink
sites
siti
sits
sitting
situ
situa
situaa
situacion
situacions
situada
situadas
situan
situant
situar
situat
situation
situationniste
situats
situava
situe
siu
sius
sivadon
sive
six
sixte
size
sk
ska
ski
skin
sky
sl
sla
slo
sm
sma
small
smas
sme
smes
smilodon
smith
smithsonian
sncf
snia
snow
so
soa
soas
sobda
sobeiran
sobeirana
sobeiranetat
sobeirans
sobiran
sobratz
sobre
sobretot
soc
soca
socas
social
sociala
socialament
socialas
sociale
sociales
socialisme
socialista
socialistas
socializacion
socials
sociau
sociaus
socie
societa
societat
societats
society
sociolingu
sociolinguistic
sociolo
sociologia
sociologie
socrates
soda
sodan
sodane
sodanesa
sofala
sofe
sofia
sofisme
sofisticats
sofo
sofre
sofrenc
sofri
sofrigue
sofrir
software
soi
soir
soissons
soit
sojorn
sol
sola
solac
solament
solanace
solar
solara
solaras
solars
solas
soldat
soldats
sole
soleil
solelh
soler
solet
soleta
soleu
solid
solida
solidaritat
solidas
solide
solidificacion
soliditat
solids
soliman
solista
solita
solitari
solitud
solo
sologne
solon
sols
solstici
solubilitat
soluble
solubles
solucion
solucions
solution
solvent
solvents
som
soma
somalia
some
somes
somesa
somesas
someses
somete
sometegue
sometre
somission
somme
sommet
soms
son
sona
sonada
sonadas
sonan
sonar
sonat
sonata
sonats
sonava
sonda
sondas
sone
sonet
sonets
song
songai
songs
sonhar
sonme
sono
sonora
sonqu
sonque
sons
sont
sony
soon
sopa
sophie
sople
soplesa
soprano
sor
sorata
sorbona
sorbonne
sorbus
sorda
sorel
sorgigue
soria
sormais
sorn
sorna
sornas
sort
sorte
sorti
sortida
sortidas
sortie
sortigue
sortir
sortissent
sortisson
sortit
sortits
sos
sosclassa
soscontinent
sosdiale
sosensemble
sosentendut
sosespe
sosfamilha
sosgrop
soslinha
soslinhar
soslinhat
sosmarin
sosmarina
sosmarins
soso
sospagina
sospichat
sosprefectura
soste
sosten
sostenent
sostenguda
sostengudas
sostengue
sostengut
sostenguts
sostenia
sostenir
sostenon
sosterranh
sosterranha
sosterranhas
sosterranhs
sosti
sota
soudat
soudats
soul
soulages
sound
source
sources
sous
sousa
south
southern
souvenir
souvenirs
souvent
sovenir
sovenirs
sovent
soviet
sovietic
sovietica
sovieticas
sovietics
soviets
sp
spa
space
spain
spanish
spe
speaker
special
species
spectacle
spencer
sphagnum
spider
spielberg
spinoza
spip
spirit
spirituel
split
sport
sports
spp
spre
spring
springer
sq
sqrt
square
sque
sques
sr
sra
sri
ss
ssa
ssas
sse
sseires
ssen
ssent
sser
ssers
sses
ssi
ssia
sson
ssus
st
sta
stade
stalin
stan
standard
stanford
stanley
star
stars
start
stas
state
statement
states
station
stations
statistics
statistique
statistiques
statu
statue
status
statut
ste
stefan
stefano
stein
stella
stephani
stephanie
stephen
ster
sterne
stes
steve
steven
stewart
sti
stia
stias
stic
stica
still
stits
sto
stoce
stock
stoi
stol
stols
stone
stones
stop
storia
storic
storica
storicas
storics
stories
story
str
stra
strada
stradivari
stradivarius
stran
stras
strasbourg
strate
strategy
strauss
stre
stream
street
stres
stria
strias
string
stroke
structure
structures
sts
stuart
studi
studies
studio
study
stuttgart
style
su
sua
suau
sub
subdivision
subdivisions
subduccion
suber
subi
subigue
subir
subisson
subit
subje
sublim
sublimacion
submit
subre
subrenatural
subreproduccion
subretot
subretrabalh
subrevida
subreviscut
subrevisque
subreviure
subrevivents
subsahariana
subset
subsiste
subsisteix
subsp
substa
substantiu
substantius
subste
substitucion
substituir
substrat
substrates
subte
suc
succe
succedi
succedigue
succedir
succedisson
success
succession
successius
successivament
successivas
successivement
successor
successors
succursale
such
sucrat
sucre
sucres
sud
sudista
sudistas
sue
suede
suedesa
suedeses
sues
sueus
suffixe
sufi
sufisent
sufisenta
sufisentament
sufisentas
sufix
sufixe
sufixes
sufragi
sufragis
suggeri
suggerigue
suggerir
suggerisson
sui
suicide
suicidi
suis
suisse
suit
suite
suivant
suivante
suivantes
suivi
sujet
sukarno
sul
sulfat
sulfur
sulfuric
sulfurs
sulla
sullivan
sully
sulpic
sulpice
sulpici
suls
sultan
sultanat
sultanats
sultans
sum
sumatra
sume
sumien
summary
summer
sun
sunisme
sunita
sunitas
supausa
supausada
supausadas
supausan
supausant
supausar
supausat
supausats
supause
supe
super
superfamilha
superfi
superficia
superficiala
superficias
superficie
superior
superiora
superioras
superioritat
superiors
supernova
supero
suplement
suplementa
suplementari
suplementaris
supo
suportar
supple
support
suppression
supprime
supra
supre
supremacia
supression
suprimida
suprimidas
suprimigue
suprimir
suprimit
suprimits
sur
sure
surf
surface
surinam
surnomme
surplombant
surplombe
surtout
survey
sus
susa
susan
susceptibla
susceptiblas
susceptible
susceptibles
suscitar
suscite
susmauta
susmautas
suspe
suspension
suspre
suspresa
sustot
susvelhanc
susvelhar
sutton
suu
suus
suzanne
sv
svg
svp
swahili
swallow
swaziland
swift
sword
sy
sydney
sylvain
sylvie
symbol
symphorien
syn
synthe
syros
syste
system
systems
sœur
sœurs
t
ta
tab
tabac
tabat
taben
table
tableau
tables
tabli
tablie
tablissement
tablit
tabo
taca
tacas
tache
tacit
tactica
tacticas
tag
tage
tahiti
tai
taient
tail
taila
taille
tain
taire
taires
tais
tait
taiwan
take
takht
tal
tala
talament
talas
talbot
tale
talent
talents
tales
talh
talha
talhada
talhadas
talhar
talhas
talhat
talhats
talhe
talhie
taliban
talibans
talk
tallandier
talmud
talon
talpa
tals
talvera
tambe
tamben
tambor
tamburlan
tament
tamil
tamol
tamols
tampa
tampauc
tampon
tan
tanbe
tanben
tancada
tancat
tandis
tanet
tang
tanganyika
tangenta
tango
tangs
tanh
tanins
tanle
tanpauc
tanplan
tant
tanta
tanto
tanzania
taoi
tap
tape
tapi
tar
tara
tarascon
tarba
tard
tarde
tardie
tardiu
tardiva
tardoira
tardor
tarent
target
tarkovski
tarn
taro
tarragona
tars
tartar
tas
tasca
tascas
task
tasmania
tat
tatar
tatars
tate
tatgiquistan
tatiana
tation
tatoatge
tatoatges
tats
tau
taula
taulas
tauleta
tauletas
taur
taure
taurus
taus
tauses
taux
tave
taxa
taxas
taxinomia
taxobox
taxon
taxonomia
taxons
taylor
tche
tdf
te
tea
team
teatrala
teatre
teatres
teatro
teau
teauneuf
teaux
tebas
tecas
tech
technical
technique
techniques
technology
tecnic
tecnica
tecnicament
tecnicas
tecnics
tecnologia
tecnologias
tecnologic
tecnologica
tecnologicas
tecnologics
tectonica
tectonicas
teheran
tei
teilhard
teissut
teissuts
tel
tela
telain
telas
tele
telecomunicacions
teleferic
telefo
telefonada
telefonic
telemac
telesco
telet
televisada
television
tell
telle
tellenie
tels
tematica
tematicas
tement
temp
tempe
temperada
temperadas
temperat
temperats
temperatura
temperaturas
temperature
template
templatedata
templates
temple
temples
templie
templiers
tempo
tempora
temporal
temporala
temporari
temps
tempsada
tempses
temptativa
temptativas
tempte
temujin
ten
tencha
tend
tenda
tende
tendent
tendon
tendra
tendre
tendu
tendue
tene
tenements
tenent
tenents
tenerife
tenguda
tengudas
tengue
tengut
tenguts
tenia
tenir
tennessee
tennis
tenochtitlan
tenois
tenon
tenor
tension
tensions
tente
tenu
teodo
teodoric
teofrast
teogonia
teologia
teologian
teologians
teologic
teologica
teologicas
teore
teoria
teorias
teoric
teorica
teoricament
teoricas
teorician
teoricians
teorics
teotihuacan
ter
terapeutica
terapia
terc
terces
terciari
tere
teresa
term
terme
termes
termic
termica
termicas
termics
termie
termiere
termina
terminal
terminason
terminasons
termine
terminio
terminologia
terminus
termodinamic
termodinamica
termome
tero
terra
terrador
terrain
terrains
terral
terralha
terralhas
terras
terrassa
terrassas
terrasson
terre
terren
terrencs
terrenh
terrens
terres
terreur
terrible
terribles
territo
territoire
territoires
territori
territorial
territoriala
territorialas
territoriau
terroir
terror
terrorisme
terrorista
terroristas
terry
tertre
tes
tesaur
tese
tesla
tessa
tessalonica
test
testament
testar
testifica
testificat
testifiquen
testimo
testimoniatge
testimoniatges
tet
tetrarquia
teulat
texans
texas
text
texte
texteimage
textes
textil
textila
textilas
textile
textils
texts
textstyle
textura
tge
tges
tgv
th
thames
than
thank
thanks
that
the
theatre
theil
their
them
theme
then
theo
theodor
theodore
theory
theravada
there
thermes
these
theta
they
thie
thierry
thiers
things
think
thique
third
this
thnau
thode
thodique
thomas
thompson
thomson
those
thought
three
thriller
through
ths
thumb
thumbnail
thune
thymerais
ti
tia
tibe
tibet
tibetan
tibetans
tibre
tic
tica
tician
tico
tie
tiempo
tien
tienne
tiens
tient
tier
tiera
tierra
tiers
tiger
tigny
tigre
tigres
tigris
tija
tijas
till
tilleul
tillon
tilly
tim
timbre
time
timeaxis
timent
timents
times
timo
timor
timothy
tin
tina
tinais
tine
tinent
tinta
tintas
tintura
tipe
tipes
tipic
tipica
tipicament
tipicas
tipics
tipografia
tipologia
tique
tiques
tir
tira
tirada
tiradas
tiraire
tiran
tirania
tirant
tirar
tirat
tiratge
tirats
tire
tiro
tirs
tis
tisme
tissage
tisse
tit
titan
titania
titanic
titans
titian
title
tito
titolat
titre
titres
titulada
titular
titulari
titulat
titus
tiziano
tja
tjas
tl
tla
tlan
tlar
tlatoani
tle
tles
to
tobago
toc
toca
tocada
tocadas
tocant
tocar
tocat
tocats
tocava
tocqueville
today
todo
todos
together
toi
toile
toish
toku
tokugawa
tokyo
tol
toledo
tolera
tolkien
tolon
tolosa
tolosan
tolosana
tolosenc
tolosenca
tolosencs
tols
tolte
tom
toma
tomba
tombada
tombadas
tombar
tombas
tombat
tombe
tombes
tombs
tome
tomes
ton
tona
tonalitat
tonas
tondra
tone
toni
tonic
tonica
tonnerre
tons
tonumber
tony
too
tool
tools
top
topic
topoc
topografia
topografic
topografica
topographique
topologia
toponim
toponime
toponimes
toponimia
toponimiaoc
toponimiaoccitana
toponimic
toponimica
toponimistas
toponims
toponyme
toponymes
toponymie
toponymique
toppdoma
toque
tor
torah
torax
tordesillas
torino
torisme
toristas
toristic
toristica
toristicas
toristics
torn
torna
tornada
tornadas
tornado
tornados
tornan
tornant
tornar
tornara
tornarmai
tornat
tornats
tornava
torne
torneg
torneges
tornegs
tornon
torns
toro
toronet
toronto
torpilhas
torre
torrent
torres
tors
tortosa
tortura
torture
tos
tosca
toscana
toscanoreinat
tostemps
tostring
tot
tota
total
totala
totalament
totale
totalement
totalitat
totas
totau
totei
totes
toti
totis
totjorn
toto
tots
totun
touche
toujours
toul
toulon
toulousain
toulouse
tour
touraine
tourisme
touristique
tournai
tourne
tournoi
tours
tous
toussaint
tout
toute
toutefois
toutes
tower
town
toxic
toxica
toxicas
toxicitat
toxics
toxinas
tr
tra
trabalh
trabalha
trabalhador
trabalhadors
trabalhaires
trabalhan
trabalhant
trabalhar
trabalhat
trabalhava
trabalhavan
trabalhe
trabalhista
trabalhs
trac
traccion
trace
traces
trach
tracha
traches
trachs
tracta
tractada
tractadas
tractament
tractaments
tractan
tractant
tractar
tractat
tractats
tractava
tracte
tractor
tracy
trad
trade
tradicion
tradicional
tradicionala
tradicionalament
tradicionalas
tradicionals
tradicionau
tradicionaus
tradicions
tradition
traditions
traduccion
traduccions
traduch
traducha
traduction
traductor
tradugue
traduire
traduit
tradusit
tradutz
trafec
trafic
trage
tragedia
tragic
tragica
trai
train
traire
trait
traite
traits
trajan
traje
trajecto
tram
trama
tramvai
tramway
tranche
trange
trans
transaccions
transactions
transcrich
transcripcion
transcriure
transeu
transfe
transferida
transferiment
transferiments
transferir
transferit
transforma
transformacion
transformacions
transformada
transforman
transformant
transformar
transformat
transformation
transformats
transforme
transfusion
transicion
transilva
transit
transition
transito
translate
translation
translations
transme
transmesa
transmet
transmeton
transmetre
transmission
transpare
transparent
transpiracion
transpo
transport
transportant
transportar
transportat
transporte
transports
transposicion
transumanisme
transumanistas
transvaal
trapa
trapades
trapan
trapar
trapat
trapats
trapava
trape
tras
trauc
trauca
traucada
traucs
traue
travail
travaux
trave
travers
traversa
traversada
traversadas
traversant
traversar
traversat
traversava
traverse
traversent
tre
treble
trebles
trebolada
trebolar
trebolat
trebols
trebolum
tree
tren
trenca
trencada
trencadas
trencadura
trencar
trencat
trencave
trencavel
trenet
trenque
trens
trent
trenta
trentaine
trente
trentena
trentin
tres
tresau
tresaur
tresco
tresen
tresena
tresor
tresplomba
tretze
tri
tria
triada
triangle
triangles
triangular
triangulara
triassic
tribalh
tribo
tribu
tribun
tribuna
tribunal
tribunals
tribunau
tribunaus
tribune
tribus
tribut
tributari
tributs
trie
trilogia
trim
trin
trinitat
trinite
trio
trionf
tripla
triple
trique
trissatge
tristan
triste
tristram
triton
triumvirat
tro
troba
trobada
trobadas
trobador
trobadors
trobairitz
trobalhes
trobam
troban
trobant
trobar
trobat
trobats
trobava
trobavan
trobe
troc
troces
trofe
trofics
troians
trois
troisie
trompa
trompeta
trompetas
trompetista
trona
tronc
tronchet
trop
tropa
tropas
trope
tropic
tropical
tropicala
tropicalas
tropicals
tropicau
tropole
troposfe
trotski
troubadours
troupes
trouvait
trouve
trouvent
trouver
troyes
truca
trucada
trucat
trucava
true
trufa
trufas
truit
truite
trujillo
trump
trust
try
ts
tsar
tsunami
tsunamis
tt
tu
tua
tuada
tuant
tuar
tuat
tuats
tub
tube
tubercul
tuberculo
tubes
tuc
tuca
tucs
tude
tudes
tudor
tue
tuilerie
tuiles
tujue
tula
tumulus
tune
tunis
tunisia
tunnel
tuquets
turages
turbina
turbinas
turc
turca
turcas
turcme
turcmenistan
turcomans
turcs
turin
turing
turner
turon
turquia
tursan
turte
tus
tust
tusta
tusts
tuta
tutas
tute
tutsis
tv
two
ty
tycho
tymologie
tymologique
type
types
typique
tz
tzfach
u
ua
uas
uasses
uassi
ubaia
ubaud
ubran
uc
ucaire
ucrai
uda
ue
uech
uei
uel
uela
uelh
uelhs
uer
ues
ufficiale
uganauds
uicn
uk
ula
ulisses
ulrich
ulster
ulteriorament
ulterioras
ulteriors
ultim
ultima
ultimatum
ultra
ultraviolet
ultraviolets
ulysses
um
uma
uman
umana
umanas
umanisme
umanista
umanistas
umanita
umanitat
umans
umar
umberto
ume
umea
umid
umida
umidas
umiditat
umids
umma
umont
umor
umorista
ump
umu
un
una
unanimitat
unas
und
under
une
unei
uneis
unes
unesco
uni
unic
unica
unicament
unicas
unicitat
unico
unicode
unics
unida
unidas
unie
unies
unificacion
unificada
unificar
unificat
unifique
unifo
unio
union
uniprovi
unique
unir
unis
unit
unita
unitari
unitat
unitats
unite
united
units
univ
unive
univers
universal
universala
universalis
universals
universau
universe
universel
universelle
universidad
universita
universitaires
universitari
universitaris
universitat
universitats
universite
university
unix
unknown
uno
uns
uo
up
update
updated
upload
uploads
upon
upper
upright
ups
ur
urani
uranus
urbain
urbaine
urban
urbana
urbanas
urbanisme
urbanizacion
urbans
ure
urge
urgell
uri
urina
url
uro
uros
urss
uruguai
uruk
urville
us
usa
usage
usanc
usatge
usatges
usatgie
use
used
user
users
uses
usina
usinas
usine
usines
using
uss
usse
ussel
ustria
ustring
usual
usuala
usura
usurpacion
usurpator
ut
uta
utah
utas
utc
ute
uti
util
utila
utilas
utilisa
utilisant
utilisation
utilise
utiliser
utilitarisme
utilitat
utiliza
utilizacion
utilizacions
utilizada
utilizadas
utilizaire
utilizaires
utilizan
utilizant
utilizar
utilizat
utilizats
utilizatz
utilizava
utilizavan
utilize
utils
utopia
utopic
utrecht
uts
uv
uvre
v
va
vaast
vabre
vaca
vacanc
vacas
vaccin
vaccinacion
vaccins
vad
vado
vaduda
vadut
vague
vai
vailet
vair
vaisse
val
vala
valabla
valable
valada
valadas
valaquia
valar
valat
valde
vale
valenc
valence
valencia
valencian
valenciana
valencianas
valenciennes
valens
valent
valentin
valentine
valentinian
valer
valery
valeta
valeur
valeurs
valgue
valhadolid
vali
valid
valida
validar
validarg
validitat
vall
valle
valley
vallie
vallier
vallis
vallon
vallonne
vallons
valls
valois
valon
valonia
valor
valorizacion
valors
vals
value
values
vam
vament
van
vancouver
vandal
vandalisme
vandals
vange
vannes
vanuatu
vapor
vaporizacion
vaqui
var
vare
varenne
varennes
varepsilon
vargas
varia
variabilitat
variabla
variablas
variable
variables
variacion
variacions
variada
variadas
varian
variant
varianta
variantas
variar
variat
variats
varie
varietat
varietats
vario
various
varossa
varphi
varso
vas
vasade
vasats
vasco
vascons
vases
vassal
vassau
vassaus
vassaux
vassy
vast
vasta
vastas
vaste
vastes
vath
vaths
vatican
vau
vauban
vauclusa
vaucluse
vaude
vaur
vaus
vaux
ve
vec
vector
vectors
ved
veda
vede
vedic
vega
vegada
vegadas
vege
vegetacion
vegetal
vegetala
vegetalas
vegetals
vegetau
vegetaus
vegue
vei
veille
veira
veirals
veire
veires
veirie
veitura
veituras
vejaire
vejaires
vejatz
vel
vela
velai
velaiesa
velas
velasco
velay
velha
velie
velo
velocitat
velocitats
veloppe
veloppement
ven
vena
venaicin
venant
venas
venc
vence
venceire
venceires
vencre
vencuda
vencut
vencuts
vend
venda
vendas
vende
vendea
vendeire
vendeires
vendent
vendia
vendo
vendra
vendre
vendria
vendu
venduda
vendudas
vendut
venduts
vene
venec
venecian
venecians
venent
venenta
venera
venerat
venga
venguda
vengudas
vengue
venguet
vengut
venguts
veni
venia
venir
venise
venjanc
venjar
venon
vent
venta
ventadorn
ventas
vente
ventre
vents
venturi
venus
ver
vera
veracruz
verai
veraia
verbal
verbala
verbe
verco
vercors
verd
verda
verdaguer
verdas
verde
verdie
verdier
verdon
verds
verdun
verge
vergers
verges
vergonha
verifica
verificacion
verificar
veritat
verlag
vermandois
vermenosa
vermont
vern
vernacular
vernant
verne
vernet
verneuil
verni
vernon
vero
verona
verrerie
verrie
verrier
vers
versailles
versalhas
versant
verse
versemblablament
versemblant
verses
verset
versets
version
versions
versus
vert
vertade
vertadie
vertadier
vertadiera
vertadierament
vertadieras
vertadiers
vertat
vertats
verte
vertebrats
vertical
verticala
verticalas
vertu
vertut
vertuts
vervins
very
ves
vescomtat
vescomte
vescomtes
vese
vesent
vesera
vesi
vesia
vesin
vesina
vesinas
vesins
veson
vesoul
vespre
vessant
vesta
vestfa
vestiges
vestigi
vestigis
vestit
vestits
veterans
veterina
veto
vetz
veusa
veut
veuve
vexin
vez
vi
via
viaducte
vialatge
viamichelin
vian
viana
vianda
viari
vias
viatge
viatges
viatjaires
viatjar
viaur
vibracion
vibracions
vic
vicari
vicaria
vice
vicenc
vicent
vicente
vicepresident
vicerei
viche
vichy
vici
vico
vicomte
victima
victimas
victimes
victo
victoire
victor
victoria
victorio
victoriosa
victoriosament
vicus
vid
vida
vidal
vidanta
vidas
vide
videnta
video
videografics
videojo
vie
vieil
vieille
vielh
vielha
vielhs
vien
viena
viendrait
viene
vienne
vient
vienut
vierge
vies
vietminh
vietnam
vietnamian
vietnamiana
vietnamians
vieux
view
vigaria
vigila
vigilar
vigile
vigne
vignerons
vignes
vignette
vignoble
vignobles
vigor
viguerie
vii
viii
viking
vikinga
vikings
viktor
vila
vilafranca
vilaine
vilamur
vilanava
vilano
vilanova
vilanue
vilar
vilas
vilatge
vilatges
vilatjo
vilh
vilhe
villa
village
villageois
villages
villam
villanova
villanueva
villar
villard
villare
villars
villas
villatge
ville
villedieu
villefranche
villeneuve
villers
villes
villette
villiers
vilo
vimeu
vin
vinagre
vincenc
vincennes
vincent
vincenzo
vinci
vingt
vingtaine
vinha
vinhairons
vinhal
vinhana
vinhas
vinheta
vinificacion
vins
vint
vintena
vintenat
vintenau
vinyle
vio
viola
violacion
violacions
viole
violence
violent
violenta
violentament
violentas
violents
violet
violeta
violetas
viollet
violon
violonce
violoncelista
violonista
vira
virada
viradas
virala
viralas
viran
virant
virar
virat
vire
virgi
virgili
virgin
virginia
virgula
viridis
virois
virtual
virtuala
virtuo
viru
virus
vis
visa
visant
visco
viscuda
viscut
vise
vishno
visibilitat
visibla
visiblas
visible
visibles
visigo
vision
visions
visita
visitaires
visitar
visitas
visite
visitors
visque
vist
vista
vistas
vists
visual
visuala
visualas
visualeditor
visuals
vit
vita
vital
vitala
vitamina
vitaminas
vitatges
vite
vitico
viticole
viticultura
vito
vitre
vitro
vitruvi
vitry
vittorio
vitz
viu
viure
viures
vius
viva
vivac
vivaldi
vivant
vivare
vivaroalpenc
vivaroaupenc
vivas
vive
vivent
viventa
viventas
vivents
vives
vivia
vivian
vivien
vivier
viviers
vivo
vivon
vivre
vizir
vladimir
vo
voc
vocable
vocabulaire
vocabulari
vocacion
vocala
vocalas
vocalica
vocalisme
vocalizacion
vocant
vocation
vocatur
vocau
vocaus
voces
vodat
voice
voici
void
voie
voies
voir
voisin
voisine
voisines
voisins
voit
voivodat
voix
vol
volant
volar
volcan
volcanic
volcanica
volcanicas
volcanics
volcanisme
volcano
volcans
voldria
vole
voleibo
volent
voler
volgava
volgavan
volgue
volgut
volia
vologne
volon
volonta
volontari
volontaris
volontat
vols
volta
voltaire
volte
volum
volume
volumen
volumes
volumica
volums
volunteers
volution
volutionnaire
volutionnaires
volutions
volve
von
vont
voque
vora
voreja
vorejat
vos
voses
vosges
vosgien
votada
votants
votar
votat
vote
voting
votre
votz
vou
voulait
vous
voyage
voyager
voyageurs
vrai
vras
vre
vres
vreux
vrier
vrin
vriulon
vriulons
vs
vu
vue
vuege
vulgar
vulgaris
vulnerable
vulnerables
vy
w
wa
waals
wagner
wales
walker
wall
wallace
walt
walter
walton
wan
wang
want
war
ward
warensign
warner
warren
wars
was
washington
wasp
watch
water
waterpolo
watson
watt
wave
way
wayne
wd
we
web
weber
webs
website
wedge
week
wehrmacht
wei
weimar
welcome
well
wellington
wells
were
werner
west
western
westminster
what
when
where
which
while
whisky
white
who
why
wide
width
wiener
wiesel
wiki
wikidata
wikif
wikime
wikimedia
wikipe
wikipedia
wikipedian
wikipedians
wikipedias
wikis
wikisource
wikitext
wild
wiley
wilhelm
will
willd
willem
william
williams
wilson
wimbledon
wind
windows
winston
winter
wisconsin
wissembourg
with
within
without
wmf
wo
wolf
wolff
wolfgang
woman
women
wonder
wood
woods
woodstock
word
words
work
working
works
world
would
wp
wright
writing
wu
wudi
www
wyoming
x
xa
xas
xavier
xe
xenofont
xes
xhosa
xi
xia
xico
xie
xii
xiiau
xiie
xiii
xiiiau
xiiie
xinjiang
xiongnu
xiv
xive
xix
xixe
xls
xn
xs
xt
xte
xtes
xun
xv
xve
xvi
xvie
xvii
xviie
xviii
xviiiau
xviiie
xx
xxe
xxi
xxii
xxiii
xxiv
xxx
y
ya
yahve
yahya
yale
yan
yang
yann
yasujiro
ye
year
years
yellow
yellowstone
yeux
yi
yiddish
yin
yl
yo
yonne
york
yorkshire
you
young
your
youtube
yu
yuan
yucatan
yue
yukon
yusuf
yvelines
yves
yyyy
z
za
zac
zambe
zambia
zamora
zanzibar
zapata
ze
zedong
zelanda
zenit
zenon
zergs
zero
zh
zhang
zhao
zheng
zhou
zhu
zi
zie
zika
zil
zimbabwe
zinc
zo
zodiac
zolo
zona
zonas
zone
zones
zoo
zoologia
zoom
zorn
zoroastrisme
zquez
zu
zur
zuric
zy
{
|
}
~
¡
£
¤
§
¨
©
ª
«
­
®
°
±
²
³
´
µ
·
¹
º
»
¼
½
¿
×
æ
ð
÷
ø
ı
ŋ
œ
œdipe
œil
œuvre
œuvres
ǃ
ɐ
ɑ
ɒ
ɔ
ɕ
ə
ɛ
ɟ
ɡ
ɣ
ɨ
ɪ
ɬ
ɲ
ɴ
ʂɛ
ʃ
ʉ
ʊ
ʎ
ʒ
ʔ
ʤ
ʦ
ʧ
ʰ
ʱ
ʲ
ʷ
ʻ
ʼ
ʾ
ʿ
ˈ
ˌ
ː
̀
́
̂
̃
̄
̆
̇
̈
̉
̊
̋
̌
̓
̔
̛
̝
̞
̣
̥
̦
̧
̨
̩
̪
̮
̯
̰
̱
̸
̼
͂
ͅ
͡
α
β
γ
δ
ε
ζ
η
θ
ι
κ
λ
μ
ν
ξ
ο
π
ρ
ς
σ
τ
υ
φ
χ
ψ
ω
а
в
г
д
е
ж
з
и
к
категория
л
м
н
о
п
р
с
т
у
х
ц
ч
ш
шаблон
щ
ъ
ь
э
ю
я
і
ѳ
ְ
ִ
ֶ
ַ
ָ
ֹ
ּ
־
ֿ
ׁ
א
ב
ה
י
ל
מ
ן
פ
ר
ש
ת
ا
ة
م
ن
َ
ُ
ِ
ّ
ْ
ٓ
ٔ
ٕ
ं
क
ग
च
ज
ण
त
द
न
प
ब
भ
म
य
र
ल
व
श
ष
स
ह
़
ा
ि
ी
ु
े
ो
्
ট
র
ল
স
়
া
ি
ী
ে
্
જ
લ
ા
િ
ી
ો
્
க
ச
ட
த
ப
ம
ர
வ
ா
ி
ு
ை
்
ల
ా
ి
్
ಜ
ರ
ಲ
ಾ
ಿ
ು
ೆ
್
ം
ക
ജ
ട
ല
ാ
ി
്
ั
ิ
ี
ู
่
་
ོ
፡
្
​
‎
‏
‐
‑
‒
–
—
―
‘
’
“
”
„
†
•
…
‪
‰
′
″
›
⁄
ⁿ
€
ℓ
ℚ
ℝ
™
↑
→
↔
↷
⇒
−
∗
√
∞
∫
≈
≡
≤
≥
⊂
⋅
③
④
⑦
─
│
└
├
█
⟨
⟩
ⴰ
ⵉ
⺀
⺄
⺆
⺈
⺊
⺌
⺕
⺝
⺸
⺼
⿰
⿱
⿲
⿳
⿴
⿵
⿶
⿷
⿸
⿹
⿺
⿻
〢
い
か
き
く
し
す
た
て
な
の
は
ま
も
を
ん
゙
゚
ア
ィ
イ
ウ
オ
カ
キ
ク
コ
サ
シ
ス
タ
ッ
テ
ト
ニ
ハ
ヒ
フ
ヘ
ホ
マ
ユ
ラ
リ
ル
レ
ロ
ン
・
ー
㇁
㇂
㇄
㇇
㇈
㇉
㇓
㐁
㐄
㐅
㐌
㐫
㐬
㐭
㐮
㐱
㑒
㒵
㒸
㒼
㓁
㓞
㔾
㕛
㕣
㖾
㘝
㚅
㚇
㚔
㚘
㝉
㝡
㝴
㝵
㞋
㞢
㞷
㠩
㠭
㠯
㡀
㡭
㡿
㢲
㢴
㣇
㣺
㥯
㪅
㫄
㫐
㫒
㫺
㬅
㬎
㬥
㬰
㲋
㳄
㷠
㸒
㸚
㸦
㼌
㼲
㽞
㿟
䀠
䂞
䍃
䏍
䒑
䖍
䖒
䖝
䖵
䙴
䚻
䜌
䝿
䡛
䧹
䪞
一
丁
丂
七
丄
丅
丆
万
丈
三
上
下
丌
不
与
丏
丐
丑
专
且
丕
世
丘
丙
业
东
丞
丢
丣
两
严
並
丨
丩
个
丫
丬
中
丮
丰
丱
串
丵
丶
丷
丸
丹
为
主
丽
丿
乀
乂
乃
久
乆
乇
么
义
之
乌
乍
乎
乏
乐
乑
乔
乖
乗
乘
乙
乚
乛
乜
九
乞
也
习
乡
乳
乾
亀
亅
了
亇
予
争
事
二
亍
于
亏
亐
云
互
亓
五
井
亘
亚
亜
亞
亟
亠
亡
亢
交
亥
亦
产
亨
亩
享
京
亭
亮
亯
亰
亲
亳
亶
亷
人
亻
亼
亾
仁
今
介
仌
从
仐
仑
仒
仓
仕
他
付
仝
代
令
以
任
企
伊
伏
伐
休
会
伯
但
位
何
佘
余
作
佥
使
來
侈
侌
侖
侯
侵
便
保
俞
信
修
倉
倍
候
倠
備
僉
僕
儿
兀
允
兂
元
兄
充
兆
兇
先
光
兊
克
兌
免
兑
兒
兓
兔
党
兜
兟
入
全
兩
兪
八
公
六
兮
兰
共
关
兵
其
具
典
兹
兼
冀
冂
冃
冄
内
冈
冉
冊
冋
册
再
冎
冏
冐
冒
冓
冖
冗
冘
军
农
冝
冡
冥
冫
冬
冷
几
凡
凢
凵
凶
凷
凸
凹
出
函
凾
刀
刁
刂
刃
刄
刅
分
切
刍
刑
刕
刖
列
刘
则
初
別
利
别
到
制
刺
則
削
剌
前
剡
剽
劉
力
功
加
劦
助
劫
劳
劵
勃
勇
勉
勒
動
務
勞
勤
勹
勺
勻
勾
勿
匀
匂
包
匆
匈
匊
匋
匍
匕
化
北
匚
匝
匡
匪
匱
匸
匹
区
医
匽
匿
區
十
卂
千
卄
卅
卆
升
午
卉
半
卌
华
卑
卒
卓
单
卖
南
卜
卝
卞
占
卡
卢
卣
卤
卦
卩
卪
卬
卯
印
危
即
却
卵
卷
卸
卻
厂
厃
厄
历
厈
厉
厌
厓
厘
厚
原
厤
厥
厨
厭
厲
厶
厷
厸
去
厼
厽
叀
参
參
叅
又
叉
及
友
双
反
叐
发
叒
叔
叕
取
受
叚
叜
叟
口
古
句
另
叩
只
召
可
台
叱
史
右
叵
号
司
叹
吂
各
吅
合
吉
吊
吋
同
名
后
吏
向
吕
君
吝
吞
否
含
启
吳
吴
吹
吾
呂
呆
呈
告
员
呙
周
命
咅
和
咎
咠
咢
咨
咸
咼
哀
品
哉
員
哥
哲
唐
商
啇
問
啚
啬
啻
善
喜
喬
單
喿
嗇
噩
嚴
囊
囗
囘
囙
囚
四
回
囟
因
囧
囬
困
囱
囷
固
国
圂
圅
國
圍
圓
土
圡
圣
圥
在
圭
地
圶
圼
坐
坒
坚
坴
垂
垔
垚
埀
埋
埶
執
基
堂
堅
堆
堇
堯
塞
墨
壘
士
壬
壯
声
壳
壴
壹
壺
壽
夂
处
夅
夆
备
夊
夋
夌
复
夏
夒
夕
外
夗
夘
多
夜
夢
大
夨
天
太
夫
夬
夭
央
失
夲
头
夷
夸
夹
夻
夾
奂
奄
奇
奈
奉
奎
奏
奐
契
奓
奔
奚
奞
奠
奢
奥
奭
女
奴
奻
好
如
妄
妙
妟
妥
妻
妾
姑
委
姜
威
娄
婁
婴
嬰
嬴
子
孑
孔
孕
孖
字
存
孚
孛
孝
孟
季
孤
学
孫
孱
學
宀
宁
宂
它
宅
宇
守
安
宋
完
宏
宓
宗
官
定
宛
宜
宝
客
宣
室
宮
宰
害
家
容
宾
宿
寄
寅
密
富
寒
察
寧
審
寫
寬
寮
寸
对
寺
寻
寽
対
寿
封
尃
射
将
將
專
尉
尊
尋
尌
對
小
少
尒
尓
尔
尖
尗
尚
尞
尢
尣
尤
尧
尨
尭
就
尸
尹
尺
尻
尼
尽
尾
尿
局
居
屈
屋
屎
屏
屑
展
屖
屚
属
屠
屡
屬
屮
屯
屰
山
屵
屾
岁
岂
岑
岡
岩
岳
岸
峯
島
崇
崑
崔
崖
崙
崩
嵬
嶲
巂
巛
川
州
巟
巠
巢
巤
工
左
巧
巨
巩
巫
差
己
已
巳
巴
巷
巸
巽
巾
巿
帀
市
布
希
帚
帛
帝
带
師
席
帶
常
干
平
年
幵
并
幷
幸
幺
幻
幼
幽
幾
广
広
庄
床
底
店
庚
府
度
庫
庭
庶
康
庸
廉
廌
廛
廣
廩
廴
延
廷
建
廾
廿
开
弁
弃
弄
弇
弋
式
弓
弔
引
弗
弘
弜
弟
弥
弦
弱
張
強
强
彊
彌
彎
彐
彑
当
彔
录
彖
彗
彡
形
彥
彦
彧
彭
彳
役
彼
往
待
律
徒
得
徙
從
復
微
徵
心
忄
必
忌
忍
志
忝
忠
忩
快
念
忽
忿
思
怠
急
怱
恆
恒
恩
恭
息
悉
患
悤
悲
悶
惠
惡
惢
愁
愈
意
愛
感
慈
慧
慮
憂
憲
應
戀
戈
戉
戊
戋
戌
戍
戎
成
我
戒
戔
或
戚
戠
戢
截
戲
戶
户
戹
戼
戾
房
所
扁
扇
手
扌
才
打
托
执
承
折
拉
拜
拿
掌
推
提
摩
支
攴
攵
收
攸
改
放
政
敄
敏
敕
敖
敗
敝
敞
敢
散
敦
敫
敬
数
敷
數
斂
文
斉
斊
斗
斤
斥
斩
斬
斯
新
方
於
施
斿
旁
旋
族
无
旡
既
旣
日
旦
旧
旨
早
旬
旱
旲
时
旾
昆
昇
昌
昍
明
昏
易
昔
昗
昜
星
春
昬
是
昱
昴
昷
時
晃
晋
晏
普
景
晶
智
暑
暴
曇
曩
曰
曲
曳
更
曷
書
曹
曼
曾
替
最
朁
會
月
有
朋
服
朔
朕
朗
望
朝
木
朩
未
末
本
札
朮
术
朱
朵
朶
朿
杀
杏
杜
束
条
来
東
杲
杳
松
析
林
枚
果
枝
枲
枼
某
柔
查
柬
柰
柴
栗
株
桀
桑
桼
梁
條
梟
梨
棘
棠
棥
森
楚
業
楽
榮
樂
樊
欠
次
欣
欮
欲
欶
欽
款
歆
歇
歌
歛
止
正
此
步
武
歨
歪
歮
歯
歰
歲
歴
歷
歸
歹
歺
死
殳
段
殷
殸
殹
殺
殻
殿
毋
毌
母
每
毒
比
毕
毚
毛
毳
氏
氐
民
气
氣
水
氵
氶
氷
永
氺
氾
求
汝
汞
江
沃
沓
沙
沝
河
泉
法
波
泣
泥
泰
洛
洪
活
派
流
浦
浪
浮
海
淡
淮
清
渚
渠
湯
滿
漢
漸
火
灬
灭
灰
灵
灷
炅
炎
炏
炗
炙
炭
為
烈
烏
烝
焉
無
焦
焱
然
煞
熊
熏
燕
營
燮
爪
爫
爭
爯
爰
爱
爲
爵
父
爻
爽
爾
爿
片
牙
牚
牛
牜
牟
牢
牧
物
牪
牽
犀
犬
犭
犮
狂
狄
狊
独
狺
猋
猒
猪
献
獻
玄
率
玉
王
玟
玨
珎
班
琴
瑟
瑩
瓜
瓦
甘
甚
生
産
用
甫
甬
田
由
甲
申
电
甶
男
甸
甹
画
甾
畀
界
畏
畐
留
畜
畟
畢
畧
畨
番
畫
異
畱
當
畺
畾
疊
疋
疌
疑
疒
疾
癶
癸
癹
登
發
白
百
皀
皃
的
皆
皇
皋
皐
皕
皮
皷
皿
盃
盆
盇
盈
益
盍
盎
监
盒
盖
盛
盡
監
盤
盧
目
直
相
盾
省
眇
眉
看
眔
眞
真
眷
眼
眾
着
睘
睪
睿
瞏
瞢
瞿
矍
矛
矞
矢
矣
知
矦
短
石
破
碎
磊
磨
示
礻
礼
社
祟
票
祭
禀
禁
禸
禹
禺
离
禽
禾
禿
秀
秃
秉
秋
科
秝
秦
移
稟
穀
穌
穴
究
穹
空
穿
突
窄
窒
立
竒
竜
竝
竟
章
童
竹
笑
笠
筆
等
答
箕
算
箴
節
篤
篭
米
粉
粛
粟
粤
粦
粲
糞
糸
糹
系
紀
約
納
素
索
紫
累
細
絜
絫
絲
維
綿
縣
繇
纍
纟
缶
网
罒
罔
罕
罗
罙
罡
罢
罪
署
罷
羅
羊
羌
羍
美
羔
羕
羗
羞
羡
羣
群
義
羲
羸
羽
翁
翏
習
翕
翟
翠
翼
老
耂
考
者
耆
而
耎
耑
耒
耳
耴
耶
耷
聂
聊
聖
聚
聶
聿
肀
肃
肅
肉
肖
肙
肥
肩
肯
育
肴
胃
背
胡
胥
能
脊
脩
膚
臣
臤
臧
自
臬
臭
臯
臱
至
致
臺
臼
臽
臾
臿
舀
舂
舄
與
興
舉
舌
舍
舛
舜
舞
舟
般
艮
良
色
艸
艹
艾
芒
芔
芬
芮
花
芳
芺
芻
苔
苗
苟
若
苦
英
茶
茸
荅
草
荒
荣
荼
莆
莧
莫
莽
菆
菊
菐
華
萬
落
葉
著
葛
董
葵
蒙
蒦
蒼
蓋
蓬
蓺
蔑
蔡
蕉
蕭
薄
薛
薦
薰
藍
藏
藥
蘭
虍
虎
虐
虒
虔
處
虖
虗
虘
虚
虛
虜
虞
虫
虽
蚤
蚩
蜀
蜜
蟲
蠡
血
行
衍
衛
衣
衤
表
衮
衰
袁
袞
褭
褱
襄
襾
西
覀
要
覃
見
規
覓
覧
親
覽
见
角
解
言
訁
訇
計
詹
語
誩
諸
讠
谷
豆
豈
豊
豐
豕
豖
豙
象
豦
豩
豪
豸
貇
貝
貞
貟
負
貢
貧
貪
貫
責
貳
貴
買
費
賁
資
賈
賏
賓
賔
賛
賞
賢
賣
質
賴
贊
贝
贡
责
贯
贲
贵
赖
赞
赤
赦
走
越
足
路
蹇
身
躬
車
軍
軎
軟
輦
车
辛
辜
辟
辥
辰
辱
農
辵
辶
边
达
过
近
连
迷
追
退
送
逆
逐
通
速
造
逢
連
逮
進
遀
遂
過
道
達
遣
適
遷
遺
邊
邑
邕
那
邦
邪
郎
部
郭
都
鄉
酉
酋
配
酓
釆
采
里
重
野
量
金
釒
錢
钅
長
镸
长
門
閃
閉
開
閏
閑
閒
間
閔
閵
閻
闌
门
间
闷
阑
阜
阝
阿
降
陰
陳
陽
隆
隊
隋
隡
隨
隱
隶
隹
隺
隻
隼
隽
难
雀
雁
集
雈
雋
雍
雐
雔
雙
雚
雜
雝
離
難
雨
雩
雪
雲
零
雷
需
霍
霜
霝
霞
霸
靈
靑
青
非
靡
面
靣
革
韋
韦
韭
韯
韱
音
頁
頃
項
須
頗
頡
頻
顛
页
風
风
飛
飞
食
飠
養
饣
首
香
馬
馮
駦
马
骨
高
髟
鬥
鬯
鬲
鬼
魚
魯
鮮
鱼
鲁
鳥
鳳
鸟
鹵
鹿
麃
麗
麥
麦
麻
黃
黄
黍
黎
黑
黒
黨
黹
黽
黾
鼎
鼓
鼠
鼻
齊
齋
齐
齒
齿
龍
龙
龜
龟
龠
龰
龱
龴
龵
龶
龷
龸
龹
者
艹
﻿
？
𠀁
𠀃
𠀆
𠀉
𠀎
𠀐
𠁁
𠁣
𠂆
𠂇
𠂈
𠂉
𠂊
𠂋
𠂎
𠂒
𠂔
𠂛
𠂡
𠂢
𠂤
𠂬
𠂭
𠂹
𠃊
𠃋
𠃌
𠃍
𠃎
𠃑
𠃓
𠃔
𠃜
𠄌
𠄎
𠄠
𠄢
𠆢
𠆥
𠇍
𠈌
𠌵
𠓜
𠔉
𠔥
𠔼
𠔽
𠔿
𠕀
𠕁
𠕋
𠘧
𠘨
𠙻
𠙼
𠚏
𠚒
𠚤
𠚪
𠣏
𠤎
𠤕
𠥓
𠦄
𠦑
𠦝
𠧒
𠧗
𠧪
𠩺
𠪚
𠫓
𠫔
𠫤
𠬛
𠬝
𠬞
𠬢
𠬤
𠬶
𠮛
𠮦
𠮷
𠯑
𠱠
𠳮
𠷎
𡈼
𡉀
𡉵
𡌥
𡍮
𡏳
𡕒
𡕩
𡕰
𡖅
𡗗
𡗜
𡘆
𡘤
𡧱
𡨄
𡩧
𡬠
𡭽
𡰣
𡰥
𡰪
𡰯
𡰱
𡷈
𡸁
𡿨
𡿩
𡿪
𡿺
𢀖
𢀛
𢀩
𢁙
𢆉
𢆰
𢆶
𢇁
𢇇
𢉖
𢌬
𢌿
𢏚
𢑑
𢑚
𢖻
𢙣
𢛳
𢦏
𢦒
𢧵
𢼄
𢾕
𣁋
𣄼
𣅀
𣅽
𣍘
𣎳
𣎵
𣏋
𣏼
𣗥
𣥂
𣥖
𣦵
𣦼
𣧄
𣪊
𣪠
𣬉
𣳾
𣶒
𤇾
𤊽
𤐫
𤓰
𤔔
𤕨
𤣩
𤰇
𤰔
𤰞
𤴓
𤴔
𤽄
𥁑
𥁕
𥃦
𥃩
𥃭
𥇡
𥑟
𥘅
𥘈
𥝢
𥫗
𥱡
𦈢
𦉪
𦉬
𦉼
𦍌
𦍒
𦎧
𦐇
𦓔
𦔮
𦘒
𦙃
𦚏
𦣝
𦣞
𦣻
𦥑
𦥔
𦥯
𦨉
𦭝
𦰩
𧆞
𧈧
𧘇
𧰨
𧴪
𧴮
𧵩
𧾷
𨸏
𨾴
𩙿
𩠐
𩫏
𩵋
𪉷
𪜀
𪟽
𪠲
𪩲
𫇦
𫔭
𫜸
𫝀
𫠣
𫠩
𫢉
𫥞
𫩏
𫩠
𫪡
𫲽
𫶧
𬀷
𬐘
𬗌
𬙙
𬛸
𬜯
𬟩
𬯁
𬴘
𬺻
𬼉
𬼖
𭀰
𭁈
𭁨
𭅰
𭑈
𭕄
𭗼
𭤨
𭥫
𭻾
𮅕
𮊿
𮍌
𮍏
𮓗
𮥼
𮧮
廾
𰀁
𰀄
𰀈
𰀉
𰀕
𰀠
𰀡
𰀢
𰀪
𰁜
𰃮
𰆊
𰆘
𰋙
𰕎
𰢴
𰧭
𰯲
00--
01--
02--
03--
04--
05--
06--
07--
08--
09--
20160303--
201608--
57--
59--
65--
66--
68--
69--
70--
72--
73--
74--
76--
77--
78--
80--
81--
82--
83--
84--
85--
86--
87--
88--
89--
90--
91--
95--
978--
aa--
ab--
abais--
abd--
abe--
abi--
abo--
absor--
abu--
ac--
aca--
acant--
accipi--
accomp--
accum--
accus--
ace--
aci--
acla--
aco--
acost--
acre--
acro--
act--
acu--
ad--
ada--
add--
addit--
ade--
adjac--
ado--
adoba--
ae--
aero--
aeros--
af--
afe--
affe--
afi--
afier--
afla--
afor--
afran--
afro--
ag--
age--
agi--
agio--
aglu--
agnos--
ago--
agra--
agricult--
agro--
agu--
aguia--
ah--
ai--
aiga--
aigui--
air--
ais--
ait--
aj--
ajo--
ak--
akade--
al--
ala--
ale--
alek--
alen--
ales--
aleu--
alh--
ali--
all--
allo--
alloc--
alluc--
almo--
almora--
alo--
als--
alsa--
alt--
alta--
alte--
altip--
aluc--
alue--
alum--
alun--
am--
ama--
amb--
ame--
amerin--
ami--
amo--
amor--
amphi--
ampl--
amplific--
amu--
an--
ana--
anar--
anc--
and--
ander--
ane--
anfi--
angi--
angli--
anglo--
ango--
angu--
angui--
angusti--
ani--
ann--
anne--
anno--
ano--
ans--
ant--
antago--
ante--
antece--
anti--
antro--
antropo--
anu--
any--
ao--
ap--
apas--
apaur--
apc--
ape--
apend--
api--
apo--
appe--
appro--
apre--
apro--
aprofe--
apu--
aq--
aqua--
aque--
aqui--
ar--
ara--
arauc--
arbor--
arc--
arca--
ard--
are--
arg--
argo--
ari--
aria--
ark--
arn--
aro--
arqui--
arra--
arre--
arro--
ars--
art--
arte--
arti--
aru--
as--
asalh--
ase--
ash--
asime--
asp--
ass--
asse--
assimil--
ast--
aste--
astro--
astu--
at--
ate--
atenu--
ath--
atmos--
ato--
atra--
atri--
atten--
au--
auba--
aube--
auc--
audic--
audio--
aug--
augs--
aup--
aur--
auric--
aus--
austro--
aut--
auto--
autobio--
auve--
aux--
av--
ava--
ave--
aver--
avi--
avo--
avoisin--
aw--
ax--
ay--
az--
aze--
azo--
b--
ba--
bac--
bach--
bad--
bag--
bai--
bal--
bali--
ball--
ban--
bapt--
bar--
bas--
basa--
base--
bass--
bat--
bate--
bau--
bay--
baza--
baze--
bazo--
be--
beau--
bec--
bed--
bei--
bel--
bela--
belle--
ben--
bena--
bene--
beo--
ber--
beren--
berg--
bert--
bes--
beta--
bett--
beu--
bey--
bhu--
bi--
bia--
bie--
bien--
big--
bije--
bin--
bio--
biogra--
bipe--
bir--
bis--
bit--
bitum--
bla--
blan--
ble--
bli--
blo--
blue--
bo--
bob--
boc--
bod--
boe--
boi--
bois--
bol--
boli--
bon--
bona--
bonne--
bor--
bos--
bosc--
bot--
bou--
bouc--
boula--
bour--
bous--
bouss--
bouv--
bow--
box--
boy--
br--
bra--
brage--
brah--
bran--
bras--
bre--
bri--
bro--
bru--
bry--
bu--
buc--
budd--
bue--
buf--
bug--
buk--
bul--
bun--
bur--
burg--
burgon--
burr--
bus--
but--
bux--
by--
c--
ca--
cac--
cad--
cada--
cai--
cal--
cala--
cali--
calli--
cam--
cama--
camb--
camp--
can--
cana--
cani--
cao--
cap--
cape--
capi--
car--
cara--
cardio--
carl--
carn--
cart--
carto--
cas--
casa--
cat--
catapu--
cate--
cau--
cava--
cay--
caze--
cc--
ce--
cef--
cele--
cend--
cent--
centre--
cer--
cere--
ces--
cet--
cf--
ch--
cha--
chal--
chamb--
champ--
chan--
chap--
char--
chas--
chat--
chau--
chaze--
che--
cher--
chi--
cho--
chron--
chry--
chu--
ci--
cia--
cid--
cie--
cigo--
cine--
cir--
circons--
cirur--
cis--
cit--
ciuta--
civ--
ck--
cl--
cla--
clan--
cle--
clic--
clo--
cloro--
cm--
cn--
co--
coa--
coagu--
code--
codifi--
coe--
cog--
coi--
coin--
col--
colo--
colum--
com--
comenta--
como--
compo--
compt--
con--
concl--
conda--
condu--
conf--
confis--
conju--
consa--
consti--
consum--
contra--
coo--
coofi--
cop--
copa--
copro--
coqu--
cor--
cordi--
core--
corio--
corpor--
cos--
coshi--
cosmo--
cott--
cou--
cour--
coutu--
cp--
cr--
cra--
cre--
cres--
cri--
cro--
cru--
cruc--
cs--
ct--
cu--
cuc--
cue--
cul--
cum--
cumu--
cup--
curcum--
cus--
cut--
cy--
cycl--
d--
da--
dab--
dad--
daf--
dago--
dai--
dal--
dan--
danne--
dar--
das--
data--
date--
dau--
daw--
de--
dec--
dece--
decim--
dedic--
degal--
dei--
del--
dela--
delibe--
delic--
delin--
dem--
deme--
demo--
den--
deno--
dent--
der--
des--
desce--
desco--
descu--
desemb--
desen--
desespe--
desgrad--
desid--
desmemb--
deso--
destruc--
det--
detec--
deter--
deu--
deve--
devi--
devo--
di--
dia--
dic--
dicta--
did--
die--
diff--
difi--
dimin--
din--
dinos--
dio--
dios--
diput--
dir--
dis--
discri--
dissert--
distill--
diu--
div--
divu--
dj--
dji--
do--
dob--
dobli--
doc--
dod--
dog--
dol--
dolom--
dom--
don--
dor--
dos--
dot--
dou--
doua--
dr--
dra--
dre--
dro--
dru--
du--
duali--
duc--
due--
dun--
duo--
dur--
dus--
dy--
dyna--
dynas--
dz--
e--
ea--
eber--
ec--
eca--
ecli--
eco--
ecolog--
ed--
edi--
edifi--
edo--
edu--
ee--
ef--
efe--
effi--
eg--
ege--
ei--
eis--
eisen--
ej--
ek--
el--
ela--
ele--
elect--
electro--
eli--
ell--
elle--
ellip--
elo--
em--
eman--
emana--
emat--
emb--
embe--
eme--
emenda--
emi--
emorra--
empl--
empoiso--
empru--
emuls--
en--
ena--
enc--
enceu--
end--
ende--
endor--
endur--
ene--
enfre--
eno--
enquad--
enri--
enro--
ens--
ense--
ent--
enta--
enter--
entos--
entre--
enume--
env--
envas--
envasi--
envir--
eo--
ep--
epi--
epif--
epis--
epistemolo--
equ--
equili--
er--
era--
eradic--
erc--
ere--
eri--
ermafro--
erme--
ero--
es--
esa--
esca--
escampilh--
esce--
escl--
escla--
esclava--
esco--
escr--
escu--
escue--
escul--
esh--
eso--
esp--
espe--
esper--
espi--
espo--
esse--
est--
esta--
estam--
este--
esti--
estil--
esto--
estre--
et--
eta--
ete--
eth--
etio--
etno--
etu--
eu--
eur--
euro--
eut--
ev--
eva--
evacu--
evapot--
eve--
evo--
ex--
exage--
exce--
excre--
exe--
exemp--
exi--
exo--
expe--
expl--
explei--
explo--
expo--
expuls--
extra--
ey--
ez--
f--
fa--
fabu--
fac--
fago--
fai--
fal--
fam--
familia--
fan--
far--
fas--
fasci--
fati--
fau--
fe--
feb--
fei--
feld--
fen--
fendi--
fenol--
fer--
ferro--
fes--
feste--
festi--
feu--
fey--
ff--
fi--
fia--
fie--
figh--
figur--
fil--
fila--
filip--
film--
fin--
fis--
fisico--
fisio--
fit--
fiu--
fla--
flag--
flan--
fle--
flexi--
fli--
flo--
flor--
fo--
foi--
fol--
fon--
fongi--
font--
for--
formi--
fort--
fos--
foto--
fou--
four--
fr--
fra--
frais--
fran--
franco--
fraxi--
fre--
fred--
fri--
fric--
frie--
fried--
fro--
fru--
frus--
fu--
fue--
ful--
full--
fum--
fun--
fus--
fut--
g--
ga--
gad--
gai--
gal--
gala--
gali--
gamb--
gan--
gar--
garr--
garri--
gas--
gat--
gau--
gavar--
gay--
gaz--
ge--
gel--
gen--
gene--
geno--
geo--
geolocaliz--
ger--
ges--
get--
gh--
gi--
gia--
gib--
gil--
gimn--
gior--
giov--
giro--
gis--
giu--
gl--
gla--
gland--
gle--
gli--
glo--
globu--
gn--
gno--
go--
god--
godef--
gold--
gonc--
gond--
gor--
gos--
got--
gou--
gr--
gra--
gramm--
gran--
grand--
gre--
greco--
gri--
grif--
grim--
gro--
gros--
gru--
gs--
gu--
gua--
guang--
gue--
guerr--
gueu--
gui--
guill--
gun--
gur--
guy--
gw--
gy--
gymn--
h--
ha--
hab--
had--
hai--
hal--
ham--
han--
hanni--
har--
hart--
has--
hat--
hau--
haute--
haw--
hay--
he--
hei--
hen--
her--
herac--
herau--
het--
heu--
hey--
hi--
hig--
high--
him--
hip--
hippo--
his--
hl--
ho--
hob--
hoc--
hod--
hoff--
homb--
homo--
hon--
hop--
hosp--
hospita--
hot--
hou--
how--
hr--
htm--
hu--
hue--
hui--
hut--
hy--
hydro--
hyper--
i--
ia--
ibero--
ibrid--
ic--
ice--
id--
ide--
ident--
identif--
ido--
idro--
idros--
ie--
ier--
ierar--
iero--
if--
ig--
ign--
ii--
il--
illi--
illum--
im--
imat--
ime--
immig--
immobi--
impl--
imple--
impo--
impu--
in--
ina--
inaca--
inaccessi--
inau--
inc--
ince--
incine--
incom--
incon--
inconstituc--
incor--
incu--
inde--
indemniz--
indi--
indo--
ine--
inefi--
ines--
inexi--
inf--
infi--
infil--
infra--
ing--
init--
initia--
inje--
innombra--
ino--
inse--
insti--
insul--
insur--
int--
inte--
inter--
intim--
intit--
into--
intra--
intro--
inu--
inv--
investi--
invoc--
invol--
io--
iogos--
ioniz--
ip--
iper--
ipo--
ir--
ira--
ire--
irri--
is--
isa--
ish--
iso--
ispa--
ist--
isto--
it--
ita--
iu--
iv--
ix--
iz--
j--
ja--
jac--
jag--
jai--
jan--
jar--
jas--
jau--
je--
jeu--
ji--
jo--
jol--
jon--
jos--
jou--
ju--
jubi--
jul--
jun--
jung--
k--
ka--
kai--
kal--
kan--
kat--
kath--
ke--
ken--
key--
kh--
kha--
khe--
kho--
khu--
ki--
kim--
kirch--
kirk--
kla--
ko--
kons--
kra--
kri--
kris--
kro--
kru--
ku--
kw--
ky--
l--
la--
lac--
lae--
laff--
lai--
lamb--
lamp--
lan--
land--
lao--
lapi--
lar--
las--
lat--
latif--
latino--
lau--
law--
lay--
lb--
lc--
ld--
le--
lea--
lec--
lectri--
leg--
legi--
lei--
lem--
len--
leon--
lepro--
ler--
les--
let--
leu--
lev--
leva--
lex--
ley--
lh--
lha--
lhe--
li--
lia--
lic--
lice--
lie--
lieu--
lign--
limb--
limp--
lin--
lio--
lis--
lit--
lito--
litur--
liu--
liv--
ll--
lla--
lle--
lli--
lo--
loc--
loco--
log--
loga--
logi--
logo--
loi--
lomb--
lon--
long--
lop--
lor--
los--
lot--
lou--
low--
lp--
ls--
lt--
lu--
luc--
ludo--
lug--
lum--
lund--
lus--
lute--
lv--
ly--
lyon--
m--
ma--
mac--
macro--
mad--
made--
madri--
mae--
mag--
magis--
magne--
magnifi--
mah--
mai--
main--
maje--
mak--
make--
mal--
mala--
male--
mali--
mamm--
man--
mane--
mani--
manip--
mans--
manusc--
map--
maquin--
mar--
mara--
marc--
mari--
maro--
mas--
mat--
mata--
mau--
max--
may--
maz--
mb--
mc--
me--
mecaniz--
med--
medo--
mega--
meh--
mei--
mel--
melc--
memb--
memo--
men--
mene--
ment--
mer--
merc--
mes--
met--
meta--
meu--
mey--
mi--
mia--
micro--
mid--
mie--
mieg--
mig--
mil--
mili--
min--
mini--
mio--
mir--
mira--
mire--
mis--
mit--
mitolo--
mm--
mn--
mo--
moc--
mod--
modul--
moga--
moi--
mois--
mol--
mon--
monar--
mond--
mone--
monit--
mono--
mons--
mont--
monte--
mor--
morfolo--
mori--
morph--
mos--
mot--
motiv--
mou--
mp--
mr--
ms--
mu--
mul--
multi--
multipl--
mun--
mur--
mus--
mut--
mutil--
mw--
my--
myco--
n--
na--
nac--
nad--
nai--
nan--
nar--
nas--
nat--
nau--
nav--
nave--
navi--
naviga--
naz--
nb--
nc--
ncia--
nd--
nde--
ne--
neb--
neces--
nef--
nego--
negr--
nei--
neo--
neolog--
neoze--
ner--
nes--
net--
neu--
neuf--
neuro--
new--
ng--
nh--
nha--
ni--
nia--
nico--
nie--
nig--
nigs--
niko--
nil--
nim--
nin--
nis--
nit--
niz--
nn--
no--
noa--
nobi--
noct--
nol--
nom--
non--
nord--
nos--
nou--
nov--
now--
ns--
[...]
