!
"
#
##0
##1
##10
##11
##12
##13
##14
##15
##16
##17
##18
##19
##2
##20
##21
##22
##23
##24
##25
##26
##27
##28
##29
##3
##30
##31
##32
##33
##34
##35
##36
##37
##38
##39
##4
##40
##41
##42
##43
##44
##45
##46
##47
##48
##49
##5
##50
##51
##52
##53
##54
##55
##56
##57
##58
##59
##6
##60
##61
##62
##63
##64
##65
##66
##67
##68
##69
##7
##70
##71
##72
##73
##74
##75
##76
##77
##78
##79
##8
##80
##81
##82
##83
##84
##85
##86
##87
##88
##89
##9
##90
##91
##92
##93
##94
##95
##96
##97
##98
##99
$
%
&
'
(
)
*
+
,
-
.
/
0
00
000
0000
001
004
005115906552
01
011351496862
02
03
04
05
06
069
07
0755
076
08
09
096
1
10
100
1000
1001
1002
1004
1007
1009
101
1010
1015
1016
102
1020
1021
1024
1025
1029
103
1030
1031
1032
1034
1035
1036
1037
1038
104
1040
1044
1048
105
1050
1053
1054
1055
1059
106
1060
1066
1067
107
1070
1071
1072
1073
1074
1075
1076
1077
1078
1079
108
1080
1081
1082
1083
1085
1086
1087
1088
109
1090
1093
1094
1095
1096
1097
1098
1099
11
110
1100
110095
1101
1102
1104
1105
1107
1108
1109
111
1110
1111
1112
1113
1114
1115
1116
1117
1118
1119
112
1120
1121
1122
1123
1124
1125
1126
1127
1128
1129
113
1130
1131
1132
1133
1134
1135
1136
1137
1138
1139
114
1140
1141
1142
1143
1144
1145
1146
1147
1148
1149
115
1150
1151
1152
1153
1154
1155
1156
1157
1158
1159
116
1160
1161
1162
1163
1164
1165
1166
1167
1168
1169
117
1170
1171
1172
1173
1174
1175
1176
1177
1178
1179
118
1180
1181
1182
1183
1184
1185
1186
1187
1188
1189
119
1190
1191
1192
1193
1194
1195
1196
1197
1198
1199
12
120
1200
1201
1202
1203
1204
1205
1206
1207
1208
1209
121
1210
1211
1212
1213
1214
12148
1215
1216
1217
1218
1219
122
1220
1221
1222
1223
1224
1225
1226
1227
1228
1229
123
1230
1231
1232
1233
1234
1235
1236
1237
1238
1239
124
1240
1241
1242
1243
1244
1245
1246
1247
1248
1249
125
1250
1251
1252
1253
1254
1255
1256
1257
1258
1259
126
1260
1261
1262
1263
1264
1265
1266
1267
1268
1269
127
1270
1271
1272
1273
1274
1275
1276
1277
1278
1279
128
1280
1281
1282
1283
1284
1285
1286
1287
1288
1289
129
1290
1291
1292
1293
1294
1295
1296
1297
1298
1299
13
130
1300
1301
1302
1303
1304
1305
1306
1307
1308
1309
131
1310
1311
1312
1313
1314
1315
1316
1317
1318
1319
132
1320
1321
1322
1323
1324
1325
1326
1327
1328
1329
133
1330
1331
1332
1333
1334
1335
1336
1337
1338
1339
134
1340
1341
1342
1343
1344
1345
1346
1347
1348
1349
135
1350
1351
1352
1354
1355
1356
1357
1358
1359
136
1360
1361
1362
1363
1364
1365
1367
1368
1369
137
1370
1371
1372
1373
1374
1375
1376
1377
1378
1379
138
1380
1381
1382
1383
1384
1385
1386
1387
1388
1389
139
1390
1391
1392
1393
1394
1395
1396
1397
1398
1399
14
140
1400
1401
1402
1403
1404
1405
1406
1407
1409
141
1410
1412
1413
1414
1415
1418
1419
142
1420
1421
1422
1423
1424
1425
1426
1427
1428
1429
143
1430
1431
1433
1434
1435
1436
1437
1438
1439
144
1440
1441
1442
1443
1444
1445
1446
1448
1449
145
1450
1451
1452
1453
1454
1455
1456
1457
1458
1459
146
1460
1461
1462
1463
1464
1465
1466
1467
1468
1469
147
1470
1471
1472
1473
1474
1475
1476
1477
1478
14783413
1479
148
1480
1481
1482
1483
1484
1485
1486
1487
1488
1489
149
1490
1491
1492
1493
1494
1495
1496
1497
1498
1499
15
150
1500
1501
1502
1503
1504
1505
1506
1507
1508
1509
151
1510
1511
1512
1513
1514
1515
1516
1517
1518
1519
152
1520
1521
1522
1523
1524
1525
1526
1527
1528
1529
153
1530
1531
1532
1533
1534
1535
1536
1537
1538
1539
154
1540
1541
1542
1543
1544
1545
1546
1547
1548
1549
155
1550
1551
1552
1553
1554
1555
1556
1557
1558
1559
156
1560
1561
1562
1563
1564
1565
1566
1567
1568
1569
157
1570
1571
1572
1573
1574
1575
1576
1577
1578
1579
158
1580
1581
1582
1583
1584
1585
1586
1587
1588
1589
159
1590
1591
1592
1593
1594
1595
1596
1597
1598
1599
16
160
1600
1601
1602
1603
1604
1605
1606
1607
16075
1608
1609
161
1610
1611
1612
1613
1614
1615
1616
1617
1618
1619
162
1620
1621
1622
1623
1624
1625
1626
1627
1628
1629
163
1630
1631
1632
1633
1634
1635
1636
1637
1638
1639
164
1640
1641
1642
1643
1644
1645
1646
1647
1648
1649
165
1650
1651
1652
1653
1654
1655
1656
1657
1658
1659
166
1660
1661
1662
1663
1664
1665
1666
1667
1668
1669
167
1670
1671
1672
1673
1674
1675
1676
1677
1678
1679
168
1680
1681
1682
1683
1684
1685
1686
1687
1688
1689
169
1690
1691
1692
1693
1694
1695
1696
1697
1698
1699
17
170
1700
1701
1702
1703
1704
1705
1706
1707
1708
1709
171
1710
1711
1712
1713
1714
1715
1716
1717
1718
1719
172
1720
1721
1722
1723
1724
1725
1726
1727
1728
1729
173
1730
1731
1732
1733
1734
1735
1736
1737
1738
1739
174
1740
1741
1742
1743
1744
1745
1746
1747
1748
1749
175
1750
1751
1752
1753
1754
1755
1756
1757
1758
1759
176
1760
1761
1762
1763
1764
1765
1766
1767
1768
1769
177
1770
1771
1772
1773
1774
1775
1776
1777
1778
1779
178
1780
1781
1782
1783
1784
1785
1786
1787
1788
1789
179
1790
1791
1792
1793
1794
1795
1796
1797
1798
1799
18
180
1800
1801
1802
1803
1804
1805
1806
1807
1808
1809
181
1810
1811
1812
1813
1814
1815
1816
1817
1818
1819
182
1820
1821
1822
1823
1824
1825
1826
1827
1828
1829
183
1830
1831
1832
1833
1834
1835
1836
1837
1838
1839
184
1840
1841
1842
1843
1844
1845
1846
1847
1848
1849
185
1850
1851
1852
1853
1854
1855
1856
1857
1858
1859
186
1860
1861
1862
1863
1864
1865
1866
1867
1868
1869
187
1870
1871
1872
1873
1874
1875
1876
1877
1878
1879
188
1880
1881
1882
1883
1884
1885
1886
1887
1888
1889
189
1890
1891
1892
1893
1894
1895
1896
1897
1898
1899
19
190
1900
1901
1902
1903
1904
1905
1906
1907
1908
1909
191
1910
1911
1912
1913
1914
1915
1916
1917
1918
1919
192
1920
1921
1922
1923
1924
1925
1926
1927
1928
1929
193
1930
1931
1932
1933
1934
1935
1936
1937
1938
1939
194
1940
1941
1942
1943
1944
1945
1946
1947
1948
1949
195
1950
1951
1952
1953
1954
1955
1956
1957
1958
1959
196
1960
1961
1962
1963
1964
1965
1966
1967
1968
1969
197
1970
1971
1972
1973
1974
1975
1976
1977
1978
1979
198
1980
1981
1982
1983
1984
1985
1986
1987
1988
1989
199
1990
1991
1992
1993
1994
1995
1996
1997
1998
1999
2
20
200
2000
2001
2002
2003
2004
2005
2006
2007
2008
2009
201
2010
2011
2012
2013
2014
2015
2016
20161115015531
2017
2018
2019
202
2020
2021
2022
203
204
205
206
207
208
209
21
210
211
212
213
214
215
216
217
218
219
22
220
221
222
223
224
225
226
227
228
229
23
230
231
232
233
234
235
23599
236
237
238
239
24
240
241
242
243
244
245
246
247
248
249
25
250
2500
251
252
253
254
255
256
257
258
259
26
260
261
262
263
264
265
266
267
268
269
27
270
271
272
273
274
275
276
277
278
279
28
280
281
282
283
284
285
286
287
288
289
29
290
291
292
293
294
295
296
297
298
299
3
30
300
3000
301
302
303
304
305
306
307
308
309
31
310
311
312
313
314
315
316
317
318
319
32
320
321
322
323
324
325
326
327
328
329
33
330
331
332
333
334
335
336
337
338
339
34
340
341
342
343
344
345
346
347
348
349
35
350
3500
351
352
353
354
355
356
357
358
359
36
360
361
362
363
364
365
366
367
368
369
37
370
371
372
373
374
375
376
377
378
379
38
380
381
382
383
384
385
386
387
388
389
39
390
391
392
392934
392965
393
394
395
396
397
398
399
4
40
400
4000
401
402
403
404
405
406
407
408
409
41
410
411
412
413
414
415
416
417
418
419
42
420
421
422
423
424
425
426
427
428
429
43
430
431
432
433
434
435
436
437
438
439
44
440
441
442
443
444
445
446
447
448
449
45
450
451
452
453
454
455
456
457
458
4583
459
46
460
461
462
464
465
466
467
468
469
47
470
471
472
473
474
475
476
477
479
48
480
481
482
483
484
485
486
487
488
489
49
490
491
492
493
494
495
496
498
499
5
50
500
5000
501
502
503
506
507
508
509
51
510
511
512
514
515
516
517
518
519
52
520
521
522
523
524
525
526
527
528
53
530
531
532
533
534
535
536
539
54
540
541
542
543
544
545
546
547
548
55
550
551
552
553
554
555
56
560
561
562
565
566
567
568
569
57
570
571
573
574
575
577
578
579
58
580
581
582
584
585
586
587
588
589
59
590
591
593
596
598
6
60
600
6000
602
603
605
606
608
609
61
610
611
612
613
614
616
618
62
620
621
622
623
625
626
627
628
629
63
630
631
632
633
634
635
636
637
638
639
64
640
641
642
643
644
645
646
647
648
65
650
651
652
655
656
657
658
66
660
661
667
668
67
670
671
672
673
674
675
676
68
680
681
683
685
687
69
690
691
695
7
70
700
7000
701
705
706
708
71
710
711
713
714
715
717
718
72
720
721
722
727
73
730
732
737
738
74
740
741
74111
743
745
75
750
7507607
751
752
753
755
756
7560
76
760
762
767
768
77
770
771
77101733
778
78
780
787
79
795
8
80
800
8000
802
804
806
808
81
811
812
813
81350
814
815
82
820
827
83
830
84
840
842
843
844
845
847
85
850
85023
852
855
86
860
862
86266
864
867
86866
87
870
875
877
87754
878
879
87901
88
880
881
884
885
886
888
889
89
890
891
897
9
90
900
9000
90696
907
909
91
910
911
912
914
92
920
922
923
924
925
926
928
929
93
930
932
933
934
936
937
939
94
940
946
95
950
951
955
96
960
961
9616679
962
963
965
966
969
97
970
972
973
974
975
976
978
979
98
980
983
984
987
988
99
990
996
999
:
;
<
=
>
?
@
[
\
]
^
_
`
a
aa
aaron
ab
aba
abaco
abadalhar
abadia
abaissar
abandon
abandona
abandonada
abandonadas
abandonar
abandonat
abandonats
abandone
abandonne
abans
abant
abat
abatre
abatut
abba
abbas
abbassida
abbassidas
abbatiale
abbaye
abbayes
abbe
abbesse
abbeville
abc
abcazia
abd
abdicacion
abdicar
abdome
abdul
abe
abeba
abel
abelha
abelhas
abelir
abenaki
abergement
abi
abidjan
abido
abies
abiletat
abita
abitacion
abitacions
abitada
abitant
abitantas
abitants
abitat
abitats
abitual
abituala
abitualament
abitud
abituds
ablatiu
able
abo
abolicion
abolicionista
abolida
abolir
abolit
aboncourt
abonda
abondance
abondant
abondanta
abord
abordar
aborige
aboriginal
about
abraam
abraham
abre
abreujat
abreviacion
abri
abrial
abric
abriga
abril
abrite
abriu
absborg
abse
absent
absenta
absents
absida
absoluda
absoludament
absolut
absorbe
absorbeix
absorbir
absorbit
absorpcion
abstraccion
abstrach
absurd
abu
ac
aca
acaba
acabada
acabament
acaban
acabant
acabar
acabara
acabat
acabats
acabava
acabe
acacia
acade
academia
academic
academica
academy
acampa
acampar
acarnada
acce
accedi
accedir
acceleracion
accelerada
accelerar
accelere
accent
accentuacion
accentuat
acceptacion
acceptada
acceptar
acceptat
acceptats
accepte
accessed
accessibla
accessible
accession
accesso
accident
accidents
accion
accions
accipiter
acco
accole
accompagne
accord
accorde
accueil
accueille
accusat
accusatiu
ace
acer
achard
ache
achete
achille
aci
acid
acidas
acide
aciditat
acids
acie
acier
acion
acions
aco
acomenc
acomence
acompanha
acompanhada
acompanhament
acompanhan
acompanhar
acompanhat
acompanhats
acompanhe
acon
acorcha
acordar
acordat
acorde
acostica
acque
acquis
acre
acronim
acropo
acs
act
acta
actas
acte
actes
action
actitud
actituds
actiu
actius
activa
activacion
activament
activar
activas
active
activisme
activista
activistas
activitat
activitats
activite
activity
actor
actors
actritz
actu
actual
actuala
actualament
actualas
actualitat
actualite
actualites
actuals
actuau
actuaus
actuel
actuelle
actuellement
acu
acue
acuelh
aculhi
aculhigue
aculhir
aculhit
acum
acumulacion
acusacion
acusacions
acusada
acusar
acusat
acusatiu
acusats
acy
ad
ada
adad
adaigat
adam
adamawa
adams
adaptacion
adaptacions
adaptada
adaptadas
adaptar
adaptat
adaptats
adapte
adara
adas
addicion
addis
ade
adelaar
adelai
aderir
ades
adesion
adhe
adieu
adige
adj
adjectiu
adjectius
adjectival
adjunt
adme
admesa
admet
admetre
administra
administracion
administracions
administrada
administrador
administrar
administrat
administratifs
administration
administratiu
administratius
administrativa
administrativament
administrativas
administrative
administrativement
administratives
administrator
administre
admiracion
admirar
admission
adn
ado
adobar
adolesce
adolescent
adolescents
adolf
adolfo
adolphe
adomergir
adonc
adonis
adopcion
adoptada
adoptadas
adoptar
adoptat
adoptats
adopte
adoptiu
ador
adoracion
adorna
adour
adrec
adreic
adrian
adriatica
adrien
adult
adulta
adulte
adultes
adults
adura
aduras
adv
adve
adventures
adverbial
adversari
adversaris
ae
aerian
aeriana
aerianas
aerians
aeronau
aeronaus
aeronautica
aeropo
af
afa
afaire
afaires
afar
afarensis
afars
afe
afeblida
afebligue
afebliment
afeblir
afeblit
afeblits
afeccion
afectat
afere
affaire
affaires
affichtexte
affluent
affluents
afganistan
afi
aficha
afichar
afichas
afin
afirma
afirmacion
afirman
afirmant
afirmar
afirmatiu
afirmava
afirme
aflaquiment
afluent
afluents
afogat
afondrament
afondre
afonso
afortir
afp
afranquir
africa
african
africana
africanas
africans
africanus
afrikaans
afrique
afroasiatica
afrodita
afronta
afrontament
afrontaments
afrontan
afrontar
afronte
after
ag
agac
agach
agachar
again
against
agamemnon
aganta
agantar
agante
agathe
agave
agde
age
ageish
agen
agenais
agenc
agence
agency
agene
agenesa
agent
agents
ages
agglome
agi
agionime
agir
agissent
agissia
agisson
agit
agitacion
agla
aglomeracion
aglomeracions
aglutinacion
agnan
agne
agnosticisme
ago
agonizar
agora
agost
agot
agotament
agr
agra
agrada
agradable
agradiu
agrandir
agrandit
agrave
agre
agregacion
agregat
agregats
agression
agressiu
agri
agrico
agricole
agricoles
agriculteurs
agricultor
agricultors
agricultura
agriculture
agrippa
aguda
ague
aguent
aguest
aguesta
aguestes
aguesti
aguilar
agulha
agulhas
agusti
agustin
agut
aguts
ah
ahmad
ahmed
ahore
ahp
ai
aia
aic
aicesta
aiceste
aici
aide
aiga
aigada
aigadas
aigas
aigat
aigatge
aigats
aigla
aigle
aignan
aigremont
aigua
aigues
aiguillon
aila
ailleurs
ailly
aima
aiman
aimar
aimat
aime
aimeric
aimet
ain
ainada
ainat
ainay
ainsi
air
aira
airaines
airal
airals
airas
airau
airbus
aire
aires
airo
airy
ais
aisada
aisament
aisat
aise
aises
aisida
aisidament
aisina
aisinas
aisit
aisne
aisse
aisses
ait
aital
aix
aj
aja
ajan
ajo
ajoute
ajuda
ajudada
ajudan
ajudar
ajudas
ajudat
ajudats
ajude
ajuntament
ajusta
ajustan
ajustar
ajustat
ajuste
ak
aka
akademie
akademii
akira
akkad
ako
akodon
aksum
aku
al
ala
alaba
alabama
alacant
alain
alairac
alamans
alamo
alan
alans
alara
alari
alaric
alas
alaska
alavetz
alba
albacete
alban
albane
albania
albe
albedo
albert
alberto
albertville
albi
albie
albige
albigeses
albin
albinoni
albon
albrecht
albret
albrico
album
albums
alca
alcali
alcalins
alcaloi
alces
alco
alcoo
alcoran
ale
aleato
alejandro
alemand
alemanda
alemandas
alemands
alemanha
alemanic
alemannisch
alemans
alen
alenc
alentejo
alentir
alentours
ales
alessandro
alex
alexa
alexander
alexandra
alexandre
alexandria
alexis
alfa
alfabet
alfabetic
alfabets
alfons
alfonso
alfred
alfredo
algarve
algas
alge
algebrica
algonquian
algoritme
algoritmes
alh
alhors
ali
alia
aliada
aliadas
alianc
aliar
alias
aliat
aliatge
aliatges
aliats
alibe
alice
alie
alieno
aliermont
aliganc
align
alii
aliment
alimenta
alimentacion
alimentar
alimentari
alimentaris
alimente
aliments
alinhament
alinhar
alise
alite
alix
all
alla
allah
allait
allan
allant
alle
allegoria
allegro
allemagne
allemand
allemande
allemandes
allemands
allen
aller
alleu
alleux
allevard
alliance
allie
allier
allium
allusion
alluvions
alma
almas
almens
almeri
almodo
alnus
alo
aloe
alongada
alongament
alongat
alonso
alora
alors
alpes
alpha
alphabet
alphonse
alpin
alps
alquimia
alquimista
alquimistas
als
alsa
alsace
also
alt
alta
altai
altar
alte
alteracion
alterar
alterna
alternanc
alternatiu
alternativa
alternativament
alternativas
althusser
altisla
altitud
altitude
altituds
alto
altres
altru
altruisme
alucar
alumini
alunha
alunhada
alunhadas
alunhament
alunhar
alunhat
alunhats
alve
aly
am
ama
amaga
amagada
amagar
amagat
amai
amaisar
amalric
aman
amanc
amance
amand
amanita
amant
amants
amar
amara
amaro
amassa
amassada
amassadas
amassan
amassant
amassar
amassas
amassat
amassats
amasse
amat
amateur
amati
amator
amators
amazo
amazonas
amb
ambaissada
ambaissador
ambe
ambedkar
ambedo
ambedoas
ambedos
ambic
ambicio
ambicion
ambicionar
ambicions
ambient
ambigu
ambique
amboise
amborg
ambre
ambs
ame
amelia
amenac
amenatjament
amendament
ament
aments
america
american
americana
americanas
americanes
americans
americas
amerindianas
amerindians
amfreville
amharic
ami
amians
amic
amics
amidon
amie
amiens
amiga
amin
aminats
aminoacids
amiral
amirau
amis
amistat
amna
amnistia
amo
among
amoniac
amont
amor
amore
amoro
amorosa
amoroses
amors
amour
ampe
ampezan
ampla
ample
amplitud
amplor
amsterdam
amudiment
amundsen
amy
an
ana
anada
analisa
analisar
analisi
analisis
analitica
analizar
analo
analogia
analogic
anals
analyse
analysis
anant
anar
anarchie
anarquia
anarquisme
anarquista
anarquistas
anas
anat
anato
anatole
anatolia
anatomia
anautit
anautita
anautitas
anava
anavan
anc
ance
ances
ancessor
ancessors
anche
ancho
ancia
ancian
anciana
ancianament
ancianas
ancianes
ancianetat
ancians
ancien
ancienne
anciennement
anciennes
anciennete
anciens
ancient
ancora
ancre
ancy
and
andalo
andalosia
andalu
ande
andelle
andelot
andelys
andersen
anderson
andersson
andes
andicap
andilly
andina
andlau
ando
andouque
andre
andrea
andreas
andrei
andres
andreu
andrew
andrews
andrieu
andrino
andriu
androme
andronic
andy
ane
anecdo
aneci
anem
anet
anfiteatre
anfo
ange
angel
angela
angeles
angelo
angers
angerville
anges
angevin
angevine
angieus
angiospe
anglais
anglaise
anglars
anglate
angle
angles
anglesa
anglesas
angleses
anglet
anglete
angleterre
anglo
anglofo
anglosaxon
anglosaxons
ango
angoule
angulara
anha
anhan
anhe
ani
anientar
anima
animacion
animacions
animada
animal
animala
animalas
animals
animat
animats
animau
animaus
animaux
anime
anique
anita
aniversari
anjau
anjou
ankara
anmoins
ann
anna
annada
annadas
annades
annadie
annal
annala
annalas
annales
annals
annay
anne
annecy
anneville
annexada
annexar
annexat
annexats
annexe
annexes
annexion
annibal
annie
anniversaire
anniversari
anno
annuaire
annual
annuelle
ano
anomalia
anoncia
anonciar
anonciat
anoncie
anonim
anos
anotar
another
ans
ansa
anse
ansin
ant
anta
antagonista
antan
antany
antartic
antartica
antartida
ante
antena
antenas
anterior
anteriora
anteriorament
anterioras
anteriors
anthologie
anthony
anthropological
anthropologie
anthropology
anti
antibiotics
antic
antica
anticarri
anticas
antico
antics
antige
antigo
antigua
antilhas
antilo
antimo
antio
antique
antiques
antiquitat
antiquitats
antiquite
antiquity
antisemitisme
anto
antoine
antoinette
antologia
anton
antoni
antonin
antonio
antropolo
antropologia
ants
anu
anum
anve
any
anys
anzin
ao
aoc
aost
aosta
aou
aout
ap
apa
apara
aparada
aparar
aparat
apare
apareguda
aparegudas
aparegue
aparegut
apareguts
apareis
apareish
apareisson
aparelh
aparelhs
aparent
aparenta
aparentament
aparentat
aparentats
aparicion
aparicions
apartament
aparte
aparten
apartene
apartenent
apartenia
apartenon
apartheid
apasimar
apc
ape
apelacion
apelada
apeladas
apelan
apelar
apelat
apelats
apellacion
aperada
aperaqui
aperat
aperats
aperavans
aperte
aperten
apertene
apertenent
apertenenta
apertengut
apertenia
apertenon
apg
api
apie
apis
aplant
aplegue
aplica
aplicacion
aplicacions
aplicada
aplicadas
aplican
aplicant
aplicar
aplicat
aplique
apo
apocalipsi
apoderar
apoge
apollo
apollon
apond
aponde
apondent
apondi
apondon
apondre
aponduda
apondudas
apondut
aponduts
aposto
apparai
apparait
apparition
appartenait
appartenant
appartenu
appartient
appartint
appel
appelait
appele
appellation
appellations
appelle
appellent
apple
application
applications
apporte
approach
approche
apr
apre
apreciar
apreciat
apremont
apren
aprendi
aprendissatge
aprendre
aprene
aprengue
apres
april
apro
aprobacion
aprochar
aprofichant
aprofichar
aprofiche
aprovada
aprovar
aprovat
aprove
aproximacion
aproximativa
aproximativament
aptitud
apud
apue
aqu
aqua
aque
aqueduc
aquel
aquela
aquelas
aquelei
aqueleis
aqueles
aquels
aquemenida
aquera
aqueras
aqueri
aquerida
aquerigue
aquerir
aquerit
aquerits
aquest
aquesta
aquestas
aqueste
aquestei
aquestes
aqueth
aqueths
aqueu
aqui
aquila
aquiles
aquilles
aquin
aquistar
aquita
aquitaine
aquitan
aquitanic
aquitans
aquiu
aquo
aquosa
ar
ara
arab
araba
arabas
arabe
arabes
arabi
arabia
arabica
arabis
arabomusulman
arabs
arago
aragon
aragone
aragonesa
araire
aral
aralha
aram
arame
aran
arane
aranesa
aranha
aranhas
araucaria
arbe
arbes
arbitra
arbitrari
arbitratge
arbitre
arbo
arbre
arbres
arbresle
arbrilhon
arbust
arbutus
arc
arca
arcada
arcadas
arcai
arcas
arce
arch
archaeology
arche
archeo
archer
archeve
archidiacone
archidioce
archilau
archipe
archipre
archipreirat
architecte
architecture
archiu
archius
archiv
archive
archives
archivesenligne
arcis
arco
arcs
arcy
ard
arda
arde
ardecha
ardena
ardenas
ardenne
ardennes
ardor
ardres
are
area
arena
arenas
ares
argele
argenc
argent
argentan
argentie
argentin
argentina
argenton
argeria
argie
argiela
argila
argilo
argo
argonne
argos
arguel
argues
argument
arguments
ari
aria
ariana
ariane
arias
arid
aridas
ariditat
arie
ariel
aristo
aristocra
aristocracia
aristocrata
aristofanes
aristote
aritmetica
arizo
arizona
ark
arlay
arle
arles
arma
armada
armadas
armadura
armagnac
armament
armaments
armanc
armand
armanhac
armas
armat
armats
arme
armenia
armentie
armes
armistici
armoiries
armonia
armonica
armonicas
armor
armorial
armoricain
armorique
armstrong
army
arn
arnac
arnais
arnaud
arnaut
arne
arnm
arno
arnold
arnould
arnoult
arnt
aro
aroma
aromane
aron
around
arpa
arpajon
arpas
arpita
arpitan
arpitana
arqueolo
arqueologia
arqueologic
arqueologica
arqueologicas
arqueologics
arques
arquet
arquevesque
arquie
arquime
arquite
arquitectura
arquitectural
arquitecturau
arras
arrasic
arre
arrecebo
arredondida
arredondit
arrefusa
arren
arrestacion
arrestada
arrestar
arrestat
arrestats
arreste
arri
arriba
arribada
arribadas
arriban
arribant
arribar
arribat
arribats
arribava
arribe
arrie
arriu
arrius
arrive
arro
arroi
arron
arrondiment
arrondiments
arrondissement
arrose
arrostanh
arroux
arrui
ars
arsac
arse
arsenal
arsenic
art
artaud
arte
artemisia
arteriala
artesan
artesanala
artesanat
artesans
artet
arthur
arti
artic
article
articles
articula
articulacion
articulada
articular
arties
artifici
artificial
artificiala
artificialament
artificialas
artificials
artificiau
artiga
artigas
artilharia
artillerie
artisanat
artisans
artista
artistas
artistes
artistic
artistica
artisticas
artistics
artois
artropo
arts
artu
arturo
arunachal
arve
arvo
aryan
as
asa
ascas
asce
ascende
ascendent
ascension
ascensor
asco
ase
ases
asi
asia
asian
asiatic
asiatica
asiaticas
asiatics
asile
asma
asnie
asp
aspa
aspe
aspect
aspects
aspiracion
aspirar
assag
assai
assaia
assaiant
assaiar
assaie
assais
assajar
assalt
assam
assassin
assassinar
assassinat
assassinats
assassine
assassins
assaut
assauts
asse
assecament
assegura
assegurada
asseguran
asseguranc
assegurant
assegurar
assegurara
assegurat
assegurava
assegure
assemblada
assembladas
assemblar
assemblatge
assemble
assetjar
assets
assez
assie
assimilacion
assimilar
assimilat
assimilats
assiniboine
assiria
assirian
assiriana
assirians
assise
assisi
assiste
assistent
assisti
assistigue
assistir
assistit
asso
assoan
associa
associacion
associacions
associada
associadas
associar
associat
association
associats
associazione
associe
assompcion
assosta
assucar
assumigue
assumir
assur
assure
ast
asta
astarac
aste
asteroi
asti
astier
astor
astrada
astre
astres
astro
astrofisica
astrologia
astronautas
astrono
astronomia
astronomic
astronomica
astronomical
astronomicas
astronomics
astronomy
astrophysical
astruc
astu
astyanax
at
ata
atac
ataca
atacada
atacan
atacant
atacar
atacas
atacat
atacats
atacs
atal
atanasov
atanben
ataque
atau
ate
atei
atelier
atemptat
atemptats
atena
atenas
atencion
atenenc
atenenca
atenencs
atengue
atengut
atenh
atenhent
atenhon
atermena
aterratge
atestacion
atestacions
atestada
atestat
atestats
atge
ath
athe
athens
athletic
athletics
ati
atic
atica
atics
atila
ation
atirar
atla
atlanta
atlante
atlantic
atlantica
atlantics
atlantique
atlas
atle
atletica
atletisme
atmosfe
atmosferic
atmosferica
atmosphere
ato
atomic
atomica
atomics
aton
ator
atoriala
atots
atp
atraccion
atrach
atractiu
atraire
atribucion
atribucions
atribui
atribuida
atribuidas
atribuir
atribuisson
atribuit
atribuits
atribut
atributs
atro
atrocitats
ats
attache
attaque
atteint
atteste
attestent
attribue
atudada
atudat
atude
au
auans
auba
auban
aubance
aubaro
aube
aubena
auberge
auberives
aubert
aubigne
aubigny
aubin
aubrac
aubre
aubres
aubry
aubusson
auc
auca
aucas
auce
auchy
aucit
aucun
aucune
aucupacion
auda
aude
audemer
audie
audio
audito
auditor
aue
auer
auge
auger
augmente
august
augusta
auguste
augustin
augusto
augustus
augy
auia
auie
auien
aujo
aujon
aujourd
aula
aulaia
aulnay
aulne
aulnois
auloron
ault
aumale
aumenatge
aumens
aument
aumenta
aumentacion
aumentada
aumentan
aumentant
aumentar
aumentat
aumente
aumont
aunay
aunis
aunor
aup
auparavant
aupre
aups
auquel
aur
aura
auragan
auraient
aurait
auratge
aure
aurelha
aurelhas
aurenja
auria
auriac
aurinhac
aurio
auro
aus
ausar
auschwitz
ause
aush
ausida
ausil
ausir
aussau
ausse
aussi
auste
austeritat
austin
austra
austral
australa
australia
australian
australiana
australians
australis
australopithecus
austria
austriac
austrian
austriana
austrianas
austrians
austronesiana
aut
auta
autan
autant
autar
autariba
autas
aute
autel
autels
autentic
autentica
autenticitat
autes
auteur
auteurs
autheuil
authie
authieux
authon
authority
authou
auti
autigny
auto
autoarpa
autobiografia
autobu
autocto
automatic
automatica
automaticament
automne
automobil
automobila
automobilas
auton
autono
autonomia
autor
autora
autorise
autorita
autoritari
autoritarisme
autoritat
autoritats
autorite
autoriza
autorizacion
autorizada
autorizar
autorizat
autorizats
autorize
autorn
autorota
autoroute
autoroutes
autors
autour
autra
autrament
autras
autre
autreco
autrefois
autrege
autrei
autreis
autrejat
autrement
autres
autresco
autreville
autrey
autriche
autru
autry
auts
autun
auve
auvergne
auvernha
auvernhassa
auvernhat
auvernhata
auvers
auvesera
auville
aux
auxerre
auxiliar
auxiliars
auxois
av
ava
avaient
available
avairon
avait
aval
avallon
avan
avanc
avance
avans
avant
avantatge
avantatges
avars
avatar
avc
ave
avec
avelana
avem
aven
avenc
avenguda
avenidor
aveniment
avenir
avent
aventura
aventuras
aventure
avenue
aver
avere
avertiment
avertir
avescat
avesnes
avesnois
avesque
avesques
avet
aveyron
avi
avia
aviacion
aviada
aviadament
avian
aviar
aviat
aviation
avie
avien
avienguda
avignon
avinhon
avinhonet
avion
avions
avis
avisar
avit
avitalhament
avitalhar
aviv
avo
avocat
avocats
avoine
avoir
avoisinantes
avold
avon
avortament
avranches
avre
avricourt
avril
avui
avut
aw
award
awards
ax
axe
axes
axio
axom
ay
ayant
aymard
ayrault
az
azam
azard
azay
aze
azerbaijan
azerbaitjan
azergues
azincourt
azo
azur
azərbaycan
aða
aŋ
aɫ
aɫs
aɾ
aɾi
b
ba
babilo
babilonians
baby
bac
baccarat
bach
bachelierat
bacin
bacins
back
bacon
bacqueville
bacte
bacterias
bactriana
bacus
bad
badajoz
bade
baden
badia
baez
bagdad
bagneux
bahamas
bahasa
bahia
bai
baia
baias
baie
baile
bailey
bailleul
bailli
bailliage
bailly
bains
bainville
baiona
baird
bais
baish
baisha
baissa
baissar
baisse
baix
baker
bako
bakr
bal
bala
balagne
balaguer
balalaika
balanc
balas
balcanica
balcans
balcon
baldur
bale
balear
balearas
balearic
balena
balenas
balet
balha
balhada
balhan
balhant
balhar
balhat
balhe
bali
balisa
balkan
ball
ballet
ballon
balma
balmar
balme
balne
balo
baloard
balon
baltica
baltimore
balzac
bambo
ban
bana
banal
banana
banas
banatic
banc
banca
bancari
bancas
bancs
band
banda
bandas
bande
bandie
bandora
bandurria
bane
bang
banglade
bangladesh
banh
banhada
banhar
banhat
banhe
banhs
banjo
banjolina
bank
banle
banlieue
bano
banquet
banquie
banquisa
bans
banto
bantos
bantu
bapaume
baptisme
baptista
baptiste
bar
bara
barba
barbados
barbara
barbaras
barbares
barbaria
barbarossa
barbars
barbasan
barbe
barbuise
barc
barca
barcas
barcelona
barcelone
barcilona
bard
bardo
bare
barges
bari
barnes
baron
baronia
baronnie
baronnies
barons
barquement
barr
barra
barrada
barradura
barrage
barralha
barralhas
barranc
barrar
barras
barrat
barratge
barre
barreja
barres
barret
barri
barrica
barrie
barriera
barris
barro
barrois
barry
bars
barse
bart
barta
barthe
bartolome
bartomieu
barville
bas
basa
basada
basadas
basalgas
basalt
basant
basas
basat
basats
basc
basca
bascas
basco
bascoat
bascofo
bascos
bascs
base
based
bases
basic
basica
basicament
basicas
basics
basie
basile
basili
basilica
basque
basques
basquetbo
bassa
bassas
basse
basses
bassigny
bassin
bast
basti
bastia
bastida
bastidas
bastide
bastides
bastien
bastigue
bastiment
bastiments
bastion
bastir
bastison
bastissa
bastissas
bastisson
bastit
bastits
baston
bastons
bat
bata
bataille
bataillon
batalha
batalhas
batalhier
batalhon
batalhons
bataria
bate
bategue
batejada
batejar
batejat
bates
batilly
batista
batman
baton
batre
bats
battista
battle
batuda
batudas
batulabal
batut
batuts
bauc
bauces
baud
baudoi
baudouin
bauge
baugeois
bauges
bauma
baumas
baume
bause
bautzen
bavay
bavie
bay
bayard
bayeux
bayle
bayon
bazalgues
bazeilles
bazoches
bazois
bbc
bc
bd
bdtopoc
be
beach
bear
bearn
bearne
bearnesa
beat
beate
beatles
beatritz
beau
beauce
beaucoup
beaucourt
beaufort
beaujeu
beaujolais
beaulieu
beaumont
beaune
beaupre
beauregard
beaurepaire
beauvais
beauvaisis
beauvoir
beauvoisin
beaux
bec
beck
becker
bedel
been
beethoven
beffroi
before
begin
beguda
behavior
bei
beiheft
beijing
being
bel
bela
bele
belfo
belfort
belga
belge
belgica
belgique
belgrad
belgrano
belin
belize
bell
bella
bellay
belle
bellecombe
belledonne
bellefontaine
bellegarde
belles
belleville
bellevue
belley
bello
belloy
bellum
belmont
beluga
belval
belve
belvoir
ben
bena
benda
bendas
bende
bene
benedetti
benedetto
benedictina
benefi
benefici
beneficia
benefician
beneficiar
beneficis
beneset
benestar
bengala
benin
benito
benjamin
benjamins
benle
benleu
benlhe
bennett
benoi
benoist
benoit
bens
benth
benvenguda
ber
berbe
berceau
berche
berenguie
berg
berge
berger
bergius
bergman
bergues
bering
berkeley
berlin
bernac
bernard
bernardo
bernart
bernat
bernay
berne
berneuil
bernie
bero
berri
berric
berry
bert
berter
bertin
bertomiu
bertram
bertran
bertrand
berville
bes
besanc
besbre
besie
beso
besonh
besonhs
besse
bessin
besson
bessons
best
bestial
beta
beton
between
betz
beu
beure
beutat
beuvron
beuzeville
bevenda
bevendas
bey
beynost
beyond
beɾ
bi
bia
biais
bianchi
biarn
biarne
bias
biat
bible
biblic
biblics
biblio
bibliografia
bibliographie
bibliographique
bibliote
biblioteca
bibliothe
bicarbonat
bicicleta
bicicletas
bie
bief
bieloru
bielorussia
bien
biens
big
bignon
bigo
bigorre
bihan
bila
bilan
bilanc
bilbao
bilbon
bilhets
bilingu
bill
billy
bin
bina
bingen
binominal
bio
biobi
biodiversitat
biografia
biografias
biographie
biographique
biography
biol
biologia
biologic
biologica
biological
biologicas
biologics
biologie
biologista
biology
biomassa
bioquimia
bioquimista
biosfe
bir
bird
birman
birmania
biron
bis
biscaia
bismarck
bison
bisont
bissau
bit
bitche
bits
bitti
biville
biwa
bizanci
bizantin
bizantina
bizantinas
bizantins
bjo
bl
bla
black
blackwell
blaia
blainville
blair
blaise
blake
blament
blamont
blanc
blanca
blancafo
blancas
blanchard
blanche
blanco
blancs
blangy
blanhac
blanzy
blas
blasi
blason
blasons
blast
blat
blau
blaus
blava
blavas
blaye
ble
blec
blench
bles
blesse
bleu
bleue
bli
blia
blica
bligny
blin
blindat
blindatge
blindats
blinde
blo
blocada
blocar
blocat
blocatge
blocats
bloch
blocus
blog
blois
blood
bloom
bloomington
bloque
bloquie
bloquier
blu
blue
bluegrass
blues
blum
blume
bnf
bo
board
bob
boc
boca
bocage
bocas
bocla
boda
bodisme
bodista
bodistas
bodon
body
boe
boeck
boeing
boers
bofiga
bohe
bohr
boi
boie
boiko
boiry
bois
boise
boisgontier
boismortier
boiss
boisset
boissey
boissie
boisson
boissy
bol
bola
bolas
bolchevic
bolchevics
bole
bolegar
bolero
bolet
bolets
bolh
boli
bolonha
bols
bom
bomba
bombardament
bombardaments
bombarde
bombardement
bombardements
bombardier
bombas
bombus
bon
bona
bonaparte
bonas
bonau
boncourt
bond
bones
bonet
bonheur
bonifaci
bonn
bonne
bonnet
bonneton
bonneuil
bonneval
bonnevaux
bonneville
bonnie
bono
bons
book
books
boom
bor
borbo
borbon
borbone
borbons
bord
borda
bordada
bordale
bordalesa
bordat
borde
bordeaux
border
bordes
bordie
bords
bordure
bore
borg
borgada
borge
borges
borgesa
borgeses
borgesia
borgo
borgonha
borgs
boris
born
bornat
borne
borneo
borra
borre
borsa
bos
bosc
bosch
bosco
bosinhac
boson
bosons
bosquet
bosso
boston
bot
bota
botan
botanic
botanica
botanique
botanista
botar
bote
botelha
botelhas
botiga
botigas
boton
botswana
bou
bouchard
bouche
boue
bouhans
bouille
bouillon
bouilly
bouin
boulay
boulenger
boulogne
boulonnais
bourbon
bourbonnais
bourciez
bourg
bourgade
bourgeois
bourges
bourget
bourgneuf
bourgogne
bourgoin
bourgs
bourgueil
bourguignon
bourguignons
bouriane
bourmont
bout
boutigny
boutonne
bouvier
bouxie
bouy
bouzonville
boves
bovin
bovina
bovins
bowern
box
boy
boyer
boyrie
boys
bozoki
bp
bpt
br
bra
brabant
brac
braces
bradley
braga
braganc
brageirac
brageirague
brahe
brahmi
brain
bram
bramans
bran
brana
branca
brancas
branch
branche
brandeborg
branto
bras
brasil
brasilian
brasilie
brassens
brau
braun
braux
brava
bravament
brave
bray
braye
brazil
bre
brec
breda
bren
brenne
bres
bresle
bressa
bresse
bresson
brest
bretagne
bretanha
bretel
breteuil
breton
bretona
bretonne
bretons
bretteville
breuil
brevet
brevets
brexit
bri
bria
brian
brianc
brica
bricas
brice
brick
bridge
brie
brief
brienne
brieuc
briey
briga
brigada
brigitte
brilhant
brilhanta
brill
brinho
brion
brionnais
briouze
briques
bris
brisbane
brise
brisson
brita
britain
britanic
britanica
britanicas
britanics
britannica
britanniques
british
briude
briva
bro
broa
broadway
broas
broglie
bronze
brooklyn
brooks
bros
brossa
brot
brots
brou
brown
bru
bruc
bruce
bruch
bruche
brue
bruguie
brujas
brulhe
brumaire
brumath
brun
bruna
brunas
brunehaut
brunei
brunet
bruno
brunswick
brusse
brusselles
brut
bruta
brutlar
bruxelles
bruye
bs
btv
bu
bubalus
buc
bucare
buchy
bucy
budape
budarjowa
bude
budge
budget
budys
bue
bueil
buenos
buf
bufa
bufan
bufar
buffalo
buffon
bug
bugey
building
buire
buis
buisson
bulgar
bulgara
bulgaria
bulgars
bulgne
bull
bulla
bulle
bulletin
bulletins
bully
bun
buo
bur
bure
bureau
bures
burgan
burgman
burgo
burgos
burkina
burman
burnett
burre
burs
burton
burtt
burundi
bus
busa
bush
business
buske
bussie
bussiera
bussy
bust
but
buta
butan
butar
bute
buteo
butin
butler
buts
butte
buxie
buxtehude
buxus
by
byron
bœuf
bɑ
bə
bɾa
c
ca
cabala
cabana
cabanac
cabanas
cabarde
cabaret
cabdet
cabildo
cabina
cabinet
cable
cables
cabo
cabra
cabral
cabras
cabrie
cac
cacau
caccini
cache
caco
cactus
cada
cadastre
cadavre
cadavres
cade
cadena
cadenas
cadi
cadie
cadilhac
cadis
cadore
cadors
cadre
cadun
caduna
caen
caesar
cafe
cafo
cage
cageuse
cahiers
cai
cailly
caira
cairat
caire
caireforc
caires
cairn
cairo
cais
caisha
caissa
caius
cal
cala
calabre
calais
calameo
calandreta
calava
calc
calca
calcaire
calcaires
calcari
calcaris
calci
calcita
calcul
calcula
calculada
calcular
calculs
calde
caldra
caldria
cale
caledo
calendari
calendie
calendier
calere
calgue
calhau
calia
calibre
calici
califa
califas
califat
califo
california
call
callaghan
calles
callisto
calm
calma
calmar
calme
calo
calonne
calor
calvado
calvados
calvaire
calvet
calvin
cam
cama
camare
camarga
camba
cambajon
cambaro
cambas
cambe
cambi
cambia
cambiament
cambiaments
cambian
cambiar
cambiat
cambie
cambis
cambo
cambon
cambra
cambrai
cambras
cambre
cambridge
came
camelat
camera
cameron
camille
camin
camina
caminada
caminament
caminar
camino
camins
camion
camions
camisa
camo
camomilha
camp
campa
campagne
campairo
campana
campanal
campanar
campanas
campanha
campanhas
campbell
campe
campion
campionat
campionats
campions
campo
campos
camprat
camps
campus
camus
can
cana
canaan
canaba
canada
canadenc
canadenca
canadensis
canadian
canadiana
canadiens
canal
canaletto
canals
canas
canau
canaus
canave
canberra
canc
cance
cancelie
cancelier
cancer
canche
cande
candidat
candidata
candidats
candidatura
cane
canet
cangoro
canique
canis
canne
cannes
cano
canoe
canon
canonge
canonic
canons
cans
cansar
cant
canta
cantada
cantaira
cantaire
cantaires
cantal
cantalausa
cantan
cantar
cantat
cantautor
cantautora
cante
cantigas
canto
canton
cantonal
cantonala
cantonau
cantons
cantor
cants
cao
caors
cap
capa
capabla
capablas
capable
capables
capacitat
capacitats
cape
capelan
capella
capellanus
capelle
capi
capita
capitada
capitaine
capital
capitala
capitalas
capitale
capitalisme
capitalista
capitalistas
capitals
capitan
capitani
capitar
capitat
capitau
capite
capito
capitulacion
capitular
capitule
caplo
capluo
cappella
capra
caprais
caprici
caps
capsula
captar
captaus
captivitat
captors
captura
capturar
capturat
capturats
capture
caput
capvath
capvirar
capvirat
car
cara
caracas
caracte
caracteristic
caracteristica
caracteristicas
caracteristics
caracteristiques
caracteriza
caracterizada
caracterizadas
caracterizan
caracterizar
caracterizat
caracterizats
caragiu
caramanh
caras
caravaggio
caravana
carbo
carbon
carbona
carbonat
carbonats
carbonell
carbonic
carburant
carcasse
carcassona
carcassonne
carcin
carcino
carcoforo
cardenal
cardiac
cardiaca
cardinal
cardinals
cardinau
cardona
care
carelian
carestia
carga
cargada
cargadas
cargament
cargar
cargas
cargat
cargats
cargue
carhaix
cariba
carignan
caritat
carl
carla
carles
carlesmanhe
carlo
carlos
carlyle
carmauc
carme
carmen
carmes
carn
carnaval
carnegie
carnivo
carnot
caro
carol
carolina
caroline
carolingian
carolingiana
carolingien
carpats
carpinus
carrada
carradas
carrat
carrats
carre
carrefour
carri
carrie
carriera
carrieras
carris
carro
carrouges
cars
cart
carta
cartage
cartagena
cartagine
cartaginesa
cartagineses
cartas
carte
carter
cartes
carthage
cartier
cartografia
carton
carts
cartulaire
cartulari
carville
cas
casa
casablanca
casals
casas
casau
casaus
cascada
cascadas
casco
case
caseriu
caserius
cases
cash
cashmir
casimir
casino
caspiana
casqueta
cass
cassacion
cassanha
casse
cassel
casses
cassini
cast
casta
castagniccia
castan
castanet
castanh
castanha
castas
caste
castel
castelana
castelar
castelet
castelha
castelhan
castelhana
castelhans
castell
castella
castellers
castello
castellum
castelnau
casterar
castig
castigar
castigat
castilhon
castilhone
castillo
castillon
castrale
castras
castri
castro
castrum
casuda
casudas
cat
cata
catala
catalan
catalana
catalanas
catalanes
catalanisme
catalanista
catalans
catalo
catalogue
catalonha
catalunya
catar
catara
catarina
catarisme
catars
catastro
cate
catedrala
catedrau
categoria
categorias
caterina
cathare
cathe
catherine
catholic
catholique
catillon
cations
cato
catocantas
catolic
catolica
catolicas
catolicisme
catolics
caton
catorze
cats
cau
cauc
cauca
caucasencas
caucho
cauchy
caud
cauda
caudas
caudebec
caudie
cauds
caufar
caufatge
cauhar
caulet
cauma
caumas
caumatge
caumont
cauna
caunas
caus
causa
causada
causadas
causalitat
causant
causar
causas
causat
causats
cause
causeish
causes
causi
causida
causidas
causigue
causir
causisson
causit
causits
causse
causses
caux
cava
cavada
caval
cavalaria
cavaleria
cavalie
cavalier
cavaliers
cavals
cavaments
cavar
cavat
cavau
cavaus
cave
caves
cavilha
cavitat
cavitats
cavo
cazacstan
cbs
cc
cci
cd
cdot
cdots
ce
ceba
ceci
cedi
cedir
cedit
cedric
cee
cef
cei
ceilan
cel
cela
cele
celebracion
celebracions
celebrada
celebrant
celebrar
celebrat
celebre
celebritat
cell
cella
celle
celles
cellula
cellular
cellulara
cellulas
cellulo
celsius
celta
celte
celtes
celtic
celtica
celtics
celtique
celtiques
celui
cembre
cemente
cemite
cemment
cen
cencha
cendre
cendres
cens
censat
censor
censura
census
cent
centaine
cente
centena
centenari
centenas
centenat
centenats
centenau
centenaus
center
centime
centolh
centra
centrada
central
centrala
centralas
centrale
centralizacion
centralizat
centralizator
centrals
centrat
centrats
centrau
centraus
centre
centres
centri
centro
cents
centura
century
cependant
cer
cera
ceramica
ceramicas
cerca
cercaire
cercaires
cercan
cercant
cercar
cercat
cercava
cercle
cercles
cerda
cerdanha
cerealas
cerebrala
ceremo
ceremonia
ceremonias
ceres
cerf
cerie
cerisy
cernay
cerne
cerny
cerque
cert
certa
certain
certaine
certainement
certaines
certains
certan
certana
certanas
certanei
certaneis
certans
certificat
certitud
cervantes
cerve
cervie
cervus
ces
cesana
cesar
cesare
cessa
cessaire
cessar
cesse
cession
cet
cetace
cetara
cette
ceucle
ceuta
ceux
cevenas
ceveno
cf
cg
ch
cha
chabar
chablais
chablis
chac
chacun
chad
chadic
chadica
chafo
chafrat
chafre
chah
chaha
chai
chailly
chain
chaise
chal
chalais
chalamont
chalaronne
chale
chalencon
chalm
chalon
chaman
chamans
chambe
chambellan
chambon
chambord
chambra
chambradoc
chambras
chambre
chament
chamin
chamine
chamonix
champ
champagne
champanha
champanhac
champe
champeaux
champey
champigny
champion
champs
champsaur
chan
chanc
chance
chang
change
changement
changements
changes
changeur
changy
chanoine
chanoines
chanson
chansons
chant
chantal
chante
chanteloup
chantemerle
chantier
chantiers
chants
chanvre
chap
chape
chapela
chapelle
chapelles
chapitre
chaple
chaples
chaplin
chapluec
chapluo
chapman
chappe
chapter
chapusar
chaque
char
charango
charanta
charantas
charbon
charbonnie
chardin
charente
charge
charite
charlemagne
charleroi
charles
charleville
charlie
charlotte
charly
charme
charmes
charmois
charmont
charnay
charnie
charny
charolais
charolles
charpentier
chars
charte
chartes
chartres
chartreuse
chartsinfrance
chas
chase
chasse
chasseurs
chassey
chaste
chastel
chasteu
chat
chateau
chau
chaudenay
chaume
chaumes
chaumont
chauny
chausida
chausigue
chausir
chausit
chausse
chaussy
chauve
chauvency
chaux
chavana
chavanas
chavanhac
chavannes
chazelles
che
checoslovaquia
chef
chelle
chelles
chemical
chemille
chemin
cheminots
chemins
chemistry
chen
chenay
chequia
cher
cherbourg
chercher
ches
chesne
chet
cheurs
cheval
chevalier
chevaliers
chevannes
chevaux
chevigny
chevrie
chevry
chez
chi
chiang
chic
chicago
chico
chicourt
chief
chien
chiers
chiffres
chifra
chifras
chifre
chifres
chiisme
chiitas
child
children
chile
chilen
chilena
chilly
chimpanze
chin
china
chine
chinesa
chinesas
chinese
chineses
chinon
chiny
chipre
chirac
chis
chivalier
chivaliers
chivau
cho
choa
chocolat
choiseul
choisy
choix
chole
cholet
choses
chouans
chre
chris
christ
christian
christiane
christianisme
christine
christmas
christoph
christophe
christopher
chronique
chroniques
chs
chu
chubanshe
chuc
church
churchill
chute
chy
chło
chœur
ci
cia
cial
cian
cians
cianur
cias
cibernetica
cibla
ciceron
cicle
cicles
ciclisme
ciclista
ciclo
cicne
cid
cide
cidtexte
cie
ciel
ciers
cies
cigala
cile
cili
cilindre
cilindrica
cima
cimas
cime
ciment
cimetie
cinc
cincinnati
cine
cineasta
cinema
cinematografic
cinematografica
cinetica
cinq
cinquanta
cinquante
cinquantena
cinquen
cinquena
cinquie
cinta
cio
cion
cipre
cir
circ
circonfere
circonscripcion
circonscripcions
circonscriptions
circonsta
circourt
circuit
circuits
circula
circulacion
circulan
circular
circulara
circulation
circus
cirdo
cirenai
cirey
cirgue
cirillic
cirurgia
cirurgian
cis
cise
cision
cisjordania
cisme
cisse
ciste
cistercienne
cistre
cit
cita
citacion
citacions
citada
citadas
citadelle
citan
citar
citara
citat
citation
citats
cite
cites
cities
citron
cits
citta
city
ciudad
ciutadan
ciutadana
ciutadanetat
ciutadans
ciutade
ciutadina
ciutat
ciutats
civada
civic
civics
civil
civila
civilas
civile
civilisation
civilizacion
civilizacions
civilization
civils
civitas
civiu
civius
civry
ck
cl
cla
clad
clair
clairac
claire
clairvaux
claix
clamecy
clamenc
clan
clandestin
clans
clar
clara
clarac
clarament
claras
clare
clarence
clarineta
clark
clarke
clarmont
clars
class
classa
classada
classadas
classament
classar
classas
classat
classats
classe
classes
classic
classica
classical
classicas
classics
classificacion
classificacions
classificada
classificadas
classificar
classificat
classification
classificats
classique
clastras
clau
claude
claudi
claudio
claus
clausa
clausas
clausula
clausura
clave
clavecin
clavelada
clavie
cle
clemenc
clemencic
clement
cleopatra
clergat
clerge
clerk
clermont
clerval
cles
cleveland
clicant
clicatz
client
cliente
clients
clifford
clima
climas
climat
climate
climatic
climatica
climaticas
climatics
clin
clinat
clinica
clinton
clio
cliron
clo
cloche
clocher
clodove
cloi
cloquie
cloridric
clorur
clos
close
cloud
clovis
club
clubs
clunhic
cluny
cluse
cluses
cm
cn
cnrs
cnrtl
cnt
co
coa
coalicion
coalizats
coan
coast
coat
cobalt
cobe
cobertura
coble
cobri
cobrint
cobrir
cobrissent
cobrissia
cobrisson
coca
cocanha
coco
cocteau
cocut
code
codex
codificacion
codonh
coe
coeficient
coeficients
coemperaire
coere
coerent
coesion
coeur
coexiste
cog
cogle
cognitiva
cognomen
cogorda
cohen
cohn
coi
coide
coimbra
coin
coire
coise
col
cola
colar
colbert
colchicum
cole
coleopte
coles
colestero
coligny
colin
coll
collaboracion
collaborar
collaboration
collaborator
collaborators
collabore
collation
colle
colleccion
colleccions
collectar
collectif
collection
collections
collectiu
collectius
collectiva
collectivas
collectivitat
collectivitats
college
collier
colline
collines
collins
collision
collonges
colloque
colmar
colo
cologie
coloma
colomb
colomba
colombe
colombie
colombier
colombiers
colome
colomna
colomnas
colon
colona
colonas
colonel
colonha
colonia
colonial
coloniala
colonialas
colonialisme
colonias
coloniau
coloniaus
colonie
colonies
colonizacion
colonizar
colonne
colons
color
coloracion
colorado
colorant
colorants
colors
colpable
columbia
com
coma
comanche
comanda
comandada
comandament
comandaments
comandant
comandar
comandaria
comandas
comandat
comandats
comande
comarca
comarcas
comba
combas
combat
combate
combatent
combatents
combatre
combats
combe
combes
combina
combinant
combinar
combinason
combinasons
combinat
comble
combray
combustible
combustibles
combustion
come
comedia
comedian
comedians
comenc
comence
comenge
comentari
comentaris
comerc
comerci
comercial
comerciala
comercialas
comercializacion
comercializat
comercials
comerciau
comerciaus
comes
comestible
cometa
cometas
cometre
comic
comica
comics
comissari
comission
comissions
comitat
comitats
comite
commandant
commande
commandement
commanderie
comme
commedia
commenc
commence
commencement
comment
commentaire
commerce
commerces
commercial
comminges
commission
committee
common
commons
commonwealth
commun
communal
communale
communales
communautat
communaute
communaux
commune
communes
communication
communications
communis
community
commutatiu
comne
como
compa
compacta
compacte
compagnie
companh
companha
companhia
companhon
companhons
companhs
companion
company
compara
comparabla
comparable
comparada
comparar
comparason
comparat
comparatiu
comparativ
comparative
compare
compassion
compatible
compausa
compausada
compausadas
compausan
compausant
compausanta
compausantas
compausants
compausar
compausat
compausats
compausava
compause
compe
compenha
compensacion
compensar
compete
competent
competicion
competicions
compie
compilacion
comple
complement
complementa
complementari
complementaris
complet
completa
completada
completament
completar
completas
completat
complete
complexe
complexitat
compli
complicacions
complicada
complicar
complicat
compliment
complir
complit
complo
compo
comportament
comportaments
comportant
comportar
comportava
comporte
compose
composicion
composicions
composition
compositor
compositora
compositors
composte
comprar
compre
comprehensive
compren
comprenait
comprenant
comprend
comprendre
comprene
comprenenc
comprenent
compreneson
comprengue
comprenia
comprenon
compres
compresa
compresas
compreses
compression
compris
comprome
compromi
compta
comptable
comptadors
comptait
comptan
comptant
comptar
comptava
compte
compter
comptes
compton
computer
comtal
comtat
comtats
comte
comtes
comtessa
comtesse
comun
comuna
comunal
comunala
comunament
comunas
comunau
comunauta
comunautari
comunautat
comunautats
comune
comuni
comunica
comunicacion
comunicacions
comunicar
comunion
comunisme
comunista
comunistas
comunitat
comunitats
comuns
con
conca
concas
conce
concebe
concebre
concebuda
concebut
concebuts
concedir
concedit
concentra
concentracion
concentracions
concentrada
concentran
concentrar
concentrat
concentrats
concentre
concepcio
concepcion
concepcions
concept
concernant
concerni
concert
concerto
concertos
concerts
concession
concessions
conches
concili
conciliar
concilis
concise
conclugue
conclure
conclusion
conclusions
concluson
conclutz
conco
concordat
concors
concours
concre
concret
concurre
concurrent
concurrents
condamnacion
condamnar
condamnat
condamnats
condamne
condat
conde
condemnat
condemnats
condensacion
condes
condicion
condicionada
condicional
condicionat
condicionau
condicions
condiment
condition
conditions
condo
condorcet
conduch
conducha
conductor
conductors
conduire
conduit
cone
conego
coneguda
conegudas
conegue
conegut
coneguts
coneis
coneish
coneishe
coneishenc
coneishuda
coneishut
coneisse
coneissenc
coneisser
coneissia
coneisson
coneissut
confe
confederacion
confederats
confere
conference
conferi
confession
confessions
confia
confiat
confie
configuracion
confins
confirma
confirmacion
confirmada
confirmant
confirmar
confirmat
confirme
confisque
conflans
conflent
conflicte
conflictes
conflit
conflits
conflue
confluence
confluent
confluisson
confo
confolonte
confond
confondre
confondut
conformitat
confre
confronta
confrontacion
confucianisme
confusion
confusions
conge
congelacion
congo
congre
congregacion
congress
conhat
coni
conica
conifa
conife
conilh
conjugason
conjunt
connai
connais
connaissance
connait
conne
connectant
connectar
connectat
connectava
connecticut
connexion
connexions
connor
connu
connue
connut
cono
conogue
conoi
conoissenc
conomie
conomique
conomiques
conque
conquerir
conquista
conquistada
conquistadas
conquistador
conquistadors
conquistaire
conquistar
conquistas
conquistat
conquiste
conrad
cons
consacra
consacrada
consacrar
consacrat
consacrats
consacre
consagrada
consagrat
conscie
conscience
conscient
conscienta
conscripcion
conse
consecutius
conseil
conseiller
conselh
conselha
conselhe
conselhie
conselhier
conselhiers
conselhs
consens
consensus
consentiment
conseque
consequent
conserva
conservacion
conservada
conservadas
conservador
conservadors
conservant
conservar
conservat
conservation
conservatisme
conservato
conservator
conservators
conservatritz
conservats
conserve
conseu
conside
considera
considerabla
considerablament
considerablas
considerable
considerables
consideracion
consideracions
considerada
consideradas
consideran
considerant
considerar
considerat
considerats
considerava
consideravan
considere
consiste
consistent
consisti
consistissent
consistissia
conso
consolidacion
consolidar
consomacion
consomar
consomator
consomators
consonanta
consonantas
consort
consortium
conspiracion
constanc
constant
constanta
constantas
constantin
constantino
constata
constatar
constate
constellacion
constellacions
constitucio
constitucion
constitucional
constitucionala
constitucionalas
constitucionalitat
constitucions
constitue
constituent
constituenta
constituents
constitui
constituida
constituidas
constituigue
constituir
constituissent
constituissi
constituissia
constituisson
constituit
constituits
constitution
constitutionnel
constrencha
constrenchas
construccion
construccions
construch
construcha
construction
constructions
constructor
construgue
construire
construit
construite
construites
construits
construrre
consul
consulat
consulta
consultable
consultacion
consultada
consultar
consultat
consultatiu
consultatz
consulte
consumacion
conta
contact
contacte
contactes
contada
contaire
contaminacion
contan
contant
contar
contat
conte
contemporaine
contemporane
conten
contenant
contencio
contenent
contenguda
contengut
contenguts
contenia
contenir
contenon
content
contentar
contente
contenus
contes
contestacion
contestada
contestar
contestat
conteste
conteville
contextual
contigu
continent
continental
continentala
continentalas
continentau
continents
contingent
contingents
contingut
continu
continua
continuament
continue
continuitat
continuum
contorn
contorns
contra
contrabassa
contraccion
contractar
contractat
contracte
contractes
contradiccion
contradiccions
contradicto
contrafo
contrape
contrar
contrari
contrariament
contraris
contraro
contrarotlada
contrarotlar
contrarotlat
contraste
contre
contrebas
contreforts
contribucion
contribucions
contribue
contribui
contribuigue
contribuir
contribuisson
contribuit
contribution
contributions
contro
control
controve
contunh
contunha
contunhan
contunhar
contunhava
contunhe
contunia
contuniar
contunie
conve
conven
convenc
convencion
convencional
convencionala
convencions
convencut
convenir
convent
convention
converge
conversacion
conversion
conversions
converti
convertigue
convertir
convertit
convertits
conviccion
conviccions
convidat
convo
convocar
convoque
cook
coope
cooper
cooperacion
cooperativa
coordenadas
coordinacion
coordonadas
cop
copa
copable
copada
copar
copas
copat
cope
copenaga
copernic
copia
copiar
copiat
copo
coptic
copyright
coq
cor
coralh
coratge
corau
corb
corba
corbadura
corbas
corbe
corbeil
corbie
corbon
corcelles
corde
cordon
cordura
core
corean
coreana
corelli
coriandre
corint
coriolis
cormeilles
corne
corneille
cornelius
cornell
cornet
cornic
cornillon
cornimont
cornouaille
cornus
coro
coromines
corona
coronada
coronament
coronas
coronat
corone
coronha
corporal
corporala
corporation
corps
corpus
corre
correccion
correccions
corredor
corregir
correguda
correja
corrent
correnta
correntament
corrents
corresa
correspo
correspon
correspond
corresponde
correspondent
correspondenta
correspondentas
correspondents
correspondia
correspondon
correspondre
corrie
corrosion
corrupcion
cors
corsa
corsari
corsaris
corsas
corse
corsega
corses
corsica
cort
corta
cortas
corte
cortesia
corteta
corts
corve
corvus
cos
cosa
cosco
coserans
coseson
cosin
cosina
cosinas
cosinie
cosme
cosmic
cosmologia
cosmos
cosne
cosse
cossi
cosson
cost
costa
costalats
costat
costats
coste
costie
costo
costosa
costum
costuma
costumas
costumie
costums
cot
cote
coteau
coteaux
cotentin
coton
cou
couche
coucy
coudray
coudre
couesnon
coulanges
coule
couleur
couleurs
coulombs
coulonges
council
country
county
coup
coupage
coupe
couperin
cour
courant
courcelles
courcy
couronne
cours
course
courson
court
courte
courtenay
courtes
courtois
courville
cousin
couture
couvent
couvert
couverte
couvertes
couverts
couvrant
couvre
couvrir
cox
cp
cr
cra
craba
craco
craie
craiova
cran
cranc
crane
crani
crans
craon
cras
crassus
crasville
crataegus
crate
crau
cravant
crayeuse
cre
crea
creacion
creacions
creada
creadas
creador
crean
creant
crear
creat
creation
creatiu
creativitat
creator
creatritz
creats
creatura
creaturas
creatures
creatz
credit
cree
creek
crei
creire
creis
creisse
creissement
creissenc
creissent
creissenta
creisson
crema
cremada
cremar
cremat
cremats
cremona
crenicichla
crenta
creo
cres
cresenc
cresent
cresents
cresia
creson
crespin
cresque
crest
cresta
crestian
crestiana
crestianas
crestianisme
crestians
cret
creta
cretace
cretaceous
creuse
creux
cri
cric
crida
cridar
cridat
cride
crim
crime
crimes
criminal
criminala
criminalitat
criminals
crin
crion
cripta
criquetot
crire
crise
crisi
crisis
crist
cristal
cristallin
cristallizacion
cristallizat
cristals
cristau
cristaus
cristian
cristianisme
cristina
cristo
crit
crite
critic
critica
criticada
critical
criticar
criticas
criticat
critics
critique
crits
criture
crivain
cro
croa
croat
croata
croats
crocodil
croisade
croise
croisement
croisilles
croissance
croix
crom
cromoso
crompa
crompaire
crompar
crompat
crompe
cronica
cronicaire
cronicas
cronologia
cronologic
cronos
cropole
cros
crosada
crosadas
crosaire
crosaires
crosament
crosat
crosats
croses
crosiera
cross
crosta
crotz
crouy
crow
crowley
crown
croy
cru
crude
cruesa
crus
crustace
cruz
cs
ct
cta
ctament
ctan
ctas
cte
ctenent
ctes
cths
ctor
ctre
ctres
cts
cu
cuatro
cuba
cuban
cubana
cube
cubic
cuc
cue
cuenca
cuer
cuert
cuerta
cuertas
cui
cuirassat
cuirassats
cul
culex
culheires
culhida
culhidas
culhie
culhir
culina
culmina
culminant
culmine
culmini
culpabilitat
culs
cult
culta
culte
cultes
cultiva
cultivada
cultivadas
cultivar
cultivars
cultivat
cultivats
cultive
cultura
cultural
culturala
culturalament
culturalas
culturals
culturas
culturau
culturaus
culture
culturel
cultures
cum
cup
cupe
cura
curacio
curar
curat
curcuma
curdistan
cure
curia
curie
curio
curiosament
curiositat
curite
current
curtis
curzon
cus
cusco
cusson
cussy
custer
cut
cutane
cute
cution
cuverville
cuvette
cuvier
cuyer
cy
cycle
cyprien
cyr
cœur
d
da
dab
dabans
dabo
dacs
daction
dada
dagobert
daguestan
dahomey
dai
daient
daily
daire
daissa
daissada
daissan
daissant
daissar
daissat
daisse
dait
dakar
dakota
dal
dala
dalai
dale
dalfin
dalhar
dali
dalits
dall
dallas
dalma
dam
dama
damas
damasc
damatge
damatges
damatjar
damb
dambe
dame
dames
damian
dammarie
dammartin
dampierre
dan
danc
dance
dane
danemarc
danesa
dangie
dangiero
dani
danie
daniel
dannemarie
dans
danse
dant
dante
danubi
dapasset
dar
dard
dare
darfor
dari
dark
darney
darre
darrie
darrier
darriera
darrierei
darriereis
darriers
darwin
das
dat
data
database
datacion
datada
datadas
datan
datant
datar
datas
datat
datats
date
daten
datent
dates
datiu
dats
dau
daufin
daufinat
dauna
dauphin
dauphine
daurada
daurat
daus
dauzat
davala
davalada
davalant
davalar
davancie
davant
dave
david
davies
davis
davy
dawkins
dawn
day
days
daɾ
db
dc
de
dead
dean
death
debana
debanament
debanan
debanant
debanar
debane
debans
debat
debats
debit
debout
debre
debut
debuta
debute
dec
deca
decade
decas
dece
december
decembre
deceme
decenni
decennia
decennias
decennis
decernit
decibe
decide
decidi
decidida
decidigue
decidir
decidisson
decidit
decimal
decimala
decin
decine
decision
decisions
decisiu
decisiva
declara
declaracion
declaracions
declarada
declarant
declarar
declarat
declare
declin
declinar
declinason
decline
deco
decoracion
decoracions
decoratiu
decouvrez
decre
decret
decreto
decrets
dedal
dedicada
dedicadas
dedicat
dedicats
dedins
deduire
deep
defaut
defend
defende
defendon
defendre
defenduda
defendut
defensa
defensas
defensiu
defensiva
defensivas
defensor
defensors
deficit
defini
definicion
definicions
definida
definidas
definigue
definir
definisson
definit
definition
definitiu
definitiva
definitivament
definits
deflacion
defo
deformacion
defugir
defunt
defunta
defuntat
defunte
degalhs
degli
degradacion
degre
deguda
degudas
degue
degun
degut
deguts
dehens
deho
dei
deimos
deis
deishar
deishe
deja
dejo
del
dela
delai
delamarre
delaware
delegacion
delegada
delegadas
delegat
delegats
delh
delhi
deliberacion
delicat
delicte
delictes
delimita
delimitacion
delimitat
dell
della
delle
delme
delos
dels
delta
deluvi
dem
demai
deman
demanda
demandada
demandan
demandant
demandar
demandas
demandat
demandava
demande
demandi
deme
demeni
demenicion
demenigue
demenir
demenit
demest
demete
demeure
demi
demission
demissionar
demissione
demo
democracia
democrata
democratas
democratic
democratica
democraticas
democratizacion
demografia
demografic
demografica
demograficas
demonstracion
demora
demorada
demoradas
demoran
demoranc
demorant
demorar
demorara
demorat
demorats
demorava
demoravan
demore
demostracion
demostrada
demostrar
demostrat
demostre
dempu
dempue
dempuei
dempui
dempuish
den
dene
dengue
deni
deniers
denis
dennis
deno
denominacion
denominacions
denominator
denonciar
denoncie
dens
densa
dense
densitat
densite
dent
dents
departament
departamental
departamentalas
departaments
departement
department
depaus
depausar
depausat
depauses
depe
depen
depend
depende
dependent
dependenta
dependentas
dependia
dependon
depinta
depintant
depintar
depinte
deportacion
depression
depressions
dept
depue
depuis
deputada
deputat
deputats
der
dera
deras
derek
deribat
deriva
derivacion
derivada
derivadas
derivan
derivar
derivat
derivats
dernie
dernier
derniers
derrida
derrie
ders
des
desaco
desapare
desapareguda
desaparegue
desaparegut
desapareguts
desapareis
desapareisson
desaparicion
desarmament
desastre
desbarcament
desbarcar
desbarque
desbocadura
desbranda
descarga
descargar
descartes
descend
descendant
descendants
descende
descendent
descendents
descentralizacion
descentralizada
descobe
descobri
descobrigue
descobrir
descomposicion
desconeguda
desconegudas
desconegut
desconeguts
descreissenc
descrich
descricha
descrichas
descrigue
descripcion
descripcions
description
descriptive
descrit
descriu
descriure
descrivent
descrivon
descube
descubrir
descurbigue
desde
dese
desembre
desempuish
desen
desena
desenant
desenas
desenau
desenaus
desert
desertic
desfach
desfacha
desfachas
desfachs
desfar
desi
design
designa
designacion
designada
designan
designant
designar
designat
designats
designava
designe
desine
desintegracion
desir
desira
desirada
desiranc
desirar
desirat
desirava
desire
desiro
desirs
desligat
desliuranc
desliurar
deso
despacha
desparie
despart
despartida
despartir
despartit
despassa
despassar
despend
despens
despensa
despensas
despiech
desplac
desplace
despo
desprovesit
despue
despuei
despuish
desse
dessenh
dessenha
dessenhada
dessenhadas
dessenhaire
dessenhar
dessenhat
dessenhe
dessenhs
dessepara
dessert
desservi
desservida
desservie
dessota
dessous
dessu
dessus
destaca
destacada
destacan
destacar
destacat
destaque
destillacion
destin
destinacion
destinada
destinadas
destinat
destinats
destine
destitucion
destituit
destria
destriadas
destriament
destrian
destriar
destriat
destrie
destroie
destruccion
destruccions
destruch
destrucha
destruchas
destruchs
destruction
destructions
destructor
destrugue
destrui
destruida
destruir
destruire
destruit
destruits
destrurre
desvelopa
desvelopament
desvelopar
desvelopat
desvelope
desviament
desviar
desvolo
desvolopa
desvolopada
desvolopadas
desvolopament
desvolopaments
desvolopan
desvolopar
desvolopat
desvolopats
desvolope
det
detail
detalh
detalhada
detalhat
detalhats
detalhs
dete
deteccion
detectar
deten
detencion
determina
determinacion
determinada
determinadas
determinan
determinant
determinar
determinat
determinats
deth
deths
detla
detlas
detlo
detlos
detriment
detroit
dets
detz
deu
deuant
deura
deuria
deus
deute
deutes
deutsch
deutsche
deutschen
deutsches
deux
deuxie
devaient
devait
devant
devath
deve
development
deven
devengue
devengut
devenir
devent
devenu
devenue
dever
devers
devesi
devesida
devesidas
devesigue
devesir
devesit
devesits
devia
deviendra
devient
deville
devint
devisa
devisas
devo
devocion
devon
di
dia
diabe
diable
diables
diacritic
diacritics
diaghilev
diagnostic
diagonala
diagrama
diale
dialect
dialectal
dialectala
dialectales
dialecte
dialectes
dialectica
dialectologia
dialects
dialo
diamant
diamants
diame
dian
diana
diane
diari
dias
diaspora
dic
diccionari
diccionario
diccionaris
dich
dicha
dichas
diches
dichs
dicitur
dick
dickens
dico
dicod
dicodoc
dicotopo
dict
dictator
dictatura
dicte
dictin
dictine
dictins
dictionary
dictionnaire
did
diderot
didier
die
diego
dieppe
dies
dieta
dietrich
dieu
dieus
dieux
dieuze
dife
difere
diferenciacion
diferenciar
diferent
diferenta
diferentas
diferentei
diferenteis
diferents
diferi
diffe
diffusion
difice
dificil
dificila
dificilament
dificilas
dificils
dificultat
dificultats
difie
difier
difteria
diftong
diftongue
difusa
difusada
difusar
difusat
difuse
difusion
dige
digerir
digestion
digestiu
digestius
digital
diglossia
digna
dignano
digne
dignitat
digue
dijo
dijon
dik
dilatacion
dile
dilhe
diluns
dimanche
dimars
dime
dimenge
dimenjada
dimension
dimensions
diminucion
diminui
diminuir
diminutiu
diminutiva
din
dina
dinamic
dinamica
dinamicas
dinamisme
dinan
dinastia
dinastias
dinc
dine
ding
dingo
dinguirard
dinha
dinosaure
dinosaures
dinosaurs
dins
dintra
dintrada
dintradas
dintran
dintrar
dintrat
dintratz
dintre
dio
dioce
dioclecian
diodo
dioge
dion
dioni
dios
dioxid
dioxige
diplo
diplomacia
diplomat
diplomata
diplomatic
diplomatica
diplomaticas
diplomatique
dir
dira
dire
direccion
direccions
direct
directament
directe
directement
direction
directiva
directivas
director
directors
directory
directritz
dirige
dirigent
dirigents
dirigi
dirigida
dirigidas
dirigigue
dirigir
dirigissia
dirigit
dirigits
dis
disc
disci
disciple
disciples
disciplina
disciplinas
disco
discors
discours
discovery
discre
discriminacion
discriminacions
discriminant
discs
discussion
discussions
discutida
discutir
dise
disease
disen
disent
disi
disia
disney
dison
dispare
dispareguda
disparegue
disparegut
dispareishut
disparicion
disparie
disparu
dispausa
dispausadas
dispausan
dispausant
dispausar
dispausat
dispausats
dispausava
dispausavan
disperse
dispersion
displaystyle
disponibilitat
disponibla
disponiblas
disponible
disponibles
dispose
disposicion
disposicions
dispositiu
dispositius
disputa
dispute
disques
dissabte
disse
dissimilacion
disso
dissolgut
dissolucion
dissuasion
dista
distanc
distance
distances
distant
distante
distinccion
distincion
distincions
distincte
distinctes
distingue
distingui
distinguir
distinguisson
distinta
distintas
distints
distribucion
distribui
distribuir
distribution
district
districte
districtes
districts
dit
dita
dite
diterrane
diteur
dition
ditions
dits
ditz
diu
diue
diuerses
diuersi
dius
diva
divali
dive
divendres
diverge
divers
diversas
diverses
diversificacion
diversificada
diversificar
diversitat
diversite
diversity
divertiment
divertir
dives
divesa
divessa
dividi
dividida
dividir
dividit
divin
divina
divinas
divinitat
divinitats
divisa
divisada
divisat
divise
division
divisions
divisit
divo
dix
dixon
dizaine
dizier
dizionario
dizioner
dj
dja
dl
dlja
dnie
do
doa
doana
doanas
doanie
doas
dobe
dobertura
dobla
doblar
doblas
doble
dobles
dobri
dobrigue
dobrir
dobs
dobtar
dobte
dobtes
dobtosa
doc
doccitania
doces
docplayer
docteur
doctor
doctorat
doctrina
doctrinas
document
documentacion
documentari
documentat
documentation
documents
dog
doi
dois
doit
dol
dolar
dolars
dole
dolent
dolmen
dolor
dolors
dols
dom
doma
domaine
domaines
domaise
domaniale
domart
domat
dombasle
dombes
dombrot
dome
domenge
domeni
domenico
domenis
domergue
domestic
domestica
domesticacion
domesticas
domestics
domfront
domi
domicili
domina
dominacion
dominada
dominan
dominant
dominanta
dominantas
dominants
dominar
dominat
dominava
dominavan
domine
domingo
domini
dominica
dominican
dominicana
dominicans
dominique
domino
dominus
dommartin
domowina
dompaire
dompierre
domra
domus
don
dona
donacion
donada
donadas
donald
donan
donant
donar
donara
donaria
donat
donation
donats
donava
donavan
donc
doncas
doncourt
donde
done
dong
donjon
donna
donnant
donne
donnees
donner
donques
dons
dont
donzy
dopamina
dor
dordogne
dordonha
dore
dorgali
dormir
dorothy
dorsala
dorsalas
dos
dossie
dossier
dot
dotada
dotadas
dotar
dotat
dotats
dote
dotze
dotzena
dou
douai
douard
douaumont
double
doubs
douce
doue
douglas
douleur
doute
douves
douville
doux
douze
dover
down
download
doyen
doyenne
doɾ
dq
dr
dra
drac
dragon
dragons
draguinhan
drake
drale
dralha
drama
dramas
dramatic
dramatica
dramaturg
drape
dre
dream
drech
drecha
drechas
dreches
drechs
dreit
dreita
dreits
dresse
dret
dreta
drets
dreux
drevne
dreyfus
drive
dro
droit
droite
droits
droma
drouais
droz
druida
dry
ds
dt
du
dual
dualitat
duas
dub
dubai
dube
dubertura
dublin
dubois
dubreuil
dubrigue
dubrir
duc
ducat
ducation
ducats
duchar
duche
duchesse
duck
ducs
due
dues
duke
dulcimer
dumas
dume
dumont
dumort
dun
dunas
duncan
dune
dunod
dunois
dunque
dunum
duo
duperray
dupont
dupuy
dur
dura
durabla
durable
durada
duradas
durament
duran
durand
durant
durar
duras
durban
durbir
dure
durenc
durengues
duretat
during
durs
dury
dus
dusau
dut
dvd
dy
dynamics
dynasty
dz
dza
dɑ
dɔ
də
dɪ
e
ea
eanu
early
earth
east
eastern
eau
eaux
eb
ebrai
ebre
ebrieu
ebrieus
ebullicion
ec
eca
eccl
eccle
ecclesia
ecclesiam
ecclesie
eclesiastic
eclesiastica
eclesiastics
eclipsi
ecliptica
eco
ecologia
ecologic
ecologica
ecologics
ecologie
ecologista
ecology
econo
economia
economias
economic
economica
economicament
economicas
economics
economista
economistas
economy
ecosiste
ecozo
ecran
ecrans
ectara
ectaras
ectot
ecumenic
ed
edat
edats
ede
edgar
edi
edicio
edicion
ediciones
edicions
edicte
edificacion
edifici
edificis
edimborg
edip
edison
editada
editat
edited
edition
editions
editor
editorial
editors
editura
edizioni
edmond
edmund
edo
edoard
edouard
eds
edu
eduard
eduardo
educacion
educat
education
educatiu
edvard
edward
edwards
edwin
ee
eer
efe
efectiu
efectius
efectiva
efectivament
efectuar
efeme
effect
effects
effectue
effet
eficac
eficacitat
efie
efiech
efiechs
efloras
egal
egala
egalament
egalas
egalitat
egals
egau
egaument
ege
egemonia
egipcian
egipciana
egipcianas
egipcians
egipte
egiptolo
egleisa
eglise
ego
egoi
egypte
eh
ehess
ei
eiffel
eigenmann
eila
ein
eine
einstein
eiretat
eiretatge
eirete
eiretie
eiretier
eiretiers
eis
eissida
eissidas
eissiduelh
eissit
eissits
eixample
ej
ek
eki
el
ela
elaboracion
elaborada
elaborar
elaborat
elam
elas
elastic
elbeuf
ele
eleccion
eleccions
election
elections
elector
electoral
electorala
electoralas
electorau
electors
electric
electrica
electricas
electricitat
electrics
electro
electromagnetic
electromagnetica
electromagneticas
electromagnetisme
electron
electronic
electronica
electronics
electrons
elefant
elefants
elegi
elegida
elegigue
elegir
elegit
elegits
elei
element
elementa
elementarbuch
elements
elena
eles
elevacion
elevada
elevar
elevat
elevatge
elevats
elfs
eli
elias
elic
elicopte
elie
eliminacion
eliminar
eliminat
elimine
elisabe
elisabeth
elizabeth
ell
ella
elle
ellenistic
elles
ellipsa
ellipsi
elliptica
ellipticas
ellis
ellul
ellum
elo
elongatum
els
elu
elus
em
emai
emancipacion
emb
embarcacions
embarra
embe
emble
emblematic
emblematica
embocadura
embonilh
emboscada
embouchure
embrancament
embrion
eme
emerge
emergigue
emesa
emesas
emet
emetor
emetre
emi
emigracion
emigrats
emigre
emil
emile
emili
emilio
emir
emirat
emirats
emisfe
emissari
emission
emissions
emma
emmanuel
emo
emocion
emocions
emoglobina
empacha
empachan
empachant
empachar
empache
emparar
empare
empe
empedigue
empedir
emperador
emperaire
emperaires
empereur
empire
empires
empiric
empirisme
emplac
emplacement
emplec
emplecs
emplega
emplegada
emplegadas
emplegan
emplegar
emplegat
emplegats
emplegava
emplegue
emplir
emplit
emploi
employe
empo
empont
empordan
emportar
emporte
emprenta
empresa
empresonament
empresonat
emprunte
empu
en
ena
enamore
enauc
enaut
enc
enca
encaisse
encants
encara
encargada
encargadas
encargat
encargats
encastre
encausa
enceinte
encencha
encendi
enceuclament
enceuclar
enche
enciclope
enciclopedia
enciclopedica
enclava
enclave
enclinason
enclutge
enco
encobrir
encontra
encontradas
encontran
encontrar
encontrat
encontre
encora
encoratja
encoratjar
encoratjat
encoratje
encore
encreuament
encuei
encyclopaedia
encyclope
encyclopedia
encyclopædia
end
endaco
endavant
ende
endeman
endemica
endemicas
endommage
endre
endrech
endreches
endrechs
endret
endroit
endroits
ene
enebi
enebida
enebigue
enebiment
enebir
enebit
enebits
enei
enemic
enemics
enemiga
enemigas
energetic
energetica
energia
energias
energues
energy
enes
enfa
enfanc
enfant
enfants
enfer
enfin
enforc
enfugir
engana
enganar
engatge
engatja
engatjament
engatjar
engatjat
engatjats
engatje
enge
engels
engendra
engendrar
engendrat
engendre
engenh
engenhaire
engenhaires
engenharia
engineering
engl
england
english
englo
engoleime
engolme
engrais
engranatge
engranatges
enguarda
enigma
enjo
enla
enlil
enlo
enne
ennemi
ennes
eno
enonciat
enonciats
enqu
enque
enquia
enquiath
enquista
enre
enregistra
enregistrada
enregistradas
enregistrament
enregistraments
enregistrar
enregistrat
enregistrats
enregistre
enric
enrico
enrique
enriquiment
enriquir
enro
enrodada
enrodat
ens
ensag
ensage
ensages
ensags
ensaja
ensajan
ensajar
ense
enseguida
ensejar
ensem
ensemble
ensembles
ensems
ensenha
ensenhaire
ensenhaires
ensenhament
ensenhaments
ensenhar
ensenhat
ensenhe
ensuite
ent
enta
entamene
entau
entaus
ente
entend
entendre
entenduda
entendut
enter
enterin
enterrada
enterrament
enterrar
enterrat
enterre
entertainment
entie
entier
entiers
entitat
entitats
entite
ento
entorn
entornar
entorns
entosiasme
entoure
entra
entrada
entrai
entraigas
entrar
entre
entremont
entrepreneire
entrepresa
entrepresas
entreprise
entreprises
entresenhas
entreten
entretenir
entretien
entretiens
entrevista
entro
entropia
ents
env
envai
envasigue
enve
enveja
envermeu
envia
enviada
enviar
enviat
enviats
envie
environ
environa
environada
environament
environamentala
environamentalas
environat
environment
environmental
environnantes
environnants
environnement
environs
enviroutat
envolopa
enzim
enzims
enzyklopa
eo
eoliana
ep
epi
epic
epictet
epicur
epide
epidemia
epidemias
epira
episcopal
episcopala
episo
episto
epite
epo
epoca
epope
epte
equ
equacion
equacions
equator
equidna
equilibrar
equilibrat
equilibri
equino
equipa
equipada
equipadas
equipament
equipaments
equipar
equipas
equipat
equipatge
equipatges
equipats
equitable
equitat
equival
equivale
equivalent
equivalenta
equivalentas
equivalents
equus
er
era
eracles
eran
eras
erasme
erau
erbace
erbivo
erc
ercegovina
ercules
ere
erectus
eredita
ereditari
ereditaris
ereditat
eren
eresia
eretat
eretatge
erete
eretgia
eretics
eretie
eri
eric
erich
erigida
erigir
erigit
erik
eritatge
eritie
eritre
erme
ermenonville
ermita
ermitage
ermitatge
erne
ernest
ernesto
ernst
ero
erodo
eroi
erosion
errance
errone
error
errors
ers
erstein
erudit
erudits
erupcion
erupcions
erwin
es
esa
esbo
esc
esca
escac
escacs
escadenc
escaduda
escafar
escai
escais
escaissada
escaissat
escala
escalas
escalie
escalona
escambi
escambiar
escambis
escampa
escampilhat
escampilhats
escandal
escandina
escandinau
escantit
escapa
escapar
escape
escaramochas
escarpe
escart
escartar
escartons
escasenc
escassa
escassas
escasses
escatas
escaut
escavacions
esclairatge
esclat
esclate
esclau
esclaus
esclavatge
esclo
esclusa
esco
escoba
escobar
escoce
escocesa
escola
escolan
escolans
escolar
escolara
escolastica
escomesa
escomesas
escondre
escor
escorbut
escorpion
escorriment
escota
escotar
escri
escribas
escrich
escricha
escrichas
escriches
escrichs
escrigue
escrima
escrit
escrita
escrits
escritura
escrituras
escriu
escriure
escriut
escrivan
escrivana
escrivans
escrivent
escrivia
escrivon
escrutinh
escuelhut
escultor
escultura
esculturas
escur
escura
escuras
escut
escuts
esfe
esferic
esferica
esfinx
esfo
esio
eska
esku
esky
eslau
eslaus
eslava
eslavas
eslhe
eslovac
eslovaquia
eslove
esmirna
esmogudas
esneval
eso
esofag
esp
espace
espaces
espaci
espacial
espaciala
espacialas
espaciau
espacis
espagne
espagnole
espagnols
espaliu
espan
espandi
espandida
espandidas
espandigue
espandiment
espandir
espandissia
espandisson
espandit
espandits
espandre
espanha
espanho
esparra
esparta
esparvie
espasa
espasas
espatla
espatlas
espe
especial
especiala
especialament
especialas
especialista
especialistas
especialitat
especialitats
especializacion
especializada
especializadas
especializat
especializats
especials
especiau
especiaus
especific
especifica
especificament
especificas
especificitat
especifics
especime
espectacle
espectacles
espectaclo
espectacular
espectator
espectators
especulacion
espelida
espeligue
espelir
espeluga
espelugas
esper
espera
esperanc
esperant
esperanto
esperar
esperat
esperava
esperel
esperela
espereles
esperit
esperital
esperitala
esperits
espero
esperon
esperse
espessa
espessor
espetat
espi
espiar
espin
espina
espinas
espinassa
espineta
espino
espinosa
espirala
espiralas
espiritual
espital
espitalie
espitals
espitau
esplech
esplecha
esplechar
espleches
espleitacion
espleitacions
esplendor
espo
espontane
esportiu
esportius
esportiva
esportivas
esposa
esposar
espose
esposes
esprit
espro
esquadra
esque
esquele
esqueleta
esquerra
esqui
esquic
esquil
esquina
esquiro
esquisma
essai
essais
essarts
essay
essays
esse
essencial
essenciala
essencialament
essencialas
essencials
essent
essentiel
essentiellement
esser
essey
essonne
essor
est
esta
estabilitat
estabilizacion
estabilizar
estabilize
establa
establas
estable
estables
establi
establida
establidas
establigue
establiment
establiments
establir
establissent
establisson
establit
establits
estabordir
estabornir
estaca
estacada
estacar
estacat
estacion
estacions
estada
estadas
estadi
estadis
estado
estajants
estalin
estam
estampar
estamparia
estampat
estanc
estancada
estandard
estandardizacion
estandards
estanh
estanhs
estant
estapa
estapas
estar
estat
estatala
estatalas
estatge
estatges
estatica
estatistic
estatistica
estatisticas
estatjants
estats
estatsunidenc
estatsunidenca
estatsunidencas
estatsunidencs
estatua
estatuas
estatut
estatuts
estavanir
este
estela
estelas
estella
estench
estend
estende
estendia
estendigue
estendon
estendre
estenduda
estendudas
estendut
estent
esterlina
estetica
esteve
esti
estienne
estil
estile
estiles
estils
estima
estimacion
estimacions
estimada
estiman
estimar
estimat
estime
estimulacion
estimular
estiu
estius
esto
estocatge
estoco
estoi
estomac
estonian
estorne
estot
estrabon
estrada
estrambo
estrange
estrangie
estrangier
estrangiera
estrangieras
estrangiers
estranh
estranha
estrasborg
estrasburg
estrategia
estrategias
estrategic
estrategica
estrategicas
estrategics
estratosfe
estre
estrech
estrecha
estrechament
estrechas
estreches
estrechs
estret
estricta
estrictament
estrictas
estricte
estro
estrossejat
estructura
estructuracion
estructurar
estructuras
estructurat
estu
estuaire
estuari
estudi
estudia
estudiada
estudiadas
estudiant
estudianta
estudiants
estudiar
estudiat
estudiats
estudie
estudio
estudios
estudis
esturments
estut
et
eta
etano
etapa
etapas
etat
etats
etc
ete
eternal
eternala
eternitat
eth
ethiopia
ethiopian
ethnologue
ethnology
eths
etica
etienne
etime
etimologia
etimologic
etimologica
etimologicament
etiopia
etiopian
etiopiana
etiopians
etiqueta
etnia
etnias
etnic
etnica
etnicas
etnics
etrusc
etrusca
etruscs
etudes
etum
etymological
eu
eua
eucario
euclides
euclidiana
eudes
eufrates
euge
eugene
eula
eulalia
euler
euphorbia
eur
eurasia
eurasiatica
eure
eurent
euripides
euro
europa
europaea
europe
european
eurovision
euse
eustache
eut
eux
ev
eva
evacuacion
evacuar
evaluacion
evaluar
evange
evangelista
evangelizacion
evans
evaporacion
evasion
eve
eveniment
eveniments
eventual
eventuala
eventualament
ever
evescat
evesque
evesques
evide
evidence
evident
evidenta
evidentament
evita
evitament
evitant
evitar
evo
evoca
evocacion
evocada
evocar
evocat
evolua
evolucion
evoluciona
evolucionar
evolucionat
evolucione
evolucions
evolue
evolui
evolution
evolutiva
ex
exacta
exactament
exacte
exactitud
exame
examen
examinar
exaustiu
exce
excelle
excellent
excellenta
excentricitat
excepcion
excepcional
excepcionala
excepcionalas
excepcions
excessiu
excessiva
excitacion
exclu
exclure
exclusion
exclusiu
exclusiva
exclusivament
exe
execucion
execucions
executar
executat
executats
executiu
executiva
exemplar
exemplaris
exemplars
exemple
exemples
exerc
exerci
exercici
exercicis
exercida
exercigue
exercir
exercissia
exercit
exhibition
exige
exigi
exigigue
exigir
exil
exile
exili
exiliar
exiliat
exilie
existait
existe
existeish
existence
existent
existentas
existents
existi
existia
existigue
existir
existissent
existissia
existisson
existit
exmes
exo
exode
expansion
expansionisme
expausa
expausada
expausadas
expausar
expausat
expausats
expe
expedi
expedicion
expedicionari
expedicions
experie
experimentacion
experimental
experimentala
expleitacion
explica
explicacion
explicacions
explicada
explican
explicant
explicar
explicaria
explicat
explicita
explicitament
explique
exploitation
exploitations
exploite
exploracion
exploracions
explorador
explorar
exploration
explorator
explorators
explore
explosion
explosions
explosiu
explosius
explosiva
expo
exportacion
exportacions
exportar
expose
exposicion
exposicions
exposition
expre
express
expression
expressionisme
expressions
exprimi
exprimida
exprimir
exprimisson
exprimit
exprimits
expulsar
expulsat
expulsats
expulse
expulsion
exte
extension
exterior
exteriora
exterioras
exteriors
exterminacion
extinccion
extincion
extinction
extra
extraccion
extrach
extracha
extrachs
extraction
extrai
extraire
extrait
extraits
extraordina
extraordinari
extraterre
extre
extremadura
extremitat
extremitats
exupe
eyck
eye
eyes
ez
ezha
eŋ
eɾ
f
fa
faber
fabla
fablas
fables
fabra
fabre
fabresan
fabrica
fabricacion
fabricant
fabricants
fabricar
fabricas
fabricat
fabrication
fabricats
fabrique
fabulous
fac
faccions
face
facebook
fach
facha
fachas
faches
fachs
faciada
faciar
facil
facilament
facile
facilita
facilitar
facilitat
facilite
factbook
facto
factor
factors
facultat
facultats
fada
fadas
faga
fagin
fague
fagus
fai
faic
fair
faire
fais
faisait
faisant
faissa
faissisme
faissista
faissistas
fait
faite
faites
faith
faits
faja
fal
falaise
falaises
falcon
falguie
falha
falhas
fall
fals
falsa
falsas
false
fam
fama
fame
familha
familhala
familhas
familial
familiala
familiar
familie
famille
familles
family
famina
faminas
famine
famo
famosa
famosas
famoses
fan
fanga
fanlac
fanny
fantasia
fantassins
fantastic
fantastica
fantastique
fantasy
fantauma
fanum
fao
far
fara
faraday
faraon
faraons
farc
fare
farga
fargas
farges
faria
farina
farmacia
faro
fas
fasa
fasana
fasas
fasch
fascista
fase
fasent
fasia
faso
fassan
fast
fat
fatal
father
fatiga
fatimida
fatimidas
fau
faubourg
faucigny
faucogney
faucon
faula
faulas
faulquemont
fauna
faune
faure
faus
faussa
faust
faut
fauta
faux
fava
favas
fave
faverney
faverolles
faveur
favie
favor
favorabla
favorablas
favorable
favorables
favorit
favoriza
favorizada
favorizan
favorizant
favorizar
favorizat
favorize
fay
fayard
faye
fayel
fays
fc
fcadastre
fe
feb
febla
feblas
feble
febles
feblessa
febrie
febrier
february
febus
fec
fecondacion
feconditat
fectoral
fecture
feda
fedas
federacion
federacions
federal
federala
federalas
federation
federats
federau
federico
fei
felen
felibre
felibres
felibrige
felibritge
felic
felicitat
felin
felins
felip
felipe
felis
felitz
felix
fellini
feme
femenin
femenina
femeninas
femenins
femenizacion
femes
feminin
feminina
feminisme
feminista
feministas
femme
femmes
femna
femnas
femur
fen
fender
fendre
fene
fenician
fenicians
fenolh
fenolhede
fenolhet
fenome
fense
feodorum
fer
fera
ferdinand
ferit
ferits
fermat
ferme
fermentacion
fermes
fermeture
fermin
ferna
fernand
fernando
fero
ferran
ferrand
ferrat
ferre
ferreira
ferrer
ferrette
ferrie
ferro
ferrovia
ferroviaire
ferroviari
ferry
ferte
fertil
fertila
fertile
fertilitat
fes
fesensac
festa
festenal
festenals
festival
fet
fetge
feu
feudal
feudala
feudalitat
feuille
feurier
feux
fi
fia
fial
fials
fias
fibonacci
fibra
fibras
fic
ficcion
ficha
fiche
fichie
fichier
ficie
fico
fiction
fictiu
ficus
fide
fidel
fidelitat
fides
fie
fief
fiefs
field
fielding
fier
fifa
fig
figaro
fighting
figueres
figuie
figura
figuran
figurant
figurar
figuras
figurat
figure
figures
fijac
fiji
fik
fil
fila
filade
filantro
filat
file
files
filh
filha
filhas
filho
filhs
filiacion
filiala
filie
filipi
filipinas
filiste
fille
filles
film
filmatge
filme
filmes
films
filogenetica
filolo
filologia
filoso
filosofia
filosofic
filosofica
filosoficas
filosofics
fils
filtre
filtres
fin
fina
finage
final
finala
finalament
finalas
finalement
finalista
finalitat
financ
finance
financie
financier
financiera
financieras
financiers
finas
finau
find
fine
finesa
fini
finigue
finir
finiste
finit
finitivement
finla
finlande
finlandesa
fins
fio
fir
fire
firent
firma
firmin
first
fis
fisable
fisada
fisanc
fisar
fisat
fiscal
fiscala
fiscalas
fiscalitat
fischer
fise
fish
fishbase
fisher
fisic
fisica
fisicament
fisicas
fisician
fisicians
fisics
fisiologia
fisiologista
fission
fit
fita
fitzinger
fiu
fius
five
fix
fixa
fixacion
fixada
fixadas
fixant
fixar
fixas
fixat
fixats
fixe
fixes
fl
fla
flabuta
flac
flaca
flag
flage
flagey
flagicon
flama
flamas
flamenc
flamenca
flamencs
flammarion
flanc
flancs
flandra
flandre
flandres
flaquesa
flash
flatar
flau
flaujac
flavi
flavigny
flavius
fle
fleming
flers
fletxa
fleur
fleurey
fleurs
fleury
fleuve
flexible
flexion
flight
flo
flohic
floirac
flor
flora
florals
florason
flore
florenc
florence
florent
florentin
flores
floret
florian
florida
florir
floristique
flors
flota
floyd
flu
flueix
fluid
fluids
flum
flume
flumes
fluminense
fluoresce
flus
fluses
fluvi
fluvial
fluvis
flux
fluxus
fly
fm
fmi
fo
foce
focus
fodom
fogal
fogals
fogue
foguet
foi
foire
foires
fois
foish
foix
fol
fola
folclo
folge
folia
folie
folio
folk
folklore
folleville
fon
fonccion
foncion
fonciona
foncionala
foncionament
foncionan
foncionant
foncionar
foncionari
foncionaris
foncione
foncions
fonction
fond
fonda
fondacion
fondacions
fondada
fondadas
fondador
fondadors
fondament
fondamental
fondamentala
fondamentalament
fondamentalas
fondamentals
fondamentau
fondamentaus
fondaments
fondan
fondant
fondar
fondat
fondateur
fondation
fondations
fondator
fondators
fondats
fonde
fonderie
fondre
fonds
fone
fonetic
fonetica
foneticament
foneticas
fonetics
fonologia
fons
font
fontaine
fontainebleau
fontaines
fontana
fonte
fontenay
fontenelle
fontenoy
fontes
fonts
fonzie
food
football
for
fora
forala
forall
forastie
forbach
forbes
forc
forca
forcauquier
force
forces
ford
fore
foreign
forest
forestal
forestie
forestier
forez
forge
forges
forja
forkel
form
forma
formacion
formacions
formada
formadas
formal
formala
formalament
forman
formant
formar
formas
format
formatge
formatges
formation
formations
formatnum
formats
formava
formavan
forme
forment
former
formes
formiga
formigas
formiguier
formosa
formula
formulacion
formulada
formular
formulas
formule
forn
forne
forni
fornie
fornir
forns
foron
forradura
fort
fortalesa
fortalesas
fortament
forte
fortement
forteresse
fortes
fortificacion
fortificacions
fortificada
fortificar
fortificat
fortifications
fortifie
fortuna
forum
fosc
fosfat
fosfo
fosque
foss
fosse
fosses
fossil
fossils
foster
fotbo
fotbolaire
foto
fotograf
fotografia
fotografias
fotografic
fotons
fotosinte
fou
foucault
fouche
foug
fouge
fouille
fouilles
found
foundation
four
fourier
fourmies
fourneaux
fournier
fours
fowler
fox
foy
fr
fra
frac
fraca
fraccion
fraccions
fraga
fragaria
fragil
fragila
fragment
fragmentacion
fragmente
fragments
frair
fraire
fraires
frais
fraisse
franc
franca
france
frances
francesa
francesas
francesc
francesca
francesco
franceses
francfo
francfort
franche
francheville
francia
francic
francie
francis
francisco
francisme
franck
francmac
franco
francofo
francolin
francoprovenc
francs
franja
frank
frankenstein
frankfurt
franklin
franque
franqueville
franquista
franz
frapper
frasa
frasario
frasas
fraser
fraternitat
frau
fraudas
fraxinus
frbnf
fre
fred
freda
frederic
frederick
free
freedom
freeman
freg
fregs
freja
frejas
freju
frema
fremas
french
freneuse
frequ
freque
frequent
frequenta
frequentament
frequentas
frequents
fresc
fresca
frescas
frescobaldi
frescs
fresnay
fresne
fresnes
fresney
fresnoy
freud
fri
friborg
friccion
friche
frichement
friedrich
frigola
frisa
frison
fritz
fro
froid
from
fromage
fromatge
fromatges
froment
front
frontalie
frontalier
frontalieras
frontaliers
fronte
frontenac
frontie
frontiera
frontieras
fronton
frontonh
fru
fruch
frucha
fruches
fruchie
fruchs
fruit
fruits
fry
fs
ft
fu
fue
fuelhas
fugi
fugida
fugie
fugigue
fugir
fugue
fuguet
fulham
full
fum
fumar
fume
fums
fun
fund
fundacio
fune
funera
funeralhas
funerari
funeraris
funk
fuo
fur
furent
furio
fus
fusada
fusadas
fusilh
fusille
fusion
fusiona
fusionada
fusionan
fusionar
fusionat
fusione
fusionne
fusiu
fusius
fusta
fustas
fustie
fut
futur
futura
futuras
future
futurs
fuɾ
fy
fɔ
fə
fɾe
g
ga
gabe
gabelle
gabinet
gabon
gabriel
gabrielli
gae
gaelic
gag
gai
gaia
gaillard
gaillon
gaire
gaireben
gaita
gaitar
gaius
gal
gala
galaria
galas
galaure
galaxia
galaxias
gale
galement
galen
galeria
galhac
gali
galician
galile
galilei
galileo
galina
galle
gallery
gallesa
gallesano
galleses
gallia
gallic
gallica
gallimard
gallo
galloroman
galloromana
gallus
galo
gama
gamaches
gamba
game
games
gamma
gan
gana
gand
gandhi
ganga
ganges
ganh
ganha
ganhaire
ganhant
ganhar
ganhat
ganhe
ganhs
ganime
gansu
gant
gants
gap
gar
gara
garait
garanti
garantida
garantir
garas
garba
garc
garci
garcia
gard
garda
gardan
gardanese
gardant
gardar
gardas
gardat
gardava
garde
garden
gardena
gardes
gardian
gardians
gardio
gardon
gare
garenne
gares
gargame
garganta
garibaldi
garir
garison
garnier
garnison
garnisons
garo
garona
garonne
garric
garriga
garro
garros
gary
gas
gasc
gascoa
gascogne
gascon
gascona
gasconas
gasconha
gascons
gases
gaso
gasosa
gaspar
gaspard
gast
gaston
gastronomia
gat
gata
gate
gates
gation
gatnat
gats
gau
gaubi
gauche
gaud
gaudenc
gaudi
gaudille
gauer
gaug
gaujac
gaule
gaulle
gaulois
gauloise
gault
gausi
gausir
gauss
gauta
gauthier
gautier
gavaudan
gavaudanesa
gave
gay
gaz
gaza
gazella
gazzetta
gb
ge
gel
gelada
geladas
gelatina
geli
gelo
gelosia
gema
geminiani
gemma
gemme
gen
genc
gendarmaria
gende
gender
gendes
gendre
gene
genealogia
geneanet
gener
genera
generacion
generacions
general
generala
generalament
generalas
generalitat
generalizacion
generalizada
generalizar
generalizat
generalize
generals
generar
generation
generator
generau
generaument
generaus
genere
generic
genero
generositat
genes
genest
genet
genetic
genetica
geneticas
genetics
genevie
genevois
genghis
genie
genier
genis
genitiu
gennes
geno
genocidi
genolh
genre
genres
gens
gent
gentile
gentilici
gentilicis
gentilo
gents
genus
geo
geoffrey
geoffroy
geogra
geograf
geografia
geografic
geografica
geograficament
geograficas
geografics
geographic
geolo
geologia
geologic
geologica
geological
geologicas
geologics
geome
geometria
geometric
geometrica
geometricas
geometrics
geoportail
georg
george
georges
georgescu
georgia
georgian
geos
ger
gerais
gerald
geranium
gerard
gerbe
gerhard
geri
gerir
gerit
germa
germain
germaine
german
germania
germanic
germanica
germanicas
germaniche
germanics
germanique
germanofoni
germans
germany
germer
germigny
gerondiu
gers
gervais
gervasi
ges
geschichte
gessa
gessit
gestacion
gestapo
gestion
get
geta
getar
gevaudanesa
gex
gh
ghana
gherde
gi
gia
giacomo
giale
giant
gibartar
gibson
gic
gica
gico
gie
gien
gier
gierman
giessen
gifrance
gigant
giganta
gigantas
gigants
gil
gilbert
gilg
gilgamesh
gilgit
gilgiti
gill
gilles
gime
giment
gimona
gina
gine
ginie
ginkgo
gion
gional
gionale
gions
giorgio
giotto
giovanni
gip
gique
gir
girard
giraud
girl
girls
giro
girolles
giron
girona
gironda
gironde
gis
gisors
gita
giu
giudici
giuliano
giuseppe
givet
givry
gjorn
gjornala
gl
gla
glac
glace
glacia
glaciacion
glaciaire
glaciari
glacie
glacier
glaciers
glandas
glas
glasgow
glass
glaudi
glaurenc
gle
gleisa
glenn
gles
gli
glise
glises
glo
global
globala
globalament
globau
globe
globuls
gloria
glossaire
glottolog
glucids
gluco
gma
gn
gna
gne
gnes
gno
gnu
gny
go
goa
god
goddard
godefroy
godolin
goe
goethe
gogh
gogol
gohelle
goire
gojat
gojata
gojats
gol
gold
golden
gole
golf
goma
gomes
gon
gonc
goncourt
gone
gonneville
gontier
gonza
good
google
gor
goran
gordon
gorges
gorie
gorilla
gorze
gos
gost
got
gota
gotas
gotic
gotica
gottfried
gou
goue
goulamas
gould
gourdon
gournay
gouv
gouvernement
gouverneur
goux
gouy
gov
gove
govern
governada
governador
governadors
governaire
governament
governamentala
governamentalas
governar
governat
governe
government
goya
gps
gr
gra
graal
grac
grace
grad
grade
gradient
gradue
grae
graf
grafe
grafia
grafias
grafiat
grafic
grafica
graficas
grafics
grafit
graham
grainville
graissa
gral
gralha
gram
grama
gramas
gramatica
gramatical
gramine
grammaire
grammar
grammatical
grammatik
grammont
grammy
gramont
gran
grana
granada
granas
grand
granda
grandas
grandchamp
grande
grandei
grandes
grandor
grandors
grands
grandvilliers
granes
grange
granges
granho
grani
granie
granier
granit
granja
granjas
grans
grant
grante
grapaud
graphie
gras
grases
grasilha
grassa
grassas
grasses
grasset
grassfields
grat
gratace
gratuit
grau
grava
gravadura
gravaduras
gravar
gravas
grave
graveolens
graves
gravetat
gravina
gravitacion
gravitacionala
gravitacionalas
gravitat
gray
gre
great
greatest
grec
greco
grecque
grecs
greda
gredon
gredons
greek
green
greenwich
greenwood
grego
gregorian
gregorio
gregory
grelh
grenada
grenier
greno
grenoble
gres
greu
greus
grey
grez
gri
grie
grignon
grigny
grimal
grimaldi
grin
gripa
gris
grisa
griso
gro
groenla
grop
gropa
gropadas
gropament
gropaments
gropant
gropar
gropats
gropava
grope
gropes
grops
gros
grosclaude
grosne
grosse
grosses
grossie
grosso
grotte
grottes
group
groupe
groups
gru
grua
gruyter
gs
gu
gua
guadalajara
guadalope
guaiana
guam
guarani
guarda
guardia
guardian
guatemala
gue
guer
guerche
guerilha
guerilhas
guerra
guerre
guerrero
guerres
guerrie
guerrier
guerriers
gues
gueux
guevara
guez
gui
guiana
guichard
guida
guidar
guide
guido
guier
guiers
guilhe
guilhem
guillaume
guillem
guillon
guine
guinea
guingamp
guio
guipuscoa
guiraut
guise
guit
guitarra
guitarras
guitarrista
guitarro
gujarat
gujarati
gulie
gulliver
gumer
gun
gupta
gur
gurage
gurezi
gustau
gustav
gustave
gut
gutenberg
gutie
guy
guyana
guyon
guzma
gw
gy
gyo
gɾa
h
ha
hab
habitant
habitants
habitat
habitation
habitations
habite
habsborg
habsbourg
hachette
had
hage
haget
hague
haguenau
hai
hain
hainaut
haiti
hal
hale
half
halip
hall
halle
halley
hallue
halte
ham
hameau
hameaux
hamel
hamilton
hamlet
hamlin
hammarstro
hampshire
han
hanau
hancock
hand
handbook
hange
hangeul
hannibal
hannover
hans
hansen
happy
har
hara
haras
haraucourt
harbor
harcourt
hard
hardy
hare
hari
harmattan
harmonia
harold
harper
harrassowitz
harris
harrison
harry
harvard
harvey
has
hase
haso
haspelmath
hassan
hastings
hat
hau
haucourt
haut
hauta
haute
hauterive
hautes
hauteur
hauteurs
hauteville
hautmont
hautor
hautot
hauts
have
haven
havisham
havre
hawai
hawaii
haydn
haye
hayes
hc
hd
he
head
health
heart
heath
heaven
heavy
hebdo
hec
hectares
hector
hedland
hegel
heidegger
heidelberg
height
heinrich
heinz
helen
helena
helichrysum
hellimer
helmut
help
helpe
helsinki
hem
hemna
hemnas
hen
henri
henriette
henry
hens
her
herault
herbe
herbert
hercus
here
heritage
herman
hermann
herme
herna
hero
herschel
herve
hesdin
hess
hesse
het
heure
heures
heusler
hi
hie
hier
high
hilaire
hilar
hilh
hilha
hilhs
hill
hilliard
hills
him
hindi
hip
hippie
hippies
hippolyte
hiragana
hiroshima
hirson
hirundo
his
hispania
histariege
histo
histoire
histoires
historia
historic
historical
historiens
historique
historiquement
historiques
history
hit
hita
hitchcock
hitler
hits
hiver
hl
hler
hms
ho
hobbit
hoc
hoffm
holland
hollande
hollywood
holmes
hom
hombourg
home
hommage
homme
hommes
homo
hon
honda
honduras
honfleur
hong
honneur
honolulu
honor
honore
honorine
hons
hont
honts
hook
hop
hopkins
hor
hora
horde
hore
horn
horneish
hornjoserbsko
hors
horse
hortalessa
hosse
hot
hotel
hotteterre
houille
houlme
house
houston
houville
houx
how
howard
hr
hradec
hrair
hre
hregadas
htm
html
http
https
hu
huang
hubble
hubert
hudson
hue
huec
huelva
hugh
hughes
hugo
huguenots
hugues
hui
huile
huis
huisne
huit
hull
huma
humain
humaine
humaines
human
humanite
humbert
humboldt
hume
humide
humides
humile
hunderttausnt
huns
hunt
hunter
hussein
husta
huxley
huygens
hy
hye
hyparrhenia
hyphessobrycon
hypothe
hz
i
ia
iacum
iade
ialo
ian
iana
iaqaaiaaj
ias
iatus
iazyk
iazyki
iba
ibe
iberia
iberic
iberica
ibid
ibm
ibn
ibrahim
ibrid
ibrids
ic
icaria
icarus
ice
icebe
ich
ici
ico
iconografia
ict
id
ida
idaho
ide
idea
ideal
ideala
idealisme
ideals
idem
identic
identica
identicas
identics
identifica
identificacion
identificada
identificadas
identificant
identificar
identificat
identificats
identifique
identitat
identite
ideologia
ideologias
ideologic
ideologica
idio
ido
idraulica
idrocarburs
idroge
idrografic
idronime
idronimica
idroxid
ie
iec
ieme
ien
ieo
ier
ierarquia
ieras
ieroglifs
ieu
if
ifs
ig
iga
ige
igie
ign
ignacio
igney
ignora
ignorant
igny
igor
ii
iia
iii
iiia
iiie
iiien
ik
il
ila
ilari
ile
ilh
ili
iliada
ill
illa
illas
ille
illegal
illegala
illi
illiers
illinois
illo
illusion
illusions
illustra
illustracion
illustracions
illustrada
illustrar
illustrat
illustrated
illustrations
illustre
illustres
ils
im
image
images
imagina
imaginacion
imaginar
imaginari
imaginat
imagine
imago
imalaia
imam
imatge
imatges
imben
imdb
ime
img
imigracion
imita
imitacion
imitar
immanuel
imme
immediat
immediata
immediatament
immens
immensa
immersion
immigracion
immigrants
immo
immobiliari
immortalitat
immunita
immunitari
immunitat
imne
imnes
imp
impact
impacte
impactes
impausa
impausada
impausadas
impausan
impausant
impausar
impausat
impause
impe
imperatiu
imperator
imperatorskoi
imperfach
imperfe
imperfectiu
imperial
imperiala
imperialas
imperialisme
imperiau
imperiaus
impermeable
implantacion
implantada
implantar
implantat
implantation
implante
implica
implicacion
implicant
implicar
implicat
implications
implicats
implicitament
implique
impo
impopular
importa
importacion
importacions
importanc
importance
important
importanta
importantas
importante
importantes
importants
importar
importat
importe
imposicion
impossibilitat
impossibla
impossible
impr
impression
impressions
imprimerie
improbable
impulsion
impuretats
in
ina
inacabat
inanimat
inatestat
inauguracion
inaugurada
inaugurat
inaugure
inc
inca
incapable
incapables
incapacitat
incarnacion
incas
ince
incendi
incendiat
incendie
incendis
incertana
incertitud
incide
incident
incidents
incitar
inclinason
inclu
incluent
inclure
inclus
inclusa
incluse
inclusent
inclusi
inclusion
inclusissent
inclusisson
incluson
inclutz
incolo
incomple
incompleta
inconscient
inconvenient
incorporacion
incorporada
incorporar
incorporat
incorporating
incorpore
incorre
incursion
incursions
inde
indeci
indemnitat
independe
independent
independenta
independentament
independentas
independentista
independentistas
independents
index
indi
india
indian
indiana
indianas
indians
indica
indicacion
indicacions
indican
indicant
indicar
indicat
indicatiu
indicator
indici
indicis
indige
indigenous
indigne
indique
indire
indispensabla
indispensable
individu
individual
individuala
individualas
individuals
individus
indo
indoariana
indoarianas
indochina
indochine
indoeurope
indoi
indonesia
indonesian
indre
indrois
indu
induccion
induch
indus
industria
industrial
industriala
industrialas
industrializacion
industrializats
industrials
industrias
industriau
industriaus
industrie
industriel
industrielle
industries
ine
inegalitat
inegalitats
inercia
ines
infant
infanta
infantaria
infanterie
infantila
infe
infeccion
infeccions
infectar
inferior
inferiora
inferioras
inferioritat
inferiors
inferit
infide
infinida
infinidament
infinit
infinitiu
infirmie
inflacion
inflamacion
infligigue
infligir
infloresce
influe
influence
influenciada
influenciadas
influenciar
influenciat
influenciats
influencie
influent
influents
info
infobox
informa
informacion
informacions
informal
informar
informat
informatic
informatica
informatics
information
informations
informator
informe
infra
infraccion
infraccions
infraroge
infrastructura
infrastructuras
infusion
ing
inge
ingestion
ingmar
ingrandes
ingredient
ingredients
inhume
ini
inici
iniciacion
iniciada
inicial
iniciala
inicialament
inicialas
iniciar
iniciat
iniciativa
iniciativas
iniciau
iniciaus
inicie
initialement
initiativa
initiative
injeccion
injusti
innoce
innocenci
innocent
innocents
innovacion
innovacions
ino
inondacion
inondacions
inondations
inpn
inquie
inquietud
inquisicion
inra
inrap
ins
inscrich
inscricha
inscrigue
inscripcion
inscripcions
inscription
inscriptions
inscrit
inscriu
inscriure
inse
insee
insiste
insisti
insistir
inspeccion
inspector
inspira
inspiracion
inspirada
inspiradas
inspirant
inspirar
inspirat
inspirats
inspire
insta
instabilitat
instable
installa
installacion
installacions
installada
installadas
installan
installar
installat
installation
installats
installe
installer
instant
instantane
instauracion
instaurar
instaurat
instaure
institucion
institucions
institut
institute
instituteur
institution
institutions
instituto
institutoccitan
instruccion
instruccions
instrument
instrumental
instruments
insufisenta
insular
insulina
insultar
insureccion
insureccions
insurgents
insurreccion
int
inte
integracion
integrada
integradas
integral
integrala
integralitat
integrant
integrar
integrat
integrats
integre
integritat
intel
intelle
intellectual
intellectuala
intellectualas
intellectuals
intellectuau
intellectuaus
intellige
intelligence
intelligent
intencion
intencions
intendance
intens
intensa
intensitat
intensiva
inter
interaccion
interaccions
interactive
intercomunalitat
intercomunalitats
interdiccion
interdire
interdit
intere
intereses
interessa
interessant
interessanta
interessantas
interessar
interessat
interessats
interesse
interesses
interfa
interfere
interim
interior
interiora
interioras
interiors
intermedia
intermediari
intermediaris
internacional
internacionala
internacionalament
internacionalas
internacionals
internacionau
internacionaus
international
internationale
internet
interpre
interpretacion
interpretacions
interpretada
interpretar
interpretat
interprete
interrogacion
interrogar
interrompre
interrupcion
interseccion
intersection
interstellar
interval
intervals
interven
intervencion
intervencions
intervengue
intervenir
intervenon
interview
intervocalic
intervocalica
intestin
inteɾ
intima
intitolat
intitulat
into
intoxicacion
intra
intrada
intradas
intrar
intrat
intre
intriga
intrigas
intrinse
introduccion
introduch
introducha
introduction
introdugue
introduire
introdusigue
introdusit
intruments
intuicion
inutil
invalid
invariable
invasion
invasions
inve
invencion
invencions
inventada
inventaire
inventar
inventari
inventat
invente
invention
inventor
inversion
invertebrats
investigacion
investigacions
investiment
investiments
investir
investit
invisible
invita
invitacion
invitat
invite
invocar
io
iogoslavia
ion
iona
ionar
ionia
ionic
ionizacion
ions
iowa
iperbo
ipo
ipocrates
ipodro
ipolit
ipote
ipotetic
ipotetica
ir
ira
iran
irange
iranian
iraniana
iranianas
iranians
iraniens
iranja
iraq
iraquian
iraquiana
iras
ire
ireland
ires
iri
iris
irish
irlanda
irlande
irlandesa
iron
ironda
ironia
irregular
irregulara
irregularas
irregulars
irrigacion
irs
irving
is
isa
isaac
isabe
isabel
isabelle
isai
isas
isbn
ise
iser
ish
isher
isi
isia
isigny
isin
isis
isla
islam
islamabad
islamic
islamica
islamistas
island
islande
islands
islas
isle
isles
isme
iso
isola
isolacion
isolada
isoladas
isolament
isolant
isolar
isolat
isolats
isole
isoto
ispa
israe
israel
israelian
israeliana
israelians
issa
issarle
issenc
isser
issn
isson
issu
issue
issues
issus
ist
ista
istambol
istas
istat
istic
istica
isticament
isticas
istics
istme
isto
istorian
istorians
istoric
istorica
istoricament
istoricas
istorics
istrioto
istriotski
it
ita
itaca
italia
italian
italiana
italianas
italiano
italians
italica
italie
italien
italiens
italo
italy
itas
itat
item
itemid
itine
itinerari
itineraris
itis
itita
ititas
iton
itre
its
iu
iucn
ius
iv
iva
ivan
ive
ivelinas
ivern
ives
ivry
ix
ixe
iz
izdatel
iŋ
iɾ
j
ja
jac
jaces
jaciment
jaciments
jack
jackson
jacme
jaco
jacob
jacqueline
jacques
jacut
jade
jadis
jae
jaguar
jai
jaime
jaire
jakob
jal
jamai
jamaica
jamais
jame
jamei
james
jammu
jan
jancso
jane
janeiro
janet
jansemin
january
janue
janvier
japan
japanese
japon
japone
japonesa
japonesas
japoneses
jar
jard
jardin
jardins
jarrie
jas
jasminum
jason
jau
jaufre
jaume
jauna
jaunas
jaune
jaunes
jaure
java
javier
jay
jazyka
jazz
jc
je
jean
jeanne
jeff
jefferson
jeffrey
jehan
jendz
jennifer
jeremy
jero
jerome
jerry
jersei
jersey
jerusale
jerusalem
jesu
jesucrist
jesuistas
jesus
jet
jeter
jette
jeu
jeune
jeunes
jeunesse
jeux
jewish
ji
jia
jiboti
jihad
jim
jime
jimmy
jin
jo
joa
joachim
joan
joana
joanne
joaqui
joaquim
joe
joel
joen
joens
joga
jogada
jogador
jogadors
jogaira
jogaire
jogaires
jogant
jogar
jogat
jogava
jogue
johan
johann
johannes
johannis
john
johnny
johns
johnson
joie
joigny
joinville
jol
jols
jolverd
joly
jon
jonas
jonathan
jonch
joncion
jonction
jones
jonh
jonhe
jonhent
jonquie
jordan
jordania
jordi
jorftext
jorge
jorn
jornada
jornadas
jornal
jornalet
jornalie
jornalisme
jornalista
jornalistas
jornals
jornau
jorns
jos
jose
josef
josep
joseph
joshua
josiana
josieu
josieus
josieva
josievas
josse
jou
joue
jouin
jouit
jour
journal
journe
journey
jours
joux
jouxte
jouy
jova
jovas
jove
jovenc
jovent
joventa
jovents
joventut
joves
joyce
jpg
jr
jstor
ju
jua
juan
juba
jubilacion
juda
judai
jude
judicia
judiciari
judieu
judieus
judieva
judith
judius
jue
juec
juge
juifs
juigne
juillet
juin
jul
jules
julh
julhe
julhet
juli
julia
julian
julie
julien
juliet
julieta
juliette
julio
julius
july
jumeaux
jumie
jun
june
jung
junh
junior
juno
junon
junta
jupite
jupiter
jura
jurada
jurament
jurar
jurassic
jure
juridic
juridica
juridicament
juridicas
juridiccion
juridics
juridiction
juridictions
jurisdiccion
jurisdiccions
jurisprude
jurista
juristas
jus
jusieu
jusieus
jusieva
jusievas
jusqu
jusque
juss
jussey
jussy
just
justa
justament
juste
justi
justice
justifica
justificacion
justificar
justin
justinian
jutge
jutges
jutja
jutjada
jutjadas
jutjament
jutjaments
jutjar
jutjat
jutjats
juvigny
k
ka
kafka
kai
kaj
kal
kala
kali
kalo
kam
kami
kan
kana
kane
kano
kans
kansas
kant
kanza
kapi
kar
kara
karaman
karen
karina
karl
karma
kas
kat
kata
kate
katherine
kathleen
kats
kaw
kaðo
kaɫ
kaɾ
ke
keith
kele
kellia
kelly
kelvin
kemal
kemper
ken
kennedy
kenneth
kent
kentucky
kenya
kepler
ker
kerala
ket
kevin
kew
key
keynes
kg
kha
khan
khanat
khmer
khmers
khrushchov
ki
kick
kiev
kilome
kim
kin
king
kingdom
kings
kiribati
kitsune
kla
klan
klaus
kle
klein
kli
klincksieck
klu
klux
km
know
knowledge
ko
koch
koine
kom
kon
kong
konrad
koptische
kos
kosova
kosovo
koto
kowait
kr
kra
kratter
kre
krishna
kro
kru
ks
ksju
ku
kubrick
kuiper
kul
kulu
kum
kun
kunth
kur
kurt
kus
kwa
ky
kyiiv
kyiv
kyo
kɐ
kɑ
kɔ
kə
kən
kɾi
kʏ
l
la
lab
labastide
labe
label
labergement
laberint
labirint
labor
laborato
laboratory
labord
labour
labrador
labrit
lac
lacan
lach
lachapelle
laci
lacroix
lacs
lacte
lade
ladepeche
ladin
ladina
ladino
lady
lae
laffont
lafon
lafont
lagarda
lagarde
lagny
lago
lagos
lagrange
laguens
lai
lain
laine
laissa
laissant
laissar
laissat
laisse
lait
laize
laj
lake
lakers
lakes
lakh
lako
lakota
lalande
lam
lama
lamarche
lamas
lambda
lambert
lame
lament
lamode
lamotte
lampa
lampas
lan
lana
lanamesa
lanas
lanava
lanc
lance
lanchy
land
landa
landas
lande
landelles
landes
lane
laneuveville
lang
langage
lange
langeais
langes
langfr
langlois
langres
language
languages
langue
languedoc
langues
lanka
lannion
lannoy
lano
lans
lansade
lanterne
lao
laon
laonnois
laos
laquelle
lar
lard
lare
laref
larg
larga
largament
largas
large
largement
largeur
largor
largs
lari
laroche
larousse
larry
lars
larsa
lartiga
larva
larvas
larzac
las
lase
lasse
last
lat
lata
latas
late
lateral
laterala
lateralas
laterals
latin
latina
latinas
latine
latinise
latinizacion
latinizada
latinizat
latins
latitud
latitude
latituds
laton
lats
latz
lau
launay
laura
laurada
laurague
laurar
laure
laurenc
laurence
laurent
laurie
laus
lausa
lausana
lausanne
lause
lausun
lautre
lava
laval
lavalade
lavans
lavar
lavardin
lavedan
laveline
lavetz
lavoir
lavoisier
law
lawrence
lay
laye
layon
lazare
laɾ
laɾo
lc
ld
le
league
leakey
lear
learner
learning
lec
leclair
leclerc
lection
lections
lector
lectorales
lectors
lectrique
lectura
lecturas
lecture
led
leda
lee
left
leg
legal
legala
legalament
legalas
legalitat
legat
legats
legau
legavin
legenda
legendari
legendas
legi
legifrance
legion
legions
legir
legislacion
legislacions
legislatiu
legislatius
legislativa
legislativas
legislator
legislatura
legit
legitim
legitima
legitimar
legitimitat
legum
leguminosas
legums
lei
leialtat
leibniz
leic
leiden
leipzig
leire
leis
leitora
lem
lemai
lement
lemma
lemo
lemoine
lemonde
lemosin
lemosina
lemps
lemy
len
lena
lenc
lendemain
lenga
lengado
lengadocian
lengadociana
lengadocians
lengas
lengatge
lengatges
lengo
lengon
lengua
lenha
lenhie
lenin
leningrad
lens
lent
lenta
lentament
lentilha
lentilhas
lents
lenveja
leo
leon
leonard
leonardo
leone
leons
leopard
leopold
lepage
lepus
lequel
ler
lerinage
lerins
leroy
les
lescar
lesinhan
leslau
lesquels
less
lessicala
lestat
let
leto
leton
letra
letras
letter
letters
lettre
lettres
leu
leuge
leugie
leugier
leugiera
leugierament
leugieras
leugiers
leur
leurs
lev
leva
levada
levadas
levage
levant
levar
levat
levats
levava
leve
levi
levinhac
levis
levy
lewis
lex
lexic
lexicografia
lexicon
lexikon
lexique
ley
lez
lf
lfes
lfia
lga
lgas
lgbt
lh
lha
lhar
lhas
lhausen
lhe
lher
lhi
lhs
lhuec
li
lia
liada
liadas
liame
liames
lian
liancourt
liar
liard
lias
liason
liasons
liat
liats
liban
libe
liber
liberacion
liberada
liberal
liberala
liberalas
liberalisme
liberalizacion
liberals
liberar
liberat
liberats
liberau
liberaus
libere
libertat
libertats
liberte
libes
libia
libor
liborna
liborne
libra
librairie
libraria
library
libre
libres
librige
libro
lic
lice
lichtenberg
lida
lideratge
lido
lie
liechtenstein
lien
liens
lier
lieu
lieudit
lieutenant
lieuvin
lieux
life
liffol
liga
ligada
ligadas
ligam
ligams
ligan
ligant
ligar
ligason
ligat
ligats
light
ligne
lignes
lignie
ligny
ligu
ligue
ligueurs
ligur
lik
like
liko
lila
lilla
lille
lim
lima
limborg
limit
limita
limitacion
limitacions
limitada
limitadas
limitan
limitant
limitar
limitas
limitat
limitation
limitats
limitava
limite
limited
limites
limitro
limitrophe
limitrophes
limits
limo
limon
limousin
limpar
lin
lincoln
linda
lindal
lindl
line
linea
linear
lineara
linfocits
ling
linga
lingas
linge
lingu
lingua
linguae
linguistic
linguistica
linguistico
linguistics
linguistique
linguistiques
lingvistic
linha
linhada
linhas
linhatge
link
linnaeus
linne
lino
linum
linus
linux
linx
lio
lion
lione
lionel
lipids
lique
liquid
liquida
liquids
lira
lire
liric
lirica
lis
lisa
lisabeth
lisboa
lisbona
lise
lisie
lisieux
lisle
lison
lissa
lissagaray
list
lista
listas
liste
listra
liszt
lit
lite
litera
literal
literala
literalament
literar
literari
literaris
literary
literatura
literature
litigi
litigis
litoral
litorala
litoralas
litorau
litosfe
litre
litres
litte
little
littoral
littorale
litua
lituanian
liturgia
liu
liura
liurada
liurament
liurar
liuras
liurat
liure
liures
live
liverpool
lives
livet
livi
living
livre
livres
livry
livvicovian
lix
lixheim
lja
lkel
ll
lla
lle
lleida
llengua
ller
lles
lli
llia
llias
llibre
lliure
llobregat
llom
lloyd
llui
lme
lmont
ln
lnau
lno
lo
loa
loas
lobe
lobel
loc
local
locala
localament
localas
locale
localement
locales
localise
localitat
localitats
localite
localites
localizacion
localizada
localizar
localizat
locals
locatelli
locatiu
locau
locaus
locaux
loches
locke
loco
locomocion
locongres
locus
locutor
locutors
lode
lodi
log
loga
logaritme
loge
loges
logic
logica
logicament
logicial
logicials
logiciau
logistica
logo
logos
loi
loigne
loin
loing
loir
loira
loire
loiret
lois
loisirs
loison
loisy
lola
lomagne
lomanha
lombard
lombarda
lombardia
lombards
lombe
lon
london
londras
londres
long
longa
longada
longas
longchamp
longe
longeant
longevelle
longeville
longevitat
longitud
longitude
longor
longors
longs
longtemps
longue
longueil
longues
longueur
longueville
longuyon
lonh
lonicera
lons
look
lop
lope
lopes
lopez
lopiac
lops
lor
lord
lorda
lords
lorena
lorentz
lorenzo
lorgeril
loron
lorrain
lorraine
lorrains
lorry
lors
lorsqu
lorsque
los
losera
loss
lost
lot
lothaire
lotharingie
lotissement
lotissements
lotjament
lotjaments
lotjar
lou
loubatie
loude
loue
louhannaise
louhans
louis
louise
loup
loupe
loups
louroux
lous
louvain
louvergny
louvie
louviers
love
lovelock
lovre
low
lower
lp
lpg
ls
lsa
lsd
lt
lta
ltas
ltd
lu
lua
lube
lubin
luc
luca
lucas
luce
luces
lucey
lucha
luchar
luchas
luche
luci
lucia
lucian
luciano
lucien
lucille
lucius
lucrativa
lucre
lucy
lude
ludmila
ludowe
lududes
ludut
ludwig
lue
luec
luenh
lugdunum
lugny
lugo
lui
luigi
luis
luishon
lully
lum
lumie
lumino
luminosa
luminoses
luminositat
lumley
luna
lunar
lunara
lunars
lunas
lune
lunetas
luo
lupus
lur
lure
lus
luse
lusent
luses
lusinhan
lussac
luta
lutar
lute
luther
lutte
lutz
lux
luxe
luxemborg
luxembourg
luxeuil
luz
luzy
lv
lvaro
lve
lvre
ly
lye
lynch
lyndon
lynn
lynx
lyon
lyonnais
lyons
lyre
lys
lzer
lɑ
lɔ
lɔk
lə
lɛ
m
ma
maastricht
mac
macau
macbeth
mace
macedo
macedonian
macedoniana
macedonians
machine
machu
maclou
macmillan
macron
mad
madagascar
madama
madamas
madame
made
madeish
madeisha
madeleine
madison
mado
madon
madoz
madre
madrid
madur
madura
maduretat
mae
mag
magalona
magazine
magdalena
magdalenian
mage
magellan
magenta
magerament
magia
magic
magica
magics
maginot
magistrat
magistrats
magistratura
magma
magna
magne
magnetic
magnetica
magnetics
magnetisme
magnetosfe
magnific
magnifique
magnitud
magnus
magny
magre
magwitch
mahayana
mai
maia
maias
maille
mailloc
mailly
main
mainat
mainatge
mainatges
mainats
maine
mains
maintenant
maio
mair
maira
mairal
mairala
maire
maires
mairie
mais
maison
maisoncelles
maisonneuve
maisons
maissa
maitas
maites
maitot
maivalenc
maixent
maizie
maj
majestat
majeure
maji
major
majora
majoras
majorita
majoritari
majoritaris
majoritat
majorite
majors
majuscula
make
making
mal
mala
malacca
maladrerie
malaga
malai
malaialam
malaiopolinesiana
malais
malaisada
malaisadas
malaisat
malaisats
malaisida
malaisit
malas
malastre
malau
malaut
malautia
malauts
malawi
malay
malcolm
male
malgash
malgrat
malgre
malherbe
malho
malhum
malhums
mali
malicorne
malik
mallet
malleville
mallorca
malo
malone
malory
mals
malta
malte
malurosament
malva
malvinas
mama
mame
mamelocs
mament
mamers
mamife
mammal
mammalia
mammife
man
mana
management
manc
manca
mancan
mancant
mancante
mancar
mancas
mancat
mancava
mance
mancha
manche
manchester
mancho
manchoria
manciet
mand
manda
mandada
mandadi
mandar
mandarin
mandat
mandats
mande
mandement
mandeure
mando
mandobaisha
mandolina
mandolonce
mandres
mane
manescau
manfred
manfredini
manga
mangane
mange
manhac
manhattan
mani
manie
maniera
manife
manifesta
manifestacion
manifestacions
manifestants
manifestar
manifeste
manila
manio
manipulacion
manipular
manipur
manique
manja
manjan
manjar
manjat
manle
manlevat
mann
manneville
mano
manoir
manque
manresa
mans
manson
mansus
mant
manta
mantas
mante
manten
mantenement
mantenenc
mantenguda
mantengue
mantengut
mantenir
mantenon
mantes
mantuas
mantun
mantuna
mantunas
mantuns
manu
manual
manuel
manufactura
manufacturas
manufacture
manuscrit
manuscrits
many
mao
maoi
maomet
map
mapa
mapas
maps
mapsto
mapuche
maquiave
maquina
maquinas
maquis
mar
mara
marai
marais
marange
maraton
marbre
marc
marca
marcada
marcadas
marcan
marcant
marcar
marcas
marcat
marcats
marce
marcel
marcella
marcellin
marcello
march
marcha
marchais
marchand
marchanda
marchandas
marchandisas
marchands
marchar
marchas
marche
marches
marchiennes
marciac
marcial
marcigny
marcilhac
marcilly
marco
marcq
marcus
marcy
mard
mards
marduk
mare
mareil
marescal
marest
mareuil
marga
margalida
margaret
margarida
margarita
marge
marges
marginal
marginala
margny
margue
marguerite
mari
maria
mariae
mariage
mariana
marianne
mariano
marida
maridada
maridar
maridat
maridatge
maridatges
maride
marie
marigny
marilyn
marin
marina
marinas
marine
marines
marins
mario
marion
mariot
marit
maritim
maritima
maritimas
maritime
maritims
marius
marjarida
mark
market
markianova
marle
marly
marmanda
marmoutier
marna
marnay
marne
marnes
maro
marolles
marque
marques
marquesa
marquesat
marquis
marquisat
marquise
marraque
marre
marrida
marridas
marrit
marrits
marro
marron
mars
marsal
marsan
marseille
marselha
marselhe
marsh
marshall
marsupials
mart
marta
marte
martegue
martel
martes
martha
marti
martial
martigny
martin
martine
martini
martinica
martino
martinus
martir
martiri
martirizat
martirs
martius
marto
marue
maruelh
marx
marxisme
marxista
marxistas
mary
maryland
mas
masamet
masatge
masatges
masc
masca
mascaria
mascas
mascle
mascles
mascs
masculin
masculina
masculinizacion
masculins
mase
masqueta
mass
massa
massachusetts
massacre
massais
massas
masse
massendari
masseuva
massi
massif
massissa
massiu
massiva
masson
mast
mastegar
master
masters
mat
mata
mate
matematic
matematica
matematicas
matematician
matematicians
matematics
mateo
mater
material
materiala
materialas
materialisme
materialista
materials
materialy
materiau
materiaus
mathbb
mathcal
mathe
mathematics
mathieu
mathilde
mathrm
matie
matieu
matilda
matin
matique
matiques
mato
matricaria
matrimo
matritz
matt
matthew
maturitat
matz
mau
maubeuge
maucontentament
mauger
mauges
maugrat
maule
maur
maura
mauras
maure
mauriac
maurice
maurici
maurienne
maurin
maurita
maurizio
mauro
maurya
mausole
mauvais
mauvesin
max
maxi
maxim
maxima
maximal
maximala
maxime
maximilian
maximilien
maximin
maximom
maximum
maximus
maxwell
may
maya
mayenne
mayer
mayo
mayor
mazarin
mazie
maɾ
mb
mbia
mbiament
mbian
mc
mcdonald
mcgraw
me
meaux
meca
mecanic
mecanica
mecanicas
mecanics
mecanisme
mecanismes
mece
mecenat
med
medalha
medalhas
medard
mede
medecin
medecina
media
mediacion
mediana
medias
mediate
mediator
medica
medical
medicala
medicalas
medicals
medicament
medicaments
medici
medicina
medicinalas
medicine
medieval
medievala
medievalas
medievals
medievau
medievaus
medina
medio
medish
medisha
meditacion
mediteran
mediterrane
medo
medoc
medoquina
medusa
meerssen
meglenoromane
mehmet
mei
meiji
meile
meilleur
meitat
meix
mej
mejan
mejana
mejanas
mejanc
mejancie
mejans
mel
melaine
melay
melayu
melbourne
meles
melhor
melhora
melhoracion
melhorada
melhorament
melhoraments
melhorant
melhorar
melhoras
melhorat
melhore
melhors
melle
mello
melo
melodia
melon
mema
members
membra
membrana
membranas
membre
membrement
membres
meme
memo
memoir
memorial
memory
men
mena
menac
menace
menada
menadas
menaire
menaires
menan
menant
menar
menas
menat
menats
menava
menc
mencion
menciona
mencionada
mencionadas
mencionan
mencionar
mencionat
mencionats
mencions
mende
mendeleiev
mendoza
mendra
mendre
mendres
mene
menerbe
meng
menhir
mennym
meno
menor
menora
menoras
menors
mens
mensh
mensis
ment
menta
mentaire
mental
mentala
mentalas
mentals
mentavut
mente
mentha
menthon
mention
mentionne
mentir
mento
menton
mentre
mentretant
ments
menut
mequinenza
mer
meravilhas
merc
mercadie
mercands
mercants
mercat
mercats
merce
mercedes
mercenaris
mercey
mercure
mercuri
mercury
mercy
merey
meridian
meridional
meridionala
meridionalas
meridionau
merinhac
merita
meriti
merle
merlerault
merma
mermar
merme
mermoz
merry
mers
mery
mes
mesa
mesard
mesas
mescla
mesclada
mescladas
mesclan
mesclant
mesclar
mesclas
mesclat
mesclats
mescle
meses
meslay
mesma
mesme
mesmin
mesnil
mesoamerica
mesopotamia
mesopotamiana
messa
messas
messatge
messatges
messatgie
messe
messenger
messias
messier
messin
messina
messire
mesti
mestie
mestre
mestrejar
mestresa
mestressa
mestritge
mesura
mesurada
mesuran
mesurant
mesurar
mesuras
mesurat
mesure
mesures
met
meta
metabolisme
metadonnees
metafisica
metafo
metal
metallic
metallica
metallicas
metallics
metallurgia
metals
metamorfo
metan
metate
metau
metaus
mete
meteis
meteissa
meteissas
meteisses
metent
meteo
meteorologia
meteorologic
meteorologica
meteorologicas
meteorologics
method
meto
meton
metonimia
metratge
metre
metres
metric
metrica
metro
metropo
metropole
metropolitan
metropolitana
mettre
metz
meu
meules
meurthe
meuse
mexic
mexican
mexicana
mexicans
mexico
mey
meyer
mez
mg
mgr
mi
mia
miaire
miami
miao
miar
mias
mic
mica
mice
michael
miche
michel
michele
michelle
michigan
micolau
micro
micronesia
microorganismes
microsco
microsoft
mid
middle
midi
mie
mieg
miei
mieidia
mieja
mielhs
mies
mieu
mieux
mig
migne
mignon
migracion
migracions
migrants
migrar
migration
migrato
migre
miguel
mihiel
mijaran
mik
mike
mikhai
miklo
miko
mil
mila
milan
milas
mildio
mile
miles
milet
milh
milhac
milhau
milhor
mili
miliard
miliards
milie
miliers
milieu
milion
milions
milita
militaire
militaires
militant
militanta
militants
militar
militara
militarament
militaras
militars
military
mill
mille
millenari
milleni
millenni
miller
millie
millime
million
millions
milly
milon
milton
min
mina
minaire
minare
minas
mind
mine
minence
minerai
mineral
minerala
mineralas
mineralogia
minerals
minerau
mineraus
minervois
mines
ming
mini
miniac
miniatura
minie
minier
miniera
minim
minima
minimal
minimala
minimes
minimom
minimum
ministe
minister
ministra
ministre
ministres
minjar
mino
minor
minora
minorita
minoritari
minoritaris
minoritat
minoritats
minors
minos
minotaure
minuit
minuscula
minuta
minutas
minutes
minzu
mio
mioce
mique
miquel
mir
mira
mirabe
miracle
miracles
miralh
miralhs
miramont
miranda
mirapeis
mirar
mire
mirecourt
mirga
miribel
miro
miroir
mis
mise
mises
miss
missil
missils
mission
missionaris
missions
mississipi
mississippi
missori
miste
misterio
misteriosa
mistic
mistica
mistral
mistralenca
mit
mitan
mitans
mitat
mitchell
mite
mites
mitic
mitica
mitologia
mitologias
mitologic
mitra
mitralhaire
mitralhie
mits
mitterrand
mixta
mixte
mixtes
ml
mla
mm
mme
mn
mo
mobil
mobila
mobilas
mobile
mobiliari
mobilier
mobilitat
mobilizacion
mobilizar
mobilizat
mobilize
mobils
moc
mocion
mocratie
modalitats
mode
model
modelizacion
moder
moderacion
moderada
moderat
moderats
modern
moderna
moderne
modernes
modernisme
modernista
modernitat
modernizacion
modernizar
modeste
modifica
modificacion
modificacions
modificada
modificadas
modifican
modificant
modificar
modificat
modificats
modifie
modifique
modul
modular
module
moe
moeser
mogo
mographique
mohamed
mohammad
mohammed
moi
moignage
moigne
moignent
moin
moine
moines
moins
moire
moires
mois
moissac
moissals
moisset
moitie
mol
molay
molda
mole
molecula
molecular
moleculara
moleculas
molhe
moli
molie
molin
molina
molinie
molins
molon
molsheim
molt
molucas
moment
moments
mon
mona
monaco
monarca
monarcas
monarquia
monarquias
monarquic
monaste
monasterium
monceau
monceaux
monchy
mond
monde
mondes
mondeville
mondial
mondiala
mondialament
mondialas
mondiale
mondials
mondiau
mondo
mondonvila
monds
mone
moneda
monedas
monenh
monestie
monestier
moneta
monetari
money
mong
monge
monges
mongeta
mongetas
mongo
mongolia
monica
monin
monnaie
monnaies
mono
monographie
monoi
monopo
monopoli
monotei
monoxid
monroe
mons
monseigneur
monsieur
monson
monstre
monstres
mont
monta
montada
montagne
montagnes
montagny
montagut
montaigu
montalban
montan
montana
montane
montanha
montanhac
montanhas
montanhes
montanho
montanhosa
montanhosas
montant
montar
montargis
montastruc
montat
montatge
montauban
montaut
montbard
montbe
montbozon
montbrun
montcada
montcarles
montceau
montceaux
montclar
montcornet
montcuc
montdidier
monte
montelaimar
montem
montenegro
montes
montesquieu
montesquiu
monteverdi
montevideo
montfaucon
montferrand
montflanquin
montfo
montfort
montgalhard
montgomery
monthureux
montier
montigny
montinhac
montis
montjo
montjoie
montlaur
montluc
montmartin
montme
montmirail
montmorency
montois
montoliu
montpelhie
montpelhierenc
montpellier
montpesat
montre
montreal
montrejau
montreuil
montreux
montrevel
montrond
monts
montsegur
montserrat
monument
monumental
monumentala
monumentau
monuments
moon
moore
mor
mora
moral
morala
moralas
morale
morales
moralitat
morals
morau
morbihan
more
moreau
morel
moreno
moret
morfologia
morfologic
morgan
morhange
mori
morial
morigue
morin
morir
morisson
morlaix
morlans
mornay
morning
moro
moros
morphologie
morphology
morre
morris
morrison
mors
mort
mortagne
mortal
mortala
mortalas
mortalitat
mortals
morte
morteau
mortemer
mortie
mortier
morts
morvan
morville
mos
mosai
mosca
mosco
moscou
mose
mosellans
moselle
moselotte
moses
mosqueta
most
moste
mostra
mostrant
mostrar
mostrat
mostre
mot
mota
mothe
mother
motion
motiu
motius
motivacion
motivacions
motivar
motivat
moton
motor
motors
motritz
mots
motte
mou
moulin
moulins
mount
mountain
mountains
mourir
mourut
mousson
moussy
moutier
moutiers
mouton
mouvement
mouvements
mouzon
movement
movements
movie
moviment
moyen
moyenne
mozart
mp
mpte
mr
mrs
ms
mski
msw
mt
mte
mtes
mu
much
mucosa
muda
mudar
mude
muhammad
muher
muisha
mul
mula
mulhouse
multidiccionari
multien
multimedia
multipla
multiplas
multiple
multiples
multiplica
multiplicacion
multiplican
multiplicar
multiplique
multitud
mun
munch
mundi
mundo
munic
municions
municipal
municipala
municipalas
municipales
municipalitat
municipalitats
municipalite
municipals
municipau
municipi
municipis
munitions
munster
mur
muralha
muralhas
murat
mure
muret
muro
murray
murs
murtre
murtrie
mus
musa
muscle
muscles
muscular
muse
museo
museu
museum
music
musica
musical
musicala
musicalas
musicals
musicas
musicau
musicaus
musician
musicians
musique
muslim
mussolini
mustafa
mustela
musulman
musulmana
musulmanas
musulmans
mut
mutacion
mutacions
mutuala
mutualament
mw
my
myers
mysore
myste
myth
mythe
mythes
mythologie
mɐ
mɑ
mɔ
mə
mɛ
n
na
nabate
nac
nacion
nacional
nacionala
nacionalas
nacionalisme
nacionalista
nacionalistas
nacionalitat
nacionalitats
nacionalizacion
nacionals
nacionau
nacionaus
nacions
nacre
nad
nada
nadal
nadar
nadare
nadas
nadau
nado
nadu
nafra
nafrat
nage
nagement
nahuatl
nai
nail
naire
nairobi
nais
naissance
naisse
naissenc
naissent
naisson
naissut
najac
nakai
nakładnistwo
nal
nale
nalo
nals
name
nament
names
namibia
nampula
namur
nan
nana
nanas
nanci
nancy
nanglard
nans
nant
nantas
nantes
nanteuil
napole
napoleon
napoleonencas
napoleonien
napoli
nar
nara
narbona
narbone
narbonesa
narci
nard
narracion
narratiu
narrativa
narrator
nas
nasa
nasala
nascuda
nascut
nascuts
nash
nasque
nassau
nat
natacion
natal
natala
natalitat
nathalie
nathan
nation
national
nationale
nationales
nationaux
nations
natiu
natius
native
nativitat
natron
nats
natura
natural
naturala
naturalament
naturalas
naturalisme
naturalista
naturals
naturas
naturau
naturaus
nature
naturel
naturelle
naturelles
nau
naua
nauc
nauce
nauk
naus
naut
nauta
nautalemand
nautas
nautor
nautors
nauts
nava
naval
navala
navalas
navarra
navarre
navas
navau
nave
navegacion
navegador
navegar
navigacion
navigation
navigator
naviri
naviris
navy
naw
nay
nazaire
nazaret
nazari
nazi
nazionale
nazis
nazisme
naðo
naɫ
naɫs
naɾ
naɾi
naɾis
nb
nba
nc
ncarnacion
ncbi
ncer
nchez
ncia
nciala
ncian
ncias
ncidi
ncies
ncipe
nd
nda
nde
ndel
nder
ndez
ndia
ndias
ndisches
ndre
ndria
ne
nea
neandertal
near
nebo
neboda
nebosan
nebot
nebraska
nebulosa
nec
necessa
necessari
necessariament
necessaris
necessita
necessitan
necessitant
necessitat
necessitava
necessite
necropo
neerlande
neerlandesa
neerlandesas
nef
nega
negacion
negar
negatiu
negatius
negativa
negativas
negligibla
negligible
nego
negociacion
negociacions
negociar
negocie
negra
negras
negre
negres
negro
negue
negus
neige
neighbours
neil
neishenc
neishut
nel
nelli
nelson
nement
nements
nemours
nen
nencourt
nenon
nent
neo
neoli
neolitic
nepal
neptun
neptune
ner
nerac
nere
nergie
neri
neron
nervio
nes
nesle
nesles
neste
net
neta
netament
netejar
netejatge
nets
network
neu
neubourg
neucha
neue
neuf
neufcha
neuilly
neuro
neutra
neutralitat
neutralizar
neutre
neutres
neutron
neutrons
neuve
neuvelle
neuveville
neuville
neuvy
nevada
never
nevers
neveu
new
newbks
news
newton
nez
nfc
ng
nga
ngas
ngc
nge
ngel
ngels
nger
nggu
ngo
ngs
ngtemps
nguer
ngya
nh
nha
nhe
nher
nhs
ni
nia
nian
niana
nias
nic
nica
nicaragua
niccolo
nice
niche
nicholas
nick
nico
nicola
nicolas
nicolau
nicole
nida
nidas
nie
nied
niels
niemeyer
nietzsche
nificacion
nige
niger
nigerian
night
nigra
nigue
nijinski
nik
niko
nikolai
niks
nil
nim
nimai
nime
nimes
nin
nina
nine
ninfa
ning
niniva
nino
nintendo
nio
nion
nions
niphargus
nique
nir
nirvana
nis
nisme
nit
nitrat
nitrats
nitric
nits
niva
nive
niveau
nivernais
nix
niz
nizier
niɾ
njiu
njɛ
nl
nm
nnas
nni
no
noa
nobel
noble
nobles
noblesa
noblesse
noche
nocion
nocions
nocturn
nod
noe
nogaret
nogaro
nogent
noguie
noi
noir
noire
noireau
noiri
noiridura
noirir
noirisson
noiritura
noirs
nois
nol
nols
nom
noma
nomada
nomadas
nomades
nomar
nomat
nomats
nombre
nombrement
nombres
nombreuses
nombreux
nombro
nombrosa
nombrosas
nombroses
nome
nomen
nomena
nomenada
nomenadas
nomenan
nomenar
nomenat
nomenats
nomenava
nomenavan
nomenclatura
nomene
nomentat
nomeny
nominacion
nominal
nominala
nomination
nominatiu
nominis
nommait
nommat
nomme
nommer
noms
non
nontronh
nor
norbert
nord
nordic
nordistas
noreiev
norma
normal
normala
normalament
normalas
normale
normalizacion
norman
normand
normanda
normande
normandes
normandia
normandie
normands
normas
normativ
normativa
normau
noroe
noroy
norridura
norrigatge
norrois
norroy
norte
north
northern
norton
norve
norvegian
norvegiana
nos
nosaltres
nosautres
noses
nosta
noste
nostra
nostre
not
nota
notabla
notablas
notable
notables
notacion
notada
notadament
notaire
notamment
notar
notari
notas
notat
note
noter
notes
nothing
noti
notice
notion
notorietat
notre
notz
nou
noue
noun
noureev
nous
nousseviller
nouveau
nouveaux
nouvel
nouvelle
nouvelles
nouville
nouvion
nov
nova
nove
novel
novela
novelum
november
novembre
noveme
noven
novena
novo
novum
now
noyant
noye
noyelles
noyer
noyers
noyon
ns
nsa
nsdap
nse
nshe
nsia
nsol
nsols
nt
nta
nte
nter
ntes
nther
ntldstats
ntoa
ntra
ntre
nts
nu
nuanc
nubia
nubian
nucle
nuclear
nucleara
nuclearas
nuclears
nuclei
nucleotids
nud
nuda
nuds
nue
nuech
nuechs
nueit
nueva
nuevo
nuit
nuits
nul
nulla
nuls
num
number
nume
numeracion
numeric
numerica
numericament
numericas
numerics
numero
numidia
nuo
nuoro
nur
nuremberg
nurse
nus
nutricion
nutriments
ny
nya
nyu
nz
nzhi
nzu
nɐ
nɔ
nə
nɛ
nɛl
nɛw
o
oaaaaqaaj
oasi
oasis
ob
obama
obci
obe
obei
obelisc
obersorbisch
obertura
obje
objectiu
objectius
objet
objets
oblast
oblidar
obliga
obligacion
obligacions
obligada
obligant
obligar
obligat
obligato
obligats
oblige
obligue
oblit
obludar
obra
obrador
obradors
obras
obratge
obratges
obre
obrie
obrier
obriera
obrieras
obriers
obrir
obse
observa
observacion
observacions
observada
observadas
observaire
observar
observat
observations
observato
observator
observators
observats
observe
observer
obsole
obstacle
obstacles
obte
obten
obtencion
obtenguda
obtengudas
obtengue
obtengut
obtenguts
obtenir
obtenon
obu
obus
obyvatel
oc
ocampo
ocasion
ocasions
occam
occasion
occasional
occident
occidental
occidentala
occidentalas
occidentale
occidentals
occidentau
occidentaus
occita
occitan
occitana
occitanas
occitane
occitanes
occitania
occitanica
occitanie
occitanisme
occitanista
occitans
occupacion
occupant
occupation
occupe
ocde
oce
ocean
oceania
oceaniana
oceanianas
oceanic
oceanica
oceanicas
oceanics
oceans
ochanta
ochen
oclc
oct
octavi
octavius
octeville
octo
october
octobre
octubre
ocular
ocupa
ocupacion
ocupada
ocupadas
ocupan
ocupant
ocupants
ocupar
ocupat
ocupats
ocupava
ocupavan
ocupe
odal
odale
ode
oder
odile
odisse
odon
odor
odorat
odore
odors
oe
oest
of
ofe
ofensa
ofensiva
ofensivas
off
offensive
office
official
officiel
officiellement
officiers
officinale
officinalis
offre
ofici
oficial
oficiala
oficialament
oficialas
oficials
oficiau
oficiaument
oficiaus
oficie
oficier
oficiers
oficis
ofri
ofrigue
ofrir
ofrisson
oganda
ogivas
ognon
ographie
ographique
ographiquement
ographiques
oh
ohio
oi
oie
oil
oingt
ois
oise
oiseau
oiseaux
oisemont
oisy
oit
oj
ok
oklahoma
ol
ola
olais
olan
olanda
olande
olandesa
olandeses
old
ole
olga
oli
oligarquia
olimp
olimpiada
olimpic
olimpica
olimpics
olithique
oliva
olivares
olivas
olive
oliveira
oliver
olivet
olivie
olivier
ollie
olme
olocaust
ologie
ologique
ologiquement
ologiques
ologues
olonne
ols
oltrechiusa
olympia
olympic
olympique
om
omaha
oman
omar
ombra
ombras
ombre
omc
ome
omega
omeia
omeias
omenatge
omer
omicidi
ominid
ominids
omofo
omogene
omogenei
omolo
omonim
omonima
omonime
omonimia
omonims
omosexualitat
omosexuals
oms
on
ona
onar
onard
onaria
onat
onc
once
oncle
onda
ondada
ondas
onde
one
onem
onepage
ong
ongan
ongla
ongre
ongresa
ongria
onie
onien
online
only
onne
ono
onoma
onomastique
onomatope
onor
onorar
onorat
onorific
onors
ons
ont
onta
onte
ontologia
onu
onze
oo
oocities
oort
op
opale
opausa
opausada
opausadas
opausan
opausant
opausants
opausar
opausat
opausats
opausava
opause
opcion
opcions
ope
open
openstreetmap
opera
operacion
operacions
operar
operatiu
operator
operators
opinion
opinions
opold
oportail
oportunitat
oposicion
oposicions
oppidum
oppose
opression
optic
optica
opticas
optics
option
opus
or
ora
oraci
oracle
orador
oral
orala
oralas
oran
orange
orari
oras
orato
oratoire
orator
orbita
orbital
orbitala
orbitalas
orbitas
orchestra
ordenador
ordenanc
ordenar
ordenat
ordene
order
ordina
ordinari
ordinaris
ordinator
ordinators
ordo
ordona
ordonanc
ordonar
ordonat
ordone
ordonnance
ordonne
ordre
ore
oregon
oreille
ores
orezza
orfane
orfe
org
organ
organic
organica
organicas
organics
organisation
organise
organised
organisme
organismes
organista
organiza
organizacion
organizacions
organizada
organizadas
organizan
organizar
organizat
organization
organizats
organize
organs
orge
orgosolo
orgue
orgueilleux
ori
orie
orient
orienta
orientacion
orientada
oriental
orientala
orientalas
orientale
orientales
orientals
orientar
orientat
orientau
orientaus
oriente
orige
origin
origina
originaire
original
originala
originalament
originalas
originalitat
originals
originari
originaris
originas
originau
origine
origines
origins
origny
orion
orizont
orizontal
orizontala
orlando
orle
orleans
orlhac
ormes
ormo
ormonas
ormoy
ornain
ornament
ornaments
orne
ornit
oro
oronime
orphe
orpustan
orque
orror
ors
orsa
orsay
orses
orte
orthographe
orthographie
ortodo
ortodoxia
ortogafia
ortografia
ortografiat
ortografic
orville
orwell
os
osa
osage
oscar
oscars
ose
osiris
oso
ossa
osse
ossements
ossetia
ossi
ossum
ost
ostal
ostalaria
ostals
ostau
ostaus
ostil
ostila
ostilas
ostilitat
ostilitats
ostils
ostrogo
ot
otan
ote
othain
othe
othello
other
oti
otoman
otomana
otomanas
otomans
oton
otra
otramar
ots
ottawa
otto
ou
ouanne
oublie
ouche
oue
ouen
ouest
oui
ouilly
oulchy
our
ource
ourcq
ourense
ours
out
outils
outre
ouvert
ouverte
ouverture
ouville
ouvrage
ouvrages
ouvriers
ouzouer
ov
oval
ovala
over
overline
overrightarrow
overview
ovidi
ovul
owen
oxford
oxid
oxidacion
oxids
oxige
oyu
oz
ozbe
ozbequistan
ozo
ozu
oɾ
p
pa
pabalhon
pablo
pac
pace
pacha
pachelbel
pacient
pacients
pacific
pacifica
pacificar
pacifista
pacte
padena
padre
paga
pagament
pagaments
pagan
paganini
paganisme
pagans
pagar
pagat
pagats
page
pages
pagina
paginas
pagny
pago
pague
pagus
pai
pain
pair
paire
paires
pairin
pairo
pairs
pais
paisan
paisatge
paissie
paix
paja
pakistan
pal
pala
paladar
palai
palais
palas
palatalizacion
palatin
palatinat
palau
palay
pale
paleartica
paleo
paleobiology
paleolitic
paleontolo
paleontologia
paleontology
palestina
palestiniana
palestinians
paleta
palha
palhars
pali
palladio
pallas
palm
palma
palmare
palmas
palmer
palmie
palmon
palmons
palo
pals
palud
paludisme
palun
paluns
pama
pamela
pamjatnikam
pampa
pampalona
pan
pana
panama
panar
panat
panato
panc
pandora
pane
pange
panges
panica
panie
panjab
pano
panorama
pans
pante
panteon
panthera
panzer
paoli
paolo
papa
papas
papautat
papaver
pape
paper
papers
papie
papier
papir
papo
papoa
paquistan
paquistane
par
para
parabo
paracelse
parada
paradi
paradigma
paradis
parado
paragraf
paraguai
parai
paralle
parallel
parame
parana
paranthropus
parar
parasit
parasits
parat
paratge
paration
paraula
paraulas
paray
parc
parca
parcatge
parce
parcelles
parcial
parciala
parcialament
parcours
parcs
pardiac
pardo
pardon
pardoux
pare
paregue
paregut
pareis
pareissent
pareisson
parelh
parelhs
parent
parentat
parente
parents
paret
parets
pareu
pareus
parfois
pargny
pargue
pargues
pari
parie
paris
parisenc
parisenca
parisien
paritat
park
parker
parks
parla
parlada
parladas
parlament
parlamenta
parlamentari
parlamentaris
parlaments
parlan
parlant
parlar
parlars
parlat
parlats
parlava
parlavan
parle
parlem
parlement
parlementa
parler
parlers
parliament
parma
parmenides
parmi
paro
parochia
parodia
paroisse
paroisses
paroissial
paroissiale
paroissiens
parole
paroles
paroy
parpalho
parpalhon
parpe
parra
parro
parrochia
parroquiala
pars
part
partage
partatge
parte
parteja
partejada
partejan
partejant
partejar
partejat
partejats
partement
partemental
partementale
partementales
partements
partenari
partenaris
partenc
partenon
partent
parti
partia
partial
particion
participa
participacion
participan
participant
participants
participar
participat
participe
participi
particula
particular
particulara
particularament
particularas
particularitat
particularitats
particularite
particulars
particulas
particulie
particulier
partida
partidas
partido
partie
partiellement
parties
partigue
partiment
partir
partis
partisan
partisans
partit
partition
partits
parts
party
pas
pasa
pascal
pascas
pascual
pasmens
paso
passa
passada
passadas
passage
passait
passan
passant
passar
passara
passat
passatge
passatges
passatgie
passats
passava
passavan
passavant
passe
passejada
passejadas
passejar
passer
passerat
passes
passion
passions
passiu
passiva
passy
past
pasta
paste
pasteur
pasti
pastor
pastoral
pastorala
pastore
pastors
pastre
pastres
pastura
pasturar
pat
pata
patas
pate
patentes
pater
paternitat
pati
patigue
patiment
patinatge
patir
patisson
patit
patoge
patois
patologia
patologias
patria
patriarca
patriarcat
patric
patrice
patrici
patricia
patrick
patrimo
patrimoine
patrio
patriotique
patro
patrocini
patron
patrona
patronage
patronatge
patrons
patronyme
patronymes
patry
patton
patz
pau
pauc
pauca
paucas
paucs
paul
paula
paule
paulhac
pauli
paulin
paulo
paur
paura
pauras
paure
paures
pauretat
pausa
pausada
pausan
pausanias
pausant
pausar
pausat
pausats
pause
pauvre
pauvres
pave
pavia
pavo
pavon
paw
pawoł
pax
payer
payot
pays
paysage
paysages
paysans
paz
paɾ
paɾa
pc
pcc
pcf
pdf
pe
peabody
peace
pearl
pearson
peatge
peau
pebre
pebron
pec
pecat
pecats
pechar
pedago
pedagogia
pedro
peeters
pega
peine
peintre
peinture
peir
peira
peire
peirego
peirie
peiro
peirosa
peirussa
peis
peish
peisses
peisson
peissons
peitau
peitavin
peitavina
peitieus
pej
pejoratiu
pel
pelagrua
pelatge
pele
pelegrin
pelegrinatge
pelegrins
pellicula
pelo
pelopone
pels
pen
pena
penal
penala
penas
pench
penche
penchenar
pend
penda
pendaient
pendait
pendance
pendances
pendant
pendante
pendent
pendenta
pendentas
pendi
pendnet
pene
penede
penetracion
penetrar
penguin
peni
peninsula
peninsular
penjal
penjals
penjar
penjat
pennsilva
pensa
pensada
pensadas
pensador
pensaire
pensaires
pensament
pensan
pensant
pensar
pensat
pensatz
pensava
pensavan
pense
penser
pension
penson
pentago
pente
pentes
people
pepin
pepusch
pequin
per
pera
perbosc
percac
perce
percebre
percebuda
percebut
percentatge
percep
percepcion
percepcions
perche
percors
percussion
percussions
percy
perd
perde
perdent
perdigue
perdon
perdre
perdu
perduda
perdudas
perdure
perdut
perduts
pere
pereira
pereu
perfe
perfeccion
perfectiu
perfie
perfil
performa
performanc
performance
perfum
pergam
pergamin
pergolesi
peri
pericles
perie
periferia
periferic
perifericas
periferics
perigo
periguers
perilh
perilho
perilhosa
perime
perio
period
periodic
periodica
periodicas
periodicitat
periodics
permane
permanent
permanenta
permanentas
permanents
perme
permeses
permet
permetava
permete
permetent
permetia
permeton
permetra
permetre
permetria
permettant
permettent
permis
permission
pern
pernay
pernes
pero
peron
perosa
peroviana
perpe
perpendicular
perpinhan
perque
perret
perrie
perrier
perriers
perrigny
perrin
perron
perry
pers
persan
perse
persec
persecucion
persecucions
persee
persefo
persegui
perseguida
perseguie
perseguir
persic
persiste
persona
personal
personala
personalament
personalas
personalitat
personalitats
personals
personas
personatge
personatges
personau
personaus
persones
personificacion
personne
personnes
perspectiva
perspectivas
perspective
perspectives
perthes
perto
pertocant
pertot
pertu
perturbacion
perturbacions
pes
pesa
pesada
pesant
pesantor
pesar
pesca
pescadors
pescaire
pescaires
pescar
pese
pesena
peses
pesmes
peso
pesolh
pesolhs
peste
pesticidas
pesuc
pesuca
pesucas
pesucs
pesuga
pet
petals
petar
pete
peter
peters
petersborg
peterson
peth
peticion
petit
petita
petitas
petite
petites
petits
petra
petri
petro
petrograd
petrolie
petrozavodsk
petrus
peu
peugeot
peuple
peuplement
peuples
peur
peus
peut
peuvent
peyre
pez
pezel
peɾ
peʀ
pg
ph
phane
phaseolus
phe
phi
phil
philadelphia
philbert
philibert
philip
philipp
philippe
philippson
philips
phillips
philologie
philosophical
philosophie
philosophique
philosophy
pho
phoenix
phone
phonetic
phonological
phonologie
phonology
photo
photos
php
phylloxe
phylogeny
physical
physics
physique
phytophthora
pi
pia
piament
pianista
piano
pias
pib
pibol
pic
pica
picar
picard
picardia
picardie
picasso
picchu
piccolo
picho
pichon
pichona
pichonas
pichons
pico
pics
pictures
pide
pie
pied
pieds
piemont
piemonte
pier
piero
pierre
pierrefitte
pierremont
pierrepont
pierres
pietat
pieter
pietro
pieve
pigassa
pigment
pigments
pik
pila
pilar
pilars
pilas
pilat
pilbara
pile
pilhada
pilhar
pilhatge
pilhatges
pilhe
pillages
pille
pilo
pin
pinal
pinay
pinc
pince
pine
pinet
pingoi
pinhas
pino
pins
pintar
pintat
pintor
pintors
pintre
pintres
pintura
pinturas
pinus
pinyin
pio
pion
pioneer
pionie
piotr
pip
pipa
pique
piramida
piramidas
pirata
pirataria
piratas
pire
pirene
pirenenc
pirenenca
pis
pisa
piscina
pisode
pista
pistas
piste
pistolet
piston
pit
pitago
pital
pithiviers
pitre
pitron
pittoresque
piu
pizarro
pizza
pk
pl
pla
plac
placa
placas
place
placenta
places
plafon
plaga
plage
plages
plai
plaid
plain
plaine
plaines
plains
plaisance
plaja
plajas
plan
plana
planas
planches
planck
plane
planet
planeta
planetari
planetary
planetas
planh
planie
planificacion
plano
plans
plant
planta
plantacion
plantacions
plantada
plantar
plantas
plantat
plantats
plante
plantes
plants
plaque
plasenc
plaser
plasers
plasma
plasmodium
plastic
plastica
plastics
plat
plata
plataforma
plate
plateau
plateaux
platin
platina
platon
plats
play
plaza
ple
plegar
plei
plein
pleine
pleistoce
pleistocene
plen
plena
plenament
plens
ples
plesiosaures
plessier
plessis
pli
plini
plioce
plo
plodar
ploe
ploetz
plomb
plon
plorar
plotin
ploue
plu
plue
plueja
pluejas
pluie
pluma
plumas
plumatge
plume
plupart
plural
plurala
plurals
plurau
plus
plusieurs
plusors
plutarc
pluto
pluton
pluvio
pluviome
pm
pmid
pnas
pneumatic
png
po
poblacion
poblada
pobladas
poblament
poblants
poblar
poblat
poblats
poble
poc
poce
poche
pocket
podava
podavan
pode
podem
poden
podent
poder
podere
podero
poderosa
poderosas
poderoses
poders
podia
podio
podium
podo
podon
podria
podut
poe
poecilia
poema
poemas
poems
poesia
poesias
poeta
poetessa
poetic
poetica
pogudas
pogue
pogut
poi
poids
poilly
poincare
point
pointe
points
poira
poire
poiria
pois
poison
poissanc
poisson
poitiers
poitou
poix
pojada
pojar
pol
pola
polar
polara
polaras
pole
polemica
polha
poli
police
policie
policy
polida
polidas
polie
poligny
poligo
polime
polimerasa
polinesia
polinesiana
polino
polis
polit
politecnica
politei
politic
politica
political
politicament
politicas
politician
politiciana
politics
politique
politiques
polits
polle
pollinizacion
pollucion
pollucions
polluents
polo
polone
polonesa
polonesas
polonha
pols
polvera
polyculture
poma
pomas
pome
pomie
pomme
pommeraye
pommier
pommiers
pompa
pompas
pompe
pompidor
pompie
pon
ponc
ponce
ponch
poncha
ponches
ponchs
ponchut
pondre
ponduda
ponent
ponh
pons
pont
pontarlier
pontcharra
ponte
pontet
pontevedra
ponthieu
pontificat
ponts
pop
popa
pope
popolazione
popora
populacion
populacions
populaire
populaires
popular
populara
popularament
popularas
popularitat
populars
population
populations
poque
por
porcelana
porche
porcien
porcion
porgir
pornografica
porpra
port
porta
portada
portadas
portail
portaire
portaires
portait
portal
portamante
portant
portar
portara
portat
portats
portau
portava
portavan
porte
porter
portes
portie
portland
porto
portrait
ports
portua
portugal
portugau
portugue
portuguesa
portuguesas
portugueses
portus
pos
posar
posca
poscas
poscut
pose
poseidon
poses
posesiones
posicion
posicionament
posicions
position
positiu
positius
positiva
positivas
positivisme
posse
possedeish
possedi
possedir
possedissent
possedissia
possedisson
possedit
possession
possessions
possessiu
possessor
possibilitat
possibilitats
possibla
possiblament
possiblas
possible
possibles
post
postal
postam
poste
posterior
posteriora
posteriorament
posterioras
posteriori
posteriors
posteritat
postula
postulat
postulats
postum
postuma
postura
pot
potabla
potassi
pote
potencial
potenciala
potencialament
potencials
potenciau
poterie
poteries
potier
poton
pots
potter
potz
pou
poue
pouille
pouillhistoriq
pouilly
pour
pourquoi
pourrait
pourtant
pousa
pouse
pouvait
pouvera
pouvoir
poux
pova
powell
power
powhatan
pp
ppe
ppp
pr
pra
practic
practica
practicada
practical
practicament
practican
practicant
practicar
practicas
practicat
prada
pradas
prade
prades
pradesh
prado
praga
prague
prairie
prairies
prat
pratique
prats
praube
prawopisny
pre
preambul
preca
precari
precaucion
precauhar
prece
precedent
precedenta
precedentas
precedents
precedi
precedit
preceltic
preceltica
preceptor
preci
precio
preciosa
preciosas
precioses
precipitacion
precipitacions
precisa
precisament
precisar
precisas
precision
preco
precursor
precursors
preda
predator
predators
predecessor
predecessors
predicacion
prediccion
predire
prefa
prefaci
prefe
prefectorau
prefectura
prefecturas
prefere
preferi
preferigue
preferisson
preferit
prefix
prefixe
prefonda
prefondament
prefondor
prega
pregar
preguie
prehistoric
prei
preindoeurope
preis
preishac
prejudici
prekaw
prelatin
prelatina
premi
premiat
premie
premier
premiera
premieras
premierei
premiereis
premiers
premio
premsa
pren
prenant
prend
prendra
prendre
prene
prenent
prengo
prengue
prenia
prenom
prenon
prensa
preocupacion
preocupacions
preocupar
preocupe
prepara
preparacion
preparacions
preparada
preparar
preparat
preparats
prepare
prepaus
prepausa
prepausada
prepausadas
prepausan
prepausant
prepausar
prepausat
prepausats
prepause
preponderant
preposicion
prerogativas
pres
presa
presas
presat
presbyte
prescripcion
prese
present
presenta
presentacion
presentada
presentadas
presentan
presentant
presentar
presentas
presentat
presentats
presentava
presente
presents
preservacion
preservar
preses
preside
presidencial
presidenciala
presidencialas
presidenciau
president
presidenta
presidents
presidi
presidit
presl
presles
presoe
preson
presonie
presoniers
presons
presqu
presque
press
presse
presses
pressigny
pression
pressions
prestar
prestigi
prestigio
prestigiosa
prestigiosas
prestigioses
prete
pretend
pretendent
pretendents
pretendre
preterit
preterite
preto
pretonic
pretonica
pretz
pretzfach
pretzfachs
preuve
preux
prevei
preveire
prevencion
prevenir
prevesia
preville
prevision
previst
prevista
previstas
prevists
pri
pria
priam
prias
price
prie
priest
prieur
prieure
prigond
prigonda
prigondament
prigondas
prigondor
prigonds
prim
prima
primari
primaris
primas
primat
primats
primautat
prime
primer
primera
primie
primier
primiera
primitif
primitiu
primitius
primitiva
primitivas
primitive
primo
primordial
primordiala
primordiau
prims
prince
princes
princesa
princessa
princeton
princi
principal
principala
principalament
principalas
principale
principalement
principales
principals
principat
principats
principau
principaus
principaute
principaux
principe
principes
principi
principis
principles
prinhac
printemps
prior
priorat
prioratus
priori
prioritat
pris
prise
prison
prisonie
prisonniers
prit
privacion
privada
privadas
privar
privat
privatiu
privats
prive
privile
privilegiada
privilegiar
privilegiat
prix
prize
pro
proa
probabilitat
probabilitats
probabla
probablament
probable
probablement
probablhament
proble
problema
problemas
problematica
procacci
procario
proce
procedi
procediment
procediments
procedir
procedura
proceduras
proceedings
procenc
processes
procession
processor
processu
processus
proche
proches
proclama
proclamacion
proclamada
proclamar
proclamat
proclame
procuraire
produccion
produccions
produch
producha
produchas
produches
produchs
productes
production
productions
productiu
productiva
productivitat
productor
productors
productritz
produgue
produire
produit
produits
produrre
produseish
produsent
produsi
produsida
produsigue
produsir
produsisson
produsit
produson
produtz
profana
profe
profecia
profession
professional
professionala
professionalas
professionals
professionau
professionaus
professions
professor
professora
professors
profie
profiech
profile
profit
profite
profonde
program
programa
programacion
programas
programme
progre
progressar
progression
progressista
progressistas
progressiu
progressiva
progressivament
progressivement
proi
proje
projeccion
projeccions
project
projectil
projectils
projet
prokofiev
proletariat
proliferacion
prolo
prome
promesa
promessa
promet
promete
promier
promo
promocion
promotor
promotors
promulgacion
promulgue
pron
prono
pronom
pronominal
pronoms
prononciacion
prononciada
prononciar
prononciat
prononciation
prononcie
propaga
propagacion
propaganda
prope
prophe
propice
propici
propietat
propo
proporcion
proporcional
proporcionala
proporcions
propos
propose
proposicion
proposicions
propre
propres
proprie
proprieta
proprietari
proprietaris
proprietat
proprietats
propulsion
proserie
prospe
prosper
prosperitat
prospero
prostitucion
protagonista
protagonistas
prote
proteccion
proteccions
protection
protector
protectorat
protectors
protectritz
protegi
protegida
protegidas
protegir
protegissia
protegit
protegits
protei
protestacion
protestacions
protestant
protestanta
protestantas
protestante
protestantisme
protestants
protestar
proto
protoco
protoeslau
protogermanic
protoindoeurope
protomalaiopolinesian
proton
protons
prototipe
prouve
prouvenc
prov
provar
prove
proven
provenc
provencau
provence
provenche
provenent
provenir
provenon
provesi
provesida
provesiment
provesir
provesit
provi
providence
provient
province
provinces
provincia
provincial
provinciala
proviso
provisoirement
provo
provocada
provocadas
provocant
provocar
provocat
provoque
proximitat
proximite
pru
prude
prudent
prudhomme
prume
prumie
prumier
prumiera
pruna
prunay
prunet
prunie
prunus
prussian
prussiana
prussians
prussienne
prussiens
ps
pseudo
pseudonim
psi
psicanalisi
psico
psicolo
psicologia
psicologic
psicologica
psicologics
psiquiatre
psiquiatria
psiquic
psiquica
psychanalyse
pt
pta
ptan
ptas
pte
pteropus
pterosaure
pterosaures
ptes
ptoleme
pts
pu
pub
publ
public
publica
publicacion
publicacions
publicada
publicadas
publicament
publicar
publicas
publicat
publication
publications
publicats
publicitat
publics
publie
publique
published
publishers
publishing
pue
puebla
pueblo
pueg
puei
puente
puerto
puf
pug
puget
pui
puig
puis
puisaye
puiseaux
puiseux
puish
puisqu
puisque
puissante
puits
puja
pujada
pujar
pujo
pujol
pula
pulture
pultures
pun
punch
punica
punir
punk
punt
punta
puntas
puntejadas
punts
punycode
puo
pur
pura
purament
purcell
pure
puretat
purgar
purgas
purificacion
purificar
purme
purs
pus
pusle
pusleu
put
putanges
pute
puter
puttelange
puy
puɾ
pvc
px
py
pyeongyang
pyre
pɔ
pə
pɛ
pɾe
pɾi
pɾo
pɾu
pʀe
pʀu
q
qa
qatar
qe
qi
qin
qing
qinghai
qu
qua
quad
quadre
quadres
quae
quaid
qual
quala
qualas
qualifica
qualificacion
qualificada
qualificar
qualificat
qualificatiu
qualificats
qualitat
qualitats
qualite
qualqu
qualquas
qualque
qualques
quals
quan
quand
quant
quantic
quantica
quantitat
quantitats
quantz
quaranta
quarante
quarantena
quaresma
quarks
quart
quartie
quartier
quartiers
quarto
quarts
quase
quasi
quasiment
quate
quatorze
quatre
quatremare
quatren
quatrena
quatrie
quau
quauqu
quauqua
quauquarren
quauquas
quauque
quauquei
quauqueis
quauques
quaus
que
quebe
queen
queens
queensland
queer
quel
quela
quelque
quelques
quences
quente
quentin
quercus
quercy
quere
ques
quesnoy
questa
question
questions
queu
queue
qui
quia
quias
quicho
quico
quid
quie
quilha
quilhada
quilhan
quilhar
quilhat
quilo
quilograma
quilogramas
quilome
quilometric
quim
quime
quimia
quimic
quimica
quimicas
quimics
quimista
quimistas
quimper
quin
quina
quinas
quincy
quines
quingey
quinina
quint
quinta
quinzaine
quinze
quinzena
quio
quipe
quirguizstan
quirin
quis
quista
quita
quitament
quitar
quitas
quitat
quite
quites
quito
quitte
quo
quocient
quod
quoi
quora
quot
quotidian
quotidiana
qɑ
qɯ
qʊ
r
ra
raa
rabairac
rabastens
rabelais
rabin
rable
rables
rac
race
rache
rachel
rachete
raciala
racina
racinas
racine
racines
racing
racional
racionala
racionalitat
racionals
racisme
racista
raco
raconta
raconte
racontes
rada
radar
rade
radegonde
radi
radiacion
radiacions
radical
radicala
radicalament
radicals
radicau
radicaus
radio
radioactiu
radioactius
radioactiva
radioactivitat
radloff
rafael
rafe
rage
rahman
rai
raic
raices
raid
rail
raimon
raimond
rain
rainal
rainer
rainier
raion
raionament
raionaments
raire
raires
rais
raison
raj
raja
rajasthan
rak
ral
rale
ralement
ralite
ralph
ram
rama
ramaderia
ramas
rambert
rambervillers
rambla
rame
rameau
ramecourt
rament
ramo
ramon
ramonvila
ramos
rams
ramse
ran
rana
ranc
rance
rancourt
rand
random
randon
randonne
rang
range
ranger
rank
rankorder
rans
rant
raon
raoul
rap
raphae
raphe
rapid
rapida
rapidament
rapidas
rapide
rapidement
rapiditat
rapids
rapo
rappelle
rapport
rapporte
raprochament
raprochar
raproche
raqueta
rar
rara
rarament
raras
rard
rardmer
rare
rares
rars
ras
rasat
rase
rasic
rasim
rason
rasonable
rasonament
rasons
raspotin
rat
rata
ratapenada
ratapenadas
ratie
ratificacion
ratificar
ratificat
ration
rations
rats
rattache
rattachement
rattus
rature
rau
rauba
raubaire
raubament
raubar
raucourt
rault
raultaises
raux
ravage
ravel
ravena
raville
raw
ray
raymond
raze
rb
rba
rbas
rbe
rbes
rbi
rbis
rbs
rc
rca
rcas
rce
rces
rci
rcia
rcis
rcs
rd
rda
rdan
rdas
rde
rdi
rdia
rdis
rdoa
rdoba
rdon
rdre
rdres
rds
re
rea
reaccion
reaccions
reactiu
reactius
reactor
reactors
read
reader
reagi
reagir
reagrupa
real
reala
realament
realas
realisme
realista
realistas
realitat
realitats
realiza
realizacion
realizacions
realizada
realizadas
realizador
realizan
realizant
realizar
realizat
realizator
realizats
realizava
realize
reals
reau
reaus
reba
rebat
rebaton
rebe
rebellion
rebut
rebuta
rebutada
rebutar
rebutat
rebute
rec
recampa
recampar
rece
recebe
recebia
recebon
recebre
recebuda
recebut
recensada
recensament
recensats
recense
recensement
recent
recenta
recentament
recentas
recents
recep
recepcion
receptor
receptors
recerca
recercas
recession
recherche
recherches
reciclatge
recipient
recipro
recit
recits
reclama
reclamar
reclams
reco
recobe
recobrar
recomanda
recomandacions
recompensa
reconciliacion
recone
reconeguda
reconegudas
reconegue
reconegut
reconeguts
reconeis
reconeissenc
reconeissent
reconeisson
reconnaissance
recono
reconogue
reconoissenc
reconquista
reconquistar
reconquiste
reconstitucion
reconstituted
reconstruccion
reconstruction
reconstruire
reconstruit
reconstruite
record
records
recorregut
recors
recorses
recrutament
recrutar
rectangle
rectangulara
recteur
rection
rector
recue
recueil
recuelh
reculada
reculament
reculhir
recuperacion
recuperacions
recuperar
recupere
recurrent
recurrentas
recurrents
red
redaccion
redactor
rede
redevient
redigi
redigida
redigigue
redigir
redigit
redigits
redir
redon
redond
redonda
redreic
reduccion
reduch
reducha
reduchas
reduire
redurre
redusi
redusida
redusir
redusit
redusits
reed
reedicion
reeleccion
reelegit
ref
refere
reference
references
referencial
referenciau
referendum
referent
referi
referir
refle
reflexion
reflexions
refo
reforma
reformada
reformar
reformas
refraccion
refregiment
refrejament
refu
refuge
refugi
refugiar
refugiat
refugiats
refugie
refusa
refusan
refusant
refusar
refusat
refuse
reg
rega
regan
regard
regarda
regardan
regardant
regarde
regde
rege
regel
regent
regenta
regents
regi
regia
regim
regime
regiment
regiments
regimes
regims
regina
regio
region
regional
regionala
regionalas
regionalista
regionals
regionau
regionaus
regions
register
registre
registres
regla
reglada
reglament
reglamentacion
reglaments
reglar
reglas
regna
regnar
regnat
regne
regno
regression
regropa
regropament
regroupe
regroupement
regula
regulacion
regular
regulara
regularament
regularas
regularitat
regulars
rei
reial
reiala
reialas
reialme
reialmes
reials
reialtat
reiau
reiaume
reiaumes
reiaus
reich
reid
reims
reina
reinas
reine
reinhardt
reire
reis
rejo
rejoindre
rejoint
rejonh
rel
relacion
relacions
relai
relais
relambi
relarg
relat
relatif
relation
relations
relatiu
relatius
relativa
relativament
relativas
relative
relativement
relativitat
rele
relevada
relevait
relevant
releve
relhac
reli
reliait
reliant
relie
relief
relig
religa
religieuse
religieuses
religieux
religio
religion
religions
religiosa
religiosas
religioses
reliques
relo
rem
remanda
remandar
remanie
remarca
remarcabla
remarcable
remarcar
remarquable
remarque
reme
remembra
remembran
remembrant
remembrar
remembre
remembrement
remembres
rement
remesa
remi
remilly
remiremont
remo
remonta
remontada
remontan
remontant
remontar
remontaria
remonte
remontent
remparts
remplac
remplace
rems
remy
ren
rena
renaissance
renaissenc
renan
renard
renat
renato
renaud
renault
rence
rences
rencontra
rencontre
rend
renda
rendas
rende
rendement
rendiment
rendre
rendu
rendus
rendut
rene
renfo
renforc
renforce
reng
rengs
rennes
reno
renoir
renomada
renomme
renonciar
renoncie
renovacion
renovelablas
renovelament
renovelar
rens
rent
rente
rentes
rents
reorganizacion
reorganize
repais
reparacion
reparacions
reparar
reparticion
repartidas
repartits
repaus
repausa
repe
reperto
repeticion
repetir
repic
replanat
replegar
replica
replicacion
repo
report
reports
repos
repre
repren
reprendre
reprene
reprengue
represa
represalhas
representa
representacion
representacions
representada
representadas
representan
representant
representants
representar
representat
representatiu
representativa
representats
representava
representavan
represente
represes
repression
reprimida
reprimir
repris
reprise
reprises
repro
reproduccion
reproduire
reptil
reptils
repu
republic
republica
republican
republicana
republicanas
republicans
republicas
reputacion
reputada
reputat
reque
rer
res
rescat
rescaufament
resco
rescontre
rese
research
reserva
reservada
reservadas
reservat
reservats
reside
residencial
resident
residents
residi
residu
resina
resinas
resiste
resistent
resistents
resisti
resistigue
resistir
resnum
reso
resolucion
resolucions
reson
resona
resources
respe
respectar
respectat
respecte
respectius
respectivament
respectivas
respie
respiracion
respirar
respirato
respo
respond
responde
respondre
responsa
responsabilitat
responsabilitats
responsabla
responsable
responsables
responsas
resse
resso
resson
ressons
ressorc
ressorsa
ressorsas
ressort
ressources
resta
restablida
restabligue
restabliment
restablir
restablit
restacada
restacat
restanca
restancas
restant
restauracion
restaurada
restaurant
restaurants
restaurar
restaurat
restauration
restaure
reste
restes
restitucion
restituir
restre
restrench
restriccion
restriccions
result
resulta
resultan
resultant
resultar
resultat
resultats
resulte
results
resumir
resumit
resurreccion
resurrecting
ret
retard
retardar
retaule
rete
retenguda
rethel
retina
retira
retirada
retirament
retirar
retirat
retirats
retire
retorica
retorn
retour
retrach
retrachs
retrait
retraite
retre
retrieved
retro
retrobar
retrobe
retrouve
rets
retut
retz
reu
reuil
reule
reunion
reus
rev
reve
revelacion
revelada
revelar
revelat
revele
revendica
revendicacion
revendicacions
revendicar
revendicat
revendique
revenge
revengut
revenguts
revenus
revermont
reversament
reversar
reversat
revest
review
reviews
revirada
reviradas
revirat
revisat
revisco
reviscolar
revised
revision
revista
revistas
revo
revolucion
revoluciona
revolucionari
revolucionaris
revolucions
revolum
revolution
revoute
revue
rex
rey
reyssouze
rez
rf
rfa
rg
rga
rgas
rge
rgi
rgue
rgues
rh
rhe
rhin
rhinolophus
rho
rhodes
ri
ria
rial
riala
rialas
riament
rian
rias
riau
riaux
riba
riban
ribar
ribas
ribe
ribeaucourt
ribeiro
ribemont
ribera
ribie
ribiera
ribo
riboso
ric
rica
ricain
ricaine
ricains
ricament
ricard
ricardo
ricas
rice
rich
richard
richards
richardson
riche
richebourg
richelieu
richemont
riches
richessa
richessas
richesse
richmond
richter
rico
ricourt
rics
rida
ride
rideau
ridionale
rie
ried
riel
rien
rienne
riennes
ries
rieu
rieur
rieure
rieux
rif
rifkin
rift
rig
rige
right
rights
rignac
rigny
rigor
rigord
rigoro
rigorosa
rilly
rim
rima
rimas
rimbaud
rime
rimini
rin
ring
rinoce
rio
riode
rioja
rion
riot
riphe
rique
riques
riquesa
riquesas
riquet
riquier
rir
rire
ris
risation
risc
risca
riscs
rise
risle
risque
risques
ristique
ristiques
rit
rita
ritable
ritage
rite
rites
ritiers
ritme
ritmes
ritual
rituals
ritz
riu
riumas
rius
riuto
rival
rivala
rivalas
rivalitat
rivalitats
rivalizar
rivals
rivau
rivaus
rive
river
rivera
rivers
rives
rivie
rix
rize
rizo
rja
rjas
rk
rla
rlas
rle
rm
rma
rman
rmas
rme
rmes
rms
rn
rna
rnan
rnas
rne
rnes
rnha
rnhe
rnia
rns
ro
road
roan
roazhon
robe
robert
roberto
roberts
robertson
robin
robinson
robo
robot
robustus
roc
roca
rocasso
rocca
roch
rocha
roche
rochefort
rochelle
rocher
rochers
roches
rochette
rocheux
rock
roco
rocongolesas
rocosas
roda
rode
rodez
rodoreda
rodri
rodrigo
rodrome
roe
roegen
roerga
roergassa
roergue
rofiac
roge
roger
rogers
roges
rogie
roglo
rognon
rohan
rohlfs
roi
roians
roire
rois
roja
rojas
roland
role
roll
rolling
rom
roma
romagne
romain
romaine
romaines
romains
roman
romana
romanas
romance
romancie
romane
romanes
romanesa
romanha
romani
romania
romanic
romanica
romanicas
romanin
romanizacion
romanizat
romano
romans
romantic
romantica
romantisme
romanus
romavatge
rome
romeo
romieg
romieu
romilly
rompe
rompedura
rompre
romul
ron
ronald
ronc
ronce
rond
ronda
ronde
ronique
ronjat
ronne
roosevelt
roport
roque
roquebert
roqueta
roquetas
ros
rosa
rosada
rosas
rosay
rose
rosegaire
rosegaires
roses
rosie
rosnay
rosoy
ross
rossa
rosselhon
rosset
rossi
rossinho
rossiskoi
rostaing
rostanh
rot
rota
rotacion
rotas
roth
rothschild
rotie
rotland
rotle
rotrou
rotterdam
rou
rouanne
roue
rouen
rouergue
rouge
rougemont
rouges
roule
roumain
roumois
round
roure
roures
rouse
rousseau
roussel
roussillon
route
routes
routie
routier
routledge
rouville
rouvray
rouvres
rouvroy
roux
rove
rovigna
rovilhar
rovingien
rovingienne
rovingiennes
rovingiens
rowling
roy
royal
royale
royans
royaume
royaute
roye
rozoy
rp
rps
rpus
rr
rra
rras
rratrem
rratremol
rratrems
rre
rrer
rres
rrez
rri
rritz
rs
rsa
rsan
rsari
rsas
rse
rsei
rseis
rses
rsi
rsia
rsias
rss
rsses
rt
rta
rtament
rtan
rtas
rte
rter
rterbuch
rtes
rti
rts
ru
rubio
ruda
rude
rudolf
rue
rues
rufa
rufe
rugbi
rugby
rui
ruine
ruines
ruisseau
ruisseaux
ruiz
rum
rumans
rumilly
rumor
rumors
run
rupe
rupt
ruptura
rural
rurala
ruralas
rurale
rurals
rurau
rus
rusa
rusalem
rusca
rushdie
russa
russas
russe
russell
russes
russia
russian
russie
russkago
russkii
rustica
rute
ruth
rutherford
rv
rva
rvan
rvas
rvi
rvis
rwanda
ry
ryan
rze
rə
s
sa
saa
saba
sabadell
sabah
sabarthe
sabatie
sabe
sabent
sabenta
sabents
saber
sabers
sabi
sabia
sabine
sabla
sable
sables
sablons
sabon
sabor
sabre
sac
saccage
sacerdo
sacrada
sacramento
sacrat
sacrats
sacre
sacrifici
sacrificis
sacrile
sacs
sacy
sada
saddam
safavida
safran
saga
sage
sageta
sagrada
sagrat
sahara
sahidic
sai
said
sailles
sailly
sain
sainct
sains
saint
sainte
saints
saique
saire
sais
saison
sait
sal
sala
salada
saladas
saladin
salamanca
salamon
salar
salari
salariat
salariats
salaris
salas
salat
salazar
sale
sales
salias
salina
salinas
salines
salinitat
salins
salisbury
salish
saliva
salix
salle
salles
salm
salo
salomon
salon
salons
sals
salsa
salt
salta
salut
salva
salvador
salvament
salvar
salvat
salvatge
salvatges
salvatja
salvatjas
salve
salvetat
salvi
salvia
sam
sama
samba
sambre
sambucus
sammartini
samoa
samos
samson
samue
samuel
san
sana
sanc
sanccion
sance
sancerre
sanch
sancho
sancions
sancta
sancte
sancti
sancto
sanctuari
sanctus
sancy
sand
sandra
sandre
sang
sanguin
sanguina
sanguins
sanha
sanhas
sanita
sans
sanscrit
sanskrit
sant
santa
santana
santas
santat
sante
santee
santerre
santiago
santo
santonge
santos
sants
santuari
santuaris
sao
saosnois
sap
sapie
sapiens
sappada
sappadino
saquejat
sar
sara
saragossa
sarah
sard
sarda
sarde
sardenha
sardo
sargon
sarkozy
sarlat
sarnin
sarra
sarrar
sarrasins
sarrat
sarre
sarrebourg
sarrebruck
sarreguemines
sarro
sarry
sars
sart
sarthe
sarthois
sartre
sas
sasir
saskatchewan
sason
sasonie
sasons
sassanida
sassanidas
sat
satan
satellit
satellites
satellits
satge
satges
satira
satiras
satiric
satisfaccion
satisfar
sativum
saturacion
satureja
saturn
saturne
saturnin
sau
sauc
saudita
sauf
saulcy
sauldre
saules
saulge
saulnois
sault
saulx
saulxures
saumur
saumurois
saunie
sauno
saunosa
saus
sause
saussay
saussure
saut
sauta
sautaire
sautar
sauts
sauvador
sauvage
sauvages
sauvament
sauvar
sauvate
sauvatge
sauve
sauvetat
sauveur
sauvigny
sauze
sava
savana
savarte
save
saverne
savi
saviesa
savigne
savigny
savin
savinhac
savis
savo
savoie
savoir
savoyard
saw
saxo
saxon
saxons
say
saɾ
sc
sca
scale
scan
scandinave
scar
scarlatti
scas
sce
sceaux
scena
scenari
scenarista
scenas
scepticisme
scey
sch
schippmann
schmidt
schneider
scho
scholastic
schook
school
schreber
schro
schtane
schu
schubert
schumpeter
schuster
sci
scie
science
sciences
scientific
scientifica
scientificament
scientificas
scientifics
scientifique
scientifiques
scierie
scipion
scission
sciurus
scla
scn
sco
score
scott
scrofa
scs
sculpte
se
sea
sean
search
searchwithinvolume
seattle
seau
sebastia
sebastian
sec
seca
secada
secadas
secar
secas
secatge
seccion
seccions
secession
second
seconda
secondaire
secondaires
seconde
secors
secre
secrecion
secrecions
secret
secreta
secretari
secretariat
secretaris
secrets
secs
secteur
section
sections
sector
sectors
secular
securitat
secutar
sed
seda
sedan
sedenc
sedenta
sedentaris
sedentarizacion
sedimenta
sedimentaris
sediments
seductor
see
sega
segal
segalar
segle
segles
seglhe
segment
segments
sego
segon
segond
segonda
segondari
segondaris
segondas
segonds
segons
segontes
segovia
segre
segregacion
segue
segueish
seguent
seguenta
seguentas
seguents
segui
seguida
seguidas
seguigue
seguiment
seguin
seguir
seguissent
seguissia
seguisson
seguit
seguits
segur
segura
segurament
seguretat
seguritat
sei
seiche
seigneur
seigneurerie
seigneurial
seigneuriale
seigneuriaux
seigneurie
seigneuries
seigneurs
seille
sein
seine
seis
seisen
seisena
seissanta
sejar
sejorn
sel
seldjokidas
sele
seleccion
select
selected
seleuc
seleucida
self
selle
selles
selon
selva
selvan
selvas
selze
sem
semantica
sembla
semblabla
semblablas
semblable
semblables
semblan
semblanc
semblant
semblanta
semblants
semblar
semblaria
semblava
semble
seme
semenada
semi
semiconductors
seminari
sempre
semur
sen
senador
senat
senate
senator
senators
sence
sench
sene
senegal
senescaucia
senhal
senhala
senhalar
senhalizacion
senhals
senhar
senhor
senhoria
senhors
senlis
senon
senones
sens
sensa
sensacion
sensacions
senscomptesdobles
sense
senses
sensibilitat
sensibla
sensiblament
sensiblas
sensible
sensibles
sensu
sent
senta
sentant
sentation
sente
senti
sentier
sentiers
sentiment
sentimental
sentiments
sentir
sentit
sentonge
sents
senyera
seol
sep
separa
separacion
separacions
separada
separadas
separan
separant
separar
separat
separats
separe
sept
september
septembre
septentrional
septentrionala
septentrionalas
septentrionau
septima
sepulcre
sepultura
seque
sequo
ser
sera
serada
serait
serbia
sere
serein
seren
serena
serge
sergei
sergent
sergio
seria
serias
serie
series
serio
seriosa
seriosament
serment
sermon
sernin
seront
serpent
serra
serral
serrano
serre
serres
serrie
sers
sert
servait
servant
servar
servat
servats
serve
servent
servi
service
services
servici
servicial
serviciala
servicis
servidor
servigny
servigue
servir
servissent
servissia
servisson
servit
servitud
sery
ses
sesilha
sesilhas
sesserac
session
sessions
set
seta
setanta
setembre
seteme
seten
setena
seth
seti
setmana
setmanas
setmanie
seto
setze
seu
seuil
seul
seule
seulement
seulles
seuna
seunas
seus
seuva
seuvas
seux
seve
seven
sever
severac
sevilha
sex
sexe
sexual
sexuala
sexualas
sexualitat
sexuals
seɾ
sfio
sg
sh
sha
shackleton
shah
shakespeare
shalo
shamisen
shandy
shanghai
sharon
shasta
shaw
shawinigan
shawnee
she
shelley
shens
shi
shina
sho
shogun
shogunat
short
show
shu
shut
shylock
si
sia
siague
siam
siana
siatz
siberia
sibille
sic
sica
sichuan
sici
sicilian
sida
side
sidence
sident
sidentielle
siderurgia
sidney
sido
sie
siebert
siegue
siena
sienne
sierck
sierra
sies
sieti
sieu
sieuna
sieunas
sieur
sieus
sig
sigismond
sigla
siglo
sigmund
signa
signada
signale
signar
signat
signataris
signats
signatura
signe
signes
signifiant
significa
significacion
significant
significar
significat
significatiu
significatius
significativa
significativament
significativas
significava
signifie
signy
sigue
siguec
sigueren
sigut
sigy
sil
sile
silence
silenci
silencio
silex
silicats
silici
sillaba
sillabas
sille
silly
silmarillion
silva
silve
silver
silvestris
silvina
sim
sima
simbe
simbo
simbolic
simbolica
simbolicament
simbolisme
simboliza
sime
simetria
simetric
similar
similara
similaras
similars
similituds
simin
simo
simon
simone
simpatia
simpla
simplament
simplas
simple
simples
simplicitat
simplificacion
simplificada
simplificar
simplificat
simpson
simpto
simultane
sin
sinago
sinai
since
sinco
sincro
sindicat
sindicats
sindro
sine
sinfonia
sing
singale
singapor
singer
singlar
single
singles
sings
singular
singularitat
singulars
sino
sinonim
sinonime
sinonims
sint
sintaxi
sinte
sintetics
sintetizar
sinus
sio
sion
sir
siracusa
sire
siren
sires
siria
siriana
sirians
sirius
siro
sirvente
sis
sisa
sisas
sise
sissano
sisseton
sistance
siste
sistema
sistematic
sistematica
sistematicament
sister
sisteron
sit
site
sites
siti
sitiar
sits
situ
situa
situaa
situacion
situacions
situada
situadas
situan
situant
situar
situat
situation
situats
situava
situe
siu
siure
sius
sivadon
sivaudan
sive
sivry
siw
siws
six
sixt
sja
sjal
sje
sjo
sju
sjus
sjuzo
sjɔ
sk
ska
sketch
ski
sky
sl
sla
sle
slick
slo
slovar
slovarja
sm
sma
small
smas
sme
smes
smilodon
smith
smithsonian
sncf
snia
snow
so
soa
soas
sobeiran
sobeirana
sobeiranetat
sobeirans
sobiran
soblex
sobratz
sobre
sobrenomenat
sobretot
soc
soca
socas
social
sociala
socialament
socialas
sociale
sociales
socialisme
socialista
socialistas
socializacion
socials
sociau
sociaus
socie
societat
societats
society
sociolingu
sociolinguistic
sociolinguistique
sociolo
sociologia
socrates
soda
sodan
sodane
sodanesa
soent
sofala
sofe
sofia
sofisme
sofo
sofre
sofrenc
sofri
sofrigue
sofrir
soi
soie
soir
soissons
soit
sojorn
sol
sola
solac
solament
solar
solara
solaras
solars
solas
soldat
soldats
sole
soleil
solelh
solesmes
solet
soleta
soleu
solid
solida
solidaritat
solidas
solide
solidificacion
soliditat
solids
soliman
solista
solita
solitari
solitud
solo
sologne
solon
sols
solstici
solubilitat
soluble
solucion
solucions
solution
som
soma
somalia
some
somesa
somesas
someses
somete
sometre
somiar
somission
somme
sommet
sommets
soms
son
sona
sonada
sonadas
sonan
sonar
sonat
sonata
sonats
sonava
sonda
sondas
sone
sonet
sonets
song
songs
sonhar
sonme
sono
sonora
sonqu
sonque
sons
sont
sony
sopa
sopar
sophie
sople
soplesa
soprano
sor
sorab
sorata
sorbona
sorbonne
sorbus
sorcy
sorda
sorel
sorgi
sorgigue
soria
sorlin
sormais
sormonne
sorn
sorna
sort
sorte
sorti
sortida
sortidas
sortie
sortigue
sortir
sortissent
sortisson
sortit
sortits
sos
sosafluent
sosclassa
soscontinent
sosdiale
sosentendut
sosespe
sosfamilha
sosgrop
soslinha
soslinhar
soslinhat
sosmarin
sosmarina
sosmarins
soso
sospagina
sosprefectura
soste
sosten
sostenguda
sostengudas
sostengue
sostengut
sostenguts
sostenia
sostenir
sostenon
sosterranh
sosterranha
sosterranhas
sot
sota
soucy
soudats
souge
soul
soultz
soun
sound
source
sourcebook
sourcer
sources
sous
sousa
south
southeast
southeastern
southern
souvenir
souvenirs
souvent
souvigne
sovenir
sovenirs
sovent
soviet
sovietic
sovietica
sovieticas
sovietics
soviets
soɾ
sp
spa
space
spain
span
spanish
spe
speaker
special
specialistas
species
spencer
sphagnum
spielberg
spinoza
spip
spirit
spirituel
sport
sports
spp
sprache
spre
spring
springer
springs
sq
sqrt
square
sque
sques
sr
sra
sreznevsky
sri
ss
ssa
ssas
sse
ssem
ssen
ssent
sser
ssers
sses
ssetz
ssi
ssia
sson
ssus
st
sta
stade
stalin
stan
standard
stanford
stanislas
stanley
stapf
star
stars
stas
state
states
station
stations
statistical
statisticky
statistics
statistique
statistiques
statu
statue
status
statut
ste
stefan
stefano
stein
steindachner
stella
stephani
stephen
ster
sterne
stes
steve
steven
stevens
stevenson
stewart
sti
stia
stias
stic
stica
stico
still
sto
stoce
stock
stol
stols
stone
stop
storia
storic
storica
storicas
storics
stories
story
stra
strada
stradivari
stradivarius
stran
stras
strasbourg
strata
strate
strauss
stre
stream
street
stres
stria
strias
stroh
structure
structures
sts
stuart
studi
studies
studio
study
stuttgart
stvo
style
su
sua
suau
sub
subde
subdivision
subdivisions
subduccion
suber
subi
subigue
subir
subit
subje
subjonctiu
subjontiu
sublimacion
submit
subre
subrenatural
subretot
subrevida
subrevisque
subreviure
subrevivents
subsiste
subsisteix
subsisteixen
subsistent
subsp
substa
substantiu
subste
substitucion
substituir
substrat
substrates
subte
subtropical
suc
succe
succedi
succedigue
succedir
succedisson
succession
successius
successivament
successivas
successivement
successor
successors
succursale
sucrar
sucrat
sucre
sucres
sud
sudan
sudistas
sudouest
sue
suede
suedesa
suedeses
sues
sueus
suffixe
sufi
sufisent
sufisenta
sufisentament
sufisentas
sufix
sufixe
sufixes
sufragi
sufragis
suggeri
suggerigue
suggerisson
sui
suicide
suicidi
suippe
suis
suisse
suit
suite
suivant
suivantes
suivi
suja
sujet
sul
sulfat
sulfur
sulfuric
sulla
sullivan
sully
sulpic
sulpice
sulpici
suls
sultan
sultanat
sultans
sum
sumatra
sume
sumien
summer
sun
sunisme
sunitas
sup
supausa
supausada
supausadas
supausan
supausant
supausar
supausat
supausats
supause
supe
super
superfamilha
superfi
superficia
superficie
superior
superiora
superioras
superioritat
superiors
supernova
supero
suplement
suplementa
suplementari
suplementaris
suplicar
supo
suportar
supple
suppression
supprime
supre
supremacia
supression
suprimida
suprimigue
suprimir
suprimit
suprimits
supyire
sur
sure
surf
surface
surinam
surmiran
surmonte
surnomme
surplombant
surplombe
sursilvan
surtout
survey
surveys
sury
sus
susa
susan
susceptibla
susceptiblas
susceptible
susceptibles
suscitar
suscite
susfa
susmauta
suspe
suspension
suspresa
sustot
susvelhanc
susvelhar
sutsilvan
sutton
suu
suus
suzanne
suze
svg
swahili
swallow
swartz
swaziland
swift
sy
sydney
sylvain
sylvestre
sylvie
symphorien
syn
syndicat
synthe
syros
sys
syste
system
systems
sz
sza
sze
sztemon
słownik
słys
sœur
sœurs
sɑ
sɔ
sə
sɛ
sɪ
t
ta
tabac
tabat
taben
table
tableau
tables
tabli
tablie
tablir
tablissement
tablissements
tablit
tabo
taca
tacas
tache
tacit
tactica
tacticas
tad
tage
tahiti
tai
taient
taigniers
tail
taila
taille
tain
taire
taires
tais
tait
taiwan
take
tal
tala
talament
talas
tale
talent
talents
tales
talh
talha
talhada
talhadas
talhant
talhar
talhas
talhat
talhats
talhe
talhie
talian
talibans
tallandier
tallurgique
talo
talon
talpa
tals
talus
talvera
tam
tambe
tamben
tambor
tament
tamil
tamol
tampa
tampauc
tampes
tampon
tan
tana
tanbe
tanben
tancada
tancar
tancat
tandis
tanet
tang
tanganyika
tangenta
tango
tangs
tanguy
tanh
tanhent
tanins
tanle
tano
tanpauc
tanplan
tant
tanta
tanto
tanzania
tao
taoi
tap
tape
tapi
tar
tara
tarascon
tarba
tard
tarde
tardie
tardiu
tardiva
tardoira
tardor
tarent
targa
tarn
taro
tarragona
tars
tartar
tartini
tartuga
tas
tasca
tascas
task
tasmania
tat
tatar
tatars
tate
tatgiquistan
tation
tatoatge
tats
tau
taula
taulas
tauleta
tauletas
taur
taure
tauriac
taurus
taus
tauses
taux
tave
taw
taxa
taxas
taxem
taxi
taxon
taxons
taxus
taylor
taðo
taɫ
taɫs
taɾ
taɾi
taɾis
taɾjo
taʀi
tdf
te
tea
teatral
teatrala
teatre
teatres
teatro
teau
teaulin
teauneuf
teaux
tebas
tebe
tec
tech
technique
techniques
technology
tecnic
tecnica
tecnicament
tecnicas
tecnics
tecnologia
tecnologias
tecnologic
tecnologica
tecnologicas
tecnologics
tectonica
tei
teilhard
teissie
teissut
teissuts
tel
tela
telain
telard
telas
tele
telecomunicacions
teleferic
telefo
telefonada
telemann
telesco
telet
television
telh
tell
telle
tellenie
tellerie
tels
tem
tema
tematica
tematicas
tement
temminck
tempe
temperada
temperadas
temperament
temperat
temperats
temperatura
temperaturas
temple
temples
templie
templiers
tempo
tempora
temporal
temporala
temporari
temps
tempsada
tempses
temptativa
temptativas
tempte
ten
tenait
tenay
tencha
tend
tenda
tendait
tende
tendent
tendon
tendra
tendre
tendu
tendue
tene
tenements
tenent
tenents
tenerife
tenguda
tengudas
tengue
tengut
tenguts
tenia
tenir
tennessee
tennis
tenochtitlan
tenois
tenon
tenor
tension
tensions
tent
tente
tenu
teo
teodo
teodoric
teofil
teogonia
teologia
teologian
teologians
teologic
teologica
teorba
teore
teoria
teorias
teoric
teorica
teoricament
teorician
teoricians
teorics
teotihuacan
ter
terapeutica
terapia
terc
terces
terciari
tere
teresa
term
terme
termes
termic
termica
termicas
termics
termie
termiere
terminal
terminason
termine
terminio
terminologia
terminus
termodinamica
ternant
ternois
ternoise
tero
terra
terrador
terrain
terrains
terral
terralha
terralhas
terras
terrassa
terrassas
terrasson
terre
terren
terrenh
terrens
terres
terreur
terrible
terribles
territo
territoire
territoires
territori
territorial
territoriala
territorialas
territory
terroir
terror
terrorisme
terrorista
terroristas
terry
tertre
tes
tesa
tesaur
tese
tesla
tessa
tessalonica
tesse
tesson
test
testa
testament
testar
testifica
testificat
testifiquen
testimo
testimoniatge
testimoniatges
tet
tetrarquia
teu
teulat
texans
texas
text
texte
texteimage
textes
textil
textila
textile
textils
texts
textstyle
textura
tge
tges
tgv
th
thalamus
thames
than
thann
thaon
that
the
theater
theatre
theil
their
thelle
them
theo
theodor
theodore
theory
there
thermes
these
theta
they
thibaud
thibault
thibaut
thie
thierry
thiers
thil
thillot
things
think
thionville
third
this
thnau
tho
thode
thodique
tholon
thomas
thompson
thomson
thonnance
thorey
thorigne
thorigny
thou
thouars
thouarsais
thought
three
through
ths
thuit
thumb
thunb
thune
thury
thymerais
ti
tia
tibe
tibet
tibetan
tibetans
tibeto
tibre
tic
tica
tician
tico
tics
tie
tien
tienne
tiens
tient
tier
tiera
tierra
tiers
ties
tif
tiger
tigny
tigre
tigres
tigris
tija
tijas
tik
tiko
tiks
tikə
til
tille
tilleul
tillon
tilloy
tilly
tils
tim
timbre
time
timent
timents
times
timo
timor
timothy
tin
tina
tinais
tinchebray
tine
tinent
tinta
tintas
tintura
tio
tion
tipe
tipes
tipic
tipica
tipicament
tipicas
tipics
tipografia
tipografii
tique
tiques
tir
tira
tirada
tiradas
tirailleurs
tiraire
tiran
tirania
tirant
tirar
tirat
tiratge
tirats
tire
tiro
tirs
tis
tisar
tisme
tissage
tisse
tit
tita
titan
titanic
titans
title
tito
titolat
titre
titres
titulada
titular
titulari
titulat
titus
tiu
tiva
tivo
tivə
tiw
tiws
tiyapi
tiɾ
tja
tjas
tju
tjɛ
tla
tlar
tle
tles
to
tobago
tocada
tocadas
tocant
tocar
tocat
tocats
tocqueville
today
todo
todos
toi
toile
toish
toit
tokharian
tokugawa
tokyo
tol
tole
toledo
tolera
tolkien
tolon
tolosa
tolosan
tolosana
tolosenc
tolosenca
tolosencs
tols
tolte
tom
toma
tomata
tomba
tombada
tombar
tombas
tombat
tombe
tombes
tombs
tome
tomes
tomie
ton
tona
tonalitat
tonas
tondra
tondre
tone
toni
tonic
tonica
tonnerre
tons
tony
too
top
topic
topics
topoc
topografia
topografic
topographie
topographique
topologia
toponim
toponime
toponimes
toponimia
toponimiaoc
toponimiaoccitana
toponimic
toponimica
toponimistas
toponims
toponyme
toponymes
toponymie
toponymique
toque
toquinho
tor
torah
torax
torcy
tore
torelli
torino
torisme
toristas
toristic
toristica
toristicas
torn
torna
tornada
tornade
tornado
tornados
tornan
tornant
tornar
tornara
tornarmai
tornat
tornats
tornava
torne
torneg
torneges
tornon
torns
toro
toronto
torre
torrent
torres
tors
tortura
torturar
torture
tos
tosca
toscana
toscanoreinat
tostemps
tot
tota
total
totala
totalament
totale
totalement
totalitat
totas
totau
totei
totes
toti
totis
totjorn
toto
tots
totun
touche
touffreville
toujours
toul
toulon
toulousain
toulouse
touques
tour
touraine
tourbe
tourisme
touristique
tournai
tourne
tournoi
tours
tourville
tous
toussaint
tout
toute
toutefois
toutes
towards
tower
town
toxic
toxica
toxicas
toxicitat
toxics
toxina
toxinas
toɾ
tr
tra
trabalh
trabalha
trabalhador
trabalhadors
trabalhaires
trabalhan
trabalhant
trabalhar
trabalhat
trabalhava
trabalhavan
trabalhe
trabalhista
trabalhs
trabucaire
trac
traccion
trace
traces
trach
tracha
traches
trachs
tracta
tractada
tractament
tractaments
tractan
tractant
tractar
tractat
tractats
tracte
tractor
tracy
trad
trade
tradicion
tradicional
tradicionala
tradicionalament
tradicionalas
tradicionals
tradicionau
tradicionaus
tradicions
tradition
traditionnel
traditions
traduccion
traduccions
traduch
traducha
traduction
traductor
tradugue
traduire
traduit
tradusit
trafec
trafic
trage
tragedia
tragic
tragica
tragique
trai
train
traire
trait
traite
traits
trajan
traje
trajecto
tram
trama
tramvai
tramvia
tramway
tran
tranche
trange
trans
transaccions
transactions
transcrich
transcripcion
transcriure
transeu
transfe
transferida
transferiment
transferiments
transferir
transferit
transforma
transformacion
transformacions
transformada
transforman
transformant
transformar
transformat
transformation
transformats
transforme
transicion
transilva
transit
transition
transitiu
transito
translation
transme
transmesa
transmet
transmetre
transmission
transpare
transparent
transpo
transport
transportar
transportat
transporte
transports
transposicion
transumanisme
transumanistas
trapa
trapades
trapan
trapar
trapat
trapats
trape
tras
trauc
traucada
traucar
traucs
traue
travail
travailler
travaux
trave
travers
traversa
traversada
traversait
traversant
traversar
traversat
traversava
traverse
traversent
tre
treble
trebles
trebolar
trebolat
trebols
trebolum
tree
treize
tremblay
tren
trenca
trencada
trencadas
trencadura
trencar
trencat
trencave
trencavel
trenet
trens
trent
trenta
trentaine
trente
trentena
trentin
tres
tresau
tresaur
tresco
tresen
tresena
tresesma
tresor
tresplomba
tretze
treux
tri
tria
triada
triangle
triangles
triangular
triangulara
triassic
tribalh
tribalhe
tribo
tribu
tribuna
tribunal
tribunals
tribunau
tribunaus
tribus
tribut
tributs
trie
trieste
trieux
trilogia
trin
trinitat
trinite
trio
trionf
tripla
triple
trique
trista
tristan
triste
tristram
triticum
triton
trizay
tro
troba
trobada
trobadas
trobador
trobadors
trobairitz
trobalhes
trobam
troban
trobant
trobar
trobat
trobats
trobava
trobavan
trobe
troc
troces
trofe
troians
trois
troisie
troit
trompa
trompeta
trompetas
trompetista
tron
trona
tronc
tronchet
trop
tropa
tropas
trope
tropic
tropical
tropicala
tropicalas
tropicals
tropicau
tropole
trotski
troubadours
troupes
trouvait
trouve
trouvent
trouver
trouville
troy
troyes
tru
truc
truca
trucada
trucan
trucar
trucat
trucava
true
trufa
trufas
truit
truite
truites
trump
trust
truth
ts
tsa
tsar
tsbuchhhandlung
tse
tsunami
tsunamis
tt
tu
tua
tuada
tuant
tuar
tuat
tuats
tub
tube
tuberculo
tubes
tuc
tuca
tucs
tude
tudes
tue
tuilerie
tuileries
tuiles
tula
tum
tumulus
tuna
tune
tunis
tunisia
tunnel
tuquets
tur
tura
turages
turbina
turc
turca
turcas
turcmenistan
turcs
ture
turi
turin
turner
turon
turquesa
turquia
tursan
turte
tus
tust
tustar
tusts
tut
tuta
tutas
tute
tutor
tuɾa
tuɾo
tuɾə
tv
twitter
two
tx
ty
tycho
tymologie
tymologique
type
typique
tyt
tyɾo
tz
tza
tzfach
tɐ
tɑ
tɔ
tə
tɛ
tɪ
tɯ
tɾa
tɾat
tɾaɾ
tɾe
tɾi
tɾit
tɾizes
tʀa
tʃi
u
ua
uas
uassi
ubac
ubaud
ubran
uc
ucaire
uccellini
ucla
ucrai
ud
uda
udruga
ue
uech
uei
uel
uela
uelh
uelhs
uer
ues
ueu
ufan
ufficiale
uganauds
uicn
uk
ukarumpa
ukulele
ul
ula
uli
ulisses
ulrich
ulster
ulterioras
ulteriors
ultim
ultima
ultimatum
ultra
ultramar
ultraviolet
ultraviolets
ulysses
um
uma
umami
uman
umana
umanas
umanisme
umanista
umanita
umanitat
umans
umar
ume
umea
umid
umida
umidas
umiditat
umids
umont
umor
umorista
ump
umu
un
una
unanimitat
unas
und
under
une
unei
uneis
unes
unesco
uni
unic
unica
unicament
unicas
unicitat
unico
unicode
unics
unida
unidas
unie
unies
unificacion
unificada
unificar
unificat
unifo
uniforme
unio
union
uniprovi
unique
unir
unis
unit
unita
unitari
unitat
unitats
unite
united
units
univ
unive
univers
universal
universala
universalis
universals
universau
universe
universel
universelle
universidad
universita
universitaires
universitari
universitaris
universitat
universitats
universite
university
uno
uns
unsere
uo
up
uploads
upon
upper
ups
ur
ura
urani
uranus
urbain
urbaine
urban
urbana
urbanas
urbanisme
urbanizacion
urbans
ure
urge
urgell
urgent
uri
uria
urina
url
urmia
uro
uros
urs
urss
ursus
uruguai
uruk
urville
us
usa
usage
usages
usanc
usar
usatge
usatges
usatgie
use
used
usina
usinas
usine
usines
usse
ussel
ustria
ustriac
usurpator
ut
uta
utah
utas
utc
ute
uti
util
utila
utilas
utilisa
utilisant
utilisation
utilise
utilitarisme
utilitat
utiliza
utilizacion
utilizacions
utilizada
utilizadas
utilizaire
utilizaires
utilizan
utilizant
utilizar
utilizat
utilizats
utilizava
utilizavan
utilize
utils
utopia
utrecht
uts
uvre
uze
uzo
uɾ
v
va
vaast
vabre
vabres
vaca
vacanc
vacas
vaccin
vaccinacion
vaccins
vache
vad
vadencourt
vado
vaduda
vadut
vagar
vagney
vague
vahl
vai
vailet
vaillant
vailly
vair
vaire
vaisse
vaivre
val
vala
valable
valada
valadas
valaquia
valar
valat
valde
vale
valenc
valence
valencia
valencian
valenciana
valencianas
valenciennes
valent
valentin
valentine
valentinian
valer
valery
vales
valeta
valette
valeur
valgue
valhadolid
vali
valida
validar
validitat
valira
vall
vallader
valle
valleroy
valley
vallie
vallier
vallis
vallois
vallon
vallonne
vallons
valls
valmont
valois
valon
valonia
valor
valors
vals
value
vam
vament
van
vancouver
vandals
vange
vanilla
vanne
vannes
vanuatu
vapor
vaqui
var
vare
varenas
varenne
varennes
varepsilon
vargas
varia
variabilitat
variabla
variablas
variable
variables
variacion
variacions
variada
variadas
varian
variant
varianta
variantas
variar
variat
variation
variats
varie
varietat
varietats
variety
vario
various
varossa
varphi
varsberg
varso
vas
vasade
vasats
vasco
vases
vassal
vassau
vassaus
vassaux
vassy
vast
vasta
vastas
vaste
vastes
vasts
vath
vaths
vatican
vau
vauban
vauchelles
vauclusa
vaucouleurs
vaude
vaulx
vaur
vaus
vaux
vb
ve
vec
vector
vectors
vecœur
ved
veda
vede
vega
vegada
vegadas
vegades
vege
vegetacion
vegetal
vegetala
vegetalas
vegetals
vegetau
vegetaus
vegue
vei
veil
veille
veira
veire
veires
veirie
veitura
veituras
vejaire
vejaires
vejatz
vel
vela
velai
velaiesa
velas
velay
velha
velie
velle
velloreille
velo
velocitat
velocitats
veloppe
veloppement
vem
vement
ven
vena
venant
venas
venc
vence
venceire
venceires
vencuda
vencut
vencuts
vend
venda
vendas
vende
vendea
vendeire
vendeires
vendia
vendin
vendit
vendo
vendra
vendre
vendria
vendu
venduda
vendudas
vendue
vendut
venduts
vene
venec
venecian
venecians
venen
venent
venenta
venera
venerat
venga
venguda
vengudas
vengue
venguet
vengut
venguts
venia
venir
venise
venjanc
venjar
vennes
venon
vent
venta
ventadorn
ventalh
ventas
vente
ventes
vento
ventre
vents
venturi
venu
venus
ver
vera
veracruz
verai
veraia
verano
verb
verbal
verbala
verbe
vercel
verco
vercors
verd
verda
verdaguer
verdas
verde
verdie
verdier
verdon
verdoyante
verds
verdun
verdunois
verdure
verga
verge
vergers
verges
vergonha
vergy
verifica
verificacion
verificar
verin
veritat
verlag
vermandois
vermont
vern
vernacular
verne
vernet
verneuil
vernois
vernon
vernou
vero
verona
verrerie
verrie
vers
versailles
versalhas
versant
versants
verse
versemblablament
versemblant
verses
verset
versets
version
versions
versus
vert
vertade
vertadie
vertadier
vertadiera
vertadierament
vertadieras
vertadiers
vertat
verte
vertebrats
vertical
verticala
verticalas
vertu
vertus
vertut
vertuts
vervins
very
ves
vescomtat
vescomte
vescomtes
vese
vesent
vesera
vesia
vesin
vesina
vesinas
vesinatge
vesins
vesle
veson
vesoul
vespa
vespre
vessant
vesta
vestfa
vestiges
vestigi
vestigis
vestir
vestit
vestits
vete
veterans
veterina
veterinari
veto
vetz
veu
veusa
veut
veuve
veux
vexin
veyle
vez
vezouze
vi
via
viaducte
viala
vialatge
viamichelin
vian
viana
vianda
viari
vias
viatge
viatges
viatja
viatjaire
viatjaires
viatjar
viaur
vibracion
vibracions
vibre
viburnum
vic
vicari
vicaria
vice
vicenc
vicent
vicente
vicepresident
vicerei
viche
vichy
vici
vico
vicomte
vicq
victima
victimas
victimes
victo
victoire
victor
victoria
victorian
victorio
victoriosa
vicus
vid
vida
vidal
vidame
vidanta
vidas
vide
videnta
video
videojo
vie
vieil
vieille
vieilles
viel
vielh
vielha
vielhs
vien
viena
viendrait
viene
vienne
viennent
vient
vienut
vierge
vies
vietnam
vietnamian
vietnamians
vieux
view
vif
vigan
vigaria
vigila
vigilar
vigile
vigne
vignerons
vignes
vigneulles
vignoble
vignobles
vignory
vigny
vigor
viguerie
vihuela
vii
viie
viii
viiie
viking
vikinga
vikings
viktor
vil
vila
vilafranca
vilaine
vilamur
vilanava
vilano
vilanova
vilanue
vilar
vilas
vilatge
vilatges
vilatjo
vilaweb
vilh
vilhe
villa
village
villageois
villages
villaines
villam
villanova
villanueva
villar
villard
villare
villars
villas
villatge
ville
villedieu
villefranche
villeneuve
viller
villeroy
villers
villes
villette
villez
villiers
villotte
villy
vilo
vimeu
vin
vinagre
vincenc
vincennes
vincent
vincenzo
vinci
vineuse
vingeanne
vingt
vingtaine
vinha
vinhairons
vinhal
vinhana
vinhas
vins
vint
vintena
vintenat
vio
viola
violacion
viole
violence
violent
violenta
violentament
violentas
violents
violet
violeta
viollet
violon
violonce
violoncelista
violonista
vion
vira
virada
viradas
virala
viran
virant
virar
virat
vire
virgi
virgili
virginia
viridis
virieu
virois
virtual
virtuala
virtuo
viru
virus
viry
vis
visa
visant
visco
viscuda
viscut
vishno
visibilitat
visibla
visiblas
visible
visibles
visigo
vision
visions
visita
visitaires
visitar
visitas
visite
visitors
vismes
visque
vist
vista
vistas
vists
visu
visual
visuala
vit
vita
vital
vitala
vitamina
vitaminas
vite
vitico
viticole
viticultura
vitis
vitrac
vitre
vitro
vitruvi
vitry
vittel
vitz
viu
viure
viures
vius
viva
vivac
vivaldi
vivant
vivare
vivaroalpenc
vivaroaupenc
vivas
vive
vivent
viventa
viventas
vivents
vives
vivia
vivian
vivie
vivien
vivier
viviers
vivo
vivon
vivre
vladimir
vlah
vo
voc
vocable
vocabulaire
vocabulari
vocabulary
vocacion
vocala
vocalas
vocalica
vocalisme
vocalizacion
vocant
vocation
vocatiu
vocatur
voces
vodat
voegelin
voice
voici
void
voida
voie
voies
voir
voire
voiron
voisin
voisine
voisines
voisins
voit
voivodat
voix
vol
volant
volar
volcan
volcanic
volcanica
volcanicas
volcanics
volcanisme
volcans
voldria
vole
volent
voler
volgava
volgue
volgut
volia
vologe
vologne
volon
volonta
volontari
volontaris
volontat
vols
volta
voltaire
volte
volue
volum
volume
volumes
volumica
volums
volution
volutionnaire
volutionnaires
volutions
volve
von
vont
voque
vora
voreja
vorejat
vos
voses
vosges
vosgien
votada
votants
votar
votat
vote
votre
votz
vou
voue
vouille
vous
vouvray
vox
voyage
voyager
voyageurs
vraisemblablement
vras
vre
vres
vreux
vrier
vrin
vriulon
vriulons
vry
vs
vu
vuache
vue
vuege
vulgar
vulgara
vulgaris
vulnerable
vulpes
vved
vy
və
vɛ
w
wa
wagenseil
wagner
wales
walker
wall
wallace
walser
walt
walter
wan
wang
wangka
war
ward
warlpiri
warner
warren
wars
was
washington
wasp
watch
water
watson
watters
wave
way
wayne
we
weather
web
weber
webonary
webs
website
webster
wedge
week
wehrmacht
wei
weimar
weirter
well
wellington
wells
were
werner
west
western
westminster
what
when
where
which
white
who
why
wi
wide
width
wiener
wiesbaden
wiesel
wijchen
wiki
wikiccionari
wikime
wikimedia
wikipe
wikipedia
wikisource
wikispecies
wikiwix
wiktionary
wild
wiley
wilhelm
wilkins
will
willd
willem
william
williams
wilson
wimbledon
win
wind
windows
winnipeg
winston
winter
winters
wisconsin
wissembourg
with
within
without
wo
woe
wolf
wolff
wolfgang
wolfram
woman
women
wonder
wood
woods
woodstock
word
wordlist
words
work
working
works
workshop
world
worlds
would
wp
wright
wu
wulf
www
wyoming
x
xa
xaintois
xas
xavier
xe
xenofo
xes
xi
xia
xiau
xic
xico
xie
xien
xii
xiiau
xiie
xiien
xiii
xiiiau
xiiie
xiiien
xinjiang
xiongnu
xiv
xive
xiven
xix
xixe
xixen
xixena
xls
xn
xode
xs
xt
xte
xtes
xu
xue
xun
xv
xve
xven
xvi
xvie
xvien
xvii
xviiau
xviie
xviien
xviii
xviiiau
xviiie
xviiien
xx
xxe
xxen
xxi
xxii
xxiii
xxiv
y
ya
yale
yan
yang
yankton
yanktonai
yann
yaounde
yasujiro
ye
year
years
yeux
yi
yin
yl
yni
yo
yon
yonne
york
yorkshire
you
young
your
youtube
yu
yuan
yucatan
yukon
yvelines
yves
yvetot
yvette
z
za
zac
zambia
zamora
zan
zanzibar
zapata
zar
zat
zaɾ
ze
zealand
zelanda
zelay
zen
zenit
zenon
zero
zhang
zhao
zheng
zho
zhou
zhu
zi
zia
zie
zika
zil
zimbabwe
zin
zinc
zio
zipoli
ziw
zju
znanstvena
zo
zodiac
zolo
zona
zonas
zone
zones
zoo
zool
zoologia
zoom
zorn
zoroastrisme
zquez
zu
zum
zur
zuric
zy
zɛ
{
|
}
~
¡
£
¤
§
¨
©
ª
«
­
®
¯
°
±
²
³
³³
³¹
³⁵
´
µ
·
¹
º
»
½
¿
×
æ
ð
ða
ðaɾ
ðe
ðen
ði
ðo
ðoɾ
ðu
ðus
ðɑ
ðɑn
ðɯ
÷
ø
þ
ı
ł
ło
ŋ
œ
œil
œuvre
œuvres
ǀ
ǃ
ɐ
ɑ
ɒ
ɔ
ɔw
ɕ
ə
ən
ər
əs
ɛ
ɛj
ɜ
ɟ
ɡ
ɡa
ɡɾa
ɣ
ɣa
ɣaɾ
ɨ
ɩ
ɪ
ɪk
ɪn
ɪt
ɫ
ɫa
ɫaɾ
ɫe
ɯ
ɲ
ɲa
ɲɛ
ɹ
ɻ
ɾ
ɾa
ɾal
ɾalo
ɾan
ɾaplo
ɾat
ɾaɫ
ɾaɾ
ɾe
ɾen
ɾi
ɾiɾ
ɾo
ɾus
ʀa
ʀe
ʀi
ʀu
ʁ
ʁa
ʁe
ʁi
ʁɑ
ʂ
ʂɛ
ʃ
ʃa
ʃe
ʃes
ʃi
ʃo
ʃu
ʈ
ʉ
ʊ
ʋ
ʌ
ʎ
ʎa
ʎu
ʏ
ʒ
ʒa
ʒe
ʒen
ʒento
ʒes
ʒet
ʒi
ʒia
ʒik
ʒiko
ʒiks
ʒio
ʒis
ʒiɐ
ʒiə
ʒiɾ
ʒo
ʒos
ʒu
ʒy
ʒə
ʔ
ʤ
ʦ
ʧ
ʰ
ʱ
ʲ
ʷ
ʸ
ʻ
ʼ
ʾ
ʿ
ˀ
ˈ
ˋ
ˌ
ː
ːˈ
ˑ
˙
ˠ
˥
˦
˧
˨
˩
̀
́
̂
̃
̄
̆
̇
̈
̉
̊
̋
̌
̑
̓
̔
̚
̛
̝
̞
̟
̠
̣
̥
̦
̧
̨
̩
̪
̭
̮
̯
̰
̱
̲
̸
̹
̺
͂
ͅ
͈
͜
͞
͡
α
αι
β
γ
γος
δ
δι
ε
ζ
ζω
η
θ
ι
κ
κα
κο
λ
λο
μ
μα
με
ν
νη
νω
ξ
ο
οι
ος
π
παρα
πο
ρ
ρα
ς
σ
τ
της
το
υ
φ
φω
χ
ψ
ω
ϕ
ϣ
ϥ
ϩ
ϫ
ϭ
ϵ
а
б
в
г
д
е
ж
з
и
к
л
м
н
на
о
п
р
с
т
у
х
ц
ч
ш
ъ
ь
ю
я
язык
языки
і
ј
ѳ
ְ
ִ
ֶ
ַ
ָ
ֹ
ּ
־
ֿ
ׁ
א
ב
ד
ה
ח
י
ל
מ
ן
נ
פ
ר
ש
ת
ا
ب
ة
د
ر
س
ق
ل
م
ن
ي
ٌ
َ
ُ
ِ
ّ
ْ
ٓ
ٔ
ٕ
ँ
ं
क
ख
ग
च
ज
ट
ड
ण
त
द
ध
न
प
ब
भ
म
य
र
ल
व
श
ष
स
ह
़
ा
ि
ी
ु
ू
ृ
े
ो
्
া
ি
্
ਾ
જ
લ
ા
િ
ી
ો
્
க
ங
ச
ஞ
ட
ண
த
ந
ன
ப
ம
ய
ர
ற
ல
ள
வ
ா
ி
ீ
ு
ூ
ெ
ே
ை
்
ం
అ
క
గ
త
న
ప
య
ర
ల
వ
ా
ి
ీ
ు
ె
ే
్
ಂ
ಕ
ಗ
ಚ
ಜ
ಟ
ಡ
ಣ
ತ
ದ
ಧ
ನ
ಪ
ಬ
ಭ
ಮ
ಯ
ರ
ಲ
ಳ
ವ
ಶ
ಷ
ಸ
ಹ
ಾ
ಿ
ು
ೂ
ೃ
ೆ
್
ೕ
ೖ
ം
ക
ജ
ട
ല
ാ
ി
ു
്
་
བ
མ
ོ
፡
្
ᵊ
ᵐ
ᵑ
ᵝ
​
‌
‍
‎
‏
‐
‑
‒
–
—
―
‖
‘
’
“
”
„
†
•
…
‪
‰
′
″
‿
⁄
⁡
⁴
⁵⁵
⁶
ⁿ
₁
₂
₃
€
ℓ
ℚ
ℝ
ℵ
↑
→
↓
↔
↦
↷
⇒
⇔
∀
∂
∃
∅
∈
∑
−
∖
∗
∘
√
∞
∣
∧
∩
∪
∫
∬
∼
≃
≈
≡
≤
≥
⊂
⋅
⋆
⋯
③
④
⑦
─
│
└
├
┬
⟨
⟩
⟶
⟺
⤇
ⲁ
ⲃ
ⲉ
ⲏ
ⲑ
ⲓ
ⲕ
ⲗ
ⲙ
ⲛ
ⲟ
ⲡ
ⲣ
ⲥ
ⲧ
ⲩ
ⲭ
ⲱ
ⴰ
ⵉ
⺀
⺄
⺆
⺈
⺊
⺌
⺕
⺝
⺸
⺼
⿰
⿱
⿲
⿳
⿴
⿵
⿶
⿷
⿸
⿹
⿺
⿻
、
。
〢
あ
い
う
か
き
く
け
こ
さ
し
す
せ
た
ち
っ
つ
て
と
な
に
の
は
ひ
ま
み
も
よ
ら
り
る
を
ん
゙
゚
ア
イ
ウ
オ
カ
ク
コ
シ
ス
タ
ッ
テ
ト
ニ
ハ
ヒ
フ
ホ
マ
ユ
ラ
リ
ル
ロ
ン
・
ー
㇁
㇂
㇄
㇇
㇈
㇉
㇓
㐁
㐄
㐅
㐌
㐫
㐬
㐭
㐮
㐱
㑒
㒵
㒸
㒼
㓁
㓞
㔾
㕛
㕣
㖾
㘝
㚅
㚇
㚔
㚘
㝉
㝡
㝴
㝵
㞋
㞢
㞷
㠩
㠭
㠯
㡀
㡭
㡿
㢲
㢴
㣇
㣺
㥯
㪅
㫄
㫐
㫒
㫺
㬅
㬎
㬥
㬰
㲋
㳄
㷠
㸒
㸚
㸦
㼌
㼲
㽞
㿟
䀠
䂞
䍃
䏍
䒑
䖍
䖒
䖝
䖵
䙴
䚻
䜌
䝿
䡛
䧹
䪞
一
丁
丂
七
丄
丅
丆
万
丈
三
上
下
丌
不
与
丏
丐
丑
专
且
丕
世
丘
丙
业
东
丞
丢
丣
两
严
並
丨
丩
个
丫
丬
中
丮
丰
丱
串
丵
丶
丷
丸
丹
为
主
丽
丿
乀
乂
乃
久
乆
乇
么
义
之
乌
乍
乎
乏
乐
乑
乔
乖
乗
乘
乙
乚
乛
乜
九
乞
也
习
乡
乳
乾
亀
亅
了
亇
予
争
事
二
亍
于
亏
亐
云
互
亓
五
井
亘
亚
亜
亞
亟
亠
亡
亢
交
亥
亦
产
亨
亩
享
京
亭
亮
亯
亰
亲
亳
亶
亷
人
亻
亼
亾
仁
今
介
仌
从
仐
仑
仒
仓
仕
他
付
仝
仡
代
令
以
任
企
伊
伏
伐
休
会
伯
但
位
何
佘
余
作
佥
佬
使
來
侈
侌
侖
侗
侯
侵
便
保
俞
信
修
倉
倍
候
倠
備
僉
僕
儿
兀
允
兂
元
兄
充
兆
兇
先
光
兊
克
兌
免
兑
兒
兓
兔
党
兜
兟
入
全
兩
兪
八
公
六
兮
兰
共
关
兵
其
具
典
兹
兼
冀
冂
冃
冄
内
冈
冉
冊
冋
册
再
冎
冏
冐
冒
冓
冖
冗
冘
军
农
冝
冡
冥
冫
冬
冷
几
凡
凢
凵
凶
凷
凸
凹
出
函
凾
刀
刁
刂
刃
刄
刅
分
切
刍
刑
刕
刖
列
刘
则
初
別
利
别
到
制
刺
則
削
剌
前
剡
剽
劉
力
功
加
劦
助
努
劫
劳
劵
勃
勇
勉
勒
動
務
勞
勤
勹
勺
勻
勾
勿
匀
匂
包
匆
匈
匊
匋
匍
匕
化
北
匚
匝
匡
匪
匱
匸
匹
区
医
匽
匿
區
十
卂
千
卄
卅
卆
升
午
卉
半
卌
华
卑
卒
卓
单
卖
南
博
卜
卝
卞
占
卡
卢
卣
卤
卦
卩
卪
卬
卯
印
危
即
却
卵
卷
卸
卻
厂
厃
厄
历
厈
厉
厌
厓
厘
厚
原
厤
厥
厨
厭
厲
厶
厷
厸
去
厼
厽
叀
参
參
叅
又
叉
及
友
双
反
叐
发
叒
叔
叕
取
受
叚
叜
叟
口
古
句
另
叩
只
召
可
台
叱
史
右
叵
号
司
叹
吂
各
吅
合
吉
吊
吋
同
名
后
吏
向
吕
君
吝
吞
否
含
启
吳
吴
吹
吾
呂
呆
呈
告
员
呙
周
命
咅
和
咎
咠
咢
咨
咸
咼
哀
品
哈
哉
員
哥
哲
唐
商
啇
問
啚
啬
啻
善
喜
喬
單
喿
嗇
嘉
嘎
噩
嚴
囊
囗
囘
囙
囚
四
回
囟
因
囧
囬
困
囱
囷
固
国
圂
圅
國
圍
圓
土
圡
圣
圥
在
圭
地
圶
圼
坐
坒
坚
坴
垂
垔
垚
埀
埋
埶
執
基
堂
堅
堆
堇
堯
塞
墨
壘
士
壬
壯
声
壳
壴
壹
壺
壽
夂
处
夅
夆
备
夊
夋
夌
复
夏
夒
夕
外
夗
夘
多
夜
夢
大
夨
天
太
夫
夬
夭
央
失
夲
头
夷
夸
夹
夻
夾
奂
奄
奇
奈
奉
奎
奏
奐
契
奓
奔
奚
奞
奠
奢
奥
奭
女
奴
奻
好
如
妄
妙
妟
妥
妻
妾
姑
委
姜
威
娄
婁
婴
嬰
嬴
子
孑
孔
孕
孖
字
存
孚
孛
孝
孟
季
孤
学
孫
孱
學
宀
宁
宂
它
宅
宇
守
安
宋
完
宏
宓
宗
官
定
宛
宜
宝
客
宣
室
宮
宰
害
家
容
宾
宿
寄
寅
密
富
寒
察
寧
審
寫
寬
寮
寸
对
寺
寻
寽
対
寿
封
尃
射
将
將
專
尉
尊
尋
尌
對
小
少
尒
尓
尔
尖
尗
尚
尞
尢
尣
尤
尧
尨
尭
就
尸
尹
尺
尻
尼
尽
尾
尿
局
居
屈
屋
屎
屏
屑
展
屖
屚
属
屠
屡
屬
屮
屯
屰
山
屵
屾
岁
岂
岑
岡
岩
岳
岸
峯
島
崇
崑
崔
崖
崙
崩
嵬
嶲
巂
巛
川
州
巟
巠
巢
巤
工
左
巧
巨
巩
巫
差
己
已
巳
巴
巷
巸
巽
巾
巿
帀
市
布
希
帚
帛
帝
带
師
席
帶
常
干
平
年
幵
并
幷
幸
幺
幻
幼
幽
幾
广
広
庄
床
底
店
庚
府
度
庫
庭
庶
康
庸
廉
廌
廛
廣
廩
廴
延
廷
建
廾
廿
开
弁
弃
弄
弇
弋
式
弓
弔
引
弗
弘
弜
弟
弥
弦
弱
張
強
强
彊
彌
彎
彐
彑
当
彔
录
彖
彗
彡
形
彥
彦
彧
彭
彳
役
彼
往
待
律
徒
得
徙
從
復
微
徵
心
忄
必
忌
忍
志
忝
忠
忩
快
念
忽
忿
思
怠
急
怱
恆
恒
恩
恭
息
悉
患
悤
悲
悶
惠
惡
惢
愁
愈
意
愛
感
慈
慧
慮
憂
憲
應
戀
戈
戉
戊
戋
戌
戍
戎
成
我
戒
戔
或
戚
戠
戢
截
戲
戶
户
戹
戼
戾
房
所
扁
扇
手
扌
才
打
托
执
承
折
拉
拜
拿
掌
推
提
摩
撒
支
攴
攵
收
攸
改
放
政
敄
敏
敕
敖
敗
教
敝
敞
敢
散
敦
敫
敬
数
敷
數
斂
文
斉
斊
斗
斤
斥
斩
斬
斯
新
方
於
施
斿
旁
旋
族
无
旡
既
旣
日
旦
旧
旨
早
旬
旱
旲
时
旾
昆
昇
昌
昍
明
昏
易
昔
昗
昜
星
春
昬
是
昱
昴
昷
時
晃
晋
晏
普
景
晶
智
暑
暴
曇
曜
曩
曰
曲
曳
更
曷
書
曹
曼
曾
替
最
朁
會
月
有
朋
服
朔
朕
朗
望
朝
木
朩
未
末
本
札
朮
术
朱
朵
朶
朿
杀
杏
杜
束
条
来
東
杲
杳
松
析
林
枚
果
枝
枲
枼
某
柔
查
柬
柰
柴
栗
株
桀
案
桑
桼
梁
條
梟
梨
棉
棘
棠
棥
森
楚
業
楽
概
榮
樂
樊
欠
次
欣
欮
欲
欶
欽
款
歆
歇
歌
歛
止
正
此
步
武
歨
歪
歮
歯
歰
歲
歴
歷
歸
歹
歺
死
殳
段
殷
殸
殹
殺
殻
殿
毋
毌
母
每
毒
比
毕
毚
毛
毳
氏
氐
民
气
氣
水
氵
氶
氷
永
氺
氾
求
汇
汉
汝
汞
江
沃
沓
沙
沝
河
況
泉
法
波
泣
泥
泰
洛
洪
活
派
流
浦
浪
浮
海
淡
淮
清
渚
渠
湯
滿
漢
漸
火
灬
灭
灰
灵
灷
炅
炎
炏
炗
炙
炭
為
烈
烏
烝
焉
無
焦
焱
然
煞
熊
熏
燕
營
燮
爪
爫
爭
爯
爰
爱
爲
爵
父
爻
爽
爾
爿
片
牙
牚
牛
牜
牟
牢
牧
牪
牽
犀
犬
犭
犮
狂
狄
狊
独
狺
猋
猒
猪
献
獻
玄
率
玉
王
玟
玨
珎
珞
班
琴
瑟
瑤
瑩
瑶
瓜
瓦
甘
甚
生
産
用
甫
甬
田
由
甲
申
电
甶
男
甸
甹
画
甾
畀
界
畏
畐
留
畜
畟
畢
畧
畨
番
畫
異
畱
當
畺
畾
疊
疋
疌
疑
疒
疙
疾
癶
癸
癹
登
發
白
百
皀
皃
的
皆
皇
皋
皐
皕
皮
皷
皿
盃
盆
盇
盈
益
盍
盎
监
盒
盖
盛
盡
監
盤
盧
目
直
相
盾
省
眇
眉
看
眔
眞
真
眷
眼
眾
着
睘
睪
睿
瞏
瞢
瞿
矍
矛
矞
矢
矣
知
矦
短
石
研
破
碎
磊
磨
示
礻
礼
社
祟
票
祭
禀
禁
禸
禹
禺
离
禽
禾
禿
秀
秃
秉
秋
科
秝
秦
移
稟
穀
穌
穴
究
穹
空
穿
突
窄
窒
立
竒
竜
竝
竟
章
童
竹
笑
笠
筆
等
答
简
箕
算
箴
節
篤
篭
米
粉
粛
粟
粤
粦
粲
糞
糸
糹
系
約
納
素
索
紫
累
細
絜
絫
絲
維
綿
縣
繇
纍
纟
红
缶
网
罒
罔
罕
罗
罙
罡
罢
罪
署
罷
羅
羊
羌
羍
美
羔
羕
羗
羞
羡
羣
群
義
羲
羸
羽
翁
翏
習
翕
翟
翠
翼
老
耂
考
者
耆
而
耎
耑
耒
耳
耴
耶
耷
聂
聊
聖
聚
聶
聿
肀
肃
肅
肉
肖
肙
肥
肩
肯
育
肴
胃
背
胡
胥
能
脊
脩
膚
臣
臤
臧
自
臬
臭
臯
臱
至
致
臺
臼
臽
臾
臿
舀
舂
舄
與
興
舉
舌
舍
舛
舜
舞
舟
般
艮
良
色
艸
艹
艾
芒
芔
芬
芮
花
芳
芺
芻
苔
苗
苟
若
苦
英
茶
茸
荅
草
荒
荣
荼
莆
莧
莫
莽
菆
菊
菐
華
萬
落
葉
著
葛
董
葵
蒙
蒦
蒼
蓋
蓬
蓺
蔑
蔡
蕉
蕭
薄
薛
薦
薰
藍
藏
藥
蘭
虍
虎
虐
虒
虔
處
虖
虗
虘
虚
虛
虜
虞
虫
虽
蚤
蚩
蜀
蜜
蟲
蠡
血
行
衍
衛
衣
衤
表
衮
衰
袁
袞
裕
褭
褱
襄
襾
西
覀
要
覃
見
規
覓
覧
親
覽
见
角
解
言
訁
訇
計
詹
語
誩
諸
讠
计
论
设
词
话
语
诺
谷
豆
豈
豊
豐
豕
豖
豙
象
豦
豩
豪
豸
貇
貝
貞
貟
負
貢
貧
貪
貫
責
貳
貴
買
費
賁
資
賈
賏
賓
賔
賛
賞
賢
賣
質
賴
贊
贝
贡
责
贯
贲
贵
赖
赞
赤
赦
走
越
足
路
蹇
身
躬
車
軍
軎
軟
輦
车
较
辛
辜
辟
辥
辰
辱
農
辵
辶
边
达
过
近
连
迷
追
退
送
逆
逐
通
速
造
逢
連
逮
進
遀
遂
過
道
達
遣
適
遷
遺
邊
邑
邕
那
邦
邪
郎
部
郭
都
鄉
酉
酋
配
酓
釆
采
里
重
野
量
金
釒
錢
钅
長
镸
长
門
閃
閉
開
閏
閑
閒
間
閔
閵
閻
闌
门
间
闷
阑
阜
阝
阿
降
陳
陽
隆
隊
隋
隡
隨
隱
隶
隹
隺
隻
隼
隽
难
雀
雁
集
雈
雋
雍
雐
雔
雙
雚
雜
雝
離
難
雨
雩
雪
雲
零
雷
需
霍
霜
霝
霞
霸
靈
靑
青
非
靡
面
靣
革
韋
韦
韭
韯
韱
音
頁
頃
項
須
頗
頡
頻
顛
页
風
风
飛
飞
食
飠
養
饣
首
香
馬
馮
駦
马
骨
高
髟
鬥
鬯
鬲
鬼
魚
魯
鮮
鱼
鲁
鳥
鳳
鸟
鹵
鹿
麃
麗
麥
麦
麻
黃
黄
黍
黎
黑
黒
黨
黹
黽
黾
鼎
鼓
鼠
鼻
齊
齋
齐
齒
齿
龍
龙
龜
龟
龠
龰
龱
龴
龵
龶
龷
龸
龹
ꙋ
ꙗ
ꞌ
者
艹
ﬁ
﻿
（
）
？
𐌰
𐌱
𐌽
𐌿
𐍃
𠀁
𠀃
𠀆
𠀉
𠀎
𠀐
𠁁
𠁣
𠂆
𠂇
𠂈
𠂉
𠂊
𠂋
𠂎
𠂒
𠂔
𠂛
𠂡
𠂢
𠂤
𠂬
𠂭
𠂹
𠃊
𠃋
𠃌
𠃍
𠃎
𠃑
𠃓
𠃔
𠃜
𠄌
𠄎
𠄠
𠄢
𠆢
𠆥
𠇍
𠈌
𠌵
𠓜
𠔉
𠔥
𠔼
𠔽
𠔿
𠕀
𠕁
𠕋
𠘧
𠘨
𠙻
𠙼
𠚏
𠚒
𠚤
𠚪
𠣏
𠤎
𠤕
𠥓
𠦄
𠦑
𠦝
𠧒
𠧗
𠧪
𠩺
𠪚
𠫓
𠫔
𠫤
𠬛
𠬝
𠬞
𠬢
𠬤
𠬶
𠮛
𠮦
𠮷
𠯑
𠱠
𠳮
𠷎
𡈼
𡉀
𡉵
𡌥
𡍮
𡏳
𡕒
𡕩
𡕰
𡖅
𡗗
𡗜
𡘆
𡘤
𡧱
𡨄
𡩧
𡬠
𡭽
𡰣
𡰥
𡰪
𡰯
𡰱
𡷈
𡸁
𡿨
𡿩
𡿪
𡿺
𢀖
𢀛
𢀩
𢁙
𢆉
𢆰
𢆶
𢇁
𢇇
𢉖
𢌬
𢌿
𢏚
𢑑
𢑚
𢖻
𢙣
𢛳
𢦏
𢦒
𢧵
𢼄
𢾕
𣁋
𣄼
𣅀
𣅽
𣍘
𣎳
𣎵
𣏋
𣏼
𣗥
𣥂
𣥖
𣦵
𣦼
𣧄
𣪊
𣪠
𣬉
𣳾
𣶒
𤇾
𤊽
𤐫
𤓰
𤔔
𤕨
𤣩
𤰇
𤰔
𤰞
𤴓
𤴔
𤽄
𥁑
𥁕
𥃦
𥃩
𥃭
𥇡
𥑟
𥘅
𥘈
𥝢
𥫗
𥱡
𦈢
𦉪
𦉬
𦉼
𦍌
𦍒
𦎧
𦐇
𦓔
𦔮
𦘒
𦙃
𦚏
𦣝
𦣞
𦣻
𦥑
𦥔
𦥯
𦨉
𦭝
𦰩
𧆞
𧈧
𧘇
𧰨
𧴪
𧴮
𧵩
𧾷
𨸏
𨾴
𩙿
𩠐
𩫏
𩵋
𪉷
𪜀
𪟽
𪠲
𪩲
𫇦
𫔭
𫜸
𫝀
𫠣
𫠩
𫢉
𫥞
𫩏
𫩠
𫪡
𫲽
𫶧
𬀷
𬐘
𬗌
𬙙
𬛸
𬜯
𬟩
𬯁
𬴘
𬺻
𬼉
𬼖
𭀰
𭁈
𭁨
𭅰
𭑈
𭕄
𭗼
𭤨
𭥫
𭻾
𮅕
𮊿
𮍌
𮍏
𮓗
𮥼
𮧮
廾
𰀁
𰀄
𰀈
𰀉
𰀕
𰀠
𰀡
𰀢
𰀪
𰁜
𰃮
𰆊
𰆘
𰋙
𰕎
𰢴
𰧭
𰯲
00--
01--
02--
03--
04--
05--
07--
08--
09--
70--
72--
74--
77--
78--
80--
82--
83--
84--
85--
87--
90--
978--
a--
aa--
ab--
aba--
abd--
abdi--
abdom--
abe--
abi--
abo--
abond--
abri--
abro--
absor--
abu--
ac--
aca--
acant--
acce--
acceler--
accomp--
accumula--
accus--
ace--
aci--
acla--
aclapa--
aco--
acost--
acre--
acro--
act--
acu--
ad--
ada--
adam--
addit--
ade--
adj--
adjec--
ado--
adopt--
ador--
adv--
ae--
aero--
aeros--
af--
afa--
afe--
afi--
afier--
afin--
afla--
afran--
afri--
afro--
ag--
agar--
age--
agi--
aglu--
agnos--
ago--
agr--
agra--
agressi--
agri--
agro--
agrop--
agu--
aguia--
ah--
ai--
aiga--
aigue--
aigui--
ain--
air--
ais--
ait--
aj--
aja--
ajo--
ak--
aka--
al--
ala--
alde--
ale--
aleks--
alen--
aleu--
alh--
ali--
alie--
all--
alla--
alle--
alloc--
allon--
allu--
allucina--
almo--
almora--
alo--
als--
alsa--
alt--
alta--
alte--
alti--
aluc--
alue--
alum--
alun--
am--
ama--
amainat--
amar--
amb--
ame--
amend--
amerin--
amet--
ami--
amo--
amor--
amphi--
ampli--
amplific--
an--
ana--
anar--
anc--
and--
ande--
ane--
anfi--
ang--
angli--
anglo--
ango--
angu--
angui--
angusti--
ani--
ann--
anne--
anno--
ano--
ans--
ant--
ante--
anti--
antro--
anu--
ao--
ap--
apa--
apc--
ape--
api--
apo--
aporta--
appe--
appli--
apr--
apre--
aprecia--
aprigon--
apro--
aqua--
aque--
aqui--
ar--
ara--
arbo--
arc--
arca--
architec--
ard--
arden--
are--
argil--
argo--
ari--
ark--
arma--
arn--
arque--
arra--
arre--
arro--
ars--
art--
arte--
arti--
as--
asa--
asce--
ase--
ash--
asi--
asp--
assa--
assal--
asse--
assim--
assis--
ast--
aste--
astro--
astu--
at--
ata--
ate--
atenu--
ath--
ati--
atmos--
ato--
atrac--
attei--
atten--
au--
auba--
aube--
auc--
audi--
audic--
audio--
auf--
aug--
aup--
aur--
aure--
auric--
aus--
austro--
aut--
auta--
auto--
autobio--
aux--
av--
ava--
avant--
ave--
aver--
avi--
avo--
aw--
ax--
ay--
az--
aze--
azo--
aɣ--
aɣɾi--
aɾ--
b--
ba--
bac--
bach--
bad--
bag--
bai--
bal--
bala--
bali--
ball--
ban--
bapt--
bar--
bara--
bas--
bat--
bate--
bau--
baud--
bay--
baza--
baze--
bazo--
be--
beau--
bec--
bef--
bei--
bel--
bela--
bele--
belle--
ben--
bena--
bene--
benedic--
ber--
beren--
berg--
bert--
bes--
bett--
beu--
bey--
bi--
bia--
bie--
bien--
big--
bill--
bin--
bio--
bipe--
bir--
bis--
bit--
bitum--
bla--
blan--
bland--
ble--
bli--
blin--
blo--
bly--
bo--
bob--
boc--
boe--
bohai--
boi--
bois--
bol--
boli--
bolo--
bom--
bon--
bona--
bonne--
bor--
bos--
bosc--
bot--
bou--
bour--
bourb--
bout--
boutei--
bow--
box--
boy--
br--
bra--
[...]
