!
"
#
##0
##1
##10
##11
##12
##13
##14
##15
##16
##17
##18
##19
##2
##20
##21
##22
##23
##24
##25
##26
##27
##28
##29
##3
##30
##31
##32
##33
##34
##35
##36
##37
##38
##39
##4
##40
##41
##42
##43
##44
##45
##46
##47
##48
##49
##5
##50
##51
##52
##53
##54
##55
##56
##57
##58
##59
##6
##60
##61
##62
##63
##64
##65
##66
##67
##68
##69
##7
##70
##71
##72
##73
##74
##75
##76
##77
##78
##79
##8
##80
##81
##82
##83
##84
##85
##86
##87
##88
##89
##9
##90
##91
##92
##93
##94
##95
##96
##97
##98
##99
$
%
&
'
(
)
*
+
,
-
.
/
0
00
000
001
002
003
004
005
006
007
008
009
01
011
013
017
02
026
03
036
04
045
05
050
057
06
065
067
069
07
077
08
080
08013
082
084
09
094
1
10
100
1000
10000
1000000
1003
101
1016
1019
102
1020
103
104
105
1050751
106
1065
1066
107
1071
1083
109
1092
1095
1097
11
110
1100
111
112
1120
113
1135
1138
114
1145
1146
1149
115
1150
116
1168
117
1171
118
1184
1185
119
1191
1193
1196
1198
12
120
1200
1204
121
1218
122
1229
123
1230
1236
1238
124
1249
125
1250
126
127
1270
128
1289
129
1291
13
130
1300
1305
1307
1308
131
1310
1313
1314
1315
1319
1324
1326
133
134
134000
1344
135
1350
1352
1356
136
1361
1371
138
139
1391
1398
14
140
1400
141
142
143
1435
1436
144
145
1450
1451
1452
1453
1454
146
1469
147
1470
1472
1478
148
1480
1483
1486
149
1490
1492
1495
1497
1499
15
150
1500
1502
1503
1504
1506
1507
151
1510
1513
1516
1517
1518
1519
151973
1520
1521
1522
1523
1524
1525
1526
153
1530
1534
1535
1536
1539
1540
1541
1542
1543
1547
1548
1549
155
1550
1551
1552
1553
1554
1557
1558
156
1560
1563
1564
1565
1568
1569
1570
1572
1574
1575
1577
1578
1579
1580
1581
1582
1584
1585
1590
1596
1597
16
160
1600
1601
1602
1603
1605
1606
1607
1608
161
1610
1614
1616
1619
162
1620
1625
163
1631
1632
1634
1635
1639
164
1640
1641
1642
1644
165
1650
1653
1654
1655
1656
1657
1659
166
1660
1661
1663
1664
1665
167
1671
1672
1673
1675
1677
1679
168
1680
1685
1689
1691
1693
1697
17
170
1700
1704
1708
171
1710
1711
1713
1715
1716
1717
1718
1720
1724
1726
1728
173
1730
1740
1743
1744
1745
175
1750
1753
1756
1758
1759
1760
1762
1763
1764
1768
1770
1771
1772
1774
1775
1777
1778
1780
1781
1783
1787
1789
179
1790
1791
1792
1793
1794
1795
1796
1797
1798
1799
18
180
1800
1801
1802
1803
1804
1805
1806
1807
1808
1809
181
1810
1811
1812
1813
1814
1815
1816
1817
1818
1819
182
1820
1821
1822
1823
1824
1825
1826
1827
1828
1829
183
1830
1831
1832
1833
1834
1835
1836
1837
1838
1839
1840
1841
1842
1843
1844
1845
1846
1847
1848
1849
185
1850
1851
1852
1853
1854
1855
1856
1857
1858
1859
186
1860
1861
1862
1863
1864
1865
1866
1867
1868
1869
187
1870
1871
1872
1873
1874
1875
1876
1877
1878
1879
188
1880
1881
1882
1883
1884
1885
1886
1887
1888
1889
1890
1891
1892
1893
1894
1895
1896
1897
1898
1899
19
190
1900
1901
1902
1903
1904
1905
1906
1907
1908
1909
191
1910
1911
1912
1913
1914
1915
1916
1917
1918
1919
192
1920
1921
1922
1923
1924
1925
1926
1927
1928
1929
193
1930
1931
1932
1933
1934
1935
1936
1937
1938
1939
194
1940
1941
1942
1943
1944
1945
1946
1947
1948
1949
195
1950
1951
1952
1953
1954
1955
1956
1957
1958
1959
196
1960
1961
1962
1963
1964
1965
1966
1967
1968
1969
197
1970
1971
1972
1973
1974
1975
1976
1977
1978
1979
1980
1981
1982
1983
1984
1985
1986
1987
1988
1989
1990
1991
1992
1993
1994
1995
1996
1997
1998
1999
2
20
200
2000
2001
2002
2003
2004
2005
2006
2007
2008
20080427135832
2009
20091211
201
2010
2011
2012
2013
2014
201409
2015
2016
2017
2018
2019
202
2020
2021
2022
2024
204
206
208
21
210
211
21202058539
2123
213
214
215
217
218
22
220
221
222
223
225
226
23
230
231
232
234
235
236
237
239
24
240
2400
241
242
243
244
245
246
247
248
249
25
250
2500
251
254
255
256
257
26
260
261
262
264
265
268
27
270
271
273
274
275
276
277
278
279
28
280
2800
281
284
286
288
29
290
29000
29016906
293
294
2959
296
298
299
3
30
300
3000
301
302
303
304
306
307
308
31
310
315
316
317
319
32
320
323
324
325
327
328
329
33
330
332
333
335
336
34
340
341
343
346
347
35
350
3500
352
355
356
358
36
360
361
3621491
366
37
372
373
374
375
376
379
38
380
383
386
389
39
390
391
395
396
397
399
4
40
400
4000
40000
401
402
403
405
406
407
408
409
41
410
411
412
415
417
42
420
4217
423
424
425
426
428
43
430
431
432
44
441
443
444
445
448
45
450
4500
451
452
453
455
46
460
461
462
466
468
47
470
473
474
475
476
478
479
48
480
4800
483
489
49
490
492
49219
494
495
498
5
50
500
5000
50000
503
504
506
51
511
514
515
52
520
521
523
525
527
528
53
530
534
54
540
544
545
547
549
55
550
5500
553
555
55540
556
558
559
56
560
561
562
564
565
566
568
56821
57
570
571
573
574
578
58
580
582
584
586
59
598
6
60
600
6000
602
6031
61
610
612
613
617
619
62
620
621
623
625
626
629
63
631
632
633
635
638
64
640
641
644
645
647
65
650
652
653
655
656
66
660
666
667
669
67
670
671
672
673
675
676
679
68
680
6837
684
686
688
69
690
691
692
694
695
7
70
700
7000
703
706
709
71
711
712
716
717
718
72
722
73
737
739
74
741
742
7448
746
75
750
752
753
756
76
760
765
767
77
774
778
78
784
787
79
790
792
793
796
797
799
8
80
800
8000
804
806
809
81
810
811
813
814
8147
817
819
82
825
828
83
834
84
840
847
85
850
851
852
858
86
860
863
86366
864
866
867
87
88
886
888
889
88946
89
890
895
9
90
900
90000
903
907
908
91
912
915
92
920
921
925
93
931
932
933
936
937
94
943
95
950
95360
956
96
96242
963
97
975
977
978
98
980
983
986
987
988
99
995
9953
996
999
:
;
<
=
>
?
@
\
^
_
`
a
aa
aaa
aaiu
aaiun
aarau
aaron
aatzmaut
aavso
ab
abad
abadi
abait
abajar
abala
abandonada
abandonados
abandonar
abandonaron
abandonasen
abandono
abarca
abargil
abarka
abarkar
abasha
abashan
abashando
abashar
abasharon
abasho
abasolo
abba
abbas
abbe
abc
abd
abdel
abdelaziz
abdim
abdul
abdullah
abecassis
abediguan
abediguasion
abediguasiyon
abediguava
abekasis
aben
abenaki
aber
abha
abhazia
abi
abia
abian
abidin
abierta
abierto
abiertos
abies
abir
abirached
abitada
abitadas
abitantes
abitaron
abitualmente
abjasia
ablo
ablon
ablona
ablono
aboab
aboka
abokamiento
abolta
aboltar
aboltaron
aboltava
abolto
abordar
abori
aborijinala
aborijinalas
aborijinalo
aborijinalos
aborjinalos
abou
about
above
abovestyle
abra
abrabanel
abraham
abravanel
abreviatura
abriendo
abrigos
abril
abruzo
abruzzo
abs
absburgo
absence
absoluta
absolutas
absolutely
absoluto
absolutos
absorvida
abstract
abstrakta
abstrakto
abu
abuela
abuelo
abulafia
abunda
abundan
abundansia
abundante
abyad
ac
aca
acade
academia
academias
academic
academy
acala
acambay
acapulco
acatl
acatla
accept
acceptable
accepts
accesible
acceso
access
accessed
accessorize
accio
according
accounts
ace
acela
acero
achakes
acheto
achievement
achika
achikamye
achiko
achoughar
ackley
acolman
acompan
acosta
acra
acre
across
action
active
activeusers
actividad
activist
activista
actopan
actor
actress
actriz
actual
actuala
actualidad
acuerdo
aculco
acun
ad
ada
adademir
adam
adan
adana
adaptados
adaptar
adaptaron
adaptasiyon
adar
adas
adc
add
addclass
added
adding
addition
additional
adds
adeed
adekuado
adela
adelantada
adelantado
adelantar
adelante
adelanto
adelantre
adema
ademas
adentro
adereh
ades
adherents
adicionales
adie
adige
adil
adina
adio
adirse
adisio
adision
adisionado
adisional
adisionala
adisionales
adiyaman
adj
adjektivos
adjensia
adjensias
adjente
adjuda
adjudantes
adjudar
adjudo
adjunto
adjusta
adjustando
adjustarse
adjustavan
adk
adler
adm
administra
administracio
administrada
administrado
administrador
administrasio
administrasion
administrasiyon
administrasyon
administrativa
administrativamente
administrativas
administrativo
administrativos
adminstrativa
adminstrativo
admirasion
admitido
admnistrativas
admnistrativo
adn
ado
adolf
adolfo
adom
adonai
adopta
adoptada
adoptado
adoptando
adoptar
adoptaron
adopto
ador
adorar
adorasion
adornada
adrar
adreso
adria
adriano
adriatika
adriatiko
adulta
adultos
adumim
advanced
advances
adverbios
advisor
adye
adyentro
ae
aedada
aedadas
aedado
aedados
aek
aerea
aereas
aereo
aerial
aeroli
aerolinea
aerolineas
aeroporto
aeroportos
aeropuerto
aerospace
af
afa
afak
afama
afamada
afamadas
afamado
afamados
afaman
affaires
affairs
affect
afgana
afganistan
afghanistan
afi
afia
afif
afiksada
afiliada
afiliadas
afiliado
afilu
afin
afinkada
afinkadas
afinkado
afinkados
afinkamiento
afinkamientos
afinkan
afinkar
afinkaron
afinkarse
afinko
afirma
afirman
afirmar
afirmasiones
afirmo
afito
afitos
aflalo
afluensia
aforsaron
afp
africa
african
africanus
afrika
afrikaans
afrikana
afrikanas
afrikaner
afrikano
afrikanos
afrique
afro
afrol
after
afuera
afueras
ag
aga
agada
agadol
agag
again
against
agan
agar
agatokles
agave
agaw
agbarieh
agdam
age
agency
ager
agesic
agfa
agi
agia
agila
agir
aglomerasion
aglomerasiones
aglutinasion
agnon
ago
agolan
agora
agorot
agosto
agradavle
agrandada
agrandadas
agrandir
agrega
agregan
agregar
agri
agriarctos
agricultura
agriculture
agrikola
agrikolas
agrikultores
agrikultura
agriotherium
agroturizmo
agrupa
agrupados
agrupamiento
agrupan
agrupar
agua
aguakat
aguas
aguascalientes
aguaskalientes
agudo
aguilar
aguirre
agusti
agustin
ah
aha
ahad
aharientar
aharon
aharonot
aharvada
aharvamientos
aharvar
aharvaron
aharvo
ahashverosh
ahava
ahayim
ahcolli
ahi
ahlan
ahmad
ahmara
ahmariko
ahmed
ahmet
ahn
ahome
ahora
ahrida
ahronot
ahuachapa
ahue
ahuera
ahumada
ahumadaestado
ai
aid
aie
aillavilu
ailurarctos
ailuropoda
aims
ain
ainara
ainda
ainito
air
airbus
aircraft
aire
aires
airfield
airlines
airport
airports
airways
ais
aise
aislamiento
aix
aizenberg
aj
ajacuba
ajami
ajedrez
ajektivos
ajena
ajenas
ajeno
ajenos
ajensia
ajentes
ajo
ajoloapan
ajuntadas
ajuntamiento
ajuntaron
ajusco
ajustada
ajustamientos
ajustando
ajustar
ak
aka
akaba
akabada
akabado
akaban
akabar
akabaron
akabe
akabo
akade
akademi
akademia
akademias
akademika
akademikas
akademiko
akademikos
akadiana
akadio
akaju
akava
akavada
akavar
akavidamiento
akavo
akbar
akdros
akel
akeos
akestas
akesto
akeya
akeyas
akeyo
akeyos
aki
akita
akiva
akka
akko
ako
akodashim
akodesh
akodra
akodrado
akodramiento
akodrar
akodraron
akodrarse
akodro
akodros
akol
akonante
akontese
akontesimiento
akontesimientos
akontesio
akoplan
akordar
akordo
akorruto
akoruto
akov
akp
akra
akre
akresento
akro
akron
akronimo
akrotiri
aks
aksa
aksaray
akseder
aksedido
aksepta
akseptada
akseptadas
akseptado
akseptados
akseptan
akseptar
akseptaron
akseptasion
akseptasiyon
akseptava
aksepto
akseso
aksidente
aksiomas
aksion
aksiones
aksiyon
aksiyones
aksu
aksumita
aksyo
akta
aktitud
aktitudes
aktiva
aktivamente
aktivar
aktivas
aktivida
aktividad
aktividades
aktivismo
aktivista
aktivistas
aktivistos
aktivita
aktivitad
aktivitades
aktivitas
aktivizmo
aktivo
aktivos
akto
aktor
aktores
aktos
aktrisa
aktrisas
aktua
aktual
aktuala
aktuales
aktualidad
aktualita
aktualmente
aktualo
aktualos
aktuando
aktuar
aktuasion
aktuasiyon
aktuo
akuatiko
akuerdo
akumuladas
akumulasion
akunyado
akurtado
akusados
akuya
akuzada
akuzaron
akuzativo
akyu
akyuz
al
ala
alabama
alabastro
alagoas
alaha
alain
alajuela
alamo
alan
alanya
alaoui
alarco
alarko
alas
alaska
alaton
alava
alavado
alavar
alayim
alba
albanez
albanezos
albania
albasete
alberga
albert
alberta
alberteinsteinstatue
alberto
albufeira
album
albumes
albumos
albums
albuquerque
alburquerque
alca
alcala
alcalde
aldama
aldea
aldeas
alderedor
alderredo
alderredor
aldina
aldredor
ale
alef
alefbet
alegre
alegri
alegria
alegriya
alejada
alejandria
alejandro
aleksander
aleksandra
aleksandriya
aleksandro
alema
aleman
alemana
alemanes
alemania
alemaniko
alene
aleom
aleppo
ales
aleste
alevanta
alevantamiento
alevantaron
alevi
alex
alexa
alexander
alexandra
alexandri
alfa
alfabe
alfabet
alfabeto
alfareri
alfaro
alfasi
alfassa
alfbeta
alfen
alfombrilla
alfonso
alfoz
alfred
alfredo
algarve
algazi
alge
algebra
algebraika
algemeiner
algeria
algero
algo
algodon
algodones
algokina
algoritmos
algu
alguero
algumas
algumos
algun
alguna
algunas
alguno
algunos
alhad
alhambra
ali
aliada
aliado
aliados
aliansa
aliansas
alianza
alias
aliases
alice
alighieri
align
alignbars
alignment
alikante
alila
alimentasion
alimento
alimentos
alimpiar
alina
alingua
alinguas
alive
aliya
aliyev
alize
aljama
aljhad
alkakde
alkalai
alkalde
alkaldes
alkaldesa
alkaldia
alkansa
alkansado
alkansan
alkansando
alkansar
alkanse
alkanso
alkanzaron
alkanzo
alkavo
alkazar
alkazarkivir
alkiler
alko
alkoles
alku
alkun
alkuna
alkunas
alkuno
alkunos
alkunya
alkunyas
all
alla
allado
allela
allen
allende
alliance
allnames
allowed
allowing
allows
alma
almagor
almagro
alman
almana
almanas
almanes
almania
almanya
almaraz
almas
almaty
almaza
almeida
almendro
almeria
almirante
almohade
almohades
almoloya
almoloyan
almosnino
almost
almozlino
almun
alom
alon
alone
alonso
alony
alos
alpes
alphabet
alphabetical
alquisiras
already
alrededor
alrededores
als
alsace
alsafra
alsafran
alsancak
alsasia
alsiadi
also
alstom
alt
alta
altagracia
altagraciaometepe
altamente
altamirano
altar
altarsonora
altas
altay
alte
altepetl
alterasiones
altere
alteres
alterman
alternate
alternativa
alternativas
alternative
alternativo
alternativos
altesa
although
altiplano
altitud
altneuland
alto
altoplano
altos
altra
altura
alturas
aluf
aluminio
alvarado
alvarez
alvaro
always
aly
alyi
alzeyte
am
ama
amaaravi
amacuzac
amadeus
amador
amadora
amagan
amakuro
amalgam
amalgame
amalia
amanalco
amaneser
amante
amar
amarga
amargo
amargos
amariya
amariyo
amasonas
amatada
amatado
amatados
amatar
amataron
amate
amatenango
amatepec
amates
amato
amatores
amazigh
amazing
amazo
amazon
amazonas
amazonia
amb
ambar
ambas
ambasada
ambasadas
ambasador
ambasadora
ambassador
ambeza
ambezada
ambezadas
ambezado
ambezamiento
ambezamye
ambezan
ambezando
ambezar
ambezara
ambezaron
ambezase
ambezava
ambezavan
ambezo
ambiental
ambiente
ambiertos
ambito
ambitos
ambos
ambre
ambroz
amburgo
ame
amealco
amecameca
amei
amelech
ameleh
amemshala
amen
amenasa
amenasas
amenaza
amenazados
amenazas
amenguar
america
american
americana
americano
americanus
amerika
amerikana
amerikanas
amerikano
amerikanos
amerikas
amerindio
amerindios
amharik
amharika
ami
amida
amiga
amigavle
amigo
amigos
amijor
amijorada
amijoradas
amijorado
amijorados
amijoramiento
amijorando
amijorar
amijoraron
amijores
amijoro
amikdash
amina
aminatou
aminatu
amine
amir
amis
amishpat
amistad
amitay
amman
amnistia
amnon
amo
among
amor
amore
amorta
amortada
amortadas
amortado
amortados
amortamiento
amortamientos
amortamye
amortamyento
amortando
amortar
amortaron
amorto
amos
amostra
amostrada
amostradas
amostrado
amostrados
amostramiento
amostramientos
amostran
amostrando
amostrar
amostraron
amostras
amostrava
amostravan
amostro
amount
amour
ampiyonası
ampla
amplia
ampliada
ampliamente
amplias
amplio
amram
amrita
amsalem
amsterdam
amuchigua
amuchiguando
amuletos
amundsen
amur
amus
amusika
amy
an
ana
anabasis
anadol
anadolu
anakkale
anali
analisis
analitika
analiza
analogue
anana
anand
anarkizmo
anassi
anastasiya
anat
anatolia
anatolya
anatomi
anatomia
anatomiya
anavi
anaya
ancash
ancha
ancho
anchor
anchura
ancien
ancient
ancona
and
anda
andado
andalie
andaluci
andalus
andalusi
andaluz
andaluzi
andaluziya
andar
andava
ande
andere
andes
andino
andjak
ando
andorra
andre
andrea
andreas
andrew
ane
aneksion
anexo
anfiteatro
ang
angamacutiro
angel
angela
angeles
angelika
angelina
angels
angleria
anglezes
anglikanos
anglit
anglo
angola
anguila
angular
ani
anima
animada
animado
animados
animal
animales
animalia
animasion
animo
aninfobox
anio
anios
aniversa
aniversario
aniyar
aniyo
aniyos
anjel
anjeles
ankara
ankaya
anke
ankica
ankontra
ankontraba
ankontraban
ankontrada
ankontradas
ankontrado
ankontrados
ankontran
ankontrar
ankontraron
ankontrava
ankontravan
ankontro
ankuentra
ann
anna
annaba
annalen
annan
anne
annie
anniversary
announced
announces
annual
annus
ano
anos
another
anse
ansestrala
ansestro
ansestros
ansi
ansia
ansiklope
ansiklopedia
ansiklopedias
ansiklopedya
ansina
anta
antakya
antalya
antan
antarctic
antarktika
antartika
antartiko
ante
antepasados
antepsados
anterior
anteriores
anteriormente
antes
antesedentes
antesimitizmo
anthology
anthony
anthropology
anti
antiatomika
antich
antiga
antigamente
antigu
antigua
antiguas
antiguedad
antiguo
antiguos
antika
antikamente
antikas
antikita
antikitades
antiko
antikoo
antikos
antilles
antioksidantes
antioquia
antiquities
antisemita
antisemitas
antisemitismo
antisemitizmo
antisipato
antiyas
anto
antofagasta
antoine
antojo
antolojiya
antolojiyas
anton
antoni
antonio
antonses
antropo
antropologi
antropolojia
antropolojiya
anual
anualmente
anuario
anuncian
anunsia
anunsiar
anunsio
anunsios
anunsyo
anusim
anveres
anvers
any
anyada
anyadas
anyaden
anyadido
anyo
anyos
anything
anywhere
anzas
ao
aomori
aora
ap
apalaches
apan
apanyaron
aparato
aparatos
aparece
aparecera
apareja
aparejaron
aparensyas
aparente
aparentemente
aparese
aparesen
apareser
aparesido
aparesiendo
aparesieron
aparesio
aparezca
apariencias
apariensia
aparisio
aparision
aparisiones
apartadas
apartados
apartaja
apartajada
apartajado
apartajamiento
apartajamientos
apartajando
aparte
apartene
apartener
apartenia
aparteniendo
apartheid
apartiene
apartienen
apatronaron
apatrono
apatzco
apaxco
apellido
apellidoeditor
apellidos
apenas
apertura
aperturada
aperturadas
aperturado
aperturamiento
aperturamye
aperturar
aperturaron
aperture
aperturo
api
apl
aplican
aplika
aplikada
aplikadas
aplikado
aplikar
aplikasio
aplikasiones
apo
apodaca
apogeo
apokopado
aporta
aportar
aportasiones
aportava
aporte
aportes
aporto
aportos
apostol
apostoles
apostolo
apoya
apoyado
apoyados
apoyar
apoyaron
apoyava
apoyo
appear
appearance
appears
appended
apple
applicable
application
applications
applied
applies
apply
approaches
appropriate
approves
apre
aprenden
aprender
aprendio
aprendizaje
apresenta
apresentada
apresentadas
apresentado
apresentador
apresentadora
apresentados
apresentan
apresentando
apresentar
apresentaron
apresentarse
apresentasion
apresentasiones
apresentasiyon
apresentava
apresento
apresiada
apresiado
aprezada
aprezado
aprezados
aprezaron
april
aprobada
aprobasyon
aprobo
aprogzimadamente
aprojimatamente
aproksimada
aproksimadamente
aproksimatamente
aproksimativamente
aprontar
apropiada
apropiadas
apropiado
apropiados
apropriado
aprovado
aprovaron
aprovechado
aprovechando
aprovo
aproximadamente
aprueva
aptas
aqaba
aquel
aqueya
aqui
aquila
ar
ara
arab
araba
arabas
arabe
arabes
arabi
arabia
arabian
arabic
arabiko
arabis
arabiya
arabo
arabos
arabs
aracaju
arad
arafat
aragana
arago
aragon
aragone
aragones
aragonesa
aragonez
aragoneza
aragonezos
aragua
aramaic
aramberri
aramea
arameo
arami
aranez
aranjada
aranjar
aranjuez
arashi
arat
arath
arauca
araucani
arauco
araukana
arauko
arav
arava
aravaca
araya
arba
arbil
arbitrary
arboles
arc
arcadia
archaeology
archipielago
architectural
architecture
archive
archives
archivo
archivos
arco
arcos
arctodus
arctos
arctotherium
arda
arditi
ardjel
ardjelia
are
area
areas
arefujiados
arei
arekipa
arekojer
arekojeron
arekojidos
arena
arenal
arenas
arenys
arequipa
aresentadon
aresentaron
aresento
aresibio
aresive
aresiven
aresivida
aresividas
aresivido
aresividos
aresiviendo
aresivieran
aresivieron
aresivio
aresivir
aretha
aretiro
aretz
arevisio
arezifes
arg
argentina
argentine
argov
args
argtables
argtableval
argu
argument
argumento
argumentos
arguments
ari
aria
arias
arica
aridas
arie
ariel
ariento
arientro
arifujiados
arik
arika
ariko
arim
arina
arios
arish
arishon
arista
aristegui
aristo
aristoteles
aritme
aritmetika
ariv
ariva
arivada
arivan
arivando
arivar
arivaron
arivo
arizona
arjel
arjelia
arjeliano
arjelina
arjelino
arjentina
arjentinas
arjentino
arjentinos
arka
arkadi
arkansas
arkeo
arkeolo
arkeolojika
arkeolojikas
arkeolojiko
arkeolojikos
arkeolojiya
arketipos
arkia
arkidiosesis
arkipe
arkipelago
arkipielago
arkipielagos
arkipye
arkitekta
arkitekto
arkitektonika
arkitektonikas
arkitektoniko
arkitektonikos
arkitektos
arkitektura
arkivo
arkivos
arko
arkos
arlanda
arlington
arma
armada
armadas
armado
armados
armamento
armand
armando
armas
armed
armenia
armenian
armenias
armenio
armenios
armos
arms
arno
arnold
aroeste
aromimha
aron
aroncado
aroncados
aroncar
aronchados
arondjados
aronjados
aronson
around
aroyo
arqueolo
arquitectura
arr
arrasada
array
arremato
arrepentimiento
arrestados
arrests
arrezifes
arriba
arribo
arriva
arrivada
arrivadas
arrivan
arrivar
arrivaron
arrivarono
arrivo
arrogamiento
arrogar
arrondjado
arrondjados
arrondjamiento
arroyo
arroyos
arroz
arruabarrena
ars
arsim
arsiya
art
arte
arteaga
artefaktos
artem
artes
artesanos
arthur
arti
article
articles
articulos
artificial
artifisial
artifisiala
artifisiales
artifisialo
artigas
artiko
artikolo
artikolos
artikulos
artist
artista
artistas
artistic
artistika
artistikas
artistiko
artistikos
artistos
artists
artitle
artkitekto
arts
artsah
arturo
aru
aruba
aruh
arup
arutz
arvit
arvolada
arvoladas
arvole
arvoles
arvoliko
arvolikos
ary
arye
aryeh
aryento
arz
arzila
as
asado
asalto
asamblea
asambleas
asan
asanso
asansor
asansores
asar
ascensio
ascenso
asdrubal
ase
asegu
asegun
asegurar
asembrada
asemeja
asemejante
asemejantes
asemite
asen
asendensia
asender
asendido
asension
asenso
asentado
asentamiento
asentamientos
asentamye
asentamyento
asentar
asentaron
asentava
asepsio
aseptada
aseptado
aseptados
aser
aserbas
aseret
aserka
aserkamiento
asero
ash
ashamayim
ashana
ashavara
ashavaras
ashavua
ashdod
ashem
asher
ashirim
ashkanezic
ashkelon
ashkenaz
ashkenazi
ashkenazim
ashkenazis
ashram
asi
asia
asian
asiatiko
asiatikos
asiel
asiendo
asiento
asientos
asigna
asignado
asignar
asignaturas
asigu
asigun
asigurar
asilo
asim
asima
asimetrika
asimetrikas
asimilasion
asimilasiyon
asimismo
asina
asinus
asinyada
asinyo
asiria
asirio
asirios
asisten
asistensia
asistenta
asistente
asistido
asistir
asiya
ask
askala
askenazi
askeptado
askeptaron
asker
askeres
asl
asma
asmara
asociacio
asosiada
asosiadas
asosiado
asosiados
asosiasion
asosiasiones
asosiasiyon
asosiasyon
asp
aspekto
aspektos
aspera
asperando
assa
assamblea
assembleoutput
assembly
asseo
assert
associacio
associated
associates
association
assume
ast
asta
astana
astarte
astrid
astro
astrofisica
astrofisika
astrolojiya
astronautix
astronomia
astronomika
astronomikos
astronomista
astronomiya
astronomos
astronotas
astros
asturiano
asturias
asukar
asume
asuncio
asunsion
asunto
asuntos
asustado
asustava
asya
asyatika
asyatiko
asyatikos
asymmetrical
at
ata
atacama
atadas
atados
atakada
atakados
atakando
atakar
atakaron
atake
atako
atakos
atakoz
atamiento
atamientos
atamietos
atan
atansion
atapuerca
atari
atash
atassi
atatu
ataturk
ate
atea
ateismo
ateista
ateizmo
atelye
atena
atenas
atenco
atender
ateneo
atensio
atension
atensiyon
atentado
atentados
ateo
ateos
aterrizaje
athens
athlete
atid
atina
atines
atitalaquia
atitla
atizapa
atl
atla
atlacomulco
atlan
atlanta
atlantika
atlantiko
atlantique
atlas
atlautla
atle
atletiko
atletismo
atletizmo
atlit
atmo
atmosfera
atmosferikos
ato
atocha
atocpan
atole
atolinga
atomika
atomiko
atomikos
atomo
atomos
atopadas
atopado
atora
atotonilco
atra
atrae
atraer
atrai
atrako
atraksiones
atraktiva
atraktivo
atraktivos
atrapada
atrapo
atras
atrasado
atravesada
atraviesa
atraviesan
atravisa
atraye
atrayidos
atraza
atribuido
atributos
atribuye
atribuyen
atta
attack
attacks
attikva
attr
attribute
attributes
atzmaut
atzofim
au
auckland
audiensia
audio
auditorio
auerbach
auf
auge
augmentada
augmentar
august
augusta
auguste
augusto
augustus
aujourd
auksiliares
aul
aula
auma
aumann
aumentar
aumento
aun
aunke
aunque
aurelio
aurora
ausangate
auschwitz
ausensia
australa
australia
australian
australiana
australianos
australis
austria
austrian
austro
author
authority
authors
auto
autobiography
autobuses
autobusos
autocollapse
autoestrada
automa
automatic
automatically
autonoma
autonomia
autonomous
autopan
autopista
autor
autora
autores
autori
autoridad
autoridades
autos
autres
autumn
aux
av
avagar
available
avana
avansada
avansados
avansar
avanse
avanso
avant
avanzada
avanzados
avanzo
avdala
ave
avec
aveiro
avellana
avenc
avenida
avenidas
avenir
aventura
aventuras
aver
averina
aves
avi
avia
avian
aviasion
aviation
avichai
avierto
aviertos
avigdor
avila
avinou
avinu
avio
avion
aviones
aviso
avistaron
avitaban
avitada
avitadas
avitado
avitantes
avitaron
aviv
aviva
aviya
aviyan
avla
avlada
avladas
avlado
avladores
avlados
avlan
avlando
avlante
avlantes
avlar
avlara
avlaron
avlava
avlavan
avlo
avner
avoda
avogado
avoid
avokado
avokata
avokato
avokatos
avon
avot
avraam
avraham
avram
avri
avril
avrio
avrir
avriya
avriyan
avrupa
avshalom
avtonoma
avtonomiya
avtor
avtores
avtoridad
avtoridades
avyerta
avyerto
avyertura
avyo
award
awards
away
awpaq
axapusco
axel
axocopan
ay
aya
ayacucho
ayados
ayalon
ayam
ayamim
ayapango
ayazgo
ayazgos
aycan
aydın
ayegar
ayegaron
ayegase
ayego
ayelet
ayer
ayga
ayi
ayifsiano
ayifsianos
ayifsios
ayifto
ayiga
ayinda
ayman
aymara
ayo
ayom
ayos
ayre
ayrea
ayreas
ayres
ayro
ayrolineas
ayroporto
ayroportos
ayropuerto
ays
ayse
ayti
aytiano
aytianos
ayubi
ayuda
ayudado
ayudante
ayudantes
ayudar
ayudaron
ayudo
ayuno
ayuntamiento
ayyam
ayyub
az
aza
azada
azar
azara
azat
azawad
azcapotzalco
aze
azed
azeitim
azen
azer
azerbaidjan
azerbaidjani
azerbaijan
azeri
azerianas
azeris
azerla
azerlo
azero
azerse
azes
azete
azeyte
azi
azia
azian
azic
azienda
aziendas
aziendo
azieron
azikaron
aziyan
aziz
azkenazi
azkenazim
azkenazitas
azman
azniko
azno
aznos
azoulay
azriel
azrieli
azta
azteca
azteka
azteko
aztekos
azueta
azukar
azul
azulay
azulejos
azure
azza
azərbaycan
b
ba
baal
baale
bab
baba
babel
babilonia
babilonio
babilonios
baboun
baby
babylon
babylone
bacalar
bach
bachiyerato
back
background
backgroundcolors
backtranslate
bad
badajoz
badalona
baden
badillo
badiraguato
bado
bagdad
bagdadis
baghdad
baghdadim
baha
bahai
bahamas
bahc
bahi
bahia
bahr
bahrain
bahrein
bai
baia
baikonur
baila
bailadores
bailan
baile
bairaq
bairro
bairros
baiser
baja
bajada
bajas
baji
bajio
bajo
bajos
bakanyado
bakish
bakshi
bakteria
bakterias
baku
bal
bala
balada
balanca
balas
balat
balear
baleares
balears
balfour
bali
balkan
balkanes
balkaniko
balkanos
balkans
balkanu
balkon
ball
baltasar
baltika
baltiko
baltimore
balıkesir
bamidbar
ban
banat
banco
bancomer
bancopachuca
band
banda
bandas
bandeira
bandera
banderas
bandiera
bandieras
bando
bandyera
bandyeras
bandyerases
bandırma
bang
bangkok
bangladesh
banja
bank
banka
bankas
banker
bankero
bankeros
bankisrael
banko
bano
bantu
banyado
banyo
baptismo
baqashot
bar
bara
barack
barajas
barak
baratos
barbados
barbara
barbera
barbie
barbra
barbu
barbuda
barcelona
barcino
bardata
barfi
bari
barillas
bariloche
barinas
barkan
barkas
barkasas
barkat
barkisimeto
barko
barkos
barokas
baron
barquisimeto
barra
barraga
barranca
barranquilla
barras
barrera
barrio
barrios
barro
barroka
barroko
barry
barselona
bartolo
bartolome
baruch
baruh
baruj
barulyo
bas
basa
basada
basadas
basado
basados
basaltikos
basan
basaseachi
base
baseball
based
baseline
bases
basestyle
basha
bashan
bashar
bashas
bashi
bashir
basho
bashos
basi
basic
basika
basikamente
basiko
basikos
basilea
basilika
basis
baska
basketbol
basko
baso
basque
bass
bassas
basse
bastante
bastien
bastion
bat
bataille
batalia
batalya
batalyas
bataya
batayas
bate
batei
batenberg
bateo
bateriya
bath
batllo
batopilas
battle
battling
batyrchina
bautismo
bautista
bava
bavaria
baviera
bavli
baxo
bay
baye
baylando
bayle
bayles
bayou
baz
baza
bazada
bazadas
bazado
bazados
bazan
bazas
bazo
bb
bbatum
bbc
bbva
bc
bce
bd
be
beach
beachmoret
beam
beatos
beatriz
beaufort
beautiful
beauty
beaux
bebidas
bec
became
because
becerra
beck
become
becomes
bedjaya
beemet
been
beer
beersheva
beethoven
before
beg
begin
beginning
begins
behar
behaves
behavior
behind
behor
behora
behrman
bei
beijing
being
beira
beiras
beirut
beisbol
beit
beitar
beiteinu
beja
beka
beker
bektash
bektashi
bel
belarus
belarusian
belarusso
beldiye
bele
belediye
belediyes
beleichtungen
belev
beleyide
beleyides
beleza
belga
belgian
belgique
belgium
belgrado
belinda
belize
beljika
bell
bella
bellas
belle
bello
belmonte
belmopan
belo
belogrado
below
belowstyle
belz
bemossae
ben
benacerraf
benadam
benarroch
benayon
benayoun
benchimol
bencic
bendaya
bendayan
bendelac
bendicho
bendigamos
bendision
bendizion
bene
benedictus
benefisensia
benefisiensia
benefisio
benefisios
benelux
benesuela
bengala
bengali
bengis
bengualid
benguigui
beni
benidorm
benin
benitez
benito
benjami
benjamin
benmama
bennani
bennett
benoliel
benrey
bens
benson
bensoussan
bentes
bentolila
benveniste
benyakar
benz
benzin
benzion
ber
beraha
berahot
berak
berbe
berdugo
bereber
bereberes
bereshit
berger
bergers
bergman
bergstrom
bering
berlanga
berlin
berlusconi
berman
bermuda
bernal
bernard
bernardino
bernardo
bernd
bero
berrio
berrioza
berry
bertens
bertha
bertrand
beru
berush
bes
besanc
beso
best
bestias
bestval
bet
beta
betahayim
betar
betayahim
betehayim
beth
bethlehem
bethlenfalva
better
betterexamples
between
beve
bever
bevida
bevidas
bevis
bewegter
bey
beyas
beyazid
beyeza
beyog
beyond
beyrouth
bezalel
bezbas
bg
bhikkhu
bi
bialik
bible
biblia
biblikas
biblikos
bibliografi
bibliografia
bibliografiya
bibliography
biblioteca
bibliotecas
biblioteka
bibliotekas
bibliotheken
biblos
bicentenario
biden
bielorusa
bielorusia
bien
bienes
bienestar
bienez
bienfezensia
biervo
biervos
big
biga
biggest
bigletters
bihor
bikur
bil
bilbao
bilbiliko
bilbilikos
biles
bilim
bilingual
bill
billboard
billion
bilyeto
bilyetos
bilyones
bima
bimuelos
bin
binh
binyamin
binyanei
bio
biobi
biodiversidad
biogra
biografi
biografia
biografiya
biografiyas
biography
biokemika
biolo
biology
biolojia
biolojika
biolojiya
biosfera
bir
bira
birkat
birkenau
birmingham
birobidjan
birobidzhan
birobidzhaner
birth
birthplace
bis
bisantino
bisantinos
bishkek
bisikleta
bisikletas
biskocho
bismarck
bisneros
bisnes
bisnesman
bisnesmen
bisonte
bissau
bit
bito
bitola
biva
bivan
bivas
bivda
bive
biven
bivi
bivia
bivian
bivido
biviendo
bivieron
bivio
bivir
biviya
biviyan
bivo
bivos
bivyendo
bivyo
bizancio
bizans
bizansio
bizansyo
bizantina
bizantinas
bizantino
bizantinos
bizerta
biznes
black
blacklist
blacklisted
blacklisting
blagove
blake
blakkfoot
blanc
blanca
blanchard
blanco
blank
blanka
blankas
blanko
blankos
blas
blast
blatt
blaugrund
blaustein
blica
blicas
blico
blika
blikas
bliko
bloch
bloemfontein
blog
blogspot
blok
blokados
bloko
blokos
bloodshed
blu
blue
bluemosquefront
blye
bm
bmw
bn
bnei
bo
boa
boaco
board
boaz
bobowa
bobsleigh
boca
bocas
boda
bodas
bodegas
bodre
bodrum
body
bodyclass
bodystyle
boe
boeing
bog
bogota
bohadana
bohdan
bohemia
bohor
bohora
boib
boikot
bojana
boka
boker
bola
bolan
bolas
bold
bolder
bolesław
boletin
boli
bolivar
bolivariana
bolivia
bollywood
bolo
bologna
bolonya
bolos
bolsa
bolsonaro
bolu
bom
bomba
bombardier
bombas
bomitza
bon
bonaire
bonampak
bonaparte
bonds
bonet
bonfil
bonheur
bonn
bonomo
bonora
book
books
boolean
boom
boquero
borda
borde
bordeado
bordeando
bordeaux
border
bordo
boreal
borge
boris
borkowski
born
borobudur
borrego
borsa
bosanskih
boschi
bose
bosfor
bosforos
boske
boskes
bosna
bosne
bosnia
bosnios
bosque
boston
bosworth
bota
botanika
botas
both
botikas
bots
botswana
bottom
bouhamed
boulevard
bound
boundaries
bouteflika
boveda
bovinas
bovino
bowen
box
boxeo
boxer
boxes
boy
boyaca
boz
bozes
bp
bpy
br
bra
brackets
braga
braha
brahms
braille
brak
branch
branco
brand
brandeis
brandy
brasil
brasilena
brasileno
brasilenos
brasilia
brasiliana
brasiliano
braso
brasos
bratislava
braun
brave
bravo
brazil
brazo
brazos
brazzaville
bre
break
breaking
breaks
brega
brema
brener
breslau
breslavia
breslov
bretanya
breton
bretona
breve
brevemente
brian
brica
bride
bridge
bridges
bridging
brief
brigham
brill
brilyante
bring
brings
brisbane
bristol
brit
brita
britain
britanika
britanikas
britaniko
britanikos
britannica
british
briyante
brno
broadcasting
broadway
bromberg
bronse
bronx
bronze
brookings
brooklyn
brother
brown
browniano
browser
browsers
broza
bruce
bruel
brunei
bruno
brunswick
bruselas
brusko
brussels
brutality
bs
bu
buch
buches
buchukes
bucures
bucureshti
buda
budapesht
budapest
budapestdscn
budismo
budista
budistas
budizmo
buelta
buen
buena
buenas
buenaventura
buenavista
bueno
buenos
bufadora
buffalo
bugs
buhara
buhariana
buharianos
buhori
build
building
buira
bujeto
bukureshti
bulevar
bulgara
bulgaria
bulgariana
bulgariano
bulgarianos
bulgariya
bulgaro
bulgaros
bull
bullet
bullets
bulto
bulvar
bumerdes
bundesla
bunis
bunyuelos
buonarroti
burako
burcu
burdeos
bureau
bureba
burg
burgaz
burgo
burgos
burkina
burla
burley
burlon
burn
buro
buros
bursa
burton
burundi
bus
busan
busca
buscador
bush
bushka
bushkada
bushkador
bushkadora
bushkan
bushkando
bushkar
bushkaron
bushkava
bushkavan
bushkeda
bushkida
bushkidas
bushkita
bushko
business
buskhar
busque
but
butan
butika
butikas
buto
butos
button
buyidas
buz
buzye
bw
bwv
by
byelorrusia
byeloruso
byen
byervos
byosfera
byrobertberks
byron
c
ca
caazapa
caballero
caban
cabecera
cabo
caborca
cabos
caboto
cabrera
cabrillo
cacahoata
cactus
cada
caddesi
caesar
caf
cafe
cagancha
cahabo
cahuaca
cai
cairo
cajamarca
cajeme
cal
cala
calafia
calais
calakmul
calakmulcalakmul
calan
calatrava
caldas
caldero
calderon
cale
calendar
calendario
calendarmodel
cali
calidad
calientes
california
calimaya
calixtlahuaca
calkini
call
calle
called
calles
callfunction
calling
callparserfunction
calls
calmann
calpulalpan
calstrings
calva
calvaire
calvario
calvillo
calvo
cam
camberra
cambia
cambio
cambourakis
cambridge
camelus
camila
camille
camino
camiseta
camoens
camondo
camp
campaign
campamento
campeche
campo
campos
campus
can
canada
canadian
canal
canales
canarias
canary
cancio
canciones
cancu
cancun
candelaria
candidate
candidato
candidatos
candidatura
canetti
canillas
canillejas
canis
cannot
canoe
canon
canta
cantada
cantando
cantica
cantidad
cantinflas
canto
cantos
canvas
canyon
cao
cap
cape
capi
capilla
capillas
capita
capital
capitalize
capriles
capsali
caption
captura
captures
capulhuac
caqueta
car
cara
carabobo
caracas
carazo
carbajal
carbo
carbon
carbonero
card
cardiff
cardinal
cardonal
care
career
cargo
caribe
carl
carla
carlebach
carlos
carlotta
carmelit
carmelo
carmen
carmona
carnage
carnegie
carnitas
caro
carol
carole
carolina
caroline
carota
carpet
carranza
carren
carrer
carrillo
carso
carta
cartagena
carter
carthage
cartier
carvajal
carvallo
carynnyk
casa
casablanca
casanare
casas
casco
case
cases
casi
caso
casos
cassini
castas
castellana
castellano
castelo
castilian
castilla
castillejos
castillo
castro
cat
cata
catala
catalan
catalana
catalans
catalina
catalogo
catalonia
catalun
catalunya
catamarca
catanzaro
catarina
catavin
catedral
categori
categoria
categories
categoriya
category
categoryhandler
cathedral
catherine
catholic
cato
catorce
cauca
caucasus
causa
cause
causes
causing
cayo
caza
cbs
cc
ccat
ccccff
cd
cds
ce
ceara
ceb
cecilia
cedros
cefet
ceibal
ceki
celebra
celebrates
celebrity
celine
cell
cellcount
cells
celso
cem
cementerio
cemetery
cempoala
cenovezoz
censo
census
cent
cente
center
centered
centla
central
centralo
centre
centro
century
ceo
cerca
ceremony
ceres
cerrahpas
cerro
cervantes
cesar
cevdet
cezar
cf
ch
cha
chaabouni
chabad
chaco
chad
chadid
chafarinas
chai
chaim
chairman
chala
chalatenango
chalco
challenge
challenger
chalma
chamahti
chamber
chambre
champion
champions
championship
championships
champlain
champoto
chan
chanakas
chance
chanel
change
changed
changes
changing
changsha
chaouen
chapa
chapala
chapalajalisko
chape
chapeyo
chapines
chapter
chapultepec
char
character
characters
charles
charlie
charlotte
charreada
charreadas
charreria
charter
chauen
chavez
chavira
chavouoth
chay
che
chearim
checheno
chechenya
check
checkaliases
checkblacklist
checked
checking
checktype
checkvalue
cheddi
chehebarjewish
cheikh
cheka
chekia
cheko
chekoslovakia
chel
chelyabinsk
chem
chenat
chengdu
chess
chetumal
chevalier
chi
chiapa
chiapas
chiautla
chibcha
chicago
chicharrones
chiche
chichimecas
chichimekas
chichimeko
chichimekos
chico
chicoloapan
chiconcuac
chicontepec
chief
chiflik
chiguayante
chihuahua
chika
chikas
chike
chikes
chikez
chikli
chikly
chiko
chikolata
chikos
chilcuautla
child
childe
children
chile
chilean
chilena
chilenas
chileno
chilenos
chili
chilla
chillan
chills
chilpancingo
chimalhuaca
chimalpa
chimalpopoca
chimaltenango
chimbote
chimha
chin
china
chinandega
chinchipe
chinchorro
chinelos
chinese
chipilo
chipinque
chipre
chiquimula
chira
chirac
chiriqui
chis
chivo
cho
choco
chocro
choi
choice
choluteca
chongqing
chontales
choose
chopin
chorizo
chorizos
chorrera
chosen
chouf
chp
chr
chriqui
chris
christi
christian
christians
christina
christine
christmas
christophe
christopher
christos
chronicle
chu
chubut
chuetas
chumbera
chumbero
chumberos
chumbo
chumbos
chuquisaca
church
chyczij
ci
cia
cibulkova
cicek
cidob
cie
cielo
cien
ciencia
ciencias
cienti
cifras
cil
ciller
cim
cincinnati
cinco
cine
cinema
cio
circa
circle
circulacio
circumstances
cirios
cisjordania
cita
citakan
citar
citas
citation
cite
cities
citizen
citrus
city
ciudad
ciudadano
ciudades
civdad
civil
cl
cla
claim
claims
claimsproperty
claire
clara
clari
clarisse
clark
claros
clases
class
classes
classic
classical
claude
claudia
claudio
clavijero
cle
clear
clements
cleo
cleveland
clic
clima
climate
clinton
clips
clock
closer
clowan
club
cluj
cm
cn
cnn
co
coacalco
coahuila
coast
coatepec
coatl
coautores
coba
cobar
cobre
cochabamba
coches
cochimi
cochin
cocina
cocle
coco
cocotitla
code
coded
codes
codex
coding
cofradi
cofre
cohen
coimbra
cojo
col
cola
colaboracio
colaboraciones
colaboraron
cole
coleccion
colegio
colima
colin
colina
collapse
collapsed
collapsible
collection
collections
collectivization
collector
college
collegiate
colo
coloca
colombia
colon
colonet
colonia
colonial
colonias
colonizacio
color
colorado
colores
colors
colspan
columbia
column
columna
columnas
com
coma
comala
comalapa
comalcalco
comarcal
comarcas
comares
comayagua
combined
come
comec
comenzo
comercial
comercio
comes
comic
comics
comida
comillas
comisio
comma
comme
commemoration
comment
commentary
commerce
commission
committee
common
commons
commonsmedia
commonwealth
communal
communaute
commune
communes
communications
communism
communist
communities
community
como
comondu
compact
compan
company
comparison
compatible
compete
competition
compiled
complejo
completa
complete
completo
complex
comportar
composites
compositor
compostela
comprehensive
compuesto
compulsory
computer
comu
comunicac
comunidad
comunidades
comunitat
con
conc
concat
concentracio
concepcio
concepcion
concert
concerto
concertos
concerts
concheros
conciencia
concordia
conde
conderuli
condition
conecta
conference
configuration
conflict
conflictos
conforman
congregat
congregation
congreso
congress
conj
conjunction
conjunto
connected
connecticut
connection
conocer
conocido
conocimiento
conocimientos
conquest
conscie
conscience
conscientia
conseil
consejo
conselho
consider
considera
consideran
consistency
constantin
constantinopolis
constitucio
constitution
constituye
construction
constructora
construido
consuelo
consulta
consultable
consultado
consulto
contact
contador
contagem
contain
contained
container
containing
contains
contempora
contemporary
contenido
content
contentargs
contents
contest
contestant
context
contexto
contienes
continental
continuacio
continue
continuum
contra
contradanza
contreras
contribucio
contribuir
control
conv
convention
convento
conversations
conversion
conversos
convert
convierte
convirtio
cook
cooking
cool
cooper
cooperacio
cooperation
cooperative
coor
coord
coordinates
copa
copia
copias
copied
copies
copy
copying
copyright
copyrighted
copyvio
coquimatla
coquimbo
corazo
cordillera
cordoba
corduba
core
coritiba
cornell
cornet
coro
coronado
coronel
corozal
corporate
corporation
corpus
corre
correctly
corregidora
correo
corresponde
corresponding
corrientes
corte
corun
corzo
cos
cosa
cosas
cosi
costa
costilla
could
council
counsel
count
counting
country
countryball
county
coup
courage
court
cover
covid
coyame
coyatoc
coyoaca
coyote
coyotepec
coyotl
coyuca
cozumel
crackdown
cranganore
cratas
cre
creacio
creado
create
created
createicon
creating
creation
creative
crecimiento
cree
creek
creta
cri
criar
crif
criminal
criminolo
criminologi
crisianizmo
crisis
cristianismo
cristianizmo
cristianos
cristina
cristo
cro
crocus
croo
cross
crowned
crucero
cruces
crunia
cruz
cry
crypto
cs
csb
css
csstext
cter
ctor
cu
cuadro
cuahuitl
cuajimalpa
cual
cualloenelpicoenero
cualquier
cualquiera
cuando
cuaro
cuarto
cuatitla
cuatro
cuauhnahuac
cuauhte
cuaute
cuautinchan
cuautitla
cuautla
cuautlatoac
cuautlinchan
cuba
cuchumata
cuchumatanes
cudia
cudios
cuenca
cuenta
cuento
cuentos
cuerda
cuernavaca
cuerpo
cuervo
cuesta
cueva
cuevas
cuiaba
cuisine
cula
culiaca
culiacan
culo
culos
cultura
cultural
culturas
culture
cultures
cum
cumhuriyet
cun
cundinamarca
cup
cupula
cura
curac
curie
curiel
curitiba
current
currentday
currently
curriculum
cursos
cuscatla
cusco
custom
customise
customs
cut
cute
cuyo
cv
cy
cydios
cymbalista
cyprus
czech
d
da
dab
daba
dabrowski
dada
dadas
dado
dados
daegu
daejeon
dag
dahlia
daily
dainda
dakar
dakeyos
dakhil
dalai
dalal
dalet
dali
dalia
dalila
dallas
dam
dama
damask
dame
damesek
damia
dan
dana
dance
dances
dande
dando
dane
danez
danger
dani
daniel
daniela
danimarka
danios
danmark
danny
dans
dansa
dansas
dansk
dante
danyo
danyos
danza
danzas
dao
dar
darbuka
dardanelos
darie
darija
dario
dark
darkgrey
darkness
darle
daron
darwin
das
dasio
dasios
data
database
datado
datados
datan
dataparameter
datas
dataset
datasion
datatype
datavalue
date
datecode
dateformat
datelang
datenum
datenumi
dates
datestr
datestuff
datetime
datevec
dativo
dato
datos
daucus
daughter
dava
david
davidas
davidson
davis
day
dayan
dayanim
days
daysinmonth
daystring
daystrings
dc
dd
ddddff
ddiko
de
dead
deal
dealing
deals
death
debajo
debasho
debate
debe
deben
debi
debido
debil
debio
debora
debusho
debushos
debut
debuto
dec
decade
decades
december
dechide
dechidiera
dechidieron
dechidio
dechidir
dechizio
dechizion
deci
decimal
decimalprecision
decimaltodms
decir
decision
declarado
declaran
declaration
declension
deco
decreto
decyear
dedicada
dedicado
dedicated
dedika
dedikada
dedikado
dedikados
dedikara
dedikaron
dediko
dedo
dedos
deduksion
deduziendo
deep
deepcopy
default
defaults
defecto
defender
defenderse
defendida
defendidas
defendido
defendidos
defendiendo
defendio
defensa
defense
defensor
defensores
defiende
defiles
define
defined
definen
definida
definido
definidos
definieron
definio
definir
definisio
definision
definisiones
definisiyon
definition
definitiva
definitivamente
definitivo
deformasion
deg
degli
degollado
degree
degrees
dei
deia
deidad
deja
dejan
dejaron
dejarse
dek
dekada
dekadas
deke
deklara
deklarada
deklarado
deklarados
deklararon
deklarasion
deklarasiones
deklarasiyon
deklarasyon
deklaro
deklinasion
deklino
deklive
dekorasion
dekreto
dekretos
del
dela
delantre
delas
delaware
delegacio
delegacionales
delegada
delegado
delegados
delegasion
delegasionala
delegasionalos
delegasiones
delegasyon
deleon
delhi
delimitasion
della
delos
dels
delta
delvalle
dema
demanda
demandado
demandan
demandando
demandar
demandaron
demandas
demandava
demandavan
demando
demanyana
demas
demasiado
demazia
demetrio
demir
demkues
democra
democracia
democracy
democratic
demografi
demografia
demografika
demografiko
demografiya
demokra
demokrasia
demokrata
demokratika
demokratikas
demokratiko
demolished
demolition
demostrado
demostrando
dempue
dempues
demuestra
demuestran
den
denali
denantes
deni
denis
deniz
dennis
denomina
denominacio
denominada
denominado
denominados
denominan
denominaron
denominasion
denominasyones
densa
densamente
densidad
densita
dentes
dentro
denuncia
denver
deo
departamental
departamentala
departamentales
departamento
departamentos
departameto
departametos
departamiento
department
depedrieron
depende
dependen
dependencies
dependensia
dependensias
dependiendo
dependiente
depending
deporte
deportivo
deprecated
depresion
dept
depth
depues
deputada
deputados
der
derec
derech
derecha
derecho
derechos
derecto
derectos
deredor
dereh
deres
deriva
derivada
derivadas
derivado
derivados
derivan
derivar
derrokada
derroko
derrota
derrotado
derrotando
derrotar
dervis
des
desagu
desague
desambiguasion
desapareser
desaparesida
desaparesidos
desarrolla
desarrollo
desarroyaba
desarroyadas
desarroyado
desarroyar
desarroyo
desastre
desayuno
desc
descanso
descartes
descente
descolonizacio
desconocido
descripcion
description
descriptions
descubre
descubrimiento
desde
dese
deseado
desembarkaron
desembarko
desemboka
desembokadura
desempiego
desen
desendiente
desendientes
desenes
desenos
desenvolvimiento
desenyado
desenyadora
desenyadores
desenyar
desenyo
deseos
desert
desertika
desertikas
desertiko
desfachada
desfachando
desfacho
desfechando
desfecho
desgrasia
desha
deshadura
deshan
deshando
deshar
deshara
desharon
deshavan
deshkovridores
deshkubiertos
deshkubrimiento
desho
desidido
desidieron
desidio
desidir
desiembre
desierto
design
designa
designada
designado
designation
designer
designers
designs
desigualdades
desintegrasion
desinya
desinyada
desinyado
desinyados
desinyar
desinyo
desinyos
desir
desired
desisio
desision
desisyon
deskansar
deskanso
deskobrimiento
deskolonizasiyon
deskonosido
deskonsertado
deskonsertantes
deskripsion
deskripsiones
deskrita
deskrito
deskrive
deskriven
deskrivio
deskrivir
deskubrimiento
deskubrimientos
deskubrio
deskues
deskuvri
deskuvrida
deskuvrieron
deskuvrimiento
desmond
desnudo
desnudos
despacho
despartamento
desparte
despertar
despite
desplazar
despovladas
despovlado
despue
despues
despuez
desta
destaca
destaka
destakada
destakado
destakados
destakan
destakar
deste
destinada
destinado
destino
destinos
destruida
destruido
destruir
destruksion
destruksiyon
destruyeron
destruyida
destruyido
destruyidos
destruyir
destruyo
destryuida
desvelopa
desvelopada
desvelopadas
desvelopado
desvelopamiento
desvelopamyento
desvelopar
desveloparon
desvelopo
desye
desyertiko
desyerto
desyertos
det
details
detained
detalles
detalyo
detalyos
detected
deteksion
detektar
detener
detenerse
determinada
determinado
determinados
determinar
determinasion
detra
detras
detroit
deu
deudas
deuterokanonikos
deutsch
deutsche
deutschen
deux
devajo
devarim
deve
development
deven
devi
devido
devlet
devosiyo
devosiyon
dewan
dexa
deyos
dez
dezde
dezea
dezenas
dezeo
dezeya
dezeyavan
dezeyo
dezeyos
dezi
dezia
dezian
deziembre
dezierto
dezir
dezvelopa
dezvelopada
dezvelopadas
dezvelopado
dezvelopados
dezvelopamiento
dezvelopamye
dezvelopamyento
dezvelopando
dezvelopar
dezveloparon
dezvelopava
dezvelopmaye
dezvelopmento
dezvelopo
df
dformat
dgo
dhabi
dhaka
dhekelia
di
dia
diabetes
diablo
diachronic
diada
diagonal
diagram
diakri
dialect
dialecto
dialects
dialektala
dialekto
dialektos
dialog
dialoghi
dialogo
diamantes
diana
diaria
diarias
diario
diarios
dias
diaspora
diaz
dibujos
dica
dicaprio
dicc
diccionari
diccionario
diccionarios
dicha
dichas
diche
dicho
dichos
diciembre
dico
dicos
dictates
dictatorial
dictionary
dictionnaire
did
dida
didan
diderot
dido
die
diego
dientro
dieron
dies
diesel
diesiseis
dieta
dieu
diez
dieze
diezenas
diezimueve
dieziocho
diezisesh
diezisieten
diezisite
diferensia
diferensiadas
diferensiados
diferensial
diferensiales
diferensias
diferente
diferentes
diferentescursive
diff
different
difi
difikultades
difisil
difusion
difuzion
digit
digital
digits
dignida
dignidad
dignita
dignitat
dignitate
dignite
digo
digrafos
dijital
dijitales
dijitalizasion
dijo
dika
dikas
diko
diksionario
diksionarios
diktador
diktadores
diktadura
diktaduras
diktan
diktatura
dil
dili
dilma
dimension
dimensiones
diminutivo
dimitri
dimnastika
din
dina
dinamarka
dinasti
dinastia
dinastiya
dinero
dingo
dingu
dingun
dinguna
dinguno
dinliyorum
dinu
dinyidad
dio
dion
dionisio
dios
diosa
dioses
diosesis
diploma
diplomatika
diplomatikas
diplomatiko
diputada
diputado
diputados
diputasion
direccio
directa
directly
director
directory
direksio
direksion
direksiyon
direkta
direktamente
direktas
direktiva
direkto
direktor
direktora
direktores
direktrisa
direktrisas
direto
diretos
diri
diridjente
dirijado
dirijar
dirijen
dirijente
dirijida
dirijido
dirijidos
dirijio
dirijir
dirijo
dirita
dirito
diritos
diritti
disabled
disables
disaster
dische
disciplinas
disco
discography
discuss
discussion
discussions
dise
disen
disenyada
disenyado
disenyo
disenyos
disfrutan
disfrutar
dishas
disheron
dishkovrimento
dishkovrimye
dishkovrimyentos
dishkovrio
disho
disiembre
disiplina
disiplinas
disko
diskografiya
diskorso
diskorsos
diskos
diskovrir
diskreta
diskriminasion
diskriminasyon
diskue
diskues
diskurren
diskurso
diskusion
diskusyon
diskuten
diskutido
disney
disp
dispersion
display
displayed
displaying
displays
disponible
disponibles
disposision
disque
dissiplina
dissiplinas
dista
distancia
distansia
distansya
distantes
distingen
distingir
distingirla
distingirse
distinta
distintas
distinto
distintos
distri
distribucio
distribusio
distribusion
distribusiyon
distributed
distribuyida
distribuyido
distribuyir
district
distrikto
distrito
distritos
distrofia
distrofias
dit
dita
ditcho
ditions
dito
div
divaca
diversa
diversas
diversidad
diversion
diversita
diversity
diverso
diversos
divide
dividen
dividida
dividido
divididos
dividiendo
dividieron
dividir
divina
divinidad
divinidades
divino
divisa
divisado
divisio
division
divisiones
divisiyo
divisiyon
divisyon
divorsaron
divorsiada
divrei
diwan
diwopu
diya
diyalektos
diyarbakir
diyas
diz
dize
dizen
dizengoff
dizese
dizi
dizia
diziembre
diziembro
diziemvre
diziendo
dizientes
dizimueve
dizioche
diziocho
dizir
dizisesh
dizisiete
dizos
dizyo
dj
djabotinsky
djainizmo
djakarta
djamahiriya
djamaika
djapon
djava
dje
djehova
djendro
djene
djenera
djeneral
djenerala
djeneralmente
djeneralo
djenerar
djenerasion
djenerasiones
djenero
djeneros
djenes
djenetika
djenetikas
djenetista
djenitivo
djenitores
djenosidio
djenosidios
djenova
djente
djentes
djentilisio
djep
djerba
djerbi
djerevan
djermanika
djermanikas
djibraltar
djibuti
djidda
djidi
djidia
djidio
djidios
djihad
djimnasta
djimnastika
djimnastisto
djirona
djoga
djogado
djogados
djogan
djogo
djogos
djoha
djohannesburgo
djordan
djordania
djordano
djornal
djornales
djornalista
djoven
djovenes
djovenil
djovenos
djovens
djoyas
djoyeros
dju
djudaismo
djudaizante
djudaizantes
djudaizmo
djudea
djudeo
djudeoespanyol
djudeoespanyola
djudeos
djuderi
djuderia
djuderias
djudezmo
djudi
djudia
djudias
djudio
djudios
djudioz
djudiyas
djudo
djudyo
djudyos
djuega
djuegados
djuegan
djuegar
djuego
djuegos
djueves
djugado
djugador
djugadora
djugadoras
djugadores
djugando
djugar
djugeton
djugoslava
djugoslavia
djuhuri
djuliano
djulio
djulyo
djunio
djunta
djunto
djuntos
djunyo
djurnal
djurnales
djurnalismo
djurnalista
djurnalistas
djurnalisto
djurnalistos
djustisia
djusto
djustos
djutisia
djuzgado
djuzgo
djuzgos
dlen
dmy
dmytro
do
doblado
doble
dobles
dobosiewicz
dobrudja
dobrus
doc
docs
doctor
doctrine
document
documentacio
documentary
documentation
documento
documentos
documents
dodin
dodje
does
doesn
doesnt
dog
doha
doi
doktor
doktorado
doktorat
doktores
doktrina
doktrinas
dokumentacija
dokumental
dokumentalo
dokumentalos
dokumentar
dokumentario
dokumentasion
dokumentasiyon
dokumentasyon
dokumentation
dokumento
dokumentos
dolar
dolares
dolensias
dolgopyat
dollar
dolmabahcemaingate
dolor
dolores
dolot
dolse
dolyo
dom
dome
domestica
domestikado
domestiko
domestikos
domi
domina
dominada
dominado
dominante
dominantes
dominar
dominasio
dominasion
domingo
dominika
dominikana
dominikos
dominio
dominios
dominique
domo
don
dona
donai
donald
donasiones
donato
donay
donde
done
donepairs
dong
dongdaemun
donnell
dono
donos
donpues
dor
dorado
doris
doron
dorozhon
dos
dose
dosen
dosena
doseno
dosenos
dosmil
dospue
dospues
dospuez
dossia
dosta
dosya
dota
dotados
dotar
dotate
dotats
double
doubles
douglas
dov
dover
dovid
dovlado
down
downs
doz
doze
dozena
dozientas
dozientos
dprec
dr
dra
drae
dragon
drake
drama
dramas
dran
drar
dras
dravidikas
dre
dream
dreamliner
dreams
dren
dres
dresden
dress
dressed
dret
drets
dreyfus
drivados
driver
driving
dro
drogas
droits
drori
dros
drowns
druga
drusa
drusos
druzos
dsb
dsep
dtstart
dtype
du
dualidad
duarte
dubai
dubio
dublin
dubrovnik
duc
duda
dudas
dudu
due
duell
duelo
duenya
duenyo
duenyos
duero
dueto
duitama
dujardin
duk
dukado
duke
dula
dulce
dulgheru
dulo
dulse
dulses
dumb
dumont
dunas
dunhuang
dunke
dunne
duolingo
dupla
duplex
duplicated
dura
durado
duramente
durane
durango
durante
duranty
durar
duraron
duras
durban
during
durmir
duro
duros
dushanbe
dushinsky
dutch
dv
dvarim
dvd
dyas
dyeron
dyeta
dyezen
dyioses
dyo
dyos
dyoses
dyp
dz
e
ea
each
eachfform
early
earns
earth
ease
easier
easily
east
eastbourne
eastern
eat
eb
ebrea
ebreas
ebrei
ebreo
ebreos
ebro
ec
ecatepec
ecatzingo
echa
echada
echados
echar
echaron
echas
echeverri
echo
echos
eclesiastica
eco
ecologi
ecologista
econo
economi
economic
economics
economist
economy
ecosocc
ecuador
ecwine
ed
eda
edad
edah
edas
eddie
eden
edgar
edicio
ediciones
edificio
edifikasion
edifisio
edifisios
edig
edikto
edimburgo
edirne
edisio
edision
edisiones
edisiyo
edisiyon
edisiyones
edisyon
edit
editada
editado
editava
edited
edition
editions
edito
editonwikidata
editor
editora
editore
editores
editorial
editoriala
editors
editoryal
edits
edizioni
edizyo
edmond
edmonton
edmund
edo
edomex
eds
edu
eduard
eduardo
educac
educacio
education
educational
edukado
edukar
edukasio
edukasion
edukasiyon
edukasyon
edukativa
edukativas
edukativo
edukativos
edvard
edward
edzna
ee
eeuu
efac
efektividad
efektivo
efekto
efektos
efektuar
efendi
efes
efi
efrai
eg
egemplo
egipto
eglesia
eglesias
eglezya
eglisia
eglisias
eglisiyas
egsisten
egun
egypt
egzakta
egzamen
egzempio
egzempios
egzemplares
egzemplo
egzemplos
egzepto
egzersisio
egzersisios
egziliados
egzilio
egzisitio
egzista
egziste
egzisten
egzistensia
egzistensya
egzistente
egzistentes
egzisti
egzistia
egzistian
egzistido
egzistiera
egzistieron
egzistio
egzistir
egzito
egzitos
egzitoso
egzpedisio
eha
ehal
ehess
ehir
ehp
ehud
eighth
eihal
eiland
eilat
eilon
ein
einaudi
eine
eines
einfu
einstein
eintracht
eisenberg
eisenstadt
eisner
eitan
either
ej
eje
ejea
ejekutar
ejekutivo
ejemplo
ejemplos
ejeo
ejerser
ejersido
ejersito
ejido
ejidos
ejipsia
ejipsio
ejipsios
ejipto
ek
ekilibrio
ekilibro
ekinos
ekip
ekipo
ekipos
ekips
ekivalensia
ekivalente
ekivalentes
eknikos
eknografia
eko
ekolo
ekolojika
ekolojiya
ekonimia
ekonmia
ekono
ekonomi
ekonomia
ekonomika
ekonomikamente
ekonomikas
ekonomiko
ekonomikos
ekonomista
ekonomistas
ekonomisto
ekonomistos
ekonomiya
ekonomiyas
ekosistem
ekosistemas
ekpulsados
eks
eksagonalas
ekselente
eksemplo
eksenta
eksepsion
eksepsiyon
eksepto
eksiliados
eksilio
eksilo
eksiste
eksisten
eksistensia
eksisti
eksito
ekskavasiones
eksklave
eksklusivamente
ekspansio
ekspansion
ekspansiyon
ekspedisio
ekspedision
ekspedisiones
ekspedito
eksperiensa
eksperiensas
eksperiensia
eksperimental
eksperimentales
eksperimentalistas
eksperimento
eksperimentos
eksplanada
eksplika
eksplikado
eksplikan
eksplikar
eksplikasio
eksplikasion
eksplikasiones
eksplikasiyon
eksplikava
eksplorador
eksploradores
eksplorados
eksplorando
eksplorar
eksploraron
eksploro
eksplosion
eksplosivos
eksplotadora
eksplotar
eksplotasio
eksportador
eksportasiones
eksposizion
ekspozision
ekspresa
ekspresar
ekspresio
ekspresion
ekspresiones
ekspresiyon
ekspreso
ekspulsados
ekspulsion
ekspulsiones
ekstende
ekstender
ekstendi
ekstendida
ekstendido
ekstendiendo
ekstendio
ekstensa
ekstensio
ekstension
ekstensiyo
ekstensiyon
ekstensyon
eksterior
eksteriores
eksterminio
eksterna
eksternamente
eksternas
eksterno
eksternos
ekstiende
ekstra
ekstrajeros
ekstranieros
ekstranjera
ekstranjeras
ekstranjero
ekstranjeros
ekstraodinario
ekstrema
ekstremistas
ekstremo
ekstremos
ektareas
ekternos
ekuador
ekuasion
ekuasiones
ekuatoriala
ekue
ekvador
ekvatoriala
el
ela
elaborada
elaborado
elad
elavorasion
elazar
elbasan
elbaz
eldad
ele
electa
elected
election
elections
electo
electronic
elegante
elejida
elejido
elejidos
elejito
eleksion
eleksiones
eleksiyon
eleksiyones
elekta
elektas
elekto
elektoral
elektrika
elektrikas
elektriko
elektrikos
elektrisidad
elektrisita
elektro
elektrodinamika
elektrodynamik
elektromagnetika
elektromagnetikas
elektromagnetismo
elektronika
elektroniko
elektronikos
element
elemento
elementos
elements
elena
elephant
eleva
elevada
elevadas
elevado
elevados
elevasion
elevo
elevos
elhebshi
eli
elia
elian
elias
eliezer
elijah
elije
elijen
elijio
elijir
elik
eliminado
eliminados
eliminar
elimino
elina
elio
elisa
elise
elite
elixir
eliyahou
eliyahu
elizabeth
elizaveta
elkabetz
ella
ellas
elle
ellen
eller
ellissen
ello
ellos
elo
els
elsa
else
elseif
eltahawy
elyashar
em
emad
emanado
emanu
emanuel
embajada
embajadas
embargo
embarko
embasho
embassy
embeza
embezo
embezos
embiyados
embiyar
embiyo
emblem
emblema
embraer
emergence
emerjensia
emerjente
emet
emigrado
emigrantes
emigrar
emigraron
emigrasion
emigrasiyon
emigrasyon
emigro
emilia
emiliano
emilya
emirati
emirato
emiratos
emisfe
emisferio
emisio
emisora
emisoras
emisyon
emite
emiten
emmanuel
emmanuelle
emoherakua
empakes
empakto
empate
empedidas
empedimientos
empedio
empedradas
emperador
emperadores
emperator
emperatrisa
emperia
emperio
emperios
empesa
empesar
empesaron
empesija
empesijar
empesijo
empesijos
empeso
empezo
empiegada
empiegado
empiegados
empiegar
empiego
empiegos
empiesa
empiesado
empiesan
empiesando
empiesar
empiesaron
empiese
empieses
empieso
empieza
empire
emplazada
emplazamiento
emplea
emplean
emporta
emportansia
emportante
emportantes
emportar
emportate
empostante
emprender
empresa
empresariales
empresario
empresas
empresionante
emprestado
emprestados
emprestar
emprestimo
emprestimos
empresto
emprimero
emprizionada
empty
empuesto
empuestos
emtsai
en
enable
enabled
enabling
enamoro
enbasho
encantada
encargado
encarnacio
encarta
enchikeser
enchikesido
enciclope
enciclopedia
enciclopedias
encierra
encino
enclose
encomienda
encomiendas
encontrado
encuentra
encuentran
encuesta
encyclopaedia
encyclopedia
encyclopædia
end
endagora
ende
endeluego
endema
endemas
endemaz
endenantes
endependensia
endependiente
endependye
enderechar
enderecharse
endia
endiamantada
endiamantado
ending
endiya
endjuntamente
endjuntas
endjunto
endjuntos
endustria
endustrial
endustriala
endustrias
endya
eneas
enel
enelanyo
enemigo
enemigos
ener
energ
energi
energia
energy
enerjia
enerjieinhalt
enerjiya
enerjiyas
enero
enfance
enfasis
enfermedades
enfin
enfloresio
enfluensa
enfluensia
enfluensiada
enfluensiado
enfluensias
enfluensya
enfluyentes
enfoke
enformasiyo
enformasiyon
enfrentamientos
enfrentan
enfrentarse
enfrente
enfriar
enganyo
engels
engineering
england
engles
english
engloba
engodrado
engrandesido
engrandesio
engrandida
enimigos
enjeniera
enjenieriya
enjeniero
enjenyeriya
enjenyero
enjenyeros
enjuntamente
enjuntar
enjunto
enkanto
enkargada
enkargado
enkargo
enkarnasiyon
enkarselada
enklave
enklaves
enkomendansa
enkomendero
enkomienda
enkomiendas
enkontra
enkontraba
enkontraban
enkontrado
enkontramos
enkontran
enkontrar
enkontraron
enkontro
enkontros
enkorajar
enkorajo
enkuentra
enkuentran
enla
enlace
enlaceautor
enlaceeditor
enlaces
enlas
enlasar
enlase
enlases
enlaso
enlasos
enlazar
enlos
enm
enmientres
enmity
enorme
enormes
enplatada
enregistros
enrejistrada
enrejistradas
enrejistrado
enrejistrados
enrejistramiento
enrejistrando
enrejistrar
enrejistro
enrejistros
enric
enrico
enriko
enrique
enriquez
enriva
ens
ensalada
ensayo
ensayos
ensemble
ensembrar
ensen
ensenada
ensender
ensenya
ensenyan
ensenyansa
ensenyansas
ensenyanza
ensenyar
ensenyo
enshemplo
enshemplos
ensiende
ensima
ensina
ensinansas
ensinas
ensino
ensinos
ensinyada
ensinyansas
ensinyar
ensinyo
ensour
enstrumentos
ensure
ent
ente
entelijensia
entender
entendido
entendieron
entendimye
entera
enteramente
enteras
entere
enteres
enteresante
entereso
enteresos
enternasyonal
entero
enteros
enterprise
enterrada
enterrado
enterramiento
enterrement
entertainment
entidad
entidades
entiende
entierrado
entierrados
entire
entita
entity
entityid
ento
entomologi
entonces
entonses
entornada
entornado
entorno
entornos
entourage
entra
entrada
entradas
entran
entrance
entrar
entraron
entre
entrega
entregada
entregado
entregados
entregar
entregaron
entregas
entrego
entrenamiento
entreprisa
entreprisas
entretenimye
entretenimyento
entrevista
entrevistas
entrevistava
entro
entry
entyerrado
enu
enverano
enveranos
enverso
envez
envezes
enviado
enviados
enviar
enviaron
envierno
envio
envitados
envuelta
enza
eo
ephraim
epi
epic
epiro
episodio
epoka
epokas
epstein
equal
equipo
equipos
equipped
equivalent
equus
er
era
eraklios
eran
eratype
erdog
eredado
eredera
eredero
eredo
erejiya
erensia
eres
eretz
erfurt
ergida
eric
erik
erika
eris
eritrea
ermana
ermanada
ermanadas
ermanamiento
ermanamientos
ermanas
ermandad
ermanientos
ermanika
ermano
ermanos
ermeni
ermenis
ermita
ermoza
ermozas
ermozo
ermozos
ermozura
erna
ernakulam
ernest
ero
erodes
eroe
eroes
eroika
erol
eropeos
erramentas
erramientas
error
errores
errors
ersheva
erta
ertzel
erudito
eruv
erzincan
es
esa
esas
esata
esauira
esav
esbozo
esca
escalation
escape
escaped
escapepattern
escobedo
escribir
escrita
escrito
escritores
escritos
escrivir
escudero
escudo
escuela
escuinapa
escuintla
ese
esefarad
esena
esenario
esenas
esensia
esensial
esensiales
esensialmente
esfera
esforso
esforsos
esfuegra
esfuenyo
esfuerzo
esglesia
esgueva
esh
eshemplo
eshfuenyo
eshkenaz
eshkenazi
eshkenazis
eshkenaziz
eshkol
eshkrita
eshkrito
esho
eshos
eshraghi
eshue
eshuegra
eshuerso
eshuersos
esis
eskakes
eskala
eskaleras
eskandinava
eskapa
eskapada
eskapado
eskapando
eskapar
eskaparon
eskapava
eskapo
eskaramuzas
eskarinyo
eskarva
eskasos
eskayer
eskeles
eskenazi
eskerensya
eski
eskimal
eskina
eskis
esklavitud
esklavos
eskluir
eskojer
eskojeron
eskojida
eskojido
eskojidos
eskojio
eskojo
eskola
eskolas
eskonde
eskonderse
eskondida
eskondido
eskondiendo
eskondio
eskopo
eskoseza
eskosia
eskosya
eskribe
eskribio
eskrim
eskrima
eskrimista
eskrita
eskritas
eskrito
eskritor
eskritora
eskritoras
eskritores
eskritos
eskritura
eskrituras
eskriturias
eskriturya
eskrituryas
eskrivano
eskrivanos
eskrive
eskriven
eskrivi
eskrivia
eskrivian
eskriviendo
eskrivieron
eskrivio
eskrivir
eskrivyo
eskucha
eskuchar
eskucharon
eskuchava
eskucho
eskudo
eskuela
eskuelas
eskultor
eskultores
eskultura
eskulturas
eskura
eskurren
esla
eslava
eslavas
eslavo
eslavos
eslovaka
eslovakia
eslovakiya
eslovako
eslovenia
esmirna
esnoga
esnogas
eso
esos
esp
espacio
espacios
espada
espagnol
espalda
espan
espande
espandida
espandidas
espandido
espanto
espanya
espanyol
espanyola
espanyolas
espanyoles
esparta
espartidas
espartido
espartidos
espartir
espasa
espasial
espasiala
espasiales
espasio
espasios
especi
especial
especialmente
especie
especies
especifica
especificar
espektadores
espektakulo
espektro
espera
esperada
esperado
esperados
esperando
esperansa
esperanto
esperanza
espesia
espesial
espesiala
espesialas
espesiales
espesialidad
espesialidades
espesialisada
espesialisado
espesialista
espesialistos
espesialmente
espesialos
espesias
espesie
espesies
espesifika
espesifikamente
espesifikas
espesifiko
espesyal
espesyalmente
espi
espia
espigas
espinosa
espinoza
espiral
espiritu
espiritual
espiritualo
espiritualos
espital
esplendor
espn
espontaneo
espor
espors
esporte
esportes
esportista
esportistas
esportistos
esportiva
esportivas
esportivo
esportivos
esposa
espoza
espozada
espozados
espozamiento
espozamyento
espozaron
espozarse
espozo
espozos
esquipulas
esre
essaouira
essays
essen
essential
esser
essera
esseres
essex
est
esta
estaba
estaban
estable
establecieron
establese
establesen
estableser
estableserse
establesida
establesido
establesidos
establesiendo
establesieron
establesimiento
establesimye
establesio
establishment
estacio
estadi
estadio
estadistika
estadistikas
estado
estados
estadounidense
estadounidenses
estadual
estambol
estambul
estamos
estan
estanbol
estandar
estandares
estando
estanyo
estar
estas
estasio
estasion
estasionario
estasiones
estasyon
estat
estata
estatal
estatala
estatales
estate
estatistikas
estato
estatos
estatounitense
estatounitenses
estatounitensos
estatua
estatuas
estatus
estatuto
estatutos
estava
estavan
este
esteban
estela
estelar
esteli
esten
ester
estero
estes
esther
esti
estil
estilo
estilos
estima
estimada
estiman
estimula
estimular
estis
esto
estokolma
estokolmo
estonia
estonianos
estonio
estonses
estoria
estoryas
estos
estoy
estrada
estradas
estranieros
estrasburgo
estrate
estratejia
estratejika
estratejikas
estratejiko
estratejikos
estre
estrechamente
estrecho
estrechos
estrella
estremadura
estremenyo
estremerse
estresho
estreya
estreyas
estrikta
estructura
estruktura
estrukturas
estu
estuario
estuarios
estudia
estudiada
estudiadas
estudiado
estudiados
estudian
estudiando
estudiantes
estudiar
estudio
estudios
estudiosos
estudiozos
estudis
estudos
estudyantes
estudyo
estus
estuvieron
estuvo
estuvyera
estuvyeron
esvachearse
esvacheo
et
eta
etajes
etanol
etapa
etapas
etas
etc
etce
ete
eteo
eterna
eterno
etgar
eth
ethiopia
ethiopian
ethnologue
eti
etienne
etika
etikas
etimilojia
etimolo
etimologi
etimoloji
etimolojia
etimolojias
etimolojikamente
etimolojiya
etiope
etiopia
etiopiko
etiquetas
etk
etnia
etnias
etnika
etnikamente
etnikas
etniko
etnikos
etnografia
etnografiya
etr
etrangera
etranjero
etranjeros
etre
etrtina
etruska
ets
ettakatol
etter
etti
etvrtina
etz
etzion
eu
eua
eufor
eugenia
eugenio
eur
eurasia
euro
eurocuerpo
eurodressage
europa
europe
europea
european
europeans
europeas
europeo
europeos
euros
eurostar
eurovision
euskadi
euskal
euskera
eustatius
ev
eva
evanje
evanjelika
evanjelikas
evanjelikos
evanjelios
evanjelyo
even
evenemento
evenementos
evenodd
evenstyle
event
evento
eventos
events
eventualmente
ever
evergreen
evers
every
everyday
everyone
everything
evidence
evidensia
evidensias
evidente
evidentes
evitar
evolusio
evolusion
evolusionando
evolusyo
evolusyon
evolutiva
evolutivo
evrafrasia
evrasia
evrasya
evropa
evropea
evropeas
evropeo
evropeos
evros
evrovision
evrovisyon
evrovizion
evrovizyo
ex
exact
exacta
exactly
examiner
example
examples
exceeds
excellence
except
exceptional
exceptions
excludes
exclusifs
exclusive
excursionista
exekutivo
exemption
exercise
exhibition
exist
existe
existen
existence
existensia
existente
existi
existing
exists
exodus
expanded
expectations
expedito
expensive
experience
explain
explanation
explorer
explotadora
expo
export
exportasion
exposicio
expresa
expresion
expresiones
express
expression
expulsados
expulsar
expulsion
ext
extended
extensas
exterior
exteriores
external
externos
extra
extract
extranjero
extraordinary
extraparameters
extremo
eya
eyal
eyas
eye
eyes
eyo
eyos
eyoz
eytan
eyzaguirre
ez
ezban
ezekiel
ezer
ezgiste
ezmirna
ezor
ezra
ezrat
ezta
f
fa
fabela
fabra
fabrika
fabrikados
fabrikante
fabrikantes
fabrikar
fabrikas
fabrikasion
fabriko
face
facebook
faces
facha
fachada
fact
factbook
facto
factor
facts
faena
fahd
failing
fair
faith
fajos
faksiones
faktivel
fakto
faktor
faktores
faktoria
faktorias
faktoriya
faktos
fakulta
fakultad
fala
falco
falconi
falezler
fall
fallback
fallecio
falls
false
falta
fama
fame
fami
familia
familiar
familias
family
familya
famine
famiya
famiyar
famiyas
famosa
famosas
famoso
famosos
famous
famoza
famozas
famozo
famozos
fan
fanatismo
fanny
fantasy
far
fargs
farhud
farmasiya
faro
farsi
fase
fasenda
fases
fashion
fasil
fasilmente
faso
fatah
father
fatih
fatima
fatimata
fatma
fauna
favla
favlada
favlado
favlan
favlantes
favlar
favna
favor
favorable
favoresyo
favorita
favorite
fayard
faze
fazer
fbi
fbtbl
fc
fdate
fdfdfd
fe
feathertop
feature
features
feb
febrero
february
fecha
fechaacceso
fechaarchivo
fechos
fed
federacio
federado
federados
federal
federala
federalas
federalo
federasio
federasion
federasiyon
federasyon
federation
federativa
federiko
feel
fei
feira
feker
felat
feliciano
felipe
felix
feliz
female
femenina
femeninas
femenino
femina
feminine
feminineforms
feminista
feministas
femme
femmes
fencing
fener
fenisia
fenisianos
fenisias
fenisio
fenisios
fenisyanos
feno
fenomeno
fenomenolojika
fenomenos
fer
ferdinand
ferenc
feria
ferias
ferida
feridas
feridos
fermentasion
fermentasiyon
fermi
fermio
ferna
fernandez
fernando
fero
feroe
feros
ferozas
ferrara
ferreas
ferro
ferrokarril
ferroviaria
ferroviarias
ferroviario
fertil
fertiles
fertilidad
fes
fesha
fesho
fest
festejar
festival
festivales
festividad
festividades
fetch
fetched
fetches
fetching
fetchwikidata
fevrero
few
fey
feynman
fez
fezzan
ff
fi
fiat
fic
fica
ficas
fico
ficos
ficus
fidel
fideles
fidji
field
fieldname
fields
fieles
fierce
fierro
fiesta
fiestado
fiestar
fiestas
fifth
fight
fights
figura
figuras
figure
fijo
fika
fikamente
fikas
fiko
fikos
fiksa
fiksion
fiksiyon
fila
filadelfia
filanovsky
filarmonika
file
filec
files
filipinas
filipino
filis
fill
film
filmfestival
filmika
filmo
filmografiya
filmos
films
filo
filologo
filologos
filolojika
filolojiya
filoso
filosofia
filosofika
filosofiya
filosofiyas
filosofo
filosofos
filozofia
filozofo
filozofos
fils
fin
fina
finada
finado
finados
final
finala
finalagiorgi
finalas
finales
finalist
finalista
finalizo
finally
finalmente
finals
financial
finansas
finansia
finansiado
finansiar
finansiaron
finansiera
finansieras
finansiero
finansieros
finanzas
finas
find
findlang
finds
fine
fines
fini
finita
finkas
finlandesa
finlandia
fino
finos
fiorella
fiques
firat
fire
firefox
firenze
firma
firmado
firmar
firmas
firmava
firme
firmo
first
firstdayrow
firstofmonth
firstweekday
firth
fischer
fish
fisica
fisika
fisikas
fisiko
fisikos
fisiogra
fisiolojiya
fiska
fiskal
fiskalas
fista
fits
fitzjerald
fiu
five
fix
fiyeles
fizo
fj
fl
flag
flags
flamenko
flandes
flash
flecha
flechas
flekos
fleurs
flickr
flights
flo
float
floating
floor
flor
flora
floransa
florence
florensia
florentino
flores
floresion
floresta
florida
floridanus
flory
flota
flotando
flower
fluido
fluidos
flujo
fluret
flurete
fluvial
flying
fm
fmi
fn
fo
focus
foi
foix
folk
folklor
folklore
folklorika
folklorikas
folktales
follow
followed
following
follows
folman
fon
fonatur
fonda
fondada
fondadas
fondado
fondador
fondadora
fondadoras
fondadores
fondados
fondamental
fondamentales
fondamentalmente
fondando
fondar
fondaron
fondasio
fondasion
fondasiyon
fondasyon
fondata
fondo
fondos
fondose
fone
fonema
fonemas
fonetika
fonetikas
fonetiko
fonksion
fonksiona
fonksionamyento
fonksionan
fonksionando
fonksionar
fonksione
fonksiones
fonksiono
fono
fonseca
font
fontes
fonts
fontsize
fontstyle
food
for
forbes
force
forces
ford
foreign
forest
forever
fork
form
forma
formada
formado
formal
formala
formales
formalizar
formalmente
forman
formando
formar
formaron
formas
formasio
formasion
formasiones
format
formatdate
formating
formatinlanguage
formatmessage
formatnum
formato
formatpropertyvalues
formats
formatstr
formatted
formatting
formava
formentera
former
formo
formosa
forms
formula
formulasion
forno
fornos
foro
foros
forsados
fortalesa
fortaleza
forte
forth
fortino
fortis
fortuna
forum
forward
forzada
forzado
forzas
fosil
fostan
foto
fotoelektriko
fotogra
fotografi
fotografiko
fotografiya
fotografiyas
fotogrametriya
fotolog
fotolyo
fotolyos
foton
fotones
fotos
fouad
found
foundation
four
fourth
fox
foyer
fr
fra
fragua
fraguada
fraguadas
fraguado
fraguados
fraguamiento
fraguamye
fraguamyento
fraguan
fraguando
fraguar
fraguaran
fraguaron
fraguas
fraguo
frailes
frajil
frakasaron
frakaso
frame
frameless
franc
franca
france
francesa
francesc
francesco
francez
francia
francis
francisca
franciscano
francisco
franck
franco
franja
frank
franka
frankel
frankfurt
franklin
franko
frankos
franquesa
franse
franses
fransesa
franseses
fransez
franseza
fransezas
fransezes
fransezos
fransia
fransionarios
fransisco
fransiskano
fransisko
fransya
franz
franzes
franzesa
franzeses
franzesos
franzisko
frasa
frasas
frase
fraternalmente
fraternidad
fraternita
fraternitate
fray
fraza
fre
freakout
free
freedman
freedom
freguesi
freie
frejol
frekuensa
frekuensia
frekuente
frekuentemente
frekuentes
french
frente
fresco
freska
freskas
fresko
freskos
freud
freund
fri
frias
friburgo
frica
fricsay
frida
friday
fried
friedhelm
friedman
friedrich
friend
friends
frika
frio
frios
fritz
friya
friyo
frofstate
froid
from
frontera
fronteras
fronteriza
frontiera
frontieras
fronton
frum
fruta
frutas
fruto
frutos
fu
fuad
fue
fuego
fuegos
fuente
fuentes
fuera
fueran
fueron
fueros
fuersa
fuersas
fuerte
fuertes
fuerza
fuerzas
fuese
fuesse
fui
fukuoka
fuld
full
fulltext
fully
fumar
fumo
fun
funcionamiento
funcionar
function
functionality
functions
fund
funda
fundacio
fundada
fundadas
fundado
fundador
fundadores
fundamental
fundamentales
fundamento
fundamentos
fundar
fundaron
fundasio
fundasion
fundidora
fundidoras
fundo
funeraria
funerarios
funk
funny
funsio
funsion
funsiona
funsional
funsionamiento
funsiones
fur
furtado
further
fusion
futbol
futuna
futura
futuras
future
futuro
fuye
fuyendo
fuyeron
fuyir
fuyo
fuzion
fy
fye
fyeles
fyerro
fyesta
fyestas
fyesto
før
første
g
ga
gabay
gabbai
gabby
gabinete
gabirol
gabon
gabriel
gabriela
gad
gada
gaddafi
gadol
gal
galaksias
galana
galanas
galano
galanos
galardon
galardones
galat
galata
gale
galeana
galegas
galego
galei
galeri
galeria
galerias
galeriya
galeriyas
galerya
gales
galesa
galez
galgalatz
gali
galia
galicia
galil
galilea
galilei
galileo
galit
galitzia
galizia
gallegos
gallery
gallic
gallimard
gallopavo
galut
gama
gambas
gambia
game
gameo
gameos
games
gamus
gan
gana
ganadas
ganaderas
ganaderia
ganado
ganador
ganadora
ganadoras
ganadores
ganando
ganansias
ganar
ganava
gandhi
ganeden
gangemi
ganim
ganja
gano
ganyador
ganyan
ganyo
gao
gaon
gara
garantisa
garantisar
garas
garay
garci
garcia
garden
garganta
garie
garin
garip
garrapata
garry
garza
garzo
gas
gaspar
gaspe
gassra
gasto
gaston
gastronomia
gastronomiya
gate
gates
gato
gatos
gaudi
gauff
gauguin
gaulle
gave
gavrilo
gavronsky
gawc
gay
gayega
gayego
gayegos
gayle
gaz
gaza
gazes
gazeta
gazetas
gazetesi
gazette
gazi
gb
gcc
gd
gdan
ge
geande
gedalia
geertz
gefilte
gehry
gemara
gen
gena
genas
genc
gendarmeri
gender
gene
genera
general
generala
generales
generalitat
generalized
generally
generate
generated
generation
genes
genio
genitive
geniza
genocide
genova
genre
gente
geogra
geografi
geographic
geographical
geography
geomorfolojiya
georg
george
georges
georgetown
georgia
georis
ger
gera
gerais
gerald
gerardo
gerbi
gerhard
german
gerra
gerras
gerreadora
gerreando
gerrear
gerreo
gerreros
gerreya
gerreyar
gerreyaron
gerreyo
gerry
gershom
gershon
geschichte
gesher
get
getallstatements
getargs
getat
getbeststatements
getboolean
getcontentlanguage
getcoords
getcurrentframe
getdata
getdatevalue
getentity
getentityidforcurrentpage
getentityobject
getfallbacksfor
getimagelink
getlabel
getletters
getlink
getmetatable
getnamespaceparameters
geto
getos
getparameters
getparent
getpreferredvalue
getproperty
getpropertyqualifier
getqualifiervalue
getrawvalue
gets
getsnakvalue
getsourcedvalue
getting
gettitle
getvalue
getvaluebylang
getvaluebyqual
getvalueofclaim
geula
geyna
gezer
gezera
ggori
gh
ghad
ghaddafi
ghana
ghanim
gharnati
ghasara
ghashang
ghasra
ghazi
gheit
ghetto
ghil
ghoul
ghrenassia
ghriba
ghul
gi
gia
giada
giadas
giador
gianluca
giar
gibi
gibraltar
gica
gicas
gico
gicos
gideon
gidi
gif
gigante
gigen
gil
gilbert
gilberto
gilda
giles
gill
gilles
gimbutas
gimel
gimnasia
gina
ginas
ginea
ginnam
gio
gion
giorgi
giorgio
giovanni
gira
girl
girls
girush
gispert
gitai
gitara
gitarra
giudecca
giudeo
giulio
giuseppe
giv
givat
give
given
gives
giza
gizado
gje
gl
glacier
glasgow
glasial
gli
glifo
glifos
global
globala
globalas
globalizasiyon
globalization
globalsecurity
globe
globo
gloria
glory
gmt
gn
gnostisizmo
gnu
go
goa
gob
gobernador
gobernantes
gobierno
goces
gocta
god
godal
godard
godorniz
godro
goecke
goel
goes
goffin
goharzadeh
goia
gol
gola
golan
gold
golda
goldberg
golden
goldstein
goldwater
golem
golfo
golor
golpaygani
golpe
gomera
gomez
gondar
gone
gonza
gonzalez
gonzalo
good
google
gordas
gorditas
gordon
goren
gorge
gos
got
gota
gotas
gotemburgo
gotiko
gottfried
gourmet
gov
governa
governada
governado
governador
governadora
governadores
governados
governance
governante
governantes
governava
government
governo
governos
goviernantes
govierno
goviernos
govyerno
goya
goyim
goza
gozan
gpo
gr
gra
grace
gracia
gracias
grado
grados
graduado
gradualmente
graduarse
graduate
graduo
grafi
grafia
grafias
grafika
grafiko
grafikos
grafiya
grafos
grama
gramatica
gramatika
gramatikal
gramatikala
grammar
grammatical
grammy
gran
granada
granadinas
grand
granddaughter
grande
grandemente
grandes
grandesa
grandor
granito
granizo
grano
granos
grant
grasia
grasias
grasyas
grava
gravado
gravar
gravaron
grave
gravedad
graves
gravo
gray
graz
grazer
grazia
graziani
grc
gre
great
greater
greatest
grecia
greece
greek
green
greenberg
greenpeace
greenwich
grega
gregas
grego
gregoriano
gregorio
gregory
gregos
greko
grenada
grenoble
gresia
gretna
gridcolor
griega
griegas
griego
griegos
griffin
griffith
grijalbo
grijalva
grimas
gritos
grizo
grizzly
groenlandia
grosso
group
groupn
groups
groupstyle
groupwidth
grozni
gru
grumiaux
grup
grupo
grupos
grups
gruzini
gs
gsub
gsw
gu
gua
guachochi
guadalajara
guadalfajara
guadalquivir
guadalupe
guadarrama
guadra
guadrada
guadrado
guadrados
guadran
guadrar
guadraron
guadravan
guaido
guaini
guajira
guajiro
guam
guanacaste
guanacevi
guanahani
guanajuato
guangxi
guangzhou
guantes
guanyo
guarani
guarda
guardar
guardia
guardian
guarita
guarnision
guas
guasave
guatemala
guatemalanos
guava
guaviare
guayana
guayangareo
guayaquil
guc
guerfanos
guernsey
guerra
guerras
guerrero
guerta
guertas
gueso
guesos
guevara
guevo
guevos
guez
guggenheim
gui
guide
guila
guillermo
guinea
guinness
guipozkoa
guitarra
gujarat
gulag
gulf
gulfo
gunn
guns
guo
gurdjis
gurdwara
gurdwaras
gurion
gururu
gush
gusta
gustav
gustavo
gustos
gutenberg
gutie
gutman
gutmann
gutural
guy
guyana
guzma
gv
gwangju
gwened
gyatso
gymnast
gymnastics
gzito
h
ha
haaretz
haartzy
haazonot
hab
habad
habana
habe
haber
haberes
habertu
habi
habib
habiba
habima
habitacio
habitantes
habiya
habla
hablan
hablar
habsburgo
habua
hace
hacer
hacerse
hachareidis
hachuel
haci
hacia
hacker
had
hadad
hadash
hadassa
hadassah
hade
hadera
hadid
hadji
haemet
haeroma
hag
hagan
hagana
haggadah
hagiga
hagim
hagopian
haham
hahambas
hahamim
hahashmal
hahesder
hai
haida
haidar
haifa
haig
haile
haim
haj
hak
hakala
hakata
hakayitz
haketi
haketia
hakintana
hakiti
hakitia
hakka
haknesset
hakodesh
hal
hala
halabi
halaha
halake
haldiquera
halel
haleva
halevi
half
halfon
hali
halic
halil
halis
halk
halkina
hall
halle
halomot
halvdel
hama
hamad
hamadani
hamaim
hamas
hamate
hamayim
hamburger
hamburgo
hamedani
hamelej
hamets
hamikdash
hamilton
haminhagim
hamioad
hamlet
hamman
hammerklavier
hammett
hamra
hamsa
hamsas
hamu
hamza
han
hana
hanavi
hand
handle
handler
handling
hands
handson
hangul
hangzhou
hanja
hanna
hannanel
hannon
hanoi
hanoune
hans
hant
hanukka
hanukkiya
hanukkiyya
hany
hapkido
hapoel
happy
haq
haqueti
har
hara
harav
harbe
harbin
harbour
hard
haredi
haredim
haredis
harem
harina
harinas
harnasko
harold
harris
harry
hart
hartford
harun
harvard
harvest
has
hasakah
hasan
hasard
hasbon
hasdai
hase
hasen
hasentry
haser
haserse
hasharon
hashem
hashevet
hashoa
hasia
hasidikos
hasidim
hasiendo
haskil
haskoy
hassan
hassid
hasta
hastanesi
hat
hataklit
hatikva
hatir
hatizmoret
hatuna
haumah
hautes
hava
have
haven
haverim
having
haviva
havla
haw
hawai
hawaii
hawk
hay
haya
hayamim
hayat
hayde
hayes
hayim
hayom
hayyim
haz
haza
hazan
hazanim
hazaros
haze
hazendados
hazia
hazienda
haziendas
hazina
hazino
hazinos
hazinura
hazinuras
hazony
hazzanut
haß
hbo
hcard
he
head
header
heading
headings
headscarves
health
heart
heather
heats
heavy
hebrea
hebreo
hebrew
hebron
hecelchaka
hecho
hechos
hefei
heidelberg
height
heights
heilongjiang
heinrich
heinrichs
hekho
hekhos
hektareas
hela
helarctos
held
helen
helena
helft
hell
help
helper
helps
helsinki
hemionus
hen
henares
hendrik
henri
henrique
henry
hensima
hentre
her
herald
heraldo
hercegovine
here
heredad
heredia
herencia
heretz
heritage
herkules
herman
hermanamiento
hermanamientos
hermanas
hermann
hermano
hermanos
hermon
hermosillo
herna
hernandez
hernando
herodes
herodoto
heroe
heroi
herramientas
herrera
herria
hersegovina
hertogenbosch
hertz
hervas
herzegovina
herzl
herzliya
herzog
herzogtum
hes
hesder
hesed
hesha
hess
hesse
het
hetzi
heures
heureux
hevra
hevron
heydar
hh
hi
hicieron
hidalgo
hidden
hiddencat
hide
hides
hidjab
hierro
higginiano
higgins
high
higher
highest
highlands
highly
highway
hija
hijab
hijar
hijo
hijos
hika
hikari
hilal
hilfiger
hill
hillary
hillel
hiloni
hilonim
hilula
him
himhyarita
himilko
himnesia
himnesias
hindi
hindu
hint
hints
hip
hipo
hiroshima
hirsch
hirschprung
his
hisieron
hispa
hispania
hispano
histadrut
histo
histoire
historia
historiador
historiadores
historic
historical
historico
history
hit
hitler
hito
hits
hiver
hizo
hlist
hlushanytsia
hn
ho
hoa
hoba
hoboken
hoca
hochschule
hod
hofer
hofshi
hogar
hohma
hoi
hoja
hojas
hol
holanda
holder
holding
hole
holiday
hollande
hollywood
holocaust
holocausto
holod
holodomor
holon
holstein
holt
holy
holz
hombre
hombres
home
homeland
homenaje
hommage
homme
homo
homs
hondo
honduras
hong
hongkou
hongqiao
honneur
honolulu
honor
honorary
honored
honoris
honra
honshu
hop
hope
hopelche
hopes
hopi
hora
horizontal
horizonte
horme
hornborstel
hos
hospicio
hospital
hospitalet
hosteleria
hot
hotan
hotel
hotzvim
houda
houghton
hour
hours
house
houses
houston
how
howard
however
hoy
hoyo
hoz
hr
hrisianos
hrung
hryshko
hsb
hsi
hsinchu
ht
htm
html
htmlhttps
http
https
hu
hua
huac
huahcan
huamantla
huang
huangpu
huasteca
huasteka
huatl
huatulco
hub
hubbard
huberman
hubo
hudson
hue
huego
huehuetenango
huehuetoca
huejotzingo
hueko
huelva
huera
hueron
huersa
huersados
huersas
huerso
huersos
huerta
huerte
huertes
huesca
hueypochtlan
hueypoxtla
huffington
hugo
hui
huichapan
huila
huir
huista
huitzilopochtli
huixquilucan
hukim
hula
hulaula
huli
hulot
human
humana
humanas
humanidad
humano
humanos
humberto
humboldt
humido
hunan
hundred
hundreds
hungaria
hungarian
hungary
hunter
hur
huron
hurones
hurriyet
huvo
huyeron
hwc
hy
hybrid
hymens
hypothetical
i
ia
iaaf
iai
iakub
iakute
ian
iarticles
ias
iata
iba
ibague
iban
ibarra
ibe
iberia
iberika
iberikas
iberiko
iberikos
ibisa
ibiza
ibm
ibn
ibrahim
ibrit
ic
ice
icf
icon
iconic
icono
id
ida
idaho
idan
ide
idea
ideales
ideally
ideas
identical
identida
identidad
identificador
identifier
identifies
identifikados
identifikar
identifikativo
identify
identita
identities
identity
ideo
ideolo
ideolojiko
ideolojiya
ideolojiyas
idh
idiko
idio
idioma
idiomas
idish
idiyoma
ido
idolos
idris
idrogra
idrografia
idrografiya
idrojeno
idrolojiya
idx
ie
iec
ieee
if
ifj
ig
iga
iglesia
iglesias
iglezia
iglezias
iglezya
iglu
ignacio
ignore
igos
igual
iguala
iguales
igualitad
igualmente
ih
ii
iii
iir
ija
ijas
ijikos
ijo
ijos
iklesya
iko
ikono
il
ila
ilan
ilana
ilc
ildefonso
ildiko
ile
ilegal
ilgar
ilgwu
ili
ill
iller
illes
illinois
illit
illustrated
illustration
ilo
ils
iluminasion
ilustracio
ilustrada
ilustradora
ilustrados
ilustrasion
im
ima
imad
imafes
image
imagecell
imageleft
imageleftstyle
imagelink
imagen
imageright
images
imagesize
imagestyle
imaj
imaje
imajen
imajenes
imajes
imam
iman
imaz
imdb
imej
imejes
imenu
img
imi
imigrantes
imigrasion
imigrasyon
imites
immanuel
immigration
imno
imola
impact
impakto
impe
imperador
imperadores
imperativo
imperator
imperfekto
imperia
imperial
imperiala
imperiale
imperializmo
imperio
imperios
imperiyo
implement
implemented
implements
implika
implikan
importansia
importante
importantes
imposible
impostos
imprenta
impresion
impresionante
impreso
imprimeriya
impuestos
impulso
impulsor
impuro
impusieron
in
ina
inabitada
inafed
inah
inali
inc
incheon
include
included
includemetatable
includes
including
incluir
inclusion
incluye
incluyendo
increment
indarctos
indeks
indemas
independe
independence
independencia
independensia
independensya
independent
independente
independentista
independiente
independientes
independizaron
independye
independyente
independyentes
index
indexed
indi
india
indian
indiana
indianapolis
indiano
indianos
indians
indias
indica
indicar
indicate
indicating
indices
indijena
indijenas
indijeno
indijenos
indika
indikan
indikar
indikativo
indiko
indio
indios
indira
indirektamente
indirekto
indise
indises
indisio
indispensables
individual
individuala
individuales
individuo
individuos
indo
indoevropea
indoevropeas
indoevropeo
indoevropeos
indonesia
indonesya
indroduktivo
induismo
induista
induizmo
induizta
industani
industria
industrial
industriala
industrialas
industriales
industrializasion
industrialo
industrias
industries
industriosa
industriozos
industry
ine
inegi
inersia
infanteria
infantil
infantiles
inferior
infierno
infinitivos
influensa
influensia
influensiada
influensiado
influensias
influential
influyentes
influyo
info
infobox
infoboxes
informa
informacio
informalmente
informasio
informasion
informasiyon
informasyo
informasyon
informatika
information
informativa
informe
informes
infraestruktura
infrarroja
inglaterra
ingle
ingles
inglesa
ingleses
inglez
ingleza
inglezes
inglezo
inglezos
ingrediente
ingresar
ingreso
ingresos
inherit
inimigo
inimigos
inisia
inisiada
inisial
inisiales
inisialmente
inisian
inisiaron
inisiativa
inisio
inisraelacademyofsciencesandhumanities
initial
initiative
injenieriya
injeniero
injenieros
injenyeria
injuries
inka
inkas
inkisidor
inkisision
inkisisiyon
inkisizio
inkisizion
inklaterra
inklina
inklui
inkluia
inkluida
inkluido
inkluidos
inkluir
inkluiya
inkluso
inkluye
inkluyen
inkluyendo
inkluyindo
inkluzo
inkognita
inkontestavle
inkrementado
inkremento
inlet
inline
inmediatamente
inmediato
inmigrantes
inmigrasiyon
inner
innovasion
innovation
innovative
innsbruck
ino
input
inputs
inquiry
inquisicio
inquisition
ins
insekto
insektos
insendio
insert
inserted
inserts
inside
insidente
insierto
insititia
insituto
inskripsiyones
insolas
insoumise
insp
inspektor
inspirada
inspirado
inspirados
inspirasion
inspirational
inspiring
inst
instagram
instalado
instalar
instalasiones
instalasyon
instance
instansia
instauro
instead
instid
institucional
instituido
institusio
institusion
institusional
institusiones
institusyones
institut
institute
institution
instituto
institutos
instructions
instruksion
instruksiones
instruksiyones
instrumento
instrumentos
insular
insurgente
insurgentes
insurjente
insurjentes
insyeme
int
inta
inte
integer
integrada
integrado
integrados
integrantes
integrar
integraron
integrasion
intel
intelectual
intelektual
intelektuala
intelektuales
intelektualo
intelektualos
intelijensia
intelijente
intellectual
intelligence
intelsat
intended
intension
intensive
intenso
intenta
intentan
intentaron
intento
intentos
intepretasion
inter
interactive
interaksio
interaksion
interaksiyon
interaktivo
intercity
intere
interes
intereses
intereso
interfere
interino
interior
interiores
interkambio
interlingua
interlomas
interna
internacional
internal
internally
internamente
internas
internasional
internasionala
internasionalas
internasionales
internasionalmente
internasionalo
internasionalos
internasyonal
internasyonala
internasyonalas
internasyonales
international
internationale
internationalise
internet
interno
internos
interpol
interpreta
interpretasio
interpretasion
interpretasiones
interpretasyon
interpreted
interrogativos
interseksiyon
interurbano
interview
interwiki
intibuca
intifada
into
intoleransia
introduccio
introduce
introduction
introduksion
introduktoryo
introdusia
introdusido
introdusir
introduze
introduzida
introduzidas
introduzido
inuit
invaden
invadido
invadieron
invadio
invadir
invalid
invariant
invariantes
invasion
invasores
invasyon
inventado
inventador
invento
inventor
inventory
invernal
invernales
inverno
inversion
invertebrados
investido
investigacio
investigador
investigadores
investigar
investigasio
investigasion
investigasiones
investigasyon
investment
invierno
inviernos
invoke
invoked
inyeto
inyetos
inyevada
inyevadas
inyevado
inyevados
inyeve
inyeves
inyevikas
io
ioannis
ioc
iowa
ip
ipa
ipairs
ipote
ipotesis
iprage
ips
iqin
ique
iquitos
ir
ira
irak
iraki
irakis
iran
irani
iranian
iraniana
iranianas
irapuato
iraq
iraqi
iras
ire
ireta
irgun
irina
iris
irlanda
irlandez
irlandeza
irmiyahu
irokesa
ironic
irregulares
irse
irsen
is
isa
isaac
isaacs
isabel
isak
isbn
isbol
ish
isha
ishaq
isidoro
isidro
isieron
isil
isis
isite
isla
islabel
islam
islamabad
islamic
islamika
islamikas
islamiko
islamikos
islamistos
island
islandez
islandia
islands
islas
islinkworthy
ismail
isn
iso
isodate
isola
isolar
isolas
isos
isoyear
ispaka
ispano
ispanoamerika
ispanoamerikana
isra
israe
israel
israeli
israeliana
israelianas
israeliano
israelianos
israelies
israelis
israelit
israelita
israelite
israelitico
israir
issachar
issamar
isser
issn
issue
issues
issupportedlanguage
ist
istambul
istanbul
istanbuli
istmo
isto
istoc
istoria
istoriador
istoriadores
istorias
istorika
istorikamente
istorikas
istoriko
istorikos
istoriya
istorya
istoryador
istoryadores
istoryas
istoryiko
istoryko
it
ita
italia
italian
italiana
italianas
italiani
italiano
italianos
italika
italkit
italo
italy
italya
italyana
itamar
item
itemid
items
iterator
itf
iti
itn
its
itsak
itself
itshak
itu
iturbide
itza
itzik
iulia
iulius
iv
iva
ivan
iverson
ivoire
ivonne
ivri
ivrit
ix
ixtahuaca
ixtapa
ixtapaluca
ixtapan
ixtata
ixtlahuaca
iya
iyar
iz
iza
izabal
izabela
izcalli
izhevsk
izieron
izkierda
izla
izlas
izleno
izmir
izmo
izo
izrael
iztacalco
iztaccihuatl
iztapalapa
iztapan
iztatl
izyeron
izz
j
ja
jaar
jabad
jabeur
jacinto
jack
jackson
jacob
jacobs
jacques
jacumba
jae
jaen
jaffa
jafo
jagan
jagger
jagoda
jaguaro
jahre
jahudi
jailed
jaime
jainismo
jair
jak
jakarta
jakob
jakobovits
jakupovic
jalan
jalapa
jalea
jalisco
jalisko
jalpan
jaltenco
jama
jamahiriya
jamaika
jamal
james
jamil
jan
jane
janeiro
janet
january
januca
japan
japanese
japo
japon
japonesa
japonez
japoneza
japonezas
japonezo
japonezos
jaqueti
jar
jaramillo
jardi
jardin
jardines
jardins
jarekt
jaro
jaroj
jason
jaumave
jaume
java
javelin
javier
jay
jayariyu
jazeera
jazz
jbo
je
jean
jeanie
jebel
jefe
jefes
jefet
jeffrey
jehova
jelon
jena
jenas
jene
jenera
jenerado
jeneral
jenerala
jeneralas
jenerales
jeneralista
jeneralmente
jenerar
jenerasion
jenerasiones
jenerasiyon
jenerasiyones
jenero
jenes
jenetika
jenna
jennifer
jenny
jeno
jenosidio
jente
jentilisio
jeo
jeogra
jeografi
jeografia
jeografika
jeografikamente
jeografikas
jeografiko
jeografikos
jeografiya
jeografiyakateggori
jeografos
jeolo
jeolojiya
jeometrikos
jeometriya
jeorje
jeorjia
jeorjiana
jeorjiano
jerma
jermanika
jermanikas
jero
jerome
jeronimo
jersey
jerusale
jerusalem
jerusalemmunicipalityp
jeruslaem
jesen
jessica
jesu
jesukristo
jesus
jetstar
jeune
jeunesse
jevreja
jevreji
jew
jewfaq
jewish
jewishencyclopedia
jewry
jews
jezik
ji
jia
jiao
jibraltar
jico
jicos
jihad
jika
jikamente
jikas
jiko
jikos
jilotepec
jilotzingo
jimbo
jime
jimmy
jina
jinalos
jinan
jinas
jing
jinotega
jiquilpan
jiquipilco
jiralda
jiutepec
jiyel
jlaky
jo
joa
joan
joaqui
job
jobs
jocotitla
jodie
joe
joel
joetsu
joffe
joha
johann
johannes
johannesburgo
john
johnny
johnson
join
joint
jomaa
jonas
jonathan
jones
joquicingo
jordan
jordi
jorge
jornada
jornal
jose
josef
josefov
josep
joseph
joshua
joskowicz
joubran
jour
journal
journalist
journalists
journey
jovanovski
joven
joy
jpeg
jpg
jr
js
json
jspartid
jstor
jta
ju
jua
juan
juana
juarez
juata
juatu
juchita
juchitepec
judaeo
judah
judai
judaica
judaism
jude
juden
judensau
judenstaat
judentum
judeo
judeoespan
juderi
judeus
judi
judia
judio
judios
judit
judith
judo
judoinside
judoka
judy
juego
juegos
jueron
jueu
jueves
juicio
juifs
juigalpa
juisio
juive
juives
jujuy
jul
jules
julia
julian
juliantla
julie
julio
julius
july
june
junio
junior
junta
juntas
junto
juntos
jurado
jure
juri
juridique
jurisdiksion
jurnal
jurnales
juro
jusqu
just
juste
justice
justicia
justify
justin
justiniano
justo
jutiapa
jv
jva
k
ka
kabala
kabalat
kabalistas
kabalistika
kabayo
kabbala
kabbalah
kabe
kabesa
kabesera
kabeza
kabil
kabildo
kabilia
kable
kabo
kabra
kabul
kabylie
kada
kadaldia
kadas
kaddish
kadena
kadenas
kadi
kadima
kadish
kadisha
kadiz
kadosh
kadri
kadın
kae
kaer
kaf
kafe
kafka
kagera
kagliari
kagoshima
kah
kahal
kahlo
kahn
kai
kaida
kaikos
kaiman
kairo
kairuan
kaiser
kaj
kaje
kajeta
kaji
kakao
kaktos
kal
kala
kalabria
kalan
kalandaria
kalavasa
kalavaza
kalb
kalderon
kale
kaledonia
kaleja
kalejas
kalen
kalendario
kalendarios
kalenderio
kalentador
kalentar
kales
kali
kalia
kalida
kalidad
kalidas
kalido
kaliente
kalientes
kalifa
kalifato
kalifikada
kalifornia
kaliforniano
kalifornias
kalim
kalinin
kaliningrad
kaliningrado
kalisa
kaliza
kalkula
kalkular
kalkulo
kalkulos
kalma
kalmi
kalo
kalor
kalorias
kalorosa
kalsados
kalsio
kaltilyana
kaltilyano
kalzada
kama
kamara
kamaras
kamareta
kamaretas
kamas
kambio
kambodja
kambodjano
kamerun
kamhi
kamil
kaminaljuyu
kaminar
kamino
kaminos
kamiones
kamiza
kamondo
kampamento
kampamentos
kampanya
kampanyas
kampeche
kampeon
kampeonato
kampeones
kamperos
kampesina
kampesinos
kampo
kampos
kampus
kamti
kan
kana
kanaan
kanada
kanadiana
kanadiano
kanadianos
kanadiense
kanal
kanales
kananeos
kanaria
kanarias
kanario
kandela
kandelabro
kandelas
kandelikas
kandidata
kandidatas
kandidato
kandidatos
kandidatura
kandilikas
kando
kane
kaninos
kanji
kanon
kanotaj
kansas
kansio
kansion
kansiones
kansyon
kanta
kantaban
kantabria
kantada
kantadas
kantadera
kantaderas
kantadero
kantaderos
kantaders
kantado
kantador
kantadora
kantadores
kantados
kantan
kantando
kantante
kantantes
kantar
kantarikos
kantaron
kantava
kante
kantera
kanteras
kantes
kantez
kantida
kantidad
kantidades
kantigas
kantika
kantikas
kantita
kanto
kanton
kantones
kantor
kantos
kanun
kanuni
kanya
kanyas
kanyete
kanyon
kaohsiung
kaos
kapa
kapache
kapachi
kapachidad
kapachita
kapachitad
kapalı
kapas
kapasidad
kapasita
kapaz
kapita
kapital
kapitala
kapitalas
kapitalinos
kapitalismo
kapitalista
kapitalizmo
kapitalo
kapitan
kapitana
kapitanes
kapitania
kapitolo
kapitolos
kapiya
kapiyas
kaplan
kaptura
kapturada
kapturando
kapturar
kara
karabah
karabaj
karabakh
karachi
karaimit
karaita
karaitas
karakas
karakol
karakter
karakteres
karakteri
karakteristika
karakteristikas
karakterizan
karamete
karar
karas
karatas
karatash
karate
karavanas
karbon
kardenales
kardinales
karen
karev
karga
kargas
kargo
kargos
karibe
karibeana
karidad
kariera
karieras
karim
karinyo
kariuan
karl
karlos
karman
karmel
karmiel
karnaval
karnavales
karne
karnes
karnivoro
karnivoros
karo
karoli
karolina
karosa
karosas
karrera
karreras
karriera
karrieras
karrizo
kars
karta
kartago
kartajines
kartajinesa
kartajinesas
kartajineses
kartas
karteras
karto
kartografiya
kartunes
karvon
kas
kasa
kasablanka
kasamiento
kasas
kasay
kaseres
kaseros
kasha
kashas
kasher
kashgar
kashrut
kashtan
kasi
kasike
kasino
kaskavel
kaso
kasos
kasparov
kaspia
kaspio
kassams
kassir
kastanyo
kastas
kastelyana
kastelyano
kastelyon
kasteyano
kastigo
kastilya
kastilyana
kastilyano
kastilyanos
kastilyo
kastiya
kastiyano
kastiyo
katala
katalan
katalana
katalanes
katalanos
katalina
katalunya
katan
katania
katar
katarina
katavinyabasha
kate
katedral
katedrala
katedralas
kateggori
kateggoria
kateggoriya
kateggoriyas
kategori
kategoria
kategorias
kategorie
kategoriya
kategoriyas
katena
katenas
kato
katolika
katolikas
katoliko
katolikos
katolisismo
katolisizmo
katolizismo
katorze
katorzenos
katowice
katrados
katrena
katreno
katrenos
katro
katsiaryna
katy
katz
kaucho
kaudal
kaukaso
kaunas
kausa
kausas
kavane
kavayera
kavayero
kavayeros
kavayo
kavayos
kave
kavel
kavernas
kaversera
kavesa
kavesas
kavesera
kaveza
kavida
kavkaz
kavo
kavod
kavra
kavras
kavritiko
kavsa
kavso
kavza
kavzado
kavzados
kavzar
kavzaron
kavzas
kavzo
kavzos
kavzoz
kawasaki
kaye
kayente
kayer
kayes
kayida
kayidos
kayla
kayo
kayro
kaza
kazada
kazado
kazadores
kazakistan
kazako
kazal
kazales
kazalinos
kazamiento
kazamientos
kazamye
kazamyento
kazamyentos
kazan
kazanlik
kazar
kazaron
kazarse
kazas
kazavan
kazaz
kazeria
kazerio
kazerios
kazike
kazo
kazos
kazteyano
kc
kdam
ke
kebab
kebek
kebra
kebrada
kebradas
kebrar
kechua
keda
kedado
kedan
kedando
kedar
kedara
kedaron
kedarse
kedasen
kedava
kedavan
kede
kedma
kedo
kedusha
keep
keeping
kehila
kehilas
kei
keila
keilas
keilot
keizerstraat
kel
keller
kellogg
kelta
kemada
kemado
kemados
kemal
kemaron
kemekos
kemika
kemo
ken
kenai
kenes
kenia
kennedy
kenneth
kenpo
kensi
kent
kentucky
kenya
kenyon
kepazelik
kept
kera
kerala
kere
keren
kerer
keres
keretaro
keri
keria
kerian
kerida
kerido
keridos
kern
kero
kes
kesariya
kese
kesher
keshet
keso
kestiones
kestiono
kestyo
kestyones
ketuba
ketuvim
kevesera
kevradura
key
kezo
kfar
kg
kgb
khaja
khaleej
khalil
khan
khankendi
khartum
khatami
khatib
khe
khina
khinezos
khino
khinos
khomeini
ki
kibbutz
kibris
kibutzim
kichwa
kida
kido
kidouch
kidousch
kids
kidush
kiel
kien
kienes
kiere
kiesewetter
kiev
kijeron
kijo
kikar
kiki
kikongo
kilisa
kilisia
kilisias
kiliwa
killed
kilo
kilometros
kim
kima
kimas
kimika
kimiko
kimikos
kin
kina
kind
kineza
kinezas
kinezo
kinezos
king
kingdom
kings
kingston
kinientas
kinientos
kinneret
kinse
kinsenos
kinyentos
kinze
kipa
kippur
kipre
kipriyota
kira
kirgista
kirgizstan
kiri
kiriat
kiribati
kirk
kirschner
kiryat
kishot
kistianismo
kiswahili
kita
kitada
kitadas
kitado
kitados
kitando
kitar
kitaron
kitarse
kitavan
kitchen
kito
kitts
kizas
kk
kkl
kktc
kl
kla
klan
klanes
klara
klaramente
klaras
klaridad
klaro
klasa
klasas
klase
klases
klasifika
klasifikada
klasifikan
klasifikando
klasifikar
klasifikasion
klasifikasiyon
klasifiko
klasika
klasikas
klasiko
klasikos
klasisizmo
klausura
klein
kleopatra
kler
klero
klezmer
kli
klima
klimas
klimatolojiya
klinika
klip
klita
klo
klos
klub
klubes
km
kmo
kmt
kn
knesset
knight
knika
knikas
know
knowledge
known
knows
knyha
ko
koalision
koalisyon
kobi
kobre
kobrechihuahua
koc
kocaeli
kocatepe
kocha
kochi
kochin
kochiniya
kodama
koddiche
kodesh
kodiak
kodiche
kodigo
kodigos
kodixe
kodrel
kodrela
kodrero
kodreros
kodrfela
koe
koelet
koen
koetes
kofi
kohanim
kohav
kohba
kohen
koi
koko
kokos
koksis
kol
kola
kolaboradores
kolaborativo
kolapso
kolas
kolavoradores
kolavorasion
kolavorasiyones
kolavoro
kolay
kolbastı
kolej
koleksio
koleksion
koleksiones
koleksionistos
koleksiyon
kolektiva
kolektividad
kolektividades
kolektivo
kolel
kolera
kolina
kolinas
kolinda
kolindantes
kolirin
koliseo
kolitz
kolmiyos
kolo
koloka
kolokada
kolokar
kolomb
kolombia
kolombiana
kolombiano
kolombianos
kolon
kolona
kolonel
kolonia
kolonial
koloniala
kolonialas
koloniales
kolonialistas
kolonializmo
kolonialo
kolonias
kolonisasion
kolonisazion
kolonistas
koloniyas
kolonizadores
kolonizaron
kolonizasio
kolonizasion
kolonizasiyo
kolonos
kolonya
kolor
kolorada
koloradas
kolorado
kolorados
kolores
kolorido
kolos
kolponomos
kolumna
kolumnas
kom
koma
komadre
komandada
komandado
komandante
komandantes
komandava
komando
komarca
komares
komarka
komarkas
kombate
kombina
kombinar
kombinasion
kombustivle
kome
komed
komedia
komediante
komedias
komen
komensaron
komenso
komentador
komentario
komentarios
komenzando
komenzaron
komenzo
komer
komersante
komersantes
komersial
komersiala
komersialas
komersiales
komersialmente
komersiantes
komersiar
komersio
komersios
komersyales
komersyo
komerzio
komian
komida
komidas
komienza
komienzan
komienzos
komision
komisionado
komisiyon
komite
komo
komodo
komoras
kompania
kompaniya
kompanya
kompanyia
kompanyias
komparada
komparado
komparasiyon
komparte
komparten
kompartian
kompartida
kompartido
kompensar
kompetensa
kompetensas
kompetensia
kompetensias
kompetir
kompetision
kompilasiones
kompilasiyones
kompite
kompitio
kompleja
komplejo
kompleksa
kompleksas
komplekso
kompleksos
komplementa
komplemento
kompleta
kompletada
kompletadas
kompletamente
kompletan
kompletar
kompletas
kompleto
kompletos
komplimentos
komplir
komplutense
komponente
komponentes
komportamiento
komportamientos
komportamyento
komporto
komposisio
komposisyon
kompositor
kompositora
kompositores
kompostela
kompozada
kompozado
kompozador
kompozadora
kompozadores
kompozados
kompra
komprada
komprado
komprende
komprender
komprendi
komprensio
kompro
kompromiso
kompu
kompuesta
kompuesto
kompuestos
komputadora
komputadoras
komputasio
komputasional
komputer
komu
komun
komuna
komunala
komunas
komundad
komunes
komunida
komunidad
komunidadades
komunidades
komunika
komunikados
komunikan
komunikar
komunikarse
komunikasion
komunikasiones
komunikasiyon
komunikasyon
komunikazyion
komunikazyones
komuniko
komunio
komunismo
komunista
komunistas
komunisto
komunistos
komunita
komunitades
komunitario
komunitas
komunizmo
komunmente
komunta
kon
kondado
kondados
konde
kondena
kondision
kondisional
kondisiones
kondisyon
kondisyonal
kondisyones
kondjelador
kondjugan
kondjugasion
kondjugasyones
kondjuntamente
kondjunto
kondor
kondukta
konduktor
konejo
konejos
koneksion
koneksiones
konekta
konektada
konektados
konektan
konektando
konfederasion
konfeksiyon
konferansa
konferansas
konferensa
konferensas
konferensia
konferensyas
konfesada
konfesion
konfesiones
konfeso
konfiensa
konfieza
konfiezan
konfirmado
konflikto
konfliktos
konfluensiya
konforma
konformaba
konformaban
konformada
konformado
konforman
konformando
konformar
konformaron
konformava
konformavan
konformo
konfusianizmo
konfusio
kong
kongo
kongreso
konjetura
konjugasyo
konjugasyones
konjunkto
konjunto
konjuntos
konkista
konkistada
konkistado
konkistador
konkistadores
konkistados
konkistar
konkistaron
konkisto
konkluyo
konkorso
konkorsos
konkreto
konkurso
konmemora
kono
konose
konosemos
konosen
konosensia
konosensias
konosensya
konoser
konosi
konosia
konosian
konosida
konosidas
konosido
konosidos
konosieron
konosimiento
konosimientos
konosimye
konosimyento
konosimyentos
konosio
konossio
konosyo
konozida
konozido
konquista
konrad
konsagrada
konsantrasion
konseder
konsegir
konseho
konseiyero
konseiyeros
konseja
konsejas
konsejera
konsejo
konsejos
konsekuensa
konsekuensas
konsekuensia
konsensia
konsenso
konsentra
konsentran
konsentrasion
konsepsion
konsepsiones
konsepto
konseptos
konserto
konsertos
konserva
konservada
konservador
konservadora
konservadores
konservan
konservaron
konservasion
konservatorio
konseshero
konsesho
konseshos
konsesiones
konsidera
konsideraban
konsiderada
konsideradas
konsiderado
konsiderados
konsideran
konsiderar
konsiderarse
konsiderasion
konsideravan
konsidero
konsiensa
konsiensia
konsierto
konsige
konsigieron
konsigio
konsigir
konsigiron
konsiguir
konsilio
konsilyo
konsiste
konsistente
konsitusion
konsolato
konsolidaron
konsonante
konsonantes
konsorsio
konspirasion
konsta
konstansia
konstante
konstantemente
konstantes
konstantina
konstantino
konstantinopla
konstantinopoli
konstantinopolis
konstelasion
konstituida
konstituido
konstitusion
konstitusional
konstitusionala
konstitusiyon
konstitusyon
konstituye
konstituyen
konstituyente
konstituyentes
konstituyo
konstruida
konstruido
konstruir
konstruksion
konstruksiyon
konstruktivismo
konstruktor
konstruye
konstruyeron
konstruyida
konstruyido
konstruyidos
konstruyir
konstruyo
konsul
konsulado
konsulados
konsulta
konsultado
konsultar
konsultas
konsumo
konta
kontaba
kontada
kontado
kontados
kontakto
kontaktos
kontan
kontando
kontar
kontava
konteksto
kontemplar
kontempora
kontemporanea
kontemporaneo
kontemporaneos
kontener
kontenia
kontenido
kontenidos
konteniendo
kontente
kontiene
kontienen
kontienes
kontinental
kontinentala
kontinentales
kontinentalos
kontinente
kontinentes
kontinu
kontinua
kontinuar
kontinuaron
kontinuasion
kontinuidad
kontinuo
konto
kontoy
kontra
kontraen
kontraria
kontrario
kontratados
kontrato
kontratos
kontribuido
kontribuir
kontribusiones
kontribusiyon
kontribusiyones
kontribuye
kontribuyo
kontro
kontrol
kontrola
kontrolaba
kontrolada
kontrolado
kontrolador
kontrolar
kontrolaron
kontrolavan
kontrolo
kontroversia
kontroversias
kontrovertidos
kontyene
konuna
konvenios
konvensido
konvension
konvensiones
konvensiyonalmente
konvento
konventos
konversa
konversio
konversion
konversiyon
konversos
konvertido
konvertidos
konvertieron
konvertio
konvertir
konvertirse
konvertirsen
konvidada
konvidado
konvidados
konvido
konvierte
konvirtiendose
konvirtieron
konvirtio
konvive
konviven
konyesida
kook
kooperasion
kooperativa
koordenadas
koordinadas
koordinador
koordinasion
kopa
kopas
kopenhage
kopenhagen
kopia
kopias
kopta
kor
koraje
korajoza
koral
koran
koraso
korason
korc
kordiyera
kordoba
kordova
korea
korean
koreano
korfu
koridor
korkut
korno
kornos
koro
korona
koronas
koronavirus
koronel
koros
korpo
korpos
korpuskulares
korpuskulo
korrejidor
korrejidora
korrejimiento
korrekta
korrekto
korren
korrer
korresponde
korresponden
korresponsal
korridas
korriente
korrientes
korso
korta
kortando
kortchmar
korte
kortes
kortijo
korunya
kos
kosas
kosashvili
kosecha
kosher
kosiderados
kosina
kosko
kosmodrom
kosmolojiya
kosmos
kosovo
kosta
kostas
koste
kostera
kosteras
kosteros
kostitusion
kosto
kostos
kostu
kostumbra
kostumbras
kostumbre
kostumbres
kot
kotel
kotidiana
kova
kovre
kovren
kowalski
koyaike
koyot
koyotes
koza
kozas
kozer
kozinar
krajicek
krakovia
kramer
kranios
krasnoyarsk
krata
krav
krawchenko
krea
kreacio
kreada
kreado
kreados
krean
kreando
krear
krearon
kreasion
kreatura
kreaturas
kredito
kree
kreek
kreemos
kreen
kreensia
kreensias
kreensya
kreer
krema
kremlin
krensia
kreo
krese
kresen
kreser
kresido
kresiendo
kresiente
kresieron
kresimiento
kresimye
kresimyento
kresio
kresyente
kreya
kreye
kreyen
kreyensia
kreyensias
kreyensya
kreyente
kreyentes
kreyer
kreygo
kreyi
kreyia
kreyian
kreyido
kreyiya
kreyo
kri
kria
kriada
kriadas
kriado
kriador
kriadores
kriados
krian
kriando
krianza
kriar
kriaron
kriarse
kriasion
kriasiyon
kriasyon
kriatura
kriaturas
krimchak
krimchaks
krimea
krimen
krimi
kriminolojiya
krio
krios
krioya
krioyo
kripto
kriptodjudio
kriptodjudios
kriptografiya
krisa
krise
krisis
krisol
kristia
kristiana
kristianas
kristiandad
kristianismo
kristianizmo
kristiano
kristianos
kristiyana
kristo
kristobal
kristof
kristya
kristyana
kristyanas
kristyanismo
kristyanizmo
kristyano
kristyanos
kriterio
kriterios
kritika
kritikado
kritikar
kritikas
kritiko
kritikos
kriyola
kriza
kro
kroasia
kroata
kroatia
kronikas
kronolojia
krow
krusa
krusada
krusadas
krusado
krusados
krusar
krusata
krusatas
kruse
kruseros
kruz
kruza
kruzada
kruzan
kruzaron
kruzavan
kruze
ks
ksel
ksiko
ksiks
ksks
kteos
kter
ktico
ktika
ktikas
ktiko
ktiv
kto
ktrika
ktriko
ktx
ku
kua
kuadrado
kuadrados
kual
kuala
kualas
kuales
kualidad
kualidades
kualker
kualkera
kualkier
kualo
kualos
kualunke
kuanasi
kuando
kuano
kuantas
kuantika
kuantita
kuantitativa
kuantitativos
kuanto
kuantos
kuarenta
kuarte
kuartena
kuarto
kuasi
kuatre
kuatrena
kuatrenos
kuatro
kuatrosientas
kuatrosientos
kuba
kuban
kubano
kubanos
kubierta
kubre
kubren
kubri
kuchiyo
kuchundu
kudia
kudiada
kudiado
kudiados
kudian
kudiando
kudiar
kudiaron
kudiava
kudio
kue
kuedra
kuedras
kuendo
kuenka
kuenkas
kuenko
kuenta
kuentan
kuento
kuentos
kuerdas
kuero
kuerpo
kuerpos
kuesta
kuestion
kuestionada
kueva
kuevas
kukapa
kuki
kukla
kul
kula
kulas
kuli
kulina
kulmina
kulo
kulos
kulthum
kultibava
kultivad
kultivar
kultivo
kultivos
kulto
kultos
kultura
kultural
kulturala
kulturalas
kulturales
kulturalmente
kulturalo
kulturalos
kulturas
kulu
kumbre
kumer
kumiai
kumida
kumidas
kumido
kumple
kumplen
kumplio
kumplir
kun
kuna
kunming
kunta
kunvidada
kunvidado
kunvidados
kuomintang
kupa
kupola
kura
kurados
kurar
kurasao
kurda
kurdish
kurdistan
kurdos
kuriozamente
kuriozita
kurlado
kuro
kurpfalz
kurrikular
kurso
kursos
kurt
kurta
kurtas
kurtijo
kurto
kurtos
kurvas
kusko
kuveit
kuvija
kuvijada
kuvijadas
kuvijado
kuvijas
kuvren
kuvrir
kuwait
kuya
kuyas
kuyo
kuyos
kuzari
kuzarim
kuzguncuk
kuzina
kuzinado
kuzinar
kuzinas
kuznetsova
kv
kval
kvarono
kvartal
kvartalet
kvitova
kw
kwakiutl
kwame
kwara
kwart
kx
ky
kyen
kyi
kyiv
kyknet
kyo
kyodan
kyurdi
kyurdis
kyushu
kærəktɚz
kıbrıs
l
la
label
labelorid
labels
labio
labor
laboral
laborales
laboratorio
laboratory
labores
labra
labrador
labut
lac
lacandona
lad
lada
laden
ladera
ladina
ladinado
ladinas
ladino
ladinokomunita
lado
lados
ladro
ladron
ladronim
lady
ladytron
laemunot
laga
lago
lagona
lagos
laguna
lagunas
lahore
laiko
lair
lakandonachiapas
lake
lakota
lakteos
laktozos
lalehet
lalla
lama
lambayeque
lament
lamentasiones
lamentos
lamo
lampa
lampas
lana
lance
land
landau
lands
landscape
landschaft
lang
langcode
langdateform
langlabel
langlist
langobj
langswitch
language
languages
langue
languedoc
lanka
lansa
lansado
lansadora
lansados
lansamiento
lansamientos
lansar
lanso
lanzamiento
lanzarote
lanzhou
lao
lapid
lapidas
laput
lar
lara
larache
laredo
lares
larga
largas
large
largest
largo
largor
largos
larkey
larnaka
larrea
lars
ları
las
lasho
lashon
lashones
lasio
lasos
last
lat
lata
late
later
latestdatequalifier
lati
latifa
latin
latina
latinas
latino
latinoame
latinoamericana
latinoamericano
latinoamerika
latinoamerikana
latinos
latitud
latitude
lato
latrans
latrun
lau
laud
laude
lauenburg
laughing
laughter
launch
launches
laura
laure
laureate
laurence
laurent
lava
lavado
laval
lavar
lavor
lavora
lavoraba
lavorado
lavoradores
lavoran
lavorando
lavorante
lavorantes
lavorar
lavoraron
lavorava
lavoravan
lavoren
lavores
lavorista
lavoro
lavoros
law
layout
laz
lazar
lb
lbum
lcc
le
lea
lead
leader
leaders
leadership
leading
league
leales
leann
learn
learning
leave
lebanese
lebanon
lebre
lebu
lecce
lech
leche
lechuga
lectores
ledjendas
ledjilastiva
ledra
lee
leer
lefkos
left
leg
lega
legacy
legado
legal
legales
legalmente
legas
legend
legio
legislacio
leh
leha
lehem
lei
leib
leibniz
leiden
leipzig
leis
lejano
lejanos
lejion
lejiones
lejislativa
lejislativas
lejislativo
lejos
leksiko
lektores
lektura
lelo
lem
lema
lembranc
lempira
len
lena
lenape
length
lengua
lenguaje
lenguajes
lenguas
leni
lenin
leningrado
leninista
lent
lentamente
lento
lenz
leo
leon
leonard
leonardo
leone
leonel
leonesa
leonez
leonid
leopold
leopoldo
ler
lerdo
lerida
lerma
les
lesensia
leshano
leshos
lesko
lesotho
less
lesser
lessin
leste
let
leticia
letis
leto
letona
letonia
letra
letras
letrero
letter
letteratura
letters
leu
leumi
leur
lev
levanon
levant
levanta
levantada
levantado
levantar
levantaron
levantavan
levante
levanto
level
levelo
levelos
levent
levi
levin
levy
lewis
ley
leyenda
leyendas
leyes
leyla
leyva
lez
lezion
lfaris
lgebra
lgv
li
lia
liasion
liasionada
liasionados
liasiones
liasones
libanesa
libanezo
libanon
libbera
libberalo
libberasiyon
libbero
libberos
libberta
libe
liber
libera
liberacio
liberados
liberal
liberala
liberales
liberalismo
liberalizmo
liberalo
liberalos
liberasion
liberation
libere
liberia
libero
liberos
liberta
libertad
libertador
libertadores
libertario
liberty
libi
libia
library
libraryutil
libre
libreri
libres
libro
libros
libya
libyan
lic
lica
licht
licos
lida
lider
liderada
liderado
liderazgo
lideres
lidero
lideros
lidia
lido
lie
lieberman
liebknecht
liechstenstein
liechtenstein
lieja
lieserl
life
liga
ligada
ligas
ligero
light
lightgrey
lighthouse
lightning
lihyanita
lijera
lijeramente
lijero
lik
lika
likas
like
likido
liko
likor
likos
likud
lila
lili
liliana
lille
lima
limassol
limbo
limit
limita
limitada
limitado
limitados
limitan
limitando
limitasiones
limite
limited
limites
limito
limitos
limo
limon
limonata
limones
limor
limos
limpia
limpiesa
lin
lina
linares
lincoln
linda
lindero
linderos
lindes
line
linea
lineal
lineas
linegrey
lines
linet
linga
lingu
lingua
linguaje
linguas
lingui
linguista
linguistas
linguistic
linguistics
linguistika
linguistikamente
linguistikas
linguistiko
linguistikos
linguistique
linguistos
link
linked
linkedid
linkeditem
linkes
linking
links
linktarget
linktitle
linor
linoy
linux
linx
linya
linyas
lio
lion
lionel
lior
lipatti
liptzin
lis
lisboa
lise
lisensia
lisensiado
lisesi
lisha
lishana
lishanid
lision
lisionadas
lisionado
lisionados
lisionando
lisiones
lisis
list
lista
listas
listed
listn
listpadding
lists
liststyle
lisyones
liszt
lit
lite
literal
literala
literalmente
literaria
literarias
literario
literarios
literatura
literature
lites
lito
litoral
little
litu
lituania
lituano
liturjia
liubliana
live
liverpool
lives
living
livnat
livni
livorno
livre
livreria
livres
livriko
livriteha
livro
livros
lix
ljebra
ljubljana
lkar
lkt
lkulo
ll
lla
llama
llamada
llamadas
llamado
llamados
llano
llanos
llanquihue
lle
llegada
lleida
llengua
lleonard
lln
llobregat
lloyd
lluvia
lluvias
ln
lo
load
loaddata
loadi
lobos
loc
local
localidades
locally
located
location
locos
lod
lodo
loewenthal
loez
logo
logos
logrado
logran
logrando
lograr
logro
logros
loin
loira
loire
loja
loji
lojika
lojistika
lokal
lokala
lokalas
lokales
lokalidad
lokalidades
lokalisasion
lokalizado
lokalmente
lokalo
lokalos
lokasion
loko
lokomosion
lokusiones
lol
lola
lolita
loma
lomas
lombardo
lomo
londje
london
londra
londres
long
longaniza
longanizas
longitud
longitude
longman
longo
lonjas
lonjitud
lonjitudes
lonso
lonsos
look
looking
looks
loop
lopez
lord
lore
lorentz
lorenzo
loreto
lorraine
los
losa
loses
lost
lot
lota
lou
loughborough
louis
louisa
louise
loule
lovaina
love
lovely
lovo
low
lowb
lower
loz
lpost
lpostfix
lpre
lprefix
ls
lso
lt
ltd
lticos
ltiko
ltima
ltimas
ltimo
ltimos
ltiples
lu
lua
luaargs
luanda
lubavitch
lublin
lubomyr
luca
lucas
lucero
lucha
lucharon
luchas
luci
luciano
luciuk
lud
ludmilla
ludwig
luego
luenga
lugar
lugares
luge
lugo
lui
luis
luisiana
luiza
luka
lukas
lukro
luksemburgo
lukso
lul
lumie
lumpur
luna
lunar
lune
lunes
lunga
lungas
lungesa
lungeza
lungo
lungos
lupu
lupus
luses
lusho
lusia
lusitania
luta
lutas
luterana
luteranas
luteranizmo
luterano
luteranos
lutero
luther
lutheran
luto
luvia
luvianos
luvias
luvya
luvyas
luxembourg
luxemburg
luxemburgo
luxury
luz
luzero
luzes
luzzatto
lv
lvarez
lvaro
lvez
ly
lyon
lzz
m
ma
maa
maadeed
maale
maales
maalos
maarten
mabrouk
mabu
mabul
mac
macau
maccabi
maccabim
mace
macedonia
macedonian
macerata
machon
machos
machu
macias
maciel
macklis
maclean
macmillan
macri
macroplaza
mada
madagaskar
madalya
madar
madas
made
madeira
madera
maderas
maderera
madereros
madero
maderos
madina
madison
madjar
madjares
madjaristan
madrasa
madrasas
madre
madres
madrid
madura
maduro
madurodam
maestra
maestrado
maestre
maestres
maestria
maestro
maestros
mafterim
maga
magaracha
magayanes
magazen
magazin
magazine
magazines
magdalena
magefa
magen
maghreb
magia
magic
magid
maglev
magna
magnetika
magnetiko
magnetosfera
magnitudes
magno
mago
magreb
magrebi
magrib
maguen
magunsia
magyar
magzilar
maha
mahane
mahatma
mahavira
mahaya
mahir
mahmoud
mahmud
mahmut
mahomat
mahon
mai
mailhammer
maimo
maimon
maimonides
main
maine
mainsnak
maintain
maintainers
maior
mais
maiz
majiko
majikos
major
majora
majoras
majoria
majoridad
majorita
makabeos
makao
makaristan
make
makedata
makedaylink
makedonia
makedonio
makedonios
makeordinal
makes
makina
makinaria
makinas
making
makkabim
mako
makohon
makom
makro
maksima
maksimo
mal
mala
malabar
malaga
malahi
malal
malanya
malasia
malasya
malawi
malaya
malayalam
malayanus
malayo
malayos
malaysia
maldivas
maldonado
male
males
malgrado
malha
mali
malik
malika
malinalco
malinche
malkenou
malki
mall
mallorca
mallorquines
malls
malmoe
malo
malon
maloney
malorozamente
malos
malouf
malta
maltez
malvinas
mam
mama
mamertinos
mami
mamifero
mamiferos
mamo
mamun
mamut
mamutos
man
mana
manade
manadero
management
managua
manal
manantial
manantiales
manaos
manar
manaus
mancha
manchester
manchu
mandada
mandadas
mandado
mandamiento
mandar
mandarin
mandarlos
mandaron
mandate
mandato
mandatory
mandela
mandioka
mando
manejar
manera
maneras
manga
manglares
mango
manhattan
manifestada
manifestasion
manifestasiones
manifestasyon
manifesto
manifiesto
manifiestos
manila
manitova
manizales
manka
manko
mankomun
mankomunidad
mannoia
mano
manoach
manos
manot
manoz
mans
mansa
mansana
mansanas
mansano
mansanos
manse
manseba
manseva
mansevas
manseve
manseves
mansevez
mansevika
manseviko
mansevikos
mansevo
mansevos
mansour
mansur
mantekiya
mantener
mantenido
manteniendo
mantenimiento
mantenimyento
mantiene
mantienen
manto
mantuvieron
mantuvo
mantyene
manual
manually
manuel
manufaktura
manuscript
manuskritos
many
manyana
manyanadas
manzanares
manzanillo
mao
maon
maoz
map
mapa
mapache
mapas
mappings
maps
mapuche
mapuches
mapv
mar
mara
maracaibo
maracay
maran
maranha
marathi
maravillosos
maraviya
marbella
marc
marcar
marcas
marcel
march
marcha
marcia
marco
marcos
marcus
mardini
mare
mareas
mares
marfil
margalit
margaret
margarita
margin
margot
mari
maria
mariam
mariana
marianas
mariano
marias
marido
marie
marija
marina
marine
marinero
marineros
marino
marinos
mario
marion
maritimas
maritimo
maritimus
mark
marka
markada
markadas
markados
markas
markevitch
marko
marks
marksismo
marksista
markup
marmara
marmol
marmolejo
marne
maroc
marocain
marokana
marokanos
maroki
marokis
maroko
maroney
marrakech
marrakesh
marrano
marranos
married
marrokana
marrokanas
marrokano
marrokanos
marroki
marrokis
marroko
marroqui
marruecos
mars
marsela
marseya
marshall
marsial
marsiales
marsials
marso
marta
marte
martes
martha
marti
martillo
martin
martinika
martir
martirbasha
martires
martirio
martitimas
marvin
marx
marxismo
mary
maryland
marzo
mas
masa
masakre
masas
masaya
mascota
mase
masedonia
mashiah
masiva
masivo
masizo
masjid
maskara
maskarenyas
maslahatos
maslat
maso
masones
masorti
masortim
masri
mass
massachusetts
massar
master
masterpiece
masters
masy
mata
matada
matado
matados
matagalpa
matamoros
matando
matansa
matansinas
matanza
matar
mataron
matas
matavan
match
matches
matchesblacklist
matchestitle
matching
matehuala
matema
matematika
matematikas
matematiko
matematikos
mateo
mateos
materia
material
materiales
materials
materias
materna
math
mathaba
matilda
matitiahu
matlatzinca
matlatzincas
matlatzingo
matlazincas
matmid
mato
matrimonio
matrimonyo
matriz
mattancherry
mattei
matteo
matter
matthew
mau
maule
maurice
mauricie
mauricio
maurisio
mauritana
mauritania
mauvais
mavi
max
maxim
maxima
maximilian
maximiliano
maxxi
may
maya
mayakintana
mayana
mayas
mayer
maymon
maymona
mayo
mayor
mayora
mayoras
mayores
mayori
mayoria
mayorita
mayoritariamente
mayorka
mayormente
mayotte
maz
mazahua
mazahuas
mazal
mazala
mazales
mazapanes
mazatepec
mazatla
mazda
mbaro
mbaye
mbito
mbitos
mbolo
mbre
mbres
mbro
mbros
mc
mcclelland
mchale
mctid
md
mda
mdy
me
mea
meaning
means
meara
mechanism
meclisi
med
medal
medalia
medals
medalya
medalyas
medanos
medaya
medelli
medeyin
medi
media
mediados
medial
mediana
medianoche
mediante
medias
mediawiki
medical
medida
medidas
medieval
medievala
medievalas
medievales
medievalo
medika
medikeria
mediko
medikos
medina
medinaceli
medinat
medio
mediodi
medios
medir
medisina
mediterra
mediterranea
mediterranean
mediterraneo
mediterraneos
medurat
medya
medyana
medyo
meet
meeting
mega
megadiverso
megila
megilat
megorashim
mehdi
mehmet
mehtap
mei
meimad
meir
mejiko
mejor
mejora
mejoras
mejores
meka
mekadurias
mekanika
mekor
meksika
meksikana
meksikanas
meksikano
meksikanos
meksikenses
meksikenyos
meksiko
meksikoo
mekubal
melaha
melahim
melahot
melanesia
melanoleuca
melbourne
melchor
melda
meldada
meldadas
meldado
meldados
meldadura
meldamos
meldan
meldando
meldar
meldarse
meldava
meldo
meleagris
melilla
meliya
melkon
mellah
mellizos
mellom
mellon
melodi
melursus
melzi
member
members
membrillos
membriyos
membro
membros
meme
memoirs
memoized
memoria
memorial
memoriala
memorias
memories
men
mena
menachem
menahem
menashe
mencio
mendel
mendelssohn
menderes
mendes
mendoza
mene
menes
menester
menesteres
menesterozo
menesterozos
meninx
meno
menonitas
menor
menora
menores
menorias
menoriya
menoriyas
menorka
menos
menouha
mensajes
mensio
mensiona
mensuala
mentada
mentadas
mentado
mentados
mentales
mentalidad
mente
mentira
menudo
meoyo
mer
merah
meral
mercado
merced
mercedes
mercure
mercurio
merendo
meresimyento
mergeargs
merida
meridiano
meridional
meridionala
merindad
merindades
merito
merka
merkada
merkader
merkaderes
merkado
merkados
merkadurias
merkanseria
merkansia
merkantil
merkar
merkaron
merkato
merkatos
merkava
merkaz
merkel
merko
mero
meros
merrewe
mersenarios
mersi
mersin
mertens
mes
mesa
mesajeros
mesajes
mescidi
mesena
meseret
meses
meseta
meshiah
meshikano
meshiko
mesianiko
mesika
mesilat
mesina
meskita
meskitas
meskla
mesklado
mesklan
mesklando
mesklar
mesklaron
mesklas
mesklo
mesma
mesmamente
mesmas
mesmo
mesmos
mesoame
mesoamerika
mesoamerikana
mesoamerikanas
mesoamerikano
mesopotamia
message
messages
messaje
messas
mestizo
mestizos
mestrado
met
meta
metaargs
metaargskey
metad
metadatos
metade
metal
metales
metallica
metamorfosis
metapa
metatable
mete
meten
meteorolo
meteorolojiya
metepec
meter
meterla
method
methods
meti
metida
metido
metidos
metieron
metio
metlato
metodista
metodisto
metodo
metodolojiya
metodos
metro
metrobus
metropoli
metropolis
metropolitan
metropolitana
metropolitanas
metropolitano
metropolitanos
metros
mets
metz
metzger
metzitzim
metztitla
meuheret
mevaseret
mevo
mex
mexicali
mexicaltzingo
mexican
mexicana
mexicano
mexicanos
mexicas
mexico
mexihco
mexihtli
mexiko
mexiquense
mez
meza
meze
mezes
mezez
mezkita
mezkitas
mezkla
mezklado
mezma
mezmo
mezquita
mezquital
mezuza
mezuzot
mg
mga
mgrdichian
mhp
mi
mia
miami
mica
michae
michael
michaelis
michel
michelangelo
michelle
michigan
michiliadurango
michmai
michoaca
mico
micos
micro
microformat
microformats
microsoft
microwave
mid
middle
mide
mideast
mides
midi
midia
midiendo
midio
midios
midrash
midrasha
midten
mie
miedo
miel
miembro
miembros
mientes
miento
mientras
mientres
mierkoles
migdal
might
migrantes
migraron
migrasion
migrasiones
migratorias
miguel
mijor
mijores
mika
mikamente
mikas
mike
mikelon
mikhail
miko
mikos
mikro
mikrobiolojiya
mikronesia
mikroskopio
miksta
mikve
mil
mila
milagro
milan
milano
mile
milenaria
milenio
milenios
milenyo
miles
mileva
milho
mili
milim
miliones
militar
militares
military
milizina
milizinas
mill
milla
millennium
miller
million
millionen
millones
milpa
milpas
milton
milwaukee
milyardos
milyas
milyon
milyones
mimar
mimicking
mimouna
mimuna
min
mina
minar
minare
minaretes
minas
mind
mindanao
mine
mineo
minera
mineral
minerales
mineras
mineria
mineros
minh
minha
minhag
minhagim
mini
miniatura
miniaturadeimagen
minima
minimalizmo
ministe
minister
ministerio
ministerios
ministra
ministro
ministros
minneapolis
minor
minora
minores
minoria
minoritaria
minoritarias
minorities
minoriya
minoriyas
minsk
mintirozo
minu
minute
minutes
minutos
minya
minyan
mio
miquel
mir
mira
mirabilis
miracle
mirad
mirada
mirador
mirados
miraflores
mirakolo
miran
miranda
mirando
mirar
mirava
mirbeau
miri
miriam
mis
mischlinge
mishelson
mishkan
mishkita
mishkitas
mishlei
mishna
mishne
mishpaha
mishpat
misiles
misio
misioneros
misiones
misisipi
misiyon
misma
mismamente
mismas
mismo
mismos
miss
missing
mission
mississippi
missouri
mistika
mistiko
mistisismo
mistura
misturada
misturadas
misturado
misturados
misturan
misyo
misyon
mit
mita
mitad
mitchell
mites
mitika
mito
mitolojikas
mitolojikos
mitolojiya
mitolojiyas
mitos
mitrani
mitsubishi
mitsva
mitsvot
mitzva
mitzvot
mix
mixing
mixquiahuala
mixteka
mixteko
miyones
mizma
mizmo
mizmos
mizo
mizrah
mizrahi
mizrahim
mizrahis
mizraji
mizura
mk
ml
mlt
mm
mn
mnc
mo
moab
moayar
moc
mochila
mochis
moctezuma
mod
moda
modas
mode
model
modelado
modelar
modeles
modello
modelo
modelos
models
modena
moderado
modern
moderna
modernas
modernidad
modernisar
modernitad
moderno
modernos
modesto
modi
modification
modified
modify
modim
modis
modo
modos
modre
module
modules
mofaz
mogador
mogol
moguer
mohamed
mohammad
mohammed
mohandas
mohinora
mohsen
moi
moignages
moines
moise
moises
moko
mokpo
moldava
moldavia
moldova
mole
molecular
moledet
molekular
molekulares
molesta
molie
molina
molinas
moll
moloni
momax
moment
momento
momentos
mon
mona
monako
monarka
monarkia
monarkiya
monarkiyas
monarshia
monasterio
monasteryo
monastir
monclova
mondadori
monde
mondial
mondiala
mondialas
mondiales
mondialmente
mondialos
mondo
moneda
monedas
monet
monetaria
mongolez
mongolia
moni
monitor
monjas
monjes
mono
monografi
monolingual
monolingualtext
monolitika
monolog
monopolio
monopolios
monotei
monoteistas
monoteizmo
mons
monsoro
mont
monta
montage
montan
montana
montaner
montanya
montanyas
montanyosa
montanyosas
monte
montebello
montejo
montemayor
montenegrina
montenegro
monterey
monterrey
montes
montevideo
month
monthandyear
monthly
monthmsg
monti
montjui
montpellier
montreal
montserrat
montsoreau
montt
monument
monumental
monumento
monumentos
monuments
moon
moore
moquegua
mor
mora
morada
moradas
morado
moradores
moral
morales
moran
morando
morantes
morar
moraron
morava
moravan
moravano
moravia
moraza
morbihan
morddeich
mordechai
mordehai
more
morelia
morelos
moreno
moreshet
mori
morian
morir
morisko
moritz
morley
mormo
mormones
mormonismo
morning
moro
moroccan
morocco
moros
morris
morrison
morte
morto
morton
mortos
mos
mosambiko
moscona
moscow
moses
moshe
moshik
moshonov
mosku
moskva
mosque
mossad
most
mostra
mostrado
mostrar
mostrara
mostrava
mosul
mota
mother
motion
motivo
motivos
moto
motor
motores
motril
motul
motya
moulay
mount
mountain
mountains
mouton
move
movement
mover
moves
movi
movie
movimento
movimentos
movimiento
movimientos
movimyento
movimyentos
moyal
moynihan
mozart
mozes
mozilla
mozotras
mozotros
mp
mpico
mpl
mpm
mpo
mqi
mr
ms
msg
msgkey
mshared
msnbc
msnm
mt
mtk
mtm
mu
muammar
muay
mucha
muchas
muchigua
muchiguada
muchiguado
muchiguamiento
muchiguamieto
muchiguan
muchiguando
muchiguar
muchiguaron
muchiguo
mucho
muchos
mudaron
mudarse
mudejar
mudir
mudo
mue
muera
muere
muerta
muertas
muerte
muertes
muerto
muertos
muestra
muestran
muestras
muestro
muestros
mueva
muevamente
muevas
mueve
mueven
mueveno
muevo
muevos
muez
muezes
muhamad
muhammad
muhammed
muhr
mui
muisca
muiscas
mujer
mujeres
mulege
mulido
mulo
multi
multietniko
multikulturalo
multilingual
multilinguala
multimedia
multiple
multiplikada
multiplikativos
mumbai
mun
muna
munc
muncha
munchas
muncho
munchos
mundial
mundiala
mundialas
mundiales
mundo
mundos
munich
municipal
municipales
municipalidad
municipality
municipio
municipios
munih
munisipal
munisipala
munisipalidad
munisipalidades
munisipalitad
munisipio
munisipios
munn
munsha
munshas
munsho
munshos
munsipio
munt
muntaner
muntanya
muntanyas
muntanyosa
muntanyosas
muntanyoza
mur
mural
murales
muralistos
murat
muraya
murayas
murieron
murio
murir
muro
muros
murray
mursia
mursyegalo
muryo
musa
musaf
musafir
musafires
musar
muscular
muse
museo
museos
museum
musevi
music
musica
musical
musicians
musicorama
musika
musikal
musikala
musikalas
musikales
musikalo
musikalos
musiko
musikos
muslim
muslumano
muslumanos
mussolini
must
mustafa
mustafina
musulman
musulmana
musulmanas
musulmanes
musulmano
musulmanos
muvamente
muy
muyil
muyongo
muze
muzeo
muzeos
muzeyo
muzeyos
muzika
muzikal
muzikala
muzikalas
muzikales
muzikos
mvertos
mw
mwl
mx
my
myanmar
mye
myel
myembro
myembros
myentras
myjewishlearning
myles
myriam
myrtillocactus
myspace
myth
mzn
n
na
nabhani
nablus
nac
nacaome
nace
nacen
nach
nacido
nacio
nacional
nacionales
naciones
nada
nadar
nadia
nadie
nador
nadvorna
naftali
nagano
nagila
nagorno
nagoya
nagy
nah
nahal
nahichevan
nahma
nahman
nahuas
nahuatl
nahum
nai
naim
naire
nairobi
nakash
nam
name
named
names
namespace
namespaces
namibia
nan
nang
nanjing
nanking
nanning
nantes
nao
naomi
naor
napoleon
napoles
napoli
nar
nariman
narin
narita
nariz
narkis
nas
nasa
nasce
nase
nasen
naser
nashim
nashville
nasi
nasia
nasida
nasidas
nasido
nasidos
nasiente
nasieron
nasimiento
nasimye
nasimyento
nasio
nasion
nasional
nasionala
nasionalas
nasionales
nasionalidad
nasionalismo
nasionalista
nasionalistas
nasionalita
nasionalizmo
nasionalo
nasionalos
nasiones
nasiyon
nasreen
nasrettin
nasyo
nasyon
nasyonal
nasyonala
nasyonales
nasyonalista
nasyonalizmo
nasyonalo
nasyonalos
nasyones
nat
natal
natalidad
natan
natasion
nathan
nation
national
nationale
nations
nativa
nativas
native
nativo
nativos
natura
natural
naturala
naturalas
naturales
naturaleza
naturalismo
naturalmente
naturalo
nature
naturesa
natzrat
natzratim
naucalpan
nauru
nava
navaja
navajo
naval
navala
navarra
navarro
navbar
navbararg
navbarstyle
navbox
navboxes
nave
navegador
navegadores
navegando
navegante
navegantes
navegasion
naves
navi
navidad
navigational
navios
navis
navon
nayarit
nayla
nazarenos
nazaret
nazari
nazi
nazionalo
nazis
nazismo
nazista
nazisto
nazistos
nb
nbc
ncatl
ncavo
nchez
ncia
ncipe
ncis
nd
nda
ndar
ndataset
ndates
nde
nder
ndes
ndez
ndice
ndiro
ndo
ndole
ndolo
ndor
ndose
nds
ne
nea
near
neas
necaxa
necesario
necessary
nechesitado
necuno
ned
nederland
need
needed
needs
neerlandesa
neerlandesas
neerlandez
neerlandeza
neerlandezos
neft
negar
negasion
negasionizmo
negativa
negative
negativo
negev
negosiante
negosiar
negosiasiones
negosiasyon
negosio
negosios
negosyos
negozios
negra
negro
negros
nehelachim
nehemia
nehru
nei
neighbor
neil
neither
nektar
nel
nelja
nell
nelly
nelson
nelsoni
nen
nena
neo
neoklasiko
neoli
neolitiko
neolog
neos
nepal
ner
neri
nero
neron
nervoza
nes
nesechita
nesesario
nesesarios
nesesidad
nesesidades
nesesita
nesesitan
neshama
nesis
net
neta
netanya
netanyahu
netflix
neto
network
neue
neuque
neutrala
neva
nevada
nevado
neve
never
nevi
neviim
nevika
nevis
nevtrones
nevua
new
newline
news
newsletter
newspaper
newsweek
newton
next
nextlalpan
nez
nezahualco
nfalco
ng
ngel
ngeles
ngora
ngpu
ngranada
ngu
ngua
nguez
ngzi
nh
nha
nhat
nhut
ni
nia
niagara
nic
nica
nicaragua
nicas
nice
nicholas
nicht
nick
nickname
nico
nicola
nicolas
nicole
nicoleta
nicos
nides
nidjei
nido
nidos
nie
niegan
niemeyer
nieto
nieve
nifus
nig
niger
night
nigsberg
niigata
nijer
nijeria
nika
nikamente
nikaragua
nikas
nike
niki
nikkudot
niko
nikola
nikolas
nikopol
nikos
nikosiya
nikudot
nil
nilargs
nilargskey
nili
nilo
nima
nimo
nimos
nimrod
nin
nina
ningu
ninguna
ninguno
ninya
ninyas
ninyo
ninyos
nio
nippon
nir
nis
nisa
nisan
nisim
nissan
nissim
niue
nivel
niveles
nivelo
nivelos
niversitesi
nix
nixon
niza
niznik
nja
njeles
njig
njihov
nkrumah
nl
nm
nms
nn
nnes
nnnnnn
no
noa
noah
nobel
noble
nobles
noblesa
nobleza
noc
nocat
nochada
nochadas
noche
nochera
noches
nod
node
nodo
nodyn
noe
noel
noemi
nof
nogal
nogales
nogueira
noi
noicon
noinclude
noire
nolad
nom
noma
nomadas
nombra
nombrada
nombradia
nombrado
nombrados
nombramiento
nombran
nombrar
nombraron
nombre
nombreeditor
nombres
nombro
nome
nominada
nominado
nominal
nominalmente
nominasiyones
nominativo
nomo
nomos
nomvre
non
nona
none
nono
nonoo
nonos
nootka
nopales
nopaltepec
nor
nord
nordeste
nordoeste
noreste
norfolk
norma
normal
normales
normalizedate
normally
normalmente
normas
normativa
normes
norodom
noroeste
norte
norteamerika
norteamerikana
norteamerikano
nortenya
north
northern
northwest
noruega
norvegia
norvejia
nos
noshan
nosotros
not
nota
notable
notables
notar
notas
notasion
notation
note
notes
nothing
notice
notices
noticia
noticias
notification
notifications
notisias
notoc
notre
nottingham
nou
nouvelle
nov
nova
novalue
nove
novedad
novel
novela
novelas
novelista
november
novembre
novembro
noventa
novesientas
novesientos
novi
novia
noviembre
noviembro
noviemvre
novle
novles
novo
novos
novosibirsk
novyembre
now
nowak
nowrap
npr
nrg
ns
nsal
nsan
nscategory
nser
nsia
nsito
nsola
nsula
nsw
nte
ntes
ntesis
nti
ntico
ntida
ntika
ntiko
ntion
nto
ntos
ntre
ntres
ntro
nu
nuakchott
nuboso
nuclear
nuco
nuera
nuestra
nuestras
nuestros
nueva
nuevamente
nuevas
nueve
nuevena
nueveno
nuevo
nuevos
nuit
nuklear
nukleares
nukleo
nukleos
null
num
number
numbero
numberof
numberosos
numbers
nume
numeral
numerals
numeric
numero
numeros
numerosa
numerosas
numerosos
numerozas
numerozos
numparam
nun
nunavut
nunca
nunka
nupedia
nur
nuremberg
nusah
nutrision
nuuk
nuvelista
nv
ny
nya
nyas
nyevada
nyevadas
nyeve
nyi
nynorsk
nyo
nytimes
nyu
o
oakute
oasis
oaxaca
oaxtepec
obama
obispado
obispo
obispos
obituary
obj
object
objects
objektivo
objektivos
objekto
objektos
objetiva
objetivo
objetivos
objeto
objetos
oblast
obliga
obligado
obligando
obligasiones
obligatorio
obra
obrador
obras
obrego
obreros
observado
observador
observadores
observan
observance
observansia
observantes
observasion
observasiones
observations
observatorio
observatorios
observatory
observer
obsidiana
obsta
obstakolos
obstante
obtained
obtener
obtenida
obtien
obtiene
obtuvo
oc
oca
ocampo
ocasiones
occidental
occidente
occupation
oce
och
oche
ochen
ochena
ocheno
ochenta
ocho
ochobre
ochosientas
ochosientos
ochu
oclc
ocote
ocotepeque
ocoyoacac
oct
octave
october
octobre
octubre
ocuilan
od
odd
oddstyle
ode
oder
odessa
odia
odile
odio
odisea
odmar
odo
odontolojiya
odos
odra
odyssey
oeste
of
ofek
ofensiva
oferir
oferta
off
offensive
offer
offers
office
official
officier
offset
oficial
oficina
ofir
ofisial
ofisiala
ofisialas
ofisiales
ofisialmente
ofisialo
ofisialos
ofisina
ofisinas
ofisio
ofisios
ofisiyal
ofisiyalas
ofisyal
ofisyala
ofisyales
ofisyalmente
ofizial
ofizialmente
ofra
ofrenda
ofrese
ofresen
ofreser
ofresiendo
ofri
ofrio
oftalmolojiya
often
og
ogar
ogusto
oh
ohad
ohana
ohev
ohila
ohio
ohrid
ohs
oi
ois
oise
oj
oja
ojas
ojo
ojos
ok
okasion
okasiones
okasiyon
okazion
oklahoma
oksidental
oksidentala
oksidentalas
oksidentales
oksidentalos
oksidente
oksiente
oksitana
oksitano
okto
oktobre
oktubre
oktubro
okulta
okupa
okupada
okupadas
okupado
okupan
okupando
okupar
okupara
okuparon
okupasion
okupasiyon
okupasyon
okupava
okupo
okurre
okurren
okurrio
okuryo
ol
ola
olam
olanda
olandesa
olandez
olandeza
olandezas
olandezes
olas
old
oldu
ole
oleksa
oleksandr
oles
oli
olim
olimpiada
olimpicos
olimpika
olimpikas
olimpiko
olimpikos
olimpiyat
oliva
oliver
olivia
olivier
olivo
olivos
olmeca
olmeka
olmekos
olmert
oloko
olokosto
olp
olsen
olvidan
olvidar
olvido
olympia
olympic
olympics
om
oman
omar
ombeliko
ombox
ombre
ombres
omenaje
omer
ometepe
omitio
omits
omitted
omnibus
omniglot
omo
omonima
omonimo
oms
omsk
on
ona
once
onda
ondas
onde
ondulatorias
ondura
one
ones
ong
ongs
onkolojiya
online
only
onlysourced
onlysrc
onomastika
onor
onorada
onoradas
onorario
onores
onra
onrozo
ontario
ontaryo
onu
onze
onzenos
op
opc
opcional
opcionales
open
opens
opera
operada
operado
operados
operando
operar
operasion
operasiones
operasiyon
operation
operativos
operator
opinan
opinio
opinion
opiniones
oporto
oportunidad
oportunidades
oposision
oposisyon
oposizion
opozada
opozadas
opozado
opozados
opposition
opsion
optika
optimizasio
option
optional
optionally
options
opuntia
opuso
or
ora
orah
oral
orales
oralmente
oran
orange
oranges
oranje
orario
oras
orasion
orasiones
orbe
orbis
orbita
orchestra
orde
orden
ordenada
ordenado
ordenador
ordenadores
ordenados
ordenansas
ordenar
ordenes
ordeno
order
ordinal
ordinales
ordinario
ordsuffix
ore
oregon
oreko
oren
org
orga
organika
organisa
organisada
organisadas
organisado
organisados
organisar
organisasion
organisasiones
organisasiyon
organisasiyones
organisasyo
organisasyon
organisasyones
organisation
organisazion
organismo
organismos
organiso
organizacio
organizada
organizado
organizador
organizados
organizaron
organizasio
organizasion
organizasiones
organizasiyon
organizasyon
organization
organizo
organo
orgolyo
orgun
orhan
ori
orient
orientada
orientadas
oriental
orientala
orientalas
orientales
orientasio
orientasiyon
orientation
oriente
orifisios
orig
origargs
origen
original
originally
originalmente
origine
origins
orijen
orijenes
oriji
orijin
orijina
orijinal
orijinala
orijinalas
orijinales
orijinalmente
orijinalo
orijinalos
orijinan
orijinaria
orijinarias
orijinario
orijinarios
orijinaron
orijines
orijino
orilla
orineco
orinoco
oriya
oriyas
oriyental
oriyentala
oriyente
orizaba
orizabaverakruz
orkesta
orkestas
orkestra
orleans
orly
ormiga
ormigon
ornamental
ornato
oro
orografia
oromo
orot
orozco
ortako
orthodox
ortiz
ortodoksa
ortodoksas
ortodokses
ortodoksia
ortodokso
ortodoksos
ortodoxa
ortogra
ortografi
ortografia
ortografika
ortografiya
oruro
orville
oryental
oryentala
oryentalas
oryentales
oryentalos
oryente
os
osaka
osama
osario
osasuna
oscar
osd
ose
osea
oseania
oseaniya
oseano
oseanografi
oseanografiya
oseanos
osetia
oseyano
oshea
oshri
osiko
oskura
oskuro
oslo
osmanli
osmanlı
oso
osorio
osorno
ospital
ospitales
ostelera
osteleria
osteles
ostilidad
ostral
ostralia
ostraliana
ostraliano
ostralya
ostria
ostriako
ostro
ostwald
osvaldo
ot
ota
otan
ote
otel
oteles
other
others
otherwise
otho
oto
otobus
otobuses
otobusos
otomana
otomano
otomanos
otomi
otomis
otomobil
otomobiles
oton
otonoma
otonomas
otonomi
otonomia
otonomiko
otonomiya
otonomo
otonomoa
otonomos
otonyo
otopista
otopistas
otor
otora
otores
otorga
otorgado
otorgo
otoridad
otoridades
otorizasion
otos
otra
otras
otro
otrona
otronas
otronos
otros
otruna
otrunas
otrunos
ottawa
otto
ottoman
ottomana
ottomano
ottomanos
otumba
otzar
otzoloapan
otzolotepec
ou
oud
oufkir
our
ourense
ousts
out
outer
output
outputstr
outreach
outros
outside
ouzou
ov
ovadia
ovadya
ovda
ove
over
overall
overcomes
overlaps
overridden
override
overrides
overview
overwrite
overwritten
oviedo
ovjeto
ovligado
ovligados
ovligar
ovra
ovras
own
owner
oxford
oy
oya
oyendia
oyendiya
oyido
oyiya
oyo
oz
ozio
ozsoy
ozumba
p
pa
paa
pabello
pablo
pacheco
pachuca
pachycereus
paci
pacific
pad
padded
padding
padilla
padova
padre
padres
padro
paez
paezes
pag
paga
pagana
pagar
pagava
page
pageant
pageid
pagename
pages
pagina
pago
pai
painting
pairs
pais
paisaje
paises
paita
paitan
paiz
paizaje
paizajes
paizes
paj
paja
pajina
pajinas
pakistan
pakto
pala
palabra
palabras
palace
palacio
palacios
palafoxina
palasio
palasios
palatinado
palau
palavra
palavras
palazio
palensia
paleoindio
paleoli
paleontolojiya
palermo
palestina
palestinas
palestine
palestinian
palestiniana
palestinianas
palestiniano
palestinianos
palestino
palestinos
palizada
palma
palmahim
palmas
palmeras
palmyra
palo
paloma
palomeras
palos
palou
palpitan
pam
pambazo
pame
pampa
pampas
pamplona
pamukkale
pan
panaderos
panales
panama
panamericana
panamericano
panbasho
panbashos
pancasila
panda
pando
panes
panfleto
panhispa
panija
panim
panora
panorama
panoramika
panoramio
panske
panteo
panteras
pantev
panthers
panyo
panyos
paolo
papa
papalotla
papas
papel
papeles
papers
papiamento
papiyon
papo
paprika
paprikas
papu
papua
par
para
parada
paradas
parade
paradesi
paradigma
paradigmas
paradis
paradise
paraguana
paraguay
parai
parakaidistas
paralelamente
paralelo
paralimpikos
param
paramaribo
parameter
parameternames
parameters
parametro
parametros
paramilitar
paramorder
paramore
params
parana
parar
paras
paraset
parasha
parashat
parashot
parat
pardo
pare
pared
paredes
parent
parents
pares
parese
paresen
pareser
paresi
paresida
paresidas
paresido
paresidos
parfumes
pargs
pari
parido
parientes
parinacota
pario
paris
park
parke
parkes
parko
parkos
parks
parlamentaria
parlamentarias
parlamentario
parlamento
parlata
parliament
parm
parnasa
paro
parokia
paroko
parque
parra
parras
parrokia
parrokias
parrokos
parroquia
parroquias
parsed
parseinput
parselas
parseparam
parser
parserfunctions
parsialmente
parsim
part
partaja
partajada
partajado
partajamiento
partajamientos
partajan
partajar
partajo
parte
partement
partes
parti
participacio
participar
participo
particular
particularmente
partida
partidarios
partido
partidos
partikolar
partikolares
partikolas
partikular
partikulares
partikularmente
partio
partir
partisi
partisipa
partisipando
partisipantes
partisipar
partisiparon
partisipasion
partisipasiyon
partisipasyon
partisipio
partisipo
partisipyo
partito
partitos
partner
partners
parts
party
parve
parvenir
parvinieron
parvinyeron
pas
pasa
pasado
pasados
pasaje
pasajeiros
pasajeros
pasan
pasando
pasaporto
pasaportos
pasar
pasara
pasaron
pasas
pasava
pasavan
pascual
pase
pasejeros
pasensia
paseo
paseyo
pasha
pasharo
pasharos
pashav
pasi
pasifiko
pasion
pasivo
paskua
paso
pasos
pass
passed
passion
passive
past
pasta
paste
pasteles
pasto
pastor
pastores
pasuk
pat
pata
patadas
patagonia
patas
patata
patatas
patentes
patin
patria
patriarka
patriarkas
patricia
patrick
patrimonio
patro
patron
patrona
patronato
patrones
patronimiko
patrono
patta
pattern
patterns
patterson
pau
pauker
paul
paula
paulette
paulina
pauline
paulo
paulus
pavel
pavey
pavlo
pavo
pavor
pawnee
pay
payi
payis
payises
payiz
payizes
pays
paz
pazardicik
pazeo
pazo
pc
pcall
pd
pdf
pe
peace
pearce
pech
pecha
pechas
pechos
peck
pedazo
pedido
pedir
pedra
pedrer
pedreras
pedrida
pedriendo
pedrieron
pedrio
pedro
pegula
pekado
pekados
pekenya
pekenyas
pekin
peking
pela
pelea
peleadores
pelear
peleas
peles
peleyas
peli
pelican
peligro
pelivanura
pelle
pelo
pelota
peludo
pen
pena
penal
penang
penasco
penco
pendolino
pendulante
pendular
penguin
peni
peniche
peninsola
peninsula
penjamo
penkas
penko
penn
pennsylvania
penonome
penrith
pensada
pensado
pensador
pensadores
pensados
pensamiento
pensando
pensar
pensaron
penserios
pensi
pensilvania
pensinsola
pentateuk
pentateuko
pentekostalas
penya
penyon
people
peoples
peor
peppa
peppers
pequen
per
pera
perahia
peras
perder
perdida
perdidas
perdido
perdio
peregrinasio
peregrinasion
peregrinasyon
peregrinos
pereira
peres
peretz
perez
pereza
perezoso
perfect
perfekta
perfekto
perfil
perform
performance
pergamino
pergaminos
peri
pericu
periferico
periferika
periferiko
perifrasis
perigeo
perikolo
perikoloza
perils
perio
period
periodiko
periodikos
periodismo
periodistas
periodo
periodos
perkusion
perla
permanent
permanente
permanentes
permaneser
permanesian
permanesio
permeti
permetido
permetieron
permetio
permision
permiso
permite
permiten
permitido
permitiendo
permitio
permitir
pernambuco
pero
peros
perpetuas
perpinya
perpinyan
perro
perros
persa
persas
persegido
persegidos
perseguidos
persekusion
persekusiones
persekuzion
persia
persian
persige
persigidos
persiguiendo
persiko
person
persona
personaje
personajes
personal
personala
personalas
personales
personalidad
personalitad
personalitades
personalmente
personas
personaz
persons
personsas
perspective
perspektiva
persuasion
pertenensia
pertenese
pertenesen
perteneser
pertenesian
pertenesiente
pertenesientes
pertenesieron
pertenesio
perth
peru
peruana
peruanos
perugia
peryodo
perzonas
pes
pesada
pesah
pesar
pesaro
pese
peseta
peshes
peshka
peskisa
peso
pesqueri
pessoa
pest
pestan
pesukim
petah
pete
petei
peter
peters
petersburgo
petiha
petision
petra
petro
petroglifos
petroleo
petrolera
petrolero
petrolio
petrossian
petrovic
petrus
pez
pezunyas
pg
ph
phane
pharaoh
phatmanpi
phd
philadelphia
philanthropist
philip
philippe
philips
phillips
philosophy
phoenix
phong
photo
photos
php
phrase
phrases
physik
pi
pia
pianista
piano
piaui
pib
pic
picacho
picasso
picchu
pichincha
pichon
pichona
pichones
pick
pico
picture
pictures
pid
pidal
pidamente
pide
pidiendo
pidio
pido
pie
piedra
piedras
piedre
piedren
piel
pieles
piensa
piensan
pierde
piernas
piero
pierre
pierwsza
pies
piesa
piesas
pieza
piezas
pig
pigmeo
pigmeos
pikada
pikantika
pikiwiki
piko
pikos
piku
pila
pilar
pilares
pilgrimage
pilota
piloto
pilotos
pimentel
pimientos
piminton
pimintoniko
pin
pina
pinar
pinares
pinchas
pine
ping
pinhas
pinheiro
pino
pinos
pins
pinsker
pintadas
pintado
pintador
pintadora
pintadores
pintar
pintava
pinto
pintor
pintora
pintores
pintura
pinturas
pinula
pinya
pinyata
pinyin
pio
pioneers
pionera
pionero
pioneros
pios
pip
pipe
pira
piratas
pirineos
piro
piron
pirot
pirro
pis
pisa
pishi
pishin
pishka
pishkadera
pishkado
pishkadores
pishkados
pishkisas
pisho
piskisa
piso
pisos
pissarro
pista
pistas
pita
pital
pitiusas
pitkairn
pittsburgh
piura
pius
piyutim
piyyut
piyyutim
pizmonim
pizza
pkk
pko
pks
pl
pla
place
placed
placeholder
places
pladja
plaga
plain
plaint
plaj
plajas
plajes
plaka
plakas
plan
planada
planadas
planeada
planeados
planes
planet
planeta
planetas
planificacio
planifikada
planifikado
planifikados
planifikasiyon
planning
plano
planos
plant
planta
plantas
plantasiones
plantea
planti
plantilla
plantillas
plantilles
plasa
plasas
plasensia
plaso
plastikas
plastiko
plastikos
plata
plataforma
plateau
platform
platino
platinum
plato
platon
platos
play
playa
playas
player
players
plays
plaza
plazas
plazer
plazi
plazo
pleasant
please
pleaseadd
plenamente
pleven
pli
plinio
plionarctos
pliskova
ploies
plomo
plot
plotarea
plotdata
plovadiv
plovdiv
plumas
plumbas
plume
pluperfekto
plural
pluralo
plus
pm
pnb
png
pntype
po
poblacio
poblaciones
poblada
poblado
pobladores
poblasio
poblasion
poblasiones
poblasiyo
poblasyon
pobre
pobreza
poca
pocahontas
poco
pode
podemos
poden
poder
poderes
poderosa
poderoso
poderosos
podgorica
podi
podia
podian
podre
podri
podria
podriya
poe
poema
poemas
poesi
poesia
poesiya
poesya
poeta
poetas
poezia
poezias
poeziya
poeziyas
poezyias
pogrom
pogromos
poinkare
point
pointe
points
poka
pokas
poker
poko
pokos
pol
pola
polaco
polaka
polako
polakos
polanco
poland
polandball
polanski
polar
polares
pole
polemika
polen
polga
poli
police
polici
policy
polikromi
polimeros
polinesia
polinesias
polis
polisario
polises
polisia
polisiya
politei
politica
political
politico
politics
politika
politikamente
politikas
politiko
politikos
politkovskaya
polizia
polo
polonez
poloneza
polonezos
polonia
polos
polotitla
polovica
polovina
polrec
polska
poltikos
polymer
pombal
pomerania
pompeu
ponce
pone
poner
ponerse
poniente
ponor
pons
ponte
pontes
pontevedra
pontifi
ponto
pontos
pontus
pool
pop
popaya
popocatepetl
popular
populares
popularidad
popularita
popularmente
populasion
population
por
porcentaje
porfiriato
porfirio
porke
porko
porkos
porque
porqueres
porsentaje
port
porta
portaboz
portada
portal
portales
portas
porter
portion
portland
porto
portokal
portokales
portos
portrait
portugal
portuges
portugez
portugeza
portugezas
portugezes
portugezo
portugezos
portugue
portuguesa
portuguese
portuguez
portugueza
pos
posadas
posee
poseen
posei
posek
posesio
posesiones
posesivos
posesyones
poseye
posibilidad
posibilidades
posibilitad
posible
posiblemente
posision
posisyon
position
positiva
positive
posivel
posivle
posivlemente
posizion
posiziones
poskim
possible
post
posta
postal
poste
poster
posterior
posteriores
posteriormente
posters
postfix
postgrado
posto
postos
postulados
postura
pot
potensia
potensial
potensias
potenza
potosi
potrerillos
pou
pound
pour
pov
povlacio
povlada
povladas
povlado
povladores
povlados
povlaron
povlasio
povlasion
povlasiones
povlasiyo
povlasiyon
povlasyo
povlasyon
power
powerful
powers
poyo
poyos
pozision
pozisiyo
pozo
pozos
pp
ppe
ppp
pr
pra
practican
practice
practices
prada
pradesh
praemium
praga
prague
praha
prairie
praises
praktika
praktikada
praktikadas
praktikado
praktikados
praktikamente
praktikando
praktikante
praktikantes
praktikar
praktikas
pramila
prat
pravoslavie
pray
pre
prec
precision
precisions
precla
precolombina
predefinic
predesir
prediksion
predloga
predloz
predominante
predominio
prefecto
prefektura
prefekturas
preferensia
preferred
prefirieron
prefix
pregunta
preguntas
prehispa
prehistoric
preispa
preistoria
preistoriko
preistorikos
preistorya
prekolombina
prekolombinas
prekolombino
prekolombinos
prekursora
preliminar
premie
premier
premio
premios
prenda
prende
prens
prensa
prensipal
prensipala
prensipales
prensipalmente
prenunsiada
prenyada
preparasion
prepared
prependifmissing
preposisiones
preprocess
pres
presa
presbiterianos
presencia
presensia
presensya
present
presenta
presentacio
presentadora
presentan
presentasiyon
presente
presentes
presento
presents
preseptos
preservar
preservasiyon
preserve
presiado
preside
presidencia
presidensia
presidensial
presidensiala
presidensialas
presidensiales
president
presidenta
presidente
presidentes
presidential
presidido
presio
presion
presios
presioza
presisa
presisamente
presisan
presiso
press
presse
presta
prestados
prestan
prestando
prestar
prestijio
prestijioza
prestijiozos
presto
prestor
prestores
prestos
presupuestos
presyados
preta
pretas
pretende
pretitle
preto
pretoria
pretos
prevalesio
prevenir
preview
previsto
preyistoriko
preyistorya
prezensya
prezente
prezento
prezidensia
prezidenta
prezidente
prezidentes
prezion
prezo
prezos
pri
prieta
prima
primaria
primarias
primaryo
primas
primavera
primaverala
prime
primeira
primer
primera
primeramente
primeras
primero
primeros
primitiva
primitivo
primitivos
primo
primos
prince
princeton
princhipe
princhipesa
princhipiko
princip
principado
principal
principales
principalmente
principio
principios
prins
prinsengracht
prinsep
prinseps
prinsipado
prinsipal
prinsipala
prinsipalas
prinsipalemente
prinsipales
prinsipalmente
prinsipalo
prinsipalos
prinsipar
prinsipe
prinsipiar
prinsipio
prinsipios
prinspio
print
printerror
printtable
prinzipe
prio
prisca
prismas
pritzker
privada
privadas
privado
privados
private
prix
prize
prizio
prizion
prizionero
priziones
pro
probabilidad
probablemente
probar
problem
problema
problemas
problems
proceed
proceedings
proceso
process
processed
processing
procopio
prodjekto
prodjektos
produce
produced
produces
product
production
produjeron
produjo
produksio
produksion
produksiyon
produksyon
produkto
produktor
produktora
produktoras
produktores
produktos
produse
produsen
produsida
produsido
produsiendo
produsir
produze
produzen
produzida
produzido
produzidos
produziendo
produzir
prof
profano
profesio
profesion
profesional
profesionala
profesionales
profesor
profesora
profesores
profeta
profetas
profil
profile
profisional
profisionala
profisionalos
profisyonales
profitar
profonda
profundidad
profundo
program
programa
programas
programasio
programasion
programasiyon
progresar
progresista
progresivo
progreso
progress
progressive
proibidos
project
projects
projekto
projeto
proklamado
proksima
proksimas
proksimo
proksimos
prokuktos
prokura
prokurar
proljec
promedio
prometida
prometieron
promontorio
promosion
promosiona
promosiyon
promover
promoviendo
promueve
pronombre
pronombres
prononciation
pronta
pronto
pronunsia
pronunsiada
pronunsiado
pronunsiasion
pronunsiasiyon
prop
propaganda
proper
properly
properties
property
propertyid
propertyname
propertyvals
propertyvalueandquals
propia
propiamente
propias
propiedad
propiedades
propieta
propietaria
propietario
propio
propios
propo
propone
proponi
proporciona
proporcionan
proporsion
proporsiona
proporsional
proporsionava
proporsiones
propoza
propozada
propozado
propozados
propozo
propria
proprieta
props
propuesta
propuestas
propuesto
propuso
propval
propvalue
propyeta
prosa
prose
prosede
proseden
prosedente
prosedentes
proseder
prosesal
proseso
prosesos
prosezo
prospera
prosperaron
prosperidad
prosperity
protagonista
protectorado
protectorat
protegidas
protejer
protejida
protejidas
protejido
protejo
proteksio
proteksion
proteksiyon
protektor
protektorado
protest
protesta
protestante
protestantes
protestantismo
protestantizmo
protestaron
protestas
protestasion
protesto
protests
proto
protokolo
prova
provablemente
provas
prove
provenc
provence
provenientes
provensal
provensia
provensiya
provensiyas
provenzal
proves
provesa
provide
provided
providence
provides
proviene
provienen
province
provincia
provincial
provinsia
provinsias
provinsiya
provisia
provisional
provokar
provoko
proyecto
proyekto
proyektos
prozeso
pruebas
prunus
prusia
prusiana
prusiano
prva
ps
psicodrama
psicoterapia
psike
psikolojiya
psoe
psychology
pt
ptolomeo
ptv
pu
pub
public
publica
publicacio
publicado
publication
publications
publico
publika
publikada
publikadas
publikado
publikados
publikamente
publikar
publikaron
publikas
publikasion
publikasiones
publikasiyon
publiko
publikos
publique
published
publishers
publishing
pubmed
puc
pudieran
pudieron
pudo
pudong
pudor
puebla
pueblo
pueblos
pueda
puedan
puede
puededor
puededora
puededoras
puededores
puedemos
pueden
pueder
puederes
puederia
puederoza
puederozas
puederozo
puedes
puedi
puedia
puedian
puediyan
puedo
puente
puerko
puerkos
puerpo
puerpos
puerta
puertas
puerto
puertos
puertoyano
pues
puesto
puestos
puevlo
puevlos
puig
pujada
pujaron
pujo
pukas
pula
pulgadas
pulido
pulitzer
pulke
pulo
pulque
pulso
punctuation
pungarabato
punika
punikas
puniko
punikos
punjabi
puno
punta
puntarenas
puntas
punto
puntos
puntosmargarita
pur
pura
puras
pure
purepecha
purifikasiyon
purim
purisima
purke
puro
puros
purple
purpose
purua
puso
put
putin
putnam
puts
putumayo
puvlika
puvlikado
puvlikados
puvlikasiones
puvliko
pval
px
pxx
pxxx
pye
pyel
pyeles
pyeta
pynchas
pyre
q
qa
qadri
qaeda
qaida
qamar
qargs
qasim
qatar
qhipaq
qi
qid
qin
qing
qingdao
qlcode
qnnnnnnn
qnumber
qqualid
qscode
qstr
qu
quad
qual
qualid
qualification
qualifier
qualifierid
qualifiers
qualifies
qualitier
quals
quando
quang
quantique
quantities
quantity
quanto
quart
quarter
quartet
quarto
quba
quds
que
quebec
quebrada
quechua
quedas
queen
queens
queensland
quercus
quere
queretaro
quesada
quest
question
questions
quetzaltenango
quez
qug
qui
quiche
quick
quickly
quie
quien
quienes
quiere
quieres
quiero
quijote
quinientos
quintana
quinto
quito
quiz
quiza
quo
quotes
qutb
quy
qval
qvalue
r
ra
rab
raba
rabanut
rabat
rabbi
rabbinat
rabbis
rabe
rabenu
rabes
rabi
rabin
rabinato
rabinika
rabiniko
rabino
rabinos
rabinowitz
rabis
rabo
rabos
race
rachel
rachid
rachim
radar
radchenko
radiasion
radikal
radikales
radikalmente
radio
radiodifusion
radiofo
radiohead
radios
radja
radonski
radu
rae
rafael
rafah
rafi
rafik
ragusa
rahamim
rahav
rahel
rahim
rahoum
rai
raihi
rail
railway
railways
rain
rainer
rainforest
rais
raises
raisman
raisos
raiz
raizes
raizim
raizines
rajoy
rak
raketa
raki
rakia
rakı
ral
ralph
ram
rama
ramala
ramallah
ramas
ramat
ramba
rambam
ramban
ramchal
ramhal
rami
ramla
ramo
ramon
ramos
ran
rana
ranas
rancagua
rancherias
rancho
ranchos
range
rango
ranh
rank
rankbyindex
rankbysite
ranking
rankings
rankontro
ranks
raoul
rape
rapero
raphael
rapid
rapida
rapidamente
rapidez
rapido
rapist
raporto
raqqa
raquel
ras
rasa
rasas
rasd
rasgos
rashi
rashid
rasial
rasiales
rasizmo
raskasyelos
raskin
rason
rastro
rat
ratas
rathaus
rather
ration
rationale
ratzeburg
rau
rav
ray
raymond
raymundo
rayo
rayos
raza
razas
raziala
razo
razon
razonamiento
razonamyento
razones
rbara
rbita
rc
rca
rcd
rcega
rcito
rculo
rd
rdenas
rdoba
rdova
re
rea
reach
reached
reaches
read
readability
reader
reading
ready
reagan
reaksion
reaksiyon
reaksiyones
reaksyon
reaktores
real
reales
realidad
realisa
realisada
realisan
realisar
realita
realitad
reality
realiza
realizada
realizado
realizados
realizar
realizo
really
realmente
reas
reason
reasons
reb
rebbe
rebbi
rebecca
rebelde
rebelion
rebetiko
rebivir
receive
receives
recent
recep
recherche
recheta
rechetas
recibe
recife
recipe
recipient
recipients
reco
recommended
reconstruccio
record
recordings
records
recorrido
recursos
red
redaktor
rede
rededor
redes
redirect
redirects
redondo
reducido
redusido
redusidos
redusir
reeds
reem
reemplaza
rees
reese
ref
refaeli
reference
referenced
references
referencia
referencias
referendum
referensia
referensiada
referensias
referente
referentes
referi
referido
referirnos
referirse
refieran
refiere
refieren
refine
reflan
reflanes
reflections
reform
reforma
reformada
reformado
reformador
reformas
reformista
reformistas
reformistos
refparts
refranes
refrensyas
refua
refugee
refugiados
refugio
refujiados
refujidos
refujio
regadio
regalado
regalo
regalos
regexp
reggio
regina
regio
region
regional
regionala
regionales
regiones
register
registro
regla
reglahidalgo
reglas
regulan
regular
regulares
regularmente
regulasion
rehovot
rei
reich
reihel
reikiavik
reim
reina
reinach
reinado
reino
reinos
reis
reivindica
rejidores
rejim
rejima
rejimen
rejio
rejion
rejional
rejionala
rejionalas
rejionales
rejionalo
rejionalos
rejiones
rejistro
rejistros
rejto
rekerido
reklamar
reklamo
reko
rekodro
rekodros
rekoleksio
rekolektores
rekonkista
rekonose
rekonosen
rekonosensia
rekonoser
rekonosida
rekonosidas
rekonosido
rekonosidos
rekonosimiento
rekonosimye
rekonosimyento
rekonosimyentos
rekonosio
rekonosiyo
rekonoze
rekonstruksio
rekonstruyida
rekosensia
rektangular
rektoria
rekuerdos
rekuperado
rekuperar
rekurso
rekursos
relacio
relaciones
relasio
relasion
relasiona
relasionada
relasionadas
relasionado
relasionados
relasiones
relasiyon
relasyones
relatan
related
relations
relationship
relativa
relativamente
relatividad
relativos
relato
relatos
relevansia
relevante
reliable
relieve
relieves
religio
religion
religiones
religions
religioso
religiosos
religious
religioza
religiozo
relijio
relijion
relijiones
relijiosa
relijiosas
relijioso
relijiosos
relijioza
relijiozamente
relijiozas
relijiozo
relijiozos
relijozos
reljion
reloj
relojio
rem
remarkable
remedios
remember
remix
remonta
remontan
remota
remove
removeblanks
removed
remuevada
remuevado
remuevasiyon
ren
renania
renasiensia
renasimiento
renasimyento
renato
renaudot
renault
rendering
renders
rendersnak
rendimiento
rendir
rendirse
rene
renfe
rengrasia
rennes
renoir
renombrada
renombrado
renuncia
renunsia
renunsiava
renunsio
rep
repartidas
repartidos
reparto
repeat
repente
repertuar
repetitions
replace
replaceability
replaced
replacement
report
reportaje
reportar
reportariya
reporte
reported
reporter
reportera
reporting
reports
reposo
reposta
repozo
represa
represent
representa
representaban
representacio
representada
representadas
representan
representando
representante
representantes
representar
representasion
representativa
representativo
represento
represetado
reproduksiyon
reptiles
repu
republic
republica
republicano
republik
republika
republikas
repuesta
repuestas
reputasion
repuvlika
repuvlikano
repuvlikanos
repuvlikas
reqa
reqranks
request
requested
requests
requiere
require
required
requires
reriva
res
research
resebio
resen
reseptor
reserva
reservas
reserve
reservistas
resevio
resh
reshet
reshikas
resibe
resibieron
reside
residence
residencia
residensia
residensiales
residensya
residente
residentes
resiente
resientemente
resientes
resinto
resistansia
resistensia
resita
resitar
resive
resiven
resivida
resivido
resividos
resivieron
resivio
resivir
resivira
reskatar
reskate
resko
resnik
resolusion
resolusiyon
resolution
resolver
resolvi
resort
resource
respectivamente
respectively
respekta
respektada
respektivamente
respekto
responde
respondio
respondyo
responsa
responsabilidad
responsable
responsavle
responsible
resposta
respuesta
rest
resta
restable
restantes
restaurada
restaurado
restaurasion
resto
restorada
restoradas
restorado
restorante
restorantes
restorar
restorasion
restos
result
resulta
resultado
resultados
resulto
results
resumen
resuve
resyente
resyentemente
resyentes
ret
retirada
retiraron
retiro
reto
retomado
retorika
retorna
retorno
retrato
retrieve
retrieved
return
returned
returnedalias
returns
reunen
reunia
reunieron
reunio
reunion
reunir
reunirse
reushados
reushido
reushita
reushitar
reushito
reusho
reuters
reuven
rev
revela
revelan
revenge
revero
reverse
review
reviews
revillagigedo
revisio
revisiyonista
revista
revistas
revitalizasion
revival
revolta
revoltas
revolucio
revolucionario
revolusio
revolusion
revolusionaria
revolusionarias
revolusionario
revolusiyon
revolusyon
revolution
revoluzion
revue
revuelta
rey
reyeno
reyes
reyna
reynado
reyno
reynos
reynosa
rez
reza
rezensionen
rezife
rezos
rfa
rgb
rgiva
rhead
rho
rhodes
rhodesia
rhu
rhundre
rhymes
rhythmic
ri
ria
riadas
rial
riba
ribeira
ribeiro
ribera
riberas
rica
ricardo
riccos
richard
riches
rick
rico
rida
ridge
rido
ridoma
rie
riego
riel
rieles
riera
riesgo
rieure
rif
riforma
rifujiados
rifujio
riga
right
rights
rigor
rihtim
rika
rikamente
rikas
rikesa
rikeza
rikezas
riko
rikonosimye
rikos
rimbaud
rimes
rimon
rin
rinco
rindio
riner
rio
riohacha
rioja
rios
riq
riquelme
risaralda
rise
rises
rishon
rishonim
rising
rit
rita
ritage
rith
ritmika
ritmo
ritmos
rito
ritornar
ritorno
ritos
ritter
ritu
ritual
rituales
rivadavia
rival
rivales
rivas
river
rivera
riverside
riviera
rivieras
rivkin
riyad
riye
rj
rjenes
rk
rkc
rkiye
rm
rmika
rmino
rminos
rna
rno
rnos
ro
roa
road
robert
roberta
roberto
robin
robinson
roble
robles
robo
roc
roca
rochelle
rock
rockefeller
rocks
rod
rodas
rodea
rodeada
rodeado
rodean
rodeo
rodes
rodham
rodin
rodos
rodri
rodrigo
rodrigues
rodriguez
rodrik
roedores
roehrich
roger
roi
roja
rojas
rojda
rojo
rok
roka
rokas
roketa
roketas
rokiv
rokosas
rol
role
roles
roll
rolling
rom
roma
roman
romana
romanas
romance
romances
romanche
romania
romanika
romaniota
romaniotas
romano
romanos
romansa
romansas
romanse
romanses
romansos
romantiko
romantiotes
romanya
rome
romero
rommel
romo
romos
romper
rompiendo
rompieron
rompio
ron
ronald
ronda
rondas
rondo
ronit
rontzki
roo
roof
room
root
roots
rooz
ropa
ropas
roraima
ros
rosa
rosales
rosali
rosario
rosarito
rosas
rose
rosen
rosenbaum
rosenberg
rosh
rotation
roth
rothschild
rothstein
rotterdam
roubaix
rouen
round
rounded
roundto
route
routledge
rova
rovo
rovos
row
rownums
rows
roy
royal
roylindmaneltransitosynagogue
roz
roza
rozanes
rozas
rper
rpers
rprete
rquez
rra
rras
rrez
rriyet
rs
rsa
rsas
rse
rsito
rso
rsos
rst
rt
rta
rte
rtiko
rtil
rtir
rtnk
rto
rttemberg
rtve
ru
ruah
ruanda
rubel
rubio
rue
rueda
rufino
rui
ruido
ruinas
ruiz
rule
rules
ruli
rumana
rumania
rumano
rumanos
rumbo
rumores
rumorosa
rumurosa
run
runa
running
runs
runway
rup
rupestres
ruqaya
rural
rurala
ruralas
rurales
ruralo
rus
rusa
rusas
ruse
rusia
ruso
rusos
russa
russia
russian
russo
russos
rut
ruta
rutas
ruth
rutina
ruz
rva
ry
rya
ryal
ryanizade
ryas
ryke
ryo
ryu
rzano
rıfat
s
sa
saadi
saakashvili
saalfeld
saavedra
saba
sabach
sabadell
sabah
saban
sabana
sabanci
sabancı
sabba
sabbah
sabe
sabemos
saben
sabeo
saber
sabetay
sabi
sabido
sabiha
sabio
sabios
sablon
sabor
sabores
sabri
sacatepe
sacks
sacramento
sacred
sad
sadat
sadika
safa
safai
safak
safano
safdie
safe
safed
safra
saga
sagrada
sagradas
sagrado
sagrados
sah
sahara
saharaui
saharauis
sahel
sai
said
saigon
saint
saints
sajonia
sakar
sakramento
sakrifisio
sakrifisyo
sakro
saks
sakıp
sal
sala
salaam
salada
saladas
salado
salah
salai
salaino
salam
salama
salamanca
salamanka
salant
salazar
sale
saleh
salem
salgado
sali
salida
salidos
salieron
salih
salim
salina
salinas
salio
salir
salish
salitre
salitrosa
sally
salma
salman
salmo
salo
salom
salomon
salon
salonik
salonika
saloniki
salsa
salt
salta
saltamontes
saltillo
salto
salud
saludes
saludo
salvada
salvador
salvaje
salvajes
salvar
salvaron
salvasio
salvasion
salvasiyon
salvo
salyeron
salyo
salzburgo
sam
sama
samalayuca
samama
samara
samaria
samarkanda
same
sami
samir
samoa
sample
samsung
samuel
san
sana
sananes
sanar
sand
sandbox
sandia
sandino
sandler
sandoval
sandro
sands
sandwich
sanedad
sanexpedito
sang
sangre
sanitizedataset
sankore
sans
sanskrita
sanskrito
sansoni
sant
santa
santana
santander
santare
santas
santi
santiago
santidad
santifikado
santo
santos
santuario
santuarios
sanya
sanyo
sao
sapiens
sapo
saporta
sapos
sar
sara
saragosa
sarah
sarajevo
sarano
saratov
saray
sardenya
sardo
sarfatiko
sarika
sarit
sarkozy
sarna
sarona
sarquis
saserdote
sason
sassari
sassoon
satan
sate
satelit
satelite
satelits
satellite
satisfaser
sativus
satmar
saturday
sau
saudi
saudia
saudis
saudita
saul
save
saver
savi
savia
savian
saviduria
savio
saviyan
savor
sawitz
say
saya
sayas
says
sc
scale
scalemajor
scaleminor
scan
scandal
scandinavia
scarlatti
scene
schechter
scheiner
schema
schiff
schlesinger
schleswig
schmidt
schneider
scho
schohem
scholars
school
schottenstein
schrein
schrobsdorff
schubert
schudrich
schulich
schumann
schumpeter
schuster
schwartz
schwarz
schwarze
schwerin
science
sciences
scientific
scientology
sclavitude
scn
sco
scoop
scopus
scotland
scott
scranton
scribe
scribner
script
scrofa
scrolling
scula
sd
sde
sderot
sdf
se
sea
sean
search
seaside
season
seasons
seat
seattle
seba
sebahat
sebastia
sebastian
sec
seccio
seco
second
seconds
secretari
secretario
secretos
secrets
section
sections
secularism
secures
sed
seda
sedaka
sede
seder
sedes
sedesol
sedio
sedro
sedula
see
seeds
seen
sefarad
sefaradi
sefaradim
sefaradis
sefaradit
sefardi
sefardies
sefardim
sefardis
sefarditas
sefer
segal
segidores
segir
segle
seglo
segonda
segovia
segu
seguenta
seguidores
seguira
segun
segunda
segundo
segura
seguransa
seguridad
seguritad
seguro
seiklo
seinem
seis
seisen
sej
seje
seka
sekanias
sekas
seklo
seko
sekos
sekreta
sekretaria
sekretario
sekretas
sekreter
sekreto
sekretos
seksion
seksiones
seksiyon
seksiyones
sekso
seksta
seksuala
sektor
sektores
sekuensia
sekular
sekulares
sekularizmo
sekundaria
sekundarias
sekundos
sekurita
sekuritad
sel
selahaddin
selandia
selanik
selassie
selchukes
selebra
selebrado
selebrados
selebran
selebrar
selebrasion
selebrasiones
selebrasiyon
selebrasiyones
selebrasyon
selected
seleksionar
selena
selestes
self
selfridges
selig
selk
selma
selta
selular
selva
sema
semana
semanada
semanadas
semanal
semanario
semanas
sembol
sembols
sembrar
sembraron
semejantes
sementario
sementarios
sementerio
sementerios
sementeryo
semestre
semetika
semetikas
semi
semifinala
semifinalas
seminario
semiprezidensial
semis
semitas
semitika
semitikas
semitiko
semitikos
semiya
semiyas
semple
semples
semuc
sen
sena
senado
senador
senda
senegal
seneka
senior
seno
sensia
sensias
sensiolojiya
sensiyo
senso
sent
sentada
sentenario
senteno
sentido
sentifikas
sentifiko
sentimientos
sentir
sentrada
sentral
sentrala
sentralas
sentralo
sentro
sentroafrikana
sentroamerika
sentroamerikano
sentroamerikanos
sentros
senyor
senyora
seou
seoul
sep
separa
separacio
separada
separadas
separado
separados
separan
separar
separasion
separasiyon
separate
separated
separator
separo
sephardi
sephardic
sephardim
sephiha
september
septembre
septentrional
septiembre
septiembro
septimio
septimo
sepulkro
ser
sera
seramika
serbia
serbio
serbios
serbo
serca
serdyukova
sereal
sereales
seremonia
seremonias
serena
seres
serfaradis
serfaty
serge
sergio
sergipe
seri
seria
seriado
serie
series
serio
seriozo
seriya
serka
serkada
serkana
serkanas
serkani
serkania
serkano
serkanos
serkanyia
seroussi
serpyente
serpyentes
serra
serrada
serradas
serrado
serradura
serralada
serraladas
serrani
serrano
serrar
serro
serros
serta
sertamente
sertesa
sertifikado
sertifikasion
servia
service
servicio
servicios
servidas
servidores
servir
servis
servisio
servisios
servisyo
ses
sesamo
sesenta
sesh
seshena
sesheno
sesi
sesiones
sesler
sesyon
set
seta
sete
setenta
setesientas
setesientos
setiembre
setiembro
setimana
setmetatable
setranks
sets
settimana
settimanal
setting
settings
settlements
setyembre
seu
seuda
seudat
seudot
seul
seuta
sevada
seven
seventh
several
severin
severo
severos
sevi
sevilla
seviya
sevoya
sexo
sexual
sexuelle
seya
seyan
seychelles
seze
sf
sfenks
sfera
sfondo
sg
sh
sha
shaare
shabak
shabat
shabazi
shabbat
shabbatai
shabbazi
shabtai
shach
shah
shahar
shaharit
shaheen
shahrit
shahrizoda
shai
shaih
shaka
shakespeare
shakira
shakshuka
shalem
shalit
shalom
shalosh
shamash
shamir
shamma
shampeona
shampion
shampiona
shampionato
shampionatos
shampiyon
shampiyona
shampiyonato
shampiyonatos
shan
shanghai
shani
shans
shapira
shaprut
shara
sharabi
sharas
shared
sharfa
sharfo
sharfos
sharia
sharif
sharkidji
sharkidjis
sharon
sharyo
shas
shaul
shavei
shavit
shavon
shavuot
shayevich
shchensk
she
shearim
shearith
shef
shefa
shefas
shefe
shefes
shehrazad
sheih
sheikh
sheinbaum
sheka
shekalim
shekel
shekels
sheko
shel
shelomo
shem
shema
shemer
shemesh
shemot
shemuel
shenzhen
sher
shergil
sherman
sherry
sherut
shesh
sheshentas
sheshentos
sheva
shfela
shi
shift
shimon
shimoni
shin
shinjo
shinkansen
shino
shinto
shintoizmo
ship
shippewa
shir
shirat
shiraz
shiri
shirurjiya
shiva
shlomi
shlomo
shlonsky
shmona
shmone
shmuel
shmulik
shnat
sho
shoa
shoah
shochat
shofar
shofet
shoftim
shohat
shohet
shoko
sholom
shome
shomer
shomron
shona
shop
shore
shoresh
short
shortcut
shorter
shorthand
shortnameclaim
shortnameen
shoshana
shoshanat
should
show
showerrors
shown
shows
shtern
shtetl
shu
shuadit
shuk
shuku
shukur
shul
shulha
shulhan
shuva
shvedova
shvut
si
sibel
siber
siberia
siberiano
sibersitio
sic
sica
sicilia
sico
sicos
sid
sida
sidad
side
sidebar
sidi
sidney
sido
sidra
sidur
sidurim
sie
sieclo
siedra
sieklo
sieklos
siekolo
siekolos
sielo
siembra
siemens
siempre
sien
siendo
sienes
siensia
siensias
siente
sienti
sientifika
sientifikas
sientifiko
sientifikos
sientista
sientistas
sientistos
sientos
sierra
sierras
sierre
sierta
siertamente
sierto
siertos
siete
sietembre
sieten
sietena
sieteno
sifrei
sige
sigen
sigian
sigido
sigidores
sigidos
sigiendo
sigiente
sigientes
sigieron
sigindo
siginte
sigintes
sigio
sigir
sigiron
sigknifika
siglas
siglo
siglos
sign
signaturas
signed
significa
significance
significant
signifika
signifikado
signifikan
signifikando
signifikar
signifikativo
signifiko
signo
signos
sigonda
sigue
siguen
siguenya
siguenyas
siguiente
siguientes
siguintes
siguio
sigun
sigunda
sigundaryo
sigundo
sigura
siguro
sihanouk
sihizmo
siim
sika
sikas
sikelo
siklizmo
siklo
siklos
siknifika
siknifikado
siko
sikodrama
sikolojiya
sikos
sil
silberberg
silensio
silensioso
siles
silesia
silesiano
silicon
silistra
silk
silla
silva
silvan
silvano
silver
silverman
silvestre
silvestres
silwan
sima
siman
simantov
simas
simbo
simbol
simbolika
simboliko
simbolo
simbolos
simha
similar
similares
similarly
similitud
simiterio
simiteryo
simo
simon
simone
simpatisantes
simple
simplemente
simpler
simples
simplicity
simplifikado
simplifikados
simplifikar
simply
simpsonaustralia
simulasio
simultaneamente
sin
sina
sinagog
sinagoga
sinagogas
sinai
sinaloa
sinan
since
sindikato
sindikatos
sine
sinema
sinemateka
sinematografi
sines
sinetika
sinfonika
singapore
singapur
singer
singh
singing
single
singles
singuilucan
singular
singularidad
singularita
singularo
siniza
sinjar
sinke
sinken
sinkena
sinkeno
sinkenos
sinkentenaria
sinkiang
sinko
sinkuenta
sinkuente
sino
sint
sintieron
sintir
sinyal
sinyales
sinyatura
sinyaturado
sinyfika
sinyifica
sinyifika
sinyifikado
sinyifikados
sinyifikan
sinyifikar
sinyifikasion
sinyifiko
sinyo
sinyor
sinyora
sinyori
sinyorio
sinyos
sion
siona
sionida
sionista
sioux
siqueiros
sir
sirakusa
sirena
siri
siria
siriliko
sirio
sirios
sirka
sirkanas
sirkania
sirko
sirkulan
sirkulasiyon
sirve
sirven
sirvieron
sirvio
sisdjordania
sisilia
sisiliana
sisilias
sistem
sistema
sistemas
sistemo
sistems
sister
sit
sita
sitar
sitas
site
sitelink
sitelinks
sites
sitio
sitios
sitizena
sitizeno
sitizenos
sito
sitolojiya
sitrikas
situa
situacio
situada
situado
situados
situasio
situasion
situasyon
situation
siudad
siudades
sivan
sivda
sivdad
sivdada
sivdadania
sivdadaniya
sivdadano
sivdadanos
sivdades
sivdadinos
sividad
sivil
siviles
sivilizasion
sivilizasiones
sivilizasyon
six
sixto
siya
siynifika
size
sj
sjabloon
sk
skalas
ski
skip
skola
skolas
skopia
skopje
skosia
sku
skultura
sky
skyline
skyteam
sl
slalom
slam
sland
slang
slava
slavic
slavos
sledky
slideshow
slim
sloan
slogan
sloka
slovak
sm
smadar
small
smaller
smallest
smallimage
smallimageright
smalltext
smara
sme
smirna
smith
smo
smyrna
sn
snak
snake
snaks
snaktype
sncf
snow
snowy
snuker
so
soacha
soares
soberana
soberania
soberaniya
soberano
sobre
sobrenatural
sobretudo
sobrevivid
sobro
soccer
social
sociales
socialist
socie
sociedad
societies
society
soconusco
socorro
socrates
sodra
soerjosoemarno
sofer
sofi
sofia
sofiya
sofo
software
sofya
sogamoso
sohnut
soir
sokotora
soktones
sol
sola
solamente
solar
solares
solaris
soldado
soldados
soldatova
soledad
soleura
soli
solid
solida
solidaridad
solika
solisito
solista
solitreo
solitreothe
solo
solola
solomon
solu
solusion
solusiones
solusiyon
solusyon
solution
soma
somalia
somaliya
sombra
sombrero
some
something
sometida
sometidas
sometido
sometidos
sometieron
sometimes
somevalue
sommer
sommerfeld
somos
somosierra
son
sona
sonas
sonata
sonatas
sonete
sonetes
song
songhai
songs
songwriter
sonia
sonido
sonidos
sonnenfeld
sonora
sons
sonsonate
sont
sonuc
sopa
sophia
sophie
soportan
soportar
soporte
soprano
sor
sorello
soria
sorprendentes
sorpresa
sort
sorted
sortindices
sorting
sorts
sos
sosial
sosiales
sosialismo
sosialista
sosialistas
sosializmo
sosiedad
sosiedades
sosiolojiya
sospechas
sosyal
sosyala
sosyalas
sosyales
sosyalismo
sosyalista
sosyalistas
sosyeta
sosyete
sosyetes
sosyolojika
sosyometriya
sotavento
soto
souffre
sougia
souk
soule
soumaya
sound
soundtrack
source
sourced
sources
south
southern
souvenirs
souza
soverano
soviet
sovietika
sovietiko
sovre
sovresale
sovye
sovyet
sovyetika
sovyetikas
sovyetiko
sovyetikos
sox
soy
soyaniquilpan
soyuz
sp
space
spacecom
spaces
spain
spal
span
spanish
sparingly
sparrow
sparseconcat
speak
speaks
special
species
specific
specifically
specified
specifies
specify
specifying
speeches
speed
speeding
speg
sperber
spf
spiegel
spielberg
spies
spike
spinifex
spinoza
spirito
split
spoken
spor
sport
sporting
sports
spot
spouse
spread
spring
springer
sq
square
sr
sri
srpska
ss
sseldorf
ssers
ssr
st
sta
stacked
stadio
stadion
stadt
stadyum
staff
stage
stalin
stalinist
stamati
stamboul
stambouli
stamo
stamp
stampa
stanbul
stanbulu
standalone
standard
standardization
stands
stanford
stanisław
stanley
star
stara
stare
stark
stars
start
starting
starts
stas
state
stated
statement
statements
states
station
statistical
statistics
statistika
statistikas
stats
status
stavanger
stay
ste
stefa
stefani
stella
stelter
step
stepanakert
stephen
stern
steve
steven
stewart
stica
sticas
stico
sticos
stika
stikas
stiko
stikos
still
sto
stock
stockholm
stokolmo
stol
stola
stoleti
stone
stop
store
stored
storia
storie
stories
storm
storoc
story
storya
stos
str
stra
strasburgo
strauss
street
streets
streisand
string
strings
stringutils
stripes
striping
stripped
strout
struggle
struktura
sts
student
studi
studies
studio
study
stunned
stuttgart
stuvyera
style
styles
su
sua
suave
suaves
suazilandia
sub
subfamilia
subgroup
subgroups
subheadings
subida
subir
subject
subjeto
subjontivo
subkontinente
subliminal
submittite
subpa
subpage
subsahariana
subsp
subst
substantially
substantivos
subte
subterra
subterraneo
suburbano
succeded
success
successful
successfully
such
suchiate
suckow
sucre
sud
sudafrika
sudamerika
sudamerikana
sudamerikanas
sudan
sudeste
suditansa
suditansas
sudoeste
sudoksidente
sueka
sueko
suekos
suele
suelen
suelo
suen
suerte
suertes
sues
suesia
suez
suf
sufetes
suffer
suffice
suffix
sufijo
sufikso
sufiksos
sufisiente
sufisientes
sufrimiento
sufrimye
sufrio
sufrir
sufriyeron
suhair
suheir
suisa
suiso
suisos
suiza
sujeto
sujetos
suka
sukkot
suko
sukre
suksedio
suksesiyon
sukseso
suksesor
sul
sula
suleika
suleiman
sulla
sullivan
sulta
sultan
sultepec
sum
suma
suman
suministro
summary
summer
summit
sumo
sun
sundaram
sunday
sundberg
sunset
sup
supe
super
superado
superando
superar
superficie
superfisia
superfisie
superfisye
superior
superiora
superiores
superkontinente
supermodel
supervisiyon
supervivientes
superyor
supito
suplemento
supo
supone
suporta
suportar
suporte
supplices
supplied
supply
supplying
support
supported
supports
suppress
suppressed
suppresses
suppressfields
suppression
suprema
supremo
supt
supuesta
supuestamente
supuesto
supuso
sur
sure
sureste
surfing
suria
surinam
surios
surje
surjen
surjido
surjieron
surjimiento
surjio
surjir
suroeste
survey
survival
surya
sus
susa
susana
suscripcio
susede
susedido
susedio
susesor
susesos
suspendidas
sustansias
sustantivo
sustantivos
sustentantes
sustituido
sustituir
sustituto
sustituyendo
sustituyo
sustrato
suvarnabhumi
suvieron
suvindo
suvir
suvrina
suya
suyos
suz
suzman
suzy
sv
sven
svetlana
svg
svidchen
svitolina
svobodny
sw
swahili
swap
sweet
swimmer
swing
switch
sydney
sye
syeklo
syeklos
syelo
syelos
syempre
syen
syendo
syentifikos
syento
syentos
syete
syklo
symbolo
symbols
synagoga
synagoge
synagogue
synagogues
synchronic
syntax
syria
syriac
syrian
syrians
system
systema
systems
syvdad
syzmo
sz
szablon
szeged
szell
t
ta
taanit
tab
tabako
tabasco
tabernakulo
tabla
tablada
tablas
table
tablemerge
tables
tablet
tablo
tablos
tabor
tabqa
tabs
tacana
tacna
tacuba
tadjika
tadjikistan
tadjiko
tadradas
tadraron
tadre
taekwondo
taewando
tag
tagging
tags
taha
tahaggart
tahanun
tahir
tahounia
tahrir
tai
taichung
taifa
taifas
tail
tailanda
tailandes
tailandia
taino
taipei
tait
taiwan
taiyuan
taiz
tajik
tajikistan
tajo
tajumulco
take
taken
takes
taking
taksi
tal
talavera
talca
talcahuano
talento
talentos
tales
talet
talgo
tali
talibanes
talit
talk
talkauano
tall
tallin
tallinn
talmud
talmudista
talonia
talos
talossa
tam
tamahaq
tamajaq
tamal
tamales
tamanyo
tamanyos
tamar
tamasheq
tamaulipas
tamayo
tamazight
tamazula
tambe
tamben
tambie
tambien
tambiyen
tambo
tambye
tambyen
tami
tamien
tampa
tampico
tampoko
tamudeo
tamurt
tamzali
tan
tanah
tanbiyen
tanger
tangier
tango
tanjer
tank
tanks
tannoudji
tansu
tante
tanto
tantos
tanxugueiras
tanye
tanyedor
tanyedora
tanyedores
tanyendo
tanyer
tanzania
tao
taoi
taoista
taoizmo
taoyuan
tap
tapachula
tapadas
tapestry
tapetes
tapia
taqbaylit
taquile
tara
tarapaca
tarapoto
tarask
tarbut
tarda
tarde
tardi
tarea
taref
target
targum
tarifit
tarih
tarihi
tarija
tarik
tariq
tarnovo
taro
tarraconensis
tarragona
tartara
tartu
tarzan
tas
tasa
tashelhit
tashkent
tat
tate
tatoeba
tau
taurino
taurus
taverna
tavla
tawa
tawakkol
tawakkul
tawakul
tawhid
taxco
taxdho
taxhimay
taxonomia
taya
tayada
tayado
taylor
tayo
tayyip
tba
tblisi
tbol
td
te
tea
teach
team
teapacks
tears
teatral
teatro
teatros
teau
teba
teca
tecamachalco
tecate
tech
technical
technically
technion
techniques
technologie
technologies
technology
techo
tecnolo
tecoh
tecoma
tecos
teddy
teen
tefila
tefilat
tefilin
tefilot
tegucigalpa
tegui
teheran
tehran
tehuaca
tehuantepec
teide
teilim
teitelbaum
tejado
tejas
tejocote
tejocotes
tejon
tejupilco
tek
tekel
teknika
teknikas
tekniko
teknikos
teknolo
teknolojia
teknolojika
teknolojiko
teknolojikos
teknolojiya
teknolojiyas
tekstiles
teksto
tekstos
tekstura
tekto
tel
tela
telas
tele
teleferik
teleferiko
telefo
telefon
telefoniya
telegrafo
telegraph
telegraphic
telekomunikasiones
teles
telescope
televisio
television
televisiyon
televisora
televisyon
televizio
televizion
televizyo
televizyon
teliana
tells
telmex
tem
tema
temamatla
teman
temani
temanis
temapache
temas
temascalapa
temascalcingo
temascaltepec
tematikos
temixco
temoatzin
temoaya
temonios
temor
tempe
temperatura
temperaturas
temperature
templada
templado
templat
template
templatedata
templates
temple
templo
templos
tempo
temporada
temporadas
temporal
temporales
tempos
temprana
tempranas
temuco
ten
tenabo
tenancingo
tenango
tenatious
tendensia
tendensias
tendra
tene
tenemos
tenen
tener
tenerife
tenerlo
tenga
tengan
tengo
teni
tenia
tenian
tenido
teniendo
teniente
tenis
tenista
teniya
teniyan
tennessee
tennis
tenochtitla
tenochtitlan
tenosique
tensiones
tenta
tentan
tentando
tentanto
tentar
tentaron
tentativas
tentava
tento
tenya
tenyi
tenyia
tenyian
tenzin
teo
teodora
teodosio
teokrasia
teologo
teologos
teoloji
teolojia
teolojiko
teolojiya
teoloyucan
teorema
teoremas
teori
teoria
teorias
teorika
teoriko
teoriya
teoriyas
teotihuaca
teotihuacana
teotihuakana
teotlalpan
tepanekos
tepeji
tepetl
tepetlaoxtoc
tepetlixpa
tepezala
tepic
tepotzotla
tepoza
teques
tequisquiapan
tequix
tequixquiac
tequixquitl
ter
tera
terapia
tercer
teresa
teresina
teresitas
teritorio
teritoriyos
termas
termiko
termina
terminado
terminal
terminar
terminara
termino
terminos
termo
termos
ternero
ternovo
teromen
teror
terra
terranova
terrazas
terre
terremoto
terremotos
terreno
terrenos
terrestre
terrestres
territo
territorial
territoriala
territorialas
territoriales
territories
territorio
territorios
territoryo
terror
terrorista
terroristas
terroristo
terroristos
terrorizmo
tersana
terser
tersera
tersero
tersio
teruel
terzera
tes
tese
teshuva
tesis
tesoro
test
testamento
testcases
testemunyo
testemunyos
testigos
testimonies
testimonio
testing
tests
tetepango
tetlapanaloyan
tetua
tetuan
tetuani
tetuanis
teva
tevet
texano
texas
texcaltitla
texcalyacac
texcoco
text
textcolor
textdata
textil
texto
textos
texts
teyatro
tezontepec
tezontlalpan
tezoyuca
tgv
th
tha
thai
thalys
than
that
the
thea
theater
their
them
then
theo
theodor
theory
there
these
thessaloniki
they
thiais
thibetanus
thickness
thing
things
think
third
this
thomas
those
thousand
three
thriving
through
thumb
thumbnail
thunder
thus
thy
ti
tianguis
tianguistenco
tianjin
tiberia
tiberias
tibet
tibetana
tibetano
tiburo
tica
ticamente
ticas
tico
ticos
tidiedval
tidlig
tidy
tidyval
tie
tiempo
tiempos
tiendas
tiene
tienen
tienes
tienne
tiera
tieras
tierra
tierras
tiferet
tifinagh
tigre
tigres
tigrinya
tijuana
tika
tikamente
tikas
tiko
tikos
tikva
til
till
tim
tima
timarana
timbuktu
time
timeaxis
timeline
times
timestamp
timevalue
timezone
timilpan
timo
timor
timos
timur
tinduf
tini
tinia
tinian
tinido
tinieblas
tiniendo
tinoco
tintura
tio
tip
tipika
tipikamente
tipiko
tipo
tipos
tirana
tiraniya
tirano
tiras
tiro
tirra
tirtzu
tisha
tishrei
titlan
title
titlebar
titleclass
titlegroup
titleobj
titlestyle
titletext
tito
titolo
titolos
titulaba
titulada
titulado
titulava
titulo
tiyo
tiyos
tiza
tizatl
tizayuca
tizi
tizimi
tk
tl
tla
tlachco
tlacopan
tlahuelilpan
tlahuica
tlahuicas
tlahuikas
tlalmanalco
tlalmimilolpan
tlalnepantla
tlalpan
tlaltenango
tlan
tlapanaloya
tlatelolco
tlatilca
tlatlaya
tlatoani
tlaxcala
tlaxcallan
tlaxcalli
tlaxco
tlaxcoapan
tlaxiaca
tlazala
tlh
tmr
tniko
tnikos
tnt
tnuva
to
toaff
tobago
toc
tocancipa
tocantins
toda
todas
today
todo
todos
todoz
todu
tof
tofet
together
toggles
togo
tohoku
toka
tokaido
tokar
tokelau
tokio
tokipona
tokis
tokyo
tolcayuca
toldot
toledano
toledo
toleransia
tolerante
toletum
tolima
tolkien
tollocan
tolo
tolos
tolosa
tolteka
tolteko
toltekos
toluca
tom
toma
tomada
tomadas
tomado
tomados
toman
tomando
tomar
tomara
tomaron
tomas
tomat
tomats
tomb
tomba
tombas
tome
tomer
tommy
tomo
tomorrow
tomos
tonanitla
tonatico
toneladas
tonga
tono
tonos
tonto
tonumber
tony
too
top
topa
topad
topada
topadas
topado
topados
topan
topando
topar
toparon
toparse
toparsen
topasen
topava
topavan
topic
topimage
topo
topolojiya
toponimia
toponimo
toponinimia
topos
tops
topuz
toqui
tora
torada
toradas
torah
toreo
torino
torkemada
tormenta
tornada
tornan
tornar
tornaron
torneo
torneos
torno
toro
toronto
toros
torre
torrent
torreo
torres
torso
torsten
torta
tortas
tortillas
tortiya
tortiyas
tortugas
torturada
torun
toshavim
tosino
tostring
tot
total
totala
totales
totalidad
totalmente
tote
toulouse
tour
tourism
tournament
tours
tous
tout
tov
towards
tower
town
towns
toyota
tp
tpi
tr
tra
trabajadores
trabajar
trabajo
trabajos
trabashos
trabzon
tracking
tracks
trade
tradicio
tradicional
tradisio
tradision
tradisional
tradisionala
tradisionalas
tradisionales
tradisionalmente
tradisionalo
tradisionalos
tradisiones
tradisiyon
tradisiyones
tradisyon
tradisyonal
tradisyonales
tradisyones
tradition
traduccio
traducido
traduksio
traduksion
traduksiones
traduksiyon
traduksiyones
traduksyon
traduktor
tradusido
traduzido
trae
traen
traer
traesladasion
trafalgar
trafik
trafiko
trai
trail
trailing
train
trains
trajano
trajo
trakai
trakia
trakya
tram
tramo
tramos
tramvay
tramway
trankila
trankilitad
trans
transbordo
transcluding
transcript
transforma
transformado
transformasion
transformo
transiberiano
transilvania
transit
transito
transizion
transkavkazia
transkripsion
transkripsiones
transkrivir
translate
translated
translatenext
translation
translator
transliterasion
transliterasiyon
transliterasyon
transmisio
transmision
transmisiones
transmisiyon
transmite
transmitida
transmitidas
transmitido
transmizyon
transpacific
transparent
transparente
transportar
transportasion
transportation
transporte
transporto
transrapid
tranzporto
tras
trasas
trasendensia
traslada
trasladasion
traslado
trasya
trata
tratado
tratados
tratamiento
tratamyento
tratan
tratando
tratar
trato
travar
trave
travel
traverse
traverso
traves
traviata
trayekto
trayektoria
trayektorya
trayido
trayidos
trayiyan
trazado
tre
treated
treatment
treblinka
tredje
tree
trees
treinador
treinadora
treinadores
treinamento
treinamiento
treinta
tremarctos
tremetousia
tren
trenes
treno
trenos
trenta
trephina
tres
tresdoblado
tresdovlado
trese
treser
tresera
tresero
tresladada
tresladadas
tresladado
tresladar
tresladaron
tresladasion
tresladasiones
tresladasiyon
treslado
treze
trezen
trezientas
trezientos
trezlasyon
trezor
trezoros
tri
tria
triangulo
tribu
tribunal
tribune
tribus
tributasio
tribute
tributo
tributos
tried
tries
trieste
trigo
trim
trimandaddautomaticnewline
trimarg
trimwhitespace
trinidad
trio
tripa
tripla
triple
tripoli
tristan
triste
triunfante
triunfo
tro
trocar
trois
troka
trokada
trokadas
trokado
trokamiento
trokamientos
trokamye
trokamyentos
trokan
trokando
trokar
trokara
trokarla
trokarlo
trokaron
trokarse
trokarsen
troko
trokos
tronco
tronier
tronko
troodos
tropas
tropical
tropikal
tropikala
tropikalas
tropikales
trotski
trotsky
trotta
trouble
troya
trozos
trudeau
true
trujeron
trujillo
trump
trupas
trusheron
trusho
truth
try
ts
tsa
tsadik
tsahal
tsar
tsava
tse
tsimshian
tsitsernakaberd
tstamp
tstotk
tsur
tt
ttir
ttysac
tu
tuareg
tube
tubos
tucson
tucuma
tuda
tudas
tudela
tudes
tudo
tudos
tue
tuerse
tula
tulancingo
tulo
tulos
tultepec
tultitla
tulum
tumba
tumbas
tumbes
tuna
tuncel
tundra
tunel
tuneles
tunesia
tunesiano
tunesinos
tuneva
tunez
tunis
tunisia
tunisian
tunisie
tunja
tuparro
tuparrocumaribo
tupi
tupido
turan
turco
turgut
turi
turia
turicum
turin
turino
turismo
turistas
turistika
turistikas
turistiko
turistikos
turistos
turizmo
turiztika
turiztiko
turiztikos
turiztos
turka
turkana
turkanas
turkano
turkanos
turkas
turkey
turki
turkia
turkish
turkiya
turkmenistan
turko
turkos
turks
turku
turn
turnamentos
turnesol
turneva
turnhalle
turns
turnu
turnuva
turnuvas
turqui
tus
tusquets
tutta
tutti
tuvalu
tuvia
tuvieron
tuvo
tuwim
tuxtla
tuya
tv
tvi
tvl
tvrtina
twentieth
twice
twin
twitter
two
txtlang
tye
tyempo
tyempos
tyene
tyenen
tyerra
tyerras
tyerrito
tyerritorio
tyerritorios
type
types
typical
typically
tysia
tyv
tzedek
tzfania
tzhournum
tzion
tzipi
tzitzit
tzompanco
tzompantli
tzstr
tzu
tzvi
u
ua
uabbr
uae
uaem
ubicacio
ubicado
ubika
ubikaba
ubikada
ubikadas
ubikado
ubikados
ubikar
ubikasion
ubikasiyon
ubikasyon
uble
uc
ucayali
ucurum
ud
udec
udi
udmurtia
udvada
ue
uefa
ufa
ufkir
uganda
ugly
uguales
uigur
uiguros
uk
ukjent
ukraina
ukraine
ukraini
ukrainia
ukrainian
ukrainianas
ukrainiano
ukrainianos
ukrainians
ukrainio
ukrainios
ukrains
ukrania
uksk
ul
ula
ulai
ulam
ulama
ulay
ulm
ulpan
ultima
ultimas
ultimatamente
ultimo
ultimos
ultra
ultramar
uly
um
uma
uman
umana
umanas
umanidad
umanidades
umanita
umanitad
umanitades
umanitarias
umano
umanos
umans
umar
umberto
umbria
umedad
umi
umido
umilde
umm
umo
umorizmo
umut
un
una
unam
unamuno
unas
unbulleted
uncertain
unchawkunapi
uncollapsed
und
under
underground
undp
undyo
une
unen
unes
unesco
ungaria
ungariano
ungario
ungeria
ungria
ungu
unhcr
uni
unica
unicode
unida
unidad
unidades
unidas
unido
unidos
unieron
unifikada
unifikado
unifikar
unifikasion
unifikasiyon
uniforme
unika
unikamente
unikameral
unikas
uniko
unikos
unilateralmente
unio
union
unionville
unique
unir
uniriyan
unirse
unit
unita
unitades
unitaria
unitas
united
unito
unitos
units
unity
universal
universala
universalis
universelle
universidad
universidade
universidades
universita
universitaire
universitaria
universitario
universitarios
universitas
universitat
universite
universities
university
universo
uniyeron
unknown
unless
unlike
unlinked
unnamed
uno
unos
unpack
uns
unscripted
unsourced
unterman
until
unwanted
unyon
up
upb
upends
upper
upright
ur
ural
urales
uranio
urban
urbana
urbanas
urbanistiko
urbanizasion
urbano
urbanos
urbe
urdu
urgel
uri
uriel
url
urlarchivo
urria
ursavus
urshalim
ursinus
urss
ursus
uru
uruapan
uruguay
uruguayo
urumchi
us
usa
usada
usado
usador
usadores
usados
usage
usan
usando
usar
usarse
usd
use
used
useful
user
username
users
uses
usescurrenttitle
ushpizin
ushuaia
using
uso
usos
usted
ustedes
ustring
usual
usually
usualmente
usuario
usuarios
ut
uta
utah
utc
ute
utensilios
util
utilidad
utiliza
utilizado
utilizados
utilizan
utilizando
utilizar
utilizasio
utilizo
utman
uto
utrecht
utroz
utsa
uu
uva
uvas
uvikada
uvikadas
uvikado
uvo
uvyeran
uygur
uz
uza
uzaba
uzaban
uzada
uzadas
uzado
uzadores
uzados
uzaklarda
uzan
uzando
uzar
uzaran
uzarla
uzarlo
uzaron
uzarse
uzava
uzavan
uzbeka
uzbekistan
uzbeko
uzbekos
uze
uzi
uziel
uzo
uzos
uzu
uzualmente
uzuarios
v
va
vacas
vadi
vado
vaduz
vaga
vagina
vai
vaka
vakansas
vakas
vakfı
val
valakia
valdgeym
valdivia
vale
valencia
valenciana
valenciano
valensia
valensiana
valensiano
valentia
valentina
vales
valey
vali
valid
valio
valladolid
vallarta
valle
vallecas
valley
valls
vallve
valo
valonia
valor
valores
valparai
valparaiso
vals
value
valuefunc
values
valuetofind
valverde
vamos
van
vana
vancouver
vandalos
vanguarda
vanguardia
vanguardias
vannes
vanuatu
vapor
vapores
var
vara
varas
vardar
vargas
vari
variable
variables
variada
variado
variados
variante
variantes
varias
variasi
variasiones
variasiyones
variations
variedad
variedades
varieta
varietades
varios
various
varna
varol
varsovia
varyedad
varyos
vas
vasco
vashem
vaska
vasko
vasta
vatikano
vaupes
vava
vaya
vayadolid
vaye
vayes
vayikra
vcard
ve
vea
vean
vease
vec
veces
vecha
vedeghel
vedra
vedrad
vedradera
vedradero
vedraderos
vedre
vedres
vee
vega
vegas
vegetacio
veil
veinberg
veinte
veja
vejetal
vejetasion
vejez
vel
vela
velakahta
velar
velaro
velez
veli
veliko
vella
velosidad
velosidades
vemos
ven
venado
vencer
venda
vende
vender
vendida
vendidas
vendidos
vendieron
vendio
venerada
venerado
venes
venesia
veneta
veneti
veneto
venetos
venevisio
venezia
veneziano
venezolana
venezolano
venezolanos
venezuela
venezuelana
venezuelano
venezuelanos
venga
vengo
venian
venice
venida
venidas
venidero
venido
venidos
venir
vennemann
vensidos
vensio
vent
venta
ventana
ventanas
ventanikas
vente
ventura
venture
venus
venustiano
ver
vera
veracruz
veraguas
verakruz
verano
verapaz
verbo
verbos
verdad
verdadera
verdadero
verdaderos
verde
verduzco
vergu
verguensa
verifikado
verlag
vermont
vernacular
vernakular
vernon
vero
verona
vers
verse
versio
version
versiones
versiyon
versiyones
verso
versos
versus
vertical
very
ves
veses
vesino
vesinos
vespasiano
vestido
vestidos
vestijios
vez
vezes
vezez
vi
via
viaja
viajado
viajan
viajando
viajar
viajaron
viajavan
viaje
viajero
viajeros
viajes
viajo
vian
vias
vibo
viboro
vica
vice
vicente
vichada
vichadapuerto
viche
victims
victor
victoria
victory
vida
vidal
vidas
vide
video
videos
vidin
vido
vidrio
vidro
vie
vieja
viejas
viejo
viejos
viena
viendo
viene
vienen
viento
vientos
vierbo
viernes
vieron
viertel
vietnam
vietnameza
vietnamezo
vietnamezos
view
viewsomething
vige
vigo
vii
viii
viina
vije
vijente
vijilansia
vijita
vijitada
vijitado
vijitadores
vijitan
vijitar
vijitas
vijitava
vijito
viki
vikifikar
vikiha
vikimanadero
vikimedya
vikingos
vikings
vikipedia
vikipedya
vikipedyas
vikiye
viksionario
viksiyonaryo
viktimas
viktor
viktoria
viktorias
viktorya
vil
vila
vilaya
vilayet
vilayetes
viles
villa
villada
village
villages
villahermosa
villalobos
villanueva
villarreal
villarrobledo
villatuelda
ville
villeneuve
vilna
vin
vinci
vini
vinia
vinidos
vinieron
vinir
viniyan
vino
vinos
vinteren
vinya
vinyas
vinyedos
vinyeron
vio
violada
violence
violencia
violensia
violensya
violenta
violeta
violin
violinista
vireo
virgin
virginia
virjen
virjenes
virjin
virjines
virrey
virreynalo
virreynato
virtual
virtud
viru
visa
vise
visegra
visente
visepresidente
visible
visio
vision
visit
visita
visitacio
visitada
visitadas
visitado
visitados
visitan
visitantes
visitar
visitarla
visito
vista
vistas
visten
vistido
vistidos
vistiendo
vistimyentas
vistir
visto
visual
visuala
visyon
vita
vital
vitaminas
vitis
vitivinikola
vitoria
vitrales
viva
vivan
vivas
vive
viven
vivi
vivian
viviane
vivienda
vivio
vivir
vivo
vivos
viya
viyas
viyatuelda
viyeron
vize
vizina
vizinas
vizino
vizinos
vizir
vizkaya
vizyo
vizyon
vl
vladi
vladimir
vladivostok
vlika
vliko
vo
vocablo
voice
voices
vokablo
vokabulario
vokal
vokales
vol
volantes
volca
volcan
volcano
voleibol
volga
volka
volkan
volkaniko
volkano
volkanos
volkswagen
volo
volos
vols
volta
voltaire
voltaran
volto
volu
volume
volumen
volumenes
voluntad
voluntarios
voluntaryos
volvio
von
vora
vorlage
voropai
vos
vosges
vostochny
votacio
votado
votar
votaron
votasion
votasiones
vote
voto
votos
vous
vows
voy
voyage
voyvodato
voz
voß
vr
vrasil
vrbanja
vro
vs
vu
vuelos
vuelta
vuelve
vuelven
vuestro
vulgaris
vulkano
vung
vy
vyeja
vyene
vyerbo
vyerbos
vyeron
w
wa
wade
wadi
wagnalls
wahbi
waldheim
wales
walk
wall
walla
wallenberg
wallis
walter
wan
want
wantcomma
wanted
wants
war
warao
warning
warren
wars
warszawa
was
washington
watapi
watch
watchtower
water
watson
way
waylawas
waylawasrejion
wayne
ways
wayuu
wayuunaiki
wałe
wbez
we
wear
web
weber
webkit
webpage
website
wedding
week
weekly
weight
weinreich
weisman
weiss
weizman
weizmann
welcome
well
welle
wellington
welt
wenceslao
were
werner
west
weste
western
westfalia
westminster
wfmu
what
when
where
whether
which
while
white
whitelist
whitelisting
whitespace
whitney
who
whole
whose
why
wiartka
wide
width
wie
wiek
wieku
wien
wiener
wiki
wikibase
wikicode
wikidata
wikidataib
wikidatamodule
wikienlazada
wikilink
wikimapia
wikimedia
wikipedia
wikiproject
wikiquote
wikis
wikisource
wikitext
wikivoyage
wilamowice
wilaya
wilayas
wilbur
wild
wilde
wilhelm
will
willd
willem
william
williams
wilme
wilmes
wilno
wilson
wimbledon
win
windows
wine
wingate
winnebago
winner
winners
winning
winnipeg
wins
winter
wise
wish
with
within
without
witness
witwatersrand
wiyiam
wjwc
wo
wolf
wolfhart
woman
women
won
wonder
wons
woodard
word
words
work
works
world
worlds
worms
worse
worst
worthy
wotton
would
wozniacki
wp
wrap
wrapper
wrappers
wraps
wright
write
writer
writings
written
wrocław
wta
wto
wu
wuhan
wurtemberg
wuu
www
wymysorys
wyoming
x
xablo
xablones
xabloneskateggori
xalapa
xalatlaco
xalli
xankəndi
xauen
xavier
xel
xg
xh
xi
xiamen
xianfan
xico
xicohte
xie
xihcote
xii
xiii
xilitla
ximo
xinantecatl
xiv
xix
xixon
xky
xl
xocalı
xochicalco
xochimilco
xocotitlan
xojali
xonacatla
xothe
xs
xueta
xuetas
xuetes
xv
xvi
xvii
xviii
xx
xxi
xxx
xxxii
y
ya
yaakov
yaar
yad
yael
yafo
yah
yahoo
yahu
yahudi
yahudileri
yahya
yair
yakarta
yakir
yakob
yakov
yakup
yakutsk
yale
yalla
yam
yama
yamaat
yamaba
yamaban
yamada
yamadas
yamado
yamados
yamagata
yamamiento
yamamos
yaman
yamando
yamar
yamaran
yamaron
yamarse
yamas
yamasen
yamava
yamavan
yambol
yami
yamim
yamin
yamo
yan
yana
yangtze
yanina
yankees
yanos
yanura
yanuras
yapto
yar
yarakui
yarden
yaroslava
yas
yasemin
yashuv
yasimientos
yasmin
yasmina
yasser
yatsushiro
yau
yaume
yavan
yavas
yave
yavne
yazd
yazidi
yazidis
yazıları
ye
year
years
yearstr
yede
yediot
yega
yegada
yegado
yegan
yegando
yegar
yegara
yegaron
yegase
yegavan
yego
yehezkel
yehiel
yehoram
yehoshua
yehuda
yek
yekke
yekkes
yelada
yelado
yelido
yelo
yeltsin
yemen
yemeni
yen
yena
yenas
yenasen
yendo
yenes
yeni
yeno
yenos
yeoshua
yerba
yerevan
yerri
yerro
yerros
yeru
yerus
yerushala
yerushalaim
yerushalayim
yerushalmi
yerva
yervas
yes
yesh
yesharim
yeshaya
yeshayahu
yeshiva
yeshivot
yeshu
yeshukristo
yesno
yeso
yessav
yesukristo
yet
yeuda
yeva
yevada
yevadas
yevado
yevados
yevan
yevando
yevar
yevarlo
yevarlos
yevaron
yevava
yevavan
yeve
yevo
yi
yiannis
yichan
yichlah
yid
yiddish
yiddishe
yidish
yidisher
yigal
yim
yinchuan
yining
yir
yirmiyahu
yis
yishuv
yishuvim
yisra
yisrael
yisraeli
yisraeliana
yisraelianas
yisraeliano
yisraelianos
yisraelis
yisraelitas
yistorya
yitshak
yitzchok
yitzhak
yivo
ym
ymd
ymdhm
ymdhms
ynet
ynetnews
yo
yoav
yoel
yogyakarta
yohannan
yoldyz
yolları
yom
yomtov
yona
yonatan
yoni
yora
yoram
yorando
york
yorker
yoro
yoruba
yosef
yossi
yoter
yotl
you
young
your
yousef
youssef
youth
youtube
ypg
ypj
ysidro
ysrael
yu
yue
yugoslava
yugoslavia
yuk
yukata
yukatan
yulio
yumana
yumbel
yungas
yunio
yuri
yuscara
yusef
yusra
yusuf
yuval
yuvia
yuvias
yyyy
yzes
yıldız
z
za
zabal
zacapa
zacatecas
zacazonapan
zacualpan
zafrani
zagreb
zagura
zaha
zahalka
zahra
zainal
zak
zakaria
zakh
zakhu
zakkai
zalman
zaman
zambia
zamenhof
zamora
zan
zankoul
zanne
zanzibar
zapata
zapatero
zapatillas
zapatillasbocas
zapopan
zapoteka
zapoteko
zapotitla
zapotla
zar
zara
zaragoza
zardinidis
zarista
zaro
zarzavat
zarzavates
zarzevates
zatz
zavala
zavor
zaza
zbirnyk
zcu
ze
zealand
zebra
zedoni
zeev
zehava
zeina
zeit
zeitung
zel
zelanda
zelda
zelig
zemirot
zemun
zen
zend
zenit
zentro
zer
zero
zes
zesi
zeta
zevoul
zevulun
zh
zhang
zheng
zhengzhou
zho
zhuang
zi
zia
ziaten
ziethen
zihuatanejo
zik
zika
ziko
zima
zimbabue
zimbabwe
zimmer
zinacanta
zinacantepec
zinganos
zini
zion
zionism
zionismo
zionist
zionista
zionistas
zionizmo
zipaquira
zirguela
zirguelas
zitlaltepec
ziynet
zla
zlepko
zlerim
zmir
zmo
zo
zohar
zokalo
zola
zolli
zon
zona
zonas
zoolo
zoologi
zoolojia
zoolojiya
zopilote
zor
zorear
zoroastrizmo
zoroastro
zorriyo
zos
zquez
zrubavel
zsef
zsoy
zu
zuazua
zubari
zuckermann
zukowski
zulfaris
zulia
zulu
zumo
zumpahuaca
zumpango
zunyi
zur
zurich
zurigo
zussman
zvi
zwi
zyeg
{
|
}
~
¡
¥
§
ª
«
®
°
²
³
´
¶
·
¹
º
»
½
¿
×
ß
æ
đ
đa
đo
ı
ık
ılıg
ło
łobez
ƨ
ɔ
ɣ
ʃ
ʒ
ʤ
ʱ
ʻ
ʼ
ʾ
ʿ
ˈ
ˌ
ː
ˢ
ˤ
̀
́
̂
̃
̄
̆
̇
̈
̉
̊
̋
̌
̓
̔
̛
̣
̦
̧
̨
̪
̮
̱
͂
ͅ
͡
α
απο
β
βυζα
γ
για
γλω
δα
ε
εβραι
ελλα
ελληνικη
η
θ
θα
θεσσαλονι
ι
ιστορι
και
κη
κης
κο
κωνσταντινου
λ
λασσα
λη
λης
μ
με
ν
ντιον
ο
ος
πο
πολις
προ
ρ
ς
σι
σσες
στην
της
του
των
υ
χριστο
ω
а
в
владимир
да
до
е
евреи
з
загвар
зима
и
к
канец
м
море
н
на
ні
о
п
пачатак
по
половина
р
република
с
ская
ст
т
та
у
украі
уфа
х
ч
чверть
чвэрць
четверть
шаблон
шаран
я
язык
є
і
ա
արցախ
կաղապար
ְ
ֱ
ֲ
ֳ
ִ
ֵ
ֶ
ַ
ָ
ֹ
ֻ
ּ
־
ֿ
ׁ
ׂ
ׄ
א
אאוסטראלײה
אאוסטריה
אב
אבי
אביב
אביטאנטיס
אבלאן
אבלירקי
אבן
אברג
אברוצוס
אגורה
אגזיסטן
אדם
אדמיניסטראטיבה
אדריאטיקו
אה
אהבה
או
אואגו
אואיסטי
אובג
אובז
אובטײן
אוזו
אוזר
אוטראס
אוטרה
אוטרו
אוטרוס
אוכידינטאל
אולטימאס
אומאנה
אומאנו
אומאנוס
און
אונ
אונדי
אונה
אונו
אוניב
אוניברסיטת
אונידאס
אונידו
אונידוס
אוניון
אוניקה
אוסו
אוסיאנו
אוסיאניה
אופ
אוקופאדה
אוקופאסיון
אוקסידינטאל
אור
אוריג
אז
אזה
אזיר
אזן
אזר
אזרלו
אטאמיינטוס
אטלאנטיקו
אטק
אי
איב
איברופה
איברופיה
איברופײה
איגזימפלו
אידאד
אידיומה
אידיש
איורופײה
איז
איזלאס
איזלה
איזמיר
איזראל
איטאליאנה
איטאליאנו
איטאליה
איטימולוג
איילת
איינשטיין
איל
אילבאסאן
אימיסוראס
אימפ
אימפורטאנטי
אימפורטאנטיס
אימפורטנטה
אימפיריו
אין
אינ
אינג
אינגליז
אינדאגורה
אינדה
אינדימאס
אינטרה
אינטרי
איניטי
איניל
אינסינייאנזה
אינפ
אינקיזצייון
אינקלוײ
אינריקױ
איס
איסטא
איסטאד
איסטאדו
איסטאדוס
איסטאמבול
איסטאן
איסטאס
איסטאת
איסטה
איסטודיה
איסטודיו
איסטודייו
איסטודײו
איסטוס
איסטורייה
איסטוריקה
איסטורײה
איסטי
איסטראסבורגו
איסטרוקטורה
איספאנייול
איספאנײה
איספאנײול
איסקריטוריס
איקולוג
איקסטירנוס
אירה
אל
אלא
אלאב
אלבאניה
אלבירט
אלגונוס
אלה
אלוף
אלזס
אלטה
אלטו
אלמאניה
אלמאניס
אלנה
אלקונה
אלקונוס
אלקטריסיקה
אם
אמ
אמבורגן
אמה
אמיריקה
אמפדימיינטוס
אמפליו
אמפסיג
אמריקה
אן
אנב
אנגלו
אנדה
אנדי
אנדמס
אנוסים
אנזימה
אנזינה
אנטיס
אנטיקה
אנטיקו
אנטס
אנטרה
אנטרונו
אנטרופולוג
אניו
אניוס
אנייו
אניס
אנל
אנסי
אנסינה
אנשמפלו
אנײו
אס
אסטה
אסטו
אסטודיה
אסטודיו
אסטודייה
אסטן
אסטס
אסטרונומוס
אסטרונומייה
אסטרופ
אסיגון
אסייוניס
אסנדר
אספיקטוס
אספניול
אספסיילה
אסקריב
אפ
אפריקה
אצ
אקורדו
אקטואל
אקטיב
אקטריז
אקי
אקייאס
אקסייונס
אר
ארג
ארה
ארחטינה
ארחנטינה
ארטה
ארטי
ארטיס
ארטיקולו
ארטיקולוס
אריאס
אריה
ארכיון
ארץ
ארקיולוג
ארקיולוגוס
ארקיטקטורה
אש
את
אתר
אױסטה
אײ
ב
באדין
באילת
באתר
בו
בוז
בוטו
בוטניקה
בורטינבירג
ביב
ביולוג
ביירב
בילגיקה
בירושלים
בישראל
בית
בלנסיה
בן
בנחמין
בני
בניון
בניין
בנק
בר
ברחוב
בריטאנײה
בריטון
ברכה
ברכות
בשער
ג
גאלייה
גאלײה
גואדראר
גוב
גובײרנו
גולפו
גונזאלס
גוריון
גורנאל
גם
גן
גנזךהמדינה
גראן
גראנדי
גראנדיס
גרופו
גריגו
גריסיה
גױנית
גױראס
גױרה
ד
דא
דאד
דאדיס
דאיל
דאל
דאלמאניה
דאת
דב
דג
דה
דו
דוד
דוז
דונדה
דוס
דוראנטה
דוראנטי
דורנטה
די
דיאס
דיב
דיבידה
דיביסיון
דיברופה
דיו
דיזה
דייה
דיל
דילה
דילהס
דילוס
דימוגראפײה
דימוקראטיקה
דימפױס
דינאמארקה
דיסב
דיסדה
דיסדי
דיסטאדוס
דיסיפלינאס
דיססיפלינה
דיספױס
דיסקואס
דיסקוב
דיפ
דיפארטימינטו
דיפיניסײוניס
דיפירינטיס
דיצ
דיקי
דיריטו
דיש
דל
דן
דסדה
דסקנסר
דער
דף
דפ
דקה
ה
האומה
האוניברסיטה
האמנותית
הבדלה
הבית
הגדול
הגן
הדורות
ההתעמלות
הו
הזיכרון
החיים
הטמפלרי
היהודי
היכל
הכל
הכנסת
הלאומי
הלאומית
הלכה
המאה
המוסד
המזרח
הממלכתי
המצפה
המקדש
הספר
הספרייה
הספרים
העברית
העיר
העירייה
הצופים
הצרפתי
הר
הראשון
הרוח
הרצל
השבוע
התנ
התעופה
התת
ו
וד
ודיאו
ודיאוס
ודיוס
וה
והאוניברסיטאי
ווא
ויב
ולוג
ון
ונה
וס
וסטו
וסיאנו
ור
וראר
ורו
וריטה
ורמאס
ורמאסײון
ורמה
ז
זאב
זה
זו
זוסמן
זס
ח
חה
חו
חוגאר
חיים
חיפה
חכמים
חלה
חללי
ט
טאל
טאמביין
טאמבײן
טאמבײנ
טאן
טארדה
טוב
טודאס
טודה
טודו
טודוס
טופה
טורנו
טורקו
טורקײה
טיאורײה
טיאטרו
טיימפו
טיינה
טייני
טיינין
טיינן
טיירה
טיליב
טיפו
טיקיקסקיאק
טיריטוריו
טירמינאדה
טירמינו
טלנטו
טנר
טראב
טראדוקסייון
טראנסמיסיײון
טריבו
טריס
טרס
טרסרה
טײנה
טײרה
י
יא
יאו
יאמאדה
יב
ידאד
ידה
ידו
יה
יהדות
יהו
יהודה
יהודי
יהודית
יו
יום
יון
יוסף
יזיס
יזײון
יח
יטאס
יטה
יטו
יי
ייא
ייב
ייה
ייון
ייז
יימדה
יירנס
יך
יכ
יל
ים
ימי
ימיינטוס
ין
ינדוסטריאל
ינה
ינו
ינטינה
יניראלה
יס
יסטאדו
יסטה
יסטוריאס
יסטורײה
יסיקה
יסיקו
יסײון
יסײונ
יעקב
יפו
יפת
יצחק
יקה
יקו
יקוטיו
יקונומיײה
יקוס
יקידאטה
יקיפידיה
יקיפידײה
יר
ירדן
ירושלים
ירינסײה
ירסו
יש
ישראל
ית
יתו
ך
כ
כביש
כומו
כון
כל
כללי
כמו
כנסת
כריסטינה
ל
לא
לאב
לאדה
לאדינו
לאומי
לאטין
לאטינה
לאן
לאנטיס
לאס
לאסיו
לארקיולוג
לה
לו
לוב
לוביק
לוגאר
לוגאריס
לוי
לוס
לזכר
לחימה
ליב
ליברו
ליטיראטורה
לייס
לימיטה
לינגואה
לינגואס
לינגוה
לינגויסטיקה
לינור
ליס
ליסטה
לישראל
לך
למתחיל
ם
מ
מא
מאז
מאטימאטיקאס
מאטימאטיקו
מאטיריאליס
מאיר
מאמנת
מאס
מאר
מארסו
מארקאס
מאײור
מאײוריס
מגן
מדינת
מה
מו
מואב
מואיב
מוב
מודו
מודרה
מוז
מוזיאון
מוזיקה
מוי
מונג
[...]
