!
"
#
##0
##1
##10
##11
##12
##13
##14
##15
##16
##17
##18
##19
##2
##20
##21
##22
##23
##24
##25
##26
##27
##28
##29
##3
##30
##31
##32
##33
##34
##35
##36
##37
##38
##39
##4
##40
##41
##42
##43
##44
##45
##46
##47
##48
##49
##5
##50
##51
##52
##53
##54
##55
##56
##57
##58
##59
##6
##60
##61
##62
##63
##64
##65
##66
##67
##68
##69
##7
##70
##71
##72
##73
##74
##75
##76
##77
##78
##79
##8
##80
##81
##82
##83
##84
##85
##86
##87
##88
##89
##9
##90
##91
##92
##93
##94
##95
##96
##97
##98
##99
$
%
&
'
(
)
*
+
,
-
.
/
0
00
000
001
002
01
02
03
04
05
06
07
08
09
1
10
100
1000
101
1019
102
1024
1025
1026
103
104
1045
1046
105
1056
1057
106
107
1074
108
109
11
110
1100
1101
111
112
113
1138
114
1140
115
1151
116
1163
1165
117
1172
1177
1178
1179
118
1185
119
1191
12
120
1200
1201
1202
1206
1209
121
1211
1217
122
1220
123
1230
1234
1238
124
1241
1243
1248
1249
125
1257
126
127
1271
1273
128
1281
1284
1287
1289
129
1290
1296
13
130
1300
1304
1306
1309
131
1310
1317
1318
132
1324
1327
133
1335
1337
134
1348
1349
135
1355
136
1369
137
1379
138
1382
1383
139
1394
14
140
1400
1402
1409
141
142
1420
1422
1423
1424
1425
143
1437
144
145
146
1460
147
1476
1477
148
149
1492
1497
15
150
1500
151
152
1521
1526
153
1531
1532
1534
154
155
1556
156
1561
1564
1569
157
1574
158
159
1599
16
160
1600
1603
161
1612
1617
162
163
164
165
1658
166
167
168
169
17
170
1700
171
172
173
1730
1731
1738
174
1740
1742
175
1754
176
1762
1763
1767
1768
177
1772
1776
178
1780
1781
1782
1783
1784
1786
1787
1788
1789
179
1790
1791
1793
1794
1795
1796
1797
1798
1799
18
180
1800
1801
1802
1803
1804
1805
1806
1807
1808
1809
181
1810
1811
1812
1813
1814
1815
1816
1817
1818
1819
182
1820
1821
1822
1823
1824
1825
1826
1827
1828
1829
183
1830
1831
1832
1833
1834
1835
1836
1837
1838
1839
184
1840
1841
1842
1843
1844
1845
1846
1847
1848
1849
185
1850
1851
1852
1853
1854
1855
1856
1857
1858
1859
186
1860
1861
1862
1863
1864
1865
1866
1867
1868
1869
187
1870
1871
1872
1873
1874
1875
1876
1877
1878
1879
188
1880
1881
1882
1883
1884
1885
1886
1887
1888
1889
189
1890
1891
1892
1893
1894
1895
1896
1897
1898
1899
19
190
1900
1901
1902
1903
1904
19047
1905
1906
1907
1908
1909
191
1910
1911
1912
1913
1914
1915
1916
1917
1918
1919
192
1920
1921
1922
1923
1924
1925
1926
1927
1928
1929
193
1930
1931
1932
1933
1934
1935
1936
1937
1938
1939
194
1940
1941
1942
1943
1944
1945
1946
1947
1948
1949
195
1950
1951
1952
1953
1954
1955
1956
1957
1958
1959
196
1960
1961
1962
1963
1964
1965
1966
1967
1968
1969
197
1970
1971
1972
1973
1974
1975
1976
1977
1978
1979
198
1980
1981
1982
1983
1984
1985
1986
1987
1988
1989
199
1990
1991
1992
1993
1994
1995
1996
1997
1998
1999
2
20
200
2000
2001
2002
2003
2004
2005
2006
2007
2008
2009
201
2010
2011
2012
2013
2014
2015
2016
2017
2018
2019
202
2020
2021
2022
2023
203
204
205
206
207
208
209
21
210
211
212
213
214
215
216
217
218
219
22
220
221
222
223
224
225
226
227
228
229
23
230
231
232
233
234
235
236
237
2373
238
239
24
240
2409
241
2417
242
2429
243
244
245
246
247
248
249
25
250
2500
251
252
253
254
255
256
257
258
259
26
260
261
262
263
264
265
266
267
268
269
27
270
271
272
273
274
275
276
277
278
279
28
280
281
282
283
284
285
286
287
288
289
29
290
291
292
293
294
295
296
297
298
299
3
30
300
3000
301
302
303
304
305
306
307
308
309
31
310
311
312
313
314
315
316
317
318
319
32
320
321
322
323
324
325
326
327
328
329
33
330
331
332
333
334
335
336
337
338
339
34
340
341
342
343
344
345
346
347
348
349
35
350
3500
351
352
353
354
355
356
357
358
359
36
360
361
362
363
364
365
366
367
368
369
37
370
371
372
373
374
375
376
377
378
379
38
380
381
382
383
384
385
386
387
388
389
39
390
391
392
393
394
395
396
397
398
399
4
40
400
4000
401
402
403
404
405
406
407
408
409
41
410
411
412
413
414
415
416
417
418
419
42
420
421
422
423
424
425
426
427
428
429
43
430
431
432
433
434
435
436
437
438
439
44
440
441
442
443
444
445
446
447
448
449
45
450
451
452
453
454
455
456
457
458
459
46
460
461
462
463
464
465
466
467
468
469
47
470
471
472
473
474
475
476
477
478
479
48
480
481
482
483
484
485
486
487
488
489
49
490
491
492
493
494
495
496
497
498
499
5
50
500
5000
501
502
503
504
505
506
507
508
509
51
510
511
512
513
514
515
516
517
518
519
52
520
521
522
523
524
525
526
527
528
529
53
530
531
532
533
534
535
536
537
538
539
54
540
541
542
543
544
545
546
547
548
549
55
550
551
552
553
554
555
556
557
558
559
56
560
561
562
563
564
565
566
567
568
569
57
570
571
572
573
574
575
576
577
578
579
58
580
581
582
583
584
585
586
587
588
589
59
590
591
592
593
594
595
596
597
598
599
6
60
600
6000
601
602
603
604
60470
605
606
607
608
609
61
610
611
612
613
614
615
616
617
618
619
62
620
621
622
623
624
625
626
627
628
629
63
630
631
632
633
634
635
636
637
638
639
64
640
641
643
644
645
647
648
649
65
650
652
653
655
656
657
659
66
660
661
662
663
664
665
666
668
669
67
670
671
672
673
675
676
677
678
679
68
680
681
682
683
684
685
686
687
688
689
69
690
691
692
693
694
695
696
697
698
699
7
70
700
7000
701
702
703
704
705
706
707
708
709
71
711
712
713
714
715
716
717
718
719
72
720
721
722
723
7232
725
729
73
731
7318
732
733
734
735
737
738
74
740
741
742
743
744
745
747
749
75
750
753
754
755
756
757
758
759
76
760
761
762
763
764
768
769
77
770
771
773
774
775
778
779
78
782
785
786
787
788
79
790
791
792
795
796
798
799
7999
8
80
800
8000
801
802
803
805
806
809
81
810
811
815
817
818
82
822
823
824
827
829
83
830
832
833
837
838
84
840
841
842
844
845
847
849
8499
85
850
8500
85000
856
858
86
861
864
865
869
87
870
875
876
878346
879
88
880
882
886
887
89
890
891
896
899
8999
89999
9
90
900
9000
90000
900000
907
908
91
910
911
913
914
916
92
924
93
931
933
936
939
94
942
949
9499
95
950
9500
95000
954
957
96
962
963
966
967
968
969
97
970
971
972
978
979
98
980
981
982
985
987
989
99
990
995
998
999
9999
99999
999999
:
;
<
=
>
?
@
\
^
_
`
a
aa
aar
ab
aba
abbas
abbe
abbott
abbreviata
abchazo
abdel
abdita
abdul
abdullah
abecadle
abecadła
abecadło
abellini
aberdeen
aberrans
abh
abies
abieticola
abietina
abietinum
abietis
abo
abortiva
abortivum
about
above
abraham
abramo
abrewjacyjo
abrothallus
abruzyjo
abscondita
absidia
abszlusie
absztimo
absztimu
abt
abth
abu
abundans
abundisporus
aby
ac
acaciae
acad
academia
academy
acallomyces
acantharia
acanthofungus
acanthophysium
acanthostigma
acanthostigmella
acanthothecis
acarospora
acarosporaceae
acaulis
acaulopage
acaulospora
acaulosporaceae
accad
access
accessdate
accommodate
account
acericola
acerina
acerinum
aceris
acerosa
acervata
acetosae
ach
achaetomium
acharius
achroomyces
achrotelium
acicola
aciculare
acicularis
acremoniella
acremonium
acrocordia
acrodictys
acrodontium
acrogenospora
acrospermaceae
acrospermum
acrostalagmus
acta
actiniceps
actinidiae
actinopeltis
aculeata
aculeatus
acuminata
acuminatum
acuminatus
acuta
acutatum
acutispora
acutocapillitium
acutum
acuum
ad
adam
adama
adams
adaptacyjo
add
addcategories
addclass
addit
additional
additions
addon
adelaide
adhaerens
adjacent
adler
admin
administracji
administracyje
administracyjne
administracyjny
adolf
adolfa
adolph
adoxae
adspersum
aduje
adunca
adusta
advances
advena
adventures
adyga
aecidium
aegopodii
aemulans
aenea
aequatorialis
aequatoriensis
aeruginosa
aeruginosum
aesculi
aestivum
aestuarii
af
afd
affine
affinis
afgan
afr
africa
african
africana
africanum
africanus
africe
afrikaans
afriki
afroboletus
afryce
afryka
afryki
after
afy
again
against
agan
agaric
agaricaceae
agaricales
agaricalium
agaricochaete
agaricomycetes
agaricostilbomycetes
agaricostilbum
agarics
agaricus
agarwal
agaves
age
agent
agerer
aggregata
aggregatum
aggregatus
aglomeracyje
aglomeracyji
aglu
agnieszka
agonimia
agr
agrestis
agric
agricultural
agriculture
agrocybe
agron
agropyri
agrostidis
aguirre
ahmad
ahmadii
ahmed
ahti
ahtiana
ahtii
ai
aids
aigialus
aime
ain
air
aires
airport
aisne
ajax
ajaxu
ajello
ajnfachowe
ajnfachowo
ajnfachowy
ajnfal
ajnflus
ajnflusu
ajnflusym
ajo
aju
ajza
ak
akad
akadymiji
akadymijo
akanthomyces
akcyje
akcyjo
akto
aktor
aktywne
aktywnos
akulov
akuratne
akwitan
al
alabama
alan
alaska
alaskana
alatospora
alb
alba
albae
alban
albatrellaceae
albatrellus
albert
alberta
albertensis
albescens
albicans
albida
albidum
albidus
albiziae
albo
albocaerulescens
albotricha
albrecht
albu
album
albumy
albus
alchemillae
alcorn
ale
aleksander
aleksandr
aleksandra
alenc
aleuria
aleurina
aleuritis
aleurocystis
aleurodiscus
alexander
alfabet
alfabetu
alfabyt
alfenas
alfons
alfred
alg
algeryji
algeryjo
ali
alias
aliases
align
alignbars
aliquandostipitaceae
aliquandostipite
alismatis
aliso
alkoholu
all
allantospora
allantosporum
allen
allesch
allg
allgem
allgemeine
allied
allier
allies
allii
allionia
allmusic
allomyces
allophylaria
allport
almbornii
almeida
almq
alnea
alneum
alni
alnicola
alojzy
alone
alopecuri
aloud
alpes
alpestris
alphabet
alphonso
alpina
alpine
alpinum
alpinus
alpova
already
also
alstrup
alt
alternaria
alternata
alto
alutacea
alutaceus
alves
alysidiopsis
alzacyjo
am
amabilis
amandinea
amanita
amanitaceae
amarrendia
amauroascus
amauroderma
amaurodon
amazonas
amazonense
amazonensis
amazonica
ambiens
ambigua
ambiguum
ambiguus
ambispora
ambisporaceae
ambrosiella
ambrosiozyma
ame
amer
america
american
americana
americanum
americanus
americe
amerika
amerikan
ameriki
ameriku
amerospora
amerosporium
ameryce
ameryka
amerykan
ameryki
ameryko
ames
amethystina
ami
ammophilae
amniculicola
amoebophilus
amoena
among
amorphomyces
amount
ampelopsidis
amphibia
amphirosellinia
amphisphaerella
amphisphaeria
amphisphaeriaceae
ampullaceum
amsterdam
amt
amtu
amunicyje
amy
amygdalaria
amylocorticiaceae
amylocorticium
amyloflagellula
amylolepiota
amylosporus
amyloxenasma
an
ana
anaberg
anabergu
anacardii
anaerobic
anais
anal
analysis
analyt
anam
anamika
anamo
anamorph
anamorphic
anamorphs
anastrophella
anatolicum
anc
anceps
ancylistaceae
ancylistes
and
andaluzyjo
andaman
anders
anderson
andes
andicola
andina
andinum
andjic
ando
andre
andrea
andreas
andrew
android
andromedae
andropogonis
andrzej
andy
andyjske
andyjskich
ane
anemones
anfang
anfanga
anfangu
ang
angatia
angel
angeles
angelicae
angels
angelski
angelskigo
angelskij
angelsko
angelsku
anglica
angliji
anglosaskij
angolensis
angrif
anguillospora
angularis
angulata
angus
angusta
angustata
angustispora
anhalt
anhaltu
ani
anie
animal
animals
anime
anio
aniptodera
anisomeridium
aniz
anka
ann
anna
annaberg
annalen
annales
annali
annals
anne
annecy
annln
annls
annonae
annotated
annual
annulata
annulatascaceae
annulatum
annulatus
annulohypoxylon
anny
ano
anomala
anomalum
anomalus
anomoporia
another
antarct
antarctic
antarctica
antarcticus
antarktyda
antarktydy
ante
antennaria
antennatula
antennulariella
antherospora
anthony
anthostoma
anthostomella
anthracobia
anthracoidea
anthracoideaceae
anthracophyllum
anthracothecium
antillanum
antillarum
antillensis
antipus
antirrhini
antlich
antoine
antologia
anton
antoni
antonie
antonio
antrodia
antrodiella
antycznych
antycznyj
anu
anungitea
any
anyj
anzi
anzia
aoki
aokigahara
aotearoa
aphanoascus
aphelaria
aphelariaceae
aphidis
aphidomyces
aphyllophorales
apiculata
apiculatum
apii
apinis
apiocamarops
apiognomonia
apioplagiostoma
apiosordaria
apiosphaeria
apiospora
apiosporaceae
apiospores
apis
aplopsora
aplosporella
apocyni
apodocarpa
apodospora
aporomyces
aposphaeria
appalachensis
append
appendage
appendicospora
appendiculata
appendiculatum
appendiculatus
appl
applanata
applanodictyosporous
apple
aptroot
apulijo
aquatic
aquatica
aquaticum
aquaticus
aquilegiae
ar
ara
arab
arabiji
arabske
arabskich
arabskigo
arabskij
arabskim
arabsko
arach
arachidis
arachnion
arachniotus
arachnoideum
arachnomyces
arachnopeziza
aragu
aramb
aranearum
araneosa
araucariae
araujo
arbor
arborea
arboricola
arbuscula
arbuscular
arbuti
arch
archaeospora
archana
arche
archer
archeri
archf
archipelag
archipelagi
archipelagu
archive
archived
archiwum
archontophoenicis
archos
arctica
arcticum
arcticus
arctostaphyli
arcuata
ard
ardennes
ardesiaca
ardyny
are
area
areas
arena
arenal
arenaria
arenariae
arenariomyces
arenas
arenicola
areolata
arg
argent
argentea
argentina
argentinensis
argillacea
argoviensis
args
argsgeoformatdata
argument
arguments
argyntyn
argyntyna
argyntyny
ari
ariae
arias
arie
aristata
aristidae
arizonensis
arizonica
arizu
arjen
ark
arkansas
armeniaca
armeniacus
armeriae
armije
armiji
armijo
armillaria
armoraciae
arms
armstr
armstrong
army
armyn
armynije
armynijo
arnaud
arnaudiella
arnaudii
arne
arnium
arnold
arnoldii
arnolds
aro
aromaticum
arr
arrhenia
arski
art
artemisiae
arten
artens
arthonia
arthoniaceae
arthopyrenia
arthopyreniaceae
arthothelium
arthrinium
arthrobotrys
arthroderma
arthrodermataceae
arthrographis
arthropod
arthropsis
arthrorhaphis
arthrorhynchus
arthur
arthuria
arthurovic
arti
article
articles
artige
artikel
artikle
artikli
artiklu
artocarpi
artocreas
artomyces
arts
artur
artykuły
artysta
artysty
aru
arundinacea
arundinariae
arundinellae
arundinis
arup
arv
arvensis
arx
arxii
arxiv
ary
arystotelesa
arzanlou
as
asahina
asamoah
aschersonia
asci
ascobolaceae
ascobolus
ascocarpous
ascochyta
ascocodinaea
ascodesmidaceae
ascodesmis
ascodichaenaceae
ascoidea
ascom
ascomycete
ascomyceten
ascomycetengattung
ascomycetes
ascomycetous
ascomycota
ascomycotina
ascophanus
ascophylli
ascosphaera
ascosphaeraceae
ascospore
ascospores
ascotaiwania
ascotricha
ascozonus
asellaria
asellariaceae
ashley
asia
asiatica
asiaticum
asiavision
asparagi
aspera
asperellum
aspergilloides
aspergillus
asperula
asperum
asphodeli
aspicilia
aspidothelium
asproinocybe
aspx
assembleoutput
assimilating
assoc
associated
association
associations
asteridiella
asterina
asterinaceae
asterinella
asteriscus
asteroides
asteroma
asteromella
asterophora
asterosporium
asterostroma
asterothyrium
asterotremella
astraeus
astragali
astro
astrocystis
astroidea
astrosphaeriella
astrosporina
astrothelium
astru
asu
asy
asymmetrica
at
ataki
ataku
atas
atatu
atd
ater
aterrima
aterrimum
athelia
atheliaceae
athelopsis
atk
atkinson
atkinsonii
atla
atlantic
atlantica
atlantiques
atlantycki
atlantyckigo
atlantyckim
atlas
atmosfera
atmosfery
ato
atoli
atp
atra
atractiella
atrata
atriplicis
atrocyanea
atropurpurea
atrovirens
atroviridis
atrum
attenuata
atti
attr
atu
aty
atyn
atynach
au
aube
aubigny
aucklandica
auct
aucupariae
aude
auersw
auerswald
auf
auflage
aufsztand
aufsztando
aufsztandu
aufteilung
augsburg
august
augusta
augustin
augusto
aulacostroma
aulographum
aurantia
aurantiaca
aurantiacum
aurantiacus
aurantiosporium
aurantiporus
aurata
aurea
aureobasidium
aureoboletus
aureola
aureum
aureus
auricularia
auriculariaceae
auriculariales
auriscalpiaceae
auriscalpium
auritella
aurora
aurulenta
aus
auskuplu
aust
austin
australas
australasia
australasian
australe
australia
australian
australiense
australiensis
australije
australiji
australijo
australis
austriaca
austriji
austrijo
austro
austroafricana
austroamericanum
austroboletus
austrogautieria
austropaxillus
austrororidus
austrosmittium
austryje
austryjo
aut
auta
author
authority
authors
auto
autobana
autobany
autobiografia
autocoords
autogr
autographica
autoku
auton
autophagomyces
autor
autora
autorka
autorstwa
autory
autorym
autu
auvergne
aux
auxarthron
av
available
avellanae
avellanea
avenae
avettaea
aveyron
avicenniae
avicii
avium
awa
awakening
awarsko
awasthi
away
awers
awje
axel
az
azaleae
azerbejdz
azur
azyje
azyji
azyjo
ała
ało
ałtajske
ałtajsko
ały
b
ba
bab
baba
babc
babcock
babske
babu
baby
bacidia
bacidina
back
background
backus
backvocals
bacon
bact
bacteriol
bactrodesmiella
bactrodesmium
bactrospora
baculifera
bad
badan
baden
badia
badius
badn
bado
badyn
baeodromus
bagl
bagliettoa
bagnisiopsis
bahia
bahusakala
bai
baijal
bailey
bainier
bains
baird
bajeru
bajery
bajs
bajszpil
bajszpila
bajszpile
bajszpilu
bajtel
bajtla
bajtle
bajtli
bajtlo
bajtlu
baker
bakeri
bakeriana
bakshi
bakt
bakteryje
baku
bal
bala
balansae
balansia
balazy
balcanica
bale
ball
balladyna
ballistosporous
balsamia
baltimorensis
bamboo
bambusae
bambusicola
bambusina
bambusinus
ban
bana
band
bandoni
bangladeszu
banhow
bani
banker
bankeraceae
banksiae
banksiamyces
banku
banno
banowe
banowo
banowy
banowyj
bany
baptist
baptiste
bar
baral
baran
barbara
barbata
barbatum
barber
barcelona
barcelu
barclay
bari
bark
barker
barnett
barnettozyma
baroni
barr
barreto
barringtoniae
barrmaelia
barron
bartalinia
barthol
bartholomeus
bartoli
bartolommeo
bary
barzi
barzij
barzo
bas
base
based
basehoar
basestyle
basgitara
basidiobolus
basidiocarp
basidiodendron
basidiomyce
basidiomycete
basidiomycetes
basidiomycetous
basidiomycota
basidiomycotina
basilicata
basku
basowa
basowo
bass
basshuntera
bat
batalije
bataliji
batalijo
batalio
batatas
batcheloromyces
batenburg
bathelium
bathyascus
batista
batistae
batko
batkoa
batra
batsch
battista
battle
batu
bauer
bauerago
bauerstwa
bauerstwje
bauerstwo
bauko
bauku
baxter
bay
bayer
bayern
baz
baza
bazie
bazowe
bazowo
bazowy
bazowych
bazowym
bazowymi
bazylika
bałtyckigo
bbc
bbeler
bc
bchodzo
bd
be
beach
bearing
beast
beatles
beaton
beaumont
beautiful
beauveria
bec
beccariana
beck
becker
becnie
becno
becnos
becyrk
becyrku
beeli
been
beenakia
beer
beetle
beetles
beever
before
begerow
begum
bei
beibl
beih
beitr
beitra
bejdz
bejzdrzij
bele
belemnospora
belg
belgije
belgiji
belgijo
belgique
belize
bell
bella
bellem
bellemerea
bellulus
belonging
belonia
belonidium
belonium
belonopsis
beltraniella
beltz
ben
bender
benedetto
benigno
benj
benjamin
benjaminiella
benjaminiomyces
benkert
benn
bennett
benny
bensingtonia
ber
berb
berberidis
berch
berg
bergamo
bergen
bergi
bergman
bergmu
bergu
berk
berkeley
berkeleyi
berkhout
berkleasmium
berkshire
berl
berlese
berlin
berlina
berlinie
bern
bernard
berndt
bernhard
bernicchia
bernice
berol
bert
berteroi
berthier
bes
beskid
beskidenverein
beskidu
beskidz
besl
best
bestu
betae
beticola
betulae
betulicola
betulina
betulinum
between
beverly
beyma
beyonce
bez
beze
bezerra
bezma
bezpiyczyn
bezpostrzedn
bezto
beztu
beztuz
bełchatowskim
bg
bhat
bhatt
bi
biarz
biatora
biatorella
biała
biały
bible
biblije
biblijo
biblio
bibliografijo
biblioth
bibljografijo
biblthca
bicknell
bicolor
bicornis
bidr
bidwellii
bie
biekt
biekto
biekty
biere
biero
biformis
bifrons
bifusella
big
bigelow
bih
biju
bikaye
bilgrami
bill
billon
bills
bin
bina
binder
bingen
bio
biochem
biodiversity
biograficzny
biografijo
biol
biologia
biological
biologiczne
biologicznych
biologije
biologijo
biology
bionectria
bionectriaceae
biosc
biotechn
biotrophic
biourge
biovigyanam
biołe
biołego
bioło
bioły
biołyj
biołym
bipolaris
birgitta
birmingham
bis
bischofiae
biscogniauxia
biseptata
biseptatum
bishop
biskup
biskupa
biskupie
bispora
bisporella
bisporum
bisporus
bissau
bissett
bistortae
bitanc
bitwa
bitwy
bivallum
biyle
bjalskim
bjalskopodlaskigo
bjecz
bjelany
bjelsk
bjelskim
bjelsko
bjere
bjeru
bjo
bjografije
bjografijo
bjoł
bjołe
bjoło
bjołorus
bjołostockigo
bjołostockim
bjołu
bjoły
bjołyj
bjyg
bjygu
bkoło
bla
blachy
black
blacklist
blackw
blackwell
blade
blanc
blanco
blanda
blank
blastobotrys
blastocladia
blastocladiaceae
blastocladiella
blastophorum
blaszk
blechni
blek
blica
blight
bliski
blisko
bliz
blood
blova
bloxamii
blue
blues
blum
blumenavia
blumer
blumeriella
blumy
blyczynia
blyczynie
blynz
bniz
bo
bob
bobrown
boedijn
boehm
boekhout
boerema
boeremia
boerlagiomyces
boesew
boga
bogate
bogdan
bogu
bogumin
bohem
bohemica
bohemoslov
boidin
boidinia
boidinii
bois
boissier
bojamyces
boje
bojo
boju
boku
bol
bolanderi
bolbitiaceae
bolbitius
bolea
bolesław
bolesława
boletaceae
boletales
boletes
boleti
boletinellaceae
boletinellus
boletopsis
boletus
boliniaceae
boliwiji
bolka
bolko
boll
bolleana
bolm
boln
bombardioidea
bommer
bon
bonar
bond
bondartsev
bondarzewia
bondarzewiaceae
bonii
boninensis
bonord
bonorden
book
boolean
boom
booth
boothii
bor
bordeaux
border
boreale
borealis
borelli
boreostereum
borgo
borki
born
borne
borneense
borneensis
borneo
borough
borrer
borys
borysewicz
bos
bosch
bose
boskij
boston
bot
botan
botanical
botanici
botanik
botanique
botanist
botany
both
bothalia
botryobasidiaceae
botryobasidium
botryodiplodia
botryoides
botryosa
botryosphaeria
botryosphaeriaceae
botryosphaeriales
botryosporium
botryotinia
botryozyma
botrytis
bottom
boubovia
bouches
boud
boudier
boudiera
boudieri
bougainvilleae
bougher
bounty
bourdot
bourdotii
bourg
bovista
bowali
bowio
bowler
bowles
bowoł
box
boy
boz
boza
bozie
bozu
bp
br
brabancyjo
brac
brachybasidiaceae
brachydesmiella
brachyphoris
brachypodii
brachyspora
brachysporium
brackets
brady
bragantia
brain
brak
braku
brakujo
brali
bran
brand
brandenb
brandenburg
brando
brandynburgiji
brandynburgijo
brane
branew
brano
brany
brasil
brasilianum
brasiliense
brasiliensis
brasiliomyces
brassicae
brassicicola
brat
brato
bratt
brattiae
braun
brauniellula
brayford
brazil
brazilian
brazu
brazylije
brazyliji
brazylijo
brazylijske
bre
break
brebissonii
bref
brefeldii
bremen
bremerhaven
brenesii
bres
bresa
bresadola
bresadolae
brescia
bresinsky
breslau
bretan
breton
breuss
breve
brevicellicium
brevicollis
brevipes
brevis
brevispina
brevispora
brevisporus
breviuscula
breyniae
brian
briard
bridge
brif
brigantiaea
brigitte
brit
britain
britannica
britannicum
britannicus
british
brittonia
britzelmayer
brno
bro
brodie
brodn
brodo
broken
bromi
bron
bronisław
broome
bros
brote
broteriana
brothers
brown
broł
bru
bruce
bruksela
brumm
brummelen
brun
brunaud
brunei
brunlila
brunnea
brunneiapiospora
brunneola
brunnescens
brunneum
brunneus
bruno
brunonia
brunt
brusse
brux
bruxelles
bryce
brygady
brymbie
bryocentria
bryochiton
bryol
bryologist
bryomyces
bryonectria
bryoniae
bryonora
bryophila
bryorella
bryoria
bryoscyphus
bryosphaeria
bryostroma
brytan
brytanije
brytanijo
brytyjske
brytyjski
brytyjskich
brytyjskigo
brytyjskij
brytyjsko
brze
brzeg
brzegu
brzeskim
brzesko
brzez
brzu
brzyg
brzygu
bserwacyje
bsugowane
btoczo
btp
bu
buba
bubakii
buch
buchanan
buchcio
buchsztaba
buchsztabo
buchsztabu
buchsztaby
buchu
buchw
buckley
buddyzm
budo
budowa
budowy
budy
budynku
budz
buellia
buelliella
buenos
buergenerula
buglossoporus
builder
buildquerystring
buitenz
buktryfflar
bulbosa
bulbothrix
bulgarica
bulger
buli
bull
bullata
bullatum
bullera
bulletin
bulliard
bund
bungartz
bunodophoron
burds
burdsall
bureau
burgess
burgoa
burgu
buritica
burkina
burmistrz
burn
burnetiae
burrillia
burt
business
but
butin
butler
butleri
butyriboletus
buu
buxi
buxicola
buyck
bułg
bułgaryji
bułgaryjo
buły
bwo
by
byc
bycio
bycirk
bycirku
bycz
bydo
bydu
bydz
bydzie
byfel
byjmuje
byjmujo
byklajdo
byl
byli
byn
byrna
byrsonimae
byssiseda
byssochlamys
byssocorticium
byssoloma
byssonectria
byssosphaeria
byto
bytom
bytowskim
bytu
bywatele
bywatelsko
bywo
byzuch
był
była
było
były
błaz
bło
c
ca
cabello
cabral
cacao
cacumisporium
cadophora
caerulescens
caesalpiniae
caesia
caesiopruinosa
caesiorubella
caesium
caespitosa
caespitosum
caespitosus
cafaro
caffra
cahiers
cai
cailleux
cain
cajani
cajto
cajtu
cal
calais
calami
calamicola
calat
calathella
calcarata
caldasia
calduch
cale
caledonia
calendulae
caliciaceae
calicioides
caliciopsis
calicium
calif
california
californica
californicum
californicus
call
called
callimorpha
callistosporium
callosa
callunae
calocera
calocybe
calonectria
calonge
calopadia
calophylli
caloplaca
caloplacae
calosperma
calosphaeria
calosphaeriaceae
calosphaeriales
calospora
calostilbe
calostoma
calthae
calvados
calvatia
calvescens
calvin
calvitimela
calvo
calycella
calycellina
calyciformis
calycina
calyptella
camarophyllopsis
camarophyllus
camarops
camarosporium
camarotella
cambios
cambrensis
cambridge
camelliae
cameroon
camerunensis
camillea
camp
campanella
campb
campestris
campos
camposporium
camptomyces
camptosphaeria
campylospora
can
canad
canada
canadense
canadenses
canadensis
canadian
canaria
canariense
canariensis
canarii
canavaliae
cancer
cand
candelabrochaete
candelabrum
candelaria
candelariaceae
candelariella
candicans
candida
candidum
candidus
candolle
candollei
candoussau
cane
canescens
cannabis
cannes
cannon
cano
canomaculina
canoparmelia
canter
cantharellaceae
cantharelloid
cantharellula
cantharellus
cantharomyces
canum
cao
cape
capense
capensis
capitata
capitatus
capnobotrys
capnodiaceae
capnodiales
capnodium
capparis
capronia
capsici
capsulatum
car
carbacanthographis
carbomyces
carbonacea
carbonaria
carbonea
carcinomycetaceae
cardinal
carestia
caribaea
caribbean
caribensis
caricae
caricicola
caricina
caricinella
caricis
carl
carla
carlo
carlos
carmich
carmichael
carnea
carnegie
carneum
carnivora
caro
carol
carolinensis
caroliniana
carp
carpathica
carpinea
carpini
carpinicola
carpol
carpophila
carter
carthami
cartilaginea
caryospora
cas
case
caseariae
cash
casimir
cassiae
castagne
castagnei
castan
castanea
castaneae
castaneicola
castanopsidis
castell
castellano
castlebury
castro
casuarinae
cat
catacauma
catal
catalana
catalaunica
catalogue
catapyrenium
cataractispora
catarina
catathelasma
catawbiense
categories
category
catenaria
catenariaceae
catenochytridium
catenulata
catenulostroma
catillaria
catillariaceae
caucasica
caudata
caudatum
caudatus
caulicola
caulincola
caulium
caulorhiza
causal
caused
causing
cavalc
cavalcante
cavara
cavipes
cbs
cc
cd
cdot
ce
cean
ceanu
ceanym
ceara
cech
cecha
cecho
cechu
cechuje
cechy
cedar
cedrelae
cegło
celastri
celata
cell
cells
cellule
celmisiae
celtidis
celym
cenangium
ceniu
census
centaureae
center
central
centralis
centre
centrum
century
cepae
cephaliophora
cephalosporium
cephalotheca
cephalothecaceae
cephalotrichum
cera
ceraceomyces
ceramika
ceramothyrium
ceranu
cerasi
ceratellopsis
ceratobasidiaceae
ceratobasidium
ceratocystidaceae
ceratocystiopsis
ceratocystis
ceratomycetaceae
ceratoniae
ceratophora
ceratorhiza
ceratosebacina
ceratosphaeria
ceratosporella
ceratostomataceae
ceratostomella
cercidospora
cercophora
cercospora
cercosporella
cercosporoid
cerea
cerealis
cerebriformis
cerinomyces
ceriosporopsis
ceriporia
ceriporiopsis
cerkew
cerkwije
cerocorticium
cerotelium
cerradensis
cerro
cervina
cervinus
cery
ces
cesarze
cesati
cesatii
ceska
ceske
cesta
cestri
cesty
cet
cetrariicola
cetrelia
ceuthospora
cfg
ch
cha
chaconia
chaconiaceae
chadefaudia
chaenothecopsis
chaetocladium
chaetomella
chaetomiaceae
chaetomidium
chaetomium
chaetonaevia
chaetopyrena
chaetosphaeria
chaetosphaeriaceae
chaetosphaerulina
chaetothyriaceae
chaetothyriales
chaetothyrium
chaetotyphula
chailletii
chalara
chalastospora
chalazion
chalciporus
chamaecyparidis
chamaemori
chamaeota
chamonixia
champ
champignons
champions
chandrash
chang
changbai
chaos
chaplin
chapsa
chapter
chapterauthor
chapterurl
character
characterization
characters
charakter
charakterystyc
charakterystyczne
charakterystyczno
charakterystyka
chardo
chardoniella
charente
charentes
charles
charlesa
charlie
chartarum
chaupa
chaverri
chaves
chałpy
chc
chcieli
chcioł
chco
che
checa
check
checklist
checktype
cheel
cheilymenia
chelsea
chem
chemical
chemie
chemistry
chen
cheng
chenopodii
cher
cheshire
chester
chevalieri
chełm
chełmin
chełmno
chi
chicago
chiel
chien
chiesanuova
child
chile
chilense
chilensis
chin
china
chinach
chinensis
chinu
chiny
chionea
chionophila
chionosphaera
chionosphaeraceae
chirayathumadom
chirurga
chitinophilum
chitonomyces
chivers
chlamydomyces
chlamydospora
chlamydosporum
chloridis
chlorina
chlorociboria
chlorophyllum
chloroscypha
chlorosplenium
chlorospora
chlorovibrissea
chlr
chlust
chlusta
chmjelno
chmurzyn
chn
cho
choby
choc
chocio
chodu
chodz
chodzie
choisy
chojn
chojnacka
chop
chopa
chopo
chopu
chopy
chordata
chorwacko
chorwacyji
chorwacyjo
chorzo
chorzowa
chorzowie
chorzowje
chorzu
chou
chowan
chowanek
chr
chris
christ
christan
christiaan
christian
christmas
christopher
chro
chromelosporium
chromocyphella
chromocyphellaceae
chroodiscus
chroogomphus
chru
chrysanthemi
chrysocelis
chrysoderma
chrysomyxa
chrysoporthe
chrysosporium
chrysothrix
chrystusa
chrzes
chto
chu
chun
chung
chupp
church
churchill
chusqueae
chyc
chymic
chymiczne
chymiczno
chymiczny
chymicznych
chymije
chymijo
chymik
chytridiaceae
chytridiales
chytridiomycetes
chytridiomycota
chytridium
chytriomyces
chyz
chło
chłopak
ci
cia
ciach
ciami
ciał
ciała
ciało
ciboria
ciborinia
cic
cicatricosa
ciccar
cie
ciele
cienc
ciencias
cient
cies
cieszyn
cieszyna
cieszynie
cif
ciferri
ciferrii
cij
cijan
cijano
cijo
ciliaria
ciliaris
ciliata
ciliatum
ciliolarina
cilonema
cilonemataceae
cin
cincinnati
cinctus
cinerascens
cinerea
cinerella
cinereus
cingulata
cinnabarina
cinnabarinum
cinnabarinus
cinnamomea
cinnamomeum
cinnamomeus
cinque
cintractia
cio
cionothrix
cioła
cioło
cioły
circ
circaeae
circinans
circinata
circinatum
circinella
circinotrichum
circumscripta
circumscription
circus
cirrenalia
cirrhata
cirsii
cis
cistella
cite
citri
citricola
citriformis
citrina
citrinella
citrinum
citrinus
city
ciu
ciudad
cixi
ciy
ciyli
ciym
ciynz
ciyo
ck
cke
cker
cki
ckigo
ckij
cking
cknera
cko
cl
clade
clades
cladii
cladiytriaceae
cladiytrium
cladobotryum
cladonia
cladoniaceae
cladoniae
cladoniicola
cladophialophora
cladorrhinum
cladosporioides
cladosporium
claim
claims
clandestina
clandestinum
clara
claridge
clark
clarkii
class
classes
classif
classification
clasterosporium
clathrospora
clathrus
claude
claussenomyces
claustulaceae
clauzade
clauzadea
clauzadei
clavaria
clavariaceae
clavariadelphaceae
clavariadelphus
clavarioid
clavata
clavatispora
clavatum
clavatus
claviceps
clavicipitaceae
clavicipitaceous
clavidisculum
clavigera
clavispora
clavisporum
clavulata
clavulicium
clavulifera
clavulina
clavulinaceae
clavulinopsis
clavus
cle
cleland
clelandii
clem
clematidis
clematomyces
clemensiae
clements
clerc
clifford
climacodon
clin
clinical
clinton
clitocybe
clitopilus
clonostachys
close
closely
club
clusiae
clypeata
clypeosphaeria
clypeosphaeriaceae
cm
co
coast
coat
cobar
coby
coca
coccineus
coccocarpia
coccodes
coccodiella
coccodiniaceae
coccoidella
coccolobae
coccomyces
cocconia
coccostromopsis
cochliobolus
cocoe
cocoicola
code
coelomycete
coelomycetes
coelomycetous
coem
coemansia
coenogoniaceae
coenogonium
coerulea
coffeae
coffeicola
cognata
coimbra
coins
coker
cola
colacogloea
colas
cole
coleiaetes
colensoi
coleophoma
coleoptera
coleosporiaceae
coleosporium
coleroa
coll
collapse
collapsible
collected
collection
collections
college
collema
collemataceae
collemopsidium
colletotrichum
collins
collybia
colocasiae
cologne
colomb
colombia
colombiana
colombiensis
colon
color
colorado
colors
colpoma
coltricia
coltriciella
columbia
columbiana
columbus
columella
columnaris
com
comari
comata
comb
combination
combinations
come
comm
comma
commelinae
comment
comments
common
commons
commune
communis
commutata
como
comoclathris
comp
compacta
compactum
company
complanata
completes
complex
complicata
complicatum
compsomyces
compt
comte
con
concat
concentrica
concentricum
concepcio
concept
concepts
concinna
concinnum
concolor
condylospora
conferta
confertum
confluens
confusa
confusum
congesta
congestum
conglomerata
congo
congoensis
congr
congregata
conica
conidia
conidial
conidiobolus
conidiophores
conidiosporomyces
coniella
conifer
coniferarum
conigena
conigenum
coniochaeta
coniochaetaceae
coniochaetales
coniolariella
coniophora
coniophoraceae
conioscypha
coniothecium
coniothyrium
conjuncta
connecticut
connections
connivens
conocybe
conoidea
conoplea
conorum
consequences
consequent
consideration
consimilis
consobrina
consocians
consociata
consp
conspectus
conspicua
constant
constricta
constrictum
containing
content
contents
contest
contr
contra
contraria
contrib
contribution
contributions
control
contu
convallariae
convexa
convolutum
convolvuli
cook
cooke
cookei
cookeina
cookellaceae
cooper
coord
coordinates
coords
copelandii
copenhagen
coppins
coppinsii
coprinellus
coprinopsis
coprinus
coprophila
coprophilous
coprosmae
coprotus
copy
corallina
coralloidea
coralloides
corda
cordana
cordyceps
cordycipitaceae
cordylines
core
coreca
coriolopsis
cork
cornelius
corner
corneri
corneum
corni
cornicola
corniculata
cornu
cornuta
cornutispora
cornutum
cornwall
coro
corollospora
coronata
coronatum
coronatus
coronellaria
coronicium
coronophora
coroz
corrections
corrugata
corse
cortic
corticiac
corticiaceae
corticicola
corticioid
corticioides
corticis
corticium
corticola
cortinaires
cortinarioi
cortinarioid
cortinarius
coryli
corylophomyces
corymbia
corynascus
coryne
corynelia
coryneliaceae
coryneopsis
corynespora
corynesporascaceae
corynesporopsis
coryneum
cos
cosenza
cosmospora
costa
costantinella
costaricensis
costata
coste
cotoneastri
cotylidia
couch
count
countries
country
county
courtec
couture
cover
covid
cowan
cowyj
cołke
cołki
cołkigo
cołkij
cołkim
cołko
cołkos
cołkowan
cołkym
cracovie
crane
crash
crassa
crassipes
crassispora
crassitunicata
crassum
crataegi
craterellus
cratiria
crazy
create
cremea
cremicolor
crenata
crenulata
crepidis
crepidotaceae
crepidotus
crepuscule
crespo
cresponea
cresporhaphis
cribb
cribbea
crinigera
crinipellis
crinita
crinitum
crispa
cristata
cristatus
cristelloporia
cristiano
cristinia
cristulariella
crit
critical
critt
crittog
crittogam
crivelli
crocea
crocicreas
cronartiaceae
cronartium
crop
cropped
cross
crossl
crossopsora
crost
crotalariae
crotonis
crouan
crous
crozalsiana
cruciata
cruciferarum
cruenta
crustacea
crustaceus
crustoderma
crustosa
cruz
cry
cryphonectria
cryphonectriaceae
crypt
cryptadelphia
cryptica
cryptocline
cryptococcus
cryptocoryneum
cryptodiaporthe
cryptodiscus
cryptog
cryptomeriae
cryptophiale
cryptosphaeria
cryptospora
cryptosporella
cryptosporiopsis
cryptosporium
cryptovalsa
cs
css
csstext
cu
cuba
cubana
cubense
cubenses
cubensis
cubitt
cucujomyces
cucullata
cucullatus
cucurbitacearum
cucurbitaria
cucurbitariaceae
cud
cudoniella
cug
cugu
cukru
culb
culbersonii
culmicola
culmigena
culmorum
cult
cultural
culture
cum
cummins
cumminsiella
cuneatum
cuniculi
cuniculitremaceae
cunn
cunningham
cunninghamella
cunninghamellaceae
cunninghamii
cup
cuphocybe
cupressi
cupularis
cupulifera
curazia
curazie
curitiba
curr
currah
current
curreya
curreyi
curta
curtis
curtisii
curvata
curvatum
curvibasidium
curvispora
curvisporum
curvula
curvularia
curzi
custingophora
custom
cut
cuzamyn
cvetk
cweka
cweku
cwekym
cwibla
cy
cyanescens
cyanopulvis
cyatheae
cyathiformis
cyathus
cyberlindnera
cycacze
cycaczy
cych
cyckocze
cyckoczy
cyclaminis
cyclobalanopsidis
cyclomyces
cycloschizon
cydoniae
cyfstofilobasidiaceae
cyj
cykl
cyklu
cyl
cylindrica
cylindricum
cylindrium
cylindrobasidium
cylindrocarpon
cylindrocladiella
cylindrocladium
cylindrospora
cylindrosporium
cylindrosporum
cylindrosporus
cylindrotrichum
cylu
cym
cymatoderma
cymbopogonis
cyn
cyna
cynku
cynodontis
cyntralno
cyntralny
cyntralnyj
cyntralnym
cyntru
cyntrum
cyny
cyperi
cypericola
cyphelium
cyphella
cyphellaceae
cyphellophora
cypr
cypru
cyprze
cyptotrama
cyrtidula
cyryla
cyrylica
cyrylicke
cyrylicy
cyso
cysorz
cystangium
cystidiata
cystidiosa
cystoagaricus
cystobasidium
cystoderma
cystodermella
cystofilobasidium
cystolepiota
cystopage
cystostereaceae
cystostereum
cystotheca
cystotheceae
cytidia
cytisi
cytoplea
cytospora
cytosporella
cytowanio
cyttaria
cyttariaceae
cytuj
cywilizacyje
cywilizacyjo
cywin
cz
cza
czas
czasach
czasami
czasie
czaso
czasu
czasy
czasym
cze
czech
czechach
czechosłowacyje
czechosłowacyji
czechosłowacyjo
czechowice
czechu
czechy
czeczyn
czego
czelabin
czern
czerwca
czerwin
czerwo
czerwony
czes
czeske
czeski
czeskich
czeskigo
czeskij
czeskim
czesko
czesku
czile
czka
cznik
czo
czole
czorne
czorno
czorny
czornyj
czornym
czowiek
czowieka
czowjek
czowjeka
czu
czwortek
czy
czyc
czygo
czyk
czyki
czyli
czym
czymu
czyn
czynnos
czyns
czynsto
czynstochowskim
czynstochowy
czyrwca
czyrwju
czyrwn
czyrwnia
czyrwo
czyrwu
czyto
czyz
czyła
czyło
czło
człu
d
da
dac
dacampiaceae
dacrymyces
dacrymycetaceae
dacryopinax
dactylaria
dactylella
dactylellina
dactylidis
dactylospora
dactylosporaceae
daedalea
daedaleopsis
dagestan
dagesto
dagmar
dahl
dai
daig
daje
dajo
dakota
dakotensis
dal
dalbey
daldinia
dali
dalij
dalla
dalne
dalsze
dalszego
dalszy
dalszych
dan
dance
dane
danego
dang
dania
danica
danie
daniel
daniels
danish
dano
dans
dansk
dante
danthoniae
danuta
dany
danych
danyj
danym
dargin
dariusz
dark
darker
darussalam
darwiniana
das
dasturella
dasyscyphella
dasyscyphus
data
database
databasen
datatype
datavalue
date
dateformat
datetime
datronia
daty
dave
david
davidiella
davidiellaceae
davidson
davies
davis
davisomycella
dawid
dawn
dawson
day
days
dała
dało
dały
dbo
dbywo
dc
dca
dce
dcu
dcy
dd
ddalo
ddział
ddzielo
de
dead
dearn
dearnessii
death
debaryomyces
debaryomycetaceae
debilis
debjut
debug
decade
decaying
decidua
decipiens
decline
decock
decolorans
decorticans
decorticata
decumbens
decyduje
decyzyje
decyzyjo
deep
default
defaults
defin
define
definicyje
definicyji
definicyjo
deflectens
deflexula
deformans
deformis
degawa
degel
degelii
degenerans
dego
degree
degro
dei
deighton
deightoniella
deightonii
deigloria
dej
dek
dekkera
deklarowało
dekn
del
delacr
delas
delaware
delc
delegacyje
delgado
delhi
delicata
delicatula
delicatulum
delicatus
delimitation
delineata
deliquescens
delitescens
delitschia
delitschiaceae
dell
della
delphinella
delta
dem
dematiaceae
dematiaceous
dematium
demi
demissa
deml
demoulin
den
dendritica
dendrodochium
dendrographa
dendroides
dendrophoma
dendrophora
dendrospora
dendrostilbella
dendrothele
dendryphion
denis
denise
denkschr
denmark
dennis
dennisiella
dennisii
dennisiomyces
densa
densospora
dentata
dentatus
denticulata
dentipellis
dentocorticium
dep
departamyn
departamync
departamyntu
department
dependencies
depressa
depressum
depriest
dept
dequatre
der
derbyshire
dermateaceae
dermatitidis
dermatocarpon
dermatosorus
dermea
dermocybe
dermoloma
des
descals
descolea
descomyces
descr
described
description
descriptions
desert
deserticola
desertorum
deshp
designated
desjardin
desm
desmazie
desmazieri
desmodii
destiny
destructans
destruens
destuntzia
det
detailed
determined
detroit
detrusa
deuteromycetes
deuteromycotina
deutsch
deutsche
deutschen
deutschl
deux
dev
development
deviata
devon
devriesia
dewo
dewrzo
deł
di
diacanthodes
diachora
diadema
diademaceae
diagnoses
dialekcie
dialekt
dialekty
diana
dianese
dianthi
diaphana
diaphanum
diaporthaceae
diaporthales
diaporthe
diatrypaceae
diatrype
diatrypella
dibaeis
dicephalospora
dich
dicheirinia
dichomera
dichomitus
dichondrae
dichostereum
dichotoma
dichotomocladium
dichotomus
dichroa
dichter
dichtery
dick
dickinson
dicks
dicosmo
dictionary
dictyochaeta
dictyochaetopsis
dictyonella
dictyonema
dictyopanus
dictyospora
dictyosporium
dictyosporus
dicyma
didyma
didymascella
didymella
didymocyrtis
didymopsora
didymosphaeria
didymosphaeriaceae
die
died
diederich
diego
dienst
dietel
dietelia
diffractaica
diffusa
digitalis
digitata
digitatum
diheterospora
dimargaris
dimargaritaceae
dimelaena
dimerium
dimeromyces
dimidiata
dimitic
dimorpha
dimorphospora
dimorphosporum
dinemasporium
dingley
dingleya
dingleyae
dino
dinozauro
dinozaury
dioicae
diorchidium
diorygma
dioscoreae
diospyri
diphymyces
diplocarpon
diplococcium
diplodia
diplodina
diplomitoporus
diplomyces
diplonaevia
diplophlyctis
diploschistes
diplotomma
dipodascaceae
dipodascus
dir
dirinaria
dirty
dis
discella
dischloridium
disciformis
discinaceae
discinella
disciseda
discocainia
discogs
discoidea
discolor
discom
discomyc
discomycete
discomyceten
discomycetes
discophora
discosia
discosphaerina
discosporina
discosporium
discostroma
discreta
discula
disease
diseases
disney
disp
dispersa
dispira
display
displaydata
displayprecision
disposition
diss
disseminata
dissing
dissophora
distance
distans
distinct
distincta
distopyrenis
distribution
ditmar
ditopella
div
divakar
divaricata
divergens
diversa
diversispora
diversity
division
dixon
dj
djalekc
djalekt
djalektu
djalykt
djalyktu
djalykty
dka
dkach
dki
dko
dkowe
dkowo
dkowych
dla
dlauchy
dlc
dlo
dlou
dlu
dme
dms
dmy
dn
dna
dne
dni
dnia
dniu
dniym
dno
dnych
do
doassansia
doassansiaceae
doassansiopsidaceae
doassansiopsis
dobczycy
dobr
dobra
dobre
dobrego
dobro
dobry
dobrze
dobrzica
dobrzin
doc
dochodzi
dochodziyło
dochtu
document
docums
dodge
dodgei
dodowo
dodz
dogma
dogrywce
doi
doidge
doimyntnie
dokludzio
dokludziyło
dokludziyły
doko
doku
dokumynt
dokumynta
dokumynto
dola
dolan
dolaru
doległos
dolichospora
dolichosporum
dolina
doliny
dolne
dolnego
dolni
dolno
dolnos
dolnołuz
dolny
dolnyj
dolnym
dom
domagnano
domaradzki
domingensis
dominiak
dominicana
dominique
don
donald
done
donia
donk
donkii
donnell
donovan
dopiyro
dopo
dopołnio
dopływ
dopływy
dora
dordogne
dorobku
dorota
dortmund
dory
dorzyczo
dorzyczu
dos
dostac
dostali
dostała
dostało
dostały
dosto
dostowo
dostoł
dostoła
dostymp
dostympno
dostympny
dostympu
doszło
dothidea
dothideaceae
dothideales
dothidella
dothideomycetes
dothidotthia
dothiora
dothioraceae
dothiorella
doubs
douglas
dowaju
dowki
down
downe
downo
downy
dowo
dowoł
dowu
dowych
doz
doznaju
dozwolo
doł
dołu
doły
dpadajo
dpednio
dpowiydz
dr
dra
drach
dracophylli
dramaturg
drawskim
dream
dreams
drechsler
drechslera
drepanoconis
drepanopeziza
dresden
dring
dro
droga
drogi
drop
dru
druge
drugi
drugigo
drugij
drugim
drugo
drugu
druk
druku
drummondii
drums
druz
druzhinina
dry
dryadis
dryina
drzewa
drzewo
ds
dsir
dt
dtxt
du
dubia
dubium
dublin
duby
ducha
duchowne
duchowny
duchy
duda
duen
duet
dufour
duge
dugi
dugich
dugo
dugos
dulcamarae
dumont
dumontii
dun
dunajcem
dung
dunn
duplex
duportella
dura
durandiella
durch
durella
durham
durieu
durs
durum
durus
dussii
dusza
duz
dv
dvd
dwa
dwadz
dwayaangam
dwie
dwje
dwo
dwołania
dwołaniya
dwu
dwugo
dwutlynek
dx
dy
dyc
dycki
dygo
dying
dyj
dyjecezyje
dykcjo
dykcju
dyko
dym
dymografijo
dymokratyc
dymokratyczno
dymokratycznyj
dymu
dyn
dynastyje
dynkmal
dynkmale
dynkmalu
dynor
dyntaxa
dyntaxadyntaxa
dyplo
dyplu
dyrechtu
dyrekt
dyskografijo
dysku
dyskusyjo
dystans
dystrybucyjo
dystrykc
dystrykt
dystryktu
dz
dze
dzenie
dzi
działalnos
działo
dzie
dziecin
dziedzin
dzieje
dziejo
dzieli
dzielnica
dzielnicy
dzielo
dziennik
dziepiyro
dziernika
dzierz
dziesio
dziesiyn
dzieła
dzieło
dzij
dzio
dzioła
dzis
dzisiej
dzisio
dzisioj
dziymnego
dziyn
dziynki
dziyrnika
dziyrniku
dzke
dzkigo
dzkim
dzko
dztw
dztwa
dztwie
dztwje
dztwo
dztwu
dztwym
dła
dłach
dło
dłym
e
each
earle
early
earth
east
eastern
eaton
eb
ebje
ebne
ebnos
ebry
ebuli
eburnea
eby
ec
ech
echidnodes
echinata
echinochaete
echinodontium
echinospora
echinulata
echinulatum
echinulatus
echo
eckim
ecol
ecology
econ
ecseri
ectolechiaceae
ecuador
ed
eda
ede
edgar
edge
edicions
edin
edinb
edinburgh
edit
edith
edition
editor
edla
edlce
edle
edleckigo
edleckim
edlu
edmund
edn
eds
edu
eduard
education
edukacyjo
edvard
edward
edycyjo
edythea
edz
ee
eef
eesti
efekt
effigurata
effusa
effusum
efibulobasidium
egan
egea
egenula
egipc
egipt
egiptu
ego
egon
ehrenb
ehrenberg
eichleriella
eicker
eid
eidam
eight
ein
eine
either
ej
eje
ejectosporus
ejowskim
ejs
eju
ek
eka
eki
ekman
eko
ekran
eksponat
ekspu
ekstra
eku
ekwadu
el
ela
elaeagni
elaeidis
elaeocarpi
elaphocordyceps
elaphomyces
elaphomycetaceae
elata
elatina
elatum
elazła
elblu
ele
elefantowych
elegans
elegantula
elektro
elektru
elektryczno
elements
elemynt
elemyntu
elemynty
elemyntym
elench
eleocharidis
elephant
eleutherascus
elevata
eleven
eli
elias
eliassonii
elina
elinu
eliny
elisha
elix
elixii
elizabeth
ell
ellefson
elliott
ellipsoidea
ellipsospora
ellipsosporum
elliptica
ellis
ellisembia
ellisiana
ellisii
ellsworth
elmerina
eln
elne
elno
elny
elo
elongata
elongatum
else
elseif
elsie
elsinoaceae
elsinoe
elske
elski
elskij
elskim
elsko
elu
elwer
elwry
elym
elymynt
elymynta
elymynto
elymyntu
elymynty
elymyntym
elz
em
emanuel
embellisia
emendation
emericella
emericellopsis
emersonii
emi
emil
emile
emilijo
emory
empetri
emphasis
empire
empty
en
encoelia
encyclop
encyclopedia
encyklopedia
end
ende
enderle
endiytriaceae
endiytrium
endless
endocalyx
endocarpon
endocilus
endococcus
endocronartium
endodothella
endogonaceae
endogone
endohyalina
endomelanconium
endomycetaceae
endoparasites
endoperplexa
endophragmiella
endophyllum
endophyte
endophytica
endoptychum
endoraecium
endoxyla
eng
engl
england
engler
englerulaceae
english
engyodontium
enrique
enterographa
entity
entityid
entodesmium
entoleuca
entoloma
entolomataceae
entomopathogenic
entomophaga
entomophthora
entomophthoraceae
entomophthorales
entophlyctis
entorrhiza
entorrhizaceae
entrophospora
entyloma
entylomataceae
enum
environs
eo
eocyn
eocynie
ep
epac
epan
ephebe
ephedrae
epibryon
epichloe
epicladonia
epicoccum
epicr
epidendri
epifoliar
epigaea
epilobii
epimyces
epiphylla
epiphyllum
epipolaeum
episphaeria
epithallina
epithele
epjyro
epn
epoce
epoka
epoki
epp
equi
equiseti
er
era
eragrostidis
erast
erb
erbnu
erbowizny
erecta
erectus
erelik
eremothecium
ergebn
erhard
eric
ericae
erichsen
erie
erik
erikss
eriksson
erikssonia
erikssonii
erinacea
eriobotryae
eriocaulago
erioderma
eriophori
eriosphaeria
eriosporium
erlanga
ern
ernest
ernst
erratomyces
error
errororentity
errors
ertz
erubescens
erumpens
ery
eryngii
erynia
eryniopsis
erysiphaceae
erysiphales
erysiphe
erysipheae
erysiphoides
erythrostigma
erythroxyli
erz
erze
es
escalloniae
esch
eschw
escobar
esculenta
esenbeck
esnych
esp
espan
espe
esperanto
essai
essex
essl
essonne
est
esteve
estonica
estonskoi
estu
eszyn
et
etal
etayo
etc
ethnologue
etjopiji
etn
etniczne
etniczno
eto
etude
etymologijo
eu
euagarics
euantennaria
euantennariaceae
eucalypti
eucalypticola
eucalyptorum
eucalyptus
eugeniae
euonymi
eupatorii
eupenicillium
euphorbiae
euphoriomyces
eupropolella
eupyrena
eur
eure
europ
europa
europaea
europaeus
europe
european
europejskiego
europy
eurotiales
eurotiomycetes
eurotium
eurovoix
euryae
euryancale
eusynaptomyces
eutypa
eutypella
ev
evaluation
evans
evansii
everh
everniastrum
evert
every
evidence
evil
evo
evol
evolution
ew
ewa
ewickigo
ewicy
ewing
ewjyn
ewo
ewolucyje
ewolucyjne
ewolucyjo
ewoluowały
ex
exact
exarmidium
excavata
excelsa
excelsior
excentrica
excluded
excluding
exidia
exidiopsis
exigua
exiguus
exile
exilis
exist
exists
exobasidiaceae
exobasidiomycetes
exobasidium
exophiala
exosporium
exot
exp
expansa
expansion
expansum
exped
experience
experimental
explorer
exs
exserohilum
exsic
exsicc
exsiccati
extensa
externa
extra
eye
eyssart
ez
eła
f
fa
fabae
fabre
fabryka
fabryki
fabryko
fabula
fabuła
fac
face
fach
fachu
fachy
facto
factor
faculty
faetano
fagi
fagicola
faginea
fago
fairfield
faisalabad
fajer
falcata
falcatus
falcocladium
fall
fallaciosa
fallah
fallax
fallback
false
fam
familia
families
familije
familiji
familijnych
familijo
familiju
familoki
family
famname
fan
fana
fantastyka
fantasy
fanu
fany
far
fara
farb
farba
farbach
farbie
farby
farinacea
farinosa
farinosus
farlow
farlowia
farlowii
faro
farorz
farr
farysia
fasc
fasciatispora
fascicle
fasciculare
fasciculata
fasciculatum
fasciculatus
faso
fater
fatra
fatrym
fauna
faurel
fautrey
favolaschia
favolaschiaceae
favolus
favre
favrei
fayodia
faza
fazie
fc
fdate
fe
fear
feat
featuring
feddes
federacyje
federacyji
federacyjo
federation
fedrowan
feeding
feel
felidae
feliks
feliksa
felix
fell
fellhanera
feltgen
fems
fendleri
fenestella
fenestellaceae
fenestrata
fenn
fennell
fennellomyces
fennica
fensywa
ferajn
ferajnu
ferajny
ferdinand
ferdynand
fergussonii
fermentans
fermju
ferna
fernando
ferrarisia
ferreira
ferrer
ferrington
ferruginea
ferrugineum
fertilis
fertilissima
ferwaltu
fes
fest
festival
festiwal
festiwalu
festo
festu
festucae
festy
fetch
fetu
ff
ffad
fg
fi
fiar
fiat
fibrillosa
fibrosa
fibulobasidium
ficariae
fici
ficjalnie
ficjalno
fick
fiction
ficyjno
fidalgo
fide
fidz
field
fieldiana
fieldname
fields
fierce
fifa
fig
figueras
figur
figury
fiji
fikcyjne
filamentosa
file
filicicola
filicina
filicis
filicum
filiforme
filiformis
filip
filipa
filipendulae
filipinach
filipinu
film
filma
filmach
filmie
filmje
filmo
filmografijo
filmowe
filmowo
filmowy
filmowych
filmowyj
filmu
filmweb
filmy
filosporella
filozof
filozofije
filozofijo
filozofy
filson
fimbriata
fimbriatum
fimbriatus
fimetaria
fimetariella
fimeti
fimicola
fin
final
finale
finalista
finansowe
find
findlang
finiste
fink
finl
finlandyji
finlandyjo
finns
fino
finoł
finołu
fire
firefox
firenze
firma
firmy
first
fis
fisch
fischer
fischeri
fisher
fissurina
fistulina
fistulinaceae
fistulinella
fisz
fisza
fisze
fitopatol
five
fizyce
fizyczne
fizyczno
fizycznych
fizyk
fizyka
fizyki
fl
flabelliforme
flabellophora
flabellospora
flaccida
flag
flagellariae
flagellata
flagelloscypha
flagellospora
flags
flammula
flammulaster
flammulina
flandryjo
flava
flavescens
flavicans
flavida
flavidum
flavidus
flavipes
flaviporus
flavoparmelia
flavopunctelia
flavovirens
flavum
flavus
flechten
fletcher
flexuosa
flexuosum
fliger
fligra
fligry
flo
floccosa
floccularia
floor
flora
flore
florence
florida
floridana
floridanus
floriforme
floriformis
flot
flower
flowers
floyd
flug
fluorescens
fluviatispora
fly
fmt
fo
foetens
fogel
fois
fojerwery
folia
foliacea
foliicola
foliicolous
folk
follmann
following
folwark
fomes
fomitiporia
fomitopsidaceae
fomitopsis
fonseca
font
fontsize
food
football
for
force
ford
foreign
forest
forestry
forests
forgotten
forla
forlyjzo
form
forma
formaln
format
formerly
formicarum
formie
forming
formje
formo
formosa
formosana
formosanum
formosum
formosus
formu
formy
forsch
forssell
forsztand
forsztandym
fort
forum
foster
fotkarakta
fotnoter
fotografiji
fotografijo
found
foundation
four
fourn
fox
fr
fra
frac
frag
fragariae
fragile
fragilis
fragmynt
fragrans
frakcyjo
frame
franc
franca
france
francesco
franche
francis
francisco
franciszek
franciszka
francke
franco
francuske
francuski
francuskigo
francuskij
francusko
francyje
francyji
francyjo
frangulae
frank
frankfurt
franklin
frantis
franz
fraser
fraserae
fraxini
frederic
frederick
free
freeman
freire
french
fresen
fresenius
freshness
freshwater
freunde
frey
freycinetiae
friabilis
friday
fridiano
fridrich
friederich
friedrich
fries
friesia
friesii
frisch
frisvad
frjuli
fro
from
frondicola
fronds
front
fru
fructicola
fruit
fruticans
fruticum
fryday
fryderyk
fryderyka
ft
fto
ftojs
ftorou
ftory
fu
fuciformis
fuckel
fuckelii
fuegiana
fuegianum
fuego
fugiens
fujikuroi
fujisanensis
fuliginosa
full
fulva
fulvescens
fulvum
fumiglobus
fumosa
function
functions
fundacyje
fung
fungal
funghi
fungi
fungicola
fungicolous
fungorum
fungowanio
fungujo
fungus
funicola
funk
funkcji
funkcjo
funkcyje
funkcyji
funkcyjo
furcata
furcatus
furculomyces
furfuracea
furfurella
furgaju
furia
furs
further
furuya
fusaria
fusariella
fusarioides
fusarium
fusbal
fusbalklub
fusbalkluby
fusbalok
fusbaloki
fusbalowe
fusbalowy
fusbalu
fusca
fuscella
fuscescens
fuscidea
fuscideaceae
fuscolachnum
fuscopannaria
fuscoporia
fuscum
fuscus
fusichalara
fusicladium
fusicoccum
fusiforme
fusiformis
fusispora
fusisporium
fusisporum
fusisporus
fvers
fyn
fyrlo
fyrma
fyrmy
g
ga
gabarnaudia
gabriel
gabu
gadanho
gado
gady
gadz
gael
gaelicko
gaeumannii
gaeumannomyces
gaillard
gal
gala
galeopsidis
galerella
galericulata
galerina
galeropsis
galeryjo
galicyje
galii
galiorum
gall
gallacea
gallaceaceae
gallica
galloway
galoty
galzin
galzinia
game
games
gams
gamsii
gamsylella
gamundi
gamundia
gan
gandhe
gange
ganoderma
ganodermataceae
gans
gar
garci
garciniae
gard
garda
garden
gardeniae
gardner
gardneri
garonne
garwolin
gary
gas
gasteromycetes
gastroboletus
gastropila
gato
gattung
gatu
gaubae
gaultheriae
gauthier
gauthieromyces
gautieria
gaz
gazeta
gazu
gb
gdan
gdn
gdns
gdzie
ge
geastrum
gebiete
geest
geesterani
geesteranus
gei
geiser
gelasinospora
gelatinopsis
gelatinosa
geldu
gelopellis
geltingia
gen
gene
genera
general
generation
genere
generic
genes
genet
genetics
geniculatus
geniculifera
genistae
genistelloides
genistellospora
geno
genre
genres
gentianae
genus
geo
geobot
geoformatdata
geoglossaceae
geoglossum
geograficzne
geograficzno
geograficzny
geograficznyj
geografijo
geohack
geometryjo
geomyces
geophila
geopora
geopyxis
georg
george
georgefischeria
georgefischeriaceae
georges
georgia
geosmithia
geotrichum
ger
gerais
geranii
gerard
gerd
gerhard
gerhart
germ
germain
german
germanici
gernandt
gerowanie
gerrard
gerronema
gers
gerwasia
gerycht
ges
geschichte
gesell
geszefc
get
getargs
getbeststatements
getcurrentframe
getcurrenttitle
getentityidforcurrentpage
getentityobject
getparent
getsitelink
gettitle
getvalue
geu
ghaffar
ghana
ghany
ghats
gholl
ghosh
gi
giacopo
gib
gibbera
gibberella
gibellula
gibko
gibkos
gibson
giddens
gif
gigantea
giganteum
giganteus
gigantospora
gigas
gigasperma
gigaspora
gigasporaceae
gigasporum
gij
gije
gijo
gilb
gilbert
gilbertson
gilbertsonii
gilles
gillesii
gillet
gilman
gilmaniella
gilva
ginns
giorn
giovanni
giralt
girl
girls
gironde
gitar
gitara
gitary
gitarze
gitarzista
gitta
giuseppe
given
gjaerum
gks
glabra
glabrescens
glabrocyphella
glabrum
glacialis
gladioli
glandicola
glareosa
glas
glasgow
glauca
glaucescens
glaucum
glauer
gleiwitz
glen
glendale
glenn
glin
glina
gliocephalotrichum
gliocladiopsis
gliocladium
gliomastix
gliophorus
gliwic
gliwice
glo
global
globe
globispora
globosa
globospora
globosum
globosus
globulifera
glockling
gloeocantharellus
gloeocystidiata
gloeocystidiellum
gloeodontia
gloeomucro
gloeomyces
gloeophyllaceae
gloeophyllum
gloeoporus
gloeospora
gloeosporium
gloiocephala
gloiothele
glomaceae
glomales
glomeraceae
glomerata
glomerella
glomerellaceae
glomeromycota
glomosporiaceae
glomus
gloniella
gloniopsis
glonium
glory
glotzia
gloucestershire
glycines
glyphis
glywicach
glywice
glywicy
gmin
gmina
gminie
gminu
gminy
gn
gnatu
gnomonia
gnomoniaceae
gnomoniella
gnu
go
god
godac
godaju
godali
godało
godce
godek
godka
godkach
godki
godkoch
godkowyj
godku
godo
godronia
godu
godulla
gody
godz
godzinie
godziny
goes
goffinet
gogo
gogolin
gogu
goh
goia
goid
goidanichiella
gold
golden
goldman
goldu
goleszu
golo
golovinomyces
golubev
golyn
gomphaceae
gomphidiaceae
gomphidius
gomphillaceae
gomphus
gonatobotryum
gone
gonz
gonza
good
google
goos
goplana
gora
gordon
gorgoniceps
gorko
gos
goso
gospodarc
gospodarce
gospodarka
gospodarki
gospodo
gossypii
gossypina
gostyn
got
gothob
goto
gottfried
gottlieb
gottlob
goudaju
goudou
gov
govindu
govt
gowa
goward
gowie
gowu
gowy
goz
gozo
gr
gra
grac
gracile
gracilenta
gracilipes
gracilis
gracilistilbella
gracz
graddon
gradinger
grafijo
grafik
grafika
grafiki
graham
grajo
graju
grali
gramatyczny
graminea
graminearum
graminella
gramineum
graminicola
graminis
graminum
grammothele
grammothelopsis
gramowan
gran
grand
grande
grandis
grandispora
granica
granicach
granice
granico
granicy
graniczo
graniczy
granmo
granulans
granulata
granulatum
granulifera
granulosa
granulosum
graphidaceae
graphina
graphis
graphium
graphyllium
grasses
graveolens
grawitacyjo
gray
graz
gre
great
greater
greatest
grecki
greckigo
greckij
grecko
grecyje
grecyji
grecyjo
green
greene
greg
gregaria
gregarius
gregorian
gregory
greifswald
greilhuber
greki
greko
grelet
gremmen
grenoble
grenzschutzu
gresl
grev
greville
grevillea
grevilleae
grey
grgur
gribov
griby
gridcolor
gries
griffiths
grifola
grin
grinb
grisea
griseola
griseum
griseus
gro
grodko
grodz
grodzki
grodzkim
groenewald
groenlandica
grosmannia
grossulariae
grou
group
groups
grove
grovei
groves
grovesinia
growing
groß
groł
groła
gru
grub
gruba
grube
grubio
gruby
grudn
grudnia
grudz
grunge
grup
grupa
grupach
grupo
grupu
grupy
gruyter
gruz
gruzin
gruzyje
gruzyji
gruzyjo
gry
gryfin
gryfno
grynlandyje
grynlandyjo
gryzenh
grzegorz
grzegorza
grzib
grziba
grzibabdel
grzibabdullah
grzibagerer
grzibalcorn
grziballesch
grzibantoni
grzibapinis
grzibaptroot
grzibarambarri
grzibarnolds
grzibarthur
grzibarx
grzibarzanlou
grzibb
grzibbainier
grzibbaker
grzibbalazy
grzibbandoni
grzibbanker
grzibbaral
grzibbarclay
grzibbarr
grzibbarron
grzibbas
grzibbat
grzibbatista
grzibbauer
grzibbeaton
grzibbell
grzibbenjamin
grzibbenny
grzibberk
grzibberkeley
grzibberl
grzibberlese
grzibberndt
grzibberthier
grzibbhat
grzibbidaud
grzibbissett
grzibbitanc
grzibblaszkowski
grzibboedijn
grzibboekhout
grzibboerema
grzibboesew
grzibboidin
grzibbon
grzibbondartsev
grzibbonord
grzibboud
grzibbougher
grzibbourdot
grzibbraun
grzibbres
grzibbresinsky
grzibbrumm
grzibbrummelen
grzibbuba
grzibbuchanan
grzibburds
grzibburitica
grzibburt
grzibbutin
grzibbuyck
grzibc
grzibcailleux
grzibcain
grzibcampbell
grzibcannon
grzibcano
grzibcanter
grzibcastan
grzibcastellano
grzibcavara
grzibces
grzibchang
grzibchardo
grzibchaverri
grzibchen
grzibchivers
grzibcif
grzibcleland
grzibclem
grzibcohn
grzibcooke
grzibcorda
grzibcorner
grzibcouch
grzibcrane
grzibcribb
grzibcrivelli
grzibcrous
grzibcummins
grzibcurrah
grzibcurzi
grzibd
grzibdai
grzibdarker
grzibdavid
grzibdavis
grzibde
grzibdearn
grzibdecock
grzibdeighton
grzibdennis
grzibdescals
grzibdesjardin
grzibdesm
grzibdicosmo
grzibdied
grzibdiederich
grzibdietel
grzibdingley
grzibdissing
grzibdo
grzibdogma
grzibdoidge
grzibdonk
grzibdothideomycetes
grzibdrechsler
grzibduby
grzibdumont
grzibdyko
grzibe
grzibellis
grzibengler
grziberiksson
grzibetayo
grzibf
grzibfaurel
grzibfautrey
grzibfell
grzibfogel
grzibfresenius
grzibfrisvad
grzibfro
grzibfuckel
grzibg
grzibgams
grzibgamundi
grzibgarci
grzibgerd
grzibgilb
grzibgilbertson
grzibgillet
grzibginns
grzibgjaerum
grzibgjærum
grzibglockling
grzibgo
grzibgoh
grzibgraddon
grzibgremmen
grzibgreslebin
grzibgrev
grzibgrgurinovic
grzibgrove
grzibgryzenhout
grzibguarro
grzibguba
grzibgue
grzibguo
grzibguzma
grzibh
grzibhallenb
grzibhamamoto
grzibhansf
grzibhar
grzibhara
grzibharkn
grzibharmaja
grzibhattori
grzibhawksworth
grzibheinem
grzibhenn
grzibhennebert
grzibhilitzer
grzibhirats
grzibhjortstam
grzibho
grzibhol
grzibhollo
grzibhoog
grzibhooker
grzibhorak
grzibhorie
grzibhosag
grzibhosagoudar
grzibhou
grzibhsieh
grzibhughes
grzibhuhndorf
grzibhuhtinen
grzibhuijsman
grzibhumber
grzibhyde
grzibi
grzibimazeki
grzibingold
grzibiturriaga
grzibj
grzibjeng
grzibjenkins
grzibjohanson
grzibjohnston
grzibjones
grzibju
grzibjuel
grzibjørst
grzibk
grzibkalchbr
grzibkarling
grzibkeller
grzibkhan
grzibkimbr
grzibkirk
grzibkirschner
grzibkirschst
grzibkits
grzibkleb
grzibko
grzibkobayasi
grzibkohlm
grzibkohlmeyer
grzibkoord
grzibkorf
grzibkotl
grzibkreisel
grzibku
grzibkukkonen
grzibkuntze
grzibkunze
grzibkurtzman
grzibkuthubutheen
grzibl
grziblachance
grziblagerh
grziblamarck
grziblanger
grziblarsson
grzible
grziblebel
grziblee
grzibletcher
grzibleuchtm
grzibli
grziblichtw
grziblichtwardt
grziblin
grziblind
grziblindau
grziblinder
grziblindr
grziblink
grziblinnem
grzibliro
grziblittle
grzibliu
grziblloyd
grziblodder
grziblowy
grziblu
grziblæssøe
grzibm
grzibmaas
grzibmagnus
grzibmains
grzibmaire
grzibmalenc
grzibmalloch
grzibmanier
grzibmarincowitz
grzibmarr
grzibmarvanova
grzibmassee
grzibmatsush
grzibmatsushima
grzibmay
grzibmcalpine
grzibmckenzie
grzibmcnabb
grzibmercado
grzibmiller
grzibminter
grzibmo
grzibmont
grzibmoravec
grzibmorgan
grzibmouch
grzibmoustafa
grzibmu
grzibmundk
grzibmunk
grzibmurrill
grzibn
grzibnag
grzibnakagiri
grzibnakase
grzibnakasone
grzibnannf
grzibnaumov
grzibnawawi
grzibnguyen
grzibniemela
grzibniessl
grzibnirenberg
grzibnitschke
grzibnoordel
grzibnoordeloos
grzibnu
grzibo
grziboberw
grziboberwinkler
grziboorschot
grziborton
grziboudem
grzibp
grzibpande
grzibparbery
grzibparmasto
grzibpass
grzibpat
grzibpatil
grzibpearce
grzibpeck
grzibpegler
grzibpeintner
grzibpenz
grzibpers
grzibpetch
grzibpetersen
grzibpetr
grzibpetrak
grzibpetrini
grzibpeyronel
grzibphaff
grzibphillips
grzibpiatek
grzibpiepenbring
grzibpila
grzibpiroz
grzibpitt
grzibpouzar
grzibpreuss
grzibpunith
grzibpunithalingam
grzibque
grzibr
grzibrabenh
grzibrabenhorst
grzibracib
grzibraithelh
grzibraitv
grzibraitviir
grzibrajchenberg
grzibramaley
grzibraper
grzibrappaz
grzibre
grzibredhead
grzibrehm
grzibreid
grzibremaud
grzibreynolds
grzibrick
grzibridley
grzibrifai
grzibroberts
grzibrogers
grzibrogerson
grzibromagn
grzibrossman
grzibrostr
grzibryvarden
grzibs
grzibsacc
grzibsaccardo
grzibsampaio
grzibsamson
grzibsamuels
grzibsavile
grzibsawada
grzibschild
grzibschipper
grzibscholler
grzibschroers
grzibschubert
grzibschwein
grzibseaver
grzibsegedin
grzibseifert
grzibsensu
grzibsharma
grzibshear
grzibshearer
grzibsherwood
grzibshivas
grzibshoemaker
grzibsigler
grzibsimmons
grzibsinger
grzibsivan
grzibsivanesan
grzibskou
grzibsmith
grzibsoop
grzibsousa
grzibsparrow
grzibspecies
grzibspeg
grzibspooner
grzibsriniv
grzibstadler
grzibstalpers
grzibstarba
grzibstchigel
grzibsteyaert
grzibstolk
grzibstrongman
grzibsturm
grzibsubram
grzibsubramanian
grzibsuh
grzibsung
grzibsutton
grzibsvrcek
grzibswart
grzibsyd
grzibsydow
grzibt
grzibtanaka
grzibtassi
grzibtaylor
grzibtehon
grzibteng
grzibthaxt
grzibthaxter
grzibtheiss
grzibtheissen
grzibthirum
grzibthom
grzibthorn
grzibthu
grzibtiegh
grzibtomilin
grzibtorrend
grzibtrail
grzibtranzschel
grzibtrappe
grzibtraverso
grzibtubaki
grzibtul
grzibtzean
grzibu
grzibudagawa
grzibv
grzibva
grzibvalle
grzibvan
grzibvasilyeva
grzibvelen
grzibvelenovsky
grzibvellinga
grzibverkley
grzibvie
grzibvittad
grzibvoglmayr
grzibvon
grzibvuill
grzibw
grzibwakefield
grzibwalker
grzibwallroth
grzibwalt
grzibwang
grzibwarcup
grzibwatling
grzibwehm
grzibweijman
grzibwestend
grzibwhalley
grzibwhetzel
grzibwhite
grzibwhitton
grzibwilldenow
grzibwilliams
grzibwilloughby
grzibwollenweber
grzibwu
grziby
grzibyaguchi
grzibyamada
grzibyao
grzibyarrow
grzibyoshim
grzibzahlbruckner
grzibzang
grzibzare
grzibzeller
grzibzhang
grzibzhao
grzibzhuang
grzibzipfel
grzibzopf
grzibzukal
grzyby
grønland
gs
gsub
gu
guadalupensis
guaduae
guanacastensis
guaranitica
guaraniticum
guarro
guatemalensis
guazumae
guba
guchołazy
gucht
gudz
gue
guestia
guez
guianensis
guide
guignardia
guilliermondii
guillot
guinea
guitar
guitars
gul
guli
gulska
gult
gunnar
gunnii
guo
gupta
gustaf
gustav
gustaw
gut
guttulata
guu
guy
guyana
guyanensis
guzma
guzmanii
gwara
gwaru
gwary
gwiazda
gwinyje
gwinyji
gwinyjo
gwinyju
gwio
gwjezdne
gwojz
gwoz
gyalectaceae
gyalidea
gyalideopsis
gyan
gyburstag
gydichtu
gydichty
gyeln
gymby
gymnascella
gymnoascaceae
gymnoascus
gymnoderma
gymnohydnotrya
gymnomyces
gymnopaxillus
gymnopilus
gymnopus
gymnosporangium
gyn
gynau
gynetyczno
gyno
gynsto
gynstos
gyo
gyoerffyella
gyromitra
gyrothrix
gyszichc
gyszichta
gyszichtowe
gyszichtowo
gyszichty
gło
głogo
głogu
głos
głosio
głoso
głosy
głoszo
głowne
głu
h
ha
haase
habana
habitats
habsburg
habsburgo
haematites
haematomma
haematommataceae
haematonectria
hafellia
hafellner
hafellneri
hagedorn
haglundia
hague
hai
haines
hainesia
hajduki
hajerskigo
hajiti
hajnel
hajnla
hajnowskim
hale
halei
halemba
halepensis
halima
hall
hallenb
haller
halling
halloween
haloguignardia
halophila
halosarpheia
halosphaeria
halosphaeriaceae
halosphaeriales
halst
hamam
hamaspora
hamata
hamatocanthoscypha
hambl
hambleton
hamburg
hamerikan
hamers
hamilton
hammer
hampshire
han
hanchett
handb
hande
handel
handelii
handl
handlowe
handlowo
handlowych
handlowym
handlu
hanlin
hanna
hannes
hans
hansa
hansen
hanseniaspora
hansenii
hansenula
hansf
hansford
hansfordia
hanson
hanusik
hapalocystis
hapalophragmium
hapalopilus
haplomyces
haplothecium
haplotrichum
happy
haptocillium
har
hara
harada
hard
harkn
harknessia
harknessii
harmaja
harmo
harold
harore
harpella
harpellaceae
harpellales
harpiytrium
harpophora
harposporium
harr
harris
harrison
harry
hartford
hartigii
hartmannii
harvard
harz
has
hashioka
hasse
hassei
hasło
hat
hatt
hattmurkla
hattori
hauerslev
hauerslevii
hauptmann
hauskn
hausknecht
haut
haute
hautes
hauts
havanensis
have
having
hawai
hawaii
hawaiian
hawaiiense
hawaiiensis
hawaje
hawker
hawksw
hawksworth
hawksworthii
hawyna
hawyny
haz
hazo
hazsl
he
head
health
heart
heat
heath
heaven
heavy
hebd
hebeloma
hebes
hebr
hebridensis
hector
hederae
hedericola
hedwigia
hefte
hegermila
height
heim
heimat
heimiella
heimii
heimioporus
hein
heinem
heinemann
heinrich
hel
helena
heleococcum
helianthi
helicascus
helicobasidiaceae
helicobasidium
helicocephalum
helicodendron
helicogermslita
helicogloea
helicogonium
helicoma
helicomyces
heliconiae
helicospora
helicosporium
hell
hellebori
helminthosphaeria
helminthosphaeriaceae
helminthosporium
helmut
helotiaceae
helotiales
helotium
help
heluta
helv
helvella
helvellaceae
helvetica
helwiga
hemileia
hemimycena
hemiphacidiaceae
hemisphaericum
hemisphere
hemithecium
hemmes
hend
hendersonia
hendrik
henelius
henicospora
henkel
henn
hennebert
hennen
henningsomyces
henri
henricii
henrique
henry
henryk
henryka
henssen
hensseniae
hepp
heraclei
herb
herbarum
herbert
hercegowin
hercegowiny
here
heredia
hericiaceae
hericiales
hericium
hermann
hern
herna
herpotrichia
herpotrichiellaceae
herre
herrei
herrera
herriot
herrmann
hertel
hertfordshire
herzogia
hesler
hess
hesselt
hesyji
hesyjo
heterobasidiomycetes
heterobasidion
heterochaete
heteroconium
heterodermia
heterodoassansia
heterodoxa
heteroepichloe
heterogene
heteromorpha
heteropatella
heterophragmatis
heteroplacidium
heteroporus
heteroptera
heterosphaeria
heterospora
heterosporium
heterosporum
heterothallic
hetfield
heveae
hewimetal
hexagonia
heyderia
hi
hians
hibernica
hibisci
hiemalis
hieracii
high
higher
highland
hilber
hilfa
hilitzer
hill
hills
himalaje
himalayana
himalayas
himalayensis
himantia
hindi
hinnulea
hino
hinomyces
hint
hip
hiphopedia
hipoteza
hippocastani
hippophaes
hirats
hiratsuka
hiratsukae
hirayama
hirsuta
hirsutella
hirta
hirtum
his
hispanica
hispanicum
hispidula
hispidulum
hist
histeridomyces
histoire
histoplasma
historia
history
historyc
historyczne
historycznie
historyczno
historyczny
historycznych
historycznym
historyje
historyji
historyjo
historyk
historyki
hiszpan
hitler
hitlera
hits
hjortstam
hjortstamia
hl
hlawne
hlawniy
hlen
hlich
hn
hned
hnel
hner
hnk
ho
hochsch
hochschule
hochstetteri
hocking
hodge
hodges
hodgkiss
hoffm
hoffmann
hofstetter
hohenbuehelia
hoheriae
hokkaido
hol
holandyjo
holci
holland
hollo
hollywood
holm
holmii
holophaea
holstein
holsteinu
holtermannia
holubova
holw
holwayi
home
homo
homobasidiomycetes
homostegia
honda
hong
hongo
honolulu
honour
honsiu
hood
hoog
hook
hooker
hookeri
hope
hopple
hor
hora
horak
horakii
hordei
horie
horizontal
hormiactis
hormographiella
hormonema
horn
horovitz
horrida
horti
hosag
hosagoudar
hosoya
host
hosts
hot
hotel
hotson
hou
houby
hour
house
houston
how
howard
howe
howeana
hr
hrabstwa
hrabstwach
hrabstwje
hrabstwo
hsieh
hsu
htm
html
http
https
hu
huang
hubert
huc
hucie
huds
hudson
hue
hughes
hughesii
hugo
huguenin
huhndorf
huhtinen
huijsman
huijsmanii
hulica
hulicu
hulicy
hum
human
humaria
humber
humicola
humidicutis
humilis
humphreya
humuli
hung
hungarica
hunt
hunter
hut
huta
hutn
hutnictwa
hutniczy
huto
huty
hyalina
hyalinia
hyalinum
hyalinus
hyalocamposporium
hyalopeziza
hyalorbilia
hyaloscypha
hyaloscyphaceae
hyalosphaera
hyalospora
hybrida
hyde
hydnaceae
hydnangiaceae
hydnellum
hydnochaete
hydnodontaceae
hydnoidea
hydnopolyporus
hydnum
hydrangeae
hydrophila
hydropisphaera
hydropus
hygrocybe
hygrocyboides
hygrophila
hygrophoraceae
hygrophoropsidaceae
hygrophoropsis
hygrophorus
hyme
hymenelia
hymeneliaceae
hymenochaetaceae
hymenochaetales
hymenochaete
hymenogaster
hymenomycetes
hymenopsis
hymenoscyphus
hymenula
hymn
hynryk
hyperborea
hyperici
hyperphyscia
hyphal
hyphoderma
hyphodermella
hyphodermoideae
hyphodiscus
hyphodontia
hypholoma
hyphom
hyphomycete
hyphomycetes
hyphozyma
hypobryon
hypocenomyce
hypochnicium
hypocopra
hypocrea
hypocreaceae
hypocreales
hypocrella
hypocreopsis
hypoderma
hypogeous
hypogymnia
hypohelion
hypomyces
hyponectriaceae
hypotrachyna
hypoxyloides
hypoxylon
hypsizygus
hyrskos
hysterangiaceae
hysterangium
hysteriaceae
hysteriaceen
hysterioides
hysterium
hysterobrevium
hysterographium
hysteronaevia
hysteropezizella
hysteropycnis
hysterostegiella
hysterostomella
hywel
i
ia
iba
iberian
ibn
ibu
iby
ic
ica
icach
ice
ich
ichi
ichtiozaury
ichu
icki
ickigo
ickim
icko
icne
icon
icones
ictwa
ictwje
ictwo
icu
icy
icz
icze
iczne
iczno
iczny
icznych
icznyj
iczo
iczu
iczy
id
idaei
idaho
idahoensis
identification
identity
iderlandach
iderlandu
iderlandy
iderlandzke
iderlandzki
ido
idriella
idx
idyjo
idyntyfikacyje
idz
idzie
ie
if
igdy
iger
igeryji
igo
igr
igru
igrziska
ihlen
ihrer
ii
iii
ij
ijan
ije
iji
ijo
ijs
ijsze
ijszo
ijszych
iju
ik
ika
ikach
ikaragui
ike
iki
iko
ikorz
ikorze
ikowo
iku
ikym
il
ile
ili
ilicina
ilicinum
ilicis
ill
illinois
illinoisensis
illman
illosporium
illudens
iln
ilos
ilu
ilustracyje
ilustratory
ilyomyces
im
ima
image
images
imagesize
imai
imazeki
imbricata
imdb
imi
imicles
imje
imjyrz
immersa
immersaria
imo
imowych
imp
imperatae
imperial
imperyju
implications
implicatum
impolita
impressa
impressum
impyrium
imshaug
imshaugia
imshaugii
imu
imy
in
ina
inaequale
inaequalis
inakszy
inakszyj
inc
incarnata
incarnatum
incarnatus
incerta
incl
including
inclusa
inconspicua
inconspicuum
increment
incrucipulum
incrustans
incrustata
incrustatum
incrustocalyptella
independent
index
india
indian
indiana
indica
indicum
indicus
indigenous
indjaneru
indjanery
indo
indoh
indonesia
indre
indu
industr
industrial
industry
industryje
industryji
industryjnygo
industryjo
indyjach
indyji
indyjski
indyjskigo
indyjskim
ine
ined
inek
inf
infecting
infernalis
inferred
infestans
inflata
info
infobox
informacyje
informacyji
informacyjo
information
informatyce
informatyka
infundibuliformis
inga
ingae
ingold
ingoldiella
ingoldii
ingradzkim
ingram
ingrid
inhabiting
initials
initiative
inki
inks
inksi
inksze
inkszego
inkszo
inkszy
inkszych
inkszyj
inkszym
inkszymi
inku
inline
inne
ino
inocybaceae
inocybe
inocyclus
inonotus
inopinata
inops
inornata
input
inquinans
inquinata
ins
insculpta
insect
insects
insert
inside
insigne
insignis
insiticia
inspiracyjo
inst
instead
instit
institut
institute
instituto
instytut
instytutu
insulare
insularis
insztrumenty
insztrumynt
insztrumynta
insztrumynto
insztrumyntu
insztrumynty
int
inte
intercedens
interesting
interjecta
intermedia
intermedium
intermedius
international
internec
internecowe
internecowy
internecu
internet
internetowo
internetowych
interrupta
intertidal
intertropicale
interwiki
into
intrahymenial
intralichen
intricata
intricatum
inu
inundata
inusitatum
invadens
invalid
inversa
invert
involucropyrenium
involuta
inwazyje
inwazyjo
iny
inz
io
ionaspis
iowa
ipa
ipairs
ipisy
ipn
ipomoeae
ips
iqbal
ir
ira
irak
iraku
iran
iranica
iranu
ireland
irena
iridis
irl
irlandii
irlandyje
irlandyji
irlandyjo
irlandzke
irlandzkigo
irlandzko
irlandzkych
irpex
irregulare
irregularis
is
isa
isaac
isabellina
isaria
isbn
ischaemi
ischnoderma
ise
isfara
isidiata
isidiosa
isk
iska
iskach
iskim
isko
islam
islamu
island
islandica
islands
islandyji
isle
isles
isnotempty
iso
isolated
isolates
isothea
israel
issatchenkia
issn
issue
ist
ista
istan
ister
isthmiella
isthmolongispora
istn
istniało
istniynio
istota
istoty
istracyjn
istracyjny
istracyjnygo
istu
isty
it
ita
ital
italia
italica
italijan
italije
italiji
italijo
italske
italski
italskij
italsko
italy
item
itemid
items
ito
itoh
itp
its
iturr
iturriaga
iu
iua
iuu
iuy
iv
ivan
ivory
iw
iwana
iwano
iwanofrankiwskim
iwersytec
iwersytet
iwersytetu
iwko
iwo
iwos
ix
ixorae
iz
izacyje
izacyji
izacyjo
izacyju
izba
izby
ize
izm
izmu
izowane
izrael
izraela
izraelu
ił
iła
iły
j
ja
jaap
jaapii
jabło
jabłon
jabłu
jac
jacek
jach
jack
jacks
jackson
jacksonii
jacob
jacobi
jacobs
jacques
jacz
jaczewski
jadwiga
jae
jahnii
jahnula
jahrb
jain
jak
jakarta
jake
jaki
jakich
jakigo
jakij
jakis
jakla
jako
jakob
jakos
jakub
jakuba
jalisco
jamaicensis
james
jamesa
jamesdicksonia
jamesii
jamna
jan
jana
jane
janeiro
janina
janu
janusz
janusza
januszewicz
jap
japan
japanese
japo
japonica
japonicae
japonicum
japonicus
japu
jard
jardi
jardin
jaroc
jarosch
jarosław
jarosławskim
jas
jasmini
jastrzymbjo
jatta
jattaea
java
javanica
javanicum
javanicus
javensis
javier
jawa
jawor
jay
jazz
jb
jca
jce
jciyec
jco
jcy
je
jean
jech
jechova
jeckim
jedna
jednak
jednakim
jednako
jedne
jednego
jedno
jednoko
jednos
jednostek
jednostka
jednostki
jednotka
jednotki
jednu
jednygo
jednyj
jednym
jednymi
jedyn
jedyno
jedyny
jedynym
jedz
jeewon
jego
jei
jeich
jeij
jej
jeji
jejich
jeli
jena
jeng
jenkins
jens
jensen
jersey
jerzy
jes
jescy
jeseter
jeseterowatych
jest
jesus
jeszcze
jez
jezioro
jezus
jezusa
ji
jich
jidisz
jigo
jij
jim
jimi
jir
jl
jne
jo
joachim
joanne
job
jodhpur
jodła
jodło
joe
joerstadia
johan
johann
johannes
johannsen
johans
johansen
johanson
johansonia
john
johna
johnny
johnson
johnsonii
johnst
johnston
johnstonii
jon
jones
jong
jordan
jordstja
jorg
jork
jorku
jose
josef
joseph
josserandii
journal
jp
jpeg
jpg
jr
js
jstor
jstwa
jstwo
ju
juan
juel
juglandina
juglandis
jul
julella
jules
julia
julian
julijsko
julius
juliusz
jumillera
jun
junci
juncicola
juncina
junciseda
juncus
junell
junewangia
jung
jungbluth
junghuhn
junghuhnia
juniperi
juniperina
juniperinum
juniperinus
jura
jurij
jury
jus
just
justify
juventus
juz
jy
jydna
jydno
jydnostka
jydnu
jydnygo
jydnyj
jydnym
jydyn
jygo
jym
jyn
jyndrzejowskim
jyno
jynoz
jyny
jynzyka
jørg
jørgensen
jørst
k
ka
kaba
kabatiella
kabatina
kaczyn
kadyncyje
kadyncyji
kaiserl
kaj
kajn
kajs
kakish
kakishima
kalabryjo
kalb
kalbii
kalchbr
kalchbrenner
kaliforn
kalin
kalisz
kalmiae
kalmusia
kalu
kalyndo
kalyndorz
kalyndorza
kamal
kamat
kamatii
kambodz
kambru
kamela
kamerlika
kameru
kami
kamien
kamil
kamiya
kamiynnego
kamiynnik
kamiynny
kamju
kamjyn
kampan
kampanije
kamracke
kamrat
kan
kana
kanada
kanady
kanadyjske
kanadz
kanał
kandrzin
kandydo
kane
kaneko
kanesuke
kano
kans
kansas
kansensis
kantu
kantvilas
kantvilasii
kanu
kapela
kapele
kapeli
kapelo
kapki
kapla
kaplica
kapoor
kapusta
kapusty
kar
kara
karaczaj
karajibskim
karbo
karc
karcie
karel
kariera
karjera
karjery
karjyra
karku
karl
karling
karlingiomyces
karn
karol
karola
karolina
karoowia
karst
karsten
karstenia
karstenii
karstenula
kart
karta
karto
kartofle
kartuskim
karty
kas
kashiw
kassel
kastylijo
kasz
kaszb
kasze
kaszub
kaszubski
kaszubskij
kaszubsko
kaszuby
kat
katalo
katalog
katalu
katar
katasztrofje
katedra
kategoria
kategoryje
kategoryji
kategoryjo
kathistes
katina
katolicke
katolicki
katolickigo
katolickij
katolicyzm
katoliku
katowic
katowicach
katowice
katowickigo
katowicu
katowicy
katowsko
kattowitz
katum
katyn
kauffman
kauffmanii
kavaka
kavinia
kawam
kawas
kawasaki
kaye
kaz
kazachstan
kazachstania
kazachstanu
kazachstu
kazan
kazimierz
kałmycyje
kb
ke
keane
kecki
kedy
keissl
keissleriella
keisuke
keith
keithii
kej
kejs
keleckim
keller
kellerm
kellermania
kellermanii
kemerowskim
kemler
ken
kendr
kendrick
keniensis
kenneth
kenntn
kent
kentucky
ker
kera
kerala
keralensis
keratinophilic
kere
kerego
kerej
kern
kernia
kernkampella
kero
kerstin
kert
keru
kery
kerych
kerygo
keryj
kerym
kerymi
kerymu
kerzi
kerzy
kesteren
kevin
kew
key
keyboard
keys
kg
khan
ki
kich
kickxellaceae
kiecka
kiere
kiero
kiery
kiev
kigo
kij
kijo
kilku
kill
killing
kilo
kilogramo
kilomyjtru
kim
kimbr
kina
kinabalu
kinabaluensis
kind
king
kingdom
kings
kionochaeta
kipczakske
kipczakskich
kiril
kirk
kirkii
kirramyces
kirschner
kirschst
kirschstein
kirschsteiniothelia
kisim
kisimova
kiss
kistler
kits
kitts
kiusiu
kl
klang
klangu
klara
klary
klas
klaso
klasy
klasycznyj
klasyfikacyje
klasyfikacyjo
klaus
klawiszowe
klawiyr
kleb
klebahn
klein
klift
klima
klimat
klimatu
klimatyczne
klo
klose
klossa
klotzsch
klotzschii
klu
klub
klubu
kluby
kluczborka
kludz
kludzio
kludzo
kludzu
kluski
kluyveromyces
km
kn
knif
knify
knight
knoph
know
knowledge
known
knox
knudsen
ko
kobay
kobayasi
kobe
kobiyt
kobiyty
koc
koch
kock
kockovaella
kod
kodama
kodamaea
kodu
kody
koenigstein
koerberiella
kohlm
kohlmeyer
kohn
koi
kojs
kol
kolbuszowskim
kole
kolejno
kolic
kolicach
kolice
kolicy
kolo
kolonia
kolorado
kolu
koma
komag
komagata
komagataella
komarova
komi
komo
kompsoscypha
kon
kondr
kong
kongl
koningii
konrad
konstal
koorchaloma
koord
kopernika
kor
korale
koralionastes
korczew
kordyana
korea
korean
korf
korfantego
korn
kornowac
kornwalije
koro
korsyka
koru
korup
korwin
koryjan
koryje
koryji
koryjo
korzyn
kos
koske
kosmiczne
kosowa
kosowje
kosu
koszalin
kot
kota
kotir
kotl
kotlina
koto
kotu
kova
kovlevic
kowalski
kowicy
koz
koła
kołach
koło
kr
kra
kraj
krajach
kraje
krajina
krajiny
krajowo
krajowyj
kraju
krajym
krajyn
krako
krakowa
krakowie
krakowje
krakowskim
krakowsko
kraku
kran
krapkowice
krapkowicy
krapkowskim
kras
krasnostawskim
kreger
kregervanrija
kreisel
krej
krejach
kreje
krejo
kreju
kremp
krempelhuber
krempelhuberi
kres
kresie
kreso
kresu
kresym
kretzschmaria
krew
kriegeriana
kriegeriella
krieglsteiner
krieglsteineri
kris
krisai
kro
krog
krogiae
krojc
krok
kros
krotoszyn
krs
kru
krug
kruidk
kruisii
krupy
krwi
krwje
kryjda
kryjdowego
kryjdy
krymu
kryngu
krypt
kryptfl
krys
kryse
krysie
kryso
krystus
krystusa
krystyna
krysu
krysy
krysym
kryteryju
krytyk
krzes
krzest
krzipop
krziz
krzizu
krzo
krzysztof
krzyz
ks
ksia
ksie
ksio
ksiynga
ksiynstw
ksiynstwa
ksiynstwie
ksiynstwo
ksiynstwym
ksytan
kształt
ksztołc
ksztołt
kto
ku
kuba
kubicek
kubje
kuby
kuchn
kuchnia
kuehn
kuehneola
kuehneri
kuehnii
kugla
kugle
kujawski
kujawsko
kuje
kukkonen
kuli
kulik
kulika
kulk
kult
kultu
kultur
kultura
kulturalne
kulturalny
kulturalnym
kulturowe
kulturowo
kulturowyj
kultury
kulturze
kumanasamuha
kumm
kummer
kuna
kuntze
kunwar
kunze
kunzei
kupa
kupic
kuplu
kupy
kurib
kurok
kursywa
kurt
kurtzman
kurtzmanomyces
kuru
kusanoi
kustowyj
kuthub
kuthubutheen
kutnowskim
kuyper
kuz
kwadrat
kwantowo
kwantowyj
kwas
kweilingia
kwietn
kwietnia
kwietniu
kwjec
kwjetn
kwjotu
kwjoty
kwon
ky
kym
kyn
kynty
kłodzkim
kłodzko
l
la
lab
label
labelorid
labiko
labor
laboulbenia
laboulbeniaceae
laboulbeniales
labour
laccaria
laccocephalum
lachance
lachancea
lachancei
lachnella
lachnellula
lachnocladiaceae
lachnocladium
lachnum
laciniata
lacju
lacki
lactarius
lactea
lacteus
lactocollybia
lactucae
lacunosa
lacustris
lado
lady
laestadia
laeticolor
laeticolora
laetinaevia
laetiporus
laetus
laeve
laevigata
laevis
lageniformis
lagerh
lagerheim
lagerheimii
lagunensis
lahore
lajo
laju
lake
lamarck
lamb
lambertella
lambotte
lamii
laminariae
lamoure
lamprospora
lan
lanata
lanatonectria
lancashire
lance
lanceolata
lanceolatum
lancisporomyces
land
lande
landszaft
landu
landy
landz
lane
lang
langcode
lange
langei
langer
langeronii
langobj
language
languagedata
languages
langwedocyjo
lanio
lanka
lanq
lanquetin
lantanae
lanuginosum
lanzia
lapponica
lar
larger
laricina
laricis
larmo
lars
larsen
larss
larsson
larvae
las
lasa
lasach
lasallia
lasch
lasiobelonium
lasiobolus
lasiosphaeria
lasiosphaeriaceae
last
lastname
lastra
lasu
lasy
lat
lata
latach
late
lateralis
lateriramulosa
lateritia
lateritium
lathyri
latifolia
latin
latispora
latitans
latitude
lato
latuje
latym
laundon
lauracearum
laureat
laurence
laurera
lauri
lauriomyces
laurocerasi
lavart
lavi
lawrence
lawrey
laxa
lay
layer
lazarycie
lazaryt
lazarytu
lb
lbl
lccn
ldmaa
le
lead
leaf
leafl
league
leave
leaves
lebel
lebo
lec
lecanactis
lecania
lecanicillium
lecanidion
lecanographa
lecanora
lecanoraceae
lecanorae
lecanorales
lecanoromycetes
lecanostictopsis
leccinellum
leccinum
lech
lecidea
lecideaceae
lecidella
lect
lecythophora
led
ledi
lee
leeds
leersiae
leeuwenhoek
lefebvre
left
legend
legeriomyces
legeriomycetaceae
legeriosimilis
leguminosae
leh
leht
leif
leight
leighton
leightonii
leiorreuma
leiosphaerella
leipzig
leite
lejeunia
lejs
leko
lembosia
lembosina
lemke
lemonniera
lempholemma
len
lendemer
lendn
lennart
lenta
lentaria
lentariaceae
lentinellus
lentinula
lentinus
lentithecium
lentomita
lenzites
leo
leohumicola
leon
leonard
leone
leonensis
leonhard
leopold
leotia
leotiaceae
leotiales
leotiomycetes
lepiota
lepista
leporina
lepraria
leprieurii
leprosa
lepteutypa
leptocorticium
leptoderma
leptodontidium
leptogiicola
leptogium
leptographium
leptonia
leptopeltidaceae
leptopeltis
leptoperidia
leptorhaphis
leptosperma
leptospermi
leptosphaeria
leptosphaeriaceae
leptosphaerulina
leptospora
leptosporomyces
leptostroma
leptostromella
leptothyrium
leptotrema
leptotrochila
leratiomyces
les
lesd
leslie
less
lestw
lestwa
lestwo
leszczyn
leszczyny
leszek
let
letcher
letendraea
lethariella
letn
letrouitia
letrouitiaceae
lett
lettau
leu
leucadendri
leuchtm
leuckert
leucoagaricus
leucocintractia
leucocoprinus
leucodecton
leucodiaporthe
leucogaster
leucogyrophana
leucopaxillus
leucophaea
leucophleps
leucopus
leucoscypha
leucospermi
leucosporidiella
leucostigma
leucostoma
leucotricha
leveillei
level
levis
lew
lewej
lewia
lewin
lewis
lewo
lewski
lewskigo
lewskij
lewsko
lewy
lewyj
lewym
lez
lezgijske
li
lia
liang
liard
lias
liaslight
liasnames
lib
liban
libert
liberta
libertella
libiji
libocedri
library
libreoffice
libri
lic
lica
liceum
lich
liche
lichen
lichenes
lichenicola
lichenicolen
lichenicolous
lichenized
lichenochora
lichenoconium
lichenodiplis
lichenogr
lichenol
lichenologist
lichenology
lichenopeltella
lichenostigma
lichens
lichinaceae
lichinella
lichtheimia
lichtw
lichtwardt
liczba
liczby
liczne
liczo
liczy
lider
lidery
liderym
lidze
lie
liebe
liebigs
liechtenstein
liew
life
lifedothideomycetes
lifespecies
liga
light
lights
ligi
lignatilis
lignicola
lignicolous
lignincola
lignosus
ligota
ligulata
liguryjo
ligustri
liiv
like
likowjec
lilacina
lilacinus
lilloa
lima
limacella
limbatum
limburgijo
limitata
limits
limonii
limosa
limtong
lin
linariae
lincei
lincoln
lincolnshire
lind
lindau
lindeb
linder
linderae
linderi
lindgomyces
lindner
lindnera
lindq
lindr
lindra
linds
lindsay
lindsey
lindtneria
line
lineages
lineare
linearis
lineata
linegrey
lineola
lineolata
lines
ling
lingua
lini
linicola
linie
linije
link
linked
linki
links
linn
linnaea
linnaeae
linnaeus
linne
linnem
linnos
linocarpon
linospora
linux
liny
lio
lipa
lipca
lipjec
lipn
lipnia
lipniu
lipomyces
lipomycetaceae
lipsiae
lipskim
liriodendri
liro
lirula
lis
lisa
lisb
list
lista
listade
listopad
listopada
listopadzie
listy
lit
liten
literacke
literackie
literackij
literacko
literatura
literatury
literaturze
litery
litewsko
lithographa
lithospermi
lithothelium
litoralis
litsch
litschauerella
litseae
litter
little
littoralis
litwa
litwje
litwy
liu
live
liverpool
livida
lividum
living
livistonae
liw
liwe
liwos
lizbu
lizonia
ljalg
ljande
lka
ll
lla
llande
llano
ller
llor
lloyd
lloydia
lloydii
llsk
ln
lne
lnego
lnie
lno
lnoc
lnota
lnoty
lny
lnych
lnym
lo
loaddata
loaded
loary
lobaria
lobariaceae
lobata
lobatum
lobez
lobificans
lobulata
local
location
locc
loccoz
locq
locquin
loculoascomycetes
lodder
lodge
lodha
lodu
loer
log
logo
logobject
lohman
loir
loire
loiret
lokalne
lokalny
lokalnych
lolii
lomachashaka
lombard
lompa
lompy
lond
london
long
longa
longcore
longibrachiatum
longicollis
longicornis
longipes
longirostris
longispora
longisporum
longisporus
longissima
longitude
lonicerae
lons
look
loop
lopadium
lopadostoma
lopandic
lopezii
lopharia
lophiostoma
lophiostomataceae
lophiotrema
lophium
lophodermella
lophodermium
lophomerum
lophotrichus
loquela
lord
lordhowensis
lorenzo
lores
los
lost
lot
lota
lotach
lotaryngijo
lotic
lotn
lott
lou
loudetiae
louis
louwhoff
love
loves
lowe
lowei
lowen
loweporus
lower
lowjec
lowo
lowy
lowyj
loxospora
lp
lskim
lsu
ltd
lu
lua
luangsa
lub
lubartowskim
lubaszenko
lubelske
lubelski
lubelskigo
lubelskim
lubin
lubjyn
lublin
lubno
lubrza
lubuske
lubuskigo
lubuskim
lucas
lucida
lucien
luck
lud
ludnos
ludo
ludobo
ludoviciana
ludowe
ludowo
ludowych
ludowyj
ludu
ludw
ludwig
ludwiga
ludwigii
ludwik
ludy
ludz
ludzi
ludzia
ludzie
ludzkij
ludzko
ludzkos
luft
lufthawyna
luftu
luftym
lugubris
lui
luigi
luis
luizjana
luka
lukas
luksymburg
luksymburga
luksymburski
lulworthia
lulworthiaceae
lum
lumbsch
lumyong
lunata
lund
lundae
lundq
lundquistia
lundqvist
lundqvistii
lunghini
lupini
luque
lurida
lusit
lusitanica
lutea
lutego
luteola
luteolum
luteolus
lutescens
luteum
luteus
lutra
luttr
luty
lutygo
lutym
lutz
lutzoni
luxemb
luxembourg
luz
luzon
luzulae
lwa
lwo
lwowskim
lwu
ly
lychnidis
lycoperdaceae
lycoperdon
lycopersici
lycopodii
lylea
lym
lymberg
lymberga
lymbergu
lymberskij
lymberskim
lyn
lynge
lynie
lynio
lynz
lyon
lyophyllaceae
lyophyllum
lypja
lypju
lysimachiae
lysurus
læssøe
m
ma
maas
maboke
mac
macabuna
macalpinomyces
macarangae
macedo
macedu
mach
machaerii
machiel
machine
machulski
maciej
macowanites
macrocarpa
macrocarpum
macrocarpus
macrocephala
macrocybe
macrocystis
macrolepiota
macromycetes
macrophoma
macrosperma
macrospora
macrosporum
macrosporus
macrostoma
macrotheca
maculans
macularis
maculata
maculiformis
madagascariensis
madagaskar
made
madison
madonna
madr
madras
madreeya
madrid
madryt
mady
madz
madziaro
madziary
maeda
maek
mag
magazyn
magdalena
magera
maggi
maggiore
magic
magistra
magn
magna
magnaporthaceae
magnaporthe
magni
magnifica
magnoliae
magnum
magnus
magnusiana
magnusii
magnusiomyces
magnusson
magyar
maharashtra
mahoney
mahoniae
mai
maia
maier
main
maine
mainly
mains
mainsnak
maire
mairei
maja
majewski
majo
major
majster
majstra
majstru
majstrym
majte
majtos
majtych
maju
majus
make
makeba
makoto
makowskim
maku
mal
mala
malaiensis
malajczuk
malajczukia
malapana
malassezia
malawi
malayanus
malaysia
malaysiana
malbranchea
malc
malcolm
male
malenc
malenconii
malezyji
mali
malicola
maliji
malloch
mallochia
mallorca
malme
malmei
malo
malorum
malpighia
malt
malta
maltan
malty
malu
malvacearum
malyrz
malyrze
mama
mamane
mambwe
mamillana
mammiformis
mammoidea
man
mana
manaosensis
manche
manchester
mandz
manfr
manga
mangan
mangenot
mangi
mangiferae
mangin
manglicola
mango
mangold
mangrove
mangrovei
mangrovispora
manhattan
manian
manier
manihoticola
manihotis
manio
manjo
manoch
manohar
mans
mansilla
manson
mansona
manszafc
manszaft
manszaftu
manszafty
manu
manual
manuka
manx
many
maor
map
mapa
mar
mara
maranhensis
marasas
marasmiaceae
marasmiellus
marasmius
maravalia
marbach
marc
marca
marcel
marcelleina
marcelli
marcelo
march
marchal
marchandiomyces
marchantiae
marche
marcin
marcu
marek
margaret
margarita
margin
marginalis
marginata
marginatus
mari
maria
mariae
marian
mariana
mariannaea
marianum
marie
marii
marilyn
marin
marina
marinc
marine
marino
marinum
mario
marion
maris
maritima
maritime
maritimes
marjan
mark
marka
marker
markers
marki
markiz
marko
marley
marlon
marne
maroka
maroko
maroku
marr
mars
marsa
marsh
marshall
marson
marssonina
marsz
marszu
mart
marthamyces
marti
martin
martina
martinii
martino
marvanova
marx
mary
maryje
maryla
maryland
marzec
mas
masa
masie
mason
masonii
masowe
masowego
masowych
massachusetts
massal
massalongo
massaria
massariaceae
massarina
massarinaceae
massariosphaeria
massariothea
massariovalsa
massee
masseee
massospora
master
mastigosporium
mastodia
masy
maszina
masziny
maszkety
maszowskim
mat
mata
match
mater
materials
materyje
materyjo
math
mathbb
matheny
mathrm
mathur
mating
matka
matki
mato
matsuda
matsush
matsushima
matsushimae
matthew
matthews
matymatyce
matymatyczno
matymatyk
matymatyka
matymatyki
matzer
maubl
maud
mauritiana
mauritius
maurytan
mawo
max
maxima
maximum
maxvals
may
maydis
mayendorf
mayenne
mayer
mayorii
mayrhofer
mazowiecki
mazowjecke
mazowjecki
mazowjeckigo
mazowjeckim
mazowjecko
mazurskigo
mazurskim
mazzantia
mała
małe
mało
małopolske
małopolski
małopolskigo
małopolskim
mały
małych
małyj
mb
mba
mbardyjo
mbije
mbiji
mbijo
mbro
mbrowa
mbru
mbu
mc
mcalpine
mccarthy
mccune
mcginnis
mchugh
mckenzie
mcnabb
me
mearns
mechan
mechanika
med
medal
medalista
medalu
meddel
meddn
medeiros
media
mediawiki
medicaginis
medical
medicine
mediterranea
medium
medullata
medusa
medycyna
megalaria
megalospora
megalosporum
megalosporus
megalotremis
megasperma
megaspora
megasporaceae
megasporoporia
mehrotra
meijer
mein
meinhard
meionomyces
meira
mek
meklymburgiji
meklymburgijo
meksyk
meksykan
meksyku
meksykym
melaena
melaleuca
melampsora
melampsoraceae
melampsoridium
melanconidaceae
melanconis
melanconium
melanelia
melanelixia
melanocarpus
melanocephala
melanochlora
melanogaster
melanohalea
melanoleuca
melanomma
melanommataceae
melanoplaca
melanopsamma
melanospora
melanotaeniaceae
melanotaenium
melanotrema
melanotus
melaspilea
melaspileaceae
melastiza
melastomatis
meldo
melicae
meliloti
melin
meliniomyces
meliola
meliolaceae
meliolicola
meliolina
mellea
mellitiosporium
melnik
melo
meloderma
melon
mem
member
members
membranifaciens
memnoniella
memoirs
memorial
men
mena
menc
mendax
menegazzia
menispora
menisporopsis
menna
mens
menthae
menyanthis
menziesii
mer
mera
meracyje
meracyjo
merca
mercado
mercurialis
mercury
merdaria
meridensis
meridionalis
merimbla
meripilaceae
meripilus
merismella
merismodes
merkury
merlin
merrillii
merseyside
meru
meruliaceae
merulioides
mery
mesa
mesenterica
mesophellia
mesophelliaceae
mespili
messuti
meszaros
meta
metacapnodiaceae
metacapnodium
metacordyceps
metal
metallica
metalowe
metalu
metarhizium
metasphaeria
metatable
meteorologijo
meter
meth
method
methven
methylotrophic
metoda
metody
metra
metro
metrodiana
metropoliji
metrosideri
metru
metry
metschnikowia
metschnikowiaceae
meurthe
meuse
mexicana
mexicanus
mexico
mexique
mey
meyer
meyeri
meyers
mez
mezozojiku
mg
mhz
mi
mia
miadl
miami
mian
miana
mianami
miano
mianowane
mianowano
mianowany
mianownik
mianuje
miany
mianym
miary
miast
miasta
miasto
miastym
miała
miało
miały
mic
micarea
mich
michael
michał
michel
michelia
micheliae
micheneri
michigan
micol
micologia
miconiae
micos
micraspis
microascaceae
microascales
microascus
microbiol
microbotryaceae
microbotryomycetes
microbotryum
microcarpa
microcarpus
microcyclus
microdiplodia
microdochium
microfung
microfungi
microglossum
micromycetes
micropeltidaceae
micropera
micropeziza
micropodia
microporellus
microporus
micropus
microscop
microscopica
microscypha
microsebacina
microsoft
microsperma
microspermum
microspermus
microsphaera
microsphaeropsis
microspora
microsporum
microsporus
microsticta
microstictum
microstoma
microstomum
microstroma
microtheca
microthia
microthyriaceae
microthyrium
microveliae
miczne
micznego
miczno
miczny
micznych
micznyj
micznym
middlesex
midi
midl
midlands
mie
miec
miejsce
miejscowos
mieli
mierc
mierci
mies
miesio
miesiyncy
mieszko
miettinen
mije
miji
mijo
mik
mikaniae
mikata
mike
mikke
mikol
mikołaja
mikrobiol
mikronegeriaceae
miksu
milan
milano
mildew
miles
milesina
milijo
miliju
milju
milko
mill
millepunctata
miller
milleri
millettiae
million
milton
milwaukee
mimo
mimosae
min
minane
minarum
minas
mind
mineralne
mini
miniata
miniaturowej
minima
minimelanolocus
minimum
minimus
minister
ministro
minka
minneapolis
minnesota
mino
minor
minoura
minowany
minowały
minter
minuje
minujo
minus
minuscula
minut
minuta
minute
minutella
minutes
minutispora
minutisporum
minutissima
minutoexcipula
minutula
minutum
minutus
mio
mioł
mioła
mioły
mir
mira
mirabile
mirabilis
miranda
mirandina
miriquidica
miroslav
mirror
mirza
misc
miscanthi
miscellaneous
misorz
misra
miss
missing
mississippi
missouri
missouriensis
mista
mistrz
mistrzostwa
mistrzostwach
mistrzostwo
misturatosphaeria
misyje
misyji
misyjo
miszo
miszu
mit
mitac
mitatu
mitch
mitchell
mitet
mitetu
mitologiji
mitologijo
mitolu
mitosporic
mitriformis
mitrophora
mitt
mitteilungen
mity
miu
miura
mix
mixtape
miyabe
miyaji
miyake
miyjsce
miyjscownik
miyjscowos
miym
miymcami
miymco
miymcy
miymiec
miymiecke
miymiecki
miymieckich
miymieckigo
miymieckij
miymiecko
miyn
miyndzy
miyndzyno
miyndzysojuszniczo
miynio
miyniowanio
miyns
miynso
miyszkajo
miyszkan
miyszkiwo
miyszko
miyszkujo
miłos
mjan
mjana
mjano
mjanowali
mjanowan
mjanowane
mjanowano
mjanowany
mjanu
mjanuje
mjanym
mjara
mjary
mjast
mjasta
mjastach
mjasto
mjastu
mjastym
mjała
mjało
mjały
mje
mjec
mjejsce
mjejscowos
mjejske
mjejski
mjejskigo
mjejskij
mjejskim
mjejsko
mjeli
mjerc
mjes
mjou
mjoł
mjoła
mjoło
mjoły
mju
mjym
mjymcach
mjymcu
mjymcy
mjymjec
mjymjecke
mjymjecki
mjymjeckich
mjymjeckigo
mjymjeckij
mjymjeckim
mjymjecko
mjymjecku
mjyn
mjyndzy
mjyndzyles
mjyndzynarodowe
mjyndzynarodowo
mjyrc
mjys
mjyskou
mjyszkaju
mjyszkan
mjyszkało
mjyszkiwalo
mjyszkiwało
mjyszkiwoło
mjyszko
mjyszkowało
mjyszkowoło
mjyszkuje
mks
mku
mld
mln
mlyka
mm
mmwysokos
mn
mnie
mniopetalum
mo
moberg
mobiln
moc
mocka
mocki
mocn
moco
mocy
moczygemba
mod
mode
model
modele
modern
modesta
modre
modro
module
moduł
mody
modych
modz
moe
moelleri
moelleriella
moellerodiscus
moesz
mogajo
moge
mogebne
mogebnos
mogli
mogo
mogu
mogymy
mogła
mogły
mohammed
moj
moja
moju
mokhoobraznye
mokobody
mokszan
mokszanu
mokszany
mol
molecular
molesta
molina
moliniae
moll
molle
mollis
mollisia
mollisina
mollisiopsis
molybdites
mon
mona
monaco
monacrosporium
monandromyces
monascaceae
monascus
moncalvo
money
monilia
moniliella
monilifera
moniliforme
moniliformis
monilinia
moniliopsis
monn
monoblastia
monoblastiaceae
monoblepharella
monoblepharidaceae
monoblepharis
monochaetia
monochaetinula
monocillium
monod
monodictys
monodidymaria
monogr
monograph
monographella
monographs
monoicomyces
monospora
monosporascus
monosporidium
monosporum
monostichella
monroe
monster
monsunia
mont
montagne
montagnea
montagnei
montagnula
montagnulaceae
montana
montanus
montbe
monte
montgomery
month
monticola
montpellier
monument
monza
moon
moore
mor
moravec
moravica
moravy
morawske
morawski
morawskigo
morawsko
morawy
morbihan
morchella
morchellaceae
mordecai
mordy
more
moreau
moreaua
morelet
moreno
morenoina
morfym
morfymu
morgan
morganella
morganii
mori
moricola
moriformis
moristroma
mormu
morning
morphological
morphologically
morphology
morris
morrisographium
morse
morske
morski
morskich
morskigo
morskim
morsko
morthieri
mortierella
mortierellaceae
morton
moru
mory
morza
morzach
morze
morzo
morzu
morzym
mos
moscou
moselle
moser
moseri
moses
moskewskim
moskwa
moskwje
moss
most
mostert
mostki
moszczanka
mother
moto
motor
motora
motyka
mou
mouch
mougeotii
mount
mountain
mountains
moustafa
mouton
move
mowa
mowe
mowo
mowoła
mowy
mowych
mowyj
moz
mołdawije
mołopolskim
mpan
mpilacyje
mpio
mpju
mpjyn
mpo
mpozyto
mpozytor
mpozytory
mprachc
mpu
mputer
mputrowe
mputrowy
mputrowych
mputry
mr
mrakia
ms
mskigo
mskim
msko
mszczan
mt
mtv
mu
muciturbo
mucor
mucoraceae
mucorales
mucosa
mucronata
mucronatum
mucronatus
mucronella
mudd
mudz
muehlenbergii
muellerella
muelleri
muelleria
mugambi
muhafaz
muhafazy
muhlenbergiae
mukerji
mul
mulder
multiclavula
multicolor
multifurca
multigene
multiplayer
multiple
multiplex
multiseptata
multiseptatum
multispora
mun
mundart
mundk
mundkurella
munjal
munk
munkii
munt
mur
muribasidiospora
murina
murinum
murman
muroi
murorum
murray
murrayi
murrill
murrillii
muru
mury
mus
musae
musarum
musci
muscicola
muscigena
muscodor
muscorum
muse
museum
mushroom
mushrooms
musi
music
musicola
musioł
musispora
musiy
must
mustaine
muster
mustra
mustrym
muszo
mutabilis
muter
mutinus
muyocopron
muz
muzeum
muzułmu
muzyc
muzyczne
muzycznego
muzyczno
muzyczny
muzycznych
muzycznyj
muzycznym
muzyja
muzyju
muzyk
muzyka
muzykant
muzykanty
muzyki
mw
my
myburg
myceliophthora
mycena
mycenaceae
mych
mycoacia
mycoaciella
mycoamaranthus
mycobilimbia
mycobiota
mycoblastaceae
mycocaliciaceae
mycocalicium
mycocentrospora
mycoflora
mycoflore
mycogloea
mycogone
mycogr
mycol
mycoleptodiscus
mycoleptodonoides
mycolindtneria
mycologia
mycologica
mycologicae
mycological
mycologist
mycology
mycomicrothelia
mycoparasite
mycoparasites
mycopath
mycopathologia
mycophila
mycophilum
mycoporum
mycorrhaphium
mycorrhizal
mycoscience
mycosphaerella
mycosphaerellaceae
mycosyrinx
mycosystema
mycota
mycotaxon
mycoth
mycotheca
mycovellosiella
mydajla
myelochroa
myeloconis
myelosperma
myjtra
myjtro
myjtru
myjtry
mykol
mykologische
mym
myn
myna
myncie
myndo
mynga
myngi
myngu
mynij
mynt
myntu
myny
mynym
myochroidea
myriadea
myriangiaceae
myriangiella
myriangium
myricae
myriocarpa
myriogonium
myriophacidium
myriosclerotinia
myriotrema
myrmecophila
myron
myrothecium
myrticola
myrtilli
myrtillina
mys
myspace
myszyn
mytilinidiaceae
mytilinidion
myxacium
myxomphalia
myxomyceticolous
myxophora
myxosporium
myxotrichaceae
myxotrichum
myxozyma
mz
møller
mławskim
młodos
młyn
n
na
nac
nach
nacho
nacional
nacyje
nacyji
nacyjno
nacyjo
naczo
naczu
naczyc
naczyli
naczyn
nad
nade
nadgroda
nadgrody
nado
nadoł
nadryn
nadto
nadz
nadzieja
naemacyclus
naetrocymbaceae
naetrocymbe
naevala
naeviopsis
naftowyj
nag
nagan
nagarkar
nagler
nagran
nagroda
nagrody
nah
nahuatl
nair
nais
naj
najo
najym
nakagiri
nakase
nakaseomyces
nakasone
nakelskim
nako
nalanthamala
nale
nalez
nali
nalne
nalno
nalny
nalnych
nam
name
named
nameinitials
names
namespace
nami
namn
namo
namysłowskim
nan
nana
nancy
nane
nannf
nannfeldt
nannfeldtii
nannizzia
nano
nanoscypha
nanum
nanus
nao
napadli
napadz
napisane
napisoł
napo
napoczo
napoczu
napoczyn
napoleon
napoleone
napoleu
napoli
nar
naras
narasimhanii
narc
narchije
narcisse
narcissi
naro
narodowo
narodowos
narodowy
narodowygo
narodu
narodz
narodzio
narodzyni
nas
nasa
nascim
nash
nashii
nassau
nasto
nastympujo
nasza
naszej
naszych
naszyj
naszymu
nat
natalensis
natarajan
national
native
natl
natn
natnparks
nato
natu
natur
natura
natural
naturalist
naturalne
naturalno
naturalny
naturalnych
nature
naturelles
naturf
naturh
naturhist
naturk
naturw
naturwiss
natury
natuurkunde
nauce
naucoria
nauk
nauka
nauki
naukowe
naukowo
naukowy
naukowych
naukowyj
naukowym
naumov
naumovia
naumovii
nauobkoło
nauru
nauruan
nav
navarro
navbar
navbox
navisporus
nawawi
nawet
nawio
nawju
naz
nazo
nazod
nazw
nazwa
nazwie
nazwoł
nazywane
nazywany
nazywo
nc
nca
nce
ncego
ncepcyje
ncepcyjo
ncert
ncertowe
ncertu
ncerty
nch
nchen
nchez
ncia
ncie
nclec
nclecio
nco
ncu
ncy
ncych
ncygo
ncyj
ncym
ncymi
ncz
nczas
nczka
nczo
nczu
nczy
nczyc
nczyn
nczynie
nczynio
nczyła
nd
nda
ndach
ndeckim
ndek
ndez
ndi
ndka
ndku
ndo
ndowe
ndowo
ndowych
ndra
ndu
nduras
ndurasu
ndwana
ndy
ndyjo
ndym
ndyn
ndynie
ndz
ndze
ndzie
ndzo
ndzu
ndzyn
ndzynie
ne
neale
near
nebraska
nebulosa
nec
neca
necator
necowe
necowo
nectandrae
nectria
nectriaceae
nectriella
nectrioides
nectriopsis
neczajc
neczajta
neczajtu
neczajty
necznego
neczny
necznygo
necznym
ned
need
needdot
needles
needs
neerg
neerl
nees
neesii
neglecta
neglectum
nego
nej
nek
nelson
nemania
nematoctonus
nematographium
nematostoma
nen
neobarya
neobulgaria
neocallimastigaceae
neocallimastix
neococcomyces
neocosmospora
neoerysiphe
neofabraea
neofusicoccum
neogyn
neohypodiscus
neolentinus
neolinocarpon
neonectria
neopaxillus
neophaeosphaeria
neosartorya
neotrop
neotropica
neotropical
neotropics
neottiella
neottiospora
neottiosporina
neotyphodium
neozygitaceae
neozygites
nepal
nepalense
nepalensis
nephriytrium
nephroma
neptu
nero
neros
neru
nervisequa
nervostroma
nes
net
neta
neth
netherlands
neucha
neue
neurol
neurology
neurophila
neurospora
nevadensis
never
nevis
new
newada
newinia
newly
newport
news
newton
nez
nezyje
nezyji
nezyjo
nferyncyjo
nfliktu
ng
nga
ngach
ngajo
ngel
ngi
ngku
ngla
nglo
ngn
ngno
ngo
ngolije
ngolijo
ngolske
ngolsko
ngowe
ngowego
ngowo
ngowoł
ngowy
ngrowjeckim
ngu
nguje
nguske
nguskich
ngusy
nguyen
ngyfer
ngym
ni
nia
niaceae
niajo
nic
nica
nich
nicholas
nick
nico
nicola
nicolaus
nicolson
nicot
nicotianae
nicy
niderlandy
nidula
nidulans
nie
niebla
niec
nieczne
niego
niekto
niemela
niessl
niesslia
niessliaceae
niesslii
niewski
nig
niger
night
nigl
nigra
nigrae
nigrescens
nigricans
nigripes
nigrolentilocus
nigroporus
nigrospora
nigrum
nigshu
nij
nije
niji
nijo
nik
nika
nikau
nikej
niki
niko
nikolaus
nikolausa
nil
nils
nilsson
nim
nimbya
nimi
nine
ninety
ninomiya
nio
nipponica
nipponicum
niptera
nirenberg
nishim
nishimura
nitens
nitida
nitidula
nitidum
nitschke
nitschkia
nitschkiaceae
niu
nivale
nivalis
nivatogastrium
nivea
niveum
niveus
niy
niyblank
niye
niygo
niyjsze
niyjszych
niykere
niykerych
niykerzi
niym
niyma
niymcach
niymcami
niymce
niymco
niymi
niymiec
niymiecke
niymiecki
niymieckich
niymieckigo
niymieckij
niymiecko
niymodlin
niynie
niyno
niyo
niypo
niypto
niysko
niyskorniyjszyj
niyskoro
niyskorzi
niyskorzij
niyu
niywielke
niywo
niyz
niyzalez
niyzawisłos
niyzno
niz
nizinie
niziny
nizshie
nka
nkach
nkami
nkar
nkcyje
nkcyjo
nkel
nki
nkla
nko
nkowje
nkowo
nkt
nkto
nktu
nkty
nktym
nku
nkurs
nkursu
nkuryncyjo
nky
nkym
nl
nli
nn
nne
nno
nny
no
nobilis
nobla
noble
noc
nochascypha
nocy
node
nodobryoria
nodosa
nodulisporium
nodulosa
nodulosphaeria
nodulosum
noga
nograsek
nogu
nojbar
nojbardz
nojbarz
nojbarzi
nojbarzij
nojbliz
nojc
nojczyn
nojczyns
nojdalij
nojdugszo
nojdz
nojlepij
nojlepsze
nojlepszich
nojlepszych
nojmyn
nojmynij
nojn
nojniz
nojpopularn
nojprzo
nojs
nojsamprzu
nojsrogs
nojsrogsze
nojsrogszo
nojsrogszy
nojsrogszych
nojsrogszym
nojstars
nojstarsze
nojstarszo
nojstarszy
nojstarszych
nojstarszym
nojwaz
nojwczes
nojwiyncyj
nojwjyncy
nojwjyncyj
nojwjynks
nojwjynksze
nojwjynkszo
nojwjynkszu
nojwjynkszy
nojwjynkszych
nojwjynkszym
nojwo
nojwoz
nojwyz
nol
nolez
nolinae
nolyz
nom
nomenclatural
nomenclature
nominatformen
nomyc
nomyce
non
none
noordel
noordeloos
nopn
nord
nordic
nordin
norfolk
normal
normalny
norman
normandie
normandyjo
norodowos
norodu
norte
north
northern
northwest
norvegica
norw
norway
norweg
norwegian
norwygije
norwygiji
norz
norzyn
nos
nosowe
noszo
noszu
not
notabilis
note
noter
notes
noteworthy
notha
nothing
nothofagi
nothofagus
nothopanus
nothoravenelia
notiser
notul
nou
nouv
nouvelle
nouvelles
nov
nova
novae
novel
november
novi
novitates
novo
novoguineensis
novorum
now
nowa
nowak
nowakowskiella
nowane
nowano
nowany
nowanych
nowe
nowego
nowej
nowi
nowice
nowiki
nowiny
nowo
nowodworskim
nowogard
nowogrecko
nowosu
nowotarskim
nowoz
nowoł
nowy
nowych
nowygo
nowyj
nowym
noz
noł
np
nr
ns
nse
nsek
nsis
nsk
nska
nske
nskej
nskem
nski
nskich
nskigo
nskij
nskim
nskimi
nsko
nsku
nskym
nsola
nsole
nstec
nstrukcyje
nstrukcyjo
nstytucyje
nstytucyjo
nsv
nszt
nsztu
nt
nta
ntakty
ntana
ntek
nther
ntka
ntki
ntko
ntkowo
ntkowyj
ntku
ntkym
nto
ntp
ntrola
ntrole
ntrz
ntu
nty
ntym
ntyn
ntynuacyjo
ntynynt
ntynynta
ntynyntach
ntynynto
ntynyntu
nu
nubila
nuclear
nuda
nuevas
nuevos
nuje
nujo
num
number
numer
numeric
numero
nummularia
nuovi
nuovo
nutans
ny
nych
nyczak
nye
nygo
nyj
nyl
nylander
nym
nyman
nymi
nymphs
nymu
nypa
nypae
nypicola
nysa
nysie
nyskim
nyssopsora
nysy
nytt
nz
nzan
nzane
nzano
nzany
nzanych
nzek
nzki
nzko
nzkowym
nzku
nzo
nzok
nzoki
nzoku
nzowy
nzoł
nzu
nzuje
nzujo
nła
nło
nły
o
oak
oakland
obclavata
obconica
obducens
obec
ober
obermayer
oberschlesien
oberw
oberwinkler
obiones
object
obliqua
oblongata
oblongispora
obovata
obovatum
obres
obscura
obscurata
obscurum
obscurus
observ
observations
obtusa
oc
occ
occidentalis
occulta
occultifur
occultum
occurring
oceanica
oceanitis
ocellata
ocellularia
och
ochracea
ochraceum
ochraceus
ochrolechia
ochrolechiaceae
ochroleuca
ochroleucum
ocksa
oclc
ocoteae
octaviania
octomera
octospora
octosporella
od
odek
oder
odkowyj
odn
odnygo
odontia
odonticium
odontotrema
odontotremataceae
odoratus
odyn
odzyskanych
oedipus
oedocephalum
oedohysterium
of
off
office
official
offord
oficyna
ofyn
ogataea
oguzke
oh
ohio
ohleria
oidiodendron
oidium
ois
oise
oj
ojganejsko
ojro
ojropa
ojropejczyku
ojropejske
ojropejski
ojropejskich
ojropejskij
ojropejsko
ojropie
ojropje
ojropy
ojrowizyje
ojrowizyjo
ok
okada
oki
oku
ol
ola
olaf
old
ole
oleae
olearius
olesch
olidum
oligoporus
oligospora
olivacea
olivaceum
olivaceus
olivascens
olive
olivea
oliveonia
olivier
olmickigo
olmickim
olof
ologie
olomouc
olpidiaceae
olpidium
olpitrichum
om
ombrophila
omega
ommatomyces
omnivora
omphalia
omphaliaster
omphalina
omphalinoid
omphalotaceae
omphalotus
on
ona
onca
once
oncopodiella
one
online
only
onlysourced
onlysrc
ono
onobrychidis
ontario
onu
ony
onygenaceae
onygenales
oo
oorschot
oospora
op
opaca
opegrapha
open
openoffice
opera
operatorname
operculata
ophiobolus
ophiocordyceps
ophiocordycipitaceae
ophiodothella
ophiognomonia
ophiosphaerella
ophiostoma
ophiostomataceae
ophiostomatales
opole
opowies
oppeln
option
optional
options
opu
opuli
opuntiae
or
ora
oracle
orae
orange
oraz
orbicula
orbiculare
orbicularis
orbiculata
orbilia
orbiliaceae
orchesellaria
orchidearum
order
ordinal
ordsuffix
oregana
oregon
oregonensis
orejuela
oreophila
org
organic
orientale
orientales
orientalis
orientation
orig
original
ornata
ornatispora
ornatum
orne
orno
oro
orphanocoela
orphella
orr
orthospora
orto
orton
oru
ory
orym
oryzae
orz
orze
os
osa
osaka
oscar
oskar
oslo
osmanthi
osmundae
oso
ost
ostatn
ostatni
osłowjan
ota
otani
otd
other
others
otherwise
otidea
otropicales
ottawa
otth
otto
ou
oua
oudem
oudemans
oudemansiella
oudemansii
ouest
ouo
our
ours
out
outl
output
ouu
ouy
ov
ovalis
ovalispora
ovata
ovatum
ove
over
overeem
overholtsii
ovispora
ovoidea
ovularia
owa
owadomorkowe
owe
owjec
owo
owskim
owu
owy
owych
owygo
owyj
owym
oxford
oxyacanthae
oxycocci
oxydothis
oxyporus
oxyspora
oxysporum
oyonnax
oz
oł
oła
ołan
oława
ołek
oło
ołocz
ołu
oły
oływan
p
pa
paavo
pablo
pachyascus
pachybasium
pachyderma
pachydisca
pachyella
pachylepyrium
pacific
pacifica
pacyfiku
paczko
paczku
padaju
padali
padhye
padi
padina
pado
padova
paecilomyces
paeoniae
page
pagename
pages
pago
pai
pain
pairs
paket
paketu
pakist
pakistan
pakistanu
pakosławice
palatynat
palatynatu
palawaniella
pale
paleocyn
paleogyn
palermo
palestyn
pali
palifer
paliphora
pallens
pallescens
pallida
pallidospora
pallidula
pallidum
pallidus
palm
palma
palmae
palmarum
palmata
palmer
palmicola
palmowo
palms
paludicola
paludosa
palustre
palustris
pamie
pamju
pamjyn
pan
pana
panacis
panaeolopsis
panaeolus
panama
panamensis
panamy
panasewicz
pancer
pandanaceae
pandani
pandanicola
pande
pandora
pandymije
pandymijo
panellus
paneve
pang
pangea
pangei
pani
panici
panna
pannaria
pannariaceae
pannosa
panny
panorama
panowan
panowanie
panowaniym
panowoł
panthera
panu
panujo
panus
pap
papayae
papendorf
papillata
papillatum
papillosa
papiyz
papju
papjyz
papowo
paprotn
papua
papuana
papui
papulaspora
papulosa
par
para
parabola
parachnopeziza
paraconiothyrium
paradise
paradoxa
paradoxum
paradoxus
paraensis
parafije
parafiji
parafijo
paraglomus
paraguayensis
paragwaj
paragwaju
param
parameter
parameters
params
paramyxacium
parana
paranectriella
paraphaeosphaeria
parapyrenis
parasit
parasite
parasitica
parasiticum
parasiticus
parasitkde
parasola
parastenella
paratrichophaea
parbery
parc
pardo
parencoelia
parent
parerga
pargs
paris
park
parku
parlamynt
parlamyntowi
parlamyntu
parm
parma
parmasto
parmastomyces
parmelia
parmeliaceae
parmeliella
parmelina
parmelinella
parmelinopsis
parmeliopsis
parmotrema
parmularia
parmulariaceae
parodiella
parodiopsidaceae
parorbiliopsis
pars
parse
parseinput
parseparam
parsonsiae
part
parte
partial
partie
partnerske
parto
partridge
parts
party
partyje
partyji
partyjo
parva
parvispora
parvula
parvulum
parvulus
parvum
pary
paryz
pas
pasaz
pascoe
pascua
pasma
paspali
pass
passalora
passed
passerini
passeriniella
passiflorae
passy
pastinacae
pasy
pat
patagonian
patagonica
patagonicum
patalog
patel
patellaria
patellariaceae
patellariopsis
path
pathogen
pathogenic
pathogens
pathology
patil
patinella
patol
patouillard
patouillardii
patro
patru
pattern
patterns
patula
patw
patwardhan
paucispora
paul
paula
paule
paulliniae
paulo
pavgi
pavia
pawar
paweł
pawie
pawy
pawła
paxillaceae
paxillus
pays
paz
pałac
pałacu
pcyjo
pdf
pe
pearce
pearson
peccania
peck
peckii
pectinata
pedicellata
pedro
pedz
pedzioł
peerally
pegler
pegleri
peintner
pek
pela
peleae
pellicularia
pellucida
peltata
peltigera
peltigeraceae
peltigerae
peltigericola
peltula
peltulaceae
pelvetiae
pen
pendulus
penetrans
penicillata
penicillatum
penicillia
penicillioides
penicillium
penidiella
peninsula
peninsular
peniophora
peniophoraceae
peniophorae
peniophorella
pennella
penniseti
pennycook
penz
people
per
pera
peradeniya
peredo
peregrina
pereira
perenniporia
perenniporiella
peres
perexigua
perfect
perforans
perforata
periclymeni
periconia
periconiella
peridermium
period
peristomialis
perkusyjne
perkusyjo
perm
permskigo
permu
pernambuco
peroneutypa
perplexa
perplexans
perpusilla
perpusillus
perrotia
perry
pers
perseae
persica
persicinus
persiciospora
persicolor
persie
perski
persko
personata
persoon
persoonia
persoonii
pertenuis
perth
pertusaria
pertusariaceae
pertusariae
pertusariicola
peru
peruviana
peruvianum
perzo
perzu
pesquis
pestalosphaeria
pestalotia
pestalotiopsis
petanque
petasitis
petch
petchii
peter
petersburg
petersen
petersenii
petersii
peterson
petr
petrak
petrakii
petri
petriella
petrini
petter
peyritschiella
peyronel
peyronelia
pez
pezicula
peziza
pezizaceae
pezizales
pezizella
pezizoides
pezizomycetes
pezoloma
pf
pfister
pfl
pflanzenfam
pflkrankh
phacellium
phacidiaceae
phacidioides
phacidium
phaeoacremonium
phaeobotryosphaeria
phaeocalicium
phaeochora
phaeochoraceae
phaeochorella
phaeochoropsis
phaeocollybia
phaeocryptopus
phaeocytostroma
phaeographis
phaeohelotium
phaeoisaria
phaeomoniella
phaeomycena
phaeophleospora
phaeophyscia
phaeophysciae
phaeopyxis
phaeoramularia
phaeoseptoria
phaeosolenia
phaeosphaeria
phaeosphaeriaceae
phaeosphaeriopsis
phaeospora
phaeostalagmus
phaeothecoidea
phaeotrema
phaeotrichosphaeria
phaeotrichum
phaff
phaffii
phaffomyces
phakopsora
phakopsoraceae
phalangispora
phalaridis
phallaceae
phallobata
phallogastraceae
phalloides
phallus
phanerochaetaceae
phanerochaete
phanerochaetoideae
pharcidia
pharm
pharmaceutical
phaseoli
phaseolina
phaseolorum
phaulomyces
phellinus
phellodon
phialina
phialocephala
phialophora
phil
philad
philip
philipp
philippinensis
philippines
phillips
phlebia
phlebiella
phlebioideae
phlebiopsis
phlebopus
phleogenaceae
phloeospora
phlogicylindrium
phlogis
phlyctema
phlyctiytrium
phoebes
phoenicis
phoenix
pholiota
pholiotina
phoma
phomatospora
phomopsis
phormii
php
phragmidiaceae
phragmidiella
phragmidium
phragmiticola
phragmitis
phragmocephala
phragmonaevia
phragmopyxis
phragmotelium
phycomyces
phycomycetes
phylacia
phyllachora
phyllachoraceae
phyllachorales
phyllactinia
phyllanthi
phylloblastia
phyllogena
phyllogloea
phyllophila
phylloporia
phylloporus
phyllopsora
phyllostachydis
phyllosticta
phyllotopsis
phylogenetic
phylogenies
phylogeny
phys
physalacria
physalacriaceae
physalospora
physcia
physciaceae
physciella
physconia
physics
physiol
physiology
physis
physoderma
physodermataceae
phytol
phytologia
phyton
phytopath
phytopathogenic
phytopathology
phytotax
pi
pia
piasto
piatek
picard
picea
piceae
pichia
pichiaceae
pico
picoa
pictures
pid
pidopl
pie
pieczka
piedraiaceae
piekarach
piekary
piepenbr
piepenbring
pier
pierre
pierwszy
pies
piez
piggotia
pikardyjo
pike
pila
pilaira
pilatii
pileata
pileodon
pileolaria
pileolariaceae
pilifera
pilobolus
pilocarpaceae
pilophorus
pilosa
pilosella
pilosum
pilosus
pilulifera
piluliferum
pilze
pilzk
pin
pinastri
pine
pineti
pini
pinicola
pink
pinto
pinus
pinyin
pio
piotr
piotra
piperis
piptarthron
piptocephalidaceae
piptocephalis
piramida
piromyces
pirottaea
piroz
pirozynski
pirozynskii
pis
pisa
pisac
pisane
pisanie
pisanio
pisano
pisi
piska
piski
pismo
piso
pisolithus
pisor
pisorz
pisorze
pisoł
pistillaria
pisu
pisuje
pisze
pithoascus
pithomyces
pithya
pitlok
pitt
pittieri
pittieriana
pittospori
piyce
piyn
piyramida
piyramidy
piyro
piyrsze
piyrszego
piyrszo
piyrszy
piyrszych
piyrszyj
piyrszym
piyrszymi
piyrwyjsze
piyw
piywek
piywka
piywki
piywo
pjan
pjastu
pjes
pjoseczno
pjoseczyn
pjosynek
pjosynkarka
pjosynkarki
pjosynki
pjosynkorka
pjosynkorz
pjosynkorze
pjotrkowskim
pjotrowice
pju
pjymu
pjyn
pjyrs
pjyrsze
pjyrszo
pjyrszu
pjyrszy
pjyrszych
pjyrszygo
pjyrszyj
pjyrszym
pjyrw
pjyrwej
pjyrwy
pjyrwyj
pjyw
pjywek
pjywka
pjywki
pjywku
pjywo
pjywoczka
pjywoczki
pjywok
pkb
pl
plac
placach
place
placement
places
placidium
placo
placopsis
placostroma
placu
placym
placynthiaceae
placynthium
plagiostoma
plagiostromella
plain
plaintext
plan
plana
planet
planeta
planety
planistromella
planistromellaceae
plant
plantaginis
plants
plasmophagus
plastiku
plat
plata
platani
platanoidis
plate
platense
platensis
platforma
platy
platygloea
platygloeaceae
platygramme
platysporoides
platystomum
playstation
please
plectania
plectophomella
plectosphaera
plectosphaerellaceae
pleiospora
plenodomus
pleomassariaceae
pleospora
pleosporaceae
pleosporales
pleostigma
pleurocatena
pleuroceras
pleurocollybia
pleurophoma
pleurophomopsis
pleurophragmium
pleurostoma
pleurostomophora
pleurotaceae
pleurotellus
pleurotheciopsis
pleurothecium
pleurotus
plik
plochmopeltis
ploettnera
ploioderma
plos
plotarea
plotdata
plowr
plu
plumbea
plunkett
plus
pluteaceae
pluteus
plymio
plymju
pmc
pmid
pn
pneumocystis
png
po
poaceae
poae
poboz
poc
pochodno
pochodz
pochodzi
pochodzu
pochodzyn
pochonia
pochowany
pocsia
poculum
pocza
poczo
poczu
poczyno
pod
podan
podane
podanie
podano
podany
podarziło
podaxis
podc
pode
podejs
podgato
podiytrium
podkarpackigo
podkarpackim
podkrys
podlaski
podlaskigo
podlaskim
podle
podmioto
podo
podocarpi
podocrella
pododimeria
podofomes
podolski
podonectria
podoscypha
podosordaria
podosphaera
podospora
podowo
podpisano
podstawa
podstawowe
podstawowo
podstawowyj
podstawy
podszukowan
podszukowania
podug
podwjela
podwu
podz
podziału
podzielo
podzioł
poelt
poeltii
poeta
poety
poezyje
poezyjo
pogan
poggio
poglo
poglu
pogo
pogu
point
poitou
pojez
pojstrzu
pojymnos
pojyn
pokazuje
poke
poko
pokojny
pokojnygo
pokojnym
pokojowo
pokoju
pokolyn
pokryte
pokryto
poku
pol
pola
poland
polano
pole
polemonii
policyje
policyjo
polis
polish
politechn
politiker
polityc
polityce
polityczne
polityczno
polityczny
politycznych
politycznyj
polityk
polityka
polityker
politykerka
politykery
polityki
pollack
polo
poloki
poloku
polon
polonia
poloniae
polonica
polsce
polska
polske
polski
polskich
polskie
polskiego
polskiej
polskigo
polskij
polskim
polskimu
polsko
polsku
polu
polyadelpha
polyblastia
polycarpa
polycarpum
polycephalomyces
polychaeton
polychidium
polycocca
polycoccum
polydor
polygalae
polygo
polygoni
polygonorum
polymeridium
polymorpha
polymorphus
polyp
polyphyletic
polyporaceae
polyporaceas
polyporales
polypore
polypores
polyporicola
polyporus
polyschema
polyscytalum
polyspora
polysporum
polystictus
polystigma
polystomellaceae
polytrichi
pomarli
pomiformis
pomjyn
pomjys
pomjyszkuje
pomnik
pomoc
pona
ponad
ponce
pont
ponte
pontogeneia
poot
pop
popjelec
popro
populacyje
populacyjo
popularne
popularno
popularnos
popularny
populea
populi
populicola
populina
por
pora
poradz
poradziyły
poradzu
poraz
poria
porina
porinaceae
poro
porocyphus
porodaedalea
porogramme
poroid
poros
porosa
porost
porosta
porostach
porostahti
porostanzi
porostaptroot
porostarnold
porostasahina
porostb
porostbreuss
porostbrodo
porostbrusse
porostbungartz
porostc
porostclauzade
porostcoppins
porostd
porostdegel
porostdiederich
porostegan
porostegea
porostelix
porostereum
porostessl
porostetayo
porostf
porostfe
porostfrisch
porostg
porostgyeln
porosth
porosthafellner
porosthale
porosthawksworth
porosthenssen
porostherre
porosthertel
porosthue
porosthugo
porostimshaug
porostj
porostjatta
porostk
porostkalb
porostkantvilas
porostko
porostkremp
porostkrog
porostkurok
porostlowen
porostlu
porostlumbsch
porostlynge
porostm
porostmalme
porostmarbach
porostmatzer
porostmoberg
porostmont
porostmotyka
porostmu
porostnagarkar
porostnyl
porostnylander
porosto
porostowe
porostp
porostpoelt
porostprintzen
porostr
porostra
porostrambold
porostredhead
porostrundel
porosts
porostse
porostservi
porostsheard
porostsipman
poroststirt
porostswinscow
porostszatala
porostt
porostth
porosttibell
porosttimdal
porosttuck
porostv
porostvain
porostvainio
porostvezda
porostw
porostwedin
porostwetmore
porostyt
porostytboerema
porostytcooke
porostytd
porostytetayo
porostytgruyter
porostytmu
porostytp
porostytr
porostyts
porostytspecies
porostzahlbr
porostzahlbruckner
porotenus
porpidia
porpidiaceae
porpoloma
porri
port
portal
portales
portalu
portentosus
portland
porto
portoricensis
portoryko
portrait
portu
portugal
portugaliji
portugalijo
portugalsko
poru
pory
porzo
pos
poseł
posiadajo
posiado
position
posiydzo
posoł
pospo
possible
post
postac
postaci
postawio
postawju
postfix
postia
postr
postrzednio
postrzo
postrzodek
postrzodkowo
postrzodkowy
postrzodkowyj
postrzodkowym
postrzodku
postrzu
posu
posuguje
posugujo
poszoł
posły
posłym
potajlowac
potajlowane
potajlowanie
potajlowano
potajlowany
potential
potentillae
poto
potok
potter
potym
pouedn
pouoz
pour
pouu
pouzar
pouzarii
pow
powaz
powdery
powell
power
powers
powiat
powio
powiyrchni
powjarki
powjatu
powjec
powjer
powjes
powjyrzchn
powo
powoduje
powodym
powoz
powro
powstan
powstanio
powstała
powstało
powstały
powsto
powstowo
powstoł
powstoła
powstoło
powstoły
powszechn
powto
powyz
poz
poza
pozio
poznan
poznoł
pozo
pozu
pozycyje
pozycyji
pozycyjo
połedn
połednie
połednio
połedniowo
połedniowy
połedniowyj
połedniowym
połedniu
połedniyowej
połn
połne
poło
połowa
połowie
połowje
połowy
połoz
połu
pp
pr
pra
prac
praca
prace
pracowoł
pracy
pradesh
pradze
praecox
praestans
praetermissa
praetervisa
praga
pragmopora
prague
pramer
prantl
prao
prasad
pratensis
praw
prawa
prawach
prawdopodobn
prawe
prawi
prawicy
prawideł
prawidła
prawidło
prawie
prawio
prawje
prawn
prawo
prawyj
prawym
praze
pre
prec
precision
prefektury
prefekturze
preferred
prefix
prefixes
prelim
preliminary
premier
preocc
present
press
preuss
preussia
previously
prezes
prezesym
prezidynta
prezydynt
prezydynta
prezydynty
prezydyntym
pri
price
priceomyces
priest
prillieuxina
prillinger
prime
primulae
primulina
princ
princa
prince
princeps
princo
princym
pringsheimia
printzen
private
prl
pro
problems
problymu
problymym
proc
proceedings
procera
proces
proceso
procesu
procesy
prociw
producing
producynt
producyntym
produkcyje
produkcyji
produkcyjo
produkowane
produkowano
produkty
produkuje
profesjonalnej
profeso
profil
progr
program
programu
programy
progress
project
projekt
projektu
projekty
prolifera
proliferans
proliferodiscus
prolifica
prolixandromyces
promote
pronectria
prop
property
propertyid
propertyvalueandquals
propo
propolis
proporcyje
proposal
proposed
propozycyjo
props
pros
prospodium
proste
prosthecium
prosto
prostoku
prostrata
protea
proteaceae
proteae
protearum
protestancki
protesty
protistenk
protisty
protoglossum
protomyces
protomycetaceae
protomycopsis
protoparmelia
protothelenella
protothyrium
protounguicularia
protoventuria
protu
protubera
prov
provence
province
prow
prowa
prowach
prowadz
prowadzu
prowda
prowdz
prowincyje
prowincyji
prowincyjo
prowincyju
proxima
pru
prudn
prudnicke
prudnicki
prudnickigo
prudnickim
prudnik
prudnika
prudniku
pruinosa
pruinosum
pruni
prunicola
prunus
prus
prusach
pruskigo
pruskij
pruskim
prusko
prusu
prusy
pruszcz
prymiera
prymjer
prymjera
prymjery
prymjerym
prywatne
przasnyskim
przec
przeciw
przeciwko
przed
przede
przedmiot
przedn
przedo
przedrostko
przeds
przedstawia
przedstawic
przedstawiciele
przedstawio
przedsto
przegrano
przejo
przejs
przekludz
przekludzio
przekludzo
przeko
przekro
przeku
przekło
przelyz
przemjanek
przemys
przepływo
przes
przesmyki
przestrzyn
przestrzyni
przestrzynie
przeszoł
przeszło
przetwo
przewo
przewodn
przewodnik
przeworsk
przeworskim
przez
przeznaczo
przeznaczu
przeło
przełoz
przi
przibliz
prziborze
prziczyny
przido
przijmuje
przijo
przijs
prziju
przijyn
przijynto
przijynty
przikuplowano
przikładym
przikło
przikłod
przilez
przilo
przilu
przinalez
przino
przinolez
przipadku
przipisy
prziro
przirodn
przirody
przis
prziszoł
prziszła
prziszło
prziszłos
prziwo
prziwro
prziwru
prziwsto
prziwstoł
prziwu
prziznano
przizwo
prziło
prziłu
przo
przodkowo
przodku
przodn
przu
przywro
ps
psammina
psathyrella
psathyrellaceae
pseudaegerita
pseudallescheria
pseudeurotiaceae
pseudeurotium
pseudevernia
pseudo
pseudoasperisporium
pseudobaeospora
pseudobotrytis
pseudocercospora
pseudocercosporella
pseudocraterellus
pseudocyphellaria
pseudofusicoccum
pseudohalonectria
pseudohelotium
pseudolembosia
pseudomassaria
pseudombrophila
pseudomicrodochium
pseudonectria
pseudoomphalina
pseudoparmelia
pseudoperisporiaceae
pseudopeziza
pseudophacidium
pseudoplatani
pseudorobillarda
pseudoseptoria
pseudospiropes
pseudostigmidium
pseudotomentella
pseudotrichia
pseudotsugae
pseudotulostoma
pseudovalsa
pseudovalsaceae
pseudozyma
psidii
psilachnum
psilocybe
psiloglonium
psora
psoraceae
psoroglaena
psoroma
psoromica
psorotichia
psy
psychiatry
psychotriae
psychrophila
pszczyn
pszczyna
pszczyny
pt
pteridicola
pteridina
pteridis
pteridomyces
pterospora
pterosporus
pterozauro
pterula
pterulaceae
pterygellus
pterygiopsis
pto
ptoku
ptychogaster
pu
puberula
pubescens
publ
publc
public
publicac
publication
publications
publicysta
publiczne
publicznej
publikacyje
publikacyjo
publikowane
publikowany
publikowoł
publique
published
publisher
puccinia
pucciniaceae
pucciniales
pucciniastraceae
pucciniastrum
puccinioides
pucciniomycetes
pucciniosira
pucciniosiraceae
pucciniostele
puerto
puhar
puharu
puiggarii
puiggarina
pulchella
pulchellum
pulcherrima
pulcherrimus
pulchra
pulchrum
pulicaris
pulla
pullulans
pulveracea
pulveroboletus
pulverulenta
pulverulentum
pulvinata
pulvinatum
pulvinula
pumila
pumilum
pumilus
punctata
punctatus
punctelia
punctiformis
punctillum
punctoidea
punctulata
pungens
punicea
punith
punsola
pura
purple
purpurascens
purpurea
purpureum
purpureus
pus
pusilla
pusillum
pusillus
pusio
pusswald
pustula
pustulata
pustulatum
pustulosa
pustyn
put
puttemansia
puy
pw
pwn
px
pycnopeziza
pycnoporus
pygmaea
pyjter
pyjtra
pyn
pyndz
pynsylwan
pyrame
pyre
pyrenees
pyrenochaeta
pyrenocollema
pyrenomycetae
pyrenomycetes
pyrenomyxa
pyrenopeziza
pyrenophora
pyrenopsis
pyrenula
pyrenulaceae
pyri
pyricularia
pyriforme
pyriformis
pyrina
pyrofomes
pyrolae
pyronema
pyronemataceae
pyrrhoglossum
pyrrhospora
pyxidiophora
pyxidiophoraceae
pyxine
płazo
płazy
płec
pło
płockim
płu
płyn
płyta
q
qd
qele
qi
qid
qnumber
quad
quadrispora
qual
qualeae
qualid
qualifier
qualifierid
qualifiers
quambalaria
quatre
que
queen
queensland
queenslandica
queenslandicum
queletii
quelques
quercicola
quercina
quercinum
quercus
quercuum
querna
qui
quintaria
quisquiliaris
quitensis
r
ra
rabat
rabenh
rabenhorst
rabenhorstii
rabh
rac
racemosa
rach
rachowan
rachuje
racib
racibo
raciborske
raciborski
raciborskim
raciborsko
raciborza
raciborzu
rad
rada
radians
radiata
radiatum
radiatus
radicans
radicicola
radiigera
radio
radiomyces
radiosa
radius
radlin
radoschau
radu
radula
radulodon
radulomyces
rady
radyja
radyjny
radyjo
radyju
radz
radzio
rafael
rafał
raffaele
raffaelea
rag
rai
rain
rainbow
raithelh
raitv
raitviir
raj
raja
rajchenb
rajchenberg
rajchu
raje
raju
rajza
rak
rale
ram
rama
ramakr
ramaley
ramalina
ramalinaceae
ramalinae
ramaria
ramaricium
ramariopsis
rambelli
rambold
ramboldia
rami
ramichloridium
ramicola
rammeloo
rammstein
ramonia
ramosa
ramosum
ramosus
ramsb
ramularia
ramulispora
ran
range
rank
ranks
rannych
rano
rant
ranunculi
rao
rap
rapacea
raper
rapery
rappaz
rappii
rard
rare
ras
rasa
raspor
rast
rasteniya
rasutoria
rasy
rathaus
ratio
rattan
ratuz
rault
rauschert
ravenel
ravenelia
raveneliaceae
ravenelii
ray
razie
razu
razy
razym
rb
rber
rc
rca
rce
rcu
rcy
rczos
rd
rdna
rdo
rdoba
rdowik
re
rea
read
readii
reagens
real
reale
realu
reappraisal
reassessment
rebentischia
recedens
recensa
recent
recht
rechtu
recife
reclassification
recognition
record
records
rectipilus
recurvatus
red
reddellomyces
reddy
redefinition
reden
redena
redescription
redhead
redinger
redingeria
redisposition
redn
reducta
reed
reeks
reevaluation
ref
reference
references
referred
reflections
reflexa
reformy
refparts
refractohilum
regestu
regiae
regierungsbezirk
regiju
regio
region
regions
regionu
registros
regiyro
regjo
regju
regjyru
regle
regni
regularis
regyro
rehdanz
rehm
rehmii
rehmiodothis
reid
reidii
reinhold
reinking
reinstatement
rejo
reju
rejyncyjo
rek
rekommer
rekomst
relacyje
relacyji
related
relationship
relationships
release
relicina
relicinopsis
religije
religiji
religijne
religijno
religijnych
religijo
remarkable
remaud
remember
remis
remispora
remix
remleria
remove
ren
rend
rene
reniformis
renispora
rep
repens
repentis
repert
repetobasidium
repetophragma
repki
replace
replacing
report
reports
repr
reprezentacyje
reprezentacyji
reprezyntacyje
reprezyntacyji
reprezyntacyjo
reprezyntacyju
reprezyntowoł
reprint
reprium
repu
republic
republice
republik
republika
republikan
republiki
republiko
republiku
reqranks
requested
requienellaceae
require
required
res
research
reserve
resinae
resinicium
resinomycena
resistant
reskyrowanie
reskyrowanio
reskyrowaniym
reskyrujo
resources
rest
restionaceae
restiosporium
result
results
resupinate
resupinatus
reszta
ret
retiboletus
reticulata
reticulatum
reticulatus
return
returned
returns
reuel
reumaux
rev
review
reviews
revis
revised
revision
revisions
revisited
revista
revta
revue
rewolucyje
rewolucyjo
rexer
reyes
reynolds
rez
rezerwy
rfelt
rficos
rft
rg
rganizacyje
rganizacyji
rganizacyjo
rganizm
rganizmami
rganizmo
rganizmu
rganizmy
rganizowane
rgany
rgb
rh
rhabdocline
rhabdospora
rhachomyces
rhagadolobium
rhagadostoma
rhagoletis
rhamni
rhamphoria
rhandl
rheeder
rhei
rhein
rhenana
rhin
rhinocladiella
rhinocladium
rhinotrichum
rhizidium
rhizocarpaceae
rhizocarpon
rhizochaete
rhizoclosmatium
rhizoctonia
rhizomucor
rhizomyces
rhizophila
rhizophilus
rhizophlyctis
rhizophora
rhizophorae
rhizophydiaceae
rhizophydium
rhizopogon
rhizopogonaceae
rhizopus
rhizosphaera
rho
rhode
rhodoarrhenia
rhodocybe
rhododendri
rhodosporidium
rhodotorula
rhoina
rhois
rhopaloides
rhopalomyces
rhopalostroma
rhynchophoromyces
rhynchosporae
rhytidiella
rhytisma
rhytismataceae
rhytismatales
rhytismatis
rhytismoides
ri
ria
ribeiro
ribesia
ribicola
ribis
ribosomal
ric
rica
rican
ricardo
rice
rich
richard
richardson
richmond
richoniella
richtich
richto
ricini
rick
rickia
rickii
rico
rida
riddle
ride
ridl
rie
riefner
riess
riessia
rifai
right
rigida
rigidipes
rigidoporus
rigidula
riichi
rij
rijks
rimbachia
rimelia
rimosa
rimosum
rimosus
rimularia
rimulosum
ring
rings
rinodina
rio
riparia
ripartitella
rise
riskor
riv
river
riverside
rivularis
rivulicola
rivulorum
rk
rka
rke
rki
rkowe
rkowego
rkowo
rkvizyon
rl
rlitz
rn
rna
rnas
rnberg
rne
rnefelt
rnego
rnik
rnika
rno
rnor
rnos
rnosorbsko
rnołuz
rny
rnych
rnygo
rnyj
rnym
ro
road
roadrunner
rob
robben
roberge
robert
roberta
robertii
roberts
robertson
robi
robic
robin
robiniae
robio
robju
robnett
roboc
robocie
robot
robota
robotn
robotniko
roboty
robusta
robustum
robustus
roc
roccella
roccellaceae
rock
rocka
rockii
roczn
roczno
rod
roda
rodek
rodn
rodnego
rodno
rodnos
rodnyj
rodo
rodowe
rodowego
rodowo
rodowos
rodowyj
rodr
rodri
rodrigues
rodu
rodway
rodwayi
rodz
rodzu
rodzyn
roeijmans
roemerianus
roest
roestelia
roger
rogers
rogersii
rogerson
rogu
rok
roka
rokach
roketn
roki
rokitno
roko
rokowe
rokowo
roku
rokym
rola
roland
role
rolf
roli
roll
rolland
roln
roly
rom
roma
romagn
romagnesi
roman
romana
romell
romero
ron
ronald
ronaldo
root
roots
ropalospora
ropy
roridomyces
ros
rosa
rosae
rosarum
rosea
rosellinia
roselliniella
roselliniopsis
rosellinula
rosenscheldiella
roseola
roseolum
roseum
roseus
rosine
rosno
rososz
ross
rossi
rossman
rostellata
rostowskim
rostr
rostrata
rostrup
rot
rotiferophthora
rotifers
rotting
rotundatum
rotundisporus
roum
roumeguerei
roupalae
roureae
rousseau
roussillon
roux
rouxii
row
roy
royal
royoporus
roz
rozc
rozcio
rozdo
rozdz
rozella
rozites
rozlygowan
rozlygowane
rozlygowano
rozlygowany
rozmno
rozpad
rozpo
rozprawianie
rozpro
rozro
rozrost
rozrostu
rozrostym
rozru
rozto
roztomajte
roztomajtych
roztu
rozu
rozwijo
rozwin
rozwiniyn
rozwinyła
rozwinyło
rozwinyły
rozwio
rozwju
rozwo
rozwoju
rozwu
rozy
rp
rpa
rske
rski
rskich
rskigo
rskim
rsko
rstadius
rstwa
rstwo
rtorzynd
ru
rube
rubefaciens
rubella
rubens
ruber
rubescens
rubi
rubicola
rubicunda
rubiginosa
rubinoboletus
rubio
rubli
rubner
ruborum
rubos
rubra
rubrum
ruby
ruch
rucho
ruchu
ruchym
ruda
rude
rudis
rudn
rudolf
rudolph
rudy
rudz
rufa
rufescens
rufipes
rufofusca
rufum
rugby
rugosa
rugosum
rugulosa
rugulosus
rui
ruiz
rule
rumicis
run
rundel
rupestris
ruppr
rus
rusci
rusiaux
ruske
ruski
ruskich
ruskigo
ruskij
rusko
russia
russian
russula
russulaceae
russulales
russules
russuloid
rust
rusts
rusy
rusyje
rusyji
rusyjo
rusyju
rutstroemia
rutstroemiaceae
ry
ryan
ryb
rybn
rybnik
ryby
rychtowan
rychtuje
rydu
rygiju
rygju
rym
rymisu
ryn
rynce
rynek
rynka
rynki
rynko
rynku
rynna
rynny
rys
ryszard
rytmiczno
ryvarden
ryz
rz
rza
rzajo
rzanio
rzburg
rze
rzec
rzecz
rzeczn
rzeczpospolityj
rzeczy
rzeczypospolityj
rzeka
rzeszowskim
rzeszy
rzez
rzim
rzimje
rzimski
rzimskigo
rzimsko
rzimskokatolicki
rzimu
rzo
rzodz
rzowym
rzu
rzy
rzyce
rzyk
rzyka
rzykan
rzyki
rzyko
rzyku
rzym
rzyndu
rła
s
sa
saary
sabah
sabbath
sabeena
sabinae
sabouraudia
sacc
saccardiaceae
saccardo
saccardoa
saccardoana
saccardoella
saccardoi
saccharata
sacchari
saccharicola
saccharina
saccharomyces
saccharomycetaceae
saccharomycetales
saccharomycetes
saccharomycodaceae
saccharomycopsidaceae
saccharomycopsis
saccobolus
sadzo
sae
saga
sagediopsis
sagenomella
sahara
said
saikawa
saint
sainte
saito
sakay
saki
saksena
saksu
salem
salicicola
salicina
salicis
salicorniae
saligna
salina
salisb
salmon
salmonea
salmonicolor
salomon
salu
salvador
salvadorae
salzburg
sam
sama
sambuci
sambucina
same
samego
sami
sammelgattung
samo
samobo
samobu
samodz
samogłoski
samoregjyru
samorzu
samos
samostanowiynia
samostanowiynio
samostanowjyn
samp
samson
samuel
samuels
samuelsia
samuelsii
samych
samyj
samym
san
sancho
sanctae
sand
sanders
sandu
sanford
sang
sangay
sanguinea
sankt
sanshi
sant
santa
santam
santamari
santesson
santessonii
santiago
santo
santos
sao
saponariae
sapporo
saprobic
saprochaete
sarawakus
sarbhoy
sarcodon
sarcographa
sarcogyne
sarcopodium
sarcoscypha
sarcoscyphaceae
sarcosomataceae
sarcostroma
sarcotrochila
sardyn
sarmentorum
sarnari
sarothamni
sars
sartory
sasae
sasha
sasicola
sassafras
satelitarne
satelity
sativae
sato
saturn
saturnispora
saudyjskij
saunier
savile
savilei
savoie
savoryella
sawada
sawadae
saxicola
say
sayeri
sb
sber
sc
scabra
scabrida
scabrosa
scabrosum
scale
scalemajor
scaleminor
scand
scandens
scaphidiomyces
scates
sch
scha
schaeffer
schaer
schaereri
schaereria
schatz
scheff
scheid
schem
schenck
schenckii
schenella
scheuer
schiffnerula
schild
schimmelpilze
schindleri
schipper
schismatomma
schizonella
schizoparmaceae
schizophyllaceae
schizophyllum
schizopora
schizoporaceae
schizosaccharomyces
schizothecium
schizothyriaceae
schizothyrium
schizotrema
schla
schlag
schlechtendal
schlechtendalia
schles
schlesien
schlesischen
schleswig
schleswigu
schmidt
schmitt
schneid
schneider
scho
schoch
schodn
schokn
scholler
scholz
school
schotter
schr
schrader
schro
schroers
schroeteri
schroeteria
schru
schu
schub
schubert
schultz
schulzer
schumach
schumacher
schwanniomyces
schwarze
schwein
schweinitz
schweinitzii
schweiz
sci
science
sciences
scient
scientific
scientifique
scillae
scirpi
scirpicola
scirpina
scirrhia
scleriae
sclerococcum
scleroderma
sclerogaster
scleromitrula
sclerotinia
sclerotiniaceae
sclerotioides
sclerotiorum
sclerotium
scode
scolecobasidium
scolecoxyphium
scoliciosporum
scoparia
scopinella
scopoli
scopulariopsis
scopuloides
scorzetti
scotia
scotica
scotland
scott
scripta
scrophulariae
scutellinia
scutellospora
scutomollisia
scutula
scyn
scynarzista
scytalidium
scytinopogon
scytinostroma
se
sea
search
seaver
seaveri
sebacina
sebacinaceae
sebastian
second
seconds
secondsformat
secotium
sect
sectie
section
sections
secunda
sedi
sedz
see
seen
seer
segedin
segregate
segregated
segregates
seifert
seimatosporium
seine
seiridium
sejm
sejmowi
sejmu
sejunctum
sek
sekcyje
seki
sekreto
seks
sekunda
sel
selaginellae
select
selecta
selected
selenodriella
selenophoma
selenospora
self
semi
semiaquatic
sen
senecionis
senegalensis
sensu
sep
separans
separata
separated
separation
separator
sepedonium
sepincola
sepium
seppo
septata
september
septentrionalis
septobasidiaceae
septobasidium
septofusidium
septogloeum
septonema
septoria
septosperma
sepulta
sequence
sequences
sequestrate
ser
serca
serendipita
serenomyces
sergio
serial
serialu
seriata
seriatum
series
serjal
serjalu
serpens
serpulaceae
serravalle
servi
service
serwis
seryjalu
seryje
seryji
seryjo
sesami
seshadri
sessilis
sessions
set
setariae
setchelliogaster
sethy
setmetatable
setomelanomma
setosa
setosphaeria
setosum
setranks
setulosa
seuratia
seven
sex
sezo
sezu
sferiacei
shadow
shaggy
shagufta
shakespeare
shannon
shanxiensis
shaped
sharma
sharp
shaw
she
shear
sheard
shearer
shearii
sheng
shepherd
sherwood
shi
shift
shin
shinji
shivas
shoemaker
shoreae
short
shortname
should
show
shrestha
shun
si
sia
siamensis
sibirica
sibiricus
sic
sichuanensis
sid
side
sidihmenov
sie
siebie
siedle
siemaszko
siemaszkoa
siena
sierk
sierpnia
sierra
sieverd
sigler
silenes
silesia
silesiae
silesian
silesiana
silling
silobia
silva
silvae
silvatica
silver
silvicola
similar
similis
simmons
simocybe
simon
simple
simplex
simplicillium
simpson
simulans
simulii
sin
sina
sinclair
sinense
sinensis
sing
singapore
singel
singer
singeri
singh
singla
single
singles
singulare
singularis
sinica
sino
sinoboletus
sinuosa
sinuosum
sio
sipman
sipmanii
sir
siri
siroplacodium
sist
sistotrema
site
sitelink
sitt
sivan
sivanesan
sivertsen
six
siy
siydziba
siydzibo
siye
siynciyaniy
siyrpnia
siyła
siyły
size
sk
ska
skala
skali
skamraco
skarz
skazuje
ske
skego
skej
skeletocutis
skepperia
skepperiella
skern
ski
skich
skie
skiego
skiej
skierka
skigo
skij
skim
skimi
skip
skirz
skiz
sko
skoczek
skoki
skoroszyce
skou
skoły
skr
skrajnie
skro
skru
sku
skuli
skuod
skuodo
skupin
skupina
skupino
skupinu
skupiny
skupio
skuplowan
skuplowano
skuplowanych
sky
skych
skym
składanka
skło
skłod
skłodaju
skłodn
skłodo
slezska
slezsko
slippers
sm
smak
small
sman
smardae
smeringomyces
smilacis
smith
smithii
smithsonian
smittium
smo
smokie
smoky
smolen
smooth
smut
smuts
smynto
snak
snaktype
sne
sneijder
sno
snos
sny
snyj
so
soba
sobie
sobliwie
sobne
sobnego
sobno
sobny
sobo
soboru
sobota
sobre
sobu
soby
soc
socia
socie
sociedad
society
socjalistyczno
soczi
softnowiki
software
soil
soils
sojae
sojusz
sojuszu
sokołowskim
sokołu
soku
sol
solani
solaris
sole
solec
solenopsora
solheim
soli
solicorynespora
solida
solidaginis
solidarnos
solitaria
solo
solomon
solomonensis
solutions
som
some
somerset
something
someya
somme
sommerf
sommerfelt
son
sonchi
soneda
song
songs
sonic
sonorae
sonoran
soo
soop
soper
sopp
sorataea
sorbi
sorby
sordaria
sordariaceae
sordariales
sordariomycetes
sordida
sordidulum
sorediata
sorediatum
sorghi
sorghicola
sorghum
sorokin
sororia
sort
sos
sosnowjec
sota
sotho
soul
sound
soundtrack
source
sourced
sous
sousa
south
southeastern
southern
souza
sowerby
sowerbyella
sowieckich
sowiecko
sp
spa
spaaij
space
spaces
spadicea
spadiceum
spadicoides
spain
spamiyn
span
spanish
sparassis
sparcie
sparciym
sparganii
sparrius
sparrow
sparsa
sparsum
sparsus
spartii
spartinae
spatafora
spathularia
spathulata
spathulatus
spathulospora
spe
speakers
spec
special
species
speciesfungorum
specimens
speciosa
spectabilis
speg
spegazzini
spegazzinia
spegazzinii
spencer
spermospora
sphaceloma
sphacelotheca
sphaerella
sphaerellothecium
sphaeria
sphaerica
sphaeridium
sphaerioides
sphaerodes
sphaerodothis
sphaeroidea
sphaeronaema
sphaeronaemella
sphaerophoraceae
sphaerophragmium
sphaeropsis
sphaerosperma
sphaerospora
sphaerosporella
sphaerosporum
sphaerosporus
sphaerostilbella
sphaerotheca
sphaerulina
sphagnicola
sphagnorum
sphenospora
sphinctrina
spilonema
spinellus
spinosa
spinosum
spinulosa
spinulosum
spiraeae
spiralis
spirin
spiropes
spirosphaera
spis
spissa
spisu
spizellomyces
spizellomycetaceae
splanchnonema
splendens
splendida
split
spo
spodku
spokojnym
spokrewnio
spongiosa
spongipellis
spooner
sporavtrycksfa
spore
spored
sporendocladia
spores
sporidesmiella
sporidesmium
sporidiobolaceae
sporidiobolales
sporidiobolus
sporisorium
sporoboli
sporobolomyces
sporocybe
sporodictyon
sporophagomyces
sporopodium
sporormia
sporormiaceae
sporormiella
sporoschisma
sporoschismopsis
sporothrix
sporotrichum
sporov
sportowy
sporul
spostrzo
spot
spots
spouec
spoz
społeczne
społeczno
społecznos
społeczny
społecznych
społeczyn
społym
spp
sprache
sprague
spraguei
spraw
sprawa
sprawie
sprawiedliwos
sprawio
sprawiyło
sprawowoł
sprengel
sprib
springs
spro
sprucei
sprynz
sprzynt
spu
spumula
squamanita
squamatica
squamulosa
squamulosum
squarrosa
squeeze
sr
sri
sriniv
srisuk
srivast
sroge
srogi
srogich
srogigo
srogij
srogim
srogimi
srogo
srogos
srogsze
srogszo
srogszy
srogszych
srogszyj
ss
ssischen
ssler
ssr
sssr
st
sta
staatssamml
stac
stachybotrys
stachylina
stacyje
stacyjo
stade
stadio
stadion
stadium
stadju
stadler
stadyumu
staffordshire
stagonospora
stagonosporopsis
staiger
stali
stalpers
stambule
stan
stanach
standard
stangl
stanie
stanislaw
stanisław
stanisława
stanjemonium
stanley
stano
stanowi
stanowio
stanowiska
stanowisko
stanowju
stanu
stany
stanym
stapfia
star
stara
starachowickim
starba
stare
starego
stargard
starmer
starmera
staro
staroz
stars
starszen
start
stary
starych
stat
state
statek
statements
states
station
statku
statni
statnie
statnio
status
statzell
stauronema
staurothele
stawianio
stawin
stawiyn
stawiynia
stawjyn
stawonogi
stawropolskim
staz
stała
stałe
stało
stały
stałych
stałym
stchigel
ste
stecchericium
steccherinum
steel
stefan
stefana
stegna
stegobolus
stegocintractia
stein
steiner
stellariae
stellaris
stellata
stellatum
stellatus
stellenbosch
stem
stemphylium
stenella
stenmurklor
stenospora
stenroos
stephanopus
stephanospora
stephanosporaceae
stephen
stephensia
stercoraria
sterdyn
stereaceae
stereicola
stereocaulaceae
stereocaulon
stereocaulorum
stereoides
stereopsis
stereum
steuer
steuera
stev
steve
steven
stevens
stevensii
stewart
steyaert
sti
sticta
stictica
stictidaceae
stictis
stigmatea
stigmatochroma
stigmatomyces
stigmatula
stigmidium
stigmina
stigmochora
stilbella
stilbohypoxylon
stilbospora
stilbum
still
sting
stipata
stipitata
stipitatum
stirt
stirton
stizenb
stn
sto
stockholm
stoczek
stoji
stolec
stoleci
stolecie
stolecio
stoleciu
stolica
stolice
stolico
stolicu
stolicy
stolk
stomiopeltis
stone
stop
stopjyn
stopn
stopniowo
stor
storoczach
storoczo
storoczu
story
stosu
stosuje
stow
stowjyn
stoz
stoł
stoła
stołecznym
stoło
stoły
str
stracio
straits
straminea
stramineum
strangospora
stratosa
strattonia
strauss
strawy
straz
streams
street
strefy
streimann
streimannii
striata
striatispora
striatum
striatus
stricta
stricto
strigosa
strigosum
strigula
strigulaceae
striiformis
string
strings
strip
stro
strobel
strobi
strobilina
stromaticola
stromaticum
stromatinia
strona
strongman
stropharia
strophariaceae
strossmayeria
stru
structure
struktur
struktura
struktury
strumella
strumpa
strzedn
strzednio
strzedniyo
strzelce
strzelecke
strzeleckim
strzelin
strzewiki
strziga
strzigi
strziz
strzo
strzoda
strzodek
strzodko
strzodkowo
strzodkowoczeskim
strzodkowy
strzodkowyj
strzodku
strzodkym
strzodowiska
strzodowisku
strzu
strzylco
strzyleczki
stsamml
stu
stuart
stud
studien
studies
studios
study
studyjne
studz
stuntz
stuttgart
stw
stwa
stwach
stwami
stwie
stwje
stwo
stwor
stworziło
stworzo
stworzu
stworzyn
stworzynia
stworzyniami
stwowe
stwowo
stwowych
stwu
stwym
sty
styc
styczn
stycznia
styczniu
styczyn
stygium
styknie
styku
styl
style
stylopage
stylu
stym
stynz
stypella
styracis
styryjo
su
sua
suaedae
suaveolens
sub
subaeruginosa
subalpina
subantarctic
subcarneus
subcinerea
subcorticalis
subcutanea
subfamilies
subgeminatum
subgen
subgenera
subgenus
subglobispora
subglobosa
subincarnata
submerged
submersa
submersisphaeria
subpallida
subram
subramanian
subrugosa
subsessilis
substancyje
substancyji
subtecta
subterranea
subtile
subtilis
subtropica
subtropical
subulata
subulatum
subulicystidium
subulispora
succinea
succisae
suche
sucho
suchoz
suchy
sud
sudan
sudety
sudha
suecica
suecici
suetrong
suffix
suffixes
suffolk
sugar
sugita
sugiy
sugiyama
sugiyamaella
suh
suillaceae
suillus
sukces
sukcesy
sukcesym
sul
sulcata
sullivan
sulphurea
sulphurellum
sulphureum
sulphureus
sum
suma
summa
summer
summerb
summerbell
summerell
sumner
sun
sundara
sundaram
sung
suowjan
super
superba
superko
suppl
supplement
supplied
sur
surface
surowce
surowcu
surrey
surv
survey
sussex
susz
sutherl
sutton
suttoniella
suttonii
suu
suz
suzanne
suzuki
sv
svampdynor
svart
svensk
svenska
sverige
svg
svr
svrcek
sw
swampomyces
swart
swartii
swartz
sweden
sweet
swinscow
switch
swo
swoboda
swobodne
swobodny
swobodnygo
swobody
swoja
swoje
swoji
swojich
swojigo
swojij
swojim
swojo
swojygo
swro
swu
syberyjske
sycylije
sycylijo
syd
sydlig
sydney
sydow
sydowia
sydowiana
sydowiella
sydowiellaceae
sydowii
syjmu
syll
sylur
sylvatica
sylvestris
symb
symbionts
symbol
symbole
symbolika
symbolym
symphaster
symphoricarpi
symploci
sympodialis
sympodiella
symposium
sympu
syn
syna
synandromyces
synapsydy
synaptospora
synatu
syncephalastraceae
syncephalis
syncesia
synchytriaceae
synchytrium
syndz
synek
syngliocladium
synka
synnematous
synonym
synonyms
synonymy
synopsis
synteza
synym
syr
syrb
syrbiji
syrbijo
syrbskij
syringae
syryji
syst
system
systema
systematic
systematics
systematik
systems
systym
systyma
systymatyka
systymie
systymo
systymu
systymy
sytuacyje
sytuacyji
sytuacyjo
syzygospora
sz
szakacs
szampan
szatala
szauszpiler
szauszpilera
szauszpilerka
szauszpilerki
szauszpilery
szcze
szczec
szczecin
szczyt
szczytno
sze
szef
szego
szejs
szekulady
szes
szesno
szesnostu
szif
szifo
szko
szkocko
szkocyje
szkocyji
szkocyjo
szkole
szkolo
szkolorze
szkoła
szkoły
szkryflo
szkryfo
szkryft
szkryftu
szkutach
szl
szla
szlagcojg
szlagcojgu
szlagru
szlus
szlusie
sznicie
szno
szo
szos
szołtysek
szołtystwa
szp
szpan
szpanelske
szpas
szpasu
szpil
szpila
szpilach
szpile
szpiler
szpilera
szpilero
szpilery
szpilerzy
szpili
szpilo
szpilplac
szpilu
szport
szportklub
szportowcy
szportowe
szportowo
szportowy
szportu
szrajbno
szrajbo
szrajbu
sztac
sztacie
sztad
sztadu
sztand
sztandu
sztartnu
sztartła
sztat
sztatach
sztato
sztatu
sztatus
sztaty
sztatym
sztelo
sztetin
szto
sztokholm
sztrasbana
sztrasbany
sztreka
sztreki
sztro
sztru
sztu
sztuczne
sztucznego
sztucznych
sztudia
sztudiach
sztudio
sztudiyrowoł
sztudjyrowoł
sztudyja
sztudyjne
sztudynto
sztuka
sztuki
sztutowo
sztwjerc
sztwo
sztwortek
sztworto
sztworty
sztyjc
sztyrech
sztyry
sztyrych
szu
szula
szule
szuli
szw
szwajcaryji
szwajcaryjo
szwecyje
szwecyji
szwecyjo
szwedzke
szwedzki
szwo
szwu
szy
szych
szygo
szyj
szyk
szym
szymon
szyn
szynio
szyroko
szyrokos
szyrzka
szyrzki
szło
søchting
søren
sło
słodkowodnych
słow
słowa
słowacko
słowacyje
słowacyji
słowacyjo
słowian
słowjan
słown
słownik
słowo
słowyn
słoz
słu
słupeckim
słuz
t
ta
tab
tabacina
tabebuiae
tabernaemontanae
table
tables
tabula
tadeusz
tadz
taeniolella
taeniospora
tag
tai
taipei
tait
taiwan
taiwanensis
taiwaniana
taj
tajemnica
tajla
tajlach
tajle
tajleczek
tajleczki
tajli
tajlo
tajlowac
tajlowo
tajlu
tajluje
tajlujo
tajwan
tajwanu
tak
takada
takam
takamatsu
takash
takashi
takashima
take
takes
taki
takich
takigo
takij
takim
takimi
tako
takso
talaromyces
talbot
tales
tallman
talyntu
talyrze
tam
tamaricis
tamil
tan
tanaceti
tanaka
tandon
tang
tanzan
tanzania
tanzawaensis
tao
tapellaria
tapesia
taphrina
taphrinaceae
taphrophila
tar
taraxaci
tarczyn
tarda
targ
target
targowy
targs
tarn
tarnogu
tarnopolskim
tarnowske
tarnowskich
tarnowskim
tartu
tarzetta
tas
tasman
tasmania
tasmanica
tasmaniensis
tassi
tat
tatarsto
tav
tavaresiella
tawa
tax
taxa
taxi
taxicola
taxon
taxono
taxonomic
taxonomical
taxonomie
taxonomy
taxons
taylor
taylorii
tb
tbl
te
tead
teatr
teau
teborgs
tech
techn
technika
technischen
technologiji
tectonae
tedy
tego
tehler
tehon
teichospora
teil
teixeira
tej
tek
teksas
teksasu
tekst
teksto
tekstu
teksty
tel
tela
teledysk
teledysku
teleomorph
teleomorphs
telewizji
telewizo
telewizyje
telewizyji
telewizyjne
telewizyjno
telewizyjny
telewizyjo
telimena
telimenella
teliomo
telleri
teloschistaceae
temperate
template
templatename
templates
ten
tenella
tenellum
teng
tennessee
tenpai
tenue
tenuipes
tenuis
tenuispora
tenuissimum
teodor
teoryje
teoryjo
tephrocybe
tephromela
tepich
ter
teraski
teratomyces
teratosphaeria
teratosphaeriaceae
teraz
terfezia
termin
terminaliae
termitomyces
ternopils
tero
teroz
terozki
terra
terrestre
terrestris
terreus
terricola
terriera
terror
terry
teryn
terynach
terynie
teryno
terynu
teryny
terytoria
terytorio
terytorium
terytorju
terytoryja
terytoryjalnygo
terytoryju
tes
tessellata
test
testacea
testaceum
testamyntu
testicularia
tetracladium
tetramelas
tetrandromyces
tetrapisispora
tetraploa
tetraplosphaeria
tetraplosphaeriaceae
tetrapyrgos
tetrasperma
tetraspora
tetrasporum
tetrasporus
tewari
texana
texas
texensis
text
textcolor
tez
tg
th
tha
thailand
thalictri
thamnomyces
thamnostylum
than
thanatephorus
that
thaxt
thaxter
thaxteri
thaxteriella
thaxterogaster
the
theae
theatre
thecaphora
thecotheus
theft
their
theiss
theissen
theissenia
thelebolaceae
thelebolus
thelenella
thelenellaceae
thelephora
thelephoraceae
thelidium
thell
thelocarpaceae
thelocarpon
thelopsis
thelotrema
thelotremataceae
them
themedae
themes
then
theobromae
theodor
theophile
theory
there
thermoascus
thermomethanolica
thermomyces
thermophila
thermophilum
thermophilus
therrya
thesii
theta
they
thielavia
thiers
thin
thind
third
thirum
thirumalacharii
this
thoen
thom
thomas
thomson
thor
thore
thorn
those
thou
thousand
thozetella
three
through
thu
thuemenella
thujae
thujina
thumb
thunbergia
thwaitesii
thy
thyridaria
thyronectria
thysanophora
ti
tiarosporella
tibell
tibellii
tica
tidskr
tidsskr
tidyval
tiegh
tienne
tierra
tilachlidium
tiliae
till
tilletia
tilletiaceae
tilletiopsis
tim
timdal
time
timeaxis
times
timezone
timgrovea
timu
tina
tirol
tirolensis
titel
title
titlu
tj
tka
tki
tkich
tkim
tko
tle
tlyn
tm
to
tobago
toc
toddaliae
tode
todo
togninia
togniniaceae
toim
toki
tokjo
tokura
tokyo
tolkien
tolkiena
tolypocladium
tolyposporium
tom
toma
tomasellia
tomasz
tomasza
tomaszewska
tomek
tomentella
tomentellopsis
tomentosa
tomentosum
tomentosus
tomilin
tommy
tomorrow
toni
toninia
tonumber
tony
top
topelia
topeliopsis
topic
topospora
tor
tora
torgny
torino
tormentillae
tormu
tornai
toro
toronto
torre
torrend
torrendia
torrendiella
torrendii
torrente
torrentispora
torres
torrey
torrubiella
tortuosa
toru
torula
torulaspora
torulosa
torun
tory
toskan
tostring
total
tottori
toulon
toulouse
tour
towar
toward
towards
towarzistwo
towarzystwo
tower
town
township
toxicocladosporium
toz
tr
tra
trachyspora
tracy
tradycyje
tradycyji
tradycyjn
tradycyjne
tradycyjnie
tradycyjno
tradycyjny
tradycyjo
trail
traite
traktat
traktatu
trametes
trans
transfer
transiens
transport
transportu
transvaalensis
transzport
transzportu
tranzschel
tranzschelia
tranzscheliella
trapelia
trapeliaceae
trapeliopsis
trappe
trappea
trasa
trasy
trav
traverso
trb
tre
trechispora
tredick
tree
trees
tref
trefic
trefio
trefiynio
trefiyła
trefjo
trefju
trefy
trematis
tremella
tremellaceae
tremellales
tremellodendron
tremellodendropsis
tremellomycetes
tremotylium
tremulae
trent
trento
tres
tretospora
trevisan
treviso
triadelphia
triangularia
triangularis
trias
triblidiaceae
triblidium
tribus
tricellula
trichaptum
tricharina
trichobotrys
trichocladium
trichocomaceae
trichodelitschia
trichoderma
trichoglossum
tricholoma
tricholomataceae
tricholosporum
trichometasphaeria
trichomonascaceae
trichomonascus
trichomycete
trichomycetes
trichonectria
trichopeziza
trichophaea
trichophila
trichophyton
trichosphaerella
trichosphaeria
trichosphaeriaceae
trichosphaeriales
trichosporiella
trichosporon
trichosporonaceae
trichosporonoides
trichosporum
trichothecium
trichothelium
trichothyriopsis
trichurus
tricladium
tricolor
trident
tridentaria
triebel
trifolii
trigonopsis
trim
trimest
trimmatostroma
triplosphaeria
tripospermum
triseptata
triseptatum
triseptatus
trispora
triste
tristis
tritici
triticicola
triticum
tritirachium
triumfettae
trl
tro
trocha
trochila
trod
trogia
trop
tropica
tropical
tropicale
tropicalis
tropico
tropics
tropicum
trotter
tru
trudy
true
truffle
trujo
truncata
truncatella
truncatum
truncatus
trwajo
trwała
trwało
trwo
trwoł
try
tryb
trybu
trydynt
tryfju
tryn
tryner
trynery
trynerym
trypetheliaceae
trypethelium
trza
trzc
trzec
trzech
trzeci
trzecigo
trzecij
trzecio
trzi
trzy
trzyma
trzyn
trzys
ts
tsuda
tsugae
tsui
tsuneda
tt
tte
tter
ttingen
ttkjen
tu
tubaki
tubakia
tubaria
tuber
tuberac
tuberaceae
tubercularia
tuberculata
tuberculatum
tuberculatus
tuberculina
tuberculosa
tubeufia
tubeufiaceae
tubiformis
tubosaeta
tubulicium
tubulicrinaceae
tubulicrinis
tubulicrinopsis
tuck
tucker
tuckerae
tuckerman
tuckermanella
tuckermannopsis
tuckneraria
tucumanensis
tude
tukej
tul
tulasne
tulasnei
tulasnella
tulasnellaceae
tulostoma
tum
tumaczyn
tumefaciens
tumida
tunicata
tuomo
tur
tura
turbinata
turbinatus
turcyje
turcyji
turcyjo
turecke
turecki
tureckich
tureckij
tureckim
turecko
turficola
turgida
turkey
turkmyn
turkvizyon
turn
turner
turyngiji
turyngijo
turystu
turystyce
turystyczne
turystyka
turystyki
turze
tussilaginis
tusty
tuvalu
tuvska
tv
tvp
tvs
twardych
twarto
tweede
twenty
two
twor
tworzi
tworzic
tworzo
tworzu
tworzyn
tworzynio
twu
txtlang
ty
tybetan
tych
tychach
tycho
tychu
tychy
tydn
tydz
tygo
tyj
tyjater
tyjatralny
tyjatru
tyjatrze
tyka
tykajo
tyko
tylopilus
tym
tymat
tymi
tympanis
tymperatura
tymperatury
tymperaturze
tymu
tyn
tyne
tyngos
typ
type
typhae
typharum
typhicola
typhula
typhulaceae
typica
typowo
typu
tyromyces
tys
tysio
tysiyncy
tytuł
tytułym
tyz
tz
tzean
tzing
tzn
tzw
tønsberg
u
ua
uabbr
uac
uberispora
uc
uchiy
uchiyama
uchodz
uchwalyn
uczestn
uczo
uczu
udagawa
udagawae
uden
udeniomyces
udine
udz
udzio
udzioł
ueber
ueda
uefa
uganda
ugo
ugola
ugrupowan
ujs
uk
ukazuje
uko
ukozoł
ukr
ukraine
ukrajin
ukrajina
ukrajinie
ukrajiny
uku
układo
układu
układy
układzie
ukło
ukłod
ul
ula
uleana
ulei
uleomyces
ulfig
uli
ulica
ulicis
ulicy
uliginosa
ulje
ullasa
ulmariae
ulmi
ulmicola
ulocladium
ultrastructural
um
uman
umarc
umarli
umarto
umartych
umbelliferarum
umbelopsidaceae
umbelopsis
umbilicaria
umbilicariaceae
umbilicata
umbilicatum
umbonata
umbonatum
umbrina
umbrinum
umbrinus
umbryjo
umler
umo
umowa
umrzici
umrzili
umrził
umrziła
umrziło
un
una
uncinata
uncinula
uncovered
und
under
underarten
underarter
underground
undescribed
undulata
une
unesco
unger
unguicularia
unguiculariopsis
unguiculella
unica
unicaudata
unicolor
unije
unijo
union
uniseptata
uniseptatum
unit
united
units
unitunicate
univ
univers
universalis
universidade
university
uniwersytetu
uniwerzytecie
uniwerzytet
uniwerzytetu
unknown
unnamed
unocno
unocnyj
unocy
unters
untersuchungen
unusual
uo
uoba
uobecn
uobecnos
uobecny
uobejmuje
uobejzdrzec
uobejzdrzij
uobjekty
uobjyntos
uobleczyn
uoblyczyn
uobocz
uoborn
uobowju
uobroz
uobrozu
uobrozy
uobru
uobs
uobu
uobwodu
uobwodz
uobwu
uobyczn
uobyczny
uobywatelstwo
uoc
uocean
uoceanu
uoceanym
uochodzach
uochodzan
uochodze
uochotn
uochru
uochu
uod
uodbu
uodbywo
uodc
uoddekn
uoddykn
uoddz
uode
uodmjana
uodmjany
uodnos
uodpedn
uodru
uodry
uodwolan
uodwołan
uodymkn
uoficjaln
uoficjalne
uoficjalno
uoficjalnych
uoficyjalno
uoficyjolno
uogn
uogran
uogu
uoguos
uogłos
uogłoszu
uojc
uojca
uoklahu
uokolice
uokres
uokresu
uokru
uokryngu
uokrys
uoksytan
uoku
uoles
uolimpijske
uolimpijski
uolimpijskich
uolsztyn
uonz
uoparto
uoparty
uopery
uopis
uopole
uopolske
uopolski
uopolskigo
uopolskim
uopolu
uopowjadan
uoprogramowan
uopru
uopus
uorgan
uormjan
uoroz
uos
uosada
uosadn
uoskara
uosobliwje
uosobno
uosoby
uosprowka
uosprowku
uostan
uostanu
uostatki
uostatn
uostała
uostało
uostały
uostou
uostoł
uostoła
uostoło
uostoły
uostr
uostrowskim
uostrołynckim
uostru
uostrzodek
uostrzodku
uostrzodkym
uosu
uowadu
uowern
uowoce
uowocu
uoz
uoznac
uoznaczo
uoznoczo
up
upadhyay
upadku
upan
upper
uppsala
upreti
upright
uproszczo
upsal
upsaliae
ur
uraecium
urban
urbana
urceolata
urceolella
urceolus
urdu
ured
uredin
uredinales
uredinicola
uredinis
uredinopsis
uredo
uredopeltis
uri
url
urocystidaceae
urocystis
urodz
uromyces
uromycladium
uropyxidaceae
uropyxis
urticae
urticicola
uru
urugwaj
urugwaju
urze
urzu
urzyndowo
urzyndowyj
us
usa
use
used
user
uses
using
usnea
usneae
ustaleniu
ustalu
ustanciosporium
ustawio
ustilaginaceae
ustilaginales
ustilaginomycetes
ustilago
ustilentyloma
ustilentylomataceae
usto
ustring
ustru
usual
usza
ut
utah
utc
util
uto
utrecht
utwo
utwor
utworu
utwory
utworzo
utworzu
utworzyn
utworzynie
utwu
uu
uwaz
uwe
uwo
uwoz
uy
uz
uzbekistan
uzdo
uzdoł
uznac
uznan
uzno
uznowane
uznowany
uznowo
uznoł
uło
v
va
vaccinii
vaduz
vagans
vagn
vahliella
vain
vainio
vainionora
val
vale
valencia
valerianae
valid
validation
valle
valley
valsa
valsaceae
valsaria
valsella
value
values
van
vanakripa
vanamo
vancouver
vanderbylia
vanderwaltozyma
vanuatu
var
vararia
varghese
varia
variabile
variabilis
varians
variations
varicosporina
varicosporium
variegata
varius
vasilyeva
vassiljeva
vaterl
vaucluse
vauras
vay
ve
vec
veenb
veg
vega
veget
vegetation
vegte
veille
vel
vela
velata
velatispora
velen
velenovsky
velenovskyi
veli
vellinga
veluticeps
velutina
velutinum
velutipes
velvet
vende
venet
veneta
veneto
venezuela
venezuelae
venezuelensis
venkatachalier
ventosa
ventricosa
ventura
venturia
venturiaceae
venturiocistella
venus
ver
vera
veracruz
verbasci
verbeken
verdon
verdun
vereins
verh
verkley
verlag
verma
vermicola
vermicularia
vermispora
vermisporium
vermont
vernalis
vernicosa
vernoniae
verona
veronaea
veronicae
verpa
verrie
verrucaria
verrucariaceae
verruciformis
verrucispora
verrucisporus
verrucosa
verrucospora
verrucosum
verrucosus
verruculosa
verruculosum
verruculosus
versatilis
versicolor
versiformis
vertical
verticillata
verticillatum
verticillium
verve
very
ves
vesiculosa
vesiculosum
vestberg
vestergr
vestergrenia
vestita
vet
vetensk
vetenskakad
vexans
vezda
vezdaea
vhs
vi
viaf
vibratilis
vibrissea
vibrisseaceae
viburni
vice
viciae
victor
victoria
victoriae
victorian
vida
vidal
vidensk
video
vie
viegasia
vienne
view
vignae
vii
viii
vila
vilgalys
villa
village
villas
ville
villosa
vilnius
vinacea
vincae
vincent
vincenzo
vinci
vinicolor
vinosa
vinosum
violacea
violaceum
violae
violascens
virens
virescens
virgin
viridans
viride
viridescens
viridis
viridispora
viridula
visci
viscidus
vismiae
vit
vital
vitellinum
vitellinus
viticola
vitik
vitis
vitrea
vittad
vittal
vittore
viv
vivipari
vizella
vka
vladimi
vleugel
vo
vocals
voglino
voglmayr
vol
volkm
volkmann
volume
volutella
volvariella
vom
von
vondra
vooren
vorschlag
vosges
vostoka
vouaux
vouauxiella
vouauxiomyces
voyage
vries
vrijmoed
vroey
vs
vu
vuill
vuillemin
vuilleminia
vulgare
vulgaris
vulpina
w
wa
wac
wachtyrz
wadhwani
wadz
wageningen
wagner
wago
wahab
wahid
wahlenberg
waiting
wajo
wake
wakef
wakefield
wakefieldiae
wal
walce
walczu
waldemar
waldh
wali
waliji
walijo
walijskij
walk
walka
walker
walkeri
walki
wall
wallace
wallemia
wallr
wallroth
wallrothiella
walsh
walt
walter
walu
wan
wane
wang
wanio
waniye
wano
want
wany
wapyn
wapynu
war
warcup
ward
wardomyces
warianty
warmin
warner
waro
warrior
wars
warsaw
warszawa
warszawie
warszawje
warszawskim
warszawy
wartko
wartkos
warto
wartos
waru
warwickshire
warziszo
warziwa
was
wash
washington
waszyngtu
water
waterloo
watling
watson
watyku
wav
wawelia
way
wayne
waz
wała
wało
wały
wc
wca
wce
wchodzo
wco
wczas
wczes
wczesno
wczesny
wczesnym
wd
wdy
wdzie
we
wear
web
weber
weberi
websdaneaceae
webster
websteri
wedin
wedle
wegelina
wehm
wehmeyer
wei
weijman
weinheim
weinmann
weir
weirii
weiser
weiss
wejs
wejzdrzij
wek
wela
welden
wele
well
wellingtonensis
wells
welo
welowaniach
welowanio
welowaniu
welt
welu
welw
wenn
wentiomyces
weraroa
wercie
were
werk
werko
werner
wersyjach
wersyje
wersyji
wersyjo
wert
wescho
weschodnich
weschodnie
weschodnij
weschodnim
weschodnio
weschodu
weschodzie
wesele
wesley
wespu
west
westa
westb
westchester
weste
westend
westerdykella
western
westfalije
westfalijo
wet
wetmore
wetmorei
wettsteinina
wezło
whalley
whalleya
what
when
where
whetzel
which
while
white
whitelist
whitespace
whitton
who
whose
why
wi
wiado
wiat
wiata
wiatowo
wiatowyj
wiatła
wiatło
wibratorem
wic
wicieli
wick
wickerhamiella
wickerhamii
wickerhamomyces
wicklow
widac
wide
wideo
widn
widok
widokowo
width
widuchowo
widz
widzynio
wie
wiecie
wiedzy
wieku
wiela
wielge
wielgi
wielgich
wielgigo
wielgij
wielgo
wielka
wielki
wielkie
wielkopolski
wieloko
wieloryby
wielos
wielu
wien
wiersze
wies
wiesbaden
wiez
wiki
wikibase
wikidanych
wikidata
wikimedia
wikipedia
wikipedyje
wikipedyji
wikipedyjo
wikitext
wiktor
wilajetu
wilamowicach
wilamowice
wilamowskij
wilamowsko
wild
wilding
wilhelm
wilhelma
wilijo
will
willd
willdenowia
william
williama
williams
williopsis
willoughby
wilson
wilsonii
wilt
wiltshire
win
wina
windahlia
windows
winge
wingf
wingfield
wingfieldii
winkel
wino
winston
winter
winterella
winteri
wio
wir
wirgin
wirth
wirthii
wirtymbergiji
wirtymbergijo
wirtymbyrgiji
wirtymbyrgijo
wirusy
wis
wisconsin
wiss
wisła
wisłu
wisły
witaminy
with
within
without
wiynco
wiyncyj
wiynksza
wiynkszos
wiyntego
wiynto
wiyntyj
wiyrch
wiyrchni
wiyrchnia
wiyrchnie
wiyrchnio
wiyrchu
wjadu
wjata
wjatowej
wjatowo
wjatowygo
wjatowyj
wjec
wjedyn
wjedz
wjejs
wjejske
wjejski
wjejskigo
wjejskij
wjek
wjeku
wjela
wjelganoc
wjelganocny
wjelge
wjelgi
wjelgich
wjelgij
wjelgim
wjelgo
wjelgopolske
wjelgopolski
wjelgopolskigo
wjelgopolskim
wjelgos
wjelkanoc
wjelke
wjelko
wjeloeki
wjelos
wjelu
wjerza
wjerzu
wjes
wjetnam
wjetnamje
wjetnamu
wjez
wju
wjyn
wjync
wjyncy
wjyncyj
wjynk
wjynks
wjynkszo
wjynkszos
wjynta
wjynte
wjynto
wjyntokrziskigo
wjyntokrziskim
wjynty
wjyntych
wjyntygo
wjyntyj
wjyrch
wjyrchn
wjyrchu
wjyrchy
wjyrchym
wka
wkach
wki
wkludz
wkludzio
wkludzo
wkludzu
wkludzyn
wko
wku
wlatuje
wlazuje
wlazuju
wloz
wlozła
wlyz
wn
wna
wne
wnego
wnie
wnij
wnik
wnika
wno
wnolez
wnu
wny
wnych
wnyj
wnym
wnymi
wo
woda
wodne
wodno
wodny
wodnych
wodnym
wodo
wodu
wody
wodyn
wodz
woj
wojaczce
wojaczka
wojaczki
wojc
wojciech
wojewo
wojewoda
wojewu
wojn
wojna
wojnie
wojnu
wojny
wojo
wojoku
wojsk
wojska
wojsko
wojskowo
wojskowy
wojsku
wojynny
wojynnych
wojywo
wokal
wokalista
wokalisty
wola
woldemar
wolf
wolfgang
wolfiporia
woli
wollenw
wollenweber
wollw
wollweber
wolne
wolnos
wolny
wolsztyn
wolta
woman
won
wong
wood
woodland
woody
work
world
worldcat
woron
woronin
wotu
woz
woł
wołga
wołodymyr
wołu
wołyn
wpado
wpisane
wpiso
wprowadzu
wpływ
wpływo
wpływym
wr
wraz
wright
wrightii
wrightoporia
writ
wro
wrocław
wrocławia
wrocławiu
wrocławki
wrocławske
wrocławskigo
wrocławskim
wrocłow
wrong
wroz
wru
wrzes
wrzesiyn
wrzys
ws
wscho
wschodn
wschodnij
wschodu
wschodz
wschodzie
wschu
wsi
wspo
wspu
wstriecznoj
wszechs
wszeo
wszyjske
wszyjskich
wszyjskim
wszyjsko
wszyske
wszystkich
wtedy
wto
wtynczo
wu
wuadza
wuestneia
wulku
wuu
www
wy
wyborcza
wybr
wybrano
wybrany
wybrzez
wybrzyz
wybudowano
wyc
wych
wyco
wyd
wydan
wydane
wydanie
wydanio
wydano
wydany
wydarzyn
wydawn
wydawnictwa
wydawnictwo
wydawniczo
wydała
wydo
wydobyc
wydoł
wydoła
wydz
wyglo
wyglu
wygrano
wygro
wygroł
wygrywo
wyjo
wyjs
wyk
wykazie
wykazy
wyko
wykor
wykoz
wyku
wyloz
wym
wymarcio
wymarło
wymarły
wymianowane
wymiary
wymiyranie
wymiyranio
wymiyraniu
wymiyraniym
wymjyn
wymo
wymowa
wymys
wyn
wynecyjo
wynezueli
wyngrowskim
wyniki
wyniko
wyniku
wynneae
wynos
wynosi
wynosiyła
wynus
wyoming
wypalona
wyposaz
wyraz
wyrazu
wyrfel
wyrfla
wyrfli
wyro
wyru
wys
wysoke
wysoki
wysoko
wysokomazowjeckim
wysokos
wysp
wyspa
wyspach
wyspie
wyspje
wyspu
wyspy
wystawio
wystawiyniu
wysto
wystu
wystympowac
wystympowan
wystympowanio
wystympowały
wystympowoł
wystympu
wystympuje
wystympujo
wystympuju
wystympy
wyszyn
wytwo
wytwu
wywodz
wywodzi
wywodzu
wywołanie
wyz
wyznaczo
wyznan
wyznowo
wyzwolyn
wz
wzduz
wzglyndu
wzglyndym
wzgu
wzio
wzn
wzro
władcy
władimir
władysław
władysława
władz
władza
władze
władzu
władzy
włas
właz
wło
włocławskim
włu
x
xanthagaricus
xanthii
xanthochroic
xanthoconium
xanthomendoza
xanthoparmelia
xanthopyreniaceae
xanthoria
xanthoriae
xaver
xavier
xenasma
xenasmataceae
xenasmatella
xenidiocercus
xenolophium
xenomeris
xenonectriella
xenosperma
xenosporium
xerocomus
xeromphalina
xerophila
xerophilic
xerophilus
xerotus
xerula
xi
xii
xiii
xing
xiv
xix
xter
xu
xv
xvi
xvii
xviii
xx
xxi
xxii
xxiii
xxix
xxvi
xxxvi
xylaria
xylariaceae
xylariaceous
xylariales
xylobolus
xylographa
xylohypha
xylomyces
xylophilous
xylopiae
xylostei
y
ya
yaguchi
yaku
yala
yamada
yamadazyma
yamaguchi
yamam
yang
yanna
yao
yarrow
yasuda
ybowstu
yc
yca
yce
ych
ycia
ycie
yciel
ycio
yciu
yciym
ycki
ycko
ycu
ycy
ydaleko
ydowskigo
ydu
ydy
ydz
year
years
yeast
yeasts
yellow
yelsemia
yen
yes
yg
ygo
ygu
yin
ying
yip
yj
yje
yjo
yjstke
yjsze
yjszo
yjszych
yjszym
yju
yk
yka
ykan
ykej
ykere
ykerych
yki
ykistan
ykistu
yku
yli
yln
ylu
ym
yma
ymcy
ymi
ymiratu
ymja
ymje
ymji
ymju
ymjy
ymnygo
ymnym
ymoc
ymoce
ymodlin
ymskigo
yn
yna
ync
yncy
yncyklopedyjo
ynergije
ynergijo
yng
ynga
yngi
yngland
ynglandu
ynglandz
ynglandzke
ynglickej
ynie
ynio
yniu
ynki
ynklawy
ynn
ynno
ynnygo
yno
ynsto
ynstwa
ynstwo
ynte
ynto
ynty
yntych
yny
ynz
yo
yokoy
yonne
york
yorkshire
yoshim
you
young
youngiomyces
your
youtube
ypodległe
ypodległos
yr
yroz
yrpn
yru
yrwca
ys
yser
ysera
ysery
yseryjo
yskor
yskorzi
yskorzij
ysyr
ysyry
ytkown
ytku
ytne
ytnos
ytnych
ytnyj
yto
ytos
yu
yua
yuan
yuccae
yuccamyces
yun
yunn
yunnan
yunnanensis
yupik
yvelines
ywac
ywajo
ywaju
ywali
ywan
ywane
ywanie
ywano
ywany
ywanych
ywe
ywicy
ywio
ywjeckim
ywjelge
ywo
ywobyc
ywobyciowe
ywobyciowych
ywoln
ywot
ywoł
ywy
ywych
ywygo
yyyy
yz
yzalez
ył
yła
yły
z
za
zaangaz
zabitych
zabrze
zabytki
zabytko
zabytku
zac
zacho
zachodn
zachodni
zachodnich
zachodnie
zachodnij
zachodnim
zachodnio
zachodu
zachodz
zachodzo
zachowan
zachu
zachy
zacynou
zaczli
zaczo
zaczu
zaczyno
zaczynto
zaczła
zaczło
zaczły
zadan
zadebjutowoł
zadeklarowało
zadku
zagran
zagrou
zagroz
zagroł
zagu
zahlbr
zahlbruckner
zainteresowan
zaja
zajc
zajcie
zajmowoł
zajmuje
zajmujo
zajmuju
zajo
zajs
zajt
zajta
zajtach
zajto
zajty
zaju
zajyn
zak
zako
zakres
zaku
zakłady
zakło
zalerion
zales
zalessky
zalez
zaliczajo
zaliczane
zaliczo
zaludn
zamach
zambia
zambiji
zamek
zamiast
zamiyszkane
zamiyszkanych
zamiyszkowały
zamiyszkuje
zamiyszkujo
zamojskim
zamos
zan
zanclospora
zane
zang
zanymi
zao
zapis
zapisowan
zapo
zapotecorum
zapoz
zapropo
zare
zaregistrowano
zaro
zarozki
zarzo
zarzu
zas
zasiyng
zasiyngu
zasobo
zasto
zastosowan
zastu
zastympuje
zatoce
zatoka
zatoki
zatoku
zauobycz
zauropodo
zawarte
zawarto
zawartos
zawiyrajo
zawiyro
zawjero
zawjyro
zawody
zaz
zazou
zała
zało
załoz
zały
zbajstlowano
zbigniew
zbio
zbioro
zbju
zbl
zbliz
zboz
zbrodn
zbu
zbuczyn
zbudowane
zbudowano
zbudowany
zbulu
zd
zda
zdan
zdarzyn
zdarzynia
zdarzynie
zdene
zdjyn
zdo
zdobio
zdobo
zdobu
zdobyc
zdobycie
zdobyli
zdobyte
zdobywca
zdolnos
zdr
zdro
zdru
zdrzo
zdrzu
zdu
zdy
zdz
ze
zeae
zealand
zealandica
zealandicus
zech
zef
zefa
zeit
zek
zel
zelandiae
zelandica
zelandicum
zelandyji
zelandyjo
zeller
zelleromyces
zentbl
zeppelin
zerwisie
zespo
zespołu
zespu
zesłan
zetiasplozna
zewnyntr
zewnyntrzne
zeylanicum
zginu
zginyło
zglyndym
zgo
zgoda
zgodliwie
zgodnie
zgody
zgrzebniok
zgło
zh
zhang
zhao
zheng
zhou
zhuang
zhurb
zicher
zidlo
zidlu
zie
zielina
zielo
ziem
ziemi
zignoe
zima
zimbabwe
zimbol
zimku
zimm
zimo
zimy
zio
zipfel
ziym
ziymi
ziymia
ziymiach
ziymie
ziymio
ziymskij
ziziphi
zjawisk
zjawiska
zjednoczo
zjednoczu
zjydnoc
zjydnoczu
zki
zku
zl
zlatan
zlikwidowano
zlin
zm
zmiany
zmiynio
zmjyn
zmo
zmyn
zn
znaczajo
znaczo
znaczy
znaczyn
znaczynia
znaczynie
znaczyniu
znaju
znak
znaki
znako
znaku
znamjyn
znane
znano
znany
znanych
zne
zniszczo
zno
znoc
znoczyn
znojduje
znojduju
znojs
znok
znoki
znoku
znolez
znone
znony
znu
zo
zobo
zobrze
zobrzu
zodiomyces
zogg
zonata
zonatum
zonatus
zone
zool
zoopagaceae
zoopage
zoophagus
zoophthora
zopaska
zopf
zopfiaceae
zopfiella
zort
zorta
zortach
zorto
zortu
zorty
zostou
zostoua
zostoł
zouoz
zowdy
zoł
zołoz
zrobio
zrobju
zrobjyli
zru
zschacke
zso
zsoltii
ztg
zu
zukal
zundel
zuoz
zupa
zupy
zur
zuu
zwane
zwany
zweite
zwia
zwickau
zwio
zwiyrza
zwiyrzo
zwiyrzynta
zwjerzin
zwju
zwjy
zwjyrzynta
zwo
zwolnio
zwyc
zwyk
zwyki
zwykle
zy
zychae
zygmunt
zygoascus
zygomycetes
zygomycota
zygomycotina
zygorhizidium
zygorhynchus
zygosaccharomyces
zygosporium
zygotor
zyk
zyka
zylandyji
zylandyjo
zyskoł
złe
zło
złota
złoto
złoty
złotyj
złotym
złoz
{
|
}
~
¡
«
­
°
±
²
³
´
µ
·
¹
»
¼
×
ß
ßler
æ
÷
øvstedal
ı
ł
ła
łac
łacin
łambinowice
łan
łatki
łaz
łe
łek
łka
łki
łkuli
łnoc
łnocach
łnocne
łnocno
łnocny
łnocnych
łnocnygo
łnocnyj
łnocnym
łnocy
ło
łobez
łobz
łodz
łos
łotwje
łotwy
łowickim
łowie
łpraca
łprace
łpracy
łrzyndne
łrzyndnych
łtka
łto
łu
łuhan
łukasz
łukowskim
łuku
łuz
łwysep
łwyspje
łwyspu
ły
łynz
łysohorsky
łysomice
œ
ſhalt
ɔ
ə
ɛ
ɨ
ɪ
ʲ
ʻ
ʿ
ˈ
ˌ
ː
̀
́
̂
̃
̄
̆
̇
̈
̉
̊
̋
̌
̓
̔
̛
̞
̣
̦
̧
̨
̭
̯
͂
ͅ
͡
α
η
ι
μ
ν
ο
π
ς
υ
χ
ω
а
б
в
г
д
е
и
истории
л
м
н
на
о
п
по
р
республика
с
саранск
т
у
х
ъ
э
ю
я
ђ
і
ћ
խ
ְ
ִ
ֵ
ֶ
ַ
ָ
ֹ
ּ
־
ב
ה
ח
י
נ
ע
ק
ר
ת
ا
الا
ة
ت
ر
ع
ل
م
َ
ُ
ِ
ّ
ْ
ٓ
ٔ
ٕ
ܐ
ܵ
ހ
ރ
އ
ވ
ދ
ޖ
ާ
ި
ު
ެ
ް
ं
क
च
ड
त
द
न
प
ब
भ
म
र
ल
व
स
ा
ि
ी
ु
ू
े
ो
ौ
्
ত
র
ল
া
্
ਲ
ા
ச
ன
ப
ா
ி
்
ം
ക
ച
ട
ത
ര
ാ
ി
ു
േ
്
ก
จ
ช
ถ
ท
น
บ
พ
ภ
ย
ร
ล
ว
ศ
อ
ะ
ั
า
ิ
ี
ื
ุ
ู
็
่
้
๊
་
ུ
က
န
မ
ာ
ိ
ု
ေ
့
း
်
ြ
​
‌
‍
‎
‏
‐
‑
–
—
‘
’
“
”
„
†
•
…
‬
‰
′
″
⁄
₩
€
№
⅓
→
↔
↷
−
∞
≈
⊕
③
④
⑦
★
☆
☉
♠
♣
ⰳ
ⰾ
ⴰ
ⴱ
ⴳ
ⴷ
ⴽ
ⵉ
ⵎ
ⵏ
ⵔ
ⵕ
ⵙ
ⵜ
ⵟ
ⵡ
ⵢ
⺀
⺄
⺆
⺈
⺊
⺌
⺕
⺝
⺸
⺼
⿰
⿱
⿲
⿳
⿴
⿵
⿶
⿷
⿸
⿹
⿺
⿻
〢
い
え
か
き
つ
と
な
の
ま
み
り
れ
゙
゚
ア
イ
ウ
カ
ク
ケ
コ
シ
ス
タ
チ
ッ
ツ
テ
ト
ニ
ノ
ハ
ヒ
フ
ヘ
ホ
マ
ミ
ム
メ
モ
ャ
ュ
ユ
ョ
ラ
リ
ル
レ
ン
・
ー
㇁
㇂
㇄
㇇
㇈
㇉
㇓
㐁
㐄
㐅
㐌
㐫
㐬
㐭
㐮
㐱
㑒
㒵
㒸
㒼
㓁
㓞
㔾
㕛
㕣
㖾
㘝
㚅
㚇
㚔
㚘
㝉
㝡
㝴
㝵
㞋
㞢
㞷
㠩
㠭
㠯
㡀
㡭
㡿
㢲
㢴
㣇
㣺
㥯
㪅
㫄
㫐
㫒
㫺
㬅
㬎
㬥
㬰
㲋
㳄
㷠
㸒
㸚
㸦
㼌
㼲
㽞
㿟
䀠
䂞
䍃
䏍
䒑
䖍
䖒
䖝
䖵
䙴
䚻
䜌
䝿
䡛
䧹
䪞
一
丁
丂
七
丄
丅
丆
万
丈
三
上
下
丌
不
与
丏
丐
丑
专
且
丕
世
丘
丙
业
东
丞
丢
丣
两
严
並
丨
丩
个
丫
丬
中
丮
丰
丱
串
丵
丶
丷
丸
丹
为
主
丽
丿
乀
乂
乃
久
乆
乇
么
义
之
乌
乍
乎
乏
乐
乑
乔
乖
乗
乘
乙
乚
乛
乜
九
乞
也
习
乡
乳
乾
亀
亅
了
亇
予
争
事
二
亍
于
亏
亐
云
互
亓
五
井
亘
亚
亜
亞
亟
亠
亡
亢
交
亥
亦
产
亨
亩
享
京
亭
亮
亯
亰
亲
亳
亶
亷
人
亻
亼
亾
仁
今
介
仌
从
仐
仑
仒
仓
仕
他
付
仝
代
令
以
任
企
伊
伏
伐
休
会
伝
伯
但
位
何
佘
余
作
佥
使
來
侈
侌
侖
侯
侵
便
係
保
俞
信
修
倉
倍
候
倠
備
僉
僕
儿
兀
允
兂
元
兄
充
兆
兇
先
光
兊
克
兌
免
兑
兒
兓
兔
党
兜
兟
入
全
兩
兪
八
公
六
兮
兰
共
关
兵
其
具
典
兹
兼
冀
冂
冃
冄
内
円
冈
冉
冊
冋
册
再
冎
冏
冐
冒
冓
冖
冗
冘
军
农
冝
冡
冥
冫
冬
冷
几
凡
凢
凵
凶
凷
凸
凹
出
函
凾
刀
刁
刂
刃
刄
刅
分
切
刍
刑
刕
刖
列
刘
则
初
別
利
别
到
制
刺
則
削
剌
前
剡
副
割
剽
劉
力
功
加
劦
助
劫
劳
劵
勃
勇
勉
勒
動
務
勞
勤
勹
勺
勻
勾
勿
匀
匂
包
匆
匈
匊
匋
匍
匕
化
北
匚
匝
匡
匪
匱
匸
匹
区
医
匽
匿
區
十
卂
千
卄
卅
卆
升
午
卉
半
卌
华
卑
卒
卓
单
卖
南
卜
卝
卞
占
卡
卢
卣
卤
卦
卩
卪
卬
卯
印
危
即
却
卵
卷
卸
卻
厂
厃
厄
历
厈
厉
厌
厓
厘
厚
原
厤
厥
厨
厭
厲
厶
厷
厸
去
厼
厽
叀
参
參
叅
又
叉
及
友
双
反
叐
发
叒
叔
叕
取
受
叚
叜
叟
口
古
句
另
叩
只
召
可
台
叱
史
右
叵
号
司
叹
吂
各
吅
合
吉
吊
吋
同
名
后
吏
向
吕
君
吝
吞
否
含
启
吳
吴
吹
吾
呂
呆
呈
告
员
呙
周
命
咅
和
咎
咠
咢
咨
咸
咼
哀
品
哉
員
哥
哲
唐
商
啇
問
啚
啬
啻
善
喜
喬
單
喿
嗇
噩
嚴
囊
囗
囘
囙
囚
四
回
囟
因
囧
囬
困
囱
囷
固
国
圂
圅
國
圍
圓
土
圡
圣
圥
在
圭
地
圶
圼
坐
坒
坚
坴
垂
垔
垚
埀
埋
埶
執
基
堂
堅
堆
堇
堯
場
塞
墨
壘
士
壬
壯
声
壳
壴
壹
壺
壽
夂
处
夅
夆
备
夊
夋
夌
复
夏
夒
夕
外
夗
夘
多
夜
夢
大
夨
天
太
夫
夬
夭
央
失
夲
头
夷
夸
夹
夻
夾
奂
奄
奇
奈
奉
奎
奏
奐
契
奓
奔
奚
奞
奠
奢
奥
奭
女
奴
奻
好
如
妄
妙
妟
妥
妻
妾
始
姑
委
姜
威
娄
婁
婴
嬰
嬴
子
孑
孔
孕
孖
字
存
孚
孛
孝
孟
季
孤
学
孫
孱
學
宀
宁
宂
它
宅
宇
守
安
宋
完
宏
宓
宗
官
定
宛
宜
宝
客
宣
室
宮
宰
害
家
容
宾
宿
寄
寅
密
富
寒
察
寧
審
寫
寬
寮
寸
对
寺
寻
寽
対
寿
封
尃
射
将
將
專
尉
尊
尋
尌
對
小
少
尒
尓
尔
尖
尗
尚
尞
尢
尣
尤
尧
尨
尭
就
尸
尹
尺
尻
尼
尽
尾
尿
局
居
屈
屋
屎
屏
屑
展
屖
屚
属
屠
屡
屬
屮
屯
屰
山
屵
屾
岁
岂
岑
岡
岩
岳
岸
峯
島
崇
崎
崑
崔
崖
崙
崩
嵬
嶲
巂
巛
川
州
巟
巠
巢
巤
工
左
巧
巨
巩
巫
差
己
已
巳
巴
巷
巸
巽
巾
巿
帀
市
布
希
帚
帛
帝
带
師
席
帶
常
干
平
年
幵
并
幷
幸
幺
幻
幼
幽
幾
广
広
庄
床
底
店
庚
府
度
庫
庭
庶
康
庸
廉
廌
廛
廣
廩
廴
延
廷
建
廾
廿
开
弁
弃
弄
弇
弋
式
弓
弔
引
弗
弘
弜
弟
弥
弦
弱
張
強
强
彊
彌
彎
彐
彑
当
彔
录
彖
彗
彡
形
彤
彥
彦
彧
彭
彳
役
彼
往
待
律
徒
得
徙
從
復
微
徳
徵
德
心
忄
必
忌
忍
志
忝
忠
忩
快
念
忽
忿
思
怠
急
怱
恆
恒
恩
恭
息
悉
患
悤
悲
悶
情
惠
惡
惢
愁
愈
意
愛
感
慈
慧
慮
憂
憲
應
戀
戈
戉
戊
戋
戌
戍
戎
成
我
戒
戔
或
戚
戠
戢
截
戲
戶
户
戹
戼
戾
房
所
扁
扇
手
扌
才
打
托
执
承
折
拉
拜
拿
振
掌
推
提
摩
摸
支
攴
攵
收
攸
改
放
政
敄
敏
敕
敖
敗
敝
敞
敢
散
敦
敫
敬
数
敷
數
斂
文
斉
斊
斗
斤
斥
斩
斬
斯
新
方
於
施
斿
旁
旋
族
无
旡
既
旣
日
旦
旧
旨
早
旬
旱
旲
时
旾
昆
昇
昌
昍
明
昏
易
昔
昗
昜
星
春
昬
是
昱
昴
昷
時
晃
晋
晏
普
景
晶
智
暑
暴
曇
曩
曰
曲
曳
更
曷
書
曹
曼
曾
替
最
朁
會
月
有
朋
服
朔
朕
朗
望
朝
木
朩
未
末
本
札
朮
术
朱
朵
朶
朿
杀
李
杏
杜
束
条
来
東
杲
杳
松
析
林
枚
果
枝
枲
枼
某
柔
查
柬
柰
柴
栗
株
桀
桑
桼
梁
條
梟
梨
棘
棠
棥
森
楚
業
楽
榮
槓
樂
樊
樟
欠
次
欣
欮
欲
欶
欽
款
歆
歇
歌
歛
止
正
此
步
武
歨
歪
歮
歯
歰
歲
歴
歷
歸
歹
歺
死
殳
段
殷
殸
殹
殺
殻
殿
毋
毌
母
每
毒
比
毕
毚
毛
毳
氏
氐
民
气
氣
水
氵
氶
氷
永
氺
氾
求
汝
汞
江
沃
沓
沙
沝
沢
泉
法
波
泣
泥
泰
洛
津
洪
活
派
流
浦
浪
浮
海
淡
淮
清
渚
渠
港
湯
満
滿
漸
澳
火
灬
灭
灰
灵
灷
炅
炎
炏
炗
炙
炭
為
烈
烏
烝
焉
無
焦
焱
然
煞
熊
熏
燕
營
燮
爪
爫
爭
爯
爰
爱
爲
爵
父
爻
爽
爾
爿
片
牌
牙
牚
牛
牜
牟
牢
牧
牪
牽
犀
犬
犭
犮
狂
狄
狊
独
狺
猋
猒
猪
献
獻
玄
率
玉
王
玟
玨
珎
班
琴
瑟
瑩
瓜
瓦
甘
甚
生
産
用
甫
甬
田
由
甲
申
电
甶
男
甸
甹
町
画
甾
畀
界
畏
畐
留
畜
畟
畢
畧
畨
番
畫
異
畱
當
畺
畾
疊
疋
疌
疑
疒
疾
癶
癸
癹
登
發
白
百
皀
皃
的
皆
皇
皋
皐
皕
皮
皷
皿
盃
盆
盇
盈
益
盍
盎
监
盒
盖
盛
盡
監
盤
盧
目
直
相
盾
省
眇
眉
看
眔
眞
真
眷
眼
眾
着
睘
睪
睿
瞏
瞢
瞿
矍
矛
矞
矢
矣
知
矦
短
石
破
碎
磊
磨
示
礻
礼
社
祟
票
祭
禀
禁
禸
禹
禺
离
禽
禾
禿
秀
秃
秉
秋
科
秝
秦
移
稟
種
穀
穌
穴
究
穹
空
穿
突
窄
窒
立
竒
竜
竝
竟
章
童
竹
笑
笠
符
筆
等
答
箕
算
箴
節
篤
篭
米
粉
粛
粟
粤
粦
粲
糞
糸
糹
系
約
納
素
索
紫
累
細
終
絜
絫
絲
維
綿
縣
繇
纍
纟
缶
网
罒
罔
罕
罗
罙
罡
罢
罪
罰
署
罷
羅
羊
羌
羍
美
羔
羕
羗
羞
羡
羣
群
義
羲
羸
羽
翁
翏
習
翕
翟
翠
翼
老
耂
考
者
耆
而
耎
耑
耒
耳
耴
耶
耷
聂
聊
聖
聚
聲
聴
聶
聿
肀
肃
肅
肉
肖
肙
肥
肩
肯
育
肴
胃
背
胡
胥
能
脊
脩
膚
臣
臤
臧
自
臬
臭
臯
臱
至
致
臺
臼
臽
臾
臿
舀
舂
舄
與
興
舉
舌
舍
舛
舜
舞
舟
般
艮
良
色
艸
艹
艾
芒
芔
芝
芬
芮
花
芳
芺
芻
苔
苗
苟
若
苦
英
茶
茸
荅
草
荒
荣
荼
莆
莧
莫
莽
菆
菊
菐
華
萬
落
葉
著
葛
董
葵
蒙
蒦
蒼
蓋
蓬
蓺
蔑
蔡
蕉
蕭
薄
薛
薦
薰
藍
藏
藥
蘭
虍
虎
虐
虒
虔
處
虖
虗
虘
虚
虛
虜
虞
虫
虽
蚤
蚩
蜀
蜜
蟲
蠡
血
行
衍
衛
衣
衤
表
衮
衰
袁
袞
褭
褱
襄
襾
西
覀
要
覃
見
規
覓
覧
親
覽
见
角
解
言
訁
訇
計
詹
誩
諸
讠
谷
豆
豈
豊
豐
豕
豖
豙
象
豦
豩
豪
豸
貇
貝
貞
貟
負
貢
貧
貪
貫
責
貳
貴
買
費
賀
賁
資
賈
賏
賓
賔
賛
賞
賢
賣
質
賴
贊
贝
贡
责
贯
贲
贵
赖
赞
赤
赦
走
越
足
路
蹇
身
躬
車
軍
軎
軟
輦
车
辛
辜
辟
辥
辰
辱
農
辵
辶
边
达
过
近
连
迷
追
退
送
逆
逐
通
速
造
逢
連
逮
進
遀
遂
過
道
達
遣
適
遷
遺
邊
邑
邕
那
邦
邪
郎
部
郭
都
鄉
酉
酋
配
酓
釆
采
里
重
野
量
金
釒
錢
钅
長
镸
长
門
閃
閉
開
閏
閑
閒
間
閔
閵
閻
闌
门
间
闷
阑
阜
阝
阿
降
陳
隆
隊
隋
隡
隨
隱
隶
隹
隺
隻
隼
隽
难
雀
雁
集
雈
雋
雍
雐
雔
雙
雚
雜
雝
離
難
雨
雩
雪
雲
零
雷
需
霍
霜
霝
霞
霸
靈
靑
青
非
靡
面
靣
革
韋
韓
韦
韭
韯
韱
音
頁
頃
項
須
頗
頡
頻
願
顛
页
風
风
飛
飜
飞
食
飠
養
饣
首
香
馬
馮
駦
马
骨
高
髟
鬥
鬯
鬲
鬼
魚
魯
鮮
鱼
鲁
鳥
鳳
鸟
鹵
鹿
麃
麗
麥
麦
麻
黃
黄
黍
黎
黑
黒
黨
黹
黽
黾
鼎
鼓
鼠
鼻
齊
齋
齐
齒
齿
龍
龙
龜
龟
龠
龰
龱
龴
龵
龶
龷
龸
龹
ꙉ
者
艹
？
～
🜨
𠀁
𠀃
𠀆
𠀉
𠀎
𠀐
𠁁
𠁣
𠂆
𠂇
𠂈
𠂉
𠂊
𠂋
𠂎
𠂒
𠂔
𠂛
𠂡
𠂢
𠂤
𠂬
𠂭
𠂹
𠃊
𠃋
𠃌
𠃍
𠃎
𠃑
𠃓
𠃔
𠃜
𠄌
𠄎
𠄠
𠄢
𠆢
𠆥
𠇍
𠈌
𠌵
𠓜
𠔉
𠔥
𠔼
𠔽
𠔿
𠕀
𠕁
𠕋
𠘧
𠘨
𠙻
𠙼
𠚏
𠚒
𠚤
𠚪
𠣏
𠤎
𠤕
𠥓
𠦄
𠦑
𠦝
𠧒
𠧗
𠧪
𠩺
𠪚
𠫓
𠫔
𠫤
𠬛
𠬝
𠬞
𠬢
𠬤
𠬶
𠮛
𠮦
𠮷
𠯑
𠱠
𠳮
𠷎
𡈼
𡉀
𡉵
𡌥
𡍮
𡏳
𡕒
𡕩
𡕰
𡖅
𡗗
𡗜
𡘆
𡘤
𡧱
𡨄
𡩧
𡬠
𡭽
𡰣
𡰥
𡰪
𡰯
𡰱
𡷈
𡸁
𡿨
𡿩
𡿪
𡿺
𢀖
𢀛
𢀩
𢁙
𢆉
𢆰
𢆶
𢇁
𢇇
𢉖
𢌬
𢌿
𢏚
𢑑
𢑚
𢖻
𢙣
𢛳
𢦏
𢦒
𢧵
𢼄
𢾕
𣁋
𣄼
𣅀
𣅽
𣍘
𣎳
𣎵
𣏋
𣏼
𣗥
𣥂
𣥖
𣦵
𣦼
𣧄
𣪊
𣪠
𣬉
𣳾
𣶒
𤇾
𤊽
𤐫
𤓰
𤔔
𤕨
𤣩
𤰇
𤰔
𤰞
𤴓
𤴔
𤽄
𥁑
𥁕
𥃦
𥃩
𥃭
𥇡
𥑟
𥘅
𥘈
𥝢
𥫗
𥱡
𦈢
𦉪
𦉬
𦉼
𦍌
𦍒
𦎧
𦐇
𦓔
𦔮
𦘒
𦙃
𦚏
𦣝
𦣞
𦣻
𦥑
𦥔
𦥯
𦨉
𦭝
𦰩
𧆞
𧈧
𧘇
𧰨
𧴪
𧴮
𧵩
𧾷
𨸏
𨾴
𩙿
𩠐
𩫏
𩵋
𪉷
𪜀
𪟽
𪠲
𪩲
𫇦
𫔭
𫜸
𫝀
𫠣
𫠩
𫢉
𫥞
𫩏
𫩠
𫪡
𫲽
𫶧
𬀷
𬐘
𬗌
𬙙
𬛸
𬜯
𬟩
𬯁
𬴘
𬺻
𬼉
𬼖
𭀰
𭁈
𭁨
𭅰
𭑈
𭕄
𭗼
𭤨
𭥫
𭻾
𮅕
𮊿
𮍌
𮍏
𮓗
𮥼
𮧮
廾
𰀁
𰀄
𰀈
𰀉
𰀕
𰀠
𰀡
𰀢
𰀪
𰁜
𰃮
𰆊
𰆘
𰋙
𰕎
𰢴
𰧭
𰯲
00--
000--
01--
03--
04--
05--
08--
09--
65--
78--
81--
82--
85--
86--
88--
89--
90--
91--
92--
93--
94--
95--
97--
97883--
99--
a--
aa--
ab--
aba--
abcha--
aber--
abo--
aborti--
ac--
aca--
acanth--
acantho--
acanthos--
acce--
acer--
aceto--
ach--
acicu--
acido--
acro--
acroconidiell--
acrosti--
acrot--
acrothe--
acti--
actino--
acut--
ad--
admin--
adrjaty--
adve--
adyg--
ae--
aegypt--
aer--
aero--
aerugi--
aet--
af--
afr--
afro--
afromon--
ag--
aga--
agath--
agglu--
aglo--
agn--
agni--
agr--
agu--
agyn--
ahe--
ai--
air--
aj--
ajn--
ajsho--
ak--
aktu--
akty--
akurat--
akus--
al--
alaba--
alb--
albido--
albo--
alci--
ale--
alec--
aless--
alex--
alg--
ali--
alko--
alkohol--
all--
allan--
allo--
allos--
alphi--
alpi--
also--
alt--
altern--
alve--
am--
ama--
amaz--
amazon--
ambi--
ame--
amlar--
ammo--
amo--
amp--
ampe--
amphi--
amt--
amy--
amyg--
amylo--
amylos--
an--
ana--
anc--
and--
ane--
ang--
angio--
angu--
angulos--
anhuie--
ani--
aniso--
ann--
ano--
anth--
anthrac--
anti--
anty--
antycz--
anu--
any--
ap--
apa--
aphyllop--
api--
apio--
apluz--
apo--
app--
appal--
apri--
aq--
aqua--
aqui--
aquilo--
ar--
ara--
arauc--
arc--
arch--
arcu--
arcy--
are--
arg--
argop--
ari--
ark--
arm--
aro--
arrhe--
art--
arthro--
arthros--
aru--
arv--
ary--
arysto--
as--
ascle--
asco--
ascochy--
ascos--
ash--
aspe--
asperis--
assi--
aster--
astero--
astra--
asy--
at--
atak--
ate--
atk--
ato--
atro--
atrob--
atta--
au--
auck--
auf--
augsbu--
aulog--
aurantio--
aure--
auri--
auric--
aus--
australo--
austro--
aut--
author--
auto--
av--
avell--
awa--
axi--
ay--
ayr--
az--
azer--
azjaty--
azo--
azor--
azte--
ał--
ałtaj--
b--
ba--
bab--
bach--
baci--
bacill--
bacillis--
back--
bad--
badio--
baeo--
bag--
bahu--
baj--
baje--
bal--
ball--
bambu--
ban--
bar--
barok--
bartło--
bas--
basidio--
bass--
basz--
bat--
bauer--
bauhi--
baum--
baumajs--
bavar--
bay--
baz--
bał--
bałka--
bałty--
be--
beat--
beau--
bec--
bed--
behal--
beil--
bel--
bell--
beltra--
ben--
ber--
bes--
bez--
bezkr--
beł--
bi--
bia--
bib--
bie--
biel--
big--
bigut--
bil--
bili--
bina--
bio--
bioło--
bir--
bis--
bitu--
biyl--
biyr--
bizzoze--
bił--
bje--
bjo--
bjy--
bjyl--
bla--
blakes--
blasto--
blo--
blox--
bly--
bo--
bob--
body--
bog--
boh--
boj--
bol--
boliw--
bomba--
bon--
boo--
boque--
bor--
bos--
bot--
botry--
botsw--
boul--
bovi--
br--
bra--
brachys--
brad--
brat--
braz--
bre--
brevi--
brie--
brif--
bris--
bro--
broad--
brook--
bru--
brunneis--
bry--
bryo--
brytyj--
brzy--
bser--
bsztalo--
bu--
buda--
bufo--
buko--
bul--
bulb--
bur--
burc--
burg--
burl--
burz--
but--
by--
byd--
bydgos--
byj--
byn--
byr--
byrg--
byss--
bysso--
byssothe--
bystrz--
bywatel--
bła--
c--
ca--
cac--
cacti--
cadu--
caer--
caeruleo--
caes--
caesio--
cal--
calci--
cali--
caligi--
calo--
calypt--
camaros--
camb--
came--
can--
capi--
capn--
caps--
capt--
car--
caric--
carne--
cas--
casca--
cat--
caten--
catenop--
cau--
caul--
caver--
cavi--
cc--
ce--
cean--
cel--
cele--
celty--
cent--
cepha--
cer--
cerc--
cercos--
cere--
ceri--
cero--
cervi--
ces--
ceutho--
ch--
cha--
chadefau--
chaet--
chaeto--
chau--
che--
check--
cheirom--
chi--
chlamydo--
chlamydos--
chlo--
chloro--
cho--
choanep--
chond--
chop--
chor--
chr--
chro--
chrys--
chryso--
chrysom--
chrysos--
chu--
chy--
ci--
cia--
cic--
cicad--
cichto--
cie--
cilio--
cin--
cinc--
cinereo--
cio--
cir--
circum--
cis--
cit--
citrino--
ciu--
ciy--
cl--
clad--
clarifi--
clat--
clav--
clavato--
clavuli--
cle--
cleisto--
cler--
cliv--
clype--
co--
cocc--
coccid--
cocco--
coccos--
cochle--
coco--
coele--
coer--
coerul--
coeruleo--
coffe--
col--
coleop--
colum--
com--
comm--
con--
conc--
conglu--
conidio--
conio--
conop--
conti--
cor--
corall--
cord--
cordill--
coria--
corne--
correspo--
corru--
corym--
cos--
cou--
cour--
cra--
cran--
cras--
crassi--
craw--
cre--
cremeo--
cri--
cro--
croceo--
crom--
crow--
cru--
cruci--
cruen--
cry--
crypt--
cs--
cu--
cucurb--
cudo--
cul--
culic--
culmi--
cum--
cup--
cur--
curvi--
cuspid--
cut--
cwe--
cy--
cyano--
cyat--
cyck--
cycl--
cyclo--
cyclos--
cyl--
cylin--
cylindro--
cym--
cymat--
cyn--
cyp--
cyr--
cystidi--
cysto--
cyto--
cywi--
cz--
cza--
cze--
czeko--
czer--
czu--
czy--
czyr--
d--
da--
dac--
dacty--
dai--
dal--
dan--
dap--
dar--
dark--
das--
data--
dbi--
dc--
dchy--
dd--
ddzie--
de--
decai--
dece--
deci--
decimal--
defibu--
dei--
dek--
del--
dem--
den--
dendrit--
dendro--
denti--
denticu--
denu--
dep--
depau--
deputo--
deputyr--
der--
des--
desz--
detec--
deter--
di--
dia--
diat--
dic--
dichotomoph--
dicty--
dictyo--
dictyos--
didym--
didymop--
didymos--
die--
diff--
differ--
digi--
digita--
dimer--
dimeros--
dio--
dios--
dipl--
diplo--
diploc--
diplochor--
dipt--
dir--
dis--
disco--
div--
diver--
diversi--
dj--
dkr--
dkry--
dmit--
dn--
dni--
dno--
do--
doby--
doc--
doch--
doda--
dok--
dol--
doli--
dom--
domin--
don--
dop--
dor--
doro--
dos--
doth--
dothid--
dotyn--
doub--
doz--
dpe--
dr--
dra--
dro--
droso--
drymb--
drzew--
drzywnia--
ds--
dt--
du--
dub--
dubi--
dud--
dun--
dupl--
duplica--
dur--
duri--
duriae--
dv--
dwi--
dwo--
dwu--
dwudzie--
dy--
dyc--
dyk--
dykl--
dymbi--
dymok--
dyn--
dynas--
dyrg--
dyscypl--
dysko--
dyskrymi--
dystrybu--
dysz--
dz--
dzi--
dzie--
dzisi--
dziyr--
dło--
dłu--
e--
eb--
eball--
ebur--
ec--
ech--
echino--
ectomyc--
ed--
eduka--
edyto--
eff--
efibu--
eg--
egi--
egips--
egypt--
egzympl--
ehr--
eich--
ein--
eit--
ej--
ejo--
ek--
eko--
ekolog--
eksp--
ekspe--
ekspres--
el--
ela--
elaeo--
ele--
elec--
elek--
eli--
ell--
ellipt--
elo--
ely--
em--
emer--
emi--
en--
enco--
end--
endo--
endoc--
endom--
endop--
endos--
endox--
engel--
enter--
entero--
environ--
eo--
ep--
ephe--
epi--
epic--
epid--
epiphy--
epis--
epit--
epu--
er--
era--
erb--
erem--
eremom--
erio--
erioca--
erra--
erup--
ery--
eryth--
erythro--
erythros--
erz--
es--
esch--
esco--
esp--
espe--
est--
esz--
et--
etjo--
etn--
etno--
eu--
eup--
eur--
ev--
ever--
ew--
ewangel--
ewolu--
ex--
exami--
exce--
excl--
exp--
exten--
ez--
f--
fa--
fabi--
fabr--
face--
faer--
fajr--
fak--
fal--
fam--
fan--
far--
fał--
fe--
fecu--
federal--
fele--
fenes--
fer--
fermen--
ferru--
ferrugi--
fest--
ff--
fi--
fibr--
fibu--
ficja--
ficyj--
fil--
fila--
filic--
filis--
filo--
filolog--
fimbri--
fin--
finl--
fior--
fir--
fis--
fizycz--
fl--
flab--
flac--
flam--
flamand--
flav--
flavi--
flavido--
flavo--
flavoc--
flavov--
fligr--
fligro--
flo--
flu--
fo--
foet--
fojer--
fol--
follicu--
foo--
for--
format--
fos--
foto--
fove--
fr--
fra--
frag--
frak--
fraxino--
fre--
frekwyn--
fri--
frie--
fried--
fro--
fru--
fructi--
fruti--
fruticu--
fry--
fu--
fuji--
ful--
fulvi--
fulvo--
fumi--
funda--
fune--
fur--
furca--
furfu--
fusa--
fusbal--
fusc--
fusco--
fuscov--
fusi--
fyn--
g--
ga--
gab--
gad--
gaga--
gal--
gala--
gan--
gar--
gas--
gastro--
gaz--
ge--
gei--
gel--
gemm--
gen--
geo--
geolog--
ger--
ges--
geszy--
get--
gi--
gib--
gibral--
gil--
gimn--
gimnaz--
gla--
glab--
gladi--
glaj--
glauc--
glaucoc--
gli--
glio--
glo--
globos--
globu--
gloeo--
gloeocy--
glu--
gluti--
gly--
gn--
go--
god--
gorg--
gorl--
gos--
got--
gou--
gov--
gow--
goł--
gr--
gra--
grabo--
graficz--
gran--
graphi--
grawita--
gre--
grens--
grenz--
grif--
grise--
griseo--
gro--
groen--
gru--
gry--
grynl--
grz--
grze--
grzib--
grzy--
gu--
gua--
guad--
guang--
guat--
gubc--
gubczy--
gue--
guia--
guiz--
gul--
gur--
gut--
gwa--
gwatym--
gwi--
gwjo--
gy--
gya--
gym--
gymno--
gymnos--
gyn--
gynera--
gyps--
gyr--
gyrop--
gyrophor--
gys--
gysz--
gyszy--
gła--
gło--
głu--
głymb--
h--
ha--
hadro--
haem--
hag--
hai--
haj--
hajco--
haje--
hajt--
haken--
hal--
hali--
halo--
ham--
han--
hapl--
haplo--
hapto--
har--
hard--
harpo--
has--
haup--
hav--
haw--
hay--
haz--
he--
hed--
hedy--
hel--
helic--
helicos--
helis--
hemi--
hepat--
hept--
her--
heral--
herc--
here--
herpo--
herpotr--
herz--
hetero--
heu--
hex--
hexa--
hi--
hiem--
hier--
hig--
hil--
hind--
hindu--
hip--
hipo--
hir--
hirschio--
hirsu--
his--
hit--
hl--
ho--
hob--
hoe--
hof--
hohenzo--
hol--
homo--
hono--
hor--
hormo--
hosp--
hot--
how--
hr--
hrab--
hrad--
hu--
hul--
hum--
hut--
hutn--
hy--
hya--
hyalo--
hyalos--
hybr--
hydno--
hydro--
hygrop--
hym--
hyme--
hyp--
hyper--
hypho--
hypo--
hypoc--
hypothall--
hypoxan--
hypsost--
hys--
hyster--
hystero--
hła--
i--
ia--
iant--
iber--
ibor--
ic--
ich--
icmado--
icter--
id--
iden--
ider--
if--
ig--
ign--
ii--
ij--
ik--
ika--
iko--
il--
ili--
ill--
illus--
ilu--
im--
image--
imbec--
imbrica--
imi--
immer--
imo--
imp--
imple--
in--
ina--
inaequi--
inc--
incar--
incon--
inde--
indi--
indj--
indo--
indy--
indyj--
indywi--
ine--
inf--
infec--
infund--
infus--
inic--
inns--
ino--
inopercu--
inqui--
ins--
insol--
inspi--
insur--
insz--
int--
inte--
inter--
intesti--
inu--
inve--
io--
ir--
iren--
irl--
irri--
is--
isa--
ise--
isid--
isidio--
iso--
ist--
isthmos--
isz--
it--
ita--
iu--
iv--
iw--
iwo--
iz--
izo--
ił--
j--
ja--
jad--
jak--
jakuc--
jama--
jan--
jar--
jas--
jb--
je--
jed--
jeff--
jel--
jerozol--
ji--
jko--
jo--
job--
jon--
jonat--
jsro--
jto--
ju--
judyn--
jug--
jul--
juni--
juru--
juve--
jy--
jyn--
k--
ka--
kaf--
kaka--
kal--
kala--
kali--
kam--
kamb--
kami--
kan--
kandy--
kap--
kapi--
kapl--
kar--
kara--
karaib--
karajib--
karos--
kas--
kaspijs--
kat--
katol--
kauk--
kawa--
kaz--
kału--
ke--
kel--
kem--
ken--
ker--
keratino--
kero--
kha--
khu--
ki--
kilo--
kim--
kins--
kir--
kirg--
kl--
klaro--
klaw--
klim--
klo--
klu--
klucz--
kluy--
klyn--
km--
kn--
kne--
kno--
ko--
koali--
kob--
koc--
kod--
koja--
kol--
komun--
kon--
kop--
kopa--
kor--
korb--
korho--
korn--
koro--
kos--
kowal--
koz--
koziel--
koło--
kr--
kra--
kraj--
krapko--
krasnoja--
kre--
krem--
krie--
kro--
kru--
kry--
krym--
krymi--
kryngo--
krytycz--
krz--
krze--
krzip--
krzy--
ks--
ksi--
ku--
kuk--
kul--
kup--
kur--
kwi--
ky--
kyj--
kynozoj--
kyo--
kło--
l--
la--
lab--
labyr--
lac--
lace--
lacti--
lacu--
laet--
lagen--
lam--
lame--
lamin--
lan--
land--
lang--
lanugi--
lappon--
lar--
las--
lasio--
lasz--
lat--
late--
lau--
lauder--
laur--
lav--
laxi--
le--
lec--
lee--
legn--
legu--
leice--
leio--
lejzo--
lek--
leks--
len--
lenin--
lenti--
lenticu--
leo--
leon--
lep--
lepid--
lept--
lepto--
les--
let--
leu--
leuco--
leucos--
leveill--
lew--
li--
lib--
lic--
liczn--
life--
lign--
ligo--
lik--
lila--
lin--
link--
lip--
liquida--
lire--
lirell--
lis--
list--
lit--
litew--
litho--
lithu--
livi--
ll--
lno--
lo--
lob--
lobu--
locu--
loflam--
log--
loh--
loj--
loka--
lokalizac--
long--
lopho--
los--
lotn--
lou--
lp--
lu--
lub--
luc--
luck--
lucu--
lud--
lum--
lund--
lunulos--
lute--
luteo--
luteoc--
luter--
luxu--
luz--
ly--
lyco--
lycoper--
lym--
lyn--
m--
ma--
mac--
macki--
macowa--
macro--
macros--
macrot--
maculi--
mad--
madzia--
mag--
magdebu--
mah--
maha--
mai--
maj--
majs--
maksyma--
maksymi--
mal--
mala--
mali--
malyr--
mamm--
man--
manda--
mandy--
map--
mar--
mari--
mas--
massa--
masz--
mat--
matem--
mau--
max--
may--
maz--
mazo--
mał--
mało--
mb--
mbina--
mbko--
mc--
me--
meck--
med--
medie--
medio--
mediter--
medul--
mega--
megalo--
megas--
mel--
mela--
melan--
melano--
melanop--
melanos--
melas--
mell--
melze--
mem--
men--
menis--
mer--
meridio--
meso--
mess--
meta--
metabol--
metal--
mete--
metz--
mexi--
mezozoj--
mg--
mi--
mia--
mic--
micro--
micros--
midd--
mie--
mik--
mil--
mili--
milit--
min--
minac--
mini--
mino--
mio--
mir--
mis--
misa--
misyj--
mit--
miya--
miyjsc--
miyndzy--
miysz--
mja--
mje--
mjejs--
mjer--
mjo--
mjy--
mjyndzy--
mjyszki--
mly--
mm--
mn--
mni--
mno--
mo--
moc--
mod--
moe--
mogi--
mol--
mon--
mongo--
mono--
monos--
mont--
mor--
mora--
morav--
morfolog--
morp--
mos--
mou--
moz--
mołda--
mp--
mpi--
mpl--
mpozy--
mpu--
mr--
mro--
ms--
msie--
mu--
muci--
muehlen--
mul--
multi--
mun--
mur--
mus--
mutab--
muz--
muzuł--
mw--
my--
myan--
myce--
myco--
myn--
myr--
myria--
myrio--
mys--
myslo--
mysło--
mło--
n--
na--
nac--
nacyj--
nad--
nag--
naj--
nak--
nambu--
name--
nan--
nano--
napi--
nar--
narychto--
nas--
naszkryfl--
nat--
nau--
nauc--
nauo--
nause--
nav--
nawi--
naz--
nazw--
nc--
ncynt--
ncz--
nd--
nda--
ndko--
ndo--
ndz--
ne--
nec--
neg--
negaty--
neigh--
nemor--
neo--
neoc--
neocale--
neof--
neol--
neop--
nep--
ner--
nervi--
nervise--
nes--
net--
netyc--
neu--
neur--
neus--
neutra--
new--
nezyj--
nferyn--
ng--
nglo--
ngo--
ngol--
ni--
nia--
nic--
nider--
nidi--
nidu--
nie--
nieder--
nig--
nigre--
nigri--
nigro--
nij--
nil--
nisz--
niti--
niy--
niz--
nk--
nko--
nku--
nn--
no--
nob--
noc--
nocti--
nodu--
noj--
nojdu--
nojl--
nojlep--
nojlicz--
nojmod--
nojp--
nol--
nom--
non--
nor--
nord--
norveg--
nos--
not--
notab--
notho--
nou--
novo--
now--
nowo--
nr--
ns--
nserwaty--
nstan--
nstru--
nstytu--
nsz--
nt--
nta--
ntrolo--
ntrowers--
nu--
nubi--
nur--
nutr--
nwyn--
ny--
nz--
nzo--
o--
oahue--
ob--
ober--
obr--
obsc--
obscur--
obtec--
obtu--
obtusi--
oc--
occ--
oce--
och--
ochraceo--
ochro--
octo--
od--
odn--
odon--
odonto--
of--
oghu--
ogn--
oh--
ohie--
oj--
ojro--
ok--
oktober--
oku--
ol--
ole--
oligo--
oligotr--
oliv--
olivaceo--
om--
omni--
ompha--
on--
onco--
oncos--
one--
ontarie--
ony--
oo--
op--
open--
oper--
opercu--
ophi--
opol--
opowiad--
opu--
or--
ora--
orbi--
orchi--
oreo--
org--
oro--
os--
oso--
ost--
osteo--
ostio--
ostre--
ota--
ou--
out--
ov--
over--
overlay--
ow--
owa--
owo--
ows--
ox--
oy--
oz--
oł--
oła--
p--
pa--
pac--
pach--
pachy--
pachys--
pacis--
pacz--
pad--
pal--
pala--
palaeo--
paleozo--
pall--
pallido--
pampe--
pan--
pana--
panto--
pap--
par--
para--
pardubi--
parie--
parse--
parvi--
parvo--
pas--
pat--
pauc--
paup--
paw--
paws--
paz--
pe--
pec--
pedi--
pedicu--
peduncu--
peg--
pej--
pel--
pell--
pellicu--
pelo--
peltas--
pelto--
pen--
pendu--
penic--
per--
pere--
peridio--
peris--
pestaloz--
peti--
pez--
pf--
pfe--
pfl--
ph--
pha--
phaeo--
phaeop--
phaeotr--
phan--
phaner--
phi--
phleb--
phlebop--
phloeo--
phlycti--
pho--
phrag--
phragmo--
phragmos--
phycop--
phyll--
phyllo--
phylloc--
phyllop--
phyto--
pi--
pia--
pic--
pica--
pice--
pie--
pig--
pil--
pili--
pilo--
pilos--
pim--
pin--
pine--
pio--
pipto--
piri--
pis--
pisa--
pista--
pity--
piyr--
pje--
pjer--
pjo--
pjotro--
pjy--
pl--
pla--
placo--
plagi--
plas--
plat--
pleb--
plec--
plecop--
plecto--
pleio--
plejs--
pleo--
pleur--
pleuro--
plez--
plica--
plu--
po--
poc--
pocho--
pod--
podbiegu--
podo--
poet--
pogran--
pogrze--
poja--
pokaz--
poko--
pokr--
pokry--
pol--
pola--
polio--
polni--
poly--
polycy--
polyg--
polymorp--
polys--
polytr--
pond--
ponder--
pop--
poprz--
popula--
por--
poro--
porost--
porostyt--
pos--
posia--
posie--
posiedzi--
poszuki--
poszuko--
potr--
pow--
powiynks--
powja--
poz--
poza--
pozo--
pozyty--
pp--
pr--
pra--
praktycz--
prata--
pre--
preda--
prefe--
prezbi--
prezy--
pri--
pring--
print--
pro--
prob--
produ--
produko--
prokura--
prop--
propa--
proszo--
protek--
proto--
pru--
pry--
prymity--
prywat--
prze--
przebi--
przebly--
przekaz--
przekształ--
przenie--
przer--
przi--
przij--
przipa--
przy--
przypa--
ps--
pseu--
pseudo--
psy--
psycho--
psychro--
pt--
pter--
pteridio--
pteros--
pu--
pudi--
pul--
pulvi--
punc--
punctul--
pur--
purp--
purpur--
purpureo--
pus--
pusz--
put--
puy--
puławs--
py--
pyc--
pycnidiop--
pycno--
pyg--
pyn--
pyr--
pyrami--
pyre--
pz--
pł--
pła--
pły--
q--
qi--
qua--
quad--
quadri--
quar--
quasi--
quater--
que--
qui--
quinque--
quis--
r--
ra--
rab--
rac--
rad--
radio--
rai--
rain--
raj--
ram--
rame--
rami--
ramul--
ran--
rap--
ras--
rave--
rb--
rc--
rd--
rdzy--
re--
rea--
read--
reak--
real--
rec--
rece--
recti--
red--
reda--
redach--
reduk--
ref--
refor--
reg--
regi--
registrac--
regyn--
rei--
reich--
rein--
rej--
rejyn--
rek--
rela--
ren--
render--
renis--
rep--
repoz--
reprez--
res--
resky--
resup--
resz--
ret--
retis--
rev--
rewolu--
rezul--
rezydy--
rg--
rganicz--
rh--
rha--
rhabarb--
rhac--
rhen--
rhexo--
rhiz--
rhizo--
rhizop--
rho--
rhodo--
rhombis--
rhopa--
rhopo--
rhy--
rhync--
rhyncho--
ri--
ric--
ridge--
rie--
rigidi--
rimul--
rio--
riv--
rk--
rl--
rn--
rni--
ro--
rob--
roc--
roche--
rock--
rod--
rojtsz--
rok--
roku--
rol--
rom--
ron--
roque--
ros--
rosen--
roseo--
rostr--
rosz--
rot--
rou--
rous--
rousso--
row--
roy--
roz--
rozry--
rozszy--
rozu--
rozwi--
ru--
rub--
rubr--
rubri--
rubro--
rud--
rufi--
rufo--
rugi--
rus--
ruti--
ry--
ryb--
rybn--
ryce--
rych--
rygi--
rym--
rys--
ryuk--
rz--
rza--
rze--
rzecz--
rzy--
s--
sa--
saar--
sac--
sach--
sadas--
sakra--
sal--
sala--
sale--
salic--
salsugi--
sam--
sama--
samo--
san--
sandomjy--
sar--
sarc--
sarcine--
sarcop--
sarrame--
satel--
sau--
saudyj--
saur--
saus--
sax--
saxi--
sb--
sc--
sca--
scab--
scabri--
scal--
scenarz--
sch--
scherff--
schiz--
schizo--
schle--
sci--
scle--
sclero--
sclerop--
sclerot--
scleroti--
sco--
scol--
scoleco--
scolecos--
scop--
scopu--
scor--
scut--
scutell--
se--
sea--
sec--
see--
sek--
sel--
selb--
selenos--
semi--
sen--
sep--
septo--
sepul--
ser--
serb--
set--
sexua--
seych--
seyn--
sfe--
sh--
sha--
shan--
she--
shi--
sho--
show--
shu--
si--
sia--
sibi--
sie--
sied--
sig--
sigmoideomy--
sik--
sil--
silve--
sim--
simb--
simul--
sin--
sio--
sipho--
siro--
sit--
siy--
sk--
ska--
ske--
ski--
skle--
sko--
skott--
skr--
skrzy--
sku--
skut--
sky--
skła--
sla--
slez--
sli--
slo--
slu--
sm--
smilac--
smo--
so--
sob--
sobie--
socja--
socjal--
socjo--
sol--
soli--
solo--
som--
son--
sop--
sorb--
sord--
sordid--
soros--
sos--
sou--
sowie--
sowjec--
sp--
spa--
spar--
sparti--
spe--
sper--
spha--
sphaer--
sphaero--
sphaerop--
sphaeros--
spi--
spicu--
spil--
spin--
spinu--
spir--
spiyr--
spo--
sporo--
spotrzebowo--
społ--
spro--
spu--
squa--
squarru--
sr--
sreb--
sro--
ss--
st--
sta--
stan--
staro--
start--
stawi--
ste--
stell--
sten--
stenhamm--
step--
sterig--
sterre--
sti--
sticti--
stig--
stilb--
stipi--
sto--
stock--
stoso--
str--
stras--
strate--
stria--
stric--
strio--
stro--
stromato--
stru--
strzy--
strzybr--
stu--
stwiyr--
sty--
styl--
su--
sub--
subc--
subruti--
subti--
subvi--
succ--
sudet--
suff--
sul--
sum--
sun--
super--
supp--
sur--
suthe--
suwal--
suł--
sv--
sw--
swo--
swobo--
sy--
syber--
syc--
syg--
syj--
syl--
sym--
symet--
symi--
symphyo--
syn--
syna--
syne--
synne--
syr--
syz--
sz--
sza--
szac--
szach--
szaj--
szczu--
sze--
szkl--
szkry--
szkryfl--
szla--
sznu--
szo--
szombie--
szoł--
szp--
szt--
szta--
sztab--
sztarto--
sztiko--
sztrasb--
szty--
szu--
szw--
szwa--
szwajca--
szy--
szyr--
sła--
sławo--
sło--
słups--
t--
ta--
tab--
tabac--
tahi--
tai--
taj--
taly--
tam--
tamtyj--
tan--
tapi--
tar--
tarasz--
tas--
tat--
tatar--
te--
tec--
techn--
tel--
tem--
ten--
teneb--
tenu--
tenuir--
tephr--
ter--
termody--
terri--
tes--
testaceo--
tetra--
tex--
th--
tha--
thaps--
the--
thelep--
thelo--
theo--
ther--
thermo--
thio--
thri--
thu--
thy--
ti--
tibe--
tim--
tinc--
tiri--
tit--
title--
tj--
tjibo--
tka--
tm--
to--
toku--
tom--
top--
topo--
tor--
tou--
tous--
tr--
tra--
trachy--
trage--
trans--
trasz--
tre--
tremato--
treti--
tri--
triangu--
trich--
tricho--
trichod--
trichom--
trichop--
trichopel--
trichos--
trigonos--
trin--
triphrag--
tris--
tro--
tropika--
tru--
trull--
trunco--
try--
trype--
trze--
trzeb--
trzi--
ts--
tt--
tu--
tubu--
tul--
tum--
tur--
turystycz--
twa--
twar--
twi--
twje--
ty--
tyj--
tylop--
tym--
tympyr--
typ--
tyr--
tz--
tłu--
u--
ua--
ubi--
ubu--
uc--
uch--
uci--
udmur--
udo--
ugan--
uja--
ujgu--
uk--
ukaz--
uko--
ukr--
ukształto--
ul--
ule--
uligi--
ultra--
um--
umbon--
umbr--
umi--
umiarkowa--
un--
una--
uncin--
und--
unguicu--
uni--
unise--
uniwer--
unoc--
uo--
uob--
uobc--
uobej--
uobywa--
uobywatel--
uochoj--
uod--
uode--
uodkr--
uodkry--
uodly--
uof--
uofi--
uoficjo--
uokr--
uol--
uop--
uopa--
uopat--
uor--
uorke--
uorygi--
uos--
uosob--
uot--
uowo--
uoz--
up--
upamiynt--
upra--
uprosz--
uprow--
ur--
urce--
urceola--
uroh--
uru--
urzy--
us--
usa--
usta--
ustila--
usu--
ut--
utric--
utrzim--
uwa--
uz--
uzbeki--
uzdro--
uzno--
uzys--
v--
va--
vacc--
val--
vale--
van--
vander--
var--
varie--
varii--
vario--
vaug--
vax--
ve--
velut--
venez--
venezu--
vent--
ver--
verec--
vermi--
vermic--
verru--
verrucis--
verruco--
vertici--
ves--
vesicu--
vesti--
vi--
vie--
vil--
vill--
vinaceo--
vinos--
virg--
viri--
viridi--
visc--
vit--
vla--
vo--
vol--
volks--
vorti--
vu--
vul--
vys--
w--
wa--
wac--
wado--
waj--
wal--
wampjy--
wan--
wanie--
war--
warz--
warziszy--
was--
wat--
wałbrz--
wc--
wcho--
wd--
we--
web--
webs--
wed--
wei--
wejherow--
wek--
weksylo--
wel--
wersal--
west--
wet--
wewny--
wez--
whe--
whi--
whit--
wi--
wiad--
wic--
wicemajs--
wicep--
wid--
wie--
wielgo--
wielko--
wielo--
wierz--
wiki--
wil--
wila--
wilamo--
wilamow--
win--
wir--
wis--
wit--
wita--
witt--
wiyn--
wiyncim--
wiynzi--
wiyt--
wizual--
wja--
wje--
wjel--
wjelgo--
wjelo--
wjo--
wjy--
wjyrk--
wkro--
wlazo--
wn--
wna--
wno--
wny--
wo--
woj--
wol--
wor--
woł--
wr--
wra--
wrach--
ws--
wszech--
wszy--
wszyjs--
wu--
wul--
wulka--
wy--
wybje--
wybor--
wyd--
wydo--
wygi--
wyk--
wyko--
wykształ--
wym--
wymie--
wyn--
wynezu--
wyngo--
wyp--
wypa--
wyproduko--
wyr--
wys--
wystawi--
wystym--
wywoł--
wyz--
wz--
wza--
wzajym--
wzi--
wzmjanko--
wzoro--
wła--
wło--
włocła--
włosz--
x--
xan--
xanth--
xanthoc--
xanthoso--
xen--
xeno--
xenost--
xep--
xeroc--
xi--
xx--
xy--
xylarii--
xylo--
xylog--
y--
ya--
yaku--
yb--
yc--
ydo--
ydows--
yeo--
yg--
yj--
yjst--
yk--
ym--
ymbjo--
ymi--
ymito--
ymja--
yn--
ync--
yng--
yni--
yo--
yong--
yoshi--
ypodly--
yr--
ys--
yt--
yu--
yucci--
ywc--
ywi--
ywo--
yz--
z--
za--
zaakcepto--
zabi--
zac--
zaj--
zak--
zalic--
zam--
zami--
zan--
zape--
zaregi--
zas--
zasad--
zaszl--
zaszlachto--
zatru--
zaw--
zawar--
zawiyrzy--
zawjy--
zaz--
zba--
zbeki--
zbiyr--
zbjy--
zbro--
zbroj--
zbu--
zd--
zdefin--
zdo--
ze--
zel--
zem--
zer--
zgi--
zgo--
zgod--
zh--
zic--
zie--
zim--
zin--
ziym--
zjod--
zl--
zlodowa--
zm--
zmi--
zmia--
zmie--
zmiyn--
zmjan--
zmodyfiko--
zn--
znac--
znaj--
znisz--
zno--
znoj--
zo--
zogły--
zollin--
zrozu--
zu--
zulu--
zuo--
zur--
zwa--
zwi--
zwiyn--
zwo--
zwrot--
zwyci--
zwyr--
zy--
zygo--
zygos--
zym--
zło--
đ--
ł--
ła--
łaz--
ło--
łobes--
łot--
łu--
ły--
μ--
ν--
ал--
б--
бл--
в--
ве--
г--
д--
л--
льв--
м--
мо--
морд--
мі--
н--
но--
о--
р--
рус--
с--
се--
ا--
ال--
อ--
--0
--00
--01
--02
--03
--04
--05
--1
--11
--12
--13
--14
--17
--2
--22
--23
--25
--26
--27
--29
--3
--30
--32
--35
--36
--37
--38
--39
--4
--40
--42
--46
--47
--5
--51
--53
--57
--58
--6
--62
--63
--66
--7
--76
--78
--79
--8
--80
--84
--85
--87
--89
--9
--93
--94
--95
--97
--99
--a
--able
--abre
--ac
--acca
--acea
--aceae
--aceum
--aceus
--ach
--aci
--acis
--ack
--acyje
--acyji
--acyjne
--acyjo
--acz
--aczka
--aczu
--ad
--ada
--ade
--adn
--ado
--adu
--adus
--ady
--adz
--ae
--aea
--aeae
--aena
--aensis
--aeta
--ag
--aga
--age
--agne
--ah
--ai
--ail
--aine
--ainii
--ais
--aj
--aja
--ajn
--ajo
--aju
--ak
--aki
--aku
--al
--ala
--ald
--ale
--ali
--alis
--alne
--alno
--alny
--alo
--alu
--am
--ama
--ami
--amo
--amynt
--an
--ana
--and
--andia
--andica
--ane
--ang
--ani
--ania
--anii
--aniomyces
--aniu
--anki
--ann
--ano
--ans
--ant
--antesson
--anthi
--anti
--anto
--antu
--anty
--anu
--anum
--anus
--any
--anych
--ao
--ap
--appa
--apsa
--apy
--ar
--arc
--ard
--are
--ari
--aria
--arioides
--aris
--arium
--arius
--arno
--aro
--arpa
--arpi
--arpon
--arpum
--arrow
--arum
--ary
--arzyszenie
--as
--asa
--ascus
--ash
--asidium
--assi
--asty
--at
--ata
--ate
--ati
--atica
--ation
--atis
--ato
--atory
--atr
--ats
--atum
--atus
--au
--aulon
--ault
--aux
--ava
--aw
--awa
--awsko
--awu
--ax
--ay
--az
--azu
--ał
--ała
--ało
--ały
--b
--ba
--bach
--bae
--bajt
--bata
--be
--beeja
--bensis
--beth
--bi
--bia
--bic
--bifera
--bii
--bile
--bja
--bje
--bju
--bl
--blad
--ble
--bn
--bne
--bno
--bo
--board
--botrys
--bowski
--br
--bra
--bs
--bu
--bulus
--bum
--burg
--bury
--bus
--by
--c
--ca
--caceae
--cach
--cae
--caenae
--cana
--carpa
--cauda
--ccosus
--ce
--cea
--ceae
--cearum
--cei
--cell
--cens
--ceous
--cephala
--cephalum
--cephalus
--ceps
--ces
--ceum
--ceus
--ch
--cha
--chaete
--chium
--chloae
--cho
--chowo
--cht
--chu
--chwitz
--chy
--ci
--cia
--cial
--cida
--cie
--cii
--cik
--cio
--ciopsis
--cis
--cium
--cja
--cje
--cji
--ck
--cka
--cke
--cki
--ckich
--ckim
--cko
--cks
--cku
--ckym
--cladia
--cn
--co
--cocca
--coccum
--code
--coides
--cola
--colous
--conium
--court
--cr
--craft
--crea
--cs
--ct
--cta
--ctella
--cti
--ction
--ctium
--ctiva
--ctria
--ctus
--ctwa
--cu
--cula
--culans
--culatum
--culum
--culus
--cum
--cus
--cy
--cybe
--cyje
--cyji
--cyjne
--cyjno
--cyjny
--cyjo
--cyju
--cypha
--cyphus
--cystis
--cytu
--cz
--cza
--czka
--czki
--czli
--czn
--czna
--czne
--cznego
--cznie
--czno
--czny
--cznych
--cznyj
--cznym
--czo
--czu
--czy
--czła
--d
--da
--dae
--dam
--darum
--dat
--date
--db
--dd
--de
--dea
--dem
--dens
--der
--des
--deum
--di
--dia
--diae
--diatum
--dica
--dii
--dina
--dinae
--ding
--diopsis
--dis
--dita
--dium
--div
--dka
--dku
--dl
--dle
--dli
--dn
--dni
--dnik
--dno
--dny
--do
--donica
--dorf
--dowe
--dowy
--dr
--drae
--dri
--dro
--dron
--drzij
--ds
--dt
--du
--dula
--dulae
--dum
--dus
--dy
--dyr
--dz
--dza
--dzki
--dzo
--dzu
--dły
--e
--ea
--eae
--ean
--eana
--eanum
--earum
--eata
--eau
--ec
--eck
--ecki
--ecko
--ecta
--ectria
--eczko
--ed
--eda
--edo
--ee
--een
--ef
--eff
--eg
--ego
--eh
--ei
--ein
--eipes
--eis
--ej
--eja
--eji
--ek
--eka
--el
--ela
--eld
--eli
--ell
--ella
--ellensis
--ellii
--elloides
--ellopsis
--ellum
--ellus
--elphi
--eltis
--em
--ema
--eman
--emann
--en
--ena
--enae
--enata
--enf
--eni
--enia
--enie
--enii
--enne
--ennis
--ens
--ense
--ensis
--ent
--enta
--ento
--enus
--eny
--eo
--eoides
--eola
--ephala
--ephalum
--eps
--epta
--er
--era
--ere
--erei
--eren
--ereum
--erg
--eri
--eria
--eriae
--eriana
--eridis
--erii
--ering
--eris
--erium
--erma
--ermann
--erna
--ero
--eromyces
--eroł
--errima
--ers
--ersa
--erske
--erson
--ersum
--ert
--eru
--erum
--erus
--ery
--es
--esa
--escens
--ese
--esh
--esko
--ess
--est
--esz
--et
--eta
--etes
--eth
--eti
--etiae
--etii
--etr
--ett
--etta
--etu
--etum
--ety
--eu
--eum
--eus
--ev
--eva
--ew
--ewia
--ewicz
--ewka
--ex
--exa
--ey
--eyi
--ez
--f
--fa
--feld
--fer
--fera
--ferum
--ff
--ffii
--fia
--fic
--ficzne
--ficzno
--fii
--fije
--fiju
--fikacyjo
--fje
--fly
--fo
--forme
--ft
--fu
--fuga
--fy
--g
--ga
--gae
--gardzkim
--gaster
--gau
--gawa
--ge
--gel
--gena
--gensis
--ger
--gera
--gg
--gh
--ght
--gi
--gia
--giae
--gie
--gii
--ginea
--gis
--gium
--gk
--glu
--gn
--gne
--gny
--go
--gowo
--gr
--gra
--gramma
--grapha
--gs
--gton
--gu
--gua
--guay
--gun
--gus
--gym
--h
--ha
--hae
--haeta
--hala
--halus
--ham
--haus
--hausen
--he
--heae
--heca
--hem
--hen
--her
--heri
--hes
--het
--hi
--hia
--hiae
--hica
--hii
--hila
--hilum
--hilus
--hima
--hin
--hina
--hium
--hiza
--hizal
--hizus
--hl
--hm
--hn
--ho
--hodz
--hodzi
--hodzu
--hof
--hoides
--homyces
--hook
--hos
--howo
--hr
--hra
--hroa
--ht
--http
--https
--hu
--hus
--hy
--hylli
--hyllum
--hypha
--hyrium
--hysata
--i
--ia
--iaceae
--iach
--iado
--iae
--iajo
--ial
--iale
--iam
--iami
--ian
--iana
--ianae
--iane
--iani
--iano
--ianum
--ianus
--iany
--iarum
--ias
--iata
--iate
--iatus
--iała
--iało
--iału
--iały
--ib
--ic
--ica
--ical
--ice
--ich
--ici
--icis
--ick
--icke
--ico
--icoides
--icola
--icolor
--ics
--icula
--iculosa
--icum
--icus
--icy
--iczny
--iczo
--id
--ida
--idad
--idae
--ide
--idea
--idens
--ides
--ideum
--ideus
--idia
--idiaceae
--idiata
--idicola
--idiella
--idii
--idioides
--idion
--idiopsis
--idipes
--idis
--idium
--idum
--idus
--idx
--ie
--iec
--ied
--iei
--ieka
--iel
--iela
--iele
--ieli
--iella
--iellum
--iem
--ien
--iens
--iense
--iensis
--ier
--ieri
--iers
--ies
--iez
--ifer
--ifera
--iferum
--ified
--iforme
--iformis
--ift
--ig
--iga
--ige
--igena
--igenum
--ight
--igii
--igme
--igmoidea
--igo
--igt
--ii
--ij
--ija
--ije
--iji
--ijo
--ijski
--ijsko
--iju
--ik
--ika
--iki
--iko
--iku
--il
--ila
--ilbe
--ili
--ilis
--ilko
--ille
--illima
--ils
--im
--ima
--ime
--imile
--imilis
--in
--ina
--inae
--ine
--inea
--inense
--inensis
--ineum
--ing
--ingen
--inger
--ings
--ingsii
--ington
--ingu
--ini
--inia
--iniae
--iniella
--inii
--inis
--ink
--ino
--ins
--inu
--inum
--inus
--inuta
--iny
--io
--ioi
--ioides
--iola
--iomyces
--ion
--ions
--iopeltis
--iopsis
--ior
--iorum
--iosa
--iospora
--iosum
--iotii
--ious
--ioł
--ip
--ipes
--ique
--ir
--ira
--ire
--irensis
--is
--isca
--isch
--ische
--ischer
--isches
--iscum
--iscus
--ise
--ish
--isia
--ism
--ispora
--isporium
--issima
--issimum
--ista
--it
--ita
--ite
--item
--itens
--ites
--iti
--ities
--ition
--itis
--itu
--ity
--itz
--iu
--ium
--ius
--iuscula
--iusz
--iv
--iva
--ive
--ives
--iviana
--iw
--iwa
--ix
--ixta
--iy
--iya
--iye
--iyje
--iyjo
--iyli
--iym
--iyn
--iyo
--iytridium
--iyu
--iył
--iyła
--iyło
--iyły
--iz
--iza
--izae
--izm
--izon
--izowano
--izowany
--ił
--j
--ja
--jaju
--jan
--jano
--jc
--jdz
--je
--jec
--ji
--jii
--jingensis
--jk
--jka
--jki
--jku
--jn
--jne
--jnego
--jno
--jny
--jnym
--jo
--jowy
--jowyj
--joł
--js
--jska
--jske
--jski
--jskij
--jskim
--jsko
--jsku
--jszo
--jszy
--jszym
--jszymi
--jt
--ju
--jum
--jy
--jym
--jyn
--jz
--k
--ka
--kac
--kach
--kamp
--kau
--kawa
--kc
--ke
--kego
--kei
--kej
--kel
--ket
--key
--kh
--ki
--kia
--kie
--kiego
--kiej
--kigo
--kii
--kij
--kim
--kin
--kind
--kla
--kli
--ko
--kou
--kov
--kowa
--kowe
--kowo
--kowski
--kowy
--kowyj
--koł
--ks
--kt
--ktu
--ktyce
--ktyk
--ktyki
--ku
--ky
--kych
--kym
--kło
--l
--la
--laca
--lacea
--lad
--ladium
--lae
--land
--laris
--las
--late
--latum
--latus
--lav
--lava
--lc
--ld
--lda
--ldi
--le
--leae
--lean
--lem
--lema
--lens
--lense
--lensis
--ler
--les
--less
--ley
--leyi
--li
--lia
--lidium
--liformis
--lii
--lik
--lin
--lina
--link
--linus
--liopsis
--lis
--lizm
--lk
--lko
--ll
--lla
--llae
--lle
--lli
--lliformis
--llii
--llina
--llis
--llo
--lloides
--llum
--llus
--lm
--lma
--lmum
--ln
--lna
--lne
--lnic
--lno
--lny
--lnyj
--lo
--loae
--loba
--logy
--loidea
--loides
--loma
--lomyces
--lon
--lopsis
--lor
--lora
--losa
--losum
--losus
--loz
--ls
--lt
--lu
--lucens
--lum
--lus
--ly
--lygo
--lym
--lyła
--lyło
--lz
--m
--ma
--maa
--mae
--man
--manii
--mann
--matica
--matis
--me
--mea
--mee
--mella
--ment
--mes
--message
--mi
--mia
--mic
--mierz
--mifera
--mii
--mioides
--mis
--mium
--mje
--mm
--mma
--mme
--mo
--moidea
--moides
--mopsis
--morphus
--mosa
--mp
--ms
--mu
--muje
--mum
--mus
--my
--myces
--mycetaceae
--mycopsis
--myxa
--n
--na
--nae
--naea
--naeae
--nati
--nau
--nawcy
--nb
--nc
--nce
--nd
--nda
--nder
--ndri
--nds
--ndum
--ne
--nea
--neae
--nego
--nei
--nej
--nek
--nella
--nem
--nema
--nens
--nense
--nensis
--neolum
--ner
--neri
--ness
--neum
--neus
--ney
--ng
--nga
--ngium
--ngo
--ngu
--nh
--ni
--nia
--niae
--niana
--nic
--nica
--nicum
--nie
--nii
--nik
--nin
--nina
--ning
--nio
--nioides
--nis
--nitz
--niu
--nium
--niy
--nk
--nka
--nki
--nku
--nn
--nna
--nnulata
--no
--noidea
--noides
--nophyllum
--norum
--nos
--noł
--ns
--nse
--nsis
--nt
--nta
--nte
--nthi
--nti
--ntia
--ntin
--ntis
--nts
--ntum
--nty
--nu
--nula
--nuloides
--num
--nus
--nuta
--ny
--nych
--nygo
--nyj
--nym
--nz
--nza
--o
--oa
--oae
--oascus
--ob
--obii
--obne
--oc
--ocarpa
--ocarpon
--ocarpum
--ocephala
--och
--ocha
--ock
--oconis
--oconium
--ocybe
--ocystidium
--ocystis
--od
--oda
--ode
--odendri
--odes
--odia
--odictyon
--odii
--odiscus
--odium
--ody
--odz
--oe
--oense
--oensis
--ofulva
--og
--oga
--ogi
--ogia
--ogica
--ogical
--ogiczno
--ogie
--ogne
--ogo
--ogy
--oi
--oid
--oidea
--oides
--oideum
--ok
--oka
--oki
--ol
--ola
--olatus
--ole
--oli
--olia
--olitu
--olitum
--olny
--olo
--ologije
--ologijo
--ology
--olor
--olous
--olu
--olus
--om
--oma
--omatis
--ome
--omensis
--omi
--omoides
--omus
--omyces
--omycetaceae
--omycopsis
--on
--ond
--one
--ong
--oni
--onia
--oniae
--onidia
--onii
--onis
--onium
--onne
--ons
--oo
--oon
--op
--opeltis
--ophila
--ophilus
--ophoma
--ophyllum
--opoda
--opol
--oporia
--oporus
--opp
--ops
--opsis
--or
--ora
--ore
--orensis
--orf
--ori
--oria
--orii
--orm
--orme
--ormis
--ornis
--oro
--orpha
--ort
--orum
[...]
