!
"
#
##0
##1
##10
##11
##12
##13
##14
##15
##16
##17
##18
##19
##2
##20
##21
##22
##23
##24
##25
##26
##27
##28
##29
##3
##30
##31
##32
##33
##34
##35
##36
##37
##38
##39
##4
##40
##41
##42
##43
##44
##45
##46
##47
##48
##49
##5
##50
##51
##52
##53
##54
##55
##56
##57
##58
##59
##6
##60
##61
##62
##63
##64
##65
##66
##67
##68
##69
##7
##70
##71
##72
##73
##74
##75
##76
##77
##78
##79
##8
##80
##81
##82
##83
##84
##85
##86
##87
##88
##89
##9
##90
##91
##92
##93
##94
##95
##96
##97
##98
##99
$
%
&
'
(
)
*
+
,
-
.
/
0
00
000
001
002
003
004
005
006
007
008
009
01
010
011
012
013
014
015
016
017
018
019
02
020
021
022
023
024
025
026
027
028
029
03
030
031
032
033
034
035
036
037
038
039
04
040
041
042
043
044
045
046
047
048
049
05
050
051
052
053
054
055
056
057
058
059
06
060
061
062
063
064
065
066
067
068
069
07
070
071
072
073
074
075
076
077
078
079
08
080
081
082
083
084
085
086
087
088
089
09
090
091
092
093
094
095
096
097
098
099
1
10
100
1000
10000
1001
101
102
1024
103
104
105
1054
106
107
108
1080
109
11
110
1100
111
112
113
114
115
116
117
118
119
12
120
1200
1204
121
122
123
124
1241
125
1250
1251
12552000
126
127
1270
128
1280
129
1290
13
130
1300
131
1310
1312
132
133
1330
1332
1335
1337
134
1347
1348
135
1350
136
137
138
1380
139
14
140
1400
141
1410
1415
142
1420
1427
143
1430
1437
144
1440
145
1450
1453
146
1460
147
1470
1473
148
1480
149
1490
1492
1493
1494
15
150
1500
1501
1502
1503
1504
1505
1506
1508
1509
151
1510
1511
1512
1514
1515
1516
1517
1519
152
1520
1521
1524
1525
1526
1527
1528
153
1530
1531
1533
1534
1535
1536
1538
154
1540
1541
1542
1543
1545
1546
1547
1548
1549
155
1550
1552
1553
1554
1555
1556
1557
1558
1559
156
1560
1561
1562
1563
1564
1565
1566
1567
1568
1569
157
1570
1571
1572
1573
1574
1575
1576
1578
158
1580
1582
1583
1584
1585
1588
1589
159
1590
1591
1592
1593
1594
1595
1596
1598
1599
16
160
1600
1601
1602
1603
1604
1605
1606
1607
1608
1609
161
1610
1611
1612
1614
1615
1616
1617
1618
1619
162
1620
1621
1622
1623
1624
1625
1626
1627
1629
163
1630
1631
1632
1633
1634
1635
1636
1637
1638
1639
164
1640
1641
1642
1643
1644
1645
1646
1647
1648
1649
165
1650
1651
1652
1653
1654
1655
1656
1657
1658
1659
166
1660
1661
1662
1663
1664
1665
1666
1667
1668
1669
167
1670
1671
1672
1673
1674
1675
1676
1677
1678
1679
168
1680
1681
1682
1683
1684
1685
1686
1687
1688
1689
169
1690
1691
1693
1694
1695
1696
1697
1698
1699
17
170
1700
1701
1702
1703
1704
1705
1706
1707
1708
1709
171
1710
1711
1712
1713
1714
1715
1716
1717
1718
1719
172
1720
1721
1722
1723
1724
1725
1726
1727
1728
1729
173
1730
1731
1732
1733
1734
1735
1736
1737
1738
1739
174
1740
1741
1742
1743
1744
1745
1746
1747
1748
1749
175
1750
1751
1752
1753
1754
1755
1756
1757
1758
1759
176
1760
1761
1762
1763
1764
1765
1766
1767
1768
1769
177
1770
1771
1772
1773
1774
1775
1776
1777
1778
1779
178
1780
1781
1782
1783
1784
1785
1786
1787
1788
1789
179
1790
1791
1792
1793
1794
1795
1796
1797
1798
1799
18
180
1800
1801
1802
1803
1804
1805
1806
1807
1808
1809
181
1810
1811
1812
1813
1814
1815
1816
1817
1818
1819
182
1820
1821
1822
1823
1824
1825
1826
1827
1828
1829
183
1830
1831
1832
1833
1834
1835
1836
1837
1838
1839
184
1840
1841
1842
1843
1844
1845
1846
1847
1848
1849
185
1850
1851
1852
1853
1854
1855
1856
1857
1858
1859
186
1860
1861
1862
1863
1864
1865
1866
1867
1868
1869
187
1870
1871
1872
1873
1874
1875
1876
1877
1878
1879
188
1880
1881
1882
1883
1884
1885
1886
1887
1888
1889
189
1890
1891
1892
1893
1894
1895
1896
1897
1898
1899
19
190
1900
1901
1902
1903
1904
1905
1906
1907
1908
1909
191
1910
1911
1912
1913
1914
1915
1916
1917
1918
1919
192
1920
1921
1922
1923
1924
1925
1926
1927
1928
1929
193
1930
1931
1932
1933
1934
1935
1936
1937
1938
1939
194
1940
1941
1942
1943
1944
1945
1946
1947
1948
1949
195
1950
1951
1952
1953
1954
1955
1956
1957
1958
1959
196
1960
1961
1962
1963
1964
1965
1966
1967
1968
1969
197
1970
1971
1972
1973
1974
1975
1976
1977
1978
1979
198
1980
1981
1982
1983
1984
1985
1986
1987
1988
1989
199
1990
1991
1992
1993
1994
1995
1996
1997
1998
1999
2
20
200
2000
2001
2002
2003
2004
2005
2006
2007
2008
2009
201
2010
2011
2012
2013
2014
2015
2016
2017
2018
2019
202
2020
2021
2022
2023
2024
2025
203
2030
204
205
206
207
208
209
21
210
211
212
213
214
215
216
217
218
219
22
220
221
222
223
224
225
2250
2251
226
227
228
229
23
230
231
232
233
234
235
236
237
238
239
24
240
241
242
243
244
245
246
247
248
249
25
250
2500
2501
251
252
253
254
255
256
257
258
259
26
260
2600
261
262
263
264
265
266
267
268
269
27
270
271
272
273
274
275
2750
2751
276
277
278
279
28
280
281
282
283
284
285
286
287
288
289
29
290
291
292
293
294
295
296
297
298
299
3
30
300
3000
3001
301
302
303
304
305
306
307
308
309
31
310
311
312
313
314
315
316
3166
317
318
319
32
320
321
322
323
324
325
3250
3251
326
327
328
329
33
330
331
332
333
334
335
336
337
338
339
34
340
341
342
343
344
345
346
347
348
349
35
350
3500
3501
351
352
353
354
355
356
357
358
359
36
360
361
362
363
364
365
366
367
368
369
37
370
371
372
373
374
375
3750
3751
376
377
378
379
38
380
381
382
383
384
385
386
387
388
389
39
390
391
392
393
394
395
396
397
398
399
4
40
400
4000
4001
401
402
403
404
405
406
407
408
409
41
410
411
412
413
414
415
416
417
418
419
42
420
421
422
423
424
425
4250
4251
426
427
428
429
43
430
431
432
433
434
435
436
437
438
439
44
440
441
442
443
444
445
446
447
448
449
45
450
4500
4501
451
452
453
454
455
456
457
458
459
46
460
461
462
463
464
465
466
467
468
469
47
470
471
472
473
474
475
4750
4751
476
477
478
479
48
480
481
482
483
484
485
486
487
488
489
49
490
491
492
493
494
495
496
497
498
499
5
50
500
5000
501
502
503
504
505
506
507
508
509
51
510
511
512
513
514
515
516
517
518
519
52
520
521
522
523
524
525
526
527
528
529
53
530
531
532
533
534
535
536
537
538
539
54
540
541
542
543
544
545
546
547
548
549
55
550
551
552
553
554
555
556
557
558
559
56
560
561
562
563
564
565
566
567
568
569
57
570
571
572
573
574
575
576
577
578
579
58
580
581
582
583
584
585
586
587
588
589
59
590
591
592
593
594
595
596
597
598
599
6
60
600
6000
601
602
603
604
605
606
607
608
609
61
610
611
612
613
614
615
616
617
618
619
62
620
621
622
623
624
625
626
627
628
629
63
630
631
632
633
634
635
636
637
638
639
64
640
641
642
643
644
645
646
647
648
649
65
650
651
652
653
654
655
656
657
658
659
66
660
661
662
663
664
665
666
667
668
669
67
670
671
672
673
674
675
676
677
678
679
68
680
681
682
683
684
685
686
687
688
689
69
690
691
692
693
694
695
696
697
698
699
7
70
700
7000
701
702
703
704
705
706
707
708
709
71
710
711
712
713
714
715
716
717
718
719
72
720
721
722
723
724
725
726
727
728
729
73
730
731
732
733
734
735
736
737
738
739
74
740
741
742
743
744
745
746
747
748
749
75
750
751
752
753
754
755
756
757
758
759
76
760
761
762
763
764
765
766
767
768
769
77
770
771
772
773
774
775
776
777
778
779
78
780
781
782
783
784
785
786
787
788
789
79
790
791
792
793
794
795
796
797
798
799
8
80
800
8000
801
802
803
804
805
806
807
808
809
81
810
811
812
813
814
815
816
82
820
821
824
825
8274
83
830
831
832
833
835
836
838
84
840
841
842
843
845
846
847
85
850
851
852
853
854
855
856
858
86
860
861
862
863
864
865
867
869
87
870
871
872
875
876
877
879
88
880
882
885
886
889
89
890
893
894
895
896
9
90
900
9000
901
902
905
907
91
910
911
912
913
915
92
920
924
925
927
93
930
931
935
939
94
940
945
95
950
955
96
960
961
962
963
965
966
967
968
969
97
970
971
972
973
974
975
976
977
978
979
98
980
981
982
983
984
985
986
987
988
989
99
990
991
992
993
994
995
996
997
998
999
:
;
<
=
>
?
@
\
^
_
`
a
aa
aaron
ab
aba
abba
abbey
abc
abcha
abd
abdika
abdikoval
abe
abeceda
abecedne
abecedy
abel
abi
abkay
abl
able
ablo
ablona
abnorma
about
above
abovsko
abraha
abraham
abs
absencia
absolu
absolvent
absolventi
absolventov
absolvoval
absolvovala
absolvovali
absolvovalo
absolvovani
absolvovat
absorpc
abstract
abstraktne
abstraktny
abu
aby
ac
acade
academia
academic
academy
access
accessed
accord
ace
acer
ach
acha
achista
achisti
achove
achovy
achta
achte
achtic
achtici
achticke
achtickej
achticky
achticov
achtou
achty
achu
aci
acid
acie
acieho
acoustic
act
acta
action
active
actors
ad
ada
adaju
adal
adala
adali
adam
adama
adamec
adams
adani
adania
adanie
adapta
adapte
adat
adca
adci
add
ade
adekva
adela
adele
adi
adic
adiska
aditi
adjekti
adla
adler
adlo
admin
admina
administra
administrati
administration
adminov
admira
adn
adne
adnia
adnica
adnice
adny
adobe
adoch
adolf
adolfa
adom
adov
adova
adoval
adovala
adovali
adovalo
adovane
adovany
adovat
adove
adovec
adovej
adovom
adovy
adresa
adrese
adresu
adresy
adria
adrian
adriana
adries
adu
aduje
aduju
advanced
adventure
adventures
advice
advoka
ady
ae
aero
aerodynamicke
aerodynamicky
aeroli
aerosmith
af
afa
afc
afe
afekti
affect
afganistan
afganistane
afganistanu
africa
african
africka
africke
africkej
africky
afrika
afrike
afriku
afriky
afroameric
afroamericke
after
ag
aga
again
against
agamemno
age
agency
agent
agenta
agenti
agentov
agentu
aglomera
agm
agnes
agra
agrega
agresi
ah
aha
ahac
ahc
ahka
ahke
ahkej
ahko
ahky
ahl
ahla
ahle
ahlej
ahli
ahlive
ahlivo
ahlivost
ahlivy
ahlo
ahly
ahmed
ahmi
ahoch
ahoj
ahojte
ahol
ahom
ahov
ahoval
ahovala
ahovalci
ahovalcov
ahovali
ahovalo
ahovani
ahovania
ahovanie
ahovat
ahs
ahu
ahuje
ahuju
ahy
ai
aid
aids
aigypta
aigyptos
aim
ain
air
airbus
aircraft
aires
airlines
airport
airways
ais
aise
aisne
aito
aix
aj
aja
ajax
aje
aji
ajka
ajky
ajna
ajne
ajnej
ajni
ajnu
ajny
ajs
aju
ak
aka
akad
akade
akademicka
akademicke
akademickej
akademicky
akademie
akademik
akaju
akal
akala
akali
akane
akat
akc
akcelera
akceptovat
akcia
akcie
akcii
akciona
akciova
akciu
ake
akej
akejkol
ako
akoby
akokol
akom
akordeo
akosi
akou
akov
akovo
akra
akt
akte
akti
aktiva
aktivi
aktivista
aktivisti
aktivistka
aktivita
aktivite
aktivitou
aktivitu
aktivity
aktivuje
aktu
aktua
aktuality
aktualiza
aktualizovane
aktualizovat
akty
aku
akujem
akumula
akura
akusticka
akusticke
akusticky
akva
akvita
akvizi
aky
al
ala
alabama
alain
alamu
alan
alana
alba
albatros
albert
alberta
alberto
albi
albrecht
albrechta
album
albume
albumoch
albumom
albumov
albums
albumu
albumy
alchy
aldrin
ale
alebo
alego
alej
alejandro
aleka
aleke
alekej
aleko
alekohl
alekom
aleky
alena
ales
alessandro
alex
alexander
alexandr
alexandra
alexandre
alexandria
alexandrie
alexandrii
alexandrijskej
alexandrijsky
alexandrom
alexandrovi
alexandrovic
alexej
alexejevic
alexia
alexios
alexis
alfa
alfonz
alfre
alfred
alfreda
alfredo
algebra
algoritmu
algoritmus
algoritmy
ali
aliancia
aliancie
alias
alica
alice
alif
align
alignbars
alive
aljas
alka
alkalicky
alke
alkohol
alkoholu
alky
all
alla
allan
allegro
allen
alliance
allier
allium
allmusic
alma
almanach
alo
aloba
alobcu
alobu
aloby
alois
alojz
alone
alonso
alovany
alpa
alpes
alpha
alpi
alpske
alpski
alpsko
alpsky
alpy
already
als
alsasko
also
alt
alta
alter
alternati
alternative
alto
alu
always
alz
am
ama
amadeus
amate
amazon
ambasa
ambi
ambicio
ambient
ambra
ambro
amd
ame
americ
america
american
americas
americka
americke
americkej
americki
americko
americkom
americkou
americku
americky
amerika
amerike
ameriku
ameriky
amf
amfitea
ami
aminokyseli
aminokyseliny
amnestie
amnestii
amo
amonet
amoniaku
amor
amore
amori
amos
amour
amp
ampio
ampiona
amplitu
amsterdam
amsterdame
amy
an
ana
anaheim
analo
analogicky
analy
analysis
analyticka
analyticky
analyza
anamne
anasta
anato
anatolij
anatomicky
anc
anca
ance
ancient
ancu
and
anda
ande
anders
anderson
andersson
andorra
andra
andre
andrea
andreas
andrej
andreja
andrejom
andrew
andrews
android
androme
andromeda
andrzej
andy
andyho
ane
aneb
anej
aneste
anez
ang
angaz
angel
angela
angeles
angelo
angels
anghaj
angl
anglic
anglicka
anglicke
anglickej
anglicki
anglicko
anglickom
anglicku
anglicky
anglika
anglo
angola
ani
ania
anic
anie
anima
animal
animals
anime
animovane
animovany
anio
aniu
anjel
anjela
anjeli
anjelov
anjou
anka
ankete
ankety
ankou
anky
anlivost
anmi
ann
anna
annales
anne
annie
anniversary
anno
annou
annu
anny
ano
anoch
anom
anoma
anonymne
anonymny
another
anou
anov
anova
anovi
ans
anska
anske
anskej
anski
ansko
anskodemokraticke
anskom
anskou
ansku
ansky
anstva
anstve
anstvo
ant
antal
antarkti
ante
anthony
anti
antica
anticke
antickej
anticky
antifas
antige
antike
antiky
antiochie
anto
antoine
antolo
anton
antona
antoni
antonia
antonio
antonius
antonov
antropolo
antverpy
anu
any
ao
aopk
ap
apa
apache
apara
aparatu
apartma
apek
apg
api
aplika
aplikac
aplikovana
aplikovat
aplovic
apod
apolla
apollo
apollodoros
apolo
apos
apple
apr
apri
april
aprio
apsida
apsidou
apsidy
apu
aputova
aq
ar
ara
arab
arabc
arabi
arabov
arabska
arabske
arabskej
arabsky
arago
aranz
arbitra
arbore
arc
arch
archa
archaicke
archaicky
archanjela
arche
archeolo
archeologicka
archeologicke
archeologicky
archer
archi
architecture
architekt
architekta
architekti
architektom
architektonicka
architektonicke
architektonickej
architektonicky
architektov
architektu
architektura
archiv
archiva
archive
archived
archives
arcibiskup
arcibiskupa
arcibiskupi
arcibiskupom
arcidiece
arcivojvoda
arcivojvodkyn
arde
ardenne
ardennes
are
area
arena
ares
argenti
argentina
argo
argu
argument
argumenta
argumentom
argumentov
argumenty
ari
aria
arie
aris
aristotela
aristoteles
ariza
arizona
arka
arkansas
arm
arma
arme
armin
armor
arms
armstrong
army
arne
arnold
arnos
arnovica
aro
arodejni
arodejnice
aromaticke
aromaticky
around
arov
arp
arpa
array
arrest
arriva
ars
arsenal
arsenalu
arska
arske
arskej
arski
arsko
arskom
arskou
arsku
arsky
art
arte
artefaktov
artefakty
artemis
arthur
arthura
article
articles
artikula
artist
artists
arts
artur
aruje
aruju
arze
as
ascii
ase
ashley
asi
asia
asian
asie
asimila
asistencie
asistencii
asistent
asistenta
asistentka
asistentom
asistoval
ask
asna
asne
asnej
asni
asnom
asnost
asnosti
asnou
asnu
asny
asoch
asocia
asom
asopis
asopise
asopisoch
asopisom
asopisov
asopisu
asopisy
asov
asova
asove
asovej
asovke
asovo
asovom
asovy
asp
aspekt
aspektov
aspekty
aspon
aspx
assembly
assisi
association
ast
asta
aste
astejs
asteroid
asteroidov
asteroidy
asti
astia
astiach
astica
asticami
astice
astie
astn
astna
astne
astnene
astneny
astni
astnil
astnila
astnili
astnilo
astnit
astny
asto
aston
astra
astrofyzik
astrolo
astronaut
astronauti
astronautov
astrono
astronomicke
astronomicky
astronomy
astu
asty
asu
asuncio
asy
at
ata
atami
atari
atc
atd
ate
ateisti
atel
atelie
atenta
athe
athletic
athlon
ati
atia
atie
atina
atiny
atka
atko
atky
atlanta
atlante
atlantic
atlanticke
atlanticky
atlantiku
atlantique
atlantiques
atlantis
atlas
atle
atleticky
atletika
atletike
atlos
atmosfe
ato
atol
atole
atolov
atolu
atoly
atom
atomique
atonx
atp
atrakcie
atrakti
atribu
atstva
atstvo
attack
attila
aty
au
aube
aude
audi
audio
audiovizua
auf
aug
augsburske
august
augusta
auguste
augusti
augustin
augustus
aurel
aurora
aus
auschwitz
austin
austra
australia
australian
austria
auta
aute
autenticky
authority
auto
autobus
autobusov
autobusova
autobusove
autobusovej
autobusovy
autobusu
autobusy
autom
automatic
automaticka
automaticke
automaticky
automatiza
automobil
automobilka
automobilky
automobilov
automobilova
automobilove
automobilovy
automobilu
automobily
autono
autor
autora
autori
autorita
autoritati
autoritni
autoritou
autoritu
autority
autorka
autorkou
autormi
autorom
autorov
autorovi
autorske
autorsky
autorstvo
autosalo
auvergne
aux
av
ava
available
avalanche
ave
avec
avej
avenue
aveyron
avia
aviation
avice
avicove
avicovy
aviv
avo
avom
avostranne
avostranny
avou
avril
avs
avske
avskej
avsky
avu
avy
aw
award
awards
away
ax
axel
axio
ay
az
aza
azca
azce
azcov
azda
aze
azec
azerbajdz
azi
azil
azila
azili
azilo
azit
azka
azmi
azne
azny
azom
azov
azovi
azske
azsky
azstiev
azstva
azstve
azstvo
azstvom
azstvu
azte
azur
azy
azyl
b
ba
baba
babic
babis
baby
babylon
bac
bach
bachuren
back
backgroundcolors
bad
badat
baden
bafta
bagara
bahna
bains
bajkonur
bajtov
baju
bakala
baker
bakos
bakte
bakteria
baku
bal
bala
balada
balady
balas
balbi
baldachy
balduin
balet
baletu
bali
balka
balko
ball
balo
baltimore
baltske
bam
bami
ban
bana
band
banda
bane
bang
banglade
bani
bania
baniach
banie
bank
banka
banke
bankove
bankoviek
bankovka
bankovky
bankovni
bankovy
banku
banky
banska
banske
banskej
banskobystricke
banskobystrickej
banskobystrickom
banskobystricky
bansky
bany
bao
baptiste
bar
bara
baran
baranskej
barbara
barbarossa
barbora
barbory
barc
barca
barcelona
barcelone
barcelony
bardata
bardejov
bardejove
bare
bari
barie
barnes
baro
barok
baroka
barokova
barokove
barokovej
barokovo
barokovom
barokovou
barokovy
baron
barra
barrett
barry
bars
bart
bartolomej
bartolomeja
bartos
baryto
bas
basa
base
baseball
based
basgitara
basgitarista
basgitaristi
basgitaristu
basic
basketbal
basketbale
basketbalista
basketbalova
basketbalove
basketbalovej
basketbalovy
basova
basovy
bass
bastio
bat
bate
batman
batoz
battista
battle
bauer
bava
bave
bavi
bavne
bavny
bavorska
bavorske
bavorsko
bavorsku
bavorsky
bavu
bavy
bay
bayer
bayern
bayerove
baz
baza
baze
bazila
bazilej
bazileji
bazilika
bazilike
baziliky
bb
bbc
bc
bd
be
bea
beach
bear
beat
beatles
beatrix
beaumont
beautiful
beauty
beaver
bebravou
bec
because
beck
becker
bedna
bedr
bee
been
beethoven
before
begin
beh
behind
behom
behov
behu
behy
bei
beijing
being
bejru
bejzbal
bejzbale
bejzbalovej
bejzbalovy
bek
bel
bela
belehrad
belehrade
belehradu
belej
belfort
belgicka
belgicke
belgicki
belgicko
belgickom
belgicku
belgicky
beliana
believe
belize
bell
bella
belle
bellus
belo
belus
ben
bena
bene
benedikt
benedikta
benedikti
benejs
benes
benfica
benga
beni
benie
benjamin
bennett
benny
benou
beny
benz
benze
benzi
ber
bere
bereniky
berez
berg
berie
beriem
berkeley
berli
berlin
bern
bernard
bernardo
bernhard
bernola
berom
beroun
berov
berove
berovy
berry
bert
berta
bertrand
beru
bery
bes
besara
besky
beskyda
beskydy
best
bet
beta
beto
better
betty
between
bety
beverly
beyonce
beyond
bez
beza
bezdro
bezmenny
bezna
bezpec
bezplatne
bezpodmienec
bezprostredne
bezprostrednej
bezstavovcov
bezu
bezvy
bf
bg
bh
bhuta
bi
bia
biatlon
biatlone
biatlonisti
bible
biblia
biblicke
biblicky
biblie
biblii
bibliografia
bibliograficky
bibliotheca
bic
bici
bicie
bicykel
bicykle
bicyklov
bie
biela
biele
bieleho
bielej
bielik
bielkovi
bielkoviny
bielo
bielom
bieloruska
bieloruske
bieloruskej
bielorusko
bielorusku
bielorusky
bielou
bielu
biely
bielych
bielym
bielymi
biena
big
biha
bii
bil
bila
bilancia
bilbao
bili
bill
billa
billboard
billie
billy
bin
bina
bio
bioche
biochemik
biografia
biograficky
biografie
biografii
biography
biolib
biolo
biologicke
biologickej
biologicky
biologie
biology
biosfe
biosynte
biotop
biotopov
biotopy
bipola
bird
birds
birka
birmingham
bis
bishop
biskup
biskupa
biskupi
biskupice
biskupom
biskupov
biskupovi
biskupske
biskupskej
biskupsky
biskupstva
biskupstvo
bismarck
bit
bitiek
bitka
bitke
bitkou
bitku
bitky
bitov
bitova
bitove
bitovy
biznis
bjo
bk
bka
bke
bkou
bkove
bkovy
bku
bky
bl
bla
black
blackhawks
blackmore
blackwell
blaha
blaho
blahorec
blahoslaveny
blaireova
blake
blana
blanc
blanche
blani
blanka
blansko
blatnica
blaz
ble
blesk
blesku
bli
blind
bliz
block
blog
blok
bloka
blokov
blokova
blokovanie
blokovat
bloku
bloky
blood
blu
blue
blues
bluesovi
bluetooth
bm
bmg
bmp
bmw
bn
bne
bo
board
bob
boba
bobby
boc
boca
bod
bode
bodmi
bodoch
bodom
bodov
bodovy
bodu
bodvou
body
boeing
boh
boha
bohata
bohate
bohatej
bohato
bohatou
bohats
bohatstva
bohatstvo
bohatu
bohaty
bohe
bohom
bohorodic
bohosloveckej
bohosluz
bohov
bohovia
bohu
bohumi
bohumil
bohus
bohuslav
bohuz
bohyn
bohyne
boio
bois
boj
boja
bojars
boje
boji
bojiska
bojisku
bojmi
bojnice
bojoch
bojom
bojov
bojova
bojoval
bojovala
bojovali
bojovalo
bojovat
bojove
bojovej
bojovni
bojovu
bojovy
boju
bojuje
bojuju
bok
bokoch
bokom
boku
bol
bola
boldom
boleslav
bolest
bolesti
boli
bolo
bologna
bom
bomba
bombarde
bombardovaci
bombardovacie
bombardovani
bombardovania
bombardovanie
bombovy
bombu
bomby
bon
bonaparte
bond
bonham
bonifa
bonn
bonnie
bonnifac
bonton
bonus
bonusove
bonusy
boogie
book
books
boom
booth
bor
bora
bordeaux
border
bore
boris
borisa
born
borne
borngen
borny
boroch
borom
borov
borove
borovica
borovice
borovy
bors
borske
borsky
boru
bory
bos
bosa
bosch
bosco
bosna
bosne
bosny
boston
bostone
bot
bota
botanicke
botanik
botanika
botanike
bottom
bou
bouches
boulevard
boulogne
bourg
bov
bova
bove
bovy
bowell
bowie
bowl
box
boxe
boxer
boy
boys
boz
bozo
bp
br
bra
brad
brada
bradla
bradley
bradlom
brady
brain
bral
brala
bram
bran
brand
brandis
brandon
brandy
branisko
branislav
branka
bras
brassica
brat
brata
bratia
bratislava
bratislave
bratislavska
bratislavske
bratislavskej
bratislavskom
bratislavsky
bratislavu
bratislavy
bratmi
bratom
bratov
bratovi
bratranec
bratstva
bratstvo
braun
brava
bravc
bravka
brazi
bre
break
breh
brehoch
brehom
brehu
brehy
brest
breto
brez
breza
brezna
brezne
brezno
brezova
brezovsky
bri
brian
briana
bridge
bridlice
bridz
brie
briga
bristol
brit
brita
britain
britannica
briti
british
britney
britov
britska
britske
britskej
britski
britsko
britskom
britskou
britsku
britsky
brna
brne
brno
bro
broadway
broadwayi
brockhaus
brod
broken
brom
bronta
bronto
bronz
bronzova
bronzove
bronzovej
bronzovi
bronzovu
bronzovy
bronzu
brooklyn
brooks
bros
brother
brothers
broughton
brown
browning
browser
broz
brt
bru
bruce
brucha
brucho
bruck
bruins
bruno
brunta
brus
brusel
bruseli
bruta
bryan
brzdy
bs
bsd
bsko
bt
bu
bubamara
bubamaradisk
bubeni
buc
buch
buchu
bud
budapes
budapest
budati
buddy
bude
budem
budeme
budes
budete
budhisticky
budhizmu
budhizmus
budi
buditel
budou
budov
budova
budovali
budovami
budovane
budovani
budovania
budovanie
budovat
budovatel
budove
budovou
budovu
budovy
budu
buduje
buduju
buenos
buffalo
bug
buga
bugs
building
buk
bukove
bukovina
bukovsky
bukovy
bukures
bul
bulhari
bulharov
bulharska
bulharske
bulharskej
bulharski
bulharsko
bulharskom
bulharsku
bulharsky
bull
bulletin
bulva
buniek
bunka
bunkami
bunke
bunkove
bunkovej
bunkovy
bunky
burgenland
burgundsko
burian
burn
burning
burns
burton
burz
burza
burze
bus
bush
business
busta
but
butler
butterfly
buzne
buzni
buzny
bw
bx
by
bya
bych
bye
byl
byla
byli
bylinoz
bylo
byrokrata
bystra
bystre
bystri
bystric
bystrica
bystrice
bystrici
bystry
byt
bytc
byte
bytia
bytie
bytku
bytok
bytost
bytosti
bytov
bytove
bytovy
bytu
byty
byzancia
byzancie
byzancii
byzanciou
byzanti
byzantska
byzantske
byzantskej
byzantski
byzantskom
byzantskou
byzantsku
byzantsky
bz
c
ca
cach
cache
caesar
cafe
caju
cal
cala
calais
calcio
cale
calendar
calgary
cali
california
call
called
calvados
cam
cambridge
came
camera
cameron
cami
camille
camp
campbell
campo
can
canada
canadian
canadiens
canal
canaveral
cancer
cani
cania
canie
canina
canis
cannes
canoe
canon
cantal
canterbury
canton
canucks
canvas
cany
cap
cape
capital
capitals
capitata
capitol
capra
captain
car
card
care
carex
carey
cargo
carl
carla
carlo
carlos
carmen
carol
carolina
caroline
carpenter
carrie
carroll
cars
carter
cas
casa
case
cash
cassini
castle
castro
cat
catalina
catalogue
category
cathedral
catherine
catholic
caussols
cavalier
cave
cb
cbs
cc
cca
ccd
cd
cdot
cdots
ce
cea
cech
cee
ceho
cej
cela
cele
celej
celkom
celkov
celkova
celkove
celkovej
celkovo
celkovom
celkovou
celkovu
celkovy
celku
celky
cell
celok
celom
celona
celoroc
celos
celosvetove
celosvetovo
celosvetovy
celou
celovec
celoz
celu
celulo
cely
cemu
cena
cene
cenne
cenny
cenou
cent
centauri
center
centier
centimetrov
centra
central
centrami
centre
centrom
centrum
century
cenu
ceny
cenzu
ceremo
ceremonia
cerova
cerro
certifika
certifikovany
cesnak
cesta
cestami
ceste
cestna
cestne
cestnej
cestny
cestou
cestoval
cestovanie
cestovat
cestovatel
cestovna
cestovne
cestovnom
cestovny
cestu
cestuju
cesty
ceu
ceum
cev
cez
cezhranic
cf
cg
cgi
ch
cha
chac
chaci
chad
chadla
chaju
chal
chala
chalcedo
chali
challenge
challenger
champagne
champions
championship
championships
champs
chan
chana
chance
chandler
chane
chang
change
changes
chani
chania
chanie
channel
chany
chaos
chaosu
chapelle
chaplin
chapman
chapter
charakter
charakteristi
charakteristicka
charakteristicke
charakteristicky
charakteristika
charakteristiku
charakteristiky
charakterizovana
charakterizovane
charakterizovany
charakterizovat
charakterizuje
charakterizuju
charakterom
charakteru
charente
charentes
charitati
charkov
charles
charlesa
charlesom
charlie
charlieho
charlotte
chart
charta
charts
charty
chase
chat
chata
chate
chatel
chatu
chaty
chce
chcel
chcela
chceli
chcelo
chcem
chceme
chces
chcete
chciet
chcu
che
cheb
check
chelsea
chemical
chemici
chemicka
chemicke
chemickej
chemicku
chemicky
chemik
chemika
chemistry
chen
cher
chi
chicaga
chicago
chicagu
chiki
child
children
chile
chili
china
chinese
ching
chirurg
chirurgicke
chirurgicky
chisaria
chko
chkol
chl
chla
chladenie
chladeny
chladic
chladil
chladne
chladnejs
chladny
chlapc
chlapca
chlapci
chlapcov
chlapec
chlapi
chle
chleba
chleho
chlej
chlejs
chlene
chlenia
chlenie
chleny
chli
chlieb
chlo
chlodra
chlom
chlopne
chlorid
chloridu
chlorovodi
chlost
chlosti
chlostna
chlostne
chlostnej
chlostny
chlu
chly
chlych
chlym
chmel
chmi
cho
choc
chod
chodba
chodby
chodcov
chode
chodi
chodia
chodil
chodila
chodili
chodisko
chodiskom
chodiskovy
chodit
chodkove
chodku
chodna
chodne
chodnej
chodnejs
chodni
chodnom
chodnou
chodnu
chodny
chodoeuro
chodok
chodom
chodori
chodoslovenska
chodoslovenske
chodoslovenskej
chodoslovensky
chodu
choice
chom
chomutov
chopin
chora
chore
choro
choroba
chorobami
chorobe
chorobou
chorobu
choroby
chorva
chory
chota
chov
chova
chovanec
chovanie
chovatel
chove
chovne
chovny
chovom
chovskej
chovu
chovy
chra
chrana
chranna
chranne
chrannej
chranny
chranu
chrba
chrbta
chrbte
chrbtice
chrbtom
chri
chris
christ
christi
christian
christie
christina
christine
christmas
christoph
christophe
christopher
chro
chroba
chrome
chromozo
chronicka
chronicky
chronolo
chronologicky
chrudim
chrus
chte
chto
chu
chuck
chudobe
chudobne
chudobnej
chudobnejs
chudobny
chudoby
chung
chunta
chunty
church
churchill
chut
chuti
chva
chvaty
chvi
chvost
chvosta
chvostom
chvostovy
chy
chyba
chybne
chybny
chybou
chybu
chyby
chysta
chyz
ci
cia
ciach
ciam
ciami
cibul
cicavce
cicavcov
cicero
cich
ciconia
cie
ciel
ciele
cielene
cien
ciest
ciev
cievky
cievy
ciga
cii
cim
cimi
cincinnati
cinema
cinik
cintori
cio
ciou
circle
circuit
circus
cirkev
cirkevna
cirkevne
cirkevnej
cirkevni
cirkevnu
cirkevny
cirkula
cirkus
cirkva
cirkvi
cirkvou
cirok
cis
cisa
cisco
cistercia
cit
cita
citace
citation
cite
citlive
citlivost
citlivosti
citlivy
citovane
citovany
citra
citro
citroe
citroen
city
ciu
ciudad
cium
civic
civil
civilistov
civiliza
civilne
civilnej
civilny
cj
ck
cka
cke
ckeho
ckej
ckemu
cker
cki
cko
ckokatoli
ckom
ckou
cku
cky
ckych
ckym
ckymi
cl
cla
claire
clankov
clanku
clanky
clanok
clarence
clark
clarke
class
classic
classica
classical
classification
claude
claudia
claudio
clav
clava
cle
clermont
cleveland
cliff
clinton
clio
close
cloud
club
clyde
cm
cn
cna
cne
cneho
cnej
cnejs
cnost
cnosti
cnt
cny
cnych
co
coa
coast
coca
code
codex
cohen
cok
cola
cold
cole
colin
collection
college
collegium
collins
color
colorado
colors
columbia
columbie
columbus
com
comba
come
comedy
comes
comics
coming
command
committee
common
commons
commune
communication
community
como
company
complete
complex
computer
comte
con
concacaf
concert
conference
congress
connecticut
conomiques
conrad
contact
contemporary
content
contest
continental
contribute
control
convar
cooh
cook
cool
cooper
copa
copyvio
core
corgon
cornelius
cornell
corporation
corps
corpus
corre
corse
corte
cos
cosmic
costa
cou
could
council
country
county
coupe
court
cov
cova
cove
cover
coververziu
covid
covky
covy
cp
cpk
cpu
cq
cr
craig
crash
crazy
cre
creative
creek
creuse
crew
crimson
cristo
critics
crni
croc
croix
crosby
cross
crowley
crown
cruz
cry
crystal
cs
csa
csc
csfd
csi
cska
css
ct
cta
cte
cti
ctu
ctva
ctve
ctvo
ctvom
ctvu
cty
cu
cucurbita
cudzej
cudzi
cudzie
cudzieho
cudzincov
cudzojazyc
cukor
cukra
cukrova
cukru
cultural
culture
cum
cup
cupe
cupu
cure
curling
current
curtis
cut
cv
cvic
cvik
cvikove
cviku
cw
cx
cy
cykle
cyklicky
cyklista
cyklisti
cyklisticke
cyklisticky
cyklistika
cyklistike
cyklistov
cyklo
cyklotrasa
cyklov
cyklu
cyklus
cykly
cypre
cypru
cyprus
cyrano
cyril
cyrila
cyriliky
cytoki
cz
czech
czy
d
da
dab
dabe
dabing
dabingove
dabingovi
dabingu
dac
dach
dacia
daevid
dagmar
daily
daimler
daj
daje
dajmi
dajne
dajny
dajov
daju
dakar
dakota
dakujem
dal
dala
dale
dali
dalibor
dallas
dalma
dalo
dals
dam
dame
dami
damia
dan
dana
danaa
danaos
dance
dancing
dane
danej
dangerous
dani
dania
danie
daniel
daniela
danis
danka
danko
danny
danom
dans
dante
danu
dany
dar
darc
dari
darilo
darina
dark
darkgrey
darkness
darom
darov
daroval
darwin
dary
das
dat
data
databa
database
date
dateformat
datel
datovane
datovani
datovania
datovanie
datovany
datuje
datuju
datum
dav
dave
david
davida
davidom
davis
davkov
davky
davne
davny
davu
dawn
day
days
daz
db
dc
dca
dce
dci
dcom
dcov
dcovia
dcu
dd
ddr
de
dea
dead
dean
death
debata
debaty
debehogne
debreci
debut
debutoval
debutovala
debutove
debutovy
dec
december
decembra
decembri
decembru
dedi
dedic
dedina
dedinc
dedine
dedinou
dedinska
dedinske
dedinsky
dedinu
dediny
dee
deep
def
default
defense
defenzi
deficit
defini
definiti
definoval
definovana
definovane
definovany
definovat
definuje
definuju
deforma
degli
degrada
dei
dej
deja
deje
deji
dejina
dejinami
dejiny
dejiskom
dejstva
dejstvo
dek
deka
dekan
dekana
dekanom
deke
deklara
deklina
deko
dekora
dekorati
dekorovana
dekorovane
dekre
del
dela
delaware
delega
deleni
delenia
delenie
delfi
deli
delia
delik
delil
delili
delit
delitel
dell
della
delle
delne
delny
delo
delostrelecke
delostrelecky
delostrelectva
delostrelectvo
delta
deluxe
dem
dema
demi
demisiu
demo
demografia
demokracia
demokracie
demokracii
demokraciu
demokrati
demokraticka
demokraticke
demokratickej
demokraticku
demokraticky
demokratov
demons
den
dena
dene
deni
denia
denie
denis
denisa
deniu
denna
denne
dennej
denni
dennis
denny
denomina
densko
deny
departement
departemente
departementu
departementy
department
departmente
departmentom
departmentov
departmentu
departmenty
depeche
deporta
depresi
depresia
depresie
der
derby
derek
deriva
derov
dery
des
desat
descartes
description
desert
desiat
desiate
desiatich
desiatimi
desiatke
desiatky
desiatok
desiaty
desiatych
design
deskripti
desktop
destila
destina
destiny
det
detail
detailne
detailny
detailov
details
detaily
detekciu
detekti
detektor
deti
detroit
detska
detske
detskej
detsky
detstva
detstve
detstvo
detva
deutsch
deutsche
deutschen
deutschland
deux
deva
developers
development
devi
deviatej
deviatich
deviaty
devil
devils
devo
dex
dez
df
dg
dh
dherne
dherny
di
dia
diabetes
diagno
diagnostika
diagona
diagram
dial
dialekt
dialekty
dialo
diamant
diamanty
diami
diamond
diana
diani
diania
dianie
dick
dictionary
dictvi
did
didier
die
diece
diego
diel
diela
dielach
dielam
dielami
diele
dieln
dielne
dielni
dielo
dielom
dielov
dielu
diely
dier
diera
diery
dies
diesel
diet
dietrich
dievc
diferencia
different
difu
digita
digital
digitaliza
dii
dik
dikta
diktatu
dil
dila
dili
dilo
din
dina
dinamo
dinosaura
dinosaurov
dinosaurus
dinosaury
dio
dioakti
diodoros
diolo
dioloka
diom
diony
diou
diova
diove
diovom
diovy
diplom
diplomacie
diplomat
diplomati
diplomaticke
diplomaticky
dipo
direct
direction
direkto
dirigent
dirigenti
dirty
dis
discipli
disciplina
disco
discogs
discovery
disk
diskografia
diskom
diskov
diskre
diskrimina
disku
diskusia
diskusie
diskusii
diskusiu
diskusna
diskusne
diskusnej
diskusny
diskutovat
diskutuje
disky
disney
displej
disponoval
disponovali
disponuje
disponuju
dispozi
dispozic
distribu
distribuc
district
dit
ditions
diu
dium
dius
div
diva
divadelna
divadelne
divadelnej
divadelni
divadelnu
divadelny
divadiel
divadla
divadle
divadlo
divadlom
dive
divi
divisio
division
divoke
divoky
divy
dizajn
dizajne
dizajnu
dizertac
dj
dk
dka
dke
dkou
dkovic
dku
dky
dl
dla
dlach
dlami
dlaz
dle
dlena
dlene
dleni
dlenia
dlenie
dleny
dlh
dlha
dlhe
dlhej
dlho
dlhodobe
dlhodobej
dlhodobo
dlhodoby
dlhom
dlhoroc
dlhotrvaju
dlhou
dlhs
dlhu
dlhy
dli
dlia
dliaci
dlil
dlila
dlili
dlilo
dlisk
dliska
dlisko
dlisku
dlo
dlom
dlovce
dlove
dlovy
dlz
dm
dmi
dmitrij
dn
dna
dne
dneho
dnej
dnes
dni
dno
dnom
dnou
dnu
dnuca
dnucej
dnut
dnutia
dnutie
dny
dnych
dnym
dnymi
do
dob
doba
dobe
doborcov
dobou
dobove
dobovy
dobr
dobra
dobre
dobrej
dobri
dobro
dobroc
dobrodruz
dobrom
dobrou
dobrovol
dobru
dobry
dobs
dobu
doby
dobyl
dobyli
dobyt
dobyte
dobyti
dobytie
dobytka
dobytok
dobyty
dobyvatel
doc
docent
docenta
doch
docha
dochovala
dochovali
dochovane
dochovany
doctor
doda
dodal
dodane
dodany
dodat
dodatoc
dodatok
dodenne
dodenny
dodnes
dodrz
does
dog
dohl
doho
dohoda
dohode
dohodli
dohodnu
dohodnute
dohodnuty
dohodol
dohodou
dohodu
dohody
dohospoda
dohovor
dohovoru
dohromady
doi
dojc
dojem
dojmom
dok
doka
dokazuje
dokazuju
doklad
doklada
dokladaju
dokladom
doklady
dokonale
dokonalosti
dokonaly
dokonc
dokonca
dokopy
doktor
doktora
doktorandske
doktri
dokument
dokumenta
dokumente
dokumentoch
dokumentom
dokumentov
dokumentu
dokumentuju
dokumenty
dol
dola
dolby
dole
dolet
doletom
doletu
dolez
doli
dolia
dolie
dolina
doline
dolinou
dolinu
doliny
dolly
dolna
dolne
dolnej
dolni
dolnom
dolnosliezskom
dolnu
dolny
doloz
dolu
dom
doma
domain
domami
domas
domaz
domc
dome
domenico
domi
dominantne
dominantny
dominantou
domingo
dominik
dominika
dominique
domino
dominuje
dominuju
domnievaju
domnieval
domoch
domom
domorody
domov
domova
domovom
domovska
domovsky
domovy
domu
domy
don
dona
donald
donau
done
doneda
donna
donom
donu
doom
door
doors
dopa
dopad
dopadaju
dopade
dopadu
dopady
dopisovatel
dopl
dopln
doplnena
doplnene
doplneni
doplnenie
doplneny
doplni
doplnil
doplnili
doplnit
doplnkove
doplnkovy
doplnky
doplnok
doporuc
doposial
doprava
dopravca
doprave
dopravit
dopravna
dopravne
dopravnej
dopravni
dopravny
dopravou
dopravu
dopravy
dopredu
dopreva
dopyt
dopytu
dor
dora
dorasta
dorastencov
dorazil
dorazila
dorazili
dordogne
dore
doroc
dorov
dortmund
doru
doruc
dory
dorys
doryse
dorysom
dorysu
dos
dosadil
dosah
dosahoval
dosahovala
dosahovali
dosahovat
dosahu
dosahuje
dosahuju
dosiahla
dosiahli
dosiahlo
dosiahne
dosiahnut
dosiahnuta
dosiahnute
dosiahnuti
dosiahnutie
dosiahnuty
dosiahol
dosial
dosiek
doska
doske
dosku
dosky
dosl
doslova
doslovne
doslovny
dospel
dospele
dospeli
dospelosti
dospely
dospievaju
dost
dosta
dostal
dostala
dostali
dostalo
dostane
dostaneme
dostanu
dostat
dostatoc
dostatok
dostrel
dostup
dostupna
dostupne
dostupnost
dostupnosti
dostupny
dot
dota
doterajs
doteraz
dotknuty
dotva
doty
dotyc
dotyk
dou
douard
double
doubs
doug
douglas
dov
dova
dovanie
dovany
dove
dovedna
dovej
doviedol
dovnu
dovo
dovol
dovolene
dovoleni
dovoli
dovolil
dovolit
dovoz
dovr
dovtedajs
dovtedy
dovy
down
download
doz
dozadu
dozveda
dozvedel
dozvedeli
dozvie
dp
dph
dq
dr
dra
drac
drafte
draftovani
draftovany
dragon
drahe
drahs
drahy
drak
draka
drake
drama
dramatic
dramatici
dramaticke
dramatickej
dramatickom
dramaticky
dramatik
dramaturg
dramaturgia
draselny
drasli
dravy
draz
dre
dream
dreams
dres
drese
dresy
dreva
dreve
drevena
drevene
drevenej
drevenou
drevenu
dreveny
drevi
dreviny
drevo
drevorubac
dri
drien
drive
dro
drobne
drobny
drog
droga
drogami
drogy
drom
drop
drost
drosti
drota
drov
drozd
drsc
drsny
dru
druh
druha
druhe
druhej
druhi
druhmi
druhoch
druhom
druhotne
druhou
druhov
druhu
druhy
drum
drums
druz
drviva
dry
drz
ds
dsa
dska
dske
dskeho
dskej
dski
dsko
dskom
dsku
dsky
dskych
dt
du
dua
dual
dub
duba
dubaj
dubc
dublin
dubline
dubna
dubni
dubnica
dubnici
dubova
dubove
dubovy
dubrovni
duby
duch
ducha
duchom
duchon
duchov
duchovna
duchovne
duchovnej
duchovni
duchovnu
duchovny
duchu
ducks
duda
dudva
duel
duet
duka
duke
dukla
dukly
dulla
dunaj
dunaja
dunaji
dunajom
dunajska
dunajske
dunajskej
duncan
dunlop
duo
dur
duri
duric
during
dus
dusi
dusic
dutina
dutiny
duty
duz
dv
dva
dvadsat
dvadsiateho
dvadsiatich
dvadsiatych
dvaja
dvakra
dvana
dvb
dvd
dve
dvera
dverami
dvere
dveri
dvi
dvoch
dvoj
dvojalbum
dvojc
dvojhra
dvojhre
dvojhry
dvojhviezda
dvojhviezdy
dvoji
dvojic
dvojica
dvojice
dvojici
dvojicou
dvojicu
dvojita
dvojite
dvojity
dvojjazyc
dvojkri
dvojna
dvojpodlaz
dvojpru
dvojroc
dvojstupn
dvojtisi
dvojtraktova
dvojty
dvojza
dvom
dvoma
dvomi
dvor
dvora
dvorcoch
dvore
dvori
dvoria
dvorie
dvorne
dvorni
dvorny
dvorom
dvorsky
dvory
dx
dy
dych
dychove
dychovy
dychu
dylan
dym
dynamicke
dynamicky
dynamics
dynamika
dynamo
dynastia
dynastie
dynastii
dynastiu
dz
dza
dzac
dzaju
dzal
dzala
dzali
dzalo
dzam
dzame
dzana
dzane
dzanej
dzani
dzania
dzanie
dzany
dzat
dze
dzi
dzieho
dzka
dzke
dzkou
dzkovana
dzkovane
dzkovany
dzkovat
dzkovatel
dzkove
dzkovy
dzku
dzkuje
dzkuju
dzky
dzok
dzove
dzovy
dzu
e
ea
eagle
ean
earl
early
earth
east
eastern
easy
eb
eba
eban
ebi
ebne
ebni
ebnica
ebnice
ebny
ec
ech
echa
echny
echo
echov
echy
ecke
ecky
eclav
eclipse
economic
economics
ed
eda
eddie
ede
eden
edgar
edge
edi
edinburgh
edinburghu
edit
edita
editing
edition
editor
editors
editov
editovat
edits
edmonton
edmund
edne
edni
edny
edo
eds
edu
eduard
eduarda
eduardo
education
edvard
edward
edwarda
edwards
edwin
ee
ef
efekt
efekti
efektov
efektu
efekty
effect
eg
egejske
egi
ego
egypt
egypta
egypte
egyptolo
egyptske
egyptskej
egyptsky
eh
ehf
ehnanie
eho
ehrad
ei
ein
eine
einer
einstein
ej
eji
ejov
ek
eka
eklad
ekolo
ekologicke
ekologicky
ekom
ekono
ekonomicka
ekonomicke
ekonomickej
ekonomicku
ekonomicky
ekonomika
ekonomike
ekonomiku
ekonomiky
ekosozologicky
ekosyste
ekov
ekova
eku
ekumenicky
ekva
ekvivalent
eky
el
ela
elanie
ele
electric
electro
electronic
electronics
elektra
elektric
elektricka
elektricke
elektrickej
elektricku
elektricky
elektrifika
elektrifikovana
elektriny
elektro
elektromagneticke
elektronicka
elektronicke
elektronickej
elektronicky
elektronika
elektroniky
elektrotechnika
elektrotechniky
element
elementa
elementov
elementy
elena
eleono
elephas
eleza
elezna
elezne
eleznej
elezni
eleznic
eleznica
eleznice
eleznici
eleznicu
elezny
elezo
elezobeto
elf
eli
elia
elias
elie
elil
elimina
eliniska
elinisko
elis
elisabeth
elit
elite
eliteprospects
elitnej
elity
eliu
elizabeth
elka
elke
elkou
elku
elky
ellen
ellis
elne
elni
elny
elo
elom
elov
elova
elove
elovy
eloz
else
elsevier
elske
elsky
elst
elstva
elstve
elstvo
elu
elvis
ely
em
ema
email
emanuel
emble
eme
emeritny
emerson
emi
emigra
emigranti
emigrantov
emigroval
emil
emila
emilia
emily
emira
emirates
emisie
emisii
emma
emmanuel
emmy
emo
emociona
empi
empire
empiricky
empora
ems
emu
emysl
en
ena
enami
enaty
enca
encami
enci
enciclopedia
enciklopedija
encom
encov
encyclopaedia
encyclopedia
encyklope
encyklopedicke
encyklopedicky
encyklopedie
end
endate
endeavour
ene
enec
enej
enejs
enel
enemy
energeticke
energetickej
energeticky
energia
energie
energii
energija
energiou
energiu
energy
eneva
eneve
eng
engine
engineering
england
english
eni
enia
eniach
eniami
enic
enica
enice
enie
enigma
enil
enina
enine
eniny
eniu
enka
enkla
enko
enkova
enky
eno
enom
enost
enosti
enou
enough
enrico
enska
enske
enskej
ensko
enskom
enskou
ensku
ensky
enstiev
enstva
enstvami
enstve
enstvo
enstvom
enstvu
ent
enterprise
entertainment
entity
entomolo
entomologicke
entre
entry
enu
environmenta
eny
enzy
eo
eobecna
eobecne
eobecnej
eobecnejs
eobecnosti
eobecnu
eobecny
eos
ep
eparchia
eparchie
epel
epic
epide
epidendrum
epitaf
epizo
epocha
epochy
epos
epsilon
eq
equus
er
era
eravy
erb
erbe
erbom
erbu
erby
erdo
ere
erebia
erectus
eres
ergaster
ergov
eri
eriav
eric
erich
eridanus
erik
erika
erlangen
erma
erna
erne
ernest
ernesta
erni
ernos
ernst
erny
ernych
ero
erov
erpa
erpadla
erpadlo
erpal
erpali
erpani
erpanie
error
erstve
erstvy
ert
eru
erupcia
erupcie
erupcii
erven
ervena
ervene
ervenej
ervenka
erveno
ervenom
ervenou
ervenu
erveny
erwin
ery
eryn
es
esa
escape
esej
eseje
eseji
esejista
esencia
eset
esi
eska
eskala
eske
eskej
eski
esko
eskom
eskoslovenska
eskoslovenske
eskoslovenskej
eskoslovensko
eskoslovenskom
eskoslovensku
eskoslovensky
eskou
esku
esky
eso
esovito
esp
espan
esperanta
esperanto
espn
essays
essonne
est
esta
estadio
este
ester
esterha
esteticke
esteticky
estetika
estna
estne
estnej
estny
esto
et
eta
etapa
etape
etapu
etapy
etc
etci
ete
eti
eticke
eticky
etika
etiky
etio
etislav
etka
etke
etko
etkom
etku
etky
etna
etne
etnej
etnejs
etni
etnicke
etnicky
etnika
etnikum
etnograf
etnolo
etnost
etny
etok
etreni
etrenia
etrenie
etrit
etrovani
etrovania
etrovanie
etrovatel
etyle
etymolo
eu
euge
eugen
eugena
eugene
eukaryoticky
eur
eura
eure
euro
euromince
europa
europe
european
eurove
eurovi
eurovision
eurozo
eusebios
ev
eva
evakua
evanjelia
evanjelici
evanjelicka
evanjelicke
evanjelickej
evanjelicki
evanjelickom
evanjelicky
evanjelistov
evanjelium
evans
evc
eve
eventua
ever
everest
every
everybody
everything
evic
evici
evidenc
evidentne
evidovany
evikov
evil
evne
evny
evo
evolu
evoluc
evolution
evy
ew
ex
example
exarcha
exchange
exempla
exestosik
exif
exile
exilu
existenc
existencia
existencie
existencii
existenciu
existoval
existovala
existovali
existovalo
existovat
existuje
existuju
exkluzi
exkomunika
exoticky
expanzia
expanzie
expedi
expedition
experience
experiment
experimenta
experimentov
experimentu
experimenty
expert
experti
explicitne
explo
explorer
explozi
expo
expona
export
expozi
expres
expresi
express
extended
exterie
externe
externy
extra
extraliga
extralige
extraligy
extrasola
extravila
extre
extreme
ey
eye
eyes
ez
ezove
ezovi
ezovy
f
fa
fabia
fabulae
fac
face
facebook
facebooku
faces
facto
factor
factory
faersky
fair
faith
fajc
fajn
fakt
fakticky
faktom
faktor
faktormi
faktorom
faktorov
faktory
faktov
faktu
fakty
faku
fakulta
fakulte
fakultu
fakulty
fal
falco
falcon
fall
falls
falos
fals
false
fam
fame
family
famu
fan
fanta
fantasticke
fantasticky
fantasy
fanto
fanu
far
fara
farao
farba
farbami
farbe
farbiva
farbou
farbu
farby
fare
farebna
farebne
farebny
farieb
farkas
farma
farme
farmy
farnost
farnosti
farra
farske
farsky
fary
fas
fasa
fast
fat
fata
fate
fatra
fatre
fatru
fatry
fauna
fauny
faust
fb
fbi
fc
fci
fd
fdb
fe
fear
feat
feature
featuring
feb
februa
february
fed
federa
federati
federation
federer
fedor
feedback
feel
feeling
felipe
felix
felso
femme
fender
fenic
fenome
fenomenolo
fer
ferdinand
ferdinanda
ferenc
ferguson
ferko
fermio
ferna
fernando
fero
ferrari
fest
festival
festivale
festivaloch
festivalov
festivalu
festivaly
feuda
ff
fg
fh
fi
fia
fialova
fiat
fiba
fica
fico
fiction
ficus
fidz
field
fields
fifa
fight
fighter
fighters
fighting
figu
figura
fih
fikti
fil
filan
file
files
filharmo
filia
filip
filipa
filipi
filippo
filit
film
filma
filme
filmoch
filmografia
filmom
filmov
filmova
filmove
filmovej
filmovi
filmovom
filmovu
filmovy
filmu
filmy
filo
filolo
filozof
filozofa
filozofi
filozofia
filozoficka
filozoficke
filozofickej
filozoficku
filozoficky
filozofie
filozofii
filozofiou
filozofiu
filozofov
filter
filtra
fina
final
finalista
finalistka
financ
finance
financial
financie
financii
financovania
financovanie
find
fine
finiste
fiodor
fire
firefox
firiem
firma
firme
firmou
firmu
firmy
firs
first
fis
fischer
fish
fisher
fivb
five
fixed
fj
fk
fka
fl
fla
flag
flames
flash
flauta
flight
flo
floor
flora
florbal
florbale
florbalove
florbalovej
florencia
florencie
florencii
flores
floria
florida
floride
flotila
flotilu
flotily
flow
floyd
fluo
fly
flyers
flying
flys
fm
fn
fo
fobos
focke
focus
folk
folklo
folkove
folkovi
folkovy
fom
fond
fondov
fondu
fondy
fone
fonta
fontaine
fontsize
foo
food
football
for
forbes
force
forces
ford
foreign
forest
forever
forga
foriem
form
forma
formami
format
forme
formou
formovanie
formovat
formu
formula
formule
formuly
formy
fort
fortuna
forum
forza
fosfa
fosfor
fosforec
fosforu
fosforyla
fosi
foster
fotky
foto
fotoapara
fotogale
fotograf
fotografi
fotografia
fotograficke
fotograficky
fotografie
fotografii
fotografiu
fotografovanie
fotosynte
fouche
found
foundation
fountain
four
fov
fox
fp
fq
fr
fra
frac
fragment
fragmenta
fragmentov
fragmenty
frakcie
frame
framework
fran
franc
franca
france
frances
francesca
francesco
franche
francis
francisca
francisco
franciscu
franco
francu
frank
franka
frankfurt
frankfurte
franklin
frankov
franskej
frantis
franz
franza
fraser
fraze
frazeolo
fre
fred
fredaktor
fredaktorom
freddie
frederick
frederik
free
freedom
freeman
freiburg
frekvenc
frekvencia
frekvencie
frekvencii
frekvenciou
frekvenciu
french
fres
fresiek
freska
freskami
fresky
fri
fric
fridrich
fridricha
friedrich
friedricha
friends
fritz
fro
from
front
fronta
fronte
frontu
fru
fry
fs
fstva
fstve
fstvo
ft
fu
fukovy
full
fun
function
fundamenta
fungoval
fungovala
fungovalo
fungovania
fungovanie
fungovat
funguje
funguju
funk
funkc
funkcia
funkciami
funkcie
funkcii
funkciona
funkciou
funkciu
fus
futbal
futbale
futbalista
futbalisti
futbalistov
futbalova
futbalove
futbalovej
futbalovi
futbalovu
futbalovy
futbalu
futsal
futsale
futsalove
futsalovy
futsalplanet
future
futures
futurolo
fv
fw
fx
fy
fyzici
fyzicka
fyzicke
fyzickej
fyzicku
fyzicky
fyzik
fyzika
fyzike
fyziku
fyziky
fyziolo
fyziologicky
fz
g
ga
gabc
gabo
gabriel
gabriela
gaga
gaia
gaius
gajdos
gala
galanta
galaxia
galaxie
galaxii
galaxy
gale
galerie
gales
gali
galie
galilei
galileo
galleria
gallery
gallo
gama
gambit
game
games
gamma
gang
gara
garci
gard
garda
garden
gardner
gardovy
gardy
garonne
gary
gas
gate
gates
gaulle
gay
gaz
gb
gbu
gc
gd
ge
gear
gec
geforce
gehrels
gejza
gel
gelnica
gemer
gemersky
gemini
gen
gene
genealo
genera
general
generation
generovani
genesis
geneticke
geneticky
genetika
geniti
geno
genoci
geo
geode
geoffrey
geograf
geografia
geograficka
geograficke
geografickej
geograficky
geografie
geolo
geological
geologicka
geologicke
geologickej
geologicky
geology
geometria
geometricke
geometricky
geometrie
geometrii
geomorfolo
geomorfologicka
geomorfologicke
geomorfologickom
geomorfologicky
georg
georga
george
georgea
georges
georgi
georgia
georgij
geoterma
gepetito
ger
gera
gerald
gerard
gerhard
germa
germain
german
germany
gers
ges
geschichte
gesellschaft
get
gf
gg
gh
ghana
ghost
ghz
gi
gia
giacomo
giami
giant
gibralta
gibson
gie
gif
gii
gilbert
gilles
gilmour
giorgio
giou
giovanni
girl
girls
giro
gironde
gis
gita
gitara
gitare
gitarista
gitaristi
gitaristom
gitaristu
gitarove
gitarovy
gitaru
gitary
giu
gium
giuseppe
give
gj
gk
gl
glam
glasgow
glass
glen
glenn
glise
glo
globa
global
globe
gloria
glory
gluko
gm
gmbh
gmi
gmina
gmine
gn
gne
gnu
go
god
gods
goes
goethe
going
gojdic
gold
golden
golf
gom
gombitova
gone
gonza
good
goodbye
google
gorbac
gordon
gore
gorila
got
goticka
goticke
gotickej
goticky
gotiky
gott
gottfried
gov
gove
government
govia
govy
gp
gpl
gps
gpu
gq
gr
gra
grace
grada
gradient
graecae
graf
grafe
graficka
graficke
grafickej
graficky
grafik
grafika
grafiku
grafiky
grafov
grafu
graham
gramaticke
gramaticky
gramatika
grammy
gramofo
gramotnosti
gramov
gran
grana
grand
grande
grandslamovy
grant
gravita
gravitac
gray
graz
gre
great
greatest
grec
greek
green
greg
gregor
gregora
gregoria
gregory
gregus
gretzky
grey
gridcolor
grigorij
grigorov
grimaso
grissom
gro
groeneveld
gros
ground
group
grove
gru
grunge
grupa
gruzi
gs
gsater
gt
gu
guadeloupe
guardian
guatemala
guatemale
gubernie
gue
guerrini
guez
guide
guido
guild
guillaume
guinea
guinei
guitar
gul
gule
gun
guna
guns
gus
gusta
gustav
gustava
guverne
guvernora
guy
guyana
gw
gx
gy
gymna
gymnazia
gyo
gyula
gz
h
ha
haagu
haas
haba
habera
habilis
habilitoval
habsburgovci
habsburgovcov
habsburska
habsburske
habsburskej
habsbursko
habsbursky
hac
hacej
hach
haci
hacia
hacie
hacieho
had
hada
hadria
hady
hagia
haiti
hajdu
haju
hal
hala
hale
haleakala
halen
half
hali
halic
hall
halle
halo
haloge
halove
halovom
halovy
hals
halucina
haly
ham
hamburg
hamburgu
hami
hamilton
hammel
hammer
hammond
hampshire
han
hana
hand
handbook
handlova
handlovej
hands
hane
hanga
hani
hania
hanie
hanka
hannah
hannibal
hans
hansa
hansen
hanus
hany
happy
hard
hardcore
hardve
harmanec
harmo
harmonicky
harmonika
harmony
harold
harper
harris
harrison
harry
harryho
hart
harvard
harvey
has
hasic
hat
hate
haut
haute
hautes
hauts
hava
havaroval
have
havel
haven
havla
havli
havran
hawk
hazard
hb
hbo
hc
hcl
hd
hdp
he
head
health
heart
hearts
heat
heatbeat
heaven
heavy
heavymetalove
heavymetalovi
hebr
hebrejc
hebrejske
hebrejsky
hec
hedviga
hegel
hegemo
heidelberg
heidelbergensis
height
heineken
heinrich
heinz
hej
hekta
hel
hele
helen
helena
heleny
helikopte
helin
helix
hell
hellados
hello
helmicou
helmut
help
helsinka
helsinki
hemingway
hemoglobi
henderson
hendrix
henri
henrich
henricha
henrichom
henrik
henry
henryho
hepatiti
her
herakles
heraldicky
herbert
herca
hercegovina
hercegovine
hercegoviny
herci
hercom
hercov
here
herec
herecka
herecke
hereckej
herecku
herecky
herectva
herectvo
heritage
herkules
herman
hermann
hermes
herna
herne
herny
hero
herodotos
heroes
heroi
herschel
hesiel
hesla
heslo
heslom
het
hetfield
hetrik
hevier
hey
hf
hg
hh
hi
hidejos
hier
hierarchia
hierarchie
higgins
high
highway
hill
hillary
hills
him
himala
hip
hire
hiros
his
hispa
histami
histo
histoire
historia
historic
historical
historici
historicka
historicke
historickej
historicko
historickom
historickou
historicku
historicky
historie
historik
historika
historikov
historizuju
history
hit
hitler
hitlera
hitlerovi
hitmi
hitom
hitov
hitpara
hits
hitu
hity
hiv
hk
hkm
hl
hla
hlad
hladi
hladina
hladine
hladinou
hladinu
hladiny
hladka
hladke
hladko
hladky
hlas
hlasi
hlasia
hlasil
hlasila
hlasili
hlasit
hlasmi
hlasom
hlasov
hlasova
hlasovacie
hlasoval
hlasovali
hlasovalo
hlasovani
hlasovania
hlasovanie
hlasovat
hlasovy
hlasu
hlasuje
hlasuju
hlasy
hlava
hlave
hlavic
hlavice
hlavn
hlavna
hlavne
hlavnej
hlavni
hlavnom
hlavnou
hlavnu
hlavny
hlavou
hlavu
hlavy
hlboka
hlboke
hlbokej
hlboko
hlboky
hlbs
hld
hle
hli
hlina
hlinene
hlini
hlinity
hlinka
hlinkovej
hlinku
hliny
hlohovci
hlohovec
hloz
hlu
hluc
hly
hm
hmlovi
hmlovina
hmloviny
hmo
hmota
hmotne
hmotnost
hmotnosti
hmotny
hmotou
hmotu
hmoty
hms
hmyz
hmyzom
hmyzu
hn
hnac
hned
hneda
hnede
hnedy
hnev
hniezda
hniezdenie
hniezdi
hniezdia
hniezdiacich
hniezdo
hnu
hnuti
hnutia
hnutie
hnutiu
ho
hoc
hoci
hockey
hod
hoda
hode
hodi
hodil
hodina
hodinami
hodine
hodinky
hodinovy
hodinu
hodiny
hodna
hodne
hodnejs
hodno
hodnost
hodnosta
hodnosti
hodnota
hodnotami
hodnote
hodnotene
hodnoteni
hodnotenia
hodnotenie
hodnoteny
hodnoti
hodnotit
hodnotne
hodnotny
hodnotou
hodnotu
hodnoty
hodny
hodoni
hodou
hodrus
hodu
hodva
hody
hodz
hoffman
hoffmann
hohenlohe
hojne
hojny
hokej
hokeja
hokejbal
hokeji
hokejista
hokejisti
hokejom
hokejova
hokejove
hokejovej
hokejovi
hokejovu
hokejovy
hokol
hol
holand
holandska
holandske
holandskej
holandski
holandsko
holandskom
holandsku
holandsky
hold
holding
hole
holes
holi
holic
holiday
holland
holle
holly
hollywood
hollywoode
hollywoodsky
holmes
holocaust
holoce
holokaust
holokaustu
holt
holub
holy
holzknecht
hom
home
homme
homo
homoge
homosexua
hon
honda
honey
hong
hongkong
hongkongu
honky
honok
honom
honor
honora
hons
hood
hop
hope
hopkins
hor
hora
horami
horc
hore
horec
hori
horie
horizons
horizont
horizonta
horizontal
horizonte
horizontu
horky
horl
hormo
horn
horna
hornatina
horne
hornej
hornet
horni
hornina
horninami
horniny
hornom
hornou
hornu
horny
horod
horolezci
horolezec
horolezecky
horolezectvo
horou
hors
horse
horska
horske
horskej
horsky
horst
horu
horva
hory
hos
hospital
hospoda
hossa
host
hosti
hostia
hostil
hostila
hostilo
hostinec
hostitel
hot
hotel
hotela
hoteli
hotelov
hotely
hoto
hotove
hotovy
hou
hour
house
houston
houstone
houten
hova
hove
hovor
hovorca
hovori
hovoria
hovoriaci
hovoriacich
hovoril
hovorila
hovorili
hovorilo
hovorit
hovorovo
hovy
how
howard
hp
hq
hr
hra
hrabovec
hrac
hracej
hraci
hrad
hrada
hradba
hradbami
hradby
hradc
hradci
hrade
hradec
hradieb
hradis
hradiska
hradisko
hradka
hradna
hradne
hradnej
hradni
hradny
hradom
hradou
hradov
hradu
hrady
hraju
hral
hrala
hrali
hralo
hrami
hrana
hrane
hranej
hrani
hrania
hranic
hranica
hranicami
hranice
hranici
hraniciach
hraniciam
hranicou
hranicu
hranie
hranom
hrany
hras
hrat
hrc
hrdina
hrdinom
hrdinov
hrdinovia
hrdinu
hrdlic
hre
hreb
hrebe
hreben
hrebeni
hrer
hri
hriadel
hric
hriech
hriechu
hriechy
hries
hrin
hrn
hrnc
hrnne
hrnny
hro
hrob
hrobe
hrobka
hrobke
hrobku
hrobky
hrobny
hrobok
hrobov
hrobu
hroby
hrochova
hromadna
hromadne
hromadnej
hromadny
hron
hrona
hronec
hronom
hronsky
hrou
hrozba
hrozbou
hrozbu
hrozby
hrozi
hrozilo
hrozna
hrozne
hrozny
hrsg
hru
hruba
hrube
hrubo
hrubs
hruby
hrudi
hrudni
hrus
hry
hs
hsl
ht
htc
htlac
htm
html
http
https
hu
huba
hubblov
hubert
huby
huc
huda
hudba
hudbe
hudbou
hudbu
hudby
hudebni
hudec
hudobna
hudobne
hudobnej
hudobni
hudobno
hudobnom
hudobnou
hudobnu
hudobny
hudson
hugh
hughes
hugo
hull
huma
human
humanita
humanitny
humenne
humennom
humor
humoru
hun
hungary
hunt
hunter
hurban
hurika
hurricanes
hus
husa
husitsky
husl
husle
huslista
huslisti
husta
huste
husto
hustota
hustote
hustotou
hustotu
hustoty
husty
huta
hutni
huty
huygens
hv
hve
hvezda
hvezdi
hvezdia
hvezdie
hviezd
hviezda
hviezdami
hviezde
hviezdic
hviezdna
hviezdne
hviezdnej
hviezdny
hviezdnych
hviezdokopa
hviezdokopy
hviezdoslav
hviezdoslava
hviezdoslavova
hviezdou
hviezdu
hviezdy
hy
hybnosti
hybrid
hyde
hydra
hydraulicke
hydraulicky
hydrolo
hydroly
hydronymum
hydroterma
hyginus
hylobates
hymna
hymnu
hymny
hypote
hypoteticky
hyundai
hz
hzds
i
ia
iac
iaca
iace
iaceho
iacej
iach
iaci
iacich
iacim
iacimi
iacka
iacke
iackej
iackych
iacu
iada
iadaju
iadal
iadala
iadali
iadalo
iadam
iadanie
iadany
iadat
iadatel
iadaviek
iadavka
iadavkou
iadavku
iadavky
iaden
iadna
iadne
iadneho
iadnej
iadnom
iadnou
iadnu
iadny
iadnych
iadnym
iadost
iadosti
iadu
iaduce
iak
iaka
iakmi
iakom
iakov
ial
iam
iami
ian
iang
ianka
ianky
ianska
ianske
ianskeho
ianskej
ianskom
ianskou
iansku
iansky
ianskych
ianskym
ianstva
ianstvo
iapoc
iar
iara
iare
iaren
iareni
iarenia
iarenie
iari
iarka
iarkou
iarky
iarna
iarne
iarnej
iarni
iarny
iarom
iarou
iarov
iarovy
iarska
iarske
iarskeho
iarskej
iarski
iarsko
iarskom
iarsku
iarsky
iarskych
iaru
iary
ias
iastka
iastkove
iastkovy
iastky
iastoc
iastok
iat
iata
iatkoch
iatkom
iatkov
iatku
iatky
iatoc
iatok
iau
iava
iavaju
iaval
iavala
iavali
iavane
iavani
iavanie
iavany
iavat
ib
iba
ibm
ibn
ibrahim
ic
ica
icami
icao
ice
ich
icha
ichu
ici
iciach
icka
icke
ickej
icko
ickom
icky
icou
icq
icu
id
ida
ide
idea
idei
idem
identicke
identicky
identifika
identifikac
identifikovany
identifikovat
identifikuju
identita
identitu
identity
ideolo
ideologicky
ideu
idey
idia
idla
idlo
idmi
idnes
idol
idom
idov
idovska
idovske
idovskej
idovsku
idovsky
idu
ie
ieb
iec
iech
ieho
iejasu
iek
iel
iemu
ien
ierna
ierne
ierneho
iernej
ierno
iernom
iernou
iernu
ierny
iernych
iernym
iernymi
ierov
iesta
ieste
iesteho
iestej
iestich
iestimi
iestom
iesty
if
iff
ifra
ifrovanie
ifry
ig
igmund
igmunda
igna
igor
igora
ih
iha
ihf
ihla
ihlancovou
ihlic
ihned
iho
ihriska
ihrisko
ihrisku
ii
iihf
iii
ij
ije
ijeme
iji
iju
ik
ika
ikar
ikmi
ikmo
ikom
ikon
ikona
ikonostas
ikony
ikov
ikova
ikove
ikovia
ikovy
iky
il
ila
ilava
ile
ilega
ili
iliada
ilina
iline
ilinska
ilinske
ilinskej
ilinskom
ilinsky
iliny
ilis
ilius
ille
illinois
ilo
ilsky
ilu
ilumina
ilustra
ily
im
ima
image
images
imagesize
imagina
imagine
imdb
ime
img
imho
imi
imidz
imigra
imigrantov
imko
imli
imol
imom
imon
imov
impact
impaktny
impe
impera
imperial
implementa
import
important
improviza
impulz
imre
imrich
imricha
imu
imunitne
imunitny
imunity
imy
in
ina
inak
inami
inaugura
inc
incertae
inch
inci
incident
incidente
incidentu
incov
increment
inde
independent
index
indexe
indexu
india
indian
indiana
indicka
indicke
indickej
indickom
indicky
indie
indii
indika
individua
indl
indoeuro
indone
indre
indukc
industria
industrial
industrializa
industry
ine
inec
inej
inene
inercia
infarkt
infekc
infekcia
infekcie
infekcii
infla
info
infobox
infoboxu
informa
informac
informatici
informatik
informatika
informatike
informatiky
information
informoval
informovat
informuje
infrac
infrarad
infras
infty
ing
ingrid
inhibi
ini
inicia
iniciati
inicioval
inidla
inidlo
inier
iniera
inieri
inierstva
inierstvo
inil
inila
inili
initel
inka
inkom
inkov
inkoval
inkovala
inkovali
inkovanie
inku
inkuje
inkuju
inkvizi
inky
inline
inn
inna
inne
innej
innejs
innost
innosti
innsbruck
innsbrucku
inny
ino
inocent
inoch
inohra
inohry
inok
inokedy
inom
inou
inov
inova
inovati
inovca
inovci
inove
inovec
inovy
ins
inscena
inscriptiones
insee
inside
inska
inske
insky
institut
institute
instrumental
int
integra
integrovane
integrovany
intel
intelektua
inteligencia
inteligencie
inteligentne
inteligentny
intelligence
intenzi
intenzita
intenzitu
intenzity
inter
interaguju
interakcia
interakcie
interakcii
interakti
interface
interie
interior
interkontinenta
intermedia
interna
internaciona
international
internationale
interne
internet
internete
internetova
internetove
internetovej
internetovy
internetu
interny
interpret
interpreta
interpreti
interpretov
interval
intervale
intervaloch
interview
interwiki
inti
into
intravila
intro
introduction
intuiti
inu
inva
inventa
investi
investic
investor
iny
inz
inzuli
io
iommi
ion
ios
iowa
ip
ipa
ipe
ipel
iphone
ipka
ipl
ipod
ipov
ipv
ir
ira
iraciona
iracke
iracky
irak
iraku
irc
ireland
irena
iris
iro
iroka
iroke
irokej
iroko
irokom
irokou
iroku
iroky
iron
irovani
irovanie
irovat
irs
iruje
iruju
irving
is
isa
isaac
isbn
ise
isis
iska
isko
iskom
iskra
isla
islam
islamske
islamskej
islamsky
islamu
island
islande
islanders
islands
islandu
isle
iso
isonzo
israel
iss
issn
issue
ist
ista
istanbul
istanbule
istanbulu
iste
istej
isteni
istenia
istenie
isti
istic
isticke
isticky
istit
isto
istom
istota
istotou
istotu
istoty
istou
istu
istva
isty
istychov
isu
it
ita
italia
itan
itatel
itavou
ite
itej
itejs
itel
itele
itelia
item
itf
iti
itia
itie
itiu
itkove
itkovy
itku
itky
itn
ito
itoc
itok
itom
itost
itosti
itostiach
itostne
itostny
itou
its
itu
itunes
ity
iu
iucn
iulia
iupac
iure
iuris
iv
iva
ivan
ivana
ivanc
ivanic
ivanka
ivanom
ivanov
ivanovic
ive
ivec
ivej
ivelni
ivenie
iveta
ivi
ivia
ividne
ivil
ivili
ivit
ivnostni
ivo
ivob
ivoc
ivom
ivost
ivot
ivota
ivote
ivotie
ivotna
ivotne
ivotnej
ivotnom
ivotnost
ivotnu
ivotny
ivotoch
ivotom
ivotopis
ivotov
ivotu
ivoty
ivou
ivs
ivu
ivy
ix
iz
iza
izabela
izba
izbe
izby
izmaelt
izmu
izmus
izola
izolac
izolovane
izolovany
izome
izrael
izraela
izraeli
izraelom
izraelska
izraelske
izraelskej
izraelski
izraelsky
j
ja
jablka
jablko
jablon
jablonec
jac
jaci
jack
jacka
jackie
jackson
jacksona
jacob
jacques
jadier
jadra
jadranske
jadre
jadro
jadrom
jadrova
jadrove
jadrovej
jadrovy
jagger
jaguar
jahn
jahoda
jaju
jak
jake
jako
jakob
jakobi
jakub
jakuba
jakubisko
jaky
jal
jala
jali
jalo
jam
jama
jamajka
james
jamesa
jamesom
jamie
jamni
jamy
jan
jana
janc
jane
janec
janeiro
janet
jang
jani
jania
janie
janka
janko
jankovic
jano
janob
janom
janos
janou
janous
janov
janta
janu
janua
january
jany
jap
japan
japanese
japonc
japonci
japonska
japonske
japonskej
japonski
japonsko
japonskom
japonsku
japonsky
jar
jari
jarmila
jarna
jarne
jarny
jaro
jarok
jaromi
jaros
jaroslav
jaroslava
jas
jasen
jasky
jaskyn
jaskyne
jaskyni
jaskyniach
jaskynne
jaskynny
jasna
jasne
jasnejs
jasnost
jasnosti
jasny
jason
jat
jav
java
javascript
javi
javier
javisku
javmi
javom
javor
javorie
javorina
javorni
javov
javu
javy
jay
jazd
jazda
jazdca
jazdci
jazdcov
jazde
jazdec
jazdecke
jazdecky
jazdi
jazdia
jazdil
jazdili
jazdit
jazdny
jazdoch
jazdov
jazdu
jazdy
jazera
jazere
jazero
jazerom
jazier
jazierko
jazyk
jazyka
jazykmi
jazykoch
jazykom
jazykov
jazykova
jazykove
jazykoveda
jazykovedci
jazykovede
jazykovedec
jazykovej
jazykovo
jazykovy
jazyku
jazyky
jazz
jazzovy
jb
jc
jd
jde
jdem
jdeme
jdena
jdene
jdenie
jdeny
jdete
jdu
je
jean
jeana
jeanne
jed
jeda
jeden
jedena
jedenkra
jedina
jedinca
jedince
jedinci
jedincov
jedine
jedinec
jedinej
jedinom
jedinou
jedinu
jediny
jedl
jedla
jedle
jedlo
jedna
jednak
jednalo
jedne
jednej
jedno
jednoducha
jednoduche
jednoduchej
jednoducho
jednoduchost
jednoduchou
jednoduchs
jednoduchu
jednoduchy
jednokol
jednolod
jednom
jednopodlaz
jednoroc
jednoroz
jednosmerne
jednosmerny
jednostranne
jednota
jednotiek
jednotka
jednotkami
jednotke
jednotkou
jednotku
jednotky
jednotlivca
jednotlivci
jednotlivcov
jednotlive
jednotlivo
jednotlivy
jednotna
jednotne
jednotnej
jednotnu
jednotny
jednotu
jednoty
jednou
jednoznac
jednu
jedny
jedovate
jedovaty
jeff
jefferson
jeffrey
jeho
jej
jeji
jejich
jek
jelen
jelena
jels
jem
jemna
jemne
jemnejs
jemnu
jemny
jemu
jen
jena
jene
jeni
jennifer
jens
jensen
jeremy
jerome
jerry
jersey
jeruzalem
jeruzalema
jeruzaleme
jeruzalemske
jeruzalemsky
jerzy
jes
jesen
jesene
jeseni
jesenske
jesensky
jesse
jessica
jest
jestvuje
jestvuju
jesu
jesus
jet
jetam
jevgenij
jewish
jez
jezd
jezuita
jezuiti
jezuitov
jezuitske
jezuitsky
jf
jg
jh
jho
ji
jic
jihlava
jil
jila
jili
jilo
jim
jimi
jimmy
jin
jina
jinak
jindr
jine
jiny
jir
jira
jit
jiz
jj
jk
jl
jm
jme
jmom
jmov
jmu
jmy
jn
jna
jo
joachim
joan
jodid
joe
joel
joey
johan
johann
johanna
johannes
john
johna
johnny
johnom
johnson
join
joint
joj
jom
jomna
jomne
jomnej
jomnom
jomnu
jomny
jon
jona
jonas
jonathan
jones
jonesy
jorda
jordan
jorge
jos
jose
josef
josefa
joseph
josepha
josh
journal
journey
jov
jova
jove
jovi
jovice
jovy
joy
joz
jozef
jozefa
jozefi
jozefom
jozefovi
jp
jpeg
jpg
jr
jrd
js
jsem
jska
jske
jskeho
jskej
jsky
jsou
jst
jste
jt
ju
juan
juana
jubilee
juda
judaizmu
judaizmus
judas
judita
judith
judr
juels
juh
juhoafrickej
juhoafricky
juhoamericka
juhoamericke
juhoamericky
juhoc
juhojuhovy
juhojuhoza
juhoko
juhomoravskom
juhosla
juhoslovanske
juhoslovansky
juhovy
juhoza
juhu
jules
julia
julian
juliana
julie
julien
julius
julo
july
jump
jun
june
jung
jungle
junior
juniorov
juniorske
juniorskej
juniorsky
junkers
juno
jupiter
jupitera
jur
jura
juraj
juraja
jurajom
jurc
jure
juri
jurij
jurkovic
jury
jus
just
justi
justic
justice
justify
justin
justinia
jut
juventus
juz
jv
jva
jz
k
ka
kaba
kabi
kabinet
kabinetu
kac
kach
kaci
kai
kaiser
kaj
kaju
kal
kala
kaldera
kaldery
kalenda
kali
kalibrac
kalibru
kalich
kalifa
kalifornia
kalifornie
kalifornii
kalifornskej
kalin
kalinc
kalis
kalo
kalva
kalvi
kam
kamara
kambodz
kamc
kamen
kamena
kamene
kamenec
kameni
kamenna
kamenne
kamennej
kamenny
kamera
kameraman
kamerou
kameru
kamerun
kamery
kami
kamil
kampa
kampan
kampane
kampani
kamzi
kan
kana
kanad
kanada
kanade
kanadou
kanadska
kanadske
kanadskej
kanadski
kanadsko
kanadskom
kanadsky
kanadu
kanady
kanaliza
kancela
kanda
kandida
kandidatu
kandidoval
kandidovala
kandidovat
kandina
kandy
kane
kaneda
kani
kanie
kano
kanonik
kansas
kant
kanta
kanto
kany
kap
kapacita
kapacitou
kapacitu
kapacity
kapado
kapela
kapelami
kapele
kapelni
kapelou
kapelu
kapely
kapiel
kapila
kapita
kapitalizmu
kapitana
kapitol
kapitola
kapitole
kapitolu
kapitoly
kapitula
kapitule
kapituly
kapla
kaplniek
kaplnka
kaplnke
kaplnkou
kaplnku
kaplnky
kapuci
kapus
kapusta
kar
kara
karante
karate
karbo
karbona
karbura
karcino
karcinoge
kardina
kare
karel
karen
karibiku
karibske
karibsky
karie
kariet
karikatu
karl
karla
karlom
karlova
karlove
karlovej
karlovy
karlsruhe
karma
karmelita
karol
karola
karoli
karolom
karolovi
karosa
karose
karpa
karpatoch
karpatska
karpatske
karpatskej
karpatsky
karpaty
karta
karte
kartograficke
kartografie
kartou
kartu
karty
karvas
karvina
kas
kasa
kasi
kaska
kasti
kat
kata
katala
katalo
katalyza
katalyzuje
katar
katari
katastra
katastri
katastrofa
katastrofe
katastrofy
kate
katedra
katedre
katedru
katedry
katego
kategorie
kategoriza
kater
katio
katka
kato
katoli
katolicizmus
katsuura
katy
kauc
kaukaz
kaukaze
kaukazu
kauza
kauze
kauzy
kaviaren
kaviarne
kaviarni
kay
kaz
kazachstan
kazachstane
kazachstanu
kazan
kazas
kazatel
kazdy
kaze
kazetovy
kazimi
kazni
kazom
kazov
kazu
kazy
kb
kbs
kc
kd
kde
kdekol
kdh
kdo
kdy
kdyz
ke
keby
kec
ked
kedy
kedykol
kedysi
kedze
keep
keith
kej
kel
kelly
kelovy
kelti
keltske
keltsky
ken
kend
keni
kennedy
kennedyho
kenneth
kenny
kent
kentaur
kentucky
ker
keramicke
keramicky
keramika
keramikou
keramiky
kes
keto
kev
kevin
key
keys
kez
kf
kg
kgb
kh
khl
khz
ki
kia
kid
kids
kien
kill
killer
kilogramov
kilometer
kilometra
kilometre
kilometrov
kim
kin
kina
kind
kine
kinematografia
kinematografie
king
kinga
kingdom
kings
kingston
kino
kira
kirche
kirchner
kis
kiska
kiss
kitami
kitt
kj
kjo
kk
kke
kky
kl
kla
klad
klade
kladie
kladivo
kladmi
kladn
kladna
kladne
kladnej
kladnejs
kladni
kladno
kladnom
kladnou
kladnu
kladny
kladoch
kladom
kladov
kladove
kladovy
kladu
klady
klan
klanu
klarinet
klasicisticka
klasicisticke
klasicisticky
klasicizmu
klasicka
klasicke
klasickej
klasickom
klasickou
klasicku
klasicky
klasifika
klasifikovany
klatovy
klaus
klavi
klavirista
klaviristi
kle
klein
klement
klementa
klena
klenba
klenbami
klenbou
klenbu
klenby
kleopatra
klesa
klesaju
klesat
klesla
klesol
klet
kli
klient
klienta
klientov
klies
kliknite
kliknuti
klimaticke
klimaticky
klimatiza
kliment
klin
klinc
klinicke
klinicky
klinika
klinove
klip
klm
klobu
klokoc
klon
klub
klube
kluboch
klubom
klubov
klubova
klubove
klubovej
klubovy
klubu
kluby
kluka
klza
km
kmen
kmene
kmet
kmi
kn
kna
kne
kni
kniez
knight
kniha
knihe
knihou
knihovni
knihu
knihy
kniz
knm
kno
know
knowledge
knut
ko
koali
koalic
kobayashi
koc
koca
koch
kociho
kocka
kocky
kocu
koda
kodak
kodan
kodani
kodena
kodene
kodeni
kodenia
kodenie
kodeniu
kodeny
kodi
kodifika
kodil
kodili
kodit
kodlive
kodlivy
kodu
kody
koeficient
koenzy
kogniti
koho
kohu
kokai
kokniez
kokor
kokra
kol
kola
kolac
kolami
kolaps
kole
kolega
kolegami
kolegom
kolegov
kolegovia
kolegu
kolekcia
kolekcie
kolekti
kolektiviza
kolena
kolesa
koleso
koli
koliba
kolies
kolieskovy
kolla
kolma
kolmo
kolni
kolo
koloman
kolona
kolonia
kolonistov
koloniza
kolou
kolska
kolske
kolskej
kolski
kolskom
kolsku
kolsky
kolstva
kolstve
kolstvo
kolu
kolumbia
kolumbie
kolumbii
kolumbus
koly
kom
koma
kombi
kombina
kombinovana
kombinovane
kombinovany
kombinuje
kombinuju
kome
komedia
komenske
komenta
komentoval
komerc
komi
komik
komiks
komiksov
komisa
komisia
komisie
komisii
komisiou
komisiu
komita
komne
komo
komora
komoravske
komore
komorne
komorni
komorny
komory
kompaktne
kompaktny
kompatibilne
kompatibilny
kompenza
kompetencie
kompetencii
kompila
kompilac
komplementa
komplet
kompletna
kompletne
kompletny
komplex
komplexe
komplexna
komplexne
komplexnej
komplexny
komplexov
komplexu
komplexy
komplika
komplikovane
komplikovany
komponentov
komponenty
kompozi
kompozic
kompresny
kompromis
komu
komuna
komuni
komunika
komunikac
komunikovat
komunistami
komunisti
komunisticka
komunisticke
komunistickej
komunistickom
komunisticky
komunistov
komunita
komunite
komunitne
komunitny
komunitou
komunitu
komunity
komunizmu
komunizmus
kon
kona
konaju
konal
konala
konali
konalo
konani
konania
konanie
konat
konatel
konc
konca
konce
koncentra
koncentrac
koncepc
koncepcia
koncepcie
koncepcii
koncepciu
koncept
konceptu
konceptua
koncepty
koncernu
koncert
koncerte
koncertna
koncertne
koncertnom
koncertny
koncertoch
koncertom
koncertov
koncertu
koncerty
konci
koncil
koncile
koncilu
koncoch
koncom
koncoroc
koncove
koncovy
koncu
kondenza
kone
konec
konektor
konfedera
konferenc
konferencia
konferencie
konferencii
konferenciu
konfigura
konfis
konflikt
konflikte
konfliktom
konfliktov
konfliktu
konflikty
konfronta
kong
kongo
kongrega
kongres
kongrese
kongresu
koni
koniec
konitosti
konkla
konkre
konkurenc
konkurencia
konkurencii
konkurovat
konkurz
konkurzu
konmi
konna
konne
konnej
konnejs
konni
konnost
konnosti
konnostny
konnu
konny
konoc
konoch
konom
konov
konra
konrad
kons
konsenzu
konsenzus
konska
konsky
konstantin
kontajner
kontakt
kontakte
kontaktom
kontaktov
kontaktu
kontakty
konte
kontext
kontexte
kontextu
kontinent
kontinenta
kontinente
kontinentov
kontinentu
kontinua
konto
kontrabas
kontrakt
kontraktu
kontrast
kontraste
kontrola
kontrole
kontrolne
kontrolny
kontrolou
kontrolovane
kontrolovat
kontrolu
kontroluje
kontroly
kontroverzne
kontroverzny
konu
konvenc
konvencia
konvencie
konvent
konventu
kony
konz
konzerva
konzervati
konzervato
konzola
konzoly
konzul
konzula
konzulta
konzuma
koordina
koordinac
kop
kopa
kopac
kopc
kopca
kopce
kopci
kopec
kopi
kopol
kopr
kopu
kopy
kor
kora
koralovy
korc
kordo
korec
korela
koren
korene
kores
korfbal
koridor
korintsky
korist
koristi
korka
korlevic
korn
kornel
koro
korol
korona
koronavi
korpio
korpora
koru
koruna
korune
korunne
korunnou
korunny
korunou
korunova
korunovac
korunovany
korunu
koruny
korupcie
koruta
korvi
kory
koryta
korytnac
koryto
korytom
korzika
kos
kosa
kosi
kosice
kosmo
kosova
kosove
kosovo
kost
kostatka
kosteny
kosti
kostiach
kostol
kostola
kostole
kostoli
kostoloch
kostolom
kostolov
kostolu
kostoly
kostra
kostru
kostry
kosty
kotla
kotli
kotlina
kotline
kotlinu
kotliny
kotu
kou
kov
kova
kovac
koval
kovana
kovane
kovani
kovanie
kovany
kovce
kovci
kovcov
kove
kovec
kovej
kovezi
kovho
kovi
kovia
kovic
kovice
kovite
kovity
kovo
kovom
kovou
kovov
kovova
kovove
kovovy
kovske
kovsky
kovu
kovy
koz
koza
kozi
kozmicka
kozmicke
kozmickej
kozmicku
kozmicky
kozmodro
kozmolo
kozmonaut
kozmonauta
kozmonauti
kozmonautika
kozmonautiky
kozmonautom
kozmonautov
kozmu
kozoroz
kozy
kp
kpt
kr
kra
kraj
kraja
krajc
kraje
kraji
krajina
krajinami
krajine
krajinna
krajinnej
krajinny
krajinou
krajinske
krajinsky
krajinu
krajiny
krajne
krajoch
krajom
krajov
krajska
krajske
krajskej
krajsky
krakov
krakove
kral
krama
kras
krase
krasokorc
krasove
krasovy
krasu
kratochvi
krats
kraus
krc
kre
kreati
krec
krejc
kremel
kremen
kremi
kremic
kremnica
kremnici
kremnicke
kremnicky
krempasky
kres
kresba
kresby
kresieb
kresiel
kresla
kreslene
kreslo
krest
kreutz
kri
kric
kriedove
kriedy
krimina
kris
krista
kristi
kristia
kristom
kristovho
kristovi
kristus
krite
kritici
kriticka
kriticke
kritickej
kriticky
kritik
kritika
kritike
kritikmi
kritikom
kritikou
kritikov
kritiku
kritiky
kritizoval
kritizovali
kritizovany
kritizuje
kriva
krivka
krivky
kriz
krk
krkonos
krku
kro
kroeger
krok
krokodi
krokom
krokov
kroku
kroky
krome
kromna
kromne
kromnej
kromnom
kromnu
kromny
kronika
kroniky
krov
krovu
krs
krst
krste
krstitel
krstne
krstny
krstu
krti
kru
kruh
kruhoch
kruhov
kruhove
kruhovy
kruhu
kruhy
krumlov
krupa
krupina
krus
krut
kruta
krute
kruty
kruz
krv
krva
krvave
krvavy
krvi
krvne
krvny
krvou
kry
kryci
krym
kryme
krymu
krypta
krys
kryt
kryte
krytie
krytu
kryty
ks
ksc
kss
kt
kter
ktera
ktere
ktery
kto
ktokol
ktora
ktore
ktorej
ktori
ktorom
ktorou
ktoru
ktory
ku
kuba
kube
kubi
kubicky
kubis
kubof
kuby
kuc
kucha
kuchyn
kuchyne
kujavsko
kukuc
kukurica
kuli
kult
kulte
kultove
kultovy
kultu
kultura
kulturni
kuma
kumulati
kuna
kung
kunst
kup
kupe
kupec
kupne
kupola
kupolou
kupoly
kupuju
kur
kura
kuric
kurt
kurz
kurzi
kurzov
kurzu
kurzy
kus
kushiro
kusov
kusy
kutna
kuu
kuvajt
kuz
kuzma
kv
kva
kvac
kvadra
kvalifika
kvalifikac
kvalifikoval
kvalifikovali
kvalifikovalo
kvalifikovane
kvalifikovany
kvalifikovat
kvalita
kvalitati
kvalite
kvalitne
kvalitnejs
kvalitny
kvalitou
kvalitu
kvality
kvantitati
kvantova
kvantove
kvantovej
kvapalina
kvapaliny
kvapalne
kvapalny
kvarte
kvarteto
kve
kvet
kvetmi
kvetov
kvety
kvitne
kvitnu
kvo
kvrna
kvrnene
kvrny
kw
kwh
ky
kyjev
kyjeva
kyjeve
kyjevskej
kynolo
kynologia
kysa
kyseli
kyselina
kyselinou
kyselinu
kyseliny
kysle
kysli
kysly
kysuce
kysucka
kysucke
kysuckej
kysucky
kysucou
kza
l
la
labe
label
labem
laborato
laboratory
labuda
labut
lac
lach
lacko
lacne
lacnejs
lacny
laco
lacor
lad
lada
lade
ladislav
ladislava
ladu
lady
lagu
laguna
lajos
lake
lakros
lakt
lakta
lalina
lamac
lambda
lambert
lamborghini
lami
lamina
lampa
lan
lana
lancia
land
lande
landes
landing
landsky
landu
lane
lang
language
languages
languedoc
lanka
lano
lanovka
lanovky
large
larry
lars
larva
larvy
las
laser
laserovy
lasica
last
lastovic
lastu
lat
late
later
latera
laternou
latest
latin
latinc
latinky
latinska
latinske
latinskej
latinsky
launch
laura
laurea
laurent
laurie
laurinc
lausanne
lavi
lavic
lavice
law
lawrence
layer
laz
lazio
lazy
lb
lc
lcd
lci
lcov
ld
ldots
le
lea
leafs
league
learning
leave
leavenworth
leben
lebka
lebky
lebo
lec
led
lee
leeds
left
lega
legacy
legend
legenda
legendy
legiend
legiona
legislati
legiti
lego
leha
leho
lehota
lehotsky
lehoty
leibniz
leipzig
lej
lek
leka
lem
lemovana
lemovane
lemovany
lemuju
len
lena
lene
lenej
lenena
lenene
leneni
lenenia
lenenie
leneny
leni
lenia
lenie
lenil
lenila
lenili
lenin
lenina
leningrad
lenit
lenka
lenkou
lenky
lenmi
lenna
lenne
lennej
lennon
lenny
lenom
lenov
lenove
lenovia
lenske
lensky
lenstva
lenstvo
leny
lenz
leo
leon
leonard
leonarda
leonardo
leone
leonid
leopold
leopolda
leopoldov
leos
lepidopterolo
lepku
leps
ler
les
lesa
lese
leslie
lesmi
lesna
lesne
lesnej
lesni
lesnom
lesny
lesoch
lesom
lesov
lesy
let
leta
letci
letcov
lete
letec
letecka
letecke
leteckej
leteckom
letecku
letecky
letectva
letectve
letectvo
letel
leteli
leti
letiet
letiska
letisko
letiskom
letisku
letka
letky
letna
letne
letnej
letnom
letny
leto
letoch
letom
letopoc
letov
letove
letovej
letovy
letter
letters
letu
lety
letz
leuke
leum
lev
leva
level
levi
levice
leviciach
levoc
levy
lewis
lex
lexika
lexiko
lexikon
leyman
lez
lezca
lezcovia
leziska
lezisko
lezmi
lezom
lezov
lezu
lezy
lf
lg
lgarija
lgbt
lh
lhota
li
lia
liam
liaz
libanon
libanone
libanonu
libe
liber
libera
liberec
libereckom
liberty
libier
libor
libra
library
libreto
libri
libus
lic
lice
licenc
licencia
licencie
licencii
licenciou
licenciu
license
lichobez
lichtens
lide
lidi
lidove
lidy
lie
liec
liek
liekov
lieku
lieky
lienka
lienkami
lienke
lienkou
lienkove
lienkovy
lienku
lienky
lienok
lies
lietadiel
lietadla
lietadlami
lietadle
lietadlo
lietadlom
lietadlove
lietadlovej
lietadlovy
lietaju
lietal
lietanie
lietat
life
liga
lige
light
lightgrey
lightning
lights
ligove
ligovej
ligovom
ligovy
ligu
ligue
ligy
liho
lii
lik
like
liki
likvida
liky
lil
lila
lili
lille
lilly
lilo
lily
lim
lima
limit
limited
limitovana
limitu
limity
limuzi
lin
lincoln
linda
line
linea
linear
lines
liniek
link
linka
linke
linkin
linkou
links
linku
linky
linnaeus
linne
linux
linuxu
lion
lionel
lions
liou
lipa
lipany
lipni
lipova
lips
lipsko
lipsku
lipta
liptov
liptova
liptove
liptovska
liptovske
liptovskej
liptovskom
liptovsky
lis
lisa
lisabon
liso
list
lista
listami
liste
listi
listina
listine
listinu
listiny
listnate
listnaty
listoch
listom
listov
listovy
listu
listy
lit
litera
literatu
literatura
literature
literatury
litome
litovske
litovsky
litra
litrov
litrovy
little
liturgia
liturgicke
liturgicky
liturgie
litva
litve
litvi
litvy
liu
lium
lius
liusa
liv
live
liverpool
liverpoolu
lives
living
livo
livu
livy
lix
lize
lizzy
lk
lka
lke
lkou
lkova
lku
lky
ll
ller
llo
lloyd
lm
lma
lmajor
lmi
ln
lna
lne
lneho
lnej
lnejs
lnemu
lni
lno
lnom
lnost
lnosti
lnou
lnu
lny
lnych
lnym
lnymi
lo
local
location
loch
lockheed
locmap
lod
lode
lodi
lodiach
lodna
lodne
lodny
lodz
log
loga
logic
logicka
logicke
logicky
logik
logika
logike
logiku
logiky
logo
loh
loha
lohe
lohou
lohu
lohy
loir
loire
loiret
loja
lok
loka
lokali
lokalita
lokalite
lokalitou
lokalitu
lokality
lokaliza
lokedy
lokomoti
lom
lomeny
lomkov
lomky
lomnica
lomnicky
lomu
london
londy
lonely
loneos
long
look
lopez
lopta
loptic
loptu
lopty
lord
lorda
lorenzo
lori
los
lost
lot
lote
lotrinska
lotrinsko
lotrinsky
lotus
lotys
lou
lough
louis
louisa
louise
louisiana
louny
louvre
lov
lova
lovce
lovci
lovcov
love
lovec
lovej
lovek
loveka
lovekom
loveku
loves
lovi
lovite
lovo
lovohradeckom
lovom
lovou
lovu
lovy
low
lowe
lower
loz
loze
lp
lporuc
lr
ls
lsd
lska
lske
lskeho
lskej
lski
lsko
lskom
lsku
lsky
lskych
lskym
lt
lta
ltd
lte
ltej
lto
ltou
ltu
lty
lu
lubelske
lubelskom
lubomi
lubos
luc
luca
lucas
lucia
lucie
lucius
lucky
lucy
ludi
ludvi
ludwig
lufthansa
luftwaffe
luhy
luigi
luis
lujza
luka
lukas
luke
luky
luna
lunar
lunetami
lung
lutera
luther
luthera
lux
luxemburska
luxemburske
luxembursko
luxembursku
luxembursky
luxusne
luxusny
luz
lv
ly
lych
lym
lymfocytov
lymfocyty
lynn
lynott
lynx
lyon
lyricky
lyrika
lysa
lyz
lz
m
ma
maajo
mac
macedo
macek
mach
macha
machine
maci
macintosh
mad
madame
made
madeleine
madison
madona
madonna
madony
madrid
madride
madridu
mafia
mag
magazi
magazine
magda
magdale
maggie
magic
magicke
magicky
magister
magisterske
magistersky
magistra
magmy
magna
magneticka
magneticke
magneticky
magnetofo
magnitu
magnum
magnus
magura
magure
maguru
magury
magyar
mah
maha
mai
maiden
maigret
mail
main
maine
maja
majer
majesta
majetkom
majetkov
majetkove
majetkovy
majetku
majetky
majetok
maji
majitel
majitelia
majk
major
majora
majster
majsterka
majstra
majstri
majstrom
majstrov
majstrovske
majstrovsky
majstrovstiev
majstrovstva
maju
mak
make
making
makrofa
mal
mala
malacka
malacky
malajzia
malajzii
malawi
malcolm
maldiva
male
malej
mali
maliar
maliara
maliari
maliarka
maliarom
maliarov
maliarstva
maliarstvo
malic
malieb
mall
malmo
malo
maloa
malom
maloplos
malopol
malou
malta
malte
malty
malu
maly
mam
mama
mame
mami
man
mana
management
manaz
manche
manchester
manchestru
manda
mandl
mandz
mane
manfred
manga
manhattan
manhattane
mani
mania
manie
manifest
manifesta
manipula
manipulac
maniu
mann
mannheim
mans
manu
manua
manual
manuel
manuela
manufaktu
many
manz
mao
map
mapa
mape
maple
mapovaci
mapovanie
maps
mapu
mapy
mar
mara
marato
marc
marca
marcel
marcela
marcello
march
marci
marco
marcom
marcus
mare
marec
marek
marenc
margare
margaret
margita
margo
marguerite
mari
maria
marian
mariana
marie
marika
marilyn
marin
marina
marine
mariner
mario
marion
maritime
maritimes
marius
mark
marka
marke
market
marketing
marketingu
markgro
marki
marko
markovic
marku
markus
marky
marne
marok
maroko
maroku
maros
mars
marse
marseille
marshall
marsu
mart
marta
marth
marti
martin
martina
martine
martinik
martinom
martinske
marty
marvel
marx
marxizmu
marxizmus
mary
maryland
mas
masa
masaker
masaryk
masaryka
masarykova
masarykovej
masi
maska
masky
masme
mason
masove
masovy
mass
massa
massachusetts
master
mastering
masters
mastny
masy
mat
mate
matej
mateja
matel
matematici
matematicka
matematicke
matematickej
matematicko
matematicky
matematik
matematika
matematike
matematiku
matematiky
mater
materia
materializmus
materinsky
maternice
materska
materske
materskej
materskou
matersky
mathbb
mathbf
mathrm
matias
matic
matica
matice
matka
matke
matkinej
matkou
matku
matky
matovic
matrike
matrix
matt
matter
matthew
matthias
matu
maturite
maturoval
matus
mauri
maurice
mauzo
mava
mave
mavejs
mavost
mavosti
mavy
max
maxa
maxi
maxim
maxima
maximilia
maximum
maximus
may
mayenne
mayer
maz
mazani
mazanie
mazat
mazda
mazovske
mazovskom
mb
mba
mbk
mbox
mc
mca
mccartney
mcdonald
mcdonnell
mci
mckenna
mclaren
mcnaught
mcqueen
md
me
mec
mecena
mechanicka
mechanicke
mechanicky
mechanik
mechanika
mechaniky
mechanizmom
mechanizmov
mechanizmu
mechanizmus
mechanizmy
mechu
mecky
med
medaila
medaile
medaili
medailisti
medailo
medailou
medailova
medailove
medailu
medaily
medal
medene
medeny
medi
media
mediawiki
medical
medici
medicine
medita
medu
medved
medvedi
medvedica
medzera
medzery
medzi
medzic
medzil
medzilaborce
medzina
medziplaneta
medzis
medzity
medzivojnove
medzivojnovom
medzni
meeting
meetings
mega
mehmed
meho
mej
mejs
mek
mel
melbourne
melo
melodicky
membra
memoa
memorandum
memoria
memorial
memoriam
memory
men
mena
menami
mene
menej
meni
menia
menic
menie
menil
menila
menili
meniny
menit
menne
menny
meno
menom
menou
menova
menoval
menovani
menovanie
menovany
menovej
menovite
menovy
mens
ment
menta
mentu
menu
meny
mer
mera
meradle
meraju
merani
merania
meranie
merat
mercedes
mercury
mercy
mere
meri
meria
merie
merku
merlin
merna
merne
merny
merom
meru
mery
mes
mesa
mesac
mesi
mesia
mesiac
mesiaca
mesiace
mesiaci
mesiacoch
mesiacom
mesiacov
mesiacu
message
messe
messenger
messerschmitt
messi
messier
mesta
mestami
meste
mestec
mesti
mestia
mestie
mestni
mesto
mestom
mestovo
mestska
mestske
mestskej
mestsko
mestskom
mestskou
mestsku
mestsky
mestu
met
meta
metabolizmu
metabolizmus
metafyzika
metal
metallica
metalova
metalove
metalovej
metalovy
metalu
metamorfo
metasta
meteorolo
meter
meth
method
meto
metod
metoda
metodolo
metom
metra
metre
metro
metropolita
metropolitan
metropolitna
metropolitnej
metrov
metrovy
metu
mety
metz
meurthe
meuse
mexicke
mexicky
mexico
mexika
mexiko
mexiku
meyer
mez
mezi
mezo
mezopota
mf
mff
mfk
mg
mgr
mh
mhc
mhd
mhk
mhnt
mhz
mi
mia
miami
mic
michael
michaela
michaelom
michail
michajlovic
michal
michala
michalom
michalovce
michalovciach
michalt
michel
michelangelo
michelle
michigan
mick
microsoft
mid
middle
midi
midnight
mie
mien
mienka
mienkou
mienku
mienky
mier
miera
miere
mieri
mierne
miernejs
miernom
mierny
mierou
mierova
mierove
mierovej
mierovu
mierovy
mieru
miery
mies
miest
miesta
miestach
miestami
mieste
miestna
miestne
miestneho
miestnej
miestni
miestnom
miestnost
miestnosti
miestnou
miestnu
miestny
miestnych
miestnym
miestnymi
miesto
miestodrz
miestokra
miestom
miestu
mietky
mig
migov
migra
migrac
migu
miguel
migy
miha
mii
mika
mike
miklo
miklos
mikro
mikrobiolo
mikrofo
mikroorganizmov
mikula
mikus
mil
mila
milan
milana
milanom
mile
milena
miles
mili
milia
miliardami
miliardy
milio
miliona
military
millennium
miller
million
mills
milo
milos
miloslav
milost
milosti
miloval
milovni
milton
miluje
milujem
milwaukee
mily
mimo
mimochodom
mimoriadne
mimoriadnu
mimoriadny
mimou
mimovla
mimozems
min
mina
minc
minca
mince
minci
mincovn
mind
mine
minera
mineralo
ming
mini
miniatu
minima
minimum
minister
ministerka
ministersky
ministerstva
ministerstve
ministerstvo
ministerstvom
ministra
ministri
ministrom
ministrov
minivlajka
minivlajky
minnesota
minor
minsk
minu
minule
minulej
minulost
minulosti
minuly
minuskula
mioce
miou
mir
mira
mirage
miriam
miro
miroslav
miroslava
mirror
mis
misa
misia
misie
misii
misiona
misiu
miss
mission
mississippi
missouri
mistri
mit
mitchell
mito
mitochondria
mitsubishi
miu
mix
mixa
mixed
mixovanie
mixtape
mjr
mk
mka
mkach
mkami
mkch
mke
mkoch
mkol
mkou
mkov
mkp
mku
mky
ml
mla
mlada
mlade
mladej
mladi
mladom
mladost
mladosti
mlads
mladu
mlady
mlc
mld
mliec
mlieka
mlieko
mlok
mly
mlyn
mlyna
mlyny
mm
mma
mn
mna
mne
mneho
mnej
mni
mno
mnohe
mnohi
mnoho
mnohokra
mnohona
mnohy
mnou
mnoz
mnv
mny
mnych
mo
mobile
mobilia
mobiliza
mobilne
mobilny
moc
mocenske
mocensky
moch
moci
mocky
mocne
mocnost
mocnosti
mocny
mocou
mod
mode
model
modeli
modelka
modelky
modeloch
modelom
modelov
modelovanie
modelu
modely
modera
modern
moderna
moderne
modernej
modernejs
moderni
moderniza
modernizovane
modernizovany
modernom
modernou
modernu
moderny
modifika
modifikovany
modlitba
modlitby
modra
modre
modrej
modro
modrom
modrou
modru
modry
modul
modula
module
modulov
modulu
moduly
modus
moha
mohamed
mohanom
mohla
mohli
mohlo
mohol
mohutna
mohutne
mohutny
moi
moj
moja
moje
mojej
moji
mojich
mojmi
mojom
moju
mojz
mok
mokrad
mokrade
mokradi
mol
moldavska
moldavsko
moldavsku
molecular
moleku
molekula
molekule
molekuly
molie
moll
molna
mom
moment
momenta
momente
momentu
mon
mona
monako
monarchia
monarchie
monarchii
monarchiu
monastier
monastiera
monastieri
monde
money
mongoli
mongolska
mongolske
mongolsko
mongolsku
mongolsky
moni
monica
monika
monitor
monitoring
monitorovanie
mono
monografia
monografie
monografii
monov
monroe
mons
monster
mont
monta
montana
monte
montevideo
montgomery
montpellier
montreal
montreale
monument
monumenta
moon
moore
mor
mora
morava
moravc
moravce
morave
moravec
moravou
moravska
moravske
moravskej
moravsko
moravskosliezskom
moravsky
moravu
moravy
morbihan
more
moreplavec
morfe
morfolo
morfologicky
morgan
mori
moria
morna
morne
mornej
morni
morning
mornu
morny
morom
morris
morrison
morska
morske
morskej
morskom
morsky
moru
morus
mos
moselle
moskovska
moskovske
moskovskej
moskovsky
moskva
moskve
moskvu
moskvy
moslimov
moslimovia
moslimske
moslimsky
most
mosta
moste
mosti
mostom
mostov
mostu
mosty
mother
moti
motion
motiva
moto
motor
motora
motoriza
motormi
motoroch
motorom
motorov
motorove
motorovy
motors
motoru
motory
motto
moty
mou
mount
mountain
mountains
mov
mova
move
movej
movement
movi
movia
movie
movu
movy
moz
mozaika
mozaiky
mozart
moze
mozgove
mozgovej
mozgovy
mozgu
mozilla
mozno
mozog
mp
mpa
mpc
mpeg
mr
mra
mrac
mrak
mrakodrap
mrakodrapy
mraku
mramor
mramorovy
mramoru
mravc
mravne
mre
mrez
mriez
mrna
mrs
mrti
mrtia
mrtie
mrtnost
ms
msami
mshk
msi
mska
mske
mskeho
mskej
mskemu
mski
msko
mskokatoli
mskom
mskou
msku
msky
mskych
mskym
msou
mt
mto
mtv
mu
muc
much
mucha
mudr
muhammad
mukac
multi
multifunkc
multimedia
multis
muni
munt
mura
murder
murgas
muri
muriva
murovana
murovany
murphy
murray
mus
muse
musel
musela
museli
muselo
museo
museum
musi
musia
music
musica
musical
musicum
musiet
must
mustafa
mustang
muta
muz
muzea
muzeum
muzika
muzikolo
mv
mw
mx
my
mych
myjava
myjavy
myke
mylne
mym
mymi
myokardu
mys
myse
mysel
myselne
mysle
myslel
mysleli
myslene
mysleni
myslenia
myslenie
mysli
myslia
mysliet
myslim
myslitel
myslom
myspace
myste
mystery
mysu
mytolo
mytologicky
mz
mzda
mzdy
n
na
naba
nabi
nabity
nabla
nac
nach
nacha
nachi
naciona
nacional
nacionalizmu
nacionalizmus
nacistami
nacisti
nacisticke
nacistickej
nacisticky
nacistov
nacizmu
nad
nada
nadal
nadanie
nadany
nadbytoc
nadc
nadcha
nadmerne
nadmorska
nadmorskej
nadmorskou
nadmorsku
nadmorsky
nadna
nadobu
nadobudla
nadobudol
nadol
nadpis
nadpolovic
nadporuc
nadriadeny
nads
nadstavbova
nadstavbove
nadstavbovej
nadva
nadviazal
nadviazala
nadviazali
nadviazat
nadvla
nadz
nagy
naha
nahla
nahor
nahra
nahradena
nahradene
nahradenie
nahradeny
nahradi
nahradil
nahradila
nahradili
nahradilo
nahradit
nahral
nahrala
nahrali
nahrana
nahrane
nahrany
nahrat
nahrate
nahraty
nai
nains
naivne
naj
naja
najakti
najavo
najbez
najbliz
najbohats
najc
najcennejs
najdlhs
najdo
najdrahs
najhlbs
najhodnotnejs
najhors
najjasnejs
najjednoduchs
najjuz
najkrajs
najkrats
najkvalitnejs
najl
najleps
najma
najmenej
najmens
najmlads
najmocnejs
najmodernejs
najnavs
najnesko
najniz
najnovs
najobl
najpoc
najpopula
najpouz
najpravdepodobnejs
najpreda
najpresti
najprodukti
najprv
najro
najrozs
najrozsiahlejs
najry
najs
najsevernejs
najsilnejs
najsko
najsla
najslabs
najstars
najsva
najt
naju
najuz
najva
najvhodnejs
najviac
najvplyvnejs
najvy
najvys
najvza
najvzdialenejs
najza
najzauji
najzna
nakladatel
nakladatelstvi
nakol
nakoniec
nakra
nakru
naku
nal
nala
nali
nalo
naloz
nam
nama
namal
name
names
nami
namiesto
nan
nana
nanajvy
nancy
nane
nanebovstu
nanebovzatia
nanej
nani
nania
nanie
nanovo
nantes
nanu
nany
naopak
naozaj
napa
napadli
napadlo
napadnu
napadnuti
napadnuty
napadol
napi
napl
napla
naplno
napodobn
napojene
napojenie
napokon
napoleon
napoleona
napoleonsky
napoma
naposledy
napr
napravo
napri
napriec
napriek
naproti
nar
nara
narasta
narastaju
naraz
narazil
narazili
nariadeni
nariadenia
nariadenie
nariadil
narodeni
narodenia
narodenie
narodeniny
narodeny
narodil
narodila
narodili
narodilo
narozeni
naru
narus
nary
nas
nasa
nasadena
nasadene
nasadeni
nasadenia
nasadenie
nasadeny
nash
nashville
nasl
nasledoval
nasledovala
nasledovali
nasledovalo
nasledovat
nasledovne
nasledovni
nasledovny
nasleduje
nasleduju
naspa
naspieval
naspievala
nast
nasta
nastal
nastala
nastali
nastalo
nastane
nastat
nastaveni
nastavenia
nastavenie
nastavit
nastavitel
nastu
nastupoval
nastupuje
nastupuju
nasvedc
nasy
nat
nata
natalie
nate
nateraz
nathan
nati
nation
national
nationale
nations
nato
natoc
natol
natrvalo
natura
natural
nature
naty
nauc
nava
naval
naviac
naviga
navigac
navonok
navra
navrhla
navrhli
navrhnu
navrhnuta
navrhnute
navrhnuty
navrhol
navrhoval
navrhovane
navrhovany
navrhovatel
navrhuje
navrhujem
navs
navy
navys
navz
navza
navzdory
naz
naznac
nazor
nazory
nazval
nazvali
nazvana
nazvane
nazvanej
nazvanu
nazvany
nazvat
nazy
nb
nba
nbc
nbs
nc
nchen
nchez
nci
ncov
nd
nde
ndez
ndhi
ndor
ndr
ne
nea
neakti
neanderta
neanderthalensis
neapol
neapole
near
neat
neba
nebeska
nebeske
nebeskej
nebesky
nebezpec
nebi
nebies
nebo
nebol
nebola
neboli
nebolo
nebom
nebra
nebraska
nebude
nebudem
nebudu
neby
nec
necele
necely
nech
necha
nechal
nechala
nechali
nechat
nechce
nechcel
nechceli
nechcem
nechy
neci
ned
neda
nedaju
nedal
nedarilo
nedel
nedele
nedo
nedoc
nedocha
nedodrz
nedoka
nedokonc
nedos
nedosiahol
nedostal
nedostala
nedostali
nedostatkom
nedostatku
nedostatky
nedostatoc
nedostatok
nedovol
nedoz
nedve
nedz
need
neefekti
neexistoval
neexistovala
neexistuje
neexistuju
neforma
nefunguje
nefunkc
negati
nehnutel
neho
nehoda
nehode
nehody
nehovori
nehovoriac
nehral
nehralo
neil
neisty
nej
nejak
nejaka
nejake
nejakej
nejako
nejakom
nejakou
nejaku
nejaky
nejasne
nejasny
nejde
nejleps
nejs
nek
neka
nekonec
nekta
nekvalifikovalo
nel
nelega
neli
nelliette
nelson
nem
nema
nemaju
nemal
nemala
nemali
nemalo
nemanz
nemc
nemcami
nemci
nemcom
nemcov
neme
nemec
nemecka
nemecke
nemeckej
nemecki
nemecko
nemeckom
nemeckou
nemecku
nemecky
nemeni
nemo
nemocni
nemocnic
nemocnica
nemocnice
nemocnici
nemocnicu
nemohla
nemohli
nemohlo
nemohol
nemoz
nems
nemu
nemusel
nemuseli
nemusi
nemusia
nemy
nemysli
nen
nena
nenacha
nenapi
nenas
nenastu
nene
nenej
neni
nenia
nenie
neniu
neny
neo
neobmedzene
neobsahuje
neobsahuju
neobvykle
neobvykly
neoby
neobyc
neoc
neoddelitel
neoficia
neoge
neogoticka
neogoticky
neoklasicisticka
neolitu
neopra
neoroma
neovla
neoznac
nepa
nepama
nepatri
nepatria
nepatrne
nepi
nepla
neplati
neplatne
nepo
nepoc
nepochybne
nepodarilo
nepokoje
nepokojov
nepomucke
nepomuk
neporus
nepos
neposlednom
nepostu
nepotrebuje
nepouz
nepovaz
nepovinny
nepozna
nepr
nepra
nepravidelne
nepravidelny
neprehl
neprerus
nepres
nepresne
nepretrz
neprez
nepri
nepriame
nepriamo
nepriatel
nepriatelia
nepriaznive
nepriaznivy
neprihla
neprijatel
nepris
neptu
ner
nera
nerastne
nerastny
neraz
neres
neri
neries
nero
nerobi
nerom
nerov
nerovnosti
nerozumiem
nerus
nervove
nervovy
nervy
nes
neschopnost
neschopnosti
nesie
nesko
neskonc
neskore
neskorej
neskoro
neskorobarokova
neskorogoticky
neskors
neskory
nesku
nesmie
nesmierne
nesmrtel
nesmu
nespl
nespo
nespoc
nespokojnost
nespokojny
nespol
nespomi
nespra
nesta
nestac
nestal
nestalo
nestor
nesu
net
netball
netopier
netradic
netreba
netus
network
nety
neu
neudrz
neue
neumann
neumoz
neurc
neuro
neurobil
neurolo
neuskutoc
neuspel
neusta
neutra
neutral
neutri
neutro
neuva
neuveritel
neuzna
neva
nevada
nevadi
neve
nevedel
nevedeli
nevedia
nevedie
nevel
never
nevesta
nevhodne
nevhodny
nevi
nevidel
nevidi
neviditel
nevie
neviem
nevieme
nevinny
nevla
nevlastne
nevlastny
nevo
nevol
nevra
nevs
nevy
nevydrz
nevyhnutna
nevyhnutne
nevyhnutny
nevyhovuju
nevyluc
nevyries
nevys
nevyskytuje
nevyskytuju
nevytva
nevyuz
nevyz
nevzt
new
newcastle
news
newton
newyorskej
next
neymar
nez
neza
nezac
nezachovali
nezadany
nezahr
nezamestnanost
nezamestnanosti
nezamestnany
nezaradeny
nezauji
nezhoda
nezhody
nezi
neziskova
nezluc
nezmysel
nezna
neznamena
nezriedka
nezu
nezvestny
nezvla
nezvyc
nf
ng
ngc
nh
nhl
ni
nia
nic
nica
nice
nich
nicholas
nici
niciach
nick
nicka
nicke
nickelback
nicky
nico
nicola
nicolas
nicole
nicou
nicu
nie
niec
nieco
niekdajs
niekde
niekedy
niekoho
niekol
niekomu
niekto
niektore
niektorej
niektori
niektory
nielen
nielenz
niesla
niesli
nieslo
niesol
niest
niet
nievaju
nige
niger
night
nightwish
nigra
niho
nii
nijak
nijake
nijako
nijaky
nik
nika
nikaragua
nikde
nikdy
nike
nikoho
nikola
nikolaj
nikolajevic
nikom
nikomu
nikon
nikoti
nikov
nikova
nikove
nikovy
nikto
niku
niky
nil
nila
nili
nilo
nim
nimi
nimiek
nimka
nimkou
nimku
nimky
nimoc
nin
nina
nine
ning
ningove
ningu
nintendo
niny
nio
niou
nirvana
nis
nisou
nissan
nit
nite
nitra
nitre
nitrianska
nitrianske
nitrianskeho
nitrianskej
nitrianskom
nitriansky
nitry
niu
nium
nius
niva
nive
nivy
nix
niz
njan
nk
nka
nkach
nkami
nke
nkoch
nkom
nkonoz
nkou
nkov
nkova
nkove
nkovy
nkp
nku
nkvd
nky
nl
nm
nmi
nn
nna
nne
nneho
nnej
nnom
nnou
nnu
nny
nnych
nnym
nnymi
no
nobel
nobelova
nobelovej
nobelovu
nobelovy
nobelprize
noc
noch
noci
noe
noel
noga
noha
nohami
nohe
nohospoda
nohou
nohu
nohy
noise
nok
nokia
nom
noma
nomenklatu
nomina
nominati
nominoval
nominovana
nominovany
non
nonicke
nopol
nopola
nopole
nopolsky
nopolu
nor
nora
norbert
nord
noriem
norimberg
norimbergu
norma
normaliza
norman
normandia
normandie
normandii
normati
normovany
normy
norris
north
northern
norway
nos
nosa
nose
nosi
nosia
nosic
nosil
nosili
nosit
nositel
nositele
nositelia
nosna
nosne
nosnej
nosni
nosnost
nosnou
nosny
nosom
nosoroz
nosov
nost
nosti
nostiach
nostiam
nostna
nostne
nostnej
nostny
nosu
nosy
not
nota
note
notes
nothing
notoc
notre
nou
nov
nova
noval
novala
novali
novalo
novana
novane
novanej
novani
novania
novanie
novany
novat
novce
novcov
nove
novej
novela
novelizovane
novely
november
novembra
novembri
novgorod
novho
novi
noviel
novina
noviniek
novinkou
novinky
noviny
novite
novo
novodobe
novodoby
novohradskej
novom
novotny
novou
novovek
novoveku
novovzniknute
novoza
novozaloz
novoze
novs
novska
novske
novskej
novsky
novu
novy
now
nowy
noz
np
npp
npr
nr
nre
nri
nrov
nrsr
nru
ns
nsdap
nska
nske
nskeho
nskej
nskemu
nski
nsko
nskom
nskou
nsku
nsky
nskych
nskym
nskymi
nsr
nstvo
nt
ntgenove
nther
nu
nuclear
nuje
nuju
nuklea
nukleotidov
nula
nulova
nulovy
number
nus
nutna
nutne
nutnost
nutnosti
nutny
nuz
nv
nvidia
ny
nya
nych
nyho
nyi
nyiova
nyj
nym
nymburk
nymi
nz
o
oa
oak
oasis
ob
oba
obaja
obal
obale
obalu
obava
obavy
obc
obcami
obce
obcha
obchod
obchode
obchodna
obchodne
obchodnej
obchodni
obchodnom
obchodnu
obchodny
obchodov
obchodovanie
obchodu
obchody
obchvat
obci
obciach
obcou
obdivovatel
obdl
obdoba
obdobi
obdobia
obdobiach
obdobie
obdobiu
obdobne
obdobny
obdrz
obe
obec
obecna
obecne
obecnej
obecnom
obecnu
obecny
obeh
obehu
obet
obete
obeti
obetiam
obez
obha
obhajca
obhajcom
obhajcu
obhajoba
obhajoby
obhajoval
obi
obidva
obidvaja
obidve
obidvoch
obieha
obiehaju
obilia
obilie
obis
objasn
objav
objave
objavena
objavene
objaveni
objavenie
objaveny
objavi
objavia
objavil
objavila
objavili
objavilo
objavit
objavitel
objavitelia
objavom
objavov
objavovali
objavovat
objavu
objavuje
objavuju
objavy
object
objedna
objekt
objekte
objekti
objektoch
objektom
objektov
objektu
objekty
objem
objeme
objemom
objemu
obji
obkl
obklopena
obklopene
obklopeny
obklopuje
obklopuju
obl
oblac
oblak
oblakov
oblaku
oblaky
oblast
oblasti
oblastiach
oblastne
oblec
oblic
obliehani
obliehania
obliehanie
oblohe
oblohu
oblohy
obloz
oblu
obmedzena
obmedzene
obmedzeni
obmedzenia
obmedzenie
obmedzeny
obmedzit
obmedzuje
obmedzuju
obmy
obna
obne
obnej
obni
obnova
obnove
obnovena
obnovene
obnoveni
obnovenie
obnoveny
obnovil
obnovila
obnovili
obnovit
obnovitel
obnovou
obnovu
obnovy
obny
oboch
obojz
obom
oboma
obor
obore
obozna
obr
obra
obracia
obrad
obradu
obrady
obrana
obranca
obrancov
obrancovia
obrancu
obrane
obranne
obranny
obranu
obrany
obrat
obraz
obraze
obrazmi
obrazoch
obrazom
obrazov
obrazove
obrazovka
obrazovke
obrazovky
obrazovy
obrazu
obrazy
obrnene
obrneny
obrodenia
obrovska
obrovske
obrovskej
obrovsku
obrovsky
obru
obry
obs
obsadena
obsadene
obsadeni
obsadenie
obsadeny
obsadil
obsadila
obsadili
obsadilo
obsadit
obsah
obsahom
obsahoval
obsahovala
obsahovali
obsahovalo
obsahovat
obsahovo
obsahu
obsahuje
obsahuju
observato
observatory
obsiahnute
obsiahnuty
obstara
obt
obteka
obuv
obuvi
obuvni
obvin
obvineni
obvinenia
obvinenie
obvineny
obvinil
obvinili
obvod
obvode
obvodom
obvodov
obvodove
obvodu
obvody
obvykle
obvykly
oby
obyc
obydlia
obytne
obytny
obyv
obyvatel
obyvatelia
obz
obzor
obzvla
oc
ocea
ocean
ocel
ocele
ocen
ocenena
ocenene
oceneni
ocenenia
ocenenie
oceneny
ocenil
och
ochorel
ochoreni
ochorenia
ochorenie
ochotne
ochotni
ochotny
ochra
ochran
ochrana
ochranca
ochrane
ochranne
ochranny
ochranou
ochranu
ochrany
ocitla
ocitli
ocitol
october
od
oda
odas
odber
odberatel
odboc
odboj
odboja
odbor
odbore
odborna
odborne
odbornej
odborni
odbornu
odborny
odboroch
odborov
odboru
odbory
odc
odcestoval
odcha
odchod
odchode
odchodom
odchodu
odchy
odchytal
odd
oddel
oddelena
oddelene
oddeleni
oddelenia
oddelenie
oddeleny
oddelil
oddelila
oddelili
oddelit
oddiel
oddielov
oddielu
oddiely
oddych
odeon
odev
odevu
odhad
odhadnu
odhadov
odhadovany
odhaduje
odhady
odhal
odhalena
odhalene
odhalenie
odhaleny
odhalil
odhalili
odhalit
odhla
odi
odis
odka
odkaz
odkazom
odkazov
odkazu
odkazuje
odkazuju
odkazy
odkedy
odkial
odklon
odkryte
odku
odl
odlesneny
odli
odlis
odloz
odlu
odmena
odmenu
odmeny
odmieta
odmietaju
odmietal
odmietali
odmietla
odmietli
odmietlo
odmietnutie
odmietol
odn
odniesol
odnoz
odo
odohra
odohraju
odohral
odohrala
odohrali
odohralo
odohrany
odola
odolne
odolnost
odolnosti
odolny
odovzda
odovzdal
odovzdali
odovzdana
odovzdane
odovzdany
odovzdat
odozvu
odpa
odpad
odpadov
odpadovy
odpadu
odpal
odpla
odpoc
odpor
odporcom
odporcov
odporcovia
odporom
odporu
odporuc
odpoved
odpoveda
odpovedaju
odpovedal
odpovedat
odpovede
odpovedi
odpruz
odpu
odpustenie
odra
odraz
odrazom
odrazu
odroda
odrody
ods
odsek
odseku
odsko
odst
odstra
odstran
odstu
odstupom
odsu
odteka
odtial
odtien
odtlac
odva
odvahu
odvetu
odvetvi
odvetvia
odvetviach
odvetvie
odvi
odvodena
odvodene
odvodeny
odvodit
odvodn
odvodzuje
odvola
odvolal
odvolani
odvolanie
odvolany
odvolat
odvra
odvtedy
odysea
odyssey
odznak
oecd
of
ofe
ofenzi
off
office
official
ofia
oficia
og
oh
ohen
ohio
ohl
ohla
ohlas
ohlasy
ohn
ohni
oho
ohova
ohr
ohranic
ohrozena
ohrozene
ohrozeni
ohrozenia
ohrozenie
ohrozeny
ohrozit
ohrozuju
ohy
oi
oil
oilers
ois
oise
oizumi
oj
ojedinele
ojedinely
ojj
ok
oka
okamih
okamihu
okamz
okien
oklahoma
okna
oknami
okno
oknom
oko
okol
okola
okoli
okolia
okolic
okolie
okolite
okolitej
okolity
okolnosti
okolo
okom
okr
okraj
okraja
okraje
okraji
okrajoch
okrajom
okrajove
okrajovo
okrajovy
okrem
okres
okrese
okresne
okresny
okresoch
okresom
okresov
okresu
okresy
okri
okrsku
okrsok
okru
okruh
okruhov
okruhu
okruhy
okruz
oks
okta
okto
oku
okupa
okupac
okupovane
okupovany
okyslic
ol
ola
olaf
old
oldr
ole
oleg
olej
oleja
oleje
oleracea
oles
olga
oli
oliver
olivia
olivier
olivovy
olomansky
olomouc
olomouca
olomouci
olomoucke
olomouckom
olomoucky
olova
ols
olta
olte
olty
olympia
olympic
olympii
olympijska
olympijske
olympijskej
olympijski
olympijskom
olympijsky
olympionici
olympique
om
oma
omar
omberka
omberku
omberok
omega
omet
ometov
omety
omnoho
omod
oms
omu
omyl
omylom
on
ona
once
ondr
ondra
ondrej
ondreja
ondrejk
ondrus
one
onedlho
ong
oni
online
only
ono
onta
ontario
onv
ony
op
opa
opac
opak
opakom
opakovane
opakovanie
opakovany
opakovat
opakuje
opakujem
opakuju
opatreni
opatrenia
opatrenie
opatrne
opava
ope
opel
open
opengl
opera
operac
operati
operatorname
opere
opereta
operetny
operety
operna
operne
operni
operny
operu
opery
opevnene
opevneni
opevnenia
opevnenie
opevneny
ophrys
opi
opice
opier
opiera
opieraju
opis
opisu
opisuje
opisuju
opla
oporny
opozi
opozic
opportunity
opra
oprava
oprave
opravene
opraveny
opravil
opravit
opravu
opravy
oproti
opticka
opticke
opticky
optika
optima
optimaliza
optimus
opu
opus
opustene
opusteni
opusteny
opusti
opustil
opustila
opustili
opustit
opy
or
ora
oracle
orange
oranz
orato
orava
orave
oravec
oravska
oravske
oravskej
oravsku
oravsky
oravy
oraz
orbis
orbita
orbiter
orchester
orchestra
orchestrom
order
ordina
ordo
oregon
ores
org
orga
organ
organicka
organicke
organickej
organicky
organista
organiza
organizac
organization
organizme
organizmov
organizmu
organizmus
organizmy
organizoval
organizovala
organizovali
organizovalo
organizovana
organizovane
organizovanej
organizovani
organizovanie
organizovany
organizovat
organizuje
organizuju
orienta
orientac
oriental
orientale
orientales
orientation
orientovana
orientovane
orientovany
orientuje
ories
orig
origin
origina
original
orio
orion
orla
orlando
orle
orlea
orleans
orli
orlici
ornamenta
orne
orol
orsza
ortodoxna
ortodoxne
ortodoxny
ortut
os
osa
osada
osade
osadena
osadene
osadeny
osadni
osadou
osadu
osady
osaka
osbourne
oscar
oscara
oscila
osebe
osem
osemdesiatych
osemfina
osemna
osemroc
osi
oskar
oskoro
osla
oslabenie
oslava
oslavu
oslavuje
oslavuju
oslavy
oslo
oslobodene
oslobodeni
oslobodenia
oslobodenie
oslobodeny
oslobodil
oslobodili
oslobodit
osloboditel
osmanska
osmanske
osmanskej
osmanskou
osmansky
osn
oso
osoba
osobami
osobe
osobitne
osobitnu
osobitny
osobity
osobna
osobne
osobnej
osobni
osobnom
osobnost
osobnosti
osobnostiach
osobnostiam
osobnu
osobny
osobou
osobu
osoby
osou
ospravedln
ost
osta
ostal
ostala
ostali
ostalo
ostane
ostat
ostatky
ostatne
ostatni
ostatny
ostra
ostrava
ostrave
ostravy
ostre
ostrel
ostrica
ostrihomske
ostrihomskej
ostrihomsky
ostro
ostrogo
ostrov
ostrova
ostrovc
ostrove
ostrovi
ostrovia
ostrovie
ostrovmi
ostrovne
ostrovoch
ostrovom
ostrovov
ostrovy
ostry
osud
osude
osudu
osudy
osvedc
osveta
osvetl
osvetlenia
osvetlenie
osvetove
osvetovy
osvety
osvienc
osvietenstva
oswald
osy
ot
ota
otakar
otakara
otc
otca
otcom
otcov
otcovej
otcovi
otcovia
otec
otecko
otepl
other
otm
oto
otoc
otra
otravy
otroci
otroctva
otroka
otrokov
otta
ottawa
otto
ottu
otva
otvare
otvor
otvorena
otvorene
otvorenej
otvoreni
otvorenia
otvorenie
otvorenom
otvorenou
otvorenu
otvoreny
otvori
otvoril
otvorila
otvorili
otvorit
otvormi
otvorom
otvorov
otvoru
otvory
ou
ouest
our
out
ov
ova
ovac
ovacej
ovaci
ovacia
ovacie
ovacieho
ovaciu
oval
ovala
ovali
ovalo
ovana
ovane
ovanej
ovani
ovania
ovanie
ovaniu
ovanu
ovany
ovat
ovatel
ovatka
ovatke
ovatkou
ovatky
ovc
ovca
ovce
ovci
ovciach
ovcov
ove
ovec
ovej
ovel
over
overenie
overit
overitel
ovho
ovi
ovia
ovic
ovice
oviec
oviek
oviny
ovita
ovite
ovity
ovka
ovky
ovla
ovn
ovna
ovne
ovnej
ovni
ovnou
ovnu
ovny
ovo
ovocia
ovocie
ovocina
ovocny
ovodi
ovohol
ovom
ovou
ovplyvn
ovplyvnena
ovplyvnene
ovplyvneny
ovplyvnil
ovplyvnila
ovplyvnili
ovplyvnilo
ovplyvnit
ovska
ovske
ovskej
ovskom
ovskou
ovsku
ovsky
ovstiev
ovstva
ovstve
ovstvo
ovstvom
ovstvu
ovu
ovy
ovzdus
owen
own
oxford
oxforde
oxid
oxida
oxidac
oxidu
oxidy
oz
ozbrojene
ozbrojeny
ozdobny
ozna
oznac
ozo
ozvuc
ozy
p
pa
pablo
pac
pach
paci
pacient
pacienta
pacienti
pacientov
pacific
pacifiku
pad
pada
padaju
pade
padku
padla
padli
padlo
padly
padna
padne
padnej
padnejs
padni
padnom
padnou
padnu
padny
padoch
padoeuro
padok
padol
padom
padopomoranskom
padori
padov
padu
pady
paeddr
page
pages
pahorkatina
pahorkatine
pahorkatiny
pahorku
pain
paju
pak
pakistan
pakistane
pakistanu
pakt
pal
pala
palace
palacke
palais
palati
palazzo
palca
palcov
pale
paleoge
paleolitu
paleontolo
palesti
pali
palic
palica
palisa
palisko
paliva
palivo
palivom
palivove
palivovy
palkovic
pallas
palm
palma
palmer
palo
palomar
palove
palu
paluba
palube
palubne
palubny
palubu
paluby
pama
pamiatka
pamiatke
pamiatkou
pamiatkove
pamiatkovej
pamiatkovy
pamiatku
pamiatky
pamiatok
pan
pana
panama
panamericke
panamerickej
panamericky
panc
pancier
pancierovanie
panda
pande
pane
panel
panela
panelov
panely
paneuro
pani
pania
panic
panie
paniel
panielc
panieli
panielov
panielska
panielske
panielskeho
panielskej
panielski
panielsko
panielskom
panielsku
panielsky
panielskych
panielskym
pankratiu
pankreasu
panna
panne
panny
pano
panora
panorama
panoramio
panov
panovania
panovni
panstva
panstvo
panstvu
panteo
panthera
panthers
panton
panva
panvy
pany
paolo
papa
papaga
paper
papers
papier
papiera
papieri
papierov
papierovy
paprad
papua
par
para
paradise
paradox
paradoxne
paraguaj
paraguaja
paralelne
paralelny
paralympijske
paralympijsky
parameter
parametra
parametrami
parametre
parametrov
parana
paras
parc
parcia
pardubice
pardubickom
pari
paris
park
parker
parkom
parkov
parkovanie
parkovisko
parku
parky
parlament
parlamente
parlamentne
parlamentny
parlamentom
parlamentu
parma
parnassius
parne
parni
parny
paro
parovic
pars
parsons
part
partia
partial
partie
partii
partiza
partner
partnera
partneri
partnermi
partnerom
partnerov
partnerske
partnerstva
partnerstvo
party
pary
pas
pasa
pasaz
pascal
pasce
pase
paseni
pasenie
pasi
pasienky
pasni
pasoch
pasom
pasov
past
pastier
pastieri
pastofo
pastora
pastorac
pasu
pasy
pat
pata
patejdl
patent
patoge
patolo
patri
patria
patriaca
patriace
patriaci
patriacich
patriarcha
patriarchom
patriarchu
patric
patricia
patrick
patrik
patril
patrila
patrili
patrilo
patrit
patro
patroci
patrona
paul
paula
pauli
paulo
paulom
paulus
pausania
pausanias
pavel
pavilo
pavla
pavli
pavlom
pavlovi
pavlovic
pavol
pavost
pavu
pays
paz
pazardz
pazu
pb
pc
pchin
pci
pd
pdf
pe
peace
peak
pearl
pec
pece
pechota
pechoty
peci
pecia
pecialista
pecializa
pecializovane
pecializovany
pecializuje
peciar
pecificka
pecificke
pecifickej
pecificku
pecificky
pecifika
pecifikovana
pecifikovane
pecifikovany
peda
pedago
pedagogic
pedagogicka
pedagogicke
pedagogickej
pedagogicku
pedagogicky
pedagogika
pedagogiky
pedro
pegas
pej
peka
peking
pekingu
pekla
peklo
pekne
pekny
peko
pekt
pektor
pektora
pektovat
pekula
pel
pele
pelex
pelhr
pelika
pellegrini
pelopone
pem
pen
pena
penate
penaty
penca
pencami
pence
penci
pencom
pencov
pencove
pencovy
pendulum
pene
penec
penguins
peni
penia
peniach
peniaze
penie
pennsylvania
penny
pensylva
pentium
peny
penzio
people
pepo
pepper
peppers
per
pera
percent
percenta
percento
percentua
pere
perfect
perfektne
perfektny
performance
peri
perie
perife
perio
period
periodi
periodicka
periodicke
periodickej
periodicky
periodika
periodikum
perkov
perkusie
perky
permanentne
permission
pero
perom
perov
perry
person
persona
personal
perspekti
peru
perua
perut
perz
perzeku
perzeus
perzie
perzska
perzske
perzskej
perzskom
perzsky
pes
pescan
pesnic
pestovani
pestovanie
pestovat
pestre
pestry
pestuje
pestuju
pet
pete
peter
peteraj
peters
peti
petit
peto
petr
petra
petri
petrohrad
petrohrade
petrohradu
petrom
petrov
petrovi
petrovic
petrus
petrz
peugeot
pevna
pevne
pevnej
pevnine
pevniny
pevnost
pevnosti
pevnu
pevny
pez
pezinku
pezinok
pf
pg
pgc
ph
phantom
phase
phd
phdr
phi
phil
philadelphia
philadelphii
philip
philipp
philippe
phillips
philosophie
philosophy
phoebe
phoenix
photo
php
phylogeny
physical
physics
pi
pia
piano
piata
piate
piateho
piatej
piatich
piatimi
piatok
piatom
piatu
piaty
piatym
piazza
pic
picasso
piccadilly
pick
picture
pictures
pie
pieniny
pier
pierre
pies
piesc
piesen
pieskovce
piesku
piesky
piesn
piesne
piesni
piesoc
piesok
piestove
piestovy
pietro
pii
pikardia
pil
pila
pilastrami
pili
pilier
piliere
piliermi
pilierov
pilo
pilot
pilota
piloti
pilotny
pilotom
pilotov
pilotovane
pilotovany
pin
ping
pink
pinus
pio
piona
pioneer
piotr
piper
pira
pirac
piroval
pirovala
pirovali
pirovana
pirovane
pirovany
pirovat
pis
pisa
pise
pisky
pisom
pisov
pistols
pisu
pisy
pit
pita
pitnej
pittsburgh
pittsburghu
piu
pius
piva
pivo
pivovar
pixel
pixelov
piz
pk
pka
pky
pl
pla
plac
place
plachta
plachty
plaga
plamen
plan
plana
plane
planet
planeta
planina
planine
planiny
plant
planta
plants
plastic
plasticky
plastika
plastiky
plastovy
plat
plata
platby
plate
plateny
platforma
platforme
platformu
platformy
plati
platia
platil
platili
platilo
platinovy
platit
platn
platne
platni
platnic
platnost
platnosti
platny
plato
platu
platy
plava
plavba
plavbe
plavbu
plavby
plavci
plavec
plavecke
plaveckej
plavecky
plavidiel
plavidla
plavy
play
player
players
playstation
plaza
plazmy
plazov
plazy
ple
please
pleistoce
pleja
plemena
plemeno
plemien
ples
plesa
plese
pleso
pleti
pli
plies
plk
pln
plna
plne
plnej
plneni
plnenie
plni
plnia
plnil
plnit
plnohodnotny
plnom
plnou
plnu
plny
plo
plocha
plochami
ploche
plochostropy
plochou
plochu
plochy
plod
plodi
plodiny
plodnosti
plodov
plodu
plody
plos
plot
plotarea
plotdata
plovdiv
pluk
plukovni
pluku
plus
pluta
pluto
plyn
plynne
plynny
plynom
plynov
plynove
plynovy
plynu
plynule
plyny
plytke
plytky
plzen
plzenskom
plzni
pm
pmi
pn
pneumati
pneumatiky
pneumo
png
pnika
po
poboc
pobrez
pobu
pobyt
pobyte
pobytu
poc
poch
pocha
pochod
pochodu
pochopenie
pochopil
pochopit
pochopitel
pochova
pochovali
pochovana
pochovane
pochovani
pochovany
pochva
pochybnosti
poci
pocit
pocitu
pocity
pocta
poctu
pocty
pod
poda
podal
podala
podali
podani
podania
podanie
podari
podaril
podarilo
podat
podbrezova
podc
podcelkom
podcelku
podcelky
podcelok
poddani
poddansky
poddany
poddruh
poddruhy
pode
podhorie
podhradi
podhradie
podiel
podielom
podielu
podkarpatske
podkarpatskej
podkarpatskom
podkatego
podklad
podklade
podkladom
podkmen
podl
podla
podlaha
podlahy
podlaz
podle
podlieha
podliehaju
podloz
podmien
podmienec
podmienene
podmienka
podmienkach
podmienkam
podmienkami
podmienkou
podmienku
podmienky
podmienok
podmnoz
podmorsky
podnebi
podnebia
podnebie
podnet
podnetom
podnety
podnik
podnikania
podnikanie
podnikat
podnikatel
podnikatelia
podnikli
podnikoch
podnikol
podnikom
podnikov
podnikovy
podniku
podniky
podoba
podobaju
podobe
podobna
podobne
podobnej
podobnom
podobnost
podobnosti
podobnou
podobnu
podobny
podobu
podoby
podoli
podolie
podozrenia
podozrenie
podozrivy
podpa
podpi
podpis
podpisom
podpisov
podpisu
podplukovni
podpora
podpore
podporil
podporila
podporili
podporilo
podporit
podporne
podporny
podporou
podporoval
podporovala
podporovali
podporovane
podporovany
podporovat
podporovatel
podporu
podporuje
podporuju
podpory
podpredseda
podpredsedni
podpredsedom
podpredsedu
podra
podrad
podriadene
podriadeny
podrobil
podrobne
podrobnejs
podrobnosti
podrobny
podrod
podskupina
podstata
podstate
podstatna
podstatne
podstatnu
podstatny
podstatou
podstatu
podstaty
podstavci
podstavec
podstra
podstu
podsveti
podsvetia
podteka
podtitul
podtrieda
podujati
podujatia
podujatiach
podujatie
podunajska
podunajske
podunajskej
podva
podvozku
podvozok
podvy
podz
podza
podzemi
podzemna
podzemne
podzemnej
podzemny
poe
poems
poetka
poetry
poha
pohanske
pohansky
pohl
pohlavi
pohlavia
pohlavie
pohlavne
pohlavny
pohnu
pohon
pohonna
pohonne
pohonny
pohonom
pohonu
pohori
pohoria
pohorie
pohr
pohranic
pohreb
pohrebe
pohrebiska
pohrebisko
pohrebne
pohrebny
pohrebu
pohronsky
pohyb
pohybe
pohyblive
pohyblivy
pohybom
pohybov
pohyboval
pohybovala
pohybovat
pohybove
pohybu
pohybuje
pohybuju
pohyby
point
points
poist
poistenia
poistenie
poistne
poitou
poj
poje
pojedna
pojem
pojmom
pojmov
pojmu
pojmy
pojov
poka
poke
pokial
poklad
poklada
pokladal
pokladat
pokladni
pokladnice
pokles
poklesu
pokoj
pokoja
pokoji
pokojne
pokojny
pokorny
pokoz
pokrac
pokroc
pokrok
pokroku
pokrsteny
pokry
pokryta
pokryte
pokrytie
pokryty
poku
pokud
pokus
pokuse
pokusoch
pokusom
pokusov
pokusu
pokusy
pokutu
poky
pokyn
pokyny
pol
pola
polc
pole
poli
polia
poliach
poliaci
poliakov
polianka
policajne
policajny
policajt
policajti
policajtov
police
policy
polis
politic
political
politici
politicka
politicke
politickej
politicki
politicko
politickom
politickou
politicku
politicky
politics
politik
politika
politike
politikom
politikou
politikov
politiku
politiky
politolo
polka
polkruhovo
polkruhovy
polnoc
polnoci
polo
pologuli
poloha
polohe
polohopis
polohou
polohu
polohy
polomer
poloniny
polostrov
polostrova
polostrove
polovic
polovica
polovice
polovici
polovicu
polovodic
poloz
polta
poludni
polychro
polygona
polyme
polymera
polyne
polyno
pom
poma
pomale
pomals
pomaly
pomaranc
pomedzi
pomenoval
pomenovali
pomenovana
pomenovane
pomenovani
pomenovania
pomenovanie
pomenovany
pomenu
pomer
pomere
pomerne
pomeroch
pomerom
pomerov
pomeru
pomery
pomlc
pomni
pomo
pomoc
pomoci
pomocna
pomocne
pomocni
pomocny
pomocou
pomohla
pomohli
pomohlo
pomohol
pomoranske
pomoranskom
pomsta
pomy
pon
pona
ponad
pondelok
pondencia
ponecha
ponechal
ponechanie
ponechat
poni
ponic
poniz
ponoriek
ponorka
ponorky
pont
pontifika
ponu
ponuka
ponuke
ponuku
ponuky
pony
pop
popa
popi
popis
popisom
popisu
popisuje
popisuju
poplatkov
poplatky
poplatok
popod
popol
popola
popoludni
popova
popove
popovi
popovic
popovy
poprad
poprade
popradu
poprava
popraveni
popraveny
popravili
popravit
popravy
popredi
popredia
popredne
popredny
popri
popu
popud
popula
populac
popular
popularita
popularite
popularitu
popularity
populariza
population
populations
por
pora
poradca
poradcom
poradenstvo
poradi
poradia
poradie
poradit
poradny
porast
porastom
porastov
porastu
porasty
porazena
porazene
porazeni
porazeny
porazil
porazila
porazili
porazilo
porazit
porcela
porcupine
poriadku
poriadne
poriadok
porne
porny
porodila
porota
poroty
porov
porovna
porovnaj
porovnani
porovnanie
porovnat
porovnatel
poroz
porozumenie
porsche
port
porta
portail
portal
porte
porter
portfo
portikus
portland
porto
portoch
portom
portov
portova
portovci
portovcov
portove
portovec
portovej
portovi
portovom
portovu
portovy
portrait
portre
portu
portugalc
portugalska
portugalske
portugalskej
portugalsko
portugalsku
portugalsky
porty
poru
poruba
poruc
porucha
poruchami
poruche
poruchou
poruchu
poruchy
porus
pory
pos
posa
poschodi
poschodia
poschodie
poseido
posiela
posiln
posilnenie
posilnil
posilnit
posily
position
poskytla
poskytli
poskytne
poskytnu
poskytnute
poskytnutie
poskytol
poskytoval
poskytovala
poskytovali
poskytovane
poskytovanie
poskytovat
poskytovatel
poskytuje
poskytuju
poslal
poslala
poslali
poslanca
poslancami
poslanci
poslancom
poslancov
poslanec
poslanecke
poslaneckej
poslanecky
poslani
poslanie
poslankyn
poslany
poslat
posledna
posledne
poslednej
posledni
poslednom
poslednou
poslednu
posledny
poslu
poslucha
poslus
posmrtne
posol
posolstvo
pospi
post
posta
postac
postaral
postava
postavami
postave
postavena
postavene
postaveni
postavenia
postavenie
postaveny
postavi
postavil
postavila
postavili
postavilo
postavit
postavou
postavu
postavy
poste
posted
posteli
postgradua
postihla
postihnute
postihnuti
postihnuty
postihol
postihuje
postoj
postoja
postoje
postojom
postu
postup
postupe
postupne
postupnost
postupnosti
postupny
postupom
postupov
postupoval
postupovali
postupovat
postupu
postupuje
postupuju
postupy
posu
posun
posunu
posunul
posuvny
posva
pot
pota
potencia
potenciona
potes
potla
potlac
poto
potoc
potok
potoka
potokom
potokov
potoku
potoky
potom
potomka
potomkom
potomkov
potomkovia
potomok
potr
potrava
potravi
potravina
potraviny
potravou
potravu
potravy
potreba
potrebe
potrebna
potrebne
potrebnej
potrebnu
potrebny
potreboval
potrebovala
potrebovali
potrebu
potrebuje
potrebujeme
potrebuju
potreby
potrieb
potrubi
potrubia
potter
potvrdena
potvrdene
potvrdeni
potvrdenie
potvrdeny
potvrdil
potvrdila
potvrdili
potvrdilo
potvrdit
potvrdzuje
potvrdzuju
poty
pou
pouc
pouka
poukazuje
poukazuju
poulic
pour
pouz
pouze
pov
pova
povaha
povahe
povahu
povahy
povaz
pove
poved
povedal
povedala
povedali
povedane
povedat
povede
povedomia
povedomie
povedzme
povereni
povereny
poveril
povest
povesti
poveternostny
povi
povie
poviedka
poviedky
poviedok
povinna
povinne
povinnej
povinni
povinnost
povinnosti
povinny
povoden
povodi
povodia
povodie
povodn
povodne
povojnove
povojnovej
povojnovom
povojnovy
povol
povolal
povolani
povolania
povolanie
povolany
povolena
povolene
povoleni
povolenia
povolenie
povoleny
povolil
povozni
povraz
povrch
povrchom
povrchova
povrchove
povrchovy
povrchu
povstalci
povstalcom
povstalcov
povstalecke
povstalecky
povstani
povstania
povstanie
povstaniu
povy
powell
power
powiat
powiatu
poz
pozadi
pozadia
pozadie
pozdl
pozdrav
pozemkov
pozemku
pozemky
pozemne
pozemnom
pozemny
pozemok
pozemske
pozemsky
pozera
pozerat
pozi
poziti
pozla
pozn
pozna
poznac
poznaju
poznal
poznali
poznamena
poznamenal
poznamenat
poznan
poznani
poznania
poznanie
poznat
poznatkov
poznatky
pozor
pozorne
pozornost
pozornosti
pozoroval
pozorovana
pozorovane
pozorovani
pozorovania
pozorovanie
pozorovany
pozorovat
pozorovatel
pozoruhodne
pozoruhodny
pozorujeme
pozosta
pozostatkom
pozostatkov
pozostatky
pozostatok
pozrel
pozri
pozriet
pozrite
pozva
pozval
pozvanie
pozvany
pozvol
pozy
pp
pplk
pr
pra
prach
prachatice
prachu
pracoval
pracovala
pracovali
pracovalo
pracovat
pracoviska
pracovisko
pracovna
pracovne
pracovnej
pracovni
pracovnom
pracovnu
pracovny
pracuje
pracuju
prade
praga
prague
prah
praha
prahe
prahu
prahy
prakticke
praktickej
prakticky
praktiky
prales
pralesy
pramen
pramene
prameni
prameniaci
pras
pratt
prav
prava
pravami
pravda
pravde
pravdepodobne
pravdepodobnost
pravdepodobnosti
pravdepodobny
pravdive
pravdivost
pravdivy
pravdou
pravdu
pravdy
prave
pravec
pravej
praveku
pravicovy
pravidelna
pravidelne
pravidelnej
pravidelny
pravidiel
pravidla
pravidlami
pravidlo
pravidlom
pravky
pravne
pravny
pravo
pravom
pravopis
pravopisu
pravosla
pravostranne
pravostranny
pravou
pravouhle
pravouhly
pravovy
pravu
pravy
prax
praxe
praxi
praz
praze
pre
prebehla
prebehli
prebehlo
prebehnu
prebehol
prebera
prebieha
prebiehaju
prebiehal
prebiehala
prebiehali
prebiehalo
prebiehat
prebojoval
prebral
prebrali
prec
precha
prechod
prechode
prechodne
prechodny
prechodom
prechodu
prechody
preci
preco
pred
preda
predaj
predaja
predaji
predajn
predajne
predajom
predal
predala
predali
predalo
predany
predat
predators
predavac
predbehol
predbez
predc
predcha
predchodca
predchodcom
predchodcov
predchodcovia
predchodcu
predhorie
predika
predis
predklada
predkov
predkovia
predl
predlohy
predloz
predlz
predmesti
predmestia
predmestie
predmet
predmetmi
predmetom
predmetov
predmetu
predmety
predna
predne
prednej
predniesol
prednost
prednosta
prednostne
prednou
prednu
predny
predohra
predos
predovs
predpi
predpis
predpisov
predpisu
predpisy
predpoklad
predpoklada
predpokladaju
predpokladal
predpokladali
predpokladalo
predpokladane
predpokladany
predpokladat
predpokladom
predpokladov
predpokladu
predpoklady
preds
predsa
predseda
predsedal
predsedni
predsedom
predsedov
predsedovi
predsedovia
predsedu
predsien
predsiene
predsieni
predsta
predstava
predstavanou
predstavena
predstavene
predstaveni
predstavenia
predstavenie
predstavenstva
predstaveny
predstavil
predstavila
predstavili
predstavilo
predstavit
predstavitel
predstavitelia
predstavoval
predstavovala
predstavovali
predstavovalo
predstavovat
predstavu
predstavuje
predstavuju
predstavy
predty
predurc
predva
predvec
predvi
predviedol
prefekt
prefektu
preferenc
preferencie
preha
prehl
prehla
prehliadac
prehliadka
prehliadke
prehliadky
prehnane
prehra
prehral
prehrala
prehrali
prehralo
prehre
prehru
prehry
prejav
prejave
prejavi
prejavil
prejavila
prejavili
prejavilo
prejavit
prejavom
prejavov
prejavoval
prejavovat
prejavu
prejavuje
prejavuju
prejavy
prejde
prejst
preka
prekla
preklad
preklada
prekladal
prekladatel
prekladatelia
preklade
prekladom
prekladov
prekladu
preklady
prekona
prekonal
prekonala
prekonat
prekrac
prekroc
prekry
prekvapeni
prekvapenie
prekvapivo
prekvapuju
prel
prela
prelet
prelete
preletela
preletu
preli
prelom
prelome
prelomovy
prelomu
preloz
prema
premena
premene
premenene
premeneny
premenil
premenit
premenna
premenne
premennej
premenny
premenou
premenoval
premenovala
premenovali
premenovana
premenovane
premenovanie
premenovany
premenovat
premenu
premeny
premie
premien
premier
premies
premiestn
premiestneny
premietanie
premons
premy
pren
prena
prenaji
prenasledovani
prenasledovania
prenasledovanie
prenasledovany
prenesene
preneseny
preniesli
preniesol
preniest
prenika
prenikat
prenikli
preniknu
prenikol
prenos
prenose
prenosne
prenosny
prenosu
prepa
prepadol
prepara
prepared
prepi
prepis
prepisy
prepl
prepla
prepoc
prepojena
prepojene
prepojeni
prepojenia
prepojenie
prepojeny
prepos
prepoz
prepracoval
prepracovane
prepracovany
preprava
prepravu
prepravy
prepu
prepusteni
prepustenie
prepusteny
prepustili
prera
prerazit
prerus
pres
presadil
presadila
presadit
presadzoval
presadzovat
presadzuje
presahuje
presahuju
presbyte
prescott
present
preserved
presi
president
presku
presla
presmerovanie
presna
presne
presnejs
presnost
presnu
presny
presov
press
prest
presta
prestal
prestala
prestali
prestalo
prestane
prestavana
prestavane
prestavany
prestavba
prestavbe
prestavbou
prestavbu
prestavby
presti
prestu
prestup
presu
presun
presunu
presunul
presunula
presunuli
presunulo
presunuta
presunute
presunuty
presva
presvedc
presviedc
pret
preteka
pretekaju
pretekoch
pretekov
preteky
preti
preto
pretoz
pretoze
pretrva
pretty
pretva
preuka
preva
prevahou
prevahu
prevaz
prevedeni
prevedenie
preveleny
prevencia
preventi
prevezeny
previest
prevla
prevod
prevodovka
prevodovkou
prevodovky
prevra
prevrat
prevrate
prevratu
prevy
prevys
prevzal
prevzala
prevzali
prevzalo
prevzata
prevzate
prevzati
prevzatie
prevzaty
prevziat
prez
prezenta
prezentoval
prezentovane
prezentovany
prezentovat
prezentuje
prezentuju
prezi
prezident
prezidenta
prezidenti
prezidentka
prezidentkou
prezidentky
prezidentom
prezidentov
prezidentovi
prezidentske
prezidentskej
prezidentsky
prezy
pri
priam
priama
priame
priameho
priamej
priamka
priamo
priamoc
priamom
priamou
priamu
priamy
priamych
priamym
priatel
priatelia
priazen
priaznivcov
priaznive
priaznivy
pribera
pribli
pribliz
pribu
pribudla
pribudli
pribudlo
pribudol
pric
price
pricha
prida
pridal
pridala
pridali
pridalo
pridana
pridane
pridani
pridanie
pridany
pridat
pride
pridel
pridelene
prideleny
pridruz
pridrz
priebeh
priebehu
priebez
priec
priechod
priedus
priehl
priehrada
priehrady
priekopa
priekopni
priekopy
prieliv
prielivu
prielom
priemer
priemere
priemerna
priemerne
priemernej
priemernou
priemernu
priemerny
priemerom
priemeru
priemysel
priemyselna
priemyselne
priemyselnej
priemyselni
priemyselny
priemysle
priemyslu
prienik
priepast
priepasti
prieplav
prierez
priesec
prieskum
prieskume
prieskumne
prieskumny
prieskumov
prieskumu
prieskumy
priesmyk
priesmyku
priest
priestor
priestore
priestoroch
priestorom
priestorov
priestorove
priestorovy
priestoru
priestory
priestranstva
prietok
prietoku
prievidza
prievidze
prievidzi
priezviska
priezvisko
prihla
prihra
prijal
prijala
prijali
prijalo
prijat
prijata
prijate
prijatel
prijati
prijatia
prijatie
prijaty
priji
prijme
prika
prikla
priklady
prikry
pril
prila
prilba
priloz
prima
prime
primera
primerane
primiti
primne
prina
prinajmens
princ
princa
prince
princeton
princezna
princeznej
princi
principia
priniesla
priniesli
prinieslo
priniesol
priniest
print
printe
prinu
prior
priori
priority
pripa
pripada
pripade
pripadla
pripadlo
pripadne
pripadol
pripi
pripisovane
pripisuje
pripisuju
pripla
pripoc
pripojena
pripojene
pripojeni
pripojenia
pripojenie
pripojeny
pripojil
pripojila
pripojili
pripojilo
pripojit
pripomi
pripomienky
pripravena
pripravene
pripraveni
pripraveny
pripravil
pripravila
pripravili
pripravit
pripravoval
pripravovala
pripravovali
pripravovane
pripravovany
pripravovat
pripravuje
pripravuju
pripu
prirad
prirodzena
prirodzene
prirodzenej
prirodzenost
prirodzenou
prirodzenu
prirodzeny
prirovna
pris
prisl
prislu
prispel
prispela
prispeli
prispelo
prispiet
prispieva
prispievaju
prispieval
prispievat
prispievatel
prispo
prist
prista
pristavana
pristu
prisu
prit
pritom
priva
private
privatiza
privel
privi
priviedla
priviedol
priviest
privile
prix
prize
prizna
priznal
priznala
priznany
priznat
pro
proble
problem
problematicke
problematicky
problematika
problematike
problematikou
problematiku
problematiky
problems
proc
procedu
proces
procese
procesmi
procesoch
procesom
procesor
procesora
procesorom
procesorov
procesory
procesov
process
procesu
procesy
procha
prod
prodigy
producent
producenta
producenti
producentka
producentom
producentov
production
productions
produkc
produkcia
produkcie
produkcii
produkciou
produkciu
produkoval
produkovali
produkovane
produkovany
produkovat
produkt
produkti
produktom
produktov
produktu
produkty
produkuje
produkuju
prof
profesiona
profesor
profesora
profesori
profesorka
profesorom
profesorov
profil
profile
profilovane
profilovany
profilu
profily
progno
program
programa
programe
programoch
programom
programov
programovaci
programovanie
programove
programovy
programu
programy
progresi
progress
project
projects
projekt
projekte
projektoch
projektom
projektov
projektoval
projektu
projekty
prokura
prokuratu
promena
promo
propaga
propagac
propaganda
propagandy
propagoval
prorok
proroka
prorokov
prosi
prosim
prospech
prosperity
prosperuju
prospes
proste
prostitu
prostredi
prostredia
prostredie
prostrediu
prostredni
prostredny
prostriedkami
prostriedkom
prostriedkov
prostriedku
prostriedky
prostriedok
prosty
protei
protektora
protest
protestanti
protestantske
protestantsky
protestov
protestuju
protesty
proti
protifas
protiklad
protiklade
protil
protila
protilietadlove
protilietadlovy
protiofenzi
protipa
protirec
protis
protitankove
protitankovy
protiu
protivni
protivzdus
protiz
protiza
proto
protocol
protokol
protokolov
protokolu
protokoly
prototyp
prototypov
prototypu
prototypy
protoz
provence
provinc
provincia
provincie
provincii
provinciou
provinciu
provizo
prozaici
prozaik
prs
prsni
prsten
prstence
prstencov
prstenec
prstov
prsty
pru
prudke
prudko
prudky
pruh
pruhov
pruhy
prunus
pruska
pruske
pruskej
prusko
pruskom
pruskou
prusku
prusky
pruz
prva
prve
prvej
prvenstvo
prvi
prvkami
prvkom
prvkov
prvku
prvky
prvni
prvoc
prvok
prvom
prvotne
prvotny
prvou
prvovy
prvu
prvy
ps
psa
pseudonym
pseudonymom
pseudonymy
psg
psi
psie
pska
pske
pskeho
pskej
pski
pskom
pskou
psku
psky
pskych
pskym
pskymi
psom
psov
psp
pstruh
psy
psychedelicky
psychiater
psychicke
psychicky
psycho
psycholo
psychologicke
psychologicky
pt
pta
pu
public
publications
publicista
publicisti
publicistka
publika
publikac
publikoval
publikovala
publikovali
publikovana
publikovane
publikovanie
publikovany
publikovat
publikuje
publikum
published
publishers
publishing
puc
puerto
punk
punku
pure
puri
purple
pus
puste
pustil
pustne
pustovni
putin
puy
puzdra
puzdro
pv
pw
px
py
pylo
pyrami
pyre
pys
python
pz
q
qa
qatar
qb
qc
qd
qe
qf
qg
qh
qj
qk
ql
qm
qn
qo
qp
qq
qr
qs
qt
qu
quad
quai
quattro
que
quebec
quebecu
queen
queens
quentin
quercus
quest
question
questions
qui
quick
quo
qv
qw
qx
qy
qz
r
ra
rabi
rac
race
rach
rachel
raci
racing
raciona
rad
rada
radar
radarom
radarovy
radaru
radca
rade
radek
radene
radeon
radhos
radi
radia
radiac
radic
radie
radika
radim
radio
radmi
radne
radni
radnica
radnice
radny
rado
radoch
radom
rados
radoslav
radost
radosti
radou
radov
radovan
radove
radovy
rads
radu
raduju
radvan
rady
raf
rafael
rafine
ragby
rage
raid
rail
railway
rain
rainbow
rainer
raj
raja
rajc
rajec
raji
rajo
rajon
raju
rak
raketa
raketami
rakete
raketopla
raketou
raketove
raketovy
raketu
rakety
rakiet
rakovina
rakovinou
rakovinu
rakoviny
rakovni
raku
ral
rala
rali
rally
rallye
ralok
ralph
ram
ramena
ramene
rameno
rami
ramien
ramo
ramone
ramones
rampe
rampu
rampy
ran
rana
randy
rane
ranej
raneny
range
rangers
rani
rania
ranie
ranny
ranokrest
ranom
ranu
rany
rap
raper
rapi
rapid
rapper
rard
ras
rasa
rast
rastie
rastislav
rastislava
rastli
rastlina
rastlinami
rastlinne
rastlinny
rastlinstvo
rastliny
rastok
rastom
rastu
rasy
rat
rate
rau
rault
rava
rave
ravenna
ravy
raw
ray
raymond
raz
raze
razn
razna
razne
raznej
raznejs
raznene
razni
raznil
raznit
raznou
raznu
razny
razom
razov
razovy
razu
razy
rb
rc
rca
rd
rdoba
re
rea
read
reading
ready
reagoval
reagovala
reagovali
reagovat
reaguje
reaguju
reakc
reakcia
reakcie
reakcii
reakciou
reakciu
reakti
reaktora
real
realisticky
realita
realite
realitu
reality
realiza
realizmu
realizmus
realizoval
realizovala
realizovana
realizovane
realizovany
realizovat
realizuje
realu
reason
rebel
rebra
rebri
rec
recent
recenzia
recenzie
recenzii
receptor
receptorov
receptory
recita
record
recording
recordings
records
recurrent
recykla
red
redakc
redakcia
redakcie
redakcii
redaktor
redaktora
redaktori
redaktorka
redaktormi
redaktorom
redaktorov
redaktorovi
redaktorskej
redigoval
reds
redukc
redukcia
redukuje
reed
reedi
reedy
ref
refera
referenc
reference
referencia
referencie
referencii
referenda
referende
referendum
reflexie
reforiem
reforma
reforme
reformne
reformovany
reformu
reformy
refre
regenera
regent
reggae
regina
regio
region
regiona
regional
register
registra
registrac
registri
registrovane
registrovany
regula
regulac
rehabilita
rehol
rehole
rei
reims
reinmuth
rejc
rejska
rejske
rejskej
rejsky
rek
reklama
reklamne
reklamny
reklamu
reklamy
rekons
rekord
rekorde
rekordny
rekordov
rekordu
rekordy
rekrea
rekreac
rektor
rektora
rektorom
rela
relati
relativity
release
relevantne
relevantny
relie
religion
relikvia
relikvie
rely
rem
remember
remeselni
remesiel
remesla
remeslo
remi
remix
remixes
remixy
ren
rena
renault
rene
renejs
renesanc
renesancia
renesancie
reni
renia
renie
reniu
renova
renska
renske
rensky
reny
reorganiza
repa
reperi
repertoa
repete
replika
report
reporta
reporte
reprezenta
reprezentac
reprezentant
reprezentanti
reprezentantov
reprezentati
reprezentoval
reprezentovala
reprezentovali
reprezentovat
reprezentuje
reprezentuju
repri
reprodukc
republi
republic
republika
republike
republikou
republiku
republiky
reputa
request
rer
res
research
resolution
resp
respekti
respirac
results
ret
retrieved
return
rev
reva
revi
review
revo
revolu
revoluc
revoluciona
revolution
revolver
revu
revue
rex
rey
reykjavi
reynolds
rez
reza
rezba
rezerva
rezervace
rezervy
rezidenc
rezigna
rezignoval
rezolu
rezonanc
rf
rfc
rg
rgb
rgen
rgy
rh
rhin
rho
rhode
rhythm
ri
ria
riaa
riach
riadena
riadene
riadeni
riadenia
riadenie
riadeny
riadi
riadia
riadiaca
riadiace
riadiaceho
riadiaci
riadiacich
riadil
riadit
riaditel
riaditelia
riadkov
riadku
riadne
riadnym
riadok
riami
rias
riasy
ribozo
ric
rica
ricardo
rice
rich
richard
richarda
richardom
richards
richardson
richmond
richta
richter
richu
rick
ricka
ricke
ricky
ride
ridge
rie
riec
riedky
riek
rieka
riekach
riekami
rieke
riekou
rieku
rieky
ries
riga
rige
right
rightarrow
rights
rigoro
rii
rik
rika
rikova
ril
rila
rili
rilo
rimania
rimanmi
rimanov
rimavska
rimavskej
ring
ringo
rio
riom
rios
riot
riou
riova
riove
riovej
riovo
riovy
ris
rise
rising
rista
risti
ristka
rit
rita
rite
ritel
ritua
riu
rium
rius
rivalita
rivalom
river
rivie
rizalit
rizalitu
rizika
riziko
rizikovy
rj
rk
rka
rkach
rke
rkou
rku
rky
rl
rlive
rm
rmi
rms
rn
rna
rndr
rne
rneho
rnej
rnejs
rnemu
rnenie
rni
rnik
rnil
rnila
rno
rnom
rnost
rnosti
rnou
rnu
rny
rnych
rnym
rnymi
ro
road
rob
roba
robbie
robca
robcom
robcov
robcovia
robcu
robe
robert
roberta
roberto
robertom
roberts
robertson
robi
robia
robil
robila
robili
robin
robinson
robit
robkov
robku
robky
robne
robnej
robny
robo
robok
robot
robota
robotni
roboty
robou
robu
roby
robzle
roc
roch
roche
rock
rocket
rockova
rockove
rockovej
rockovi
rockovu
rockovy
rocks
rocku
rod
roda
rode
rodena
rodenci
rodencov
rodenej
rodi
rodic
rodina
rodinami
rodine
rodinna
rodinne
rodinnej
rodinny
rodinou
rodinu
rodiny
rodisku
rodmi
rodna
rodne
rodnej
rodni
rodno
rodnom
rodnost
rodnosti
rodnostne
rodnostny
rodnou
rodnu
rodny
rodohospoda
rodokmen
rodom
rodopis
rodos
rodou
rodov
rodove
rodovedec
rodovedeckej
rodovedne
rodovy
rodri
rodu
rody
roger
rogera
rogers
roh
roha
rohoch
rohu
rohy
roi
rok
roka
rokmi
rokoch
rokom
rokov
rokoval
rokovani
rokovania
rokovaniach
rokovanie
rokovat
roku
roky
rokycany
rol
rola
roland
role
roli
roll
rollback
rolling
rolls
rolu
roly
rom
roma
roman
romana
romance
romano
romanticke
romantickej
romanticky
romantizmu
romantizmus
rome
romeo
ron
rona
ronald
ronaldo
ronnie
room
roosevelt
ropa
ropne
ropny
ropy
ros
rosa
rosario
rose
roses
ross
rosse
rossi
rota
rotac
roth
rothschild
rotora
rotterdam
rotuju
rotunda
roty
rou
rouge
rough
round
roussillon
rov
rova
roval
rovane
rovanie
rovany
rovat
rovce
rovci
rovcov
rove
rovej
roven
rover
rovi
rovina
rovine
rovinou
rovinu
roviny
rovite
rovn
rovna
rovnaka
rovnake
rovnakej
rovnako
rovnakom
rovnakou
rovnaku
rovnaky
rovne
rovnej
rovni
rovniach
rovnica
rovnice
rovno
rovnobez
rovnomenne
rovnomennej
rovnomennom
rovnomenny
rovnomerne
rovnopra
rovnost
rovnosti
rovnou
rovnova
rovny
rovo
rovom
rovou
rovu
rovy
row
roy
royal
royce
roz
roza
rozc
rozcha
rozchod
rozda
rozdel
rozdelena
rozdelene
rozdeleni
rozdelenia
rozdelenie
rozdeleniu
rozdeleny
rozdelil
rozdelila
rozdelili
rozdelit
rozdiel
rozdielne
rozdielnych
rozdielom
rozdielov
rozdielu
rozdiely
rozhl
rozhlas
rozhlase
rozhlasova
rozhlasove
rozhlasovej
rozhlasovi
rozhlasovy
rozhlasu
rozhodca
rozhodcovia
rozhodcu
rozhodla
rozhodli
rozhodlo
rozhodne
rozhodnu
rozhodnute
rozhodnuti
rozhodnutia
rozhodnutie
rozhodnutiu
rozhodol
rozhodovani
rozhodovania
rozhodovanie
rozhodovat
rozhoduje
rozhoduju
rozhorc
rozhovor
rozhovore
rozhovorov
rozhovoru
rozhovory
rozhrani
rozhrania
rozhranie
rozis
rozkaz
rozkazu
rozkazy
rozklad
rozklada
rozkladaju
rozkladu
rozkvet
rozkvetu
rozl
rozli
rozlic
rozlis
rozloha
rozlohe
rozlohou
rozlohu
rozlohy
rozloz
rozlu
rozmach
rozmachu
rozmanite
rozmanitost
rozmanity
rozmedzi
rozmer
rozmermi
rozmerov
rozmery
rozmiestnene
rozmnoz
rozmy
rozozna
rozoznat
rozpa
rozpad
rozpada
rozpade
rozpadla
rozpadom
rozpadu
rozpi
rozpoc
rozpore
rozpory
rozpozna
rozpoznat
rozpra
rozprestiera
rozprestieraju
rozpty
rozptyl
rozpu
rozpustene
rozpusteny
rozpustne
rozpustny
rozra
rozrus
rozs
rozsah
rozsahom
rozsahu
rozsiahla
rozsiahle
rozsiahleho
rozsiahlej
rozsiahlejs
rozsiahlou
rozsiahlu
rozsiahly
rozsiahlych
rozsiahlym
rozsudku
rozsudok
roztok
roztokov
roztoku
roztoky
roztru
roztrz
rozum
rozumie
rozumne
rozumny
rozumom
rozumu
rozva
rozvi
rozviedli
rozvinul
rozvinute
rozvinuty
rozvod
rozvodom
rozvodu
rozvoj
rozvoja
rozvoji
rozvojom
rozvojovy
rozvoju
rp
rpa
rpg
rq
rr
rs
rska
rske
rskeho
rskej
rskemu
rski
rsko
rskom
rskou
rsku
rsky
rskych
rskym
rskymi
rss
rsssf
rstva
rstve
rstvo
rstvom
rstvu
rt
rta
rte
rterbuch
rtg
rttembersko
rtvs
rty
ru
rubi
rubl
ruby
ruc
ruch
ruchu
ruda
rudko
rudolf
rudolfa
rudy
rue
rugby
rui
ruina
ruiny
ruje
rujte
ruka
rukami
ruke
rukojemni
rukopis
rukopise
rukopisov
rukopisu
rukopisy
rukou
rukova
ruku
ruky
rules
rum
rumunska
rumunske
rumunskej
rumunski
rumunsko
rumunskom
rumunsku
rumunsky
run
running
rus
rush
rusi
ruska
ruske
ruskej
ruski
rusko
ruskom
ruskou
rusku
rusky
rusna
rusom
rusov
rusovce
rusove
rusovy
russell
russia
russian
rusu
rusy
ruth
ruz
rv
rva
rw
rx
ry
ryan
ryba
rybni
rybolov
ryby
rychnov
ryho
rys
rysy
ryti
rytier
rytiera
rytieri
rytierov
rytmicka
rytmu
rytmus
ryz
rz
s
sa
saab
sabbath
sabinov
sabolc
sabres
sad
sada
sadami
sade
sadka
sadne
sadny
sadou
sadu
sady
safari
safety
sagan
sah
sahom
sahov
sahu
sahy
saint
sainte
saints
sakra
sakristia
sakristie
sal
sala
salas
salezia
sali
sally
salmo
salo
salt
salva
salvador
salzburg
salzburgu
sam
sama
samc
samce
samcov
same
samec
sami
samic
samica
samice
samo
samoa
samofi
samohla
samom
samospra
samostatna
samostatne
samostatnej
samostatnost
samostatnosti
samostatnou
samostatnu
samostatny
samota
samotna
samotne
samotnej
samotni
samotnom
samotnu
samotny
samoty
samovol
samovra
samovraz
samozrejme
samson
samsung
samu
samuel
samuela
samy
san
sana
sanato
sandra
sane
sanej
sani
sania
sanie
saniu
sankcie
sankt
sans
sant
santa
santana
santiago
santo
santos
sanu
sany
sao
sap
sapiens
sar
sara
sarah
sarajevo
sardi
sarkofa
sars
sarthe
sas
saska
saskardin
saske
sasko
sasku
sasky
sat
satan
satel
satelit
satelitny
satelitov
satelitu
satelity
satellite
satinsky
sativus
satma
saturday
saturn
saturna
saturnu
saudska
saudskej
sav
save
savoie
saxofo
say
sb
sborni
sc
scale
scalemajor
scaleminor
sce
scena
scene
scha
sche
schirra
schizofre
schmidt
schneider
scho
schodisko
schody
scholastikossvk
school
schopna
schopne
schopni
schopnost
schopnosti
schopny
schra
schro
schu
schumacher
schuster
schva
schval
schwartz
schwarz
sci
science
sciences
scientific
scooter
scott
scream
screen
sd
sdk
sdku
sdl
se
sea
seal
sean
search
season
seat
seattle
seba
sebastia
sebastian
sebe
sebou
sec
second
secret
secrets
section
security
sed
sedac
sedadiel
sedadla
sedan
sedel
sedem
sedembolestnej
sedemdesiatych
sedemna
sedemroc
sedenie
sedi
sediaci
sedimenta
sedimentov
sedimenty
sedis
sedla
sedle
sedlice
sedlo
sedlom
sedmohradska
sedmohradsku
see
segment
segmentovo
segmentovy
seine
sek
sekcia
sekcie
sekcii
sekciu
sekera
sekoch
sekom
sekov
sekre
sekreta
sekretaria
sektor
sektora
sektore
seku
sekula
sekunda
sekundu
sekundy
sekvenc
sekvencia
sekvencie
sekvencii
seky
sel
selc
seldz
selected
selekti
self
selne
selny
sem
semena
semenni
semien
semifina
semily
semina
sen
sena
senators
senci
sene
senec
seni
senia
senica
senice
senici
senie
senior
seniora
seniorov
seniorsky
seniu
senost
senosti
seny
senzor
senzus
separa
sept
september
septembra
septembri
septembru
sered
serena
sergej
sergejevic
sergio
seria
serie
series
serio
server
servera
serveri
serverov
servery
servi
service
services
servis
serz
ses
session
sessions
sestersky
sestier
sestra
sestrou
sestru
sestry
set
sete
setoch
sety
sevastopol
seven
sever
severe
severna
severne
severnej
severnejs
severnom
severnou
severnu
severny
severoamericky
severoi
severojuz
severovy
severoza
seversky
severu
sevilla
sex
sexua
sexy
seznam
sezo
sf
sfarbene
sfarbenie
sfe
sfilmovane
sfondo
sformovala
sformovali
sfr
sfsr
sfu
sfz
sg
sh
shadow
shadows
shakespeare
shannon
sharks
sharon
shaw
she
sheffield
shell
shepard
shield
shift
shimizu
shine
shoemaker
shop
short
should
show
shroma
shuttle
si
sia
siaha
siahaju
sibi
sic
sici
sid
side
siding
sidney
sie
siedma
siedmeho
siedmej
siedmich
siedmimi
siedmom
siedmy
siel
siem
siemens
sien
siene
sieni
sierra
siet
siete
sieti
sigma
sign
signa
signaliza
signata
signatu
sikyo
sil
sila
silami
sile
silence
silent
sili
silia
silie
siliu
silla
silna
silne
silnej
silnejs
silno
silnom
silnou
silnu
silny
silo
silou
silu
silva
silver
silvester
silvia
sily
sim
simeon
simmons
simon
simona
simone
simple
simpson
simula
sin
since
sing
singapur
singapure
singel
singer
singla
single
singles
singli
singlom
singlov
singlu
sinice
sio
sir
sira
sire
sis
sister
sit
sita
site
situa
situovana
situovane
situovany
siva
sive
sivy
six
size
sj
sk
ska
skafander
skaju
skal
skala
skale
skali
skalica
skalice
skalici
skalka
skalky
skalna
skalnate
skalnaty
skalne
skalni
skalny
skalo
skaly
skana
skane
skani
skania
skanie
skany
skat
skate
skava
skavaju
skaval
skavali
skavanie
skavat
ske
skeho
skej
ski
skie
skin
skl
skla
sklad
sklada
skladaju
skladal
skladala
skladatel
skladatelia
skladba
skladbami
skladbe
skladbou
skladbu
skladby
skladieb
skladu
sklady
sklamani
sklene
skleneny
skleni
skleny
sklo
sklom
sklon
sklonku
sklonom
sko
skoc
skok
skokan
skokani
skokom
skoku
skoky
skom
skomponoval
skonc
skonfis
skons
skontrolovat
skopi
skopje
skor
skore
skoro
skors
skorus
skory
skou
skove
skr
skra
skratka
skratke
skratkou
skratku
skratky
skri
skrin
skrine
skromny
skru
skry
skryta
skryte
skryty
skrz
skrze
sku
skulptu
skum
skume
skumna
skumne
skumnej
skumni
skumny
skumom
skumov
skumu
skumy
skupi
skupina
skupinami
skupine
skupinou
skupinova
skupinove
skupinovej
skupinu
skupiny
skutky
skutoc
skutok
skvele
skvely
skwiki
sky
skych
skylab
skym
skyt
skytom
skytu
skyty
sl
sla
slaba
slabe
slabi
slabic
slabiky
slabo
slabost
slabs
slaby
slach
sladke
sladkovodne
sladky
slalom
slalome
slam
slami
slana
slanej
slangu
slanske
slansky
slatina
slatiny
slavi
slavia
slavkov
slavo
slavomi
slayer
slayton
sle
slec
sled
sledkami
sledkoch
sledkom
sledkov
sledku
sledky
sledna
sledne
slednej
sledni
slednom
slednu
sledny
sledok
sledoval
sledovali
sledovalo
sledovani
sledovanie
sledovany
sledovat
sleduje
sleduju
sleep
slepa
slepe
slepy
sli
sliac
slic
slica
slice
sliezska
sliezske
sliezsko
sliezskom
sliezsku
sliezskych
slima
slivka
sliznice
slnec
slnka
slnko
slnkom
slnku
slo
slobo
sloboda
slobode
slobodna
slobodne
slobodnej
slobodni
slobodnom
slobodny
slobodomura
slobodu
slobody
sloh
slohu
slom
slon
slonoviny
slov
slova
slovaca
slovak
slovakia
slovami
slovan
slovana
slovane
slovania
slovanie
slovanom
slovanov
slovanska
slovanske
slovanskej
slovansky
slovart
slove
slovenc
slovenska
slovenske
slovenskej
slovenski
slovensko
slovenskom
slovenskou
slovensku
slovensky
slovesa
sloveso
slovi
slovinska
slovinske
slovinsko
slovinsku
slovinsky
slovnaft
slovne
slovni
slovnost
slovnosti
slovny
slovo
slovom
slowa
slu
sluc
sluch
sluchu
sluha
sluhou
sluhu
sluhy
slus
sluz
slzy
sm
sma
small
smart
smartfo
sme
smej
smen
smena
smenami
smeno
smenom
smer
smere
smermi
smerni
smernica
smernice
smeroch
smerom
smerov
smeroval
smerovali
smerovanie
smerovy
smeru
smeruje
smeruju
smery
smetana
smev
smi
smich
smies
smile
smimi
smith
smk
smo
smokovci
smokovec
smolni
smom
smovy
smrec
smrek
smrt
smrtel
smrti
sms
smu
smutne
smutny
smy
sn
sna
snad
snaha
snahe
snahou
snahu
snahy
snaz
snd
sne
sneh
snehu
snej
snejs
snem
sneme
snemovn
snemovne
snemovni
snemu
snez
sng
sni
snic
snici
snicka
snicke
snickej
snicky
snik
snika
snikov
snina
sninsky
sno
snom
snov
snow
snp
snr
sns
snu
sny
snych
so
sob
soba
sobe
sobena
sobene
sobeni
sobenia
sobenie
sobeniu
sobeny
sobi
sobia
sobiaca
sobiace
sobiaci
sobiacich
sobil
sobila
sobili
sobilo
sobilost
sobilosti
sobit
sobmi
sobna
sobne
sobni
sobnost
sobnosti
sobny
sobok
sobom
sobota
sobote
sobotu
soboty
sobou
sobov
sobovali
sobovanie
sobovat
sobrance
sobu
sobuje
sobuju
soby
soc
socha
sochami
sochou
sochu
sochy
socia
social
socialisticka
socialisticke
socialistickej
socialisticky
socialistov
socializmu
socializmus
socie
society
sociolo
socket
socorro
sodi
sodne
sodny
sofia
sofie
sofii
soft
softbal
softbale
softve
software
sojuz
sojuze
sojuzu
sok
sokol
sokola
sokolov
sokrates
sol
sola
solar
solaris
soli
solid
solidarita
solidarity
solo
solu
som
soma
some
somebody
something
somme
somna
somne
somnej
somnosti
somny
son
sona
sond
sonda
sondou
sondu
sondy
song
songs
sonic
sons
sony
sopec
sophie
sopiek
sopka
sopky
sopra
sor
sorghum
sorry
sos
sotva
sou
souc
soul
soulovi
sound
sounds
soundtrack
soundtracku
sour
source
sous
south
southern
sov
sova
sove
soviet
sovieti
sovietov
sovietska
sovietske
sovietskeho
sovietskej
sovietskemu
sovietski
sovietskom
sovietskou
sovietsku
sovietsky
sovietskych
sovietskym
sovietskymi
sovietu
sovy
soyuz
soz
sp
spa
space
spacewatch
spacex
spada
spadaju
spadne
spadol
spain
spal
spama
spanish
spart
sparta
spartak
sparte
sparty
spasitel
spat
spe
speak
spec
spech
spechoch
spechom
spechov
spechu
spechy
special
species
spectrum
speed
spektra
spektre
spektrometer
spektrum
spencer
spes
spev
speva
speve
spevkov
spevku
spevky
spevni
spevok
spevom
spevu
spevy
spi
spiatoc
spider
spieva
spievaju
spieval
spievala
spievankovo
spievat
spin
spirit
spiritua
spis
spisoch
spisov
spisovatel
spisovatelia
spisovne
spisovnej
spisovny
spisu
spisy
spl
spla
split
splnene
splneni
splnenie
splnil
splnit
splos
sply
spn
spo
spoc
spochybn
spod
spodna
spodne
spodnej
spodnu
spodny
spoja
spoje
spojena
spojenca
spojencami
spojenci
spojencom
spojencov
spojene
spojenecke
spojenecky
spojenectvo
spojenej
spojeni
spojenia
spojenie
spojeniu
spojenom
spojenu
spojeny
spoji
spojil
spojila
spojili
spojit
spojitost
spojitosti
spojka
spojky
spojov
spojovaci
spokojny
spol
spolec
spolkov
spolkova
spolkove
spolkovej
spolkovy
spolku
spolky
spoloc
spolok
spolu
spoluautor
spoluautorom
spoluhla
spoluhra
spolupra
spolupracoval
spolupracovala
spolupracovali
spolupracovat
spolupracovni
spolupracuje
spolupracuju
spoluu
spoluvla
spoluz
spoluzakladatel
spomal
spomedzi
spomenu
spomenul
spomenute
spomenuty
spomi
spomienka
spomienky
spomienok
sponta
spor
sporadicky
spore
sporitel
sporna
sporne
sporny
sporoch
sporom
sporov
sport
sports
sporu
spory
spotreba
spotrebitel
spotrebu
spotreby
spoza
spozna
spoznal
spra
spracova
spracoval
spracovane
spracovani
spracovania
spracovanie
spracovany
spracovat
spracu
spras
sprava
spravidla
spravil
spravit
spravodajska
spravodajske
spravodajskej
spravodajsky
spravodajstva
spravodajstvo
spravodlive
spravodlivost
spravodlivosti
spravodlivy
spravoval
spravuje
spravy
spred
spreva
spri
sprievod
sprievodca
sprievodcu
sprievode
sprievodne
sprievodny
sprievodom
sprievodu
spring
springer
springfield
springs
sprisahania
sprisahanie
sprostredkovatel
sprvu
sps
spu
spustena
spustene
spusteni
spustenie
spusteny
spusti
spustil
spustila
spustili
spustit
spustos
sputnik
spy
sq
sql
sqrt
squadron
square
sr
srb
srbc
srbi
srbov
srbska
srbske
srbskej
srbski
srbsko
srbskom
srbsku
srbsky
srdca
srdce
srdci
srdcia
srdcom
srdcove
srdcovy
srdec
sri
srn
srst
srsti
ss
ssd
sse
sseldorf
ssp
ssr
ssy
st
sta
stabilita
stabilitu
stability
stabiliza
stabilizac
stabilna
stabilne
stabilny
stac
staciona
stade
stadia
stadion
stadium
stafford
stage
stal
stala
stale
stali
stalin
stalina
stalingrad
stalo
stan
stanca
stancom
stancovia
stand
standard
stane
stanford
stani
stanic
stanica
stanicami
stanice
stanici
staniciach
stanicou
stanicu
stanislav
stanislava
stanisław
stanley
stanleyho
stano
stanov
stanovena
stanovene
stanovenie
stanoveny
stanovi
stanovil
stanovis
stanoviska
stanovisko
stanovit
stanovuje
stanovy
stanu
star
stara
staraju
staral
starat
stare
starej
stari
starobyle
staroda
starogr
starogre
starokatoli
starom
starost
starosta
starosti
starostlivo
starostlivost
starostlivosti
starostom
starostov
starostovia
starostu
starou
starovek
staroveka
staroveke
starovekej
staroveki
starovekom
staroveku
staroveky
staroz
staroza
starr
stars
start
staru
stary
stas
stat
state
states
staticke
staticky
station
statistics
statistique
statka
statku
statky
statoc
statok
status
stav
stava
stavac
stavaju
staval
stavali
stavane
stavat
stavba
stavbami
stavbe
stavbou
stavbu
stavby
stavcov
stave
stavebna
stavebne
stavebnej
stavebni
stavebny
stavia
stavieb
stavitel
stavna
stavne
stavnej
stavni
stavny
stavoch
stavom
stavou
stavov
stavovcov
stavovske
stavu
stavy
stay
ste
steckom
steel
stefan
steho
stein
stej
stek
stella
stena
stenami
stene
stenne
stenny
stenou
stenu
steny
step
stepanovic
stephan
stephen
stepi
stereo
stern
steve
steven
stevens
stevie
stewart
sti
stia
stiahla
stiahli
stiahnut
stiahnute
stiahnuti
stiahnutie
stiahol
stich
stie
stien
stiev
stihol
stil
stila
stili
still
stilo
stimi
stimula
stiu
stiz
stka
stkov
stky
stl
stla
stlac
stli
stlo
stn
stna
stne
stnej
sto
stoc
stock
stodola
stoja
stojaca
stojaci
stoji
stojni
stok
stol
stola
stole
stolec
stoleti
stoli
stolic
stolica
stolice
stolici
stolny
stolovy
stom
stone
stones
stop
stopa
stopu
stopy
stor
store
stories
storm
storoc
story
stoti
stotoz
stoviek
stovka
stovky
stoz
str
stra
strach
strachu
strahy
straight
straka
strakonice
strana
stranami
strane
strange
strani
stranky
stranou
stranu
strany
stras
strata
strate
strategicke
strategicky
stratena
stratene
strateny
strati
stratil
stratila
stratili
stratilo
stratou
stratovulka
stratu
straty
strauss
stravy
straz
strec
strecha
streche
strechou
strechu
strechy
stred
streda
strede
stredene
stredeny
stredi
stredie
stredil
stredila
stredili
strediska
stredisko
strediskom
stredisku
stredit
stredna
stredne
strednej
strednom
strednou
strednu
stredny
stredoamericke
stredoamericky
stredoc
stredoeuro
stredom
stredomori
stredomoria
stredos
stredoslovenske
stredoslovensky
stredovek
stredoveka
stredoveke
stredovekej
stredoveku
stredoveky
stredovy
stredozemne
stredu
street
strel
strela
strelami
strelca
strelci
strelcom
strelcov
strelec
strelecky
streleny
strelil
strelny
strelu
strely
stres
streta
stretla
stretli
stretlo
stretne
stretnu
stretnuti
stretnutia
stretnutiach
stretnutie
stretol
stretu
strieborna
strieborne
striebornej
strieborni
striebornu
strieborny
striebra
striebro
striedaju
striedanie
striedave
striedavo
striedavy
striel
strih
strike
striktne
string
strme
strmy
stroj
stroja
stroje
stroji
strojmi
strojni
strojoch
strojom
strojov
strojove
strojovy
strom
stromami
stromoch
stromov
stromu
stromy
strop
stropkov
stru
struc
structure
struny
stry
sts
stu
stuart
studena
studene
studenej
student
studeny
studies
studio
studios
studn
studne
studnic
study
stup
stupava
stupca
stupcami
stupcom
stupcov
stupcovia
stupcu
stupe
stupen
stupis
stupkyn
stupn
stupna
stupne
stupnena
stupnene
stupneny
stupni
stupnica
stupnice
stupny
stupom
stupov
stupove
stupovy
stupu
stupy
stuttgart
stuz
stv
stva
stvami
stve
stvi
stvo
stvom
stvorenia
stvorenie
stvoritel
stvu
sty
styk
styku
styky
style
su
sua
sub
subaru
subjekt
subjekti
subjektov
subjektu
subjekty
subkultu
subscribe
subsp
substitu
substra
suc
sucha
suche
suchej
suchoj
suchy
sud
suda
sudca
sudcom
sudcov
sudcovia
sudcu
suite
sul
suli
sullivan
sulta
sultana
sum
suma
sumerske
summer
sumu
sumy
sun
sunday
sung
sunshine
supa
super
superior
supernova
supernovy
superpoha
superstar
support
supraphon
sur
surove
surovi
suroviny
surovy
survey
sus
susan
susedi
susedia
susedne
susednej
susednom
susedny
susedom
susedov
susedstve
sutere
suvere
suvereno
suzanne
suzuki
sv
sva
svadba
svadbe
svadbu
svadby
svah
svahoch
svahov
svahu
svahy
sval
svalov
svalove
svaly
svate
svatepismo
svatopluk
svaty
sve
svedc
svedectva
svedectvo
svedkom
svedkov
svedkovia
svedok
svedomi
svedomia
svet
sveta
svete
svetelne
svetelny
svetla
svetlana
svetle
svetlejs
svetlo
svetlom
svetly
svetom
svetona
svetova
svetove
svetovej
svetovo
svetovom
svetovou
svetovu
svetovy
svetoza
svetozna
svetske
svetsky
svetu
svety
svg
svi
sviatkom
sviatkov
sviatku
sviatky
sviatok
sviatost
sviatosti
svidni
sviec
svietivost
svis
svit
svitavy
svitu
svoboda
svobodu
svoj
svoje
svojej
svojho
svoji
svojich
svojim
svojimi
svojmu
svojom
svojou
svojra
svoju
svojvol
svrc
svs
svu
svy
sw
swan
sweet
swift
swing
switch
sx
sy
syd
sydney
sylvia
symbol
symbolicke
symbolicky
symbolizuje
symbolizuju
symbolmi
symbolom
symbolov
symbolu
symboly
symetricke
symetricky
symfo
symfonicke
symfonicky
sympatie
symphony
sympo
sympto
syn
syna
synago
synchro
syndro
synmi
synoda
synody
synom
synonyma
synonymum
synov
synovec
synovi
synovia
syntax
synte
synteticke
synteticky
syntetiza
syr
syraku
syste
system
systematicke
systematicky
systematika
systems
sz
sza
szabo
sze
szlo
szo
szu
t
ta
tab
tabaku
table
tablet
tabu
tabul
tabule
tabuliek
tac
tach
tachov
tadeusz
tadio
tady
tadz
tafeta
tag
tahiti
tai
taiwan
taiwane
taj
tajersko
tajna
tajne
tajnej
tajnsko
tajny
tajomni
tajomny
tajomstva
tajomstvo
tajovske
tajte
taju
tak
taka
take
takej
takejto
takes
taki
takisto
takmer
takom
takomto
takou
takticke
takticky
taktiez
taktika
taktiku
takto
taku
taky
takz
takze
takzvana
takzvane
takzvanej
takzvany
tal
tala
talbot
tale
talent
talentovany
tales
tali
talianc
taliani
talianska
talianske
talianskeho
talianskej
talianski
taliansko
talianskom
taliansku
taliansky
talianskych
talianskym
talicke
talicky
taliza
talk
talleyrand
talo
talovana
talovane
talovany
talovat
tam
tamara
tame
tami
tamojs
tampa
tampere
tamz
tan
tana
tanc
tanca
tance
tancov
tandard
tandardiza
tandardizovane
tandardizovany
tandardna
tandardne
tandardnej
tandardny
tandardom
tandardov
tandardu
tandardy
tane
tanec
tango
tani
tania
tanie
tank
tankmi
tankom
tankov
tankova
tankove
tankovej
tankovy
tanku
tanky
tanta
tanti
tantne
tantny
tanty
tany
tanza
tao
tarja
tarn
tart
tarte
tartom
tartov
tartovacej
tartovaci
tartoval
tartovala
tartovali
tartovalo
tartovat
tartu
tartuju
tarty
tas
task
tasma
tasr
tat
tata
tate
tatel
tatiana
tatier
tatisticke
tatistickej
tatisticky
tatistika
tatistike
tatistiky
tato
tatovat
tatra
tatrami
tatran
tatranska
tatranske
tatranskej
tatransky
tatry
tatu
tatuta
tau
taura
tautenburg
tavanie
taxi
taxo
taxono
taylor
tb
tbilisi
tc
tca
tcha
tchaj
tchien
tchor
tci
tcov
tcp
td
te
team
teams
tears
teatro
teau
teba
tebe
tebou
tec
tech
techni
technical
technici
technicka
technicke
technickej
technickom
technicku
technicky
technik
technika
technike
technikou
techniku
techniky
techno
technolo
technologicke
technologicky
technologies
technology
ted
teda
tedy
tefa
tefan
tefana
tefanom
tefanovi
teha
tehera
tehly
tehotenstva
tehotna
tej
tejn
tejna
tejs
tejto
tek
tektonicke
tektonicky
teku
tekuti
tekutina
tekutiny
tekuty
tel
tela
tele
telefo
telekomunika
telekomunikac
telesa
telescope
teleskop
telesna
telesne
telesnej
telesny
teleso
telesom
televi
television
telies
tell
telo
telocvic
telom
telovy
telu
tematicky
tematikou
temes
temna
temne
temny
tempel
templa
template
temple
templom
tempo
tempom
temz
ten
tena
tendencia
tendencie
tendenciu
tene
tenej
teni
tenia
tenie
tenis
tenise
tenisove
tenisovy
tenista
tenisti
tenistka
teniu
tenka
tenke
tenky
tennessee
tennis
tenor
tenou
tens
tento
tentokra
tentoraz
tenu
teny
teo
teodor
teolo
teologicka
teologicke
teologickej
teologicky
teoreticka
teoreticke
teoretickej
teoreticky
teoretik
tepe
tepelna
tepelne
tepelnej
tepelnu
tepelny
tepla
teple
teplej
teplejs
teplic
teplice
tepliciach
teplo
teplomilny
teplota
teplote
teplotne
teplotny
teplotou
teplotu
teploty
teply
tepny
ter
tera
terajs
terapia
terapie
terasa
terasy
teraz
terc
tercia
tere
tereza
teri
terica
terie
terito
teritoria
terma
termi
termina
terminal
terminolo
terminologicky
teror
teroristi
teroristicke
teroristicky
teroristov
terorizmu
teroru
terov
terra
territoire
terry
teru
tery
tes
tesa
tesco
tesla
teslaton
tesne
tesnej
test
testament
testoch
testov
testovaci
testovania
testovanie
testovany
testu
testy
teta
teti
teva
teve
tevni
tevnost
tevoval
tevovala
tevovali
tevovanejs
tevovat
tevu
tevuje
tevy
texas
texase
texasu
text
texta
textami
texte
textilny
textoch
textom
textov
textove
textovy
textu
texty
tf
tg
th
tha
thajsko
thajsku
than
thank
thanks
that
thdr
the
theater
theatre
their
them
theme
then
theodor
theodora
theodore
theory
there
these
theta
they
thierry
thin
thing
things
think
third
this
tho
thomas
thomasa
thompson
thomson
thor
thornton
thova
thrash
three
thriller
through
thumb
thunder
thurzo
ti
tia
tiach
tiaci
tiahne
tiahnu
tianskej
tiansky
tiavnica
tiavnice
tiavnici
tiavnicke
tiavnicky
tiaz
tibet
tibetske
tibetsky
tibetu
tibor
tic
tica
tice
tich
ticha
tiche
ticho
tichom
tichy
ticke
ticky
tico
tie
tiel
tieli
tien
tieni
tienne
tiepeni
tiepi
tiesn
tieto
tiez
tiger
tihodnosti
tik
til
tila
tili
till
tilo
tim
time
timeaxis
times
timothy
tina
tine
tinou
tinu
tiny
tip
tipendium
tipsport
tirolsko
tis
tisa
tisi
tiso
tisom
tisou
tisovec
tit
tita
titan
titanic
titanu
titel
title
tito
titou
titu
tituc
tituciona
titul
titula
titulna
titulnej
titulnu
titulom
titulov
titulu
tituly
titus
tj
tk
tka
tkach
tkam
tkami
tkani
tkaniva
tkanivo
tke
tkeho
tkej
tkkbs
tko
tkodobe
tkodoby
tkom
tkometra
tkou
tkov
tkova
tkove
tkovice
tku
tky
tkych
tkym
tkymi
tl
tla
tlac
tlak
tlakom
tlakova
tlakovy
tlaku
tlmic
tlmoc
tm
tma
tmava
tmave
tmavej
tmavs
tmavy
tmi
tmy
tn
tna
tne
tneho
tnej
tnejs
tnemu
tni
tnici
tnicke
tnicky
tnik
tnika
tnikov
tno
tnom
tnost
tnosti
tnou
tnu
tny
tnych
tnym
tnymi
to
tobias
toc
toch
today
todd
todor
tof
together
toho
tohoto
tohto
toja
tok
toka
toke
tokholm
tokholme
tokio
tokiu
tokmi
tokoch
tokom
tokov
tokri
toku
tokugawa
toky
tokyo
tol
tola
toleranc
tolov
tolska
tolske
tolskej
tolsky
tom
toma
tomas
tomi
tommy
tomna
tomne
tomni
tomnost
tomnosti
tomny
tomorrow
tomto
tomu
tomuto
ton
toni
tonight
tony
tonyho
too
tool
tools
top
topa
topenia
topl
tople
topluk
topol
topolo
tor
tora
tore
tori
torka
tormi
torna
tornado
torne
tornej
tornom
tornou
tornu
torny
toroch
torom
toronte
toronto
torov
torovi
torovy
torpe
torre
torres
torske
torsky
toru
tory
torysy
tos
toska
tost
tosti
tota
total
totiz
toto
totoz
tottenham
tou
touch
toulouse
tour
tours
touto
tov
tova
tovanie
tovar
tovaris
tovarom
tovarov
tovaru
tove
tovej
tovi
tovne
tovnej
tovni
tovnom
tovny
tovom
tovou
tovu
tovy
tower
towers
town
township
toxicke
toxicky
toyota
tp
tq
tr
tra
track
tracks
trade
tradi
tradic
trage
tragicky
train
traja
trajekto
trajk
trakc
trakta
traktu
trance
trans
transcendenta
transfer
transfermarkt
transforma
transkripcia
transla
translate
translation
translations
translitera
transplanta
transport
transporte
transportne
transportny
tranzistorov
trap
trasa
trasburgu
trase
trasu
trasy
trat
trate
trati
tratiach
travel
traverti
trba
trbina
trbske
tre
treba
trebis
treccani
tree
trek
trenc
trend
trendy
tres
tresku
trest
trestne
trestnej
trestnom
trestny
trestom
trestu
tresty
tret
tretej
treti
tretia
tretie
tretieho
tretina
tretine
tretinu
tretiny
tretiu
trh
trhoch
trhov
trhova
trhove
trhovy
trhu
trhy
tri
tria
tribec
tribu
tribuna
tribus
tribute
tric
tridsat
tridsiatich
tridsiatych
tried
trieda
triede
triedu
triedy
trikra
trilo
trina
trinidad
trinity
trio
trip
triple
tristan
triton
triumf
triumfa
triumvira
trivia
trna
trnava
trnave
trnavska
trnavske
trnavskej
trnavskom
trnavsky
trnavy
trnka
tro
troch
trocha
trochu
trofej
trofeje
trois
trojan
trojc
trojica
trojice
trojici
trojlod
trojna
trojosovy
trojroc
trojtraktova
trojuholni
trolejbus
trolejbusov
trolejbusova
trolejbusy
trom
troma
trombo
tromi
trophy
tropicke
tropicky
tros
troska
troskove
troskovy
trosky
trozemi
trozemia
trpasli
trpaslic
trpel
trpela
trpi
trstena
trstenej
tru
trubi
trubice
true
trukc
trukcia
trukcie
trukcii
trukciou
trukciu
trukte
trukti
truktu
truktura
trumenta
trump
truoval
truovana
truovane
truovany
truovat
trup
trupe
trupom
trupu
trust
truth
trutnov
trva
trvaju
trval
trvala
trvale
trvali
trvalo
trvaly
trvania
trvanie
trvat
try
trz
ts
tska
tske
tskeho
tskej
tski
tsko
tskom
tsku
tsky
tskych
tskym
tstva
tstvo
tt
tu
tuberkulo
tuc
tucker
tudent
tudenta
tudenti
tudentmi
tudentom
tudentov
tudentske
tudentsky
tudes
tudijne
tudijny
tudoval
tudovala
tudovali
tudovat
tuduje
tuduju
tuha
tuhe
tuhy
tuk
tuka
tukov
tuku
tula
tum
tumom
tumu
tumy
tunajs
tunel
tunela
tuneli
tunelom
tunelov
tunely
tung
tunisko
tupolev
tur
tura
turanec
turbi
turbo
turbodu
turc
turca
turci
turec
turecka
turecke
tureckej
turecko
tureckom
turecku
turecky
turi
turiec
turisti
turisticka
turisticke
turistickej
turistickou
turisticky
turistika
turistiku
turistiky
turistov
turizmus
turkami
turkme
turkom
turkov
turn
turnaj
turnaja
turnaje
turnaji
turnajoch
turnajom
turnajov
turne
turner
turzo
tus
tuto
tv
tva
tvar
tvare
tvarmi
tvarne
tvarnej
tvarni
tvarnom
tvarny
tvarom
tvarov
tvaru
tvary
tve
tveho
tvi
tvoj
tvoja
tvoje
tvojej
tvojho
tvojich
tvoju
tvor
tvorba
tvorbe
tvorbou
tvorbu
tvorby
tvorc
tvorca
tvorcom
tvorcov
tvorcove
tvorcovia
tvorcovy
tvorcu
tvorena
tvorene
tvoreny
tvorhra
tvorhre
tvorhry
tvori
tvoria
tvoriace
tvoriacich
tvoriacou
tvorica
tvoril
tvorila
tvorili
tvorilo
tvorit
tvorive
tvorivej
tvorivy
tvorka
tvorke
tvorky
tvorna
tvorroc
tvory
tvrda
tvrde
tvrdej
tvrdeni
tvrdenia
tvrdenie
tvrdi
tvrdia
tvrdil
tvrdila
tvrdili
tvrdit
tvrdo
tvrdos
tvrdost
tvrds
tvrdy
tvrt
tvrta
tvrte
tvrtej
tvrti
tvrtina
tvrtiny
tvrtok
tvrtom
tvrtou
tvrtu
tvrty
tvy
tvych
tw
twin
twist
twitter
two
tx
ty
tyc
tych
tyler
tylizovane
tym
tympano
tyn
tyne
typ
type
typicka
typicke
typickou
typicky
typmi
typoch
typolo
typom
typov
typovy
typu
typy
tyri
tyria
tyridsat
tyrikra
tyrmi
tyroch
tz
tzn
tzv
u
ua
ub
uba
ube
ubica
ubl
ubo
ubomi
ubos
ubou
ubovn
ubovol
ubra
ubu
ubuje
ubuntu
uby
ubytovanie
uc
uceleny
uch
ucha
ucho
uchova
uchy
uci
uctievanie
uctievany
ud
uda
udalost
udalosti
udalostiach
udalostiam
ude
udel
udelena
udelene
udeleni
udelenie
udeleny
udelil
udelila
udelili
udelit
udi
udia
udmila
udnatejs
udne
udnenia
udo
udom
udova
udove
udovej
udovi
udovo
udovou
udovu
udovy
udrz
udska
udske
udskej
udskom
udskosti
udskou
udsku
udsky
udstva
udstvo
udu
ue
ueda
uefa
uesac
uf
ufa
ufc
ufo
ug
uh
uher
uherske
uhl
uhla
uhli
uhlia
uhlic
uhlie
uhlom
uhlopriec
uhlov
uhol
uholni
uhorska
uhorske
uhorskej
uhorski
uhorsko
uhorskom
uhorsku
uhorsky
uhri
uj
ujal
ujala
uje
ujem
ujemcov
ujeme
ujes
uji
ujme
ujmom
ujmov
ujmu
ujmy
ujst
uju
uk
uka
ukazovatel
ukazuje
ukazuju
ukb
ukf
uklada
ukladaju
ukladanie
ukonc
ukov
ukove
ukovy
ukrajina
ukrajinc
ukrajinci
ukrajincov
ukrajine
ukrajinou
ukrajinska
ukrajinske
ukrajinskej
ukrajinski
ukrajinsky
ukrajinu
ukrajiny
ukriz
ukry
uku
uky
ul
ula
uli
uliach
uliar
uliari
ulic
ulica
ulicami
ulice
ulici
uliciach
ulicou
ulicu
uloz
ulrich
ultima
ultimate
ultra
ultrafialove
ulvaeus
uly
um
umava
umb
umbierske
ume
umela
umelca
umelcami
umelci
umelcom
umelcov
umele
umelec
umelecka
umelecke
umeleckej
umelecko
umelecku
umelecky
umelej
umelkyn
umelo
umely
umeni
umenia
umenie
umeniu
umiera
umieraju
umiestn
umiestnena
umiestnene
umiestneni
umiestnenia
umiestnenie
umiestneny
umiestnil
umiestnila
umiestnili
umiestnilo
umiestnit
umoz
umperk
umrel
umuc
umy
un
una
und
under
underground
une
unesco
ung
uni
unicode
unika
uniknu
unikol
union
unit
united
universal
universe
universita
university
univerza
univerzi
univerzita
univerzite
univerzitna
univerzitne
univerzitnej
univerzitni
univerzitny
univerzitou
univerzitu
univerzity
unix
unplugged
unsubscribe
uo
up
upa
upadat
upadol
upan
upana
upanom
upc
update
upe
upevn
upevnenie
upevnil
upi
upjs
uplatn
uplatnenie
uplatnil
uplatnit
uplynuti
upne
upny
upon
upozorn
upozornenie
upozornil
upozornit
upper
uppsala
upravena
upravene
upraveny
upravi
upravil
upravit
upravovany
upravovat
upravuje
upravuju
uprednostn
upright
uprostred
upu
upy
ur
ura
ural
urany
urata
urba
urban
urbana
urbino
urc
urgent
uri
urica
uris
url
urna
urnalistiky
urobene
urobeny
urobi
urobil
urobila
urobili
urobilo
urobit
urs
uruguaj
uruguaja
uruguaji
ury
us
usa
usadeni
usadeny
usadil
usadili
usadlost
usadlosti
usaf
usb
usd
use
used
user
users
usi
usiloval
usiluje
using
uskutoc
usmern
usporadu
usporiadal
usporiadane
usporiadani
usporiadania
usporiadanie
usporiadany
usporiadatel
uss
ust
usta
ustanovena
ustanoveni
ustanovenia
ustanovenie
ustanoveny
ustanovi
ustanovil
ustanovuje
ustanovuju
uste
ustu
ustupuju
usu
ut
uta
utah
utc
utec
uti
utiect
utiekli
utiekol
utorok
utrpel
utrpela
utrpeli
utrpenia
utrpenie
utva
utvary
utvorene
uv
uva
uvaz
uvedena
uvedene
uvedenej
uvedeni
uvedenia
uvedenie
uvedenom
uvedeny
uvedie
uvedomil
uvedomit
uverejn
uverejnene
uverejneny
uverejnil
uvi
uvidel
uvidi
uviedla
uviedli
uviedlo
uviedol
uviest
uvol
ux
uy
uz
uza
uzatva
uzatvorena
uzatvorene
uzatvoreny
uzavrel
uzavrela
uzavreli
uzavreta
uzavrete
uzavreti
uzavretie
uzavrety
uzavriet
uzbekistan
uzla
uzlom
uzlov
uzna
uznal
uznala
uznali
uznana
uznane
uznani
uznania
uznanie
uznany
uznat
uzneseni
uznesenia
uznesenie
uzol
uzurpa
v
va
vab
vac
vacej
vach
vaci
vacia
vacie
vacieho
vaciu
vacom
vacou
vada
vadi
vago
vah
vaha
vahy
vai
vaj
vajanske
vajc
vajce
vajcia
vajda
vajec
vaji
vajnory
vajte
vaju
vakci
val
vala
valach
valas
valc
valca
valcov
valcovy
valds
vale
valec
valej
valenc
valencia
valenou
valenti
valentin
valentine
valeria
valerij
vali
valle
valley
valne
valo
valois
valom
valou
valu
value
valy
vam
vame
vami
van
vana
vanc
vancouver
vancouveri
vandalizmu
vandalizmus
vane
vanej
vanejs
vanguard
vani
vania
vanie
vaniu
vanom
vanou
vanu
vany
var
varga
vari
varia
variant
variante
variantoch
variantom
variantov
variantu
varianty
varieta
varmsko
varoval
varphi
vars
varu
vary
vas
vasil
vasilievic
vasilij
vat
vate
vatel
vatelia
vatika
vaucluse
vavri
vavrinca
vavrinec
vaz
vb
vc
vca
vce
vcelku
vcha
vchod
vchodom
vchodu
vci
vcom
vcov
vcovia
vcu
vd
vdova
vdy
ve
vec
veci
veciach
vecne
vecny
vecou
ved
veda
vedci
vedcom
vedcov
vede
vedec
vedecka
vedecke
vedeckej
vedecko
vedeckom
vedeckovy
vedecku
vedecky
vedel
vedela
vedeli
vedena
vedene
vedenej
vedeni
vedenia
vedenie
vedeniu
vedeny
vedia
vedie
vediet
vedl
vedny
vedome
vedomi
vedomia
vedomie
vedomosti
vedomy
vedu
vedy
vega
vegas
vegeta
vegetac
vegetaria
vegetator
vehicle
veja
vek
vekom
vektor
vektora
vektorovy
veku
vel
vela
veleni
velenia
velenie
velic
velika
velil
velitel
velitelia
velka
velke
velky
velmi
velvet
vena
vencom
vende
vendeli
vene
venera
venezuela
venezuele
venia
venie
veniec
venkov
venoval
venovala
venovali
venovana
venovane
venovany
venovat
ventil
ventila
venuje
venuju
venus
veny
veporske
veporsky
ver
vera
verba
vere
verec
verejna
verejne
verejnej
verejnom
verejnopra
verejnost
verejnosti
verejnu
verejny
vergi
veri
veria
veriaci
veriacich
veriacim
veril
verili
verit
veritel
verl
verlag
verna
verne
verni
vernost
vernosti
verny
verom
veronica
veronika
verov
vers
versailles
version
vertical
vertika
veru
very
verzia
verzie
verzii
verziou
verziu
ves
vesela
vesele
veseli
vesely
vesisti
vesla
vesmi
vesni
vesnice
vesov
vesove
vespre
vesta
vestfa
vestni
vesy
veta
vete
vetera
veterina
veterna
veterne
veterny
vetiev
vetou
vetra
vetrom
vetu
vetva
vetvic
vetvy
vety
vez
vezme
vf
vg
vh
vhodna
vhodne
vhodnejs
vhodnu
vhodny
vhs
vi
via
viac
viacej
viacere
viaceri
viacero
viacery
viackra
viacna
viacu
viadukt
vianoc
vianoce
viaz
viazana
viazane
viazany
vibra
vic
vice
vicente
viceprezident
viceprezidenta
viceprezidentom
victor
victoria
vid
vida
videa
videi
videl
videla
videli
videnie
video
videohier
videohra
videohry
videoklip
videoklipe
videoklipy
videu
vidi
vidia
vidiecka
vidiecke
vidieckych
vidiek
vidieka
vidieku
vidiet
viditel
vidlicovy
vidno
vie
vied
vieden
viedenska
viedenske
viedenskej
viedenskom
viedensky
viedla
viedli
viedlo
viedne
viedni
viedol
viem
vieme
vienna
vienne
viera
viere
vierou
vierovyznania
vieru
viery
vies
viest
viet
viete
vietnam
vietname
vietnamskej
vietnamsky
vietnamu
vietor
view
vihorlat
vihorlatsky
vii
viii
vik
vika
viking
vikto
viktor
viktora
viktoria
vil
vila
vilaine
vile
vili
viliam
viliama
villa
village
ville
villeneuve
villers
vilo
vily
vin
vina
vince
vincent
vincenta
vincenzo
vinci
vine
vinic
vinni
vinny
vinnyckej
vinohradni
vinohrady
vinu
viny
vinyl
viola
violonc
viou
vip
vira
virgi
virgin
virginia
viridis
virtua
virtual
virtuo
virus
vis
visel
visela
viselo
visi
visia
visiace
visiacich
visiet
vision
visla
visle
vislej
visli
vislost
vislosti
vislou
vislu
visly
vist
vista
visti
visual
visualeditor
vit
vita
vitami
vitra
viu
viva
vizigo
vizua
vj
vk
vka
vkach
vkami
vke
vklada
vkou
vkova
vkove
vkovy
vku
vky
vl
vla
vlada
vladimi
vladimir
vladimirovic
vladislav
vladislava
vlado
vlajka
vlajke
vlajkou
vlajku
vlajky
vlak
vlakom
vlakov
vlaku
vlaky
vlas
vlasov
vlast
vlasta
vlasti
vlastimil
vlastivedne
vlastivedny
vlastna
vlastne
vlastnej
vlastni
vlastnil
vlastnila
vlastnili
vlastnom
vlastnost
vlastnosti
vlastnou
vlastnu
vlastny
vlastok
vlasy
vlc
vlec
vlhke
vlhkost
vlhkosti
vlhky
vlieva
vlk
vlna
vlne
vlnenie
vlnovej
vlnovy
vlnu
vlny
vloz
vltavou
vltavy
vlysom
vm
vmi
vn
vna
vne
vneho
vnej
vnejs
vnemu
vnene
vneni
vnenie
vneny
vni
vnic
vnici
vnicka
vnicke
vnickej
vnicku
vnicky
vnik
vnika
vnikov
vno
vnom
vnost
vnosti
vnostne
vnostny
vnou
vnu
vnuc
vnuk
vny
vnych
vnym
vnymi
vo
voc
vocal
vocals
voch
vod
voda
vodca
vodcom
vodcov
vodcovia
vodcu
vode
vodi
vodic
vodivost
vodmi
vodn
vodna
vodne
vodnej
vodneni
vodnenie
vodni
vodnom
vodnopo
vodnou
vodnu
vodny
vodoch
vodohospoda
vodom
vodopa
vodorovne
vodou
vodov
vodovod
vodstvo
vodu
vody
voice
voj
voja
vojaci
vojak
vojaka
vojakmi
vojakom
vojakov
vojen
vojenska
vojenske
vojenskej
vojenski
vojenskom
vojenskou
vojensku
vojensky
voji
vojna
vojnami
vojne
vojnou
vojnova
vojnove
vojnovej
vojnovy
vojnu
vojny
vojom
vojova
vojove
vojovo
vojovy
vojsk
vojska
vojskami
vojsko
vojskom
vojsku
vojtas
vojte
vojtech
vojtecha
voju
vojvoda
vojvodca
vojvodkyn
vojvodom
vojvodstva
vojvodstve
vojvodstvo
vojvodu
vok
voka
vol
vola
volaju
volal
volala
volali
volanie
volat
volbeat
volcanism
volcano
volebna
volebne
volebnej
volebnom
volebny
volejbal
volejbale
volejbalova
volejbalove
volejbalovej
volejbalovy
voleni
voleny
volfra
volga
voli
volic
volieb
volit
volitel
volkswagen
volovske
volovsky
volu
volume
volvo
vom
vomoc
vomoci
von
vondra
vonkajs
vonku
voodoo
voplatne
vopred
voronez
vos
vosges
vostok
vou
vov
vove
vovy
voyage
voyager
voz
voza
vozen
vozi
vozidiel
vozidla
vozidlo
vozidlom
vozn
vozne
vozov
vozovn
vozu
vozy
vp
vpa
vply
vplyv
vplyvmi
vplyvny
vplyvom
vplyvov
vplyvu
vplyvy
vpn
vpravo
vpred
vpredu
vr
vra
vracaju
vracia
vrah
vraha
vraj
vrakun
vranov
vrat
vrate
vratislav
vratne
vratu
vraty
vravi
vraz
vrba
vrch
vrcha
vrchmi
vrchna
vrchne
vrchnej
vrchny
vrchoch
vrchol
vrchole
vrcholmi
vrcholne
vrcholny
vrcholom
vrcholov
vrcholova
vrcholove
vrcholovej
vrcholovu
vrcholovy
vrcholu
vrcholy
vrchom
vrchov
vrchovina
vrchovine
vrchovinu
vrchoviny
vrchu
vrchy
vre
vres
vrh
vrha
vrhom
vrhov
vrhu
vrhy
vri
vroc
vroclav
vrodene
vrs
vrstiev
vrstva
vrstvami
vrstve
vrstvia
vrstvie
vrstvou
vrstvu
vrstvy
vrtul
vru
vrz
vs
vsak
vseti
vsetko
vsi
vstavac
vstu
vstup
vstupe
vstupna
vstupne
vstupnej
vstupny
vstupom
vstupu
vstupuje
vstupuju
vstupy
vsz
vt
vta
vtedajs
vtedy
vteka
vtip
vtj
vtrhli
vu
vuelta
vulga
vulgaris
vulka
vulkanicke
vulkanicky
vum
vut
vv
vw
vx
vy
vybavena
vybavene
vybaveni
vybavenia
vybavenie
vybavenost
vybaveny
vybera
vyberat
vyberie
vybieha
vybiehaju
vybojoval
vybojovali
vybral
vybrala
vybrali
vybrana
vybrane
vybrany
vybrat
vybudoval
vybudovala
vybudovali
vybudovana
vybudovane
vybudovani
vybudovanie
vybudovany
vybudovat
vyc
vycha
vychova
vychy
vycvic
vyd
vyda
vydal
vydala
vydali
vydalo
vydana
vydane
vydanej
vydani
vydania
vydanie
vydaniu
vydany
vydat
vydata
vydavatel
vydrz
vygenerovany
vyha
vyhl
vyhla
vyhlasuje
vyhli
vyhnal
vyhnali
vyhnani
vyhnanstva
vyhnany
vyhnu
vyhol
vyhorel
vyhovuje
vyhovuju
vyhra
vyhradene
vyhral
vyhrala
vyhrali
vyhralo
vyhrat
vyhy
vyhynuty
vyjadrena
vyjadrene
vyjadreni
vyjadrenia
vyjadrenie
vyjadreny
vyjadri
vyjadril
vyjadrila
vyjadrili
vyjadrit
vyjadroval
vyjadrovat
vyjadruje
vyjadruju
vyjde
vyjedna
vyjst
vykazuje
vykazuju
vykona
vykonal
vykonala
vykonali
vykonana
vykonane
vykonani
vykonanie
vykonany
vykonat
vykopa
vykorist
vykresl
vyku
vyl
vyleps
vyliec
vyloz
vylu
vyluc
vymazat
vymedzene
vymedzenie
vymedzeny
vymedzuje
vymeneny
vymenil
vymenili
vymenit
vymenoval
vymenovala
vymenovana
vymenovani
vymenovanie
vymenovany
vymenu
vymien
vymy
vymyslel
vyn
vyna
vynaloz
vynas
vynecha
vyniesla
vyniesol
vynika
vynikaju
vynikal
vynu
vyobrazeni
vyobrazenie
vyobrazeny
vypa
vypada
vypadla
vypadli
vypadlo
vypadol
vypi
vypl
vypla
vyplienili
vyplnene
vyply
vypoc
vypovedal
vypra
vypracoval
vypracovany
vypravil
vyprs
vypu
vypukla
vypukli
vypuklo
vypuknuti
vypukol
vypustena
vypustenie
vypusteny
vypustili
vyra
vyrad
vyradene
vyradeny
vyrasta
vyrastaju
vyrastal
vyrastala
vyreza
vyries
vyrobena
vyrobene
vyrobeny
vyrobil
vyrobila
vyrobilo
vyrobit
vyrovna
vyrovnal
vyrovnat
vys
vysa
vysi
vysiela
vysielac
vysielaju
vysielal
vysielala
vysielane
vysielani
vysielania
vysielanie
vysielany
vysielat
vysklon
vyskoc
vysku
vyskytli
vyskytnu
vyskytol
vyskytoval
vyskytovali
vyskytovat
vyskytuje
vyskytuju
vyslal
vyslala
vyslanca
vyslanci
vyslancom
vyslanec
vyslanectva
vyslanectvo
vyslany
vyslov
vyslovene
vyslovil
vyslovuje
vyslu
vysoc
vysoka
vysoke
vysokej
vysoko
vysokohorsky
vysokom
vysokory
vysokos
vysokou
vysoku
vysoky
vyspely
vysporiadat
vyst
vystavany
vystavena
vystavene
vystaveni
vystaveny
vystrel
vystriedal
vystriedala
vystriedali
vystriedalo
vystu
vystupoval
vystupovala
vystupovali
vystupovat
vystupuje
vystupuju
vystuz
vysus
vysva
vysvetl
vysvetlene
vysvetleni
vysvetlenia
vysvetlenie
vysvetlil
vysvetlit
vysvetlivky
vysviacku
vyt
vyteka
vytiahol
vytla
vytlac
vytva
vytvorena
vytvorene
vytvoreni
vytvorenia
vytvorenie
vytvoreniu
vytvoreny
vytvori
vytvoria
vytvoril
vytvorila
vytvorili
vytvorilo
vytvorit
vyty
vyu
vyuc
vyuz
vyva
vyvi
vyvinu
vyvinul
vyvinula
vyvinuli
vyvinulo
vyvinuta
vyvinute
vyvinuty
vyvola
vyvolal
vyvolala
vyvolali
vyvolalo
vyvolana
vyvolane
vyvolany
vyvolat
vyvra
vyvraz
vyvrcholeni
vyvrcholil
vyvrcholila
vyvrcholili
vyvy
vyz
vyzbrojene
vyzbrojeny
vyzera
vyzeraju
vyzeralo
vyzerat
vyzna
vyznac
vyznamenal
vyznamenani
vyznamenania
vyznamenanie
vyznamenany
vyznamove
vyznania
vyznanie
vyzval
vyzy
vz
vza
vzadu
vzal
vzala
vzali
vzbu
vzbura
vzburu
vzbury
vzd
vzda
vzdal
vzdala
vzdali
vzdat
vzdela
vzdelani
vzdelania
vzdelanie
vzdelanosti
vzdelany
vzdialena
vzdialene
vzdialenej
vzdialenejs
vzdialenost
vzdialenosti
vzdialeny
vzduch
vzduchom
vzduchu
vzdus
vzhl
vziat
vzis
vzletova
vzlietol
vzna
vznes
vznik
vznika
vznikaju
vznikali
vznikat
vznikla
vznikli
vzniklo
vznikne
vzniknu
vzniknute
vzniknuty
vznikol
vznikom
vzniku
vzor
vzorca
vzorce
vzorec
vzoriek
vzorka
vzorky
vzorom
vzorov
vzoru
vzory
vzostup
vzra
vzrastaju
vzrus
vzt
vzty
w
wa
waffen
wagner
waiting
wake
wales
walese
waleske
walesky
walesu
walk
walker
walking
wall
wallace
walt
walter
wang
wanna
want
war
warcraft
ward
warner
warren
warrior
wars
warszawa
was
washington
washingtone
washingtonu
watanabe
watch
water
waterloo
waters
watson
wave
way
wayne
wb
wc
wd
we
web
webe
weber
webova
webove
webovej
webovy
website
webstra
webu
week
wehrmachtu
weiss
welcome
well
wells
welt
wembley
wen
were
werich
werner
wesley
west
western
westminster
what
whatsapp
whc
when
where
which
whil
white
whitney
who
whois
why
wi
wide
width
wie
wien
wiener
wii
wiki
wikidata
wikimedia
wikimedie
wikipe
wikipedia
wikipedias
wikipedie
wikipedii
wikiprojekt
wikis
wikislovni
wikiu
wild
wiley
wilhelm
will
willem
william
williama
williams
williamsova
wilson
wimbledon
wimbledone
wimbledonu
win
wind
window
windows
windsor
wing
wings
winnipeg
winston
winter
wisconsin
wish
with
within
without
wittenbergu
wizzard
wl
wm
wmf
wmsk
wo
wolf
wolfgang
wolfovej
woman
women
wonder
wood
wookie
word
words
work
working
works
world
would
wp
wr
wrc
wrestler
wrestling
wright
writers
writing
wrong
ws
wt
wta
wu
wv
ww
wwe
wwf
www
wz
x
xa
xaver
xb
xbox
xc
xd
xe
xf
xg
xh
xi
xii
xiii
xinglong
xiv
xix
xj
xk
xl
xm
xml
xn
xo
xp
xq
xr
xs
xt
xu
xv
xvi
xvii
xviii
xw
xx
xxiii
xxx
xy
xz
y
ya
yahoo
yale
ye
year
years
yellow
yes
yeung
yg
yo
yoko
yonne
york
yorku
you
young
your
yourself
youth
youtube
yu
yvelines
yves
yyyy
z
za
zaba
zabera
zaberaju
zabezpec
zabi
zabije
zabil
zabila
zabili
zabit
zabiti
zabitie
zabity
zablokovanie
zablokovany
zablokovat
zabra
zabran
zabu
zabudol
zabudovany
zac
zach
zachova
zachoval
zachovala
zachovali
zachovalo
zachovaly
zachovana
zachovane
zachovani
zachovania
zachovanie
zachovany
zachovat
zachra
zachran
zachyta
zachytene
zachytenie
zachyteny
zachytil
zachytit
zada
zadarmo
zadna
zadne
zadnej
zadnou
zadnu
zadny
zadrz
zaha
zahr
zahra
zahral
zahrala
zahrali
zahranic
zahrat
zahrn
zahrnute
zahrnuty
zahynul
zahynula
zahynuli
zahynulo
zaist
zaistenie
zaistil
zaistit
zajac
zajali
zajatcov
zajati
zajatia
zajaty
zaji
zajtra
zaka
zakarpatskej
zakaz
zakazuje
zaklada
zakladaju
zakladal
zakladali
zakladat
zakladatel
zakladatelia
zaklenuta
zaklenute
zaklenuty
zakli
zakonc
zakopane
zakra
zakry
zaku
zal
zala
zalesneny
zali
zalianskej
zalo
zaloz
zameral
zamerala
zamerana
zamerane
zamerani
zamerania
zameranie
zamerany
zamerat
zameriava
zameriavac
zameriavaju
zameriaval
zamestna
zamestnal
zamestnanca
zamestnancami
zamestnanci
zamestnancom
zamestnancov
zamestnanec
zamestnani
zamestnania
zamestnanie
zamestnany
zami
zamien
zamietol
zamy
zan
zana
zane
zanecha
zanechal
zanechali
zanedba
zanedbatel
zani
zania
zanie
zanika
zanikla
zanikli
zaniklo
zaniknuta
zaniknute
zaniknutej
zaniknuty
zanikol
zany
zaobcha
zaobera
zaoberaju
zaoberal
zaoberala
zaoberali
zaoberat
zaokru
zaosta
zapa
zapal
zapama
zapi
zapisuje
zaplatil
zaplatit
zapoc
zapojene
zapojeni
zapojenie
zapojeny
zapojil
zapojila
zapojili
zapojit
zappa
zapri
zar
zara
zarad
zaradena
zaradene
zaradeni
zaradenie
zaradeny
zaradil
zaradila
zaradili
zaradit
zaregistrovany
zariadeni
zariadenia
zariadeniach
zariadeniami
zariadenie
zarobil
zaruc
zas
zasa
zasadani
zasadnuti
zasadnutia
zasadnutie
zasadol
zasahovat
zasahuje
zasahuju
zase
zasiahla
zasiahli
zasiahlo
zasiahnut
zasiahnuty
zasiahol
zaskoc
zaslu
zasnu
zasta
zastarane
zastarano
zastarany
zastavena
zastavene
zastaveni
zastavenia
zastavenie
zastavi
zastavil
zastavila
zastavili
zastavit
zastras
zastreleny
zastres
zastu
zastupitel
zastupoval
zastupuje
zastupuju
zasva
zat
zatel
zatial
zatkli
zatknuti
zatknuty
zatlac
zatmenia
zatmenie
zato
zatva
zatvorene
zatvoreny
zaty
zau
zaujal
zaujala
zaujali
zauji
zaujme
zauz
zava
zavedena
zavedene
zavedeni
zavedenia
zavedenie
zavedeny
zavesene
zaveseny
zaviazal
zaviedla
zaviedli
zaviedol
zaviest
zavlaz
zavlec
zavolal
zavou
zavr
zavraz
zaz
zaznamena
zaznamenal
zaznamenala
zaznamenali
zaznamenalo
zaznamenana
zaznamenane
zaznamenany
zb
zba
zbaveny
zbavil
zbavit
zbe
zber
zberac
zberatel
zbernica
zbernice
zbierka
zbierkach
zbierke
zbierkou
zbierku
zbierky
zbierok
zbli
zbojni
zbor
zbore
zborni
zborom
zborov
zboru
zbory
zbou
zboz
zbran
zbrane
zbrani
zbroj
zbroje
zbroji
zbrojou
zbu
zby
zbytoc
zc
zcestie
zd
zda
zdalo
zdanliva
zdanlivo
zdarma
zde
zdedil
zden
zdena
zdene
zdenka
zdeno
zdiel
zdl
zdna
zdne
zdneho
zdniny
zdny
zdo
zdoba
zdobe
zdobena
zdobene
zdobeny
zdobou
zdobu
zdoby
zdokonal
zdola
zdolal
zdolali
zdrave
zdravi
zdravia
zdravie
zdravotna
zdravotne
zdravotnej
zdravotni
zdravotnu
zdravotny
zdravy
zdroj
zdroja
zdroje
zdroji
zdrojmi
zdrojoch
zdrojom
zdrojov
zdrojove
zdrojovy
zdruz
zdrz
zdvi
zdvih
zdvihovy
zdvojna
zdy
ze
zea
zef
zei
zeichen
zeit
zeitung
zejni
zek
zelen
zelena
zelene
zelenej
zelenina
zeleniny
zeleno
zelenom
zelenou
zelenu
zeleny
zelni
zem
zeman
zemana
zeme
zemepa
zemepisnej
zemepisny
zemetraseni
zemetrasenia
zemetrasenie
zemi
zemia
zemiach
zemiakov
zemiaky
zemianskeho
zemie
zemiu
zemna
zemne
zemnej
zemno
zemny
zemou
zempli
zemska
zemske
zemskej
zemskom
zemsky
zen
zeni
zenia
zenie
zenit
zeno
zeppelin
zero
zeta
zeu
zeum
zeus
zh
zhoda
zhode
zhodne
zhodny
zhodou
zhoduje
zhoduju
zhora
zhors
zhotovene
zhotoveny
zhotovil
zhrnul
zhrnutie
zhromaz
zhruba
zhubny
zi
zia
ziami
zicky
zie
zieb
zii
zijska
zijske
zijskej
zijsky
zima
zimbabwe
zime
zimna
zimne
zimnej
zimnom
zimny
zimu
zimuju
zimy
zintenzi
ziou
zis
zisk
ziskom
ziskov
zisku
zisky
zist
zistena
zistene
zisteni
zistenie
zisteny
zisti
zistil
zistila
zistili
zistilo
zistit
ziu
zium
zjavenia
zjavenie
zjavne
zjazd
zjazde
zjednodus
zjednotene
zjednoteni
zjednotenia
zjednotenie
zjednotit
zka
zkach
zkam
zkami
zke
zkeho
zkej
zko
zkoch
zkom
zkopodlaz
zkost
zkosti
zkou
zkov
zkova
zkove
zkovy
zku
zky
zkych
zkym
zkymi
zl
zla
zlata
zlate
zlatej
zlatni
zlato
zlatom
zlatou
zlatu
zlaty
zle
zlej
zleps
zli
zliatin
zliatiny
zlikvidovat
zlo
zloc
zlom
zlomil
zlomky
zlomok
zloz
zlu
zluc
zly
zlyha
zlyhal
zlyhani
zlyhania
zlyhanie
zma
zmaturoval
zmazal
zmazane
zmazani
zmazanie
zmazaniu
zmazany
zmazat
zme
zmena
zmenami
zmene
zmenena
zmenene
zmeneny
zmeni
zmenil
zmenila
zmenili
zmenilo
zmenit
zmenou
zmens
zmenu
zmeny
zmes
zmesi
zmesou
zmi
zmien
zmienka
zmienku
zmienky
zmiernenie
zmies
zmizol
zmlu
zmluva
zmluve
zmluvne
zmluvny
zmluvou
zmluvu
zmluvy
zmocnil
zmocnili
zmoz
zmr
zmy
zmysel
zmysle
zmyslom
zmyslove
zmyslovy
zmyslu
zmysluplne
zn
zna
znac
znak
znakmi
znakom
znakov
znaku
znaky
znalost
znalosti
znam
zname
znamena
znamenaju
znamenal
znamenala
znamenali
znamenalo
znamenat
znameni
znamenie
znamna
znamne
znamnej
znamnejs
znamni
znamnost
znamnosti
znamnou
znamnu
znamny
znamoch
znamom
znamov
znamove
znamovy
znamu
znamy
zne
znec
zneho
znej
znejs
zneju
znel
znemoz
zneni
znenia
znenie
zneny
znes
zneuz
znevy
zni
znic
znice
znie
znievom
znili
zniz
znojmo
znom
znorode
znorodost
znorody
znost
znosti
znou
znova
znovu
znu
zny
znych
znym
znymi
zo
zoba
zobral
zobrat
zobrazena
zobrazene
zobrazeni
zobrazenia
zobrazenie
zobrazeny
zobrazi
zobrazili
zobrazit
zobrazovanie
zobrazovany
zobrazovat
zobrazuje
zobrazuju
zoch
zodpoveda
zodpovedaju
zodpovedal
zodpovedna
zodpovedne
zodpovednost
zodpovednosti
zodpovedny
zoe
zoh
zohl
zohra
zohral
zok
zolta
zom
zombie
zomiera
zomrel
zomrela
zomreli
zomrelo
zomrie
zomriet
zone
zoo
zoolo
zopa
zopakoval
zopakovat
zor
zora
zoradene
zore
zorganizoval
zorganizovali
zorganizovat
zormi
zorn
zorne
zornenie
zoro
zorom
zorov
zoru
zory
zos
zosadeny
zosiln
zoskupeni
zoskupenia
zoskupenie
zosmies
zosnule
zosnuly
zosnutia
zosoba
zosta
zostal
zostala
zostali
zostalo
zostane
zostat
zostava
zostave
zostaveny
zostavil
zostavit
zostavy
zostreleny
zostrelil
zostu
zostup
zostupu
zotrvac
zotrval
zou
zov
zova
zovala
zove
zovej
zovs
zovy
zoz
zozadu
zozna
zoznam
zozname
zoznamoch
zoznamom
zoznamov
zoznamu
zoznamy
zpe
zpi
zpra
zr
zra
zrac
zrak
zrakom
zraku
zraky
zraneni
zranenia
zranenie
zraneniu
zraneny
zranil
zranitel
zrazu
zrejme
zrekons
zretel
zriad
zriadena
zriadene
zriadeni
zriadenia
zriadenie
zriadeny
zriadil
zriadili
zriadit
zriedka
zriedkave
zriedkavejs
zriedkavo
zriedkavy
zrkadla
zrkadlo
zrna
zrod
zrode
zrovna
zrovnopra
zrozumitel
zru
zruc
zrus
zry
zs
zsa
zsef
zska
zske
zskeho
zskej
zski
zsko
zskom
zskou
zsku
zsky
zskych
zskym
zskymi
zssk
zssr
zt
zu
zub
zuba
zubov
zuby
zuje
zuju
zum
zur
zus
zuz
zuzana
zuzany
zv
zva
zvami
zvana
zvane
zvanej
zvanom
zvany
zvaz
zve
zvedavec
zvel
zver
zverejn
zverejnena
zverejnene
zverejneni
zverejneny
zverejnil
zverejnila
zveri
zveril
zvetra
zvezda
zvi
zviditel
zviera
zvierat
zvierata
zvieratami
zvisle
zvisly
zvla
zvnu
zvoch
zvola
zvolal
zvolen
zvolena
zvolene
zvoleni
zvolenie
zvolenska
zvolenskej
zvolensky
zvoleny
zvolil
zvolila
zvolili
zvolit
zvom
zvon
zvonc
zvonica
zvonice
zvonka
zvonku
zvonovitou
zvony
zvoslovie
zvoslovne
zvov
zvra
zvrchovanost
zvu
zvuc
zvuk
zvuka
zvukom
zvukov
zvukova
zvukove
zvukovy
zvuku
zvuky
zvy
zvyc
zvyk
zvyklosti
zvykne
zvyknu
zvykom
zvyky
zvys
zx
zy
zyho
zz
{
|
}
~
¡
£
§
©
«
¬
­
®
°
±
²
³
´
µ
·
¹
º
»
¼
½
¿
×
ß
æ
÷
ø
ı
ł
ə
ʹ
ʻ
ʼ
ʾ
ʿ
ˈ
ː
˚
̀
́
̂
̃
̄
̆
̇
̈
̉
̊
̋
̌
̑
̓
̔
̛
̣
̥
̦
̧
̨
̮
̯
̱
̸
͂
α
β
γ
δ
ε
ζ
η
θ
ι
κ
λ
μ
ν
ο
π
ρ
ς
σ
τ
υ
φ
ψ
ω
ϕ
а
б
в
г
д
е
з
и
к
л
м
н
на
о
п
р
с
т
у
ф
х
ч
шаблон
ъ
ь
я
і
ְ
ִ
ַ
ָ
ּ
א
ا
د
َ
ٔ
ं
क
च
ज
त
द
न
प
ब
म
य
र
ल
व
स
ह
ा
ि
ी
ु
े
ो
्
ট
ল
া
ে
্
ப
ர
ு
்
่
​
‎
‑
–
—
―
‘
’
‚
“
”
„
†
‡
•
…
‰
′
″
€
№
™
←
↑
→
↓
↔
↗
↘
↷
⇌
⇒
⇔
∈
−
∞
∧
∨
∪
∴
≈
≡
≤
≥
③
④
⑦
─
█
●
◙
★
♀
♂
♠
♣
♥
♭
✈
✉
✍
⺀
⺄
⺆
⺈
⺊
⺌
⺕
⺝
⺸
⺼
⿰
⿱
⿲
⿳
⿴
⿵
⿶
⿷
⿸
⿹
⿺
⿻
〢
い
か
く
し
た
て
と
の
は
゙
゚
ア
イ
カ
キ
ク
コ
サ
シ
ス
タ
ッ
テ
ト
ハ
ヒ
フ
ホ
マ
ユ
ラ
リ
ル
レ
ロ
ン
・
ー
㇁
㇂
㇄
㇇
㇈
㇉
㇓
㐁
㐄
㐅
㐌
㐫
㐬
㐭
㐮
㐱
㑒
㒵
㒸
㒼
㓁
㓞
㔾
㕛
㕣
㖾
㘝
㚅
㚇
㚔
㚘
㝉
㝡
㝴
㝵
㞋
㞢
㞷
㠩
㠭
㠯
㡀
㡭
㡿
㢲
㢴
㣇
㣺
㥯
㪅
㫄
㫐
㫒
㫺
㬅
㬎
㬥
㬰
㲋
㳄
㷠
㸒
㸚
㸦
㼌
㼲
㽞
㿟
䀠
䂞
䍃
䏍
䒑
䖍
䖒
䖝
䖵
䙴
䚻
䜌
䝿
䡛
䧹
䪞
一
丁
丂
七
丄
丅
丆
万
丈
三
上
下
丌
不
与
丏
丐
丑
专
且
丕
世
丘
丙
业
东
丞
丢
丣
两
严
並
丨
丩
个
丫
丬
中
丮
丰
丱
串
丵
丶
丷
丸
丹
为
主
丽
丿
乀
乂
乃
久
乆
乇
么
义
之
乌
乍
乎
乏
乐
乑
乔
乖
乗
乘
乙
乚
乛
乜
九
乞
也
习
乡
乳
乾
亀
亅
了
亇
予
争
事
二
亍
于
亏
亐
云
互
亓
五
井
亘
亚
亜
亞
亟
亠
亡
亢
交
亥
亦
产
亨
亩
享
京
亭
亮
亯
亰
亲
亳
亶
亷
人
亻
亼
亾
仁
今
介
仌
从
仐
仑
仒
仓
仕
他
付
仝
代
令
以
任
企
伊
伏
伐
休
会
伯
但
位
何
佘
余
作
佥
使
來
侈
侌
侖
侯
侵
便
保
俞
信
修
倉
倍
候
倠
備
僉
僕
儿
兀
允
兂
元
兄
充
兆
兇
先
光
兊
克
兌
免
兑
兒
兓
兔
党
兜
兟
入
全
兩
兪
八
公
六
兮
兰
共
关
兵
其
具
典
兹
兼
冀
冂
冃
冄
内
冈
冉
冊
冋
册
再
冎
冏
冐
冒
冓
冖
冗
冘
军
农
冝
冡
冥
冫
冬
冷
几
凡
凢
凵
凶
凷
凸
凹
出
函
凾
刀
刁
刂
刃
刄
刅
分
切
刍
刑
刕
刖
列
刘
则
初
別
利
别
到
制
刺
則
削
剌
前
剡
剽
劉
力
功
加
劦
助
劫
劳
劵
勃
勇
勉
勒
動
務
勞
勤
勹
勺
勻
勾
勿
匀
匂
包
匆
匈
匊
匋
匍
匕
化
北
匚
匝
匡
匪
匱
匸
匹
区
医
匽
匿
區
十
卂
千
卄
卅
卆
升
午
卉
半
卌
华
卑
卒
卓
单
卖
南
卜
卝
卞
占
卡
卢
卣
卤
卦
卩
卪
卬
卯
印
危
即
却
卵
卷
卸
卻
厂
厃
厄
历
厈
厉
厌
厓
厘
厚
原
厤
厥
厨
厭
厲
厶
厷
厸
去
厼
厽
叀
参
參
叅
又
叉
及
友
双
反
叐
发
叒
叔
叕
取
受
叚
叜
叟
口
古
句
另
叩
只
召
可
台
叱
史
右
叵
号
司
叹
吂
各
吅
合
吉
吊
吋
同
名
后
吏
向
吕
君
吝
吞
否
含
启
吳
吴
吹
吾
呂
呆
呈
告
员
呙
周
命
咅
和
咎
咠
咢
咨
咸
咼
哀
品
哉
員
哥
哲
唐
商
啇
問
啚
啬
啻
善
喜
喬
單
喿
嗇
噩
嚴
囊
囗
囘
囙
囚
四
回
囟
因
囧
囬
困
囱
囷
固
国
圂
圅
國
圍
圓
土
圡
圣
圥
在
圭
地
圶
圼
坐
坒
坚
坴
垂
型
垔
垚
埀
埋
埶
執
基
堂
堅
堆
堇
堯
塞
墨
壘
士
壬
壯
声
壳
壴
壹
壺
壽
夂
处
夅
夆
备
夊
夋
夌
复
夏
夒
夕
外
夗
夘
多
夜
夢
大
夨
天
太
夫
夬
夭
央
失
夲
头
夷
夸
夹
夻
夾
奂
奄
奇
奈
奉
奎
奏
奐
契
奓
奔
奚
奞
奠
奢
奥
奭
女
奴
奻
好
如
妄
妙
妟
妥
妻
妾
姑
委
姜
威
娄
婁
婴
嬰
嬴
子
孑
孔
孕
孖
字
存
孚
孛
孝
孟
季
孤
学
孫
孱
學
宀
宁
宂
它
宅
宇
守
安
宋
完
宏
宓
宗
官
定
宛
宜
宝
客
宣
室
宮
宰
害
家
容
宾
宿
寄
寅
密
富
寒
察
寧
審
寫
寬
寮
寸
对
寺
寻
寽
対
寿
封
尃
射
将
將
專
尉
尊
尋
尌
對
小
少
尒
尓
尔
尖
尗
尚
尞
尢
尣
尤
尧
尨
尭
就
尸
尹
尺
尻
尼
尽
尾
尿
局
居
屈
屋
屎
屏
屑
展
屖
屚
属
屠
屡
屬
屮
屯
屰
山
屵
屾
岁
岂
岑
岡
岩
岳
岸
峯
島
崇
崑
崔
崖
崙
崩
嵬
嶲
巂
巛
川
州
巟
巠
巢
巤
工
左
巧
巨
巩
巫
差
己
已
巳
巴
巷
巸
巽
巾
巿
帀
市
布
希
帚
帛
帝
带
師
席
帶
常
干
平
年
幵
并
幷
幸
幺
幻
幼
幽
幾
广
広
庄
床
底
店
庚
府
度
庫
庭
庶
康
庸
廉
廌
廛
廣
廩
廴
延
廷
建
廾
廿
开
弁
弃
弄
弇
弋
式
弓
弔
引
弗
弘
弜
弟
弥
弦
弱
張
強
强
彊
彌
彎
彐
彑
当
彔
录
彖
彗
彡
形
彥
彦
彧
彭
彳
役
彼
往
待
律
徒
得
徙
從
復
微
徵
心
忄
必
忌
忍
志
忝
忠
忩
快
念
忽
忿
思
怠
急
怱
恆
恒
恩
恭
息
悉
患
悤
悲
悶
惠
惡
惢
愁
愈
意
愛
感
慈
慧
慮
憂
憲
應
戀
戈
戉
戊
戋
戌
戍
戎
成
我
戒
戔
或
戚
戠
戢
截
戲
戶
户
戹
戼
戾
房
所
扁
扇
手
扌
才
打
托
执
承
折
拉
拜
拿
掌
推
提
摩
支
攴
攵
收
攸
改
放
政
敄
敏
敕
敖
敗
敝
敞
敢
散
敦
敫
敬
数
敷
數
斂
文
斉
斊
斗
斤
斥
斩
斬
斯
新
方
於
施
斿
旁
旋
族
无
旡
既
旣
日
旦
旧
旨
早
旬
旱
旲
时
旾
昆
昇
昌
昍
明
昏
易
昔
昗
昜
星
春
昬
是
昱
昴
昷
時
晃
晋
晏
普
景
晶
智
暑
暴
曇
曩
曰
曲
曳
更
曷
書
曹
曼
曾
替
最
朁
會
月
有
朋
服
朔
朕
朗
望
朝
木
朩
未
末
本
札
朮
术
朱
朵
朶
朿
杀
杏
杜
束
条
来
東
杲
杳
松
析
林
枚
果
枝
枲
枼
某
柔
查
柬
柰
柴
栗
桀
桑
桼
梁
條
梟
梨
棘
棠
棥
森
楚
業
楽
榮
樂
樊
欠
次
欣
欮
欲
欶
欽
款
歆
歇
歛
止
正
此
步
武
歨
歪
歮
歯
歰
歲
歴
歷
歸
歹
歺
死
殳
段
殷
殸
殹
殺
殻
殿
毋
毌
母
每
毒
比
毕
毚
毛
毳
氏
氐
民
气
氣
水
氵
氶
氷
永
氺
氾
求
汝
汞
江
沃
沓
沙
沝
河
泉
法
波
泣
泥
泰
洛
洪
活
派
流
浦
浪
浮
海
淡
淮
清
渚
渠
湯
滿
漸
火
灬
灭
灰
灵
灷
炅
炎
炏
炗
炙
炭
為
烈
烏
烝
焉
無
焦
焱
然
煞
熊
熏
燕
營
燮
爪
爫
爭
爯
爰
爱
爲
爵
父
爻
爽
爾
爿
片
牙
牚
牛
牜
牟
牢
牧
牪
牽
犀
犬
犭
犮
狂
狄
狊
独
狺
猋
猒
猪
献
獻
玄
率
玉
王
玟
玨
珎
班
琴
瑟
瑩
瓜
瓦
甘
甚
生
産
用
甫
甬
田
由
甲
申
电
甶
男
甸
甹
画
甾
畀
界
畏
畐
留
畜
畟
畢
畧
畨
番
畫
異
畱
當
畺
畾
疊
疋
疌
疑
疒
疾
癶
癸
癹
登
發
白
百
皀
皃
的
皆
皇
皋
皐
皕
皮
皷
皿
盃
盆
盇
盈
益
盍
盎
监
盒
盖
盛
盡
監
盤
盧
目
直
相
盾
省
眇
眉
看
眔
眞
真
眷
眼
眾
着
睘
睪
睿
瞏
瞢
瞿
矍
矛
矞
矢
矣
知
矦
短
石
破
碎
磊
磨
示
礻
礼
社
祟
票
祭
禀
禁
禸
禹
禺
离
禽
禾
禿
秀
秃
秉
秋
科
秝
秦
移
稟
穀
穌
穴
究
穹
空
穿
突
窄
窒
立
竒
竜
竝
竟
章
童
竹
笑
笠
筆
等
答
箕
算
箴
節
篤
篭
米
粉
粛
粟
粤
粦
粲
糞
糸
糹
系
約
納
素
索
紫
累
細
絜
絫
絲
維
綿
縣
繇
纍
纟
缶
网
罒
罔
罕
罗
罙
罡
罢
罪
署
罷
羅
羊
羌
羍
美
羔
羕
羗
羞
羡
羣
群
義
羲
羸
羽
翁
翏
習
翕
翟
翠
翼
老
耂
考
者
耆
而
耎
耑
耒
耳
耴
耶
耷
聂
聊
聖
聚
聶
聿
肀
肃
肅
肉
肖
肙
肥
肩
肯
育
肴
胃
背
胡
胥
能
脊
脩
膚
臣
臤
臧
自
臬
臭
臯
臱
至
致
臺
臼
臽
臾
臿
舀
舂
舄
與
興
舉
舌
舍
舛
舜
舞
舟
般
艦
艮
良
色
艸
艹
艾
芒
芔
芬
芮
花
芳
芺
芻
苔
苗
苟
若
苦
英
茶
茸
荅
草
荒
荣
荼
莆
莧
莫
莽
菆
菊
菐
華
萬
落
葉
著
葛
董
葵
蒙
蒦
蒼
蓋
蓬
蓺
蔑
蔡
蕉
蕭
薄
薛
薦
薰
藍
藏
藥
蘭
虍
虎
虐
虒
虔
處
虖
虗
虘
虚
虛
虜
虞
虫
虽
蚤
蚩
蜀
蜜
蟲
蠡
血
行
衍
衛
衣
衤
表
衮
衰
袁
袞
褭
褱
襄
襾
西
覀
要
覃
見
規
覓
覧
親
覽
见
角
解
言
訁
訇
計
詹
誩
諸
讠
谷
豆
豈
豊
豐
豕
豖
豙
象
豦
豩
豪
豸
貇
貝
貞
貟
負
貢
貧
貪
貫
責
貳
貴
買
費
賁
資
賈
賏
賓
賔
賛
賞
賢
賣
質
賴
贊
贝
贡
责
贯
贲
贵
赖
赞
赤
赦
走
越
足
路
蹇
身
躬
車
軍
軎
軟
輦
车
辛
辜
辟
辥
辰
辱
農
辵
辶
边
达
过
近
连
迷
追
退
送
逆
逐
通
速
造
逢
連
逮
進
遀
遂
過
道
達
遣
適
遷
遺
邊
邑
邕
那
邦
邪
郎
郡
部
郭
都
鄉
酉
酋
配
酓
釆
采
里
重
野
量
金
釒
錢
钅
長
镸
长
門
閃
閉
開
閏
閑
閒
間
閔
閵
閻
闌
门
间
闷
阑
阜
阝
阿
降
陳
隆
隊
隋
隡
隨
隱
隶
隹
隺
隻
隼
隽
难
雀
雁
集
雈
雋
雍
雐
雔
雙
雚
雜
雝
離
難
雨
雩
雪
雲
零
雷
需
霍
霜
霝
霞
霸
靈
靑
青
非
靡
面
靣
革
韋
韦
韭
韯
韱
音
頁
頃
項
須
頗
頡
頻
顛
页
風
风
飛
飞
食
飠
養
饣
首
香
馬
馮
駦
马
骨
高
髟
鬥
鬯
鬲
鬼
魚
魯
鮮
鱼
鲁
鳥
鳳
鸟
鹵
鹿
麃
麗
麥
麦
麻
黃
黄
黍
黎
黑
黒
黨
黹
黽
黾
鼎
鼓
鼠
鼻
齊
齋
齐
齒
齿
龍
龙
龜
龟
龠
龰
龱
龴
龵
龶
龷
龸
龹
者
艹
️
（
）
？
𠀁
𠀃
𠀆
𠀉
𠀎
𠀐
𠁁
𠁣
𠂆
𠂇
𠂈
𠂉
𠂊
𠂋
𠂎
𠂒
𠂔
𠂛
𠂡
𠂢
𠂤
𠂬
𠂭
𠂹
𠃊
𠃋
𠃌
𠃍
𠃎
𠃑
𠃓
𠃔
𠃜
𠄌
𠄎
𠄠
𠄢
𠆢
𠆥
𠇍
𠈌
𠌵
𠓜
𠔉
𠔥
𠔼
𠔽
𠔿
𠕀
𠕁
𠕋
𠘧
𠘨
𠙻
𠙼
𠚏
𠚒
𠚤
𠚪
𠣏
𠤎
𠤕
𠥓
𠦄
𠦑
𠦝
𠧒
𠧗
𠧪
𠩺
𠪚
𠫓
𠫔
𠫤
𠬛
𠬝
𠬞
𠬢
𠬤
𠬶
𠮛
𠮦
𠮷
𠯑
𠱠
𠳮
𠷎
𡈼
𡉀
𡉵
𡌥
𡍮
𡏳
𡕒
𡕩
𡕰
𡖅
𡗗
𡗜
𡘆
𡘤
𡧱
𡨄
𡩧
𡬠
𡭽
𡰣
𡰥
𡰪
𡰯
𡰱
𡷈
𡸁
𡿨
𡿩
𡿪
𡿺
𢀖
𢀛
𢀩
𢁙
𢆉
𢆰
𢆶
𢇁
𢇇
𢉖
𢌬
𢌿
𢏚
𢑑
𢑚
𢖻
𢙣
𢛳
𢦏
𢦒
𢧵
𢼄
𢾕
𣁋
𣄼
𣅀
𣅽
𣍘
𣎳
𣎵
𣏋
𣏼
𣗥
𣥂
𣥖
𣦵
𣦼
𣧄
𣪊
𣪠
𣬉
𣳾
𣶒
𤇾
𤊽
𤐫
𤓰
𤔔
𤕨
𤣩
𤰇
𤰔
𤰞
𤴓
𤴔
𤽄
𥁑
𥁕
𥃦
𥃩
𥃭
𥇡
𥑟
𥘅
𥘈
𥝢
𥫗
𥱡
𦈢
𦉪
𦉬
𦉼
𦍌
𦍒
𦎧
𦐇
𦓔
𦔮
𦘒
𦙃
𦚏
𦣝
𦣞
𦣻
𦥑
𦥔
𦥯
𦨉
𦭝
𦰩
𧆞
𧈧
𧘇
𧰨
𧴪
𧴮
𧵩
𧾷
𨸏
𨾴
𩙿
𩠐
𩫏
𩵋
𪉷
𪜀
𪟽
𪠲
𪩲
𫇦
𫔭
𫜸
𫝀
𫠣
𫠩
𫢉
𫥞
𫩏
𫩠
𫪡
𫲽
𫶧
𬀷
𬐘
𬗌
𬙙
𬛸
𬜯
𬟩
𬯁
𬴘
𬺻
𬼉
𬼖
𭀰
𭁈
𭁨
𭅰
𭑈
𭕄
𭗼
𭤨
𭥫
𭻾
𮅕
𮊿
𮍌
𮍏
𮓗
𮥼
𮧮
廾
𰀁
𰀄
𰀈
𰀉
𰀕
𰀠
𰀡
𰀢
𰀪
𰁜
𰃮
𰆊
𰆘
𰋙
𰕎
𰢴
𰧭
𰯲
000--
100--
101--
102--
103--
104--
105--
106--
107--
108--
109--
110--
111--
112--
113--
114--
115--
116--
117--
118--
119--
120--
121--
122--
123--
124--
125--
126--
127--
128--
129--
1945--
1980--
1990--
1991--
1994--
1998--
2000--
2002--
2006--
2010--
81--
82--
83--
84--
85--
86--
87--
88--
89--
90--
91--
92--
93--
94--
95--
967--
969--
97895--
aa--
ab--
aba--
abd--
abe--
abece--
abi--
abs--
absor--
absur--
aby--
ac--
ace--
ach--
act--
ad--
ada--
adam--
adapt--
add--
ade--
adi--
adn--
adop--
adov--
adres--
advent--
ae--
aero--
aerody--
af--
afa--
afga--
ag--
aga--
age--
agro--
agu--
ah--
aha--
ai--
air--
aj--
ak--
aka--
akc--
akcep--
akka--
ako--
akred--
akredito--
akro--
aku--
akva--
akvin--
al--
ala--
ale--
alego--
aleks--
alerg--
algebri--
algorit--
ali--
all--
allgeme--
alo--
als--
alt--
alta--
alu--
am--
ama--
ambul--
ame--
amf--
ami--
amo--
amp--
an--
ana--
analy--
anarc--
anarchis--
anaxi--
anc--
and--
andezi--
ane--
anekto--
ang--
angio--
anglo--
ani--
ann--
ano--
anorg--
ans--
ant--
anti--
antro--
anu--
any--
ao--
ap--
apa--
api--
aplik--
apollin--
appli--
appro--
apu--
aq--
aqu--
aqua--
ar--
ara--
arab--
arc--
archi--
are--
arge--
ari--
aristo--
aristok--
aristokrat--
aritm--
arkt--
arm--
arnogu--
aro--
arov--
ars--
art--
arte--
ary--
as--
ase--
asfal--
asi--
ask--
asocio--
asopries--
asp--
assis--
ast--
asti--
astro--
asymet--
at--
ata--
ate--
ati--
atlan--
atle--
ato--
atom--
atrak--
atram--
aty--
au--
auck--
audi--
audio--
aus--
autent--
auto--
autobio--
av--
ava--
avant--
ave--
avic--
avig--
avion--
aviz--
avo--
aw--
ax--
ay--
az--
aza--
azi--
b--
ba--
bab--
bac--
bach--
back--
bad--
bagd--
bahn--
bal--
ball--
bam--
ban--
band--
bandy--
bapt--
bar--
bart--
bas--
baski--
bass--
bat--
batiz--
bauh--
bay--
baz--
bd--
be--
bea--
beat--
bec--
beh--
bei--
bel--
belet--
belo--
ben--
ber--
berg--
bern--
bert--
bes--
bet--
bez--
bezpro--
bh--
bi--
bia--
bibli--
bibliog--
bibliograf--
bic--
bicy--
bie--
bielo--
big--
bil--
bila--
bin--
bio--
bis--
bit--
bk--
bl--
bla--
black--
ble--
bli--
blo--
blu--
bm--
bo--
bob--
boc--
bod--
bogd--
boh--
bohu--
boj--
boja--
bol--
boli--
bom--
bombard--
bon--
bor--
bos--
bosnia--
bot--
bota--
bou--
bourbon--
bov--
box--
br--
bra--
braban--
brachy--
brad--
bran--
brat--
bre--
brez--
bri--
brigh--
brisb--
brnia--
bro--
bru--
brus--
bry--
brzd--
bs--
bu--
bubli--
bubn--
buc--
buch--
bud--
budhis--
buk--
bul--
bulga--
bulha--
bunde--
burg--
burgund--
burk--
bus--
but--
buzen--
by--
byrok--
byt--
byzan--
bz--
ca--
cal--
call--
cam--
can--
cap--
car--
carih--
carne--
cas--
casa--
cat--
catar--
cc--
cd--
ce--
cel--
cele--
celo--
cent--
certif--
cesto--
ch--
cha--
champ--
chan--
chaot--
charl--
che--
chemo--
cher--
chi--
chl--
chla--
chladia--
chlo--
cho--
chod--
chra--
chrb--
chro--
chrys--
chu--
chvoj--
chy--
ci--
cie--
ciev--
cim--
cis--
cit--
ck--
cl--
cla--
cle--
cm--
cn--
co--
coll--
collec--
colo--
colom--
colu--
com--
come--
con--
conce--
conse--
convent--
copel--
copy--
corb--
cord--
corn--
corne--
corr--
cos--
cott--
cou--
count--
cov--
cover--
coyo--
cr--
craw--
cre--
criti--
cro--
crom--
cru--
cs--
ct--
cti--
cu--
cum--
cv--
cy--
cycl--
cykli--
cyklo--
cyper--
cz--
d--
da--
dab--
dac--
daj--
dal--
dam--
dan--
dar--
das--
dat--
data--
dav--
day--
db--
dc--
de--
dea--
death--
dec--
decent--
def--
defor--
dei--
dej--
deje--
dekla--
del--
deli--
delo--
dem--
demo--
demont--
den--
der--
des--
det--
detek--
deter--
devel--
devi--
dex--
dez--
dh--
di--
dia--
diagnosti--
did--
die--
diff--
digi--
dik--
dil--
dimen--
dimit--
din--
dio--
diri--
dis--
discuss--
dislok--
dit--
div--
dive--
dj--
dk--
dlho--
dlo--
dm--
dne--
dni--
dnu--
do--
dob--
dobu--
doc--
doch--
dog--
dohl--
doho--
dok--
doka--
dol--
doli--
dolno--
dolnoslie--
dolom--
dom--
domi--
dominan--
domor--
don--
done--
dor--
dora--
dos--
dosah--
dospie--
dot--
dotia--
dou--
dov--
dovie--
down--
doz--
dozrie--
dp--
dr--
dra--
draho--
dre--
drevo--
dri--
dro--
drobn--
dru--
dry--
ds--
dt--
du--
dual--
dub--
duchov--
dukli--
dupli--
dur--
dus--
dv--
dvads--
dve--
dvoj--
dy--
dym--
dynast--
dz--
ea--
eb--
eba--
eber--
ec--
eccle--
ech--
echo--
ed--
ede--
edi--
edo--
edu--
ee--
ef--
eg--
eh--
ei--
ein--
eindh--
eisen--
ej--
ek--
eklek--
eklipt--
eku--
el--
ela--
ele--
elektro--
eleph--
elf--
eli--
elimin--
elipt--
em--
ema--
embr--
eme--
emi--
empi--
emysl--
en--
ena--
ency--
end--
ene--
energ--
eng--
engel--
eni--
enri--
ent--
entro--
environ--
eo--
eobec--
ep--
epig--
epile--
equ--
er--
era--
erb--
ere--
eri--
erno--
ero--
ert--
eru--
ery--
es--
esko--
eskom--
esp--
esperant--
essen--
est--
et--
eta--
etabl--
ete--
eti--
eu--
eucha--
eukaryo--
eukli--
euro--
eury--
ev--
eva--
evaku--
evang--
evanje--
eve--
ever--
evro--
ew--
ex--
exce--
exec--
exhibit--
exot--
expan--
expo--
exter--
extra--
ey--
ez--
fa--
fabri--
fac--
fair--
fakt--
fal--
fam--
fan--
far--
farmaceu--
fas--
fasci--
fat--
favo--
fe--
fed--
feld--
fer--
fero--
ff--
fi--
fia--
figu--
fil--
filo--
fire--
fis--
fitz--
fj--
fk--
fl--
fla--
fletc--
flex--
flo--
floren--
flori--
fm--
fn--
fo--
folk--
fone--
fono--
font--
for--
form--
foto--
fox--
fra--
fre--
fred--
free--
fres--
fri--
fried--
fro--
fru--
fs--
ft--
fu--
fun--
fus--
fy--
g--
ga--
galakt--
gall--
gallag--
galv--
ganym--
garant--
garb--
gard--
garr--
gas--
gastro--
gaz--
gb--
gd--
ge--
gel--
geme--
gen--
gene--
geo--
geomet--
ger--
gerlach--
ges--
get--
gf--
gh--
gi--
gia--
giga--
gigant--
gill--
gis--
giu--
gj--
gl--
glad--
glau--
glo--
gly--
glyce--
gm--
gn--
gne--
gnost--
go--
god--
godef--
gold--
gom--
gond--
good--
gorg--
gospe--
got--
gott--
gr--
gra--
gramo--
gre--
green--
greno--
grie--
grin--
gro--
gru--
gs--
gu--
guar--
guate--
gue--
gul--
gun--
guten--
guy--
gw--
gy--
gyros--
h--
ha--
habs--
habsburg--
hac--
had--
hajt--
hal--
ham--
han--
hand--
happ--
harb--
hard--
harl--
harmo--
hart--
has--
hat--
hatch--
hava--
hay--
hd--
he--
head--
heavy--
hec--
hein--
hej--
hel--
helen--
helio--
hell--
her--
herak--
heral--
hercu--
hermet--
hesen--
het--
hetero--
hexa--
hey--
hi--
hier--
higg--
high--
him--
hindu--
hip--
histo--
hit--
hk--
hkupe--
hl--
hla--
hlad--
hle--
hli--
hliad--
hloda--
hlu--
hm--
hmo--
hn--
hnie--
hnoj--
ho--
hoci--
hod--
hodi--
hodno--
hol--
hom--
home--
homo--
hon--
hontia--
hop--
hor--
hore--
hornou--
horor--
hos--
hot--
hou--
how--
hr--
hra--
hrad--
hrano--
hrdin--
hre--
hri--
hro--
hron--
hru--
hrvat--
hs--
hu--
human--
humb--
humor--
hump--
hun--
hunga--
hus--
husl--
hv--
hy--
hydro--
hydroxy--
hygie--
hyper--
hypo--
i--
ia--
ial--
ian--
iar--
ias--
ib--
ic--
ice--
ich--
id--
ide--
ident--
identif--
idov--
ie--
ierno--
if--
ig--
ignor--
ih--
ihla--
ii--
ij--
ik--
ika--
ikon--
ikonograf--
il--
ili--
illu--
ilu--
ilustr--
im--
ima--
imi--
immac--
implement--
impli--
impoz--
imu--
imuno--
in--
ina--
inc--
indik--
indu--
indus--
ine--
infan--
infi--
info--
inform--
infra--
ing--
inhi--
ini--
inka--
inn--
ino--
ins--
instru--
int--
integ--
inter--
inver--
inves--
inz--
io--
ion--
ioniz--
ip--
ir--
ira--
irele--
iro--
iroko--
iron--
is--
isa--
iso--
ist--
it--
ita--
iu--
iv--
iva--
ive--
ivi--
ivnost--
ivo--
iz--
iza--
izoto--
j--
ja--
jablu--
jac--
jagel--
jak--
jam--
jama--
jan--
jap--
jar--
jas--
jaze--
jd--
je--
jed--
jedno--
jek--
jem--
jen--
jes--
jet--
jez--
jezu--
ji--
jilem--
jiz--
jizer--
jk--
jm--
jn--
jo--
jom--
jon--
jos--
jov--
joy--
js--
ju--
juh--
juhoa--
jun--
jur--
juri--
k--
ka--
kabri--
kaden--
kai--
kaj--
kal--
kalifor--
kalku--
kalli--
kam--
kami--
kan--
kano--
kap--
kapitu--
kar--
kara--
kardio--
karib--
karl--
karto--
kas--
kat--
kata--
kauf--
kaz--
kb--
kc--
ke--
kec--
kel--
kemp--
ken--
ker--
kes--
key--
kh--
ki--
kick--
kilog--
kim--
kin--
kine--
kirgiz--
kiri--
kirk--
kis--
kj--
kk--
kl--
kla--
klasicisti--
klasifi--
kle--
kli--
klin--
klon--
km--
kmi--
kn--
kne--
kni--
kno--
ko--
koc--
koch--
kodifi--
kodz--
kokp--
kol--
kola--
kole--
kolo--
koloniz--
kolumbij--
kom--
kombi--
kome--
koment--
komo--
kompen--
kompli--
kompon--
kon--
konc--
koncent--
konfu--
koni--
konoda--
kons--
konting--
kontra--
kontro--
konver--
konz--
koordin--
kop--
kopa--
kor--
kora--
korek--
kos--
kosod--
kost--
kotl--
kou--
kov--
koz--
kozmet--
kr--
kra--
kraj--
kral--
kras--
kre--
kres--
kri--
kris--
kriti--
kro--
krov--
kru--
kry--
ks--
ku--
kuc--
kuipe--
kultivo--
kultu--
kunst--
kup--
kur--
kus--
kuz--
kv--
kva--
kvant--
kvet--
kw--
ky--
kybern--
kysuc--
kyva--
l--
la--
labou--
laby--
lac--
lach--
lad--
lan--
land--
lang--
las--
lat--
latinsko--
laur--
law--
lay--
laz--
lc--
ld--
le--
lea--
lec--
led--
leice--
lek--
lem--
len--
leo--
leon--
lepi--
lepidopt--
ler--
les--
let--
leto--
lev--
lex--
lez--
lf--
lg--
lh--
li--
lia--
libre--
lic--
lie--
lies--
lik--
likvid--
lim--
limit--
lin--
ling--
lingu--
lipi--
lis--
liso--
lit--
litur--
liv--
lju--
lk--
ll--
lm--
lno--
lo--
lod--
lode--
log--
logo--
loh--
lok--
lom--
lombar--
long--
los--
lot--
lotri--
lou--
lov--
ls--
lt--
lto--
lu--
luc--
luft--
lv--
ly--
lymfat--
m--
ma--
mac--
macro--
mad--
mag--
magel--
magnet--
mah--
mai--
main--
mainstrea--
majet--
mak--
makro--
mal--
mala--
mali--
malo--
mam--
man--
manipu--
manzar--
map--
mar--
mara--
mari--
marx--
mas--
mat--
mate--
mathe--
mautha--
max--
may--
maz--
mb--
mc--
md--
me--
meand--
mec--
mechani--
med--
medi--
medzi--
mega--
mel--
melanc--
melo--
memp--
men--
mengus--
menno--
mer--
mes--
met--
meta--
meteo--
metro--
mety--
mexi--
mez--
mi--
mia--
mic--
micro--
mid--
mie--
mier--
mig--
mikro--
miku--
mil--
mile--
mili--
milo--
milosrd--
mimo--
min--
mini--
mir--
mis--
mit--
mix--
mjan--
mk--
ml--
mla--
mlyn--
mm--
mnoho--
mo--
moc--
mod--
mode--
modif--
modlit--
modro--
mohu--
mohy--
moi--
mok--
mol--
mon--
mongo--
mono--
mont--
monte--
moon--
mor--
mora--
more--
mos--
moto--
motor--
mou--
moy--
moz--
mozai--
mp--
mr--
mra--
ms--
msko--
mt--
mu--
much--
multi--
mus--
mv--
my--
myjav--
mys--
mz--
n--
na--
nac--
nad--
nadsta--
nadzvu--
naft--
nagy--
nahradz--
nahro--
nai--
naj--
najc--
naku--
nalieh--
nam--
name--
namon--
nan--
napl--
nar--
narod--
naroz--
naru--
nas--
nasa--
nasadz--
nasledo--
nasmer--
nat--
naz--
nb--
nc--
nd--
ne--
nea--
nec--
ned--
nedo--
nedos--
nej--
nejed--
nek--
nekom--
nekon--
nekontro--
nekro--
nel--
nem--
neme--
nen--
nena--
nene--
nenul--
neo--
neob--
neobmed--
neobs--
neodp--
nepo--
nepr--
nepra--
nepred--
nepri--
ner--
nerea--
nereali--
nero--
neroz--
nes--
neskoro--
neslo--
nesti--
net--
netvo--
neu--
neuro--
neve--
nevy--
nevyhnu--
new--
news--
newyo--
nez--
neza--
nezi--
nf--
ng--
nh--
ni--
nia--
nie--
nigs--
nik--
nin--
nio--
nis--
nit--
nizoz--
nk--
nn--
no--
nobu--
noc--
nom--
non--
nor--
nord--
norim--
nos--
not--
note--
notif--
notting--
nou--
nov--
novi--
novo--
now--
np--
nr--
ns--
nt--
nu--
nukle--
nus--
nv--
ny--
nyi--
o--
oa--
oak--
ob--
obdiv--
obe--
obet--
obha--
obi--
obl--
oblie--
obmed--
obnovo--
oboh--
obohac--
obohn--
oboj--
obr--
obra--
obraz--
obrod--
obs--
obsad--
obser--
obsia--
obslu--
oby--
oc--
och--
ochlad--
octa--
octavia--
od--
odc--
odcud--
odd--
odhod--
odl--
odles--
odmie--
odo--
odosiel--
odpa--
odpu--
ods--
odve--
odvez--
odvod--
ody--
of--
off--
offen--
og--
oh--
oho--
ohodno--
ohr--
ohrie--
ohroz--
ohrozo--
ohy--
oi--
oj--
ok--
okla--
oko--
okr--
oku--
okult--
ol--
old--
oli--
oly--
olymp--
olympij--
om--
omber--
omie--
omni--
on--
ondav--
one--
ono--
op--
opa--
opak--
opatro--
ope--
open--
opi--
opis--
opodstat--
opotre--
opra--
opron--
optim--
opu--
opus--
or--
ora--
orche--
org--
orien--
ornit--
orthopt--
orto--
os--
osa--
osamo--
osem--
oset--
osi--
osla--
osle--
oslo--
oslobod--
osn--
oso--
ost--
osteo--
ostri--
ot--
ota--
oto--
otvor--
ou--
out--
ov--
ova--
over--
ovi--
ovo--
oxy--
oz--
ozbro--
ozdro--
ozna--
p--
pa--
pac--
pad--
padoslove--
pahor--
pak--
pal--
palaio--
pamia--
pan--
pana--
pane--
papy--
par--
para--
parazi--
pardub--
paro--
pas--
pasi--
past--
pat--
pavl--
pay--
paz--
pc--
pe--
pec--
pecia--
pecifi--
pedia--
pej--
pekt--
peku--
pel--
pen--
pept--
per--
perga--
peri--
pes--
pet--
petr--
pevni--
pez--
pf--
ph--
phil--
pho--
phy--
phylog--
pi--
pia--
pic--
pie--
pies--
pigm--
pikto--
pil--
pin--
pio--
pionie--
pis--
pit--
pithec--
pk--
pl--
pla--
plachet--
plan--
plat--
play--
plaz--
ple--
pli--
pln--
plnoho--
plo--
plod--
ply--
pm--
pn--
po--
pobal--
poc--
poch--
pochy--
pod--
podc--
podl--
podnec--
podoz--
podvoz--
poe--
poha--
pohl--
pohod--
poj--
poku--
pol--
pola--
pole--
poli--
polo--
poly--
polyg--
pom--
poma--
pomeno--
pon--
ponor--
pop--
popis--
popra--
por--
pora--
porno--
poroz--
port--
pos--
posa--
posky--
post--
posudz--
pot--
potia--
poto--
potr--
potvrdz--
pou--
pov--
pove--
povzbu--
power--
poz--
pozasta--
pozem--
pozor--
pp--
pr--
pra--
pragm--
prakt--
praktiz--
pras--
prav--
pravide--
pre--
prec--
pred--
prefero--
prehl--
prehn--
prekv--
prekva--
premen--
pren--
prena--
prenes--
prepa--
prepra--
prepu--
prera--
pres--
presad--
presmer--
pret--
pretvo--
preve--
prez--
prezent--
pri--
priazni--
priep--
priepust--
pries--
priez--
prihli--
prilie--
prirod--
pris--
pro--
prod--
propa--
prospe--
protag--
proti--
proto--
proza--
prs--
prska--
pru--
prvo--
ps--
pseu--
psy--
psyche--
psychiat--
psycho--
pt--
ptole--
pu--
publi--
puc--
pulz--
pump--
punk--
purpur--
pus--
px--
py--
pyre--
pyri--
pyro--
pz--
q--
qa--
qu--
que--
qui--
quint--
ra--
rad--
radio--
raf--
raffa--
raj--
rak--
raket--
rakou--
raky--
ral--
ram--
ran--
ranogot--
rap--
ras--
rast--
rat--
ratif--
rau--
ray--
raz--
rb--
rc--
rd--
re--
rea--
real--
rebro--
rec--
recen--
recep--
recykl--
red--
ref--
reflek--
refor--
regi--
regis--
registro--
regul--
rehabili--
rei--
reinh--
rejs--
rek--
rekla--
rekom--
relik--
rem--
remast--
remes--
remi--
ren--
renom--
rept--
res--
ret--
retro--
rev--
revert--
revi--
rez--
rezer--
rf--
rg--
rh--
rho--
rhy--
ri--
ria--
ric--
rich--
rie--
rik--
rima--
rio--
ris--
rit--
rk--
rl--
rm--
rn--
rni--
rno--
ro--
rob--
roc--
rock--
rod--
rodi--
rodno--
roh--
rok--
roken--
rol--
rom--
ron--
ros--
rose--
rott--
rou--
routl--
rov--
rovno--
row--
roz--
rozdr--
rozhod--
rozosta--
rozpu--
rozs--
rozta--
rozve--
rp--
rr--
rs--
rt--
rttember--
ru--
rum--
run--
rus--
rv--
rw--
ry--
rys--
rytmi--
rz--
sa--
sabl--
sachari--
sacr--
sad--
sah--
sal--
salzbu--
sam--
samml--
samo--
san--
sanskri--
sap--
sar--
sas--
sat--
satir--
saurop--
sauv--
sav--
savoj--
sb--
sc--
scar--
sce--
sch--
sche--
schi--
schle--
schm--
scho--
schu--
schwe--
sci--
scor--
scri--
sd--
se--
sea--
seba--
sebe--
sec--
sed--
sedem--
sedi--
sedlia--
sedmo--
see--
seiz--
sek--
sel--
selek--
seleu--
sem--
sen--
serp--
serr--
ses--
sester--
set--
sex--
sey--
sf--
sfar--
sfil--
sfor--
sformu--
sg--
sh--
shak--
shake--
she--
sho--
show--
si--
sia--
sid--
side--
sie--
siel--
siet--
sigm--
sign--
sikor--
sil--
sim--
simul--
sin--
sio--
sionis--
sir--
sirot--
sis--
sit--
six--
sk--
ska--
ske--
skept--
ski--
skl--
skla--
sklad--
sklo--
sko--
skompli--
skra--
skres--
skru--
sku--
skupen--
sky--
sl--
sla--
sladk--
slang--
slati--
sle--
sled--
sledova--
sli--
sliez--
slnov--
slo--
slu--
sm--
sma--
sme--
smi--
smo--
smu--
smy--
sn--
sne--
sni--
sno--
so--
sob--
sobi--
soc--
socio--
sok--
sol--
som--
some--
son--
sor--
sos--
sou--
sound--
sov--
sp--
spa--
spe--
spec--
spekt--
spektros--
speleo--
spev--
spi--
spitz--
spl--
spla--
splnomoc--
spo--
spojn--
spolie--
spolu--
sponzor--
spopulari--
spor--
spotre--
spra--
spravov--
spri--
spros--
sprostredk--
spu--
spy--
sq--
sr--
srb--
sri--
ss--
st--
sta--
stabili--
stan--
star--
staro--
staroho--
stat--
stav--
ste--
sterl--
sti--
stimu--
stirl--
sto--
stojn--
stol--
stop--
str--
stra--
strati--
stravov--
strea--
strep--
stret--
strie--
strosko--
stru--
stu--
stup--
stvo--
sty--
su--
sub--
suc--
sucho--
sud--
sudet--
sukc--
sul--
sum--
sumer--
sun--
sunder--
super--
sur--
surreal--
sus--
sv--
sva--
sval--
sve--
svet--
svi--
svob--
svoj--
svor--
sw--
sy--
sylv--
symet--
symp--
sympa--
sympati--
syn--
syr--
sz--
sza--
sze--
szent--
szo--
ta--
tab--
tac--
tag--
tai--
taj--
tajer--
tak--
takz--
tal--
tali--
talo--
tam--
tan--
tanti--
tao--
tas--
tat--
tato--
tatra--
tau--
tave--
tb--
tc--
tchoukb--
td--
te--
tec--
ted--
tehl--
tehot--
tek--
tel--
tele--
temp--
tempera--
ten--
teo--
ter--
terc--
termo--
termody--
tes--
tetra--
tevov--
text--
th--
tha--
the--
theof--
tho--
thy--
ti--
tia--
tie--
tik--
til--
tim--
tip--
tirol--
tis--
tit--
tk--
tko--
tl--
tlak--
tm--
tma--
tmavo--
to--
toka--
tokij--
tol--
tom--
toma--
tomog--
ton--
top--
topog--
topograf--
tor--
tou--
tour--
tov--
toxi--
tr--
tra--
tragi--
tramp--
trans--
transform--
tranz--
trbin--
tre--
trh--
trhav--
tri--
triden--
trids--
trip--
tro--
trojd--
trojh--
trojl--
trojp--
trojroz--
troll--
trpez--
trste--
tru--
try--
ts--
tt--
tting--
[...]
