!
"
#
##0
##1
##10
##11
##12
##13
##14
##15
##16
##17
##18
##19
##2
##20
##21
##22
##23
##24
##25
##26
##27
##28
##29
##3
##30
##31
##32
##33
##34
##35
##36
##37
##38
##39
##4
##40
##41
##42
##43
##44
##45
##46
##47
##48
##49
##5
##50
##51
##52
##53
##54
##55
##56
##57
##58
##59
##6
##60
##61
##62
##63
##64
##65
##66
##67
##68
##69
##7
##70
##71
##72
##73
##74
##75
##76
##77
##78
##79
##8
##80
##81
##82
##83
##84
##85
##86
##87
##88
##89
##9
##90
##91
##92
##93
##94
##95
##96
##97
##98
##99
$
%
&
'
(
)
*
+
,
-
.
/
0
00
000
0000
0001
0002
0003
0004
0006
001
002
0022
0023
003
00381
004
005
006
007
008
009
01
010
011
012
013
015
017
019
02
020
021
0229
023
024
025
0261
027
03
030
033
0342
039
04
040
043
048
0480
05
050
0554
06
064
067
07
070
0714
0750
079
08
080
083
09
090
0932
1
10
100
1000
10000
1001
1002
1007
101
1010
1016
102
1021
1024
103
1032
1038
1039
104
1046
105
1054
106
107
1073
1074
108
1080
1086
109
1093
1095
1098
11
110
1100
111
1111
112
1126
113
1134
114
115
116
117
1172
118
1184
119
12
120
1200
1204
121
1210
1213
122
123
1235
124
1240
1241
125
1250
1255
126
1260
1261
1264
127
1270
128
1280
129
1290
1291
13
130
1300
131
1310
1311
1312
132
1320
1328
133
1330
1332
1335
1336
1337
1338
1339
134
1347
1348
1349
135
1350
1351
136
1365
1366
137
1371
138
1380
139
1392
14
140
1400
141
1410
1415
142
1420
1427
143
1430
1435
1437
1438
1439
144
1440
145
1450
1453
146
1460
1467
147
1470
1471
1474
1475
1476
148
1480
1485
149
1490
1492
1493
1494
1498
15
150
1500
15000
1501
1502
1503
1504
1505
1506
1508
151
1510
1511
1512
1514
1515
1516
1517
1519
152
1520
1521
1524
1525
1526
1527
1528
1529
153
1530
1533
1534
1535
1536
1538
154
1540
1541
1542
1543
1545
1546
1547
1548
1549
155
1550
1552
1553
1554
1555
1556
1557
1558
1559
156
1560
1561
1562
1563
1564
1565
1566
1567
1568
1569
157
1570
1571
1572
1573
1574
1575
1576
1578
158
1580
1581
1582
1583
1584
1585
1586
1588
1589
159
1590
1591
1592
1593
1594
1595
1596
1598
1599
16
160
1600
1601
1602
1603
1604
1605
1606
1607
1608
1609
161
1610
1611
1612
1613
1614
1615
1616
1617
1618
1619
162
1620
1621
1622
1623
1624
1625
1626
1627
1628
1629
163
1630
1631
1632
1633
1634
1635
1636
1637
1638
1639
164
1640
1641
1642
1643
1644
1645
1646
1647
1648
1649
165
1650
1651
1652
1653
1654
1655
1656
1657
1658
1659
166
1660
1661
1662
1663
1664
1665
1666
1667
1668
1669
167
1670
1671
1672
1673
1674
1675
1676
1677
1678
1679
168
1680
1681
1682
1683
1684
1685
1686
1687
1688
1689
169
1690
1691
1692
1693
1694
1695
1696
1697
1698
1699
17
170
1700
1701
1702
1703
1704
1705
1706
1707
1708
1709
171
1710
1711
1712
1713
1714
1715
1716
1717
1718
1719
172
1720
1721
1722
1723
1724
1725
1726
1727
1728
1729
173
1730
1731
1732
1733
1734
1735
1736
1737
1738
1739
174
1740
1741
1742
1743
1744
1745
1746
1747
1748
1749
175
1750
1751
1752
1753
1754
1755
1756
1757
1758
1759
176
1760
1761
1762
1763
1764
1765
1766
1767
1768
1769
177
1770
1771
1772
1773
1774
1775
1776
1777
1778
1779
178
1780
1781
1782
1783
1784
1785
1786
1787
1788
1789
179
1790
1791
1792
1793
1794
1795
1796
1797
1798
1799
18
180
1800
1801
1802
1803
1804
1805
1806
1807
1808
1809
181
1810
1811
1812
1813
1814
1815
1816
1817
1818
1819
182
1820
1821
1822
1823
1824
1825
1826
1827
1828
1829
183
1830
1831
1832
1833
1834
1835
1836
1837
1838
1839
184
1840
1841
1842
1843
1844
1845
1846
1847
1848
1849
185
1850
1851
1852
1853
1854
1855
1856
1857
1858
1859
186
1860
1861
1862
1863
1864
1865
1866
1867
1868
1869
187
1870
1871
1872
1873
1874
1875
1876
1877
1878
1879
188
1880
1881
1882
1883
1884
1885
1886
1887
1888
1889
189
1890
1891
1892
1893
1894
1895
1896
1897
1898
1899
19
190
1900
1901
1902
1903
1904
1905
1906
1907
1908
1909
191
1910
1911
1912
1913
1914
1915
1916
1917
1918
1919
192
1920
1921
1922
1923
1924
1925
1926
1927
1928
1929
193
1930
1931
1932
1933
1934
1935
1936
1937
1938
1939
194
1940
1941
1942
1943
1944
1945
1946
1947
1948
1949
195
1950
1951
1952
1953
1954
1955
1956
1957
1958
1959
196
1960
1961
1962
1963
1964
1965
1966
1967
1968
1969
197
1970
1971
1972
1973
1974
1975
1976
1977
1978
1979
198
1980
1981
1982
1983
1984
1985
1986
1987
1988
1989
199
1990
1991
1992
1993
1994
1995
1996
1997
1998
1999
2
20
200
2000
20000
2001
2002
2003
2004
2005
2006
2007
2008
2009
201
2010
2011
2012
2013
2014
2015
2016
2017
2018
2019
202
2020
2021
2022
2023
2024
2025
203
204
205
206
207
208
209
21
210
2100
211
212
213
214
215
216
217
218
219
22
220
221
222
223
224
225
226
227
228
229
23
230
231
232
233
2338
234
235
236
237
238
239
24
240
241
242
243
244
245
246
247
248
249
25
250
2500
251
252
253
254
255
256
257
258
259
26
260
2600
261
262
263
264
265
266
267
2674
268
269
27
270
271
272
273
274
275
276
277
278
279
28
280
281
282
283
284
285
286
287
288
289
29
290
291
292
293
294
295
296
297
298
299
3
30
300
3000
3001
301
302
303
304
305
306
307
3077
308
309
31
310
311
312
313
314
315
316
3166
317
318
31889
319
32
320
321
322
323
324
325
326
327
328
329
33
330
331
332
333
334
335
336
337
33778
338
339
34
340
341
342
343
344
345
346
347
348
349
35
350
3500
351
352
353
354
355
356
357
358
359
36
360
361
362
363
364
365
366
367
368
369
37
370
371
372
373
374
375
376
377
378
379
38
380
381
382
383
384
385
386
387
388
389
39
390
391
392
393
394
395
396
397
398
399
4
40
400
4000
4001
401
402
403
404
405
406
407
408
409
41
410
411
412
413
414
415
416
417
418
419
42
420
421
422
423
424
425
426
427
428
429
43
430
431
432
433
434
435
436
437
438
439
44
440
441
4418
442
443
444
445
446
447
448
449
45
450
451
452
453
454
455
456
457
458
459
46
460
461
462
463
464
465
466
467
468
469
47
470
471
472
473
474
475
476
477
478
479
48
480
481
482
483
484
485
486
487
488
489
49
490
491
492
493
494
495
496
497
498
499
5
50
500
5000
50000
501
502
503
504
504652
505
506
507
508
509
51
510
511
512
513
514
515
516
517
518
519
52
520
5202
521
522
523
524
525
526
527
528
529
53
530
531
532
533
534
535
536
537
538
539
54
540
541
542
543
544
545
546
547
548
549
55
550
551
552
553
554
555
556
557
558
559
56
560
561
562
563
564
565
566
567
568
569
57
570
571
572
573
574
575
576
577
578
579
58
580
581
582
583
584
585
586
587
588
589
59
590
591
592
593
594
595
596
597
598
599
6
60
600
6000
601
602
603
604
605
606
607
608
609
61
610
611
612
613
614
615
616
617
618
619
62
620
621
622
623
624
625
626
627
628
629
63
630
631
632
633
634
635
636
637
638
639
64
640
641
642
643
644
645
646
647
648
649
65
650
651
652
653
654
655
656
657
658
659
66
660
661
662
663
664
665
666
667
668
669
67
670
671
672
674
675
678
679
68
680
681
682
683
684
685
686
687
688
69
690
691
692
694
695
696
698
7
70
700
7000
701
702
7021
703
704
705
706
707
708
709
7090
71
710
7106
711
7114
712
713
714
7141
715
7162
717
718
7181
7185
72
720
721
722
723
7234
724
725
726
727
7277
728
73
730
731
732
733
734
735
736
737
739
7391
74
740
741
742
744
745
747
75
750
751
752
753
754
755
756
757
76
760
764
765
767
768
769
77
770
771
775
776
777
778
78
780
781
783
787
79
790
791
792
796
8
80
800
8000
801
802
804
8042
8046
805
806
807
808
8085
809
81
810
811
812
813
814
815
816
817
82
820
821
822
823
824
825
8274
828
829
83
830
831
832
833
835
836
84
840
841
842
843
844
845
847
848
85
850
852
855
85584
856
858
85917
86
860
861
862
863
864
86420
867
87
870
871
875
876
877
879
88
880
882
883
885
888
889
89
890
89023
89035
894
895
9
90
900
9000
901
902
902272
903
904
905
906
907
91
910
911
912
913
915
917
918
92
920
922
925
928
929
93
930
931
933
935
937
939
94
940
943
945
946
95
950
951
953
954
955
96
960
961
963
965
966
967
967522
967524
969
969059
97
970
970350
975
976
978
97805
98
980
983
985
987
988
99
990
992
995
997
999
:
;
<
=
>
?
@
[
\
]
^
_
`
a
aa
aaron
ab
aba
abart
abba
abbe
abbey
abc
abcha
abd
abdika
abe
abeceda
abecedne
abecedny
abecedy
abel
abi
abl
ablati
ablo
abnorma
about
above
abovsko
abraha
abraham
abs
absencia
absolu
absolvent
absolventi
absolventom
absolventov
absolvoval
absolvovala
absolvovali
absolvovalo
absolvovani
absolvovat
absorpc
abstract
abstraktne
abstraktny
abu
aby
ac
acade
academia
academic
academy
access
accessed
ace
acer
ach
acha
achista
achovy
achta
achte
achtic
achtici
achticke
achtickej
achticky
achticov
achty
achu
aci
acid
acie
acieho
act
acta
action
active
activity
ad
ada
adaju
adal
adala
adali
adam
adama
adamec
adams
adani
adania
adanie
adapta
adapte
adat
adca
adci
ade
adekva
adela
adele
adi
adic
adiska
adkins
adla
adler
administra
administrati
administration
admira
adn
adne
adnia
adnica
adny
adobe
adoch
adolf
adolfa
adom
adov
adova
adoval
adovala
adovali
adovalo
adovane
adovany
adovat
adove
adovec
adovej
adovom
adovy
adresa
adrese
adresu
adresy
adria
adrian
adriana
adries
adu
aduje
aduju
adult
advanced
adventure
adventures
advoka
ady
ae
aero
aerodynamicky
aeroli
aerosmith
af
afa
afc
afe
affairs
afganistan
afganistane
afganistanu
africa
african
africana
africanus
africka
africke
africkej
africky
afrika
afrike
afriku
afriky
after
ag
aga
again
against
agamemno
age
agency
agent
agenta
agentov
agentu
ages
agk
aglomera
agm
agnes
ago
agoni
agra
agrega
agresi
ah
aha
ahac
ahc
ahka
ahke
ahkej
ahko
ahky
ahl
ahla
ahle
ahlej
ahli
ahlive
ahlivo
ahlivost
ahlivy
ahlo
ahly
ahmed
ahmi
ahoch
ahol
ahom
ahov
ahoval
ahovala
ahovalci
ahovalcov
ahovali
ahovalo
ahovani
ahovania
ahovanie
ahovat
ahovavy
ahs
ahu
ahuje
ahuju
ahy
ai
aic
aid
aids
aigypta
aigyptos
aim
ain
air
airbus
aircraft
aires
airlines
airplay
airport
airways
ais
aise
aisne
aito
aix
aj
aja
aje
aji
ajka
ajky
ajna
ajne
ajnej
ajni
ajny
ajs
aju
ak
aka
akad
akade
akademicka
akademicke
akademickej
akademicky
akademie
akademik
akaju
akal
akala
akali
akane
akat
akc
akcia
akcie
akcii
akciona
akciova
akciu
ake
akej
akejkol
ako
akoby
akokol
akom
akordeo
akou
akov
akovo
akra
akt
akte
akti
aktiva
aktivi
aktivista
aktivistka
aktivita
aktivite
aktivitou
aktivitu
aktivity
aktivuje
aktu
aktua
aktuality
aktualiza
aktualizovane
akty
aku
akumula
akusticka
akusticke
akusticky
akuzati
akva
akvinsky
akvita
aky
al
ala
alabama
alain
alamu
alan
alba
albatros
albert
alberta
alberto
albi
albrecht
albrechta
album
albume
albumoch
albumom
albumov
albums
albumu
albumy
alchy
ale
alebo
alego
alej
aleka
aleke
alekej
aleko
alekohl
alekom
aleky
alena
ales
alessandro
alex
alexander
alexandr
alexandra
alexandre
alexandria
alexandrie
alexandrijskej
alexandrijsky
alexandrom
alexandrovi
alexandrovic
alexej
alexejevic
alexios
alexis
alfa
alfonz
alfre
alfred
alfreda
alfredo
algebra
algoritmus
ali
aliancia
aliancie
alias
alice
alif
aling
alingova
alive
aljas
alka
alkalicky
alke
alkohol
alkoholu
alky
all
alla
allan
allegro
allen
allgemeine
alliance
allier
allison
allium
allmusic
alma
almanach
alo
aloba
alobu
aloby
alois
alojz
alone
alonso
alovany
alpa
alpes
alpha
alpi
alpske
alpsko
alpsky
alpy
als
alsasko
also
alt
alta
alter
alternati
alternative
alto
alu
always
alz
am
ama
amadeus
amate
amazon
ambasa
ambi
ambicio
ambra
ambro
amd
ame
amen
americ
america
american
americas
americka
americke
americkej
americki
americko
americkom
americkou
americku
americky
amerika
amerike
ameriku
ameriky
amf
amfitea
ami
aminokyseli
aminokyseliny
amnestie
amo
among
amor
amore
amori
amos
amour
amp
ampio
ampiona
amplitu
amr
amsterdam
amsterdame
amy
an
ana
anaheim
analo
analogicky
analy
analysis
analyticke
analytickej
anamne
anasta
anato
anatolij
anatomicko
anatomicky
anc
anca
ance
ancient
ancu
and
anda
ande
anders
anderson
andersson
andorra
andra
andre
andrea
andreas
andreeva
andrej
andreja
andrejom
andrew
andrews
android
andromeda
andrzej
andy
ane
aneb
anej
aneste
anez
ang
angaz
angel
angela
angeles
angelo
angels
angl
anglic
anglicka
anglicke
anglickej
anglicko
anglickom
anglicku
anglicky
anglika
anglo
angola
ani
ania
anic
anie
anima
animal
animals
anime
animovane
animovany
anio
aniu
anjel
anjela
anjeli
anjelov
anjou
anka
ankara
ankete
ankety
anky
anlivost
anmi
ann
anna
annaeus
annales
anne
annie
anniversary
anno
annou
announced
announces
annu
annual
anny
ano
anoch
anom
anoma
anonymne
another
anov
anova
ans
anska
anske
anskej
ansko
anskom
anskou
ansku
ansky
anstva
anstve
anstvo
ant
antal
antarkti
ante
anthony
anti
antica
anticke
antickej
anticky
antige
antike
antiky
antiochie
anto
antoine
antolo
anton
antona
antoni
antonia
antonio
antonius
antropolo
antverpy
anu
any
ao
aopk
ap
apa
apache
apara
aparatu
apartma
apek
api
apl
aplika
aplikac
aplikovana
aplikovanej
aplikovat
aplovic
apolla
apollo
apollodoros
apolo
apos
apple
applications
approach
apri
april
apsida
apsidou
apu
aputova
aq
aqua
ar
ara
arab
arabc
arabi
arabov
arabska
arabske
arabskej
arabsky
arago
aranz
arbitra
arbor
arc
arch
archa
archaeology
archaicky
archanjela
arche
archeolo
archeologicka
archeologicke
archeologicky
archer
archi
architects
architecture
architekt
architekta
architekti
architektom
architektonicka
architektonicke
architektonickej
architektonicky
architektov
architektu
architektura
archiv
archiva
archive
archived
archives
archivovane
arcibiskup
arcibiskupa
arcibiskupom
arcibiskupstvo
arcidiece
arcivojvoda
arcivojvodkyn
arde
ardenne
ardennes
are
area
arena
ares
argenti
argentina
argo
argu
argument
argumenty
ari
aria
ariana
arie
aris
aristotela
aristoteles
ariza
arizona
arka
arkansas
arm
arma
arme
armor
arms
armstrong
army
arne
arno
arnold
arnos
arnovica
aro
arodejni
arodejnice
aromaticky
around
arov
arp
arpa
array
arrest
arriva
arrondissement
ars
arsenal
arsenalu
arska
arske
arskej
arsko
arskom
arsku
arsky
art
arte
artemis
arthur
arthura
article
articles
artikula
artist
artists
arts
artur
aruje
aruju
as
ascii
ase
asean
ashley
asi
asia
asian
asie
asistencie
asistencii
asistent
asistenta
asistentka
asistentom
asna
asne
asnej
asni
asnom
asnost
asnosti
asnou
asnu
asny
asoch
asocia
asom
asopis
asopise
asopisoch
asopisom
asopisov
asopisu
asopisy
asov
asova
asove
asovej
asovo
asovom
asovy
asp
aspekt
aspekty
aspon
aspx
assembly
assisi
associated
association
ast
asta
aste
astejs
asteroid
asteroidov
asti
astia
astiach
astica
astice
astie
astn
astna
astne
astneny
astni
astnil
astnila
astnili
astnilo
astnit
astny
asto
aston
astra
astrolo
astronaut
astronauti
astronautov
astrono
astronomical
astronomicka
astronomicke
astronomicky
astronomy
astrophysical
astrophysics
astu
asty
asu
asuncio
asy
at
ata
atami
atari
atc
atd
ate
atel
atelie
aten
atenta
athe
athletic
ati
atia
atie
atina
atiny
atka
atko
atlanta
atlante
atlantic
atlanticke
atlanticky
atlantiku
atlantique
atlantiques
atlantis
atlas
atle
atleticky
atletika
atletike
atlos
atmosfe
atn
ato
atol
atole
atolov
atolu
atp
atrakcie
atrakti
atribu
atstva
atstvo
attack
attila
aty
au
aube
aubin
aude
audi
audio
audiovizua
auf
aufl
augsburske
august
augusta
auguste
augusti
augustin
augustus
aurel
aurelius
aurora
aus
auschwitz
austin
austra
australia
australian
austria
austrian
aut
auta
aute
autenticky
author
authority
auto
autoatlas
autobus
autobusov
autobusova
autobusove
autobusovej
autobusovy
autobusu
autobusy
autom
automaticka
automaticke
automaticky
automatiza
automobil
automobile
automobilka
automobilky
automobilov
automobilova
automobilove
automobilovy
automobilu
automobily
autono
autor
autora
autori
autorita
autoritati
autoritne
autoritu
autority
autorka
autorkou
autormi
autorom
autorov
autorske
autorsky
autorstvo
autosalo
auvergne
aux
av
ava
avalanche
ave
avec
avej
avengers
avenue
aves
aveyron
avia
aviation
avice
avicove
avicovy
aviv
avka
avo
avom
avostranne
avostranny
avou
avril
avs
avske
avskej
avsky
avu
avy
award
awards
away
ax
axel
axio
ay
az
aza
azca
azce
azcov
azda
aze
azec
azerbajdz
azi
azil
azila
azili
azilo
azit
azka
azmi
azne
azny
azom
azov
azovi
azske
azsky
azstiev
azstva
azstve
azstvo
azstvom
azstvu
azte
azur
azy
azyl
b
ba
baba
babic
babis
babka
baby
babylon
bac
bach
bacha
back
bacon
bad
badat
baden
bafta
bagara
baha
bahna
bains
bajkonur
bajtov
baju
bakala
baker
bakos
bakte
bakteria
baku
bal
bala
balada
balady
balas
balca
balduin
balet
baletu
bali
balka
balko
ball
ballet
balo
balog
balogh
baltimore
baltske
balzac
bam
bami
ban
bana
band
banda
bane
bang
banglade
bani
bania
baniach
banie
bank
banka
banke
bankove
bankovky
bankovni
bankovy
banks
banku
banky
banner
banska
banske
banskej
banskobystricke
banskobystrickom
banskobystricky
bansky
bany
baptiste
bar
bara
baran
baranskej
barbara
barbora
barbory
barca
barcelona
barcelone
barcelony
bardejov
bardejove
bare
barie
barnes
baro
barok
baroka
barokova
barokove
barokovej
barokovo
barokovom
barokovou
barokovy
baron
barraco
barrett
barry
barta
bartolomej
bartolomeja
barton
bartos
baryto
bas
basa
base
baseball
based
basgitara
basgitarista
basic
basket
basketbal
basketbale
basketbalista
basketball
basketbalova
basketbalovej
basketbalovy
basova
basovy
bass
bat
bate
batman
batoz
battista
battle
bauer
bava
bave
bavne
bavny
bavorska
bavorske
bavorsko
bavorsku
bavorsky
bavu
bavy
bay
bayer
bayern
baz
baza
baze
bazila
bazilej
bazilika
bazilike
baziliky
bb
bbc
bc
bd
be
bea
beach
bear
beat
beatles
beatrix
beats
beaumont
beautiful
beauty
bebravou
bec
beck
becker
beda
bedna
bedr
bee
been
beer
beethoven
before
begin
beh
behind
behom
behov
behu
behy
bei
being
bejru
bejzbale
bejzbalovej
bejzbalovy
bek
bel
bela
belehrad
belehrade
belej
belfort
belgicka
belgicke
belgicko
belgickom
belgicku
belgicky
beliana
believe
belize
belk
bell
bella
belle
bellus
belo
belus
ben
bena
benc
bene
benedikt
benedikta
benedikti
benejs
benes
benfica
benga
beni
benie
benjamin
bennett
benny
benou
beny
benz
benze
benzi
ber
bere
bereniky
berez
berg
berger
berie
berkeley
berli
berlin
bern
bernard
bernardo
bernhard
bernola
berom
beroun
berov
berove
berovy
berry
bert
berta
bertrand
beru
bery
bes
besara
beseda
besky
beskyda
beskydy
best
bet
beta
beto
better
betty
between
bety
beverly
beyonce
beyond
bez
beza
bezchorda
bezde
bezdro
bezmenny
bezna
bezpec
bezplatne
bezprostredne
bezprostrednej
bezstavovcov
bezu
bezvy
bf
bg
bh
bi
bia
biatlone
bible
biblia
biblicka
biblicke
biblickej
biblicky
biblie
biblii
bibliografia
bibliotheca
bic
bici
bicie
bicykle
bie
bieber
biel
biela
biele
bieleho
bielej
bielik
bielkovi
bielkoviny
bielo
bielom
bieloruska
bieloruske
bieloruskej
bielorusko
bielorusku
bielorusky
bielou
bielu
biely
bielych
bielym
bielymi
biena
big
bigbang
biggest
biha
bii
bik
bil
bila
bilancia
bilbao
bili
bill
billa
billboard
billie
billy
bin
bina
bing
bingen
bio
bioche
biochemik
biochemistry
biografia
biografiasyvidas
biograficke
biograficky
biographical
biography
biolib
biolo
biological
biologicke
biologicky
biologie
biology
biosfe
biotop
biotopov
biotopy
bird
birdlife
birds
birka
birmingham
birth
birthday
bis
bishop
biskup
biskupa
biskupi
biskupice
biskupom
biskupov
biskupovi
biskupske
biskupskej
biskupsky
biskupstva
biskupstvo
bismarck
bit
bitiek
bitka
bitke
bitkou
bitku
bitky
bitov
bitova
bitove
bitovy
biznis
bjo
bk
bka
bke
bkou
bkove
bkovy
bku
bky
bl
bla
blabbermouth
black
blackhawks
blackmore
blackwell
blaha
blaho
blaise
blake
blana
blanc
blanche
blani
blanka
blansko
blas
blaz
ble
blesk
blesku
bli
blind
bliz
block
blog
blok
bloka
blokov
bloku
bloky
blood
blu
blue
blues
bluetooth
bm
bmg
bmp
bmw
bn
bne
bo
board
bob
boba
bobby
boc
boca
bocian
bod
bode
bodmi
bodna
bodoch
bodom
bodov
bodovy
bodu
bodvou
body
boeing
boh
boha
bohata
bohate
bohatej
bohato
bohatou
bohats
bohatstva
bohatstvo
bohatu
bohaty
bohdan
bohe
bohom
bohorodic
bohosloveckej
bohosluz
bohov
bohovia
bohu
bohumi
bohumil
bohumila
bohunice
bohus
bohuslav
bohuz
bohyn
bohyne
boio
bois
boj
boja
boje
boji
bojiska
bojisku
bojmi
bojnice
bojoch
bojom
bojov
bojova
bojoval
bojovala
bojovali
bojovalo
bojovat
bojove
bojovej
bojovni
bojovu
bojovy
boju
bojuje
bojuju
bok
bokoch
boku
bol
bola
boleslav
bolest
bolesti
boli
bolo
bologna
bolt
bom
bomba
bombarde
bombardovaci
bombardovani
bombardovania
bombardovanie
bombovy
bombu
bomby
bon
bonaparte
bond
bonifa
bonn
bonnie
bonton
bonus
boogie
book
books
boom
boot
booth
bor
bora
bordeaux
bore
boris
borisa
born
borne
borny
boroch
borom
borov
borove
borovec
borovica
borovice
borovy
bors
borske
borsky
boru
bory
bos
bosa
bosca
bosch
bosco
bosna
bosne
bosny
boss
boston
bostone
botanicka
botanicke
botanickej
botanik
botanika
botanike
botany
bou
bouches
boulevard
boulogne
bourg
bov
bova
bove
bovy
bowell
bowie
bowl
box
boxe
boxer
boy
boys
boz
bozo
bp
br
bra
brad
brada
bradla
bradley
bradlom
brady
brain
bral
brala
bram
bran
brand
brandon
brandy
branisko
branislav
branka
bras
brasil
brassica
brat
brata
bratia
bratislava
bratislave
bratislavska
bratislavske
bratislavskej
bratislavskom
bratislavsky
bratislavu
bratislavy
bratmi
bratom
bratov
bratovi
bratranec
bratstva
bratstvo
braun
brava
bravc
bravka
braxatoris
brazi
brazil
bre
break
breaking
breh
brehoch
brehom
brehu
brehy
brendan
brest
breto
brez
breza
brezne
brezno
brezova
brezovsky
bri
brian
bridge
bridlice
bridz
brie
brief
briga
brill
bring
bristol
brit
brita
britain
britannica
briti
british
britney
britov
britska
britske
britskej
britski
britsko
britskom
britskou
britsku
britsky
brna
brne
brno
bro
broadcasting
broadway
broadwayi
brockhaus
brod
broken
bromid
bronz
bronzova
bronzove
bronzovej
bronzovu
bronzovy
bronzu
brooklyn
brooks
bros
brother
brothers
brown
browning
broz
brt
bru
bruce
brucha
brucho
bruck
bruins
bruno
brunta
brus
brusel
bruseli
bruta
bry
bryan
brzdy
bs
bsd
bsko
bt
bu
bubeni
buc
buch
buchu
bud
budaj
budapes
budapest
budati
bude
budem
budeme
budes
budete
budhisticky
budhizmu
budhizmus
budi
buditel
budov
budova
budovali
budovami
budovane
budovani
budovania
budovanie
budovat
budovatel
budove
budovou
budovu
budovy
budu
buduje
buduju
buenos
buffalo
buga
building
bujna
buk
bukove
bukovina
bukovske
bukovsky
bukovy
bukures
bul
bulh
bulharc
bulhari
bulharov
bulharska
bulharske
bulharskej
bulharsko
bulharskom
bulharsku
bulharsky
bull
bulletin
bulva
buniek
bunka
bunkami
bunke
bunkove
bunkovej
bunkovy
bunky
bureau
burgenland
burgundsko
burian
burke
burn
burning
burns
burton
burz
burza
burze
bus
bush
business
busta
but
butler
butterfly
buza
buzne
buzni
buzny
bx
by
bye
byjske
byl
byli
bylina
bylinoz
byron
bystr
bystra
bystre
bystri
bystric
bystrica
bystrice
bystrici
bystry
byt
bytc
byte
byti
bytia
bytie
bytku
bytok
bytost
bytosti
bytov
bytove
bytovy
bytu
byty
byzance
byzancie
byzancii
byzanti
byzantine
byzantium
byzantska
byzantske
byzantskej
byzantskom
byzantsku
byzantsky
c
ca
cach
cache
caesar
cafe
caju
cal
cala
calais
calcio
cale
calgary
cali
california
call
calvados
calvin
cam
cambridge
came
camera
cameron
cami
camille
camp
campbell
campeonato
campo
can
canada
canadian
canadiens
canal
canaveral
cancer
cani
cania
canie
canina
caniny
canis
cannes
canoe
canon
cantal
canterbury
canto
canton
canucks
cany
cap
cape
capital
capitals
capitol
capra
captain
car
card
care
carey
carfolio
cargo
carl
carla
carlo
carlos
carmen
carnegie
carol
carolina
caroline
carpenter
carrie
carroll
cars
carter
cas
casa
case
cash
cassini
cassovia
cast
castle
castro
cat
catalog
catalogo
catalogue
cathedral
catherine
catholic
cave
cb
cbc
cbs
cbw
cc
cca
ccd
cd
cdot
cdsarc
ce
cea
cech
ceho
cej
cela
cele
celebrity
celej
celkom
celkov
celkova
celkove
celkovej
celkovo
celkovom
celkovou
celkovu
celkovy
celku
celky
cell
cells
celok
celom
celona
celoroc
celos
celosvetove
celosvetovo
celosvetovy
celou
celovec
celoz
celu
celulo
cely
cemu
cena
cene
cenne
cenny
cenou
census
cent
centauri
center
centier
centimetrov
centra
central
centrami
centre
centrobasket
centrom
centrum
century
cenu
ceny
cenzu
ceo
ceremo
ceremonia
cerova
cerro
certifications
certifika
certifikovany
cesnak
cesta
cestami
ceste
cestna
cestne
cestnej
cestny
cestou
cestoval
cestovanie
cestovat
cestovatel
cestovna
cestovne
cestovnom
cestovny
cestu
cestuju
cesty
ceu
ceum
cev
cez
cf
cgi
ch
cha
chaci
chad
chadla
chaj
chaju
chal
chala
chalcedo
chali
challenge
challenger
chalupa
chalupka
chamberlin
champagne
champion
champions
championship
championships
champs
chan
chana
chance
chandlera
chane
chang
change
changes
chani
chania
chanie
channel
chany
chaos
chaosu
chapelle
chaplin
chapman
chapter
charakter
charakteristi
charakteristicka
charakteristicke
charakteristicky
charakteristika
charakteristiku
charakteristiky
charakterizovana
charakterizovane
charakterizovany
charakterizovat
charakterizuje
charakterizuju
charakterom
charakteru
charente
charentes
charitati
charles
charlesa
charlie
charlotte
chart
charta
charts
charty
chase
chat
chata
chate
chatel
chatu
chaty
chce
chcel
chcela
chceli
chcem
chceme
chces
chcete
chciet
chcu
che
cheb
chelsea
chem
chemical
chemicka
chemicke
chemickej
chemicku
chemicky
chemie
chemik
chemika
chemistry
chen
cheng
cher
chess
chi
chicaga
chicago
chicagu
chief
chiki
child
children
chile
chili
china
chinese
ching
chirurg
chirurgicke
chirurgicky
chirurgie
chisaria
chko
chkol
chl
chla
chladenie
chladeny
chladic
chladne
chladnejs
chladny
chlapc
chlapca
chlapci
chlapcov
chlapec
chlapi
chle
chleba
chleho
chlej
chlejs
chlene
chlenie
chli
chlieb
chlo
chlodra
chlorid
chloridu
chlorovodi
chlost
chlosti
chlostna
chlostne
chlostnej
chlostny
chlu
chly
chlych
chlym
chmel
cho
choc
chod
chodba
chodby
chodcov
chode
chodi
chodia
chodil
chodila
chodili
chodisko
chodiskom
chodiskovy
chodit
chodku
chodna
chodne
chodnej
chodnejs
chodni
chodnom
chodnou
chodnu
chodny
chodoeuro
chodok
chodom
chodori
chodoslovenska
chodoslovenske
chodoslovenskej
chodoslovensky
chodu
choice
chom
chomutov
chopin
chora
chore
choro
choroba
chorobami
chorobe
chorobou
chorobu
choroby
chorv
chorva
chory
chota
chov
chova
chovanec
chovatel
chove
chovne
chovny
chovom
chovskej
chovu
chovy
chra
chrana
chranna
chranne
chrannej
chranny
chranu
chrba
chrbta
chrbte
chrbtice
chrbtom
chri
chris
christ
christi
christian
christianity
christie
christina
christine
christmas
christoph
christophe
christopher
chro
chroba
chrome
chromozo
chronicka
chronicky
chronolo
chronologicky
chrudim
chrus
chto
chu
chuck
chudoba
chudobe
chudobne
chudobnej
chudobny
chudoby
chung
church
churchill
chut
chuti
chva
chvi
chvost
chvosta
chvostom
chy
chyba
chybne
chybny
chybu
chyby
chysta
chyz
ci
cia
ciach
ciam
ciami
cibul
cicavce
cicavcov
cicero
cich
cie
ciel
ciele
cielene
cien
ciest
ciev
cievy
ciga
cii
cim
cimi
cinema
cintori
ciou
circle
circuit
circus
cirkev
cirkevna
cirkevne
cirkevnej
cirkevnu
cirkevny
cirkula
cirkus
cirkva
cirkvi
cirkvou
cis
cisa
cistercia
cit
cita
cite
cities
citlive
citlivost
citlivy
citovane
citra
citro
citroe
city
citypopulation
ciu
ciudad
cium
civil
civilistov
civiliza
civilne
civilnej
civilny
cj
ck
cka
cke
ckeho
ckej
ckemu
cker
cki
cko
ckokatoli
ckom
ckou
cku
cky
ckych
ckym
ckymi
cl
cla
claire
clanky
clanok
clara
clarence
clark
clarke
class
classic
classica
classical
classics
classifica
classification
claude
claudia
clav
clava
cle
clermont
cleveland
cliff
climate
clinical
clinton
clio
close
cloud
club
clyde
cm
cn
cna
cne
cneho
cnej
cnejs
cnn
cnost
cnosti
cnt
cny
cnych
co
coa
coast
coca
code
codex
cohen
cok
cola
cold
cole
coli
colin
collection
college
collegium
collins
colombia
color
colorado
columbia
columbus
com
combat
come
comedy
comes
comics
coming
command
commander
commercial
commission
committee
common
commons
commune
communes
communication
communications
community
como
companion
company
competition
complete
complex
computer
comte
con
concacaf
concert
conde
conference
congress
connecticut
conomiques
conrad
conservation
construction
conte
contemporary
content
contest
continental
contra
control
convention
cook
cool
cooper
copa
core
corgon
cornelius
cornell
corporation
corps
corpus
corre
corse
corte
cos
cosh
cosmic
costa
cou
could
council
count
countries
country
county
coupe
court
cov
cova
cove
cover
coververziu
covid
covy
cox
cp
cpk
cpu
cr
craig
crash
crazy
crc
cre
creative
creek
cretaceous
creuse
crew
crime
crimson
crisis
cristiano
cristo
critical
croc
croix
crosby
cross
crowley
crown
cruise
cruz
cry
crystal
cs
csa
csc
cse
csfd
csi
cska
ct
cta
cte
cti
ctu
ctva
ctve
ctvo
ctvom
ctvu
cty
cu
cuba
cucurbita
cudzej
cudzi
cudzie
cudzieho
cudzincov
cukor
cukra
cukrova
cukru
cultural
culture
cum
cup
cupu
cure
current
curtis
cut
cv
cvic
cvik
cvikove
cviku
cx
cy
cykle
cyklicky
cyklista
cyklisticky
cyklistov
cyklotrasa
cyklov
cyklu
cyklus
cykly
cypre
cypria
cypru
cyprus
cyrano
cyril
cyrila
cyriliky
cz
czech
czy
d
da
dab
dabing
dabingu
dac
dach
dacia
dag
dagmar
daily
daimler
daj
daje
dajne
dajny
dajov
daju
dakar
dakota
dal
dala
dale
dali
dalibor
dallas
dalma
dalo
dals
dam
dame
dami
damia
dan
dana
danaa
danaos
dance
dancing
dane
danej
danger
dangerous
dani
dania
danie
daniel
daniela
danis
danka
danko
danny
danom
dans
dante
danu
dany
dar
darc
dari
darilo
darina
dark
darkness
darolova
darom
darov
daroval
darwin
dary
das
dat
data
databa
database
date
datel
datenbank
dati
datovane
datovani
datovania
datovanie
datovany
datuje
datuju
dav
dave
david
davida
davidom
davies
davis
davkov
davky
davne
davny
davu
dawn
dawson
day
days
daz
db
dc
dca
dce
dcom
dcov
dcovia
dcu
dd
ddr
de
dea
dead
deadline
deal
dean
death
debreci
debut
debutoval
debutovala
debutove
debutovy
dec
december
decembra
decembri
decembru
dedi
dedic
dedina
dedinc
dedine
dedinou
dedinska
dedinsky
dedinu
dediny
dee
deep
def
default
defence
defense
defini
definiti
definition
definitive
definoval
definovana
definovane
definovany
definovat
definuje
definuju
deforma
degli
degrada
dei
dej
deja
deje
deji
dejina
dejinami
dejiny
dejiskom
dejstva
dek
deka
dekan
dekana
dekanom
deklara
deklina
dekora
dekorati
dekre
del
dela
delaware
delega
deleni
delenia
delenie
delfi
deli
delia
delil
delit
delitel
dell
della
delle
delne
delny
delo
delostrelecke
delostrelecky
delostrelectva
delostrelectvo
delta
deluxe
dem
dema
demi
demisiu
demko
demo
democracy
demokracia
demokracie
demokracii
demokraciu
demokrati
demokraticka
demokraticke
demokratickej
demokraticku
demokraticky
demokratov
demons
den
dena
dene
deni
denia
denie
denis
denisa
denise
deniu
denna
denne
dennej
denni
dennikn
dennis
denny
densko
denver
deny
departement
departemente
departementu
department
departmente
departmentom
departmentov
departmentu
depeche
deporta
depresi
depresia
depresie
der
derby
derek
deriva
derov
dery
des
desat
description
desiat
desiate
desiatich
desiatimi
desiatke
desiatky
desiatok
desiaty
desiatych
design
deskripti
destila
destina
destiny
det
detail
detailne
detailny
detailov
details
detaily
detekciu
detekti
detektor
determinati
deti
detroit
detska
detske
detskej
detsky
detstva
detstve
detstvo
detva
deutsch
deutsche
deutschen
deutscher
deutsches
deutschland
deux
deva
development
devi
deviatich
deviaty
devil
devils
devo
dex
dez
dezider
dh
dherne
dherny
di
dia
diabetes
diabla
diabol
diagno
diagona
diagram
diakon
dial
dialekt
dialekty
dialo
diamant
diami
diamond
diana
diane
diania
dianie
dick
dictionary
did
didier
die
diece
diego
diel
diela
dielach
dielam
dielami
diele
dieln
dielne
dielni
dielo
dieloch
dielom
dielov
dielu
diely
dier
diera
diery
dies
diesel
diet
dieter
dietrich
dievc
diferencia
different
difu
digita
digital
dii
dikta
diktatu
dil
dila
dili
din
dina
dinamo
dinosaur
dinosaura
dinosaurov
dinosaurs
dinosaurus
dinosaury
dio
dioakti
diodoros
dioloka
diom
diony
diou
diova
diove
diovom
diovy
diplom
diplomacie
diplomat
diplomaticke
diplomaticky
direct
direction
director
dirigent
dirty
dis
discipli
disciplina
disco
discography
discogs
discovery
disease
diseases
disk
diskografia
diskom
diskov
diskre
diskrimina
disku
diskusia
diskusie
diskusii
diskusiu
disky
disney
displaystyle
displej
disponoval
disponuje
disponuju
dispozi
distribu
distribuc
distribution
district
dit
ditions
diu
dium
dius
div
diva
divadelna
divadelne
divadelnej
divadelni
divadelnu
divadelny
divadiel
divadla
divadle
divadlo
divadlom
dive
diversity
divi
divisio
division
divoc
divoke
divoky
divy
dizajn
dizajne
dizajnu
dizertac
dj
dja
dk
dka
dke
dkou
dkovic
dku
dky
dl
dla
dlach
dlami
dlaz
dle
dlena
dlene
dleni
dlenia
dlenie
dleny
dlh
dlha
dlhe
dlhej
dlho
dlhodobe
dlhodobo
dlhodoby
dlhom
dlhoroc
dlhotrvaju
dlhou
dlhs
dlhu
dlhy
dli
dlia
dliaci
dlil
dlila
dlili
dlilo
dlisk
dliska
dlisko
dlisku
dlo
dlom
dlovce
dlove
dlz
dm
dmi
dmitrij
dn
dna
dne
dneho
dnej
dnes
dni
dno
dnom
dnou
dnu
dnucej
dnut
dnuti
dnutia
dnutie
dny
dnych
dnym
dnymi
do
dob
doba
dobe
doborcov
dobou
dobove
dobovy
dobr
dobra
dobre
dobrej
dobri
dobro
dobroc
dobrodruz
dobrom
dobrou
dobrovol
dobru
dobry
dobs
dobu
doby
dobyl
dobyli
dobyt
dobyte
dobyti
dobytie
dobytka
dobytok
dobyty
dobyvatel
doc
docent
docenta
doch
docha
dochovali
dochovane
dochovany
doctor
document
documents
doda
dodal
dodane
dodany
dodat
dodatoc
dodatok
dodenne
dodenny
dodnes
dodrz
dodson
does
dog
dogmatickej
dogs
dohl
doho
dohoda
dohode
dohodli
dohodnu
dohodnute
dohodol
dohodou
dohodu
dohody
dohospoda
dohovor
dohovoru
dohromady
doi
dojc
dojem
dok
doka
dokazuje
dokazuju
dokial
doklad
doklada
dokladaju
dokladom
doklady
dokonale
dokonalost
dokonalosti
dokonaly
dokonc
dokonca
dokopy
doktor
doktora
doktorandske
doktri
dokument
dokumenta
dokumente
dokumentoch
dokumentom
dokumentov
dokumentu
dokumentuju
dokumenty
dol
dola
dolby
dole
dolet
doletu
dolez
doli
dolia
dolie
dolina
doline
dolinou
dolinu
doliny
dolna
dolne
dolnej
dolni
dolnom
dolnosliezskom
dolnu
dolny
doloz
dolu
dom
doma
domami
domas
domaz
domc
dome
domenico
domi
dominantne
dominantny
dominantou
domingo
dominic
dominik
dominika
dominique
domino
dominuje
dominuju
domnievaju
domnieval
domoch
domom
domorody
domov
domova
domovom
domovska
domovsky
domovy
domu
domy
don
dona
donald
donau
doneda
donna
donu
doom
door
doors
dopa
dopad
dopadaju
dopadu
dopisovatel
dopl
dopln
doplnena
doplnene
doplneni
doplnenie
doplneny
doplnil
doplnit
doplnkove
doplnkovy
doplnky
doplnok
doposial
doprava
dopravca
doprave
dopravit
dopravna
dopravne
dopravnej
dopravni
dopravny
dopravou
dopravu
dopravy
dopredu
dopreva
dopyt
dopytu
dor
dora
dorasta
dorastencov
dorazil
dorazila
dorazili
dordogne
dore
doroc
dorota
dorov
dortmund
doru
doruc
dory
dorys
doryse
dorysom
dorysu
dos
dosah
dosahoval
dosahovala
dosahovali
dosahovat
dosahu
dosahuje
dosahuju
dosiahla
dosiahli
dosiahlo
dosiahne
dosiahnut
dosiahnuta
dosiahnute
dosiahnuti
dosiahnutie
dosiahnuty
dosiahol
dosial
dosiek
doska
doske
dosku
dosky
dosl
doslova
doslovne
doslovny
dospel
dospele
dospeli
dospelosti
dospely
dospievaju
dost
dosta
dostal
dostala
dostali
dostalo
dostane
dostaneme
dostanu
dostat
dostatoc
dostatok
dostojevskij
dostrel
dostup
dostupna
dostupne
dostupnost
dostupny
dosvedc
dot
dota
doterajs
doteraz
dotknuty
dotva
doty
dotyc
dotyk
dou
douard
double
doubs
doug
douglas
dov
dova
dovanie
dove
dovej
doviedol
dovnu
dovo
dovol
dovolene
dovoleni
dovolit
dovr
dovtedajs
dovtedy
dovy
down
download
doz
dozadu
dozveda
dozvedel
dozvie
dp
dr
dra
drac
drafte
draftovany
dragon
drahe
drahs
drahy
drak
draka
drake
drama
dramatic
dramaticke
dramatickej
dramatickom
dramaticky
dramatik
dramaturg
draselny
drasli
drave
dravy
draw
draz
dre
dream
dreams
dres
drese
dresy
dreva
dreve
drevena
drevene
drevenej
drevenou
dreveny
drevi
dreviny
drevo
drevorubac
dri
drien
drive
driver
dro
drobne
drobny
drog
droga
drogami
drogy
drom
drop
drost
drosti
drota
drov
drozd
drsc
drsny
dru
drug
druh
druha
druhe
druhej
druhi
druhmi
druhoch
druhom
druhotne
druhou
druhov
druhu
druhy
drum
druz
dry
drz
ds
dska
dske
dskeho
dskej
dsko
dskom
dsku
dsky
dskych
dt
du
dua
dual
dub
duba
dubc
dublin
dubline
dubni
dubnica
dubnici
dubova
dubove
dubovy
dubrovni
duby
duch
ducha
duchom
duchon
duchov
duchovna
duchovne
duchovnej
duchovni
duchovnu
duchovny
duchu
ducks
duda
dudva
due
duel
duet
duka
duke
dukla
dukly
dulla
duna
dunaj
dunaja
dunaji
dunajom
dunajska
dunajske
dunajskej
duncan
dunlop
duo
dur
duri
during
dus
dusi
dusic
dust
dutch
dutina
dutiny
duty
duz
dv
dva
dvadsat
dvadsiateho
dvadsiatich
dvadsiatych
dvaja
dvakra
dvana
dvb
dvd
dve
dvera
dverami
dvere
dveri
dvi
dvoch
dvoj
dvojalbum
dvojc
dvojhra
dvojhre
dvojhviezda
dvoji
dvojic
dvojica
dvojice
dvojicou
dvojicu
dvojite
dvojity
dvojjazyc
dvojkri
dvojna
dvojpodlaz
dvojroc
dvojza
dvom
dvoma
dvomi
dvor
dvora
dvorcoch
dvore
dvori
dvoria
dvorie
dvorni
dvorny
dvorom
dvorsky
dvory
dx
dy
dych
dychove
dychovy
dychu
dylan
dym
dynamicke
dynamicky
dynamics
dynamika
dynamo
dynastia
dynastie
dynastii
dynastiu
dz
dza
dzac
dzaju
dzal
dzala
dzali
dzalo
dzame
dzana
dzane
dzanej
dzani
dzania
dzanie
dzany
dzat
dze
dzi
dzieho
dzka
dzke
dzkou
dzkovana
dzkovane
dzkovany
dzkovat
dzkovatel
dzkove
dzkovy
dzku
dzkuje
dzkuju
dzky
dzok
dzove
dzovy
dzu
e
ea
eagle
ean
earl
early
earth
east
eastern
easy
eb
eban
ebi
ebird
ebne
ebni
ebnica
ebnice
ebny
ec
ecav
ech
echa
echo
echov
echy
ecka
ecke
ecko
ecku
ecky
eclav
ecology
economic
economics
economy
ecosozological
ed
eda
eddie
ede
eden
edgar
edge
edi
edic
edinburgh
edinburghu
edit
edita
edith
edition
editor
edmonton
edmund
edne
edni
edny
edo
edove
eds
edu
eduard
eduarda
eduardo
education
edvard
edward
edwarda
edwards
edwin
ee
ef
efekt
efekti
efektov
efektu
efekty
effect
effects
eg
ego
egypt
egypta
egypte
egyptolo
egyptske
egyptskej
egyptsky
eh
ehf
ehled
ehnanie
eho
ehrad
ei
eight
eilish
ein
eine
einer
einstein
ej
ek
eka
ekolo
ekologicke
ekologicky
ekom
ekono
ekonomicka
ekonomicke
ekonomickej
ekonomicku
ekonomicky
ekonomika
ekonomike
ekonomiku
ekonomiky
ekosozologicky
ekosyste
ekov
ekova
eku
ekumenicky
ekva
ekvivalent
eky
el
ela
elanie
ele
electric
electro
electronic
electronics
elektra
elektric
elektricka
elektricke
elektrickej
elektricku
elektricky
elektrifika
elektrifikovana
elektriny
elektro
elektromagneticke
elektronicka
elektronicke
elektronickej
elektronicky
elektronika
elektroniky
elektrotechniky
element
elementa
elementov
elements
elementy
elena
eleono
eleza
elezna
elezne
eleznej
elezni
eleznic
eleznica
eleznice
eleznici
eleznicu
elezny
elezo
elezobeto
elf
eli
elia
elias
elie
elil
elimina
eliniska
elinisko
elipticka
elis
elisa
elisabeth
elit
elite
eliteprospects
elizabeth
elka
elke
elkou
elku
elky
ellade
ellen
elliott
ellis
elne
elni
elny
elo
elom
elov
elova
elove
elovy
elsevier
elske
elsky
elstva
elstve
elstvo
elu
elva
elvis
ely
em
ema
emanuel
emble
eme
emecko
emeritny
emerson
emi
emigra
emigroval
emil
emila
emilia
emily
eminem
emira
emirates
emisie
emisii
emma
emmanuel
emmy
emo
emociona
emohu
empire
empiricky
empora
emporis
ems
emu
emysl
en
ena
enami
enaty
enca
encami
enci
enciclopedia
enciklopedija
encom
encov
encyclopaedia
encyclopedia
encyclopædia
encyklope
encyklopedia
encyklopedicky
encyklopedie
end
endeavour
ending
ene
enec
enej
enejs
enel
enemy
energeticke
energetickej
energeticky
energia
energie
energii
energija
energiou
energiu
energy
eneva
eneve
eng
engine
engineering
england
english
eni
enia
eniach
eniami
enic
enica
enice
enie
enigma
enil
enina
eniny
enit
eniu
enka
enkla
enko
enkova
eno
enom
enost
enosti
enou
enough
enovsky
enrico
enrique
enska
enske
enskej
ensko
enskom
enskou
ensku
ensky
enstiev
enstva
enstvami
enstve
enstvo
enstvom
enstvu
ent
enter
enterprise
entertainment
entomolo
entre
entry
enu
environment
environmenta
environmental
eny
enzy
eo
eobecna
eobecne
eobecnej
eobecnejs
eobecnosti
eobecnu
eobecny
eos
ep
eparchia
eparchie
epel
epi
epic
epide
epidendrum
epigrafiche
episode
epizo
epocha
epochy
epos
epsilon
equus
er
era
eravy
erb
erbe
erbom
erbu
erby
erdo
ere
erectus
eres
ergaster
ergov
eri
eriav
eric
erich
eridanus
erik
erika
erlewine
erma
erna
erne
ernecky
ernest
ernesta
erni
ernobyl
ernos
ernst
erny
ernych
ero
erov
erpa
erpadla
erpadlo
erpal
erstve
erstvy
ert
eru
erupcia
erupcie
erupcii
erven
ervena
ervene
ervenej
ervenka
erveno
ervenom
ervenou
ervenu
erveny
erwin
ery
es
esa
escape
esej
eseje
eseji
esejista
esencia
eset
esi
eska
eskala
eske
eskej
eski
eskij
esko
eskom
eskoslovenska
eskoslovenske
eskoslovenskej
eskoslovensko
eskoslovenskom
eskoslovensku
eskoslovensky
eskou
esku
esky
eso
esovito
espan
esperanta
esperanto
esperantsky
espn
esprit
essays
essential
essonne
est
esta
estadio
este
ester
esterha
esteticke
esteticky
estna
estne
estnej
estny
esto
et
eta
etapa
etape
etapu
etapy
etc
etci
ete
eti
eticke
eticky
etika
etiky
etio
etislav
etka
etke
etko
etkom
etku
etky
etna
etne
etnej
etnejs
etni
etnicke
etnicky
etnika
etnikum
etnograf
etnolo
etny
etok
etrend
etreni
etrenia
etrenie
etrit
etrovani
etrovania
etrovanie
etrovatel
etyle
etymolo
etymologicky
eu
eucharistie
euge
eugen
eugena
eugene
eukaryoticky
eur
eura
eure
euro
eurobasket
eurohockey
europa
europe
european
eurovision
eurozo
eusebios
ev
eva
evakua
evan
evanjelia
evanjelici
evanjelicka
evanjelicke
evanjelickej
evanjelickom
evanjelicky
evanjelium
evanjeliza
evans
evc
eve
event
events
ever
everest
every
everybody
everything
evic
evici
evidenc
evidence
evidencia
evidencie
evidentne
evidovana
evidovany
evikov
evil
evne
evny
evo
evolu
evoluc
evolution
evolutionary
evropy
evy
ex
exact
exarcha
excentricita
exchange
exclusive
executive
exempla
exhibition
exile
exilu
existenc
existencia
existencie
existencii
existenciu
existoval
existovala
existovali
existovalo
existovat
existuje
existuju
exkluzi
expanzia
expanzie
expedi
experience
experiment
experimenta
experimental
experimentov
experimentu
experimenty
expert
experti
explicitne
explo
exploration
explorer
explozi
expo
expona
export
expozi
expres
expresi
express
extended
exterie
externe
externy
extra
extraliga
extralige
extraligu
extraligy
extrasola
extravila
extre
extreme
exupe
eye
eyes
ez
ezovy
f
fa
faber
fabia
fabian
fabulae
fac
face
facebook
facebooku
faces
facto
factor
factory
facts
fair
faith
fajc
fakt
fakticky
faktom
faktor
faktormi
faktorom
faktorov
faktory
faktov
faktu
fakty
faku
fakulta
fakulte
fakultu
fakulty
fal
falco
falcon
fall
falls
falos
fals
false
fame
family
famu
fan
fans
fanta
fantasticky
fantasy
fanto
fanu
far
fara
farao
farba
farbami
farbe
farbiva
farbou
farbu
farby
fare
farebne
farebny
farieb
farkas
farm
farma
farme
farmy
farnost
farnosti
farske
farsky
fary
fas
fasa
fashion
fast
fat
fate
father
fatra
fatre
fatru
fatry
fauna
faunima
faunistickej
fauny
faust
fb
fbi
fc
fdb
fe
fear
feat
featuring
feb
februa
february
fed
federa
federal
federati
federation
federico
fedor
fedora
feel
feeling
felipe
felix
felso
female
femininum
femme
fender
fenome
fer
fera
ferdinand
ferdinanda
ferenc
ferguson
ferianc
ferko
ferna
fernando
fero
ferrari
fest
festival
festivale
festivaloch
festivalov
festivalu
festivaly
feuda
ff
fg
fi
fia
fiala
fialova
fiat
fiba
fica
fico
fiction
ficus
fide
fidz
field
fields
fifa
fifth
fight
fighter
fighters
fighting
figu
figura
figure
fih
fikti
fil
filan
file
files
filharmo
filia
filip
filipa
filipi
filit
film
filma
filme
filmoch
filmom
filmov
filmova
filmove
filmovej
filmovom
filmovu
filmovy
films
filmu
filmy
filo
filolo
filosofie
filozof
filozofa
filozofi
filozofia
filozoficka
filozoficke
filozofickej
filozoficku
filozoficky
filozofie
filozofii
filozofiou
filozofiu
filozofka
filozofov
filter
filtra
fin
fina
final
finale
finalista
finalistka
financ
finance
financial
financie
financii
financovania
financovanie
find
fine
finiste
fiodor
fiodorovic
fire
firiem
firma
firme
firmou
firmu
firmy
firs
first
fis
fischer
fish
fisher
fit
fivb
five
fk
fka
fl
fla
flag
flames
flash
flauta
fletcher
flight
flo
floor
flora
florbale
florbalove
florbalovej
florence
florencia
florencie
florencii
flores
floria
florida
floride
flotila
flotilu
flotily
flow
floyd
fluo
fly
flyers
flying
flys
fm
fn
fo
focke
focus
folk
folklo
folkovy
fom
fond
fondov
fondu
fondy
fonta
fontaine
food
foot
football
for
forbes
force
forces
ford
foreign
forest
forestie
forever
forga
foriem
form
forma
formami
format
formation
forme
former
formou
formovanie
formovat
formu
formula
formule
formuly
formy
fort
fortuna
forum
forza
fosfa
fosfor
fosforec
fosi
fossil
foster
fotky
foto
fotoapara
fotogale
fotograf
fotografia
fotograficka
fotograficke
fotografickej
fotograficku
fotograficky
fotografie
fotografii
fotografiu
fotosynte
fotovizua
found
foundation
four
fourth
fov
fox
fr
fra
frac
fragment
fragmenta
fragmenty
frakcie
fran
franc
france
frances
francesca
francesco
franche
francis
francisca
francisco
franciscu
franco
francu
frank
franka
frankfurt
frankfurte
franklin
frankov
franskej
frantis
franz
franza
fraser
fraze
frazeolo
frazeologicka
fre
fred
fredaktor
fredaktorom
freddie
frederick
frederik
free
freedom
freeman
freiburg
frekvenc
frekvencia
frekvencie
frekvencii
frekvenciou
frekvenciu
french
fres
fresh
fresiek
freska
fresky
fri
fric
fridrich
fridricha
friedman
friedrich
friedricha
friend
friends
fritz
fro
from
fromm
front
fronta
fronte
frontman
frontu
fru
fry
fs
fstva
fstve
fstvo
ft
fu
fukovy
full
fun
function
fund
fundamenta
fungoval
fungovala
fungovania
fungovanie
fungovat
funguje
funguju
funk
funkc
funkcia
funkciami
funkcie
funkcii
funkciona
funkciou
funkciu
fus
futbal
futbale
futbalista
futbalistom
futbalistov
futbalova
futbalove
futbalovej
futbalovu
futbalovy
futbalu
futsal
futsale
futsalove
futsalovy
futsalplanet
future
futures
fvm
fw
fx
fy
fylogene
fyzicka
fyzicke
fyzickej
fyzicku
fyzicky
fyzik
fyzika
fyzike
fyziku
fyziky
fyziolo
fyziologicky
fz
g
ga
gabc
gabo
gabriel
gabriela
gaga
gaia
gaius
gajdos
gal
gala
galanta
galaxia
galaxie
galaxii
galaxy
gale
galerie
gales
gali
galileo
gallagher
galleria
gallery
gallo
gama
gambit
game
games
gamilaraay
gamma
gang
gara
garci
garcia
gard
garda
garden
gardner
gardy
garonne
gary
gas
gate
gates
gaulle
gay
gaz
gb
gc
ge
gear
geforce
gehrels
gejza
gel
gelnica
gemeinden
gemer
gemini
gen
gender
gene
genera
general
generation
generovani
genesis
geneticke
geneticky
genetics
genetika
genezis
geniti
geno
genoci
genus
geo
geode
geoffrey
geograf
geografia
geograficke
geografickej
geograficky
geografie
geographic
geolo
geological
geologicka
geologicke
geologickej
geologicky
geology
geometria
geometricke
geometricky
geometrie
geometrii
geomorfologicka
geomorfologicke
geomorfologickom
geomorfologicky
georg
georga
george
georgea
georges
georgi
georgia
georgij
ger
gera
gerald
gerard
gerhard
germa
germain
german
germany
gers
ges
geschichte
gesellschaft
get
gets
gh
ghost
ghz
gi
gia
giacomo
giami
gian
giant
gibralta
gibson
gie
gii
gilbert
gill
gilles
gilmour
gina
giorgio
giou
giovanni
girl
girls
gironde
gis
gita
gitara
gitare
gitarista
gitaristom
gitaristu
gitarove
gitarovy
gitaru
gitary
giu
gium
giuseppe
give
gkk
gl
glam
glasgow
glass
glen
glenn
glo
globa
global
globe
gloria
glory
glossary
glover
gluko
gm
gmbh
gmi
gmina
gmine
gn
gnd
gne
gno
gnu
go
goal
god
gods
goes
goethe
going
gojdic
gold
golden
goldpress
golf
gom
gombitova
gomez
gone
gonza
good
goodbye
google
gorbac
gordon
gore
gorila
gospel
got
goticka
goticke
gotickej
goticky
gotiky
gott
gottfried
gottlieb
gould
gov
gove
government
govia
govy
gp
gpl
gps
gpu
gr
gra
grace
grada
graecae
graf
grafe
graficka
graficke
graficky
grafik
grafika
grafiku
grafiky
grafov
grafu
graham
gramaticky
gramatika
grammy
gramofo
gramov
gran
grana
grand
grande
grandslamovy
grant
gravita
gravitac
gray
graz
gre
great
greatest
grec
grecia
greece
greek
green
greene
greenwood
greg
gregor
gregora
gregoria
gregory
gregus
grey
grigorievic
grigorij
grigorov
grissom
gro
gros
gross
ground
group
groups
grove
gru
grunge
gruyter
gruzi
gs
gsater
gsmarena
gt
gu
guadeloupe
guardian
guatemala
gubernia
gue
guerrini
guetta
guez
guide
guido
guild
guillaume
guinea
guinness
guitar
gul
gule
gun
guna
guns
gus
gusta
gustav
gustave
gutenberg
guverne
guvernora
guy
guyana
gy
gymna
gymnazia
gyo
gyula
gło
h
ha
haagu
haas
haba
habera
habilis
habilitoval
habsburgovcov
habsburska
habsburske
habsburskej
habsbursko
habsbursky
hac
hach
haci
hacie
hacieho
had
hada
hadria
hady
hagia
haiti
hajdu
hajte
haju
hal
hala
hale
half
hali
halic
hall
halle
halo
haloge
halove
halovom
halovy
hals
haly
ham
hamburg
hamburgu
hamilton
hammel
hammer
hammond
hampshire
han
hana
hand
handball
handbook
handlova
handlovej
hands
hane
hanga
hani
hania
hanie
hanka
hannah
hans
hansa
hansen
hanus
hany
happy
hard
hardcore
hardve
harmanec
harmo
harmonicky
harmonika
harmony
harold
harper
harris
harrison
harry
harryho
hart
harvard
harvey
has
hasic
hat
hate
haut
haute
hautes
hauts
hava
havaroval
have
havel
haven
havla
havli
havra
havran
hawk
hazard
hbo
hbw
hc
hckosice
hcl
hcp
hd
hdp
he
head
health
heart
hearts
heat
heaven
heavy
hebr
hebrejc
hebrejske
hebrejsky
hec
hedviga
heidelberg
heidelbergensis
heineken
heinrich
heinz
hej
hekta
hel
hele
helen
helena
heleny
helikopte
hell
hellados
hello
helmicou
helmut
help
helsinka
helsinki
hemeroteca
hemingway
hemoglobi
henderson
hendrix
henri
henrich
henricha
henrieta
henrik
henry
henryho
henryk
hepatiti
her
herakles
herald
heraldicky
herbert
herca
hercegovina
hercegovine
hercegoviny
herci
hercom
hercov
here
herec
herecke
hereckej
herecku
herecky
herectva
herectvo
heriban
heritage
herkules
herman
hermann
hermes
herna
herne
herny
hero
herodotos
heroes
heroi
herschel
hesiel
hesla
heslo
heslom
hetfield
hetrik
heves
hevier
hey
hg
hi
hidejos
hier
hierarchia
hierarchy
higgins
high
higher
highway
hiking
hilaire
hilda
hill
hillary
hills
him
himala
hip
hire
hiros
his
hispa
histo
histoire
historia
historic
historical
historici
historicka
historicke
historickej
historicko
historickom
historickou
historicku
historicky
historie
historik
historika
historikov
historizuju
history
hit
hitler
hitlera
hitlerovi
hitom
hitov
hitpara
hitparade
hits
hitu
hity
hiv
hk
hkm
hl
hla
hlad
hladi
hladina
hladine
hladinou
hladinu
hladiny
hladka
hladke
hladky
hlas
hlasi
hlasil
hlasila
hlasili
hlasmi
hlasom
hlasov
hlasovalo
hlasovani
hlasovania
hlasovanie
hlasovy
hlasu
hlasy
hlava
hlave
hlavic
hlavna
hlavne
hlavnej
hlavni
hlavnom
hlavnou
hlavnu
hlavny
hlavou
hlavu
hlavy
hlboka
hlboke
hlbokej
hlboko
hlboku
hlboky
hlbs
hld
hle
hli
hlina
hlini
hlinity
hlinka
hlinkovej
hlinku
hliny
hlodavce
hlohovci
hlohovec
hloz
hlu
hluc
hlupa
hly
hm
hmlovina
hmloviny
hmo
hmota
hmotne
hmotnost
hmotnosti
hmotny
hmotou
hmotu
hmoty
hmovinova
hms
hmyz
hmyzom
hmyzu
hn
hnac
hned
hneda
hnede
hnedy
hnev
hniezda
hniezdenie
hniezdi
hniezdia
hniezdiacich
hniezdo
hnonline
hnu
hnuti
hnutia
hnutie
hnutiu
ho
hoboken
hoc
hoci
hockey
hockeydb
hod
hoda
hode
hodi
hodina
hodinami
hodine
hodinky
hodinovy
hodinu
hodiny
hodna
hodne
hodnejs
hodno
hodnost
hodnosta
hodnosti
hodnota
hodnotami
hodnote
hodnoteni
hodnotenia
hodnotenie
hodnoteny
hodnoti
hodnotne
hodnotny
hodnotou
hodnotu
hodnoty
hodny
hodoni
hodou
hodrus
hodu
hodva
hody
hodz
hoffman
hoffmann
hojne
hojny
hokej
hokeja
hokeji
hokejista
hokejisti
hokejom
hokejova
hokejove
hokejovej
hokejovu
hokejovy
hokejportal
hokol
hol
holand
holandc
holandska
holandske
holandskej
holandsko
holandskom
holandsku
holandsky
hold
holding
hole
holes
holi
holic
holiday
holland
holle
holly
hollywood
hollywoode
holmes
holocaust
holoce
holokaust
holokaustu
holt
holub
holy
hom
home
homi
homme
homo
homoge
homosexua
hon
honda
honey
hong
hongkong
hongkongu
honor
honora
honore
hons
hood
hop
hope
hopkins
hor
hora
horami
horc
hore
horec
hori
horie
horizont
horizonta
horizonte
horizontu
horky
horl
hormo
horn
horna
hornatina
horne
hornej
hornet
horni
hornina
horninami
horniny
hornom
hornou
hornu
horny
horod
horolezec
horolezecky
horou
horror
hors
horse
horska
horske
horskej
horsky
horst
horu
horva
hory
hos
hospital
hospoda
hossa
host
hosti
hostia
hostil
hostila
hostilo
hostinec
hostitel
hot
hotel
hotela
hoteli
hotelov
hoto
hotove
hotovy
hou
hour
house
houston
houstone
houten
hova
hove
hovor
hovorca
hovori
hovoria
hovoriaci
hovoriacich
hovoril
hovorila
hovorili
hovorilo
hovorit
hovorovo
hovy
how
howard
hp
hr
hra
hrabovec
hrac
hracej
hraci
hrad
hrada
hradba
hradbami
hradby
hradc
hradci
hrade
hradec
hradieb
hradis
hradiska
hradisko
hradka
hradna
hradne
hradnej
hradni
hradny
hradom
hradou
hradov
hradu
hrady
hraju
hral
hrala
hrali
hralo
hrami
hrana
hrane
hranej
hrani
hrania
hranic
hranica
hranicami
hranice
hranici
hraniciach
hranicou
hranicu
hranie
hrany
hras
hrat
hrb
hrc
hrdina
hrdinom
hrdinov
hrdinovia
hrdinu
hrdlic
hre
hreb
hrebe
hreben
hrebeni
hrer
hri
hriadel
hric
hriech
hriechom
hriechov
hriechu
hriechy
hries
hrin
hrn
hrnc
hrnne
hro
hrob
hrobe
hrobka
hrobke
hrobku
hrobky
hrobny
hrobok
hrobov
hrobu
hroby
hrochova
hromadna
hromadne
hromadnej
hromadny
hron
hrona
hronec
hronom
hronsky
hrou
hrozba
hrozbou
hrozbu
hrozby
hrozi
hrozilo
hrozna
hrozne
hrozny
hrsg
hru
hruba
hrube
hrubo
hrubs
hruby
hrud
hrudi
hrudni
hrus
hry
hs
hsl
htlac
htm
html
http
https
hu
huba
hubble
hubert
huby
huc
huda
hudba
hudbe
hudbou
hudbu
hudby
hudebni
hudec
hudobna
hudobne
hudobnej
hudobni
hudobno
hudobnom
hudobnou
hudobnu
hudobny
hudson
hugh
hughes
hugo
huma
human
humanista
humanita
humanitny
humenne
humennom
humor
humoru
hun
hung
hungariae
hungary
hunt
hunter
hurban
hurbana
hurbanovo
hurika
hus
husa
husitsky
husl
husle
huslista
huste
husto
hustota
hustotou
hustotu
hustoty
husty
huta
hutni
huty
hve
hvezda
hvezdi
hvezdia
hvezdie
hviezd
hviezda
hviezdami
hviezde
hviezdic
hviezdna
hviezdne
hviezdnej
hviezdny
hviezdnych
hviezdokopa
hviezdokopy
hviezdoslav
hviezdoslava
hviezdoslavova
hviezdou
hviezdu
hviezdy
hy
hybrid
hyde
hydra
hydraulicke
hydraulicky
hydroly
hydronymii
hydronymum
hydroterma
hyginus
hylobates
hymna
hymnu
hymny
hypote
hz
hzds
i
ia
iaaf
iac
iaca
iace
iaceho
iacej
iach
iaci
iacich
iacim
iacka
iacke
iackej
iackych
iacu
iada
iadaju
iadal
iadala
iadali
iadalo
iadane
iadat
iadaviek
iadavka
iadavkou
iadavku
iadavky
iaden
iadna
iadne
iadneho
iadnej
iadnom
iadnou
iadnu
iadny
iadnych
iadnym
iadost
iadosti
iadu
iaduce
iak
iaka
iakmi
iakom
iakov
ial
iam
iami
ian
iang
ianka
ianky
ianska
ianske
ianskeho
ianskej
ianskom
ianskou
iansku
iansky
ianskych
ianskym
ianstva
ianstvo
iar
iara
iare
iaren
iareni
iarenia
iarenie
iari
iarka
iarknuti
iarna
iarne
iarnej
iarni
iarny
iarom
iarou
iarov
iarovy
iarska
iarske
iarskeho
iarskej
iarsko
iarskom
iarsku
iarsky
iarskych
iaru
iary
ias
iaso
iastka
iastkove
iastkovy
iastky
iastoc
iastok
iat
iata
iatkoch
iatkom
iatkov
iatku
iatky
iatoc
iatok
iau
iava
iavaju
iaval
iavala
iavali
iavani
iavanie
iavat
ib
iba
ibc
ibm
ibn
ibra
ibrahim
ic
ica
icami
icao
ice
ich
icha
ichu
ici
iciach
icka
icke
ickej
icko
ickom
icky
icou
icu
id
ida
ide
idea
idei
identicke
identicky
identifika
identifikac
identifikovat
identifikuju
identita
identitu
identity
ideolo
ideologicky
ideu
idey
idia
idla
idlo
idmi
idnes
idol
idom
idov
idovska
idovske
idovskej
idovsku
idovsky
idsbk
idu
ie
ieb
iec
iech
ieee
ieho
iejasu
iek
iel
iemu
ien
ierna
ierne
ierneho
iernej
ierno
iernom
iernou
iernu
ierny
iernych
iernym
iernymi
ierov
iert
iesta
ieste
iesteho
iestej
iestich
iestimi
iestom
iesty
if
iff
ifpi
ig
igmund
igmunda
ign
igna
igor
igora
iha
ihf
ihla
ihlancovou
ihlic
ihned
iho
ihriska
ihrisko
ihrisku
ii
iihf
iii
ij
ije
ijeme
iji
iju
ik
ika
ikar
ikf
ikmi
ikmo
ikom
ikon
ikona
ikonostas
ikony
ikov
ikova
ikove
ikovia
ikovy
iky
il
ila
ilaria
ilava
ile
ilega
ili
iliada
ilina
iline
ilinska
ilinske
ilinskej
ilinskom
ilinsky
iliny
ilis
ille
illinois
illustrated
ilo
ilova
ilsky
ilu
ilustra
ily
im
ima
image
images
imagina
imaging
imdb
ime
imec
imhd
imi
imigra
imko
immunology
imol
imom
imon
imov
impact
impe
impera
imperial
implementa
implications
improviza
impulz
imre
imrich
imricha
imu
imunitne
imunitny
imunity
in
ina
inak
inami
inaugura
inc
inch
incident
incov
inde
independent
index
indexe
indexu
india
indian
indiana
indicka
indicke
indickej
indickom
indicky
indie
indii
indika
individua
indl
indoc
indoeuro
indone
indonesia
indoor
indre
indukc
industria
industrial
industrializa
industry
ine
inec
inej
inene
inercia
infarkt
infekc
infekcia
infekcie
infekcii
infla
info
informa
informac
informatik
informatika
informatike
informatiky
information
informoval
informuje
infrac
infrarad
infras
infty
ing
ingrid
inhibi
ini
inicia
iniciati
inicioval
inidlo
inier
iniera
inierstva
inierstvo
inil
inila
inili
initel
inka
inkognito
inkom
inkov
inkoval
inkovala
inkovanie
inku
inkuje
inkuju
inkvizi
inky
inline
inn
inna
inne
innej
innejs
innost
innosti
innsbruck
innsbrucku
inny
ino
inocent
inoch
inohra
inohry
inok
inokedy
inom
inou
inov
inova
inovati
inovca
inovci
inove
inovec
inovy
ins
inscena
inscriptiones
insee
inside
inska
inske
insko
insky
institut
institute
instrumental
int
integra
integrovane
integrovany
intel
intelektua
inteligencia
inteligencie
inteligentne
inteligentny
intelligence
intenzi
intenzita
intenzitu
intenzity
inter
interactive
interakcia
interakcie
interakcii
interakti
interface
interie
intermedia
interna
internaciona
international
internationale
interne
internet
internete
internetova
internetove
internetovej
internetovy
internetu
interny
interpret
interpreta
interpreti
interpretov
interval
intervale
intervaloch
interview
inti
into
intravila
intro
introduction
intuiti
inu
inva
inventa
investi
investic
investor
iny
inz
inzuli
io
iommi
ion
ios
iowa
ip
ipa
ipcc
ipe
ipel
iphone
ipka
ipl
ipod
ir
ira
irak
iraku
iran
ireland
irena
iris
irish
iro
iroka
iroke
irokej
iroko
irokom
irokou
iroku
iroky
iron
irovani
irovanie
irovat
irr
irs
iruje
iruju
irving
is
isa
isaac
isbn
ise
isis
iska
isko
iskom
iskra
isla
islam
islamske
islamskej
islamsky
islamu
island
islande
islanders
islands
islandu
isle
isni
iso
israel
iss
issn
issue
ist
ista
istanbul
istanbule
iste
istej
isteni
istenia
istenie
isti
istic
isticke
isticky
istit
isto
istom
istota
istotou
istotu
istoty
istou
istu
istva
isty
isu
it
ita
italia
italian
italiana
italy
itan
itatel
itavou
ite
itej
itejs
itel
itelia
itf
iti
itia
itie
itiu
itkov
itkove
itkovy
itku
itky
itn
ito
itoc
itok
itom
itost
itosti
itostiach
itostne
itostny
itou
its
itu
itunes
ity
iu
iucn
iulia
iupac
iuris
iv
iva
ivan
ivana
ivanc
ivanic
ivanka
ivanom
ivanov
ivanova
ivanovic
ivanovna
ive
ivec
ivej
ivelni
ivenie
iveta
ivi
ivia
ivica
ivil
ivili
ivit
ivnostni
ivo
ivoc
ivom
ivost
ivot
ivota
ivote
ivotie
ivotna
ivotne
ivotnej
ivotnom
ivotnost
ivotnu
ivotny
ivotoch
ivotom
ivotopis
ivotopisy
ivotov
ivotu
ivoty
ivou
ivs
ivu
ivy
ix
iz
iza
izabela
izba
izbe
izby
izmu
izola
izolac
izolovane
izolovany
izome
izrael
izraela
izraeli
izraelska
izraelske
izraelskej
izraelsky
j
ja
jablko
jablon
jablonec
jac
jaci
jack
jacka
jackie
jackson
jacksona
jacob
jacques
jadier
jadra
jadranske
jadre
jadro
jadrom
jadrova
jadrove
jadrovej
jadrovy
jagger
jaguar
jahn
jaju
jak
jake
jako
jakob
jakobi
jakub
jakuba
jal
jala
jali
jalo
jam
jama
james
jamesa
jamesom
jamie
jamni
jamy
jan
jana
janc
jane
janec
janeiro
janet
jang
jani
jania
janie
janka
janko
jankovic
jano
janom
janos
janou
janous
janov
janovic
janta
janu
janua
january
jany
jap
japan
japanese
japonc
japonci
japonska
japonske
japonskej
japonsko
japonskom
japonsku
japonsky
jar
jari
jarmila
jarna
jarne
jarny
jaro
jarok
jaromi
jaros
jaroslav
jaroslava
jas
jasen
jasky
jaskyn
jaskyne
jaskyni
jaskynne
jaskynny
jasna
jasne
jasnejs
jasnost
jasnosti
jasny
jason
jat
jav
java
javi
javier
javisku
javmi
javom
javor
javorie
javorina
javorinka
javorni
javov
javu
javy
jay
jazd
jazda
jazdca
jazdci
jazdcov
jazde
jazdec
jazdecke
jazdecky
jazdi
jazdia
jazdil
jazdili
jazdit
jazdny
jazdov
jazdu
jazdy
jazera
jazere
jazero
jazerom
jazier
jazierko
jazyk
jazyka
jazykmi
jazykoch
jazykom
jazykov
jazykova
jazykove
jazykoveda
jazykovede
jazykovedec
jazykovedne
jazykovedny
jazykovedy
jazykovej
jazykovy
jazyku
jazyky
jazz
jazzovy
jc
jd
jde
jdeme
jdena
jdene
jdenie
jdeny
jdete
jdu
je
jean
jeana
jeanne
jed
jeda
jeden
jedena
jedenkra
jedina
jedinca
jedince
jedinci
jedincov
jedine
jedinec
jedinej
jedinom
jedinou
jedinu
jediny
jedl
jedla
jedle
jedlic
jedlo
jedna
jednak
jednalo
jedne
jednej
jedno
jednoducha
jednoduche
jednoduchej
jednoducho
jednoduchost
jednoduchou
jednoduchs
jednoduchu
jednoduchy
jednokol
jednolod
jednom
jednopodlaz
jednoroc
jednosmerne
jednosmerny
jednota
jednote
jednotiek
jednotka
jednotkami
jednotke
jednotkou
jednotku
jednotky
jednotlivca
jednotlivci
jednotlivcov
jednotlive
jednotlivo
jednotlivy
jednotne
jednotnej
jednotny
jednotu
jednoty
jednou
jednoznac
jednu
jedny
jedovaty
jeff
jefferson
jeffrey
jeho
jej
jeji
jejich
jek
jelen
jelena
jeli
jels
jem
jemna
jemne
jemnejs
jemnu
jemny
jemu
jen
jena
jene
jeni
jennifer
jens
jensen
jer
jeremy
jerome
jerry
jersey
jerusalem
jeruzalem
jeruzalema
jeruzaleme
jeruzalemske
jeruzalemsky
jerzy
jes
jesen
jesene
jeseni
jesenske
jesensky
jesse
jessica
jest
jestvuje
jestvuju
jesu
jesus
jet
jevgenij
jewish
jez
jezd
jezuita
jezuiti
jezuitov
jezuitske
jezuitsky
jf
jg
jho
ji
jic
jihlava
jil
jila
jili
jill
jilo
jim
jimi
jimmy
jin
jina
jindr
jiny
jir
jira
jit
jitka
jiz
jk
jme
jmov
jmu
jmy
jn
jo
joachim
joan
jodid
joe
joel
joey
johan
johann
johanna
johannes
john
johna
johnny
johnom
johns
johnson
joint
joj
jom
jomna
jomne
jomnej
jomnom
jomnu
jomny
jon
jona
jonas
jonathan
jones
jorda
jordan
jorge
jos
jose
josef
josefa
joseph
josepha
josh
joshua
josip
journal
journey
jov
jove
jovi
jovice
jovy
joy
joz
jozef
jozefa
jozefi
jozefom
jozefovi
jp
jr
jrd
js
jsem
jska
jske
jskeho
jskej
jsky
jsou
jst
ju
juan
juana
jubilee
juda
judaizmu
judas
judita
judith
judr
juh
juhoafrickej
juhoafricky
juhoamericka
juhoamericke
juhoamericky
juhoc
juhojuhovy
juhojuhoza
juhoko
juhomoravskom
juhosla
juhoslovanske
juhoslovansky
juhovy
juhoza
juhu
jules
julia
julian
juliana
julie
julien
julio
julius
juls
july
jump
jun
june
jung
jungle
junior
juniorov
juniorske
juniorskej
juniorsky
junkers
juno
jupiter
jupitera
jupiterov
jur
jura
juraj
juraja
jurajom
jurc
jure
juri
jurij
jurkovic
jursa
jury
jus
just
justi
justic
justice
justin
justinia
jut
juventus
juz
jx
k
ka
kaba
kabi
kabinet
kac
kach
kaci
kadlec
kai
kaisareie
kaiser
kaj
kaju
kal
kala
kaldera
kaldery
kalenda
kali
kalibru
kalich
kalifa
kalifornia
kalifornie
kalifornii
kalifornskej
kalin
kalina
kalinc
kalis
kalligram
kalo
kaluz
kalva
kalvi
kam
kamara
kambodz
kamc
kamen
kamena
kamene
kamenec
kameni
kamenna
kamenne
kamennej
kamenny
kamera
kameraman
kamerou
kameru
kamerun
kamery
kami
kamil
kampan
kampane
kampani
kamzi
kan
kana
kanad
kanada
kanade
kanadou
kanadska
kanadske
kanadskej
kanadsko
kanadskom
kanadsky
kanadu
kanady
kanaliza
kancela
kanda
kandida
kandidatu
kandidoval
kandidovala
kandidovat
kandina
kandra
kane
kani
kanie
kano
kanonik
kansas
kant
kanta
kanto
kanton
kany
kap
kapacita
kapacitou
kapacitu
kapacity
kapado
kapela
kapele
kapelni
kapelou
kapelu
kapely
kapiel
kapita
kapitalizmu
kapitol
kapitola
kapitole
kapitolu
kapitoly
kapitula
kapitule
kapituly
kapla
kaplnka
kaplnke
kaplnkou
kaplnku
kaplnky
kapuci
kapus
kapusta
kar
kara
karate
karbo
karbona
karbura
karcino
kardina
karel
karen
karibiku
karibske
karibsky
karie
kariet
karikatu
karikaturista
karin
karl
karla
karlom
karlova
karlovej
karlovy
karma
karmelita
karol
karola
karoli
karolinum
karolom
karolovi
karosa
karose
karpa
karpatoch
karpatska
karpatske
karpatskej
karpatsky
karpaty
karta
kartograficke
kartograficky
kartografie
kartou
kartu
karty
karvas
karvina
kas
kasa
kasi
kaska
kasti
kat
kata
katala
katalo
katalog
katalyza
katalyzuje
katar
katari
kataster
katastra
katastri
katastrofa
katastrofy
kate
kateche
katechizmus
katedra
katedre
katedru
katedry
katego
kategoriza
kater
katherine
katio
katka
kato
katoli
katy
kaukaz
kaukaze
kaukazu
kauza
kauze
kauzy
kaviaren
kay
kaz
kazachstan
kazachstane
kazachstanu
kazan
kazas
kazatel
kaze
kazhdan
kazimi
kazimierz
kazni
kazom
kazov
kazu
kazy
kb
kbs
kc
kd
kde
kdh
kdo
kdyz
ke
keby
kec
ked
kedy
kedykol
kedysi
keep
keith
kej
kel
kelly
keltske
keltsky
kem
ken
kend
keni
kennedy
kennedyho
kenneth
kenny
kent
kentaur
kentucky
ker
keramicke
keramicky
keramika
keramiky
kern
kes
keto
kev
kevin
key
kez
kf
kg
kgb
khan
khl
khz
ki
kia
kib
kid
kids
kien
kill
killer
killing
kilogramov
kilometer
kilometra
kilometre
kilometrov
kim
kin
kina
kinc
kind
kine
kinematografie
king
kingdom
kings
kingston
kino
kinoboxe
kir
kira
kirche
kirchner
kirk
kis
kiska
kiss
kit
kjo
kju
kk
kke
kky
kl
kla
klad
klade
kladie
kladivo
kladmi
kladn
kladna
kladne
kladnej
kladnejs
kladni
kladno
kladnom
kladnou
kladnu
kladny
kladoch
kladom
kladov
kladove
kladovy
kladu
klady
klan
klanu
klarinet
klasicisticka
klasicisticky
klasicizmu
klasicka
klasicke
klasickej
klasickom
klasicku
klasicky
klasifika
klasifikac
klatovy
klaus
klavi
klavirista
kle
klein
klement
klementa
klena
klenba
klenbami
klenbou
klenby
kleopatra
klesa
klesaju
klesla
klesol
kli
klient
klienta
klientom
klientov
klies
kliknuti
klimaticke
klimaticky
klimatiza
kliment
klin
klinc
klinicke
klinicky
klinika
kliniky
klip
klm
klobu
klokoc
klon
klonnost
klub
klube
kluboch
klubom
klubov
klubova
klubove
klubovej
klubovy
klubu
kluby
kluka
klza
km
kmen
kmene
kmet
kmi
kml
kn
kna
kne
kni
kniez
knight
kniha
knihe
knihou
knihovna
knihovni
knihu
knihy
kniz
knm
kno
know
knowledge
known
knut
ko
koali
koalic
koc
koca
koch
kocian
kociho
kocka
kocky
kocu
koda
kodak
kodan
kodani
kodena
kodene
kodeni
kodenia
kodenie
kodeniu
kodeny
kodi
kodifika
kodil
kodili
kodit
kodlive
kodlivy
kodu
kody
koeficient
koenzy
kogniti
koho
kohu
kokai
kokniez
kokor
kokra
kol
kola
kolac
kolaps
kole
kolega
kolegami
kolegom
kolegov
kolegovia
kolekcia
kolekti
kolektiv
kolena
kolesa
koleso
koli
kolies
kolieskovy
kolla
kolma
kolmo
kolni
kolo
koloman
kolona
kolonia
koloniza
kolou
kolska
kolske
kolskej
kolskom
kolsky
kolstva
kolstve
kolstvo
kolu
kolumbia
kolumbie
kolumbii
kolumbus
koly
kom
koma
kombi
kombina
kombinovana
kombinovane
kombinovany
kombinuje
kombinuju
kome
komedia
komenske
komensky
komenta
komerc
komi
komik
komiks
komiksov
komisa
komisia
komisie
komisii
komisiou
komisiu
komita
komne
komo
komora
komoravske
komoravskej
komore
komorne
komorni
komorny
komory
kompaktny
kompas
kompatibilne
kompatibilny
kompenza
kompetencie
kompetencii
kompila
kompilac
kompletna
kompletne
kompletny
komplex
komplexe
komplexna
komplexne
komplexny
komplexov
komplexu
komplexy
komplika
komplikovane
komplikovany
komponentov
komponenty
kompozi
kompozic
kompozitna
kompromis
komu
komuna
komuni
komunika
komunikac
komunikovat
komunistami
komunisti
komunisticka
komunisticke
komunistickej
komunisticky
komunistov
komunita
komunite
komunitu
komunity
komunizmu
komunizmus
kon
kona
konaju
konal
konala
konali
konalo
konani
konania
konanie
konat
konatel
konc
konca
konce
koncentra
koncentrac
koncentrovane
koncepc
koncepcia
koncepcie
koncepcii
koncepciu
koncept
konceptu
konceptua
koncepty
koncernu
koncert
koncerte
koncertna
koncertne
koncertny
koncertoch
koncertom
koncertov
koncertu
koncerty
konci
koncil
koncile
koncilu
koncoch
koncom
koncove
koncovy
koncu
kondenza
kone
konec
konfedera
konferenc
konferencia
konferencie
konferencii
konfigura
konfis
konflikt
konflikte
konfliktom
konfliktov
konfliktu
konflikty
konfronta
konfucius
kong
kongo
kongrega
kongres
kongrese
kongresu
koni
koniec
konitosti
konkla
konkre
konkurenc
konkurencii
konkurz
konkurzu
konmi
konna
konne
konnej
konnejs
konni
konnost
konnosti
konnostny
konnu
konny
konoc
konoch
konom
konov
konra
konrad
kons
konsky
konstantin
kontakt
kontakte
kontaktov
kontaktu
kontakty
konte
kontexte
kontextu
kontinent
kontinenta
kontinente
kontinentov
kontinentu
kontinua
kontra
kontrabas
kontrakt
kontrast
kontraste
kontrola
kontrole
kontrolne
kontrolny
kontrolou
kontrolovat
kontrolu
kontroluje
kontroly
kontroverzne
kontroverzny
konu
konvenc
konvencie
kony
konz
konzervati
konzervato
konzola
konzoly
konzul
konzula
konzulta
konzuma
koordina
koordinac
kop
kopa
kopc
kopca
kopce
kopci
kopec
kopecky
kopi
kopol
kopr
kopu
kopy
kor
kora
koralovy
korbel
korc
kordo
korea
korean
korec
koren
korene
koreni
korenie
kores
korfbale
koridor
korist
koristi
korka
korn
kornel
koro
korona
koronavi
korpio
korpora
koru
koruna
korune
korunne
korunnou
korunny
korunou
korunova
korunovac
korunovany
korunu
koruny
korupcie
koruta
korvi
kory
koryta
korytnac
koryto
korytom
korza
korzar
korzika
kos
kosa
kosi
kosice
kosmo
kosmos
kosorin
kosova
kosovo
kost
kostelec
kosteny
kosti
kostiach
kostka
kostol
kostola
kostole
kostoli
kostoloch
kostolom
kostolov
kostolu
kostoly
kostra
kostry
kosty
kotla
kotleba
kotli
kotlina
kotline
kotlinou
kotlinu
kotliny
kotrmanova
kotu
kou
kov
kova
kovac
koval
kovalik
kovana
kovane
kovani
kovanie
kovany
kovce
kovci
kovcov
kove
kovec
kovej
kovezi
kovi
kovia
kovic
kovice
kovite
kovity
kovo
kovom
kovou
kovov
kovova
kovove
kovovy
kovske
kovsky
kovu
kovy
koz
koza
kozi
kozmicka
kozmicke
kozmickej
kozmicku
kozmicky
kozmodro
kozmolo
kozmonaut
kozmonauti
kozmonautiky
kozmonautov
kozmos
kozmu
kozoroz
kozy
kp
kpt
kr
kra
kraft
kraj
kraja
krajc
kraje
kraji
krajina
krajinami
krajine
krajinna
krajinnej
krajinny
krajinou
krajinske
krajinsky
krajinu
krajiny
krajne
krajoch
krajom
krajov
krajska
krajske
krajskej
krajsky
krako
krakov
krakove
kral
krama
kras
krase
krasokorc
krasove
krasovy
krasu
kratochvi
krats
kraus
krc
kre
kreati
krec
krejc
kremen
kremi
kremic
kremnica
kremnici
kremnicke
kremnicky
kres
kresa
kresba
kresby
kresieb
kresiel
kresla
kreslo
krest
kri
kric
kriedy
krimina
kris
krista
kristi
kristia
kristom
kristovej
kristovho
kristovi
kristus
krite
kritici
kriticke
kritickej
kriticky
kritik
kritika
kritike
kritikmi
kritikou
kritikov
kritiku
kritiky
kritizoval
kritizovany
kritizuje
kriva
krivka
krivky
krivos
kriz
krk
krkonos
krku
kro
kroeger
krok
krokodi
krokom
krokov
kroku
kroky
krome
kromna
kromne
kromnej
kromnom
kromnu
kromny
kronika
kroniky
kropila
krov
krs
krst
krste
krstitel
krstne
krstny
krstu
krti
kru
kruh
kruhoch
kruhov
kruhove
kruhovy
kruhu
kruhy
krumlov
krupa
krupina
krus
kruta
krute
kruty
kruz
krv
krva
krvava
krvave
krvavy
krvi
krvne
krvny
krvou
kry
kryci
krym
kryme
krymu
krypta
krys
kryt
kryte
krytie
krytu
kryty
ks
ksc
kss
kt
ktere
ktery
kto
ktora
ktore
ktorej
ktori
ktorom
ktorou
ktoru
ktory
ku
kuala
kuba
kube
kubewano
kubi
kubicky
kubis
kuby
kuc
kucha
kuchyn
kuchyne
kuchyni
kuciaka
kuestnera
kuiperovho
kujavsko
kukuc
kukurica
kuli
kult
kulte
kultove
kultovy
kultu
kultura
kulturni
kultury
kuma
kumulati
kuna
kung
kunst
kup
kupe
kupec
kupne
kupola
kupolou
kupoly
kupuju
kur
kura
kuric
kurt
kurz
kurzov
kurzu
kurzy
kus
kusov
kusy
kutna
kuvajt
kuz
kuzma
kv
kva
kvac
kvadra
kvalifika
kvalifikac
kvalifikoval
kvalifikovali
kvalifikovalo
kvalifikovat
kvalita
kvalitati
kvalite
kvalitne
kvalitny
kvalitou
kvalitu
kvality
kvantitati
kvantova
kvantovej
kvapalina
kvapaliny
kvapalne
kvapalny
kvarte
kvarteto
kve
kvet
kvetmi
kvetov
kvety
kvitne
kvitnu
kvo
kvrna
kvrnene
kvrnity
kvrny
kw
ky
kyjev
kyjeva
kyjeve
kyjevskej
kynolo
kyseli
kyselina
kyselinou
kyselinu
kyseliny
kysle
kysli
kysly
kysuce
kysucka
kysucke
kysuckej
kysucky
kysucou
l
la
lab
labe
label
labem
laborato
laboratory
labuda
labut
labyrint
lac
lach
lacko
lacne
lacnejs
lacny
laco
lad
lada
lade
ladies
ladislav
ladislava
ladu
lady
lago
lagu
laguna
lajos
lake
lamac
lamar
lambda
lambert
lamina
lampa
lan
lana
lancia
land
lande
landes
landscape
landu
lane
lang
language
languages
languedoc
lanka
lano
lanovka
lanovky
large
larry
lars
larva
larvy
las
laserovy
lasica
last
lastovic
lastu
lat
late
latera
laternou
latin
latina
latinc
latinska
latinske
latinskej
latinsko
latinsky
launch
laura
laurea
laurence
laurent
laurie
laurinc
lausanne
lavi
lavic
lavice
law
lawrence
laz
lazio
lazy
lb
lc
lccn
lcd
lci
lcov
ld
ldots
le
lea
lead
leader
leafs
league
learning
leavenworth
leben
lebka
lebky
lebo
lec
lech
led
leda
lee
leeds
left
lega
legacy
legend
legenda
legendy
legiend
legiona
legislati
legiti
lego
leha
leho
lehota
lehotsky
lehoty
leiden
leipzig
lej
lek
leka
lem
lemovana
lemovane
len
lena
lene
lenej
lenena
lenene
leneni
lenenia
lenenie
leneny
leni
lenia
lenie
lenil
lenili
lenin
lenina
leningrad
lenit
lenka
lenkou
lenmi
lenna
lenne
lennej
lennon
lenny
lenom
lenov
lenovia
lenske
lensky
lenstva
lenstvo
leny
lenz
leo
leon
leonard
leonarda
leonardo
leone
leonid
leopold
leopolda
leopoldov
leos
lepidoptera
leps
leq
ler
les
lesa
lescharts
lese
lesk
lesley
leslie
lesmi
lesna
lesne
lesnej
lesni
lesnom
lesny
lesoch
lesom
lesov
lesy
let
leta
letci
letcov
lete
letec
letech
letecka
letecke
leteckej
leteckom
letecku
letecky
letectva
letectve
letectvo
letel
leti
letiska
letisko
letiskom
letisku
letka
letky
letna
letne
letnej
letnom
letny
leto
letoch
letom
letopoc
letov
letove
letovej
letovy
letter
letterarie
letters
letu
lety
leuke
leum
lev
leva
level
levi
levice
leviciach
levoc
levy
lewis
lex
lexika
lexiko
lexikon
lexiky
lez
lezca
leziska
lezisko
lezom
lezov
lezu
lezy
lf
lg
lgarija
lgbt
lhota
li
lia
liam
liaz
lib
libanon
libe
liber
libera
liberec
libereckom
liberty
libier
libor
libra
library
libreto
libri
libus
lic
lice
licenc
licencia
licencie
licencii
licenciou
licenciu
license
lichard
lichobez
lichtens
licita
lid
lide
lidi
lidova
lidove
lidovky
lidu
lidy
lie
liec
liek
liekov
lieku
lieky
lienka
lienkami
lienke
lienkou
lienkovy
lienku
lienky
lienok
lies
lieta
lietadiel
lietadla
lietadlami
lietadle
lietadlo
lietadlom
lietadlovej
lietadlovy
lietaju
lietal
lietanie
lietat
life
liga
lige
light
lightning
lights
ligove
ligovy
ligu
ligue
ligy
lii
lik
lika
like
liki
likvida
liky
lil
lila
lili
lille
lilly
lilo
lily
lim
lima
limit
limited
limitovana
limity
limuzi
lin
lina
lincoln
linda
lindsay
line
linea
lines
liniek
link
linka
linke
linkin
linkou
linku
linky
linnaeus
linux
lion
lionel
lions
liou
lipa
lipany
lipni
lipova
lips
lipsko
lipsku
lipta
liptov
liptova
liptove
liptovska
liptovske
liptovskej
liptovskom
liptovsky
lis
lisa
lisabon
list
lista
listami
liste
listen
listi
listina
listine
listinu
listiny
listnate
listnaty
listoch
listom
listov
listu
listy
lit
litera
literatu
literatura
literature
literatury
litevna
lito
litome
litomys
litovske
litovsky
litra
litrov
litrovy
little
liturgia
liturgicke
liturgicky
liturgie
liturgii
litva
litve
litvy
liu
lium
lius
liusa
liv
live
liverpool
lives
living
livo
livost
livu
livy
lix
lize
lizzy
lk
lka
lke
lkou
lkova
lku
lky
ll
llc
ller
llo
lloyd
lm
lma
lmajor
lmi
ln
lna
lne
lneho
lnej
lnejs
lnemu
lni
lno
lnom
lnost
lnosti
lnou
lnu
lny
lnych
lnym
lnymi
lo
local
loch
lock
lockheed
lod
lode
lodi
lodiach
lodne
lodny
lodz
log
logic
logicka
logicke
logicky
logik
logika
logike
logiky
logo
logos
loh
loha
lohe
lohou
lohu
lohy
loir
loire
loiret
loja
lok
loka
lokali
lokalita
lokalite
lokalitou
lokalitu
lokality
lokaliza
lokedy
lokomoti
lom
lomeny
lomkov
lomky
lomnica
lomnicky
lomu
london
londy
lonely
long
look
lopta
loptic
loptu
lopty
lord
lorda
lorenzo
lori
los
lost
lot
lote
lotrinska
lotrinsko
lotrinsky
lotus
lotys
lou
lough
louis
louisa
louise
louisiana
louny
louvre
lov
lova
lovato
lovce
lovci
lovcov
love
lovec
lovecraft
lovej
lovek
loveka
lovekom
lovekovi
loveku
lovi
lovia
lovite
lovo
lovohradeckom
lovom
lovu
lovy
low
lowe
lower
loyoly
loz
loze
lp
lporuc
lr
ls
lska
lske
lskeho
lskej
lsko
lskom
lsku
lsky
lskych
lskym
lt
lta
ltd
lte
ltej
lto
ltu
lty
lu
lubelskom
lubomi
lubos
luc
lucas
lucia
luciano
lucie
lucius
lucky
lucy
lude
ludvi
ludwig
lufthansa
luftwaffe
luhy
luigi
luis
lujza
luka
lukas
luke
luna
lunar
lung
lupta
lutera
luther
luthera
lux
luxembourg
luxemburska
luxemburske
luxembursko
luxembursku
luxembursky
luxusny
luz
lv
ly
lych
lym
lynch
lynn
lynott
lynx
lyon
lyricky
lysa
lyz
lz
lɲi
m
ma
mac
macaulay
macdonald
macedo
macek
mach
macha
machine
maci
macintosh
macmillan
mad
madame
made
madeleine
madison
madona
madonna
madrid
madride
mafia
mafra
mag
magazi
magazine
magda
magdale
magdalena
magic
magicke
magicky
magister
magisterske
magistersky
magistra
magmy
magna
magnet
magneticke
magneticky
magnitu
magnum
magnus
magura
magure
magury
magyar
magyarorsza
mah
maha
mai
maiden
mail
main
maine
mainstream
maja
majer
majesta
majetkom
majetkov
majetkove
majetkovy
majetku
majetky
majetok
majitel
majitelia
major
majora
majster
majstra
majstri
majstrom
majstrov
majstrovske
majstrovsky
majstrovstiev
majstrovstva
majta
maju
mak
make
makes
making
makrofa
mal
mala
malacka
malacky
malajzia
malawi
malcolm
maldiv
maldiva
male
malej
mali
maliar
maliara
maliarka
maliarom
maliarov
maliarstva
maliarstvo
malic
malieb
malina
malmo
malo
maloa
malom
maloplos
malopol
malou
malta
malte
malu
maly
mam
mama
mame
mami
mammalia
mammals
man
mana
management
manager
manaz
manche
manchester
manda
mandl
mandz
mane
manfred
manga
manhattan
manhattane
mani
mania
manie
manifest
manifesta
manipula
manipulac
maniu
mann
mannheim
mans
manu
manua
manual
manuel
manuela
manufaktu
many
manz
mao
map
mapa
mape
maple
mapou
mapova
mapovaci
mapovy
maps
mapu
mapy
mar
mara
marato
marc
marca
marcel
marcela
march
marci
marcin
marco
marcom
marcu
marcus
mare
marec
marek
marenc
margare
margaret
margita
marguerite
marhold
mari
maria
mariah
marian
mariana
marianna
marie
marika
marilyn
marin
marina
marine
mariner
mario
marion
maritime
maritimes
marius
mark
marka
marke
market
marketing
marketingu
markgro
marki
markiza
marko
markovic
marku
markus
marky
marne
marok
maroko
maros
mars
marse
marseille
marshall
marsu
mart
marta
marth
martha
marti
martin
martina
martine
martinik
martinom
martinske
marty
marvel
marx
marxizmu
mary
maryland
mas
masa
masaker
masaryk
masaryka
masarykova
masarykovej
masaryku
masi
maska
maskulinum
masky
mason
masove
masovy
mass
massachusetts
master
mastering
masters
mastny
masy
mat
match
mate
matej
mateja
matel
matematicka
matematicke
matematickej
matematicko
matematicky
matematik
matematika
matematike
matematiku
matematiky
mater
materia
materinsky
maternice
materska
materske
materskej
materskou
matersky
mathbb
mathbf
mathematical
mathematics
mathrm
matias
matic
matica
matice
matka
matke
matkinej
matkou
matku
matky
matous
matovic
matrike
matrix
matt
matter
matthew
matthias
matu
maturite
maturoval
matus
mauri
maurice
mauzo
mava
mave
mavejs
mavost
mavosti
mavy
max
maxa
maxi
maxim
maxima
maximilia
maximum
maximus
may
maya
mayenne
mayer
mayo
maz
mazda
mazovskom
mb
mba
mbox
mc
mca
mccartney
mcdonald
mcdonnell
mcgraw
mci
mckenna
mclaren
mcqueen
md
me
mec
mecena
mechanicka
mechanicke
mechanicky
mechanik
mechanika
mechaniky
mechanizmom
mechanizmov
mechanizmu
mechanizmus
mechanizmy
mechu
mecky
med
medaila
medaile
medaili
medailo
medailou
medailu
medaily
medal
medeny
medi
media
mediaboom
medialne
medical
medici
medicine
medien
medieval
medita
medscape
medu
medved
medvedi
medvedica
medzera
medzery
medzi
medzic
medzil
medzilaborce
medzina
medziplaneta
medzis
medzity
medzivojnovom
medzni
meet
mega
mehmed
meho
mej
mejs
mek
mel
melbourne
melo
melodicky
member
members
membra
memoa
memorandum
memoria
memorial
memoriam
memory
memphis
men
mena
menami
mendoza
mene
menej
meni
menia
menie
menil
menila
menili
meniny
menit
menny
meno
menom
menou
menova
menoval
menovani
menovany
menovej
menovite
menovy
mens
ment
menta
mentu
menu
meny
mer
mera
meradle
meraju
merana
merani
merania
meranie
merat
mercedes
mercury
mere
meri
meria
merie
merku
merlin
merna
merne
merny
merom
meru
mery
mes
mesac
mesi
mesia
mesiac
mesiaca
mesiace
mesiaci
mesiacoch
mesiacom
mesiacov
mesiacu
mesnil
message
messe
messenger
messi
messier
mesta
mestami
meste
mestec
mesti
mestia
mestie
mestni
mesto
mestom
mestovo
mestska
mestske
mestskej
mestsko
mestskom
mestskou
mestsku
mestsky
mestu
met
meta
metabolism
metabolizmu
metabolizmus
metacritic
metal
metallica
metalova
metalovej
metalovy
metalu
metamorfo
metamorphoses
meteorolo
meteorologicky
meter
meth
method
meto
metod
metoda
metodolo
metom
metra
metre
metro
metropolita
metropolitan
metropolitna
metropolitnej
metrov
metu
mety
metz
meurthe
meuse
mexicke
mexicky
mexico
mexika
mexiko
mexiku
meyer
mez
mezi
mezina
mezo
mezopota
mf
mff
mfk
mg
mgr
mh
mhc
mhd
mhk
mhz
mi
mia
miami
mic
michael
michaela
michaelom
michail
michajlovic
michal
michala
michalom
michalovce
michalovciach
michel
michelangelo
michelle
michigan
mick
microsoft
mid
middle
midi
midnight
mie
mien
mienka
mienkou
mienku
mienky
mier
miera
miere
mieri
mierne
miernejs
miernom
mierny
mierou
mierova
mierove
mierovej
mierovu
mierovy
mieru
miery
mies
miest
miesta
miestach
miestami
mieste
miestna
miestne
miestneho
miestnej
miestni
miestnom
miestnost
miestnosti
miestnou
miestnu
miestny
miestnych
miestnym
miestnymi
miesto
miestodrz
miestokra
miestom
miestu
mig
migra
migu
miguel
migy
miha
mii
mika
mike
mikko
miklo
miklos
mikrobiolo
mikrofo
mikroorganizmov
mikula
mikus
mil
mila
milada
milan
milana
milanom
mile
milena
miles
mili
milia
miliardy
milio
military
millennium
miller
million
mills
milo
milos
miloslav
miloslava
milosrdenstva
milosrdenstvo
milost
milosti
miloval
milovany
milovat
milovni
milton
miluje
milujem
milujeme
miluju
milwaukee
mily
mimo
mimoriadne
mimoriadnu
mimoriadny
mimovla
mimozems
min
mina
minc
minca
mince
minci
mind
mindat
mine
minecraft
minera
mineralo
mineraly
ming
mini
miniatu
minima
minimum
minister
ministerka
ministersky
ministerstva
ministerstve
ministerstvo
ministerstvom
ministra
ministri
ministrom
ministrov
ministry
minnesota
minor
minsk
minu
minule
minulej
minulost
minulosti
minuly
minuskula
mioce
miou
mir
mira
mirage
miriam
mirka
miro
miroslav
miroslava
mirror
mis
misa
misia
misie
misii
misiona
misiu
miss
missile
mission
mississippi
missouri
mistri
mit
mitchell
mito
mitochondria
mitsubishi
miu
mix
mixa
mixovanie
mixtape
mk
mka
mkach
mkch
mke
mkoch
mkol
mkou
mkov
mkp
mku
mky
ml
mla
mlada
mlade
mladej
mladi
mladom
mladost
mladosti
mlads
mladu
mlady
mlc
mld
mliec
mlieka
mlieko
mlok
mly
mlyn
mlyna
mlyny
mm
mma
mn
mna
mne
mneho
mnej
mnet
mni
mnohe
mnohi
mnoho
mnohokra
mnohona
mnohy
mnou
mnoz
mny
mnych
mo
mobile
mobiliza
mobilne
mobilny
moc
mocenske
mocensky
moch
moci
mocky
mocne
mocnost
mocnosti
mocny
mocou
mod
mode
model
modeli
modelka
modeloch
modelom
modelov
modelu
modely
modera
modern
moderna
moderne
modernej
modernejs
moderni
moderniza
modernizovane
modernizovany
modernom
modernu
moderny
modifika
modifikovany
modli
modlit
modlitba
modlitbe
modlitbou
modlitbu
modlitby
modra
modre
modrej
modro
modrom
modru
modry
modul
modula
module
modulov
modulu
moduly
modus
moha
mohamed
mohanom
mohla
mohli
mohlo
mohol
mohutna
mohutne
mohutny
moi
moja
moje
mojej
moji
mojich
mojmi
moju
mojz
mok
mokrad
mokrade
mokradi
mol
moldavska
moldavsko
moldavsku
molecular
moleku
molekula
molekule
molekuly
molie
moll
molly
molna
mom
moment
momenta
momente
momentu
mon
mona
monarchia
monarchie
monarchii
monastier
monde
money
mongoli
mongolska
mongolske
mongolsko
mongolsky
monica
monika
monitor
monitorovanie
mono
monografia
monografie
monografii
monov
monroe
mons
monster
mont
monta
montana
monte
montevideo
montgomery
monthly
montpellier
montreal
montreale
monument
monumenta
moon
moore
mor
mora
morava
moravc
moravce
morave
moravou
moravska
moravske
moravskej
moravsko
moravskosliezskom
moravsky
moravu
moravy
morbihan
more
moreplavec
moretti
morfolo
morfologicky
morgan
mori
moria
moritz
morna
morne
mornej
morni
morning
mornu
morny
morom
morris
morrison
morska
morske
morskej
morskom
morsky
moru
morus
mos
moselle
moskovske
moskovskej
moskovsky
moskva
moskve
moskvy
moslimov
moslimovia
moslimske
moslimsky
most
mosta
moste
mosti
mostom
mostov
mostu
mosty
mother
moti
motion
motiva
moto
motor
motora
motormi
motoroch
motorom
motorov
motorove
motorovy
motors
motoru
motory
motto
moty
mou
mount
mountain
mountains
mov
mova
move
movej
movement
movia
movie
movies
movu
movy
moz
mozaika
mozaiky
mozart
mozgovy
mozgu
mozilla
mozog
mp
mpa
mpc
mpeg
mr
mra
mrac
mrak
mrakodrap
mraku
mramor
mramorovy
mramoru
mravc
mravne
mravny
mre
mrez
mriez
mrna
mrs
mrti
mrtia
mrtnost
ms
msami
msi
mska
mske
mskeho
mskej
mski
msko
mskokatoli
mskom
mskou
msku
msky
mskych
mskym
msou
mt
mto
mtv
mu
muc
much
mucha
mudr
muhammad
mukac
multi
multifunkc
multimedia
multis
mun
mundodeportivo
muni
munici
munt
mura
murder
murgas
muri
muriva
murovana
murovany
murphy
murray
mus
muse
musel
musela
museli
muselo
museo
museum
musi
musia
music
musica
musical
musicum
musiet
musik
must
mustafa
muta
muz
muzea
muzeum
muzika
muzikolo
mv
mw
mx
my
mych
myjava
myke
mylne
mym
mymi
myokardu
mys
mysel
myselne
mysle
myslel
mysleli
mysleni
myslenia
myslenie
mysli
myslia
mysliet
myslitel
myslom
myspace
myste
mystery
mytolo
mytologicky
mz
mzda
mzdy
mzk
mzv
n
na
naba
nabi
nabity
nabla
nac
nach
nacha
naciona
nacional
nacionalizmu
nacionalizmus
nacistami
nacisti
nacisticke
nacistickej
nacisticky
nacistov
nacizmu
nad
nada
nadanie
nadany
nadc
nadcha
nadmerne
nadmorska
nadmorskej
nadmorskou
nadmorsku
nadmorsky
nadna
nadobu
nadobudla
nadobudol
nadol
nadpolovic
nadprirodzene
nadprirodzeny
nadriadeny
nads
nadstavbovej
nadva
nadviazal
nadviazala
nadviazali
nadviazat
nadvla
nagy
naha
nahor
nahra
nahradena
nahradene
nahradeny
nahradi
nahradil
nahradila
nahradili
nahradilo
nahradit
nahral
nahrala
nahrali
nahrana
nahrane
nahrany
nahrat
nahrati
nahratie
nahraty
nai
nails
nains
naj
naja
najakti
najavo
najbez
najbliz
najbohats
najc
najcennejs
najdlhs
najdo
najdrahs
najhlbs
najhodnotnejs
najhors
najjasnejs
najjednoduchs
najjuz
najkrajs
najkrats
najl
najleps
najma
najmenej
najmens
najmlads
najmocnejs
najmodernejs
najnavs
najnesko
najniz
najnovs
najobl
najpoc
najpopula
najpouz
najpravdepodobnejs
najpreda
najpresti
najprodukti
najprv
najro
najrozs
najrozsiahlejs
najry
najs
najsevernejs
najsilnejs
najsko
najsla
najslabs
najsledovanejs
najstars
najsva
najt
naju
najuz
najva
najvhodnejs
najviac
najvplyvnejs
najvy
najvys
najvza
najvzdialenejs
najza
najzauji
najzna
nakl
nakla
nakladatel
nakladatelstvi
nakol
nakoniec
nakra
nakru
naku
nal
nala
nali
nalo
naloz
nam
nama
namal
name
named
names
nami
namiesto
nan
nana
nancy
nane
nanebovstu
nanebovzatia
nanej
nani
nanie
nanovo
nantes
nanu
nany
naopak
naozaj
napa
napadli
napadnu
napadol
napi
napl
napla
naplno
napodobn
napojenie
napokon
napoleon
napoleona
napoleonsky
napoma
naposledy
napr
napravo
napri
napriec
napriek
naproti
nar
nara
narastaju
naraz
narazil
nariadeni
nariadenia
nariadenie
nariadil
narodeni
narodenia
narodenie
narodeniny
narodeny
narodil
narodila
narodili
narodilo
naru
narus
nas
nasa
nasadena
nasadene
nasadeni
nasadenia
nasadenie
nasadeny
nash
nashville
nasl
nasledoval
nasledovala
nasledovali
nasledovalo
nasledovat
nasledovne
nasledovni
nasledovnu
nasledovny
nasleduje
nasleduju
naspa
naspieval
naspievala
nast
nasta
nastal
nastala
nastali
nastalo
nastane
nastat
nastavenia
nastavenie
nastavit
nastu
nastupuje
nastupuju
nasvedc
nasy
nat
nata
natalie
nate
nathan
nati
nation
national
nationale
nations
nato
natoc
natol
natrvalo
natura
natural
naturalis
nature
naty
nauc
nava
naval
naveky
naviga
navigac
navonok
navra
navrhla
navrhli
navrhnuta
navrhnute
navrhnuty
navrhol
navrhoval
navrhuje
navs
navy
navys
navz
navza
naz
nazionale
naznac
nazval
nazvali
nazvana
nazvane
nazvanej
nazvanu
nazvany
nazvat
nazy
nb
nba
nbc
nbs
nc
nchen
nchez
nci
ncis
ncov
nd
nde
ndez
ndhi
ndor
ndr
ne
nea
neakti
neanderta
neanderthalensis
neapol
neapole
near
neba
nebeske
nebeskej
nebesky
nebezpec
nebi
nebies
nebo
nebol
nebola
neboli
nebolo
nebom
nebra
nebraska
nebude
nebudu
neby
nec
necele
necely
nech
necha
nechal
nechala
nechali
nechat
nechce
nechcel
nechceli
nechy
neci
ned
neda
nedaju
nedal
nedarilo
nedel
nedele
nedo
nedoc
nedocha
nedodrz
nedoka
nedokonc
nedos
nedosiahol
nedostal
nedostala
nedostali
nedostatkom
nedostatku
nedostatky
nedostatoc
nedostatok
nedovol
nedoz
nedve
nedz
need
neexistuje
neexistuju
neforma
nefunkc
negati
nehnutel
neho
nehoda
nehode
nehody
nehovori
nehral
neil
neill
nej
nejaka
nejake
nejakej
nejako
nejakom
nejaku
nejaky
nejasne
nejasny
nejde
nejleps
nejs
nejve
nek
neka
nekonec
nekta
nel
nelega
neli
nellie
nelson
nem
nema
nemaju
nemal
nemala
nemali
nemalo
nemanz
nemc
nemcami
nemci
nemcom
nemcov
neme
nemec
nemecka
nemecke
nemeckej
nemecki
nemecko
nemeckom
nemeckou
nemecku
nemecky
nemeni
nemo
nemocnic
nemocnica
nemocnice
nemocnici
nemocnicu
nemohla
nemohli
nemohlo
nemohol
nemoz
nems
nemu
nemusi
nemusia
nemy
nen
nena
nenacha
nenas
nenastu
nene
nenej
neni
nenia
nenie
neniu
nenom
neny
neo
neobmedzene
neobsahuje
neobsahuju
neobvykle
neoby
neobyc
neoc
neoddelitel
neoficia
neoge
neolitu
neopra
neoroma
nepa
nepama
nepatri
nepatria
nepatrne
nepi
neplati
neplatny
nepo
nepoc
nepochybne
nepodarilo
nepokoje
nepokojov
nepomucke
nepomuk
neporus
nepos
neposlednom
nepostu
nepotrebuje
nepouz
nepovaz
nepozna
nepra
nepravidelna
nepravidelne
nepravidelny
nepres
nepresne
nepretrz
neprez
nepri
nepriamo
nepriatel
nepriatelia
nepriaznive
nepriaznivy
neprihla
nepris
neptu
ner
nera
nerastny
neraz
neri
neries
nero
nerobi
nerom
nerov
nerovnosti
nerus
nervove
nervovy
nes
neschopnost
nesie
nesko
neskonc
neskore
neskorej
neskoro
neskors
neskory
nesku
nesmie
nesmierne
nesmrtel
nesmu
nespl
nespo
nespoc
nespokojnost
nespol
nespomi
nespra
nesta
nestac
nestal
nestalo
nestor
nestra
nesu
net
netball
netflix
netherlands
netopier
netradic
netreba
netus
network
neu
neudrz
neue
neumann
neumoz
neuplatn
neurc
neuro
neurolo
neuskutoc
neuspel
neusta
neutra
neutri
neutro
neuva
neuveritel
neuzna
neva
nevada
neve
nevedel
nevedeli
nevedia
nevedie
nevel
never
neveri
nevesta
nevhodne
nevhodny
nevi
nevidel
nevidi
neviditel
nevie
neviem
nevieme
nevinny
nevla
nevlastne
nevlastny
nevo
nevol
nevra
nevs
nevy
nevydrz
nevyhnutna
nevyhnutne
nevyhnutny
nevyhovuju
nevys
nevyskytuje
nevyuz
nevyz
nevzt
new
newcastle
newman
news
newton
next
neymar
nez
neza
nezac
nezachovali
nezahr
nezamestnanost
nezamestnanosti
nezamestnany
nezaradeny
nezauji
nezhoda
nezhody
nezi
neziskova
nezistene
nezluc
nezmeni
nezna
neznamena
nezriedka
nezu
nezvestny
nezvla
nezvyc
nf
ng
ngc
nh
nha
nhl
ni
nia
niak
niami
nic
nica
niccolo
nice
nich
nicholas
nicholson
nici
niciach
nick
nicka
nicke
nickelback
nicky
nico
nicola
nicolas
nicole
nicou
nicu
nie
niec
niekdajs
niekde
niekedy
niekoho
niekol
niekomu
niekto
niektore
niektorej
niektori
niektory
nielen
nielenz
nielsen
niesla
niesli
nieslo
niesol
niest
niet
nietzsche
nievaju
nig
nige
nigel
niger
night
nightwish
nigra
niho
nii
nijake
nijako
nijaky
nik
nika
nikaragua
nikde
nikdy
nike
nikoho
nikola
nikolaj
nikolajevic
nikom
nikomu
nikon
nikoti
nikov
nikova
nikove
nikovy
nikto
niku
niky
nil
nila
nili
nilo
nim
nimi
nimiek
nimkou
nimku
nimky
nimoc
nin
nina
nine
ning
ningu
nintendo
niny
nio
niou
nirvana
nis
nisou
nissan
nit
nitra
nitre
nitrianska
nitrianske
nitrianskeho
nitrianskej
nitrianskom
nitriansky
nitry
niu
nium
nius
niva
nive
nivy
nix
niz
nj
nk
nka
nkach
nkami
nke
nkoch
nkom
nkonoz
nkou
nkov
nkova
nkove
nkovy
nkp
nku
nkvd
nky
nl
nlk
nm
nme
nmi
nna
nne
nneho
nnej
nnom
nnu
nny
nnych
nnym
nnymi
no
nobel
nobelova
nobelovej
nobelovu
nobelprize
noc
noch
noci
noe
noel
noha
nohami
nohe
nohospoda
nohou
nohu
nohy
noise
nok
nokia
nom
noma
nomenclature
nomenklatu
nomina
nominantov
nominati
nominations
nominees
nominoval
nominovana
nominovany
non
nonicke
nopol
nopola
nopole
nopolsky
nopolu
nor
nora
norbert
norceca
nord
noriem
norimberg
norimbergu
norma
normaliza
norman
normandia
normandii
normati
normovany
normy
norris
north
northern
norton
nos
nosa
nose
nosi
nosia
nosic
nosil
nosili
nosit
nositel
nosna
nosne
nosnej
nosni
nosnost
nosny
nosom
nosoroz
nosov
nost
nosti
nostiach
nostiam
nostna
nostne
nostnej
nostny
nosu
nosy
not
nota
note
notes
nothing
notre
nou
nov
nova
noval
novala
novali
novana
novane
novanej
novani
novania
novanie
novany
novat
novce
novcov
nove
novej
novel
novela
novelizovane
novely
november
novembra
novembri
novgorod
novho
novi
noviel
novina
novinkou
novinky
noviny
novite
novo
novodobe
novodoby
novogr
novogre
novohradskej
novom
novotny
novou
novoveku
novoza
novozaloz
novoze
novs
novska
novske
novsky
novu
novy
now
nowy
noz
np
npp
npr
nr
nre
nri
nrov
nrsr
nru
ns
nsdap
nska
nske
nskeho
nskej
nskemu
nski
nsko
nskom
nskou
nsku
nsky
nskych
nskym
nskymi
nsr
nstvo
nt
ntgenove
nther
nu
nuclear
nuje
nuju
nuklea
nula
nulovy
number
numbers
numismatiche
nus
nutne
nutnost
nutnosti
nutny
nuz
nvidia
ny
nya
nych
nyho
nyi
nyiova
nyj
nym
nymburk
nymi
nytimes
nz
o
oa
oak
oasis
ob
oba
obaja
obal
obale
obalu
obama
obavy
obazov
obc
obcami
obce
obcha
obchod
obchode
obchodna
obchodne
obchodnej
obchodni
obchodnom
obchodnu
obchodny
obchodov
obchodovanie
obchodu
obchody
obchvat
obci
obciach
obcou
obdiv
obdivovatel
obdl
obdoba
obdobi
obdobia
obdobiach
obdobie
obdobne
obdobny
obdrz
obe
obec
obecna
obecne
obecnej
obecnom
obecnu
obecny
obeh
obehu
obet
obete
obeti
obetiam
obez
obha
obhajca
obhajcom
obhajcu
obhajoba
obhajoval
obi
obidva
obidvaja
obidve
obidvoch
obieha
obiehaju
obilia
obilie
obj
objasn
objav
objave
objavena
objavene
objaveni
objavenie
objaveny
objavi
objavil
objavila
objavili
objavilo
objavit
objavitel
objavom
objavovali
objavovat
objavu
objavuje
objavuju
objavy
object
objedna
objekt
objekte
objekti
objektom
objektov
objektu
objekty
objem
objeme
objemom
objemu
obji
obkl
obklopena
obklopene
obklopeny
obklopuje
obklopuju
obl
oblac
oblak
oblakov
oblaky
oblast
oblasti
oblastiach
oblastne
oblec
oblic
obliehani
obliehania
obliehanie
oblohe
oblohu
oblohy
obloz
oblu
obmedzena
obmedzene
obmedzeni
obmedzenia
obmedzenie
obmedzeny
obmedzit
obmedzuje
obmedzuju
obmy
obna
obne
obnej
obni
obnova
obnove
obnovena
obnovene
obnovenej
obnoveni
obnovenie
obnoveny
obnovil
obnovila
obnovili
obnovit
obnovitel
obnovou
obnovu
obnovy
obny
oboch
obojz
oboma
obor
obozna
obr
obra
obracia
obrad
obrade
obradu
obrady
obrana
obranca
obrancov
obrancovia
obrancu
obrane
obranne
obranny
obranu
obrany
obrat
obraz
obraze
obrazoch
obrazom
obrazov
obrazove
obrazovka
obrazovke
obrazovky
obrazovy
obrazu
obrazy
obrnene
obrneny
obrodenia
obrovska
obrovske
obrovskej
obrovsku
obrovsky
obru
obs
obsadena
obsadene
obsadeni
obsadenie
obsadeny
obsadil
obsadila
obsadili
obsadilo
obsadit
obsah
obsahom
obsahoval
obsahovala
obsahovali
obsahovalo
obsahovat
obsahu
obsahuje
obsahuju
observato
observatory
obsiahnute
obsiahnuty
obsluhuje
obstara
obt
obteka
obuv
obuvni
obvin
obvineni
obvinenia
obvinenie
obvineny
obvinil
obvinili
obvod
obvode
obvodom
obvodov
obvodu
obvody
obvykle
obvykly
oby
obyc
obydlia
obytne
obytny
obyv
obyvatel
obyvatelia
obz
obzor
obzvla
oc
ocea
ocean
ocel
ocele
ocen
ocenena
oceneni
ocenenia
ocenenie
oceneny
ocenil
och
ochorel
ochoreni
ochorenia
ochorenie
ochotne
ochotni
ochotny
ochra
ochran
ochrana
ochranca
ochrane
ochranne
ochranny
ochranou
ochranu
ochrany
ocitla
ocitol
oclc
october
od
oda
odberatel
odboc
odboj
odboja
odbor
odbore
odborna
odborne
odbornej
odborni
odbornu
odborny
odboroch
odborov
odboru
odbory
odc
odcestoval
odcha
odchod
odchode
odchodom
odchodu
odchovancom
odchy
odchytal
odd
odda
oddel
oddelena
oddelene
oddeleni
oddelenia
oddelenie
oddeleny
oddelila
oddelit
oddiel
oddielov
oddielu
oddiely
oddych
odeon
oder
odev
odevu
odhad
odhadov
odhadovany
odhaduje
odhady
odhal
odhalena
odhalenie
odhaleny
odhalil
odhalili
odhalit
odhla
odi
odis
odka
odkaz
odkazom
odkazov
odkazoval
odkazu
odkazuje
odkazuju
odkazy
odkedy
odkial
odkry
odkryte
odku
odl
odli
odlis
odloz
odlu
odmena
odmenu
odmeny
odmieta
odmietaju
odmietal
odmietali
odmietla
odmietli
odmietlo
odmietnutie
odmietol
odn
odniesol
odnoz
odo
odohra
odohraju
odohral
odohrala
odohrali
odohralo
odola
odolne
odolnost
odolny
odovzda
odovzdal
odovzdali
odovzdana
odovzdane
odovzdany
odovzdat
odpa
odpad
odpadov
odpadovy
odpadu
odpal
odpoc
odpor
odporcom
odporcov
odporom
odporu
odporuc
odpoved
odpoveda
odpovedaju
odpovedal
odpovedat
odpovede
odpovedi
odpruz
odpu
odpustenie
odra
odraz
odrazu
odro
odroda
odrody
ods
odseku
odsko
odst
odstra
odstran
odstu
odstupom
odsu
odteka
odtial
odtien
odtlac
odva
odvahu
odvetvi
odvetvia
odvetvie
odvi
odvodena
odvodene
odvodeny
odvodn
odvodzuje
odvola
odvolal
odvolani
odvolania
odvolanie
odvolany
odvolat
odvra
odvtedy
odysea
oecd
of
ofe
ofenzi
off
office
official
ofia
oficia
og
ographique
oh
ohen
ohio
ohl
ohla
ohlas
ohlasy
ohn
ohni
oho
ohranic
ohrozena
ohrozene
ohrozeni
ohrozenia
ohrozenie
ohrozeny
ohrozuju
ohy
oi
oil
oilers
ois
oise
oj
ojedinele
ojedinely
ok
oka
okamih
okamihu
okamz
okien
oklahoma
okna
oknami
okno
oknom
oko
okol
okola
okoli
okolia
okolic
okolie
okolite
okolitej
okolity
okolnosti
okolo
okom
okraj
okraja
okraje
okraji
okrajoch
okrajom
okrajove
okrajovy
okrem
okres
okrese
okresne
okresny
okresoch
okresom
okresov
okresu
okresy
okri
okrsku
okrsok
okru
okruh
okruhu
okruz
oks
okta
okto
oku
okupa
okupac
okupovane
okupovany
okyslic
ol
ola
olaf
old
oldr
ole
oleg
olej
oleja
oleje
olejni
oleracea
oles
olga
oli
olimpici
oliver
olivia
olivier
olivovy
olomansky
olomouc
olomouci
olomoucke
olomouckom
olomoucky
olova
ols
olta
olte
olty
olympia
olympic
olympics
olympie
olympii
olympijska
olympijske
olympijskej
olympijskom
olympijsky
olympionikai
olympique
om
oma
omar
omberka
omberku
omberok
omega
omet
ometov
omety
omnibus
omnoho
omod
oms
omu
omyl
omylom
on
ona
once
ondr
ondra
ondrej
ondreja
ondrus
one
onedlho
ong
oni
online
only
ono
onsko
onta
ontario
onv
ony
op
opa
opac
opak
opakom
opakovane
opakovanie
opakovany
opakuje
opakuju
opatreni
opatrenia
opatrenie
opava
ope
opel
open
opengl
opera
operac
operati
operation
operations
operatorname
opere
opereta
operety
operna
operny
operu
opery
opevnene
opevneni
opevnenia
opevnenie
opevneny
ophrys
opi
opice
opier
opiera
opieraju
opis
opisu
opisuje
opisuju
opla
oporny
opozi
opozic
opportunity
opr
opra
oprava
oprave
opravene
opravit
opravte
opravu
opravy
opronskej
oproti
opticka
opticke
opticky
optima
optimaliza
optimus
opu
opus
opustene
opusteni
opusteny
opusti
opustil
opustila
opustili
opustit
opy
or
ora
oracle
orange
oranz
orato
orava
orave
oravec
oravska
oravske
oravskej
oravsky
oravy
oraz
orbis
orbita
orbiter
orchester
orchestra
orchestrom
orcid
order
ordina
ordo
oregon
ores
org
orga
organ
organic
organicka
organicke
organickej
organicky
organista
organiza
organizac
organization
organizme
organizmov
organizmu
organizmus
organizmy
organizoval
organizovala
organizovali
organizovalo
organizovana
organizovane
organizovanej
organizovani
organizovanie
organizovany
organizovat
organizuje
organizuju
oricon
orient
orienta
orientac
oriental
orientale
orientales
orientovana
orientovane
orientovany
ories
orig
origin
origina
original
origins
orio
orion
orla
orlando
orle
orlea
orleans
orli
orlici
orne
ornithology
oro
orol
orsza
ortodoxna
ortodoxne
ortodoxny
ortut
os
osa
osada
osade
osadene
osadeny
osadni
osadou
osadu
osady
oscar
oscara
oscila
osebe
osem
osemdesiatych
osemfina
osemna
osemroc
osi
oska
oskar
oskoro
osla
oslava
oslavu
oslavuje
oslavuju
oslavy
oslo
oslobodene
oslobodeni
oslobodenia
oslobodenie
oslobodeny
oslobodil
oslobodili
oslobodit
osloboditel
osm
osman
osmanska
osmanske
osmanskej
osmanskou
osmansky
osn
oso
osoba
osobami
osobe
osobitne
osobitnu
osobitny
osobity
osobna
osobne
osobnej
osobnom
osobnost
osobnosti
osobnostiam
osobnu
osobny
osobou
osobu
osoby
osou
osporte
ost
osta
ostal
ostala
ostali
ostalo
ostane
ostat
ostatky
ostatne
ostatni
ostatny
ostra
ostrava
ostrave
ostravy
ostre
ostrel
ostrica
ostrihomske
ostrihomskej
ostrihomsky
ostro
ostrogo
ostrov
ostrova
ostrovc
ostrove
ostrovi
ostrovia
ostrovie
ostrovmi
ostrovoch
ostrovom
ostrovov
ostrovy
ostry
osud
osudu
osudy
osvedc
osveta
osvetl
osvetlenia
osvetlenie
osvetove
osvetovy
osvety
osvienc
osvietenstva
oswald
osy
ot
ota
otakar
otakara
otc
otca
otcom
otcov
otcovej
otcovi
otcovia
otec
oteckovia
otepl
other
oto
otoc
otra
otravy
otroctva
otroka
otrokov
otta
ottawa
otto
ottoman
ottovo
ottu
otva
otvor
otvorena
otvorene
otvorenej
otvoreni
otvorenia
otvorenie
otvorenom
otvorenou
otvorenu
otvoreny
otvori
otvoril
otvorila
otvorili
otvorit
otvorom
otvorov
otvoru
otvory
ou
ouest
our
out
ov
ova
ovac
ovacej
ovaci
ovacia
ovacie
ovacieho
ovaciu
oval
ovala
ovali
ovalo
ovana
ovane
ovanej
ovani
ovania
ovanie
ovaniu
ovanu
ovany
ovat
ovatel
ovatka
ovatke
ovatkou
ovatky
ovc
ovca
ovce
ovci
ovciach
ovcov
ove
ovec
ovej
ovel
over
overit
overview
ovho
ovi
ovia
ovic
ovice
ovidius
oviec
oviek
oviny
ovis
ovita
ovite
ovity
ovka
ovkova
ovky
ovla
ovn
ovna
ovne
ovnej
ovni
ovnou
ovnu
ovny
ovo
ovocia
ovocie
ovocina
ovocny
ovodi
ovohol
ovom
ovou
ovplyvn
ovplyvnena
ovplyvnene
ovplyvneny
ovplyvnil
ovplyvnila
ovplyvnili
ovplyvnilo
ovplyvnit
ovska
ovske
ovskej
ovskom
ovskou
ovsku
ovsky
ovstiev
ovstva
ovstve
ovstvo
ovstvom
ovstvu
ovu
ovy
ovzdus
owen
own
oxford
oxforde
oxid
oxida
oxidac
oxidu
oz
ozbrojene
ozbrojeny
ozn
ozna
oznac
ozo
ozvuc
ozy
p
pa
pablo
pac
pach
paci
pacient
pacienta
pacienti
pacientov
pacific
pacifiku
pad
pada
padaju
pade
padku
padla
padli
padlo
padly
padna
padne
padnej
padnejs
padni
padnom
padnou
padnu
padny
padoch
padoeuro
padok
padol
padom
padori
padov
padu
pady
paeddr
page
pages
pahorkatina
pahorkatine
pahorkatiny
pahorku
pain
paju
pak
pakistan
pakistanu
pakt
pal
pala
palace
palacke
palais
palati
palazzo
palcov
pale
paleoge
paleontolo
palesti
pali
palic
palisa
palisko
paliva
palivo
palivove
palivovy
palkovic
pallas
palm
palma
palmer
palmy
palo
palove
palu
palube
palubne
palubny
palubu
paluby
pama
pame
pamiatka
pamiatke
pamiatkou
pamiatkove
pamiatkovej
pamiatkovy
pamiatku
pamiatky
pamiatok
pan
pana
panama
panamericke
panamerickej
panamericky
panc
pancier
pancierovanie
panda
pande
pane
panel
panela
panellenici
panelov
panely
paneuro
pani
pania
panic
panie
paniel
panielc
panieli
panielov
panielska
panielske
panielskeho
panielskej
panielsko
panielskom
panielsku
panielsky
panielskych
panielskym
pankratiu
pankreasu
panna
panne
panny
pano
panora
panorama
panov
panovania
panovni
panstva
panstvo
panstvu
panteo
panther
panthera
panton
panva
panvy
pany
paolo
papa
papaga
paper
papers
papier
papiera
papierov
papirologiche
paprad
papua
papyrus
par
para
paradise
paradox
paradoxne
paraguaj
paraguaja
paralelne
paralelny
paralympijsky
parameter
parametre
parametrov
parana
paras
parc
parcia
pardubice
pardubickom
pari
paris
park
parker
parkom
parkov
parkovisko
parks
parku
parky
parlament
parlamente
parlamentne
parlamentny
parlamentom
parlamentu
parma
parnassius
parne
parni
parny
paro
parovic
pars
parsons
part
partia
partial
partie
partii
partiza
partner
partnera
partneri
partnermi
partnerom
partnerov
partnerstva
partnerstvo
party
paru
pary
pas
pasa
pasaz
pascal
pasce
pase
paseka
paseni
pasenie
pasi
pasienky
pasni
pasoch
pasom
pasov
passion
past
pastier
pastieri
pastora
pastorac
pasu
pasy
pat
pata
patejdl
patent
path
patoge
patolo
patri
patria
patriaca
patriace
patriaci
patriacich
patriarcha
patriarchom
patriarchu
patric
patricia
patrick
patrik
patril
patrila
patrili
patrilo
patrit
patro
patrona
pau
paul
paula
pauli
paulic
pauliny
paulo
paulom
paulus
pausania
pausanias
pavel
pavilo
pavla
pavli
pavlom
pavlovi
pavlovic
pavol
pavost
pavu
pays
paz
pazardz
pazu
pb
pc
pchin
pci
pd
pdf
pe
peace
peak
peakfinder
pearl
pec
pece
pechota
pechoty
pecia
pecialista
pecializa
pecializovane
pecializovany
pecializuje
peciar
pecificka
pecificke
pecificku
pecificky
pecifika
pecifikovana
pecifikovane
pecifikovany
peck
peda
pedago
pedagogic
pedagogicka
pedagogicke
pedagogickej
pedagogicku
pedagogicky
pedagogika
pedagogiky
pedro
peer
pegas
pej
peka
peking
pekingu
pekla
peklo
pekne
pekny
pekt
pektor
pektora
pektovat
pekula
pel
pele
pelhr
pelika
pellegrini
pelopone
pen
pena
penate
penaty
penca
pence
penci
pencom
pencov
pencove
pencovy
pendulum
pene
penec
penguin
penguins
peni
penia
peniach
peniaze
penie
pennsylvania
penny
pensylva
penta
pentium
peny
penzio
people
pepo
peppers
per
pera
percent
percenta
percento
percentua
percy
perex
perfect
perfekt
performance
peri
perie
perife
perio
period
periodi
periodicka
periodickej
periodicky
periodika
periodikum
perkusie
perky
perly
permission
pero
perom
perov
perry
perseus
person
persona
personal
perspekti
pertoire
peru
perua
perut
perz
perzeku
perzske
perzskej
perzskom
perzsky
pes
pesnic
pestovani
pestovanie
pestovat
pestra
pestry
pestuje
pestuju
pet
pete
peter
peteraj
peters
peterson
peti
petit
peto
petr
petra
petri
petrohrad
petrohrade
petrohradu
petrom
petrov
petrovi
petrovic
petrus
petrz
peugeot
pevna
pevne
pevnej
pevnine
pevniny
pevnost
pevnosti
pevnu
pevny
pez
pezinku
pezinok
pf
pg
pgc
ph
pha
phantom
phd
phdr
phi
phil
philadelphia
philip
philipp
philippe
phillips
philosophie
philosophy
phoebe
phoenix
phonographic
photo
photos
php
phylogeny
phys
physical
physics
pi
pia
piano
piata
piate
piateho
piatej
piatich
piatimi
piatok
piatom
piatu
piaty
piatym
piazza
pic
picasso
piccadilly
pick
pickeringa
pico
picture
pictures
pie
pier
pierre
pies
piesc
piesen
pieskovce
piesku
piesky
piesn
piesne
piesni
piesoc
piesok
piestovy
pietro
pii
pije
pikardia
pil
pila
pilastrami
pili
pilier
piliere
piliermi
pilierov
pilo
pilot
pilota
piloti
pilotny
pilotom
pilotov
pilotovany
pin
ping
pink
pinus
pio
piona
pioneer
piotr
piper
pira
pirac
piroval
pirovala
pirovali
pirovana
pirovane
pirovany
pis
pisa
pise
pisky
pisom
pisov
pisu
pisy
pit
pita
pitnej
pittsburgh
piu
pius
piva
pivo
pivovar
pixel
pixelov
piz
pka
pky
pl
pla
plac
place
plachta
plachty
plaga
plamen
plan
plana
plane
planet
planeta
planetary
planina
planine
planiny
plant
planta
plants
plasticky
plastika
plastiky
plat
plata
platby
plate
plateny
platforma
platforme
platformu
platformy
plati
platia
platil
platili
platilo
platinovy
platinum
platit
platn
platne
platni
platnic
platnost
platnosti
platny
plato
platu
platy
plava
plavba
plavbe
plavbu
plavby
plavec
plavecke
plaveckej
plavecky
plavidiel
plavidla
plavy
play
player
players
playstation
plaza
plazmy
plazov
plazy
ple
please
pleistoce
plemena
plemeno
plemien
ples
plesa
plese
pleso
pleti
pletku
pletky
pli
plies
plk
pln
plna
plne
plnej
plneni
plnenie
plni
plnia
plnil
plnit
plnohodnotny
plnom
plnost
plnosti
plnou
plnu
plny
plo
plocha
plochami
ploche
plochostropy
plochou
plochu
plochy
plod
plodi
plodnosti
plodom
plodov
plodu
plody
plos
plot
plovdiv
plovdivskej
plt
pluk
plukovni
pluku
plura
plus
pluta
plutarchos
pluti
pluto
plymouth
plyn
plynne
plynom
plynov
plynovy
plynu
plynule
plyny
plytke
plytky
plzen
plzenskom
plzni
pm
pmc
pmcid
pmi
pmid
pn
pna
pnas
pneumati
pneumatiky
pnika
po
poboc
poboz
pobrez
pobu
pobyt
pobyte
pobytu
poc
poch
pocha
pochod
pochodu
pochopenie
pochopil
pochopit
pochopitel
pochova
pochovali
pochovana
pochovane
pochovani
pochovany
pochva
pochybnosti
poci
pocit
pocity
pocta
pod
poda
podal
podala
podani
podania
podanie
podari
podarilo
podat
podc
podcelkom
podcelku
podcelky
podcelok
poddani
poddansky
poddany
poddruh
poddruhy
pode
podhorie
podhradi
podhradie
podiel
podielom
podielu
podivny
podkarpatskej
podkarpatskom
podklad
podklade
podkladom
podl
podla
podlaha
podlahy
podlaz
podle
podlieha
podliehaju
podloz
podmien
podmienec
podmienene
podmienka
podmienkach
podmienkam
podmienkami
podmienkou
podmienku
podmienky
podmienok
podmnoz
podmorsky
podnebia
podnebie
podnet
podnety
podnik
podnikania
podnikanie
podnikat
podnikatel
podnikli
podnikoch
podnikol
podnikom
podnikov
podnikove
podnikovy
podniku
podniky
podoba
podobaju
podobe
podobna
podobne
podobnej
podobnom
podobnost
podobnosti
podobnou
podobnu
podobny
podobu
podoby
podoli
podolie
podozrenie
podozrivy
podpa
podpi
podpis
podpisom
podpisov
podpisu
podplukovni
podpora
podpore
podporil
podporila
podporili
podporit
podporne
podporny
podporou
podporoval
podporovala
podporovali
podporovane
podporovany
podporovat
podporovatel
podporu
podporuje
podporuju
podpory
podpredseda
podpredsedni
podpredsedom
podpredsedu
podra
podrad
podriadene
podriadeny
podrobil
podrobne
podrobnejs
podrobnosti
podrobny
podrod
podstata
podstate
podstatna
podstatne
podstatnu
podstatny
podstatou
podstatu
podstaty
podstavci
podstavec
podstu
podsveti
podsvetia
podteka
podtitul
podtrieda
podujati
podujatia
podujatiach
podujatie
podunajska
podunajske
podunajskej
podvozku
podvozok
podz
podza
podzemi
podzemna
podzemne
podzemnej
podzemny
poe
poems
poetka
poetry
poha
pohanske
pohansky
pohl
pohlavia
pohlavie
pohlavne
pohlavny
pohnu
pohon
pohonna
pohonne
pohonny
pohonom
pohonu
pohori
pohoria
pohorie
pohr
pohranic
pohreb
pohrebe
pohrebiska
pohrebisko
pohrebne
pohrebny
pohronsky
pohyb
pohybe
pohyblive
pohyblivy
pohybom
pohybov
pohyboval
pohybovala
pohybovat
pohybu
pohybuje
pohybuju
pohyby
point
pointu
poist
poistenia
poistenie
poitou
poj
poje
pojedna
pojem
pojmom
pojmov
pojmu
pojmy
pojov
poka
poke
pokial
poklad
poklada
pokladaju
pokladal
pokladni
pokladnice
pokles
poklesu
pokoj
pokoja
pokoji
pokojne
pokojny
pokorny
pokoz
pokrac
pokroc
pokrok
pokroku
pokrsteny
pokry
pokryta
pokryte
pokrytie
pokryty
poku
pokus
pokuse
pokusoch
pokusom
pokusov
pokusu
pokusy
pokutu
poky
pokyn
pokyny
pol
pola
poland
polc
pole
poli
polia
poliach
poliaci
poliakov
polianka
policajne
policajny
policajt
policajti
policajtov
police
policy
polis
politic
political
politici
politicka
politicke
politickej
politicko
politickom
politickou
politicku
politicky
politics
politik
politika
politike
politikom
politikou
politikov
politiku
politiky
politolo
polkruhovo
polkruhovy
polnoc
polnoci
polo
pologuli
poloha
polohe
polohou
polohu
polohy
polomer
poloniny
polos
polostrov
polostrova
polostrove
polovic
polovica
polovice
polovici
polovicu
polovodic
poloz
polska
polta
poludni
polygona
polyme
polymera
polyne
polyno
pom
poma
pomale
pomals
pomaly
pomaranc
pomedzi
pomenoval
pomenovali
pomenovana
pomenovane
pomenovani
pomenovania
pomenovanie
pomenovany
pomenu
pomer
pomere
pomerne
pomeroch
pomerom
pomerov
pomeru
pomery
pomni
pomo
pomoc
pomoci
pomocne
pomocni
pomocny
pomocou
pomohla
pomohli
pomohlo
pomohol
pomoranskom
pomsta
pomy
pon
pona
ponad
pondelok
ponecha
ponechal
pongra
poni
ponic
poniz
ponoriek
ponorka
ponorky
pont
pontifika
ponu
ponuka
ponuke
ponuku
ponuky
pony
pop
popa
pope
popi
popis
popisuje
popisuju
poplatkov
poplatky
poplatok
popod
popol
popola
popoludni
popova
popovic
popovy
poprad
poprade
popradu
popraveni
popraveny
popravili
popravit
popravy
popredi
popredia
popredne
popredny
popri
popu
popud
popula
populac
popular
popularita
popularite
popularitu
popularity
populariza
population
populations
por
pora
poradca
poradcom
poradenstvo
poradi
poradia
poradie
poradny
porast
porastom
porastov
porastu
porasty
porazene
porazeni
porazeny
porazil
porazila
porazili
porazilo
porazit
porcela
porcupine
poriadku
poriadky
poriadok
porne
porny
porodila
porota
poroty
porov
porovna
porovnaj
porovnani
porovnanie
porovnatel
poroz
porozumenie
porozumiet
porsche
port
porta
portail
portal
porte
porter
portfo
porto
portoch
portom
portov
portova
portovci
portovcov
portove
portovec
portovej
portovy
portrait
portre
portu
portugal
portugalc
portugalska
portugalske
portugalskej
portugalsko
portugalsku
portugalsky
porty
poru
poruba
poruc
porucha
poruchami
poruche
poruchou
poruchu
poruchy
porus
pory
pos
posa
poschodi
poschodia
poschodie
poseido
posiela
posiln
posilnenie
posilnil
posilnit
posily
position
poskytla
poskytli
poskytnu
poskytnutie
poskytol
poskytoval
poskytovala
poskytovali
poskytovane
poskytovanie
poskytovat
poskytovatel
poskytuje
poskytuju
poslal
poslala
poslali
poslanca
poslanci
poslancom
poslancov
poslanec
poslanecka
poslanecke
poslaneckej
poslanecky
poslani
poslanie
poslankyn
poslany
poslat
posledna
posledne
poslednej
posledni
poslednom
poslednou
poslednu
posledny
poslu
poslucha
poslus
posmrtne
posol
posolstvo
pospi
post
posta
postac
postaral
postava
postavami
postave
postavena
postavene
postaveni
postavenia
postavenie
postaveny
postavi
postavil
postavila
postavili
postavilo
postavit
postavou
postavu
postavy
poste
postel
posteli
postgradua
postihla
postihnute
postihnuti
postihnuty
postihuje
postoj
postoja
postoje
postojom
postu
postup
postupe
postupne
postupnost
postupnosti
postupny
postupom
postupov
postupovali
postupovat
postupu
postupuje
postupuju
postupy
posu
posun
posunu
posunul
posuvny
posva
pot
pota
potencia
potenciona
potes
potla
potlac
poto
potoc
potok
potoka
potokom
potokov
potoku
potoky
potom
potomka
potomkom
potomkov
potomkovia
potomok
potravi
potravina
potraviny
potravou
potravu
potravy
potreba
potrebe
potrebna
potrebne
potrebnej
potrebnu
potrebny
potreboval
potrebovali
potrebu
potrebuje
potrebujeme
potrebuju
potreby
potrieb
potrubi
potrubia
potter
potvrdena
potvrdene
potvrdenie
potvrdeny
potvrdil
potvrdila
potvrdili
potvrdilo
potvrdit
potvrdzuje
potvrdzuju
poty
pou
pouc
pouka
poukazuje
poukazuju
poulic
pour
pouz
pov
pova
povaha
povahe
povahu
povahy
povaz
pove
poved
povedal
povedala
povedali
povedane
povedat
povede
povedie
povedomia
povedomie
povereni
povereny
poveril
povest
povesti
poveternostny
povi
povie
poviedka
poviedky
poviedok
povinna
povinne
povinni
povinnost
povinnosti
povinny
povoden
povodi
povodia
povodie
povodn
povodne
povojnove
povojnovom
povojnovy
povol
povolal
povolani
povolania
povolanie
povolany
povolene
povolenia
povolenie
povoleny
povolil
povraz
povrch
povrchom
povrchova
povrchove
povrchovy
povrchu
povstalci
povstalcov
povstalecke
povstalecky
povstani
povstania
povstanie
povstaniu
povy
powell
power
powiat
powiatu
poz
pozadi
pozadia
pozadie
pozdl
pozdrav
pozemkov
pozemku
pozemky
pozemne
pozemnom
pozemny
pozemok
pozemske
pozemsky
pozera
pozerat
pozi
poziti
pozla
pozn
pozna
poznac
poznaju
poznal
poznali
poznamenal
poznamenat
poznan
poznani
poznania
poznanie
poznaniu
poznat
poznatkov
poznatky
pozor
pozornost
pozornosti
pozoroval
pozorovana
pozorovane
pozorovani
pozorovania
pozorovanie
pozorovany
pozorovat
pozorovatel
pozoruhodne
pozoruhodny
pozorujeme
pozosta
pozostatkov
pozostatky
pozri
pozriet
pozrite
pozval
pozvanie
pozvany
pozvol
pozy
pp
pplk
pr
pra
prach
prachatice
prachu
pracoval
pracovala
pracovali
pracovalo
pracovat
pracoviska
pracovisko
pracovna
pracovne
pracovnej
pracovni
pracovnom
pracovnu
pracovny
practice
pracuje
pracuju
prade
praga
prague
prah
praha
prahe
prahu
prahy
prakticka
prakticke
prakticky
praktiky
prales
pramen
pramene
prameni
prameniaci
pramennej
pranostiky
pras
pratt
prav
prava
pravami
pravda
pravde
pravdepodobne
pravdepodobnost
pravdepodobnosti
pravdive
pravdou
pravdu
pravdy
prave
pravej
praveku
pravicovy
pravidelna
pravidelne
pravidelnej
pravidelny
pravidiel
pravidla
pravidlami
pravidlo
pravky
pravne
pravny
pravom
pravopis
pravopisu
pravosla
pravostranne
pravostranny
pravou
pravouhly
pravovy
pravu
pravy
prax
praxe
praxi
praz
praze
pre
prebehla
prebehli
prebehlo
prebehol
prebera
preberat
prebieha
prebiehaju
prebiehal
prebiehala
prebiehali
prebiehalo
prebiehat
prebojoval
prebral
prebrate
prebu
preby
prec
precha
prechod
prechode
prechodne
prechodny
prechodom
prechodu
preci
pred
preda
predaj
predaja
predaji
predajn
predajne
predajom
predal
predala
predali
predalo
predany
predat
predavac
predbez
predc
predcha
predchodca
predchodcom
predchodcov
predchodcovia
predchodcu
predhorie
predika
predis
predklada
predkov
predkovia
predl
predlohy
predloz
predlz
predmesti
predmestia
predmestie
predmet
predmetom
predmetov
predmetu
predmety
predna
predne
prednej
predniesol
prednost
prednosta
prednostne
prednou
prednu
predny
predos
predovs
predpi
predpis
predpisov
predpisu
predpisy
predpoklad
predpoklada
predpokladaju
predpokladal
predpokladali
predpokladalo
predpokladane
predpokladany
predpokladat
predpokladom
predpokladov
predpokladu
predpoklady
preds
predsa
predseda
predsedal
predsedni
predsedom
predsedov
predsedu
predsien
predsiene
predsta
predstava
predstavanou
predstavena
predstavene
predstaveni
predstavenia
predstavenie
predstavenstva
predstaveny
predstavil
predstavila
predstavili
predstavilo
predstavit
predstavitel
predstavitelia
predstavoval
predstavovala
predstavovali
predstavovalo
predstavovat
predstavu
predstavuje
predstavuju
predstavy
predty
predurc
predva
predvi
predviedol
prefektu
preferenc
preferencie
preha
prehl
prehla
prehliadac
prehliadka
prehliadky
prehra
prehral
prehrala
prehrali
prehralo
prehre
prehru
prehry
prejav
prejave
prejavi
prejavil
prejavila
prejavili
prejavilo
prejavit
prejavom
prejavov
prejavoval
prejavovat
prejavu
prejavuje
prejavuju
prejavy
prejde
prejst
preka
preklad
preklada
prekladal
prekladatel
preklade
prekladom
prekladov
prekladu
preklady
prekona
prekonal
prekonala
prekonat
prekrac
prekroc
prekry
prekvapeni
prekvapenie
prekvapivo
prekvapuju
prel
prela
prelet
preletela
preletu
preli
prelom
prelome
prelomovy
prelomu
preloz
prema
premena
premene
premenene
premeneny
premenil
premenit
premenna
premenne
premennej
premenny
premenou
premenoval
premenovala
premenovali
premenovana
premenovane
premenovany
premenu
premeny
premie
premien
premier
premiestn
premiestneny
premons
premy
pren
prena
prenaji
prenasledovani
prenasledovania
prenasledovanie
prenasledovany
prenesene
preneseny
preniesol
preniest
prenika
prenikat
prenikli
preniknu
prenikol
prenos
prenose
prenosne
prenosny
prenosu
prepa
prepada
prepadol
prepi
prepis
prepisy
prepl
prepla
prepoc
prepojene
prepojeni
prepojenia
prepojenie
prepojeny
prepos
prepoz
preprac
prepracovane
prepracovany
preprava
prepravu
prepravy
prepu
prepusteni
prepustenie
prepusteny
prepustili
prera
prerus
pres
presadil
presadit
presadzoval
presadzovat
presadzuje
presahuje
presahuju
presbyte
present
presents
preserved
presi
president
preskoc
presku
presla
presna
presne
presnejs
presnost
presny
press
prest
presta
prestal
prestala
prestali
prestalo
prestane
prestavana
prestavany
prestavba
prestavbe
prestavbou
prestavbu
prestavby
presti
prestu
prestup
presu
presun
presunu
presunul
presunula
presunuli
presunulo
presunuta
presunute
presunuty
presva
presvedc
pret
preteka
pretekaju
pretekoch
pretekov
preteky
preti
preto
pretoz
pretrva
pretty
pretva
preuka
preva
prevahou
prevahu
prevaz
prevedeni
prevedenie
prevencia
preventi
prevezeny
previest
prevla
prevod
prevodovka
prevodovkou
prevodovky
prevra
prevrat
prevrate
prevratu
prevy
prevys
prevzal
prevzala
prevzali
prevzalo
prevzata
prevzate
prevzati
prevzatie
prevzaty
prevziat
prez
prezenta
prezentoval
prezentovane
prezentovat
prezentuje
prezentuju
prezi
prezident
prezidenta
prezidentka
prezidentkou
prezidentom
prezidentov
prezidentovi
prezidentske
prezidentskej
prezidentsky
prezra
prezy
pri
priam
priama
priame
priameho
priamej
priamo
priamoc
priamom
priamou
priamu
priamy
priamych
priamym
priatel
priatelia
priazen
priaznivcov
priaznive
priaznivy
pribera
pribli
pribliz
pribu
pribudla
pribudli
pribudlo
pribudol
pric
price
pricha
prida
pridal
pridala
pridali
pridalo
pridana
pridane
pridani
pridany
pridat
pride
pridel
pridelene
prideleny
pridruz
pridrz
priebeh
priebehu
priebez
priec
priechod
priedus
priehl
priehrada
priehrady
priehyba
priekopa
priekopni
priekopy
prieliv
prielom
priemer
priemere
priemerna
priemerne
priemernej
priemernou
priemerny
priemerom
priemeru
priemysel
priemyselna
priemyselne
priemyselnej
priemyselni
priemyselny
priemysle
priemyslu
prienik
priepast
priepasti
prieplav
prierez
priesec
prieskum
prieskume
prieskumne
prieskumny
prieskumu
prieskumy
priesmyk
priesmykov
priesmyku
priest
priestor
priestore
priestoroch
priestorom
priestorov
priestorove
priestorovy
priestoru
priestory
priestranstiev
priestupnom
prietok
prietoku
prietrz
prievidza
prievidzi
priezviska
priezvisko
prihla
prihra
prijal
prijala
prijali
prijalo
prijat
prijata
prijate
prijatel
prijati
prijatia
prijatie
prijaty
priji
prijme
prika
prikla
prikry
pril
prila
priloz
prima
prime
primera
primerane
primiti
primne
prina
prinajmens
princ
princa
prince
princess
princeton
princezna
princeznej
princi
principles
prinesie
priniesla
priniesli
prinieslo
priniesol
priniest
print
printe
prinu
prior
pripa
pripada
pripadla
pripadlo
pripadol
pripi
pripisovane
pripisuje
pripisuju
pripla
pripojena
pripojene
pripojeni
pripojenia
pripojenie
pripojeny
pripojil
pripojila
pripojili
pripojilo
pripojit
pripomi
pripravena
pripravene
pripraveni
pripraveny
pripravil
pripravila
pripravili
pripravit
pripravoval
pripravovali
pripravovane
pripravovany
pripravovat
pripravuje
pripravuju
pripu
prirad
prirodzena
prirodzene
prirodzenej
prirodzenost
prirodzenosti
prirodzenou
prirodzenu
prirodzeny
prirovna
pris
prisl
prislu
prispel
prispela
prispeli
prispelo
prispiet
prispieva
prispievaju
prispieval
prispievatel
prispo
prist
prista
pristavana
pristu
prisu
prisudzovane
prit
pritom
priva
private
privatiza
privel
privi
priviedla
priviedol
priviest
privile
prix
prize
prizna
priznal
priznala
priznany
pro
proble
problem
problematicke
problematika
problematike
problematikou
problematiku
problematiky
proc
procedu
proceedings
proces
procese
procesmi
procesoch
procesom
procesor
procesora
procesorom
procesorov
procesory
procesov
process
procesu
procesy
procha
prod
prodigy
producent
producenta
producenti
producentka
producentom
producentov
product
production
productions
produkc
produkcia
produkcie
produkcii
produkciou
produkciu
produkoval
produkovany
produkovat
produkt
produkti
produktom
produktov
produktu
produkty
produkuje
produkuju
prof
profesiona
profesor
profesora
profesorka
profesorom
profesorov
professional
professor
profil
profile
profilovany
profilu
profily
profutbal
progno
program
programa
programe
programme
programoch
programom
programov
programovaci
programovanie
programove
programovy
programu
programy
progresi
progress
project
projekt
projekte
projektoch
projektom
projektov
projektu
projekty
prokop
prokura
prokuratu
promena
prometheus
promo
promoval
propaga
propagac
propaganda
propagandy
propagoval
prorok
proroka
prorokov
prosi
prospech
prosperuju
prospes
proste
prostitu
prostr
prostredi
prostredia
prostredie
prostrediu
prostredni
prostredny
prostriedkami
prostriedkom
prostriedkov
prostriedku
prostriedky
prostriedok
prosty
protei
protein
protektora
protest
protestanti
protestantske
protestantsky
protestov
protestuju
protesty
proti
protifas
protiklad
protiklade
protil
protila
protilietadlove
protilietadlovy
protipa
protirec
protis
protitankovy
protiu
protivni
protivzdus
protiza
proto
protocol
protokol
protokolu
protokoly
proton
prototyp
prototypov
prototypu
prototypy
prov
provence
provinc
provincia
provincie
provincii
provinciou
provinciu
provizo
proxima
prozaik
prs
prsni
prst
prsten
prstenec
prstov
prsty
pru
prudke
prudko
prudky
pruh
pruhov
pruhy
prunus
pruska
pruske
pruskej
prusko
prusku
prusky
pruz
prv
prva
prve
prvej
prvenstvo
prvi
prvkami
prvkom
prvkov
prvku
prvky
prvni
prvoc
prvok
prvom
prvotne
prvotny
prvou
prvovy
prvu
prvy
ps
psa
psc
pscpsc
pseudonym
pseudonymom
psi
pska
pske
pskeho
pskej
pskom
pskou
psku
psky
pskych
pskym
pskymi
psom
psov
psp
pstruh
psy
psychiater
psychicke
psychicky
psycho
psycholo
psychologicke
psychologicky
psychology
pt
pta
ptg
pu
pub
public
publications
publicista
publicistka
publika
publikac
publikoval
publikovala
publikovali
publikovana
publikovane
publikovanom
publikovany
publikovat
publikuje
publikum
published
publishers
publishing
publius
puc
puchala
puerto
punk
punku
pure
puri
purple
pus
puste
pustil
pustne
pustovni
put
putin
puy
puzdra
puzdro
py
pylo
pyrami
pyre
pys
python
pz
q
qatar
quad
quai
qualification
quartier
quattro
que
quebec
queen
queens
quentin
quercus
quest
question
qui
quo
r
ra
rabi
rac
race
rach
rachel
raci
racing
raciona
rad
rada
radar
radarom
radarovy
radaru
radca
rade
radek
radeon
radhos
radi
radia
radiac
radic
radika
radim
radio
radmi
radne
radni
radnica
radnicami
radnice
radny
rado
radoch
radom
rados
radoslav
radost
radosti
radou
radov
radova
radovan
radovy
rads
radu
raduju
radvan
rady
raf
rafael
ragby
rage
raid
rail
railway
rain
rainbow
rainer
raj
raja
rajc
rajec
raji
rajo
rajon
raju
rak
raketa
raketami
raketopla
raketou
raketove
raketovy
raketu
rakety
rakiet
rakovina
rakovinou
rakovinu
rakoviny
rakovni
raku
ral
rala
rali
rally
rallye
ralok
ralph
ralsko
ram
ramena
rameno
rami
ramien
ramo
ramone
rampe
rampu
rampy
ran
rana
random
randy
rane
ranej
raneny
range
rangers
rani
rania
ranie
ranking
rankings
ranny
ranokrest
ranom
ranu
rany
rap
raper
rapi
rapid
rapper
rard
ras
rasa
rast
rastie
rastislav
rastislava
rastli
rastlina
rastlinami
rastlinne
rastlinny
rastliny
rastok
rastom
rastu
rasy
rat
rate
ratings
ration
rau
rault
rava
rave
ravy
raw
ray
raymond
raz
raze
razn
razna
razne
raznejs
razni
raznil
raznou
raznu
razny
razom
razov
razovy
razu
razy
rb
rc
rca
rd
rdoba
re
rea
read
reader
reading
ready
reagoval
reagovat
reaguje
reaguju
reakc
reakcia
reakcie
reakcii
reakciou
reakciu
reakti
real
realisticky
realita
realite
realitu
reality
realiza
realizmu
realizmus
realizoval
realizovala
realizovana
realizovane
realizovany
realizovat
realizuje
realu
reason
rebecca
rebel
rebra
rebri
rec
recensement
recenzia
recenzie
recenzii
recept
receptor
receptorov
receptory
recita
record
recording
recordings
records
recykla
red
redakc
redakcia
redakcie
redakcii
redaktor
redaktorka
redaktorom
redigoval
reds
redukc
redukcia
reed
reedi
ref
refera
referenc
reference
referenda
referende
referendum
reflex
reflexie
reforiem
reforma
reforme
reformovany
reformu
reformy
refre
regenera
regent
reggae
regina
regio
region
regiona
regional
regions
register
registr
registra
registrac
registre
registri
registrovane
registrovany
regula
regulac
reha
rehabilita
rehol
rehole
rei
reich
reims
reinmuth
rejc
rejska
rejske
rejskej
rejsky
rek
reklama
reklamny
reklamy
rekons
rekord
rekorde
rekordny
rekordov
rekordu
rekordy
rekrea
rekreac
rektor
rektora
rektorom
rela
related
relati
relations
relativity
release
released
releases
relie
religio
religion
religious
relikvia
relikvie
rely
rem
remains
remember
remeselni
remesiel
remesla
remeslo
remi
remix
remixes
ren
rena
renaissance
renault
rene
renejs
renesanc
renesancia
renesancie
reni
renia
renie
reniu
renova
renska
renske
rensky
reny
reorganiza
repa
repertoa
repete
replika
report
reporta
reporte
reports
reprezenta
reprezentac
reprezentant
reprezentantov
reprezentati
reprezentoval
reprezentovala
reprezentovat
reprezentuje
reprezentuju
repri
reprodukc
reptilia
republi
republic
republice
republika
republike
republikou
republiku
republiky
reputa
rer
res
research
resistance
resolution
resource
resources
resp
respekti
respirac
result
results
ret
retrieved
return
reuters
rev
reva
revealed
reveals
revi
revid
review
reviews
revised
revival
revo
revolu
revoluc
revoluciona
revolution
revolver
revu
revue
rex
rey
reynolds
rez
rezba
rezerva
rezervace
rezervy
rezidenc
rezigna
rezignoval
rezolu
rezonanc
rf
rfc
rg
rgen
rgy
rhin
rho
rhode
rhythm
ri
ria
riaa
riach
riadena
riadene
riadeni
riadenia
riadenie
riadeny
riadi
riadia
riadiaca
riadiace
riadiaceho
riadiaci
riadiacich
riadil
riadit
riaditel
riadku
riadne
riadnym
riadok
riami
rias
riasy
ribozo
ric
rica
ricardo
rice
rich
richard
richarda
richardom
richards
richardson
richmond
richta
richter
richu
rick
ricka
ricke
ricky
rico
ride
rie
riec
riek
rieka
riekach
riekami
rieke
riekou
rieku
rieky
ries
riga
rige
right
rightarrow
rights
rigoro
rihanna
rii
rik
rika
rikova
ril
rila
rili
rilo
rim
rimania
rimanmi
rimanov
rimavska
rimavskej
ring
ringier
rio
riom
riou
riova
riove
riovej
riovo
riovy
ris
rise
rising
risk
rista
ristka
rit
rita
ritel
ritua
riu
rium
rius
rivadavia
rivalom
river
rivers
rivie
rizalit
rizika
riziko
rju
rk
rka
rkach
rke
rkou
rku
rky
rlive
rm
rmi
rn
rna
rndr
rne
rneho
rnej
rnejs
rnemu
rnenie
rni
rnik
rnil
rnila
rno
rnom
rnost
rnou
rnu
rny
rnych
rnym
rnymi
ro
road
roadrunner
rob
roba
robbie
robca
robcom
robcov
robcovia
robcu
robe
robert
roberta
roberto
robertom
roberts
robertson
robi
robia
robil
robila
robili
robin
robinson
robit
robkov
robku
robky
robne
robny
robo
robok
robot
robota
robotni
robou
robson
robu
roby
roc
roce
roch
roche
rock
rocket
rockova
rockove
rockovej
rockovu
rockovy
rocks
rocku
rocky
rod
roda
rode
rodena
rodenci
rodencov
rodenej
rodi
rodia
rodic
rodina
rodine
rodinna
rodinne
rodinnej
rodinny
rodinou
rodinu
rodiny
rodisku
rodmi
rodn
rodna
rodne
rodnej
rodni
rodno
rodnom
rodnost
rodnosti
rodnostne
rodnostnej
rodnostny
rodnou
rodnu
rodny
rodohospoda
rodom
rodopis
rodos
rodou
rodov
rodove
rodovedec
rodovedeckej
rodovedne
rodovy
rodri
rodu
rody
roger
rogera
rogers
roh
roha
rohu
rohy
roi
roj
rok
roka
rokmi
rokoch
rokom
rokov
rokoval
rokovani
rokovania
rokovaniach
rokovanie
rokovat
roku
roky
rokycany
rol
rola
roland
role
roli
roll
rolling
rolls
rolou
rolu
roly
rom
roma
romain
roman
romana
romance
romano
romanticke
romantickej
romanticky
romantizmu
rome
romeo
ron
rona
ronald
ronaldo
ronnie
room
roosevelt
root
ropa
ropne
ropny
ropy
ros
rosa
rosario
rose
roses
ross
rosse
rossi
rota
rotac
roth
rothschild
rotora
rotterdam
rotuju
rotunda
roty
rou
rouge
rough
round
rousseau
roussillon
routledge
rov
rova
roval
rovane
rovanie
rovany
rovat
rovce
rovci
rovcov
rove
rovej
roven
rover
rovi
rovina
rovine
rovinou
rovinu
roviny
rovite
rovn
rovna
rovnaka
rovnake
rovnakej
rovnako
rovnakom
rovnakou
rovnaku
rovnaky
rovne
rovnej
rovni
rovniach
rovnica
rovnice
rovno
rovnobez
rovnomenne
rovnomennej
rovnomennom
rovnomenny
rovnomerne
rovnopra
rovnost
rovnosti
rovnova
rovny
rovo
rovom
rovou
rovu
rovy
row
roy
royal
royce
roz
roza
rozc
rozcha
rozchod
rozda
rozdel
rozdelena
rozdelene
rozdeleni
rozdelenia
rozdelenie
rozdeleniu
rozdeleny
rozdelil
rozdelila
rozdelili
rozdelit
rozdiel
rozdielne
rozdielnych
rozdielom
rozdielov
rozdielu
rozdiely
rozhl
rozhlas
rozhlase
rozhlasova
rozhlasove
rozhlasovej
rozhlasovy
rozhlasu
rozhodca
rozhodcu
rozhodla
rozhodli
rozhodlo
rozhodne
rozhodnu
rozhodnute
rozhodnuti
rozhodnutia
rozhodnutie
rozhodnutiu
rozhodol
rozhodovani
rozhodovania
rozhodovanie
rozhodovat
rozhoduje
rozhoduju
rozhovor
rozhovore
rozhovorov
rozhovoru
rozhovory
rozhrani
rozhrania
rozhranie
rozis
rozji
rozkaz
rozklad
rozklada
rozkladaju
rozkladu
rozkos
rozkvet
rozkvetu
rozl
rozli
rozlic
rozlis
rozloha
rozlohe
rozlohou
rozlohu
rozlohy
rozloz
rozlu
rozmach
rozmachu
rozmanite
rozmanitost
rozmanity
rozmedzi
rozmer
rozmermi
rozmerov
rozmery
rozmiestnene
rozmnoz
rozmy
rozozna
rozoznat
rozpa
rozpad
rozpada
rozpade
rozpadla
rozpadom
rozpadu
rozpi
rozpoc
rozpore
rozpory
rozpozna
rozpra
rozprestiera
rozprestieraju
rozpty
rozptyl
rozpu
rozpusteny
rozpustny
rozra
rozrus
rozs
rozsah
rozsahom
rozsahu
rozsiahla
rozsiahle
rozsiahleho
rozsiahlej
rozsiahlejs
rozsiahlou
rozsiahlu
rozsiahly
rozsiahlych
rozsiahlym
rozsudku
rozsudok
roztok
roztokov
roztoku
roztoky
roztru
roztrz
rozum
rozumie
rozumiet
rozumne
rozumny
rozumom
rozumu
rozuzlenia
rozuzlenie
rozva
rozvi
rozviedli
rozvinu
rozvinul
rozvinute
rozvinuty
rozvod
rozvodom
rozvoj
rozvoja
rozvoji
rozvojom
rozvojovy
rozvoju
rp
rpa
rpm
rr
rs
rse
rska
rske
rskeho
rskej
rskemu
rski
rsko
rskom
rskou
rsku
rsky
rskych
rskym
rskymi
rss
rsssf
rstva
rstve
rstvo
rstvom
rstvu
rsulat
rt
rta
rte
rterbuch
rttembersko
rtvs
rty
ru
rubi
rubl
ruby
ruc
ruch
ruchu
ruda
rude
rudolf
rudolfa
rudy
rue
rugby
rui
ruina
ruiny
ruje
ruka
rukami
ruke
rukojemni
rukopis
rukopise
rukopisov
rukopisy
rukou
rukova
ruku
ruky
rule
rules
rum
rumunska
rumunske
rumunskej
rumunsko
rumunskom
rumunsku
rumunsky
run
running
rus
rush
rusi
ruska
ruske
ruskej
ruski
rusko
ruskom
ruskou
rusku
rusky
rusna
rusom
rusov
rusovce
rusove
russell
russia
russian
rusu
rusy
ruth
ruz
rv
rva
ry
ryan
ryba
rybni
rybolov
ryby
rychnov
ryho
ryova
rys
rysy
ryti
rytier
rytiera
rytieri
rytierov
rytmicka
rytmu
rytmus
ryz
rz
s
sa
saab
sabbath
sabinov
sabolc
sabres
sad
sada
sade
sadne
sadny
sadou
sadu
sady
safety
sagan
sage
sah
sahom
sahov
sahu
sahy
saint
sainte
saints
sakra
sal
sala
salas
salati
sale
sales
salesky
salezia
sali
sally
salmo
salo
salt
salva
salvador
salzburg
salzburgu
sam
sama
samantha
samc
samce
samcov
same
samec
samej
sami
samic
samica
samice
samizdat
samo
samoa
samohla
samom
samospra
samostatna
samostatne
samostatnej
samostatnost
samostatnosti
samostatnou
samostatnu
samostatny
samota
samotna
samotne
samotnej
samotni
samotnom
samotnu
samotny
samoty
samovol
samovraz
samozrejme
samson
samsung
samu
samuel
samuela
samy
san
sana
sanato
sand
sandra
sane
sanej
sani
sania
sanie
saniu
sankt
sans
sant
santa
santana
santiago
santo
santos
sanu
sany
sao
sap
sapiens
sapientiae
sar
sara
sarah
sardi
sarkofa
sars
sarthe
sarvas
sas
saska
saske
sasko
sasky
sat
satan
satel
satelit
satelitny
satelitov
satelitu
satelity
satellite
satinsky
satma
saturday
saturn
saturna
saturnu
saudska
saudskej
saul
sav
savba
save
savoie
saxofo
say
says
saz
sb
sba
sbb
sbc
sbi
sborni
sc
scarecrow
sce
scena
scene
scha
sche
schedule
schirra
schizofre
schmidt
schneider
scho
schodisko
schody
scholar
school
schopna
schopne
schopni
schopnost
schopnosti
schopny
schra
schro
schu
schubert
schumacher
schuster
schva
schval
schwartz
schwarz
sci
science
sciences
scientific
scooter
score
scotland
scott
screen
sd
sdk
sdku
sdl
sdo
sdruz
se
sea
seal
sean
search
season
seat
seattle
seba
sebastia
sebastian
sebe
sebou
sec
second
secret
secrets
section
security
sed
sedac
sedadiel
sedadla
sedan
sedel
sedem
sedembolestnej
sedemdesiatych
sedemna
sedemroc
sedenie
sedi
sediaci
sediel
sedimenta
sedimentov
sedimenty
sedla
sedle
sedlice
sedlo
sedlom
sedmohradska
sedmohradsku
see
segment
segmentovo
segmentovy
seine
sek
sekcia
sekcie
sekcii
sekera
sekoch
sekom
sekov
sekre
sekreta
sekretaria
sektor
sektora
sektore
seku
sekula
sekunda
sekundu
sekundy
sekvenc
sekvencia
sekvencie
seky
sel
selc
seldz
select
selected
selekti
selena
self
selling
selne
selny
sem
semena
semenni
semi
semien
semifina
semily
semina
sen
sena
senators
senci
sene
senec
seneca
senegal
seni
senia
senica
senice
senici
senie
senior
seniora
seniorov
seniorsky
seniu
senost
senosti
seny
senzor
separa
sept
september
septembra
septembri
sered
serena
sergej
sergejevic
sergio
seria
serie
series
serio
server
serveri
servery
servi
service
services
servis
serz
ses
session
sessions
sestersky
sestier
sestra
sestrou
sestru
sestry
set
setoch
sety
sevastopol
seven
sever
severe
severna
severne
severnej
severnejs
severnom
severnou
severnu
severny
severoamericky
severojuz
severovy
severoza
seversky
severu
sevilla
sex
sexua
sexy
seymour
seznam
sezo
sf
sfarbenie
sfd
sfe
sfr
sfsr
sfta
sfu
sg
sh
shadow
shadows
shakespeare
shakira
shannon
sharks
sharon
shaw
she
sheffield
shepard
shield
shine
shirley
shoemaker
shop
short
shot
should
show
shows
shroma
shuttle
si
sia
siaha
siahaju
sibi
sic
sici
sid
side
sidney
sie
siedmeho
siedmej
siedmich
siedmimi
siedmom
siedmy
siel
siem
siemens
sien
siene
sieni
sierra
siet
siete
sieti
sigma
sign
signa
signaliza
signata
signatu
signs
sikyo
sil
sila
silami
sile
silence
silent
sili
silia
silie
siliu
silna
silne
silnej
silnejs
silno
silnou
silnu
silny
silo
silou
silu
silva
silver
silvester
silvia
sily
sim
sima
simmons
simon
simona
simone
simple
simpson
simula
sin
since
sinclair
sing
singapore
singapur
singel
singer
single
singles
singli
singlom
singlov
singlu
sinh
sio
sir
sira
sire
sis
sister
sisters
sit
sita
site
sites
situa
situovana
situovane
situovany
siva
sive
sivy
six
size
sj
sk
ska
skaju
skal
skala
skale
skali
skalica
skalice
skalici
skalka
skalky
skalna
skalnate
skalnaty
skalne
skalny
skalo
skalu
skaly
skana
skane
skani
skania
skanie
skany
skat
skate
skating
skava
skavaju
skaval
skavali
skavanie
skavat
skavy
ske
skeho
skej
ski
skie
skin
skl
skla
sklad
sklada
skladaju
skladal
skladala
skladatel
skladatelia
skladba
skladbami
skladbe
skladbou
skladbu
skladby
skladieb
skladu
sklady
sklena
sklene
skleneny
skleni
skleny
sklo
sklom
sklon
sklonku
sklonom
sklonu
sko
skoc
skok
skokan
skokom
skoku
skoky
skom
skomponoval
skonc
skonfis
skons
skopje
skore
skoro
skors
skorus
skory
skou
skove
skr
skra
skratka
skratke
skratkou
skratky
skri
skrin
skrine
skromny
skru
skry
skryta
skryte
skryty
skrz
skrze
sku
skuk
skum
skume
skumna
skumne
skumnej
skumni
skumny
skumom
skumov
skumu
skumy
skupi
skupina
skupinami
skupine
skupinou
skupinova
skupinovej
skupinu
skupiny
skutkov
skutky
skutoc
skutok
skvele
skvely
sky
skych
skylab
skym
skyscraperpage
skyt
skytom
skytu
sl
sla
slaba
slabe
slabi
slabic
slabiky
slabo
slabost
slabosti
slabs
slaby
slach
sladke
sladky
slalom
slalome
slam
slami
slana
slanej
slangu
slanske
slansky
slatina
slatiny
slavi
slavia
slavo
slavomi
slayton
sle
slec
sled
sledkami
sledkoch
sledkom
sledkov
sledku
sledky
sledna
sledne
slednej
sledni
slednom
sledny
sledok
sledoval
sledovali
sledovanie
sledovanost
sledovat
sleduje
sleduju
sleep
slepa
slepe
slepy
sli
sliac
slica
slice
sliezska
sliezske
sliezsko
sliezskom
sliezsku
sliezskych
slima
slivka
slnec
slnka
slnko
slnkom
slnku
slo
slobo
sloboda
slobode
slobodna
slobodne
slobodnej
slobodni
slobodnom
slobodny
slobodu
slobody
sloh
slohu
slom
slon
slonoviny
slov
slova
slovaca
slovak
slovakia
slovami
slovan
slovana
slovane
slovania
slovanie
slovanom
slovanov
slovanska
slovanske
slovanskej
slovansky
slovart
slove
slovenc
slovenka
slovenska
slovenske
slovenskej
slovenski
slovensko
slovenskom
slovenskou
slovensku
slovensky
slovesa
sloveso
slovia
slovinska
slovinske
slovinsko
slovinsku
slovinsky
slovky
slovnaft
slovne
slovni
slovnik
slovnost
slovnosti
slovny
slovo
slovom
slovu
slowa
slowenski
slu
sluc
sluch
sluchu
sluha
sluhou
sluhu
sluhy
slus
sluz
slzy
sm
sma
small
smart
smartfo
sme
smej
smen
smena
smenami
smeno
smenom
smer
smere
smernica
smernice
smeroch
smerom
smerov
smerovali
smerovanie
smeru
smeruje
smeruju
smery
smetana
smev
smi
smich
smiech
smies
smile
smimi
smith
smk
smo
smokovci
smokovec
smolni
smom
smrec
smrek
smrt
smrtel
smrti
sms
smu
smutne
smutny
smy
sn
sna
snaha
snahe
snahou
snahu
snahy
snaz
snd
sne
sneh
snehu
snej
snejs
snem
sneme
snemovn
snemovne
snemovni
snemu
snez
sng
sni
snic
snici
snicka
snicke
snickej
snicky
snik
snika
snikom
snikov
snina
snk
snm
sno
snom
snov
snow
snp
snr
sns
sntl
snu
sny
snych
so
sob
soba
sobe
sobena
sobene
sobeni
sobenia
sobenie
sobeniu
sobeny
sobi
sobia
sobiaca
sobiace
sobiaci
sobiacich
sobil
sobila
sobili
sobilo
sobilost
sobilosti
sobit
sobmi
sobna
sobne
sobni
sobnost
sobnosti
sobny
sobok
sobom
sobota
sobote
sobotu
soboty
sobov
sobovali
sobovanie
sobovat
sobrance
sobu
sobuje
sobuju
soby
soc
soccer
socha
sochami
sochou
sochu
sochy
socia
social
socialisticka
socialisticke
socialistickej
socialisticky
socializmu
socializmus
socie
society
sociolo
socket
soda
sodi
sodne
sodny
sofia
sofie
sofii
soft
softbale
softball
softve
software
sojuz
sojuze
sojuzu
sok
sokol
sokola
sokolov
sokrates
sol
sola
solar
solaris
soli
solid
solidarita
solidarity
solo
solu
som
soma
some
somebody
something
somme
somna
somne
somnej
somnosti
somny
son
sona
sond
sonda
sondou
sondu
sondy
song
songs
sonic
sons
sony
sopec
sophie
sopiek
sopka
sopky
sopra
sor
sos
sotva
sou
souc
soul
sound
sounds
soundtrack
soundtracku
source
sous
south
southern
sov
sova
sove
soviet
sovieti
sovietska
sovietske
sovietskeho
sovietskej
sovietskemu
sovietski
sovietskom
sovietskou
sovietsku
sovietsky
sovietskych
sovietskym
sovietskymi
sovy
soz
sp
spa
space
spacex
spada
spadaju
spadol
spain
spal
spama
spanish
spart
sparta
spartak
sparte
spartske
spartsky
sparty
spasitel
spat
spe
spec
spech
spechoch
spechom
spechov
spechu
spechy
special
species
specifications
spectrum
speed
spektra
spektre
spektrometer
spektrum
spencer
spes
spev
speva
speve
spevkov
spevky
spevni
spevok
spevom
spevu
spevy
spi
spiatoc
spider
spieva
spievaju
spieval
spievala
spievankovo
spievat
spin
spirit
spiritua
spirituality
spis
spisoch
spisov
spisovatel
spisovatelia
spisovne
spisovnej
spisovny
spisu
spisy
spl
spla
split
splneni
splnenie
splnil
splnili
splnit
splos
sply
spn
spo
spoc
spochybn
spod
spodna
spodne
spodnej
spodnu
spodny
spoja
spoje
spojena
spojenca
spojencami
spojenci
spojencom
spojencov
spojene
spojenecke
spojenecky
spojenectvo
spojenej
spojeni
spojenia
spojenie
spojeniu
spojenom
spojeny
spoji
spojil
spojila
spojili
spojit
spojitost
spojitosti
spojka
spojky
spojov
spojovaci
spokojny
spol
spolec
spolkov
spolkova
spolkove
spolkovej
spolkovy
spolku
spolky
spoloc
spolok
spolu
spoluautor
spoluautorom
spoluhla
spoluhra
spolupra
spolupracoval
spolupracovala
spolupracovali
spolupracovat
spolupracovni
spolupracuje
spolupracuju
spoluz
spoluzakladatel
spomal
spomedzi
spomenu
spomenute
spomenuty
spomi
spomienka
spomienky
spomienok
sponta
spor
sporadicky
spore
sporitel
sporna
sporne
sporny
sporom
sporov
sport
sports
sporu
spory
spotreba
spotrebitel
spotrebu
spotreby
spoved
spozna
spoznal
spoznanie
spoznat
spp
spra
spracova
spracoval
spracovane
spracovani
spracovania
spracovanie
spracovany
spracu
spras
sprava
spravidla
spravil
spravit
spravodajca
spravodajska
spravodajske
spravodajsky
spravodajstva
spravodajstvo
spravodlive
spravodlivost
spravodlivosti
spravodlivy
spravoval
spravuje
spravy
spred
spreva
spri
sprievod
sprievodca
sprievodcu
sprievode
sprievodne
sprievodny
sprievodom
sprievodu
spring
springer
springfield
springs
sprisahania
sprostredkovatel
sprvu
sps
spu
spustena
spusteni
spustenie
spusteny
spustil
spustila
spustili
spustit
spustos
sputnik
spy
sql
sqrt
squadron
square
sr
srb
srbc
srbi
srbov
srbska
srbske
srbskej
srbsko
srbskom
srbsku
srbsky
srdca
srdce
srdci
srdcia
srdcom
srdcove
srdcovy
srdec
srholec
sri
srn
srst
srsti
ss
ssd
sse
sseldorf
ssp
ssr
sssr
ssyova
st
sta
stabilita
stabilitu
stability
stabiliza
stabilna
stabilne
stabilny
stac
staciona
stade
stadia
stadion
stadium
stadt
staff
stage
stal
stala
stali
stalin
stalina
stalingrad
stalo
stan
stanca
stancom
stancovia
stand
standard
stane
stanford
stani
stanic
stanica
stanicami
stanice
stanici
staniciach
stanicou
stanicu
stanislav
stanislava
stanisław
stanley
stanleyho
stano
stanovena
stanovene
stanovenie
stanoveny
stanovi
stanovil
stanovis
stanoviska
stanovisko
stanovit
stanovuje
stanovy
stanu
star
stara
staraju
staral
starat
stare
starej
stari
starobyle
staroda
starogr
starogre
starokatoli
starom
starost
starosta
starosti
starostlivo
starostlivost
starostlivosti
starostom
starostov
starostu
starou
starove
staroveke
starovekej
starovekom
staroveku
staroveky
staroz
staroza
starr
stars
start
staru
stary
stas
stat
state
states
stati
staticky
station
statisticky
statistics
statistique
statka
statku
statky
statoc
statok
stats
status
statystyczny
stav
stava
stavaju
staval
stavali
stavane
stavat
stavba
stavbami
stavbe
stavbou
stavbu
stavby
stave
stavebna
stavebne
stavebnej
stavebni
stavebny
stavia
stavieb
stavitel
stavna
stavne
stavnej
stavni
stavny
stavoch
stavom
stavou
stavov
stavovce
stavovcov
stavovske
stavu
stavy
staw
stay
ste
steckom
steel
stefan
steffen
stehli
steho
steiermark
stein
stej
stek
stella
stena
stenami
stene
stenne
stenny
stenou
stenu
steny
step
stepanovic
stephan
stephen
stepi
stepny
stereo
sterling
stern
sterreich
steve
steven
stevens
stevie
stewart
sti
stia
stiahla
stiahli
stiahnut
stiahnutie
stiahol
stich
stickera
stie
stien
stiev
stihol
stila
stili
still
stilo
stimi
stimula
stiu
stiz
stka
stkov
stky
stl
stla
stlac
stli
stlo
stn
stne
stnej
sto
stoc
stock
stockholm
stodola
stoja
stojaca
stojaci
stoji
stojni
stojnost
stok
stol
stola
stole
stolec
stoleti
stoli
stolic
stolica
stolice
stolici
stolny
stom
stone
stones
stop
stopa
stopu
stopy
stor
store
stories
storm
storoc
story
stotoz
stoviek
stovky
stoz
str
stra
strach
strachu
straight
straka
strakonice
strana
stranami
strane
strange
strani
stranou
stranu
strany
stras
strasbg
strata
strate
strategicke
strategicky
stratena
stratene
strateny
strati
stratil
stratila
stratili
stratilo
stratit
stratou
stratovulka
stratu
straty
strauss
straz
stream
strec
strecha
streche
strechou
strechu
strechy
stred
streda
strede
stredene
stredi
stredie
stredil
stredila
stredili
strediska
stredisko
strediskom
stredisku
stredit
stredna
stredne
strednej
strednom
strednou
strednu
stredny
stredoamericky
stredoc
stredoeuro
stredom
stredomori
stredomoria
stredos
stredoslovenske
stredoslovensky
stredovek
stredoveka
stredoveke
stredovekej
stredoveku
stredoveky
stredovy
stredozemne
stredu
street
strel
strela
strelca
strelcom
strelcov
strelec
strelecky
streleny
strelil
strelny
strelu
strely
stres
streta
stretla
stretli
stretlo
stretne
stretnu
stretnuti
stretnutia
stretnutiach
stretnutie
stretol
stretu
strieborna
strieborne
striebornej
striebornu
strieborny
striebra
striebro
striedaju
striedanie
striedave
striedavo
striedavy
striel
strih
strike
striktne
string
strme
strmy
stroj
stroja
stroje
stroji
strojmi
strojni
strojoch
strojom
strojov
strojove
strojovy
strom
stromami
stromoch
stromov
stromu
stromy
strong
strop
stropkov
stru
struc
structurae
structure
struny
stry
sts
stu
stuart
studena
studene
studenej
student
studeny
studia
studies
studio
studios
studium
studn
studne
studnic
study
stup
stupava
stupca
stupcami
stupcom
stupcov
stupcovia
stupcu
stupe
stupen
stupis
stupkyn
stupmi
stupn
stupna
stupne
stupnena
stupnene
stupneny
stupni
stupnica
stupnice
stupny
stupom
stupov
stupu
stupy
stuttgart
stuz
stv
stva
stvami
stve
stvi
stvo
stvom
stvoreni
stvorenia
stvorenie
stvoreny
stvoril
stvoritel
stvu
sty
styk
styku
styky
style
su
sua
sub
subaru
subjekt
subjekti
subjektov
subjektu
subjekty
subsp
substitu
substra
suc
sucha
suche
suchej
suchoj
suchy
sud
suda
sudca
sudcom
sudcov
sudcovia
sudcu
sue
sugar
sui
suite
sul
suli
sullivan
sulta
sultat
sum
suma
summary
summer
sumu
sumy
sun
sunday
sung
sunshine
supa
super
superior
supernova
superpoha
superstar
support
supraphon
sur
surove
surovi
suroviny
surovy
survey
sus
susan
susedi
susedia
susedne
susednej
susednom
susedny
susedom
susedstve
sutere
suvere
suzanne
suzuki
sv
sva
svadba
svadbe
svadbu
svadby
svah
svahoch
svahov
svahu
svahy
sval
svalov
svalu
svaly
svate
svatepismo
svatopluk
svaty
svazek
sve
svedc
svedectva
svedectvo
svedkom
svedkov
svedkovia
svedok
svedomi
svedomia
svedomie
svet
sveta
svete
svetelne
svetelny
sveti
svetla
svetlana
svetle
svetlejs
svetlo
svetlom
svetly
svetom
svetona
svetova
svetove
svetovej
svetovo
svetovom
svetovou
svetovu
svetovy
svetoza
svetozna
svetske
svetsky
svetu
svf
svi
sviatkom
sviatkov
sviatku
sviatky
sviatok
sviatost
sviatosti
svidni
sviec
svietivost
svin
svis
svit
svitavy
svitu
svoboda
svoj
svoje
svojej
svojho
svoji
svojich
svojim
svojimi
svojmu
svojom
svojou
svojra
svoju
svrc
svs
swan
sweden
swedish
sweet
swift
swing
swiss
sy
syd
sydney
sylvia
symbol
symbolicke
symbolicky
symbolizuje
symbolizuju
symbolmi
symbolom
symbolov
symboly
symetricky
symfo
symfonicke
symfonicky
sympatie
symphony
sympo
sympto
syn
syna
synago
synchro
syndro
syndrome
synmi
synoda
synom
synonyma
synonymicky
synonymum
synov
synovec
synovi
synovia
synte
synteticke
synteticky
syntetiza
synthesis
syr
syraku
syste
system
systematic
systematicke
systematicky
systematika
systems
sz
sza
szabo
sze
szent
szh
szlo
szm
szo
szu
sɛ
t
ta
tab
tabak
table
tablet
tabu
tabul
tabule
tabuliek
tac
tach
tadeusz
tadio
tadz
tag
tahiti
tai
taiwan
taiwane
taj
tajersko
tajna
tajne
tajnej
tajny
tajomni
tajomny
tajomstva
tajomstvo
tajomstvom
tajovske
taju
tak
taka
take
takej
takejto
takes
taki
takisto
takmer
takom
takomto
takou
takticke
takticky
taktiez
taktika
taktiku
takto
taku
taky
takz
takzvane
takzvanej
takzvany
tal
tala
tale
talent
talentovany
tales
tali
talianc
taliani
talianska
talianske
talianskeho
talianskej
taliansko
talianskom
taliansku
taliansky
talianskych
talianskym
taliza
talizuju
talk
talks
talleyrand
tallinn
talo
talovana
talovane
talovany
talovat
tam
tama
tamara
tame
tami
tamojs
tampa
tampere
tamz
tan
tana
tanapu
tanc
tanca
tance
tandard
tandardiza
tandardizovane
tandardizovany
tandardna
tandardne
tandardnej
tandardny
tandardom
tandardov
tandardu
tandardy
tane
tanec
tango
tani
tania
tanie
tank
tankov
tankova
tankove
tankovej
tankovy
tanku
tanky
tanta
tanti
tantne
tantny
tanty
tany
tanza
tao
tar
tara
tarja
tarn
tart
tarte
tartom
tartov
tartovacej
tartovaci
tartoval
tartovala
tartovali
tartovalo
tartovat
tartu
tartuje
tartuju
tas
task
tasma
tasr
tat
tata
tate
tatel
tatiana
tatier
tatisticke
tatistickej
tatisticky
tatistika
tatistike
tatistiky
tato
tatra
tatrami
tatran
tatranska
tatranske
tatranskej
tatransky
tatry
tatu
tatuta
tau
taura
tava
tavanie
taxi
taxo
taxono
taxonomy
taylor
tb
tbilisi
tc
tca
tcha
tchaj
tchien
tcov
tcp
te
team
teams
tears
teatro
teau
teba
tebe
tebou
tec
tech
techni
technical
technici
technicka
technicke
technickej
technickom
technicku
technicky
technik
technika
technike
technikou
techniku
techniky
techno
technolo
technologicke
technologicky
technologies
technology
ted
teda
teen
tefa
tefan
tefana
tefanom
teha
tehera
tehly
tehotenstva
tej
tejn
tejna
tejs
tejto
tek
tektonicky
teku
tekuti
tekutina
tekutiny
tekuty
tel
tela
tele
telefo
telegraph
telekomunika
telekomunikac
telesa
telescope
teleskop
telesna
telesne
telesnej
telesny
teleso
telesom
televi
television
televize
telies
tell
telo
telocvic
telom
telovy
telu
tematicky
tematikou
temes
temna
temne
temny
tempel
templa
temple
tempo
tempom
temz
ten
tena
tendencia
tendencie
tendenciu
tene
tenej
teni
tenia
tenie
tenis
tenisove
tenisovy
tenista
tenistka
teniu
tenka
tenke
tenky
tennessee
tennis
tenor
tenou
tento
tentokra
tentoraz
tenu
teny
teo
teodor
teolo
teologicka
teologicke
teologickej
teologicky
teoreticka
teoreticke
teoretickej
teoreticky
teoretik
teorie
tepe
tepelna
tepelne
tepelnej
tepelnu
tepelny
tepla
teple
teplej
teplejs
teplic
teplice
tepliciach
teplo
teplomilny
teplota
teplote
teplotny
teplotou
teplotu
teploty
teply
tepny
ter
tera
terajs
terapeuticko
terapia
terapie
terasa
terasy
teraz
terc
tercia
tere
tereza
teri
terica
terie
terito
teritoria
terma
termi
termina
terminal
terminolo
terminologicky
terms
teroristicke
teroristicky
terorizmu
teroru
terov
terra
terre
territoire
territorial
terror
terry
teru
tery
tes
tesa
tesco
tesla
tesne
tesnej
test
testament
testimonianze
testoch
testov
testovaci
testovania
testovanie
testovany
testu
testy
teta
teti
teva
teve
tevni
tevnost
tevoval
tevovala
tevovali
tevovanejs
tevovat
tevu
tevuje
tevy
texas
texase
text
texta
textami
texte
textilny
textoch
textom
textov
textove
textovy
textu
texty
tg
th
tha
thajsko
thajsku
thames
than
that
thdr
the
theater
theatre
their
them
then
theo
theodor
theodora
theodore
theologie
theory
there
these
theta
they
thin
thing
things
think
third
this
tho
thomas
thomasa
thompson
thomson
thor
thova
thrash
threatened
three
thriller
through
thunder
thurzo
ti
tia
tiach
tiaci
tiahne
tiahnu
tianskej
tiansky
tiavnica
tiavnice
tiavnici
tiavnicke
tiavnicky
tiaz
tibet
tibetu
tibor
tic
tica
tice
tich
ticha
tiche
ticho
tichodroma
tichom
tichy
ticky
tico
tie
tiel
tieli
tien
tiene
tieni
tienne
tiesn
tieto
tiez
tiger
tik
til
tila
tili
till
tillon
tilo
tim
time
times
timko
timothy
tin
tina
tine
tinou
tinu
tiny
tipendium
tipsport
tirolsko
tis
tisa
tisi
tiso
tisou
tisovec
tit
tita
titan
titanic
titel
title
tito
titou
titu
tituc
tituciona
titul
titula
titulna
titulom
titulov
titulu
tituly
titus
tj
tk
tka
tkach
tkami
tkani
tkaniva
tkanivo
tke
tkeho
tkej
tko
tkodobe
tkodoby
tkom
tkometra
tkou
tkov
tkova
tkove
tkovice
tkovy
tku
tky
tkych
tkym
tkymi
tl
tlac
tlak
tlakom
tlaku
tlmic
tlmoc
tm
tma
tmava
tmave
tmavej
tmavs
tmavy
tmi
tmy
tn
tna
tne
tneho
tnej
tnejs
tnemu
tni
tnici
tnicke
tnicky
tnik
tnika
tnikov
tno
tnom
tnost
tnosti
tnou
tnr
tnu
tny
tnych
tnym
tnymi
to
tobias
toc
toch
today
todd
todor
tof
tofi
together
toho
tohoto
tohto
toja
tok
toka
tokholm
tokholme
tokio
tokiu
tokmi
tokoch
tokom
tokov
toku
tokugawa
toky
tokyo
tol
tola
toleranc
toli
tolov
tolska
tolske
tolskej
tolsky
tolstoj
tom
toma
tomas
tommy
tomna
tomne
tomni
tomnost
tomnosti
tomny
tomorrow
tomto
tomu
tomuto
ton
tonight
tony
too
top
topa
topenia
topic
topl
tople
topluk
topograficky
topol
topolo
toponyma
toponymie
toponymii
tor
tora
tore
tori
torka
tormi
torna
tornado
torne
tornej
tornom
tornou
tornu
torny
toroch
torom
toronte
toronto
torov
torovi
torovy
torpe
torre
torske
torsky
toru
tory
torysy
tos
toska
tost
tosti
tota
total
totiz
toto
totoz
tottenham
tou
touch
toulouse
tour
tournament
tours
touto
tov
tova
tovar
tovaris
tovarom
tovarov
tovaru
tove
tovej
tovi
tovne
tovnej
tovni
tovny
tovom
tovou
tovu
tovy
tower
town
township
toxicke
toxicky
toyota
tr
tra
track
tracks
trade
tradi
tradic
traditional
traffic
trage
tragicky
trailer
train
training
traja
trajekto
trajk
trakc
trakta
traktu
trance
trans
transcendenta
transfer
transfermarkt
transforma
transit
transkripcia
translation
transneptu
transplanta
transport
transporte
transportny
trap
trasa
trase
trasu
trasy
trat
trate
trati
tratiach
travel
traverti
travis
trba
trbina
trbske
tre
treatment
treba
trebis
treccani
tree
trek
trenc
trend
trendu
trendy
tres
tresku
trest
trestne
trestnom
trestny
trestom
trestu
tresty
tret
tretej
treti
tretia
tretie
tretieho
tretina
tretine
tretinu
tretiny
tretiu
trh
trhoch
trhov
trhova
trhove
trhovy
trhu
trhy
tri
tria
tribec
tribu
tribuna
tribune
tribute
tric
tridsat
tridsiatich
tridsiatych
tried
trieda
triede
triedu
triedy
trikra
trilo
trina
trinidad
trinity
trio
trip
triple
tristan
triton
triumf
triumfa
trivia
trna
trnava
trnave
trnavska
trnavske
trnavskej
trnavskom
trnavsky
trnavy
trnka
tro
troch
trocha
trochu
trofej
trois
trojan
trojc
trojic
trojica
trojice
trojici
trojlod
trojna
trojroc
trojuholni
trolejbus
trolejbusov
trolejbusova
trolejbusu
trolejbusy
trom
troma
trombo
tromi
trophy
tropicke
tropicky
tros
troskovy
trosky
trozemi
trozemia
trpasli
trpaslic
trpel
trpela
trpi
trpiet
trstena
tru
trubice
true
trukc
trukcia
trukcie
trukcii
trukciou
trukciu
trukte
trukti
truktu
truktura
trumenta
trump
truoval
truovana
truovane
truovany
truovat
trup
trupom
trupu
trust
truth
trutnov
trva
trvaju
trval
trvala
trvale
trvali
trvalo
trvaly
trvania
trvanie
trvat
try
trz
ts
tska
tske
tskeho
tskej
tsko
tskom
tsku
tsky
tskych
tskym
tstva
tstvo
tt
tte
ttingen
tu
tuamotu
tuberkulo
tuc
tucker
tudent
tudenta
tudenti
tudentmi
tudentom
tudentov
tudentske
tudentsky
tudes
tudijne
tudijny
tudoval
tudovala
tudovali
tudovat
tuduje
tuduju
tuha
tuhe
tuhy
tuk
tuka
tukov
tuku
tula
tulipa
tullius
tum
tumu
tunajs
tunel
tunela
tunelom
tunelov
tunely
tung
tunisko
tupolev
tur
tura
turbi
turbo
turbodu
turc
turca
turci
turec
turecka
turecke
tureckej
turecko
tureckom
turecku
turecky
turi
turiec
turisti
turisticka
turisticke
turistickej
turistickou
turisticky
turistika
turistiku
turistiky
turistov
turizmus
turkami
turkey
turkish
turkme
turkom
turkov
turn
turnaj
turnaja
turnaje
turnaji
turnajoch
turnajom
turnajov
turne
turner
turzo
tus
tv
tva
tvar
tvare
tvarmi
tvarne
tvarnej
tvarni
tvarnom
tvarny
tvarom
tvarov
tvaru
tvary
tve
tveho
tvi
tvnoviny
tvoj
tvoja
tvoje
tvojej
tvojho
tvor
tvorba
tvorbe
tvorbou
tvorbu
tvorby
tvorc
tvorca
tvorcom
tvorcov
tvorcove
tvorcovia
tvorcovy
tvorcu
tvorena
tvorene
tvoreny
tvorhra
tvorhre
tvorhry
tvori
tvoria
tvoriace
tvoriacich
tvoriacou
tvoril
tvorila
tvorili
tvorilo
tvorit
tvorive
tvorivej
tvorivy
tvorka
tvorke
tvorna
tvorroc
tvory
tvrda
tvrde
tvrdej
tvrdeni
tvrdenia
tvrdenie
tvrdi
tvrdia
tvrdil
tvrdila
tvrdili
tvrdo
tvrdos
tvrdost
tvrds
tvrdy
tvrt
tvrta
tvrte
tvrtej
tvrti
tvrtiny
tvrtok
tvrtom
tvrtou
tvrtu
tvrty
tvy
tvych
twilight
twin
twist
twitter
two
ty
tyc
tych
tyler
tympano
tyn
tyne
typ
type
typicka
typicke
typickou
typicky
typmi
typoch
typolo
typom
typov
typovy
typu
typy
tyr
tyri
tyria
tyridsat
tyrikra
tyrmi
tyroch
tz
tzn
tzv
u
ua
ub
uba
ube
ubica
ubl
ubli
ubo
ubomi
ubor
ubos
ubou
ubovn
ubovol
ubra
ubu
ubuje
ubuntu
uby
ubytovanie
uc
uch
ucha
ucho
uchova
uchy
uci
ucl
uctievanie
uctievany
ud
uda
udalost
udalosti
udalostiach
ude
udel
udelena
udelene
udelenie
udeleny
udelil
udelila
udelili
udelit
udi
udia
udmila
udnatejs
udnenia
udo
udom
udova
udove
udovej
udovi
udovo
udovou
udovu
udovy
udrz
udska
udske
udskej
udskom
udskosti
udskou
udsku
udsky
udstva
udstvo
udu
ue
uefa
ufc
ufo
uh
uher
uherske
uherski
uhl
uhla
uhli
uhlia
uhlic
uhlie
uhlom
uhlopriec
uhlov
uhol
uholni
uhorska
uhorske
uhorskej
uhorsko
uhorskom
uhorsku
uhorsky
uhri
uj
ujal
uje
ujem
ujeme
uji
ujme
ujmom
ujmov
ujmu
ujmy
ujst
uju
uk
uka
ukazovatel
ukazuje
ukazuju
ukb
ukf
uklada
ukladanie
ukonc
ukov
ukove
ukovy
ukr
ukraine
ukrajina
ukrajinc
ukrajinci
ukrajincov
ukrajine
ukrajinou
ukrajinska
ukrajinske
ukrajinskej
ukrajinsky
ukrajinu
ukrajiny
ukriz
ukry
uku
uky
ul
ula
ulan
uli
uliach
uliar
ulic
ulica
ulicami
ulice
ulici
uliciach
ulicou
ulicu
uloz
ulrich
ultima
ultimate
ultra
ultrafialove
ultratop
ulvaeus
uly
um
umava
umb
umbier
umbierske
ume
umela
umelca
umelcami
umelci
umelcom
umelcov
umele
umelec
umelecka
umelecke
umeleckej
umelecko
umelecku
umelecky
umelej
umelkyn
umelo
umely
umeni
umenia
umenie
umeniu
umiera
umieraju
umiestn
umiestnena
umiestnene
umiestneni
umiestnenia
umiestnenie
umiestneny
umiestnil
umiestnila
umiestnili
umiestnilo
umiestnit
umoz
umperk
umrel
umuc
umy
un
una
und
under
underground
understanding
une
unesco
ung
uni
uniba
unicode
unika
uniknu
union
unit
united
univ
universal
universe
universita
university
univerza
univerzi
univerzita
univerzite
univerzitna
univerzitne
univerzitnej
univerzitny
univerzitou
univerzitu
univerzity
unix
unplugged
up
upa
upadol
upan
upana
upanom
upc
update
upe
upevn
upi
upjs
uplatn
uplatnenie
uplatnil
uplatnit
uplynuti
upne
upny
upon
upozorn
upozornenie
upozornil
upper
upr
uprav
upravena
upravene
upraveny
upravil
upravit
upravovany
upravuje
upravuju
uprednostn
uprostred
upu
upy
ur
ura
ural
urany
urba
urban
urbana
urbino
urc
uri
urica
uris
url
urna
urnalistiky
urobi
urobil
urobila
urobili
urobit
urs
uruguaj
uruguaja
uruguay
ury
urza
us
usa
usadeny
usadil
usadili
usadlost
usadlosti
usaf
usatoday
usb
usd
use
used
user
usi
usiloval
usiluje
usiluju
using
uskutoc
usmern
usporadu
usporiadal
usporiadana
usporiadane
usporiadani
usporiadania
usporiadanie
usporiadany
usporiadatel
uss
ust
usta
ustanovena
ustanoveni
ustanovenia
ustanovenie
ustanoveny
ustanovil
ustanovuju
ustavic
uste
ustu
ustupuju
usu
ut
uta
utah
utc
utec
utf
uti
utiect
utiekli
utiekol
utla
utorok
utrpel
utrpela
utrpeli
utrpenia
utrpenie
utva
utvorene
uv
uva
uvaz
uvedena
uvedene
uvedenej
uvedeni
uvedenia
uvedenie
uvedenom
uvedeny
uvedomil
uvedomit
uverejn
uverejnene
uverejneny
uverejnil
uvidel
uvidi
uviedla
uviedli
uviedlo
uviedol
uviest
uvol
uz
uza
uzatva
uzatvorena
uzatvoreny
uzavrel
uzavrela
uzavreli
uzavreta
uzavrete
uzavreti
uzavretie
uzavrety
uzavriet
uzbekistan
uzlom
uzlov
uzna
uznal
uznala
uznali
uznana
uznane
uznani
uznania
uznanie
uznany
uznat
uzneseni
uznesenia
uznesenie
uzol
v
va
vab
vac
vacej
vach
vaci
vacia
vacie
vacieho
vaciu
vacom
vacou
vada
vago
vah
vaha
vahy
vai
vaj
vajanske
vajc
vajce
vajcia
vajda
vajec
vaji
vajnory
vajte
vaju
vakci
val
vala
valach
valas
valc
valca
valcov
valcovy
valds
vale
valec
valej
valenc
valencia
valenou
valenti
valentin
valentine
valeria
valerij
vali
valka
valle
valley
valne
valo
valois
valom
valou
valu
value
valy
vam
vame
vami
vampire
van
vana
vanc
vancouver
vancouveri
vane
vanej
vanejs
vani
vania
vanie
vaniu
vanom
vanou
vanu
vany
var
varga
vari
varia
variant
variante
variantoch
variantom
variantov
variantu
varianty
varieta
variety
various
varphi
vars
varu
vary
vas
vasil
vasilievic
vasilij
vat
vatel
vatelia
vatika
vaucluse
vaux
vavr
vavri
vavrinca
vaz
vc
vca
vcelku
vcha
vchod
vchodom
vcom
vcov
vcu
vd
vdova
vdy
ve
vec
veci
veciach
vecne
ved
veda
vedci
vedcov
vede
vedec
vedecka
vedecke
vedeckej
vedecko
vedeckom
vedeckovy
vedecku
vedecky
vedel
vedeli
vedena
vedene
vedeni
vedenia
vedenie
vedeny
vedia
vedie
vediet
vedl
vedny
vedome
vedomi
vedomia
vedomie
vedomosti
vedomy
vedu
vedy
vega
vegas
vegeta
vegetac
vegetaria
vehicle
veja
vek
vekom
vektor
vektora
veku
vel
veleni
velenia
velenie
velic
velika
velil
velitel
velitelia
velka
velke
velky
velvet
vena
vencom
vende
vendeli
vene
venera
venezuela
veni
venia
venie
veniec
venkov
venoval
venovala
venovali
venovana
venovane
venovany
venovat
ventil
ventila
venuje
venuju
venus
veny
veporsky
ver
vera
verba
verbum
vere
verec
verejna
verejne
verejnej
verejnom
verejnopra
verejnost
verejnosti
verejnu
verejny
vergi
veri
veria
veriaci
veriacich
veriacim
veril
verili
verit
veritel
verl
verlag
verna
verne
verner
verni
vernon
vernost
vernosti
verny
verom
veronica
veronika
verov
vers
versailles
version
vertika
veru
very
verzia
verzie
verzii
verziou
verziu
ves
vesela
vesele
veseli
vesely
vesmi
vesni
vesov
vesove
vespre
vesta
vestfa
vestni
vesy
veta
vete
vetera
veterina
veterne
veterny
vetiev
vetra
vetrom
vetu
vetva
vetvic
vetvy
vety
vez
vezme
vh
vhodna
vhodne
vhodnejs
vhodny
vi
via
viac
viacej
viacere
viaceri
viacero
viacery
viackra
viacna
viacu
viaf
vianoc
vianoce
viaz
viazana
viazane
viazany
vibra
vic
vice
vicente
viceprezident
viceprezidenta
viceprezidentom
victor
victoria
victory
vid
vida
videa
videi
videl
videla
videli
videnia
videnie
video
videohra
videoklip
videoklipe
videoklipy
videu
vidi
vidia
vidiecka
vidiecke
vidiek
vidieka
vidieku
vidiet
viditel
vidno
vie
vied
vieden
viedenska
viedenske
viedenskej
viedenskom
viedensky
viedla
viedli
viedlo
viedne
viedni
viedol
viem
vieme
vienna
vienne
viera
viere
vierou
vierovyznania
vierovyznanie
vieru
viery
vies
viest
viet
viete
vietnam
vietname
vietnamskej
vietnamu
vietor
vieux
view
vihorlat
vihorlatsky
vii
viii
vik
vika
viking
vikto
viktor
viktora
viktoria
vil
vila
vilaine
vile
vili
viliam
viliama
villa
village
ville
villeneuve
villers
vilo
vily
vin
vina
vincent
vincenta
vinci
vincitori
vine
vinic
vinni
vinny
vinnyckej
vinohradni
vinohrady
vinu
viny
vinyl
viola
violonc
viou
vira
virgi
virgin
virginia
virtua
virtual
virtuo
virus
vis
visel
viselo
visi
visia
visiace
visiaci
visiacich
vision
visla
visle
vislej
visli
vislost
vislosti
vislou
vislu
visly
vist
vista
visti
visual
vit
vita
vitami
vitra
viu
viva
vizigo
vizua
vk
vka
vkach
vkami
vke
vkmk
vkou
vkova
vkove
vkovy
vku
vky
vl
vla
vlada
vladimi
vladimir
vladimirovic
vladislav
vladislava
vlado
vlajka
vlajke
vlajkou
vlajku
vlajky
vlak
vlakom
vlakov
vlaku
vlaky
vlas
vlasov
vlast
vlasta
vlasti
vlastimil
vlastivedne
vlastivedny
vlastna
vlastne
vlastnej
vlastni
vlastnil
vlastnila
vlastnili
vlastnit
vlastnom
vlastnost
vlastnosti
vlastnou
vlastnu
vlastny
vlastok
vlasy
vlc
vlec
vlhke
vlhkost
vlhkosti
vlhky
vlieva
vlk
vlna
vlnenie
vlnovej
vlnovy
vlnu
vlny
vloz
vltavou
vltavy
vmi
vn
vna
vne
vneho
vnej
vnejs
vnemu
vnene
vnenie
vneny
vni
vnic
vnicka
vnicke
vnickej
vnicku
vnicky
vnik
vnika
vnikov
vno
vnom
vnost
vnosti
vnostne
vnostny
vnou
vnu
vnuc
vnuk
vny
vnych
vnym
vnymi
vo
voc
vocal
vod
voda
vodca
vodce
vodcom
vodcov
vodcovia
vodcu
vode
vodi
vodic
vodivost
vodn
vodna
vodne
vodnej
vodni
vodnom
vodnopo
vodnou
vodnu
vodny
vodoch
vodohospoda
vodom
vodopa
vodorovne
vodorovny
vodou
vodov
vodovod
vodu
vody
voice
voj
voja
vojaci
vojak
vojaka
vojakmi
vojakom
vojakov
vojen
vojenska
vojenske
vojenskej
vojenskom
vojenskou
vojensku
vojensky
voji
vojna
vojnami
vojne
vojnou
vojnova
vojnove
vojnovej
vojnovy
vojnu
vojny
vojom
vojove
vojovo
vojovy
vojsk
vojska
vojskami
vojsko
vojskom
vojsku
vojtas
vojte
vojtech
vojtecha
voju
vojvoda
vojvodca
vojvodkyn
vojvodom
vojvodstva
vojvodstve
vojvodstvo
vojvodu
vok
voka
vokati
vol
vola
volaju
volal
volala
volali
volanie
volat
volbeat
volby
volcanism
volcano
volebna
volebne
volebnej
volebnom
volebny
volejbal
volejbale
volejbalova
volejbalovej
volejbalovy
voleni
voleny
volga
voli
volic
volieb
volit
volitel
volkswagen
volleyball
volovsky
voltaire
volume
volvo
vom
vomoc
vomoci
von
vondra
vonkajs
vonku
voplatne
vopred
vos
vosges
vostok
vou
vov
vove
vovy
voyage
voyager
voz
voza
vozen
vozi
vozidiel
vozidla
vozidlo
vozidlom
vozn
vozne
vozov
vozovn
vozu
vozy
vp
vpa
vply
vplyv
vplyvmi
vplyvny
vplyvom
vplyvov
vplyvu
vplyvy
vpn
vpravo
vpred
vpredu
vr
vra
vracaju
vracia
vrah
vraha
vraj
vrakun
vrana
vranov
vrat
vrate
vratislav
vratu
vraty
vravi
vraz
vrba
vrch
vrchmi
vrchna
vrchne
vrchnej
vrchny
vrchoch
vrchol
vrchole
vrcholmi
vrcholne
vrcholny
vrcholom
vrcholov
vrcholove
vrcholovej
vrcholovu
vrcholovy
vrcholu
vrcholy
vrchom
vrchov
vrchovina
vrchovine
vrchoviny
vrchu
vrchy
vre
vres
vrh
vrha
vrhom
vrhov
vrhu
vrhy
vri
vroclav
vrodene
vrs
vrstiev
vrstva
vrstvami
vrstve
vrstvia
vrstvie
vrstvou
vrstvu
vrstvy
vrtul
vru
vrz
vs
vseti
vsi
vstavac
vstu
vstup
vstupe
vstupna
vstupne
vstupny
vstupom
vstupu
vstupuje
vstupuju
vsz
vta
vtaky
vtedajs
vtedy
vteka
vtj
vtrhli
vu
vulga
vulgaris
vulka
vulkanicke
vulkanicky
vum
vut
vy
vybavena
vybavene
vybaveni
vybavenia
vybavenie
vybaveny
vybera
vyberat
vyberie
vybieha
vybiehaju
vybojoval
vybral
vybrala
vybrali
vybrana
vybrane
vybrany
vybrat
vybudoval
vybudovala
vybudovali
vybudovana
vybudovane
vybudovani
vybudovanie
vybudovany
vybudovat
vyc
vycha
vychova
vychy
vycvic
vyd
vyda
vydal
vydala
vydali
vydalo
vydana
vydane
vydanej
vydani
vydania
vydanie
vydany
vydat
vydata
vydavatel
vydavatelstvi
vydrz
vygenerovany
vyhl
vyhla
vyhlasuje
vyhli
vyhnal
vyhnali
vyhnani
vyhnanstva
vyhnany
vyhnu
vyhol
vyhorel
vyhovuju
vyhra
vyhral
vyhrala
vyhrali
vyhralo
vyhrat
vyhy
vyhynuty
vyjadrena
vyjadrene
vyjadreni
vyjadrenia
vyjadrenie
vyjadril
vyjadrila
vyjadrili
vyjadrit
vyjadrovat
vyjadruje
vyjadruju
vyjde
vyjedna
vyjst
vykazuje
vykazuju
vykona
vykonal
vykonala
vykonali
vykonana
vykonane
vykonani
vykonanie
vykonany
vykonat
vykopa
vykorist
vykresl
vyku
vykupitel
vyl
vyleps
vyliec
vyloz
vylu
vyluc
vymazana
vymedzene
vymedzenie
vymedzeny
vymedzuje
vymeneny
vymenil
vymenili
vymenit
vymenoval
vymenovala
vymenovani
vymenovanie
vymenovany
vymenu
vymien
vymyslel
vyn
vyna
vynaloz
vynas
vynecha
vyniesla
vyniesol
vynika
vynikaju
vynikal
vynu
vyobrazeni
vyobrazeny
vypa
vypadla
vypadli
vypadol
vypi
vypl
vypla
vyplnene
vyply
vypoc
vypovedal
vypra
vypracoval
vypracovany
vypravil
vyprs
vypu
vypukla
vypukli
vypuklo
vypuknuti
vypukol
vypustena
vypustenie
vypusteny
vyra
vyrad
vyradene
vyradeny
vyrasta
vyrastaju
vyrastal
vyrastala
vyreza
vyries
vyrobena
vyrobene
vyrobeny
vyrobil
vyrobila
vyrobilo
vyrobit
vyrovna
vyrovnal
vyrovnat
vys
vysa
vysi
vysiela
vysielac
vysielaju
vysielal
vysielala
vysielane
vysielani
vysielania
vysielanie
vysielany
vysielat
vyskoc
vysku
vyskytli
vyskytnu
vyskytol
vyskytoval
vyskytovali
vyskytovat
vyskytuje
vyskytuju
vyslal
vyslanca
vyslanci
vyslancom
vyslanec
vyslanectva
vyslanectvo
vyslany
vyslov
vyslovene
vyslovil
vyslovuje
vyslu
vysoc
vysoka
vysoke
vysokej
vysoko
vysokohorsky
vysokom
vysokory
vysokos
vysokou
vysoku
vysoky
vyspely
vyst
vystavany
vystavena
vystavene
vystaveni
vystaveny
vystriedal
vystriedali
vystriedalo
vystu
vystupoval
vystupovala
vystupovali
vystupovat
vystupuje
vystupuju
vysus
vysva
vysvetl
vysvetleni
vysvetlenie
vysvetlil
vysvetlit
vysvetlivky
vysviacku
vyt
vyteka
vytiahol
vytla
vytlac
vytva
vytvorena
vytvorene
vytvoreni
vytvorenia
vytvorenie
vytvoreniu
vytvoreny
vytvori
vytvoria
vytvoril
vytvorila
vytvorili
vytvorilo
vytvorit
vyty
vyu
vyuc
vyuz
vyva
vyvi
vyvinu
vyvinul
vyvinula
vyvinuli
vyvinulo
vyvinuta
vyvinute
vyvinuty
vyvola
vyvolal
vyvolala
vyvolali
vyvolalo
vyvolana
vyvolane
vyvolany
vyvolat
vyvra
vyvraz
vyvrcholila
vyvrcholili
vyvy
vyz
vyzbrojene
vyzbrojeny
vyzera
vyzeraju
vyzerat
vyzna
vyznac
vyznamenal
vyznamenani
vyznamenania
vyznamenanie
vyznamenany
vyznania
vyznanie
vyzval
vyzy
vz
vza
vzadu
vzal
vzala
vzali
vzbu
vzbura
vzburu
vzbury
vzd
vzda
vzdal
vzdala
vzdali
vzdat
vzdela
vzdelani
vzdelania
vzdelanie
vzdelanosti
vzdelany
vzdialena
vzdialene
vzdialenejs
vzdialenost
vzdialenosti
vzdialeny
vzduch
vzduchom
vzduchu
vzdus
vzhl
vziat
vzis
vzkriesenie
vzletova
vzlietol
vzna
vznes
vznik
vznika
vznikaju
vznikali
vznikat
vznikla
vznikli
vzniklo
vznikne
vzniknu
vzniknute
vzniknuty
vznikol
vznikom
vzniku
vzor
vzorec
vzoriek
vzorky
vzorom
vzorov
vzoru
vzory
vzostup
vzpomi
vzra
vzrastaju
vzrus
vzt
vzty
w
wa
waffen
wagner
waiting
wake
wales
walese
walesky
walesu
walk
walker
walking
wall
wallace
walt
walter
wang
wanna
want
war
ward
wardova
warner
warren
wars
warszawa
was
washington
washingtone
watch
water
waterloo
waters
watson
wave
way
wayback
wayne
wbsc
wc
we
web
webe
weber
webnoviny
webova
webove
webovej
webovy
website
webster
webstra
webu
week
weekly
weeknd
weiss
welcome
well
wells
welt
wembley
wen
were
werich
werner
wesley
west
western
westminster
what
whatsapp
whc
when
where
which
whil
while
white
whitney
who
whois
why
wi
wide
wie
wien
wiener
wiki
wikicita
wikidruhy
wikimedia
wikipe
wikipedia
wikiprojekt
wikislovni
wikizdroje
wild
wilde
wiley
wilhelm
will
willem
william
williama
williams
williamsova
willis
wilson
wimbledon
wimbledone
win
winchester
wind
windows
windsor
wing
wings
winners
winnipeg
wins
winston
winter
wire
wisconsin
wish
with
within
without
wittenbergu
wka
wny
wo
wolf
wolfgang
woman
women
won
wonder
wood
woods
word
words
work
working
works
world
worldcat
worlds
worldwide
worth
would
wp
wrc
wrestler
wrestling
wright
writing
wta
wu
wwe
www
x
xaver
xbox
xeno
xi
xii
xiii
xiv
xix
xl
xls
xml
xp
xv
xvi
xvii
xviii
xx
xxi
xxiii
xxx
y
ya
yahoo
yale
year
years
yellow
yes
yg
yo
yonne
york
yorku
you
young
your
youth
youtube
yu
yuwaalaraay
yuwaalayaay
yvelines
yves
z
za
zaba
zabera
zaberaju
zabezpec
zabi
zabije
zabil
zabila
zabili
zabit
zabiti
zabitie
zabity
zabra
zabran
zabu
zabudovany
zac
zach
zachar
zachova
zachoval
zachovala
zachovali
zachovalo
zachovaly
zachovana
zachovane
zachovani
zachovania
zachovanie
zachovany
zachovat
zachra
zachran
zachyta
zachytene
zachytenie
zachyteny
zachytil
zachytit
zada
zadarmo
zadna
zadne
zadnej
zadnou
zadnu
zadny
zadrz
zagreb
zaha
zahr
zahra
zahradni
zahral
zahrala
zahrali
zahranic
zahrat
zahrn
zahrnute
zahrnuty
zahynul
zahynula
zahynuli
zahynulo
zaist
zaistenie
zaistil
zaistit
zajac
zajali
zajatcov
zajati
zajatia
zajaty
zaji
zajtra
zaka
zakaz
zakazuje
zaklada
zakladaju
zakladal
zakladali
zakladatel
zaklenuta
zaklenute
zaklenuty
zakli
zakonc
zakra
zakry
zaku
zal
zala
zalesneny
zali
zalianskej
zalo
zaloz
zamarovsky
zameral
zamerana
zamerane
zamerani
zamerania
zameranie
zamerany
zameriava
zameriavac
zameriavaju
zameriaval
zamestna
zamestnal
zamestnanca
zamestnancami
zamestnanci
zamestnancom
zamestnancov
zamestnanec
zamestnani
zamestnania
zamestnanie
zamestnany
zami
zamien
zamilovany
zamy
zan
zana
zane
zanecha
zanechal
zanechali
zanedba
zanedbatel
zani
zania
zanie
zanika
zanikla
zanikli
zaniklo
zaniknuta
zaniknute
zaniknutej
zaniknuty
zanikol
zany
zaobcha
zaobera
zaoberaju
zaoberal
zaoberala
zaoberali
zaoberat
zaokru
zaosta
zapa
zapal
zapama
zapi
zapisuje
zaplatil
zaplatit
zapoc
zapojeni
zapojenie
zapojeny
zapojil
zapojila
zapojili
zapojit
zappa
zapri
zar
zara
zarad
zaradena
zaradene
zaradeni
zaradenie
zaradeny
zaradil
zaradila
zaradili
zaradit
zariadeni
zariadenia
zariadeniach
zariadeniami
zariadenie
zarobil
zaruc
zas
zasa
zasadani
zasadnuti
zasadnutia
zasadnutie
zasadol
zasahovat
zasahuje
zasahuju
zase
zasiahla
zasiahli
zasiahlo
zasiahnut
zasiahnuty
zasiahol
zaslu
zasnu
zasta
zastarane
zastarano
zastarany
zastavena
zastavene
zastaveni
zastavenie
zastavi
zastavil
zastavila
zastavili
zastavit
zastras
zastreleny
zastres
zastu
zastupitel
zastupoval
zastupuje
zastupuju
zasva
zat
zatel
zatial
zatkli
zatknuti
zatknuty
zatlac
zatmenie
zato
zatriedeny
zatva
zatvorene
zatvoreny
zaty
zau
zaujal
zaujala
zaujali
zauji
zauz
zava
zavedena
zavedene
zavedeni
zavedenia
zavedenie
zavedeny
zaveseny
zaviazal
zaviedla
zaviedli
zaviedol
zaviest
zavlaz
zavlec
zavou
zavr
zavraz
zaz
zaznamena
zaznamenal
zaznamenala
zaznamenali
zaznamenalo
zaznamenana
zaznamenane
zaznamenany
zb
zba
zbaveny
zbavil
zbavit
zbe
zber
zberac
zberatel
zbernice
zbierka
zbierkach
zbierke
zbierkou
zbierku
zbierky
zbierok
zbli
zbojni
zbor
zbore
zborni
zborom
zborov
zboru
zbory
zbou
zboz
zbran
zbrane
zbrani
zbroj
zbroje
zbroji
zbrojou
zbu
zby
zbytoc
zc
zcestie
zd
zda
zdalo
zdanliva
zdanlivo
zdedil
zden
zdena
zdene
zdenka
zdenko
zdeno
zdiel
zdl
zdna
zdne
zdneho
zdniny
zdny
zdo
zdoba
zdobe
zdobena
zdobene
zdobeny
zdobou
zdobu
zdoby
zdokonal
zdola
zdolal
zdolali
zdrave
zdravi
zdravia
zdravie
zdravotna
zdravotne
zdravotnej
zdravotni
zdravotny
zdravy
zdroj
zdroja
zdroje
zdrojmi
zdrojoch
zdrojom
zdrojov
zdrojove
zdrojovy
zdruz
zdrz
zdvi
zdvih
zdvihov
zdvihovy
zdvihu
zdvojna
zdy
ze
zea
zealand
zef
zei
zeit
zeitschrift
zeitung
zek
zelen
zelena
zelene
zelenej
zelenina
zeleniny
zeleno
zelenom
zelenu
zeleny
zelni
zem
zeman
zeme
zemepa
zemepisnej
zemepisnou
zemepisny
zemetraseni
zemetrasenia
zemetrasenie
zemi
zemia
zemiach
zemiaky
zemie
zemiu
zemna
zemne
zemnej
zemno
zemny
zemou
zempli
zemr
zemska
zemske
zemskej
zemsky
zen
zeni
zenia
zenie
zenit
zeno
zeppelin
zero
zeta
zeu
zeum
zeus
zhang
zhoda
zhode
zhodne
zhodny
zhodou
zhoduje
zhoduju
zhora
zhors
zhotoveny
zhotovil
zhromaz
zhruba
zhubny
zi
zia
zicky
zie
zieb
zii
zijska
zijske
zijskej
zijsky
zima
zimbabwe
zime
zimna
zimne
zimnej
zimnom
zimny
zimu
zimuju
zimy
ziou
zis
zisk
ziskom
zisku
zisky
zist
zistena
zistene
zisteni
zistenie
zisteny
zisti
zistil
zistila
zistili
zistilo
zistit
ziu
zium
zjaveni
zjavenia
zjavenie
zjavil
zjavne
zjavuje
zjazd
zjazde
zjednodus
zjednotene
zjednoteni
zjednotenia
zjednotenie
zjednotit
zka
zkach
zkam
zkami
zke
zkeho
zkej
zko
zkoch
zkom
zkopodlaz
zkost
zkosti
zkou
zkov
zkova
zkove
zkovy
zku
zky
zkych
zkym
zkymi
zl
zla
zlata
zlate
zlatej
zlatko
zlatni
zlato
zlatom
zlatou
zlatu
zlaty
zle
zlej
zleps
zli
zliatiny
zlo
zloc
zlom
zlomky
zlomok
zloz
zlu
zluc
zly
zlyha
zlyhani
zlyhania
zlyhanie
zma
zmaturoval
zme
zmena
zmenami
zmene
zmenena
zmenene
zmeneny
zmeni
zmenil
zmenila
zmenili
zmenilo
zmenit
zmenky
zmenou
zmens
zmenu
zmeny
zmes
zmesi
zmesou
zmi
zmien
zmienka
zmienku
zmienky
zmies
zmlu
zmluva
zmluve
zmluvne
zmluvny
zmluvou
zmluvu
zmluvy
zmocnil
zmocnili
zmoz
zmr
zmy
zmysel
zmysle
zmyslom
zmyslove
zmyslovy
zmyslu
zn
zna
znac
znak
znakmi
znakom
znakov
znaku
znaky
znalec
znalost
znalosti
znam
zname
znamena
znamenaju
znamenal
znamenala
znamenali
znamenalo
znamenat
znameni
znamenie
znamna
znamne
znamnej
znamnejs
znamni
znamnou
znamnu
znamny
znamoch
znamom
znamov
znamove
znamovy
znamu
znamy
zne
znec
zneho
znej
znejs
zneju
znel
znemoz
zneni
znenia
znenie
zneny
znes
zneuz
znevy
zni
znic
znice
znie
znievom
znili
zniz
znojmo
znom
znorode
znorody
znost
znosti
znou
znova
znovu
znu
zny
znych
znym
znymi
zo
zoba
zobral
zobrazena
zobrazene
zobrazeni
zobrazenia
zobrazenie
zobrazeny
zobrazi
zobrazil
zobrazili
zobrazit
zobrazovanie
zobrazovany
zobrazuje
zobrazuju
zoch
zodpoveda
zodpovedaju
zodpovedna
zodpovedne
zodpovednost
zodpovednosti
zodpovedny
zoe
zoh
zohl
zohra
zohral
zok
zolta
zom
zombie
zomiera
zomrel
zomrela
zomreli
zomrelo
zomrie
zomriet
zone
zoo
zoolo
zoologicka
zopa
zopakoval
zor
zora
zoradene
zorganizoval
zorn
zorne
zoro
zorom
zorov
zoru
zory
zos
zosadeny
zosiln
zoskupeni
zoskupenia
zoskupenie
zosnule
zosnuly
zosnutia
zosoba
zost
zosta
zostal
zostala
zostali
zostalo
zostane
zostat
zostava
zostave
zostaveny
zostavil
zostavovatel
zostavy
zostreleny
zostrelil
zostu
zostup
zotrvac
zotrval
zou
zov
zova
zove
zovej
zovs
zovy
zoz
zozna
zoznam
zozname
zoznamoch
zoznamov
zoznamu
zoznamy
zpe
zpf
zpi
zpra
zr
zra
zrac
zrak
zrakom
zraku
zraky
zraneni
zranenia
zranenie
zraneniu
zraneny
zranil
zranitel
zrazu
zrejme
zrekons
zretel
zriad
zriadena
zriadene
zriadeni
zriadenia
zriadenie
zriadeny
zriadil
zriadili
zriadit
zriedka
zriedkave
zriedkavejs
zriedkavo
zriedkavy
zrkadla
zrkadlo
zrna
zrod
zrode
zrodila
zrovnopra
zrozumitel
zru
zruc
zrus
zry
zs
zsa
zse
zsef
zska
zske
zskeho
zskej
zski
zsko
zskom
zskou
zsku
zsky
zskych
zskym
zskymi
zsoche
zssk
zssr
zt
zu
zub
zuba
zubov
zuby
zuje
zuju
zum
zur
zus
zuz
zuzana
zuzany
zv
zva
zvami
zvana
zvane
zvanej
zvanom
zvany
zvaz
zve
zvel
zver
zverejn
zverejnene
zverejneni
zverejneny
zverejnil
zverejnila
zveri
zveril
zvetra
zvezda
zvi
zviditel
zviera
zvierat
zvierata
zvieratami
zvisle
zvla
zvnu
zvoch
zvola
zvolal
zvolen
zvolena
zvolene
zvoleni
zvolenie
zvolenska
zvolenskej
zvolensky
zvoleny
zvolil
zvolila
zvolili
zvolit
zvom
zvon
zvonc
zvonica
zvonice
zvonku
zvonovitou
zvony
zvoslovie
zvoslovne
zvov
zvra
zvrchovanost
zvu
zvuc
zvuk
zvukom
zvukov
zvukova
zvukove
zvukovy
zvuku
zvuky
zvy
zvyc
zvyk
zvyklosti
zvykne
zvyknu
zvykom
zvyky
zvys
zy
zz
{
|
}
~
¡
£
§
¨
©
«
¬
­
®
¯
°
±
²
³
´
µ
·
¹
º
»
¼
½
¿
×
ß
æ
ø
ı
ł
ŋ
ɐ
ɑ
ɔ
ɕ
ə
ɛ
ɡ
ɪ
ɪɪ
ɹ
ʃ
ʃɲi
ʊ
ʌ
ʒ
ʰ
ʲ
ʷ
ʹ
ʻ
ʼ
ʾ
ʿ
ˁ
ˇ
ˈ
ˌ
ː
˙
˚
̀
́
̂
̃
̄
̆
̇
̈
̉
̊
̋
̌
̑
̓
̔
̕
̚
̛
̝
̞
̠
̣
̥
̦
̧
̨
̩
̪
̮
̯
̱
̸
̹
͂
͈
͡
΄
α
ας
β
γ
δ
ε
ευ
ζ
η
θ
ι
κ
λ
μ
ν
ξ
ο
π
ρ
ς
σ
τ
της
υ
φ
χ
ψ
ω
ϕ
ϱ
ϵ
а
аб
б
в
г
д
е
ектау
ж
з
и
к
л
м
н
на
о
п
по
р
россии
с
село
спіс
т
у
украі
ф
х
ц
ч
ъ
ь
энциклопедия
ю
я
і
ְ
ִ
ַ
ָ
ּ
א
ב
ה
י
ל
ר
ש
ا
ب
ة
ت
ج
ح
د
ر
س
ش
ص
ط
ع
ـ
ف
ق
ك
ل
م
ن
ه
و
ى
ي
ً
ٌ
َ
ُ
ِ
ّ
ْ
ٓ
ٔ
ٕ
ٰ
ނ
ރ
ކ
އ
މ
ފ
ދ
ަ
ާ
ި
ު
ޫ
ެ
ް
ं
क
त
द
न
प
ब
म
र
ल
स
ह
ा
ि
ी
ु
े
ो
्
া
่
្
​
‎
‐
‑
‒
–
—
―
‖
‘
’
‚
“
”
„
†
‡
•
…
‰
′
″
›
‿
⁄
⁡
€
ℏ
№
™
ℵ
←
↑
→
↓
↔
↘
↦
↷
⇌
⇒
⇔
∀
∂
∇
∈
∑
−
∗
∘
∞
∣
∧
∨
∩
∪
∫
∴
∼
≈
≡
≤
≥
⊆
⋅
⋮
⋯
③
④
⑦
─
│
●
♀
♂
♠
♣
♥
♦
♭
⟨
⟩
⟶
⺀
⺄
⺆
⺈
⺊
⺌
⺕
⺝
⺸
⺼
⿰
⿱
⿲
⿳
⿴
⿵
⿶
⿷
⿸
⿹
⿺
⿻
、
「
」
〢
い
う
お
か
き
く
さ
し
す
た
ち
つ
て
と
な
に
の
は
ひ
ま
み
も
ら
り
る
を
゙
゚
ア
ィ
イ
ウ
オ
カ
キ
ク
コ
サ
シ
ス
タ
チ
ッ
テ
ト
ナ
ニ
ハ
ヒ
フ
ヘ
ホ
マ
ミ
ム
ャ
ュ
ユ
ラ
リ
ル
レ
ロ
ン
・
ー
㇁
㇂
㇄
㇇
㇈
㇉
㇓
㐁
㐄
㐅
㐌
㐫
㐬
㐭
㐮
㐱
㑒
㒵
㒸
㒼
㓁
㓞
㔾
㕛
㕣
㖾
㘝
㚅
㚇
㚔
㚘
㝉
㝡
㝴
㝵
㞋
㞢
㞷
㠩
㠭
㠯
㡀
㡭
㡿
㢲
㢴
㣇
㣺
㥯
㪅
㫄
㫐
㫒
㫺
㬅
㬎
㬥
㬰
㲋
㳄
㷠
㸒
㸚
㸦
㼌
㼲
㽞
㿟
䀠
䂞
䍃
䏍
䒑
䖍
䖒
䖝
䖵
䙴
䚻
䜌
䝿
䡛
䧹
䪞
一
丁
丂
七
丄
丅
丆
万
丈
三
上
下
丌
不
与
丏
丐
丑
专
且
丕
世
丘
丙
业
东
丞
丢
丣
两
严
並
丨
丩
个
丫
丬
中
丮
丰
丱
串
丵
丶
丷
丸
丹
为
主
丽
丿
乀
乂
乃
久
乆
乇
么
义
之
乌
乍
乎
乏
乐
乑
乔
乖
乗
乘
乙
乚
乛
乜
九
乞
也
习
乡
乳
乾
亀
亅
了
亇
予
争
事
二
亍
于
亏
亐
云
互
亓
五
井
亘
亚
亜
亞
亟
亠
亡
亢
交
亥
亦
产
亨
亩
享
京
亭
亮
亯
亰
亲
亳
亶
亷
人
亻
亼
亾
仁
今
介
仌
从
仐
仑
仒
仓
仕
他
付
仝
代
令
以
任
企
伊
伏
伐
休
会
伯
但
位
何
佘
余
作
佥
使
來
侈
侌
侖
侯
侵
便
保
俞
信
修
倉
倍
候
倠
備
僉
僕
儿
兀
允
兂
元
兄
充
兆
兇
先
光
兊
克
兌
免
兑
兒
兓
兔
党
兜
兟
入
全
兩
兪
八
公
六
兮
兰
共
关
兵
其
具
典
兹
兼
冀
冂
冃
冄
内
冈
冉
冊
冋
册
再
冎
冏
冐
冒
冓
冖
冗
冘
军
农
冝
冡
冥
冫
冬
冷
几
凡
凢
凵
凶
凷
凸
凹
出
函
凾
刀
刁
刂
刃
刄
刅
分
切
刍
刑
刕
刖
列
刘
则
初
別
利
别
到
制
刺
則
削
剌
前
剡
剽
劉
力
功
加
劦
助
劫
劳
劵
勃
勇
勉
勒
動
務
勞
勤
勹
勺
勻
勾
勿
匀
匂
包
匆
匈
匊
匋
匍
匕
化
北
匚
匝
匡
匪
匱
匸
匹
区
医
匽
匿
區
十
卂
千
卄
卅
卆
升
午
卉
半
卌
华
卑
卒
卓
单
卖
南
卜
卝
卞
占
卡
卢
卣
卤
卦
卩
卪
卬
卯
印
危
即
却
卵
卷
卸
卻
厂
厃
厄
历
厈
厉
厌
厓
厘
厚
原
厤
厥
厨
厭
厲
厶
厷
厸
去
厼
厽
叀
参
參
叅
又
叉
及
友
双
反
叐
发
叒
叔
叕
取
受
叚
叜
叟
口
古
句
另
叩
只
召
可
台
叱
史
右
叵
号
司
叹
吂
各
吅
合
吉
吊
吋
同
名
后
吏
向
吕
君
吝
吞
否
含
启
吳
吴
吹
吾
呂
呆
呈
告
员
呙
周
命
咅
和
咎
咠
咢
咨
咸
咼
哀
品
哉
員
哥
哲
唐
商
啇
問
啚
啬
啻
善
喜
喬
單
喿
嗇
噩
嚴
囊
囗
囘
囙
囚
四
回
囟
因
囧
囬
困
囱
囷
固
国
圂
圅
國
圍
圓
土
圡
圣
圥
在
圭
地
圶
圼
坐
坒
坚
坴
垂
型
垔
垚
埀
埋
城
埶
執
基
堂
堅
堆
堇
堯
塞
墨
壘
士
壬
壯
声
壳
壴
壹
壺
壽
夂
处
夅
夆
备
夊
夋
夌
复
夏
夒
夕
外
夗
夘
多
夜
夢
大
夨
天
太
夫
夬
夭
央
失
夲
头
夷
夸
夹
夻
夾
奂
奄
奇
奈
奉
奎
奏
奐
契
奓
奔
奚
奞
奠
奢
奥
奭
女
奴
奻
好
如
妄
妙
妟
妥
妻
妾
姑
委
姜
威
娄
婁
婴
嬰
嬴
子
孑
孔
孕
孖
字
存
孚
孛
孝
孟
季
孤
学
孫
孱
學
宀
宁
宂
它
宅
宇
守
安
宋
完
宏
宓
宗
官
定
宛
宜
宝
客
宣
室
宮
宰
害
家
容
宾
宿
寄
寅
密
富
寒
察
寧
審
寫
寬
寮
寸
对
寺
寻
寽
対
寿
封
尃
射
将
將
專
尉
尊
尋
尌
對
小
少
尒
尓
尔
尖
尗
尚
尞
尢
尣
尤
尧
尨
尭
就
尸
尹
尺
尻
尼
尽
尾
尿
局
居
屈
屋
屎
屏
屑
展
屖
屚
属
屠
屡
屬
屮
屯
屰
山
屵
屾
岁
岂
岑
岡
岩
岳
岸
峯
島
崇
崑
崔
崖
崙
崩
嵬
嶲
巂
巛
川
州
巟
巠
巢
巤
工
左
巧
巨
巩
巫
差
己
已
巳
巴
巷
巸
巽
巾
巿
帀
市
布
希
帚
帛
帝
带
師
席
帶
常
干
平
年
幵
并
幷
幸
幺
幻
幼
幽
幾
广
広
庄
床
底
店
庚
府
度
庫
庭
庶
康
庸
廉
廌
廛
廣
廩
廴
延
廷
建
廾
廿
开
弁
弃
弄
弇
弋
式
弓
弔
引
弗
弘
弜
弟
弥
弦
弱
張
強
强
彊
彌
彎
彐
彑
当
彔
录
彖
彗
彡
形
彥
彦
彧
彭
彳
役
彼
往
待
律
徒
得
徙
從
復
微
徳
徵
心
忄
必
忌
忍
志
忝
忠
忩
快
念
忽
忿
思
怠
急
怱
恆
恒
恩
恭
息
悉
患
悤
悲
悶
惠
惡
惢
愁
愈
意
愛
感
慈
慧
慮
憂
憲
應
戀
戈
戉
戊
戋
戌
戍
戎
成
我
戒
戔
或
戚
戠
戢
戦
截
戲
戶
户
戹
戼
戾
房
所
扁
扇
手
扌
才
打
托
执
承
折
拉
拜
拿
掌
推
提
摩
支
攴
攵
收
攸
改
放
政
敄
敏
敕
敖
敗
敝
敞
敢
散
敦
敫
敬
数
敷
數
斂
文
斉
斊
斗
斤
斥
斩
斬
斯
新
方
於
施
斿
旁
旋
族
无
旡
既
旣
日
旦
旧
旨
早
旬
旱
旲
时
旾
昆
昇
昌
昍
明
昏
易
昔
昗
昜
星
春
昬
是
昱
昴
昷
時
晃
晋
晏
普
景
晶
智
暑
暴
曇
曩
曰
曲
曳
更
曷
書
曹
曼
曾
替
最
朁
會
月
有
朋
服
朔
朕
朗
望
朝
木
朩
未
末
本
札
朮
术
朱
朵
朶
朿
杀
杏
杜
束
条
来
東
杲
杳
松
析
林
枚
果
枝
枲
枼
某
柔
查
柬
柰
柴
栗
株
桀
桑
桼
梁
條
梟
梨
棘
棠
棥
森
楚
業
楽
榮
樂
樊
欠
次
欣
欮
欲
欶
欽
款
歆
歇
歌
歛
止
正
此
步
武
歨
歪
歮
歯
歰
歲
歴
歷
歸
歹
歺
死
殳
段
殷
殸
殹
殺
殻
殿
毋
毌
母
每
毒
比
毕
毚
毛
毳
氏
氐
民
气
氣
水
氵
氶
氷
永
氺
氾
求
汝
汞
江
沃
沓
沙
沝
河
泉
法
波
泣
泥
泰
洛
洪
活
派
流
浦
浪
浮
海
淡
淮
清
渚
渠
湯
滿
漸
火
灬
灭
灰
灵
灷
炅
炎
炏
炗
炙
炭
為
烈
烏
烝
焉
無
焦
焱
然
煞
熊
熏
燕
營
燮
爪
爫
爭
爯
爰
爱
爲
爵
父
爻
爽
爾
爿
片
牙
牚
牛
牜
牟
牢
牧
牪
牽
犀
犬
犭
犮
狂
狄
狊
独
狺
猋
猒
猪
献
獻
玄
率
玉
王
玟
玨
珎
班
琴
瑟
瑩
瓜
瓦
甘
甚
生
産
用
甫
甬
田
由
甲
申
电
甶
男
甸
甹
画
甾
畀
界
畏
畐
留
畜
畟
畢
畧
畨
番
畫
異
畱
當
畺
畾
疊
疋
疌
疑
疒
疾
癶
癸
癹
登
發
白
百
皀
皃
的
皆
皇
皋
皐
皕
皮
皷
皿
盃
盆
盇
盈
益
盍
盎
监
盒
盖
盛
盡
監
盤
盧
目
直
相
盾
省
眇
眉
看
県
眔
眞
真
眷
眼
眾
着
睘
睪
睿
瞏
瞢
瞿
矍
矛
矞
矢
矣
知
矦
短
石
破
碎
磊
磨
示
礻
礼
社
神
祟
票
祭
禀
禁
禸
禹
禺
离
禽
禾
禿
秀
秃
秉
秋
科
秝
秦
移
稟
穀
穌
穴
究
穹
空
穿
突
窄
窒
立
竒
竜
竝
竟
章
童
竹
笑
笠
筆
等
答
箕
算
箴
節
篤
篭
米
粉
粛
粟
粤
粦
粲
糞
糸
糹
系
約
納
素
索
紫
累
細
絜
絫
絲
維
綿
縣
繇
纍
纟
缶
网
罒
罔
罕
罗
罙
罡
罢
罪
署
罷
羅
羊
羌
羍
美
羔
羕
羗
羞
羡
羣
群
義
羲
羸
羽
翁
翏
習
翕
翟
翠
翼
老
耂
考
者
耆
而
耎
耑
耒
耳
耴
耶
耷
聂
聊
聖
聚
聶
聿
肀
肃
肅
肉
肖
肙
肥
肩
肯
育
肴
胃
背
胡
胥
能
脊
脩
膚
臣
臤
臧
自
臬
臭
臯
臱
至
致
臺
臼
臽
臾
臿
舀
舂
舄
與
興
舉
舌
舍
舛
舜
舞
舟
般
艦
艮
良
色
艸
艹
艾
芒
芔
芬
芮
花
芳
芺
芻
苔
苗
苟
若
苦
英
茶
茸
荅
草
荒
荣
荼
莆
莧
莫
莽
菆
菊
菐
華
萬
落
葉
著
葛
董
葵
蒙
蒦
蒼
蓋
蓬
蓺
蔑
蔡
蕉
蕭
薄
薛
薦
薰
藍
藏
藤
藥
蘭
虍
虎
虐
虒
虔
處
虖
虗
虘
虚
虛
虜
虞
虫
虽
蚤
蚩
蜀
蜜
蟲
蠡
血
行
衍
衛
衣
衤
表
衮
衰
袁
袞
褭
褱
襄
襾
西
覀
要
覃
見
規
覓
覧
親
覽
见
角
解
言
訁
訇
計
詹
誩
諸
讠
谷
豆
豈
豊
豐
豕
豖
豙
象
豦
豩
豪
豸
貇
貝
貞
貟
負
貢
貧
貪
貫
責
貳
貴
買
費
賁
資
賈
賏
賓
賔
賛
賞
賢
賣
質
賴
贊
贝
贡
责
贯
贲
贵
赖
赞
赤
赦
走
越
足
路
蹇
身
躬
車
軍
軎
軟
輦
车
辛
辜
辟
辥
辰
辱
農
辵
辶
边
达
过
近
连
迷
追
退
送
逆
逐
通
速
造
逢
連
逮
進
遀
遂
過
道
達
遣
適
遷
遺
邊
邑
邕
那
邦
邪
郎
郡
部
郭
都
鄉
酉
酋
配
酓
釆
采
里
重
野
量
金
釒
錢
钅
長
镸
长
門
閃
閉
開
閏
閑
閒
間
閔
閵
閻
闌
门
间
闷
阑
阜
阝
阿
降
陳
隆
隊
隋
隡
隨
隱
隶
隹
隺
隻
隼
隽
难
雀
雁
集
雈
雋
雍
雐
雔
雙
雚
雜
雝
離
難
雨
雩
雪
雲
零
雷
需
霍
霜
霝
霞
霸
靈
靑
青
非
靡
面
靣
革
韋
韦
韭
韯
韱
音
頁
頃
項
須
頗
頡
頻
顛
页
風
风
飛
飞
食
飠
養
饣
首
香
馬
馮
駦
马
骨
高
髟
鬥
鬯
鬲
鬼
魚
魯
鮮
鱼
鲁
鳥
鳳
鸟
鹵
鹿
麃
麗
麥
麦
麻
黃
黄
黍
黎
黑
黒
黨
黹
黽
黾
鼎
鼓
鼠
鼻
齊
齋
齐
齒
齿
龍
龙
龜
龟
龠
龰
龱
龴
龵
龶
龷
龸
龹



者
艹
﻿
！
（
）
？
～
�
𠀁
𠀃
𠀆
𠀉
𠀎
𠀐
𠁁
𠁣
𠂆
𠂇
𠂈
𠂉
𠂊
𠂋
𠂎
𠂒
𠂔
𠂛
𠂡
𠂢
𠂤
𠂬
𠂭
𠂹
𠃊
𠃋
𠃌
𠃍
𠃎
𠃑
𠃓
𠃔
𠃜
𠄌
𠄎
𠄠
𠄢
𠆢
𠆥
𠇍
𠈌
𠌵
𠓜
𠔉
𠔥
𠔼
𠔽
𠔿
𠕀
𠕁
𠕋
𠘧
𠘨
𠙻
𠙼
𠚏
𠚒
𠚤
𠚪
𠣏
𠤎
𠤕
𠥓
𠦄
𠦑
𠦝
𠧒
𠧗
𠧪
𠩺
𠪚
𠫓
𠫔
𠫤
𠬛
𠬝
𠬞
𠬢
𠬤
𠬶
𠮛
𠮦
𠮷
𠯑
𠱠
𠳮
𠷎
𡈼
𡉀
𡉵
𡌥
𡍮
𡏳
𡕒
𡕩
𡕰
𡖅
𡗗
𡗜
𡘆
𡘤
𡧱
𡨄
𡩧
𡬠
𡭽
𡰣
𡰥
𡰪
𡰯
𡰱
𡷈
𡸁
𡿨
𡿩
𡿪
𡿺
𢀖
𢀛
𢀩
𢁙
𢆉
𢆰
𢆶
𢇁
𢇇
𢉖
𢌬
𢌿
𢏚
𢑑
𢑚
𢖻
𢙣
𢛳
𢦏
𢦒
𢧵
𢼄
𢾕
𣁋
𣄼
𣅀
𣅽
𣍘
𣎳
𣎵
𣏋
𣏼
𣗥
𣥂
𣥖
𣦵
𣦼
𣧄
𣪊
𣪠
𣬉
𣳾
𣶒
𤇾
𤊽
𤐫
𤓰
𤔔
𤕨
𤣩
𤰇
𤰔
𤰞
𤴓
𤴔
𤽄
𥁑
𥁕
𥃦
𥃩
𥃭
𥇡
𥑟
𥘅
𥘈
𥝢
𥫗
𥱡
𦈢
𦉪
𦉬
𦉼
𦍌
𦍒
𦎧
𦐇
𦓔
𦔮
𦘒
𦙃
𦚏
𦣝
𦣞
𦣻
𦥑
𦥔
𦥯
𦨉
𦭝
𦰩
𧆞
𧈧
𧘇
𧰨
𧴪
𧴮
𧵩
𧾷
𨸏
𨾴
𩙿
𩠐
𩫏
𩵋
𪉷
𪜀
𪟽
𪠲
𪩲
𫇦
𫔭
𫜸
𫝀
𫠣
𫠩
𫢉
𫥞
𫩏
𫩠
𫪡
𫲽
𫶧
𬀷
𬐘
𬗌
𬙙
𬛸
𬜯
𬟩
𬯁
𬴘
𬺻
𬼉
𬼖
𭀰
𭁈
𭁨
𭅰
𭑈
𭕄
𭗼
𭤨
𭥫
𭻾
𮅕
𮊿
𮍌
𮍏
𮓗
𮥼
𮧮
廾
𰀁
𰀄
𰀈
𰀉
𰀕
𰀠
𰀡
𰀢
𰀪
𰁜
𰃮
𰆊
𰆘
𰋙
𰕎
𰢴
𰧭
𰯲
01--
02--
03--
04--
05--
06--
07--
08--
09--
104--
105--
106--
107--
110--
111--
112--
114--
116--
119--
140--
142--
144--
146--
216--
233--
500--
67--
68--
69--
71--
72--
73--
74--
75--
76--
77--
78--
780--
79--
790--
791--
80--
800--
801--
802--
807--
81--
810--
811--
82--
820--
821--
822--
83--
830--
831--
832--
84--
840--
841--
842--
85--
850--
852--
858--
86--
860--
861--
87--
879--
88--
880--
882--
89--
890--
90--
900--
901--
902--
906--
91--
910--
92--
920--
93--
930--
94--
940--
95--
950--
96--
960--
966666--
967--
969--
97--
970--
978--
978954--
98--
980--
99--
990--
a--
aa--
ab--
aba--
abd--
abe--
abi--
abs--
absor--
absur--
ac--
acci--
ace--
ach--
acou--
act--
ad--
ada--
adam--
adapt--
ade--
adi--
adn--
adop--
adov--
adres--
advent--
ae--
aero--
aerody--
af--
afa--
afga--
afro--
ag--
aga--
age--
ago--
agricul--
agro--
agu--
ah--
aha--
ai--
air--
ais--
aj--
ak--
aka--
akc--
akcep--
akred--
akredito--
akro--
aku--
akva--
al--
ala--
ale--
alego--
aleks--
alerg--
alge--
algebri--
algo--
algorit--
ali--
all--
alo--
als--
alt--
alta--
alu--
am--
ama--
ambul--
ame--
amf--
ami--
amo--
amp--
amphi--
an--
ana--
anarc--
anc--
and--
anda--
andezi--
ane--
anekto--
ang--
angio--
anglo--
ani--
ann--
ano--
anorg--
ans--
ansko--
ant--
anthro--
anti--
antro--
anu--
any--
ao--
ap--
apa--
api--
apl--
aplik--
apol--
apos--
appli--
apu--
aqu--
aqua--
ar--
ara--
arab--
arc--
archi--
are--
arge--
ari--
aristo--
aristok--
aristokrat--
aritm--
arkt--
arm--
arnogu--
aro--
arov--
ars--
art--
arte--
ary--
as--
ase--
asfal--
ash--
asi--
asocio--
asoprie--
asp--
assas--
asses--
ast--
asti--
astro--
asymet--
at--
ata--
ate--
ati--
atlan--
ato--
atrak--
atram--
aty--
au--
auck--
audi--
augs--
aus--
aut--
autent--
auto--
autobio--
av--
ava--
avant--
ave--
avic--
avo--
ax--
ay--
az--
aza--
b--
ba--
bab--
bac--
bach--
back--
bad--
bag--
bahe--
bahn--
baj--
bal--
bald--
ball--
bam--
ban--
band--
bandy--
bank--
bapt--
bar--
barcelo--
bas--
baski--
bass--
bat--
batiz--
bauh--
bay--
baz--
bb--
bd--
be--
bea--
beat--
bec--
beh--
bei--
bej--
bejzba--
bel--
belet--
belo--
ben--
ber--
bern--
bert--
bes--
bet--
bez--
bh--
bi--
bia--
biatl--
bibli--
bibliog--
bibliograf--
bicy--
bie--
bielo--
big--
bil--
bila--
bin--
bio--
biographi--
bis--
bit--
bk--
bl--
bla--
black--
ble--
bli--
blo--
bloom--
blu--
bm--
bo--
bob--
boc--
bod--
bog--
boh--
boj--
boja--
bol--
boli--
bom--
bombard--
bon--
bor--
bos--
bosnia--
bott--
bou--
bourbon--
bov--
box--
br--
bra--
braban--
brad--
bran--
brat--
bre--
brez--
bri--
brigh--
brigi--
brnia--
bro--
bru--
brus--
bry--
brzd--
bs--
bu--
bubn--
buc--
buch--
bud--
buddh--
buk--
bul--
bulga--
bunde--
bur--
burg--
burgund--
burk--
bus--
but--
buzen--
by--
byrok--
byt--
byzan--
c--
ca--
cal--
call--
cam--
can--
cap--
car--
carcha--
cari--
cas--
casa--
cat--
cay--
cc--
cd--
ce--
cele--
celo--
cen--
certif--
cesto--
cez--
ch--
cha--
champ--
chan--
chaot--
char--
charac--
chari--
chark--
che--
chem--
cher--
chi--
chl--
chla--
chlo--
cho--
chobo--
chod--
chra--
chrb--
chro--
chrys--
chu--
chvoj--
chy--
ci--
ciev--
cim--
cinci--
cis--
cit--
ck--
cl--
cla--
clay--
cle--
cm--
cn--
co--
coa--
coelo--
coll--
collec--
colo--
colu--
com--
come--
con--
conce--
conse--
copel--
copy--
corb--
cord--
corn--
corne--
corp--
corr--
cos--
cou--
cov--
cover--
cow--
cr--
craw--
cre--
cro--
croa--
crom--
crusa--
cs--
ct--
cti--
cu--
cum--
cur--
cut--
cv--
cy--
cycl--
cykl--
cykli--
cyklot--
cyper--
cz--
d--
da--
dab--
dac--
dag--
daj--
dal--
dam--
dan--
dar--
das--
dat--
data--
daugh--
dav--
dax--
day--
db--
dc--
de--
dea--
dec--
dedi--
def--
defor--
dei--
dej--
deje--
dekla--
dekoro--
del--
deli--
delo--
dem--
demo--
demont--
den--
depen--
der--
des--
det--
detek--
deter--
devel--
dex--
dez--
dh--
di--
dia--
diagnosti--
did--
die--
diff--
digi--
dil--
dimen--
dimit--
din--
dio--
diri--
dis--
dislok--
dit--
div--
dive--
dj--
dk--
dlho--
dlo--
dm--
dne--
dni--
dnu--
do--
dob--
dobu--
doc--
doch--
dod--
doden--
dog--
dohl--
doho--
doj--
dok--
doka--
dol--
dolno--
dolom--
dom--
dominan--
don--
dor--
dora--
dos--
dosah--
dospie--
dot--
dou--
dov--
dovie--
down--
doy--
doz--
dozrie--
dp--
dr--
dra--
draho--
dre--
drevo--
dri--
dro--
dru--
ds--
du--
dual--
dub--
duchov--
dukli--
dur--
dus--
dv--
dvads--
dve--
dvoj--
dy--
dym--
dz--
e--
ea--
eb--
eber--
ec--
eccle--
ech--
echo--
econo--
ed--
edi--
edit--
edo--
edu--
ee--
ef--
eg--
egej--
eh--
ei--
ein--
eisen--
ej--
ek--
eklek--
eklipt--
eku--
el--
ela--
ele--
elektri--
elektro--
elf--
eli--
elimin--
elipt--
em--
ema--
eme--
emi--
empi--
emysl--
en--
ency--
end--
ene--
energ--
eng--
engel--
ent--
entro--
eo--
eobec--
ep--
epi--
equa--
equi--
er--
era--
erb--
ere--
eri--
ero--
ert--
eru--
ery--
es--
esko--
eskom--
esperant--
est--
et--
eta--
etabl--
ete--
ethi--
ethn--
eti--
eu--
eucha--
eukaryo--
euro--
eury--
euse--
ev--
eva--
evaku--
evan--
evangel--
eve--
ever--
evro--
ex--
exce--
exot--
expan--
expo--
exten--
extra--
ey--
ez--
f--
fa--
fac--
faer--
fair--
fakt--
fal--
fan--
far--
fas--
fasci--
fat--
favo--
fe--
fed--
fej--
feld--
fer--
fero--
ff--
fi--
fia--
figu--
fil--
filo--
fin--
fire--
fis--
fit--
fitz--
fix--
fjo--
fk--
fl--
fla--
flex--
flo--
florb--
floren--
fm--
fn--
fo--
folk--
fonet--
fono--
font--
for--
form--
foto--
four--
fox--
fra--
frame--
fre--
fred--
free--
fres--
fri--
fro--
fru--
fs--
ft--
fu--
fun--
fus--
fy--
g--
ga--
gal--
galakt--
gar--
garant--
garb--
gard--
garr--
gas--
gastro--
gaz--
gb--
ge--
gej--
gel--
gen--
gene--
gentl--
geo--
geomet--
ger--
gerlach--
ges--
get--
gh--
gi--
giga--
gis--
giu--
gl--
glau--
glo--
glouc--
gly--
glyce--
gm--
gn--
gno--
go--
god--
gold--
gom--
gond--
gorg--
got--
gott--
gr--
gra--
gramo--
gre--
green--
greno--
gro--
gru--
gs--
gu--
guar--
guate--
gue--
gul--
gun--
guy--
gy--
h--
ha--
habs--
habsburg--
hac--
had--
haj--
hal--
ham--
han--
hand--
hanni--
hanze--
happ--
har--
harb--
hard--
harmo--
hart--
has--
hat--
hatch--
hava--
hay--
hd--
he--
head--
heavy--
hec--
heideg--
hein--
hej--
hel--
helen--
helio--
hell--
her--
herak--
hercu--
hermet--
hesen--
heter--
hex--
hey--
hi--
hier--
high--
him--
hindu--
hip--
his--
hit--
hkupe--
hl--
hla--
hlad--
hli--
hliad--
hloda--
hlu--
hm--
hmo--
hn--
hnie--
hnoj--
ho--
hod--
hodi--
hodno--
hohe--
hol--
hom--
home--
homo--
hon--
hontia--
hop--
hor--
hore--
hornou--
hos--
hot--
hou--
how--
hr--
hra--
hrad--
hrano--
hrdin--
hre--
hri--
hro--
hron--
hrvat--
hs--
hu--
hubb--
human--
humb--
humor--
hump--
hun--
hung--
hus--
husl--
hy--
hybn--
hydro--
hydroxy--
hygie--
hyper--
i--
ia--
ial--
ian--
iar--
ias--
ib--
ic--
ice--
ich--
id--
ide--
ident--
identif--
idov--
ie--
ierno--
if--
ig--
ign--
ignoro--
ii--
ij--
ik--
ika--
il--
ili--
illu--
ilu--
ilustr--
im--
ima--
imi--
implement--
impli--
impoz--
imu--
imuno--
in--
inc--
inclu--
indi--
indu--
ine--
infan--
infe--
infi--
infin--
infl--
info--
inform--
infra--
ing--
inhi--
ini--
inici--
inka--
inn--
ino--
ins--
instru--
int--
integ--
inter--
inver--
inves--
investm--
inz--
io--
ion--
ioniz--
ip--
ir--
ira--
iraci--
iro--
iroko--
iron--
is--
isa--
iso--
ist--
it--
ita--
ite--
iu--
iv--
ive--
ivi--
ivnost--
ivo--
iz--
iza--
izoto--
j--
ja--
jablu--
jac--
jagel--
jak--
jam--
jama--
jan--
jap--
jar--
jas--
jaze--
je--
jed--
jedno--
jek--
jem--
jen--
jer--
jes--
jet--
jez--
jezu--
ji--
jilem--
jiz--
jizer--
jk--
jn--
jo--
jom--
jov--
jp--
js--
ju--
juh--
juhoa--
jun--
jur--
juri--
k--
ka--
kai--
kaj--
kal--
kalifor--
kam--
kami--
kan--
kano--
kap--
kapitu--
kar--
kara--
kardio--
karib--
karl--
karto--
kas--
kat--
kata--
kau--
kavia--
kaz--
kaze--
kb--
kc--
kde--
ke--
kel--
kem--
ken--
kend--
ker--
kes--
key--
ki--
kilog--
kim--
kin--
kir--
kirgi--
kis--
kit--
kk--
kl--
kla--
klasicisti--
klasifi--
kle--
kli--
klin--
klu--
kly--
km--
kmi--
kne--
kni--
kno--
ko--
koc--
koch--
kodifi--
kodz--
kokos--
kokp--
kol--
kola--
kole--
kolo--
koloniz--
kom--
kombi--
koment--
komo--
kompen--
komple--
kompli--
kompon--
kon--
konc--
koncent--
kone--
koni--
konkur--
konoda--
kons--
kontra--
kontro--
konver--
konz--
koordin--
kop--
kopa--
kor--
kora--
korek--
korfb--
kos--
kosod--
kost--
kou--
kov--
kovoj--
koz--
kozmet--
kr--
kra--
kraj--
kras--
kre--
kres--
kri--
kris--
kriti--
kro--
krov--
kru--
kry--
ks--
kt--
ku--
kuc--
kultivo--
kunst--
kup--
kur--
kus--
kuz--
kv--
kva--
kvalifi--
kvant--
kvet--
kw--
ky--
kybern--
kysuc--
kyva--
l--
la--
lab--
labor--
lac--
lad--
lakro--
lamb--
lan--
land--
las--
lat--
lau--
law--
lay--
laz--
lc--
ld--
le--
lea--
lec--
led--
leice--
lek--
lem--
len--
leo--
leon--
lep--
lepi--
ler--
les--
let--
leto--
lev--
lex--
ley--
lez--
lf--
lg--
li--
lia--
lib--
lic--
lid--
lie--
lies--
life--
lik--
lim--
limit--
lin--
ling--
lingu--
lis--
lit--
lito--
liturgi--
liv--
lju--
lk--
ll--
lm--
lno--
lo--
lode--
log--
logo--
loh--
lok--
lom--
lombar--
long--
los--
lot--
lotri--
lou--
lov--
ls--
lt--
lto--
lu--
luc--
lunet--
lurd--
lv--
ly--
lymfat--
lymfocy--
m--
ma--
mac--
macro--
mad--
mag--
magel--
mah--
mai--
maj--
majet--
mak--
makro--
mal--
mala--
mali--
malo--
mam--
man--
manipu--
map--
mar--
marge--
mari--
marx--
mas--
mat--
mate--
mathe--
maur--
mautha--
max--
may--
maz--
mb--
mc--
md--
me--
meand--
measu--
mec--
mechani--
med--
medi--
medzi--
mega--
mel--
melanc--
melo--
men--
mengus--
mer--
mes--
met--
meta--
meteo--
metro--
mety--
mexi--
mez--
mi--
mia--
mic--
micro--
mid--
mie--
mier--
mig--
mikro--
mikrosko--
miku--
mil--
mile--
mili--
milo--
mimo--
min--
minc--
mini--
mir--
mis--
mit--
mix--
mjan--
mk--
ml--
mla--
mlyn--
mm--
mma--
mn--
mni--
mnoho--
mo--
moc--
mod--
mode--
modif--
modro--
mohu--
mohy--
moi--
mok--
mol--
mon--
mongo--
mono--
monote--
mont--
monte--
moon--
mor--
mos--
moto--
motor--
mou--
mov--
moy--
moyze--
moz--
mozai--
mp--
mr--
mra--
ms--
msko--
mu--
much--
multi--
mun--
mus--
my--
myjav--
mys--
mz--
n--
na--
nac--
nad--
nadstav--
naft--
nahra--
nahradz--
nahro--
nai--
naj--
najc--
naku--
nalieh--
name--
namon--
nan--
napl--
nar--
nara--
narod--
naroz--
naru--
nas--
nasa--
nasadz--
nasledo--
nasmer--
nat--
naz--
nb--
nc--
nd--
nde--
ne--
nea--
nec--
ned--
nedo--
nedos--
nej--
nejed--
nek--
nekom--
nekontro--
nekro--
nekvalifi--
nel--
nem--
neme--
nena--
nene--
neo--
neob--
neobmed--
neobs--
nepo--
nepre--
nepri--
ner--
nera--
nereali--
nero--
neroz--
nes--
neskoro--
nesti--
net--
netvo--
neu--
neuro--
neve--
nevy--
nevyhnu--
new--
news--
newyo--
nez--
neza--
nezi--
nf--
ng--
ni--
nia--
nie--
nig--
nik--
nim--
nin--
nio--
nis--
nit--
nizoz--
nk--
no--
nobu--
noc--
nom--
non--
nor--
nord--
norwe--
nos--
not--
note--
nou--
nov--
novi--
novo--
now--
nr--
ns--
nt--
nu--
nukle--
nukleot--
nus--
ny--
nyi--
o--
oa--
oak--
ob--
obe--
obet--
obi--
objav--
obl--
oblie--
obmed--
obnovo--
oboh--
obohac--
oboj--
obr--
obra--
obrod--
obs--
obsad--
obser--
obsia--
obslu--
oby--
oc--
occiden--
och--
ochlad--
octa--
od--
odc--
odcud--
odda--
odhod--
odl--
odles--
odmie--
odo--
odosiel--
odpa--
odpu--
odrez--
ods--
odve--
odvod--
ody--
of--
off--
offen--
og--
oh--
ohlas--
oho--
ohodno--
ohrie--
ohroz--
oi--
oj--
ok--
okla--
oko--
oku--
ol--
old--
oli--
oly--
olymp--
olympij--
olympion--
om--
omber--
omie--
on--
ondav--
one--
ono--
ontolog--
op--
opa--
opak--
opatro--
ope--
open--
opi--
opis--
opotre--
opra--
optim--
opu--
opus--
or--
ora--
orche--
org--
ornit--
ornitolog--
oro--
orto--
os--
osa--
osamo--
osbou--
osem--
oset--
osi--
osla--
osle--
oslo--
oslobod--
osm--
osn--
oso--
ost--
osteo--
ostri--
ot--
oto--
otvor--
ou--
out--
ov--
ova--
over--
ovi--
ovo--
ox--
oxy--
oz--
ozajs--
ozbro--
ozna--
p--
pa--
pac--
pad--
padopomora--
padoslove--
pahor--
pahorkat--
pak--
pal--
palaio--
pamia--
pan--
pana--
pane--
par--
para--
pardub--
paro--
pas--
pasi--
past--
pat--
pau--
pavl--
pay--
paz--
pc--
pe--
pec--
pecia--
pecif--
pedia--
peg--
pej--
pekt--
peku--
pel--
pen--
pept--
per--
perga--
peri--
pes--
pet--
petr--
pevni--
pez--
pf--
ph--
pha--
phil--
phylog--
pi--
pia--
pic--
pie--
pies--
pigm--
pikto--
pil--
pin--
pio--
pionie--
pis--
pit--
pl--
pla--
plan--
plasti--
plat--
play--
plaz--
ple--
pli--
plnoho--
plo--
plod--
ply--
pm--
pn--
po--
pobal--
poc--
poch--
pochy--
pod--
podc--
podl--
podnec--
podoz--
podvoz--
poe--
poha--
pohl--
pohod--
pohyb--
poj--
poku--
pol--
pola--
pole--
poli--
polo--
poly--
polyg--
pom--
poma--
pomeno--
pon--
ponor--
pop--
popis--
popra--
por--
pora--
porno--
poroz--
port--
pos--
posa--
posky--
post--
posudz--
pot--
potia--
poto--
potre--
potres--
potvr--
potvrdz--
pou--
pov--
pove--
povstal--
povzbu--
poz--
pozasta--
pozem--
pozor--
pp--
pr--
pra--
pragm--
prakt--
praktiz--
pras--
prav--
pravde--
pravide--
pre--
prec--
pred--
prefero--
prehn--
prekv--
prekva--
premen--
pren--
prena--
prenes--
prepa--
preprav--
pres--
presad--
presmer--
pret--
pretransfor--
pretvo--
preve--
prezent--
pri--
priep--
priepust--
pries--
priez--
prihli--
prilie--
prirod--
pris--
pro--
prod--
propa--
prospe--
protag--
proti--
proto--
proza--
pru--
prv--
prvoli--
prvot--
ps--
pseu--
psy--
psyche--
psychiat--
psycho--
pt--
ptole--
pu--
pub--
public--
publik--
pulz--
pump--
punk--
purpur--
pus--
put--
py--
pyre--
pyro--
pytag--
q--
qua--
quali--
que--
qui--
quint--
quo--
r--
ra--
rad--
radio--
raf--
raffa--
raj--
rak--
raket--
rakou--
raky--
ral--
ram--
ran--
ranogot--
rap--
ras--
rat--
ratif--
raw--
ray--
raz--
rb--
rc--
rd--
re--
rea--
real--
rec--
recen--
recip--
red--
ref--
reflek--
refor--
regi--
regul--
reha--
rei--
reinh--
rejs--
rek--
rekla--
relik--
rem--
remes--
remi--
ren--
renom--
reprezent--
res--
ret--
retro--
retros--
rev--
revi--
rez--
rezer--
rf--
rg--
rhe--
rho--
ri--
ria--
ric--
rich--
rid--
rie--
rik--
rim--
rimav--
ris--
rit--
rk--
rm--
rn--
rni--
rno--
ro--
rob--
roc--
rock--
rod--
rodi--
rodno--
rodok--
roh--
roj--
rok--
roken--
rol--
rom--
ron--
ros--
rose--
rou--
rov--
rovno--
row--
roz--
rozdr--
rozhod--
rozosta--
rozpu--
rozta--
rozve--
rr--
rs--
rt--
ru--
rum--
run--
rus--
rwa--
ry--
rys--
rytmi--
rz--
s--
sa--
sachari--
sacr--
sad--
sah--
sal--
salzbu--
sam--
samml--
samo--
san--
sand--
sanskri--
sap--
sar--
sas--
sat--
satir--
saurop--
sauv--
sav--
savoj--
sb--
sc--
scar--
sch--
schi--
schle--
scho--
schu--
schwe--
sci--
scor--
scri--
sd--
se--
sea--
seba--
sebe--
sec--
sed--
sedem--
sedi--
sedlia--
sedmo--
see--
seiz--
sek--
sel--
seleu--
sem--
semi--
sen--
serp--
serr--
ses--
sester--
set--
sex--
sey--
sf--
sfar--
sfil--
sfor--
sformu--
sh--
she--
sher--
sho--
show--
si--
sia--
sid--
side--
sie--
sieg--
siet--
sigm--
sign--
sil--
sim--
simul--
sin--
sio--
sir--
sirot--
sis--
sit--
six--
sk--
ska--
ske--
skept--
ski--
skl--
skla--
sklad--
sklo--
sko--
skra--
skres--
skrom--
sku--
skupen--
sky--
sl--
sla--
sladk--
slang--
slavk--
sle--
sled--
sli--
slnov--
slo--
slov--
slu--
sm--
sma--
sme--
smer--
smi--
smo--
smu--
smy--
sn--
sna--
sne--
sni--
sno--
so--
sob--
sobi--
soc--
socio--
soft--
sok--
sol--
som--
some--
son--
sop--
sor--
sos--
sou--
sound--
sov--
sp--
spa--
space--
spe--
spec--
spekt--
spektros--
speleo--
spev--
spi--
spl--
spla--
splnomoc--
spo--
spojn--
spolu--
sponz--
spopulari--
spotre--
spra--
spravov--
spri--
sprisah--
spros--
sprostredk--
spu--
spy--
squa--
sr--
srb--
sri--
ss--
st--
sta--
stabili--
stan--
star--
staro--
staroho--
stav--
ste--
sti--
stimu--
stir--
sto--
stol--
stop--
str--
stra--
strati--
stravov--
strep--
strie--
strosko--
stru--
stu--
stup--
stvo--
sty--
su--
sub--
suc--
sucho--
sud--
suda--
sudet--
sue--
sul--
sum--
sumer--
sun--
super--
supplem--
sur--
sus--
sv--
sva--
sval--
sve--
svi--
svob--
swa--
swe--
swi--
sy--
sylv--
symet--
symp--
sympa--
sympati--
syn--
syr--
sz--
sza--
sze--
szo--
t--
ta--
tab--
tac--
tag--
tai--
taj--
tajer--
tak--
takz--
tal--
tali--
talo--
tam--
tan--
tanc--
tao--
tar--
tas--
tat--
tato--
tatra--
tau--
tb--
tc--
tchoukb--
te--
tec--
ted--
tehl--
tehot--
tek--
tekton--
tel--
tele--
temp--
tempera--
ten--
teo--
ter--
terc--
termody--
teror--
tes--
tetra--
tevov--
th--
tha--
the--
theo--
tho--
thy--
ti--
tia--
tic--
tie--
tik--
til--
tim--
time--
tin--
tirol--
tis--
tit--
tk--
tko--
tl--
tma--
tmavo--
to--
toka--
tokij--
tol--
tom--
toma--
ton--
top--
topog--
tor--
tou--
tov--
toxi--
tr--
tra--
tragi--
trans--
transform--
tranz--
tre--
trh--
tri--
triden--
trids--
trip--
trium--
tro--
troj--
trojd--
trojroz--
tros--
trpez--
trste--
tru--
try--
ts--
tt--
tu--
tuc--
tur--
turbo--
turi--
turki--
turn--
tv--
tvor--
tvychvs--
twa--
twe--
ty--
tyli--
typ--
typog--
tyr--
tz--
u--
ua--
ub--
ube--
ubie--
ubo--
ubovn--
uby--
uc--
uctie--
ud--
uda--
udi--
ue--
uga--
uh--
uj--
uk--
uka--
ukot--
ukr--
ukraji--
ul--
uli--
ultra--
um--
umb--
un--
una--
under--
une--
ung--
uni--
univer--
unter--
up--
upa--
upi--
uply--
upoko--
upr--
uprav--
upres--
upu--
ur--
ura--
urban--
uri--
urna--
urs--
us--
usa--
usadz--
usi--
usmr--
uspor--
ust--
usta--
ustu--
usu--
usudz--
ut--
uta--
uti--
utrp--
utvo--
uv--
uva--
uvedo--
uz--
uza--
uzatvor--
v--
va--
vac--
vai--
vaj--
vajc--
val--
vale--
van--
var--
vas--
vat--
vaz--
vd--
ve--
vec--
ved--
vedom--
vek--
vel--
vent--
vepor--
ver--
verte--
very--
ves--
vesti--
vh--
vi--
via--
viac--
vic--
vice--
vid--
video--
vidi--
vie--
vik--
vil--
vin--
vinoh--
viri--
vis--
vit--
vizi--
vk--
vl--
vla--
vlajk--
vlk--
vly--
vne--
vni--
vo--
vod--
voj--
voka--
vol--
von--
vos--
votre--
voz--
vp--
vpa--
vr--
vra--
vrch--
vre--
vrod--
vrs--
vs--
vstrek--
vti--
vu--
vy--
vyba--
vyc--
vyd--
vyhladz--
vyhn--
vyho--
vyku--
vyl--
vylia--
vylod--
vymed--
vynes--
vypa--
vypl--
vypu--
vyra--
vys--
vysa--
vyslo--
vysoko--
vyspor--
vystavo--
vystre--
vyt--
vytia--
vytrva--
vytvo--
vyz--
vyzbro--
vyzdvi--
vz--
vzbu--
vzd--
vzkries--
vznet--
vzra--
w--
wa--
wald--
war--
was--
we--
web--
wehr--
wein--
wen--
west--
whe--
whis--
whit--
wi--
wie--
wiki--
wild--
wilk--
win--
wissens--
wo--
wojc--
wolf--
wood--
word--
wu--
wy--
wł--
x--
xav--
xi--
xx--
y--
ya--
yo--
your--
yu--
yve--
z--
za--
zaba--
zabu--
zachy--
zahrie--
zajat--
zakarpa--
zako--
zakompon--
zakri--
zales--
zami--
zamr--
zane--
zaobl--
zapa--
zapi--
zapla--
zar--
zara--
zarea--
zaregist--
zaria--
zas--
zasa--
zaspie--
zasti--
zastre--
zat--
zato--
zatvo--
zau--
zaves--
zaz--
zb--
zba--
zbe--
zber--
zbie--
zbierk--
zc--
zd--
zda--
zdanl--
zdo--
zdokument--
zdravo--
ze--
zem--
zeme--
zemia--
zen--
zhli--
zhlu--
zhrn--
zhu--
zi--
zjav--
zko--
zla--
zlato--
zle--
zli--
zlikv--
zlo--
zlom--
zma--
zme--
zmi--
zmr--
zmy--
zn--
zna--
zne--
znoro--
znovu--
zo--
zobra--
zodpove--
zoh--
zoo--
zopa--
zora--
zorganiz--
zos--
zostre--
zota--
zov--
zoz--
zozbie--
zr--
zra--
zreali--
zredu--
zrka--
zru--
zs--
zt--
zu--
zub--
zur--
zuz--
zv--
zva--
zve--
zver--
zvesto--
zvi--
zvon--
zvr--
zvra--
zwe--
zwi--
zy--
đ--
ł--
ə--
ɛ--
ɡ--
ɪ--
ɾ--
ʁ--
ʃ--
ʒ--
α--
γ--
δ--
θ--
κ--
λ--
μ--
ν--
ο--
π--
ρ--
σ--
στ--
τ--
φ--
χ--
ω--
а--
б--
в--
го--
д--
з--
и--
к--
косми--
л--
м--
ма--
н--
но--
о--
п--
р--
с--
св--
ск--
со--
ст--
т--
ا--
--0
--00
--000
--001
--01
--02
--03
--04
--05
--0556
--056
--06
--07
--08
--09
--1
--10
--11
--111
--12
--13
--14
--15
--16
--17
--18
--19
--2
--20
--21
--22
--222
--2222
--23
--24
--25
--26
--27
--28
--29
--3
--30
--31
--32
--33
--333
--3333
--34
--35
--36
--37
--38
--39
--4
--40
--41
--42
--43
--44
--444
--4444
--45
--46
--47
--48
--49
--5
--50
--51
--52
--53
--54
--55
--5556
--556
--56
--57
--58
--59
--6
--60
--61
--62
--63
--64
--65
--66
--66666667
--66667
--6667
--667
--67
--68
--69
--7
--70
--71
--72
--73
--74
--75
--76
--77
--777
--7778
--778
--78
--79
--8
--80
--81
--82
--83
--84
--85
--86
--87
--88
--888
--8889
--889
--89
--9
--90
--91
--92
--93
--94
--944
--9444
--95
--96
--97
--98
--99
--a
--ab
--able
--ac
--aca
--ace
--aceho
--acej
--ach
--aci
--acia
--acich
--acie
--acom
--acou
--acu
--ad
--adka
--adky
--adol
--ador
--ads
--ae
--ag
--age
--agne
--ah
--ahnute
--ahnuty
--ai
--ail
--aine
--aj
--aju
--ak
--aka
--aki
--aky
--al
--ala
--ali
--alis
--all
--alo
--am
--ame
--ami
--an
--ana
--and
--ane
--anej
--ang
--ani
--ania
--anie
--aniu
--ano
--anou
--ant
--antov
--anu
--anus
--any
--ao
--ar
--ara
--ard
--arda
--ari
--ark
--arkti
--ary
--as
--at
--ata
--ate
--atej
--atel
--ath
--ati
--aticky
--ation
--ations
--atu
--aty
--au
--aurus
--av
--ava
--ave
--avi
--avit
--aw
--ay
--az
--aznivo
--b
--ba
--bal
--bale
--ball
--ban
--bc
--be
--beat
--behol
--ber
--berg
--bet
--bi
--bia
--bic
--bil
--bilne
--bilny
--bl
--ble
--bna
--bne
--bnej
--bni
--bnom
--bnost
--bnou
--bnu
--bny
--bo
--bor
--bot
--bou
--box
--boy
--bra
--bri
--bs
--bsd
--bsky
--bu
--buje
--burg
--burgu
--bury
--bus
--by
--c
--ca
--cal
--cami
--cano
--cat
--ce
--cea
--ceae
--ced
--ceho
--cej
--cer
--ces
--cet
--ch
--cha
--charts
--che
--ches
--chia
--chos
--cht
--chu
--chy
--ci
--cia
--cich
--cide
--cie
--cieho
--cii
--cim
--cin
--cing
--cio
--ciu
--cius
--cizmu
--cizmus
--ck
--cka
--cke
--ckej
--cki
--cko
--ckom
--ckou
--cks
--cku
--cky
--cni
--co
--coch
--com
--con
--core
--cou
--cov
--cova
--covane
--covanie
--covat
--covi
--covia
--cow
--craft
--cs
--ct
--ction
--ctvi
--cu
--cuje
--cuju
--culus
--cus
--cy
--cz
--d
--da
--dad
--dae
--dai
--dal
--day
--dci
--de
--del
--den
--dene
--deni
--deny
--der
--des
--dge
--di
--dia
--dic
--dice
--die
--diho
--dika
--dil
--dilo
--din
--dis
--dit
--dko
--dkov
--dku
--dl
--dla
--dle
--dler
--dli
--dlo
--dlu
--dma
--dn
--dna
--dne
--dni
--dnu
--dny
--do
--dok
--dol
--dom
--don
--dor
--dorf
--dou
--dov
--down
--dr
--dra
--ds
--dt
--du
--duje
--duju
--dukt
--dus
--dy
--dz
--dzuje
--dzuju
--e
--ea
--eae
--eau
--eb
--eba
--ec
--eck
--ect
--ects
--ed
--edla
--edli
--edna
--edol
--edy
--ee
--een
--egel
--eger
--eho
--ei
--eia
--eil
--eira
--ej
--eje
--ejs
--ek
--ekc
--ekt
--el
--ela
--ele
--eli
--ell
--ella
--elle
--elli
--ello
--els
--ely
--em
--en
--ena
--enburg
--enc
--ence
--end
--ene
--eni
--enia
--enie
--eniu
--enku
--enky
--enne
--enny
--enom
--enou
--ens
--ensis
--ent
--enu
--eny
--enzi
--eo
--eolo
--eon
--eor
--ep
--er
--era
--erac
--eraju
--erg
--eri
--ern
--erre
--ers
--erva
--erve
--ery
--es
--ese
--esie
--eske
--esky
--esn
--esny
--ess
--est
--et
--eta
--ete
--eter
--eto
--etol
--etom
--etov
--ets
--ett
--etta
--ette
--etu
--etus
--ety
--eu
--eum
--eur
--eus
--eux
--ev
--eva
--eval
--evic
--evna
--ew
--ex
--ey
--ez
--ezli
--ezol
--f
--fa
--fas
--fe
--feld
--ff
--fi
--fika
--fo
--fort
--ft
[...]
