!
"
#
##0
##1
##10
##11
##12
##13
##14
##15
##16
##17
##18
##19
##2
##20
##21
##22
##23
##24
##25
##26
##27
##28
##29
##3
##30
##31
##32
##33
##34
##35
##36
##37
##38
##39
##4
##40
##41
##42
##43
##44
##45
##46
##47
##48
##49
##5
##50
##51
##52
##53
##54
##55
##56
##57
##58
##59
##6
##60
##61
##62
##63
##64
##65
##66
##67
##68
##69
##7
##70
##71
##72
##73
##74
##75
##76
##77
##78
##79
##8
##80
##81
##82
##83
##84
##85
##86
##87
##88
##89
##9
##90
##91
##92
##93
##94
##95
##96
##97
##98
##99
$
%
&
'
(
)
*
+
,
-
.
/
0
00
000
0000
000000
001
005
006699
01
0103
02
03
04
05
06
07
08
080
080086
09
090
1
10
100
1000
10000
1004
1009
101
1010
1014
1015
1016
1018
1019
102
1023
102398
1025
1027
103
1030
1031
1032
104
1045
105
1050
1054
1056
106
1060
1065
1066
1067
1068
1069
107
1072
1073
1076
1077
1078
108
1080
108620
1089
109
1093
109498
1095
1099
11
110
1100
110347
1108
111
1112
1113
111894
112
1120
112354
1125
112925
113
1131
113354
1137
1139
114
114227
1146
115
1150
1155
1156
1157
116
1160
1161
116523
1166
1167
1169
117
1170
1171
1173
1174
1175
1176
118
1180
1181
1184
118616
1189
119
1191
1199
12
120
1204
1207
1208
1209
121
1212
1213
1214
1216
1218
122
1223
1226
123
1234
1235
1236
1238
124
1240
1243
1246
1248
1249
125
1252
126
1263
1265
127
128
1280
1282
1283
1285
129
1290
1291
1296
13
130
1300
131
1314
1316
1318
1319
132
1321
1322
1325
1326
1328
133
1333
1338
1339
134
1340
1343
135
1353
1356
1359
136
1360
1363
1367
137
1370
138
1380
1389
138966
139
14
140
141
1412
1417
142
1425
143
1433
1434
1435
1436
1438
144
1440
1445
1447
145
1452
146
1462
1464
1465
147
1470
148
1483
1484
1489
149
1492
1493
1494
1497
1498
15
150
1500
1502
1505
1506
1508
151
1510
1513
1514
1515
1519
152
1520
1523
1525
153
1533
1534
1536
1537
154
1543
1547
1549
155
1555
1558
1559
156
1560
1564
1565
1568
157
1570
1571
1572
1578
158
1580
1581
1582
1583
1584
1586
159
1592
15924
1598
1599
16
160
1600
1602
1605
1606
161
1610
1611
1612
1613
1615
1616
162
1620
1621
1626
163
1630
1632
1634
1637
1639
164
1640
1643
1645
165
1654
1658
1659
166
1660
1664
1665
1666
1667
1669
167
1672
1676
168
1680
1681
1682
1684
1685
1689
169
1697
1698
1699
17
170
1700
1703
1707
1708
1709
171
1710
1712
1713
1714
1715
1717
1719
172
1720
1721
1722
1725
1727
1728
173
1730
1732
1735
174
1740
1741
1744
1749
175
1751
1752
1753
1755
1756
1757
1759
176
1760
1761
1762
1764
1768
1769
177
1770
1772
1773
1774
1775
1776
1778
178
1780
1782
1783
1784
1785
1787
1789
179
1790
1791
1792
1793
1794
1795
1796
1797
1798
1799
18
180
1800
1801
1802
1803
18030
1804
1805
1806
1807
1808
1809
181
1810
1811
1812
1813
1814
1815
1817
1818
1819
182
1820
1821
1822
1823
1824
1825
1826
1827
1828
1829
183
1830
1831
1832
1833
1835
1836
1837
1839
184
1840
1841
1842
1844
1845
1846
1847
1848
1849
185
1850
1851
1852
1853
1854
1855
1856
1857
1858
1859
186
1860
1861
1862
1863
1864
1865
1866
1867
1868
1869
187
1870
1871
1872
1873
1874
1875
1876
1877
1878
1879
188
1880
1881
1882
1883
1884
1885
1886
1887
1888
1889
189
1890
1891
1892
1893
1894
1895
1896
1897
1898
1899
19
190
1900
1901
1902
1903
1904
1905
1906
1907
1908
1909
191
1910
1911
1912
1913
1914
1915
1916
1917
1918
1919
192
1920
1921
1922
1923
1924
1925
1926
1927
1928
1929
193
1930
1931
1932
1933
1934
1935
1936
1937
1938
1939
194
1940
1941
1942
1943
1944
1945
1946
1947
1948
1949
195
1950
1951
1952
1953
1954
1955
1956
1957
1958
1959
196
1960
1961
1962
1963
1964
1965
1966
1967
1968
1969
197
1970
1971
1972
1973
1974
1975
1976
1977
1978
1979
198
1980
1981
1982
1983
1984
1985
1986
1987
1988
1989
199
1990
1991
1992
1993
1994
1995
1996
1997
1998
1999
2
20
200
2000
2001
2002
2003
2004
2005
2006
2007
2008
2009
201
2010
2011
2012
2013
2014
2015
2016
2017
2018
2019
202
2020
2021
2022
2023
2024
2025
2028
203
2030
204
205
206
207
208
209
21
210
211
212
213
214
215
216
217
218
219
22
220
221
222
22222
223
224
225
226
227
228
229
23
230
231
232
233
234
235
236
237
238
239
24
240
241
242
243
244
245
246
247
248
2480
249
25
250
251
252
253
254
255
256
257
258
259
26
260
261
262
263
264
265
266
267
268
269
27
270
271
272
273
274
275
276
277
278
279
28
280
281
282
283
284
285
28500
286
287
288
289
29
290
291
292
293
294
295
296
297
298
299
3
30
300
3000
301
302
303
304
305
306
307
308
309
31
310
311
312
313
314
315
316
3166
317
318
319
32
320
321
322
323
324
325
326
327
328
329
33
330
331
332
333
334
335
336
337
338
339
34
340
341
342
343
344
345
346
347
348
349
35
350
351
352
353
354
355
356
357
358
359
36
360
3600
361
362
363
364
365
367
368
37
370
373
378
38
380
384
39
391
4
40
400
4000
40000
402
407
408
41
412
42
423
43
430
44
4438
45
450
452
456
46
468
47
475
478
48
480
486
49
493
49779
5
50
500
5000
501
51
512
52
53
53049
535
54
547
55
552
56
569
57
570
571
577
58
582
58337
585
59
596
6
60
600
6000
61
613
62
62110
622
625
6251
63
630
63558
636
639
64
65
658
66
661
665
67
68
680
684
685
69
691
695
699
7
70
700
70425
71
710
711
72
73
730
74
741
74108
747
75
751
76
760
768
769
77
7737
775
78
786
789
79
792
8
80
800
806
81
813
817
82
83
84
843
8456
85
854
85630
86
8601
861
864
87
874
88
89
891
897
9
90
900
90666
90734
91
912
91285
918
92
920
922
9223372036854775808
925
92661
928
93
937
94
945
95
950
953
95696
957
958
959
96
960
962
963
967
968
9691
97
970
972
978
98
98085
986
99
992
9932
995
:
;
<
=
>
?
@
\
^
_
`
a
aa
aaa
aakhmedova
ab
abacus
abaza
abiogenesis
abk
abkhaz
abkhazia
abkhazian
able
ablon
abolitionism
aboriginal
abortion
about
above
abovebelow
aboveclass
abovestyle
abq
abraham
abs
absent
absolute
abstract
abuse
abusefilter
abusefilters
ac
academic
accept
acceptable
accepted
accepting
accepts
access
accessdate
accessed
accessibility
accessible
according
accordingly
account
accounting
accounts
accused
achieve
achieved
achievements
acid
across
act
action
actions
activate
active
activities
activity
actually
ad
adam
add
addclass
addcss
added
addiction
adding
additem
addition
additional
additions
addkey
address
addresses
addrow
adds
addtablerow
addwdclass
adjacent
adjust
admin
administration
administrator
administrators
admins
adminship
adolf
advance
advanced
advancedsearch
advantages
advertising
advice
advocate
ady
ae
af
affect
affected
affecting
affects
affiliate
affiliates
afghanistan
africa
african
afrikaans
after
afterwards
ag
again
against
age
ageimpl
agenda
ages
aggregator
agnomen
agnosticism
ago
agriculture
aharoni
ahead
ahercog
ahref
ai
aids
aimer
aims
aircraft
ais
aj
ajraddatz
al
alan
albert
album
alces
alcohol
alert
alexander
algebra
alias
aliases
alighieri
align
alike
all
allan
allmovie
allnames
allocate
allocine
allow
allowed
allowing
allows
alloy
allpropertyclaims
allsnaks
almost
alnum
along
alongside
alpha
alphabet
alps
already
alreadyloggedin
als
also
alt
alternativemap
although
altmaps
aluminium
alva
always
alzheimer
am
amadeus
amants
amazon
ambassador
ambassadors
ambox
amendment
america
american
americas
amharic
amin
amir
among
amongst
amount
amour
amphibian
amundsen
an
analysis
anarchism
anas
anatomy
anchors
ancient
and
andes
android
aneurysm
angeles
angle
anidb
animal
animated
anime
animenewsnetwork
anne
anneksiya
announce
announced
announcement
announcements
announcing
annual
another
answer
antarctica
anthropology
antibiotic
antiquity
any
anyone
anything
ape
api
apollo
apologies
apologize
apostle
app
appear
appearance
appeared
appears
append
appendchild
appendimpl
appendmainsnaks
appendqualifiers
appendsnaks
appendto
apple
applicable
applicants
application
applications
applied
apply
applylimit
appreciate
appreciated
approach
appropriate
approved
approximately
apps
april
apsar
aquinas
ar
arab
arabia
arabic
aramaic
arbitrary
arc
arch
archaea
architecture
archive
archives
arctic
ardzinba
are
area
areas
aree
aren
arg
argentina
argid
argkeys
argnumber
args
argsarg
argscfg
argsi
argsk
argskey
argsname
argsparamalias
argsprefix
argstable
argtables
argtableval
argument
arguments
aristotle
arithmetic
armenia
armenian
arms
arnold
around
arr
arrange
array
arrest
arrow
art
article
articles
artificial
artillery
artist
artistic
artists
arts
as
asia
asian
ask
asked
asking
asks
asm
aspects
aspx
assamese
assemble
assert
assign
assigned
assist
assistance
associate
associated
association
assume
assyria
ast
asteroid
astronomy
at
atatu
atheism
athens
athletes
athletics
atlantic
atmosphere
atom
attend
attended
attending
attention
attila
attr
attribs
attribute
attributes
attribution
attrs
au
audio
audios
auf
augmentargs
august
augustus
australia
austria
author
authority
authoritycontrol
authoritycontrolelements
authors
autism
auto
autoconfirmed
autodetected
autofill
autoformat
automagical
automated
automatic
automatically
automobile
autoswitcherlabel
availability
available
avait
avalanche
average
avicenna
avoid
aw
award
aware
awareness
az
azerbaijan
azerbaijani
azzurro
b
ba
bach
back
background
backspace
backtranslate
backward
backwards
bacteria
bad
badges
bagapsh
baha
bahasa
bahn
bahrain
bai
bal
balance
balkhi
ballet
ban
band
bang
bangladesh
bankes
banner
bans
bar
barcelona
baroque
barrier
barriers
bars
base
based
basein
baseline
basestyle
basic
basis
bassel
battery
battuta
bav
bay
baylor
bbc
bbccdd
bc
bce
bd
be
beatles
because
become
becomes
becoming
been
beer
beethoven
before
begin
beginning
begins
begun
behalf
behavior
behaviour
behind
beijing
being
belarus
belgium
belief
believe
belong
below
belowclass
belowstyle
belt
bengali
beqabai
berlin
best
bestrank
bet
beta
betafeatures
better
between
bg
bgalpha
bgblue
bgbrown
bgbvrown
bgorange
bgwikipedia
bgzoom
bhagavad
bhatta
bhutan
bi
bianco
bible
bibliographic
biblioteca
bibsys
bicycle
big
bigger
bigletters
billboard
billion
bin
biochemistry
biographies
biography
biology
bird
birgit
birth
birthday
birthvalue
bit
bitstream
black
blaise
blank
bleeding
bleu
blindness
blk
block
blocked
blocker
blocks
blog
bloomsbury
blue
bnc
bne
bnf
board
bob
bodies
body
bodyclass
bodycontent
bodystyle
boeing
bohr
bold
boli
bond
bone
book
books
bool
boolean
bootprint
border
bosna
bosnia
bot
botany
both
bots
bottom
bottomleft
bottomright
boundaries
bouterse
bow
box
boxdl
boxdr
boxes
boxhd
boxhu
boxul
boxur
boxvh
boxvl
boxvr
bprecision
br
brackets
brain
branch
branches
brazil
brazilian
bread
break
breaking
breton
bricks
bridge
bright
brighter
bring
bringing
britannica
british
broadcasting
broken
bronze
brown
browse
browser
browsers
brunei
bs
bst
bstructure
btable
btn
buddha
buddhism
bug
buginese
bugs
bugzilla
build
builder
building
built
bukharisaeed
bulb
bulgaria
bullet
burma
burmese
burn
business
but
button
buttonlabel
buttons
bvalue
by
byman
byte
bytemplate
bytes
byzantine
c
ca
cache
cacheargs
cachemethod
cachename
cactions
caesar
cairn
calculatedage
calculator
calendar
calis
call
callback
called
calling
callparserfunction
cambridge
came
camera
campaign
can
canada
canadian
canal
cancer
candidacy
candidates
candle
cannot
canonicalname
canonicalnamespace
cant
canyon
capacitor
cape
capital
capitalism
captcha
caption
captions
captures
carbon
card
cardiac
cards
carduelis
care
carl
carpenters
cartier
case
cases
caspian
cassini
cat
catalan
catalana
catalogue
catalysis
catch
categories
categorization
categorize
categorizebyaward
categorizebyplaceofbirthanddeath
category
categoryauthoritycontrol
categoryexternallink
categorynameprefix
categoryunknowndeathdate
catentity
catentityid
cathedral
catholic
catlinks
catname
cats
cattle
caucasian
cause
caused
causing
cc
ccc
cccccc
ccddee
ccf
cd
cdt
ce
cell
cellpadding
cells
cellspacing
centenarians
center
centered
centers
central
centralized
centre
century
ceremonies
ceremony
certain
cervantes
cest
cet
cfg
cfgvalue
cfgvaluetype
cgi
ch
chair
challenge
chan
chance
change
changed
changes
changing
channel
chanson
char
character
characters
charlemagne
charles
charmap
chars
charter
charts
chasto
chat
che
check
checkbox
checked
checking
checkkey
checkpatterns
checks
checkself
checktype
checktypefornamedarg
checkvalue
cheers
cheese
chemical
chemistry
chess
chiaro
child
childnodes
children
childrens
chile
china
chinese
choice
choices
cholera
choose
choosing
chopin
chosen
christianity
christmas
christopher
chto
church
churchill
cid
ciel
cileti
circle
circuit
circumstances
citation
citations
cite
cities
citoid
city
civics
civil
civilization
ckoerner
cl
claim
claims
claimspropertyid
class
classes
classical
classname
claude
clean
cleanargs
cleanargskey
cleannumber
cleanup
cleanuploc
clear
clearer
cleopatra
click
clicked
clicking
client
climate
clock
clone
close
closed
cloud
cls
club
cluster
cm
cmbox
cmp
co
coa
coat
cobar
cochrane
code
codemirror
codepoint
codes
codesi
coef
coffee
cold
collaborate
collaborating
collaboration
collapse
collapsecssmax
collapsecssmin
collapsed
collapsediv
collapserefs
collapsestate
collapsetable
collapsible
collect
collected
collection
collections
collective
collectlinks
colombia
colonization
color
colorarg
colors
colour
colspan
columbian
columbus
column
columns
com
coma
combine
combined
combines
combustion
come
comedy
comet
comfortable
comics
coming
comma
command
commands
commas
comme
comment
comments
commentstr
commit
committee
common
commons
communicate
communication
communism
communities
community
comoros
compact
company
compare
comparestatements
comparing
compass
compat
compatibility
competition
competitors
complaints
complete
completed
completely
completion
complex
components
composers
compound
compresssparsearray
computer
comunit
comunita
concat
concepcio
concept
concern
concerns
condition
conditions
conduct
conducted
conference
confident
config
configuration
configure
confirmed
conflict
conflicting
conflicts
confucianism
confucius
confusion
congo
congratulations
congress
conjunction
connected
connector
conor
consensus
conservatism
consider
consideration
considering
consistent
constant
constellation
constitution
constructive
consultation
consultations
contact
contain
contained
container
containing
contains
contemporary
content
contentargs
contenthostingelements
contenthostingproperties
contentindex
contents
contest
context
continents
continue
continues
contribs
contribute
contributing
contributions
contributors
control
controlled
conversation
conversations
conversion
convert
converted
cook
cookie
cooperation
coord
coordinate
coordinates
coordinating
coordination
coordinator
coords
coordstatements
coordstr
coordstrtab
coordtagargs
cop
copernicus
copied
copper
copy
copying
copyright
core
corporation
correct
corrections
correctly
corresponding
corruption
cos
cosmology
costa
cosvalue
cot
could
council
count
counted
counter
counting
countries
country
countryflags
couple
course
cover
covering
covid
cowper
cp
create
created
createelement
creates
creating
creation
creations
creative
creator
credo
cree
crescent
crime
criteria
croatia
croatian
cross
crosses
crusades
crust
cryptography
crystal
cs
css
csstext
ctype
cuisine
cultural
culture
cultures
curie
curns
curr
current
currententity
currently
currenttitle
cursor
cursoring
custom
customize
customizing
cx
cyclone
cyrus
czech
cœur
d
da
dab
dablink
dabonly
daily
dali
dam
damage
dan
dance
dancers
dances
daniel
dans
dante
danube
dapete
dark
darwin
data
database
databases
datacell
dataid
datakey
dataresourceid
datastyle
datatype
datavalue
date
dateclaims
datekey
datepart
dates
datura
david
day
days
db
dd
ddd
de
deadline
dear
death
debs
dec
decade
decdeg
december
decide
decided
decimal
decimals
decision
decisions
declaration
decoration
deep
deepcopy
default
defaultkey
defaultns
defaultnsall
defaultnsarray
defaultnsextended
defaults
defaultscale
define
defined
definition
definitions
deg
degree
degrees
degruyter
deism
deity
del
delete
deleted
delhi
delimiter
delivered
delivery
demand
demo
democracy
democratic
demopage
demospace
denmark
denny
department
depend
depending
dependvalue
deploy
deployed
deploying
deployment
deployments
deprecated
depression
der
derek
des
desc
descartes
describe
described
describing
description
descriptions
desert
deserts
desetileti
design
designed
designs
desired
desktop
destination
detail
detailed
details
detect
detected
detecting
determine
deutsch
deutschland
deux
dev
develop
developed
developer
developers
developing
development
developments
device
devices
di
dia
diabetes
dialog
dialogs
dictatorship
dictionaries
dictionary
dictionaryelements
did
didn
diego
diff
difference
different
difficult
diffs
diffy
digit
digital
digits
dimensioni
din
dinosaur
diode
diospyros
dioxide
diplomacy
dir
direct
direction
directional
directions
directly
director
disability
disable
disabled
disables
disambig
disambiguation
disambiguators
disaster
discovery
discrimination
discuss
discussing
discussion
discussionitem
discussions
disease
disney
display
displayed
displayinline
displayintitle
displays
displaytitle
disruption
dissemination
distance
distancefromleft
distribute
distributed
distribution
district
div
diverse
diversity
division
divsi
djibouti
dl
dmitri
dms
dna
do
doc
docs
document
documentary
documentation
documentelement
documents
does
doesn
dog
doi
doing
dois
dollar
dollars
domain
dome
don
donation
donations
done
donepairs
dong
donors
doors
dortmund
dostoevsky
doteli
double
down
downarrow
dozen
dozens
dprecision
draft
drafting
drag
dragging
draughts
drawing
draws
drink
drinking
drop
dropdown
dropped
dropping
drug
dsb
dstructure
dt
dtable
du
dudu
due
duisburg
duplicates
during
dutch
dvalue
dylan
dynamite
dysentery
dz
e
ea
each
earlier
early
earth
earthquake
earthrise
easier
easily
east
eastern
easy
eaton
ebook
ebooks
ebsco
eca
echo
eclipse
ecology
economics
ecosystem
ed
edgar
edificio
edison
edit
edited
editform
editing
editintro
edition
editions
editlink
editor
editors
editpage
editprotected
edits
edot
edt
edu
eduardogobi
education
educational
edłoga
edłoha
ee
eef
effect
effects
effort
egaxa
egypt
eight
einstein
either
el
election
elections
electric
electricity
electrocardiogram
electrolysis
electromagnetic
electromagnetism
electron
electronics
element
elements
elevator
eleven
eligible
elitre
elizabeth
elle
else
elseif
elsevier
elsewhere
elvis
em
email
embed
embedded
emblem
emergence
emergency
emotion
empire
empty
en
enable
enabled
enabling
enc
enciclope
enciclopedia
enclosed
encode
encoding
encounter
encourage
encouraged
encyclopaedia
encyclopedia
encyclopedias
end
ending
ends
energy
enforce
enforceable
enforcement
eng
engagement
engine
engineer
engineering
england
english
enjoy
enlightenment
enough
enriching
ensign
ensure
ensures
entertainment
entities
entity
entityexists
entityid
entitytype
entries
entriestolookupcategory
entriestolookupcategoryfor
entry
environment
environmentalism
environments
enwikisource
eo
epic
epistemology
epos
eq
equals
equation
erosion
err
error
errors
es
escale
escape
escaped
escapepattern
escudo
espan
especially
essential
est
et
etc
ethics
ethiopia
etk
eu
euler
euro
europe
european
euthanasia
evaluate
evaluation
even
evenodd
event
events
eventually
ever
everest
every
everybody
everyday
everyone
everything
evolution
ew
ex
example
examples
except
excepting
excited
excluded
exec
executive
exercise
exist
existence
existent
existentialism
existing
exists
exit
expand
expanded
expanding
expandspecialsqualifiers
expandtemplate
expansions
expect
expected
expects
experience
experienced
experiences
experiments
expire
explains
explicit
explicitly
explicitname
exploration
explorer
explorers
explosive
expr
expression
ext
extended
extendednamespaces
extension
extensiontag
extensive
external
extiw
extra
f
fa
facebook
facilitate
facilitating
failed
failure
faint
fair
fairy
fais
fait
faith
fall
fallback
falls
false
falsely
family
famine
fanon
faq
far
fargs
farsi
fascism
faster
fastest
fault
favorite
fc
fdc
fdfdfd
fdl
fe
fear
feature
featured
features
feb
february
federated
federation
fee
feedback
feel
feels
fees
fellow
fellowship
female
feminism
ferdinand
festivals
fetchvalue
few
ff
ffdbdb
ffe
fffbf
ffffe
ffffee
ffffff
fi
fiction
field
figures
file
fileexporter
fileimporter
filename
files
fill
filled
film
filmaffinity
filter
filterbyrank
filtered
filterers
filtermainsnak
filterqualifiers
filterstatements
final
finalized
finally
finance
find
findentity
findentityid
findings
finds
fine
finish
finished
finland
finnish
fire
firearm
firefox
first
firstchar
firstchild
firstheading
firsttoupper
firstvalues
fish
fit
fitness
five
fix
fixchildboxes
fixed
fixes
fixing
fixme
flag
flagbegindate
flaggedrevs
flags
flex
flickr
float
flood
floor
florianturm
flow
flower
floyd
fm
fmbox
focus
focused
focusing
fold
folk
folklore
follow
followed
following
follows
font
fonts
fontstyle
foo
food
foot
football
footer
footnotes
for
force
foresee
forget
form
formal
format
formatdate
formatdaterange
formatentityid
formaterror
formatfrompattern
formatnum
formatnumber
formatrawvalue
formatrefs
formats
formatsnak
formatspecial
formatstatementanddata
formatstatementdefault
formatstatements
formatted
formattedqualifiers
formattedstatements
formatter
formatters
formattextinlanguage
formatting
formatunit
formatutcoffsetforiso
formatvalue
formdate
former
forms
formula
formulas
formulæ
forrester
forum
forvo
forward
found
foundation
fountain
four
fr
frac
fraction
fractional
fracture
frame
framealign
framecoordinates
frameheight
framelatitude
frameless
framelongitude
frameonly
framewidth
framework
franc
france
francis
frantz
franz
fraxinus
fre
free
freedom
freezes
french
frequently
freud
friday
friedrich
friendly
frm
from
frostbite
fruit
fu
full
fulltext
fullurl
fully
func
function
functionality
functions
fund
fundamental
funding
fundraiser
fundraising
funds
fungus
funit
further
future
fuzzy
fyodor
g
ga
gadget
gadgets
galaxy
gale
galicia
galilei
galileo
galleries
gallery
gambling
game
games
gandhi
gap
garry
gasoline
gastrointestinal
gathering
gautama
gb
gbr
gd
ge
geber
gecko
gen
gender
gene
genealogy
general
generalloc
generally
generate
generates
generic
genetics
genghis
genitivusmonthesnm
genitivusmonthesom
genres
geo
geography
geohack
geohackurl
geologic
geology
geomask
geometry
geoparams
george
georgia
georgian
geoshape
geoshapes
geothermal
german
germany
get
getabovebelowcolspan
getargnums
getargs
getattr
getbeststatement
getbeststatements
getboolean
getcallbackforstatements
getcategory
getcontainerimage
getcontentlanguage
getcurrentframe
getcurrentid
getcurrenttitle
getdate
getelementbyid
getelementsbytagname
getentity
getentityidforcurrentpage
getentityidfromstatements
getentityobject
getfirstkey
getformattedstatements
getformattedvalue
getidfromtitle
getimagelink
getitemidfromuri
getlabel
getlabelwithlang
getlabelwithlink
getlabelwithoutlink
getletters
getmapparams
getmetatable
getpageobject
getpagetypefromclass
getparameters
getparametervalue
getparammappings
getparent
getproperty
getqualifiers
getqualifiersinglevalue
getqualifiervalues
getrawvalue
getrawvaluefromlua
getrefhtml
gets
getsingle
getsitelink
getstatements
getstatementvalue
getting
gettitle
getunitandcoef
getutf
getvalues
getvaluesfromqualifiers
getx
gety
getzoom
gfdl
gharakhanyan
gif
gippert
git
gita
give
given
giving
gje
gl
glass
glasses
glob
global
globalization
globally
globals
globe
globecoordinate
gmatch
gnd
gnosticism
gnu
go
goal
goals
gobi
god
goddess
goes
goethe
gogh
going
gold
golden
gone
good
goodflag
google
gosudarstva
got
gothic
gottfried
gov
governing
government
governmental
gradually
grain
grammar
gran
grand
grandi
grant
granted
granth
grants
graphemica
graphs
grateful
grave
gravitation
gray
graytable
great
greatly
greece
greek
green
greenpeace
greetings
gregorian
gregory
grfc
gridcolor
group
groupcell
groupformat
groupgadgets
groups
groupstyle
groupwidth
growth
gsplit
gsub
gtlbloc
gtoolbar
guarantee
gui
guide
guided
guidelines
guillaume
guinea
gun
gunpowder
guru
gutenberg
gyroscope
h
hack
hackathon
had
haiku
haiti
hakka
halan
half
hamburger
hammurabi
han
hand
handgun
handle
handleshowmore
handling
happen
happened
happening
happens
happy
harassment
hard
has
hasclass
hash
haslabel
hasnovalue
hasosmrelationid
haspreffered
hasqualifier
hasranks
hassitelink
hassnaktype
hastarget
hasunit
haswikidataproperty
hatnote
have
haven
having
haystack
hb
he
head
header
headerid
headings
health
hear
heard
hearing
heart
heat
hebrew
hedonism
height
heights
held
helicopter
helium
hello
help
helped
helper
helpful
helping
helps
hemisphere
henri
here
heredity
heritage
heritagesites
herzegovina
hex
hey
hh
hi
hidden
hiddencat
hide
hides
hidetimer
high
highbeam
highlight
highlighted
highlighting
highlights
highly
hilbert
him
himalayas
hindi
hinduism
hip
his
hist
historia
historians
historical
historically
histories
history
hitler
hiver
hlist
hms
hnum
ho
hochoefen
hochofen
hokusai
hold
holding
holds
holocaust
holy
homme
hong
hop
hope
hopes
horse
host
hosted
hosting
hot
hotcat
hotel
hour
hours
house
hover
hovercards
how
however
hp
hr
href
hsb
htm
html
htmlbuilder
http
https
hu
huang
hubble
huge
human
humanism
humanities
humbly
hun
hungarian
hungary
hunting
hydrogen
hydropower
hygiene
i
ian
iana
ibdb
ibn
iccu
ickander
icon
icona
icons
icu
id
idea
ideal
idealab
idealism
ideally
ideas
identifiers
ids
idx
ie
ietf
if
ifexpr
ignore
ignoreblank
ignoredab
igor
ii
iii
il
illness
illustration
ilya
im
image
imageclass
imagediv
imageformatter
imageleft
imagelink
imagemap
imagemapedit
imageright
images
imagestyle
imagine
imaging
imbox
imdb
ime
imes
img
imgp
immanuel
immediate
immense
immune
impact
impairment
imperial
imperialism
implement
implementation
implemented
implements
implied
import
important
imported
importmw
importscript
improve
improved
improvement
improvements
improving
imslp
in
ina
inarray
incandescent
inclined
include
included
includemetatable
includes
including
inclusive
increase
increased
increases
increment
incrementargnumber
indent
independent
index
indexed
indexing
indexof
india
indian
indic
indicate
indicator
indicators
indices
individual
individually
individuals
indonesia
indus
industrial
industry
infinity
inflammation
influenza
info
infobox
infoboxes
infocardclass
infocardtemplate
inform
information
informed
inhabitants
inherit
init
initial
initialise
initially
initiative
initpos
inline
innerhtml
inorganic
input
inquisition
ins
insect
insert
insertbefore
inserted
inserter
insertfromsnak
inserting
inset
inside
inspector
inspects
inspire
instagram
instance
instead
institutions
instructions
instrument
int
integer
integrated
integrates
intelligence
intended
interacted
interaction
interactions
interest
interested
interface
interlanguage
internal
international
internet
interwiki
into
introduce
introduction
intuitive
invalid
invalidadd
invariant
inventors
inverse
inversed
inversion
invert
inverted
investigates
investigations
invisible
invitation
invite
invited
invites
inviting
invocation
invoke
invoked
involved
involvement
io
ion
ip
ipa
ipairs
ipv
iran
iranian
iraq
irc
ireland
iron
is
isaac
isaffirmed
isbc
isbn
isbns
iscompletestatement
isfdb
isinlanguage
isinstance
isinversed
islam
islamic
islands
ismain
ismatchlanguage
ismatchunit
isn
isnew
isni
isnotempty
iso
isodd
isoptiontrue
isplural
ispropertyid
isqualifier
israel
isranked
isshown
issn
issnakvalue
issue
issues
ist
istableempty
istanbul
istoriya
istouchscreen
isvalidentityid
isvalidrank
it
italian
italiano
italic
italicizablekeys
italicize
italicized
italicizedkeyskey
italicizedsubstrings
italicizes
italicizesubstring
italics
italictitle
italy
item
itemid
items
iterator
its
itself
iv
ix
j
ja
jaba
jacques
jainism
jalal
james
jan
janak
january
japan
japanese
java
javascript
jazz
je
jerusalem
jesus
jet
jethrobt
jeux
joan
jobs
joe
johan
johann
johanna
john
join
joined
joining
jones
jose
joseph
jost
jour
journal
journalism
journals
joyce
jp
jpg
jquery
js
jst
jstor
judaism
jul
julian
juliantogregorian
julius
july
june
jupiter
jure
just
justice
justify
jə
k
ka
kaiyr
kak
kant
karamchand
karcher
karl
kategorie
katie
kazakhstan
keegan
keep
keeping
kemal
kept
key
keyboard
keys
khaldun
khan
khwarizmi
kievica
kind
kindly
kinematics
kinetic
kinetics
king
kingdom
kk
km
knife
know
knowledge
known
ko
kong
korea
korean
korrupciya
korruptsii
krishna
krugosvet
ku
kultura
kurier
kurt
kuwait
ky
kyrgyz
l
la
label
labelallocine
labelanimenewsnetwork
labeldiv
labeled
labelencyclopaediametallum
labelibdb
labelid
labelisfdb
labelmusicbrainz
labels
lacroix
lag
landing
landschafts
landschaftspark
lang
langcode
langs
language
languages
laozi
large
larger
largest
laser
last
lasts
lat
late
later
latest
latex
latin
latitude
latn
latstr
launch
launched
law
layout
lazily
lb
le
lea
lead
leaders
leading
league
learn
learned
learning
least
leave
leaving
led
left
leftarrow
leftrightarrow
legacy
legal
leibniz
len
length
lenin
lens
lenta
leo
leonardo
leonhard
lepus
les
lesotho
less
lesser
let
lets
letter
letters
level
lever
lg
li
liaison
lib
liberal
liberalism
libor
library
libraryutil
license
licensed
licenses
liechtenstein
life
light
like
likely
limit
limitations
limited
lincoln
line
linegrey
lines
lingveno
link
linked
linkf
linking
linkresult
links
linktarget
linktitle
linnaeus
liquidthreads
list
listcell
listed
listnum
listnums
lists
listtotext
lit
lite
literatura
literature
lithuania
little
live
liveinternet
livejournal
ll
ller
lnb
lnk
load
loaddata
loaded
loader
loading
loadsafe
loc
local
localisation
localization
localize
locally
located
location
locke
log
logged
logic
login
logo
logobject
logos
lon
london
long
longer
longitude
longleftarrow
longleftrightarrow
longrightarrow
lonstr
look
looked
looking
looks
loop
los
lost
lot
love
loves
low
lower
lowerbound
lowestnil
lrt
lt
ltr
lua
luaargs
lucida
ludwig
lung
lv
lydia
m
ma
mac
macedon
macedonian
machine
madame
made
madonna
magazine
magazines
magellan
magic
magma
magnetic
magnificent
mahayana
mahjubah
mail
mailing
main
mainform
mainly
mainnsname
mainpage
mainsnak
mainsnakdatavaluevalue
mainsnakdatavaluevalueunit
maint
maintain
maintenance
maize
major
make
makecategory
makecoords
makediffcategory
makeinlineoutput
makelist
makes
maketagattribs
maketitle
maketitleoutput
making
malaria
malawi
malayalam
male
malformed
mammal
man
manage
manager
mancala
manchester
mandela
mantle
manual
manufacturing
manx
many
mao
map
mapdataname
mapframe
maplandia
maplink
mapname
mapnames
mappings
mappingsnsname
mappingsordered
mapprecision
maps
marathi
march
marco
margin
marguments
maria
marie
marikuna
mark
markblocked
marked
marker
markercolor
markers
market
marketing
markhigh
markimagediv
marklabeldiv
markouterdiv
marks
marksize
markup
markvalue
marrone
mars
martin
marx
marxism
mary
maskarea
maskitem
masktype
masonry
mass
massmessage
match
matches
matchestitle
matching
material
materials
math
mathematical
mathematicians
mathematics
matrix
matter
max
maxheight
may
maybe
maycomparestatement
mbox
mdennis
me
meaningful
means
meant
meantime
measurement
measuring
meat
mecca
mechanical
mechanics
media
medialist
mediawiki
medical
medication
medicine
medieval
meditation
mediterranean
medium
meet
meeting
meetings
mellitus
member
members
memoized
memorable
mendeleev
mental
mention
mentioned
menu
menus
mercury
mergeargs
mes
mesopotamia
message
messagebox
messages
met
meta
metaargs
metaargskey
metacritic
metadata
metal
metallum
metallurgy
metaphysics
metatable
meteorology
method
methods
metrics
metro
mexico
mf
mhatnote
mi
michael
michelangelo
microphone
microscope
microsoft
mid
middle
midi
might
migrate
migration
miguel
mike
mikheili
mile
milestones
military
milk
milky
millenium
million
min
mind
mineral
mingrelian
mini
minimize
minimum
mining
minor
minorax
mintotal
minute
minutes
missing
mission
mistakes
mixcloud
mixed
mm
mn
mo
mobile
mockups
mode
model
models
modern
modernism
modes
modifying
module
modulelanguages
modules
moduletitle
modulewikidata
moeda
mohandas
moi
molecule
molie
mon
monarchy
monday
monet
money
mongol
mongolia
mongolian
monitor
monobook
monolingualtext
monospaced
monsieur
montenegro
month
monthgm
monthgom
monthly
months
moon
more
moreargumentsexist
moscow
moses
mosque
most
motion
motor
motorcycle
mount
mountain
mountains
move
moved
movement
movementcharter
movements
moving
moz
mozart
mozila
mozilla
mp
mr
ms
msg
mt
mtabletools
mu
much
muhammad
mul
mullins
mult
multi
multilingual
multimedia
multiple
multiplier
multiutf
musa
muse
music
musical
musicbrainz
musicians
musopen
must
mustafa
mw
my
mylanguage
myrdal
myspace
mysticism
mytalk
mythology
n
na
nachts
nacional
nagarjuna
name
namecode
named
names
namespace
namespaces
naming
nan
nanak
napoleon
napoleonic
nartovski
nartski
nasa
national
nationalism
nations
native
nato
natural
nature
navbar
navbox
navboxdata
navboxes
navcontent
navframe
navidx
navigate
navigation
navigational
navigationbarhide
navigationbarshow
navigationbarshowdefault
navigator
navtoggle
nb
ncl
nd
ndarg
ndargs
ndefaultlanguage
ndl
ne
nearly
necessarily
necessary
neditors
need
needed
needle
needs
nel
nelson
nemo
neolithic
nepal
neptune
neruda
nesolagus
nested
net
netherlands
network
neutrino
neutron
never
new
newclaim
newclaims
newcomers
newer
newest
newfromiso
newfromwikidatavalue
newline
newly
newpages
newrawmessage
news
newsletter
newspaper
newspaperarchive
newspapers
newstring
newton
newvalue
next
nexttypeorfromexists
ng
niagara
nice
nickk
nicolaus
niels
nietzsche
nigeria
night
nihilism
nikola
nil
nilargs
nilargskey
nile
nils
nine
nitrogen
nl
nla
nlr
nm
no
nobel
nocat
node
nodename
nodes
noeditsection
noflip
noindex
nolines
nolink
nolinks
nominate
nominations
nominativeyear
non
none
noon
noprint
nor
nord
normal
north
norway
not
notable
notation
note
notempty
notes
nothing
notice
noticed
notification
notifications
notified
notify
notoc
novalue
novel
november
now
nowiki
nowrap
npage
npov
ns
nsdetectmodule
nsid
nsk
nsname
nstab
nszl
nuclear
nukat
null
num
number
numbering
numbers
numcr
numerals
numeric
numerical
nums
nutrition
nv
nvdash
nvolume
ny
nya
nzst
o
oat
obesity
obj
object
objective
objhttp
obliquo
obrazovanie
oc
ocaasi
ocean
oceania
oceanography
ochilov
october
od
odd
oecd
of
off
offer
offered
offering
offers
office
official
offline
offset
offsetheight
often
ogg
ogv
oh
ohm
oil
oj
ok
ol
old
older
olympics
olympiques
om
ombox
ombuds
ombudsperson
omitted
on
once
onclick
one
ones
online
only
ontology
oojs
ooui
opac
opacity
opec
open
opened
opening
opera
operation
operations
opinion
opinions
opportunities
opportunity
oppose
opt
opted
optical
optics
option
optional
options
optionskey
or
orange
orbit
orchestra
orcid
order
ordered
org
organic
organism
organization
organize
organized
organizing
orig
origargs
origargsargname
original
originally
orthodox
oryctolagus
os
osdate
osm
other
others
otherwise
otrs
ottoman
our
out
outcome
outdated
outer
output
outputbool
outputs
outputsk
outreach
outset
outside
outsidebmp
over
overall
overflow
overlay
overlays
override
overrideargs
overridecode
overrides
overridesubtags
overview
overwrite
overwritten
owen
owl
own
owned
oxford
oxygen
oy
p
pablo
pacific
packed
padding
page
pageobject
pages
pagetitle
pagetype
pagetypes
pageviews
paid
painting
pairs
pakistan
pale
panama
pantheism
paper
para
paragraphs
param
paramalias
paramaliases
paramcoalesce
parameter
parameters
params
paraparam
parent
parentargs
parentfirst
parentheses
parenthetical
parentnode
parentonly
pargs
paris
parkinson
parse
parseclaim
parsecoords
parsed
parsedtable
parsedtime
parsedvalues
parseiso
parser
parserfunctions
parses
parsetitle
part
partial
participants
participate
participated
participating
participation
particle
particular
particularly
partner
partners
partnerships
parts
party
pas
pascal
pass
passed
password
passwords
past
paste
pasteurization
pasting
path
pathways
patrick
pattern
patterni
patterns
paul
paulo
paumier
pbody
pc
pcall
pd
pdf
pdt
peace
peel
peer
pencil
pendulum
people
per
percentage
performance
performing
period
periodic
permission
permissions
perrow
persian
person
personal
persons
petit
petroleum
pgtitle
phabricator
phase
phases
philippines
philosophers
philosophical
philosophies
philosophy
philosopy
phone
photo
photographic
photography
photon
photos
php
phrase
physical
physician
physics
pi
picasso
picture
pictures
piece
pilot
ping
pinging
pink
pintscher
pipe
pitsunda
pl
place
placed
placeholder
placeholders
places
plain
plainlinks
plainlinksneverexpand
plainoutput
plaintext
plan
plane
planet
planned
planning
plans
plant
plantilla
plastic
plate
platform
platforms
plato
plays
please
pleased
plotdata
plus
pluto
pm
pmid
pmids
png
po
poe
poem
poetry
poincare
point
pointcarte
pointer
points
pol
poland
polandball
police
policy
polish
political
politicians
politics
pollution
polo
poly
pontic
pop
pope
popular
populatesourcedataimpl
popup
popuppreview
popups
portal
portale
portion
portlet
portrait
portugal
portuguese
pos
position
positional
positioning
positions
positive
possible
possibleage
possibly
post
posted
posting
postmodernism
postponed
potato
potential
pottery
pound
pour
pov
poverty
pow
power
powerful
pp
ppcornerbottom
ppcornertop
ppelberg
ppradiusbottom
ppradiustop
pr
practice
practices
prava
pravo
prayer
pre
precision
predefinic
prefer
preference
preferences
preferids
preferred
prefix
prefixedtext
prefixes
prefixtable
prefsection
pregnancy
prehistory
prepare
prepared
prepareloc
prepareshowmore
preparing
prepend
preprocess
preprocessargs
preprocesssinglearg
pres
present
presentation
presentations
preserve
president
presley
press
prettytable
prevent
preview
previews
previous
previously
prezidentskaya
primarily
primary
print
printing
prior
priorities
priority
prism
privacy
private
privileged
prize
prizes
pro
probably
problem
problems
process
processed
processing
prockter
produce
produces
product
production
productive
productivity
professional
profile
profit
program
programs
progress
proj
project
projectcode
projects
promodj
prompt
pronolagus
proof
prop
properly
properties
property
propertyid
propertyselector
propertytosearch
proplist
proportion
proposal
proposals
propose
proposed
props
propvalue
prose
protect
protection
protectionindicator
protectlevel
protecttext
protestant
protestantism
protist
proto
proton
prototype
prototypes
provide
provided
provides
providing
ps
pstp
psychology
pt
ptbnp
public
publication
publish
published
publisher
publishers
publishes
publishing
pubmed
pulley
pump
punishment
punjabi
purge
purple
purpose
push
pusher
pushing
put
puzzle
px
pyramid
pywikibot
pywikipedia
pywikipediabot
q
qatar
qin
qnotlaterthan
qnotsoonerthan
qq
qroom
qu
qualifier
qualifierid
qualifierpropertyid
qualifiers
qualifiersprop
qualifiersqualifiername
qualifiervalue
quality
qualsiasi
quantity
quantum
quarterly
que
queen
queer
query
questia
question
questions
qui
quick
quicker
quickly
quiddity
quotation
quotations
quote
qur
r
racism
rad
radar
radiation
radio
radius
railway
rain
raise
raised
raiseinvaliddatatype
ran
random
randompage
range
rank
rate
rather
ratio
rationalism
raw
rawrule
rawrulepattern
ray
rbarr
rd
re
reach
reaction
read
readability
readers
reading
readonly
ready
real
realism
really
rearrange
reason
reasons
rebellion
receive
received
receives
recent
recentchanges
recently
recognize
recommend
recommendations
recommended
record
recorded
records
recreation
recruiting
rect
red
redesigned
redirect
redirected
redirects
reduce
reduced
redundancy
redundant
reef
ref
refchars
reference
references
referencetooltip
referencetooltips
referencing
referendum
reflist
reformation
refresh
refreshed
refrigerator
refs
regarding
regardless
regards
regexp
region
regional
regions
registered
registration
regular
related
relations
relative
relatively
relativity
release
released
releases
relevant
reliable
reliably
religion
religions
religious
remain
remaining
remains
rembrandt
remember
reminder
removal
removals
remove
removeblanks
removechild
removed
removes
removing
renaissance
renaming
render
renderaboverow
renderbelowrow
rendercoordinates
renderdisplaytitle
renderdocumentationcategory
rendered
rendernavbar
renderreferenceimpl
rendersource
rendertitle
rendertrackingcategories
rene
renessaince
renminbi
rep
repeat
repetitions
replace
replaced
replacement
replacements
replaces
reply
replying
report
reported
reports
repository
represented
reproduction
reptile
republic
request
requested
requests
require
required
requirements
requires
res
research
researcherid
reset
resolution
resolve
resolved
resolveresult
resonance
resource
resourcedata
resourcedatas
resourceid
resourcelabel
resources
resp
respective
respectively
respiratory
respond
responded
responsetext
responsible
respublika
rest
restore
restrictions
result
resultclaims
resultlist
resultproperty
results
ret
return
returned
returns
retval
rev
reverse
reverted
reverting
review
reviewing
reviews
revision
revisions
revisionslider
revolution
rfc
rgb
rgba
rhyme
ribbon
ric
rica
rice
rich
richard
rico
rid
rien
rifle
right
rightarrow
rights
rime
ring
river
rk
rm
ro
road
roald
robert
robot
rock
rocket
role
roles
roll
rolled
rolling
roma
roman
romanticism
rome
root
rosenau
round
rounded
rounding
routledge
row
rowargs
rowcellstyle
rowclass
rowid
rowindex
rownums
rows
rowstyle
royal
rr
rsl
rtflipped
rtl
rtsettings
ru
rubber
rudit
rue
rule
rules
rumi
run
runa
running
russia
russian
rutube
ruwiki
ruwikisource
ruwiktionary
rwanda
s
sa
saarbahn
safe
safety
sah
sahara
sahib
saint
sais
sakha
salt
salvador
same
samoa
san
sandbox
sans
sanskrit
satellite
satisfy
saturn
saudi
save
savh
saw
say
says
sc
scale
schedule
scheduled
schism
schoenberg
scholar
scholarly
scholarship
scholarships
science
sciences
scientific
scientists
scope
scopus
scotland
scramble
screen
screens
screenshot
script
scriptargs
scripts
scroll
scrolltop
sculpture
se
sea
seal
seamless
search
searches
searchgobutton
searching
sebastian
sec
second
secondary
secondmostrecentvalue
seconds
secondvalues
section
sections
sectotal
securepoll
security
see
seeking
seems
seen
seg
select
selectclaims
selected
selecting
selection
selector
selectors
selectorsstring
self
selfclosing
selfkey
selfref
semi
semiconductor
send
sending
sense
sent
sentence
seoul
sep
separate
separated
separately
separator
september
serbia
serbo
sergey
series
serif
serve
server
servers
service
session
sessions
set
seth
setmetatable
sets
settimeout
setting
settings
settingsmenu
settlement
seven
several
sex
sexism
sexually
sfondo
sfr
sfsr
sfum
sfumatura
sgrabarczuk
sh
shadow
shakespeare
shallowcopy
shape
share
sharealike
shared
sharing
sheet
shi
shia
shift
shinto
shirt
shock
short
shortcut
shortcuts
shortdesc
shorter
should
shouldconvertgregorian
shouldn
show
showcase
showchar
showed
showera
showfilename
showing
showlang
shown
showqualifier
shows
shtml
shuttle
si
side
sidebar
sighnaghi
sigmund
sign
signature
signatures
significant
significantly
signs
signup
signups
sikhism
siko
silicon
silver
similar
simo
simple
simplecompare
simpler
simplified
simplify
sin
since
singapore
singers
singing
single
sinterplatz
siprage
sister
site
sitedir
sitelink
sitelinks
sitelinksproject
sitenotice
sites
sitesub
sitesupport
sitewide
situation
situations
six
size
sizes
sjabloon
sk
skeleton
skepticism
skew
skills
skin
skins
skype
sl
slavery
slider
slideshow
slightly
slow
slower
slowly
small
smallcaps
smaller
smallpox
smartphone
smartphones
smooth
snak
snakpropertyid
snaks
snaksprop
snaktype
so
soccer
social
socialism
socialnetworkproperties
socialnetworkselements
society
sociology
socrates
soft
software
solar
solid
solomin
solutions
some
someone
something
sometimes
somevalue
somewhere
sonar
sonnet
soon
sooner
sorry
sort
sorter
sorters
sorting
soul
sound
soundcloud
source
sourcedata
sourceid
sources
sourcetoelementlinksdescription
sourcetoelementlinksresourceid
south
soviet
soybean
soyuz
sp
space
spacer
spacerside
spaces
spaceshipone
spacing
spain
spam
span
spancss
spanish
sparseconcat
speak
special
specialchars
species
specific
specifically
specified
specify
specpop
spectrum
speed
speedy
spelling
spend
spent
spirituality
splat
split
sport
sports
spread
spring
sputnik
spx
sqrt
square
sr
src
ss
ssr
ssss
st
staff
stage
stalin
standard
standards
star
stars
start
started
starting
starts
state
statement
statements
statementvalue
states
static
station
statistics
stats
statue
status
stay
std
steam
steel
steering
step
stephen
sterling
steven
steward
stewards
sti
still
stoleti
stone
stop
stopped
store
stored
stores
stories
story
stove
str
stramonium
strategic
strategy
stravinsky
street
stress
strict
strictly
string
strings
strip
stripbrackets
stripmarker
strodt
stroke
strokecolor
strokewidth
strong
structurae
structural
structure
structured
stub
studied
studies
study
style
styles
styling
su
sub
subatomic
subbox
subcells
subcellsk
subdivisions
subgroup
subheader
subheaderrowclass
subheaderstyle
subject
subjectns
subjects
submarine
submission
submissions
submit
submitted
submitting
subpage
subrule
subrules
subscribe
subscribed
subscription
subset
subst
substantially
substituted
substring
subtag
subtags
succeed
success
successful
such
sudan
suez
suffix
suffrage
suggested
suggester
suggestions
suicide
suitable
sul
suleiman
sulfur
sum
sumer
summarizes
summary
summer
sun
sundial
sunni
sup
super
supernova
supplied
supply
support
supported
supporting
supports
suppressed
sur
sure
surprizi
survey
survival
sustainability
sutherland
sv
sval
svaneti
svg
swahili
swap
sweden
swedish
switch
switcherlabel
switcherseparate
switching
switzerland
sword
syllabics
sylvilagus
symbol
symbols
synonym
syntax
syphilis
syria
sys
system
systems
szayna
sztemon
t
ta
tab
table
tablecode
tablerowadded
tables
tablestructure
tabletools
tablets
tablevalue
tabs
tag
tagcontent
tagname
tags
tail
taiping
tait
taiwan
take
taken
takes
taking
takoe
tales
talk
talking
tamil
tanakh
tank
taoism
tap
taras
target
targetdate
task
taskforce
tasks
tatar
tax
taxobox
taylor
tbilisi
tbl
tblidx
td
te
tea
teach
team
teams
tech
technical
technology
tectonics
tehran
telecommunication
telephone
telescope
television
tell
temp
temperature
templat
template
templatedata
templatelink
templatename
templates
templatestyles
templatetitle
temporarily
temporary
ten
teoriya
term
terms
ternary
tes
tesla
test
tested
testing
tests
text
textselements
textsproperties
texttotable
tf
tg
tgr
th
thai
thailand
than
thank
thanks
that
thcolspan
the
theatre
their
theism
theistic
them
theme
themeprofileselements
themeprofilesproperties
themselves
then
theocracy
theory
theravada
there
therefore
thermodynamics
these
they
thin
thing
things
think
thinking
third
this
thomas
those
though
thought
thoughts
thousands
thread
three
through
throughout
throwerror
thumb
thumbnail
thumbnails
thumbtime
thursday
ti
ticket
tidiedval
tidyval
tigrinya
tiles
till
time
timekeeping
timeline
times
timestamp
timestring
timevalue
timing
tip
tisi
title
titlearg
titlecell
titleclass
titlecolspan
titlegroup
titleparts
titlerow
titles
titlestring
titlestyle
titletext
tkey
tma
tmbox
tmp
tn
to
toc
toccolours
toclevel
toclimit
today
todo
together
toggle
togglebutton
togglert
togo
toi
toiso
tokyo
tolstoy
tomorrow
tonumber
too
tool
toolbar
tools
toolserver
tooltip
tooltipnode
tooltips
top
topic
topicon
topics
topleft
topright
tornado
tostring
tout
towards
tower
town
toy
tp
tpt
tr
track
tracking
tracks
tract
trade
trademark
traditional
traffic
tragedy
trailing
train
trains
tramway
transform
transistor
transition
transl
translatable
translate
translated
translatenext
translates
translatewiki
translathon
translating
translation
translationcentral
translations
translators
translit
transliterated
transliteration
transmitted
transparency
transparent
transport
transportation
trasparente
trauma
travel
tree
triage
trial
triangle
tricky
tried
trigger
tright
trim
trimargs
trimmed
trimstr
triste
trizek
tro
trois
tropical
trouble
true
trust
trustees
truth
try
trying
ts
tscript
tt
tu
tuberculosis
tuesday
tuesdays
tul
tumblr
turing
turkey
turkish
turkmenistan
turn
turning
tuvalu
tv
tw
twitter
twl
two
txt
typ
type
typeof
types
typewriter
typing
typography
typos
u
ua
uboundary
uc
ucoc
ui
uk
ukraine
ukrainian
ukrop
ul
uls
un
una
uncertain
unclosed
und
undefined
undelete
under
underline
understand
understanding
une
unexpected
unfortunately
unicef
unicode
union
unit
unitalicize
unitalicizesubstring
united
universal
universe
university
unknown
unless
unnamed
unpack
unrecognized
unregistered
unset
unsubscribe
untifler
until
unusual
unwanted
up
upanishad
uparrow
upcoming
update
updated
updates
updating
updownarrow
upload
uploading
uploads
uploadwizard
upon
upper
upperbound
upright
uranium
uranus
urdu
urgent
uri
url
urlparams
urls
urltype
ursa
us
usa
usability
usage
use
used
useful
user
userlinks
userlinksuser
userlogin
username
userns
users
usersummarybuttonsa
uses
usewikidata
using
ustring
ustringlower
usual
usually
utc
utcen
utcoffset
utf
util
utm
uz
v
vaccine
vahe
vajrayana
val
valid
validate
valign
valley
valleys
vals
valuable
value
valuefunc
values
valuetofind
van
vandalism
var
variable
variables
variant
variantsubtags
variantvariant
various
varnent
varnum
vdash
ve
vector
vedas
vega
vegetable
vehicle
vela
venezuela
venue
venus
verde
version
versions
vert
vertical
verticale
very
vi
via
viaf
video
videos
vie
vienna
vietnam
vieux
view
viewer
views
vii
viii
viking
village
vimeo
vincent
vinci
violet
virgil
virgin
virtual
virtually
visible
vision
visit
visited
visual
visualeditor
visualeditordid
visualizza
visually
vital
vladimir
vladislav
voice
vol
volcano
volume
volunteer
volunteering
volunteers
vom
von
voodoo
voprosy
vorlage
vote
voters
votes
voting
voyage
vv
w
wa
wagner
wait
waiting
wales
wall
walt
want
wanted
wanting
wants
war
warming
warning
warningdone
warrakkk
warriors
wars
warsaw
was
washington
watch
watching
watchlist
water
way
ways
wb
wd
wdcoords
wds
wdvalues
we
weak
weapon
weapons
wear
weather
web
weber
webfonts
webkit
webm
website
websites
wednesday
week
weekly
weeks
wef
weight
welcome
welcoming
well
welsh
went
were
west
western
wgaction
wgarticleid
wgarticlepath
wgcanonicalnamespace
wgcanonicalspecialpagename
wgnamespaceids
wgnamespacenumber
wgscript
wgusername
wgwikieditorpreferences
what
whatamidoing
whatever
wheat
wheel
when
where
whether
which
whichever
while
white
whitespace
who
whole
why
wide
wider
width
widths
wien
wiki
wikibase
wikibooks
wikibugs
wikidata
wikidatacoords
wikidataid
wikidataitemid
wikidataselectors
wikidatavalue
wikieditor
wikifunctions
wikilink
wikimania
wikimedia
wikimedians
wikiminiatlas
wikinews
wikipedia
wikipedians
wikipedias
wikiquote
wikis
wikisource
wikisources
wikitable
wikitech
wikitext
wikiversity
wikivoyage
wikivoyages
wiktionaries
wiktionary
will
william
willing
win
wind
window
windows
wine
winners
winston
winter
wish
wishes
wishlist
witch
witches
with
within
withjs
withlang
without
withoutqualifier
withoutrecurrence
withunit
wmde
wmf
wmflabs
wo
wolfgang
woman
women
won
wonders
word
words
work
workboard
worked
workflow
working
worklist
works
world
worldwide
worship
would
wp
wpsave
wpsummary
wptextbox
wpwp
wrap
wrapped
wrapper
wrappers
write
writing
written
wrong
www
wə
x
xc
xeno
xg
xi
xii
xiii
xiv
xix
xl
xn
xv
xvi
xvii
xviii
xx
xxi
xxiii
xxx
xxxx
y
yana
year
yeardifference
years
yellow
yen
yes
yesno
yet
yeux
yoga
york
you
your
yours
youtube
yudzhin
yyyy
z
za
zadavaemye
zbmath
zealand
zedong
zeppelin
zero
zh
zheng
zhuang
zones
zoology
zoom
zoroaster
zoroastrianism
zotero
zquez
{
|
}
~

¡
¢
£
¤
¥
¦
§
¨
©
ª
«
¬
­
®
¯
°
±
²
³
´
µ
¶
·
¸
¹
º
»
¼
½
¾
¿
×
ß
æ
ð
÷
ø
þ
ħ
ı
ł
łobez
łobzie
ŋ
œ
ƒ
ǀ
ǁ
ǂ
ɐ
ɑ
ɒ
ɓ
ɔ
ɕ
ɖ
ɗ
ɘ
ə
əj
əw
ɛ
ɜ
ɞ
ɟ
ɠ
ɡ
ɢ
ɣ
ɤ
ɥ
ɦ
ɧ
ɨ
ɪ
ɫ
ɬ
ɭ
ɮ
ɯ
ɰ
ɱ
ɲ
ɳ
ɴ
ɵ
ɶ
ɸ
ɹ
ɺ
ɻ
ɽ
ɾ
ɿ
ʀ
ʁ
ʂ
ʃ
ʄ
ʅ
ʆ
ʈ
ʉ
ʊ
ʋ
ʌ
ʍ
ʎ
ʏ
ʐ
ʑ
ʒ
ʓ
ʔ
ʔi
ʕ
ʖ
ʘ
ʙ
ʛ
ʜ
ʝ
ʟ
ʡ
ʢ
ʣ
ʤ
ʥ
ʦ
ʧ
ʨ
ʰ
ʱ
ʲ
ʳ
ʴ
ʵ
ʶ
ʷ
ʸ
ʼ
ʿ
ˀ
ˁ
ˆ
ˈ
ˌ
ː
ːˈ
ːˌ
ˑ
˘
˜
ˠ
ˡ
ˢ
ˣ
ˤ
̀
́
̂
̃
̄
̆
̇
̈
̉
̊
̋
̌
̍
̏
̑
̓
̞
̣
̦
̧
̨
̩
̪
̯
̸
͂
α
β
βι
γ
γος
δ
ε
ζ
η
θ
ι
κ
λ
λο
μ
ν
ξ
ο
ος
π
ρ
ς
σ
τ
υ
φ
χ
ψ
ω
ϑ
ϒ
ϖ
а
аа
ааба
аагара
ааглых
ааглыхра
ааглыхратә
ааглыхреи
аагоуп
аадыртит
аадырԥшит
аадырԥшӡом
ааи
ааигәа
ааигәара
ааигәатәи
ааирԥшит
ааит
аалыҵ
аалыҵқәа
аалӡга
аамсҭа
аамсҭара
аамсҭацәа
аамсҭаԥҳәыс
аамсҭеи
аамҭа
аамҭаз
аамҭазгьы
аамҭазтәи
аамҭазы
аамҭак
аамҭаказы
аамҭакала
аамҭала
аамҭалатәи
аамҭан
аамҭахәҭазы
аамҭақәа
аамҭеи
аан
аанакылеит
аанарԥшуеит
аангыларҭак
аангыларҭақәа
аанда
аанижьуеит
ааникылоит
ааникылон
аанкылан
аанкылара
аанкыларазы
ааннакыларазы
ааннакылеит
ааннакылоит
аанрыжьит
ааныжьны
ааныжьра
аанызкыло
ааныркылеит
ааныркылоит
аанӡа
аар
аартра
аарыхра
аарҩара
аарҳәра
аарԥшра
аарԥшразы
аарԥшуп
аарԥшын
аасҭа
ааха
аахыс
аахыҵ
аахәара
аахәарақәа
аацы
аашәы
ааҟ
ааӡара
ааԥхьара
ааԥын
ааԥынра
ааԥынреи
ааԥынтәи
аб
абаа
абаагәара
абааш
абаашқәа
абаақәа
абааҭа
абаз
абаза
абазақәа
абазг
абазгаа
абазилика
абакалавр
абакалавриаттә
абаклажан
абактериақәа
абал
абалкарцәеи
абанк
абанктә
абанкқәа
абар
абара
абарабан
абарҭ
абарҭқәа
абас
абасала
абаталион
абахҭа
абахҭаҟны
абашьа
абаҟа
абаҟақәа
абаҟәқәа
абаҩхатәра
абаҳча
абаӷәаза
аббатства
абгархықә
абдалла
абдель
абдул
абеиара
абеит
абелорус
абер
абербер
аберҭыԥ
аберҭыԥқәа
аберҭыԥқәеи
абжа
абжьагаҩ
абжьагаҩс
абжьаратә
абжьаратәи
абжьарашәышықәсақәа
абжьас
абжьаҟазаратә
абжьаҟазаҩцәа
абжьаҟәа
абжьгарақәа
абжьуа
абжьуаа
абжьы
абжьыуаа
абжьыҟатә
абжьыҭира
абжьыҭираан
абжьыҭирақәа
абжьыҭираҿ
абжьыҭырақәа
абжьқәа
абзазаратә
абзаца
абзацы
абзиа
абзиабара
абзиабареи
абзиеи
абзоурала
абиблиа
абиблиографиа
абидин
абизнес
абизнеси
абизнесменцәа
абиографиа
абиологиа
абиологиатә
абиологцәа
абиосфера
абираҟ
абираҟдырга
абираҟқәа
абиуџьет
абиԥара
абиԥарақәа
аблок
абна
абнатә
аболгар
абольшевиктә
абольшевикцәа
абольшевикцәеи
абосниеццәеи
аботаника
аботаникатә
абра
абранӡа
абраҟа
абраҟатәи
абраҵәҟьа
абреџь
абри
абсолютно
абу
абуржуазиатә
абх
абхазии
абхазия
абхазо
абхазов
абхазоведение
абхазоу
абхазская
абхазские
абхазскии
абхазским
абхазских
абхазского
абхазскои
абхазском
абхазскую
абхазы
абыжьбатәи
абыжьқәа
абызшәа
абызшәала
абызшәатә
абызшәақәа
абызшәақәеи
абызшәаҭҵаара
абызшәеи
абылтәи
абыргцәа
абырз
абырзен
абырзентә
абырзенцәа
абырлаштә
абыҟә
абџьар
абҳәа
абҵара
абҵарамза
абӷархықә
абӷьыцқәа
аваинах
аваинахцәа
авалиута
авалиутатә
авар
авариантқәа
авария
август
августа
августе
авенгрцәа
аверсиа
авест
авиакатастрофе
авиакомпании
авиалаи
авиация
авидзба
авикипедиа
авироид
авирус
авирусоид
авирусқәа
авице
авл
аврора
австразиа
австразии
австралиа
австралиатәи
австралиеи
австралии
австриа
австриатә
австриатәи
австриеи
австрии
австро
автобустә
автокефалиа
автоматическая
автоматически
автоматическии
автоматическое
автомобилеи
автомобиль
автомобиля
автономии
автономныи
автономтә
автопатрулируемыи
автор
автора
авторитартә
авторитетные
авторитетныи
авторитетными
авторитетных
авторов
авторс
авторские
авторским
авторских
авторского
авторское
авторском
авторстве
авторцәа
авторы
аг
агазет
агазеҭ
агалереа
агалериа
агалуан
аган
аганахь
аганахьала
аганқәа
агарнизон
агаҟны
агаҿа
агаҿы
агежь
агежьбжататә
агеит
агендертә
агенерал
агенералтә
агентство
агеографиа
агеометриа
агеополитикатә
агеральдикатә
агерб
агерман
агерманцәа
агимн
аглобализациатә
аглобализациеи
аглобалтә
агломерации
агломерацию
агород
агоспитальтә
аграждантә
аграртә
агрба
агрессиатә
агриппа
агриппина
агриппинәи
агубернатор
агуберниа
агумаа
агуманисттә
агуманитартә
агхақәа
агындиа
агырны
агыруа
агьежь
агьеографиа
агәаанагара
агәаанагарақәа
агәабзиара
агәабзиарахьчара
агәабзиарахьчаратә
агәабзиарахьчареи
агәазыҳәара
агәалашәарақәа
агәара
агәаҟра
агәмаа
агәра
агәрагара
агәрамгара
агәулан
агәы
агәыл
агәынамӡара
агәырҵҟәыл
агәырҿыхара
агәыхь
агәыҳалалратә
агәыӷра
агәыӷрақәа
агәыԥ
агәыԥқәа
агәҭа
агәҭабжьаратәи
агәҭантәи
агәҭаны
агәҭатәи
агәҭынчымрақәа
ад
ада
адагьы
адамра
адамрақәа
адана
адаргьын
адат
адау
адауцәа
адашьма
адаҟьа
адаҟьақәа
адаӷьсҭан
адг
адгалара
адгылара
адгыларазы
адгылаҩцәа
адгьыл
адгьылбжьаха
адгьылбжьахабжа
адгьылбжьахабжақәа
адгьылбжьахабжаҟны
адгьылбжьахала
адгьылбжьахатә
адгьылбжьахатәи
адгьылбжьахақәа
адгьылбжьахаҿы
адгьыли
адгьылтә
адгьылхҩыл
адгьылқәа
адгьылҵакыра
адгәыр
адевиз
аделегатцәа
аделегациа
адемографиа
адемографиатә
адемократиа
адемократиатә
адемократиатәи
адемократиеи
адемократцәа
адемонстрантцәа
адемонстрациа
адемонстрациақәа
адемонстрациақәеи
адепартамент
адепартаментқәа
адепо
адепутат
адепутатс
адепутатцәа
аджинджал
адзинба
адиалект
адиалекттә
адиалектқәа
адиаспора
адиаспорақәа
адивизион
адиктаторцәа
адикәан
адин
адинла
адинтә
адинхаҵара
адинхаҵаратә
адинхаҵарақәа
адинхаҵараҿы
адинхаҵареи
адинқәа
адипломатиа
адипломатиатә
адипломатцәа
адиректор
адиректорс
адискриминациа
адиссертациа
адиулон
адкылара
адлеиаа
адлеиба
адлер
админ
админа
админдеи
административ
административные
административных
административтә
администратор
администратора
администраторами
администраторов
администратором
администратору
администраторы
администрациа
администрации
админфлага
адмирал
аднакылеит
аднакылоит
адоктор
адокумент
адольменқәа
адольф
адольфа
адомен
адоуҳаныҟәгаҩ
адоуҳатә
адраматург
адраматургцәа
адраматә
адрес
адресу
адриатик
аду
адукат
адулара
адума
адунеи
адунеиаҿ
адунеижәларбжьа
адунеижәларбжьаратә
адунеизегьтәи
адунеизегьы
адунеии
адунеитә
адханом
адыг
адыга
адыгаа
адыгеиатәи
адыгских
адыгьан
адырга
адыргақәа
адырра
адыррақәа
адыррақәеи
адырҩаҽны
адҩыла
адҩылақәа
адҩылаҿы
адҳәалоуп
адҵа
адҵала
адҵара
адәахьала
адәахьалагьы
адәныҟатәи
адәы
адәылцра
адәыӷба
адәыӷбақәа
аевангелист
аеволиуциатә
аедыгаа
аедыгь
аекологиа
аекологиатә
аекологиеи
аекономика
аекономикатә
аекономикатәи
аекономикеи
аекономист
аекономистцәа
аексперттә
аекспертцәа
аекспорт
аекуменизм
аелемент
аелементқәа
аелын
аемпирикатә
аенциклопедиа
аепархиа
аепархиақәа
аепидемиатә
аепископ
аепископцәа
аепос
аепоха
аерманцәа
аерманы
аесперант
аетап
аетика
аетикеи
аетимологиа
аетникатә
аетникатәи
аетнограф
аетнографиа
аетнографиеи
аетнолог
аетнологцәа
аетноним
аетнонимқәа
аетнос
аетноси
аетносқәа
аеҵәа
аеҵәақәа
ажара
ажләақәа
ажурнал
ажурналист
ажурналистика
ажурналистцәа
ажь
ажьа
ажьиба
ажьира
ажьы
ажьырны
ажьырныҳәа
ажьырныҳәамза
ажә
ажәа
ажәаатәи
ажәабатәи
ажәабжь
ажәабжьқәа
ажәаеинраалақәеи
ажәалагала
ажәалагалақәа
ажәамаанақәа
ажәамԥсақәа
ажәахә
ажәахәқәа
ажәақәа
ажәбатәи
ажәеи
ажәеинраала
ажәеинраалақәа
ажәеинраалақәеи
ажәла
ажәлар
ажәларбжьаратә
ажәлари
ажәларра
ажәларқәа
ажәларқәеи
ажәлақәа
ажәпара
ажәтә
ажәтәи
ажәылара
ажәылаҩ
ажәытә
ажәытәбырзен
ажәытәра
ажәытәтәи
ажәытәӡатә
ажәытәӡатәи
ажәҩан
ажәҵыс
азааигәара
азакәан
азакәантә
азакәанқәа
азакәанқәеи
азакәанӡбатә
азакәанԥҵара
азакәанԥҵаратә
азакәанԥҵаратәи
азакәанԥҵарақәа
азакәанԥҵареи
азал
азали
азалтә
азанааҭ
азанааҭеидгыла
азанааҭеидгылатә
азанааҭеидгылақәа
азанааҭтә
азанҭа
азауад
азбжа
азбжазы
азг
азгәазҭо
азгәарҭоит
азгәаҭан
азгәаҭаны
азгәаҭара
азгәаҭақәа
азгәаҭоуп
азгәеиҭеит
азгәеиҭон
азеижәтәи
азеипш
азеиԥш
азер
азербаи
азербаиџьан
азербаиџьантәи
азербаиџьанцәа
азиа
азиатәи
азиаҟны
азиеи
азиз
азии
азикуеит
азин
азиндырра
азиндырратә
азини
азинмчхарақәа
азинмчы
азинтә
азинхьчаратә
азиншьаҭа
азинқәа
азинқәеи
азиуан
азиуеит
азия
азкын
азнауеит
азнеишьа
азоуп
азура
азуразы
азхаҵара
азхаҵаразы
азхьарԥшқәа
азхьаԥшра
азы
азызуа
азызуаз
азылуан
азымхара
азын
азыркьаҿра
азыруеит
азырҳәоит
азықәԥара
азыҟаҵара
азыҳәан
азқьышықәса
азҟаза
азҭаз
азҭо
азҭоз
азҵаара
азҵаарақәа
азҵаатәқәа
аи
аиааира
аиааиразы
аиагареи
аиадертә
аиапон
аиапонуаа
аиасратә
аиаша
аиашазы
аиашара
аиашатә
аиашахаҵаратә
аиаҵәақәа
аиба
аибашьра
аибашьранӡа
аибашьратә
аибашьрақәа
аибашьраҿ
аибашьраҿы
аибашьцәа
аибыслара
аидгыла
аидгылара
аидеиа
аидеиақәа
аидеологиа
аидеологиақәа
аидыслара
аидысларақәа
аиеҵәа
аизара
аизараҿ
аизга
аизгара
аизыҟазаашьақәа
аизыҟазаашьақәеи
аизҳара
аииаира
аилага
аилазаара
аилазаарақәа
аилазаараҿы
аилазаареи
аилазаашьа
аилак
аиланхарҭа
аиларшьышьи
аилатәара
аилатәарақәа
аилатәараҿы
аилахәыра
аилацәажәара
аилацәажәараҿ
аилацәажәараҿы
аилибакаара
аилкаа
аилкаара
аилкааразы
аилкаарақәа
аилыргара
аилыркаа
аилыркаара
аилыхара
аимадара
аимак
аимакқәа
аимара
аимператор
аимператорцәа
аимпериа
аимпериатә
аимшьҭрақәа
аимҳәаду
аингалатә
аингәыш
аингәышцәа
аиндекс
аиндуизм
аиндустриалтә
аиндусцәа
аинклиузивтә
аинновациатә
аинрал
аинралцәа
аинститут
аинститутқәа
аинституционалтә
аинструменталистеи
аинтеллектуалтә
аинтерес
аинтересқәа
аинтериер
аинтернат
аинтернет
аинформациа
аинформациатә
аинфраструктура
аиныршәаратә
аинышәара
аирес
аисламтә
аисланд
аиспан
аиспанцәа
аит
аиталиа
аиталиан
аиталианцәа
аиудаизм
аиуеит
аиуит
аиура
аиуразы
аиурист
аиуристтә
аиуристтәи
аиустициа
аиха
аихагыла
аихамҩа
аихамҩатә
аихамҩақәа
аихшара
аихьӡарақәа
аихьӡыла
аицбы
аицәажәара
аишьцәа
аиқәшаҳаҭра
аиқәшаҳаҭрақәа
аиқәырхара
аиқәыршәара
аиқәыршәаразы
аиқәышаҳаҭра
аиқәышаҳаҭрақәа
аиҟарамра
аиҟарара
аиҩызаратә
аиҭага
аиҭагақәа
аиҭагаҩ
аиҭаира
аиҭакрақәа
аиҭахәаԥшреи
аиҭашьақәыргылара
аиҭашьақәыргыларатә
аиҭаҳатә
аиҭеит
аиҭоит
аиҭон
аиҳабацәа
аиҳаби
аиҳабцәа
аиҳабы
аиҳабыра
аиҳабырабжьаратә
аиҳабыратә
аиҳабырақәа
аиҳабыреи
аиҳабыс
аиҳарак
аиҵбы
аиҿагылара
аиҿагыларақәа
аиҿак
аиҿартәышьа
аиҿкаара
аиҿкааразы
аиҿкааратә
аиҿкаарақәа
аиҿкаареи
аиҿкааҩцәа
аиҿцәажәара
аиҿцәажәарақәа
аиҿырԥшратә
аиӷьтәра
аиӷьтәразы
аиԥшра
аиԥшымзаара
аиԥшымзаарақәа
аиԥылара
аиԥыларақәа
аиԥылараҿы
ак
акаба
акабаа
акавказтә
акагьы
акад
академиа
академиатә
академиеи
академии
академик
академия
аказы
акака
акакәны
акан
акандидат
акандидатцәа
акантон
акаолициа
акапан
акапиталисттә
акарта
акартографиа
акарточка
акартош
акартошхы
акаталикос
акатегориа
акатегориақәа
акатолик
акатоликатә
акатоликос
акафедра
акафедралтә
акафедраҿ
акаԥа
акб
аквадраттә
аквитаниа
аквитаниатә
акгьы
акзаара
акинематографиа
акинорежиссиорцәа
акириллица
акит
акитаи
акка
аккад
акланқәеи
акласс
аклассикатә
аклассификациа
аклиникатә
аклуб
аклубтәи
акны
акодқәа
аколлективтә
аколлеџьқәа
аколониа
аколониализм
аколониалтә
аколониақәа
аколонизаторцәа
аколонизациа
аколхоз
акоманда
акоми
акомиссиа
акомитет
акоммерциатә
акоммуналтә
акоммунизм
акоммунисттә
акоммунистцәа
акомпаниа
акомпиутертә
акомплекс
акомпозитор
акомпозиторцәа
акомҿар
аконгресс
аконкурс
аконсервативтә
аконсервациа
аконституциа
аконституциатә
аконституциеи
аконструктивизм
аконструктивистцәа
аконструкциатә
аконсул
аконсультациақәа
аконтингент
аконтинент
аконтинентқәа
аконтрреволиуцианерцәа
аконтрреволиуционерцәа
аконференциа
аконференциақәа
аконфликт
аконфликтқәа
аконфликтқәеи
аконцепциа
акоординат
акоординациа
акоронавирус
акорпоративтә
акоррупциа
акоррупциатә
акосмос
акоуп
акраамҭа
акрал
акралра
акралратә
акралцәа
акралԥҳәыс
акрамиттә
акредиттә
акризис
акритик
акритика
акролик
акружок
акры
акрызҵазкуа
акрызҵазкуаз
акрыфара
акт
акте
активистцәа
активла
активности
активность
активные
активных
активтә
актиор
актиорцәа
актәи
акульттә
акультура
акультуратә
акультуратәи
акультурақәа
акультуреи
акурдцәа
акурс
акциа
акциақәа
акы
акымкәа
акыр
акыраамҭа
акыршықәса
акырынтә
акырӡа
акыҭа
акьакьҭаиаша
акьырмыт
акьыԥхь
акқәа
акәа
акәакь
акәакьқәа
акәакьҭаиаша
акәара
акәашара
акәашаҩцәа
акәзар
акәзаргьы
акәмызт
акәны
акәтаҕь
акәу
акәхеит
акәхоит
акәша
акәыкәбаақәа
акәымзар
акәымкәа
акәын
акәӡам
ал
ала
алагала
алагалан
алагалара
алагалақәа
алагамҭа
алагамҭаз
алагамҭазы
алагамҭеи
алагара
алагарҭатә
алагеит
алагьы
алада
аладатабаск
аладатәи
аладахьала
аладахьалагьы
аладырхәт
алаз
алаку
алакуп
алакыз
алакын
алаларазы
аламиа
аламырҵәара
аламырҵәаразы
аламҭалазы
аланагалеит
аланхо
аларҵәара
аларҵәаразы
алатыш
алауреат
алахтыра
алахьынҵа
алахәхара
алахәцәа
алахәыла
алахәылас
алахәылацәа
алахәылацәеи
алахәын
алахәҩы
алашара
алашараҿ
алаҟәра
алаҭ
алаҭин
алаҭын
алаҭынамерикатә
алаҳаӡы
алаҳәара
алаҵара
албан
албаниа
албаниеи
албании
албанскии
алгара
алгаразы
алгонкин
алгоритм
алегри
алезгьын
алекс
александр
александра
александрова
александрович
александром
александру
алексеи
алектор
алекциа
алекциақәа
алеппо
алеут
алеқсандр
алеқсандриа
алеқсеи
алжир
алжиртәи
али
алиас
алиберал
алибералтә
алиев
аликанте
алингвистика
алингвистцәа
алирика
алиса
алитература
алитературазы
алитературатә
алитератураҭҵааҩ
алитературеи
алицеи
алкаа
алкаара
алкаақәа
алла
алма
алмаз
алман
алмантәыла
алмасхан
алнаршом
алого
алоуп
алтаи
алукаар
алфавит
алфавите
алфавитном
алфавитныи
алфавиттә
алфавиту
алфавитқәа
алхас
алхра
алхратә
алхрақәа
алхыҩцәа
алшара
алшарақәа
алшоит
алшон
алымгәы
алырхуеит
алыршара
алыршахоит
алықсандр
алықьса
алыҵшәа
алыҵшәақәа
аль
альберт
альбом
альбома
альбомқәа
альва
альманах
альт
альтернатива
альфа
альфонсо
альфред
аляски
алҭеиба
алҵшәа
алҵшәақәа
алԥшаара
ам
амаа
амагистр
амагистратура
амазаара
амазара
амазаргьы
амазонка
амаиордом
амакедон
амаксималтә
амал
амалуаа
амам
амамзаара
амамызт
аман
аманчжур
аманы
амаршрутқәа
амаршьан
амассатә
аматематика
аматериа
аматериал
аматериалтә
аматериалқәа
амашьына
амашәырцәгьақәа
амаҭәа
амаҭәар
амаҭәартә
амаҭәарқәа
амаҵ
амаҵақәа
амаҵзура
амаҵзуратә
амаҵзурақәа
амаҵзуреи
амаҵура
амаҵурауааи
амаҵурауаҩ
амаҵураҭыԥ
амаҵыругақәа
амаӡа
амаӡам
амаӡаныҟагаҩыс
амаӡаныҟәгарҭа
амаӡаныҟәгаҩ
амаӡаныҟәгаҩцәа
амаӡаныҟәгаҩыс
амбролаур
амегаполис
амедал
амедиавики
амедико
амедицина
амедицинатә
амедицинеи
аменеџьер
аменеџьмент
аменеџьменти
аменшевикцәа
америка
америкаа
американец
американская
американские
американскии
американскими
американских
американского
американскои
американцев
америкатә
америкатәи
америкауаа
америкаҟны
америкаҿы
америке
америкеи
америки
америку
аметафизика
аметодқәа
аметро
аметрологиа
аметрополитен
аметротрам
амеханизм
амеханизмқәа
амжәықәхәа
амзар
амзара
амзаҿа
амзызқәа
амзызқәеи
ами
амигрантцәа
амикроскоп
амилаҭ
амилаҭбжьаратә
амилаҭеилыхра
амилаҭтә
амилаҭтәи
амилаҭқәа
амилициа
амилициатә
амин
аминералтә
аминималтә
аминистр
аминистрра
аминистррақәа
аминистрс
аминистрцәа
амиран
амиссиа
амиссионер
амитинг
амитрополит
амифқәа
амла
амлакра
амлакразы
амлакреи
амнистиа
амодель
амодул
амодуль
амодульқәа
амонархиа
амонархиақәа
амонгол
амонета
амонографиақәа
амонотеисттә
аморалтә
амотив
амоуп
амоурц
ампыл
ампыҵахалара
амра
амрагылара
амрагыларатәи
амрагыларахь
амрагылартәи
амратә
амраҭашәара
амраҭашәаратә
амраҭашәаратәи
амраҭашәарахь
амраҭашәараҿы
амреи
амстердам
амстердамскии
амсылманра
амсылманратә
амсылманраҿы
амсылманцәа
амузеи
амузеиқәа
амузика
амузикантцәа
амузыка
амузыкантцәа
амузыкатә
амуниципалитет
амуниципалтә
амфора
амхаџьыра
амхаџьырра
амца
амцабз
амцахара
амч
амчра
амчратә
амчрахь
амчрақәа
амчрақәеи
амчреи
амчхара
амчыбжь
амчқәа
амш
амшала
амшра
амшын
амшынду
амшынеиқәа
амшыни
амшыннырцәти
амшыноуп
амшынтә
амшынқәа
амшқәа
амыругақәа
амҩа
амҩадуқәа
амҩала
амҩангагатә
амҩақәа
амҩақәҵаратә
амҩаԥгара
амҳаџьырра
амҵан
амҵәыжәҩақәа
амҷба
амҽхак
амҿтәы
амҿытә
ан
анааилак
анага
анагӡара
анагӡарагьы
анагӡаратә
анагӡаратәи
анажьра
анаиу
анализ
анализе
анализу
аналогичное
аналогичнои
аналогичные
аналогичных
анапахьы
анапаҵаҟа
анапаҵаҩра
анапсаргәыҵа
анапхгара
анапхгаратә
анапхгараҭара
анапхгараҭаратә
анапхгаҩцәа
анапхгаҩы
анапы
анапылаҩыра
анапылаҩырақәа
анапҩыра
анапҩырақәа
анатоли
анатолии
анатолия
анатомиа
анатуралтә
анаука
анаукатә
анаукатәи
анаукақәа
анаукеи
анах
анахаҩы
анашьан
анашьоуп
анаҩс
анаҩсан
анаҩсангьы
анаҩсгьы
анаҩстәи
анаҭоит
анаԥхгара
анбан
анбанқәа
англ
англиа
англиатә
англиатәи
англиеи
англии
англичан
англичане
англия
англо
англы
англыз
англызтә
ангола
анджелес
анди
андорра
андре
андреи
андриа
анеилга
анемец
анемеццәа
анен
анефт
анеҩс
анзор
ани
анилымшо
аниме
аниоу
аниу
аниуаз
анихыҵуаз
аниҵоз
анкара
анкваб
анкылага
анкьа
анкьатәи
анна
аннакылоит
аннексиа
аннексировала
анны
аномер
аноминал
анонимныи
анонимных
анормативтә
анормақәа
аноурылара
анри
анрыдыркыла
антанты
антверпен
антефиқсқәа
анти
антигуеи
антикапитализм
антикара
антикатә
антикатәи
антикоммунистцәа
антиохиатәи
антисемитизм
антолгиаҿы
антологиа
антологиаҿ
антон
антони
антонии
антропологиа
ануп
анфас
анхамҩа
анхамҩатә
анхара
анхарҭа
анхарҭаҭыԥқәа
анхацәа
анхаҩжәлар
анхаҩцәа
анхаҩцәеи
анхаҩы
анхаҩыжәлар
анхаҩыжәылар
анхаҩыцәа
анхәа
анцә
анцәа
анцәагьы
анцәадзыхшаз
анцәахәы
анцәахәқәа
анцәақәа
анцәеи
анызарҭа
анырра
аныхабаа
аныхачаԥақәа
аныхиркәша
аныцә
анышь
анышьақәгыла
анышә
аныҟарҵо
аныҟоу
аныҟәара
аныҳәа
аныҳәарҭа
аныҳәарҭеи
аныҳәатә
аныҳәақәа
анџьелес
анџьелино
анџьныр
анқәаб
анқәабаа
анҭыҵ
анҭыҵгьы
анҭыҵи
анҭыҵтәи
анҵамҭақәа
анҵәамҭа
анҵәамҭаз
анҵәамҭазы
анҵәамҭанӡа
анҵәамҭеи
аобиектқәа
аобком
аобласт
аобластқәа
аокеа
аокеан
аокеаниатәи
аокеанқәа
аоккупациа
аокруг
аокругқәа
аоперативтә
аоперациа
аоперациақәа
аоппозициа
аоппозициатә
аорганизация
аорден
аофисқәа
аофициалтә
аочеркқәеи
ап
апалеографиатә
апандемиа
апап
апарламент
апарламенти
апарламенттә
апартиа
апартиатә
апартиақәа
апартиақәеи
апартизантә
апартисипативтә
апасаџьырцәа
апатриарх
апатриотикатә
апатырџьан
апедагогигатә
апедагогтә
апериод
апериодика
апериодикатә
аперсонажцәа
аперсонал
аплан
апланета
апланетақәа
апланетологиа
аповстантә
аповстанциатә
аподагогтә
апоезиа
апоема
апоемақәа
апоемақәеи
апоет
апоетцәа
апозициа
апозхсаала
аполиак
аполиакцәа
аполитбиуро
аполитеисттә
аполитик
аполитика
аполитикате
аполитикатә
аполитикатәи
аполитикаҿы
аполитикеи
аполитикцәа
аполитолог
аполитологиа
аполициа
аполициатә
аполициеи
аполк
аполковник
аполлон
апон
апортал
апотенциал
аппарат
аппарата
аппозициак
апрактика
апре
апрезидент
апрезидентс
апрезиденттә
апрезидентцәа
апрезидиум
апрель
апреля
апремиа
апрефект
апринц
апринцип
апринципқәа
апроблема
апроблемақәа
апровинциа
апровинциақәа
апровинциақәеи
апрограмма
апрограммақәа
апрогресс
апрогрессивтә
апроект
апроектқәа
апрозаик
апрокуратура
апрокуратуреи
апрокурор
апротестқәа
апрофессионалтә
апрофессор
апроцесс
апроцессқәа
апсида
апсны
апсуа
апублицист
ар
ара
араб
арабскии
арабтә
арабтәи
арабцәа
арабы
аравиа
аравиеи
аравия
арагона
арагьы
арадикалтә
арадио
арадиодырраҭареи
араду
араион
араионтә
араионқәа
араионқәеи
аракьаҽы
арам
арамеи
арамка
араса
арасатә
арасаӡыхь
арасеи
арассатә
арахь
арашь
араҟа
араӡны
араӡынтә
арбага
арбагақәа
арбгара
арбитр
арбитраж
арбитражного
арбитражныи
арбоуп
арбџьармчқәа
арбџьартә
арвелод
аргентина
аргентинаа
аргентинатә
аргентинатәи
аргентины
аргумент
аргументация
аргументов
аргументы
аргун
аргыл
аргыламҭа
аргылара
аргыларатә
аргыларақәа
аргыларақәеи
аргылараҿы
аргылаҩ
аргьарахь
аргәын
ардзинба
ардуга
аре
ареалистцәа
ареалтә
аревком
ареволиуциа
ареволиуцианерцәа
ареволиуциатә
ареволиуционерцәа
арегент
арегион
арегионалтә
арегионқәа
арегионқәеи
арегламент
аредактор
аредакторра
аредакторс
аредакциаҿ
арежим
арежиссиор
арезолиуциа
арезолиуциақәа
арелигиатә
арелиеф
арелиефтә
арена
ареспублика
ареспубликатә
ареспубликақәа
ареспубликеи
арест
арестован
арестованы
аресурсқәа
аресурсқәеи
ареферендум
ареформа
ареформақәа
арецензиа
ари
ариашарақәа
арк
аркади
армарахьтәи
армаҷра
армения
армии
армию
армия
армстронг
армяно
армянскии
арнауҭ
аролитикцәа
ароль
ароман
аромантә
арра
аррамаҵзура
аррамаҵзурауаа
аррамаҵура
арратә
арратәи
арсаул
арт
артиллериа
артист
артистцәа
артур
артәоит
аруаа
аруааи
аруаҩ
арушьан
архаикатә
архелаи
археолог
археологиатә
археологиеи
архив
архивирования
архивтә
архиепископ
архиереи
архипелаг
архипелага
архитектор
архитекторцәа
архитектура
архитектуратә
архитравтә
архәҭақәа
арцах
аршба
арыц
арыцхә
арыцхәқәа
арыцҳара
арыцҳарақәа
арҩаш
арҭ
арҭбаара
арҭеит
арҭоит
арҭон
арҭқәа
арҳәрақәа
арҵага
арҵаратә
арҵаҩратә
арҵаҩцәа
арҵаҩы
арҽеира
арҽеиратә
арҽеирақәеи
арҿиара
арҿиаратә
арҿыцра
арӡынба
арӷьаратәи
арӷьарахьтәи
арӷәӷәара
арԥызбеи
ас
асаам
асааҭтә
асаит
асанатори
асанкциақәа
асаркьа
асаркьалсырҭа
асахьа
асахьаркыратә
асахьақәа
асахьаҭыхҩцәа
асахьаҭыхҩы
асаԥар
асезон
асезонаҿ
асекулиаризациеи
асеминариа
асеминариаҿ
асемит
асенат
асенатор
асерб
асербцәа
асербцәеи
асериаҿ
асиа
асимболқәа
асимвол
асинагога
асинтаксис
асистема
асистемақәа
асиужет
аскандинав
аскрипториум
аскульптор
аскульпторцәа
аславиан
аславианбжьаратәи
аслан
асланбеи
асовет
асоветтә
асоветтәи
асолдаҭцәа
асомҭаврули
асоциал
асоциализм
асоциалисттә
асоциалистцәа
асоциалтә
асоциалтәи
асоциологиа
асоциологцәа
аспекты
аспециалистцәа
аспинӡа
аспирантура
аспирантураҿ
аспирт
аспорт
аспорти
аспортсменцәа
ассам
ассамблеиа
ассамблея
ассимилиациа
ассоциации
асср
аст
астадион
астамуром
астандартқәа
астатиа
астатиақәа
астатиақәеи
астатистика
астатус
астерилизациа
астил
астратегиатә
астроном
астрономиа
астрономические
астрономтә
астудент
астудентцәа
асубиектқәа
асубтропикатә
асуверенитет
асхема
асыкәмал
асҭалаво
асҭампыл
асҭамыр
ат
ата
атака
атауарқәа
атаџьықь
атеатр
атеатри
атеатртә
атеатрқәа
атекст
атемала
атеократиақәа
атеориа
атериториа
атермин
атерриториа
атерриториаҿы
атерроризм
атеррористтә
атехника
атехникатә
атехникум
атехнологиа
атитулқәа
атиурк
аткрываем
атланта
атлантикатә
атлантическом
ато
атолле
атом
атомная
атомнои
атомныи
атомтә
атопонимика
атоталитартә
атрагедиа
атрадициақәа
атрадициақәеи
атрамваи
атрамваитә
атранспорт
атранспорттә
атриадқәа
атрибунал
атрибут
атрибута
атрибутом
атропикатә
атубус
атур
атуризми
атуркмен
атәарҭа
атәцәа
атәы
атәыла
атәылауаа
атәылауааи
атәылауаҩ
атәылауаҩра
атәылауаҩратә
атәылахьчара
атәылақәа
атәылақәеи
атәылаҟны
атәылаҿ
атәылаҿацә
атәылаҿы
атәылоуп
атәым
ау
ауаа
ауаажәлар
ауаажәларра
ауаажәларратә
ауаажәларратәи
ауаажәларраҿы
ауаажәларреи
ауааи
ауаапсыра
ауаарацәа
ауаатәыҩса
ауаатәҩса
ауааԥсыра
ауадаҩрақәа
ауажәларратә
ауазбақь
ауал
ауалафахәы
ауам
ауар
ауаратә
ауасиаҭқәа
ауасхыр
ауахуама
ауахәама
ауахәаматә
ауахәамақәа
ауахәамақәеи
ауахәамаҿ
ауахәамаҿы
ауахәамеи
ауаҩ
ауаҩи
ауаҩра
ауаҩшьра
ауаҩшьрақәа
ауаҩы
ауаҩытәыҩса
ауаҩытәҩса
ауаԥс
ауаԥсаа
аубла
аублаа
аудиенция
аудио
аудиофаи
ауеит
аукраин
аукраинцәа
ауниверситет
ауниверситетқәа
ауп
аура
ауралатәи
ауреи
ауриа
ауриацәа
ауриацәеи
аурымцәа
аурыс
аурысцәа
аурысцәеи
аурысқәа
аус
аусбарҭа
аусбарҭақәа
аусбарҭақәеи
аусдкылаҩцәеи
аусеилыргаратә
аусеилыргаҩ
аусеицура
аусеицуразы
аусеицуреи
аусзуҩцәа
аусзуҩы
ауси
аусмҩаԥгатәқәа
аусумҭа
аусумҭақәа
аусура
аусурагьы
аусуразы
аусуратә
аусурақәа
аусуреи
аусурҭа
аусусцәа
аусутә
аусуцәа
аусуцәеи
аусушьа
аусхк
аусқәа
аусӡбаратә
аусԥҟа
ауха
аучастка
афаил
афаилқәа
афакт
афакторқәа
афакультет
афанаси
афар
афараон
афасад
афасадқәа
афатә
афатәқәа
афауна
афашисттә
афбатәи
афганистан
афганистане
афедералтә
афедеративтә
афедерациа
афедерациақәа
афеида
афеминисттә
афеномен
афеодалтә
афизика
афизикатә
афилиал
афилолог
афилологиатә
афилософ
афилософиа
афилософиатә
афилософиеи
афилософцәа
афильм
афильмқәа
афинансттә
афинанстә
афинансқәа
афинансқәеи
афинах
афинно
афины
афирмақәа
афицар
афицарцәа
афиша
афлора
афольклор
афольклорист
афон
афонд
афонемқәа
афонологиа
афонҿыцтәи
афоризмқәа
аформа
аформала
аформат
аформақәа
афорум
афото
афрагмент
афрагментқәа
афранцыз
афранцызцәа
африка
африкаанс
африкагәҭантәи
африкатәи
африкаҟны
африке
африкеи
африки
афронт
афундаментализм
афундаменталисттә
афундаменталистцәа
афункциа
афункциақәа
афымца
афымцатрамваи
афырхацәа
афырхаҵа
афырхаҵарақәа
афӷанисҭан
ах
аха
ахаан
ахав
ахада
ахадагьы
ахадара
ахадараҿ
ахадас
ахадацәа
ахадеи
ахазына
ахал
ахаланапхгара
ахаланапхгаратә
ахалархәра
ахалза
ахалцых
ахалшени
ахалқалақь
ахамелеон
ахамелеонқәа
ахамырхәара
ахан
аханатә
ахантәаҩи
ахантәаҩы
ахантәаҩыс
аханы
аханқәа
ахара
ахархәага
ахархәагақәа
ахархәара
ахархәаразы
ахархәаратә
ахархәареи
ахатә
ахатәы
ахац
ахацәа
ахацәеи
ахашәала
ахашәалахәқәа
ахақәиҭра
ахақәиҭразы
ахақәиҭрақәеи
ахақәиҭреи
ахаҭа
ахаҭагьы
ахаҭарнак
ахаҭарнакра
ахаҭарнакс
ахаҭарнакцәа
ахаҭарнакцәеи
ахаҭаҿгьы
ахаҳә
ахаҳәтә
ахаҳәқәа
ахаҳәҟьаԥс
ахаҵа
ахаҿсахьа
ахаҿсахьақәа
ахаҿы
ахба
ахдырра
ахеилак
ахеилаки
ахимиа
ахимиатә
ахкеиҵа
ахкы
ахкқәа
ахкқәеи
ахкәакь
ахлаатә
ахмед
ахмета
ахорват
ахорватцәа
ахорватцәеи
ахра
ахрестоматиа
ахрестоматиақәа
ахронологиа
ахронологиатә
ахсаала
ахсаалаҿы
ахцәажәара
ахшара
ахшфацәа
ахшыҩ
ахшыҩрҵара
ахшыҩрҵаратә
ахшыҩрҵареи
ахшыҩырҵара
ахшыҩырҵаратә
ахы
ахыб
ахыбгалара
ахыбра
ахыбрақәеи
ахыбраҿы
ахыжәжәарақәа
ахылаԥшра
ахылаԥшратә
ахылаԥшҩыс
ахылҵ
ахылҵшьҭра
ахылҿиаауеит
ахымхәацәа
ахымҩаԥгашьа
ахынҳәра
ахыргьагьа
ахыргьагьатә
ахыргьагьақәа
ахыркәшара
ахыркәшаратә
ахырхарҭа
ахырхарҭала
ахырхарҭақәа
ахырхарҭаҟны
ахыхь
ахыхьчара
ахықә
ахықәан
ахықәкы
ахыҵра
ахыҵхырҭа
ахыҵхырҭақәа
ахыԥхьаӡара
ахыԥхьаӡарақәа
ахь
ахьа
ахьаа
ахьамаз
ахьамоу
ахьарԥшқәа
ахьаца
ахьеиҟарам
ахьзыртәрақәеи
ахьиба
ахьрылшо
ахьрымоу
ахьтәаҿа
ахьтәы
ахьчара
ахьчаразы
ахьчаратә
ахьчареи
ахьы
ахьынхо
ахьынхоз
ахьынӡазинрку
ахьынӡанаӡааӡо
ахьырхәра
ахьыҟаз
ахьыҟоу
ахьыӡ
ахьыӡқәа
ахьыԥшратә
ахьыԥшымра
ахьҭа
ахьӡ
ахьӡала
ахьӡи
ахьӡуп
ахьӡын
ахьӡынҵақәа
ахьӡырҵеит
ахьӡқәа
ахқәа
ахҟьаԥҟьақәа
ахҩылаа
ахҩылааразы
ахҭынҵаны
ахҭыс
ахҭысқ
ахҭысқәа
ахҵәацәа
ахҵәацәеи
ахә
ахәаахәҭра
ахәаахәҭратә
ахәаԥшра
ахәбатәи
ахәмарра
ахәмарҩцәа
ахәра
ахәрақәа
ахәри
ахәшьара
ахәы
ахәылԥаз
ахәынҭқарра
ахәынҭқарратә
ахәыцрақәа
ахәыцырҭа
ахәыҷтәы
ахәыҷы
ахәыҷқәа
ахәыҷқәеи
ахәқәа
ахәҭа
ахәҭак
ахәҭақәа
ахәҭаҟаԥшь
ахәҭаҟны
ахәҭаҷ
ахәҭаҷқәа
ахәҭаҿы
ахԥа
ахԥарак
ахԥатәи
ахԥатәии
ацара
ацентр
ацентртә
ацивилизациа
ацивилизациақәа
ацуфарақәеи
ацуҭа
ацхраара
ацхыраара
ацхыраарақәа
ацхыраареи
ацыганцәа
ацқьа
ацқьара
ацқьацәа
ацқьақәа
ацҳа
ацҳаражәҳәараҿы
ацҳаражәҳәаҩ
ацҳаражәҳәаҩцәа
ацҳаражәҳәаҩыс
ацҳақәа
ацҵара
ацҵаразы
ацәа
ацәажәарақәа
ацәаҩашәа
ацәаҳәа
ацәаҳәақәа
ацәгьа
ацәгьареи
ацәгьаура
ацәгьеи
ацәгьоура
ацәгьоуразы
ацәгьоурақәа
ацәеижь
ацәеижьқәа
ацәеижьқәеи
ацәикит
ацәкра
ацәкразы
ацәынхақәа
ацәырҵра
ацәырҵрақәа
ача
ачарыц
ачба
ачеи
ачемпион
ачемпионат
ачех
ачечен
ачеченцәа
ачеченцәеи
ачымазара
ачымазарақәа
ачымазарақәеи
ачымазцәа
ачынуаа
ачҳара
аш
ашаблон
ашаблонқәа
ашара
ашарԥы
ашахтиорцәа
ашба
ашвед
ашведцәа
ашкол
ашколаҿ
ашколқәа
ашколқәеи
ашколқәранӡатәи
ашкәакәа
аштаб
аштат
аштатқәа
аштатқәеи
ашылеи
ашықәс
ашықәсан
ашықәсақәа
ашықәсқәа
ашьампылампылтә
ашьапы
ашьапылампыл
ашьапылампыласыҩс
ашьапылампыласҩцәа
ашьапылампылтә
ашьауӷатә
ашьацԥшшәи
ашьацԥшшәы
ашьақәгылара
ашьақәгылашьа
ашьақәыргылара
ашьақәыргыларазы
ашьаҭа
ашьаҭала
ашьаҭаркҩы
ашьаҭатә
ашьаҭақәа
ашьаҿақәа
ашьра
ашьтахь
ашьха
ашьхараҿ
ашьхаруаа
ашьхарыуа
ашьхарыуаа
ашьхатә
ашьхақәа
ашьхаҿ
ашьыжь
ашьҭалара
ашьҭахь
ашьҭахьтәи
ашьҭра
ашьҭреиҵа
ашьҭыхра
ашҟа
ашҟәы
ашҭа
ашҭаҿы
ашә
ашәа
ашәаа
ашәага
ашәамахьцәа
ашәан
ашәара
ашәарҭа
ашәарҭадара
ашәарҭадаратә
ашәарҭадареи
ашәарҭара
ашәахтә
ашәахтәқәа
ашәахтәқәеи
ашәахәақәа
ашәақәа
ашәақәеи
ашәаҳәара
ашәаҳәаҩ
ашәаҳәаҩцәа
ашәаҳәаҩы
ашәба
ашәкәы
ашәуа
ашәуаа
ашәшьыра
ашәыр
ашәырҵла
ашәышықәса
ашәышықәсазгьы
ашәышықәсазы
ашәышықәсанӡа
ашәышықәсақәа
ашәышықәсеи
ашәышықәсқәа
ашәқәа
ашәҟәаҿы
ашәҟәы
ашәҟәыҩҩ
ашәҟәыҩҩцәа
ашәҟәыҩҩцәеи
ашәҟәыҩҩы
ашәҟәқәа
ашәҟәҩҩуп
ашәҟәҩҩцәа
ашәҟәҭыжьырҭа
ашәҭ
ашәҭқәа
аэропорту
аџь
аџьа
аџьабаа
аџьаз
аџьам
аџьар
аџьари
аџьармыкьатә
аџьармыкьаҿы
аџьарқәа
аџьарқәеи
аџьатә
аџьауси
аџьба
аџьныш
аџьынџьал
аџьынџьтәылатә
аџьынџьтәылатәи
ақ
ақалақь
ақалақьи
ақалақьтә
ақалақьқәа
ақалақьқәеи
ақарҭвел
ақыртуа
ақыртцәа
ақырҭ
ақырҭу
ақырҭуа
ақырҭуаа
ақырҭуеи
ақырҭцәа
ақырҭшәахьтә
ақырҭқәа
ақыҭа
ақыҭан
ақыҭанхамҩа
ақыҭанхамҩатә
ақыҭанхамҩеи
ақыҭанхаҩцәа
ақыҭатә
ақыҭауааи
ақыҭақәа
ақыҭақәеи
ақыҭаҿ
ақьаад
ақьабзқәа
ақьиареи
ақьырмыт
ақьырсиан
ақьырсианра
ақьырсианратә
ақьырсианраҿы
ақьырсианреи
ақьырсиантә
ақьырсианцәа
ақәа
ақәатәи
ақәгылара
ақәгыларақәа
ақәгыларақәеи
ақәиҭтәра
ақәра
ақәранҵыра
ақәцә
ақәым
ақәымчра
ақәымчымра
ақәыргылара
ақәыԥшреи
ақәыԥшцәа
ақәыԥшыла
ақәыԥшылара
ақәҩыра
ақәҵара
ақәҵарала
ақәҵарақәа
ақәҿиара
ақәӡара
ақәԥара
ақәԥаразы
ақәԥараҿы
ақәԥаҩцәа
аҟабарда
аҟабардақәа
аҟазаара
аҟазаареи
аҟазара
аҟазареи
аҟазшьа
аҟазшьақәа
аҟалара
аҟамзаара
аҟамлара
аҟара
аҟарачқәа
аҟарачқәеи
аҟармара
аҟаҵара
аҟаҵаразы
аҟаԥшь
аҟны
аҟнынӡа
аҟнытә
аҟрымҭаҭар
аҟуа
аҟынтә
аҟынтәи
аҟынӡа
аҟә
аҟәа
аҟәаб
аҟәара
аҟәараҿы
аҟәатәи
аҟәаҟа
аҟәеи
аҟәша
аҟәшақәа
аҟәым
аҟәырҟан
аҟәырӷ
аҟәырӷтә
аҧсны
аҧсуа
аҧсшәа
аҧсҭазаара
аҧхьара
аҩ
аҩада
аҩадатәи
аҩадахьалагьы
аҩажәатәи
аҩаӡара
аҩаӡараҟны
аҩбатәи
аҩналарҭа
аҩнаҭа
аҩнуҵҟа
аҩнуҵҟала
аҩнуҵҟатәи
аҩны
аҩнытә
аҩныҵҟа
аҩныҵҟагьы
аҩныҵҟатәи
аҩра
аҩхаа
аҩыза
аҩызаҵәҟьа
аҩымҭа
аҩымҭақәа
аҩынтәраан
аҩынтәтәи
аҩыра
аҩыратә
аҩырацқьа
аҩырақәа
аҩышьа
аҩӡба
аҩӡыбжьара
аҩӡԥҳа
аҭ
аҭаацәа
аҭаацәара
аҭаацәаратә
аҭаацәарақәа
аҭаацәараҿы
аҭагалара
аҭагылазаашьа
аҭагылазаашьақәа
аҭагылазаашьаҿ
аҭагылазаашьеи
аҭак
аҭакзыԥхықәу
аҭактә
аҭакԥхықәра
аҭалараз
аҭаны
аҭара
аҭаразы
аҭарбеков
аҭареи
аҭауадацәа
аҭахны
аҭахрақәа
аҭахуп
аҭақ
аҭаҭарцәа
аҭбаара
аҭел
аҭена
аҭоуба
аҭоурых
аҭоурыхдырҩцәа
аҭоурыхдырҩы
аҭоурыхи
аҭоурыхтә
аҭоурыхтәи
аҭоурыхқәа
аҭоурыхҭҵааҩ
аҭоурыхҭҵааҩцәа
аҭоурыхҭҵааҩы
аҭра
аҭыжьра
аҭыжьымҭа
аҭынха
аҭынхара
аҭынч
аҭынчра
аҭынчратә
аҭынчреи
аҭырқ
аҭырқтыләа
аҭырқәа
аҭырқәцәа
аҭышәантәалара
аҭышәныртәаларазы
аҭышәынтәалара
аҭышәынтәалареи
аҭыӡсахьақәа
аҭыӡқәа
аҭыӡҭып
аҭыӡҭыԥ
аҭыӡҭыԥаҿ
аҭыԥ
аҭыԥан
аҭыԥантәи
аҭыԥантәии
аҭыԥахь
аҭыԥаҿы
аҭыԥи
аҭыԥқәа
аҭыԥҳа
аҭҳамада
аҭҵаара
аҭҵаарадырра
аҭҵаарадырратә
аҭҵаарадыррақәа
аҭҵааразы
аҭҵааратә
аҭҵаарақәа
аҭҵаараҿы
аҭҵаареи
аҭҵааҩцәа
аҭҵааҩы
аҭӡамц
аҭӡамцқәа
аҳ
аҳабла
аҳаблақәа
аҳаблаҿ
аҳазалхратә
аҳаирыпланқәа
аҳамҭа
аҳамҭақәа
аҳаракыра
аҳаракырақәа
аҳаракыраҿ
аҳасаб
аҳасабала
аҳасабрбақәа
аҳасабтәқәа
аҳасабырба
аҳаскьын
аҳауа
аҳаш
аҳашба
аҳаши
аҳаштә
аҳақьым
аҳаҭыр
аҳаҭыртә
аҳаԥы
аҳаԥқәа
аҳмаҭ
аҳмаҭбеи
аҳра
аҳратә
аҳратәра
аҳцәа
аҳҭны
аҳҭнықалақь
аҳҭнықалақьи
аҳҭнықалақьыуп
аҳҭнықалақьқәа
аҳҭынра
аҳәаа
аҳәаанырцә
аҳәаанырцәтәи
аҳәаақәа
аҳәааҿы
аҳәамҭа
аҳәар
аҳәара
аҳәаса
аҳәба
аҳәса
аҳәсеи
аҳәынҭкарратә
аҳәынҭқ
аҳәынҭқар
аҳәынҭқарра
аҳәынҭқаррабжьаратә
аҳәынҭқарратә
аҳәынҭқарратәи
аҳәынҭқаррақәа
аҳәынҭқаррақәеи
аҳәынҭқарраҿы
аҳәынҭқарреи
аҳәынҭқарроуп
аҳәынҭқарцәа
аҳәынҭқарԥ
аҳәынҭҟарратә
аҵ
аҵак
аҵакы
аҵакыра
аҵакырадгьыл
аҵакырадгьылтә
аҵакырадгьылқәа
аҵакырацәара
аҵанакоит
аҵанакра
аҵанакуеит
аҵанакы
аҵара
аҵарадырра
аҵарадырразы
аҵарадырратә
аҵарадырреи
аҵараиурҭақәа
аҵараиурҭақәеи
аҵаратә
аҵарауаа
аҵарауаҩ
аҵареи
аҵарҩит
аҵарҭыша
аҵарҭышагара
аҵаулара
аҵахара
аҵаҟа
аҵаҩцәа
аҵаҩын
аҵеи
аҵеицәа
аҵеиҩит
аҵиаа
аҵиаақәа
аҵиаақәеи
аҵкыс
аҵкьыс
аҵла
аҵлақәа
аҵнариа
аҵоуп
аҵх
аҵыбжьыҟатә
аҵыргақәа
аҵысра
аҵысрақәа
аҵыхәтәан
аҵыхәтәантәи
аҵыхәтәантәиқәа
аҵыхәтәаны
аҵыхәтәанынӡа
аҵәахырҭатә
аҷандара
аҷандаратәи
аҷануа
аҷартәылатәи
аҷкәын
аҷыдара
аҷыдарақәа
аҽазнык
аҽазыҟаҵара
аҽазыҟаҵарақәа
аҽарҭбаауан
аҽарӷәӷәеит
аҽаҩра
аҽгәара
аҽны
аҽшьрақәа
аҽы
аҿа
аҿагылара
аҿагыларазы
аҿагыларатә
аҿагылаҩ
аҿагылаҩцәа
аҿагылаҩцәеи
аҿар
аҿара
аҿари
аҿатә
аҿаҵа
аҿаԥсазаҵәытә
аҿаԥсак
аҿаԥхьа
аҿгьы
аҿиара
аҿиаразы
аҿиараҿы
аҿиареи
аҿоуп
аҿы
аҿыгҳара
аҿырԥштәқәа
аҿыханҵатә
аҿыц
аҿыцрақәа
аҿыцхәыцҩцәа
аҿҳәара
аҿҳәарақәа
аәҟа
аӡаахҩы
аӡахәа
аӡбамҭа
аӡбамҭақәа
аӡбара
аӡбаразы
аӡбарала
аӡбаратә
аӡбаратәи
аӡбарақәа
аӡбареи
аӡбареиҿкаареи
аӡбахә
аӡбаҩ
аӡбаҩцәа
аӡбаҩцәеи
аӡбоит
аӡиа
аӡиас
аӡиасқәа
аӡиақәа
аӡри
аӡхыҽҽа
аӡы
аӡыбжьындала
аӡын
аӡынба
аӡынтәи
аӡыхь
аӡқәа
аӡҩыбжьа
аӡә
аӡәгьы
аӡәи
аӡәы
аӡәырҩы
аӡӷабцәа
аӷа
аӷарра
аӷарреи
аӷарцәа
аӷас
аӷацәа
аӷба
аӷьар
аӷәӷәахара
аԥ
аԥа
аԥааимбар
аԥара
аԥаратә
аԥарақәа
аԥацәа
аԥеиԥш
аԥенџьыр
аԥенџьырқәа
аԥихит
аԥиҵеит
аԥнаҵоит
аԥра
аԥс
аԥсаатәқәа
аԥсабара
аԥсабаратә
аԥсабареи
аԥсадгьыл
аԥсар
аԥсахра
аԥсахразы
аԥсахрақәа
аԥсахуеит
аԥсидқәа
аԥсихологиатәи
аԥслымӡхаҳә
аԥсни
аԥсны
аԥсныжәлар
аԥсныи
аԥснынтәи
аԥснытәи
аԥсныҟа
аԥсра
аԥстәы
аԥстәқәа
аԥстәқәеи
аԥсуа
аԥсуаа
аԥсуааи
аԥсуара
аԥсуаҭҵааратә
аԥсуеи
аԥсха
аԥсшәа
аԥсшәахь
аԥсы
аԥсылманра
аԥсылмантә
аԥсылманцәа
аԥсынгьы
аԥсыуа
аԥсышәала
аԥсыӡ
аԥсыӡқуа
аԥсыӡқәа
аԥсҭазаара
аԥсҭазааразы
аԥсҭазаараҿы
аԥсҭазаареи
аԥсҳацәа
аԥхарра
аԥхын
аԥхынра
аԥхынтәи
аԥхьа
аԥхьагыла
аԥхьагылацәеи
аԥхьагылаҩ
аԥхьагылаҩцәа
аԥхьара
аԥхьарца
аԥхьатәи
аԥхьахә
аԥхьашьа
аԥхьаҟа
аԥхьаҟатәи
аԥхьаҩ
аԥхьаҩцәа
аԥша
аԥшаара
аԥшаҳәа
аԥшра
аԥштәы
аԥшшәы
аԥшь
аԥшьашәҟәы
аԥшьаҩыра
аԥшьаҩыхада
аԥшьаҩыхадацәа
аԥшьбатәи
аԥшьбатәии
аԥшәма
аԥыжәара
аԥыз
аԥыза
аԥызхуа
аԥызҵаз
аԥырхага
аԥырҵеит
аԥыхра
аԥыхразы
аԥыхын
аԥышәа
аԥышәара
аԥышәарақәа
аԥышәеи
аԥҟарала
аԥҟарақәа
аԥҟарақәеи
аԥҟаԥҵәа
аԥҳазоу
аԥҳәыс
аԥҳәысеиба
аԥҵамҭа
аԥҵан
аԥҵара
аԥҵаразы
аԥҵареи
аԥҵаҩцәа
аԥҵаҩы
аԥҵоуп
б
ба
бааԥс
бааԥсыла
бабахь
баварии
баварскии
баварскои
багаҭелиа
багаԥшь
багаԥшьи
багдад
баграт
багратиони
багриновски
баден
бадра
база
базе
базельского
базовыи
базу
базы
баи
баиден
баирам
баку
балет
балета
балкантәи
баллистическои
балтии
балтикатәи
балтимор
балтиморских
балтиморскои
балтимору
бан
бангкок
бангладеш
бани
банк
банкқәа
бара
барадеи
барак
бараҭашвили
барбадос
барбара
барбудеи
барзен
барзентәыла
барзеншәа
бармышь
барнаул
барнаульскии
барона
барселона
барселонатәи
барцыц
барцыцаа
басби
баскетбол
басла
баслатәи
баслахә
баслаҭ
баслаҭа
бах
бахреин
бахтаӡе
бахәа
баша
башкортостан
башня
баҟа
баҟақәа
баҭал
баҭым
баҭымтәи
баҳаматәи
баҳреин
баҳча
баӡ
баӷаԥшь
баӷдад
баӷмарантәи
бба
бгажба
бгажәба
бганба
бебиа
бегство
беди
бедиа
бедиатәи
бедность
бедствии
бежал
без
безумныи
беи
беигәаа
белград
белиак
белиз
белка
белл
белла
белоруссиа
белосток
белу
белыи
бельгиа
бельгиатәи
бельгии
бен
бенгальскии
бенджамин
бениа
бенин
бере
берегам
берегов
берегу
берлин
берлина
берлине
берлинскии
берлинтәи
беседы
беслан
беспорядки
беспосадочныи
бессрочно
бессрочнои
бетховена
бжаки
бжаниа
бжь
бжьаниа
бжьаратә
бжьаратәалатә
бжьба
бжьоуп
бжьы
бжьыла
бжьыҭирала
бзи
бзиа
бзиала
бзианы
бзиақәа
бзиаӡаны
бзыԥ
бзыԥтәи
бзыԥын
бзыԥҭа
би
библиотека
бигль
бигуаа
бида
биданыҟәа
бизнес
бикини
билефельд
билл
бильбао
биографии
биографические
биографическии
биография
биологиа
биологии
биологических
биология
биос
бир
бираҟ
бирж
бирмингем
бисау
битва
битве
битвы
битлз
биӡин
блабырхәа
благодарим
благодарность
бланшар
блекберн
ближаи
близ
блок
блокада
блокировка
блокировке
блокировки
блокировку
блокировок
блокқәа
блу
бо
бобби
бога
бое
боевики
бои
боко
болванка
болгариа
болгарскии
более
болезни
боливиа
болид
болнис
большая
больше
большее
большие
большим
большинства
большинстве
большинством
большого
большое
большои
большом
бомба
бомбардировка
бомбардировщик
бомбеи
бомбы
бонапарт
бонинсеньеи
бонн
бор
бордо
борис
бориса
борту
борьба
борьбе
борьбы
борџьом
босниа
босниатәи
босниеи
боснии
бостон
бостона
бот
бота
ботами
ботопедии
ботсвана
бохум
бр
бразилиа
бразилиатәи
бразилиаҟны
бразилии
брак
бракосочетание
братислава
братском
братьев
браузер
браузера
браузерах
браузере
брежнев
бремен
бри
брисбен
британиа
британиаду
британиатәи
британиауаа
британская
британские
британскии
британских
британского
британскои
бродвее
брокгауза
броссе
брошенныи
брунеи
бруса
брюс
брюссельскии
бсэ
будапешт
будем
будет
будете
буду
будут
будущего
будущем
будьте
буенос
буилон
букв
буква
буквально
буквам
буквах
буквенныи
букву
буквы
бульвар
бурбонов
буркина
бурса
бурунди
бутан
бутба
бухарест
бухте
буш
буэнос
бы
бывает
бывают
быжь
быжьба
быжьшықәса
бызшәа
бызшәак
бызшәала
бызшәалеи
бызшәарацәала
бызшәас
бызшәахьтә
бызшәақәа
бызшәаҿы
бызшәеи
был
была
были
было
бырз
бырзен
бырзентәи
бырзентәыла
быс
быстрая
быстро
быстрого
быстрое
быстрои
бытовая
бытовои
быту
быть
быҭәба
бэи
бюллетень
бюллетеня
бюрократ
бюрократов
бџьар
бџьарла
бџьаршьҭыхлатәи
бҵ
бӷажәба
в
ва
вагона
вадим
важнее
важно
важности
важную
важные
ваза
ваи
валенсии
валенсия
валентин
валентина
валери
валерии
валуа
вальпараисо
вам
вами
ван
вандализм
вандализма
вандализмом
вандалов
вандальныи
ванду
ванкувер
вануату
вар
варданиа
вариант
варианте
вариантов
варшава
варшавскии
вас
васа
васили
василии
василия
васильевич
ватикан
вахтанг
вахушти
ваххабизм
ваш
ваше
вашеи
вашем
вашему
ваши
вашингтон
вашингтона
ваших
вашу
вбок
вв
вве
введе
введена
введении
введено
введены
введите
вверх
вверху
ввести
ввода
вводное
ввс
вгуст
вд
вега
ведь
веи
век
века
веке
великая
великии
великобританиеи
великобритании
великобритания
великого
великое
великои
величину
вена
венатәи
венгриа
венгрии
венгрия
венера
венеры
венесуела
венесуелатәи
венесуэла
венециа
венеции
венском
вену
венчался
венчан
венчание
верде
верди
вермахта
вернулся
вернуть
вероятно
версиа
версии
версию
версия
версиях
вертикали
вертикально
вертикальное
вертикальнои
вертоле
верх
верхнего
верхнем
верхнему
верховного
верховныи
весна
весны
вест
вестник
весь
весьма
ветвь
вешалка
вещание
вещеи
вещества
взгляда
взглядам
взлетающая
взлетающии
взорвался
взорван
взоше
взрыв
взял
взяли
взят
взятие
взято
взять
ви
вианор
виачеслав
вид
вида
видам
видах
виде
виден
видео
видеоролики
видеть
видимои
видов
виду
виды
виетнам
византиатәи
византии
визитла
визуально
визуального
викарии
вики
викиданные
викиданных
викимедиа
викимедии
википедиа
википедиеи
википедии
википедист
википедистов
википедию
википедия
викисклад
викисклада
викискладе
викисловарь
викисо
викификатор
викификатора
викификации
виктор
виктории
виктория
виллем
вилниус
вильгельм
винограда
виноградов
винсент
винчи
випсании
вирусов
вирусологических
вирусы
виссарион
витали
виталии
витебск
витр
вице
виқтор
вк
вклад
вкладом
включает
включать
включая
включе
включение
включится
включить
вл
владеете
владение
владении
владения
владивосток
владивостокскии
владимир
владимира
владимирович
владислав
власти
власть
влияет
вместе
вместо
вмру
вне
внесе
внесения
внесены
внести
внешние
внешняя
вниз
внизу
внимание
внимания
вновь
внука
внутренних
внутри
внутригородская
внутрь
во
водопад
водороднои
воду
военно
военнои
военныи
возба
возвращает
возвращение
возглавил
воздух
воздушныи
возможна
возможно
возможностеи
возможности
возможность
возможностью
возможным
возражении
возрастом
вои
вокзал
вокруг
волгоградскии
володимир
волонте
вольфганг
вообще
вооруже
вопрос
вопроса
вопросам
вопросами
вопросов
вопросу
вопросы
ворвались
воронеж
воронежскии
воронежское
воронов
ворот
ворота
восемь
воскресенье
воспользоваться
воспользуи
воспоминания
воспринимает
воспринимается
восприятию
восстание
восстанию
восстания
восстановление
восстановления
восток
востока
востоке
восточная
восточно
восточного
восточнои
восточные
востребован
вот
воуба
воше
вошла
вошли
вояджер
вп
впервые
вплоть
вполне
вполоборота
впоследствии
вправо
впрочем
врач
врачеи
вредным
временах
времени
временное
время
вроде
вручную
всадник
все
всеволод
всегда
всего
всеи
вселенскии
всем
всемирная
всемирного
всемирнои
всемирныи
всему
всенародным
всероссии
всех
всея
вскои
всплывающеи
вставить
вставка
вставки
вставлен
вставлять
встретились
встреч
встреча
встрече
встречи
вступил
вступила
вступили
вступление
всю
вся
всяком
вторая
вторглась
вторжение
второго
второе
второи
втором
вулкан
вулкана
вфыфыв
входит
входят
входящие
вы
выберите
выбирать
выбор
выбора
выборам
выборах
выборов
выборы
выбраннои
выбрать
выглядеть
выдвижение
выдвижения
выделения
выделяется
вызвать
вызывает
выи
выиграл
вымирание
вынесен
вып
выпадающем
выпал
выполнил
выполняет
выполнять
выпуск
выпустил
выпустила
выпущен
выравнивается
выравнивание
выражении
выровнены
высадился
высадка
высказать
высказывание
высокими
высоких
высокое
высота
высоте
высоту
высоты
выставить
выставка
выставки
выставлена
выступил
выступление
выступлении
выступления
высшии
выход
вычеркнул
выше
вышел
вышеприведе
вышла
вышло
вьетнам
вьетнаме
г
га
гаага
гааге
габон
габриел
гаваи
гавани
гагарин
гагра
гагратәи
гагреи
гагәылиа
газет
газета
газеты
гаи
гаиана
гаити
гал
галапагосские
галатозҭухуцеси
галерее
галерееи
галереи
галерею
галерея
галилеи
галисии
галле
галтәи
галхәыч
гамбиа
гамбург
гамбурге
гамбургтәи
гамгиа
гампер
ган
гана
ганахьала
ганди
гандии
ганк
ганкахьала
ганкы
ганновер
ганс
ганы
ганҭиади
гарантировать
гардабан
гарри
гарсиа
гаусс
гахариа
гая
гвардиола
гвардия
гватемала
гвинеиа
гг
гггг
где
ге
гебреиесус
гевара
геи
генади
генеалогическии
генерал
генерала
генеральная
генеральнои
генеральным
гениох
геннади
генри
генрих
генриха
генуеаа
генуеатәи
генуиа
генуэзскии
географи
географиа
географиатә
география
геологии
георги
георгиевич
георгии
гер
герб
герзмааԥҳа
герзмава
герман
германиа
германиатәи
германиеи
германии
германики
германия
германская
германскои
германтәыла
германтәылатәи
герои
героя
герхелиа
герцеговина
герцеговинеи
герцог
гессен
гете
гетто
гиа
гибель
гиви
гилаури
гильда
гимн
гипотетическии
гипперт
гистр
гитлер
гитлера
гк
гким
гкое
гл
глава
главе
главная
главного
главное
главнои
главную
главных
главои
главы
глагол
глазго
глеб
глеизери
глобальное
глобальнои
глобальныи
глоссарии
глыхр
глядит
глядящими
гнеи
го
говорит
говоря
говорят
гог
гогәуа
год
года
годам
годах
годов
годового
годовои
году
годунов
годы
голантәи
голландцев
голль
голову
голод
голоса
голосов
голосование
голосованием
голосовании
голосования
голосованиях
голосовать
голосующим
голубои
гомель
гонглибаиӡе
гонглисбаиӡе
гондурас
гонконг
горах
горбаче
горизонтали
горки
город
города
городах
городе
городов
городом
городская
городских
городскои
гос
государств
государства
государствами
государственного
государственное
государственнои
государственныи
государственным
государство
готов
готовую
готовы
готовым
гочуа
гр
гражданская
гражданскии
грамм
грамота
гранд
границ
граница
границу
границы
гранты
граф
графика
графства
гренада
греции
греческая
греческии
греческого
греческои
григол
григори
григориани
григорианскии
григорианскому
григориантәи
григории
григорян
грин
гринпис
грозного
грозны
грозныи
грузии
грузинскои
грузия
групп
группа
группах
группе
групповои
групповые
группои
группы
гу
гуаа
гуанчжоу
гуатире
губернатор
гублиа
гуго
гудава
гудаватәи
гулиа
гулия
гумысҭа
гуннар
гурандухт
гургениӡе
гургулия
густав
гхақәа
гыл
гылон
гылоуп
гыртәыла
гыцба
гь
гьаргь
гьежьырақәа
гьенрых
гьы
гьыргәал
гә
гәаанагарак
гәабзиарахьчара
гәакьа
гәакьахь
гәакьаҿ
гәар
гәахәарыла
гәахәтәы
гәашьа
гәаҟрыла
гәдаа
гәдоуҭа
гәдоуҭатәи
гәлиа
гәма
гәмаа
гәмба
гәыкала
гәылрыԥшь
гәылрыԥшьтәи
гәылшьап
гәыма
гәымаа
гәымсҭа
гәымсҭатәи
гәымысҭатәи
гәында
гәыргәлиа
гәырџьаан
гәыԥ
гәыԥк
гәыԥкны
гәыԥқәа
гәыԥқәаки
гәыԥҩык
гәҭакыс
д
да
даанахәоит
даанхоит
даара
даараӡа
даби
давать
давид
давида
давиҭ
давно
давыд
дагиров
дагьҭалоит
дадепутатӡам
дадиани
дае
даже
дазааҭгылоит
дазҿлымҳан
даи
дакадемикуп
дал
далагеит
далагоит
далалеит
далалоит
далан
далахәуп
далахәын
далган
далгеит
далгоит
далее
даллас
далоуп
далхын
далырхаанӡа
далырхит
далырхуеит
дальнеи
дальнии
далҵаанӡа
далҵит
далҵуеит
дамадоуп
даман
дамардоит
дамоуп
дамп
дана
даналга
даналҵ
даналҵшаз
данапхгаҩын
даниа
даниел
дании
даниил
данного
данное
даннои
данном
данному
данную
данные
данныи
данным
данных
данца
данченко
данырҭагылаз
даныхынҳә
даныҟаз
даныԥсы
дара
дарабад
дарароуп
дарбанзаалак
дарбоуп
дарвин
даргьы
даредактор
даредакторын
дареи
дарсалиа
даст
дата
датами
датскии
дату
даты
дать
даур
дауҭ
дауҭиа
дахагылан
дахагылоуп
дахантәаҩуп
дахуд
дахысуан
дахысуеит
дахьааиз
дахьиз
дахьынхоз
дахьырцәыӡыз
дацхраауеит
дашьҭан
даются
дающии
дақәиҭны
дақәшаҳаҭхарц
дақәшаҳаҭхеит
дақәыӡбоит
даҟьа
даҭааит
даҵанакуеит
даҽа
даҽазныкгьы
даҽакала
даҽакы
даҽаџьара
даҽаӡәы
даҿагылон
дбар
два
две
двери
двигателем
движение
движением
движении
движению
движения
движке
движок
движущии
движущимися
движущимся
движущихся
двоеточие
двои
дворец
дворца
дворце
двум
двумя
двух
дгыл
дгьыл
дгьылқәа
дд
ддәықәлоит
де
дебет
дебс
дебси
девид
девушка
девы
девять
дедоԥлис
деи
деибашьуан
деитонтәи
деиҳабын
дека
декабр
декабря
декларацию
декларация
декрет
дел
дела
делается
делам
делать
дели
дело
делу
дель
дельта
демерџь
деми
демокр
демократиа
демократиатә
демократического
демонстрациақәа
демонстрации
ден
денис
день
департамент
депутатс
дерева
дерево
десяти
десятков
десять
дет
детеи
дети
детрои
деятели
деятель
деятельности
деятельность
деятельностью
дж
джавахарлал
джаи
джана
джанскии
джанскои
джапуа
джеи
джексон
джерси
джи
джимми
джозеф
джон
джона
джонс
джонуа
джопуа
джордж
джуп
дз
дзазымиааикәа
дзета
дзидзария
ди
диаган
диагонали
диалект
диалекте
диалектқәа
диалог
диаргоит
диаспора
диаспорақәа
диасуеит
дигеит
дигоит
диграф
дигәалаиршәоит
дидгортәи
диего
диит
диман
димер
димоуп
дин
динамо
династии
династию
династия
динхаҵаратә
динхаҵарақәа
диоген
диоскуриа
дипломатиа
дипломатические
дипломатическии
дипломатия
директор
директорс
директорцәа
дирижабле
дирижабль
дирҵон
дискавери
дискуссии
дискуссиях
дисплеи
дите
диу
диуссельдорф
дихазурга
дихазургатәи
дишьҭуеит
длина
длинны
длинныи
длительностью
длится
для
дманис
дмитри
дмитрии
дне
днеи
днеит
днепропетровск
дно
дныҟәеит
дня
днях
до
добавил
добавить
добавление
добавлением
добавляется
добавляи
добавлять
добавляются
добро
добровольно
добровольцев
добровольческои
доброго
добросовестного
добрые
добрыи
дов
договор
договора
договорились
доказательств
доктор
доктора
доктрина
документ
документқәа
дол
должен
должна
должно
должности
должность
должны
доллар
долларов
дом
дома
доменико
доминго
доминика
дональд
донецк
донецкии
донтә
дону
доп
дополнение
дополнения
дополнено
дополнил
дополнительная
дополнительную
дополнительные
дополнительныи
дополнительных
дополнить
допускается
допускаются
дор
дорога
дороги
дортмунд
достаточно
достақари
достиг
достигла
достигнув
достижения
достоверности
достоверную
достоевски
достоевскии
достопримечательности
достояние
достоянии
доступа
доступен
доступна
доступны
досу
доу
доуҳала
др
драбуп
дравторуп
дракон
дракона
драконов
драматә
дранда
драндатәи
драԥхьагылан
древнего
древнеи
древнем
древнии
древности
древняя
дрезден
дреи
дреиуан
дреиуоуп
дреиуп
дрид
друг
друга
другие
другим
другими
других
другого
другое
другои
другом
другую
друз
дрызҿлымҳан
дрылахәын
дрылгоит
дрылукаауан
дрымоуп
дрыцхраауан
дрықәиҭуп
дрыԥхь
дрыԥхьаӡоит
дрыԥхьон
ду
дуахь
дубаи
дублин
дублине
дублировать
дуглас
дуи
дук
дульчери
дума
думаю
дунеи
дунеихәаԥшра
дуны
дурақәа
дут
дуу
дуун
дууп
духеит
духовенства
душьеҭ
дуэль
дуқуа
дуқәа
дуқәеи
дуӡӡа
дуӡӡоуп
дхынҳәит
дхынҳәуеит
дхынҳәын
дхәыҷаахыс
дцарц
дцеит
дцоит
дцәажәеит
дцәырҵит
дцәырҵыт
дшырҭагылаз
дшьын
дыбналаны
дызлаз
дызхагылаз
дызҭаз
дыи
дынхон
дырбоит
дырбон
дырга
дыргақәа
дыргылеит
дыркандидатуп
дырмит
дырр
дырра
дыррақәа
дыруаӡәкны
дыруаӡәкуп
дыруаӡәкхеит
дыруаӡәкын
дырхылаԥшуеит
дырхысуеит
дыршьит
дырҭааит
дырҭаауан
дырҿагылан
дышдыру
дышьҭын
дықәгыланы
дықәгылеит
дықәгыло
дықәгылон
дыҟ
дыҟаз
дыҟан
дыҟанаҵ
дыҟоуп
дыԥсит
дыԥсуеит
дыԥхьаӡоуп
дэвид
дюи
дя
дягилева
дҟ
дҟаиҵеит
дҟаиҵоит
дҟалеит
дҟалоит
дҟарҵеит
дҟарҵоит
дҟаҵан
дҟаҵоуп
дҭ
дҭаацәароуп
дҭадырхеит
дҭалгоит
дҭалеит
дҭалоит
дҭан
дҭаркуеит
дҭахеит
дҭахоит
дҳәалазаара
дҵа
дҵаны
дә
дәрыԥшь
дәы
е
еаа
еар
ева
евгении
евгеника
евдокиа
евклид
евразиа
евразия
евреев
евреи
евро
евроеидгыла
европ
европа
европатәи
европатәии
европаҟа
европаҟны
европаҿы
европе
европеи
европеитә
европу
европы
египет
египетскии
египте
его
егрисҵҟали
егры
егь
егьа
егьи
егьырҭ
егьырҭгьы
егьышьақәнарӷәӷәоит
едгьы
единая
единиц
единица
единицах
единицы
единогласно
единоличным
единственное
единственном
едит
едуард
ее
ежеквартально
еи
еибашьра
еибашьраан
еибашьрак
еибашьранӡа
еибашьрақәа
еибашьраҿы
еибашьуаз
еибашьуан
еивон
еидгыла
еидкыланы
еиднакылоит
еиду
еидуп
еидызкыло
еидылоит
еидҳәалоуп
еидҵоу
еизакны
еизаку
еизара
еизга
еизган
еизеит
еизенхауер
еизыҟазаашьақәа
еизҳаит
еил
еилазаара
еилазаарақәа
еилакы
еилаԥсоу
еилкаам
еилкааны
еилкаара
еилкаарақәа
еилкаароуп
еилкаауп
еилоу
еилыркаауеит
еилышәкаауеит
еимадара
еимакы
еинштеин
еиуеипшым
еиуеиԥшым
еихагылак
еихшаны
еицлабраҿы
еицхырааны
еицхьыԥшымра
еицынхон
еицырдыруа
еицырдыруаз
еицырзеиԥшны
еицырзеиԥшу
еишьҭагыланы
еиқәа
еиқәаҵәа
еиқәаҵәақәа
еиқәаҵәоу
еиқәдыршәеит
еиқәирхоит
еиқәханы
еиқәхеит
еиқәшаҳаҭрақәа
еиқәшәо
еиқәырхан
еиқәырханы
еиқәыршәаз
еиқәышаҳаҭра
еиҟарамра
еиҟараны
еиҟароу
еиҟароуп
еиҩшоуп
еиҩыршоит
еиҭа
еиҭаганы
еиҭакрақәа
еиҭаугозар
еиҭах
еиҭашьақәдыргылеит
еиҭашьақәыргылан
еиҭаҳәашьа
еиҭныԥсахло
еиҳ
еиҳа
еиҳабацәа
еиҳабы
еиҳабыра
еиҳабыс
еиҳагьы
еиҳан
еиҳарак
еиҳаракгьы
еиҳараҩык
еиҳараӡак
еиҳау
еиҳауп
еиҳаӡоу
еиҵбыс
еиҵыху
еиҿагылоз
еиҿикааз
еиҿикааит
еиҿикаауеит
еиҿкааз
еиҿкаан
еиҿкаара
еиҿкаарак
еиҿкаарала
еиҿкаараны
еиҿкаарақәа
еиҿкаарақәеи
еиҿкаареи
еиҿкаароуп
еиҿкаау
еиҿкаауп
еиӷьны
еиԥш
еиԥшу
еиԥшуп
еиԥшыз
еиԥшым
еиԥшӡам
екатерина
екатерины
еквадор
екваториалтә
екклесиа
економиатә
економик
економика
економикатә
економикатәи
економикеи
елементқәа
елена
елизавета
елизаветы
елчини
елыр
елыртәи
ель
ельцин
емро
ему
ен
енвер
енд
енергиа
енциклопедиа
еныкь
епос
ер
ерасҭа
ереван
еревантәи
ерик
ерикссон
еритреиа
ермантәыла
ермантәылатәи
ерманқыҭ
ермоловка
ернесто
ес
есааира
есватини
если
еснагь
еснагьтәи
еснаҭ
есперанто
еспозито
естественныи
естествознания
естониа
есть
есымша
есышықәса
есышықәсатәи
есҽнытәи
етап
етникатә
еугьан
ефиопиа
ефрем
ефрона
ешба
ешбеи
ешыра
ешыратәи
еще
еҧш
еҵәа
ж
жак
жан
жанеи
жанеиро
жанна
жв
жваниа
жд
же
желарқәа
желательно
желающих
железная
железнои
женева
женщин
женщина
женщинам
женщину
женщины
жертв
живе
животного
животных
жизни
жизнь
жираф
жирным
жителеи
жители
жоан
жозеф
жомарт
жофруа
жуанисӡе
журнал
журнала
журналах
журнале
журналист
жь
жьа
жьырныҳәамза
жьҭаара
жьҭаарамза
жьҭаарамзазы
жә
жәа
жәаа
жәаба
жәабжьқәа
жәабра
жәабран
жәабранмза
жәабранмзазы
жәабранымза
жәамш
жәандрыԥшь
жәар
жәаф
жәаха
жәашықәса
жәаҩа
жәаҳәарада
жәба
жәе
жәеиза
жәеинраала
жәеинраалак
жәеинраалақәаки
жәи
жәибжь
жәиԥшь
жәл
жәла
жәлар
жәларбжьаратә
жәларбжьаратәи
жәларбжьаратәии
жәларзегьтәи
жәлари
жәлартә
жәларуп
жәларык
жәларқәа
жәлақәа
жәо
жәохә
жәпакы
жәыргьыҭ
жәытә
жәытәнатә
з
за
заа
заабеҭ
заагарҭа
заатәи
заблуждение
заброшен
забудьте
забываи
заведомо
заверше
завершена
завершение
завершено
завершил
завершилась
завершили
завершилось
завершился
завершится
зависимая
зависимости
завод
завода
заводе
заводить
заводская
зага
заглавная
заглавнои
заглавную
заголовка
заголовок
заготовка
загреб
загружается
загружать
загруженные
загруженных
загрузить
загрузке
загрузки
задаваи
задае
задать
задачу
заи
заимствование
заинтересованных
заира
заканчивается
заключается
заключе
заключение
заключения
заключив
закон
закона
закончилась
закончился
законы
закрепить
закрепле
закрыт
закрыта
закрытия
закрыто
закрытые
закәан
закәандарала
закәанла
закәанқәа
зал
залива
заливе
залкалиани
заложен
заложена
заложил
залшом
замбиа
замена
замене
заменена
заменить
замены
заменять
замечание
замечания
замещающии
замка
замке
замок
заморская
заморскии
заморское
занааҭеи
занааҭла
занесены
занимаи
заниматься
зантария
заняли
занҭариа
занҭариаа
запада
западе
западного
западнои
запатентовал
записать
записеи
записи
записываются
запись
запишите
запланировано
заполнен
заполнении
заполнены
заполнив
заполняется
запорожское
запорожье
запрет
запретил
запретила
запрещающии
запреще
запрещено
запрещены
запрос
запроса
запросов
запросы
запуск
запущен
запущена
запятои
запятую
заработал
заработала
зарегистрирован
зарегистрированные
зарегистрированных
заседание
заседании
затем
затонул
зауз
заур
захариеви
захватил
захватила
захватили
захьӡу
захьӡыз
защита
защитои
защиты
защищать
защище
защищена
заявили
заявки
заявку
заявление
заявления
заявок
заҟа
заҵәык
звание
звания
звезда
звезды
звук
згаз
згә
згәаҭа
згәы
зда
здание
здания
здесь
здравствуи
здравым
здызкылаз
здыруа
здырҵо
зе
зегнак
зегь
зегьеицырзеиԥшу
зегьи
зегьы
зеижә
зеиԥш
зеиԥшзаара
зеиԥшроу
зеиԥшыҟам
зеландиа
зеландия
зеленски
зеленськии
земле
землетрясение
земли
землю
земля
земским
земское
зер
зеркально
зеркального
зеркальное
зеркальным
зесҭаԥон
зехьынџьара
ззиуаз
ззырхаз
ззырхоу
ззырҳәо
ззырҳәоз
зимбабве
зин
зиндекс
зини
зинмчы
зинтә
зинқәа
зиу
зиҭоз
зкны
зку
зла
злагала
злаз
злахәу
злахәыз
злои
злоу
злоупотреблять
зм
змаз
змам
змамыз
змоу
змоугьы
знает
знаете
знак
знаки
знаком
знаменитую
знаменитыи
знание
знании
знания
знапаҵаҟа
знапы
знать
значение
значением
значении
значения
значениями
значимом
значимости
значимость
значимы
значимые
значимыми
значимых
значит
значок
знаю
зная
знеишьа
зну
зны
зныз
зныи
знык
зныкгьы
знырҵо
зоиа
золотая
золотинск
золотинска
золотои
золотые
зон
зонақәа
зоне
зонои
зоопарке
зосим
зрения
зрылшомызт
зря
зтәи
зуа
зуаз
зур
зураб
зхала
зхатәы
зхаҭабзиара
зху
зхы
зхыз
зхызгоз
зхылҵыз
зхыршәаауа
зхыу
зхыҵуа
зхыҵуаз
зхыҵыз
зхьыԥшу
зцу
зцыз
зцәа
зшәу
зы
зыбжьоу
зыбзоуроу
зыда
зызу
зылшо
зылшоз
зымҽхак
зынла
зынлагьы
зынӡа
зынӡагьы
зынӡак
зыргылаз
зыршаҳаҭуа
зых
зыхиақәиҭу
зыхьӡ
зыхҟьаз
зыхҟьо
зыхәба
зыхәны
зықьҩыла
зыӡбахә
зыӡбахәы
зыԥсахуа
зыԥсы
зыԥхьаӡо
зыԥшра
зқьы
зқьышықәсала
зқәу
зқәым
зҭаху
зҭахыз
зҭиуа
зҳәо
зҳәоз
зҵаарақәа
зҵазкуа
зҵаҩыз
зҵо
зҵоз
зҵоу
зҽалызкааз
зҽаԥсазтәыз
зҿало
и
иа
иааганы
иаагап
иаагозар
иаагоу
иаагоуп
иаадырԥшит
иааз
иаазыркьаҿны
иааизакны
иааикәыршаны
иааира
иааит
иаакәыршаны
иаалырҟьаны
иаан
иаанаго
иаанагоз
иаанагоит
иаанагом
иаанагон
иаанарԥшуеит
иаанхаз
иаанханы
иаанхеит
иаанхоит
иааныркылеит
иааныркыло
иааргеит
иааргоит
иааркьаҿны
иаарласны
иаартны
иаарту
иаарылукааша
иаарԥшу
иаарԥшуп
иааугар
иаауеит
иааҳакәыршаны
иаб
иабадырра
иабду
иабжьгаҩ
иабзоураны
иабоит
иавоуп
иага
иагеит
иаго
иагьа
иагьиҳәоит
иагьыҟалеит
иагәылоу
иагәылоуп
иагәылсуеит
иадгылоз
иадгылоит
иадгылон
иадертә
иаднакылаз
иаднакылеит
иаднакылоит
иадырхәарц
иадырхәеит
иадырхәо
иадырхәоит
иадырхәон
иадырҳәалоит
иадырҵо
иадҳәалаз
иадҳәалоу
иадҳәалоуп
иажәа
иажәабжь
иажәалагалала
иажәахә
иажәақәа
иажәеинраала
иажәеинраалақәа
иажәеинраалоу
иажәхьоу
иазгәанаҭоит
иазгәарҭоит
иазгәарҭон
иазгәаҭан
иазгәаҭатәуп
иазгәаҭоуп
иазгәеиҭеит
иазгәеиҭоит
иазкны
иазку
иазкуп
иазкыз
иазкын
иазхаҵам
иазхаҵан
иазхаҵоу
иазырхаз
иазырхоу
иазырхәо
иазырхәогьы
иазыӡырҩуеит
иазыԥшын
иазҳауеит
иазҿлымҳауп
иазԥхьагәаҭоу
иаиои
иаиоуит
иаирхәоит
иаиуз
иаиуит
иакны
иакоб
иаков
иаку
иакуб
иакымкәа
иакәзар
иакәны
иакәын
иалагалан
иалагеит
иалагоит
иалагӡан
иалагӡаны
иалаз
иалалеит
иалалоз
иалан
иаланхо
иаланхоит
иалахаз
иалахә
иалахәу
иалахәуп
иалахәцәа
иалахәыз
иалахәызи
иалахәын
иалаҵан
иалаҵәахьо
иалаӡыз
иалгар
иалеигалоит
иалиршоит
иалкааз
иалкаан
иалкааны
иалкаатәу
иалкаатәуп
иалкаау
иалкаауп
иалнаршеит
иалнаршоит
иалнахуеит
иалоу
иалоуп
иалсны
иалта
иалукааша
иалхны
иалхра
иалхрақәа
иалху
иалхуп
иалхыз
иалшеит
иалшоит
иалыркаауеит
иалырхуеит
иалҵеит
иалҵит
иалҵуеит
иалҵшәаны
иамаз
иамаика
иаман
иаманы
иамоу
иамоуп
иан
ианаамҭоу
ианалага
ианалала
ианашьан
ианашьахоит
ианашьоуп
ианақәла
ианаҭоит
ианаҿагылоу
ианва
ианвар
иани
ианиҵеит
ианкәа
иану
иануп
ианыҟаз
ианыԥшуа
ианыԥшуеит
ианҵаны
ианҵоуп
иапониа
иапониатәи
иапониахь
иапониаҿы
иапонтә
иара
иаразнак
иарбам
иарбан
иарбанзаалак
иарбанызаалак
иарбоу
иарбоуп
иаргьы
иареи
иарополк
иарослав
иархәаны
иарҳәоит
иаса
иасит
иасон
иасыф
иатәу
иатәыз
иатәын
иауакуп
иауп
иахагылаз
иахашәыршәыруан
иахылаԥшуан
иахылҵуеит
иахылҿиаауеит
иахырҟьаны
иахь
иахьа
иахьагьы
иахьазы
иахьану
иахьанӡа
иахьанӡагьы
иахьатәи
иахьашьҭоу
иахьаҵанакуа
иахьаҵанакуаз
иахьрыдыркылаз
иахьынхо
иахьынӡауа
иахьыҟаз
иахьыҟоу
иахьӡан
иахьӡуп
иахҟьаны
иахҟьеит
иахәаԥшуа
иахәаԥшуеит
иахәҭоу
иациҵоит
иацлеит
иацлоит
иацхраауеит
иацымлозар
иацәыхарамкәа
иацәыхараны
иаша
иашара
иашақәа
иашьа
иашьашәаланы
иашьашәалоу
иашьаҭаны
иашьклаԥшуеит
иашьцәа
иашьҭан
иашьҭоуп
иашҭхәа
иақәиҭнатәуеит
иақәиҭны
иақәиҭтәын
иақәиҭу
иақәиҭуп
иақәиҭыз
иақәшаҳаҭу
иақәшаҳаҭуп
иақәшаҳаҭхеит
иақәшәо
иаҟароу
иаҟәыҭхоу
иаҩызан
иаҭааит
иаҭаны
иаҭаху
иаҭахуп
иаҭәашьоуп
иаҳа
иаҳасаб
иаҳасабала
иаҳасабла
иаҳаҭыр
иаҳнарбоит
иаҳҭнықалақь
иаҳҭнықалақьуп
иаҳҭнықалақьыуп
иаҳҳәап
иаҳҳәозар
иаҳәоит
иаҳәшьа
иаҵанакит
иаҵанакуа
иаҵанакуаз
иаҵанакуан
иаҵанакуеит
иаҵанакыр
иаҵанакәа
иаҵанакәаз
иаҵанакәан
иаҵанакәеит
иаҵахеит
иаҵоит
иаҵоу
иаҵәа
иаҵәақәа
иаҿагыланы
иаҿагылоз
иаҿагылоит
иаҿагылон
иаҿагылоу
иаҿагылоуп
иаҿу
иаҿын
иаҿырԥшны
иаӡбоит
иаԥиҵаз
иаԥиҵеит
иаԥшьгарала
иаԥырҵеит
иаԥҵаз
иаԥҵан
иаԥҵоу
иаԥҵоуп
ибаҩхатәра
ибеиоу
ибеит
ибериа
иберии
ибжьагаҩ
ибжьанакыз
ибзиан
ибзианы
ибзоурала
ибзоураны
иблит
ибн
ибо
ибон
ибрагим
ив
иван
ивана
иванов
иванович
ивериатәи
ивонна
иврит
ивуар
иг
иганахь
иганы
игеит
игерб
иглобалтәу
игнорируется
игор
игорь
игоу
игр
игра
играх
игровым
игру
игры
игылан
игылоит
игылоу
игылоуп
игьежьыз
игәаанагара
игәаанагарала
игәабзиара
игәаларшәара
игәалашәара
игәамбзиара
игәаҟра
игәы
идгылара
идгьыл
идеи
идеиақәа
идели
идемократиатәым
идеологиа
идеологианы
идеологиатә
идеологиақәа
идею
идея
идикылар
идикылоит
идиплом
иднаҵоит
идунеи
идуу
идуум
идууп
идууӡоу
идуӡӡоу
идыргылаз
идыррақәа
идыру
идыруан
идыруеит
идыруп
идырхиоит
идырым
идҵа
идҵала
идҵан
идҵаны
идәықәҵан
ие
иеиднакыло
иеиду
иеиуеиԥшым
иеицырдыруа
иеиқәиршәаз
иеиҭагамҭоуп
иеиҭагақәа
иеиҭагоу
иеиҭамҵуа
иеиҭаргеит
иеиҭеигеит
иеиҭоит
иеиҳабыра
иеиҳәеит
иеиҵыху
иеиҿкааз
иеиԥш
иеиԥшуп
иемен
иерархических
иерархию
иерус
иерусалим
иерусалима
иерусалими
иерусалимского
иерусалимтәи
ижьа
ижә
ижәлар
ижәытәӡатәиу
ижәытәӡоу
из
иза
изаамҭанымкәа
изакәаным
изанааҭ
изацәцомызт
избан
избанзар
избегаи
избегать
избежать
избирательная
избирателя
избо
избоит
избран
избрание
избранная
избраннои
избранныи
избранных
извержение
известен
известное
известности
известные
известныи
известным
изготовил
изд
издал
издан
издание
издания
издательство
издыруа
изеиԥшразаалак
изиаслав
изин
изинмчхарақәа
изинқәа
изинқәеи
изку
излаз
излаигәалаиршәо
изларбоз
изларыԥхьаӡо
изларҳәо
излашьақәдырӷәӷәо
изложение
изложения
изложил
измаз
измене
изменение
изменением
изменении
изменения
изменениями
изменениях
изменится
изменить
изменяется
изменять
измерения
измо
измоу
изначально
изну
изныктәиу
изныкымкәа
изныҟәоит
изображаемого
изображе
изображение
изображением
изображении
изображению
изображения
изображениями
изображенияотображение
изобретатель
изобрете
изобретение
изобретения
израиль
израильтәи
израиля
изучению
изучения
изхәаԥшуа
изы
изызкыз
изызҳауа
изыхҟьаз
изышьҭаз
изышьҭоу
изықәгәыӷуаз
изықәныҟәаша
изыҟалом
изҳауан
ииаргоит
ииасит
ииасуа
ииасуеит
ииасхьоу
ииасыр
ииашам
ииашамкәа
ииашаны
ииашоу
ииашоуи
ииашоуп
ииашьара
ииаҵәоу
иибаз
иибоз
иигаз
ииз
иикьыԥхьыз
иира
ииргылара
иисус
иит
ииҭаз
икандидатура
икит
икылнагеит
икьасоу
икьыԥхьу
икьыԥхьуеит
икьыԥхьын
ил
ила
илагала
илаз
илан
иланашьан
илаҟәу
илаԥш
или
илиа
илл
иллюстрации
иллюстрация
иллюстрирование
илшеит
илшоит
илшон
илымаз
илымшар
ильхам
илья
им
имаз
имазароуп
имам
иман
иманы
имариам
имаҵзура
имаҵура
имаҷу
имаҷуп
имаҷым
имаҷымқәа
имаҷҩым
имгакәа
име
имевшие
имеем
имеет
имеется
имелась
имели
имен
имена
именем
имени
именительном
именно
именование
именовании
именованию
именования
именовать
именоваться
именуется
именуются
имеретиа
имереҭи
иметь
имеют
имеются
имеющая
имеющие
имеющиеся
имеющих
имея
ими
имлагоз
имлашьуа
иммануил
иммунитет
имоуп
император
императора
императоров
императором
императорская
императрица
империа
империеи
империи
империя
имперские
импыҵахалоу
имхын
имчала
имчра
имчхарақәа
имшьҭра
имя
имҩа
имҩаԥгаз
имҩаԥган
имҩаԥигон
имҩаԥнаго
имҩаԥнагоз
имҩаԥнагоит
имҩаԥнагон
имҩаԥыргеит
имҩаԥырго
имҩаԥыргоз
имҩаԥыргоит
имҩаԥыргон
имҩаԥысит
имҩаԥысуа
имҩаԥысуаз
имҩаԥысуан
имҩаԥысуеит
имҩаԥысыз
ин
ина
инаау
инаваргыланы
инагӡаны
инадыркны
инал
иналаҵан
иналаҵаны
иналукааша
инамаданы
инамыси
инанагӡоит
инапаҵаҟа
инапаҿы
инапхгарала
инапы
инапынҵақәа
инареиҳаны
инарзынаԥшуа
инаркны
инаркы
инарываргыланы
инарықәыршәаны
инарҭбааны
инарҭбаау
инарҵауланы
инаскьагараҿ
инаугурация
инаукатә
инахырҟьаны
иначе
инашьҭарххан
инашьҭымҭақәа
инашьҭын
инақәыршәаны
инақәырԥшны
инаҵшьны
инаҷыданы
инаӡеит
инаӡоит
инаӡон
инаԥхгарала
инвестициатә
ингәыштәыла
индеи
индекс
индиа
индиаа
индиана
индиатәи
индиаҟа
индиеи
индии
индира
индия
индо
индоевропатәи
индонезиа
инеигоит
инеизакны
инеиуеит
инеиԥынкылан
инеиԥынкыланы
инициативе
инк
инклюзионизм
инкубатор
инна
иногда
иное
инои
иностранные
иностранных
иноязычные
иноязычных
инрықәыршәаны
институт
институтк
институтқәа
инструмент
интегрированныи
интервентов
интервики
интервью
интерес
интересами
интересные
интересов
интересқәа
интернат
интернационал
интернет
интернета
интерфеи
информ
информациа
информациатә
информациеи
информации
информационного
информационныи
информацию
информация
инфраструктура
инхаз
инханы
инхарҭа
инхо
инхоз
инхоит
инхон
инцидент
иными
инышәынҭреи
инықәырԥшны
инықәырԥшшәа
иныҟәырго
инҵәеит
иоан
иоанн
иоанна
иоганн
ион
иорданиа
иорден
иорк
иоркшир
иосиф
иост
иоуеит
иоуз
иоуит
иоуп
иоуранагӡара
ипа
ипартиатә
ипиесақәа
ипоезиатә
иполитикатә
ипремиа
ипрозатә
ипрофессионалтәу
ипсҭазаара
ир
ира
ирабашьуаз
ирак
иракли
ираклион
иран
иранашьоуп
ирантәи
ирацәаны
ирацәоуп
ирбеит
иргылан
иргыланы
иргылеит
иргылоит
иргылоуп
иргәылоуп
ирдыруеит
иреволиуциатә
ирежим
иреиоуп
иреиуан
иреиуоу
иреиуоуп
иреиуп
иреиҳаз
иреиҳазоу
иреиҳаны
иреиҳау
иреиҳауп
иреиҳаӡоу
иреиҳәеит
иреиҵамкәа
иреиҵоу
иреиӷьу
иреиӷьыз
иреӷьу
ирзеиԥшу
ирзеиԥшыз
ирзырхаз
ирзырхоу
ирибжьаз
ириҭоит
ирл
ирландиа
ирландиатәи
ирландии
ирлас
ирласны
ирм
ирну
ирнуп
ирныԥшуеит
ирод
ироническое
ироуаз
ироуит
ироуроуп
иртәу
иртәыз
иртәым
ируакуп
ирхароуп
ирхьырԥшны
иршьыз
ирыбжьоу
ирыбзоураны
ирыдгыло
ирыдгылоз
ирыдгылоу
ирыдкылан
ирыдыз
ирыдыркылаз
ирыдыркылеит
ирыдҳәалаз
ирыдҳәалоу
ирыдҳәалоуп
ирызкны
ирызку
ирызкыз
ирызҳауеит
ирылагеит
ирылагӡаны
ирыладырҵәоит
ирыланаҳәоит
ирылахәыз
ирылацәажәоит
ирылаҳәан
ирылаԥсоуп
ирылеиҳәеит
ирылеиҳәоит
ирылоу
ирылоуп
ирылхны
ирылхуп
ирылшеит
ирылшоит
ирылҵшәаны
ирылҵшәахеит
ирылҵыз
ирымаз
ирыман
ирымаӡам
ирымоу
ирымоуп
ирымпыҵархалаз
ирымуоп
ирыхьчоит
ирыхҟьаны
ирыхҳәаау
ирыхәаԥшуеит
ирыхәо
ирыцхәыркуп
ирышьҭан
ирышьҭит
ирышьҭоуп
ирықәгылоуп
ирықәшаҳаҭхоит
ирықәшәон
ирыҭаны
ирыҵанакуа
ирыҵанакуеит
ирыҵанакәа
ирыҵанакәеит
ирыҵаркуа
ирыҵаркуеит
ирыӡбеит
ирыӡбоит
ирыԥхьаӡоит
ирыԥхьаӡон
ирҭагӡаны
ирҭалоит
ирҭаху
ирҭахы
ирҭахым
ирҭахын
ирҭеит
ирҭоит
ирҳаит
ирҳәоит
ирҿагылаз
ирҿагылан
ирҿагыланы
ирҿагыло
ирҿагылоз
ирҿагылоит
ирҿагылоу
ирҿиаратә
ирҿыцны
ирԥшӡоуп
ис
исаев
исаит
исахьа
исахьаркыратә
исахьақәа
искажает
искандер
искать
исключение
исключением
исключениями
исключительно
искусства
искусственное
искусственныи
искусство
исламабад
исламизм
исламтәи
исландскии
исп
испаниа
испаниатәи
испании
испания
испанскии
испанского
испанское
исполнен
исполнена
исполнении
исполнил
исполнители
использовались
использование
использованием
использовании
использованию
использования
использовать
использоваться
используемая
используемые
используется
используи
используя
исправить
исправление
испытание
испытания
исследование
исследовании
истатиа
историеи
истории
исторические
историческии
историческои
историю
история
источник
источника
источниками
источниках
источнике
источники
источников
источником
исходном
исходную
исходныи
исходя
исчезновение
ит
италиа
италиаа
италиатәи
италии
италия
итальянская
итальянские
итальянскии
итеориа
итог
итога
итогам
итоги
итогов
итогом
итрадициатәу
итранспорт
итәы
итәылаҿ
иу
иуа
иуаажәларратә
иуадаҩу
иуадаҩхеит
иуадаҩыз
иуалуп
иуан
иуане
иуасиаҭ
иуахәама
иуацәеи
иубаратәы
иубарҭоуп
иубоит
иугославиа
иугославиатәи
иудаизм
иудофобиа
иуеит
иузаҟәымҭхо
иули
иулиа
иулиани
иулии
иунаитед
иунеско
иунисеф
иури
иурии
иус
иусумҭа
иусумҭақәа
иусумҭеи
иусура
иусқәа
иухан
иуџьин
иуҳәозар
иуԥыло
иуԥылоит
иуԥылом
иуԥымло
ифырхацәоуп
их
ихаан
ихадараз
ихадароу
ихадоу
ихадоуп
ихазы
ихала
ихалхно
ихарҭәаау
ихатә
ихатәы
ихахьы
ихақәиҭрақәеи
ихақәиҭроу
ихаҭа
ихаҭагьы
ихаҭара
ихаҭыԥуааи
ихаҭыԥуаҩ
ихаҭыԥуаҩгьы
ихаҭыԥуаҩс
ихаҭыԥуаҩыс
ихаҿсахьа
ихи
ихигеит
ихиркәшеит
ихкаан
ихшыҩ
ихы
ихыбуп
ихыу
ихыҭҳәаау
ихьз
ихьчеит
ихьшәаны
ихьысҳан
ихьыӡ
ихьыԥшу
ихьыԥшым
ихьӡ
ихьӡала
ихьӡоуп
ихьӡын
ихьӡқәа
ихҟьан
ихҩаалоуп
ихҵан
ихәыцит
ихәыҷра
ихәыҷқәа
ицаз
ицеит
ицнагаҩ
ицо
ицоз
ицоит
ицон
ицхырааҩ
ицхырааҩыс
ицқьоу
ицәажәо
ицәажәоз
ицәажәоит
ицәгьахоит
ицәу
ицәырган
ицәырҵит
ицәырҵуа
ицәырҵуаз
ицәырҵуеит
ицәырҵыз
ичаԥоу
ичо
ичымазара
ичын
ишазгәарҭо
ишазгәаҭоу
ишазгәеиҭаз
ишалагазгьы
ишамоу
ишану
ишаныҵәҟьоу
ишахәҭаз
ишахәҭоу
ишаҳәо
ишаҿу
ишаԥу
ишдыру
ишиашоу
ишкәакәоу
ишоит
ишоуп
ишубарҭоу
ишызгәеиҭо
ишырыԥхьаӡо
ишырҭаху
ишырҳәо
ишыҟаз
ишыҟоу
ишыԥнарго
ишь
ишьақәгылаз
ишьақәгылан
ишьақәгылеит
ишьақәгылоз
ишьақәгылоит
ишьақәгылоу
ишьақәгылоуп
ишьақәдыргылоит
ишьақәдырӷәӷәоит
ишьақәдырӷәӷәон
ишьақәиргылоит
ишьақәирӷәӷәоит
ишьақәнаргылеит
ишьақәнаргылоит
ишьақәнарӷәӷәеит
ишьақәнарӷәӷәоит
ишьақәыргылаз
ишьақәыргылан
ишьақәыргылоу
ишьақәырӷәӷәан
ишьаҭакхеит
ишьаҿақәа
ишьра
ишьуеит
ишьыхуп
ишьҭан
ишьҭоу
ишьҭоуп
ишьҭыхуп
ишҟа
ишәарҭам
ишәарҭахоит
ишәыз
ишәҟәы
июль
июля
июнь
июня
иџьабаа
иџьабааԥса
иџьашьатәӡам
иџьбараз
иқалақь
иқыҭа
иқыҭаҿтәи
иқьырси
иқьырсиану
иқәгылаз
иқәгылара
иқәгыларақәа
иқәгылараҿ
иқәгыло
иқәгылон
иқәгылоуп
иқәиргылеит
иқәиргыло
иқәу
иқәынхо
иқәынхоз
иқәыргылоу
иқәырҵоит
иқәҵаны
иқәҵны
иҟ
иҟаз
иҟазаара
иҟазар
иҟазаргьы
иҟазароуп
иҟазарц
иҟазшьа
иҟазшьарбагоу
иҟаиҵаз
иҟаиҵеит
иҟаиҵоит
иҟалаз
иҟалалоит
иҟалар
иҟалараны
иҟаларц
иҟалаша
иҟалеит
иҟалоз
иҟалоит
иҟам
иҟан
иҟанаҵаз
иҟанаҵеит
иҟанаҵы
иҟарҵаз
иҟарҵеит
иҟарҵо
иҟарҵоз
иҟарҵон
иҟаҵаз
иҟаҵан
иҟаҵаны
иҟаҵатәу
иҟаҵоу
иҟаҵоуп
иҟаӡам
иҟаԥшьу
иҟаԥшьыхәхәароу
иҟны
иҟоу
иҟоуи
иҟоуп
иҟынтәи
иҧҳәыс
иҩаӡара
иҩбамкәа
иҩит
иҩны
иҩуан
иҩуп
иҩыз
иҩыза
иҩызцәа
иҩызцәеи
иҩымҭа
иҩымҭақуа
иҩымҭақәа
иҩычоу
иҩычоуп
иҭаауеит
иҭаацәа
иҭаацәара
иҭаацәаратә
иҭаацәараҿы
иҭаацәеи
иҭагылазаашьа
иҭаз
иҭазыргыло
иҭакыз
иҭакыу
иҭахаз
иҭахеит
иҭахын
иҭбаау
иҭижьуеит
иҭижьыз
иҭоу
иҭоуп
иҭоурыхтә
иҭрыжьуа
иҭшәоу
иҭыжьыз
иҭыжьын
иҭыху
иҭышәынтәалоу
иҭыҵит
иҭыҵуаз
иҭыҵыз
иҭыԥ
иҭҵаарадырратә
иҭҵааратә
иҳ
иҳараку
иҳаҭыԥуаҩыс
иҳәан
иҳәатәуп
иҳәеи
иҳәеит
иҳәоит
иҳәон
иҳәса
иҳәынҭқарратәым
иҵ
иҵара
иҵаҩцәа
иҵегь
иҵегьы
иҵеит
иҵоит
иҵон
иҵхоз
иҷкәын
иҷыдоу
иҽрылаирхәуам
иҽыжәу
иҿагыланы
иҿагыло
иҿало
иҿаҵала
иҿаԥхьа
иҿиаауп
иҿио
иҿиоит
иҿы
иҿырԥшыгоу
иҿыцу
иҿҳәара
иӡбан
иӡбахә
иӡбахәы
иӡбеит
иӡбоит
иӡбоу
иӷару
иӷәӷәаз
иӷәӷәаны
иӷәӷәахон
иӷәӷәоу
иӷәӷәоуп
иԥа
иԥацәа
иԥеи
иԥеиҳаб
иԥеиԥа
иԥсабаратәу
иԥсабаратәым
иԥсадгьыл
иԥсахын
иԥсра
иԥсы
иԥсыбаҩ
иԥсыжра
иԥсыз
иԥсҭазаара
иԥсҭазаараҿ
иԥха
иԥхьатәара
иԥхьаӡан
иԥхьаӡоит
иԥхьаӡон
иԥхьаӡоу
иԥхьаӡоуп
иԥша
иԥшаан
иԥшьоу
иԥшқоу
иԥшәма
иԥылеит
иԥҳа
иԥҳәыс
иԥҳәыси
иԥҵ
к
ка
кабельного
кабельных
кабо
кабус
кавказ
кавказа
кавказаа
кавкази
кавказскии
кавказтәи
каддафи
кадр
кадра
кадром
каждого
каждои
каждую
каждые
каждыи
казаки
казался
казан
казне
казни
казнь
каи
каидаҟ
каир
как
какая
какие
каким
каких
какого
какое
какои
каком
какую
кал
калгари
калдахәара
календар
календарные
календарь
календарю
календаря
калигула
калита
калифорниа
калифорнии
каман
камантәи
каменныи
камень
камертә
камерун
камня
кампания
камшьышь
камыгә
канада
канадеи
канады
канал
кандидат
кандидата
кандидатов
кандидатом
кандидатс
кандидатура
кандидатуру
кандидатуры
кандидаты
кант
капба
капелла
капетингов
капитан
капитанс
капитуляции
капитуляция
капская
каракас
каракаса
кардинал
карибтәи
кариера
карл
карла
карлсруе
карт
карта
карте
картер
картина
картине
картинка
картинке
картинки
картинку
карточка
карточкои
карточку
карту
карты
касабланка
касается
касаются
касланӡиа
касп
кастро
касым
каталониа
каталониатә
катар
катастрофа
катастрофическое
катастрофу
категориа
категориагьы
категориақәа
категоризации
категоризация
категории
категорически
категорию
категория
категориям
категориями
категориях
катовице
католикатә
католическои
кафка
кафки
ках
кахеҭи
качества
качестве
качественнои
качественную
качество
каԥшь
кбу
кв
кванджу
квартира
кверенбург
квинт
квициния
кди
ке
кеи
келешбея
кем
кембридж
кембриџь
кембриџьтәи
кениа
кеннеди
ки
киев
киеве
киевскии
киклады
килограмм
ким
кинг
кинематографа
кино
киото
киотскии
кипр
кипра
кириллицы
кириллтәи
кит
китае
китаем
китаи
китаиаа
китаитәи
китакюсю
киут
кишине
кл
клавиатура
клавиатуру
кладбище
класс
классификации
классификация
класск
клерк
кливленд
климент
клинтон
клод
клуб
клуба
клубқәа
клушыно
ключевые
ключевых
км
кн
кндр
книг
книга
книге
книги
книгу
кнопка
кнопки
кнопкои
кнопку
кнр
кнут
кнутссон
кны
княжества
княжество
князеи
князь
князя
ко
коалиции
кобэ
ков
ковского
когда
кого
когониа
код
кода
коде
кодекс
кодекса
кодексом
кодексқәа
кое
козлов
кол
колец
колея
количества
количестве
количество
колл
коллег
коллеџь
колокол
колонии
колонию
колорадо
колумб
колумбиа
колумбии
команд
команда
команде
командованием
командои
команды
комбинации
комбинируя
коми
комиссариат
комиссиа
комиссия
комитет
комитета
комитетом
комитету
комментариев
комментарии
комментария
комментариями
комментариях
коммерческии
комортәи
компактно
компаниа
компании
компанию
компания
компас
компаса
компасом
компенсацию
комплекс
комплексқәа
композитор
композитора
компонентк
компьютер
компьютернои
компьютерных
комсомольская
конвент
конвента
конвенции
конвенция
конго
конготәи
конгресс
конец
конечно
конка
конкретного
конкретные
конкретным
конкурс
конная
коннои
конныи
конотоп
конрад
консенсус
консенсуса
консепсион
константин
константинович
константинополь
константинополя
конституциатә
конституции
конституцию
конституция
конструкциа
консул
консультации
контингент
континента
континентальныи
контроль
контроля
конфедерация
конференции
конференция
конфиденциальности
конфликт
конфликта
конфликтов
конфликты
конфликтқәа
конца
конце
концепции
концерт
координат
координации
координация
копенгаген
копенгагена
копенгагене
копираи
копирования
копировать
копия
кор
корабле
кораблеи
корабли
корабль
корабля
кораи
кордова
кореи
кореиа
кореиатәи
корея
коринф
корнеи
корнели
корнелии
коробка
короле
королева
королевского
королевства
королевство
королевы
королеи
короли
король
королю
короля
корона
коронация
коронная
коронован
короны
короткая
короткие
короткии
корпор
коррупциа
корсика
кортуа
кос
коса
косвенно
космическая
космическии
космического
космос
космосе
косово
коста
костырченко
кот
которая
которого
которое
которои
котором
которому
которую
которые
которыи
которым
которых
кохаб
кочи
коэффициент
коэффициентом
коӷониа
кп
кпк
кпсс
кр
краи
кракатау
краков
красиво
красная
красного
краснодар
краснодарское
краснои
красноиарск
красноярскии
красныи
красным
краткая
краткие
кратко
краткое
краткому
кратное
краю
края
кредит
креи
кремле
кремль
кремля
крепости
крепость
крепостью
крест
креста
крестовыи
крестоносцев
крестоносцы
кривои
кризис
кризиса
кристиан
кристина
кристофер
критериев
критерии
критериям
критериях
критика
критикала
кровавое
крови
кроиф
кролик
кроме
круг
круглиак
кругосветного
кругосветное
кругу
кружок
крупная
крупнеи
крупные
крушение
крызҵазкәа
крымская
крымскои
кс
кстати
кся
кт
кто
ку
куала
куба
кубы
кувеит
кудры
кузичева
кук
кукла
кукловодство
кул
культет
культур
культура
культуратә
культуреи
культуры
куправа
кур
курс
курсе
курсив
курсивом
курсора
курсқәа
курфюрстов
кутаӷь
кх
къ
кыив
кын
кындыӷ
кыр
кь
кьалашәыр
кьараз
кьаҿк
кьаҿқәа
кьолн
кьыршьал
кьыш
кьыҿла
кә
кәакә
кәарҷиа
кәарҷиаа
кәасҭа
кәатат
кәачира
кәақьҭак
кәаӷәаниа
кәтол
кәтолтәи
кәыбраа
кәыдри
кәыдры
кәыдрытәи
кәыкәиа
кәымф
кәын
кәыҵниа
кәыҵниаа
л
ла
лабахәуа
лабра
лаврент
лагалақәа
лагаш
лагерь
лагодехь
лагылазаара
лагәлаа
лада
лазар
лаи
лакербаи
лакербаиа
лакоба
лакобеи
лакрба
лакхнау
лакьысра
ламберти
ламиа
ламшьаҵә
лан
ланашьан
ланка
ланкашир
ланчхәыҭ
лаос
лара
лареи
лари
лариса
ларри
лас
лассы
ласуриа
латвиа
латвии
латин
латиницы
латинскии
латинских
латинскои
латинтәи
латәарада
лауан
лаша
лашә
лашәриа
лашәриаа
лақукәа
лаҟәу
лаҵара
лаҵарамза
лаҵарамзазы
лвов
лгеит
ле
лев
леван
левого
левому
легенда
легко
легкое
легкорельсовая
лежит
леи
леик
леипциг
леит
леитенант
лекарственные
лекарственных
ленд
ленин
ленина
ленинград
ленинграда
ленинтәи
леннон
лентех
лентул
лео
леон
леонардо
леоне
леонид
леонида
леонти
лермонтов
лесото
лет
летательныи
летию
летнее
летнии
летняя
лето
леуан
леуарса
леуарсан
лефевр
ли
либериа
либо
ливан
ливерпул
ливиа
ливиатәи
ливиеи
ливии
ливия
лига
лиги
лидера
лидеров
лидерства
лиеж
лиза
лиит
ликвидации
лима
лимы
лингвист
лингвистике
лингвистцәа
линии
линию
линия
линкор
линнеи
линус
лиолиа
лион
лионтәи
лир
лира
лирика
лиссабон
литва
литература
литературатә
литературах
литературная
литературного
литературные
литературных
литературу
литературы
литовскии
лиу
лиудмила
лиудовик
лиуис
лиуксембург
лихтенштеин
лица
лицензиеи
лицензии
лицензирование
лицензию
лицензия
лицо
личная
личное
личнои
личных
лишиться
лишнеи
лишь
лландидно
лобового
лов
лович
лого
логос
лодка
лодки
ложных
лозунгом
локально
локальныи
лолуа
ломиа
ломистәи
ломоносов
лондан
лондон
лондона
лондоне
лондонском
лос
лоуит
лоуп
лрт
лс
лса
лтое
лтә
луан
луахәама
луи
луис
луиса
лука
луна
луну
луны
лурье
луции
лучше
лучшего
лучшии
лучших
лы
лыгәра
лымкаала
лымык
лырхит
лыхнашҭа
лыхны
лыхнытәи
лыхьӡ
лыхьӡала
лыҵшәадахеит
лыԥсҭазаара
ль
львовское
льготақәа
льд
льдик
льнскии
любовь
любого
любое
любои
любом
любую
любые
любым
любых
людеи
люди
людовик
людовика
людьми
людях
люксембургскии
люмьер
лютер
лҟны
лҳәеи
лҵшәа
лӡаа
лԥа
м
ма
маан
мааҭ
маврики
мавританиа
магатэ
магистр
магнус
мадагаскар
мадам
мадиартәыла
мадина
мадлеи
мадонна
мадрид
мадридскии
мазара
мазарақәа
маи
маикл
маин
маиор
маиҟәаԥ
мак
макао
макариос
македониа
маккартни
максим
максимально
максимум
макьана
макьаназ
макьаназы
малави
малага
малаи
малаизиа
малаитә
мали
малиа
мало
малои
малых
мальтатәи
мальтии
мама
мамзаргьы
мамука
ман
манама
манге
манифест
манча
манчестер
манш
мао
мап
мар
маракаи
марбургскии
маргарет
мари
мариа
марии
марина
марино
мария
марк
марка
марки
маркированныи
маркс
маркәыла
марнеул
марок
марокко
марр
марс
марса
марсе
марсель
март
марта
мартин
мартиника
мартобря
мартәыл
мархолиа
мархьаул
маршала
маршрут
маршрутов
маршрутқәа
маршьан
марьянои
массовое
массовые
массовых
масштабирование
масштабировать
масштабируется
матери
материал
материала
материалов
материалы
материалқәа
материка
матч
мать
махаз
махатма
махбуб
махәыр
махәҭак
мацара
мацарала
мацароуп
мачавариани
машину
машәырла
машәырлатәи
мая
маџьгәыр
мақсим
маҭәарқәа
маҭәахәы
маҭәахәқәа
маҳадыр
маҵзура
маҵзурақәа
маҵзуреи
маҵзуҩцәеи
маҵура
маҵурак
маҵураныҟәара
маҷ
маҷк
маҷны
маҷуп
маҷхоит
маҷқәа
маӡа
маӡала
маӡалатәи
маӡаныҟәгаҩс
мби
мгәыӡырхәа
ме
мебели
медведев
медведеви
медведицы
медиа
медиафаи
между
междугородная
международная
международного
международнои
международные
международныи
международных
межпланетная
мексика
мелких
мельбурн
мемориал
менделеев
менее
мент
меншевикцәа
меньше
меньшеи
меня
меняется
менять
мер
мераб
мере
мери
мероприятие
мероприятии
мероприятия
меры
месолонгион
месси
мессиа
мест
места
местам
местами
местах
месте
местиа
местное
местныи
место
месяц
месяца
месяцах
мета
мете
метод
методқәа
метр
метра
метрак
метро
метрополитен
метрополитена
метрополитеном
метротрам
метроэлектричка
механизм
мехико
мечеть
мз
мза
мзазы
мзақәа
мзызқәа
микеланджело
мил
милан
милаҭ
милаҭла
милаҭтә
миллиард
миллион
миллионк
миллионки
миллионла
миллионҩык
милос
миль
мин
мини
миниатюра
минимально
минимальнои
минимальные
минимальныи
минимальным
миниметро
минимум
министр
министра
министром
министрс
министрцәа
минск
минска
минсктәи
минут
мир
мира
мире
мирныи
мировая
мировои
мировую
мировых
мирон
миру
миссиақәа
миссисипи
мистификация
митрополит
миунхен
миурдаль
миха
михаи
михаил
михаила
михалко
мишель
миқаиа
мканба
мкин
млакра
млн
мм
мма
мммм
мне
мнение
мнением
мнении
мнению
мнения
многие
многих
много
многое
многократно
многоликость
множественном
множество
мобильные
мобильных
мов
мог
могадишо
могли
могу
могут
модель
модернизации
мое
может
можете
можешь
можно
мозамбик
мои
моисеи
молдова
мольер
момент
мона
монако
монархиа
монархиақәа
монархии
монархов
монастыре
монастырь
монастыря
монголиа
монголы
монетақәа
монитор
мониторинг
монорельс
монреаль
монро
монтевидео
монтерреи
моратории
море
морем
морис
мориц
морского
морское
моря
москва
москватәи
москваҟа
москве
москвои
москву
москвы
московская
московскии
московским
московского
московскои
москәа
мост
моста
мостов
мосту
моуп
мохаммед
моцарт
мощныи
моя
мр
мрагылара
мрагыларатә
мрагыларатәи
мрагыларатәии
мрагыларахьала
мрагыларахьтәи
мрагылараҿы
мрагылареи
мраҭашәара
мраҭашәарагерман
мраҭашәарантә
мраҭашәаратә
мраҭашәаратәи
мраҭашәаратәии
мраҭашәарахьала
мраҭашәарахьалагьы
мраҭашәарахьтәи
мраҭашәараҿы
мраҭашәареи
мрҭашәаратә
мс
мса
мстислав
мсыгәхәа
мсылманра
мсыр
мт
мубарак
мужчин
музее
музеи
музея
музыка
музыкальные
музыкальныи
музыке
музыки
мультимедии
мультфильм
мумбаи
муниципальные
мурси
муссолини
мустафа
мусульман
мухаммед
мухаммеда
мушни
мушьни
мхедрули
мхеиӡе
мцхеҭа
мчра
мчрақәа
мчы
мчыла
мчылатәи
мчқәа
мш
мшаҧы
мшаԥы
мшаԥымза
мшы
мшын
мшқәа
мы
мыз
мызкы
мызқәак
мыкәша
мыруганы
мыругоуп
мырҵыкәа
мысль
мыср
мысра
мысратәи
мысреи
мыцхәы
мыши
мышкои
мышкы
мышьҭ
мықә
мықәба
мықәи
мықәтәи
мэри
мюнхене
мюрдаль
мҩа
мҩақәа
мҩаԥган
мҩаԥигеит
мҩаԥигоит
мҩаԥигон
мҩаԥнагоит
мҩаԥыргеит
мҩаԥыргоит
мҩаԥыргон
мҩаԥысит
мҩаԥысуан
мҩаԥысуеит
мҭ
мҭиулеҭи
мҵара
н
на
набережная
набережнои
наберите
наблюдении
наблюдения
набор
набора
набрать
наведении
наведения
наверное
нави
навигации
навигационныи
навигационным
навигационных
наводнение
навыков
награда
награду
награды
над
надежда
надежды
надземныи
надо
надписи
нажатии
нажать
нажмите
назад
назвал
название
названием
названии
названию
названия
названиям
названиями
названиях
назвать
наземное
наземныи
назначен
назначения
назовите
называемое
называется
называться
называют
называются
назыгӡо
наи
наиболее
наибольшее
наибольшеи
наигӡоит
наказуемо
накануне
накладывается
накрутка
налаҵаны
налево
наличие
наличием
наличии
наличия
наложению
нальчик
нам
намаэ
намерения
намерениях
нами
намибиа
нанагӡоит
нанҳәа
нанҳәамза
наоборот
нап
нападение
написан
написана
написание
написании
написания
написанная
написанные
написанныи
написано
написать
напишите
наполеон
наполеона
наполеоновскои
напоминаем
напр
направление
направлении
направлению
направлениях
направо
например
напротив
напхгара
напхгараҭара
напхгаҩыси
напы
напыла
народ
народа
народного
народнои
народных
народов
нартских
нарушение
нарушении
нарушения
нарыгӡоит
нарџьхьоу
нарҭ
нарҭаа
нарҭтә
нас
насгьы
населе
население
населения
насколько
наследником
наследство
настоящего
настоящее
настоящеи
настоящему
настроек
настрои
наступление
наступления
нато
наук
наука
наукақәа
наунагӡа
научная
научно
научное
научнои
научном
научных
находится
находиться
находятся
находящиеся
нахыс
нации
националистов
национального
национальныи
нацистскои
начавшееся
начал
начала
началась
начале
начали
начались
начало
началом
началось
начался
начат
начата
начато
начать
начинается
начинать
начинаться
наш
наше
нашего
нашеи
нашем
нашлось
ная
наҟ
наӡа
наӡеит
наӡоит
наԥхгара
наԥшыҩцәа
нбан
нбанқәа
нг
не
неактивных
небе
неверен
неверно
невозможно
невского
него
недели
неделю
неделя
недерланд
недерландтәи
недопустимо
недопустимость
недостатки
недостаточно
нее
нежелание
нежелательно
независимо
независимости
независимость
независимых
неи
неигӡонаҵы
неизвестен
неизвестно
неизвестныи
некитаи
некоторои
некоторые
некоторым
некоторыми
некоторых
некрополь
нелли
нельзя
нельсон
нем
немало
немецкая
немецкие
немецкии
немецких
немецком
немирович
немного
нему
немцев
ненападении
необоснованное
необходимо
необходимости
необходимые
необходимыи
необходимых
неоднозначностеи
неоднозначности
неоднозначность
неоднородны
неоконченности
непал
непосредственно
неправильно
непризнанных
неприсоедине
нептун
нер
нера
нереально
нерон
неру
несвободные
несвободных
несе
нескольких
несколько
несмотря
нести
нестор
нет
нетрудно
неудачная
неудачным
нефти
нечего
нечто
ни
нибудь
нигде
нигер
нигериа
нигериатәи
ниже
нижегородскии
нижнего
нижьразы
нижьыр
низ
ник
ника
никак
никаких
никарагуа
никита
нико
никогда
никол
николаевна
николаи
николая
николоз
никому
никәала
нил
ним
ними
нино
ниноҵминда
ниу
ниуарк
ниуи
них
нихонго
ницше
ничего
ничто
нишвили
нк
нная
нного
нное
ннои
нном
нному
нность
нную
нные
нныи
нным
нными
нных
но
нобель
нобельтәи
нова
новая
новгород
новгороде
новичков
нового
новое
новои
новом
новороссии
новосибирск
новостеи
новости
новость
новую
новые
новыи
новым
новых
ного
нодар
ное
нои
ноиа
номенклатура
номенклатуры
номер
номера
номинально
номинальнои
номинальную
ному
норвегиа
норвегии
норм
норма
нормақәа
нормы
носителеи
носом
ноча
ночи
ночь
ноября
ноӷ
нскии
нстә
нсқә
нт
нтз
нтә
нтәи
ну
нуакшот
нугзар
нуждается
нужна
нужно
нужное
нужную
нужны
нур
нурбеи
нури
нусхури
нхамҩа
нхара
нхарҭа
нхеит
нхоит
нхыҵ
нцә
нштеи
ны
ные
нызықь
нызықьҩык
нызқь
нызқьҩык
ныи
ным
ныне
нырцә
нырҵуа
ных
ныхабаа
ныҟәара
ныҟәг
ныҟәызго
ньиутон
нью
нюрнбергскии
нҳәа
нҵақәа
нҵәаанӡа
нӡ
нӡа
о
об
оба
обама
обвинение
обвинению
обеспечен
обеспечению
обеспечения
обеспечит
обеспечить
обиектқәа
обладают
област
области
область
областқәа
обмен
обмена
обнаружен
обнаружена
обнаружении
обнаружения
обнаружил
обновле
обновления
обновлениями
обозначение
обозначения
обозначенные
обоих
обороны
обоснованных
образа
образец
образован
образована
образование
образовании
образованиях
образовано
образом
образуют
обрамить
обратился
обратите
обратить
обратиться
обратное
обратнои
обратную
обращаться
обращение
обращении
обращено
обретения
обручение
обрушение
обрушился
обсе
обсерватории
обслуживает
обслуживание
обслуживания
обсудить
обсуждение
обсуждением
обсуждении
обсуждению
обсуждения
обсуждениям
обсуждениях
обтекает
обучения
общая
общего
общеи
общем
общему
общественное
общественном
общественности
общество
общие
общии
общности
объе
объединение
объединения
объединились
объект
объекта
объектах
объекте
объектов
объекты
объявил
объявила
объявили
объявлен
объявление
объявлено
объявлены
объясните
обыкновенная
обычно
обычного
обычное
обычныи
обычным
обязанности
обязательно
обязательныи
обязательным
обязательных
овладели
огаио
ограничение
ограничении
ограничения
одесса
одесское
один
одна
однако
одним
одних
одно
одновременно
одного
однои
одноклассники
одном
одному
однородны
одну
одобрил
одышь
одышьтәи
озган
озера
озеро
ознакомиться
ознакомьтесь
означает
ои
оказывается
океан
океана
океанами
океане
окне
окном
около
окончание
окончания
окончено
округ
округа
округи
округляется
округқәа
округқәеи
окружить
окситанскии
октавиан
октябре
октябрь
октября
ола
олег
олегом
оливер
олимпиада
олимпиадатә
олимпии
олма
ом
оман
омар
омск
омскии
омывается
он
она
онар
оне
онегин
они
онлаи
онлаин
оно
оны
оон
оп
опера
операциа
операциақәа
операции
операционнои
операцию
операция
оперы
описан
описание
описанием
описании
описания
описано
описать
опишите
ополчения
определе
определение
определением
определения
определить
определяет
определяется
определяются
опрос
опроса
опросах
опубликовавшии
опубликовал
опубликовала
опубликован
опубликована
опубликованных
опубликовано
опубликованы
опция
опыт
опыта
опять
орбите
орбиту
орган
организациақәа
организации
организация
организациями
организациях
организма
организмов
организовали
организует
органуп
органқәа
орден
ордена
ореол
оригинальное
оригинальных
ориентациала
ориентациеи
ориентации
оризонти
орисс
орк
орка
орке
оркестр
оружия
орфеи
орфографиа
орфографии
орџьоникиӡе
орџьоникиӡеи
осада
осадил
осадили
осады
освещение
освободила
освободили
освобожде
освобождение
освящена
освящение
осень
осетии
оскар
оскорблении
осло
осман
османская
османскои
османтәи
осмысленных
основал
основали
основан
основана
основание
основании
основано
основателя
основе
основного
основное
основнои
основном
основную
основные
основным
основных
основы
особая
особенно
особенности
особого
особои
особых
оставаться
оставил
оставили
оставим
оставить
оставляи
оставьте
остального
остальное
остальных
остаться
осторожностью
остров
острова
островах
острове
островов
осуществле
осуществляет
осуществляется
осуществляющии
от
отбора
отбору
отвернувшимся
отвесно
ответ
ответвление
ответвлением
ответили
ответить
ответственности
ответственность
ответы
отвечает
отвечают
отвоевал
отдал
отделении
отдельно
отдельнои
отдельные
отдельных
отель
отец
отечественная
отечественнои
отзывам
отзывами
отзывов
отзывом
отзывы
отказ
отказался
откат
отключили
открывается
открыл
открыла
открылась
открылись
открылось
открылся
открыт
открыта
открытие
открытии
открытия
открыто
открытым
открыть
откуда
отличается
отличаются
отличие
отличительныи
отлично
отложена
отлучил
отмасштабированныи
отмена
отмене
отменено
отменил
отменить
отмены
отметить
относительно
относительности
относится
относятся
относящиеся
отношение
отношении
отношению
отношения
отныне
отображаемым
отображается
отображаются
отображение
отображением
отображения
отобразить
отобраны
отплыл
отправилась
отправился
отправить
отправлено
отпуск
отре
отредактировать
отречение
отриад
отслеживания
отставка
отставку
отступов
отступом
отсутствии
отсутствия
отсутствуют
отсче
оттава
отто
отца
отче
отчество
отырба
оу
оуп
официалла
официалтә
официально
официальное
официальном
официальныи
официальных
оформив
оформите
оформить
оформление
оформлению
оформления
оформленная
оформлять
офіціи
охраны
очамчира
очамчыра
очамчыратәи
очень
очередное
очереднои
очередь
очерки
ош
ошибка
ошибках
ошибке
ошибки
ошибку
ошибок
оқсфорд
оқтиа
оҭар
оҭырба
оҭҳара
оӷлы
п
павел
павла
павлов
падеже
падение
паи
пакистан
пакисҭан
пакт
пал
палата
палермо
пальма
пам
памяти
памятник
памятники
память
панама
панель
панорама
панорамы
пап
папа
папасқьыр
папои
папы
парад
параметр
параметра
параметре
параметров
параметром
параметру
параметры
париж
парижа
париже
парижскии
парижского
парижскои
парижском
парижтәи
парк
парламент
парламента
парламентов
паровая
паровои
паровые
пароход
парохода
партиа
партиақәа
партиақәеи
партии
партия
партне
парфиа
пассажиров
пассажирская
пассажирскии
пассажирского
пастуха
патент
патриарх
патриарха
патрулирование
патрулированная
пату
паулу
пашинян
пе
педагогтә
пеи
пекин
пеле
пер
первая
первого
первое
первои
первом
первоначально
первую
первые
первыи
первым
первыми
первых
перевести
перевод
перевода
переводами
переводе
переводить
переводов
переводом
переводчики
переводы
переворот
переворота
перед
передала
передана
переданы
передать
передвинуть
переделана
переи
переименован
переименование
переименовать
переле
перелетел
перемирие
перенаправление
перенаправлении
перенаправления
перенесена
перенести
перенос
переписи
перепишет
пересе
пересмотр
пересмотра
пересмотрены
пересмотреть
пересмотру
переход
переходит
перечень
перешита
перешла
перешли
период
перм
пермскии
персона
персоналии
персоналиях
персонах
персонацәа
персоны
перспективе
перу
песен
песни
песню
песочница
песочнице
петена
петербург
петербурга
петербурге
петербургская
петр
петра
петровны
петроград
петром
петропавловск
печати
пи
пиаф
пии
пиках
пикселеи
пиленко
пиленково
пилотных
пильскии
пинг
пиотр
пипин
пиплмувер
пиренеи
пири
писателеи
писатели
писать
письменностеи
письменности
письмо
пит
питиунт
питиус
пицунда
пицундатәи
пишете
пишется
пишите
пишутся
пия
пкс
плавание
плавания
план
плана
плане
планеты
планировалось
планировался
планирует
планируется
планк
планы
платон
платформа
платформе
плен
пленение
плохим
плохо
площади
площадь
плюс
по
побег
победа
победил
победила
победои
победу
победы
побережье
побережья
поблагодарить
поведение
поведения
поверх
поверхности
повествования
повествовать
поводом
поводу
повторное
погиб
погибли
погибло
погибших
погосов
под
подавать
подавлено
подал
подачи
подаю
подводить
подводная
подводных
подводящии
поддержано
поддерживаемых
поддерживаете
поддерживать
поддержка
поддержке
поддержки
поддержку
поделились
поделитесь
поделиться
подземная
подземные
подземныи
подлежат
подлежит
поднял
поднялся
подобно
подобного
подобное
подобнои
подобные
подобных
подписал
подписали
подписан
подписание
подписано
подписаться
подписи
подписываи
подписываться
подпись
подписью
подпишитесь
подпункт
подраздел
подробнее
подробно
подробности
подробную
подробныи
подсветка
подсветке
подсказки
подстраницы
подтвердили
подтвержде
подтверждения
подтверждены
подумаи
подход
подходят
подходящего
подходящии
поезд
поезда
поезиа
поет
пожаловать
пожалуи
пожар
позволит
позволяет
позволяют
позволяющии
позднее
поздравления
поздравляю
позже
позиции
позицию
пои
поиск
поиска
поиском
пока
показ
показа
показана
показать
показывает
показывается
показывать
показываться
покое
покорение
покорили
покушение
пол
пола
поле
полезно
полигоне
политик
политика
политикатә
политикеи
политики
политикцәа
политического
полиция
полно
полного
полное
полнои
полномочии
полномочия
полностью
полноценно
полноценнои
полноценную
полную
полныи
половины
положение
положении
положению
положения
положив
положившии
положила
положило
поломано
полупрозрачныи
получается
получать
получение
получения
полученные
полученным
полученных
получил
получила
получили
получится
получить
полша
поль
пользователеи
пользователи
пользователь
пользователя
пользоваться
пользу
пользуи
польская
польскии
польского
польскои
польша
польше
польшеи
польши
полюса
поля
поляков
полярная
поместить
пометки
пометкои
пометок
помечается
помещать
помещаться
помните
помнить
помогает
помогать
поможет
помочь
помощи
помощь
помощью
понимаете
понимания
понял
понятии
понятия
понятно
понять
попадает
попаде
попал
попасть
попеременно
попечителеи
попечители
попечительскии
поправить
поправка
поправки
попробуи
популярным
популярных
попытался
попытка
пор
поработать
поражение
порода
породы
порои
порошенко
порт
портал
портрет
портрете
портретов
порту
португалиа
португалии
португалия
португальскии
порядка
порядке
порядок
посадку
посвяще
посе
поселение
посетил
посетите
посетителеи
поскольку
после
последнего
последнее
последнеи
последние
последнии
последних
последнюю
последняя
последовательность
последствии
последующее
последующих
послесловие
посмотреть
посмотрите
посольство
посполитои
посредничеству
пост
поста
поставил
поставить
поставлен
поставлена
поставьте
постановление
построение
поступил
поступила
поступило
поте
потенциал
потерпел
потерпели
потом
потому
потопила
потребуется
поход
похода
почему
почте
почти
поэт
поэтому
поэты
появилась
появилось
появится
появляется
появлялось
пояснение
пояснительная
пояснительнои
ппет
пр
прав
права
правами
правах
правда
праве
правил
правила
правилам
правилами
правилах
правиле
правило
правилу
правильно
правильного
правильном
правит
правителем
правительств
правительства
правительство
править
правка
правке
правки
правку
правления
право
правои
правок
правом
правому
правоприменения
правы
прага
праге
пражскии
праздники
практика
практике
практически
преамбула
пребывание
превышает
предварительно
предварительные
предварительныи
предвзятости
предводительством
пределами
пределах
предлагаемыи
предлагаю
предложение
предложении
предложения
предложениям
предложенные
предложил
предмет
предмета
предметах
предмете
предметов
предметы
предназначенныи
преднестровиа
предоставить
предоставлена
предоставление
предоставлены
предпочесть
предпочтение
предпочтительнее
предпросмотра
председателем
председатель
представил
представили
представителеи
представители
представительство
представить
представлен
представление
представления
представленныи
представлены
представлять
представляющие
предстоящих
предупредить
предупреждения
преемник
прежде
президент
президента
президенте
президентов
президентом
президентс
президенттә
президентцәа
президенты
преимущественно
прекращении
прекращено
премиа
премии
премьер
премьера
пренебрежительное
преобразован
пресеклась
преследование
пресли
пресс
престол
престола
претендуют
претензии
префикса
при
прибыл
приве
приведе
приведена
приведение
приведены
привело
привести
привет
приводит
приводится
приглашаем
приглашение
приглашении
приговор
приговоре
пригородная
пригородно
пригородныи
приде
придерживаться
прие
прижать
призвал
призе
признавать
признаков
признал
признан
признана
признание
признания
признанных
признано
приказ
прилагательных
прим
применена
применение
применению
применения
применить
применяется
применять
применяться
пример
примера
примерно
примером
примеры
приметы
примечание
примечания
принимает
принимать
принимают
принимаются
принимающии
принимающим
принсипии
принца
принцип
принципа
принципам
принципк
принципу
принципы
принципқәа
принципқәеи
принял
приняла
приняли
принят
принята
принятии
принятия
принято
принятое
приняты
принятым
принять
присваивается
присвоение
присвоено
присоединении
присоединиться
присоединяи
пристрастности
приступил
приступили
присутствие
приход
прицкер
причерноморья
причинам
причине
причину
причины
про
пробел
пробелы
проблема
проблемақәа
проблему
проблемы
прове
проведе
проведении
проведения
провели
проверить
проверка
проверки
проверьте
проверяемость
проверять
проверяться
проверяющии
провинциақәа
провинциақәеи
провинциеи
провинции
проводить
провозгласил
провозгласила
провозгласили
провозглаше
провозглашена
провозглашение
провозглашено
проголосовавших
проголосовали
проголосовать
проголосуи
программа
программах
программақәа
программирования
программного
программу
программы
прогресс
продажу
продемонстрировал
продле
продлится
продлить
продолжается
продолжить
проект
проекта
проектах
проекте
проектируется
проектируются
проектов
проекту
проекты
проектқәа
проза
прои
произведении
произведения
произведениях
производится
производстве
производство
произне
произошло
происходит
происхождение
происхождения
прокат
прописнои
пропорции
пропорционально
просит
просмотр
просмотреть
проставляет
просто
простого
пространств
пространства
пространстве
пространство
просьба
против
противниками
противном
противоположностью
противоположных
противоречит
протокол
профессор
профиль
проходить
процедура
процент
процента
процентк
процесс
процесса
процессе
процессы
процессқәа
прочее
прочие
прочим
прочитаи
прочитать
прочих
прочь
проше
прошла
прошли
прошло
проще
прусская
прыжок
прямо
прямои
прямом
псевдовиртуал
псевдоним
публи
публикации
публикацию
публикация
публикациями
публике
публично
пугаче
пуерто
пула
пульмановтәи
пункт
пункта
пунктах
пунктов
пунктом
пускаи
пустои
пустую
пустые
пусть
путе
путеводитель
путешествие
путешествия
пути
путин
путина
путо
путь
пухаев
пушкин
пущен
пфальц
пфальца
пфальцграф
пхг
пытается
пытаи
пьер
пьесу
пяти
пятно
пятого
пять
підліснюк
р
ра
раагарҭақәа
рааигәара
раан
раанкылара
раартра
раарԥшра
раасҭа
раахыс
раахәара
раб
работ
работа
работает
работать
работают
работе
работои
работу
работы
рабочеи
равнинах
равно
равном
рада
ради
радио
радион
рады
раевски
ражәабжьқәа
раз
разбивает
разбил
разбит
разбомбили
разведчик
развитие
развитию
развития
разгром
разгромил
раздел
раздела
разделам
разделах
разделе
разделения
разделов
разделу
разделы
разделяются
различие
различные
различными
различных
размер
размера
размеров
размеры
разместить
разметки
разметку
размещается
размещаться
размещаются
размеще
размещена
размещение
размещении
размещения
разного
разное
разнои
разнообразие
разных
разработке
разработки
разрешает
разрешение
разрешении
разрешения
разрешено
разрушен
разрушение
разумеется
разумно
разумныи
разыҟаҵара
раи
раионк
раионқәа
ракадемиа
ракета
ракеты
ракзаара
ракәзар
ракәны
ракәымкәа
ракәын
ралагала
ралагалара
ралагамҭазы
раларҵәара
ралахәхара
рамзар
рамка
рамках
рамки
рамку
ран
ранашьоуп
ранг
ранее
раньше
рар
рартист
рарҳа
расим
раскрывающее
распад
располагается
расположения
расположенную
расположенных
расположены
распорядился
распростране
распространение
распространяется
распугне
рассет
рассказ
рассказы
рассказывается
рассматривать
рассмотрение
рассмотрения
рассмотренного
рассмотреть
рассоциациа
расстановка
расстрел
растении
растения
растровых
расширения
расширенных
расширяться
ратификации
ратә
ратәамбара
рауль
раунд
рауф
рауфбеи
рафаель
рафеҭ
рахь
рахьтә
рацәа
рацәак
рацәала
рацәаны
рацәаҩуп
рацәоу
рацәоуп
рашид
рашәа
рашәара
рашәарамза
рашәарамзазы
раҟара
раҳ
раҳасаб
раҳра
раҳҭынра
раҳәшьазаҵә
раԥхьа
раԥхьагылаҩцәа
раԥхьатәи
раԥхьаӡа
раԥхьаӡатәи
раԥырҟәҟәаара
раԥыхра
раԥҵара
раԥҵаразы
рбага
рбагоуп
рбеит
рбиологиа
рбираҟ
рбиуџьети
рбызшәа
рбызшәақәа
рбызшәеи
рганахь
рганахьала
рго
ргоит
ргыламҭа
ргыламҭоуп
ргыларақәа
ргь
ргәаанагара
ргәаанагарала
ргәабзиара
ргәалашәара
ргәы
ргәыԥ
ргәыԥқәа
рдамыӷа
рдепартамент
рдиаспора
рдиаспорақәа
рдинастиа
рдинхаҵара
рдинхаҵаратә
рдоктор
рдунеихәаԥшра
рдунеихәаԥшышьа
реал
реализации
реализацию
реализуемая
реально
реальнои
револиуциа
револиуциатә
революции
революционныи
революция
регалии
регент
регентство
регион
региональнои
региональные
регионах
регионқәа
регистр
регистрации
регистрация
регулирующие
регулярно
регулярное
ред
редактирование
редактировании
редактированию
редактирования
редактор
редактора
редакторам
редакторов
редакторы
редакционного
редакционныи
редакция
редире
режим
режиме
режимқәа
режиссе
резня
результат
результатам
результатах
результате
результатов
результаты
результирующии
реи
реибашьра
реибыҭара
реидгыла
реидгылара
реидкылара
реидыслара
реидыслараҿ
реизакра
реизара
реизарахь
реизарақәа
реизараҿы
реизареи
реизга
реизыҟазаашьа
реизыҟазаашьақәа
реизҳара
реилазаара
реилуеи
реилыргара
реилыркаара
реимабзиара
реимадара
реимдара
реино
реинырра
реиныршәара
реихшара
реиқәыршәара
реиқәыԥхьаӡа
реиқәыԥхьаӡара
реиқәыԥхьаӡаҿы
реиҟарамра
реиҭагара
реиҭныԥсахлара
реиҳа
реиҳабацәа
реиҳабцәа
реиҳабы
реиҳабыра
реиҳарак
реиҳараҩык
реиҿагылара
реиҿаргылара
реиҿартәышьа
реиҿкаара
реиҿкаареи
реиҿырԥшразы
реиԥш
реиԥшымзаара
реиԥшҵәҟьа
реиԥылара
реиԥыларақәа
реиԥылараҿ
река
реке
реки
рекламы
рекологиа
рекомендации
рекомендациям
рекомендуемое
рекомендуемыи
рекомендует
рекомендуется
рекорд
ректоры
реку
религиозные
релиз
рене
реплики
репос
репосқәа
репродукции
рес
ресифи
республик
республика
республикак
республикақәа
республике
республики
республикои
ресурсы
ресурсқәа
ретникатә
референдум
реформақәа
речи
речь
речью
решает
решение
решением
решении
решению
решения
решь
рзгьы
рзеиԥш
рзин
рзинмчхарақәа
рзинқәа
рзинқәеи
рзтәи
рзуны
рзура
рзутәуп
рзы
рзын
рзынӡа
рзыруеит
рзыҳәан
ри
рига
ридеиақәа
ридеологиақәа
рижскии
рика
рико
рим
рима
риме
римлян
римлянам
римма
римскии
римского
римскои
римтәи
ринститут
ринтересқәа
рио
рис
рисунка
рисунки
риторика
риурик
рихард
ричард
ришелье
риҭоит
риҭон
рк
ркандидат
ркандидатурақәа
ркны
ркралцәа
ркультура
ркультуратә
рл
рла
рлига
рлыҵшәа
рмаҵура
рмилаҭ
рмилаҭтә
рминистр
рминистрра
рминистрраҿы
рминистрс
рминистрцәа
рнагара
рнапала
рнапахьы
рнапаҵаҟа
рнапаҿы
рнапхгара
рнапхгаҩцәа
рнапы
рнарҭ
рнарҭдырра
рнаҩс
рнаҩсгьы
рнаҭеит
рнаҭоит
рного
рное
рныи
рныҳәа
ро
роберт
ров
рог
род
рода
родился
роднои
родос
рождение
рождении
рождения
рождества
рок
роли
ролл
роль
роман
романа
романов
ромеои
рональд
рос
росарио
роспуске
россиеи
россии
россию
россия
ростислав
ростов
ростовтәи
росток
росҭом
ротриад
роттердам
роуеит
роуит
роуп
роуразы
роурц
рпалата
рпантеон
рпартиа
рпоезиа
рпоет
рпозициа
рполитикатә
рполитикцәа
рполициа
рпрезидент
рпрезидентс
рпрезидентцәа
рр
рреспублика
рсахьақәа
рсдрп
рсезд
рсеминариа
рсеминариаҿ
рсериа
рсиа
рсиақәа
рсимвол
рсистема
рские
рскими
рских
рсовет
рсоциалисттә
рсоциалтә
рсфср
рт
рти
рточкои
ртә
ртәарҭа
ртәы
ртәыла
ру
руааԥсыра
руак
руакы
руалафахәы
руан
руанда
руаӡәк
рубрики
рувики
рудольф
руеит
рузвельт
руки
руководства
руководстве
руководство
руководствоваться
руководством
руководству
руководствуи
руководствуясь
румыниа
румыния
рус
русбарҭа
русеицура
русзуҩцәа
руси
руслан
русская
русски
русские
русскии
русским
русскими
русских
русско
русского
русское
русскои
русском
русскоязычного
русскоязычнои
русскоязычном
русскоязычных
русскую
русудан
русура
русуразы
русуреи
русқәа
русқәеи
русҭавели
русҭау
рушни
рушьбеи
рушьни
рф
рфакультет
рфедерациа
рфизиологиатә
рфонд
рфорум
рфрагментқәа
рх
рхада
рхадацәа
рхала
рхан
рхархәара
рхархәаразы
рхатә
рхатәы
рхақәиҭрақәеи
рхаҭарнакцәа
рхаҭақәа
рхаҿы
рхеидкыла
рхеил
рхеилак
рхи
рхы
рхыбгалара
рхыл
рхылаԥшхәыс
рхылҵшьҭрақәа
рхымҩаԥгашьа
рхыԥхьаӡара
рхыԥхьаӡараҿы
рхыԥхьаӡареи
рхьырԥар
рхәы
рхәыцраҿгьы
рхәыҷқәа
рцара
рцеит
рцәырҵрақәа
рцәыӡыр
ршоит
ршьақәыргылара
ршьоит
ршәарҭадара
ры
рыбжь
рыбжьара
рыбжьареи
рыбжьарҵеит
рыбжьаҵареи
рыбжьы
рыбжьқәа
рыбзазашьа
рыбзоурала
рыгәрамгара
рыгәҭа
рыда
рыдагьы
рыдгалара
рыдгылара
рыдгыларазы
рыдгылаҩцәа
рыдгылаҩцәеи
рыдкылара
рыдкыларазы
рыдулан
рыдыркылеит
рыдыркылоит
рыдырулоит
рыдҵала
рыдҵан
рыдәныҟатәи
рыжәла
рыжәлар
рыжәлақәа
рызегьы
рызкуп
рызун
рызцәырҵит
рызҭо
рызҵаарақәа
рыиашьара
рыкәашара
рыл
рыла
рылагьы
рыламкьысра
рыланаҳәеит
рыланаҳәоит
рылаҳәара
рылаҳәареи
рылеиҳәеит
рылоуп
рылшеит
рылшоит
рылҵшәақәа
рымазар
рымазарц
рымам
рыман
рыманы
рымацара
рымаҵ
рымаӡам
рымаӡамызт
рымоуп
рымпыҵахалара
рымцеиқәҵаҩцәа
рымч
рымчра
рымчхара
рымчқәа
рымш
рымҩа
рымҩаԥгара
рымҩаԥгаразы
рымҩаԥгареи
рымҩаԥысшьа
рынагӡара
рынагӡаразы
рынашьҭра
рынхоит
рыпринципқәа
рыпроблемақәа
рыпроцессқәа
рыр
рырацәара
рыргылара
рырратә
рырхәҭақәа
рырҭоит
рырҭон
рырҵаҩцәа
рырӷәӷәаразы
рыстудентцәа
рыфатә
рыхкы
рыхкқәа
рыхсаалаҿ
рыхшыҩ
рыхшыҩрҵаратә
рыхьч
рыхьчара
рыхьчаразы
рыхьчареи
рыхьӡ
рыхьӡала
рыхьӡынҵа
рыхьӡқәа
рыхә
рыхәҭак
рыхԥагьы
рыцнауеит
рыцхраауан
рыцхырааразы
рыцхыраарала
рыцхырааралеи
рыцҳара
рыцҳарақәеи
рыцәкра
рышкол
рышьақәыргылара
рышьақәыргыларазы
рышьаҭа
рышьҭа
рышьҭахь
рышьҭра
рышҟа
рышәҟәы
рықәгара
рықәгылара
рықәгыларақәа
рықәныҟәара
рықәныҟәаразы
рықәым
рықәымныҟәара
рықәыргылара
рықәырҵеит
рықәҵара
рықәԥара
рыҟазаара
рыҟаҵара
рыҟны
рыҟнытә
рыҟәша
рыҩнуҵҟа
рыҩнуҵҟала
рыҩныҵҟа
рыҩныҵҟатәи
рыҩра
рыҩхәҭак
рыҭара
рыҭаразы
рыҭареи
рыҭҵаара
рыҭҵааразы
рыҵаиҩуеит
рыҿиара
рыҿиаразы
рыҿиареи
рыҿиашьа
рыӡбара
рыӡбареи
рыӡбахә
рыԥсадгьыл
рыԥсахра
рыԥсахрақәа
рыԥсы
рыԥсқәа
рыԥсҭазаара
рыԥсҭазаараҿы
рыԥсҭазаареи
рыԥсҭазаашьа
рыԥхьаӡоит
рыԥхьаӡон
рыԥҳа
рю
ряд
рядом
рџьабааԥса
рџьынџьтәылатә
рқәӡааит
рҟны
рҟнытә
рҟынгьы
рҟынтә
рҟынтәи
рҟынҭә
рҟынӡ
рҟынӡа
рҭ
рҭаацәара
рҭаацәарантәи
рҭаацәараҿы
рҭагылазаашьа
рҭоурых
рҭоурыхтә
рҭышәныртәалара
рҭыԥ
рҳәаа
рҳәаақәа
рҳәамҭақәа
рҳәоит
рҳәынҭқарра
рҳәынҭқарратә
рҵакы
рҵакырадгьылқәа
рҵара
рҵарадырреи
рҵаҩы
рҵаҩыс
рҽазыршәоит
рҽазыҟарҵон
рҽеидкыланы
рҿаԥхьа
рҿаԥыц
рҿаԥыцтә
рҿгьы
рҿиамҭа
рҿиамҭақәа
рҿы
рԥа
рԥыза
рԥҳәыс
с
са
саам
сааҭ
саба
сагареџьо
сад
садыков
саи
саид
саида
саит
саита
саксониа
саксонии
салаҟаиа
салвадор
салех
салиҳ
саломе
салоники
сам
сама
саманба
самая
сами
само
самого
самодельную
самодитәи
самое
самои
самоле
самом
самому
самостоятельно
самоучитель
самсон
самтредиа
самые
самыи
самым
самырзаҟан
самых
самҭавро
сан
санакь
сангәлиа
сангәлиаа
сандро
санду
санитартә
санкт
санкции
сантиметр
санто
сантьяго
саппоро
сара
сараево
саратов
саратове
сардинскии
сареи
сарион
саркози
сартр
сасрыҟәа
саудовская
саудовтәи
саудтәи
сафарбеи
сахалин
сахара
сахцәажәара
сахьаркыратә
сахьақәа
сахьаҭыхҩы
сачхере
саҟварелиӡе
саҭанеи
саӡен
сбит
сборник
сборных
сбсе
свадьба
сведения
свежие
свергнут
свержение
свержения
сверка
сверху
свет
света
светлана
светло
свиатополк
свиатослав
свободная
свободно
свободнои
свободную
свободные
свободными
свободных
свободу
свободы
свод
свое
своего
своеи
свои
своим
своими
своих
свою
свяжитесь
связанное
связанные
связанных
связаны
связаться
связи
связь
святого
святои
святых
священнои
сгорел
сгәы
сдался
сделал
сделана
сделано
сделать
се
сеанс
себастиан
себастополис
себе
себя
севастополь
северная
северного
севернои
северном
северныи
северо
севильскии
севилья
сегодня
сезоне
сеи
сеишелтәи
секретаре
сектор
секунд
секунда
секундах
секунде
секции
села
селиа
семеи
семи
семибоярщина
семидесятых
семилетняя
семинариа
семион
семки
семь
семьи
сен
сенат
сенегал
сент
сентиа
сентябре
сентябрь
сентября
сер
серафимович
сербиа
сербиеи
сервиса
сергеи
серго
сердце
середине
сериала
сериалы
серии
серье
сессии
сети
сеул
сеульскии
сже
си
сианьскии
сибири
сидер
сиднеи
сиерра
сила
силами
силу
силы
сильнеи
сильно
симболқәа
символ
символа
символах
символика
символов
символом
символра
символы
симеон
симон
симониан
симонян
сингапур
сингл
синим
синтаксис
синтаксиса
синхронныи
синь
синьтәи
синьчжу
синюю
сириа
сириатәи
сирота
систем
система
систематически
систематического
системақәа
системе
системныи
систему
системы
сити
ситуации
ситуация
сиуань
сих
сицилии
сиӷнаӷь
ск
ска
сказал
сказании
сказано
сказать
сказка
сками
ская
ские
скии
ским
скими
ских
склонность
ско
скобках
ского
ское
скоеимя
скои
ском
скому
скопирован
скорее
скормить
скорости
скоростнои
скотт
скриншот
скую
слабо
слав
славиан
слаи
слева
следите
следить
следовать
следует
следуи
следующее
следующему
следующие
следующии
следующим
следующими
следующих
слишком
слияние
слов
слова
словакиа
словами
словарь
слове
словениа
слово
словом
словосочетания
сложному
служба
службы
служебная
служебнои
служебные
служебных
служит
служить
случае
случаев
случаи
случаях
см
смену
смерти
смертнои
смерть
смертью
смецкои
смирнов
смит
смогут
сможете
смоленск
смоленском
смотрите
смыр
смыраа
смысл
смысла
смысле
смыслом
сначала
снг
снег
снимки
снк
снятие
снятия
снятыи
со
собака
собескии
собирать
соблюдаи
соблюдать
соблюдая
соблюдение
соблюдении
соблюдения
собои
собор
собора
соборе
собором
собрался
собрание
собрания
собраны
собственная
собственно
собственного
собственные
собственныи
собственных
события
совершать
совершения
совершенно
совершил
совершили
совершить
совет
совета
совете
советская
советские
советскии
советским
советских
советско
советского
советскои
советском
советскую
советтә
совету
совместно
совместную
совокупность
совпадает
современная
современного
современнои
современныи
современных
совсем
совхоз
согласен
согласия
согласно
соглашаюсь
соглашение
соглашения
содержание
содержанием
содержании
содержанию
содержания
содержат
содержать
содержащая
содержащие
содержащии
содержащих
содержимого
содержимое
содержимым
содержит
содержится
соедине
сожалению
созвездие
создаваи
создавать
создае
создаи
создал
создали
создан
создана
создание
созданием
создании
созданию
создания
созданная
созданные
созданныи
создано
создать
сокпаппетов
сокр
сокраще
сокрушительное
солдат
солдата
солженицын
солидарность
солнечнои
соломин
соломон
солт
сомали
сомалиленд
сомнения
соображениями
сообщение
сообщении
сообщения
сообществ
сообщества
сообществами
сообществах
сообществе
сообщество
сообществом
сооружение
соответственно
соответствии
соответствовать
соответствует
соответствуют
соответствующая
соответствующего
соответствующеи
соответствующие
соответствующии
соответствующим
соответствующих
соотношение
соправитель
сопровождаться
соревнования
сорта
сортов
сослаться
сост
состав
состава
составе
состоит
состоится
состоявшимся
состоялась
состоялось
состоялся
состоящая
сотен
сотни
сото
соу
софиа
софии
сохране
сохранить
сохраняется
сохраняются
социал
социалисттә
социалтә
социальная
социальных
сочетании
сочи
сочинское
союз
союза
союзники
союзников
спам
спасибо
спасителя
спб
специальная
специально
специального
специальнои
специальные
специальныи
специальных
спинои
спирит
списка
списках
списке
списки
списков
списком
списку
список
спорады
спорных
спорт
спорта
спортивная
спортивные
спортсменцәа
способ
способа
способе
способом
способы
справа
справке
справки
спутник
спутника
спутников
спущен
ср
сравнения
сравнительно
сражение
сражении
сражения
сразу
среди
среднего
средние
средств
средства
средствами
средство
срок
срока
сс
сср
ссср
ссылаи
ссылка
ссылками
ссылках
ссылке
ссылки
ссылкои
ссылку
ссылок
ст
ста
стаб
ставится
ставить
ставшее
ставятся
стадии
стадион
стал
стала
стали
сталин
сталина
стандарт
стандартная
стандартнои
стандартную
стандартные
станислав
станиславскии
становится
становятся
станциак
станции
станция
стараи
стареи
старого
старт
стартовал
старые
старыи
статеи
статиақәа
статистика
статистики
статуи
статус
статусе
статуси
статую
статуя
стать
статье
статьеи
статьи
статью
статья
статьям
статьями
статьях
стаханов
ства
ствах
ствие
ствии
ствия
ство
ствовала
ствует
ствующие
ствующим
ствующих
стекла
стен
стены
степан
степени
стер
стефан
стив
стиле
стиль
стилю
стиля
стихи
стихотворение
стоимость
стоит
стокгольм
стокгольмтәи
столетия
столица
столице
столицу
столицы
столкновение
стоп
стопани
сторон
сторонами
сторонних
сторону
стороны
стоқҳолм
стр
страбон
стражу
стран
странами
странах
стране
страниц
страница
страницах
странице
страницу
страницы
страничкин
страну
страны
стратегии
стратегия
стратфорд
стремится
стремиться
стремление
строгое
строился
строительстве
строительство
строится
строк
строке
строки
строку
строчек
строчекэта
строчка
строчнои
строятся
структура
структурные
стуре
стюардами
стюарт
субвирусных
субиектқәа
суверенитет
суворова
суд
суда
судан
судно
судьбы
суждение
султан
сулҭан
суонси
суток
суть
сух
сухум
сухуми
сухумскии
существенно
существовала
существование
существования
существовать
существует
существуют
существующие
существующих
сущность
суэцкии
сфера
сформулированы
сфср
схем
сходные
счастья
сче
считает
считается
считаться
считаются
сша
сшие
съезд
съезжает
сына
сышьха
сэндаи
сэр
сюда
ся
сҭампыл
сҭеԥан
т
та
табаӷәуа
таблиц
таблица
таблице
таблицу
таблицы
табулица
таи
таииа
таиланд
таиф
так
такая
также
таки
такие
таким
таких
таков
таковые
таковым
такого
такое
такои
таком
таксобокса
таксон
таксона
таксонах
таксонов
таксоны
такую
таллин
там
тамшь
тамшьтәи
танзаниа
тапаӷәуа
тарас
тарашкевица
тарба
тариел
тат
тах
тахрир
ташкент
таџьикисҭан
тб
тбилиси
тв
те
театр
театра
театрального
театре
тег
тега
теге
тегом
тед
тедрос
тезисы
теири
текст
текста
текстам
тексте
текстк
текстов
текстовые
текстовыи
текстом
тексту
тексты
текущие
текущии
текущих
тела
телевидение
телевидении
телега
телеканале
телесериала
тель
тем
тема
темам
тематики
тематику
тематические
тематическом
теме
темои
тему
темур
темы
теннесси
теориа
теории
теория
теперь
теракт
терент
термин
термина
термины
терре
территориалтә
территориальных
территориатә
территориеи
территории
территорию
территория
территориях
тесь
тетраграф
тех
техас
техника
техникатә
техникум
техническая
техническии
техническими
технических
технического
техническои
техническую
технологиақәа
течение
течением
ти
тиберии
тивтә
тили
тильды
тимбукту
тимофеи
тимур
тип
типа
типографики
тире
тит
титан
титаник
титул
титулқәа
тифлис
тихии
тная
тнои
тные
тных
то
тов
тогда
того
тоже
тои
токаев
токии
токио
толкина
толкования
только
том
тома
томас
томеи
томкны
тому
тон
тонга
тонн
тоннель
топик
тополиан
торвальдс
торжественно
торжественное
торнау
торонто
тот
точек
точка
точки
точку
точнее
точно
точнои
тр
трагедия
традициала
традициақәа
традиции
трактат
тралитете
тральная
трально
тральнои
тральности
трам
трамваев
трамваем
трамваи
трамвая
трамп
трансатлантическии
транскрипциеи
транскрипции
транскрипция
транспорт
транспорта
транспортная
транспортных
тре
требование
требовании
требования
требованиям
требовать
требует
требуется
третии
третьего
третьем
третьим
три
трибунал
триграф
триллер
триполи
трои
троллеи
трон
труда
трудно
трудовои
труды
тскии
тся
тт
ту
тула
тунгусского
тунис
тунистәи
тур
турецкии
турецкого
турецкую
турин
турнир
турниры
турок
турциеи
турции
тут
тчик
тчика
тщательно
ты
тыс
тысяч
тысячелетие
тысячи
тэгу
тяга
тяге
ті
тҟибул
тҟәарчал
тҟәарчалтәи
тә
тәи
тәии
тәыл
тәыла
тәылак
тәыланы
тәылацыԥхьаӡа
тәылақәа
тәылақәак
тәылаҿацәк
тәылоуп
тәым
у
уа
уаа
уаажәларра
уаажәларратә
уаанӡа
уаанӡагьы
уаанӡатәи
уаатәи
уааҵәҟьа
уадаҩуп
уажәазы
уажәгьы
уажәраанӡа
уажәраанӡагьы
уажәтәи
уажәшьҭа
уажәы
уажәыргьаҭ
уаи
уалацәажәозар
уан
уантәи
уара
уарча
уасиаҭ
уасил
уасили
уатаԥ
уахь
уахьынтәи
уахәама
уахәамак
уахәамақәа
уахәамоуп
уахәаԥш
уахәаԥшуазар
уахәаԥшыргьы
уақәым
уаҟа
уаҩ
уаҩы
уаҩык
уаҩын
уаҭҳара
уаҳа
уаҳауеит
уаҳәаԥш
уаԥстәыла
уаԥстәылатәи
уб
уба
убар
убарҭ
убарҭоуп
убас
убасгьы
убасҟан
убедитесь
убеждениям
убии
убил
убириа
убит
убито
убрать
убрахь
убри
убриаан
уважаемыи
уважением
уведомление
уведомления
увеличить
уверены
увидел
увидела
уганда
углу
угодно
угол
угортә
угроза
уд
удале
удалена
удаление
удалению
удаления
удалены
удализм
удалить
удалось
удаляет
удалять
ударение
удастся
удачно
удобнее
удобно
удобном
удобному
уж
уже
узбекисҭан
узбеқьисҭан
узел
узком
узнаваемым
узнаи
узнать
уи
уигьы
уильиам
уильям
уинстон
укажите
указ
указали
указан
указана
указание
указании
указания
указанным
указано
указаны
указатель
указать
указом
указывается
указываи
указывать
указываются
указывающее
укп
укр
украин
украина
украинаа
украинатәи
украине
украины
укроп
улиановск
улиановское
улица
улучшению
улучшения
уль
ульд
умар
умер
уместность
умолчанию
уне
унесло
универсального
универсальныи
университет
университета
университети
университетов
унии
унт
уо
уолл
уп
упакованному
упоминания
упомянут
упомянутым
упорно
употребляется
уппсала
управлению
управления
управляемая
урала
урана
урарту
урбан
урду
уровень
уровне
уровнем
уровню
уровня
урт
уругваи
урым
урымтә
урыс
урыстәыла
урыстәылазегь
урыстәылатә
урыстәылатәи
урыстәылеи
урысшәала
урҭ
урҭгьы
ус
усбарҭа
усбарҭақәа
усбарҭақәеи
усеилыргаратә
усзуҩ
усзуҩны
усзуҩцәа
усзуҩцәеи
усзуҩы
усзуҩын
усзуҩыс
уси
услар
условии
условиях
усны
успенскии
успех
успехи
успешно
успешное
успешныи
усср
устав
устава
уставе
установил
установка
установлен
установлена
установлены
устныи
устоявшиеся
устрои
устье
усумҭақәа
усуп
усура
усурак
усурақәа
усуреи
усуцәеи
усқәа
усҟак
усҟан
усҟантәи
утвердил
утвержде
утверждении
утверждения
утилитах
уточнение
уточнением
уточнения
уточнениями
уф
уфа
уфимскии
уфимское
ухань
участвовать
участие
участием
участию
участия
участки
участник
участника
участникам
участниками
участники
участников
участником
участнику
участниц
участок
уче
училишьче
учитывать
учитываться
учитывая
учредил
учредила
учрежде
учреждена
учтите
уше
ушел
уэи
уҭ
уҳәа
уҳәар
уԥылоит
ф
фа
фабрикатор
фазиль
фазлыбеи
фаи
факт
фактически
факто
фактов
фактор
факты
факултет
факультет
фамилии
фамилию
фамилия
фанон
фасо
фатәыс
фахда
фба
фе
февра
февраль
февраля
федералтә
федеративтә
федерациа
федерации
федерация
федор
феи
феисбук
феликс
феномен
феодор
феодосии
фергиусон
феркад
фестиваль
фигура
фиделя
фиджи
физик
физика
физические
фикация
филадельфиа
филадельфии
филипп
филиппа
филиппин
филиппины
филопатор
философ
философуп
фильм
фильма
фильмы
фин
финансла
финансовую
финанстә
финлиандиа
финляндии
финского
финскои
фиодор
фиолетовыи
фирмы
флаг
флага
флажок
флеи
флоренциа
флоренции
флот
флота
флотоводец
флотом
фольклор
фон
фона
фонд
фонда
фондом
фондтә
форк
форм
форма
формалистичное
формалла
формально
формат
формата
формате
форматирование
форме
форму
формула
формуле
формы
форум
форума
форуме
фото
фотографиеи
фотографии
фотографию
фотография
фрагмент
фрагмента
франк
франкаа
франклин
франко
франкское
франкфурт
франсиско
франсуа
франц
франца
франциа
франциатә
франциатәи
франциаҟа
франциеи
франции
франциск
франциско
францию
франция
французами
французов
французская
французские
французскии
французских
французского
французскои
французском
францыз
франческо
фрг
фридон
фридрих
фриц
фронт
фундаментализм
фуникуле
функциақәа
функции
функционирования
функцию
функция
фута
футбол
футболу
футбольная
футбольныи
фымца
фымцазы
фырхаҵа
фырхаҵаратә
фырхаҵарыла
фышә
фюзеляже
фҩык
х
ха
хабаровск
хабаровскии
хабов
хада
хаданы
хадара
хадас
хадацәа
хадақәа
хадақәеи
хадеи
хадоуп
хаз
хазхаҭалатәи
хазы
хазына
хазырҭәаауа
хаи
хак
халифа
хамелеон
ханои
хантәаҩыс
хара
харагаул
харада
характер
харам
харитон
харковтәи
харкьывтә
хархәагак
хархәагақәа
хархәара
харьковскии
хасан
хатингтон
хатә
хатәгәаԥхарала
хацзыркыз
хацыркын
хашба
хашәыр
хақәиҭра
хақәиҭратә
хаҭала
хаҭалатәи
хаҭарнакцәа
хаҳә
хаҳәқәа
хаҵа
хаҵеи
хаҿқәа
хбарроуп
хватает
хватит
хвоста
хдырра
хе
хевсуреҭи
хеи
хеидкыла
хеидкылақәеи
хеил
хеилак
хеилаки
хеит
хельсинки
хельсинктәи
херне
херцеговинеи
хеттская
хеттских
хетты
хи
хибла
хинди
хиросима
хит
хичкока
хкы
хкык
хкықәа
хкқәа
хкқәеи
хо
ходе
хождение
хокерба
хоккеи
холл
холмса
холокост
хора
хорватиа
хорватиеи
хорошая
хорошеи
хороших
хорошо
хосеп
хот
хотел
хотели
хотите
хоть
хотя
хотят
хоуп
хочет
хочется
хочу
хра
храм
храма
хранения
христа
христиан
христианские
христос
хронологическом
хрушкова
хрушьчов
хруще
хсаалақәа
хстаг
хт
хту
ху
хуан
хуана
художественная
художественныи
художественных
художник
художника
хуже
хусеи
хх
хцәажәара
хшыла
хшыҩрҵара
хъ
хы
хыбрақәа
хыгә
хык
хыл
хылаԥшра
хылаԥшрада
хылҵшьҭра
хылҵшьҭрақәа
хымз
хымш
хымԥада
хымԥадатәины
хынтә
хынҩажәа
хынҩажәи
хыркәшан
хырхарҭа
хырхарҭак
хырхарҭас
хырхарҭақәа
хыс
хыхь
хыхьла
хыхьтәи
хышықәса
хықәкы
хықәкыла
хықәкыс
хыҵхырҭас
хыҵхырҭақәа
хыԥсҭа
хыԥхьаӡара
хь
хьалуачаур
хьанҭа
хьтәи
хьтәы
хьчо
хьыбла
хьыршәыгәқәа
хьӡалкаақәеи
хьӡи
хьӡуп
хьӡы
хьӡык
хьӡыс
хьӡқәа
хҩык
хҭысқәа
хҵәахақәа
хә
хәа
хәажәкы
хәажәкыра
хәажәкырамза
хәажәкырамзазы
хәамԥа
хәан
хәарцкиа
хәарҭарас
хәахәала
хәаԥ
хәаԥтәи
хәба
хәмарра
хәмаррақәа
хәсеин
хәы
хәыл
хәыло
хәынтә
хәыр
хәышәтәырҭа
хәыҷы
хәыҷык
хәыҷыки
хәыҷқәа
хәҭ
хәҭа
хәҭак
хәҭакала
хәҭакны
хәҭаҿы
хԥа
ц
ца
цагер
цам
цандрыԥшь
цар
царе
царскии
царств
царства
царство
царь
царя
цастәи
цацыԥхьаӡа
цвет
цвета
цветов
цветом
цвижба
цев
цезар
цезарь
целевои
целеи
цели
целого
целом
цель
целью
целям
целях
цен
ценности
ценои
центр
центра
центре
центрированы
центру
центыр
церкви
церковь
цефеи
цзэдун
ци
цивилизациа
цивилизации
цик
цикла
цитатник
цитаты
цифр
цифры
цк
цуртавели
цхыраара
цы
цыганков
цыгәба
цыра
цқь
цқьа
цә
цәа
цәаҳәа
цәаҳәак
цәгьа
цәгьоуп
цәкәара
цәыббра
цәыббразы
цәыббрамза
цәыббранӡа
цәырҵит
цәырҵрақәа
цәырҵроуп
цәырҵуеит
ч
чабырхәа
чад
чаи
чамагуа
чан
чарли
чарльз
час
часов
частеи
части
частиц
частично
частному
частности
частные
частныи
часто
часть
частью
часы
чачаа
чачба
чачхалиа
чаще
че
чего
чекъю
челиабинск
человек
человека
человеком
человечества
человечеством
челябинскии
чем
чемпиона
чемпионат
чемпионата
чемпионаты
чемпионом
чемпионы
чему
ченнаи
через
черепаха
черногориа
черногориеи
чероки
черту
черчилль
честь
четверти
четыре
четырьмя
чехиа
чехиатәи
чехов
чехова
чехословакии
чехословакия
чечентәыла
чжэн
чикаго
чили
числа
числах
числе
число
читаи
читателеи
читатели
читатель
читателю
читателя
читать
чкадуа
член
членам
членами
членов
члены
чняв
чохатаур
чрезмерно
чръныи
чтение
что
чтоб
чтобы
чтото
чу
чудес
чудо
чуковскии
чунцинскии
чучело
чхеизе
чхетиӡе
чхәароҵҟәы
чхәарҭал
чымазара
чымазареи
чынчор
чэнду
ш
ша
шаблон
шаблона
шаблонами
шаблоне
шаблонные
шаблонов
шаблоном
шаблоны
шаблонқәа
шавров
шаг
шаги
шагиров
шаи
шакәу
шакәугьы
шакәыз
шакәызгьы
шалва
шалуа
шамахамзар
шамба
шамил
шамиль
шамоу
шамоугьы
шанхаи
шар
шара
шариат
шарлеруа
шарль
шарля
шауа
шая
шаҟа
шаҳаҭра
шведская
шведскии
шведы
швеи
швеицариа
швециа
швециатәи
швеции
ше
шевченко
шее
шеи
шекспир
шем
шервашиӡе
шервашиӡераа
шесть
шеффилд
ши
шиакәыз
шие
шии
шире
ширина
ширине
ширинои
ширину
ширины
широкие
широких
широко
ших
шиқәсазы
школ
школа
школе
школқәа
шкә
шкәакәа
шкәакәала
шкәакәеи
шорткатов
шоссе
шотландии
шотландскии
шотландскои
шоу
шоҭа
шри
шрифтом
шрымазгьы
штаб
штат
штата
штатов
штатқәа
штрункеде
штурм
штутгарт
шушаник
шш
шыкәса
шыкәсазы
шықәс
шықәса
шықәсази
шықәсазтәи
шықәсазы
шықәсанза
шықәсанӡа
шықәсатәи
шықәсақәа
шықәсы
шықәсык
шықәсқә
шықәсқәа
шыҟаз
шыҟало
шыҟәсазы
шь
шьаадаҭ
шьаликәа
шьалуа
шьамтәыла
шьамтәылеи
шьашьалаҭ
шьақәгылашьа
шьақәгылоит
шьақәгылоуп
шьақәзыргыло
шьақәзыргылоз
шьақәнаргылеит
шьақәнаргылоит
шьақәнаргылон
шьақәыргылан
шьақәыргылахоит
шьаҟак
шьаҭа
шьаҭанкыла
шьаҭас
шьаҭасны
шьны
шьоукы
шьоҭа
шьрын
шьуахьау
шьх
шьынқәба
шьҭа
шьҭахьҟа
шьҭахҟа
шьҭаҵаны
шьҭоуп
шьҭрала
шьҭыбжьаҟәа
шә
шәаабеит
шәага
шәанеимсо
шәанеимҳәо
шәантәыла
шәаны
шәара
шәарах
шәарҭадара
шәарҭадаратә
шәарҭаны
шәахә
шәахәаԥш
шәача
шәачатәи
шәкы
шәкыла
шәнапы
шәпынҵа
шәш
шәышықәс
шәышықәса
шәышықәсқә
шәыҟәқәа
шәҟәны
шәҟәы
шәҟәыҩҩ
шәҟәыҩҩцәа
шәҟәыҩҩы
шәҟәқәа
шәҩык
шәҩыла
шәҿы
щ
щықәса
щықәсазы
ъ
ы
ыдоу
ыиасуеит
ыр
ырбаандаҩын
ықәдыргылоит
ықәиргылоит
ыҟазар
ыҟам
ыҟамызт
ыҟан
ыҟаӡам
ыҟоу
ыҟоуп
ь
э
эгеи
эдисон
эдит
эдуард
эи
экз
экипажа
экономика
экран
экрана
экране
экраны
эксмо
экспедиции
экспедиция
экспериментов
эксплуатацию
экспресс
эл
элвис
электрификация
электрифицированныи
электрическая
электрическии
электрического
электричка
элемента
элементами
элементов
элементы
эль
эмоции
энцикло
энциклопедии
энциклопедическая
энциклопедическии
энциклопедического
энциклопедическую
энциклопедия
эпоха
эпохи
эпсилон
эрнесто
эры
эсбе
эссе
эссенскии
эстонии
эта
эти
этим
этими
этих
это
этого
этои
этом
этому
этот
эту
ю
юге
югославии
южного
южнои
южном
южныи
юлии
юлия
юнаи
юрии
я
явление
явления
являетесь
является
являются
являющихся
явно
ядерного
ядернои
ядерныи
язык
языка
языках
языке
языки
языков
языкового
языковои
языковом
языковых
языком
ялтинское
ян
январь
января
яндекс
японии
япония
японская
японские
японскии
японских
японского
японскои
японцев
ђ
є
ѕ
і
ј
љ
њ
ћ
џ
џь
џьавахарлал
џьавахишвили
џьавахишьвили
џьавахьишвили
џьалиа
џьапуа
џьапуаа
џьапыуа
џьар
џьара
џьарантә
џьаргьы
џьатә
џьвари
џьгьарда
џьениа
џьибути
џьо
џьон
џьонуа
џьопуа
џьопуаа
џьорџь
џьота
џьоукы
џьулеттеи
џьума
џьыдда
џьырхәа
ѡ
ѣ
ѥ
ѧ
ѩ
ѫ
ѭ
ѯ
ѱ
ѳ
ѵ
ѻ
ѽ
ѿ
ҁ
ҋ
ҍ
ҏ
ґ
ғ
ҕ
җ
ҙ
қ
қалақь
қалақьтә
қалақьқәа
қапба
қардаа
қарел
қарчаа
қарҭ
қарҭвел
қарҭли
қарҭтәи
қарҭҟа
қобулеҭ
қырҭтәыл
қырҭтәыла
қырҭтәылатәи
қырҭтәылаҟа
қырҭтәылаҟны
қырҭтәылеи
қырҭу
қырҭәтыл
қырҭәыла
қыҭа
қь
қьаазым
қьада
қьалышь
қьач
қьелешьбеи
қьырала
қьырса
қџ
қә
қәа
қәгыларақәа
қәеи
қәрала
қәылаҩцәа
қәычбериа
қәыԥш
қәҭарба
қәҭешь
қәҿиарала
қәԥара
ҝ
ҟ
ҟа
ҟазара
ҟазареи
ҟазахсҭан
ҟазахсҭантәи
ҟазбақь
ҟазшьа
ҟазҵаз
ҟазҵо
ҟазҵоз
ҟаиҵеит
ҟаиҵоит
ҟаиҵон
ҟалаанӡа
ҟалап
ҟалеит
ҟалоит
ҟалом
ҟалон
ҟалҵеит
ҟамҵакәа
ҟанаҵеит
ҟанаҵоит
ҟараман
ҟарачы
ҟарҵеит
ҟарҵоит
ҟарҵон
ҟаҵан
ҟаҵоуп
ҟаԥшь
ҟаԥшьи
ҟаԥшьы
ҟаԥшьыла
ҟны
ҟр
ҟрым
ҟь
ҟә
ҟәарел
ҟәланырхәа
ҟәша
ҟәырӷтә
ҟәыӷара
ҡ
ң
ҥ
ҧ
ҧхынгәы
ҧхынҷкәын
ҩ
ҩа
ҩадатәи
ҩажәа
ҩажәи
ҩажәижәаба
ҩардан
ҩаԥхьа
ҩба
ҩбатәи
ҩбеи
ҩны
ҩцә
ҩы
ҩык
ҩынтә
ҩынҩажәа
ҩынҩажәи
ҩыра
ҩыратә
ҩыс
ҩышықәса
ҩышықәсатәи
ҩышә
ҩыџьа
ҫ
ҭ
ҭаацәара
ҭагалан
ҭагалантәи
ҭагылазаашьа
ҭагылазаашьас
ҭагылазаашьеи
ҭакԥхықәра
ҭамаз
ҭамар
ҭанаҵы
ҭаниа
ҭараа
ҭарашь
ҭарба
ҭаркьыл
ҭархәына
ҭарԥҳа
ҭауади
ҭахеит
ҭахрақәа
ҭаџьыкисҭан
ҭбаа
ҭбааз
ҭбаау
ҭбилиси
ҭеа
ҭеикит
ҭел
ҭелау
ҭемур
ҭемыр
ҭенгиз
ҭерџьола
ҭеҭри
ҭианеҭ
ҭихуеит
ҭориа
ҭоу
ҭоуба
ҭоурых
ҭоурыхдырҩцәа
ҭоурыхла
ҭоурыхтә
ҭхьына
ҭыжәба
ҭызҵаауа
ҭызҵаауаз
ҭынха
ҭынч
ҭырқтәыла
ҭырқәтәыла
ҭырқәтәылатәи
ҭырқәтәылеи
ҭыҧ
ҭыԥ
ҭыԥк
ҭыԥуп
ҭыԥқәа
ҭҟәарчал
ҭҵ
ҭҵаара
ҭҵаарадыррақәа
ҭҵааратә
ҭҵаарақәа
ҭә
ү
ұ
ҳ
ҳа
ҳаамҭазтәи
ҳаамҭазы
ҳабацәа
ҳаблақәа
ҳажәлар
ҳазараҭ
ҳазшаз
ҳазҭагылоу
ҳаити
ҳамҭас
ҳамҭақәа
ҳамҭақәеи
ҳаньтәи
ҳара
ҳаразиа
ҳаракны
ҳараку
ҳаракы
ҳаракыз
ҳасаб
ҳасабала
ҳасабла
ҳасан
ҳашаа
ҳашыг
ҳашԥсы
ҳаџьы
ҳаџьымба
ҳаџьынба
ҳаҭыр
ҳе
ҳера
ҳр
ҳтәыла
ҳҭнықалақь
ҳҳәозар
ҳә
ҳәа
ҳәагьы
ҳәамҭақәа
ҳәарада
ҳәеи
ҳәоу
ҳәоуп
ҳәынҭқ
ҳәынҭқарра
ҳәынҭқаррак
ҳәынҭқарракны
ҳәынҭқарран
ҳәынҭқарраны
ҳәынҭқарратә
ҳәынҭқаррақәа
ҳәынҭқаррақәак
ҳәынҭқарроу
ҳәынҭқарроуп
ҳәыс
ҵ
ҵабал
ҵабалтәи
ҵакы
ҵакыла
ҵакырадгьылк
ҵакыс
ҵаленџьыха
ҵалка
ҵандрыԥшьтәи
ҵара
ҵарадырра
ҵарадырреи
ҵараиурҭа
ҵараиурҭақәа
ҵарауаа
ҵарауаҩ
ҵарча
ҵаҟа
ҵаҟатәи
ҵереҭели
ҵиаа
ҵиаауп
ҵулукиани
ҵысра
ҵысраны
ҵысрақәа
ҵҟалтубо
ҵҟаро
ҵә
ҵәыџьба
ҷ
ҷанаа
ҷанба
ҷаниа
ҷиаҭура
ҷиҷико
ҷкадуа
ҷкадуаа
ҷлоу
ҷлоутәи
ҷыда
ҷыдала
ҷыдалатәи
ҷыдарақәа
ҷыдақәа
ҷыф
ҷыҭанаа
ҹ
һ
ҽ
ҽеила
ҽнак
ҽтәи
ҿ
ҿа
ҿиара
ҿиареи
ҿкы
ҿы
ҿык
ҿырҳәала
ҿырԥштәык
ҿырԥштәыс
ҿырԥшыгас
ҿыц
ҿыци
ҿыцла
ҿыцтәи
ҿыцқәа
ҿҳәарас
ӄ
ӆ
ӈ
ӊ
ӌ
ӎ
ӏ
ӕ
ә
ӡ
ӡа
ӡбара
ӡе
ӡи
ӡиас
ӡиӡариа
ӡны
ӡоит
ӡы
ӡыгәҭа
ӡыкәыр
ӡыӡлан
ӡә
ө
ӷ
ӷарибашвили
ӷарибашьвили
ӷь
ӷьычны
ӷә
ӷәада
ӷәымрышь
ӷәӷәа
ӷәӷәала
ӷәӷәан
ӻ
ӽ
ӿ
ԁ
ԃ
ԅ
ԇ
ԉ
ԋ
ԍ
ԏ
ԑ
ԓ
ԕ
ԗ
ԙ
ԛ
ԝ
ԟ
ԡ
ԣ
ԥ
ԥара
ԥарақәа
ԥаса
ԥасатәи
ԥақәашь
ԥақәашьтәи
ԥаҭ
ԥлиа
ԥс
ԥса
ԥсабарала
ԥсадгьыл
ԥсахара
ԥсахын
ԥсихологиатә
ԥсоу
ԥстәы
ԥстәқәа
ԥсы
ԥсырӡха
ԥсыхәа
ԥсыӡ
ԥсҭазаара
ԥсҭазаараҿы
ԥсҳәы
ԥха
ԥхынгәы
ԥхынгәымза
ԥхынҷкәы
ԥхынҷкәын
ԥхынҷкәынмза
ԥхынҷкәынмзазы
ԥхь
ԥхьатәара
ԥшеи
ԥшр
ԥшхәыс
ԥшшәыла
ԥшь
ԥшьба
ԥшьынҩажәа
ԥшьынҩажәи
ԥшьышықәса
ԥшьҩык
ԥшӡа
ԥышәа
ԥышәарақәа
ԥыҭк
ԥыҭраамҭак
ԥыҭрак
ԥыҭҩык
ԥҟарақәа
ԥҳа
ԥҳан
ԥҳәыс
ԥҳәыси
ԥҳәысс
ԥҵ
ԧ
ԩ
ԫ
ԭ
ԯ
՛
է
մի
որ
տ
։
ي
ٔ
ٕ
٭
ं
ः
क
ग
ज
जनक
ट
त
द
न
फ
भट
य
र
ल
स
ह
ा
ि
ी
ु
ृ
े
्
ং
ট
ত
ন
ব
য
র
ল
়
া
ি
ু
্
ப
ர
வ
ா
ு
்
ಂ
ಈ
ದ
ನ
ಲ
ಸ
ಿ
ು
ೆ
್
ೕ
ം
อ
ี
่
้
ა
ამ
არ
აფხაზეთი
აფხაზეთის
აფხაზეთში
აქ
ახალაძე
ახალი
ახალმოსულთა
ახალშენის
ბ
ბანერის
ბაცი
ბესლეთის
ბმულებზე
ბმული
ბრაუზერებისთვის
ბრძანებულება
გ
გაგრის
გაიყოს
გამადიდებელი
გამოაჩინე
გამოსაჩენად
გამსხვილებული
განკუთვნილია
განლაგება
განყოფილებაშია
განხილვის
გარეშე
გვ
გვერდი
გვერდის
გიორგის
დ
და
დაკავშირებული
დამატებითი
დასაყენებლად
დიალოგისთვის
დრანდის
დროშა
ე
ეკლესია
ენციკლოპედია
ეპიგრაფიკა
ეროვნული
ეფექტი
ექსპლორერში
ვ
ვარგა
ვარსკვლავი
ვარსკვლავის
ვუთითებთ
ზ
ზედა
ზემო
ზოგიერთი
თ
თაგუნათი
თავში
თარგები
თარგების
თარგებშია
თბ
თბილისი
თვითიდენტიფიკაციის
თვის
თუმცა
თქვენ
ი
ინგლისურ
ინსტრუმენტების
ინტერნეტ
ინტერფეისი
ირგვლივ
ისტორია
იყენებს
კ
კარგია
კატეგორიების
კატეგორიის
კლასი
კომპლექსი
კრ
კუთხეები
კუთხეში
კულტურის
კულტურული
ლ
ლაპიდარული
მ
მართლმადიდებლობა
მარჯვენა
მას
მასთან
მემკვიდრეობა
მემკვიდრეობის
მენიუ
მენიუში
მიახლოებისას
მინიჭების
მიხედვით
მნიშვნელობის
მომრგვალებული
მომხმარებელი
მომხმარებლის
მოუხდენია
მსხვილად
მხოლოდ
ნ
ნავიგაციის
ნაკვ
ნანგრევები
ნოემბერი
ო
ორ
პ
პადინგი
პარამეტრს
პორტალი
პრეზიდენტის
ჟ
რ
რაც
რედაქტირება
რედაქტირების
როგორც
რომ
რჩეული
ს
საეპისკოპოსო
საისტორიო
საკითხები
სამწუხაროდ
სანავიგაციო
საქართველო
საქართველოს
სთვის
სია
სიის
სიმბოლოები
სოფ
სპეციალური
სს
სტილი
სურათი
სცადეთ
ტ
ტფ
უ
უკვე
უძრავი
ფ
ფანჯარაში
ფანჯრის
ფონისთვის
ქ
ქართლის
ქართული
ქვეთავის
ქვეშ
ღ
ღილაკები
ღილაკისთვის
ღმრთისმშობლის
ყ
ყაუხჩიშვილის
ყველა
ყუასთან
შ
შესახებ
შესული
შეტყობინებები
ში
შუშის
ჩ
ჩამატება
ჩარჩო
ჩარჩოების
ც
ციხე
ციხესიმაგრე
ცნობები
ცხოვრება
ცხრილების
ძ
ძეგლები
ძეგლების
ძეგლისათვის
ძველი
ძიება
ძიების
წ
წარწერები
წასახალისებლად
წაშლილ
წვრილმანები
წითლად
წლის
წმინდა
წყარო
ჭ
ხ
ხაზად
ხაზგასმა
ხაზგასმას
ხაზგასმის
ხაზი
ხართ
ხატულა
ხორავა
ხუთჯვრიანი
ჯ
ჰ
ჱ
ჲ
ჳ
ჴ
ჵ
ჶ
ჷ
ჸ
ჹ
ჺ
჻
ჼ
​
‌
‍
‎
‏
‐
–
—
―
‖
‘
’
‚
“
”
„
†
‡
•
…
‰
′
″
‹
›
‾
‿
⁄
ⁿ
€
ℑ
№
℘
ℜ
™
ℵ
⅓
⅔
⅛
⅜
⅝
⅞
←
↑
→
↓
↔
↗
↵
↷
⇐
⇑
⇒
⇓
⇔
∀
∂
∃
∅
∇
∈
∋
∏
∑
−
∗
√
∝
∞
∠
∧
∨
∩
∪
∫
∴
∼
≅
≈
≡
≤
≥
⊂
⊃
⊆
⊇
⊕
⊗
⊥
⋅
⌈
⌉
⌊
⌋
③
④
⑦
▲
►
▼
◄
◊
☉
☾
♠
♣
♥
♦
✍
⟨
⟩
ⴀ
ⴁ
ⴂ
ⴃ
ⴄ
ⴅ
ⴆ
ⴇ
ⴈ
ⴉ
ⴊ
ⴋ
ⴌ
ⴍ
ⴎ
ⴏ
ⴐ
ⴑ
ⴒ
ⴓ
ⴔ
ⴕ
ⴖ
ⴗ
ⴘ
ⴙ
ⴚ
ⴛ
ⴜ
ⴝ
ⴞ
ⴟ
ⴠ
ⴡ
ⴢ
ⴣ
ⴤ
ⴥ
ⴰ
ⴳ
ⴷ
ⴻ
ⴼ
ⵉ
ⵎ
ⵏ
ⵓ
ⵔ
ⵖ
ⵜ
ⵟ
ⵢ
ⵣ
⺀
⺄
⺆
⺈
⺊
⺌
⺕
⺝
⺸
⺼
⿰
⿱
⿲
⿳
⿴
⿵
⿶
⿷
⿸
⿹
⿺
⿻
。
〈
〉
〢
コ
ユ
㇁
㇂
㇄
㇇
㇈
㇉
㇓
㐁
㐄
㐅
㐌
㐫
㐬
㐭
㐮
㐱
㑒
㒵
㒸
㒼
㓁
㓞
㔾
㕛
㕣
㖾
㘝
㚅
㚇
㚔
㚘
㝉
㝡
㝴
㝵
㞋
㞢
㞷
㠩
㠭
㠯
㡀
㡭
㡿
㢲
㢴
㣇
㣺
㥯
㪅
㫄
㫐
㫒
㫺
㬅
㬎
㬥
㬰
㲋
㳄
㷠
㸒
㸚
㸦
㼌
㼲
㽞
㿟
䀠
䂞
䍃
䏍
䒑
䖍
䖒
䖝
䖵
䙴
䚻
䜌
䝿
䡛
䧹
䪞
一
丁
丂
七
丄
丅
丆
万
丈
三
上
下
丌
不
与
丏
丐
丑
专
且
丕
世
丘
丙
业
东
丞
丢
丣
两
严
並
丨
丩
个
丫
丬
中
丮
丰
丱
串
丵
丶
丷
丸
丹
为
主
丽
丿
乀
乂
乃
久
乆
乇
么
义
之
乌
乍
乎
乏
乐
乑
乔
乖
乗
乘
乙
乚
乛
乜
九
乞
也
习
乡
书
乳
乾
亀
亅
了
亇
予
争
事
二
亍
于
亏
亐
云
互
亓
五
井
亘
亚
亜
亞
亟
亠
亡
亢
交
亥
亦
产
亨
亩
享
京
亭
亮
亯
亰
亲
亳
亶
亷
人
亻
亼
亾
仁
今
介
仌
从
仐
仑
仒
仓
仕
他
付
仝
代
令
以
任
企
伊
伏
伐
休
会
伯
但
位
何
佘
余
作
你
佥
使
來
侈
侌
侖
侯
侵
便
保
俞
信
修
倉
倍
候
倠
備
僉
僕
儿
兀
允
兂
元
兄
充
兆
兇
先
光
兊
克
兌
免
兑
兒
兓
兔
党
兜
兟
入
全
兩
兪
八
公
六
兮
兰
共
关
兵
其
具
典
兹
兼
冀
冂
冃
冄
内
冈
冉
冊
冋
册
再
冎
冏
冐
冒
冓
冖
冗
冘
军
农
冝
冡
冥
冫
冬
冷
几
凡
凢
凵
凶
凷
凸
凹
出
函
凾
刀
刁
刂
刃
刄
刅
分
切
刍
刑
刕
刖
列
刘
则
初
別
利
别
到
制
刺
則
削
剌
前
剡
剽
劉
力
功
加
劦
助
劫
劳
劵
勃
勇
勉
勒
動
務
勞
勤
勹
勺
勻
勾
勿
匀
匂
包
匆
匈
匊
匋
匍
匕
化
北
匚
匝
匡
匪
匱
匸
匹
区
医
匽
匿
區
十
卂
千
卄
卅
卆
升
午
卉
半
卌
华
卑
卒
卓
单
卖
南
卜
卝
卞
占
卡
卢
卣
卤
卦
卩
卪
卬
卯
印
危
即
却
卵
卷
卸
卻
厂
厃
厄
历
厈
厉
厌
厓
厘
厚
原
厤
厥
厨
厭
厲
厶
厷
厸
去
厼
厽
叀
参
參
叅
又
叉
及
友
双
反
叐
发
叒
叔
叕
取
受
叚
叜
叟
口
古
句
另
叩
只
召
可
台
叱
史
右
叵
号
司
叹
吂
各
吅
合
吉
吊
吋
同
名
后
吏
向
吕
君
吝
吞
否
含
启
吳
吴
吹
吾
呂
呆
呈
告
员
呙
周
命
咅
和
咎
咠
咢
咨
咸
咼
哀
品
哉
員
哥
哲
唐
商
啇
問
啚
啬
啻
善
喜
喬
單
喿
嗇
噩
嚴
囊
囗
囘
囙
囚
四
回
囟
因
囧
囬
困
囱
図
囷
固
国
图
圂
圅
國
圍
圓
圖
土
圡
圣
圥
在
圭
地
圶
圼
坐
坒
坚
坴
垂
垔
垚
埀
埋
埶
執
基
堂
堅
堆
堇
堯
塞
墨
壘
士
壬
壯
声
壳
壴
壹
壺
壽
夂
处
夅
夆
备
夊
夋
夌
复
夏
夒
夕
外
夗
夘
多
夜
夢
大
夨
天
太
夫
夬
夭
央
失
夲
头
夷
夸
夹
夻
夾
奂
奄
奇
奈
奉
奎
奏
奐
契
奓
奔
奚
奞
奠
奢
奥
奭
女
奴
奻
好
如
妄
妙
妟
妥
妻
妾
姑
委
姜
威
娄
婁
婴
嬰
嬴
子
孑
孔
孕
孖
字
存
孚
孛
孝
孟
季
孤
学
孫
孱
學
宀
宁
宂
它
宅
宇
守
安
宋
完
宏
宓
宗
官
定
宛
宜
宝
客
宣
室
宮
宰
害
家
容
宾
宿
寄
寅
密
富
寒
察
寧
審
寫
寬
寮
寸
对
寺
寻
寽
対
寿
封
尃
射
将
將
專
尉
尊
尋
尌
對
小
少
尒
尓
尔
尖
尗
尚
尞
尢
尣
尤
尧
尨
尭
就
尸
尹
尺
尻
尼
尽
尾
尿
局
居
屈
屋
屎
屏
屑
展
屖
屚
属
屠
屡
屬
屮
屯
屰
山
屵
屾
岁
岂
岑
岡
岩
岳
岸
峯
島
崇
崑
崔
崖
崙
崩
嵬
嶲
巂
巛
川
州
巟
巠
巢
巤
工
左
巧
巨
巩
巫
差
己
已
巳
巴
巷
巸
巽
巾
巿
帀
市
布
希
帚
帛
帝
带
師
席
帶
常
干
平
年
幵
并
幷
幸
幺
幻
幼
幽
幾
广
広
庄
床
底
店
庚
府
度
庫
庭
庶
康
庸
廉
廌
廛
廣
廩
廴
延
廷
建
廾
廿
开
弁
弃
弄
弇
弋
式
弓
弔
引
弗
弘
弜
弟
弥
弦
弱
張
強
强
彊
彌
彎
彐
彑
当
彔
录
彖
彗
彡
形
彥
彦
彧
彭
彳
役
彼
往
待
律
徒
得
徙
從
復
微
徵
心
忄
必
忌
忍
志
忝
忠
忩
快
念
忽
忿
思
怠
急
怱
恆
恒
恩
恭
息
悉
患
悤
悲
悶
惠
惡
惢
愁
愈
意
愛
感
慈
慧
慮
憂
憲
應
戀
戈
戉
戊
戋
戌
戍
戎
成
我
戒
戔
或
戚
戠
戢
截
戲
戶
户
戹
戼
戾
房
所
扁
扇
手
扌
才
打
托
执
找
承
折
拉
拜
拿
掌
推
提
摩
支
攴
攵
收
攸
改
放
政
敄
敏
敕
敖
敗
教
敝
敞
敢
散
敦
敫
敬
数
敷
數
斂
文
斉
斊
斗
斤
斥
斩
斬
斯
新
方
於
施
斿
旁
旋
族
无
旡
既
旣
日
旦
旧
旨
早
旬
旱
旲
时
旾
昆
昇
昌
昍
明
昏
易
昔
昗
昜
星
春
昬
是
昱
昴
昷
時
晃
晋
晏
普
景
晶
智
暑
暴
曇
曩
曰
曲
曳
更
曷
書
曹
曼
曾
替
最
朁
會
月
有
朋
服
朔
朕
朗
望
朝
木
朩
未
末
本
札
朮
术
朱
朵
朶
朿
杀
杏
杜
束
条
来
東
杲
杳
松
析
林
枚
果
枝
枲
枼
某
柔
查
柬
柰
柴
栗
桀
桑
桼
梁
條
梟
梨
棘
棠
棥
森
楚
業
楽
榮
樂
樊
欠
次
欣
欮
欲
欶
欽
款
歆
歇
歛
止
正
此
步
武
歨
歪
歮
歯
歰
歲
歴
歷
歸
歹
歺
死
殳
段
殷
殸
殹
殺
殻
殿
毋
毌
母
每
毒
比
毕
毚
毛
毳
氏
氐
民
气
氣
水
氵
氶
氷
永
氺
氾
求
汉
汝
汞
江
沃
沓
沙
沝
泉
法
波
泣
泥
泰
洛
洪
活
派
流
浦
浪
浮
淡
淮
清
渚
渠
湯
滿
漢
漸
火
灬
灭
灰
灵
灷
炅
炎
炏
炗
炙
炭
為
烈
烏
烝
焉
無
焦
焱
然
煞
熊
熏
燕
營
燮
爪
爫
爭
爯
爰
爱
爲
爵
父
爻
爽
爾
爿
片
牙
牚
牛
牜
牟
牢
牧
牪
牽
犀
犬
犭
犮
狂
狄
狊
独
狺
猋
猒
猪
献
獻
玄
率
玉
王
玟
玨
珎
班
琴
瑟
瑩
瓜
瓦
甘
甚
生
産
用
甫
甬
田
由
甲
申
电
甶
男
甸
甹
画
甾
畀
界
畏
畐
留
畜
畟
畢
畧
畨
番
畫
異
畱
當
畺
畾
疊
疋
疌
疑
疒
疾
癶
癸
癹
登
發
白
百
皀
皃
的
皆
皇
皋
皐
皕
皮
皷
皿
盃
盆
盇
盈
益
盍
盎
监
盒
盖
盛
盡
監
盤
盧
目
直
相
盾
省
眇
眉
看
眔
眞
真
眷
眼
眾
着
睘
睪
睿
瞏
瞢
瞿
矍
矛
矞
矢
矣
知
矦
短
石
破
碎
磊
磨
示
礻
礼
祟
票
祭
禀
禁
禸
禹
禺
离
禽
禾
禿
秀
秃
秉
秋
科
秝
秦
移
稟
穀
穌
穴
究
穹
空
穿
突
窄
窒
立
竒
竜
竝
竟
章
童
竹
笑
笠
筆
等
答
箕
算
箴
節
篤
篭
米
粉
粛
粟
粤
粦
粲
糞
糸
糹
系
約
納
素
索
紫
累
細
絜
絫
絲
維
綿
縣
繇
纍
纟
统
维
缶
网
罒
罔
罕
罗
罙
罡
罢
罪
署
罷
羅
羊
羌
羍
美
羔
羕
羗
羞
羡
羣
群
義
羲
羸
羽
翁
翏
習
翕
翟
翠
翼
老
耂
考
者
耆
而
耎
耑
耒
耳
耴
耶
耷
聂
聊
聖
聚
聶
聿
肀
肃
肅
肉
肖
肙
肥
肩
肯
育
肴
胃
背
胡
胥
能
脊
脩
膚
臣
臤
臧
自
臬
臭
臯
臱
至
致
臺
臼
臽
臾
臿
舀
舂
舄
與
興
舉
舌
舍
舛
舜
舞
舟
般
艮
良
色
艸
艹
艾
芒
芔
芬
芮
花
芳
芺
芻
苔
苗
苟
若
苦
英
茶
茸
荅
草
荒
荣
荼
莆
莧
莫
莽
菆
菊
菐
華
萬
落
葉
著
葛
董
葵
蒙
蒦
蒼
蓋
蓬
蓺
蔑
蔡
蕉
蕭
薄
薛
薦
薰
藍
藏
藥
蘭
虍
虎
虐
虒
虔
處
虖
虗
虘
虚
虛
虜
虞
虫
虽
蚤
蚩
蜀
蜜
蟲
蠡
血
行
衍
衛
衣
衤
表
衮
衰
袁
袞
褭
褱
襄
襾
西
覀
要
覃
見
規
覓
覧
親
覽
见
角
解
言
訁
訇
計
詹
語
誩
諸
讠
语
读
谷
豆
豈
豊
豐
豕
豖
豙
象
豦
豩
豪
豸
貇
貝
貞
貟
負
貢
貧
貪
貫
責
貳
貴
買
費
賁
資
賈
賏
賓
賔
賛
賞
賢
賣
質
賴
贊
贝
贡
责
贯
贲
贵
赖
赞
赤
赦
走
越
足
路
蹇
身
躬
車
軍
軎
軟
輦
车
辛
辜
辟
辥
辰
辱
農
辵
辶
边
达
过
近
这
连
迷
追
退
送
逆
逐
通
速
造
逢
連
逮
進
遀
遂
過
道
達
遣
適
遷
遺
邊
邑
邕
那
邦
邪
郎
部
郭
都
鄉
酉
酋
配
酓
釆
采
里
重
野
量
金
釒
錢
钅
長
镸
长
門
閃
閉
開
閏
閑
閒
間
閔
閵
閻
闌
门
间
闷
阅
阑
阜
阝
阿
降
陳
隆
隊
隋
障
隡
隨
隱
隶
隹
隺
隻
隼
隽
难
雀
雁
集
雈
雋
雍
雐
雔
雙
雚
雜
雝
離
難
雨
雩
雪
雲
零
雷
需
霍
霜
霝
霞
霸
靈
靑
青
非
靡
面
靣
革
韋
韦
韭
韯
韱
音
頁
頃
項
須
頗
頡
頻
顛
页
風
风
飛
飞
食
飠
養
館
饣
馆
首
香
馬
馮
駦
马
骨
高
髟
鬥
鬯
鬲
鬼
魚
魯
鮮
鱼
鲁
鳥
鳳
鸟
鹵
鹿
麃
麗
麥
麦
麻
黃
黄
黍
黎
黑
黒
黨
黹
黽
黾
鼎
鼓
鼠
鼻
齊
齋
齐
齒
齿
龍
龙
龜
龟
龠
龰
龱
龴
龵
龶
龷
龸
龹
ꙁ
ꙃ
ꙅ
ꙇ
ꙉ
ꙋ
ꙍ
ꙏ
ꙑ
ꙓ
ꙕ
ꙗ
ꙙ
ꙛ
ꙝ
ꙟ
ꙡ
ꙣ
ꙥ
ꙧ
ꙩ
ꙫ
ꙭ
ꙮ
ꚁ
ꚃ
ꚅ
ꚇ
ꚉ
ꚋ
ꚍ
ꚏ
ꚑ
ꚓ
ꚕ
ꚗ
ꚙ
者
艹
️
﻿
？
￼
🌐
👩
📲
🚀
🜨
𠀁
𠀃
𠀆
𠀉
𠀎
𠀐
𠁁
𠁣
𠂆
𠂇
𠂈
𠂉
𠂊
𠂋
𠂎
𠂒
𠂔
𠂛
𠂡
𠂢
𠂤
𠂬
𠂭
𠂹
𠃊
𠃋
𠃌
𠃍
𠃎
𠃑
𠃓
𠃔
𠃜
𠄌
𠄎
𠄠
𠄢
𠆢
𠆥
𠇍
𠈌
𠌵
𠓜
𠔉
𠔥
𠔼
𠔽
𠔿
𠕀
𠕁
𠕋
𠘧
𠘨
𠙻
𠙼
𠚏
𠚒
𠚤
𠚪
𠣏
𠤎
𠤕
𠥓
𠦄
𠦑
𠦝
𠧒
𠧗
𠧪
𠩺
𠪚
𠫓
𠫔
𠫤
𠬛
𠬝
𠬞
𠬢
𠬤
𠬶
𠮛
𠮦
𠮷
𠯑
𠱠
𠳮
𠷎
𡈼
𡉀
𡉵
𡌥
𡍮
𡏳
𡕒
𡕩
𡕰
𡖅
𡗗
𡗜
𡘆
𡘤
𡧱
𡨄
𡩧
𡬠
𡭽
𡰣
𡰥
𡰪
𡰯
𡰱
𡷈
𡸁
𡿨
𡿩
𡿪
𡿺
𢀖
𢀛
𢀩
𢁙
𢆉
𢆰
𢆶
𢇁
𢇇
𢉖
𢌬
𢌿
𢏚
𢑑
𢑚
𢖻
𢙣
𢛳
𢦏
𢦒
𢧵
𢼄
𢾕
𣁋
𣄼
𣅀
𣅽
𣍘
𣎳
𣎵
𣏋
𣏼
𣗥
𣥂
𣥖
𣦵
𣦼
𣧄
𣪊
𣪠
𣬉
𣳾
𣶒
𤇾
𤊽
𤐫
𤓰
𤔔
𤕨
𤣩
𤰇
𤰔
𤰞
𤴓
𤴔
𤽄
𥁑
𥁕
𥃦
𥃩
𥃭
𥇡
𥑟
𥘅
𥘈
𥝢
𥫗
𥱡
𦈢
𦉪
𦉬
𦉼
𦍌
𦍒
𦎧
𦐇
𦓔
𦔮
𦘒
𦙃
𦚏
𦣝
𦣞
𦣻
𦥑
𦥔
𦥯
𦨉
𦭝
𦰩
𧆞
𧈧
𧘇
𧰨
𧴪
𧴮
𧵩
𧾷
𨸏
𨾴
𩙿
𩠐
𩫏
𩵋
𪉷
𪜀
𪟽
𪠲
𪩲
𫇦
𫔭
𫜸
𫝀
𫠣
𫠩
𫢉
𫥞
𫩏
𫩠
𫪡
𫲽
𫶧
𬀷
𬐘
𬗌
𬙙
𬛸
𬜯
𬟩
𬯁
𬴘
𬺻
𬼉
𬼖
𭀰
𭁈
𭁨
𭅰
𭑈
𭕄
𭗼
𭤨
𭥫
𭻾
𮅕
𮊿
𮍌
𮍏
𮓗
𮥼
𮧮
廾
𰀁
𰀄
𰀈
𰀉
𰀕
𰀠
𰀡
𰀢
𰀪
𰁜
𰃮
𰆊
𰆘
𰋙
𰕎
𰢴
𰧭
𰯲
00--
01--
02--
03--
04--
120--
152--
171--
37--
40--
41--
42--
43--
44--
45--
47--
49--
51--
55--
56--
59--
60--
64--
69--
70--
71--
73--
74--
75--
77--
79--
81--
82--
83--
84--
85--
86--
87--
88--
89--
90--
900--
91--
93--
94--
95--
96--
97--
98--
a--
ab--
ac--
ad--
ada--
add--
adv--
af--
ag--
al--
all--
am--
an--
ang--
anti--
any--
ao--
apply--
appo--
aps--
apsny--
ar--
arg--
ari--
as--
ast--
at--
au--
auto--
av--
b--
ba--
bad--
bar--
bass--
be--
bene--
ber--
bi--
bib--
biblio--
big--
bio--
biograp--
black--
blo--
bo--
box--
br--
bro--
bs--
bu--
by--
c--
ca--
calc--
cap--
cat--
category--
cauc--
cc--
ce--
cel--
cele--
celebrat--
ch--
cha--
che--
check--
cin--
cl--
co--
cog--
col--
coll--
colt--
com--
con--
cons--
conv--
copy--
cu--
cul--
cun--
cup--
cy--
cyber--
d--
da--
dab--
data--
date--
de--
dec--
dh--
di--
dia--
disa--
disc--
dj--
do--
double--
down--
dr--
du--
dz--
e--
ea--
eco--
ed--
edit--
ee--
el--
elec--
eli--
em--
emi--
en--
eq--
equa--
equi--
er--
es--
eu--
ex--
exc--
expand--
exper--
expo--
f--
fa--
fac--
fe--
fet--
ff--
fi--
filterby--
find--
fo--
font--
for--
format--
fr--
free--
fu--
ful--
g--
ga--
gab--
ge--
geo--
ges--
get--
gl--
go--
gr--
gre--
green--
gro--
gt--
gtr--
gu--
h--
halo--
has--
he--
hemisphere--
hi--
ho--
horiz--
i--
ibdb--
ice--
id--
iden--
im--
imag--
in--
incre--
int--
inter--
inve--
ip--
is--
isfdb--
it--
ite--
j--
ja--
je--
jo--
jump--
jun--
k--
ka--
key--
kh--
kil--
kle--
ko--
kon--
ku--
l--
la--
lang--
lat--
lb--
le--
left--
leh--
less--
li--
list--
ll--
lo--
lookup--
lt--
ly--
m--
ma--
mainsnak--
make--
map--
mar--
max--
me--
mega--
meh--
mer--
met--
meta--
mi--
micro--
mir--
mo--
mode--
mol--
mor--
ms--
my--
n--
na--
nar--
nav--
nc--
ne--
nega--
neu--
new--
ng--
ni--
nl--
nlef--
no--
not--
nr--
ns--
o--
obe--
od--
ol--
old--
om--
on--
or--
other--
out--
over--
p--
page--
pal--
pan--
par--
pat--
pe--
per--
ph--
phar--
phy--
pi--
pl--
po--
pop--
por--
pr--
prae--
pre--
prece--
pri--
pro--
psych--
px--
pyth--
q--
qu--
r--
rd--
re--
ref--
reg--
render--
rep--
requi--
resolvemethodfor--
right--
ro--
rou--
rtr--
ru--
s--
sa--
satis--
sc--
scale--
sch--
se--
ser--
set--
sh--
sho--
short--
show--
si--
sim--
sky--
sl--
sla--
slavi--
slo--
small--
so--
sort--
sp--
spo--
spr--
sq--
sr--
ss--
st--
stat--
str--
stud--
su--
sub--
succ--
sug--
sugge--
sup--
swa--
t--
ta--
talk--
te--
text--
th--
ti--
tidyval--
tilde--
to--
top--
tr--
tran--
ts--
tu--
tw--
u--
uh--
ul--
ulti--
un--
unix--
uo--
up--
upg--
ur--
us--
use--
user--
v--
var--
vati--
ve--
ver--
vi--
vo--
vor--
w--
wa--
war--
we--
wed--
wg--
wiki--
with--
work--
wp--
x--
xi--
xo--
y--
z--
za--
zel--
ə--
ɾ--
π--
τ--
а--
аа--
ааи--
аан--
ааникы--
ааӡа--
аб--
аббреви--
абга--
абжь--
абжьара--
абжьга--
абла--
абна--
або--
абри--
абсо--
абхаз--
абы--
ав--
ава--
авантю--
авар--
аве--
авели--
авен--
ави--
авра--
австр--
авто--
автоб--
автоматиче--
аг--
агео--
агра--
агу--
агь--
агә--
агәҭы--
ад--
адгьыл--
аде--
адин--
адиплом--
адиу--
адна--
адо--
адол--
аду--
адыг--
адыр--
адә--
ае--
аекс--
аепи--
аер--
аес--
аж--
ажь--
ажьа--
ажәа--
аз--
аза--
азин--
азна--
азо--
азу--
азхарҵ--
азы--
азыҟа--
азԥхьагә--
аи--
аиаҵә--
аиде--
аизыр--
аикә--
аила--
аим--
аима--
аими--
аимшьҭ--
аин--
аингыларҭ--
аинс--
аинстру--
аис--
аихамҩа--
аицы--
аиҩы--
аиҭ--
аиҿ--
аиҿка--
ак--
акам--
акап--
акат--
аква--
акер--
акзаа--
аки--
акино--
акир--
ако--
акол--
аком--
акон--
аконтр--
аконцеп--
акоор--
акорреспон--
акрим--
акры--
акт--
актив--
аку--
акыл--
акыр--
акь--
акә--
акәы--
акәыр--
ал--
ала--
алаверд--
аламҵ--
алар--
алдыр--
але--
алеи--
алеқ--
али--
ална--
алы--
алыр--
аль--
аля--
алҭ--
алҵ--
ам--
ама--
амап--
аме--
аметеороло--
амжәа--
амикро--
амиф--
амо--
ампыҵ--
амунд--
амц--
амш--
амы--
амырҭ--
амҽы--
ан--
ана--
анап--
анашь--
андер--
андыр--
анеи--
анеитр--
ани--
анне--
анонси--
анор--
анта--
антарктиче--
анти--
анха--
анцәа--
аны--
аныр--
аныры--
анҭ--
анҵ--
анҵә--
ао--
аоп--
ап--
апарт--
апат--
апеда--
аплакат--
апо--
аполи--
апорту--
апро--
апроб--
апролет--
апроте--
апсихоло--
апы--
ар--
ара--
араб--
арб--
арге--
аре--
арево--
ари--
арм--
армар--
армян--
арт--
арша--
ары--
арымар--
арҵ--
ас--
аса--
асас--
асат--
асаӡ--
асе--
асеп--
асо--
аспе--
аспеци--
аспи--
аспирант--
ассиз--
ассо--
аст--
астом--
асулҭ--
асцен--
асҭ--
ат--
ата--
ате--
ателе--
атема--
атлантиче--
атран--
ату--
аты--
атә--
ау--
ауада--
аубых--
аугсбург--
аус--
аусзу--
аусҳәарҭ--
ауҭ--
аф--
афа--
афатә--
афе--
афеде--
афилоқ--
афрак--
африка--
ах--
аха--
ахаҿ--
ахкы--
ахро--
ахы--
ахыла--
ахь--
ахҭ--
ахә--
ац--
аца--
ацгә--
ацы--
ацын--
ацә--
ацәа--
ацәи--
ацәы--
ацәыр--
ацәыӡ--
ач--
ача--
аш--
ашым--
ашық--
ашь--
ашьақәыр--
ашьаҟа--
ашьҭ--
ашьҭы--
ашә--
аэро--
ақ--
ақурҭҟь--
ақы--
ақь--
ақә--
ақәы--
ақәыла--
аҟ--
аҟа--
аҟаза--
аҟаҵ--
аҟы--
аҟь--
аҟә--
аҧ--
аҧы--
аҩ--
аҩн--
аҩна--
аҩы--
аҩыч--
аҭ--
аҭа--
аҭау--
аҭауад--
аҭоу--
аҭы--
аҭышәантә--
аҭыԥ--
аҳ--
аҳаир--
аҳә--
аҳәынҭ--
аҵ--
аҵаи--
аҵан--
аҵы--
аҵыхә--
аҵә--
аҷ--
аҽ--
аҽарҭба--
аҽеи--
аҽы--
аҿ--
аҿа--
аҿы--
аӡ--
аӡа--
аӡба--
аӡбарҭ--
аӡы--
аӷ--
аӷап--
аԥ--
аԥс--
аԥсихоло--
аԥсуа--
аԥсшь--
аԥсы--
аԥшы--
аԥшыхә--
аԥшь--
аԥы--
аԥых--
аԥыхх--
б--
ба--
бабуш--
бага--
баз--
бакин--
бал--
бала--
балкан--
бан--
бар--
барба--
барен--
баса--
бата--
баш--
баҩ--
баӷ--
бе--
бежен--
без--
беи--
бел--
бела--
бело--
белфа--
бен--
бер--
берг--
берн--
бес--
бесе--
беспри--
бжь--
би--
биб--
библи--
библиографиче--
биномиаль--
био--
биологиче--
бир--
бисм--
биу--
биш--
бл--
бла--
благоче--
бле--
бли--
бна--
бо--
бог--
бол--
боли--
боль--
бом--
бор--
бос--
боя--
бр--
браз--
бран--
браун--
бре--
британ--
бро--
бру--
бу--
буд--
бур--
буржуаз--
буф--
бы--
быв--
быз--
быр--
в--
ва--
вави--
важ--
вал--
валю--
ван--
вар--
варшав--
вд--
ве--
веи--
вели--
велич--
вен--
венгер--
вер--
верг--
вероис--
версаль--
вес--
веч--
вз--
ви--
вид--
виза--
визуаль--
вики--
вил--
виль--
вин--
виндзор--
вирг--
виртуаль--
вис--
вк--
включ--
вл--
влияющ--
внеш--
вно--
вну--
внутрен--
внутри--
во--
воен--
воз--
возв--
возве--
возмож--
вол--
воль--
вос--
воск--
воспитат--
восс--
воссо--
восста--
вось--
вп--
вра--
вре--
време--
времен--
вруч--
все--
вспомогат--
вступ--
вступитель--
вто--
втор--
вторич--
вуд--
вхо--
вы--
выве--
выд--
выдающ--
выдви--
вызван--
вызы--
вымер--
выра--
выс--
высад--
высказы--
высо--
выя--
г--
га--
гагры--
гал--
ган--
гар--
гасп--
ге--
ген--
гер--
геро--
гжаҭ--
ги--
гиг--
гилб--
гиль--
гин--
гио--
гипер--
гл--
глав--
главно--
глеи--
глуб--
го--
гол--
голланд--
гор--
горь--
гос--
готф--
гр--
гражд--
граждан--
гран--
графиче--
гре--
грен--
гро--
гру--
грузин--
гу--
губ--
гун--
гур--
гь--
гә--
гәаан--
гәы--
гәыл--
гәым--
д--
да--
давете--
дагь--
даз--
дазааҭ--
дазы--
дал--
дамы--
дан--
дани--
даны--
данҭ--
дар--
дас--
дат--
дау--
дах--
даха--
дахцәа--
дахы--
дахь--
даҭ--
даҽа--
даҿа--
движ--
двор--
дворцо--
дгье--
ддо--
де--
декл--
демон--
депу--
дер--
держа--
деструктив--
дет--
деф--
дж--
джа--
джан--
джу--
дз--
дзы--
дзых--
дзықә--
ди--
дин--
дипл--
дипломатиче--
дире--
диреқ--
дис--
дисцип--
диха--
диц--
дли--
дна--
дне--
днев--
дны--
до--
доба--
дока--
долго--
дон--
дополни--
допус--
дост--
достов--
др--
дран--
дранд--
дре--
древ--
древне--
друж--
дры--
дрыд--
дрызҿлым--
дрыла--
дрыцхра--
дтал--
дтә--
ду--
дуб--
дубров--
дха--
дхын--
дцә--
дцәа--
дша--
дшал--
ды--
дыз--
дызла--
дын--
дыр--
дырза--
дырҭ--
дырҵ--
дыш--
дышҭ--
дықә--
дықәԥ--
дю--
дя--
дҟ--
дҭ--
дҳа--
дҵара--
дҿырԥшы--
е--
евге--
евро--
евти--
егьа--
единствен--
ежемесяч--
ежене--
еи--
еиба--
еибашь--
еид--
еидкы--
еидыс--
еиз--
еизыҟа--
еил--
еила--
еилика--
еилырка--
еима--
еимыр--
еин--
еиу--
еихи--
еиц--
еица--
еицу--
еицы--
еиқә--
еиқәд--
еиқәы--
еиҟа--
еиҩыр--
еиҭ--
еиҭа--
еиҵ--
еиҵа--
еиҵар--
еиҿ--
еиҿа--
еиҿка--
еиҿнака--
еиҿы--
еиҿырк--
еиԥыла--
екатеринбург--
екс--
ел--
еле--
ем--
ен--
епар--
епи--
ер--
ере--
ерм--
ес--
ети--
етно--
ефе--
ж--
же--
желе--
железнодорож--
жен--
женев--
жест--
жив--
жиз--
жо--
жу--
жы--
жю--
жә--
жәа--
жәы--
з--
за--
заа--
зав--
заве--
завершив--
зави--
заво--
заго--
загруже--
заимство--
заинтересо--
заключитель--
закры--
залож--
замече--
занзи--
заня--
зап--
запад--
запи--
записы--
запус--
засл--
зато--
зах--
зая--
звез--
зво--
зе--
зем--
зим--
зин--
зк--
зм--
зна--
знамен--
знап--
знач--
зол--
зоу--
зу--
зы--
зыд--
зыз--
зыл--
зым--
зын--
зых--
зықә--
зыҩа--
зҭ--
зҵ--
зҽ--
зҿы--
и--
иа--
иаа--
иаад--
иааи--
иаал--
иаар--
иаары--
иаг--
иагь--
иад--
иадкы--
иадыр--
иажәы--
иаз--
иазгә--
иазха--
иазы--
иаир--
иал--
иала--
иалар--
иалацәа--
иали--
иалка--
иалы--
иалҵ--
иам--
иама--
иамы--
иан--
ианыр--
иапо--
иар--
иаргә--
иатә--
иау--
иах--
иаха--
иахы--
иахь--
иахьа--
иахьы--
иац--
иаци--
иацә--
иацәы--
иаш--
иақә--
иақәиҭ--
иаҩ--
иаҭ--
иаҭә--
иаҳ--
иаҵ--
иаҵан--
иаҿа--
иаӡ--
иаԥ--
иаԥса--
иаԥы--
иаԥҵ--
иб--
иба--
ибжь--
ив--
иг--
игы--
игь--
игә--
игәра--
ид--
идеал--
идикыл--
идин--
идиҵ--
иду--
идыр--
ие--
иеиҭ--
иеиҿ--
иж--
ижә--
из--
иза--
избират--
изви--
изг--
издатель--
изла--
изме--
изна--
изолиро--
изы--
изыд--
изым--
изҭ--
ии--
ииҭ--
ика--
ико--
икьы--
икә--
ил--
ила--
иллю--
илы--
илым--
иль--
им--
има--
имаҷ--
имаӡа--
импер--
имыр--
ин--
ина--
инад--
инап--
инаскьаг--
инв--
инд--
инди--
индо--
инеи--
инеиг--
инже--
иници--
инно--
ино--
иноязыч--
инте--
интер--
инф--
ины--
инықә--
ио--
иониче--
иоу--
ип--
ир--
ира--
ирак--
ирб--
ирба--
ирдыр--
иреи--
иреиуа--
ирзоу--
ирзы--
ириҭ--
ирланд--
ирм--
ируа--
ирха--
ирхылҿ--
иры--
ирыд--
ирыдна--
ирыдыр--
ирыз--
ирызхь--
ирыл--
ирыла--
ирылацәа--
ирым--
ирых--
ирыхҭ--
ирыц--
ирыцҵ--
ирықә--
ирыҭ--
ирыҵ--
ирыӡ--
ирыԥ--
ирҭ--
ирҵ--
ирҽ--
ирҿа--
ирԥыр--
ис--
исклю--
иску--
искусствен--
исламист--
испан--
использо--
испытат--
исследов--
историче--
исчез--
исы--
ит--
итальян--
итра--
итә--
иу--
иузы--
иус--
их--
ихада--
ихса--
ихцәа--
ихы--
ихыла--
ихымԥ--
ихырб--
ихь--
ихьч--
ихьшә--
ихьы--
ихьыс--
ихҩ--
ихә--
ихәыц--
ихәыҷ--
иц--
ица--
ицә--
ицәа--
ицәыр--
ич--
иш--
иша--
ишад--
ишеиҿа--
иши--
ишим--
ишры--
ишы--
ишыр--
ишь--
ишьақә--
ишьақәгыл--
ишьақәдыр--
ишьақәнар--
ишьақәыр--
ишә--
ищ--
иџь--
иқә--
иқәдыр--
иқәдыргыл--
иқәна--
иқәнар--
иқәны--
иқәы--
иқәыр--
иқәҵ--
иқәԥ--
иҟ--
иҟы--
иҟәыӷ--
иҩ--
иҩу--
иҩы--
иҭ--
иҭак--
иҭал--
иҭан--
иҭи--
иҭижь--
иҭиҵ--
иҭы--
иҭырҵ--
иҭышәынтә--
иҭыҵ--
иҭҵ--
иҳ--
иҳә--
иҳәаа--
иҵ--
иҵә--
иҽ--
иҽазишә--
иҽы--
иҿ--
иҿа--
иҿы--
иӡ--
иӷар--
иԥ--
иԥс--
иԥса--
иԥыр--
к--
ка--
кабель--
казах--
каир--
как--
кал--
калам--
кам--
камп--
камчат--
кан--
кана--
канад--
канцеля--
кап--
кар--
кара--
кариб--
карпе--
касающ--
кат--
ката--
католиче--
каш--
кв--
квебе--
ке--
кел--
кер--
ки--
киев--
кил--
киломе--
кин--
кино--
киргиз--
кири--
кирилличе--
кл--
кла--
клеоп--
кли--
клони--
клю--
ключе--
ко--
кол--
коль--
ком--
комм--
комментиров--
коммерче--
комму--
коммунистиче--
кон--
конвер--
конт--
копи--
кор--
кос--
космиче--
кр--
крас--
кре--
крепос--
кро--
крова--
кру--
круп--
крупномас--
кры--
ктито--
ку--
куз--
кыр--
кь--
кьы--
кю--
кә--
кәы--
л--
ла--
лаб--
лабор--
лада--
лакә--
лаш--
ле--
лег--
лексинг--
лео--
лет--
леф--
ли--
либер--
линг--
литера--
литератур--
литов--
лиу--
лиц--
лиценз--
лицензиро--
лич--
лка--
лл--
ло--
лов--
логә--
лож--
лозан--
лот--
лоу--
лу--
лхаҿсахь--
лы--
ль--
льн--
лю--
ляпу--
лҭ--
лҭаа--
м--
ма--
мавзо--
маг--
мага--
магел--
мак--
мал--
мало--
маль--
мам--
ман--
мар--
мас--
массо--
мастер--
математиче--
маши--
машә--
маҷ--
маӡа--
ме--
мед--
медицин--
меж--
между--
мек--
мел--
мен--
мене--
мер--
место--
месяч--
мет--
меч--
ми--
микр--
микро--
мил--
мир--
мис--
мисси--
мит--
мифоло--
млад--
мло--
мног--
много--
множествен--
мо--
мобиль--
модер--
моду--
мол--
молда--
молдав--
моло--
мон--
монго--
монголь--
моно--
мор--
москов--
мось--
мот--
мото--
мощ--
мр--
мраҭ--
му--
муа--
музы--
мы--
мюзи--
мюнхе--
мя--
мҵигноба--
н--
на--
наблю--
наг--
нага--
наз--
назначае--
назы--
наиме--
нала--
наложе--
нам--
нанкин--
нап--
напом--
напхга--
нар--
нарком--
нару--
нас--
наслед--
наследствен--
наставниче--
нат--
натур--
науч--
нахо--
националь--
нацист--
нач--
начерт--
нг--
не--
нев--
невер--
негатив--
недостроен--
неза--
неиз--
неис--
некоммерче--
неоконче--
несвобод--
несколь--
неслож--
несоответ--
неф--
ни--
ниде--
нидерланд--
ниж--
ниже--
нк--
но--
нобелев--
ново--
новост--
нож--
нор--
норвеж--
ноч--
ноя--
ну--
нугамҵ--
нцә--
ны--
ныр--
ныҟә--
нҵә--
о--
об--
обер--
обие--
обо--
обоз--
обрат--
обсуж--
обте--
общ--
обще--
обществен--
объ--
объя--
объяс--
обя--
обязан--
ов--
овл--
огл--
огр--
оде--
одерж--
оди--
одно--
ожида--
оз--
ока--
оккупа--
оккупиров--
окл--
окон--
окончатель--
окр--
окс--
окси--
оксфорд--
ол--
ом--
оп--
опер--
опеч--
описывае--
опо--
оптим--
опуб--
ор--
орбиталь--
ориг--
орк--
орлеан--
ору--
ос--
оса--
осво--
оси--
осново--
осо--
осто--
осущес--
от--
отоб--
отра--
отст--
отсут--
отсы--
офиц--
официаль--
охот--
оче--
очевид--
ош--
ошибоч--
п--
паль--
пан--
пап--
пар--
параллель--
паро--
парт--
пас--
пассажир--
пат--
патрулиро--
пау--
пе--
педа--
пен--
пенсильван--
пент--
пер--
пере--
переве--
переписы--
персид--
петров--
печ--
печат--
пещ--
пи--
пив--
пик--
пил--
пилот--
пионер--
пирос--
писа--
пись--
пл--
пла--
пле--
площад--
по--
пов--
под--
подве--
подвиж--
подво--
поддер--
подзем--
пож--
поз--
пози--
поклон--
пол--
политиче--
полно--
положит--
полу--
полуо--
поль--
пом--
поним--
поп--
попечитель--
популяр--
попыт--
порт--
пос--
послужив--
пото--
похо--
почто--
поя--
пр--
право--
праж--
празд--
праздно--
пре--
превос--
пред--
предлагае--
предложе--
предо--
преду--
предусм--
преды--
презе--
прекр--
прем--
прео--
преоб--
префи--
при--
прио--
прис--
присое--
присут--
про--
проп--
проталки--
професс--
профессион--
прохо--
прощ--
прус--
пря--
психологиче--
пти--
пу--
пус--
пуш--
пы--
пыт--
пь--
пье--
пя--
р--
ра--
раа--
раб--
рав--
рад--
радио--
раз--
разбо--
разгоре--
различ--
разно--
разнооб--
рал--
рала--
ралка--
ралх--
рам--
ран--
ранне--
рап--
рас--
раск--
расп--
расположе--
распро--
расс--
рассм--
рассма--
рассуж--
растор--
расшиф--
рақә--
рга--
ргыл--
ргә--
рдин--
ре--
револиуци--
революцион--
регуляр--
ред--
режис--
рез--
реи--
реиды--
реила--
реиқә--
реиҟа--
рекл--
реклам--
рекомен--
рекомендов--
реконк--
рембр--
рет--
реч--
реши--
ржәы--
рзы--
рзым--
рзыҟа--
ри--
риааи--
рим--
ринт--
рк--
ркон--
рла--
рлахәыл--
рмоу--
рнап--
рны--
рнырҵә--
ро--
роб--
род--
рождествен--
рон--
роу--
рп--
рр--
рре--
рт--
рте--
ру--
руаа--
руб--
рус--
руф--
рх--
рхаҭ--
рхаҿ--
рхы--
рхыбр--
рхыл--
рхьы--
рц--
рцә--
рцәырҵ--
ршь--
ры--
рыб--
рыбж--
рыгә--
рыду--
рыдыркы--
рыз--
рым--
рымы--
рымҵ--
рын--
рынагӡа--
рынцә--
рыр--
рырҭ--
рых--
рыхә--
рыц--
рыцҳа--
рыцә--
рышьақәыр--
рықә--
рықәы--
рыҭ--
рыҵ--
рыҽдыр--
рыҿ--
рыӡ--
рыԥ--
рыԥса--
рыԥша--
рџь--
рҭ--
рҭы--
рҵ--
рҵакыра--
рҽ--
рҿ--
с--
са--
саб--
сал--
сала--
сальва--
само--
самур--
сан--
сап--
сар--
сареп--
сахь--
сақ--
сбор--
све--
свер--
сверх--
сви--
сво--
свя--
связа--
священ--
сгә--
сдела--
се--
сев--
севасто--
север--
северо--
сек--
секре--
сем--
серб--
сере--
си--
сибир--
сиг--
сикстин--
сил--
силез--
силь--
сим--
синоп--
ск--
скан--
сквоз--
ско--
скри--
сл--
сле--
см--
сме--
смер--
смертонос--
смо--
сн--
сно--
сня--
со--
собр--
сов--
совер--
совп--
совреме--
современ--
согл--
соглас--
содруже--
сое--
сож--
сокп--
сол--
солдаҭ--
солн--
солнеч--
сооб--
сорти--
сос--
сотруд--
соф--
сохранив--
социологиче--
соч--
союз--
сп--
спас--
спект--
спец--
специ--
спи--
сра--
срав--
сре--
средне--
сроч--
срп--
сс--
ссы--
ст--
ста--
ставро--
стара--
старо--
сто--
стол--
стр--
страте--
стратегиче--
студ--
студенче--
стю--
су--
суб--
субие--
сувер--
суверен--
сул--
суп--
сус--
суффи--
сущес--
существо--
сцен--
сы--
сыл--
сыр--
сҩы--
т--
та--
тавриче--
тали--
тар--
татар--
тв--
творче--
те--
тевтон--
тегеран--
текущ--
теле--
телевиз--
телефон--
темпер--
тен--
тео--
теп--
тер--
тере--
терр--
территори--
терро--
террорис--
террористиче--
тех--
техниче--
ти--
типич--
типо--
тихо--
то--
тол--
толи--
тр--
тради--
традицион--
трансли--
тре--
требуе--
три--
тридцати--
тро--
трол--
трубе--
ту--
тубер--
тулу--
тун--
тупи--
турис--
туркмен--
ты--
тэ--
тя--
тә--
у--
уа--
уаа--
уас--
уаҵә--
уб--
убыс--
уваж--
увели--
увер--
угә--
уд--
уде--
удо--
удовле--
уе--
уж--
уз--
узнавае--
уи--
ул--
ули--
улуч--
умень--
уменьши--
универсаль--
уо--
уп--
упом--
упра--
упраз--
упразд--
ура--
ураль--
ус--
усмҩаԥгатә--
уснагӡатә--
успен--
успеш--
уста--
устарев--
устр--
усу--
усумҭ--
усҳәарҭ--
утв--
уха--
ухуд--
уч--
уче--
учеб--
ф--
фа--
фактиче--
фар--
фара--
фашист--
фе--
федераль--
фельд--
фер--
фи--
фиг--
фила--
филарм--
филь--
фин--
фиоль--
фиу--
фла--
фле--
флори--
фо--
фолкленд--
фоно--
форт--
фото--
фред--
фрэнси--
фу--
фукуо--
фунда--
фы--
х--
ха--
хал--
хан--
хар--
харь--
хатт--
хаҭ--
хаҿ--
хаҿсахь--
хе--
хетт--
хи--
хил--
хими--
химиче--
хкы--
хо--
хол--
хор--
хоро--
хрис--
хса--
ху--
художествен--
хы--
хыб--
хыркә--
хыҵхы--
хь--
хьч--
хьы--
хьыӡ--
хьыԥшы--
хә--
хәа--
хәы--
ц--
ца--
цан--
цар--
цви--
це--
церем--
церков--
цз--
ци--
цин--
цитиров--
цу--
цхин--
цхыра--
цы--
цә--
цәырҵ--
ч--
чап--
част--
че--
чел--
чер--
черк--
черкес--
черно--
чехо--
чечен--
чеш--
чж--
чин--
чинов--
чис--
чит--
чте--
чу--
чхе--
чы--
чынҭ--
чӏ--
ш--
ша--
шал--
шам--
шан--
шань--
шахма--
шве--
швед--
ше--
ши--
шид--
шл--
шорт--
шот--
шотланд--
шпи--
шра--
шро--
шрыд--
штр--
шу--
шушен--
шы--
шына--
шыры--
шыскә--
шышьақә--
шық--
шь--
шьақә--
шьақәгыл--
шьақәдыр--
шьақәыр--
шьы--
шьынқ--
шьҭ--
шэнь--
шә--
шәарҭ--
шәы--
щ--
щел--
ы--
ыда--
ықә--
ықәнар--
э--
эва--
эвен--
эд--
экологиче--
экономиче--
экс--
экспер--
элект--
электриче--
электро--
эм--
эн--
эр--
эри--
эс--
эск--
эт--
этно--
ю--
юби--
юж--
южно--
юлиан--
юридиче--
юстин--
я--
яв--
явл--
являющ--
ядер--
ян--
япо--
япон--
џ--
џь--
џьа--
џьам--
џьашь--
џье--
џьер--
џьо--
џьу--
џьы--
џьын--
ҕ--
қ--
қап--
қырҭ--
қь--
қье--
қьыр--
қә--
қәгыл--
қәы--
ҟ--
ҟа--
ҟам--
ҟаҵ--
ҟы--
ҧ--
ҩ--
ҩа--
ҩы--
ҩыра--
ҭ--
ҭагы--
ҭар--
ҭаҭар--
ҭу--
ҭыжь--
ҭыр--
ҭыԥ--
ҭҳа--
ҭҵ--
ҭҵаа--
ҭә--
ҳ--
ҳа--
ҳаб--
ҳам--
ҳаш--
ҳәа--
ҵ--
ҵакыра--
ҵаҵ--
ҵы--
ҵә--
ҷҟонди--
ҽ--
ҿ--
ҿа--
ҿагыл--
ҿы--
ҿырԥш--
ӏ--
ә--
ӡ--
ӡа--
ӡба--
ӡи--
ӡы--
ӷ--
ӷь--
ӷә--
ԥ--
ԥар--
ԥс--
ԥса--
ԥсҭазаа--
ԥш--
ԥша--
ԥшь--
ԥшьы--
ԥы--
ԥыр--
ԥҟа--
ազա--
ა--
აღწ--
ბერძ--
ბირ--
გ--
გი--
გუ--
ე--
ეპისკ--
ვ--
თ--
ი--
ისტ--
ლუ--
მი--
მო--
მონა--
მოქ--
რი--
რუ--
ს--
სახ--
ფო--
ქ--
ქვე--
წ--
ხელნა--
--0
--00
--000
--01
--03
--04
--06
--09
--1
--10
--11
--12
--13
--14
--15
--16
--17
--18
--19
--2
--20
--21
--22
--23
--24
--25
--26
--27
--28
--29
--3
--32
--33
--34
--35
--36
--37
--38
--4
--40
--41
--42
--43
--44
--4400
--45
--46
--47
--48
--5
--51
--53
--56
--57
--58
--6
--60
--61
--62
--63
--64
--65
--66
--67
--69
--7
--70
--71
--72
--73
--74
--75
--76
--77
--78
--79
--8
--80
--82
--83
--84
--85
--86
--87
--88
--89
--9
--90
--91
--92
--93
--97
--98
--99
--a
--able
--ad
--ade
--age
--ains
--ais
--al
--ala
--ald
--alis
--als
--ama
--an
--ance
--ans
--ant
--ap
--ar
--argname
--args
--ary
--as
--at
--ate
--ater
--atic
--ating
--ation
--ative
--ay
--b
--ba
--bar
--ble
--box
--bracket
--bug
--burg
--byvalue
--c
--ca
--cal
--ce
--ced
--ch
--cing
--cir
--ck
--class
--cr
--cs
--ct
--cue
--cy
--d
--da
--data
--de
--default
--dm
--dot
--down
--ds
--du
--dy
--e
--ec
--ed
--ee
--ef
--eg
--el
--en
--ence
--ent
--entity
--eous
--eq
--equal
--er
--era
--ers
--es
--et
--eti
--ets
--ey
--ez
--f
--fied
--forge
--fromlua
--ful
--fy
--g
--gas
--ge
--ged
--ger
--ges
--ging
--go
--gram
--h
--he
--header
--her
--hk
--i
--ia
--ial
--ible
--ic
--ica
--ical
--ics
--id
--ie
--ier
--ies
--ig
--ii
--ika
--il
--ility
--im
--image
--impl
--in
--ine
--ing
--ink
--input
--ion
--ions
--ir
--is
--isation
--ise
--ised
--ish
--iso
--ist
--it
--ities
--ity
--iv
--ive
--ively
--ization
--ize
--ized
--izing
--j
--ja
--json
--k
--ka
--ke
--ker
--key
--ks
--l
--la
--lang
--language
--le
--left
--li
--lia
--link
--links
--list
--lla
--lo
--ls
--lus
--ly
--m
--man
--map
--me
--men
--ment
--ming
--mn
--mote
--n
--na
--name
--nc
--nce
--nces
--ncy
--nd
--ne
--nes
--ness
--ng
--ni
--nia
--nie
--nik
--none
--ns
--nsis
--nt
--ntal
--num
--nums
--ny
--o
--ogical
--ok
--om
--on
--only
--or
--os
--ot
--out
--ow
--p
--pa
--page
--pf
--pl
--plus
--q
--r
--ra
--ras
--rd
--rde
--re
--ref
--rf
--rg
--rgi
--ri
--ria
--right
--ris
--rm
--rn
--rox
--rr
--rrow
--rs
--rt
--rte
--rted
--rx
--ry
--s
--se
--sh
--si
--sia
--sim
--sis
--site
--sk
--ski
--slink
--space
--st
--sts
--style
--t
--ta
--table
--tag
--te
--ted
--tee
--teearrow
--ter
--th
--tics
--tie
--tilde
--time
--times
--ting
--tion
--title
--tl
--to
--token
--tor
--ts
--tus
--ty
--tyle
--tyv
--tz
--u
--ua
--ual
--ude
--ue
--um
--up
--ur
--ure
--us
--uted
--v
--va
--value
--vate
--ve
--vo
--w
--wa
--way
--width
--x
--y
--ya
--z
--ze
--ο
--ω
--а
--аа
--аалак
--аара
--ааратә
--аауеит
--аба
--ав
--ава
--ага
--аго
--агоит
--агьы
--ад
--ады
--ае
--аев
--аеи
--ает
--аз
--азар
--азгьы
--азы
--аи
--аиз
--ак
--аков
--акуеит
--ал
--ала
--алеи
--али
--ализм
--ало
--алоит
--алон
--ался
--алтә
--аль
--альныи
--альных
--ам
--ами
--амызт
--амҭа
--ан
--ана
--анагоит
--анка
--ано
--анс
--антә
--аны
--анӡа
--ар
--ара
--арала
--аратә
--ареи
--аров
--арова
--ароуп
--артә
--арц
--аршьоит
--арҭеи
--арҵаз
--арҵеит
--арԥшит
--ас
--аса
--ат
--атов
--ать
--аться
--атә
--атәи
--атәу
--ау
--ауа
--ауан
--аф
--ах
--ахеит
--ахо
--ахоит
--аху
--ахь
--ац
--ациа
--ациатә
--ациеи
--ации
--ацию
--ация
--ач
--ачи
--аша
--ашеи
--ашьа
--аю
--ают
--ающее
--ающеи
--ающии
--ающих
--ая
--ақәа
--ақәеи
--аҟ
--аҟа
--аҩ
--аҩс
--аҩцәа
--аҩык
--аҩын
--аҩыс
--аҭ
--аҵ
--аҵан
--аҵы
--аҽра
--аҿ
--аҿу
--аҿы
--аӡа
--аӡакәа
--аӡам
--аӡара
--аӡеит
--аӡит
--аӡо
--аӡоз
--аӡом
--аӡоу
--аԥ
--аԥшуа
--аԥшуеит
--аԥҳа
--б
--ба
--баа
--бан
--бар
--бгоу
--бе
--беи
--бер
--берг
--бжа
--бла
--бо
--бр
--бра
--бу
[...]
