!
"
#
##a
##aa
##ab
##ac
##ad
##ae
##af
##ag
##ah
##ai
##aj
##ak
##al
##am
##an
##ao
##ap
##aq
##ar
##as
##at
##au
##av
##aw
##ax
##ay
##az
##b
##ba
##bb
##bc
##bd
##be
##bf
##bg
##bh
##bi
##bj
##bk
##bl
##bm
##bn
##bo
##bp
##bq
##br
##bs
##bt
##bu
##bv
##bw
##bx
##by
##bz
##c
##ca
##cb
##cc
##cd
##ce
##cf
##cg
##ch
##ci
##cj
##ck
##cl
##cm
##cn
##co
##cp
##cq
##cr
##cs
##ct
##cu
##cv
##cw
##cx
##cy
##cz
##d
##da
##db
##dc
##dd
##de
##df
##dg
##dh
##di
##dj
##dk
##dl
##dm
##dn
##do
##dp
##dq
##dr
##ds
##dt
##du
##dv
##dw
##dx
##dy
##dz
##e
##ea
##eb
##ec
##ed
##ee
##ef
##eg
##eh
##ei
##ej
##ek
##el
##em
##en
##eo
##ep
##eq
##er
##es
##et
##eu
##ev
##ew
##ex
##ey
##ez
##f
##fa
##fb
##fc
##fd
##fe
##ff
##fg
##fh
##fi
##fj
##fk
##fl
##fm
##fn
##fo
##fp
##fq
##fr
##fs
##ft
##fu
##fv
##fw
##fx
##fy
##fz
##g
##ga
##gb
##gc
##gd
##ge
##gf
##gg
##gh
##gi
##gj
##gk
##gl
##gm
##gn
##go
##gp
##gq
##gr
##gs
##gt
##gu
##gv
##gw
##gx
##gy
##gz
##h
##ha
##hb
##hc
##hd
##he
##hf
##hg
##hh
##hi
##hj
##hk
##hl
##hm
##hn
##ho
##hp
##hq
##hr
##hs
##ht
##hu
##hv
##hw
##hx
##hy
##hz
##i
##ia
##ib
##ic
##id
##ie
##if
##ig
##ih
##ii
##ij
##ik
##il
##im
##in
##io
##ip
##iq
##ir
##is
##it
##iu
##iv
##iw
##ix
##iy
##iz
##j
##ja
##jb
##jc
##jd
##je
##jf
##jg
##jh
##ji
##jj
##jk
##jl
##jm
##jn
##jo
##jp
##jq
##jr
##js
##jt
##ju
##jv
##jw
##jx
##jy
##jz
##k
##ka
##kb
##kc
##kd
##ke
##kf
##kg
##kh
##ki
##kj
##kk
##kl
##km
##kn
##ko
##kp
##kq
##kr
##ks
##kt
##ku
##kv
##kw
##kx
##ky
##kz
##l
##la
##lb
##lc
##ld
##le
##lf
##lg
##lh
##li
##lj
##lk
##ll
##lm
##ln
##lo
##lp
##lq
##lr
##ls
##lt
##lu
##lv
##lw
##lx
##ly
##lz
##m
##ma
##mb
##mc
##md
##me
##mf
##mg
##mh
##mi
##mj
##mk
##ml
##mm
##mn
##mo
##mp
##mq
##mr
##ms
##mt
##mu
##mv
##mw
##mx
##my
##mz
##n
##na
##nb
##nc
##nd
##ne
##nf
##ng
##nh
##ni
##nj
##nk
##nl
##nm
##nn
##no
##np
##nq
##nr
##ns
##nt
##nu
##nv
##nw
##nx
##ny
##nz
##o
##oa
##ob
##oc
##od
##oe
##of
##og
##oh
##oi
##oj
##ok
##ol
##om
##on
##oo
##op
##oq
##or
##os
##ot
##ou
##ov
##ow
##ox
##oy
##oz
##p
##pa
##pb
##pc
##pd
##pe
##pf
##pg
##ph
##pi
##pj
##pk
##pl
##pm
##pn
##po
##pp
##pq
##pr
##ps
##pt
##pu
##pv
##pw
##px
##py
##pz
##q
##qa
##qb
##qc
##qd
##qe
##qf
##qg
##qh
##qi
##qj
##qk
##ql
##qm
##qn
##qo
##qp
##qq
##qr
##qs
##qt
##qu
##qv
##qw
##qx
##qy
##qz
##r
##ra
##rb
##rc
##rd
##re
##rf
##rg
##rh
##ri
##rj
##rk
##rl
##rm
##rn
##ro
##rp
##rq
##rr
##rs
##rt
##ru
##rv
##rw
##rx
##ry
##rz
##s
##sa
##sb
##sc
##sd
##se
##sf
##sg
##sh
##si
##sj
##sk
##sl
##sm
##sn
##so
##sp
##sq
##sr
##ss
##st
##su
##sv
##sw
##sx
##sy
##sz
##t
##ta
##tb
##tc
##td
##te
##tf
##tg
##th
##ti
##tj
##tk
##tl
##tm
##tn
##to
##tp
##tq
##tr
##ts
##tt
##tu
##tv
##tw
##tx
##ty
##tz
##u
##ua
##ub
##uc
##ud
##ue
##uf
##ug
##uh
##ui
##uj
##uk
##ul
##um
##un
##uo
##up
##uq
##ur
##us
##ut
##uu
##uv
##uw
##ux
##uy
##uz
##v
##va
##vb
##vc
##vd
##ve
##vf
##vg
##vh
##vi
##vj
##vk
##vl
##vm
##vn
##vo
##vp
##vq
##vr
##vs
##vt
##vu
##vv
##vw
##vx
##vy
##vz
##w
##wa
##wb
##wc
##wd
##we
##wf
##wg
##wh
##wi
##wj
##wk
##wl
##wm
##wn
##wo
##wp
##wq
##wr
##ws
##wt
##wu
##wv
##ww
##wx
##wy
##wz
##x
##xa
##xb
##xc
##xd
##xe
##xf
##xg
##xh
##xi
##xj
##xk
##xl
##xm
##xn
##xo
##xp
##xq
##xr
##xs
##xt
##xu
##xv
##xw
##xx
##xy
##xz
##y
##ya
##yb
##yc
##yd
##ye
##yf
##yg
##yh
##yi
##yj
##yk
##yl
##ym
##yn
##yo
##yp
##yq
##yr
##ys
##yt
##yu
##yv
##yw
##yx
##yy
##yz
##z
##za
##zb
##zc
##zd
##ze
##zf
##zg
##zh
##zi
##zj
##zk
##zl
##zm
##zn
##zo
##zp
##zq
##zr
##zs
##zt
##zu
##zv
##zw
##zx
##zy
##zz
$
%
&
'
(
)
*
+
,
-
.
/
0
00
000
001
005
01
018
02
021
03
04
05
06
061
062
068
07
075
08
082
09
0a
0b
0c
0d
0e
0f
0g
0h
0i
0j
0k
0l
0m
0n
0o
0p
0q
0r
0s
0t
0u
0v
0w
0x
0y
0z
1
10
100
1000
1001
1002
1003
1004
1005
1006
1007
1008
1009
101
1010
1011
1012
1013
1014
1015
1016
1017
1018
1019
102
1020
1021
1022
1023
1024
1025
1026
1027
1028
1029
103
1030
1031
1032
1033
1034
1035
1036
1037
1038
1039
104
1040
1041
1042
1043
1044
1045
1046
1047
1048
1049
105
1050
1051
1052
1053
1054
1055
1056
1057
1058
1059
106
1060
1061
1062
1063
1064
1065
1066
1067
1068
1069
107
1070
1071
1072
1073
1074
1075
1076
1077
1078
1079
108
1080
1081
1082
1083
1084
1085
1086
1087
1088
1089
109
1090
1091
1092
1093
1094
1095
1096
1097
1098
1099
11
110
1100
1101
1102
1103
1104
1105
1106
1107
1108
1109
111
1110
1111
1112
1113
1114
1115
1116
1117
1118
1119
112
1120
1121
1122
1123
1124
1125
1126
1127
1128
1129
113
1130
1131
1132
1133
1134
1135
1136
1137
1138
1139
114
1140
1141
1142
1143
1144
1145
1146
1147
1148
1149
115
1150
1151
1152
1153
1154
1155
1156
1157
1158
1159
116
1160
1161
1162
1163
1164
1165
1166
1167
1168
1169
117
1170
1171
1172
1173
1174
1175
1176
1177
1178
1179
118
1180
1181
1182
1183
1184
1185
1186
1187
1188
1189
119
1190
1191
1192
1193
1194
1195
1196
1197
1198
1199
12
120
1200
1201
1202
1203
1204
1205
1206
1207
1208
1209
121
1210
1211
1212
1213
1214
1215
1216
1217
1218
1219
122
1220
1221
1222
1223
1224
1225
1226
1227
1228
1229
123
1230
1231
1232
1233
1234
1235
1236
1237
1238
1239
124
1240
1241
1242
1243
1244
1245
1246
1247
1248
1249
125
1250
1251
1252
1253
1254
1255
1256
1257
1258
1259
126
1260
1261
1262
1263
1264
1265
1266
1267
1268
1269
127
1270
1271
1272
1273
1274
1275
1276
1277
1278
1279
128
1280
1281
1282
1283
1284
1285
1286
1287
1288
1289
129
1290
1291
1292
1293
1294
1295
1296
1297
1298
1299
13
130
1300
1301
1302
1303
1304
1305
1306
1307
1308
1309
131
1310
1311
1312
1313
1314
1315
1316
1317
1318
1319
132
1320
1321
1322
1323
1324
1325
1326
1327
1328
1329
133
1330
1331
1332
1333
1334
1335
1336
1337
1338
1339
134
1340
1341
1342
1343
1344
1345
1346
1347
1348
1349
135
1350
1351
1352
1353
1354
1355
1356
1357
1358
1359
136
1360
1361
1362
1363
1364
1365
1366
1367
1368
1369
137
1370
1371
1372
1373
1374
1375
1376
1377
1378
1379
138
1380
1381
1382
1383
1384
1385
1386
1387
1388
1389
139
1390
1391
1392
1393
1394
1395
1396
1397
1398
1399
14
140
1400
1401
1402
1403
1404
1405
1406
1407
1408
1409
141
1410
1411
1412
1413
1414
1415
1416
1417
1418
1419
142
1420
1421
1422
1423
1424
1425
1426
1427
1428
1429
143
1430
1431
1432
1433
1434
1435
1436
1437
1438
1439
144
1440
1441
1442
1443
1444
1445
1446
1447
1448
1449
145
1450
1451
1452
1453
1454
1455
1456
1457
1458
1459
146
1460
1461
1462
1463
1464
1465
1466
1467
1468
1469
147
1470
1471
1472
1473
1474
1475
1476
1477
1478
1479
148
1480
1481
1482
1483
1484
1485
1486
1487
1488
1489
149
1490
1491
1492
1493
1494
1495
1496
1497
1498
1499
15
150
1500
1501
1502
1503
1504
1505
1506
1507
1508
1509
151
1510
1511
1512
1513
1514
1515
1516
1517
1518
1519
152
1520
1521
1522
1523
1524
1525
1526
1527
1528
1529
153
1530
1531
1532
1533
1534
1535
1536
1537
1538
1539
154
1540
1541
1542
1543
1544
1545
1546
1547
1548
1549
155
1550
1551
1552
1553
1554
1555
1556
1557
1558
1559
156
1560
1561
1562
1563
1564
1565
1566
1567
1568
1569
157
1570
1571
1572
1573
1574
1575
1576
1577
1578
1579
158
1580
1581
1582
1583
1584
1585
1586
1587
1588
1589
159
1590
1591
1592
1593
1594
1595
1596
1597
1598
1599
16
160
1600
1601
1602
1603
1604
1605
1606
1607
1608
1609
161
1610
1611
1612
1613
1614
1615
1616
1617
1618
1619
162
1620
1621
1622
1623
1624
1625
1626
1627
1628
1629
163
1630
1631
1632
1633
1634
1635
1636
1637
1638
1639
164
1640
1641
1642
1643
1644
1645
1646
1647
1648
1649
165
1650
1651
1652
1653
1654
1655
1656
1657
1658
1659
166
1660
1661
1662
1663
1664
1665
1666
1667
1668
1669
167
1670
1671
1672
1673
1674
1675
1676
1677
1678
1679
168
1680
1681
1682
1683
1684
1685
1686
1687
1688
1689
169
1690
1691
1692
1693
1694
1695
1696
1697
1698
1699
17
170
1700
1701
1702
1703
1704
1705
1706
1707
1708
1709
171
1710
1711
1712
1713
1714
1715
1716
1717
1718
1719
172
1720
1721
1722
1723
1724
1725
1726
1727
1728
1729
173
1730
1731
1732
1733
1734
1735
1736
1737
1738
1739
174
1740
1741
1742
1743
1744
1745
1746
1747
1748
1749
175
1750
1751
1752
1753
1754
1755
1756
1757
1758
1759
176
1760
1761
1762
1763
1764
1765
1766
1767
1768
1769
177
1770
1771
1772
1773
1774
1775
1776
1777
1778
1779
178
1780
1781
1782
1783
1784
1785
1786
1787
1788
1789
179
1790
1791
1792
1793
1794
1795
1796
1797
1798
1799
18
180
1800
1801
1802
1803
1804
1805
1806
1807
1808
1809
181
1810
1811
1812
1813
1814
1815
1816
1817
1818
1819
182
1820
1821
1822
1823
1824
1825
1826
1827
1828
1829
183
1830
1831
1832
1833
1834
1835
1836
1837
1838
1839
184
1840
1841
1842
1843
1844
1845
1846
1847
1848
1849
185
1850
1851
1852
1853
1854
1855
1856
1857
1858
1859
186
1860
1861
1862
1863
1864
1865
1866
1867
1868
1869
187
1870
1871
1872
1873
1874
1875
1876
1877
1878
1879
188
1880
1881
1882
1883
1884
1885
1886
1887
1888
1889
189
1890
1891
1892
1893
1894
1895
1896
1897
1898
1899
19
190
1900
1901
1902
1903
1904
1905
1906
1907
1908
1909
191
1910
1911
1912
1913
1914
1915
1916
1917
1918
1919
192
1920
1921
1922
1923
1924
1925
1926
1927
1928
1929
193
1930
1931
1932
1933
1934
1935
1936
1937
1938
1939
194
1940
1941
1942
1943
1944
1945
1946
1947
1948
1949
195
1950
1951
1952
1953
1954
1955
1956
1957
1958
1959
196
1960
1961
1962
1963
1964
1965
1966
1967
1968
1969
197
1970
1971
1972
1973
1974
1975
1976
1977
1978
1979
198
1980
1981
1982
1983
1984
1985
1986
1987
1988
1989
199
1990
1991
1992
1993
1994
1995
1996
1997
1998
1999
1a
1b
1c
1d
1e
1f
1g
1h
1i
1j
1k
1l
1m
1n
1o
1p
1q
1r
1s
1t
1u
1v
1w
1x
1y
1z
2
20
200
2000
2001
2002
2003
2004
2005
2006
2007
2008
2009
201
2010
2011
2012
2013
2014
2015
2016
2017
2018
2019
202
2020
2021
2022
2024
2028
203
2030
204
205
206
207
208
209
21
210
211
212
213
214
215
216
217
218
219
22
220
221
222
223
224
225
226
227
228
229
23
230
231
232
233
234
235
236
237
238
239
24
240
241
242
243
244
245
246
247
248
249
25
250
2500
251
252
253
254
254714
255
256
257
258
259
26
260
261
262
263
264
265
266
267
268
269
27
270
271
272
273
274
275
276
277
278
279
28
280
281
282
283
284
285
286
287
288
2889
289
29
290
291
292
293
294
295
296
297
298
299
2a
2b
2c
2d
2e
2f
2g
2h
2i
2j
2k
2l
2m
2n
2o
2p
2q
2r
2s
2t
2u
2v
2w
2x
2y
2z
3
30
300
3000
301
302
303
304
305
306
307
308
309
31
310
311
312
313
314
315
316
317
318
319
32
320
321
322
323
324
325
326
327
328
329
33
330
331
332
333
334
335
336
337
338
339
34
340
341
342
343
344
345
346
347
348
349
35
350
351
352
353
354
355
356
357
358
359
36
360
361
362
363
364
36453
365
366
367
368
369
37
370
371
372
373
374
375
376
377
378
379
38
380
381
382
383
384
385
386
387
388
389
39
390
391
392
393
394
395
396
397
398
399
3a
3b
3c
3d
3e
3f
3g
3h
3i
3j
3k
3l
3m
3n
3o
3p
3q
3r
3s
3t
3u
3v
3w
3x
3y
3z
4
40
400
4000
40000
401
402
403
404
405
406
407
408
409
41
410
411
412
413
414
415
416
417
418
419
42
420
421
422
423
424
425
426
427
428
429
43
430
431
432
433
434
435
436
437
438
439
44
440
441
442
443
4438
444
445
446
447
448
449
45
450
451
452
453
454
455
456
457
458
459
46
460
461
462
463
464
465
466
467
468
469
47
470
4702
471
472
473
474
475
476
477
478
4786
479
48
480
481
482
483
484
485
486
487
488
489
49
490
491
492
493
494
495
496
497
498
499
4a
4b
4c
4d
4e
4f
4g
4h
4i
4j
4k
4l
4m
4n
4o
4p
4q
4r
4s
4t
4u
4v
4w
4x
4y
4z
5
50
500
5000
501
502
503
504
505
506
507
508
509
51
510
511
512
513
514
515
516
517
518
519
52
520
521
522
523
524
5243320
525
526
527
528
529
53
530
531
532
533
534
535
536
537
538
539
54
540
541
542
543
544
545
546
547
548
549
55
550
551
552
553
554
555
556
557
558
559
56
560
561
562
563
564
565
566
567
568
569
57
570
571
572
573
574
575
576
577
578
579
58
580
581
582
583
584
585
586
587
588
589
59
590
591
592
593
594
595
596
597
598
599
5a
5b
5c
5d
5e
5f
5g
5h
5i
5j
5k
5l
5m
5n
5o
5p
5q
5r
5s
5t
5u
5v
5w
5x
5y
5z
6
60
600
6000
601
602
603
604
605
606
607
608
609
61
610
611
612
613
614
615
616
617
618
619
62
620
621
622
623
624
625
626
627
628
629
63
630
631
632
633
634
635
636
637
638
639
64
640
641
642
643
644
645
646
647
648
649
65
650
651
652
653
654
655
656
657
658
659
66
660
661
662
663
664
665
666
667
668
669
67
670
671
672
673
674
675
676
677
678
679
68
680
681
682
683
684
685
686
687
688
689
69
690
691
692
693
694
695
696
697
698
699
6a
6b
6c
6d
6e
6f
6g
6h
6i
6j
6k
6l
6m
6n
6o
6p
6q
6r
6s
6t
6u
6v
6w
6x
6y
6z
7
70
700
7000
701
702
703
704
705
706
707
708
709
71
710
711
712
713
714
715
716
7169
717
718
719
72
720
721
722
723
724
725
726
727
728
729
73
730
731
732
733
734
735
736
737
738
739
74
740
741
742
743
744
745
746
74665
747
748
749
75
750
751
752
753
754
755
756
757
758
759
76
760
761
762
763
764
765
766
767
768
769
77
770
771
772
773
7738
774
775
776
777
778
779
78
780
781
782
783
784
785
786
787
788
789
79
790
791
792
793
794
795
796
797
798
799
7a
7b
7c
7d
7e
7f
7g
7h
7i
7j
7k
7l
7m
7n
7o
7p
7q
7r
7s
7t
7u
7v
7w
7x
7y
7z
8
80
800
801
802
803
804
805
806
807
808
809
81
810
811
812
813
814
815
816
817
818
819
82
820
821
822
823
824
825
826
827
828
829
83
830
831
832
833
834
835
836
837
838
839
84
840
841
842
843
844
845
846
847
848
849
85
850
851
852
85270
853
854
855
856
857
858
859
86
860
861
862
863
864
865
866
867
868
869
87
870
871
872
873
874
875
876
877
878
879
88
880
881
882
883
884
885
886
887
888
889
89
890
891
892
893
894
895
896
897
898
899
8a
8b
8c
8d
8e
8f
8g
8h
8i
8j
8k
8l
8m
8n
8o
8p
8q
8r
8s
8t
8u
8v
8w
8x
8y
8z
9
90
900
901
902
903
904
905
906
907
908
909
91
910
911
912
913
914
915
916
917
918
919
92
920
921
922
923
924
925
926
927
928
929
93
930
931
932
933
934
935
936
937
938
939
94
940
941
942
943
944
945
946
947
948
949
95
950
951
952
953
954
955
956
957
958
959
96
960
961
962
963
964
965
966
967
968
969
9691
97
970
971
972
973
974
975
976
977
978
979
98
980
981
982
983
984
985
986
987
988
989
99
990
991
992
993
994
995
996
997
998
999
99928
9a
9b
9c
9d
9e
9f
9g
9h
9i
9j
9k
9l
9m
9n
9o
9p
9q
9r
9s
9t
9u
9v
9w
9x
9y
9z
:
;
<
=
>
?
@
[
[CLS]
[MASK]
[PAD]
[SEP]
[UNK]
\
]
^
_
a
a0
a1
a2
a3
a4
a5
a6
a7
a8
a9
aa
ab
abaza
abba
abk
abkhazia
about
ac
according
acer
acipenser
ad
adjara
administration
ae
af
africa
african
after
ag
again
ah
ai
aimer
air
aires
aj
ak
al
albert
album
all
allegro
alva
am
amants
america
american
amichba
amour
amoureux
an
analysis
anas
and
andorra
angola
anneksiya
another
anser
ao
ap
appoint
apsn
apsnyteka
apsua
aq
aquila
ar
archive
are
argentina
aristolochia
article
articles
as
asia
aspx
assembly
at
attack
au
augustus
australia
autumn
av
avait
avant
avec
aw
ax
ay
ayiti
az
azərbaycan
b
b0
b1
b2
b3
b4
b5
b6
b7
b8
b9
ba
baccata
bach
back
bad
bahamas
bahn
bal
balcanica
balkanski
banja
bankes
bankzakonov
barcelona
bay
bb
bbc
bc
bd
be
beatles
before
behind
belgie
belgien
belgique
benin
berlin
bf
bg
bh
bhutan
bi
biography
bissau
bj
bk
bl
bleu
blog
blonde
blood
bm
bn
bo
bob
bolivia
book
books
bosna
bosne
bosnia
botswana
bp
bq
br
branden
brandenburg
brasil
brazil
brief
britannica
bs
bt
bu
buenos
buonaparte
burkina
burundi
bv
bw
bwv
bx
by
byman
bz
c
c0
c1
c2
c3
c4
c5
c6
c7
c8
c9
ca
cabo
caesar
calendar
cameroon
cameroun
can
canada
canis
cape
capital
caracas
carduelis
carex
carl
carpenters
caucasian
cb
cc
cd
ce
celia
census
central
century
cf
cg
ch
chairperson
chanson
chant
charles
chasto
che
chernoff
children
childrens
chile
china
chinese
christmas
christopher
chto
ci
ciel
cio
city
ciudad
cj
ck
cl
class
club
cm
cn
co
colchica
cold
colombia
com
comme
comment
commonwealth
communes
comores
competitors
composition
conflict
congo
content
copains
corruption
costa
cote
counties
country
covid
cp
cq
cr
croix
cs
ct
cu
cultural
culture
cumhuriyeti
curitiba
cv
cw
cx
cy
cyrillic
cz
cœur
d
d0
d1
d2
d3
d4
d5
d6
d7
d8
d9
da
daily
dame
daniel
danmark
dans
danse
day
days
db
dc
dd
de
debs
decade
december
del
deloitte
demain
democratic
democratica
democratique
departamentos
departements
der
derek
des
deutsche
deutschland
deux
development
df
dg
dh
di
dieu
dili
diospyros
disney
distance
distancehistory
distancesfrom
distingue
district
districts
dj
dk
dl
dm
dn
do
dobrila
docs
documents
dominica
donald
doors
down
dp
dq
dr
ds
dt
du
dv
dvizhenie
dw
dx
dy
dylan
dz
dzhapua
dzongkha
dʒomhu
e
e0
e1
e2
e3
e4
e5
e6
e7
e8
e9
ea
eaton
eb
ec
eca
economic
ecuatorial
ed
edirne
edith
educational
ee
eesti
ef
eg
eh
ei
ej
ek
el
electric
elle
elvis
em
emergence
en
enc
encyclopedia
english
entends
eo
ep
epos
eq
equatorial
equatoriale
er
ernesto
es
escale
espana
est
estadistica
estados
estimated
eswatini
et
etait
ete
ethnic
etranger
eu
eugene
eurasian
europe
ev
ew
ex
ey
ez
f
f0
f1
f2
f3
f4
f5
f6
f7
f8
f9
fa
facebook
fais
fait
famine
fandom
fanon
farnham
faso
faut
fb
fc
fd
fe
federal
federation
fete
ff
fg
fh
fi
file
fille
finance
finland
fj
fk
fl
flash
fm
fn
fo
football
for
forbes
forums
foundation
fp
fq
fr
fragaria
framework
francaise
francois
frantz
fraxinus
freddie
freestyle
friends
from
fs
ft
fu
fugue
fund
futbol
future
fv
fw
fx
fy
fz
g
g0
g1
g2
g3
g4
g5
g6
g7
g8
g9
ga
gabon
gaius
gambia
game
gars
gb
gc
gd
ge
general
geohive
george
georgia
georgian
gf
gg
gh
ghana
gi
gippert
gj
gk
gl
global
gm
gn
go
gobollo
goldman
gone
good
google
gordon
gosudarstva
gov
government
gp
gq
gr
grand
grandiflora
graphemica
great
green
greenpeace
greenpolitics
greil
grenada
growth
gs
gt
gu
guardian
guatemala
guevara
guide
guine
guinea
guinee
guyana
gv
gw
gx
gy
gz
h
h0
h1
h2
h3
h4
h5
h6
h7
h8
h9
ha
haiti
hard
hb
hc
hd
he
heart
heaven
help
hercegovina
hercegovine
heritagesites
herzegovina
hf
hg
hh
hi
histoire
history
hiver
hj
hk
hl
hm
hn
ho
hollande
homme
honduras
hot
hotel
housing
how
hp
hq
hr
hs
ht
htm
html
http
https
hu
huang
human
huso
hv
hw
hx
hy
hz
i
i0
i1
i2
i3
i4
i5
i6
i7
i8
i9
ia
ian
ib
ic
id
ie
if
ig
ih
ii
iii
ij
ik
il
illinois
im
imagine
imdb
imereti
imperator
in
index
info
information
innuendo
instability
instituto
interlaws
international
internet
io
ip
ipa
iprage
iq
ir
ireland
is
isbn
iso
istat
istoriya
it
italiana
italiano
iu
iv
ivoire
iw
ix
iy
iz
j
j0
j1
j2
j3
j4
j5
j6
j7
j8
j9
ja
jackson
james
jamhuri
jamhuriyar
jamhuuriyadda
jazyky
jazz
jb
jc
jd
je
jean
jeux
jf
jg
jh
ji
jj
jk
jl
jm
jn
jo
joe
johann
john
jolie
jones
joseph
jost
jour
jp
jq
jr
js
jt
ju
jure
jv
jw
jx
jy
jz
k
k0
k1
k2
k3
k4
k5
k6
k7
k8
k9
ka
kak
kat
kavkaz
kb
kc
kd
ke
kenya
kf
kg
kh
ki
kind
king
kingdom
kj
kk
kl
km
kn
ko
komori
kongeriket
kongo
koninkrijk
korrupciya
korruptsii
korruptsioon
kosovo
kp
kq
kr
krugosvet
ks
kt
ku
kuenselonline
kultura
kv
kw
kx
ky
kz
kıbrıs
l
l0
l1
l2
l3
l4
l5
l6
l7
l8
l9
la
land
lang
language
lanka
late
latest
law
lawbook
lb
lc
ld
le
legal
lennon
lenta
leone
les
lesotho
lesser
let
letzebuerg
lf
lg
lh
li
lib
liberal
liberalism
liberia
libor
librusec
liechtenstein
life
like
lingua
linnaeus
lion
list
literatura
literature
livejournal
lj
lk
ll
lm
ln
lo
london
los
love
lp
lq
lr
lrt
ls
lt
lu
lui
luka
lupus
luxembourg
luxemburg
lv
lw
lx
ly
lydnevi
lz
m
m0
m1
m2
m3
m4
m5
m6
m7
m8
m9
ma
madagascar
madagasikara
madame
made
madonna
magic
mahjubah
maia
mail
major
malawi
mali
man
manchester
manutd
map
maplandia
marcus
maria
marie
marino
maroc
martin
master
maurice
mauritanie
mauritius
mb
mc
md
me
means
mearsheimer
medieval
megamind
mercury
merveilleux
mes
metro
mf
mg
mh
mi
michael
michel
mind
minorax
miracle
mj
mjesnim
mk
ml
mm
mn
mo
mocambique
moi
moldova
mon
monsieur
moravcsik
moris
moving
mp
mq
mr
ms
mt
mu
mullins
music
mv
mw
mx
my
myrdal
myth
mz
n
n0
n1
n2
n3
n4
n5
n6
n7
n8
n9
na
nacional
naijiria
naijiriya
najeriya
nam
namibia
nart
nartovski
nartski
narty
national
nations
nb
nc
nd
ne
net
netherlands
new
news
nf
ng
nh
ni
nicolas
niger
nigeria
night
nijar
nj
nk
nl
nm
nn
no
nobel
noire
non
noreg
norge
north
not
nova
now
np
nplg
nq
nr
ns
nt
nu
number
nv
nw
nx
ny
nz
o
o0
o1
o2
o3
o4
o5
o6
o7
o8
o9
oa
ob
obrazovanie
oc
occidental
octavius
october
od
oe
of
office
official
officinalis
og
oglu
oh
oi
oj
ok
ol
olympics
olympiques
om
on
online
oo
op
opera
opinion
oq
or
org
organization
oriental
os
osterreich
ot
other
ou
our
out
ov
ow
owen
ox
oxford
oy
oz
p
p0
p1
p2
p3
p4
p5
p6
p7
p8
p9
pa
padam
pages
pais
para
paris
parishes
parliament
part
party
pas
paul
paulo
pauvre
payqar
pb
pc
pd
pdf
pe
peace
peau
peer
people
perception
persica
persons
peru
petit
pf
pg
ph
php
pi
piaf
piano
piruw
pj
pk
pl
places
plantarum
please
plus
pm
pn
png
po
poblacion
polandball
politica
politics
polska
ponyatie
pop
popis
population
por
portrait
pour
power
pp
pq
pr
prava
pravo
prayer
prelude
president
presley
press
prezidentskaya
principe
printemps
prize
priznaki
pro
produces
profile
progress
project
projections
prostocoin
protivodeystvie
provinces
provincia
provincias
prunus
ps
pt
pu
public
pv
pw
px
py
pz
q
q0
q1
q2
q3
q4
q5
q6
q7
q8
q9
qa
qazaqstan
qb
qc
qd
qe
qf
qg
qh
qi
qj
qk
ql
qm
qn
qo
qp
qq
qr
qs
qt
qu
quand
quarterly
que
queen
qui
qv
qw
qx
qy
qz
qırım
r
r0
r1
r2
r3
r4
r5
r6
r7
r8
r9
ra
races
railway
rayfield
rb
rc
rd
re
red
reds
region
regional
regions
regrette
rehder
relations
repiblik
repubblica
republic
republica
republika
republique
resident
respublika
respublikasi
results
return
review
rezultati
rf
rg
rh
ri
rica
rich
richard
rien
ring
rj
rk
rl
rm
rn
ro
robert
rock
roll
rosenau
routledge
roy
royaume
rp
rq
rr
rs
rt
ru
rue
rule
ruleoflaw
rus
rv
rw
rwanda
rx
ry
rz
s
s0
s1
s2
s3
s4
s5
s6
s7
s8
s9
sa
saarbahn
saint
sais
salmotrutta
same
san
sandu
sans
santiago
sao
sarkozy
satellitecitymaps
sb
sc
sciences
script
sd
se
sebastian
sections
security
senegaal
senegal
seniunija
service
sesel
seth
seychelles
sf
sg
sh
sheer
shot
show
shtml
si
sid
sierra
simon
siprage
site
sj
sk
sl
slavic
slovenija
slovenska
sm
sn
so
social
soft
solanum
soleil
solo
solomin
sonchus
soomaaliland
soomaaliya
sources
south
southern
sozdana
sp
space
special
sputnik
sq
sr
srbija
sri
srpska
ss
st
standard
stanovnistva
state
states
statistical
statistics
statistiku
statoids
status
steven
story
studies
studme
study
su
success
sudan
suis
suisse
summer
sur
surprizi
survey
sv
svaneti
svizra
svizzera
sw
sx
sy
sz
szayna
sztemon
t
t0
t1
t2
t3
t4
t5
t6
t7
t8
t9
ta
takoe
tant
tanzania
taxus
tb
tc
tchad
td
te
tehran
temps
teoriya
tes
tf
tg
tgk
th
than
that
the
theory
these
this
thomas
threat
through
ti
tili
time
times
title
tj
tk
tl
tm
tn
to
togo
toi
tojiki
tome
topic
toujours
tour
tous
tout
tp
tq
tr
tramway
transparency
transport
triste
trois
true
ts
tt
tu
turk
turkiye
turkmenistan
tv
tw
tx
ty
tz
u
u0
u1
u2
u3
u4
u5
u6
u7
u8
u9
ua
ub
uburundi
uc
ud
ue
uf
ug
uganda
uh
ui
uj
uk
ukraine
ukrop
ul
um
un
une
unicef
unicode
union
united
university
unspecified
uo
up
uploads
uq
ur
us
usa
useful
ut
utc
uu
uv
uw
ux
uy
uz
uzel
v
v0
v1
v2
v3
v4
v5
v6
v7
v8
v9
va
valse
van
vb
vc
vd
ve
venezuela
verbs
verde
veriut
version
vf
vg
vh
vi
vidyi
vie
viet
vieux
view
vii
viii
virgin
vj
vk
vl
vm
vn
vo
voices
vol
volume
voprosy
vous
voyage
vp
vq
vr
vs
vt
vu
vv
vw
vx
vy
vyi
vz
w
w0
w1
w2
w3
w4
w5
w6
w7
w8
w9
wa
wall
want
war
wb
wc
wd
we
web
website
welle
west
wf
wg
wh
what
who
wi
wiki
wikipedia
wikizero
will
william
winter
with
wj
wk
wl
wm
wn
wo
wolfgang
works
world
wp
wq
wr
wrong
ws
wt
wu
wv
ww
www
wx
wy
wz
x
x0
x1
x2
x3
x4
x5
x6
x7
x8
x9
xa
xb
xc
xd
xe
xf
xg
xh
xi
xianfan
xii
xiii
xiv
xix
xj
xk
xl
xm
xn
xo
xp
xq
xr
xs
xt
xu
xv
xvi
xvii
xviii
xw
xx
xxi
xxiii
xy
xz
y
y0
y1
y2
y3
y4
y5
y6
y7
y8
y9
ya
yarımadası
yb
yc
yd
ye
year
years
yeux
yf
yg
yh
yi
yj
yk
yl
ym
yn
yo
you
youtube
yp
yq
yr
ys
yt
yu
yudzhin
yv
yw
yx
yy
yz
z
z0
z1
z2
z3
z4
z5
z6
z7
z8
z9
za
zadavaemye
zambia
zb
zbekiston
zc
zd
ze
zelenie
zelenoe
zf
zg
zh
zi
zimbabwe
zj
zk
zl
zm
zn
zo
zp
zq
zr
zs
zt
zu
zv
zw
zx
zy
zz
|
}
~
§
«
°
²
³
»
×
ß
æ
ð
ø
ı
ł
łobez
ŋ
œ
ſ
ɐ
ɑ
ɒ
ɔ
ə
ɛ
ɡ
ɣ
ɥ
ɪ
ɫ
ɲ
ɵ
ɾ
ɾije
ɾɒ
ʁ
ʃ
ʒ
ʔ
ʔi
ʕ
ʧ
ʰ
ʷ
ʼ
ʿ
ˁ
ˈ
ˌ
ː
ːˈ
ːˌ
α
β
βιος
γ
δ
δημοκρατια
διογενης
ε
ζ
η
θ
ι
ιησους
κ
λ
λογος
μ
ν
ξ
ο
π
ρ
ς
σ
τ
υ
φ
χ
χριστος
ψ
ω
а
аа
ааа
ааба
аабатәи
аабҭра
аагара
аагаразы
ааглых
ааглыхра
ааглыхратә
ааглыхреи
аагоу
аагоуп
аадыртит
аадырԥшит
аазгаз
аазырԥшыз
ааигәа
ааигәаны
ааигәара
ааигәатәи
ааизакны
ааира
ааирԥшит
аалы
аалыҵ
аалыҵқәа
аалӡга
аамсҭа
аамсҭаду
аамсҭакьаҿ
аамсҭара
аамсҭеи
аамҭа
аамҭаз
аамҭазгьы
аамҭазтәи
аамҭазы
аамҭак
аамҭаказы
аамҭакала
аамҭакәа
аамҭала
аамҭалатәи
аамҭан
аамҭас
аамҭахәҭазы
аамҭақәа
аамҭақәак
аамҭеи
аан
аанагоит
аанакылеит
аанарԥшит
аанарԥшуеит
аангыларҭа
аангыларҭак
аангьы
аанда
аанижьит
аанижьуеит
ааникылеит
ааникылон
аанкылан
аанкылара
аанкыларазы
ааннакылоит
аанрыжьит
аанхеит
ааныжьны
ааныжьра
аанызкыло
аанымхеит
ааныркылеит
ааныркылоит
аанӡа
аар
аара
аартра
аарыхра
аарҩара
аарҳәра
аарԥшра
аарԥшразы
аарԥшуп
аарԥшын
аасҭа
аау
аауа
ааха
аахыз
аахыс
аахыҵ
аахәара
аахәарақәа
аацы
аашәи
аашәы
ааҟ
ааӡара
ааӡареи
ааԥхьара
ааԥын
ааԥынеи
ааԥынра
ааԥынреи
ааԥынтәи
аб
аба
абаа
абаагәара
абаажә
абааи
абаахьчаҩцәа
абааш
абаашқәа
абааҭа
абаз
абаза
абазақәа
абазг
абазгаа
абазилика
абакалавр
абакалавриаттә
абаклажан
абактериақәа
абаланс
абалкарцәеи
абалҟар
абалҟарцәа
абанк
абанктә
абанкқәа
абанкқәеи
абар
абарабан
абарҭ
абарҭқәа
абас
абасала
абасович
абастион
абаталион
абахҭа
абахҭаҟны
абашкир
абашьа
абаҟа
абаҟақәа
абаҟәқәа
абаҟәқәеи
абаҩхатәра
абаҳча
абаӷәаза
абба
абгархықә
абдалла
абдель
абдул
абдулович
абеиара
абеит
абел
абелорус
абенг
абер
абербер
аберҭыԥ
аберҭыԥқәеи
абешла
абжа
абжьагаҩ
абжьагаҩс
абжьаратә
абжьаратәи
абжьарашәышықәсазтәи
абжьарашәышықәсақәа
абжьас
абжьасцәа
абжьаҟазаратә
абжьаҟазаҩцәа
абжьаҟәа
абжьгарақәа
абжьгаҩцәеи
абжьгаҩыс
абжьуа
абжьуаа
абжьы
абжьыуаа
абжьыҟатә
абжьыҭира
абжьыҭираан
абжьыҭирақәа
абжьыҭирақәарҿ
абжьыҭираҿ
абжьыҭырақәа
абжьқәа
абжқәа
абз
абзазаратә
абзеилакьыцә
абзиа
абзиабара
абзиабареи
абзиеи
абзоурала
аби
абиги
абидин
абизнес
абизнеси
абиографиа
абиологиа
абиологиатә
абиосфера
абираҟ
абираҟдырга
абираҟқәа
абисси
абиуџьет
абиуџьети
абиԥара
абиԥарақәа
абкасиа
абкациа
аблақәа
аблок
абна
абнатә
абнии
аболгар
абольшевиктә
абольшевикцәа
абольшевикцәеи
абосн
абосниеццәеи
абота
аботаника
аботаникатә
абра
абрааҵәҟьа
абрака
абранӡа
абраҟа
абраҟагьы
абраҟатәи
абраҵәҟьа
абредж
абреџь
абри
абригадатә
абу
абуддизм
абукмол
абуржуазиатә
абхазии
абхазия
абхазо
абхазов
абхазоведение
абхазоу
абхазская
абхазские
абхазскии
абхазских
абхазского
абхазскои
абыг
абыжьбатәи
абыжьқәа
абызшәа
абызшәатә
абызшәақәа
абызшәақәеи
абызшәеи
абызшәи
абылтәи
абыргцәа
абырз
абырзен
абырзентә
абырзенцәа
абырлаштә
абыҟә
абџьар
абџьарлеибыҭаразы
абҵара
абҵарамза
абҵарамзазы
абӷа
абӷархықә
абӷаџьма
абӷьы
абӷьыцқәа
аваинах
аваинахцәа
авалиутатә
авар
авара
авариантқәа
август
августа
авенгр
авенгрцәа
аверс
аветеранцәа
авидзба
авиет
авикипедиа
авирус
авице
авол
австралиа
австралиатәи
австралиеи
австралии
австриа
австриатәи
австро
автобуси
автобустә
автомобилтә
автономиа
автономныи
автономтә
автономтәи
автор
авторитартә
авторс
авторцәа
авулкан
агазет
агазеҭ
агаит
агалуан
аган
аганахь
аганахьала
аганаҿы
аганқәа
агара
агаразы
агарантиақәа
агарнизон
агаҟны
агаҿа
агаҿы
агежь
агежьбжататә
агеит
агендертә
агенерал
агенералтә
агентра
агер
агерб
агерби
агерман
агерцог
агерцогра
агила
агимн
аглобализациеи
аглобалтә
агломерацию
агород
агоспиталь
агоспитальтә
аграждантә
аграртә
агрба
агрессиа
агрессиатә
агуберниа
агулан
агумаа
агуманисттә
агуманитартә
агхақәа
агындиа
агырны
агыруа
агьама
агьежь
агьырҭ
агәаанагара
агәаанагарақәа
агәаартра
агәабзиара
агәабзиаразы
агәабзиарахьчара
агәабзиарахьчаратә
агәабзиарахьчареи
агәазыҳәара
агәалашәарақәа
агәара
агәараҿы
агәаҟрақәа
агәмаа
агәра
агәрагара
агәрамгара
агәреибагара
агәулан
агәы
агәыл
агәынамӡара
агәырҵҟәыл
агәыхь
агәыцә
агәыҳалалратә
агәыӡера
агәыӷра
агәыӷрақәа
агәыԥ
агәыԥқәа
агәҭа
агәҭабжьаратәи
агәҭантәи
агәҭаны
агәҭатәи
агәҭахьшәа
агәҭыха
ад
ада
адагьы
адам
адамра
адамрақәа
адана
адаргьын
адат
адау
адауцәа
адача
адашьма
адаҟьа
адаӷьсҭан
адг
адгалара
адгур
адгылара
адгыларазы
адгылаҩцәа
адгьыл
адгьылбжьаха
адгьылбжьахабжа
адгьылбжьахабжаҟны
адгьылбжьахабжаҿы
адгьылбжьахак
адгьылбжьахала
адгьылбжьахатә
адгьылбжьахатәи
адгьылбжьахақәа
адгьылбжьахаҿы
адгьылеи
адгьыли
адгьылтә
адгьылқәа
адгьылқәаарыхреи
адгьылқәеи
адгьылҵакыра
адгәыр
адевиз
адекор
аделегатцәа
аделегациа
аделегациақәа
адемографиатә
адемографиеи
адемократиа
адемократиатә
адемократиатәи
адемократцәа
адемонстрантцәа
адемонстрациа
адемонстрациақәа
адемонстрациақәеи
адепартамент
адепартаментқәа
адепо
адепутат
адепутатс
адепутатцәа
аджба
аджинджал
адзынба
адиалект
адиалекттә
адиалектқәа
адиаметр
адиаспора
адиаспорақәа
адизаин
адикәан
адини
адинтә
адинхаҵара
адинхаҵаратә
адинхаҵарақәа
адинхаҵареи
адипломат
адипломатиа
адипломатиатә
адиректор
адиректорс
адирижиореи
адискриминациа
адиссертациа
адиулеит
адиулон
адкылара
адкыларазы
адлеи
адлеиба
адлер
административно
административныи
административтә
администрациа
аднакылеит
адоктор
адоктортә
адокумент
адокументқәа
адоллар
адолф
адольменқәа
адольф
адонорцәа
адоуҳаи
адоуҳаныҟәгаҩ
адоуҳатә
адоцент
адоцентс
адраматург
адраматә
адриатик
аду
адукат
адулара
адулиадет
адума
адунеи
адунеиаҿ
адунеижәларбжьа
адунеижәларбжьаратә
адунеизегьтәи
адунеизегьы
адунеии
адунеитә
адунеихәаԥшышьа
адуу
адханом
адыг
адыга
адыгаа
адыгеиатәи
адыгских
адыгьан
адырг
адырга
адыргақәа
адырра
адыррақәа
адыррақәеи
адырҩаҽны
адыԥшылахәра
адҩыла
адҩылақәа
адҩылақәеи
адҩылаҿы
адҳәалазаара
адҳәалоуп
адҵа
адҵала
адҵара
адәахьала
адәахьалагьы
адәахьалеи
адәнытәи
адәныҟатәи
адәы
адәыӷбақәа
аеволиуциатә
аедыг
аедыгаа
аедыгь
аекологиа
аекологиатә
аекологиеи
аекономика
аекономикатә
аекономикатәи
аекономикеи
аекономист
аекономистцәа
аекспедициа
аексперттә
аекспертцәа
аекуменизм
аелемент
аелементқәа
аелын
аемират
аемиратқәа
аемпирикатә
аенциклопедиа
аепархиа
аепархиеи
аепископ
аепископцәа
аепос
аепоха
аерм
аерман
аерманцәа
аесперант
аетап
аетапқәа
аетика
аетикеи
аетникабжьаратә
аетникатә
аетникатәи
аетнографиатә
аетнографиеи
аетнолог
аетнологиеи
аетнологцәа
аетноним
аетнонимқәа
аетнос
аетноси
аетносоциалтә
аетносра
аетностә
аетносқәа
аешьа
аеҵәа
аеҵәақәа
ажанр
ажара
ажиба
ажләақәа
ажра
ажурнал
ажурналист
ажурналистика
ажурналистцәа
ажь
ажьеиқәаҵәа
ажьиба
ажьира
ажьы
ажьырны
ажьырныхәамза
ажьырныҳәа
ажьырныҳәамза
ажьырныҳәамзазы
ажә
ажәа
ажәабатәи
ажәабжь
ажәабжьеиҭаҳәаҩцәа
ажәабжьқәа
ажәаеинраалақәеи
ажәалагала
ажәалагалақәа
ажәамаанақәа
ажәахә
ажәахәқәа
ажәақәа
ажәбатәи
ажәеи
ажәеинраала
ажәеинраалақәа
ажәеинраалақәеи
ажәеицааира
ажәла
ажәлар
ажәларбжьаратә
ажәлари
ажәларра
ажәларқәа
ажәларқәеи
ажәлақәа
ажәпара
ажәтә
ажәтәи
ажәылара
ажәылаҩ
ажәытә
ажәытәбырзен
ажәытәра
ажәытәрақәа
ажәытәтәи
ажәытәурымтә
ажәытәӡаны
ажәытәӡатә
ажәытәӡатәи
ажәҩан
ажәҩангәыԥшшәы
ажәҵыс
азааигәара
азакуан
азакәан
азакәантә
азакәанқәа
азакәанқәеи
азакәанҧҵаратә
азакәанҧҵаратәи
азакәанӡбатә
азакәанԥҵара
азакәанԥҵаратә
азал
азали
азалтә
азанааҭ
азанааҭеидгыла
азанааҭеидгылатә
азанааҭеидгылақәа
азанааҭтә
азанҭа
азанҭатәи
азауад
азаҟаҵаҩ
азбжа
азбжазы
азгәазҭо
азгәарҭоит
азгәаҭан
азгәаҭаны
азгәаҭара
азгәаҭақәа
азгәаҭоуп
азгәеиҭеит
азгәеиҭон
азеижәтәи
азеипш
азеиԥш
азер
азербаиджана
азербаиджанскои
азербаиџьан
азербаиџьани
азербаиџьантәи
азербаиџьанцәа
ази
азиа
азиатә
азиатәи
азиатәии
азиаҟны
азиеи
азиз
азии
азикуеит
азин
азиндырра
азиндырратә
азини
азинмчхарақәа
азинмчы
азинтә
азинхьчаратә
азиншьаҭа
азинқәа
азинқәеи
азиуан
азиуеит
азкызаара
азкын
азна
азнауан
азнауеит
азнеишьа
азов
азоуп
азун
азуны
азура
азуразы
азхарҵеит
азхаҵара
азхаҵаразы
азхаҵарақәа
азхьаԥшра
азы
азызуа
азызуаз
азызуз
азылуан
азымхара
азын
азындырратә
азыркьаҿра
азыруеит
азырҳәоит
азықәԥара
азыҟазаашьа
азыҟаҵара
азыҳәан
азқьышықәса
азқьышықәсақәа
азҟаза
азҭаз
азҭо
азҭоз
азҳара
азҵаара
азҵаарақәа
азҵаатәқәа
аи
аиааира
аиааирақәа
аиагареи
аиадертә
аиакуыт
аиапон
аиасра
аиасратә
аиаша
аиашазы
аиашара
аиашатә
аиашахаҵаратә
аиаҵәара
аиаҵәақәа
аиб
аиба
аибаркыгақәа
аибашьра
аибашьразы
аибашьранӡа
аибашьратә
аибашьрақәа
аибашьраҿы
аибашьцәа
аибга
аибыслара
аиг
аидгыла
аидгылара
аидеиа
аидеиақәа
аидеиақәеи
аидеологиа
аидеологиатә
аидыслара
аидысларақәа
аизакра
аизара
аизараҿ
аизга
аизгақәеи
аизенах
аизырҳара
аизырҳаразы
аизыҟазаашьақәа
аизыҟазаашьақәеи
аизҳара
аииаира
аилага
аилагара
аилазаара
аилазаарақәа
аилазаараҟны
аилазаараҿы
аилазаареи
аилазаашьа
аилак
аиланхарҭа
аиларшьышьи
аилатәара
аилатәарақәа
аилатәараҿы
аилахәыра
аилахәырақәеи
аилацәажәара
аилацәажәараҿ
аилацәажәараҿы
аилибакаара
аилкаа
аилкаара
аилкааразы
аилкаарақәа
аилыркаара
аилыркааратә
аилыхара
аим
аимадара
аимадарақәа
аимадареи
аимак
аимакқәа
аимара
аимидж
аимиџь
аимператор
аимпериа
аимпериатә
аимшьҭратә
аимшьҭрақәа
аимырпра
аинар
аинвентари
аингуш
аиндекс
аиндогермантә
аиндуизм
аиндустриалтә
аиндусцәа
аинклиузивтә
аинновациатә
аинрал
аинститут
аинститутқәа
аинститутқәеи
аинструментализм
аинструменталистеи
аинтегралтә
аинтеллектуалтә
аинтерес
аинтересқәа
аинтериер
аинтернат
аинтернет
аинформациа
аинформациатә
аиныршәаратә
аинышәара
аиор
аирес
аислам
аисп
аиспан
аисра
аит
аитал
аиталиа
аиталиан
аиуа
аиудаизм
аиуеит
аиуит
аиура
аиуразы
аиурист
аиуристтә
аиуристтәи
аиуристә
аиустициа
аиха
аихагыла
аихамҩа
аихамҩатә
аихамҩақәа
аихшара
аихшьаалақәа
аихьӡарақәа
аицбы
аицәажәара
аишьцәа
аиқәшаҳаҭра
аиқәшаҳаҭрақәа
аиқәырхара
аиқәырхареи
аиқәыршәара
аиқәыршәаразы
аиқәышаҳаҭра
аиқәышаҳаҭрақәа
аиҟарамра
аиҟарара
аиҩызара
аиҩызаратә
аиҭага
аиҭагара
аиҭагақәа
аиҭагаҩ
аиҭаира
аиҭакрақәа
аиҭахәаҧшреи
аиҭашьақәыргылара
аиҭашьақәыргыларазы
аиҭашьақәыргыларатә
аиҭаҳатә
аиҭеит
аиҭоит
аиҭон
аиҳабацәа
аиҳаби
аиҳабы
аиҳабыра
аиҳабырақәа
аиҳабыреи
аиҳабыс
аиҳарак
аиҿагылара
аиҿагыларақәа
аиҿак
аиҿакқәа
аиҿартәышьа
аиҿкаара
аиҿкааразы
аиҿкааратә
аиҿкаарақәа
аиҿкаарақәеи
аиҿкаараҿы
аиҿкаареи
аиҿкаашьа
аиҿкааҩцәа
аиҿцәажәара
аиҿцәажәарақәа
аиҿырԥшратә
аиӷьтәра
аиӷьтәразы
аиӷьтәреи
аиԥшра
аиԥшымзаара
аиԥшымзаарақәа
аиԥшымзаареи
аиԥылара
аиԥыларақәа
аиԥылараҿы
ак
акаба
акабыл
акагьы
акад
академиа
академиеи
академик
академия
аказы
акака
акакәны
акандидат
акандидатцәа
акантон
акаолициа
акапан
акапитал
акапитализми
акапиталисттә
акапитан
акарсттә
акарта
акарто
акартош
акартошхы
акартошхқәа
акаршәрақәа
акаста
акат
акаталикос
акатегориа
акато
акатолик
акатоликос
акафедра
акафедралтә
акафедраҿ
акаԥа
акб
аквадраттә
аквитаниа
аквитаниатә
акгьы
акерамика
акерамикатә
акеч
акз
акзаара
акит
акитаи
акланқәеи
акласс
аклассикатә
аклимат
аклиникатә
аклуб
аклубтәи
аклубқәа
акны
акодекс
акодқәа
аколективтә
аколлегиалтә
аколлективтә
аколлеџь
аколлеџьқәа
аколониа
аколониализм
аколониалтә
аколониақәа
аколонизаторцәа
аколонизациа
аколхоз
акоманда
акомандатә
акомерциатә
акомета
акоми
акомиссиа
акомитет
акоммерциатә
акоммерциатәи
акоммунисттә
акомор
акомпаниа
акомпартиа
акомпиутертә
акомплекс
акомпозитор
акомпозициа
акомҿар
акомҿартә
аконгресс
аконкурентра
аконкурс
аконсервативтә
аконсерваторцәеи
аконсервациа
аконституциа
аконституциатә
аконституциеи
аконструктивистцәа
аконструкциатә
аконсул
аконсультациақәа
аконтингент
аконтинент
аконтрреволиуцианерцәа
аконтрреволиуционерцәа
аконтрԥшыхареи
аконференциа
аконференциақәа
аконфликт
аконфликтқәа
аконфликтқәеи
аконцепциа
аконцепциақәеи
акооперативтә
акоординациа
акор
акоронавирус
акоронавирустә
акорпоративтә
акоррупциа
акоррупциатә
акоуп
акр
акраамҭа
акрал
акрали
акралра
акралратә
акралцәа
акралԥҳәыс
акрамит
акрамиттә
акраҵанакуеит
акредиттә
акредитқәа
акреол
акризис
акритик
акритика
акружок
акры
акрыз
акрызҵазкуа
акрызҵазкуаз
акрыфара
акт
активистцәа
активла
активных
активтә
актиор
актиорс
актқәа
актәи
акубач
акубок
акульт
акульттә
акультура
акультуратә
акультуратәи
акультурақәа
акультурақәеи
акультуреи
акупол
акурдцәа
акурс
акурсқәа
акциа
акциақәа
акы
акызаҵәык
акылҳара
акылҵәара
акымкәа
акыр
акыраамҭа
акыршықәса
акырынтә
акырџьара
акырӡа
акыҭа
акыҭақәа
акьакьҭаиаша
акьыба
акьырмыт
акьыртә
акьыҧхь
акьыԥхь
акьыԥхьтә
акәа
акәакь
акәакьқәа
акәакьҭаиаша
акәара
акәзар
акәзаргьы
акәмызт
акәны
акәтаҕь
акәу
акәхеит
акәхоит
акәша
акәшьар
акәыб
акәыкәбаақәа
акәымзар
акәымкәа
акәымпыл
акәын
акәып
акәырбан
акәӡам
ал
ала
алабораториақәа
алавердтәи
алагалан
алагалара
алагалақәа
алагамҭа
алагамҭаз
алагамҭазы
алагамҭеи
алагара
алагаразы
алагарҭатә
алагеит
алагер
алагьы
алада
аладатәи
аладахьала
аладахьалагьы
аладаҿы
аладырхәит
аладырхәт
алаз
алаирхәт
алаку
алакуп
алакыз
алакын
алакә
алаларазы
алаларҭа
аламиа
аламырҵәара
аламырҵәаразы
аламҭалазы
аланагалеит
аланхо
аларҵәара
аларҵәаразы
алат
алатын
алатыш
алауреат
алахьынҵа
алахәхара
алахәцәа
алахәыла
алахәылас
алахәылацәа
алахәылацәеи
алахәын
алашара
алашаратә
алашараҿ
алақ
алақәа
алаҟәра
алаҟәреи
алаҭ
алаҭын
алаҳаӡы
алаҳәара
алаҵара
албан
албанеццәеи
албаниа
албаниеи
алгара
алгаразы
алгоритм
алгыт
алегендақәеи
алегион
алегри
алезгьын
алеитенант
алекс
александр
александриа
александрович
алексеевич
алексеи
алектор
алекциа
алекциақәа
алеқса
алеқсандр
алеқсандриа
алеқсеи
алжир
алжиртәи
али
алиас
алиберал
алибералтә
алиев
алиева
аликанте
алингвистика
алирика
алиса
алит
алитература
алитературазы
алитературатә
алитератураҭҵааҩ
алитератураҿы
алитературеи
алитосфера
алитургиатә
алиукс
алихит
алицеи
алкаа
алкаара
алкаақәа
алла
аллахабад
алма
алман
алмантәыла
алмас
алмасхан
алмасханович
алмисхан
алнакаауеит
алнаршоит
алнаршом
алоббизм
алоуп
алфавит
алфавиттә
алхас
алхра
алхратә
алхрақәа
алхырҭатә
алхыҩцәа
алшара
алшарақәа
алшарақәеи
алшоит
алшон
алызхуа
алымгәы
алыркаауеит
алырхуеит
алыршара
алыршахоит
алықса
алықсандр
алықьса
алықьсандр
алыҵшәа
аль
альберт
альбом
альва
альманах
альтернативтә
альфонсо
альфред
алҭеиба
алҭон
алҵшәа
алҵшәақәа
ам
амаа
амаалықь
амагистр
амагистратура
амажоритартә
амазаара
амазара
амазаргьы
амазонка
амак
амакедон
амаксималтә
амал
амалаг
амалуаа
амам
амамзаара
амамызт
аман
аманы
амармалташь
амаршан
амаршьан
амассатә
аматериал
аматериалтә
аматериалтәи
аматериалқәа
амахәҭа
амашьына
амаџь
амаҭ
амаҭәа
амаҭәар
амаҭәарқәа
амаҵ
амаҵзура
амаҵзуратә
амаҵзурауааи
амаҵзурақәа
амаҵзуреи
амаҵура
амаҵурауааи
амаӡа
амаӡам
амаӡаныҟагаҩыс
амаӡаныҟәгарҭа
амаӡаныҟәгарҭеи
амаӡаныҟәгаҩ
амаӡаныҟәгаҩы
амаӡаныҟәгаҩыс
амаӡақәа
амбролаур
амегаполис
амедал
амедико
амедицина
амедицинатә
амедицинеи
аменеџьер
аменеџьмент
аменеџьменти
аменшевикцәа
америка
америкаа
америкатә
америкатәи
америкаҟны
америкаҿы
америкеи
америки
аметодқәа
аметро
аметрополитен
аметротрам
амеханизмқәа
амжәасара
амжәықәхәа
амзар
амзара
амзаҿа
амзызқәа
амигрантцәа
амикроскоп
амикроскопқәа
амилаҭ
амилаҭбжьаратә
амилаҭеилыхра
амилаҭеилыхреи
амилаҭрацәа
амилаҭтә
амилаҭтәи
амилаҭқәа
амилициа
амилициатә
амин
аминералтә
аминималтә
аминистр
аминистрра
аминистррақәа
аминистрс
аминистрцәа
аминистыр
амиран
амиранд
амиссиа
амиссиақәа
амиссионер
амитинг
амитрополит
амитрополити
амифқәа
амла
амлакра
амлакразы
амлакреи
амнистиа
амобилтә
амодель
амолд
амонархиа
амонг
амонгол
амонета
амонографиақәа
амонотеисттә
аморалтә
амотив
амоуп
амоурц
ампар
ампелография
ампыл
ампыҵакҩы
ампыҵахалара
амра
амрааҭашәарахь
амрагылара
амрагыларатә
амрагыларатәи
амрагыларахь
амрагыларахьтәи
амраҭашәара
амраҭашәаратә
амраҭашәаратәи
амраҭашәарахь
амраҭашәараҿы
амреи
амро
амстердам
амстердамскии
амсылманра
амсылманратә
амсылмантә
амсылманцәа
амтҟьали
амузеи
амузика
амузыка
амузыкатә
амуит
амуниципалитет
амуниципалтә
амфора
амх
амхаџьыра
амхаџьырра
амца
амцабз
амцахара
амцеи
амч
амчра
амчратә
амчрахь
амчрақәа
амчрақәеи
амчреи
амчхара
амчыбжь
амчқәа
амш
амшала
амшра
амшы
амшын
амшынду
амшынеиқәа
амшыни
амшыноуп
амшынтә
амшынқәа
амшқәа
амшә
амыругақәа
амырӡра
амқәаб
амҩа
амҩаду
амҩадуқәа
амҩала
амҩаныза
амҩақәа
амҩақәҵаратә
амҩаԥгара
амҳаџьырра
амҵан
амҵәыжәҩақәа
амҷба
амҽхак
амҽыша
амҽышеи
амҿтәы
амҿытә
ан
ана
анааилак
анаара
анага
анагӡара
анагӡарагьы
анагӡаразы
анагӡаратә
анагӡаратәи
анагӡареи
анажьра
аназыруз
анаиааи
аналагалаз
анализ
анана
анапахьы
анапаҵаҟа
анапаҵаҩра
анаплак
анаплакы
анапсаргәыҵа
анапхагаҩы
анапхгара
анапхгаратә
анапхгараҭара
анапхгараҭаратә
анапхгаҩцәа
анапхгаҩы
анапы
анапылаҩыра
анапылаҩыратә
анапҩыра
анапҩырақәа
анарҭо
анасыԥи
анатоли
анатолии
анатолия
анатомиа
анатуралтә
анаука
анаукатә
анаукатәи
анаукақәа
анаукеи
анах
анахаҩы
анацәа
анашьан
анашьара
анашьоуп
анаҟәаԥиа
анаҟәаԥиеи
анаҩеи
анаҩс
анаҩсан
анаҩсангьы
анаҩсантәи
анаҩсгьы
анаҩстәи
анаҩыс
анаҭо
анаҭоит
анаҳҳәо
анаԥхгара
анаԥхгареи
анаԥхгаҩы
анаԥшыҩцәа
анбан
анбанқәа
англ
англиа
англиатә
англиатәи
англиеи
англо
англы
англыз
англызи
англызтә
ангола
андерсон
анди
андорра
андре
андреи
андриа
андроу
андуу
анеилга
анеитралитети
анемец
анемеццәа
анен
анепотизм
анефктәи
анефт
анеҩс
анеҩсан
анзор
ани
анид
анизааи
анилымшо
аниоу
аниу
аниуаз
анихыҵуаз
аниҵоз
анкара
анкваб
анклавқәа
анкылага
анкь
анкьа
анкьатәи
анкьаӡазны
анкьаӡатәи
анна
аннакылоит
аннексиа
аномер
аноминал
анор
анорвег
анормативтә
анормақәа
аноурылара
анри
анрыдыркыла
антарктика
антверпен
антефиқсқәа
анти
антигуа
антигуеи
антидиффамациатә
антикатә
антикатәи
антиохиатәи
антисемисттә
антисемитизм
антисемитизма
антисемиттә
антолгиаҿы
антологиа
антологиаҿ
антон
антропологиа
ануп
анх
анхамҩа
анхамҩатә
анхара
анхарҭа
анхацәа
анхацәеи
анхаҩжәлар
анхаҩцәа
анхаҩцәеи
анхаҩы
анхаҩыжәлар
анхаҩыжәылар
анхаҩыцәа
анхәа
анцә
анцәа
анцәагьы
анцәадзыхшаз
анцәаимаҵзура
анцәахәы
анцәахәқәа
анцәеи
анцәырҵ
аны
анымҩаԥысуаз
анын
анынаигӡа
анырра
аныхабаа
аныхачаԥақәа
аныхиркәша
анышь
анышьақәгыла
анышьқәеи
анышә
анышәара
аныҟарҵо
аныҟоу
аныҟәара
аныҳәа
аныҳәарҭа
аныҳәарҭақәа
аныҳәарҭеи
аныҳәатә
анџьелес
анџьелино
анџьныр
анқәаб
анқәаби
анҭиҵаауаз
анҭыҵ
анҭыҵгьы
анҭыҵтәи
анҵамҭақәа
анҵамҭаҿы
анҵәамҭа
анҵәамҭаз
анҵәамҭазы
анҵәамҭанӡа
анҵәамҭеи
аобиектив
аобиектқәа
аобком
аобласт
аобласттә
аобластқәа
аокеа
аокеан
аоккупациа
аокруг
аокругқәа
аокругқәеи
аокулиар
аолимпиадатә
аолимпиатә
аомофораҿ
аомынь
аопера
аоперативтә
аоператә
аоперациа
аоперациақәа
аоперақәа
аопозициатә
аоппозициа
аоппозициатә
аорганизация
аорден
аофисқәа
аофициалтә
аочеркқәеи
апалеографиатә
апандемиа
апап
апарламент
апарламентгьы
апарламенти
апарламенттә
апартиа
апартиатә
апартиақәа
апартиақәеи
апартизантә
апартисипативтә
апартниорцәа
апартниорцәеи
апасаџьырцәа
апатриарх
апатырџьан
апедагогигатә
апедагогика
апедагогтә
апериод
апериодикатә
апериодқәа
апианистеи
апиесақәа
аплакатқәа
аплан
апланета
апланла
апланқәа
аповест
аповстантә
аповстанциатә
аподагогтә
апоезиа
апоезиатә
апоема
апоемақәа
апоемақәеи
апоемеи
апоет
апоети
апоетцәа
апозициа
апол
аполиак
аполиакцәа
аполитеисттә
аполитехникатә
аполитик
аполитика
аполитикатә
аполитикатәи
аполитикаҿы
аполитикеи
аполитикцәа
аполитикцәеи
аполитолог
аполициа
аполициатә
аполициеи
аполк
аполковник
аполлон
аполш
апон
апорт
апортреҭ
апотенциал
аппарат
апрактика
апрактикатә
апре
апрезидент
апрезидентс
апрезиденттә
апрезидентуп
апрезидентә
апрезидиум
апрель
апреля
апремиа
апринц
апринцип
апринципқәа
апроблема
апроблемақәа
апроблемеи
апровинциа
апровинциақәа
апровинциақәеи
апрограмма
апрограммақәа
апрогресс
апрогрессивтә
апроект
апроектқәа
апроза
апрозаик
апрокуратура
апрокуратуреи
апрокурор
апрофессионалтә
апрофессор
апрофилактикатә
апроцесс
апроцессқәа
апсида
апсидала
апсидқәа
апсны
апсуа
апублицист
апул
апунктқәа
апушт
апҟарақәа
ар
ара
араагьы
араб
арабиаа
арабтә
арабтәи
арабцәа
арабыиа
аравиа
аравиеи
арагьы
арадикалтә
арадио
арадиодырраҭареи
араду
араио
араион
араиона
араионахь
араионного
араионов
араионтә
араионқәа
араионқәеи
аракьаҽы
арамка
араса
арасатә
арасатәи
арасахәы
арасаӡыхь
арасеи
арасизм
арассатә
аратификациа
арахь
арахә
арацәа
араҟа
араӡнытә
араӡынтә
арбага
арбагақәа
арбгара
арбитражтә
арбоб
арбоуп
арбџьармчқәа
арбџьартә
арвелод
аргентина
аргентинатә
аргентинатәи
аргентинои
аргун
аргыл
аргыламҭа
аргыламҭақәа
аргылара
аргылараан
аргыларатә
аргыларатәи
аргыларақәа
аргылареи
аргылаҩ
аргьарахь
аргәын
ардзинба
ардуга
ардура
аре
ареалистцәа
ареалтә
ареверс
аревком
ареволиуциа
ареволиуцианерцәа
ареволиуциатә
ареволиуционерцәа
арегент
арегион
арегионалтә
арегионқәа
арегионқәеи
арегламент
аред
аредактор
аредакторра
аредакторс
аредакциаҿ
арежим
арежиссиор
арезолиуциа
арезолиуциақәа
ареих
ареквием
арелигиатә
арелиеф
арелиефтә
арена
ареспублика
ареспубликатә
ареспубликақәа
ареспубликеи
аресурсқәа
аресурсқәеи
ареферендум
ареформа
ареформақәа
ари
арии
ариитәи
арк
аркади
армарахь
армарахьтәи
армаҷра
армстронг
арн
арнауҭтәылатәи
арок
ароль
ароман
ароманист
ароманш
ароуп
арра
аррамаҵзура
аррамаҵзурауаа
аррамаҵура
аррамҵзура
арратә
арратәи
арсаул
арт
артист
артур
артәоит
аруаа
аруааи
аруан
арум
арумын
арунд
арушанович
арушьан
архаикатә
арханџьело
археологиатә
археологиеи
архив
архивировано
архивтә
архиереи
архипелаг
архитектор
архитектруратә
архитектура
архитектуразы
архитектуратә
архитектурных
архитравтә
архәҭақәа
арццакра
арчы
аршба
аршьаҟауаа
арымаратәи
арыпҳа
арыц
арыцхә
арыцхәқәа
арыцқьареи
арыцҳара
арыцҳарақәа
арҩаш
арҭ
арҭбаара
арҭеит
арҭоит
арҭон
арҭқәа
арҳәрақәа
арҵага
арҵара
арҵаратә
арҵаҩратә
арҵаҩцәа
арҵаҩы
арҽеирақәеи
арҿиара
арҿиаразы
арҿиаратә
арҿыцра
арӡынба
арӷьаратәи
арӷьарахьтәи
арӷәӷәара
арӷәӷәареи
арԥызбеи
арԥҳа
ас
аса
асааҭ
асабшеи
асаит
асалфетка
асанкциақәа
асаркьа
асаркьалсырҭа
асасааирҭақәа
асасааирҭеи
асатира
асахьа
асахьала
асахьаркыра
асахьаркыратә
асахьақәа
асахьақәеи
асахьаҭыхра
асахьаҭыхратә
асахьаҭыхыҩцәа
асахьаҭыхҩы
асаӡуа
асаӡуаа
асвати
асеиш
асекулиаризациеи
асеминариа
асеминариаҿ
асенат
асенатор
асерб
асербцәа
асербцәеи
асериаҿ
асиа
асимвол
асинагога
асинг
асистема
асиужет
аскрипториум
аскульптор
аславак
аславиан
аславистикеи
аслан
асланбеи
асловак
асловен
асовет
асоветтә
асоветтәи
асолдаҭцәа
асом
асомҭаврули
асоциал
асоциализм
асоциализми
асоциалисттә
асоциалистцәа
асоциалтә
асоциалтәи
асоциолог
асоциологиа
асоциологцәа
аспект
аспекты
аспектқәа
аспециалистцәа
аспециалистцәеи
аспинӡа
аспирантура
аспирантураҿ
аспирантцәа
аспирт
аспорт
аспорти
ассамблеиа
ассимилиациа
ассоциации
асср
аст
астадион
астамур
астамурович
астамуром
астандартқәа
астатиа
астатиақәа
астатиақәеи
астатистика
астатистикатә
астатус
астелла
астерилизациа
астерилизациеи
астратегиа
астратегиатә
астудент
астудентцәа
астудентцәеи
асуах
асубиективтә
асубиектқәеи
асубтропикатә
асуверенитет
асценарист
асы
асыкәмал
асҭалаво
асҭампыл
асҭамыр
ат
ата
атам
атандем
атауарқәа
атаџь
атаџьықь
атеатр
атеатри
атеатртә
атеатрқәа
атекст
атема
атемала
атематикатә
атемақәа
атеоретикцәеи
атеориа
атеориатә
атериториа
атермин
атерриториа
атерриториақәеи
атерриториаҿы
атерроризм
атеррористтә
атехникатә
атехникатәи
атехникум
атехнологиа
атехнологиақәа
атигр
атитули
атиурк
атланта
атлантикатә
атмосфера
атом
атома
атомтә
атопонимика
атрадициақәа
атрадициақәеи
атрамваи
атрамваиоуп
атрамваитә
атрамваиқәа
атранспорт
атранспорттә
атриадқәа
атрибунал
атропикатә
атрубка
атс
атубус
атур
атуризм
атуризми
атуркм
атуркмен
атыша
атәарҭа
атәи
атәцәа
атәы
атәыла
атәылауаа
атәылауааи
атәылауаҩ
атәылауаҩра
атәылауаҩратә
атәылахьчара
атәылахьчареи
атәылақәа
атәылақәеи
атәылаҟны
атәылаҿ
атәылаҿацә
атәылаҿы
атәылоуп
атәым
ау
ауаа
ауаажәлар
ауаажәларра
ауаажәларратә
ауаажәларратәи
ауаажәларраҿы
ауаажәларреи
ауааи
ауаапсыра
ауаарацәа
ауаатәыҩса
ауаатәыҩсатә
ауаатәҩса
ауаатәҩсатә
ауааԥсыра
ауадақәа
ауадаҩрақәа
ауазб
ауазбақь
ауал
ауалафахәы
ауам
ауар
ауараа
ауасиаҭ
ауасиаҭқәа
ауасхыр
ауахуама
ауахәама
ауахәаматә
ауахәаматәи
ауахәамақәа
ауахәамақәеи
ауахәамаҿ
ауахәамаҿы
ауахәамеи
ауаҩ
ауаҩи
ауаҩра
ауаҩшьра
ауаҩшьрақәа
ауаҩы
ауаҩытәыҩса
ауаҩытәыҩсатә
ауаҩытәҩса
ауаԥ
ауаԥс
ауаԥсаа
ауаԥстәыла
аубла
аублаа
аубыхцәа
ауеит
ауигәыр
аукраин
аукраинцәа
ауниверсалтә
ауниверситет
ауниверситетқәа
ауп
аур
аура
ауралатәи
ауреи
ауриа
ауриацәа
ауриацәеи
аурыс
аурыси
аурысцәа
аурысцәеи
аурысқәа
аус
аусбарҭа
аусбарҭақәа
аусбарҭақәеи
аусдкылаҩцәеи
аусеилыргаратә
аусеилыргаҩ
аусеицура
аусеицуразы
аусеицуреи
аусзуҩцәа
аусзуҩцәеи
аусзуҩы
аусзуҩыс
ауси
аусмҩаԥгатәқәа
аусумҭа
аусумҭақәа
аусумҭаҿы
аусура
аусурагьы
аусуразы
аусуратә
аусурақәа
аусураҟны
аусураҿ
аусуреи
аусурҭа
аусусцәа
аусутә
аусуцәа
аусуцәеи
аусушьа
аусхк
аусхкқәа
аусқәа
аусқәеи
аусӡбаратә
аусԥҟа
ауха
аучастка
ауҭраҭых
афаил
афакт
афакторқәа
афакультет
афанаси
афанасии
афар
афараон
афарс
афасад
афасадқәа
афатә
афатәи
афатәқәа
афауна
афашисттә
афбатәи
афганистан
афганисҭан
афедералтә
афедеративтә
афедерациа
афедерациаҟны
афедерациеи
афеида
афеминизм
афеминисттә
афеномен
афеодал
афеодалтә
афестиваль
афи
афизика
афилиал
афилологиатә
афилософ
афилософиа
афилософиатә
афилософиатәи
афилософиеи
афилософцәа
афильм
афильмқәа
афинансттә
афинанстә
афинансқәа
афинансқәеи
афины
афирма
афицар
афицарцәа
афольклор
афольклорист
афон
афонд
афонҿыцтәи
афоризмқәа
аформа
аформат
аформақәа
афортепиано
афорум
афр
афрагмент
афрагментқәа
афрагментқәеи
афракциа
афранцыз
афранцызцәа
африка
африкагәҭантәи
африкамраҭашәаратәи
африкатәи
африкаҟны
африкеи
афронт
афундаментализм
афундаменталисттә
афундаменталистцәа
афункциақәа
афымца
афымцатрамваи
афымцахара
афырхацәа
афырхаҵа
афырхаҵарақәа
афӷаанисҭаан
ах
аха
ахаан
ахаанаахыс
ахав
ахада
ахадагьы
ахадара
ахадараҿ
ахадас
ахадацәа
ахадеи
ахазен
ахак
ахакас
ахал
ахала
ахаланапхгара
ахаланапхгаратә
ахалара
ахалцых
ахалшени
ахалшентәи
ахалқалақь
ахамелеон
ахамелеонқәа
ахамырхәара
ахан
аханатә
аханатәтәи
ахантәаҩи
ахантәаҩы
ахантәаҩыс
аханы
ахара
ахархәага
ахархәагақәа
ахархәара
ахархәаразы
ахархәарала
ахархәаратә
ахархәареи
ахатә
ахатәы
ахахьы
ахац
ахацқәа
ахацәа
ахацәеи
ахашеи
ахашәала
ахашәалахәқәа
ахақәиҭра
ахақәиҭрақәеи
ахақәиҭреи
ахаҭа
ахаҭабзиара
ахаҭагьы
ахаҭарнак
ахаҭарнакра
ахаҭарнакраҿы
ахаҭарнакреи
ахаҭарнакс
ахаҭарнакцәа
ахаҭарнакцәеи
ахаҭыԥан
ахаҳә
ахаҳәдуқәа
ахаҳәи
ахаҳәла
ахаҳәтә
ахаҳәқәа
ахаҳәқәеи
ахаҳәҟьаԥс
ахаҳәҟьаԥсқәа
ахаҵа
ахаҵареи
ахаҿсахьа
ахаҿы
ахаҿқәа
ахаҿқәеи
ахба
ахдырра
ахеилак
ахеилаки
ахи
ахиба
ахимиа
ахимиатә
ахкы
ахкқәа
ахмед
ахмета
ахор
ахорв
ахорват
ахорватцәа
ахорватцәеи
ахра
ахрестоматиа
ахрестоматиақәа
ахроникеи
ахронологиатә
ахсаалаҿы
ахуба
ахцәажәара
ахш
ахшара
ахшарарацәа
ахшыҩ
ахшыҩрҵара
ахшыҩрҵаратә
ахшыҩрҵареи
ахшыҩырҵара
ахшыҩырҵаратә
ахшыҩҵакқәа
ахы
ахыб
ахыбгалара
ахыбра
ахыбраҿы
ахыжәжәарақәа
ахылапшра
ахылаԥшра
ахылаԥшратә
ахылаԥшҩыс
ахылҵ
ахылҵшьҭра
ахымхәацәа
ахымҩаԥгашьа
ахыналыг
ахынҳәразы
ахыргьагьа
ахыргьагьатә
ахыргьагьақәа
ахыркәшара
ахыркәшаратә
ахырхарҭа
ахырхарҭала
ахырхарҭақәа
ахырхарҭаҟны
ахысра
ахыхь
ахыхьчара
ахықәан
ахықәаҿы
ахықәкы
ахыҵра
ахыҵхырҭа
ахыҵхырҭақәа
ахыԥхьаӡара
ахыԥхьаӡарақәа
ахыԥхьаӡареихшьаларатә
ахь
ахьа
ахьаа
ахьамаз
ахьамоу
ахьаца
ахьгьы
ахьеиҟарам
ахьз
ахьзыртәрақәеи
ахьиба
ахьиуа
ахьрылшо
ахьрымам
ахьрымоу
ахьтәаҿа
ахьтәы
ахьчара
ахьчаразы
ахьчаратә
ахьчареи
ахьы
ахьынхо
ахьынхоз
ахьынӡазинрку
ахьынӡанаӡааӡо
ахьырхәра
ахьырхәреи
ахьышьҭрахь
ахьыҟаз
ахьыҟамыз
ахьыҟоу
ахьыӡ
ахьыӡгьы
ахьыӡқәа
ахьыԥшымра
ахьыԥшымразы
ахьҭа
ахьҿы
ахьӡ
ахьӡала
ахьӡарҵеит
ахьӡи
ахьӡуп
ахьӡын
ахьӡыртәрақәеи
ахьӡырҵеит
ахьӡқәа
ахқәа
ахҟьаԥҟьақәа
ахҧа
ахҩылаа
ахҩылааразы
ахҭынҵаны
ахҭыс
ахҭысқәа
ахҳәаа
ахҵәацәа
ахҵәацәеи
ахҿа
ахә
ахәаахәҭра
ахәаахәҭратә
ахәах
ахәашеи
ахәаԥшра
ахәаԥшцәа
ахәба
ахәбатәи
ахәмарра
ахәра
ахәрақәа
ахәри
ахәшьара
ахәы
ахәылԥаз
ахәынҭқарра
ахәынҭқарратә
ахәыцра
ахәыцрақәа
ахәышәтәырҭа
ахәыҷтәы
ахәыҷы
ахәыҷқәа
ахәыҷқәеи
ахәқәа
ахәҭ
ахәҭа
ахәҭак
ахәҭакахьала
ахәҭақәа
ахәҭақәак
ахәҭаҟны
ахәҭаҷ
ахәҭаҷқәа
ахәҭаҿы
ахәҭоуп
ахԥарак
ахԥатәи
ахԥатәии
ацагды
ацара
ацах
ацез
ацентр
ацентралтә
ацентртә
ацентрқәа
ацеремониа
ацивилизациа
ацивилизациатә
ацивилизациақәа
ацилиндыртә
ацитрус
ацитрустә
ацифратә
ацнариа
ацуфарақәеи
ацуҭа
ацхраара
ацхыраара
ацхыраареи
ацыганцәа
ацынхәрас
ацынҵәарах
ацқьа
ацқьара
ацқьацәа
ацқьақәа
ацҳа
ацҳаражәҳәараҿы
ацҳаражәҳәаҩ
ацҳаражәҳәаҩцәа
ацҳаражәҳәаҩыс
ацҳақәа
ацҵара
ацҵаразы
ацә
ацәа
ацәажәара
ацәажәаратә
ацәажәарақәа
ацәара
ацәаҩашәа
ацәаҳәа
ацәаҳәақәа
ацәаҳәаҿы
ацәгь
ацәгьареи
ацәгьеи
ацәгьоура
ацәгьоуразы
ацәгьоурақәа
ацәеижь
ацәеижьи
ацәеижьқәа
ацәеижьқәеи
ацәикит
ацәикуан
ацәкразы
ацәыкәбар
ацәынхақәа
ацәырҵра
ацәырҵрақәа
ача
ачарыц
ачба
ачеи
ачемпион
ачемпионат
ачех
ачеч
ачечен
ачеченцәа
ачеченцәеи
ачич
ачуваш
ачымазара
ачымазарақәа
ачымазарақәеи
ачымазареи
ачынуаа
ачынҭатәи
ачыраг
ачҳара
аш
ашаблон
ашара
ашарԥы
ашахтиорцәа
ашба
ашвед
ашведцәа
ашкол
ашколаҿ
ашколтә
ашколқәа
ашколқәранӡатәи
ашкәакәа
ашон
ашоура
аштаб
аштат
аштатқәа
аштатқәеи
ашылеи
ашықәс
ашықәсазы
ашықәсан
ашықәсқәа
ашықәсҩыреи
ашьа
ашьампылампылтә
ашьапаҿы
ашьапы
ашьапылампыл
ашьапылампыласыҩс
ашьапылампыласҩы
ашьапылампылтә
ашьара
ашьауҕатә
ашьауӷатә
ашьацԥшшәи
ашьацԥшшәы
ашьақәгылара
ашьақәгыларазы
ашьақәыргылара
ашьақәыргыларазы
ашьақәыргылараҿы
ашьаҟақәа
ашьаҭа
ашьаҭала
ашьаҭаркҩы
ашьаҭақәа
ашьаҿақәа
ашьра
ашьтахь
ашьха
ашьхараҿ
ашьхаруаа
ашьхарыуа
ашьхарыуаа
ашьхарыуатәи
ашьхарԥы
ашьхатә
ашьхақәа
ашьхаҿ
ашьхаҿы
ашьхеибаркыра
ашьыжь
ашьыцра
ашьҭалара
ашьҭахь
ашьҭахьтәи
ашьҭақәа
ашьҭыхра
ашқәсанҵа
ашҟа
ашҟәы
ашҭа
ашҭахь
ашҭаҿы
ашҳам
ашә
ашәа
ашәага
ашәамахьцәа
ашәан
ашәануа
ашәара
ашәарҭа
ашәарҭадара
ашәарҭадаратә
ашәарҭадареи
ашәарҭара
ашәахтә
ашәахтәқәа
ашәахтәқәеи
ашәахьеи
ашәахәақәа
ашәақәа
ашәақәеи
ашәаҳәаҩ
ашәаҳәаҩцәа
ашәаҳәаҩы
ашәба
ашәкәы
ашәуаа
ашәшықәса
ашәшьыра
ашәы
ашәыга
ашәыр
ашәырргәыц
ашәырҭадареи
ашәырҵла
ашәышақәса
ашәышықәса
ашәышықәсазгьы
ашәышықәсазы
ашәышықәсанӡа
ашәышықәсақәа
ашәышықәсақәеи
ашәышықәсеи
ашәышықәсқәа
ашәқәа
ашәҟәаҿы
ашәҟәы
ашәҟәыҩҩ
ашәҟәыҩҩцәа
ашәҟәыҩҩцәеи
ашәҟәыҩҩы
ашәҟәқәа
ашәҟәҩҩуп
ашәҟәҩҩцәа
ашәҟәҩҩы
ашәҟәҭыжьырҭа
ашәҭ
ашәҭи
ашәҭқәа
ашәҭқәеи
аъ
аь
аџь
аџьа
аџьабаа
аџьаз
аџьам
аџьамазра
аџьамԥазратәи
аџьар
аџьари
аџьаркгьы
аџьармыкьатә
аџьармыкьаҿы
аџьарқәа
аџьарқәеи
аџьатә
аџьауси
аџьба
аџьныш
аџьынџьал
аџьынџьтәылатә
аџьынџьтәылатәи
аҕа
ақ
ақалақь
ақалақьи
ақалақьтә
ақалақьтәы
ақалақьқәа
ақалақьқәеи
ақарҭвел
ақурҭ
ақурҭҟьара
ақырт
ақыртуа
ақыртцәа
ақырҭ
ақырҭу
ақырҭуа
ақырҭуаа
ақырҭуеи
ақырҭшәа
ақырҭшәахьтә
ақырҭқәа
ақыҭ
ақыҭа
ақыҭан
ақыҭанхамҩа
ақыҭанхамҩатә
ақыҭанхамҩеи
ақыҭанхаҩцәа
ақыҭатә
ақыҭауааи
ақыҭақәа
ақыҭақәеи
ақыҭаҿ
ақыҭаҿтәи
ақыҭаҿы
ақыҭоуп
ақьаад
ақьабзтә
ақьабзқәа
ақьиара
ақьиареи
ақьырмыт
ақьырси
ақьырсиан
ақьырсианра
ақьырсианратә
ақьырсианраҿы
ақьырсианреи
ақьырсиантә
ақьырсианцәа
ақәа
ақәатәи
ақәгылара
ақәгыларақәа
ақәгыларақәеи
ақәныҟәара
ақәра
ақәранҵыра
ақәцә
ақәызҵо
ақәым
ақәымчра
ақәымчымра
ақәыргылара
ақәырҭ
ақәыӷәӷәара
ақәыԥшцәа
ақәыԥшылара
ақәҩыра
ақәҩыраҿы
ақәҵара
ақәҵарала
ақәҵарақәа
ақәҿиара
ақәҿиарақәа
ақәӡара
ақәԥара
ақәԥаразы
ақәԥараҟны
ақәԥараҿы
ақәԥаҩцәа
аҟабарда
аҟабардақәа
аҟаз
аҟазаара
аҟазааразы
аҟазаареи
аҟазара
аҟазараҭҵааҩцәа
аҟазараҭҵааҩы
аҟазареи
аҟазах
аҟазацәа
аҟазшьа
аҟазшьарбагақәа
аҟазшьақәа
аҟалара
аҟамзаара
аҟамлара
аҟамҵара
аҟара
аҟарач
аҟарачқәа
аҟарачқәеи
аҟармара
аҟаҵара
аҟаҵаразы
аҟни
аҟны
аҟнынӡа
аҟнытә
аҟрым
аҟрымҭаҭар
аҟуа
аҟыбаҩ
аҟынтә
аҟынтәи
аҟынӡа
аҟыр
аҟыргыз
аҟыта
аҟыҭа
аҟьоит
аҟә
аҟәа
аҟәаб
аҟәара
аҟәараҿы
аҟәатәи
аҟәаҟа
аҟәеи
аҟәша
аҟәшақәа
аҟәшаҟны
аҟәшеи
аҟәым
аҟәымқәа
аҟәырҟ
аҟәырӷ
аҟәырӷтә
аҧара
аҧсабара
аҧсабаратә
аҧсахра
аҧсны
аҧсныжәлар
аҧсуа
аҧсыӡқуа
аҧсҭазаара
аҧсҭазаареи
аҧыза
аҩ
аҩада
аҩадатәи
аҩадахьала
аҩадахьалагьы
аҩажәатәи
аҩашеи
аҩаӡара
аҩаӡараҟны
аҩаӡараҿы
аҩбатәи
аҩбызшәара
аҩдатәи
аҩналарҭа
аҩнаҭа
аҩнаҵҟатәи
аҩнуҵҟа
аҩнуҵҟагьы
аҩнуҵҟала
аҩнуҵҟатәи
аҩны
аҩнытә
аҩныҟатәи
аҩныҵҟа
аҩныҵҟагьы
аҩныҵҟатәи
аҩнқәа
аҩрақәа
аҩреи
аҩхаа
аҩыза
аҩызаҵәҟьа
аҩымҭақәа
аҩынтәраан
аҩыра
аҩырала
аҩыратә
аҩырацқьа
аҩырақәа
аҩышьа
аҩӡба
аҩӡԥҳа
аҭ
аҭаацәа
аҭаацәара
аҭаацәаратә
аҭаацәарақәа
аҭаацәараҿы
аҭагылазаашьа
аҭагылазаашьақәа
аҭагылазаашьақәеи
аҭагылазаашьаҟны
аҭагылазаашьаҿ
аҭагылазаашьеи
аҭагылаӡаашьа
аҭак
аҭакзыԥхыкәу
аҭакзыԥхықәу
аҭакԥхықәра
аҭакԥхықәреи
аҭалараз
аҭан
аҭаны
аҭара
аҭаразы
аҭарбеков
аҭареи
аҭауадра
аҭахны
аҭахрақәа
аҭахуп
аҭаџьык
аҭаҭар
аҭаҳмада
аҭбаара
аҭел
аҭена
аҭоуба
аҭоурых
аҭоурыхдырҩы
аҭоурыхи
аҭоурыхтә
аҭоурыхтәи
аҭоурыххҳәаа
аҭоурыхқәа
аҭоурыхҭҵааҩ
аҭоурыхҭҵааҩцәа
аҭоурыхҭҵааҩы
аҭра
аҭыжьра
аҭыжьымҭа
аҭынхара
аҭынхацәа
аҭынч
аҭынчра
аҭынчразы
аҭынчратә
аҭынчрахь
аҭынчреи
аҭыпқәа
аҭыр
аҭырқ
аҭырқтыләа
аҭырқцәа
аҭырқәа
аҭырқәцәа
аҭырқәцәеи
аҭышәантәалара
аҭышәныртәаларазы
аҭышәынтәалара
аҭышәынтәалареи
аҭыҧантәи
аҭыӡсахьақәа
аҭыӡқәа
аҭыӡҭа
аҭыӡҭып
аҭыӡҭыԥ
аҭыӡҭыԥаҿ
аҭыԥ
аҭыԥан
аҭыԥантәи
аҭыԥантәии
аҭыԥахь
аҭыԥашҟа
аҭыԥаҿ
аҭыԥаҿы
аҭыԥи
аҭыԥқәа
аҭыԥҳа
аҭҳамада
аҭҵаара
аҭҵаарадырра
аҭҵаарадырратә
аҭҵаарадыррақәа
аҭҵаарадырреи
аҭҵаарадырҩцәа
аҭҵааразы
аҭҵааратә
аҭҵаарақәа
аҭҵаарақәеи
аҭҵаараҿы
аҭҵаареи
аҭҵааҩцәа
аҭҵааҩы
аҭӡамкәа
аҭӡамц
аҭӡамци
аҭӡамцқәа
аҭӡынҵақәеи
аҳ
аҳа
аҳабла
аҳаблақәа
аҳаблаҿ
аҳазалхратә
аҳаирыпланқәа
аҳамҭа
аҳамҭақәа
аҳаракыра
аҳаракырақәа
аҳаракыраҿ
аҳасаб
аҳасабала
аҳасабрбақәа
аҳасабтәқәа
аҳасабырба
аҳасабырбақәа
аҳаскьын
аҳауа
аҳауеи
аҳаус
аҳаш
аҳашба
аҳаши
аҳаштә
аҳақьым
аҳақьымцәа
аҳақьымцәеи
аҳаҭыр
аҳаҭыртә
аҳаԥы
аҳаԥқәа
аҳмаҭ
аҳмаҭбеи
аҳра
аҳратә
аҳрақәа
аҳцәа
аҳқынҭқарратә
аҳҭны
аҳҭнықалақь
аҳҭнықалақьи
аҳҭнықалақьыуп
аҳҭнықалақьқәа
аҳҭынра
аҳәа
аҳәаа
аҳәаанырцә
аҳәаанырцәтәи
аҳәаанырцәтәии
аҳәаақәа
аҳәааҿы
аҳәамҭа
аҳәамҭақәа
аҳәара
аҳәашьа
аҳәба
аҳәоит
аҳәса
аҳәсеи
аҳәынҭбанк
аҳәынҭкарратә
аҳәынҭқ
аҳәынҭқар
аҳәынҭқарра
аҳәынҭқаррабжьаратә
аҳәынҭқарратә
аҳәынҭқарратәи
аҳәынҭқаррақәа
аҳәынҭқаррақәеи
аҳәынҭқарраҿы
аҳәынҭқарреи
аҳәынҭқарроуп
аҳәынҭқарқәа
аҳәынҭқарԥ
аҳәынҭқарԥҳәыс
аҳәынҭҟарратә
аҳәынҭәарратә
аҳәыҭқарроуп
аҵак
аҵакы
аҵакыра
аҵакырадгьыл
аҵакырадгьылтә
аҵакырадгьылтәии
аҵакырадгьылқәа
аҵакырадгьылқәаҿы
аҵан
аҵанакоит
аҵанакра
аҵанакуеит
аҵанакы
аҵара
аҵарадырра
аҵарадырразы
аҵарадырратә
аҵарадырраҿы
аҵарадырреи
аҵаразы
аҵараиурҭақәа
аҵараиурҭақәеи
аҵаратә
аҵарауаа
аҵарауаҩ
аҵарауаҩы
аҵареи
аҵареиурҭақәа
аҵарҩит
аҵарҭыша
аҵарҭышагара
аҵаулара
аҵахара
аҵаҟа
аҵаҩра
аҵаҩцәа
аҵаҩын
аҵеи
аҵеицәа
аҵеиҩит
аҵиаа
аҵиаақәа
аҵиаақәеи
аҵкыс
аҵкьыс
аҵла
аҵлақәа
аҵнариа
аҵоуп
аҵх
аҵыргак
аҵыргақәа
аҵысра
аҵысрақәа
аҵых
аҵыхәа
аҵыхәеи
аҵыхәтәан
аҵыхәтәантәи
аҵыхәтәантәиқәа
аҵыхәтәаны
аҵыхәтәанынӡа
аҵәахырҭатә
аҷандара
аҷандаратәи
аҷануа
аҷартәылатәи
аҷкәандарцәа
аҷкәын
аҷыдалкаатә
аҷыдара
аҷыдарақәа
аҽазнык
аҽазыҟаҵара
аҽазыҟаҵарақәа
аҽарҭбаауан
аҽарҭбаауеит
аҽарӷәӷәеит
аҽаҩра
аҽаҩрадаӷь
аҽаԥсахит
аҽаԥсахуеит
аҽны
аҽтрамваи
аҽшьрақәа
аҽы
аҽыҭ
аҿа
аҿагылара
аҿагыларазы
аҿагыларатә
аҿагылаҩцәа
аҿагылаҩцәеи
аҿар
аҿара
аҿари
аҿартә
аҿатә
аҿацә
аҿаҵа
аҿаԥсазаҵәытә
аҿаԥсак
аҿаԥхьа
аҿаԥшьқәа
аҿгьы
аҿиара
аҿиаразы
аҿиараҿы
аҿиареи
аҿоуп
аҿтәи
аҿы
аҿыгҳара
аҿырԥштәқәа
аҿыц
аҿҳәара
аҿҳәарақәа
аӏ
аәыҭа
аәҟа
аӡ
аӡаахҩы
аӡахәа
аӡаҵаҟатәи
аӡбамҭа
аӡбамҭақәа
аӡбара
аӡбаразы
аӡбарала
аӡбаратә
аӡбаратәи
аӡбарақәа
аӡбареи
аӡбареиҿкаареи
аӡбарҭатә
аӡбарҭақәа
аӡбарҭеи
аӡбахә
аӡбахәы
аӡбаҩ
аӡбаҩцәа
аӡбаҩцәеи
аӡбоит
аӡи
аӡиа
аӡиас
аӡиаси
аӡиасқәа
аӡиақәа
аӡныжь
аӡха
аӡхыҽҽа
аӡы
аӡын
аӡынба
аӡынеи
аӡынтәи
аӡыршә
аӡыхь
аӡқәа
аӡқәеи
аӡҩыбжьа
аӡҩыбжьатәи
аӡҭамцқәа
аӡҭатәарақәа
аӡә
аӡәгьы
аӡәи
аӡәы
аӡәыкны
аӡәырҩы
аӡӷабцәа
аӷа
аӷапқәа
аӷарра
аӷарреи
аӷарцәа
аӷас
аӷацәа
аӷба
аӷәӷәахара
аԥ
аԥа
аԥааимбар
аԥара
аԥаратә
аԥарақәа
аԥараҵас
аԥацәа
аԥеиԥш
аԥенџьыр
аԥенџьырқәа
аԥенџьырқәеи
аԥихит
аԥиҵеит
аԥнаҵеит
аԥнаҵоит
аԥра
аԥс
аԥсаатәқәа
аԥсабара
аԥсабаратә
аԥсабареи
аԥсадгьыл
аԥсар
аԥсардаҳан
аԥсахра
аԥсахразы
аԥсахрақәа
аԥсахуеит
аԥсидқәа
аԥсилаа
аԥсихологиа
аԥсихологиатә
аԥсихологиатәи
аԥслымӡхаҳә
аԥсни
аԥсны
аԥсныжәлар
аԥсныи
аԥснынтәи
аԥснытәи
аԥсныҟа
аԥсра
аԥстәы
аԥстәқәа
аԥстәқәеи
аԥсуа
аԥсуаа
аԥсуааи
аԥсуара
аԥсуатә
аԥсуаҭҵаара
аԥсуаҭҵааратә
аԥсуеи
аԥсха
аԥсшәа
аԥсшәахь
аԥсы
аԥсылман
аԥсылманра
аԥсылманреи
аԥсылмантә
аԥсылманцәа
аԥсылманцәеи
аԥсынгьы
аԥсынтәыла
аԥсыуа
аԥсышәала
аԥсыӡ
аԥсыӡқуа
аԥсыӡқәа
аԥсҭазаара
аԥсҭазааразы
аԥсҭазаараҿы
аԥсҭазаареи
аԥсҳара
аԥхази
аԥхарра
аԥхарреи
аԥхасҭа
аԥхын
аԥхынеи
аԥхынра
аԥхынтәи
аԥхьа
аԥхьагыла
аԥхьагылацәеи
аԥхьагылаҩцәа
аԥхьанаттәи
аԥхьара
аԥхьареи
аԥхьарца
аԥхьатәи
аԥхьахә
аԥхьахәқәа
аԥхьашьа
аԥхьаҟа
аԥхьаҟатәи
аԥхьаҩ
аԥхьаҩцәа
аԥша
аԥшаара
аԥшаҳәа
аԥшаҳәаҿы
аԥшра
аԥштәы
аԥшшәы
аԥшь
аԥшьа
аԥшьашеи
аԥшьашәҟәы
аԥшьаҩыра
аԥшьаҩыхада
аԥшьаҩыхадацәа
аԥшьбарак
аԥшьбатәи
аԥшьбатәии
аԥшькәакьта
аԥшькәакьтатә
аԥшькәакьҭа
аԥшәма
аԥыжәара
аԥыз
аԥыза
аԥызҵаз
аԥырра
аԥырҵеит
аԥыхра
аԥыхразы
аԥыхын
аԥышәа
аԥышәара
аԥышәарақәа
аԥҟарала
аԥҟарақәа
аԥҟарақәеи
аԥҟаԥҵәа
аԥҳазоу
аԥҳацәа
аԥҳәыс
аԥҳәысеиба
аԥҵамҭа
аԥҵамҭақәа
аԥҵан
аԥҵаны
аԥҵара
аԥҵаразы
аԥҵареи
аԥҵаҩцәа
аԥҵаҩы
аԥҵоуп
б
ба
бааԥс
бааԥсы
бааԥсыла
баба
бабахович
бабахь
бабушара
бабушаратәи
бага
багамтәи
багапш
багаҭелиа
багаԥшь
багаԥшьи
баграт
багратеи
баграти
багратиони
багриновски
бадзович
бадра
бадровна
база
базар
базельского
баиден
баирам
баку
баладаг
балкантәи
балканы
балтикатәи
бангкок
бангладеш
бангладештәи
банк
банки
банкк
банкқәа
бара
барада
барадеи
барак
бараҭашвили
барбадос
барбара
барбаре
барбудеи
барзен
барзеншәа
бармышь
барселона
барселонатәи
барциц
барцыц
басла
баслатәи
баслахә
баслаҭ
баслаҭа
батонишвили
бах
бахович
бахреин
бахтадзе
бахтаӡе
бахәа
баша
башкортостан
бақәа
баҟа
баҟақәа
баҭал
баҭым
баҭымтәи
баҳреин
баҳча
баӡ
баӷаԥшь
баӷбаран
баӷдад
баӷмаран
баӷмарантәи
бгажба
бгажәба
бганба
бебиа
беди
бедиа
бедиатәи
бедность
без
беи
беигуаа
беигәа
беигәаа
беиџинг
беиӡин
беларусиа
беларусь
белград
белиз
белл
белла
белокуров
белоруссиа
белоруссиатәи
белорусскои
белосток
белу
белые
бельгиа
бен
бензомоторная
бениа
бенин
бенинтәи
бербер
бергсон
бердиаев
бердяев
берлин
берлинтәи
берӡенишвили
беслан
бесонта
бжаки
бжаниа
бжь
бжьаниа
бжьаратә
бжьаратәалатә
бжьаратәи
бжьба
бжьоуп
бжьы
бжьыла
бжьыҭирала
бз
бзи
бзиа
бзиабарала
бзианы
бзиақәа
бзиаӡаны
бзоур
бзыб
бзыбском
бзыԥ
бзыԥтәи
бзыԥын
бзыԥҭа
би
библиотека
бигуаа
бида
биданыҟәа
бидович
бижунта
бизнес
билефельд
билл
бильбао
биографии
биографическии
биография
биологиа
биология
биос
бир
бираҟ
бираҟқәа
биргер
бирж
бирмингем
бирцха
бисау
битлз
биуро
биуџьет
биӡин
биӡина
блабырхәа
блекберн
блекпул
блида
блокада
блокчеин
блокқәа
боки
боко
болгариа
боливиа
болнис
большая
большои
бомбора
бонинсеньеи
бонн
бор
бордо
борис
борџьом
бослакәа
босниа
босниатәи
босниатәии
босниеи
ботане
ботаническии
ботсвана
бохум
боча
боярами
бр
бразилиа
бразилиаҟны
браиан
братислава
брегаӡе
брежнев
бри
британиа
британиатәи
британские
бриуссел
брокгауза
бромлеи
броссе
брунеи
будапешт
будет
буенос
буилон
буркина
бурса
бурунди
бурҷулаӡе
бутан
бутба
бухарест
буш
българия
бы
быг
быжь
быжьба
быжьшықәса
быжьшәи
быжьшәы
бызшақәа
бызшәа
бызшәадырра
бызшәак
бызшәала
бызшәалеи
бызшәарацәала
бызшәас
бызшәахьтә
бызшәақәа
бызшәаҿы
бызшәеи
был
была
были
было
бырги
бырз
бырзен
бырзентәи
бырзентәыла
быс
быҭәба
бџьар
бџьарла
бџьаршьҭыхлатәи
бҕажәба
бҵ
бӷажәба
в
ва
вавилина
вагон
вагриус
вадим
валенсии
валенсия
валентин
валентина
валентиновна
валери
валерии
валпараисо
валтись
вальпараисо
ван
ванду
ванкувер
вануату
варданиа
варданян
варшава
васа
васили
васильевич
ватикан
вахтанг
вашингтон
вв
вгуст
век
века
великии
великобританиеи
великобритании
великого
вена
венатәи
венгриа
венесуела
венециа
вентәи
венчался
венчан
вер
верде
вероника
версиа
верховного
весна
вест
вестник
весть
ви
вианор
виачеслав
виетнам
византиа
византиаа
византиатәи
византиискии
визитла
викарии
виктор
вилниа
вилниус
вильгельм
винограда
винсент
винц
винчи
виргиния
виргинские
висилиов
висла
виссарион
виссарионович
витали
виталии
витебск
витр
вице
вич
вк
включает
вл
владение
влади
владивосток
владимир
владимира
владимирович
владимиром
владислав
владислава
власти
власть
внешнеполитическая
внешняя
вновь
внутригородская
вны
во
водах
воина
воины
волгоградскии
володимир
волость
волошинова
волчкевич
вольфганг
воннегут
вопросам
вопросу
вопросы
воронеж
воронов
восемь
воспоминания
восток
востока
восточного
восточнои
восьмои
воуба
временник
время
все
всеволод
всегда
всеи
всенародным
встречается
вступил
втокеф
входит
выбор
выборов
выборы
вып
вячеслав
вячеславович
г
га
гаага
габодзе
габон
габонтәи
габриел
гаваии
гагарин
гагра
гагратәи
гагреи
гагрыԥшь
гагәылиа
газ
газета
гаи
гаиана
гаианатәи
гаисанов
гаити
гал
галатозҭухуцеси
галиа
галтәи
галхәыч
гамбиа
гамбург
гамбургтәи
гамгиа
гампер
ган
гана
ганахьала
ганди
гандии
ганк
ганкахьала
ганкгьы
ганктәи
ганкы
ганновер
ганс
гантиади
ганы
ганҭиади
ганҭиадтәи
гардабан
гарсиа
гарԥ
гахариа
гв
гвардия
гватемала
гвинеиа
гг
гебреиесус
гевара
генади
генеалогическии
генерал
геннади
геннадии
генри
генрихи
гент
генуеаа
генуеатәи
генуиа
географиатә
георги
георгиевич
георгии
гер
герб
гергисоб
герзмааԥҳа
герзмава
герман
германе
германиа
германиатәи
германиеи
германии
германтәыла
германтәылатәи
герхелиа
герцеговина
герцеговинатәи
герцеговинеи
гете
гжаҭск
гиа
гиви
гигант
гигиена
гилаури
гилл
гильда
гиляровскии
гимн
гиндия
гипперт
гистр
гитлер
гл
глава
главе
главная
главныи
глазго
глеб
глеизер
глеизери
глыхр
гмунден
го
говорят
гог
гогуа
гогәуа
гогәуеи
год
года
годах
годов
году
годунов
годы
голантәи
голландиантәи
голль
голод
голосовали
голосованием
гомелаури
гонглибаиӡе
гонглисбаиӡе
гондурас
гонконг
горбачев
горки
город
города
городецтәи
городов
городская
городских
городского
городскои
гос
государств
государства
государственного
государственное
государственнои
государство
государством
государя
гочуа
гр
гра
грамматик
гранд
гренада
грециа
григол
григори
григориани
григориантәи
григории
григорьевич
григорян
грин
гринпис
гродненскои
грозны
грозныи
грузии
грузинскои
грузия
групп
группа
грызлов
гу
гуанчжоу
гуатире
гублиа
гублия
гуд
гудава
гудаватәи
гулиа
гулия
гулыга
гумысҭа
гунда
гуннар
гурандухт
гурандухти
гургениӡе
густав
гхақәа
гъ
гъв
гъу
гъь
гъӏв
гыл
гылан
гылеит
гыло
гылон
гылоу
гылоуп
гыртәыла
гыцба
гь
гьаргь
гьаргьи
гьачрыԥшь
гьечрыԥшь
гьы
гьыизмо
гьыргә
гӏ
гӏв
гә
гәаанагарак
гәабзиарахьчара
гәакьа
гәакьахь
гәакьаҿ
гәар
гәараԥ
гәахәарыла
гәахәтәы
гәашьа
гәаҟрала
гәаҟрыла
гәаԥхарала
гәдаа
гәдиса
гәдоуҭа
гәдоуҭатәи
гәлиа
гәлиеи
гәма
гәмаа
гәмба
гәыкала
гәылрыԥшь
гәылрыԥшьтәи
гәылшь
гәыма
гәымсҭа
гәымсҭатәи
гәымысҭатәи
гәында
гәыргьын
гәыргәлиа
гәырџьаан
гәышьҭыхцәеи
гәыԥ
гәыԥк
гәыԥкны
гәыԥқәа
гәыԥқәаки
гәыԥҩык
гәџьыр
гәҭакыс
д
да
даанахәоит
даанхоит
даара
даараӡа
даби
даветерануп
давид
давиҭ
давыд
дагестана
дагьалгеит
дагьалгоит
дагьҭалоит
дадгылаҩын
дадепутатӡам
дадиани
дадианскую
даже
дазааҭгыло
дазааҭгылоит
дазнеит
дазҿлымҳан
дакадемикуп
дал
далаа
далагеит
далагоит
далалеит
далалоит
далан
далауреатуп
далахәуп
далахәхоит
далахәын
далацәажәоит
далаҵан
далаҵахоит
далган
далгахьан
далгеит
далгоит
даллас
далнахуеит
далоуп
далхын
далхыуп
далызхуа
далырхаанӡа
далырхуеит
далырххьан
далҵаанӡа
далҵит
далҵуеит
дамадоуп
даман
дамардеит
дамардоит
дамоуп
данагала
даналга
даналҵ
даналҵшаз
данапхгаҩуп
данапхгаҩын
данаҭаа
даниа
даниатә
даниел
дании
даниил
даннеи
данные
данным
дануп
данца
даныгьежь
данырҭагылаз
даныхынҳә
даныҟаз
даныҟала
даныԥсы
данқәыԥшыз
дара
дарароуп
дараселия
дарбан
дарбанзаалак
дарбанызаалак
дарбоуп
дарвин
даргьы
даредактор
даредакторын
дареи
дарсалиа
даруссалам
даур
даутия
дауҭ
дауҭиа
дахагылан
дахагылоуп
дахантәаҩуп
дахуд
дахцәажәеит
дахцәажәоит
дахыргоит
дахысуан
дахысуеит
дахь
дахьааиз
дахьиз
дахьынхоз
дахәаԥшуан
дацхраауеит
дашьҭан
дақәиҭны
дақәшаҳаҭхарц
дақәшаҳаҭхеит
дақәыӡбоит
даҟьа
даҭааит
даҭан
даҭахын
даҵанакуеит
даҽа
даҽазныкгьы
даҽакала
даҽакы
даҽаџьара
даҽаӡәы
даҿагылон
даҿын
даӷьсҭантәи
дбар
движение
дгыл
дгылан
дгылара
дгьыл
дгьылхҩыл
дгьылқәа
ддоцентуп
ддәықәлоит
де
дебет
дебс
дебси
деверо
девид
девиз
девис
дедоԥлис
дез
деи
деиствовала
деиствует
деитонтәи
деицырдыруа
деиҳабул
деиҳабуп
деиҳабын
дека
декабр
декабрь
декабря
дел
делба
деление
дели
дель
демерджипа
демерџь
деми
демокр
демократиа
демократиатә
демократического
демократцәа
демонстрациақәа
денис
день
департамент
департаментқәа
депутатов
депутатс
дерроу
десант
детальқәеи
деятельность
дж
джабеевич
джавахарлал
джанашвили
джапуа
джв
джексон
дженсон
джерси
джиоев
джозеф
джон
джонуа
джопуа
джота
джотович
джума
джуп
джъ
джь
дз
дзазымиааикәа
дзапшба
дзидзария
дзу
дзыкурович
дзыхшаз
дзыҟамлеит
ди
диаган
диал
диалект
диалог
диаргоит
диаспора
диаспорақәа
диасуеит
дигеит
дигоит
диграф
дигәалаиршәоит
дидгортәи
диего
диижьҭеи
диит
диман
димер
димоуп
дин
динамо
динхаҵаратә
динхаҵарақәа
диоген
диоскуриа
диоскуриада
диоскуриатәи
диплом
дипломатиа
дипломатия
директор
директорс
директорцәа
дирижиореи
дирҵон
дисциплина
диу
диуссельдорф
дихазурга
дихазургатәи
дицны
дишьҭуеит
для
дманис
дмитри
дмитрии
дналаҵаны
днаукатә
днеит
днепропетровск
днц
дныҟәеит
дныҟәон
дня
до
добрила
доил
документалтә
документқәа
дол
долгоруки
должен
должность
долл
доллар
долларк
дома
доменико
доминго
доминика
доминикантәи
доминикатәи
дональд
донецк
донецкии
донтәи
дону
доп
дорога
дороги
дортмунд
достақари
достоевски
достоевскии
достопримечательности
досу
доу
доуҳ
доуҳала
доход
дочиа
дпоетын
драбуп
дравторуп
драматә
дранда
драндантәи
драндатәи
драндеи
драндскии
драԥхьагылан
древнего
древнеи
древнем
древнии
древности
древняя
дреисбек
дреиуан
дреиуоуп
дреиуп
дреиҳабын
дрид
другие
друзья
дрыдыркылт
дрызҿлымҳан
дрызҿлымҳауп
дрылахәын
дрылгеит
дрылгоит
дрымоуп
дрыцхраауан
дрықәиҭуп
дрыԥхь
дрыԥхьон
дталгоит
ду
дуахь
дубаи
дублин
дуглас
дует
дуи
дук
дульчери
дума
думаа
дунеи
дунеихәаԥшра
дунеихәаԥшышьа
дуны
дуу
дууз
дуун
дууп
духеит
душанбе
душьеҭ
дуқуа
дуқәа
дуқәеи
дуӡӡа
дуӡӡоуп
дхагалан
дхалоит
дхынҳәит
дхынҳәуеит
дхынҳәын
дхәын
дхәыҷаахыс
дцарц
дцеит
дцоит
дцон
дцәажәеит
дцәыпҵит
дцәырҵит
дцәырҵыт
дшырҭагылаз
дшьын
дыбналаны
дызлаз
дызлацәажәоз
дызмаз
дызхагылаз
дызхагылоу
дызҭаз
дыиҵааит
дынхоит
дынхон
дырбоит
дырбон
дырг
дырга
дыргақәа
дыргоит
дыргылеит
дырдокторуп
дырзааҭгылеит
дырзаԥхьоит
дыркандидатуп
дыркандидатын
дырмит
дырр
дырра
дыррақәа
дыруаӡәкны
дыруаӡәкуп
дыруаӡәкхеит
дыруаӡәкын
дырх
дырхылҵшьҭроуп
дырхысуеит
дыршьит
дырҩы
дырҭааит
дырҭааны
дырҭаауан
дырҭбаауеит
дырҵабыргуеит
дырҵаҩын
дырҿагылан
дыхъвыцт
дычмазаҩхеит
дышдыру
дыштәаз
дышьҭын
дықәгыланы
дықәгылеит
дықәгыло
дықәгылоит
дықәгылон
дыҟ
дыҟаз
дыҟан
дыҟанаҵ
дыҟаҵан
дыҟоуп
дыҩуан
дыԥсит
дыԥсуеит
дыԥхьаӡан
дыԥхьаӡанн
дыԥхьаӡоуп
дь
дьяка
дюимов
дҟ
дҟаиҵеит
дҟаиҵоит
дҟалеит
дҟалоит
дҟамлеит
дҟарҵеит
дҟарҵоит
дҟаҵан
дҟаҵоуп
дҭ
дҭаацәароуп
дҭадырхеит
дҭалгоит
дҭалеит
дҭалоит
дҭан
дҭаркуеит
дҭахеит
дҭахоит
дҭоуп
дҳақьымуп
дҳә
дҳәалазаара
дҵа
дҵаны
дҿырԥшыг
дә
дәрыԥшь
дәрыԥшьтәи
дәы
е
еае
еар
еаш
ева
евангелие
евгени
евгеника
евгеньевич
евдокиа
евро
евроеидгыла
евроеиҿкаарақәа
европ
европа
европатә
европатәи
европатәии
европаҟа
европаҟны
европаҿы
европеи
европеитә
евтихи
египет
египеттәи
его
егриси
егрисҵҟали
егры
егь
егьа
егьи
егьырҭ
егьырҭгьы
егьышьақәнарӷәӷәоит
едвард
едгиевич
едгьы
единиц
единицу
единицы
едит
едо
едуард
ее
еи
еибашьра
еибашьраан
еибашьрак
еибашьранӡа
еибашьрақәа
еибашьраҿы
еибашьроуп
еибашьуа
еибашьуаз
еибащьраҿы
еибиен
еивон
еидгыла
еидгылоу
еидкыланы
еиднакылоит
еиду
еидуп
еидызкыло
еидыркылоит
еидыҵит
еидҳәалоуп
еидҵоу
еизакны
еизаку
еизара
еизга
еизган
еизеит
еизенхауер
еизыргоит
еизыҟазаашьақәа
еизыҟазаашьақәеи
еизҳаит
еил
еилазаара
еилазаарак
еилазаараны
еилазаарақәа
еилазаарақәеи
еилакы
еиланагоит
еилаҳаны
еилаԥсоу
еилкаам
еилкааны
еилкаара
еилкаарак
еилкаарақәа
еилкаароуп
еилкаауп
еилоу
еилоуп
еилыркаауан
еилыркаауеит
еилышәкаауеит
еимадара
еимадарақәа
еимакы
еимырҵәеит
еинштеин
еиуеипшым
еиуеиԥшым
еиуеиԥшымкәа
еиуиԥшым
еихагылак
еихшаны
еицура
еицхырааны
еицхьыԥшымра
еицынхон
еицырдыру
еицырдыруа
еицырдыруаз
еицырзеиҧшу
еицырзеиԥшны
еицырзеиԥшу
еишьҭагыланы
еиқә
еиқәа
еиқәамшын
еиқәатә
еиқәаҵәа
еиқәаҵәақәа
еиқәаҵәоу
еиқәдыршәеит
еиқәирхоит
еиқәиршәеит
еиқәханы
еиқәхеит
еиқәшаҳаҭрақәа
еиқәырхан
еиқәырханы
еиқәыршәаз
еиқәыршәара
еиқәышаҳаҭра
еиқәышаҳаҭрақәа
еиқәҵоу
еиҟарамра
еиҟараны
еиҟарара
еиҟароу
еиҟароуп
еиҟәыҭханы
еиҩшоуп
еиҩыршоит
еиҭ
еиҭа
еиҭаганы
еиҭагоуп
еиҭакрақәа
еиҭарҳауеит
еиҭах
еиҭашьақәдыргылеит
еиҭашьақәдыргылон
еиҭашьақәиргылеит
еиҭашьақәыргылан
еиҭаҳәашьа
еиҭныԥсахло
еиҳ
еиҳа
еиҳабацәа
еиҳабы
еиҳабыра
еиҳабыс
еиҳагьы
еиҳан
еиҳаны
еиҳарак
еиҳаракгьы
еиҳараҩык
еиҳараӡак
еиҳау
еиҳауп
еиҳахеит
еиҳаӡоу
еиҵбыс
еиҵыху
еиҵыхуп
еиҿагыло
еиҿагылоз
еиҿик
еиҿикааит
еиҿикаауеит
еиҿкааз
еиҿкаан
еиҿкаара
еиҿкаарак
еиҿкаарала
еиҿкаараны
еиҿкаарақәа
еиҿкаарақәеи
еиҿкаареи
еиҿкаароуп
еиҿкаау
еиҿкаауп
еиҿкаашьа
еиҿнакааз
еиҿыркаар
еиҿыркаауан
еиҿыркаауеит
еиӷьны
еиԥш
еиԥшны
еиԥшу
еиԥшыз
еиԥшым
еиԥшымзаара
еиԥшымкәа
еиԥшӡам
еиԥылароуп
екатерина
екатеринбург
екваториалтә
екклесиа
економик
економика
економикатә
економикатәи
економикеи
елвис
елементқәа
елена
елеонореи
елиа
елизавета
елцин
елчини
елыр
елыртәи
ель
ельзас
ельцин
ельчина
еме
емиграциа
емир
емиратқәа
енвер
енд
енергиа
енциклопедиа
енштеин
еныкь
еп
епископцә
епос
ерасҭа
ереван
еревана
еревантәи
ерик
ерикссон
еритреиа
ерландер
ермантәыла
ермантәылатәи
ерманқыҭ
ермоловка
ернесто
ертра
ес
есааира
есватини
еснагь
еснагьтәи
есперанто
естониа
есть
есымчыбжьа
есымша
есышықәса
есышықәсатәи
есыҽны
есҽны
есҽнытәи
етап
етикатә
етникатә
етностә
еугьан
ефиопиа
ефрем
ефрона
ешба
ешбеи
ешыра
ешыратәи
еще
еҧш
еҵәа
ж
жан
жанеиро
жанна
жанр
жв
жваниа
жд
же
железная
железные
женева
женеватәи
жизни
жизнь
жоан
жозеф
жомарт
жоржи
жофру
жуанисӡе
журнал
журналист
журналистикатә
жъ
жъу
жь
жьаратәи
жьырныҳәамза
жьҭ
жьҭаара
жьҭаарамза
жьҭаарамзазы
жә
жәа
жәаа
жәаба
жәабанызқь
жәабжьқәа
жәабра
жәабран
жәабранмза
жәабранмзазы
жәабранымза
жәамш
жәандрыԥшь
жәар
жәаф
жәаха
жәашықәса
жәашықәсала
жәаҩа
жәаҳәарада
жәба
жәе
жәеиза
жәеинраала
жәеинраалак
жәеинраалақәаки
жәи
жәибжь
жәиԥшь
жәл
жәла
жәлар
жәларб
жәларбжьаратә
жәларбжьаратәи
жәларбжьаратәии
жәларзегьтәи
жәлари
жәларуп
жәлары
жәларык
жәларқәа
жәо
жәохә
жәпакы
жәшәи
жәшәы
жәыл
жәыргьыҭ
жәытә
жәытән
з
за
заа
заабетовна
заабеҭ
заагарҭа
заанаҵтәи
заатәи
завершен
завершена
завершено
зависимая
завод
зага
загреб
заимствованная
заира
заицев
заклеименные
закон
закона
закрыт
закрыта
закәан
закәандарала
закәанла
закәанқәа
зал
залкалиани
залшом
залымдарыла
зальцбург
замбиа
замечательных
замок
заморская
заморскии
заморское
занааҭла
зантария
занҭариа
западнои
записки
запланировано
заруцкии
затем
затулин
зауа
зауад
зауз
заур
захариеви
захарьева
захьӡу
захьӡыз
заҟароу
заҵәык
збеит
згаз
згә
згәаҭа
згәы
зда
здесь
здызкылаз
здыруа
здырҵо
зе
зегани
зегь
зегьеицырзеиԥшу
зегьи
зегьы
зеижә
зеиӷьыҟам
зеиԥш
зеиԥшзаара
зеиԥшроу
зеиԥшыз
зеиԥшыҟ
зекологиа
зеландиа
зеландиеи
зеленски
зеленськии
зеленського
земли
землю
земля
земским
земское
зесҭаԥон
зехьынџьара
ззиуаз
ззырхаз
ззырхоу
ззырҳәо
ззырҳәоз
зигани
зимбабве
зин
зиндекс
зини
зинмчы
зинтә
зинқәа
зиу
зиҭоз
зку
злагала
злаз
злахәу
злахәыз
злоу
зм
змаз
змам
змамыз
змоу
змоугьы
знапаҵаҟа
знапы
знеишьа
знеишьак
знеишьақәа
зну
зны
зныз
знык
зныкгьы
знырҵо
знысыз
зоиа
золотинск
золотинска
золотинсковна
зосим
зрылшомызт
зтәи
зтәу
зуа
зуаз
зур
зураб
зурабишьвили
зхала
зхатәы
зхаҭабзиара
зхаҭара
зхаҵарак
зхаҵо
зху
зхы
зхыз
зхызгоз
зхылҵыз
зхыршәаауа
зхыу
зхыҵуа
зхыҵуаз
зхыҵыз
зхьыԥшу
зцу
зцыз
зцәа
зш
зшәу
зы
зыбжьоу
зыбзоуроу
зыгәра
зыда
зыдҳәалоу
зызу
зылшаз
зылшо
зылшоз
зымҽхак
зынагӡара
зындырратә
зынла
зынлагьы
зынӡа
зынӡагьы
зынӡак
зыргылаз
зыршаҳаҭуа
зырҭо
зых
зыхиақәиҭу
зыхшыҩ
зыхьӡ
зыхьӡырҵаз
зыхҟьаз
зыхҟьо
зыхәба
зыхәны
зықьҩыла
зықәрахь
зыҩаӡара
зыӡбахә
зыӡбахәы
зыԥсахуа
зыԥсы
зыԥхьаӡо
зыԥшра
зқьы
зқьыла
зқьышықәсала
зқәу
зқәыз
зқәым
зҩыз
зҭаху
зҭахыз
зҭоу
зҭыԥ
зҳәо
зҳәоз
зҵ
зҵаарақәа
зҵазкуа
зҵакы
зҵаҩыз
зҵо
зҵоз
зҵоу
зҽалызкааз
зҽаԥсазтәыз
зҿало
зәандрыԥшь
и
иа
иааганы
иаагап
иаагозар
иаагоу
иаагоуп
иаагәоуҭаратәы
иаадыруа
иаадырԥшит
иааз
иаазгада
иаазыркьаҿны
иаазыркьаҿу
иааиз
иааизакны
иааикәыршаны
иааира
иааирԥшуеит
иааит
иааиуа
иааиԥмырҟьаӡакәа
иаакәыршаны
иаалырҟьан
иаалырҟьаны
иаамҭаз
иаан
иаанагеит
иаанаго
иаанагоз
иаанагоит
иаанагом
иаанагон
иаанарԥшит
иаанарԥшуеит
иаанкылан
иаанхаз
иаанханы
иаанхеит
иаанхоит
иааныркылеит
иааныркыло
иааргаз
иааргеит
иааргоит
иааркьаҿны
иаарласны
иаартны
иаарту
иаарылукаартә
иаарылукааша
иаарҭнысхыз
иаарԥшу
иаарԥшуп
иаарԥшыз
иаарԥшын
иаауеит
иаахҵәаны
иаацәырыиган
иааҳакәыршаны
иаб
иабадырра
иабантәааргеи
иабду
иабжьгаҩ
иабжьгаҩыс
иабзоураны
иабоит
иабшьҭра
иаван
иавоуп
иага
иагеит
иаго
иагхом
иагьа
иагьиҳәоит
иагьхыркәшан
иагьыҟалеит
иагәылоу
иагәылоуп
иагәылсуеит
иадгылаз
иадгылоз
иадгылоит
иадгылон
иадгылоу
иадертә
иаднакылаз
иаднакылеит
иаднакыло
иаднакылоит
иадуп
иадырхәар
иадырхәарц
иадырхәеит
иадырхәо
иадырхәоит
иадырхәон
иадырҳәалоит
иадырҵо
иадҳәалаз
иадҳәаланы
иадҳәалоу
иадҳәалоуп
иадҵан
иажәа
иажәабжь
иажәалагалала
иажәахә
иажәақәа
иажәеинраала
иажәеинраалақәа
иажәеинраалоу
иажәхьоу
иажәылеит
иазааиуеит
иазгәалҭон
иазгәарҭоит
иазгәарҭон
иазгәаҭан
иазгәаҭатәу
иазгәаҭатәуп
иазгәаҭоуп
иазгәеиҭеит
иазгәеиҭоит
иазгәеиҭон
иазкны
иазку
иазкуп
иазкыз
иазкын
иазнеиуеит
иазхаҵам
иазхаҵан
иазхаҵоу
иазырхаз
иазырхоу
иазыӡырҩуеит
иазыԥшын
иазҳауеит
иазҿлымҳау
иазҿлымҳауп
иазԥхьагәаҭаны
иазԥхьагәаҭоу
иаиои
иаиоуит
иаирхәеит
иаирхәоит
иаиуз
иаиуит
иакны
иакоб
иакобсони
иаков
иаку
иакуб
иакымкәа
иакәзар
иакәны
иакәын
иалагалаз
иалагалан
иалагар
иалагеит
иалагоит
иалагӡан
иалагӡаны
иалаз
иалалаз
иалалеит
иалалоз
иалан
иаланхо
иаланхоз
иалахаз
иалахәу
иалахәуп
иалахәыз
иалахәызи
иалахәын
иалаҵамызт
иалаҵан
иалаҵаны
иалгар
иалеигалоит
иалиршоит
иалкааз
иалкаан
иалкааны
иалкаатәу
иалкаатәуп
иалкаау
иалкаауп
иалкаақәоу
иалнаршеит
иалнаршоит
иалнаршом
иалнахуеит
иалоу
иалоуп
иалсны
иалукааша
иалхны
иалхра
иалхразы
иалхрақәа
иалхраҿ
иалху
иалхуп
иалхыз
иалхын
иалшеит
иалшоит
иалыркаауеит
иалырхуа
иалырхуеит
иалыхраан
иалҵит
иалҵуеит
иалҵшәаны
иалҵшәахеит
иалҵыз
иама
иамаз
иамаика
иамам
иаман
иаманы
иамоу
иамоугьы
иамоуп
иан
ианаамҭоу
ианадырхәо
ианалага
ианалала
ианалалаз
ианалацәажәо
ианашьан
ианашьахоит
ианашьоуп
ианақәла
ианаҭоит
ианва
ианвар
иани
ианиҵеит
ианиҵон
ианкәа
ианрабашьуаз
иану
ианубаалоит
иануп
ианшәлакь
ианыруеит
ианырҵаз
ианырҵоит
ианыҟаз
ианыҟала
ианыԥшуа
ианыԥшуеит
ианҳәоу
ианҵаа
ианҵаны
ианҵоуп
иап
иапониа
иапониатәи
иапониахь
иапониаҿы
иапонтә
иара
иаразнак
иарбам
иарбан
иарбанзаалак
иарбанызаалак
иарбоу
иарбоуп
иаргьы
иареи
иарополк
иарослав
иархәаны
иарҭеит
иарҳәоит
иаса
иасимволхеит
иасит
иасон
иасыф
иатәу
иатәыз
иатәын
иауакуп
иауит
иауп
иаха
иахагылаз
иахашәыршәыруан
иахыган
иахылҿиааит
иахылҿиаауеит
иахырҟьаны
иахыҵны
иахь
иахьа
иахьагьы
иахьазы
иахьалало
иахьану
иахьаныԥшуа
иахьанӡа
иахьанӡагьы
иахьатәи
иахьашьҭоу
иахьаҵанакуа
иахьаҵанакуаз
иахьрыдыркылаз
иахьуԥыло
иахьынхо
иахьынӡауа
иахьыҟаз
иахьыҟоу
иахьыԥшымкәа
иахьӡуп
иахҟьаны
иахҟьеит
иахәаԥшуа
иахәаԥшуеит
иахәҭакны
иахәҭакуп
иахәҭоу
иацаԥхоуп
иациҵоит
иацлеит
иацлоит
иацхраауеит
иацыз
иацымлозар
иацәыхарамкәа
иацәыхараны
иаша
иашара
иашареи
иашақәа
иашаҵәҟьаны
иашвили
иашоуп
иашьа
иашьагәыҭу
иашьашәаланы
иашьашәалоу
иашьклаҧшуеит
иашьцәа
иашьҭан
иашьҭоуп
иашҭхәа
иашәақәа
иақәиҭнатәуеит
иақәиҭны
иақәиҭтәын
иақәиҭу
иақәиҭуп
иақәиҭыз
иақәшаҳаҭхеит
иақәшәо
иаҟароу
иаҟәыҵит
иаҩызан
иаҭааит
иаҭаны
иаҭаху
иаҭахуп
иаҭәашьоуп
иаҳа
иаҳаит
иаҳасаб
иаҳасабала
иаҳасабла
иаҳаҭыр
иаҳнарбоит
иаҳра
иаҳҭнықалақьуп
иаҳҭнықалақьыуп
иаҳҳәап
иаҳҳәозар
иаҳәоит
иаҳәшьа
иаҳԥыло
иаҵакырадгьылны
иаҵанакит
иаҵанакуа
иаҵанакуаз
иаҵанакуан
иаҵанакуеит
иаҵанакыз
иаҵанакыр
иаҵанакәа
иаҵанакәаз
иаҵанакәан
иаҵанакәеит
иаҵанамкуаз
иаҵахеит
иаҵоит
иаҵоиҭ
иаҵоу
иаҵәа
иаҵәақәа
иаҵәоуп
иаҽын
иаҿагылаз
иаҿагыланы
иаҿагылоз
иаҿагылоит
иаҿагылон
иаҿагылоу
иаҿу
иаҿын
иаҿырԥшны
иаӡбоит
иаԥиҵаз
иаԥиҵеит
иаԥсамыз
иаԥсоу
иаԥу
иаԥхьаӡеит
иаԥшьгарала
иаԥырҵаз
иаԥырҵеит
иаԥҵаз
иаԥҵамҭа
иаԥҵан
иаԥҵахаз
иаԥҵоу
иаԥҵоуп
иб
ибаз
ибар
ибаҟа
ибаҩхатәра
ибеиан
ибеиоу
ибеит
иберииско
ибжьагаҩ
ибжьанакыз
ибжьаратәу
ибзи
ибзиан
ибзианы
ибзиоуп
ибзоурала
ибзоураны
иблит
ибн
ибо
ибоит
ибон
ибрагим
ибрагимович
ибыбыцыркхауеит
ив
иван
иванов
иванович
ивановна
ивери
ивериатәи
ивизит
ивонна
иврит
ивуар
иг
иганахь
иганы
игаҟны
игеит
игерб
иглобалтәу
игнароква
игоит
игор
игорь
игоу
игроки
игры
игуаҭоуп
игылаз
игылан
игылоит
игылоу
игылоуп
игьежьыз
игә
игәаанагара
игәаанагарала
игәабзиара
игәалаиршәоит
игәаларшәара
игәалашәара
игәалашәом
игәамбзиара
игәаҟра
игәаԥхон
игәы
идагьы
идараб
идача
идбалан
идгылара
идгьыл
идеи
идеиақәа
идели
идемократиатәым
идеологиа
идеологиак
идеологианы
идеологиатә
идея
идикылар
идикылеит
идикылоит
идикылон
идиплом
иднаҵоит
идузар
идунеи
идунеихәаԥшышьа
идуу
идуум
идуумыз
идууп
идууӡоу
идуӡӡоу
идыргылаз
идыргылоз
идыргәаҟуаз
идырр
идыррақәа
идыру
идыруан
идыруеит
идыруп
идырхиоит
идырцәажәахьан
идырым
идырҳаз
идысл
идҵа
идҵала
идҵан
идҵаны
идәықәҵан
иеиднакыло
иеиду
иеиуеиԥшым
иеицырдыруа
иеиқәа
иеиқәиршәаз
иеиҭагамҭоуп
иеиҭамҵуа
иеиҭаргеит
иеиҭеигеит
иеиҭоит
иеиҳа
иеиҳабыра
иеиҳәеит
иеиҵыху
иеиҿкааз
иеиҿкаау
иеиԥш
иеиԥшуп
иемен
иерус
иерусалим
иерусалимтәи
ижә
ижәлар
ижәытәӡатәиу
ижәытәӡоу
из
иза
изаамҭанымкәа
изаанаҭ
изакәаным
изанааҭ
изацәцомызт
изб
избан
избанзар
избо
избоит
избран
изго
изд
издание
издательство
издызкыло
издыруа
изеиԥшразаалак
изиаслав
изин
изинмчхарақәа
изинқәа
изинқәеи
изку
излаз
излаигәалаиршәо
изларбоз
изларыԥхьаӡо
изларҳәо
излашьақәдырӷәӷәо
измаз
измаилович
измо
измоу
изначально
изну
изныктәиу
изныкымкә
изныкымкәа
изныҟәоит
израиль
израильтәи
израильҟа
изхылҵыз
изхәаԥшуа
изхәаԥшырц
изцәырҵон
изы
изызкыз
изызҳауа
изыхҟьаз
изышьҭаз
изышьҭоу
изықәгәыӷуаз
изықәныҟәаша
изыҟалом
изыԥхьаӡоз
изьӡ
изҳауан
изҵысит
ииаган
ииаргоит
ииасит
ииасуеит
ииасхьоу
ииасыр
ииашам
ииашами
ииашамкәа
ииашаны
ииашаӡам
ииашоу
ииашоуи
ииашоуп
ииаҵәоу
иибаз
иибоз
иигаз
ииз
иикьыԥхьыз
иимпериа
иира
ииргылара
иисус
ииуа
ииуеит
ииун
ииҩыз
ииҭаз
ииҭаху
ииҳәоз
икалеит
икандидатура
икариера
икит
икодекс
икомета
икылкааны
икылнагеит
икьакьоуп
икьасоу
икьыԥхьит
икьыԥхьны
икьыԥхьу
икьыԥхьуеит
икьыԥхьын
ил
ила
илагала
илаз
илалҳәеит
илан
иланашьан
иланкаи
иласҳәози
илахь
илаҟәит
илаҟәу
илаҟәӡоу
илаԥш
или
илиа
илитературатә
илоу
илшеит
илшоит
илшон
илымаз
илымшар
ильич
ильхам
ильхама
ильшат
им
имаз
имазароуп
имам
имамызт
иман
иманы
имариам
имариамызт
имаҵзура
имаҵура
имаҵурахьы
имаҷу
имаҷуп
имаҷым
имаҷымқәа
имаҷҩуп
имаҷҩым
имгакәа
имеет
имени
именуется
имереҭи
имеющих
имлагоз
имлагоит
имлашьуа
иммануил
имоуп
императоров
империа
империи
имперские
импыҵахалоу
имхын
имчала
имчра
имчхарақәа
имшныҳә
имшьҭра
имя
имҩа
имҩаҧнагоит
имҩаԥгаз
имҩаԥган
имҩаԥигаз
имҩаԥигоз
имҩаԥигон
имҩаԥнагоз
имҩаԥнагоит
имҩаԥнагон
имҩаԥыргеит
имҩаԥырго
имҩаԥыргоз
имҩаԥыргоит
имҩаԥыргон
имҩаԥысит
имҩаԥысуа
имҩаԥысуаз
имҩаԥысуан
имҩаԥысуеит
имҩаԥысыз
имӷьац
ин
ина
инаау
инаваргыланы
инадыркны
иназыцҵоу
инаигӡон
инал
иналагӡаны
иналаҵан
иналаҵаны
иналукааша
инамаданы
инамыси
инанагӡоит
инапаҟны
инапаҵаҟа
инапаҿы
инапхгарала
инапы
инапынҵақәа
инареиҳаны
инарзынаԥшуа
инаркны
инаркы
инарываргыланы
инарыгӡоит
инарықәыршәаны
инарҭбааз
инарҭбааны
инарҭбаау
инарҵауланы
инаскьагараҿ
инаукатә
инахырҟьаны
инашьҭарххан
инашьҭымҭақәа
инашьҭын
инақәршәан
инақәыршәаны
инаҭаз
инаҵшьны
инаҷыданы
инаӡеит
инаӡоит
инаӡон
инаԥхгарала
инвентар
инвестициатә
ингвар
инге
ингәыштәыла
индиа
индиаа
индиазегьтәи
индиана
индиатәи
индиаҟа
индиаҟны
индиеи
индии
индиктион
индира
индо
индоевропатәи
индонезиа
инеигоит
инеизакны
инеит
инеиуеит
инеиԥынкылан
инеиԥынкыланы
инк
инна
иностраннои
инрықәыршәаны
инсбрук
институт
институтк
институтқәа
инструмент
инструментализми
интервентов
интервью
интерес
интересқәа
интернат
интернет
информ
информациа
информациатә
информациеи
информация
инхаз
инханы
инхарҭа
инхо
инхоз
инхоит
инхон
ины
иныхачаԥа
инышәынҭреи
инықәырԥшны
инықәырԥшшәа
иныҟәырго
иныҳә
инџьныр
инҵәеит
иоан
иоанн
иоганн
ион
иорданиа
иорден
иорк
иоркшир
иосиф
иосифович
иост
иоуеит
иоуз
иоуит
иоуп
иоуранагӡара
иофициалтә
ипа
ипаспорт
ипиесақәа
ипоезиатә
ипоем
иполитикатә
ипремиа
ипрозатә
ипрофессионалтәу
ипсҭазаара
ир
ира
ирабашьуаз
ирак
иракли
иран
иранашьоуп
ирантәи
ирацәаны
ирацәоуп
ираҳауа
ирбган
ирбгон
ирбеит
ирбо
ирбоит
иргылан
иргыланы
иргылеит
иргылоуп
иргәылоуп
ирдуны
ирдыруа
ирдыруеит
иреволиуциатә
ирежим
иреи
иреиоуп
иреиуан
иреиуахеит
иреиуоу
иреиуоуп
иреиуп
иреиҳаз
иреиҳазоу
иреиҳаны
иреиҳау
иреиҳауп
иреиҳаӡоу
иреиҳәеит
иреиҵамкәа
иреиҵоу
иреиӷьу
иреиӷьыз
иреиӷьӡоу
иреиԥшуп
иреӷьу
ирзеиԥшу
ирзеиԥшыз
ирзырхаз
ирзырхоу
ири
ирибжьаз
ирина
ириҭоит
ирл
ирландиа
ирландиатәи
ирлас
ирласны
ирну
ирнуп
ирныԥшуеит
ирод
иродович
ироман
ироманқәа
ироуа
ироуаз
ироуит
ироуроуп
иртәу
иртәыз
иртәым
ируа
ируакуп
ируакхеит
ируаӡәкыз
ирубақиӡе
ирхароуп
ирхылҵуеит
ирхыԥхьаӡалоуп
ирхьырԥшны
ирхьыԥшуп
ирыбжьаз
ирыбжьоу
ирыбзоураны
ирываҵан
ирыдгаланы
ирыдгылоз
ирыдгылоит
ирыдкылан
ирыднагало
ирыдуп
ирыдыз
ирыдыркылаз
ирыдыркылеит
ирыдҳәалаз
ирыдҳәаланы
ирыдҳәалоу
ирыдҳәалоуп
ирызкны
ирызку
ирызкуп
ирызкыз
ирызҳауеит
ирыл
ирылагеит
ирылагӡаны
ирыладырҵәоит
ирылазмырҩашьо
ирыланаҳәеит
ирыланаҳәоит
ирылахәуп
ирылахәыз
ирылацәажәоит
ирылаҳәан
ирылаԥсоуп
ирылеиҳәеит
ирылеиҳәоит
ирылоу
ирылоуп
ирылхны
ирылхуп
ирылшеит
ирылшоит
ирылҵшәаны
ирылҵшәахеит
ирылҵыз
ирымаз
ирыман
ирымаӡам
ирымоу
ирымоуп
ирымпыҵархалаз
ирымуоп
ирыстон
ирыхьчоит
ирыхҟьаны
ирыхҳәаау
ирыхәаҧшуеит
ирыхәо
ирыцхәыркуп
ирыцқьаны
ирышьҭан
ирышьҭоуп
ирықәгылоуп
ирықәныҟәалатәуп
ирықәшаҳаҭхоит
ирықәшәо
ирықәшәоит
ирықәшәон
ирыҭаны
ирыҵанакуа
ирыҵанакуеит
ирыҵанакәа
ирыҵанакәеит
ирыҵаркуа
ирыҵаркуеит
ирыӡбеит
ирыӡбоит
ирыԥсадгьылуп
ирыԥсҭазаашьоу
ирыԥхьаӡоит
ирыԥхьаӡон
ирҭагӡаны
ирҭаз
ирҭалоит
ирҭаху
ирҭахы
ирҭахым
ирҭахын
ирҭеит
ирҭоит
ирҭоу
ирҭыҵуеит
ирҳаит
ирҳәо
ирҳәоит
ирҵаҩы
ирҽеин
ирҿ
ирҿагылаз
ирҿагыланы
ирҿагыло
ирҿагылоз
ирҿагылоит
ирҿагылоу
ирҿиаратә
ирҿыцны
ирԥшӡоуп
ис
исаев
исаит
исакович
исахьа
исахьақәа
искандер
искусство
ислаамии
исламабад
исламтәи
исландиа
исоциал
испаниа
испаниатәи
исполнительныи
использовались
используется
исследование
исследовании
истатус
истории
историческая
история
исылсыршаз
исыман
ит
италиа
италиаа
италиатә
италиатәи
итеориа
ититул
итоги
итрадициатәу
итрактат
итранспорт
итьопьа
итәы
итәылаҿ
иу
иуа
иуаажәларратә
иуааԥсыроуп
иуадаҩу
иуадаҩуп
иуадаҩхеит
иуадаҩыз
иуалуп
иуан
иуане
иуасиаҭ
иуахәама
иуацәеи
иуб
иубаратәы
иубарҭоуп
иубоит
иугославиа
иугославиазы
иугославиатәи
иудаизм
иудофобиа
иуеит
иузаагом
иузаҟәымҭхо
иули
иулиани
иулиантәи
иумбарц
иунаитед
иунеско
иунисеф
иури
иурии
иус
иусбарҭа
иусумҭа
иусумҭақәа
иусумҭеи
иусура
иусқәа
иусԥҟа
иухан
иуџьин
иуҳәозар
иуԥыло
иуԥылоит
иуԥылом
иуԥымло
ифырх
их
ихаан
ихадаз
ихадараз
ихадаран
ихадароу
ихадоу
ихадоуп
ихазы
ихала
ихалхно
ихарҭәаам
ихарҭәаау
ихатә
ихатәы
ихахьы
ихақәиҭрақәеи
ихаҭа
ихаҭагьы
ихаҭара
ихаҭарнак
ихаҭыҧуааи
ихаҭыҧуаҩ
ихаҭыҧуаҩгьы
ихаҭыԥуаҩ
ихаҭыԥуаҩс
ихаҭыԥуаҩыс
ихаҭәаам
ихаҿсахьа
ихи
ихигеит
ихиркәшеит
ихиркәшоит
ихкаан
ихс
ихсаалаҿы
ихшыҩ
ихшәоу
ихы
ихыбуп
ихыл
ихымҩаԥгашьа
ихымԥадатәу
ихырбгалан
ихыу
ихьз
ихьчеит
ихьчоуп
ихьшәаны
ихьысҳан
ихьысҳау
ихьыҧшым
ихьыӡ
ихьыԥшу
ихьыԥшым
ихьыԥшымыз
ихьӡ
ихьӡала
ихьӡоуп
ихьӡын
ихҟьан
ихҟьаны
ихҩаалоуп
ихҩоу
ихҵан
ихәарҭоу
ихәыцит
ихәыҷра
ица
ицаз
ицеит
ицнагаҩ
ицо
ицоз
ицоит
ицон
ицхырааҩ
ицхырааҩыс
ицыз
ицҳаражәҳәаҩцәа
ицәажәо
ицәажәоз
ицәажәоит
ицәгьахоит
ицәу
ицәырган
ицәырҵит
ицәырҵуа
ицәырҵуаз
ицәырҵуеит
ицәырҵыз
ичаԥоу
ичо
ичыдоу
ичымазара
ичын
иш
ишазгәарҭо
ишазгәаҭоу
ишазгәеиҭаз
ишалагазгьы
ишамоу
ишаны
ишаныруа
ишаныҵәҟьоу
ишараҟны
ишахәҭаз
ишахәҭоу
ишаҳәо
ишаҿу
ишаӡоу
ишаԥу
ишдыру
ишеибгоу
ишеиҿартәу
ишиашоу
ишимбаи
ишкә
ишкәакәоу
ишнагаз
ишоит
ишоуп
ишреиҳәаз
ишубарҭоу
ишцаз
ишызгәеиҭо
ишырыԥхьаӡо
ишырҭаху
ишырҳәо
ишышьақәгылаз
ишықәнаргылаз
ишыҟаз
ишыҟазаалак
ишыҟоу
ишыҟоугьы
ишь
ишьагәыҭу
ишьапы
ишьақәгылаз
ишьақәгылан
ишьақәгылахьаз
ишьақәгылеит
ишьақәгыло
ишьақәгылоз
ишьақәгылоит
ишьақәгылоу
ишьақәгылоуп
ишьақәдыргылоит
ишьақәдырӷәӷәоит
ишьақәдырӷәӷәон
ишьақәиргылоит
ишьақәирӷәӷәоит
ишьақәнаргылеит
ишьақәнаргылоит
ишьақәнарӷәӷәеит
ишьақәнарӷәӷәоит
ишьақәыргылаз
ишьақәыргылан
ишьақәыргылоу
ишьақәырӷәӷәан
ишьақәырӷәӷәоу
ишьаҭаркын
ишьаҿақәа
ишьра
ишьразы
ишьуеит
ишьыхуп
ишьҭан
ишьҭоу
ишьҭоуп
ишьҭыхуп
ишҟа
ишәарҭам
ишәыз
ишәҟәы
июль
июля
июнь
июня
иџьабаа
иџьабааҧса
иџьашьатәӡам
иџьбараз
иџьбароу
иџьшь
иқалақь
иқыҭа
иқыҭаҿтәи
иқьырси
иқәгылаз
иқәгылара
иқәгыларақәа
иқәгылараҿ
иқәгылараҿы
иқәгылеит
иқәгыло
иқәгылон
иқәгылоу
иқәгылоуп
иқәдыргылахьеит
иқәиргылеит
иқәиргыло
иқәнагалаз
иқәнаргылеит
иқәу
иқәынхо
иқәынхоз
иқәынхоит
иқәыргылоу
иқәырҵоит
иқәҵаны
иқәҵны
иқәҿиарақәа
иқәԥо
иқәԥоит
иҟ
иҟаз
иҟазаара
иҟазар
иҟазара
иҟазаргьы
иҟазароуп
иҟазарц
иҟазшьа
иҟазшьарбагоу
иҟаиҵаз
иҟаиҵеит
иҟаиҵоит
иҟалаз
иҟалалоит
иҟалап
иҟалар
иҟалараны
иҟаларц
иҟалеит
иҟало
иҟалоз
иҟалоит
иҟалон
иҟам
иҟамызт
иҟан
иҟанаҵаз
иҟанаҵеит
иҟанаҵы
иҟарҵаз
иҟарҵеит
иҟарҵо
иҟарҵоз
иҟарҵон
иҟаҵаз
иҟаҵан
иҟаҵаны
иҟаҵатәу
иҟаҵоу
иҟаҵоуп
иҟаӡам
иҟаԥшьыхәхәароу
иҟны
иҟои
иҟоу
иҟоуи
иҟоуп
иҟынтәи
иҟәазу
иҧсҭазаара
иҧҳәыс
иҩаӡара
иҩбамкәа
иҩбахаз
иҩеит
иҩит
иҩмҭақәа
иҩналоит
иҩны
иҩу
иҩуан
иҩуеит
иҩуп
иҩыз
иҩыза
иҩызцәа
иҩызцәеи
иҩымҭа
иҩымҭақуа
иҩымҭақәа
иҩычан
иҩычоу
иҩычоуп
иҭ
иҭаауеит
иҭаацәа
иҭаацәаратә
иҭаацәараҿ
иҭаацәараҿы
иҭаацәеи
иҭагылазаашьа
иҭаз
иҭакыз
иҭакыу
иҭалоит
иҭанаҩит
иҭахаз
иҭахеит
иҭахуп
иҭахын
иҭаԥҟаны
иҭбаау
иҭбаауп
иҭижьит
иҭижьуеит
иҭижьыз
иҭиуеит
иҭиҵаауан
иҭоу
иҭоуп
иҭоурыхтә
иҭрыжьуа
иҭшәоу
иҭыжьыз
иҭыжьын
иҭынхаз
иҭырҭәааны
иҭырҵаауа
иҭыху
иҭышәынтәалоу
иҭыҵит
иҭыҵны
иҭыҵуаз
иҭыҵуеит
иҭыҵыз
иҭыԥ
иҭыԥгьы
иҭҵааны
иҭҵаарадырратә
иҭҵааратә
иҳ
иҳараку
иҳаҭыԥуаҩыс
иҳәаақәҵазароуп
иҳәан
иҳәатәуп
иҳәеит
иҳәоит
иҳәон
иҳәынҭқ
иҳәынҭқарратәым
иҵ
иҵакырадгьыл
иҵара
иҵарны
иҵаулоу
иҵаҩцәа
иҵегь
иҵегьы
иҵеит
иҵоит
иҵон
иҵхоз
иҷкәын
иҷыдоу
иҽазишәеит
иҽрылаирхәуам
иҽыжәу
иҿагыланы
иҿагыло
иҿало
иҿаҧхьа
иҿаҵала
иҿаҵара
иҿаԥхьа
иҿеиҵаз
иҿиаауп
иҿио
иҿиоит
иҿиоу
иҿы
иҿыхаз
иҿыцу
иҿыцӡоу
иҿҳәара
иӡб
иӡбан
иӡбахә
иӡбахәы
иӡбеит
иӡбоит
иӡбоу
иӡит
иӷару
иӷарыз
иӷарӡаз
иӷәӷәаз
иӷәӷәаны
иӷәӷәахон
иӷәӷәоу
иӷәӷәоуп
иԥ
иԥа
иԥаа
иԥацәа
иԥеи
иԥеиҳаб
иԥсабаратәу
иԥсабаратәым
иԥсадгьыл
иԥсахит
иԥсахын
иԥсаҟьаны
иԥсра
иԥсуан
иԥсы
иԥсыбаҩ
иԥсыз
иԥсҭазаара
иԥсҭазаараҿ
иԥха
иԥхьатәара
иԥхьаӡан
иԥхьаӡоит
иԥхьаӡон
иԥхьаӡоу
иԥхьаӡоуп
иԥхьоит
иԥшаан
иԥшьгарала
иԥшьоу
иԥшқоу
иԥшәма
иԥшәмаԥҳәыс
иԥылеит
иԥҳа
иԥҳәыс
иԥҳәыси
иԥҵ
к
ка
кабельного
кабельных
кабо
кабус
кабцу
кавказ
кавказа
кавказаа
кавказе
кавкази
кавказские
кавказскии
кавказского
кавказтәи
каддафи
казан
каи
каидаҟ
каикос
каир
как
какалиа
какалия
какара
какур
калгари
калдахәара
калита
каман
камантәи
камбоџьа
камерун
камшьышь
камшәо
камыгә
канада
канадатәи
канадеи
кандидатом
кандидатс
кандидатура
кант
капба
капитанс
капская
каракас
каракаса
караманович
карибтәи
карл
карлсруе
карман
касландзия
касланӡиа
касп
касумович
касым
каталониа
каталониатә
катар
категориа
категориагьы
категории
катовице
католикатә
кафка
кафки
кахеҭи
кациа
качество
кашмир
каԥшь
кв
кванджу
кварацхелия
квартира
кварчия
кверенбург
квициниа
квициния
кеиптаун
кекелиӡе
келашәырынтә
кембриџь
кембриџьтәи
кемел
кениа
кецба
ки
киазим
киев
киевскии
киевтәи
килограмм
километр
километрак
кипр
кипра
кириллтәи
киршалович
китаем
китаи
китаиаа
китаискои
китаитәи
китакюсю
киут
кишинев
кк
ккъӏ
ккъӏв
классикқәа
класск
кливленд
клинтон
клуб
клубқәа
клушыно
клэн
км
кн
книг
книга
кнр
кнут
кнутссон
кны
князеи
князь
князя
кобахьиа
кобэ
когда
когониа
кодекс
кодексқәа
кожа
кокович
кокоиты
кокосовые
коку
колесников
колея
количество
колл
коллеџь
коломбе
колумбиа
команда
коми
комиссариат
комиссиа
комитет
комортәи
компаниа
комплекс
комплексқәа
композитор
композитори
композиторк
конго
конготәи
конгресс
конец
конка
конная
коннои
конныи
конотоп
конс
консепсион
константин
константинович
константиновна
констанца
конституциатә
конституции
конституция
конструкциа
контингент
контози
контракторс
конференциаҿы
конференция
конфликт
конфликтқәа
концепциа
концепциак
концерт
копелев
копенгаген
кор
кораи
кордова
кореи
кореиа
кореиаа
кореиатәи
коринф
кормье
корнеи
корнели
коронная
корпор
коррупциа
корсика
косово
косовотәи
коста
костырченко
кот
которыи
котош
кочи
коӷониа
кпк
краи
краков
краснодар
красноиарск
краткии
кредит
кремле
кривои
кризис
крим
кристиан
кристина
кристофер
критика
критикала
кроме
кросс
круглиак
кружок
крызҵазкәа
ктитортәи
ку
куала
куба
кубатәи
кувеит
кудры
кузичева
кукуиевич
культет
культура
культуратә
культуреи
культуры
кунина
куправа
курс
курсқәа
курфюрстов
курц
кутаӷь
кучбериа
кх
кхеит
кхъ
кхъу
къ
къв
къу
къырым
къь
кыив
кын
кындыӷ
кындыӷтәи
кыр
кыраамҭа
кыргыз
кыргызсҭан
кь
кьалашәыр
кьалышь
кьараз
кьаҿ
кьаҿк
кьаҿқәа
кьолн
кьыршьал
кьыш
кьыҽ
кьыҿла
кӏ
кӏв
кӏкӏ
кӏу
кӏь
кә
кәакә
кәарҷиа
кәасҭа
кәатат
кәачара
кәақьҭак
кәаӷәаниа
кәбраа
кәз
кәоу
кәтол
кәтолтәи
кәыбраа
кәыдри
кәыдры
кәыдрытәи
кәыкәиа
кәымкә
кәымф
кәын
кәыт
кәытол
кәыҵниа
л
ла
лаб
лабахуа
лабахәуа
лаборантс
лабра
лабуисс
лаврент
лаврентьевич
лаврецкии
лагалақәа
лагаш
лагаҩагара
лагодехь
лагәлаа
лада
ладариа
ладатәи
лазаре
лази
лакербаи
лакербаиа
лакербая
лакоба
лакобеи
лакрба
лакхнау
лакьысра
лакәзар
лакәны
ламберти
ламиа
ламшьаҵә
ламщацович
лан
ланашьан
ланка
ланкашир
ланчхәыҭ
лаос
лара
лареи
лари
лариса
ларҵоит
лас
ласс
лассы
ласуриа
латвиа
латин
латинскои
латинтәи
латәарада
лауан
лахьынҵак
лаша
лашә
лашәриа
лақукәа
лаҟә
лаҟәу
лаҵара
лаҵаразы
лаҵарамза
лаҵарамзазы
лг
лгеит
лгә
лгәаанагарала
ле
лев
леван
леванович
легкое
легкорельсовая
лезгьы
леи
леик
леипциг
леит
леитенант
лексика
лексики
леля
ленин
ленинград
ленинтәи
леннон
лентех
лео
леон
леонардо
леоне
леонид
леонида
леонти
леонтии
лермонтов
лесото
лет
летию
лето
леуан
леуард
леуарса
леуарсан
леуарсанович
ли
либериа
либериатәи
либиа
ливан
ливантәи
ливерпул
ливерпуль
ливиа
ливиатәи
лига
лидинге
лидского
лиеж
лиз
лиит
ликос
ликосҽп
ликцәа
лима
лими
лимтәи
лингвист
линии
линия
линнеи
лиолиа
лион
лионтәи
лир
лира
лирика
лиссабон
листинг
литва
литватәи
литература
литературатә
литературы
лиуботин
лиуботинтәи
лиудвик
лиудмила
лиуис
лиуксембург
лиусиа
лихтенштеин
лица
личныи
лкаак
лксм
лландидно
ллъв
лмеӷриб
лныхачаԥа
логос
логуа
логәуа
лолуа
лолуаԥҳа
ломиа
ломистәи
ломоносов
лондан
лондон
лос
лоуит
лоуп
лоуԥ
лпоезиа
лроль
лрт
лт
лтә
лу
луан
луахәама
лужков
луи
луис
лука
луман
лурье
лхаҵа
лъ
лыгәла
лыгәра
лымкаала
лымык
лырхит
лыхнашҭа
лыхны
лыхнытәи
лыхьыӡ
лыхьӡ
лыхьӡала
лыхәҭақәеи
лықәгылара
лыҵшәадахеит
лыӡг
лыԥсҭазаара
ль
львов
льготақәа
льдик
любовь
люботин
людеи
люди
ляпунов
лџь
лҟны
лҩымҭақәа
лҭ
лҳәеит
лҵшәа
лҵшәақәа
лӏ
лӡаа
лӡааных
лӡаатәи
лԥа
м
ма
мааҭ
мав
маврики
мавританиа
магатэ
магнус
магомет
мадагаскар
мадам
мадиартәыла
мадина
мадлеи
мадонна
мадрид
мадридскии
мазара
мазарақәа
маи
маиами
маикл
маин
маиор
маия
маиҟәаԥ
мак
макариос
макарос
макачаа
макачава
македониа
македониатәи
македонија
маккартни
максим
максимович
макьана
макьаназ
макьаназы
малави
малага
малаи
малаизиа
мали
малиа
малои
малораспространенные
малхаз
мальтатәи
мальтус
мамзаргьы
мамука
манама
манча
манчестер
мап
маракаибо
мари
мариа
мариам
марина
марино
мариоуп
марк
маркс
маркәыла
марнеул
марокко
марр
марсель
март
марта
мартин
мартиника
мартәыл
мархолиа
мархьаул
маршрут
маршрутқәа
маршьан
маски
маср
матвиенко
материалы
материалқәа
махаз
махатма
махачкала
махбуб
махәыр
махәҭак
мац
мацара
мацарала
мацароуп
мачавариани
машәырла
мая
маџь
маџьгәыр
мақсим
маҭәар
маҭәарк
маҭәарқәа
маҭәахәы
маҭәахәқәа
маҭәашьарқәа
маҳадыр
маҵзура
маҵзурақәа
маҵзураҭыԥқәа
маҵзуреи
маҵзуҩцәеи
маҵура
маҵурак
маҵураныҟәара
маҷ
маҷк
маҷны
маҷу
маҷуп
маҷхеит
маҷхоит
маҷымкәа
маҷқәа
маҷҩым
маҿа
маӡа
маӡала
маӡалатәи
маӡаныҟәгаҩ
маӡаныҟәгаҩс
мгәыӡырхәа
ме
меб
мегахшыбаҩ
медведев
медведеви
меджгурович
медиа
медицинатә
между
междугородная
международная
международного
международные
международныи
мез
меки
мексика
мексикатәи
мексикеи
мен
менатеп
менделеев
менделеево
менеџьер
менеџьерс
мент
менти
меншевикцәа
мер
мераб
мери
месси
мессиа
местиа
методқәа
метр
метрак
метрк
метро
метрополитен
метрополитена
метрополитеном
метротрам
метроэлектричка
механизмк
мехико
мз
мза
мзазы
мзақәа
мзызк
мзызқәа
ми
микая
микелони
микитаи
микроскоп
микроскопла
мил
милан
милаҭ
милаҭла
милаҭтә
миллиард
миллиардла
миллиардҩык
миллион
миллионк
миллионки
миллионла
миллионҩык
миллионҩыла
миниметро
министр
министров
министрс
минор
минск
минска
минскои
минсктәи
минут
мир
мира
мире
мири
мировои
мирод
мирон
мирски
миссиақәа
миссионер
миттеран
миунхен
миурдали
миурдаль
мифологиаҿ
мифуне
миха
михаил
михаила
михаилович
михалко
мишель
миқаел
миқаиа
мканба
млакра
млн
мм
многозначныи
мо
модель
модельқәа
модернизации
мозамбик
молдавиатәи
молдова
молдовеняскэ
молодая
молочное
монако
монархиа
монархов
монастырь
монгол
монголиа
монетақәа
монорельс
монте
монтевидео
морг
море
морис
мориц
моря
мосе
москв
москва
москватәи
москваҟа
москвы
московскии
москәа
мотилал
мотт
моу
моуп
мохаммед
моцарт
мр
мрагылара
мрагыларатә
мрагыларатәи
мрагыларахь
мрагыларахьала
мрагыларахьтәи
мрагылараҿы
мрагылареи
мраҭашаратәыи
мраҭашәара
мраҭашәарантә
мраҭашәаратә
мраҭашәаратәи
мраҭашәарахьала
мраҭашәарахьалагьы
мраҭашәарахьтәи
мраҭашәараҿы
мраҭашәареи
мрҭашәаратә
мрҭашәаратәи
мстислав
мсыгәхәа
мт
мубарак
музеи
музикатә
музыка
мукба
мумбаи
мурат
муританиа
мурси
мустафа
мухаммед
мухина
мушни
мушьни
мфа
мхедрули
мхеиӡе
мцнцә
мцхеҭ
мцхеҭа
мч
мчра
мчраз
мчрақәа
мчрақәеи
мчы
мчыла
мчылатәи
мчқәа
мш
мшаԥы
мшаԥымза
мшы
мшын
мшынтә
мшқәа
мы
мыз
мызкы
мызқәак
мыкәша
мыруганы
мыругоуп
мырҵыкәа
мыср
мысра
мысратәи
мысреи
мыцхәы
мышкы
мышьҭ
мықә
мықәба
мықәи
мықәтәи
мыӡкы
мюрдаль
мя
мінск
мқьалрыԥшь
мҩа
мҩас
мҩақәа
мҩаҧигоит
мҩаҧысуеит
мҩаԥган
мҩаԥигеит
мҩаԥигон
мҩаԥнагеит
мҩаԥыргеит
мҩаԥыргоит
мҩаԥыргон
мҩаԥысит
мҩаԥысуан
мҩаԥысуеит
мҭ
мҭианеҭи
мҭиулеҭи
мҵара
мҵигнобарҭухуцеси
мҽхакы
мԥаадрыԥсҭа
н
на
наа
нави
нагӡаны
надежда
надежды
надземныи
название
наземное
наземныи
назначен
называемое
назыгӡо
наи
наигӡоит
налаҵаны
нальчик
намибиа
нанагӡоит
нани
нанҳәа
нанҳәазы
нанҳәамза
нап
наполеон
наполоеон
напхгара
напхгараҭара
напхгараҭаратә
напы
напыла
напҩырақәа
нара
народа
народного
народнои
нартекс
нартских
нарыгӡоит
наряду
нарџьхьоу
нарҭ
нарҭаа
нарҭтә
нас
насгьы
население
населения
нато
натә
наук
наука
наукатә
наукақәа
наунагӡа
нахыс
национальныи
нач
начала
началась
начало
началось
наш
нашеи
наҟ
наӡа
наӡеит
наӡоит
наԥхгара
наԥшыҩцәа
наԥшыҩцәақәак
нб
нбан
нг
нгоунб
нгылз
нд
нда
ндр
не
неб
невтәи
независимости
неигӡонаҵы
некоторые
некоторых
некрополь
нелли
немец
непал
неприсоединенная
неру
неруи
нестор
несторович
нет
нефк
нефки
неҩс
неҭоб
ни
нигер
нигериа
нидерландқәа
нижегородскии
нижьразы
нижьыр
ник
ника
никарагуа
никита
нико
никол
николаевич
николаевна
николаи
николая
николоз
никылоит
никәала
нино
ниноҵминда
нитика
ниу
ниуарк
ниуи
ницше
нишвили
нк
но
нобель
нобельтәи
новая
новгород
новои
новосибирск
новые
ноиа
нокаут
номинально
норвегиа
нормандиа
нормандских
нормақәа
нохчиин
ноча
ночевич
ночи
ноябрь
ноября
ноӷ
нр
нстә
нсқә
нт
нти
нтә
нтәи
ну
нуакшот
нугамҵиреи
нугзар
нуп
нур
нурбеи
нури
нуриевич
нусхур
нх
нхамҩа
нхара
нхарҭа
нхеит
нхоит
нхыҵ
нцә
нческо
нъ
ны
нызықь
нызықьҩык
нызқь
нызқьҩык
ныне
нырр
нырцә
нырҵуа
ныхабаа
ныхабааи
нышьк
ныҟәара
ныҟәг
ныҟәызго
ныҳә
ныҳәарҭан
нь
нью
нюрнбергскии
нџь
нҩажәи
нҳәа
нҵақәа
нҵәаанӡа
нӡ
нӡа
о
об
обиектқәа
област
областного
областнои
областқәа
областқәеи
образа
образование
обсе
обслуживает
обслуживаются
обсуждение
общество
общии
объединении
обычным
обязанности
огаио
одесса
одишьи
одишьтәи
одна
однако
однои
одну
одышь
одышьтәи
озаску
озган
оикос
океане
океаниеи
около
округ
округи
округқәа
округқәеи
оксана
октябре
октябрь
октября
окум
олаф
олгԥа
олег
олегом
олимпиадатә
олма
оман
омар
он
она
они
онлаин
оно
оон
опера
операциа
операциақәа
описание
ополчения
опыт
орган
организациа
организация
органуп
органқәа
ореол
оризонти
орн
орфографиа
орџьоникиӡе
орџьоникиӡеи
осетии
оскар
осло
осман
османаа
османтәи
основанныи
основе
особая
особенности
оспаривается
остров
острова
островов
от
отар
ответвлением
отель
откровения
открыт
открыта
открытие
открыть
отложена
отнесении
отношении
отношения
отрекся
отриад
оу
оуп
офицер
офицера
официалла
официалтә
официально
официальное
официальном
официальныи
офіціиному
оч
очамчира
очамчыра
очамчыратәи
очамчыреи
очерк
очерки
оь
оқсфорд
оқтиа
оҭар
оҭҳара
оҭҳаратәи
оӏ
оӷлы
п
павел
павла
павлинов
павлов
павлович
пакистан
пакистани
пакисҭан
палата
палатакны
палестина
пальма
памяти
памятники
памятников
память
панама
пап
папаскир
папасқьыр
папуа
париж
парижскии
парижтәи
париз
парламент
паровая
паровои
паровые
партиа
партиак
партиақәа
партиақәеи
пастуха
патриарх
пату
паулу
пашиниан
пашинян
педагогтә
пезонда
пеит
пекин
пентаграф
пер
первая
первого
первои
первоисточника
первоначально
первые
первыи
перевод
переводчики
переводы
переделана
переизбран
переписи
переписка
перешита
период
перну
перспективы
перу
песни
петена
петербург
петефи
петр
петровское
петропавловск
пецунда
печать
пиаф
пиленко
пиленково
пиленковская
пилиа
пильскии
пиотр
пиплмувер
пиррон
писателеи
пит
питиунт
питиус
пицу
пицунда
пицундатәи
пицундеи
пл
планета
планировалось
планировался
планируется
плантагенетаа
планы
платон
платонович
платформа
платформақәа
плесид
пневматическая
по
победы
погосов
под
подземная
подземные
подземныи
подземным
подорога
подчинения
поезд
поезиа
поет
пожнешь
позднее
позициа
пол
политик
политика
политикатә
политикеи
политикцә
полномочии
полностью
полша
поль
польского
польша
пор
порошенко
портал
порту
португалиа
португалиатәи
портул
посвященныи
поселка
поселков
поселок
после
последние
последнии
послесловие
посольство
постановление
постоянного
потенциал
почему
поччои
поэт
пп
правда
правит
правительница
правительства
правительство
правовои
прага
пражскии
практика
пределах
преднестровиа
председателем
председатель
президент
президента
президенте
президентов
президентс
президенттә
президенты
президиума
премиа
премиер
премьер
преобразован
пресс
преториа
префект
при
пригородах
пригородная
пригородно
пригородныи
приднестровиатәи
призиор
признание
признано
приметы
принсипии
принстон
принцип
принципк
принципқәа
принципқәеи
приставка
причерноморья
пробел
проблема
проблемақәа
проблемақәеи
проверено
провинциақәа
провинциақәеи
провинциеи
программа
программақәа
прогресс
проект
проектируется
проектқәа
проза
проклятьем
против
профиль
процент
процентк
процесс
процесса
процессы
процессқәа
психоаналитикуп
публицист
пуерто
пула
пульмановтәи
путеводитель
путешествие
путин
путина
путини
путиным
путь
пухаев
пушкин
пущен
пфальца
пфальцграф
пхг
пш
пъ
пьери
пя
пӏ
пӏу
р
ра
раагарҭақәа
рааигәара
раан
раанкылара
раартра
раарԥшра
раасҭа
раахыс
раахәара
рааӡара
раб
рабацәа
рабаҭи
радгьыл
радион
раевски
ражәабжьқәа
раз
разведывательное
разхамҵара
разыҟаҵара
раион
раионар
раионқәа
ракадемиа
ракзаара
ракәзар
ракәны
ракәын
ракәӡамызт
ралагалара
ралагамҭаз
ралагамҭазы
раларҵәара
раларҵәаразы
ралахәхара
ралкаара
рамзар
ран
ранашьоуп
ранг
ранее
раннексиа
раннехристианские
рар
рартист
рартистка
расим
расимович
рассет
рассоциациа
рати
ратә
ратәамбара
рауль
рауф
рауфбеи
рафаель
рафеҭ
рахь
рахьтә
рахьынтә
рацәа
рацәак
рацәала
рацәаны
рацәаҩуп
рацәоу
рацәоуп
рашид
рашәа
рашәара
рашәарамза
рашәарамзазы
раҟара
раҧхьатәи
раҳ
раҳасаб
раҳасабала
раҳаҭыр
раҳра
раҳҭынра
раҳәшьазаҵә
раҷа
раԥ
раԥхьа
раԥхьагылаҩцәа
раԥхьатәи
раԥхьаӡа
раԥхьаӡатәи
раԥырҟәҟәаара
раԥыхра
раԥҵара
раԥҵаразы
раԥҵареи
рбага
рбагақәа
рбагоуп
рбеит
рбжь
рбиологиа
рбираҟ
рбиуџьети
рбиуџьетқәа
рбоуп
рбызшәа
рбызшәала
рбызшәақәа
рбызшәеи
рверсиа
рганахь
рганахьала
ргимназиаҿ
рго
ргоит
ргон
ргыламҭа
ргыламҭақәа
ргыламҭоуп
ргылара
ргыларак
ргь
ргьт
ргәаанагара
ргәаанагарала
ргәаанагарақәа
ргәабзиара
ргәабзиарахьчареи
ргәалашәара
ргәы
ргәыԥ
ргәыԥқәа
рдемократиатә
рдепартамент
рдепутатс
рдиаспора
рдиаспорақәа
рдинастиа
рдинхаҵара
рдинхаҵаратә
рдоктор
рдунеихәаԥшра
рдунеихәаԥшышьа
рдырра
рдыррақәа
ре
реал
револиуциа
револиуциатә
револиуционеруп
революции
регентство
регентша
регион
регионалтә
региони
регионқәа
регионқәеи
ред
редактор
редакторра
редакция
редколл
режим
режиссиор
резервныи
реи
реибашьра
реидгыла
реидгылаҿ
реидгылеи
реидкылара
реидыслара
реидыслараҿ
реизакра
реизара
реизарахь
реизараҿы
реизареи
реизга
реизгара
реизырҳара
реизыҟазаашьа
реизыҟазаашьақәа
реизҳара
реилазаара
реилазаарагьы
реилалара
реилуеи
реилыргара
реилыркаара
реимадара
реимадаразы
реимдара
реин
реино
реинырра
реиныррақәа
реиныршәара
реихшара
реихьӡарақәа
реиқәыршәара
реиқәыршәаразы
реиқәыԥхьаӡара
реиқәыԥхьаӡаҿы
реиҟарамра
реиҭагара
реиҭныԥсахлара
реиҳ
реиҳа
реиҳабацәа
реиҳабыра
реиҳабырақәа
реиҳара
реиҳарак
реиҳараҩык
реиҿагылара
реиҿартәышьа
реиҿкаара
реиҿкаареи
реиҿырԥшразы
реиԥш
реиԥшымзаара
реиԥшҵәҟьа
реиԥылара
реиԥыларақәа
реиԥылараҿ
река
рекологиа
рекономикатә
релиативизм
религиа
репос
репосқәа
република
републике
ресифи
республик
республика
республикак
республиканы
республикасы
республикатәи
республикақәа
республики
республикоуп
ресурсқәа
ресурсқәеи
ретникатә
ретнос
ретностә
реформақәа
речи
речхәы
решение
решь
ржәар
ржәыларақәа
рзакәанқәа
рзгьы
рзеиҧш
рзеиԥш
рзин
рзинмчхарақәа
рзинқә
рзинқәа
рзинқәеи
рзтәи
рзуны
рзура
рзуреи
рзутәуп
рзы
рзын
рзынӡа
рзыруеит
рзыҟазаашьа
рзыҟаҵара
рзыҳәан
ри
риааиразы
рига
ридеиатә
ридеиақәа
рижскии
рика
рико
рим
римаа
римма
римскои
римтәи
ринститут
ринтересқәа
рио
ритиба
риурик
ричард
риҭеит
риҭоит
риҭон
ркандидат
ркандидатурақәа
ркафедра
ркны
рколониалтә
ркомиссариат
рконституциа
рконфликт
ркралра
ркултура
ркультура
ркультуратә
рл
рлагала
рлига
рлыҵшәа
рма
рмаҵура
рмилаҭ
рмилаҭтә
рминистр
рминистрра
рминистррақәа
рминистрраҿы
рминистрс
рминистрцәа
рмодельқәа
рн
рнагара
рнапала
рнапахьы
рнапаҵаҟа
рнапаҿы
рнапхгара
рнапхгараҭара
рнапхгаҩцәа
рнапы
рнарҭ
рнарҭдырра
рнаҩс
рнаҩсгьы
рнаҭеит
рнаҭоит
рнырҵәара
рныхачаԥақәеи
рныхра
рныҟәг
рныҳә
рныҳәа
роберт
роблеси
ровд
рог
рогозин
род
рождения
рок
ролл
роль
роман
романов
ромеои
рос
росарио
росииски
россии
россииская
россииские
россиискои
россия
ростислав
ростов
ростовтәи
ротриад
роттердам
роуеит
роуит
роуп
роура
роуразы
роурц
рпалата
рпалатеи
рпантеон
рпартиа
рпоезиа
рпоет
рпозициа
рполитика
рполитикатә
рполитикатәи
рполициа
рпрезидент
рпрезидентс
рр
рраса
рредакциақәа
ррелиги
рреспублика
рроль
рроуп
рсахьа
рсахьаркыратә
рсахьақәа
рсдрп
рсезд
рсеминариа
рсеминариаҿ
рсериа
рсиа
рсимвол
рсинтақсис
рсистема
рсиужетқәа
рсовет
рсоциалисттә
рсоциалтә
рсуверентә
рсфср
рт
ртеориа
рти
ртур
ртә
ртәарҭа
ртәарҭас
ртәи
ртәы
ртәыла
ртәылауаа
ртәылақәа
ру
руак
руакы
руалафахәы
руан
руанда
руандатәи
руаӡәк
руаӡәык
рудольф
руеит
румыниа
рус
русбарҭа
русеицура
русзуҩцәа
руслан
русские
русскии
русского
русскои
русудан
русумҭақәа
русура
русуразы
русуреи
русхк
русқәа
русқәеи
русҭавели
русҭау
руфус
рушбеи
рушни
рушьбеи
рушьни
руҭыул
рф
рфакультет
рфедерациа
рфизиологиа
рфизиологиатә
рфинанстә
рфольклор
рфонд
рфорум
рфрагментқәа
рфрагментқәеи
рх
рхаан
рхада
рхадас
рхадацәа
рхала
рхан
рхархәара
рхархәаразы
рхатә
рхатәы
рхақәиҭра
рхаҭа
рхаҭабзиара
рхаҭарнакцәа
рхаҭақәа
рхаҿы
рхеидкыла
рхеил
рхеилак
рхи
рхы
рхыбгалара
рхыл
рхылҵшьҭрақәа
рхымҩаԥгашьа
рхырхарҭала
рхыхразы
рхықәкы
рхыԥхьаӡара
рхыԥхьаӡараҿы
рхыԥхьаӡареи
рхьырԥар
рхә
рхәы
рхәыҷқәа
рцара
рцеит
рцоит
рцон
рцәтәи
рцәыӡыр
ршара
ршоит
ршьатә
ршьоит
ршәарҭадара
ры
рыбжь
рыбжьара
рыбжьарагьы
рыбжьареи
рыбжьарҵеит
рыбжьаҵареи
рыбжьоуп
рыбжьы
рыбжьқәа
рыбзазашьа
рыбзоурала
рыгәрамгара
рыгәҭа
рыда
рыдагьы
рыдгылара
рыдгыларазы
рыдгылаҩцәа
рыдгылаҩцәеи
рыдгьыл
рыдкылара
рыдкыларазы
рыдулан
рыдулареи
рыдуп
рыдыркылахьан
рыдыркылеит
рыдыркылоит
рыдырулоит
рыдҵала
рыдҵан
рыдәныҟатәи
рыжәла
рыжәлар
рыжәлақәа
рызегьы
рызкуп
рызныҟәара
рызтәи
рызун
рызцәырҵит
рызҭо
рызҵаарақәа
рыиашьара
рык
рыкәашара
рыл
рыла
рылагамҭазы
рылагьы
рыламкьысра
рыланаҳәеит
рыланаҳәоит
рылахь
рылаҳәан
рылаҳәара
рылаҳәареи
рылеиҳәеит
рылоуп
рылшарақәа
рылшеит
рылшоит
рылҵшәақәа
рымазар
рымазаргьы
рымазарц
рымам
рымамзаара
рыман
рыманы
рымацара
рымаҵ
рымаӡам
рымаӡамызт
рымоуп
рымцеиқәҵаҩцәа
рымч
рымчра
рымчхара
рымчқәа
рымш
рымҩа
рымҩанызақәеи
рымҩаҧгара
рымҩаԥгара
рымҩаԥгаразы
рымҩаԥысшьа
рымҵан
рымҽхак
рынагӡара
рынагӡаразы
рынагӡареи
рынашьҭра
рынхоит
рыпринципқәа
рыпроблемақәа
рыпроцессқәа
рыр
рыргылара
рыргәаҟра
рырратә
рырхәҭақәа
рырҭбаареи
рырҭеит
рырҭоит
рырҭон
рырҵаҩцәа
рырӷәӷәаразы
рыстудентцәа
рытрадициақәеи
рыфатә
рыхдырраҿы
рыхкы
рыхкырацәара
рыхс
рыхшыҩ
рыхшыҩрҵаратә
рыхьч
рыхьчара
рыхьчаразы
рыхьчареи
рыхьӡ
рыхьӡала
рыхьӡынҵа
рыхьӡқәа
рыхә
рыхәышәтәра
рыхәҭак
рыхԥагьы
рыцнауеит
рыцуа
рыцура
рыцхраауан
рыцхыр
рыцхырааразы
рыцхыраарала
рыцхырааралеи
рыцҳара
рыцҳарас
рыцҳарақәеи
рышкол
рышьақәыргылара
рышьақәыргыларазы
рышьаҭа
рышьаҭала
рышьҭа
рышьҭахь
рышьҭра
рышьҭратә
рышҟа
рышҟол
рышәҟәы
рықәгара
рықәгылара
рықәгыларақәа
рықәныҟәара
рықәныҟәаразы
рықәуп
рықәым
рықәыргылара
рықәырҵеит
рықәҵара
рықәԥара
рыҟазаара
рыҟалара
рыҟамзаара
рыҟамлара
рыҟаҵара
рыҟны
рыҟнытә
рыҟныҭә
рыҟәш
рыҟәша
рыҩаӡара
рыҩнуҵҟ
рыҩнуҵҟа
рыҩнуҵҟала
рыҩныҵҟа
рыҩныҵҟалеи
рыҩныҵҟатәи
рыҩра
рыҩхәҭак
рыҭан
рыҭаны
рыҭара
рыҭаразы
рыҭареи
рыҭҵаара
рыҭҵааразы
рыҭҵаарақәа
рыҵаиҩуеит
рыҿиара
рыҿиаразы
рыҿиареи
рыҿиашьа
рыӡбара
рыӡбаразы
рыӡбареи
рыӡбахә
рыӡбахәы
рыԥсадгьыл
рыԥсахит
рыԥсахра
рыԥсахуеит
рыԥсра
рыԥсы
рыԥсқәа
рыԥсҭазаара
рыԥсҭазааратә
рыԥсҭазаараҿы
рыԥсҭазаареи
рыԥсҭазаашьа
рыԥхьаӡоит
рыԥхьаӡон
рыԥшаара
рыԥшаауеит
рыԥшра
рџьабаа
рџьабааҧса
рџьынџьтәылатә
рқәыц
рқәӡааит
рҟазара
рҟни
рҟны
рҟнытә
рҟынгьы
рҟынтә
рҟынтәи
рҟынҭә
рҟынӡ
рҟынӡа
рҭ
рҭаацәара
рҭаацәарантәи
рҭаацәараҿы
рҭагылазаашьа
рҭахрақәа
рҭли
рҭлис
рҭоит
рҭоурых
рҭоурыхи
рҭоурыхтә
рҭоурыхқәа
рҭыжьра
рҭыжьразы
рҭынӡ
рҭышәныртәалара
рҭыԥ
рҭыԥқәа
рҳасабала
рҳәаа
рҳәаақәа
рҳәааҿы
рҳәамҭа
рҳәамҭақәа
рҳәоит
рҳәынҭқарра
рҳәынҭқарратә
рҵакы
рҵакырадгьыл
рҵакырадгьылтә
рҵакырадгьылқәа
рҵара
рҵарадырреи
рҵаҩы
рҵаҩыс
рҵеит
рҵыхәа
рҵә
рҽазыршәоит
рҽазыҟарҵон
рҽеидкыланы
рҽеиҭакрақәа
рҽыбӷаҟазара
рҽыршоит
рҿаԥхьа
рҿаԥыц
рҿаԥыцтә
рҿгьы
рҿиамҭа
рҿиамҭақәа
рҿы
рӷарра
рӷьырак
рԥарала
рԥыз
рԥыза
рԥҳәыс
с
са
саакашвили
саатбеевич
сааҭ
саб
саба
сабах
саби
саввич
савин
сагареџьо
сад
садыков
саид
саида
саимон
саит
саите
саиті
саканиа
саксониа
саксонии
салакая
салаҟаиа
салвадор
салех
салиховна
салиҳ
саломе
салоники
сам
самоа
самоуправляющееся
самоучитель
самсон
самтредиа
самцхе
самырзаҟан
самҭавро
самҭавроҿы
сан
санакь
сангулиа
сангәлиа
сандро
санду
санитартә
санкт
сантиаго
сантиметр
санто
сантьяго
саппоро
сапынла
сара
сараево
саратов
сардион
сареи
сарион
саркози
сартр
сасрыҟәа
сатириуполь
саудовтәи
саудтәи
сафарбеи
сахара
сахаратәи
сахьала
сахьаркыратә
сахьақәа
сахьаҭыхратә
сахьаҭыхҩы
сачхере
саҟварелиӡе
саҭанеи
саӡен
сборник
сбсе
свердловск
сверкер
сверкерссон
светлана
свиатополк
свиатослав
свимеон
свободнои
своего
святои
священника
священнои
сгәы
сгәыӷра
себастиан
себастополис
себе
себя
севастополь
северна
севернои
северо
севилья
сезер
сеишелтәи
сектор
семи
семибоярщина
семидесятых
семинариа
семион
сен
сенегаали
сенегал
сент
сентиа
сентиабр
сентябре
сентябрь
сентября
сер
сербиа
сербиатәи
сербиеи
серге
сергеевич
сергеи
серго
сердце
сестры
сети
си
сибиртәи
сидер
сиднеи
сиерра
сила
силенд
символ
символика
символра
символқә
симеон
симон
симониан
симонян
синатәи
сингапур
синиӷал
синьчжу
сириа
сириатәи
сиселла
систем
система
системақәа
системои
системы
системқәа
сити
сиур
сих
сиӷнаӷь
сказании
скандинавтәи
сковорода
скоростнои
скульптор
славиан
следующих
словакиа
словарь
слове
словениа
служба
службы
см
смерти
смерть
смирнов
смыр
снг
со
собором
совет
совета
советская
советскои
советтә
совместно
современная
современныи
совхоз
согласно
соглашения
содружество
соединяет
солдаҭцәа
солженицын
солнцев
соломин
соломон
солт
соль
сомали
сомалиленд
сооружение
соответственно
сорта
сортов
сослан
сост
состав
софиа
софрон
соци
социалисттә
социалтә
социальная
социальное
социальные
социальным
сочи
союз
союза
союн
спб
специального
специальныи
список
спортивная
спутник
сравнительная
србија
средние
средство
српске
сс
ссир
ссирқәа
сср
ссср
ст
стадион
стали
сталин
стандарт
стандартная
стандартную
станислав
станциак
станции
станция
статиақәа
статистика
статистики
статус
статуси
статье
статью
стаханов
стен
степан
стер
стефан
стилиз
стиль
стихотворения
стокгольм
стокгольмтәи
столетия
столица
столицы
стопани
стоун
стоқҳолм
стр
стран
страны
стратегиақәа
стратфорд
строительство
строится
струга
структурные
студентов
стуре
суверенитет
суд
судан
судьи
султан
султановна
сулҭан
сумалиланд
суонси
суудаан
суумаал
сух
сухум
сухуми
сухумскии
существовала
сфера
сфср
схемақәа
схы
счастья
сша
сымам
сымаӡам
сын
сыцәқәа
сышьха
сыҧҳәыс
сҩызцәа
сҭампыл
сҭеԥан
т
табагуа
табаӷәуа
табидзе
таблица
таге
тагилон
тагилонтәи
таевич
таииа
таиланд
таиландтәи
таиф
так
такая
также
таллин
тамшь
тамшьтәи
танзаниа
тао
тапагуа
тапаӷәуа
тарас
тарасович
тарба
тариел
таркил
тарпищев
тархунович
тахрир
ташкент
таџьикисҭан
тб
тбилиси
тванба
твертәи
творчество
театр
театра
тедрос
теири
текстк
телеканалу
телеком
тель
тем
темак
темур
тенденциақәа
теориа
теориатә
теории
терент
терентии
теркс
термин
терминқәа
терра
терре
территори
территориальную
территориаҟны
территории
территория
тетраграф
техас
техник
техникам
техникатә
техникеи
техникум
технологи
технологиақәа
ти
тивтә
тикараӡе
тили
тимофеи
тимур
тинен
тиони
типа
титул
тифлис
тл
то
того
тоготәи
токаев
токелау
токио
толикос
только
том
тома
томас
томеи
томкны
тонга
тонн
тонна
тори
торнау
торонто
тоширо
тоҷики
тоҷикистон
традициала
традициатә
традициақәа
трамваев
трамваем
трамваи
трамваиная
трамваинои
трамваиных
трамваитә
трамвая
трамп
транспорт
транспортная
транспорттәи
три
трибунал
триглит
триграф
триест
триполи
трон
трубецкои
трудно
труды
тт
ту
тувалу
тужба
тулуз
тунис
тунисиаа
тунистәи
тур
турин
туркменисҭан
туркментәыла
туқәҵ
тхаицук
тш
тъ
тын
тысячелетие
ть
тэгу
тяга
тяге
тілі
тҟибул
тҟәарчал
тҟәарчалтәи
тӏ
тӏу
тә
тәи
тәии
тәуп
тәы
тәыл
тәыла
тәылак
тәыланы
тәылацыԥхьаӡа
тәылақәа
тәылақәак
тәылақәеи
тәылаҿацәк
тәылоуп
тәым
у
уа
уаа
уаажәларра
уаажәларратә
уаантәи
уаанӡа
уаанӡагьы
уаанӡатәи
уаатәи
уааҵәҟьа
уадаҩуп
уадаҩыз
уажәазы
уажәгьы
уажәраанӡа
уажәраанӡагьы
уажәтәи
уажәшьҭа
уажәы
уажәыргьаҭ
уазбақьистан
уалацәажәозар
уан
уантәи
уара
уарча
уасиаҭ
уасил
уатаԥ
уахь
уахьынтә
уахьынтәи
уахәама
уахәамак
уахәамас
уахәамақәа
уахәамаҿы
уахәамеи
уахәамоуп
уахәаԥш
уахәаԥшуазар
уақәым
уаҟа
уаҩ
уаҩны
уаҩы
уаҩык
уаҩын
уаҭҳара
уаҳа
уаҳәаԥш
уаҵәтәи
уаԥстәыла
уаԥстәылатәи
уб
убарҭ
убарҭоуп
убас
убасгьы
убасҟан
убириа
убит
убоит
убрахь
убраҟа
убри
убриаан
уварова
уганда
угәы
узааи
узбекистан
узбекистон
узбекисҭан
узел
уи
уигьы
уиижьҭеи
уильиам
уимоу
уинахыс
уинстон
указ
указатель
укр
украин
украина
украинаа
украинатәи
укроп
ул
улоф
уль
ульд
ульм
умер
ун
унапы
университет
университети
уожәа
уолл
уоллис
уп
уппсала
управление
управлению
управления
управляемая
ур
урарту
урт
уругваи
урым
урымтә
урыс
урыскановна
урыстәыл
урыстәыла
урыстәылагьы
урыстәылазегь
урыстәылатә
урыстәылатәи
урыстәылаҟа
урыстәылеи
урысшәала
урҭ
урҭгьы
ус
усбарҭа
усбарҭақәа
усбарҭақәеи
усбарҭоуп
усеилыргаратә
усеицура
усзуҩ
усзуҩны
усзуҩцәа
усзуҩцәеи
усзуҩы
усзуҩын
усзуҩыс
уси
уск
услар
условиях
усмҩаԥгатәқәа
усны
усумҭақәа
усумҭоуп
усуп
усур
усура
усуразы
усурак
усурақәа
усуреи
усуцәеи
усқәа
усҟ
усҟак
усҟан
усҟантәи
уф
ухань
ухахьы
ухм
участки
участок
училишьче
ушел
уь
уҭ
уҳә
уҳәа
уҳәар
уҳәозар
уӏ
уԥсра
уԥылоит
ф
фазиль
фазлыбеи
фактически
факто
фактор
факторны
фактуп
факултет
факультет
фанон
фасад
фасо
фатима
фатәыс
фашәы
фба
фбеи
фвкультет
февра
февраль
февраля
федералтә
федеративтә
федерациа
федерации
федор
федорович
федота
федр
феидак
феисбук
феникс
феодор
феодосии
фергиусон
фи
фигерес
фигур
фигура
физик
физика
физиологиа
филадельфиа
филипп
филиппины
философ
философиа
философуп
фильм
фин
финансла
финанстә
финлиандиа
финлиандиатәи
фиодор
фиодр
фиольстери
фирмақәа
флор
флоренциа
фольклор
фон
фонд
фондтә
фонтан
форм
форма
формак
формалла
формақәа
формеи
форум
фото
фотографии
фр
франкфурт
франкфурттәи
франсуа
франц
франциа
франциатә
франциатәи
франциаҟа
франциеи
франции
франциско
французская
францыз
фредрик
фридон
фронт
фуга
фундаментализм
фуникулер
функциақәа
функциақәагьы
функции
фута
футуна
фымз
фымца
фымцазы
фымштәи
фырх
фырхаҵа
фырхаҵаратә
фырхаҵарыла
фышә
фышәи
фҩык
фӏ
х
ха
хабарда
хада
хаданы
хадара
хадарала
хадас
хадацәа
хадақәа
хадақәаны
хадақәеи
хадеи
хадж
хадоуп
хаз
хазаратович
хазхаҭалатәи
хазы
хазына
хазырҭәаауа
хак
хакьыԥсы
халифа
хамад
хамелеон
ханои
ханс
хантәаҩра
хантәаҩыс
хара
харагаул
харада
харазия
харам
харитон
харковтәи
харкьывтә
хархәага
хархәагак
хархәагақәа
хархәара
харьковскии
хатингтон
хаттингтон
хатә
хатәгәаԥхарала
хатәгәаԥхаралатәи
хатәрақәа
хацзыркыз
хацыркын
хашба
хашиг
хашҭра
хашәыр
хақәиҭра
хақәиҭратә
хаҭала
хаҭарала
хаҭарнакцәа
хаҳә
хаҳәқәа
хаҵа
хаҵара
хаҵеи
хаҿқәа
хаҿқәеи
хб
хв
хварцкия
хдырра
хевсуреҭи
хеивани
хеидкыла
хеидкылақәеи
хеил
хеилак
хеилаки
хеит
хельсинки
хельсинктәи
херне
хеттская
хеттских
хетты
хзу
хианфан
хибла
хигович
хинди
хиркәшоит
хит
хишвили
хкы
хкыжәлақәа
хкык
хкыкны
хкыла
хкқәа
хкқәеи
хм
хнаркәшоит
хокари
хокерба
холокост
хорава
хорватиа
хорватиеи
хот
хотелашвилии
хра
храм
христианские
христос
хронологиала
хрушкова
хрушьчов
хрущев
хрыжь
хсаалақәа
ху
хуампович
хуба
художественная
художник
хусеинович
хуссар
хуцишьвили
хушти
хуҷуп
хх
ххь
ххьӏв
хш
хшаа
хшыла
хшыҩ
хшыҩрҵара
хъ
хъв
хъу
хы
хыбрақәа
хыгә
хык
хыл
хылаҧшра
хылаԥшра
хылаԥшрада
хылаԥшҩыс
хылцшьҭрала
хылҵшьҭра
хылҵшьҭрала
хылҵшьҭрақәа
хымз
хымш
хымҩаԥгашьа
хымԥада
хымԥадатәины
хыналыг
хынтә
хынҩажәа
хынҩажәатәи
хынҩажәи
хыркәшан
хырхарҭа
хырхарҭак
хырхарҭала
хырхарҭас
хырхарҭақәа
хыс
хыхь
хыхьла
хыхьтәи
хышықәса
хышә
хышәи
хышәҳа
хықәкы
хықәкык
хықәкыла
хықәкылатәи
хықәкыра
хықәкыс
хықәкқәа
хыҧхьаӡара
хыҵхырҭас
хыҵхырҭақәа
хыҵхырҭақәеи
хыҵхырҭаҭҵааратә
хыԥсҭа
хыԥхьаӡара
хыԥхьаӡарала
хь
хьаас
хьалуачаур
хьанҭа
хьатәи
хьдыргыл
хьтәи
хьтәы
хьчара
хьчо
хьшәашәа
хьыбла
хьыршәыгәқәа
хьыԥшымра
хьҭоуп
хьҳ
хьӡ
хьӡалкаақәеи
хьӡи
хьӡуп
хьӡы
хьӡык
хьӡыс
хьӡысгьы
хэррисона
хҩык
хҭысқәа
хҵә
хҵәахақәа
хҽҩык
хӏ
хӏв
хә
хәа
хәажәкы
хәажәкыра
хәажәкырамза
хәажәкырамзазы
хәамԥа
хәан
хәарцкиа
хәарҭарас
хәахәала
хәаҭхәаҭ
хәаԥ
хәаԥтәи
хәба
хәмарра
хәмаррақәа
хәсеин
хәшә
хәшәи
хәы
хәыл
хәыло
хәынтә
хәыр
хәышықәса
хәышықәсатәи
хәышәтәырҭа
хәыҩцә
хәыҷ
хәыҷи
хәыҷы
хәыҷык
хәыҷыки
хәыҷқәа
хәқә
хәқәеи
хәҭ
хәҭа
хәҭак
хәҭакала
хәҭакны
хәҭақәак
хәҭаҿы
хԥа
ц
цагер
цандры
цандрыԥшь
цар
царств
царство
цацыԥхьаӡа
цвижба
цвинария
цезар
центр
центральное
центре
центрны
центром
центрын
центыр
церковная
церцвадзе
ци
цивилизации
циеи
цик
цира
цк
цкьыс
цон
цуртавели
цурҭавели
цхинвал
цховреб
цхыраара
цц
цъ
цыганков
цыгәба
цыра
цқь
цқьа
цӏ
цӏцӏ
цә
цәа
цәаҩа
цәаҳәа
цәаҳәак
цәаҳәаҟны
цәгьа
цәгьашақә
цәгьоуп
цәкәара
цәоуп
цәыббра
цәыббразы
цәыббрамза
цәыббранӡа
цәыкәбарк
цәырызгаз
цәырҵит
цәырҵрақәа
цәырҵроуп
цәырҵуеит
ч
чаблах
чабырхәа
чав
чад
чамагуа
чанба
чаниа
час
часов
частично
часть
чачаа
чачба
чачхалиа
чв
че
чего
человек
человека
чемпионат
ченнаи
через
чермны
черная
черногориа
черногориеи
черты
четыре
чехиа
чехиатәи
чехов
чехова
чехове
чеховы
чечен
чечентәыла
чи
чикаго
чили
чилитәи
читанаа
читанава
чифович
чичико
чиқвани
чкадуа
члоу
чохатаур
что
чубинашвили
чуковскии
чунцинскии
чхеизе
чхертәи
чхетиӡе
чхәароҵҟәы
чхәарҭал
чч
чъ
чымазара
чымазарақәа
чымазареи
чынҭ
чынҭатә
чықьтә
чэнду
чӏ
чӏал
чӏв
чӏчӏ
ш
ша
шаадатович
шабаев
шавров
шагиров
шазина
шакәу
шакәугьы
шакәыз
шакәызгьы
шалва
шалвовна
шаликович
шалуа
шалшо
шамахамзар
шамба
шамил
шамиль
шамоу
шамоугьы
шандор
шарлеруа
шарль
шатунов
шауа
шахоу
шаҟа
шаҳаҭра
шаҳаҭс
шв
швед
швеицариа
швециа
швециатәи
швециаҟа
шевченко
шеиҿартәу
шекспир
шемиака
шервашидзе
шервашиӡе
шервашиӡеаа
шервашиӡераа
шесть
шеффилд
шиакәыз
шинкуба
шиуц
шиқәсазы
школ
школа
школқәа
шкә
шкәакәа
шкәакәала
шкәакәеи
шмаҷугьы
шота
шоҭа
шпицберген
шракәу
шри
шрома
шрымазгьы
штат
штати
штатқәа
штрункеде
штутгарт
шумертәи
шушаник
шш
шыкәса
шыкәсазы
шырыԥхьаӡо
шыскәсазы
шышьақәгылаз
шықуса
шықусынӡа
шықәс
шықәса
шықәсази
шықәсазтәи
шықәсазы
шықәсанза
шықәсанӡа
шықәсатәи
шықәсақәа
шықәсы
шықәсык
шықәсқә
шықәсқәа
шықәсқәак
шыҟаз
шыҟалаз
шыҟало
шыҟәсазы
шыҟәсантә
шь
шьаадаҭ
шьаиб
шьаликәа
шьалуа
шьамтәыла
шьамтәылеи
шьапылампыласҩы
шьашьалаҭ
шьақәгылара
шьақәгылашьа
шьақәгылоит
шьақәгылоуп
шьақәдырӷәӷәон
шьақәзыргыло
шьақәзыргылоз
шьақәнаргылеит
шьақәнаргылоит
шьақәнаргылон
шьақәнарӷәӷәоит
шьақәыргылам
шьақәыргылан
шьақәыргылахоит
шьақәырӷәӷәан
шьаҟак
шьаҭа
шьаҭала
шьаҭанкыла
шьаҭас
шьаҭасны
шьаҭақәа
шьны
шьоукы
шьоҭа
шьр
шьрын
шьуахьау
шьх
шьцә
шьынқәба
шьҭ
шьҭа
шьҭахьҟа
шьҭахҟа
шьҭаҵаны
шьҭоу
шьҭоуп
шьҭрала
шьҭыхны
шӏ
шә
шәанеимсо
шәанеимҳәо
шәантәыла
шәантәылаҟа
шәаны
шәара
шәарҭадара
шәарҭадаратә
шәахь
шәахәаԥш
шәацклапшла
шәача
шәачатәи
шәаҳҿагылоит
шәи
шәкы
шәнапы
шәпынҵа
шәш
шәылақәа
шәыпсып
шәышықәс
шәышықәса
шәышықәсалатәи
шәышықәсақәа
шәышықәсқә
шәыҟәқәа
шәҟәны
шәҟәы
шәҟәыҩҩ
шәҟәыҩҩцәа
шәҟәыҩҩы
шәҟәқәа
шәҟәқәеи
шәҟәҩҩы
шәҩык
шәҩыла
шәҿы
щ
щықәса
щықәсазы
щӏ
ъ
ы
ыдоу
ыиасуеит
ыр
ырбаандаҩын
ықәгылан
ықәгылоуп
ықәдыргылоит
ықәиргылоит
ыҟ
ыҟазар
ыҟам
ыҟамызт
ыҟан
ыҟаӡам
ыҟоу
ыҟоуп
ыӏ
ь
э
эдит
эдуард
экз
экономика
экономическим
эксмо
электрификация
электрифицированныи
электрическая
электрическии
электрического
электричка
электронная
энвер
энциклопедическии
энциклопедия
эпоха
эрастович
эрнесто
эры
эссенскии
эти
этнология
это
этои
этом
этот
ю
юбилеи
южная
южнои
южные
юнаитед
юрии
юь
я
явление
является
язык
языка
языках
языки
языков
яковлевич
январь
января
янкович
яхьяевич
яь
ђ
є
ѕ
і
ј
љ
њ
ћ
џ
џь
џьавахарлал
џьавахеҭи
џьавахишьвили
џьавахьишвили
џьал
џьалиа
џьамал
џьапуа
џьапыуа
џьара
џьарантә
џьаргьы
џьатә
џьашьахәы
џьвари
џьгьарда
џьгьардатәи
џьгәаҭ
џьемал
џьениа
џьергениа
џьибути
џьо
џьовани
џьон
џьонуа
џьопуа
џьорџь
џьорџьи
џьота
џьоукы
џьруҷтәи
џьуаншьер
џьулеттеи
џьулиано
џьума
џьумҳуриаа
џьумҳуриаат
џьумҳуриат
џьыдда
џьырхәа
ѡ
ѣ
ѥ
ѧ
ѩ
ѫ
ѭ
ѯ
ѱ
ѳ
ѵ
ѻ
ѽ
ѿ
ҁ
ҋ
ҍ
ҏ
ґ
ғ
ҕ
ҕь
ҕә
җ
ҙ
қ
қазақстан
қалақь
қалақьуп
қалақьқәа
қапба
қардаа
қарел
қарселаӡе
қарчаа
қарҭ
қарҭвел
қарҭли
қарҭтәи
қарҭҟа
қоб
қобулеҭ
қтивреи
қырҭтәла
қырҭтәы
қырҭтәыл
қырҭтәыла
қырҭтәылатәи
қырҭтәылаҟа
қырҭтәылеи
қырҭу
қырҭәтыл
қырҭәыла
қыҭ
қыҭа
қыҭак
қь
қьаазым
қьабзқәа
қьада
қьач
қьелешьбеи
қьны
қьырала
қьырса
қьырси
қьырсианра
қџ
қә
қәа
қәгыларақәа
қәгылеит
қәгылоу
қәеи
қәоуп
қәрала
қәтәо
қәылаҩцәа
қәыргыл
қәырӷәӷә
қәырԥшны
қәычбериа
қәыԥш
қәҭарба
қәҭешь
қәҵоуп
қәҿиарала
қәԥара
ҝ
ҟ
ҟа
ҟазара
ҟазареи
ҟазахсҭан
ҟазбақь
ҟазшьа
ҟазшьас
ҟазшьақәа
ҟазҵаз
ҟазҵо
ҟазҵоз
ҟаиҵеит
ҟаиҵоит
ҟаиҵон
ҟалаанӡа
ҟалалоит
ҟалап
ҟалар
ҟаларц
ҟаларын
ҟалеит
ҟалоит
ҟалом
ҟалон
ҟалҵеит
ҟамҵакәа
ҟанаҵеит
ҟанаҵоит
ҟараман
ҟарачы
ҟарҵеит
ҟарҵо
ҟарҵоит
ҟарҵон
ҟаҵан
ҟаҵоуп
ҟаԥшь
ҟаԥшьы
ҟны
ҟнынӡ
ҟнытә
ҟр
ҟрым
ҟынӡ
ҟь
ҟьаҟьеи
ҟә
ҟәарел
ҟәланырхәа
ҟәша
ҟәырӷтә
ҟәыӷара
ҟәыԥа
ҡ
ң
ҥ
ҧ
ҧхыз
ҧхызны
ҩ
ҩа
ҩада
ҩадатәи
ҩажәа
ҩажәеи
ҩажәи
ҩажәижәаба
ҩардан
ҩарданԥҳа
ҩаӡара
ҩаԥхьа
ҩба
ҩбатәи
ҩбеи
ҩналарҭа
ҩнуҵҟ
ҩны
ҩнызқь
ҩр
ҩцә
ҩы
ҩык
ҩынтә
ҩынтәны
ҩынҩажәа
ҩынҩажәи
ҩыр
ҩыра
ҩыратә
ҩыс
ҩытәыҩс
ҩышықәса
ҩышықәсатәи
ҩышә
ҩышәи
ҩышәҩык
ҩыџьа
ҫ
ҭ
ҭаацәара
ҭагалан
ҭагаланеи
ҭагалантәи
ҭагылаазшьа
ҭагылазаашьа
ҭагылазаашьала
ҭагылазаашьас
ҭагылазаашьеи
ҭакԥхықәра
ҭамаз
ҭамар
ҭамара
ҭамшь
ҭанаҵы
ҭарашь
ҭарба
ҭаркьыл
ҭархәына
ҭарԥҳа
ҭауади
ҭахеит
ҭахрақәа
ҭач
ҭаџьыкисҭан
ҭб
ҭбаа
ҭбааз
ҭбаау
ҭбаауп
ҭбилиси
ҭеа
ҭевдоре
ҭеикит
ҭел
ҭелау
ҭемыр
ҭенгиз
ҭерџьола
ҭеҭри
ҭианеҭ
ҭижьит
ҭихит
ҭихуеит
ҭоит
ҭориа
ҭоу
ҭоуба
ҭоурых
ҭоурыхла
ҭоурыхтә
ҭоԥуриӡеаа
ҭтә
ҭтәи
ҭхьына
ҭыжәба
ҭызҵаауа
ҭызҵаауаз
ҭынха
ҭынч
ҭырқтәыла
ҭырқә
ҭырқәтәыла
ҭырқәтәылатәи
ҭырқәтәылеи
ҭырқәшәала
ҭышәынтәалара
ҭыҵит
ҭыԥ
ҭыԥк
ҭыԥла
ҭыԥуп
ҭыԥқәа
ҭыԥҳа
ҭҟәарчал
ҭҵ
ҭҵаарадырратә
ҭҵаарадыррақәа
ҭҵааратә
ҭҵаарақәа
ҭә
ү
ұ
ҳ
ҳа
ҳаамҭазтәи
ҳаамҭазы
ҳабацәа
ҳажәлар
ҳазараҭ
ҳазҭагылоу
ҳамоу
ҳамҭас
ҳамҭақәеи
ҳара
ҳаразиа
ҳаразиаԥҳа
ҳарак
ҳаракны
ҳараку
ҳаракы
ҳаракыз
ҳаракыра
ҳасаб
ҳасабала
ҳасабла
ҳасан
ҳафиз
ҳашныха
ҳашыг
ҳашԥсы
ҳашԥҳа
ҳаџьы
ҳаџьымба
ҳаџьынба
ҳақы
ҳаҭыр
ҳе
ҳеидар
ҳера
ҳонолулу
ҳр
ҳтәыла
ҳуанг
ҳҭнықалақь
ҳҭоурых
ҳҳәар
ҳҳәозар
ҳә
ҳәа
ҳәаак
ҳәаақәызҵо
ҳәагьы
ҳәаз
ҳәам
ҳәамҭақәа
ҳәарада
ҳәаҟнытә
ҳәоу
ҳәоуп
ҳәынҭқ
ҳәынҭқараны
ҳәынҭқарра
ҳәынҭқаррак
ҳәынҭқарракны
ҳәынҭқарран
ҳәынҭқарраны
ҳәынҭқарратә
ҳәынҭқаррақәа
ҳәынҭқаррақәаны
ҳәынҭқарроу
ҳәынҭқарроуп
ҳәыс
ҳәҭакла
ҳԥылоит
ҵ
ҵа
ҵабал
ҵабалтәи
ҵабриа
ҵакы
ҵакык
ҵакыла
ҵакыра
ҵакырадгьылк
ҵакыс
ҵаленџьыха
ҵалка
ҵандрыԥшьтәи
ҵара
ҵарадырра
ҵарадыррақәа
ҵарадырреи
ҵараиурҭа
ҵарауаҩ
ҵарауаҩын
ҵареиурҭа
ҵарча
ҵаҟа
ҵаҟатәи
ҵаҵӷәыс
ҵереҭели
ҵи
ҵиаа
ҵиаауп
ҵит
ҵиҵамури
ҵиԥуриа
ҵла
ҵулукиани
ҵысра
ҵысраны
ҵысрақәа
ҵысрақәеи
ҵҟалтубо
ҵҟаро
ҵә
ҵәыззӡа
ҵәыџьба
ҷ
ҷанба
ҷаниа
ҷиаҭура
ҷиҷико
ҷкадуа
ҷлоу
ҷлоутәи
ҷыд
ҷыда
ҷыдала
ҷыдалатәи
ҷыдарақәа
ҷыдас
ҷыдақәа
ҷыф
ҷыҭанаа
ҷыҷыкәа
ҷҟондидел
ҷҟә
ҹ
һ
ҽ
ҽеила
ҽеим
ҽнак
ҽны
ҽтәи
ҿ
ҿагылара
ҿаԥсак
ҿгьы
ҿи
ҿиара
ҿиареи
ҿион
ҿкы
ҿы
ҿык
ҿырҳәала
ҿырҳәалатәи
ҿырԥштәык
ҿырԥштәыс
ҿыц
ҿыци
ҿыцла
ҿыцтәи
ҿыцқәа
ҿҳәарас
ҿә
ӄ
ӆ
ӈ
ӊ
ӌ
ӎ
ӏ
ӏу
ӕ
ә
әӷ
ӡ
ӡа
ӡаԥшьба
ӡбара
ӡе
ӡи
ӡиас
ӡиаск
ӡиӡариа
ӡны
ӡоит
ӡоу
ӡы
ӡыгәҭа
ӡыкәыр
ӡыӡлан
ӡә
ө
ӷ
ӷарибашвили
ӷарибашьвили
ӷумуришьтәи
ӷь
ӷьеҩр
ӷә
ӷәада
ӷәымрышь
ӷәӷәа
ӷәӷәала
ӷәӷәан
ӷәӷәаны
ӷәӷәақәа
ӻ
ӽ
ӿ
ԁ
ԃ
ԅ
ԇ
ԉ
ԋ
ԍ
ԏ
ԑ
ԓ
ԕ
ԗ
ԙ
ԛ
ԝ
ԟ
ԡ
ԣ
ԥ
ԥа
ԥагьа
ԥакәашь
ԥарала
ԥарақәа
ԥаса
ԥасатәи
ԥақәашь
ԥақәашьтәи
ԥаҭ
ԥенџьырк
ԥер
ԥиҵ
ԥлиа
ԥс
ԥсабарала
ԥсадгьыл
ԥсахара
ԥсахны
ԥсахын
ԥсихологиатә
ԥсоу
ԥсоуи
ԥстәы
ԥсуеит
ԥсы
ԥсылм
ԥсырӡха
ԥсырӡхатәи
ԥсыхәа
ԥсыӡ
ԥсҭ
ԥсҭазаара
ԥсҭазаараҿы
ԥсҳәы
ԥх
ԥха
ԥхын
ԥхынгәы
ԥхынгәымза
ԥхынгәынӡа
ԥхынҷкәы
ԥхынҷкәымза
ԥхынҷкәын
ԥхынҷкәынмза
ԥхынҷкәынмзазы
ԥхь
ԥхьатәара
ԥхьаҟа
ԥхьаҟатәи
ԥш
ԥшеи
ԥшр
ԥшра
ԥшхәыс
ԥшь
ԥшьба
ԥшьи
ԥшькәакьҭақәа
ԥшьу
ԥшьы
ԥшьынҩажәа
ԥшьынҩажәи
ԥшьышықәса
ԥшьышә
ԥшьышәи
ԥшьҩык
ԥшӡа
ԥырҵәеит
ԥышәа
ԥышәарақәа
ԥыҭк
ԥыҭраамҭак
ԥыҭрак
ԥыҭҩык
ԥҟараны
ԥҟарақәа
ԥҟьақәа
ԥҳа
ԥҳан
ԥҳәыс
ԥҳәыси
ԥҳәысс
ԥҵ
ԧ
ԩ
ԫ
ԭ
ԯ
ա
դ
ե
զ
թ
ի
լ
կ
հ
ղ
մ
յ
ն
շ
ո
չ
պ
ռ
ս
վ
տ
ր
ւ
փ
ք
և
։
א
ב
ד
ו
י
ל
מ
נ
ע
ר
ש
ת
ء
ا
اسلامي
افغانستان
اق
البحرين
الجمهورية
الديمقراطية
السنغال
السودان
الصومال
العربية
المتحدة
المغرب
المملكة
ایران
ب
ة
ت
تشاد
ث
ج
جمهورية
ح
خ
د
ذ
ر
ز
س
ش
ص
صوماليلاند
ط
ظ
ع
غ
ف
ق
ك
ل
ليبيا
م
مصر
ن
ه
و
ولاية
ى
ي
ٱ
ٴ
پ
ښ
ڬ
ۇ
ی
গ
জ
ণ
ত
দ
ন
প
ব
ভ
র
ল
শ
ખ
ફ
બ
ર
લ
સ
இ
இலங
க
ங
ச
ட
ண
ந
ன
ம
ய
ர
ல
ක
ජ
ත
ද
න
ප
ම
ය
ර
ල
ව
ශ
ස
ළ
་
ག
བ
འ
ཡ
ལ
ა
აბა
აბაა
აბაახიბრის
აბიყუს
აბჟაყვის
აბღარქუხის
ავტონომიური
აზანთის
ათა
ათარა
ათარის
ათონის
აილაგა
ალახაძის
ალექსანდროვკის
ამაღლების
ამზარის
ანტიოქიელი
ანუხვის
აჟარის
არაბულიდან
არადუს
არასაძიხი
არმაღანი
არქეოლოგიური
არქიტექტურული
აფხაზეთი
აფხაზეთის
აფხაზეთში
აღწერა
აძუბჟის
აჭანდარის
ახალაძე
ახალი
ახალშენის
ახუწის
აჯამფაზარის
ბ
ბაბუშარის
ბაზილიკა
ბარბარეს
ბატონიშვილი
ბაღმარანის
ბედიის
ბერძენიშვილი
ბერძნების
ბერძნული
ბესლახუბის
ბესლეთის
ბზიფის
ბირცხის
ბირჯის
ბომბორის
ბრძანებულება
გ
გაგრის
გაზ
გამახარია
გამოც
განთიადის
გვ
გვარდის
გიორგი
გიორგის
გუდავის
გუდაუთის
გუმბათიანი
გუმისთის
გუფის
დ
და
დადგენილი
დავით
დარბაზი
დასავლეთ
დემეტრეს
დიოსკურიის
დიხაზურგის
დოლმენები
დრანდის
დურიფშის
ე
ეკლესია
ეკლესიის
ელიას
ენა
ენგურის
ენციკლოპედია
ეპიგრაფიკა
ეროვნული
ეშერის
ვ
ვახტანგ
ვახუშტი
ზ
ზეგანის
ზემო
ზვანდრიფშის
ზოგიერთი
ზურაბ
თ
თაგილონის
თარგმნა
თაყაიშვილი
თბ
თბილისი
თევდორეს
თვითიდენტიფიკაციის
თოდუა
ი
იანი
იაშთხვის
ილორის
ირაკლი
ისტორია
ისტორიის
კ
კაკაბაძე
კამანის
კანანელის
კანდიდატის
კატეგორიის
კომპლექსი
კოშკი
კრ
კრებ
კრებული
კულტურის
კულტურული
ლ
ლაზი
ლაპიდარული
ლაშა
ლიხნის
ლუკა
მ
მაკარი
მარგველაშვილმა
მართლმადიდებლობა
მარმალაბაა
მეგობარი
მემკვიდრეობა
მემკვიდრეობის
მთის
მიერ
მინიჭების
მიხედვით
მნიშვნელობის
მოამბე
მონასტერი
მოსაპოვებლად
მოსახლეობის
მოქვი
მოქვის
მუზეუმი
მხარე
ნ
ნაკვ
ნანგრევები
ნიკოლოზ
ნიკოლოზის
ნოემბერი
ო
პ
პეტროვსკოეს
პირველი
პორტალი
პრეზიდენტის
ჟ
რ
რედაქტორი
რესპუბლიკა
როგავა
როგორც
ს
საგერგაიოს
საეპისკოპოსო
საისტორიო
საკითხები
სალოცავი
სამეგრელო
სამეფოსა
სამეცნიერო
სამსახური
სასისხლო
საქართველო
საქართველოს
საქართველოსა
საყოველთაო
სექტემბერი
სვანეთის
სვიმონ
სია
სიგელების
სინაგოგა
სოფ
სოხუმი
სოხუმის
სს
სტატისტიკის
ტ
ტაძარი
ტექსტი
ტფ
უ
უძრავი
ფ
ფოქვეშის
ფრესკული
ქ
ქართლის
ქართული
ქვემო
ქიაჩის
ქობალია
ქუთაისი
ღ
ღვთისმშობლის
ღმრთისმშობლის
ღუმურიშის
ყ
ყაუხჩიშვილის
ყველა
შ
შესახებ
ჩ
ჩამკეტი
ც
ციხე
ციხესიმაგრე
ცნობები
ცხოვრება
ძ
ძე
ძეგლები
ძეგლების
ძეგლის
ძეგლისათვის
ძველი
ძიებანი
ძირითადი
წ
წარწერები
წლის
წმინდა
წყაბას
წყარო
წწ
ჭ
ხ
ხარისხის
ხელნაწერის
ხიდი
ხიდის
ხორავა
ხოფის
ჯ
ჯირხვის
ჯოჯუა
ჱ
ჲ
ჳ
ᄀ
국
ᄃ
ᄆ
민
ᄉ
선
ᄋ
어
ᄌ
조
주
ᄒ
한
ᅡ
ᅢ
ᅥ
ᅩ
ᅪ
ᅮ
ᅴ
ᅵ
ᆨ
ᆫ
ᆼ
ሃ
ሊ
ላ
ል
ሞ
ሪ
ራ
ሬ
ር
ሲ
ባ
ብ
ት
ኢ
ኤ
ክ
ዊ
ዞ
የ
ያ
ዮ
ዲ
ዴ
ግ
ጵ
ፌ
ፐ
‐
–
—
―
‘
’
“
”
„
†
•
…
⁄
€
№
→
↔
↷
−
③
④
⑦
ⴰ
ⴱ
ⴳ
ⴷ
ⴹ
ⴻ
ⴼ
ⵉ
ⵍ
ⵍⵎⵖⵔⵉⴱ
ⵎ
ⵏ
ⵓ
ⵔ
ⵖ
ⵜ
ⵟ
ⵢ
ⵣ
⺀
⺄
⺆
⺈
⺊
⺌
⺕
⺝
⺸
⺼
⿰
⿱
⿲
⿳
⿴
⿵
⿶
⿷
⿸
⿹
⿺
⿻
〢
コ
ユ
㇁
㇂
㇄
㇇
㇈
㇉
㇓
㐁
㐄
㐅
㐌
㐫
㐬
㐭
㐮
㐱
㑒
㒵
㒸
㒼
㓁
㓞
㔾
㕛
㕣
㖾
㘝
㚅
㚇
㚔
㚘
㝉
㝡
㝴
㝵
㞋
㞢
㞷
㠩
㠭
㠯
㡀
㡭
㡿
㢲
㢴
㣇
㣺
㥯
㪅
㫄
㫐
㫒
㫺
㬅
㬎
㬥
㬰
㲋
㳄
㷠
㸒
㸚
㸦
㼌
㼲
㽞
㿟
䀠
䂞
䍃
䏍
䒑
䖍
䖒
䖝
䖵
䙴
䚻
䜌
䝿
䡛
䧹
䪞
一
丁
丂
七
丄
丅
丆
万
丈
三
上
下
丌
不
与
丏
丐
丑
专
且
丕
世
丘
丙
业
东
丞
丢
丣
两
严
並
丨
丩
个
丫
丬
中
丮
丰
丱
串
丵
丶
丷
丸
丹
为
主
丽
丿
乀
乂
乃
久
乆
乇
么
义
之
乌
乍
乎
乏
乐
乑
乔
乖
乗
乘
乙
乚
乛
乜
九
乞
也
习
乡
乳
乾
亀
亅
了
亇
予
争
事
二
亍
于
亏
亐
云
互
亓
五
井
亘
亚
亜
亞
亟
亠
亡
亢
交
亥
亦
产
亨
亩
享
京
亭
亮
亯
亰
亲
亳
亶
亷
人
亻
亼
亾
仁
今
介
仌
从
仐
仑
仒
仓
仕
他
付
仝
代
令
以
任
企
伊
伏
伐
休
会
伯
但
位
何
佘
余
作
佥
使
來
侈
侌
侖
侯
侵
便
保
俞
信
修
倉
倍
候
倠
備
僉
僕
儿
兀
允
兂
元
兄
充
兆
兇
先
光
兊
克
兌
免
兑
兒
兓
兔
党
兜
兟
入
全
兩
兪
八
公
六
兮
兰
共
关
兴
兵
其
具
典
兹
兼
冀
冂
冃
冄
内
冈
冉
冊
冋
册
再
冎
冏
冐
冒
冓
冖
冗
冘
军
农
冝
冡
冥
冫
冬
冷
几
凡
凢
凵
凶
凷
凸
凹
出
函
凾
刀
刁
刂
刃
刄
刅
分
切
刍
刑
刕
刖
列
刘
则
初
別
利
别
到
制
刺
則
削
剌
前
剡
剽
劉
力
功
加
劦
助
劫
劳
劵
勃
勇
勉
勒
動
務
勞
勤
勹
勺
勻
勾
勿
匀
匂
包
匆
匈
匊
匋
匍
匕
化
北
匚
匝
匡
匪
匱
匸
匹
区
医
匽
匿
區
十
卂
千
卄
卅
卆
升
午
卉
半
卌
华
卑
卒
卓
单
卖
南
卜
卝
卞
占
卡
卢
卣
卤
卦
卩
卪
卬
卯
印
危
即
却
卵
卷
卸
卻
厂
厃
厄
历
厈
厉
厌
厓
厘
厚
原
厤
厥
厨
厭
厲
厶
厷
厸
去
厼
厽
叀
参
參
叅
又
叉
及
友
双
反
叐
发
叒
叔
叕
取
受
叚
叜
叟
口
古
句
另
叩
只
召
可
台
叱
史
右
叵
号
司
叹
吂
各
吅
合
吉
吊
吋
同
名
后
吏
向
吕
君
吝
吞
否
含
启
吳
吴
吹
吾
呂
呆
呈
告
员
呙
周
命
咅
和
咎
咠
咢
咨
咸
咼
哀
品
哉
員
哥
哲
唐
商
啇
問
啚
啬
啻
善
喜
喬
單
喿
嗇
噩
嚴
囊
囗
囘
囙
囚
四
回
囟
因
囧
囬
困
囱
囷
固
国
圂
圅
國
圍
圓
土
圡
圣
圥
在
圭
地
圶
圼
坐
坒
坚
坴
垂
垔
垚
埀
埋
埶
執
基
堂
堅
堆
堇
堯
塞
墨
壘
士
壬
壯
声
壳
壴
壹
壺
壽
夂
处
夅
夆
备
夊
夋
夌
复
夏
夒
夕
外
夗
夘
多
夜
夢
大
夨
天
太
夫
夬
夭
央
失
夲
头
夷
夸
夹
夻
夾
奂
奄
奇
奈
奉
奎
奏
奐
契
奓
奔
奚
奞
奠
奢
奥
奭
女
奴
奻
好
如
妄
妙
妟
妥
妻
妾
姑
委
姜
威
娄
婁
婴
嬰
嬴
子
孑
孔
孕
孖
字
存
孚
孛
孝
孟
季
孤
学
孫
孱
學
宀
宁
宂
它
宅
宇
守
安
宋
完
宏
宓
宗
官
定
宛
宜
宝
客
宣
室
宮
宰
害
家
容
宾
宿
寄
寅
密
富
寒
察
寧
審
寫
寬
寮
寸
对
寺
寻
寽
対
寿
封
尃
射
将
將
專
尉
尊
尋
尌
對
小
少
尒
尓
尔
尖
尗
尚
尞
尢
尣
尤
尧
尨
尭
就
尸
尹
尺
尻
尼
尽
尾
尿
局
居
屈
屋
屎
屏
屑
展
屖
屚
属
屠
屡
屬
屮
屯
屰
山
屵
屾
岁
岂
岑
岡
岩
岳
岸
峯
島
崇
崑
崔
崖
崙
崩
嵬
嶲
巂
巛
川
州
巟
巠
巢
巤
工
左
巧
巨
巩
巫
差
己
已
巳
巴
巷
巸
巽
巾
巿
帀
市
布
希
帚
帛
帝
带
師
席
帶
常
干
平
年
幵
并
幷
幸
幺
幻
幼
幽
幾
广
広
庄
床
底
店
庚
府
度
庫
庭
庶
康
庸
廉
廌
廛
廣
廩
廴
延
廷
建
廾
廿
开
弁
弃
弄
弇
弋
式
弓
弔
引
弗
弘
弜
弟
弥
弦
弱
張
強
强
彊
彌
彎
彐
彑
当
彔
录
彖
彗
彡
形
彥
彦
彧
彭
彳
役
彼
往
待
律
徒
得
徙
從
復
微
徵
心
忄
必
忌
忍
志
忝
忠
忩
快
念
忽
忿
思
怠
急
怱
恆
恒
恩
恭
息
悉
患
悤
悲
悶
惠
惡
惢
愁
愈
意
愛
感
慈
慧
慮
憂
憲
應
戀
戈
戉
戊
戋
戌
戍
戎
成
我
戒
戔
或
戚
戠
戢
截
戲
戶
户
戹
戼
戾
房
所
扁
扇
手
扌
才
打
托
执
承
折
报
拉
拜
拿
据
掌
推
提
摩
支
攴
攵
收
攸
改
放
政
敄
敏
敕
敖
敗
敝
敞
敢
散
敦
敫
敬
数
敷
數
斂
文
斉
斊
斎
斗
斤
斥
斩
斬
斯
新
方
於
施
斿
旁
旋
族
无
旡
既
旣
日
旦
旧
旨
早
旬
旱
旲
时
旾
昆
昇
昌
昍
明
昏
易
昔
昗
昜
星
春
昬
是
昱
昴
昷
時
晃
晋
晏
普
景
晶
智
暑
暴
曇
曩
曰
曲
曳
更
曷
書
曹
曼
曾
替
最
朁
會
月
有
朋
服
朔
朕
朗
望
朝
木
朩
未
末
本
札
朮
术
朱
朵
朶
朿
杀
杏
村
杜
束
条
来
東
杲
杳
松
析
林
枚
果
枝
枲
枼
某
柔
查
柬
柰
柴
栗
桀
桑
桼
梁
條
梟
梨
棘
棠
棥
森
楚
業
楽
榮
樂
樊
欠
次
欣
欮
欲
欶
欽
款
歆
歇
歛
止
正
此
步
武
歨
歪
歮
歯
歰
歲
歴
歷
歸
歹
歺
死
殳
段
殷
殸
殹
殺
殻
殿
毋
毌
母
每
毒
比
毕
毚
毛
毳
氏
氐
民
气
氣
水
氵
氶
氷
永
氺
氾
求
汉
汝
汞
江
沃
沓
沙
沝
泉
法
波
泣
泥
泰
洛
洪
活
派
流
浦
浪
浮
淡
淮
清
渚
渠
湯
滿
漢
漸
火
灬
灭
灰
灵
灷
炅
炎
炏
炗
炙
炭
為
烈
烏
烝
焉
無
焦
焱
然
煞
熊
熏
燕
營
燮
爪
爫
爭
爯
爰
爱
爲
爵
父
爻
爽
爾
爿
片
牙
牚
牛
牜
牟
牢
牧
牪
牽
犀
犬
犭
犮
狂
狄
狊
独
狺
猋
猒
猪
献
獻
玄
率
玉
王
玟
玨
现
珎
班
現
琴
瑟
瑩
璠
瓜
瓦
甘
甚
生
産
用
甫
甬
田
由
甲
申
电
甶
男
甸
甹
画
甾
畀
界
畏
畐
留
畜
畟
畢
畧
畨
番
畫
異
畱
當
畺
畾
疊
疋
疌
疑
疒
疾
癶
癸
癹
登
發
白
百
皀
皃
的
皆
皇
皋
皐
皕
皮
皷
皿
盃
盆
盇
盈
益
盍
盎
监
盒
盖
盛
盡
監
盤
盧
目
直
相
盾
省
眇
眉
看
眔
眞
真
眷
眼
眾
着
睘
睪
睿
瞏
瞢
瞿
矍
矛
矞
矢
矣
知
矦
短
石
破
碎
磊
磨
示
礻
礼
祟
票
祭
禀
禁
禸
禹
禺
离
禽
禾
禿
秀
秃
秉
秋
科
秝
秦
移
稟
穀
穌
穴
究
穹
空
穿
突
窄
窒
立
竒
竜
竝
竟
章
童
竹
笑
笠
第
筆
等
答
箕
算
箴
節
篤
篭
米
粉
粛
粟
粤
粦
粲
糞
糸
糹
系
約
納
素
索
紫
累
細
絜
絫
絲
維
綿
縣
繇
纍
纟
缶
网
罒
罔
罕
罗
罙
罡
罢
罪
署
罷
羅
羊
羌
羍
美
羔
羕
羗
羞
羡
羣
群
義
羲
羸
羽
翁
翏
習
翕
翟
翠
翼
老
耂
考
者
耆
而
耎
耑
耒
耳
耴
耶
耷
聂
聊
聖
聚
聶
聿
肀
肃
肅
肉
肖
肙
肥
肩
肯
育
肴
胃
背
胡
胥
能
脊
脩
膚
臣
臤
臧
自
臬
臭
臯
臱
至
致
臺
臼
臽
臾
臿
舀
舂
舄
與
興
舉
舌
舍
舛
舜
舞
舟
般
船
艮
良
色
艸
艹
艾
芒
芔
芬
芮
花
芳
芺
芻
苑
苔
苗
苟
若
苦
英
茶
茸
荅
草
荒
荣
荼
莆
莧
莫
莽
菆
菊
菐
華
萬
落
葉
著
葛
董
葵
蒙
蒦
蒼
蓋
蓬
蓺
蔑
蔡
蕉
蕭
薄
薛
薦
薰
藍
藏
藥
蘭
虍
虎
虐
虒
虔
處
虖
虗
虘
虚
虛
虜
虞
虫
虽
蚤
蚩
蜀
蜜
蟲
蠡
血
行
衍
衛
衣
衤
表
衮
衰
袁
袞
褭
褱
襄
襾
西
覀
要
覃
見
規
覓
覧
親
覽
见
角
解
言
訁
訇
計
詹
語
誩
諸
讠
语
谷
豆
豈
豊
豐
豕
豖
豙
象
豦
豩
豪
豸
貇
貝
貞
貟
負
貢
貧
貪
貫
責
貳
貴
買
費
賁
資
賈
賏
賓
賔
賛
賞
賢
賣
質
賴
贊
贝
贡
责
贯
贲
贵
贸
赖
赞
赤
赦
走
越
足
路
蹇
身
躬
車
軍
軎
軟
輦
车
辛
辜
辟
辥
辰
辱
農
辵
辶
边
达
过
运
近
连
迷
追
退
送
逆
逐
通
速
造
逢
連
逮
進
遀
遂
過
道
達
遣
適
遷
遺
邊
邑
邕
那
邦
邪
郎
部
郭
都
鄉
酉
酋
配
酓
釆
采
里
重
野
量
金
釒
錢
钅
長
镸
长
門
閃
閉
開
閏
閑
閒
間
閔
閵
閻
闌
门
间
闷
阑
阜
阝
阳
阿
降
陳
隆
隊
隋
隡
隨
隱
隶
隹
隺
隻
隼
隽
难
雀
雁
集
雈
雋
雍
雐
雔
雙
雚
雜
雝
離
難
雨
雩
雪
雲
零
雷
需
霍
霜
霝
霞
霸
靈
靑
青
非
靡
面
靣
革
韋
韦
韭
韯
韱
音
頁
頃
項
須
頗
頡
頻
顛
页
風
风
飛
飞
食
飠
飾
養
饣
首
香
馬
馮
駦
马
骨
高
髟
鬥
鬯
鬲
鬼
魚
魯
鮮
鱼
鲁
鳥
鳳
鸟
鹵
鹿
麃
麗
麥
麦
麻
黃
黄
黍
黎
黑
黒
黨
黹
黽
黾
鼎
鼓
鼠
鼻
齊
齋
齐
齒
齿
龍
龙
龜
龟
龠
龰
龱
龴
龵
龶
龷
龸
龹
ꙁ
ꙃ
ꙅ
ꙇ
ꙉ
ꙋ
ꙍ
ꙏ
ꙑ
ꙓ
ꙕ
ꙗ
ꙙ
ꙛ
ꙝ
ꙟ
ꙡ
ꙣ
ꙥ
ꙧ
ꙩ
ꙫ
ꙭ
ꙮ
ꚁ
ꚃ
ꚅ
ꚇ
ꚉ
ꚋ
ꚍ
ꚏ
ꚑ
ꚓ
ꚕ
ꚗ
ꚙ
者
艹
？
￼
𞤢
𞤣
𞤤
𞤤𞤭
𞤧
𞤧𞤫𞤲𞤫𞤺𞤢
𞤪
𞤫
𞤭
𞤲
𞤺
𠀁
𠀃
𠀆
𠀉
𠀎
𠀐
𠁁
𠁣
𠂆
𠂇
𠂈
𠂉
𠂊
𠂋
𠂎
𠂒
𠂔
𠂛
𠂡
𠂢
𠂤
𠂬
𠂭
𠂹
𠃊
𠃋
𠃌
𠃍
𠃎
𠃑
𠃓
𠃔
𠃜
𠄌
𠄎
𠄠
𠄢
𠆢
𠆥
𠇍
𠈌
𠌵
𠓜
𠔉
𠔥
𠔼
𠔽
𠔿
𠕀
𠕁
𠕋
𠘧
𠘨
𠙻
𠙼
𠚏
𠚒
𠚤
𠚪
𠣏
𠤎
𠤕
𠥓
𠦄
𠦑
𠦝
𠧒
𠧗
𠧪
𠩺
𠪚
𠫓
𠫔
𠫤
𠬛
𠬝
𠬞
𠬢
𠬤
𠬶
𠮛
𠮦
𠮷
𠯑
𠱠
𠳮
𠷎
𡈼
𡉀
𡉵
𡌥
𡍮
𡏳
𡕒
𡕩
𡕰
𡖅
𡗗
𡗜
𡘆
𡘤
𡧱
𡨄
𡩧
𡬠
𡭽
𡰣
𡰥
𡰪
𡰯
𡰱
𡷈
𡸁
𡿨
𡿩
𡿪
𡿺
𢀖
𢀛
𢀩
𢁙
𢆉
𢆰
𢆶
𢇁
𢇇
𢉖
𢌬
𢌿
𢏚
𢑑
𢑚
𢖻
𢙣
𢛳
𢦏
𢦒
𢧵
𢼄
𢾕
𣁋
𣄼
𣅀
𣅽
𣍘
𣎳
𣎵
𣏋
𣏼
𣗥
𣥂
𣥖
𣦵
𣦼
𣧄
𣪊
𣪠
𣬉
𣳾
𣶒
𤇾
𤊽
𤐫
𤓰
𤔔
𤕨
𤣩
𤰇
𤰔
𤰞
𤴓
𤴔
𤽄
𥁑
𥁕
𥃦
𥃩
𥃭
𥇡
𥑟
𥘅
𥘈
𥝢
𥫗
𥱡
𦈢
𦉪
𦉬
𦉼
𦍌
𦍒
𦎧
𦐇
𦓔
𦔮
𦘒
𦙃
𦚏
𦣝
𦣞
𦣻
𦥑
𦥔
𦥯
𦨉
𦭝
𦰩
𧆞
𧈧
𧘇
𧰨
𧴪
𧴮
𧵩
𧾷
𨸏
𨾴
𩙿
𩠐
𩫏
𩵋
𪉷
𪜀
𪟽
𪠲
𪩲
𫇦
𫔭
𫜸
𫝀
𫠣
𫠩
𫢉
𫥞
𫩏
𫩠
𫪡
𫲽
𫶧
𬀷
𬐘
𬗌
𬙙
𬛸
𬜯
𬟩
𬯁
𬴘
𬺻
𬼉
𬼖
𭀰
𭁈
𭁨
𭅰
𭑈
𭕄
𭗼
𭤨
𭥫
𭻾
𮅕
𮊿
𮍌
𮍏
𮓗
𮥼
𮧮
廾
𰀁
𰀄
𰀈
𰀉
𰀕
𰀠
𰀡
𰀢
𰀪
𰁜
𰃮
𰆊
𰆘
𰋙
𰕎
𰢴
𰧭
𰯲
0--
00--
01--
02--
03--
04--
09--
1--
2--
3--
4--
5--
6--
7--
8--
9--
978--
a--
ab--
ac--
ad--
ag--
al--
am--
an--
anim--
anti--
ap--
ar--
arme--
as--
at--
au--
auto--
av--
az--
ba--
bass--
bast--
be--
bg--
bi--
bl--
bo--
br--
bu--
ca--
camp--
cauc--
ce--
ch--
christ--
chro--
chry--
ci--
cl--
clem--
co--
conc--
confed--
cont--
corr--
cr--
crea--
cu--
cy--
da--
de--
del--
demo--
depend--
di--
dire--
dist--
divi--
do--
dr--
du--
dy--
ea--
ed--
eh--
el--
elec--
em--
en--
er--
et--
ex--
f--
fa--
fe--
fi--
fl--
fo--
fr--
freq--
fu--
ga--
gabu--
ge--
gi--
go--
gr--
green--
gu--
ha--
hand--
he--
helv--
hi--
histor--
ho--
hrva--
hu--
id--
im--
in--
inco--
inst--
inte--
ir--
is--
iu--
iz--
ja--
je--
ji--
jo--
ju--
ka--
ke--
kn--
know--
ko--
ku--
la--
latv--
le--
li--
ll--
lo--
lu--
lycope--
ma--
maqe--
me--
mi--
mo--
mora--
moun--
mu--
na--
napo--
nase--
nauj--
ne--
neder--
no--
nu--
ny--
ob--
oler--
op--
or--
os--
ot--
ou--
pa--
pe--
peni--
pete--
pi--
pl--
po--
poli--
polu--
pr--
prin--
pu--
publ--
qa--
ra--
re--
rega--
repu--
resp--
ri--
ro--
ru--
sa--
sc--
se--
sere--
sh--
shqi--
si--
sk--
sl--
slavis--
slov--
sm--
so--
sp--
spra--
st--
stat--
stee--
stra--
stud--
su--
supe--
sv--
sw--
sy--
ta--
tamb--
tara--
te--
terr--
th--
ti--
to--
tr--
tran--
tu--
um--
un--
univ--
ur--
us--
va--
vati--
ve--
vi--
vo--
vɔ--
wa--
war--
we--
wh--
wi--
wo--
xa--
xx--
ye--
za--
zi--
zv--
ɑ--
ə--
ελλη--
а--
аа--
аадыр--
ааз--
аазыр--
аан--
аанкы--
ааннакы--
ааҭы--
аб--
аба--
абалкар--
абаҩ--
абга--
абе--
абжь--
абжьара--
абио--
або--
абри--
абсо--
абы--
ав--
ава--
аве--
ави--
авра--
авто--
аг--
ага--
агв--
агено--
агео--
агеоло--
агита--
аглоб--
агр--
агро--
агә--
ад--
адгыла--
адгьыл--
аде--
адемок--
адин--
адист--
адкы--
адна--
адоу--
аду--
адыз--
адыр--
адә--
ае--
аекс--
аене--
аеп--
аепи--
аес--
аетно--
аж--
ажь--
ажьи--
ажәа--
аз--
аза--
азаанаҭ--
азгә--
азин--
азинеил--
азне--
азу--
азха--
азы--
азыбж--
азԥхьагә--
аи--
аиа--
аиде--
аикә--
аила--
аилыр--
аим--
аин--
аинва--
аингыларҭ--
аингәыш--
аинспек--
аинституциона--
аинстру--
аинфраструк--
аиу--
аихамҩа--
аиц--
аицы--
аиҭ--
аиҭаҵ--
аиҳабыра--
аиҿ--
аиҿка--
ак--
акам--
аква--
акз--
акк--
ако--
акоммуника--
акомун--
акон--
аконт--
аконцеп--
акр--
акрим--
акт--
аку--
акь--
акьыр--
акә--
акәы--
ал--
ала--
алагал--
аладь--
алана--
алар--
албе--
алд--
алеи--
ална--
ало--
алт--
алы--
алыр--
ам--
ама--
амаза--
амапк--
амет--
ами--
амиг--
амиф--
амкә--
амо--
амони--
амоно--
амону--
аму--
амульти--
амх--
амца--
амш--
амырҭ--
амҭ--
амҵ--
ан--
ана--
анапы--
анаԥҵ--
анд--
андер--
анеи--
анео--
ант--
анти--
антро--
анх--
анцәа--
анч--
аны--
аныры--
аныха--
анҭ--
анҵә--
ао--
аолимп--
аоппози--
ап--
апан--
апарт--
апат--
апеда--
апеи--
апл--
апле--
аполикли--
апро--
апробка--
апролет--
апрот--
апротест--
апы--
ар--
ара--
аргу--
аре--
аред--
ари--
аркка--
ару--
археоло--
археологи--
архитек--
арц--
арша--
ары--
арыма--
арыӷьара--
арӡы--
арӷә--
ас--
асе--
асез--
асеп--
асесси--
асо--
асп--
аспеци--
асси--
аст--
асҭ--
ат--
ата--
ателе--
атро--
атә--
ау--
ауни--
аурыс--
аус--
аусу--
аусҳәарҭ--
ауҭ--
аф--
афатә--
афаш--
афо--
афункци--
афҩы--
ах--
аха--
ахархә--
ахац--
ахкы--
ахса--
ахъ--
ахы--
ахыла--
ахылҿи--
ахылԥа--
ахь--
ахьы--
ахҵә--
ахә--
ахәаҽ--
ахәшә--
ахәҳа--
ац--
ацгә--
ацә--
ацәа--
ацәи--
ача--
ачаиф--
аш--
ашыц--
ашық--
ашь--
ашьа--
ашьха--
ашьы--
ашьҭы--
ашә--
ашәуа--
ашәы--
ашәҟә--
аџьы--
ақ--
ақь--
ақә--
ақәы--
ақәыла--
ақәҭә--
ақәԥа--
аҟ--
аҟа--
аҧ--
аҧы--
аҩ--
аҩада--
аҩна--
аҩы--
аҩыч--
аҩӡыбжь--
аҭ--
аҭаа--
аҭауад--
аҭоу--
аҭы--
аҭышәантә--
аҭә--
аҳ--
аҳа--
аҳаир--
аҳаирплан--
аҳаынҭқ--
аҳә--
аҳәынҭ--
аҵ--
аҵа--
аҵан--
аҵыр--
аҵә--
аҷ--
аҷкәан--
аҽ--
аҽанааиҩ--
аҽы--
аҿа--
аҿи--
аҿы--
аӡ--
аӡы--
аӷ--
аӷә--
аԥ--
аԥа--
аԥе--
аԥс--
аԥсуа--
аԥсы--
аԥшшә--
аԥшы--
аԥшыхә--
аԥшьга--
аԥшьганеиҟара--
аԥшӡа--
аԥы--
аԥыр--
аԥых--
б--
ба--
баг--
балка--
бар--
бас--
басм--
бат--
баш--
баҩ--
баӷры--
бе--
беи--
беларус--
белорус--
белф--
бен--
бер--
бера--
бере--
бес--
бессме--
бжь--
би--
био--
бла--
бна--
бо--
бол--
болг--
бом--
бос--
бост--
бот--
боярс--
бр--
бро--
бу--
бурж--
бы--
быр--
в--
ва--
вавилон--
вар--
вве--
ве--
веи--
вели--
вене--
вес--
ви--
вин--
вино--
внут--
во--
воз--
вок--
воору--
восст--
вост--
вось--
вре--
все--
вто--
вхо--
вы--
выступ--
г--
га--
гам--
ган--
гар--
гв--
ге--
гео--
гио--
гл--
гла--
го--
гор--
гр--
гре--
грен--
грена--
гру--
гу--
гур--
гь--
гье--
гә--
гәа--
гәаан--
гәы--
гәым--
д--
да--
даа--
дагь--
дазы--
даиа--
дал--
дамаза--
дан--
дана--
данаха--
данақә--
дане--
даны--
данҭ--
дап--
дар--
дас--
дах--
даха--
дахаҭ--
дахцәа--
дахы--
дахь--
дақә--
даҽа--
даҿа--
дгье--
де--
деи--
демо--
депут--
детро--
дж--
джан--
дз--
дзы--
дзықә--
ди--
диб--
дин--
диос--
диреқ--
диссе--
диха--
дли--
длы--
дна--
дне--
до--
добро--
док--
доль--
дост--
дра--
древ--
дру--
дры--
дрыд--
дрыцхра--
дтә--
ду--
дхын--
дц--
дцар--
дцә--
дцәа--
дш--
дша--
ды--
дыбна--
дыз--
дынх--
дыны--
дыр--
дырка--
дырҭ--
дыхәма--
дычма--
дыш--
дышҭ--
дықә--
дюсс--
дҟ--
дҭ--
дҭынч--
дҵа--
дҵара--
дә--
е--
ев--
евк--
евро--
евфр--
егь--
егьа--
еи--
еиба--
еид--
еидкы--
еидыс--
еидҳә--
еиз--
еизаа--
еил--
еила--
еилика--
еилка--
еилы--
еилырка--
еим--
еимак--
еиу--
еих--
еиц--
еицыр--
еиқә--
еиҟа--
еиҟә--
еиҭ--
еиҭа--
еиҵ--
еиҵа--
еиҵар--
еиҿ--
еиҿка--
еиҿнака--
еиҿыр--
ек--
екс--
ел--
еле--
ем--
ен--
ена--
енг--
ент--
еп--
епигра--
ер--
ере--
ерма--
ес--
ест--
ет--
етно--
ж--
же--
жо--
жы--
жьыр--
жә--
жәа--
жәы--
жәҩакә--
з--
за--
заб--
зак--
зап--
заԥс--
звени--
зе--
зем--
зин--
зк--
зкап--
зла--
зм--
зна--
знап--
зол--
зоу--
зу--
зы--
зыз--
зыл--
зым--
зыр--
зыч--
зыҩ--
зҭ--
зҵ--
зҽ--
зҿы--
и--
иа--
иаад--
иааи--
иааир--
иаамҭ--
иаар--
иаары--
иабжь--
иагхо--
иагь--
иад--
иади--
иадкы--
иадыр--
иаз--
иазаа--
иазгә--
иазха--
иазы--
иазына--
иаиа--
иаир--
иакә--
иал--
иала--
иалам--
иалар--
иалацәа--
иалаҵә--
иали--
иалика--
иална--
иалы--
иалыз--
иалҵ--
иам--
иами--
иамх--
иамы--
иан--
иангә--
ианеи--
ианы--
ианыр--
иар--
иаргә--
иас--
иатә--
иау--
иах--
иаха--
иахар--
иахь--
иахьа--
иахьыр--
иац--
иаци--
иацә--
иацәы--
иачемп--
иаш--
иақә--
иаҭ--
иаҭә--
иаҳ--
иаҵа--
иаҵад--
иаҿ--
иаҿа--
иаӡ--
иаԥ--
иаԥс--
иаԥы--
иаԥырха--
иб--
ибе--
ибжь--
иг--
игы--
игь--
игье--
игә--
игәаԥ--
ид--
идеал--
идеолог--
идин--
иду--
идыр--
ие--
иеи--
иж--
ижә--
из--
иза--
изаамҭ--
изакәан--
издат--
изла--
излары--
излашьақә--
изна--
изра--
изу--
изц--
изы--
изҭа--
ииас--
ииаӡа--
ииҭ--
ик--
ика--
икы--
икылна--
икь--
икә--
ил--
ила--
илзы--
илы--
им--
има--
имари--
имаҷ--
имаӡ--
име--
имч--
имҵа--
ин--
ина--
инаг--
инап--
инаскь--
инеи--
ино--
инте--
интел--
иныҟә--
иоак--
иоу--
ипл--
ир--
ира--
ирба--
ире--
ирзоу--
ирзы--
иркьы--
ирл--
ирны--
ирха--
ирхы--
иры--
ирыбжь--
ирывар--
ирыд--
ирыди--
ирыз--
ирызхь--
ирыл--
ирым--
ирых--
ирыхҭ--
ирыц--
ирықә--
ирыҭ--
ирыҵа--
ирыӡ--
ирыԥс--
ирыԥш--
ирҭ--
ирҵ--
ирҿа--
ирԥыр--
ис--
исп--
ист--
источ--
исф--
исы--
ит--
итә--
иу--
иуб--
иузы--
иус--
иуԥш--
иф--
их--
ихац--
ихсаала--
ихшыҩ--
ихы--
ихыл--
ихырб--
ихь--
ихьшә--
ихьыс--
ихҭ--
ихәыц--
ихәыҷ--
иц--
ица--
ицә--
ицәа--
ицәыр--
иш--
иша--
ишад--
ишаҳ--
ишры--
ишы--
ишыр--
ишь--
ишьақә--
ишьақәнар--
ишьақәыр--
ишә--
ишәры--
ишәҟә--
ишәҭ--
иџь--
иқә--
иқәнар--
иқәны--
иқәы--
иҟ--
иҟа--
иҟы--
иҟәыӷ--
иҩ--
иҭ--
иҭа--
иҭи--
иҭиҵ--
иҭна--
иҭнаҵа--
иҭы--
иҭышәынтә--
иҭыҵ--
иҭҵа--
иҳ--
иҳә--
иҳәаа--
иҵ--
иҵаб--
иҵоу--
иҵә--
иҽ--
иҽазы--
иҽы--
иҿ--
иҿы--
иӷар--
иԥ--
иԥс--
иԥса--
иԥхь--
иԥш--
иԥша--
иԥыр--
к--
ка--
каб--
кабар--
каби--
кал--
кале--
кали--
калиф--
каль--
кам--
камп--
канп--
кап--
кар--
кара--
карт--
касаб--
кат--
кау--
кв--
квалифи--
ке--
ки--
кино--
кла--
кли--
ко--
коб--
кол--
комм--
коммер--
коммун--
кон--
конт--
конфу--
коо--
коор--
коро--
кра--
крас--
крат--
кри--
крите--
ку--
куз--
куль--
кури--
куч--
кь--
кьы--
кә--
кәа--
кәакь--
кәы--
л--
ла--
лаз--
лакә--
лаш--
лег--
лек--
лео--
леф--
леч--
ли--
лиде--
лил--
лим--
литера--
лиуд--
лка--
ло--
лозан--
ломи--
лоу--
лу--
лумп--
лус--
лхаҭыԥ--
лхаҿсахь--
лшара--
лы--
лылацә--
лыр--
лых--
ль--
лҭаа--
лҭы--
лҵ--
лҽ--
м--
ма--
маг--
мак--
мал--
мам--
мани--
маншә--
мар--
матери--
материал--
машә--
маҷ--
маӷ--
ме--
мед--
между--
мелб--
мель--
мем--
мето--
ми--
мике--
мини--
мо--
мог--
моде--
моло--
монре--
монт--
морс--
московс--
мр--
му--
музы--
мчы--
мш--
мы--
мыс--
мэ--
н--
на--
наг--
наз--
назы--
нам--
нап--
напхга--
нар--
науч--
наци--
наш--
не--
неза--
немиро--
ни--
но--
ново--
нс--
нх--
нцә--
ны--
ныҟә--
о--
об--
обиек--
обоз--
общ--
обще--
обыч--
од--
оде--
оке--
окле--
окрест--
октиаб--
олек--
оп--
ор--
орде--
орле--
освобо--
основ--
от--
отк--
отка--
офи--
офици--
оч--
п--
пал--
пали--
памят--
пан--
пар--
парк--
партниор--
пассаж--
пат--
пе--
педа--
пере--
пес--
пи--
пир--
пис--
пл--
по--
побе--
пож--
поз--
пози--
поп--
пос--
пра--
прави--
пре--
прек--
прет--
придне--
проб--
прои--
произ--
происхо--
проп--
профес--
прош--
пу--
пус--
р--
ра--
раа--
раар--
раб--
рав--
рад--
радио--
раз--
рал--
рала--
ралг--
рам--
ран--
раннес--
рап--
рас--
рафаэ--
рақә--
раҭ--
рб--
рга--
ргә--
ргәалар--
ре--
рез--
реи--
реиды--
реизаа--
реизыҟа--
реилка--
реима--
реиқә--
реиқәы--
реиҟа--
реиҭ--
рек--
реп--
рес--
рзы--
рзым--
ри--
ридеологиа--
ркон--
рку--
рл--
рма--
рми--
рмини--
рн--
рнап--
ро--
роб--
род--
рон--
роу--
рп--
рреж--
рт--
ру--
руаа--
руковод--
рукоп--
рх--
рхаҿ--
рхы--
рхыбр--
рхыл--
рхырхарҭ--
рцә--
рцәеижь--
рцәымӷ--
рцәырҵ--
ршь--
ры--
рыб--
рыбж--
рыбжь--
рыгә--
рыд--
рыдкы--
рыду--
рыз--
рык--
рым--
рымы--
рынцә--
рынҵә--
рынҵәамҭ--
рыр--
рырҭ--
рых--
рыхә--
рыц--
рыцҳа--
рыцә--
рышьақәыр--
рықә--
рықәы--
рықәым--
рыҟа--
рыҽдыр--
рыӡ--
рыԥс--
рыԥш--
рџь--
рҭ--
рҭаа--
рҭак--
рҭыӡ--
рҵа--
рҵо--
рҽ--
рҽала--
рҿ--
с--
са--
саб--
сам--
самостоя--
сан--
сар--
сас--
сасс--
сахь--
сақ--
св--
сви--
святос--
сгә--
се--
севасто--
сек--
селез--
сза--
си--
симпо--
сиу--
ска--
ски--
ско--
скә--
сле--
см--
смо--
со--
собр--
сов--
совре--
сое--
сол--
соли--
сос--
сосед--
сп--
спра--
сравни--
средне--
ст--
ставро--
сте--
сто--
сток--
струк--
студи--
су--
сул--
сце--
сы--
сыз--
сылша--
сыр--
сэ--
т--
таи--
таичж--
тат--
тб--
те--
тек--
теле--
тем--
тео--
тере--
тет--
ти--
то--
тот--
точ--
тр--
тра--
тради--
тре--
тру--
трубе--
ту--
тур--
ты--
тэ--
тяньц--
тә--
у--
уа--
уаа--
уан--
уап--
уас--
уаҩ--
уб--
убри--
убыс--
увуля--
угә--
уз--
уи--
ул--
ум--
ун--
уника--
уо--
ур--
урс--
ус--
усдкыла--
уст--
усу--
усумҭ--
усҳәарҭ--
ут--
уф--
уче--
учеб--
ф--
фар--
фе--
феде--
федера--
феи--
фено--
фес--
фи--
фила--
фо--
фор--
форт--
фоша--
фр--
фраг--
фу--
фунда--
функци--
футбо--
фы--
х--
ха--
хар--
хат--
хашә--
хаҭ--
хаҿ--
херц--
хим--
хир--
хиро--
хкы--
хнарб--
хо--
хос--
христ--
хса--
ху--
худо--
хшыҩыр--
хы--
хыб--
хымп--
хыр--
хырхырҭ--
хыҵ--
хь--
хьы--
хьыӡ--
хьыӡрацар--
хьыԥшшә--
хэ--
хә--
хәа--
хәы--
ц--
цан--
цв--
цве--
цви--
це--
ци--
циви--
цхы--
цы--
цә--
цәа--
цәыр--
ч--
ча--
чанч--
че--
чер--
черк--
черно--
чи--
чхетис--
чы--
чҳа--
ш--
ша--
шал--
шала--
шар--
шаԥсыӷ--
шве--
ше--
шеи--
ши--
шиа--
шир--
шр--
шры--
шрыд--
шт--
шы--
шына--
шыр--
шық--
шь--
шьаа--
шьап--
шьақә--
шьақәгыл--
шьақәир--
шьы--
шьынқ--
шэньчжэ--
шә--
шәарҭ--
шәнап--
шәы--
шәҭ--
ы--
ыда--
ыр--
ықә--
ықәзыр--
ықәнар--
э--
эд--
эк--
экс--
элек--
этно--
этнокуль--
ю--
юни--
юрье--
я--
џь--
џьа--
џьам--
џье--
џьы--
қ--
қырҭ--
қь--
қә--
қәгыл--
қәы--
ҟ--
ҟа--
ҟабарда--
ҟазшьа--
ҟам--
ҟаҵа--
ҟә--
ҧ--
ҩ--
ҩа--
ҩе--
ҩы--
ҭ--
ҭа--
ҭагыла--
ҭар--
ҭаҭар--
ҭиҵ--
ҭнаҵа--
ҭу--
ҭыжь--
ҭырҵа--
ҭыс--
ҭҳа--
ҭҵ--
ҭҵаа--
ҭҵаара--
ҳ--
ҳа--
ҳаб--
ҳарзааҭ--
ҳаҭ--
ҳәа--
ҳәоу--
ҵ--
ҵа--
ҵара--
ҵас--
ҵаҟа--
ҷ--
ҷыдара--
ҽ--
ҿ--
ҿи--
ҿы--
ҿыр--
ҿырԥш--
ә--
ӡ--
ӡа--
ӡба--
ӡы--
ӷ--
ӷар--
ӷә--
ӷәӷә--
ԥ--
ԥа--
ԥга--
ԥс--
ԥсраҽны--
ԥстә--
ԥш--
ԥшь--
ԥы--
ԥыр--
հայա--
י--
ا--
ال--
جمه--
ச--
ய--
ა--
აფხა--
ახალ--
ბარ--
ბიჭვ--
გა--
გრიგ--
გუ--
დ--
ე--
ეპისკ--
ვა--
ვე--
ვლად--
თა--
თამ--
ი--
ივე--
ილ--
ისტო--
კა--
კას--
ლა--
ლიტერ--
მასა--
მე--
მოქ--
ნ--
ნი--
რა--
რე--
რი--
რუსთ--
სალ--
სამ--
სას--
საუკ--
სულ--
ქარ--
შარვაში--
ხაშ--
ხე--
ხელნა--
ხო--
ᄋ--
--0
--0
--1
--1
--17
--18
--2
--2
--3
--3
--4
--4
--47
--5
--5
--57
--6
--6
--7
--7
--73
--8
--8
--9
--9
--a
--aca
--ad
--aea
--ai
--ain
--ais
--ait
--ak
--al
--an
--ana
--ano
--ao
--ar
--ara
--ard
--ary
--as
--ata
--ated
--ation
--ay
--b
--ba
--ble
--bs
--c
--ca
--ce
--ch
--ci
--co
--cs
--cum
--d
--da
--de
--ds
--dy
--e
--ea
--ed
--el
--en
--ena
--ens
--ent
--er
--era
--ern
--ers
--ery
--es
--et
--eth
--eti
--ett
--ever
--ey
--ez
--f
--g
--ga
--ge
--gical
--h
--he
--hen
--hes
--i
--ia
--ic
--ica
--ice
--id
--ie
--ies
--ija
--ik
--ime
--in
--ina
--ine
--ing
--ins
--io
--ion
--ios
--ique
--ire
--is
--ish
--iskiu
--ist
--ite
--ium
--ius
--ive
--iya
--iz
--j
--k
--ka
--ki
--kie
--kiu
--kov
--ks
--l
--la
--ld
--le
--lika
--lis
--ll
--lle
--lly
--lus
--ly
--m
--ma
--me
--men
--mer
--mo
--my
--n
--na
--ne
--nes
--ng
--ni
--nia
--nie
--nik
--nk
--nment
--nne
--no
--ns
--nt
--nte
--nto
--ny
--o
--on
--ons
--or
--ors
--os
--ov
--ova
--ove
--ow
--p
--page
--pe
--q
--r
--ra
--ram
--rd
--re
--res
--ri
--ria
--rs
--rt
--ry
--s
--sa
--sch
--sco
--se
--ses
--si
--sia
--sii
--sis
--skiu
--sky
--so
--son
--st
--ste
--t
--ta
--tat
--tation
--te
--ted
--ter
--th
--tia
--tio
--tion
--tive
--to
--ton
--ts
--tus
--ty
--u
--ue
--uel
--ues
--uez
--ui
--ult
--um
--ur
--us
--ut
--ute
--v
--va
--ve
--ven
--ver
--w
--way
--wya
--x
--y
--ya
--yn
--z
--ze
--ər
--ος
--ς
--а
--аа
--ааз
--ааи
--ааит
--аара
--аареи
--ава
--ага
--аго
--агьы
--агӡа
--ад
--адыруеит
--аев
--аз
--азар
--азарц
--азгьы
--азу
--азшәа
--азы
--аи
--аиа
--аира
--ак
--аку
--акуа
--акь
--акьоу
--ал
--ала
--алеит
--ализм
--ало
--алоит
--алоу
--алтә
--ам
--амза
--ами
--амика
--амыгӡеит
--амыз
--амызт
--ан
--анд
--анк
--ано
--анс
--аны
--анӡа
--ап
--апы
--ар
--ара
--арала
--аран
--аратә
--аргьы
--ареи
--артә
--арц
--арца
--аршьоит
--арҵаз
--ас
--ат
--атика
--атор
--атын
--атә
--атәи
--атәу
--атәуп
--ау
--ауа
--ауан
--ах
--ахаз
--ахеит
--ахо
--ахоит
--ахуа
--ахь
--ац
--ациа
--ациатә
--ациеи
--ации
--ация
--ацәоуп
--аша
--ая
--ақәа
--ақәеи
--аҟа
--аҧшуа
--аҩ
--аҩс
--аҩцәа
--аҩык
--аҩын
--аҩыс
--аҭ
--аҵ
--аҵы
--аҽра
--аҿ
--аҿы
--аӡа
--аӡам
--аӡара
--аӡаӡом
--аӡо
--аӡоит
--аӡом
--аӷ
--аԥ
--аԥшуеит
--аԥҳа
--б
--ба
--бан
--беи
--бер
--берг
--бжа
--бжьаха
--бла
--бо
--боз
--бок
--бург
--бус
--бы
--быреи
--в
--ва
--вая
--веи
--ви
--вили
--вис
--вич
--вка
--вла
--во
--вои
--вом
--вски
--вскии
--вы
--вых
--г
--га
--гаа
--гар
--гара
--гарала
--гас
--гақәа
--гаҩ
--гаҩцәа
--ге
--гедиа
--геит
--генциа
--ги
--гии
--гия
--го
--гов
--гоз
--гои
--гоит
--гон
--горск
--гоу
--гы
--гь
--гьери
--гьы
--гә
--гӡар
--гӡара
--гӡо
--гӡоз
--гӡон
--д
--да
--даны
--дар
--дара
--даҟ
--даҩит
--даҩын
--деи
--ден
--дзе
--ди
--диа
--дии
--дил
--дист
--дк
--дн
--до
--дов
--др
--дра
--дтә
--ду
--ды
--дын
--дырра
--дырратә
--дырреи
--дырыҩ
--дырҩы
--е
--ев
--евич
--евна
--ед
--ежьзар
--езд
--еи
--еиа
--еит
--ек
--ел
--ела
--ели
--ель
--ем
--ема
--ен
--ена
--ени
--ение
--ении
--ения
--енко
--енная
--енное
--еннои
--енные
--енных
--енс
--ент
--ер
--ера
--ет
--ети
--ец
--еццәа
--ея
--еҩс
--еҭ
--еҭи
--ж
--жа
--ждантә
--жная
--жь
--жьуа
--жьуеит
--жьыш
--жә
--жәо
--жәҳәаҩ
--з
--за
--заалак
--заалакгьы
--заара
--зан
--зар
--заргьы
--зарц
--зациа
--заҵә
--зба
--згьы
--зеи
--зи
--зиа
--зкыз
--злыҵуа
--зм
--зми
--зны
--зскии
--зу
--зшәа
--зы
--зҟы
--зҵаз
--и
--иа
--иаа
--иак
--иат
--иатә
--иақәа
--ив
--ивтә
--ид
--ие
--иеи
--ижьырц
--из
--изации
--изм
--изма
--ии
--ик
--ика
--икатә
--икеи
--ики
--ико
--ил
--им
--ин
--ина
--инта
--ио
--иор
--ипшу
--ир
--ис
--иса
--иси
--ист
--истцәа
--ит
--итә
--итәи
--иура
--иф
--их
--ица
--ициа
--ициатә
--ич
--ишвили
--ия
--иятәи
--иҭ
--иҭу
--иҭын
--к
--ка
--каа
--кааз
--кала
--кат
--катә
--кая
--каҿы
--кгьы
--ке
--кеи
--ки
--киа
--кие
--кии
--кит
--кны
--ко
--ков
--кол
--кра
--кс
--кт
--ктә
--ктәи
--ку
--куа
--куеит
--куп
--кциа
--кцәа
--кы
--кыз
--кылаз
--кыло
--кылоит
--кылон
--кылоу
--кыуп
--кь
--кьа
--кьысыр
--кәа
--кәан
--кәитра
--л
--ла
--лаа
--лав
--лагьы
--лаз
--лак
--лан
--лар
--ларц
--лацәа
--лаҩ
--лаӷь
--ле
--леи
--лер
--ли
--лиа
--лин
--листцәеи
--лл
--лль
--лм
--ло
--лова
--логиеи
--лоз
--лоит
--лон
--лоу
--луп
--лы
--лыжь
--лымӡ
--ль
--льд
--льно
--льного
--льных
--м
--ма
--маа
--маз
--ман
--мба
--мго
--ме
--меҭ
--ми
--миа
--мии
--мика
--мит
--мкуа
--мкәа
--мло
--мон
--мп
--мпыл
--мра
--мс
--мскии
--мтә
--мтәи
--му
--муа
--мхо
--мца
--мч
--мчи
--мш
--мы
--мызт
--мын
--мҭа
--мҭаз
--мԥ
--н
--на
--нагеит
--наго
--нагӡара
--ная
--наҵоит
--нг
--не
--неи
--нер
--неццәа
--нза
--ни
--ниа
--ние
--нии
--ник
--ния
--ниятәи
--нки
--нко
--нн
--нного
--нныи
--но
--нов
--ного
--ное
--нои
--ном
--нс
--нск
--нская
--нские
--нскии
--нских
--нского
--нское
--нскои
--нта
--нтцәа
--нтә
--нтәи
--нтәыи
--ну
--нхоз
--нц
--ны
--ные
--ныз
--нызқь
--ныи
--ным
--ных
--нь
--ня
--нял
--нҭыҵ
--нҳәра
--нҳәын
--нҵ
--нҵара
--нӡа
--о
--обери
--ов
--ова
--овая
--ович
--овка
--овна
--овскии
--овы
--овыи
--ог
--оги
--ого
--од
--ое
--оена
--оз
--озар
--ои
--оит
--ока
--ол
--ола
--олог
--ологиатә
--ологиеи
--ологии
--ологическая
--ологическии
--ология
--ом
--он
--оне
--оннои
--оп
--ор
--ора
--ори
--ориа
--орскии
--ос
--ось
--от
--отта
--оу
--оуп
--оуҭа
--охи
--оцк
--оцкии
--ош
--п
--пе
--пкра
--пшуа
--пы
--р
--ра
--раа
--равлении
--рада
--раз
--разы
--рак
--рала
--рам
--рас
--рат
--ратә
--рахь
--рациа
--рақәа
--рақәеи
--раҟны
--раҿ
--раҿы
--рба
--рбо
--рбоит
--рг
--ргеит
--рд
--рда
--рдан
--рдо
--рдын
--ре
--реи
--респондентс
--рет
--рз
--ри
--риа
--рия
--ркит
--ркра
--ркуеит
--ркы
--рла
--ро
--ров
--ровск
--роу
--рра
--рреи
--рс
--рск
--рскии
--рского
--ртә
--руа
--руаз
--рули
--руп
--рхаз
--рхеит
--рц
--рша
--ршеит
--ршәагатә
--ры
--рыз
--рымаз
--рын
--рқәа
--рҩаалон
--рҭ
--рҭа
--рҭаны
--рҭас
--рҭаху
--рҭақәеи
--рҭаҿ
--рҳәоз
--рҵареи
--рҵо
--рҵоит
--рҵон
--рҿ
--рҿы
--рԥшит
--с
--са
--сар
--се
--си
--сиа
--сиор
--ск
--ская
--ски
--ские
--скии
--ских
--ско
--ского
--ское
--скои
--ском
--скому
--сктә
--скьыл
--сла
--сло
--сны
--сон
--сра
--ссарс
--сскии
--ссон
--ст
--стан
--ства
--стве
--ство
--сти
--сттә
--сть
--су
--суеит
--сы
--сыз
--сыԥ
--сь
--ся
--сҭа
--сҭан
--т
--та
--тан
--тациа
--тва
--те
--теи
--тер
--ти
--тиа
--тизм
--тик
--тика
--тикатә
--тическии
--тк
--тная
--то
--тов
--тон
--тор
--тро
--тс
--тскии
--ттә
--туп
--тцәеи
--ты
--тыи
--ть
--тә
--тәаз
--тәара
--тәгьы
--тәи
--тәии
--тәит
--тәра
--тәу
--тәы
--тәыла
--тәын
--тәқәа
--у
--уа
--уаа
--уааи
--уадаҩу
--уаз
--уазар
--уам
--уан
--уатәи
--уаҩ
--ув
--угьы
--уд
--уеи
--уеит
--ует
--уз
--уи
--ук
--ул
--ула
--ум
--ума
--ун
--уп
--ур
--ура
--ургтә
--ус
--ута
--уциа
--уҩ
--уҩы
--уҳ
--ф
--фа
--фе
--фи
--фиа
--фиатә
--фиақәеи
--фиеи
--фическая
--фические
--фия
--фо
--фср
--фт
--фы
--х
--ха
--хаз
--хар
--харц
--хеит
--хи
--хны
--хо
--хоит
--хом
--хон
--хт
--ху
--хуа
--хуаз
--хуеит
--хуп
--хыз
--хыр
--хь
--хьа
--хьаз
--хьалеи
--хьан
--хьеит
--хьо
--хьоу
--хьтә
--хьчара
--хьчаҩцәа
--хьы
--хьӡи
--хә
--хәа
--хәоз
--хәы
--ц
--ца
--це
--ци
--циа
--циатә
--ции
--цит
--ция
--цки
--цны
--цо
--цоит
--цра
--цуа
--ццәа
--цы
--цыз
--цын
--цыԥхьаӡа
--цә
--цәа
--цәагьы
--цәажәоз
--цәас
--цәеи
--цәоу
--цәы
--ч
--ча
--чев
--ческии
--чество
--чи
--чке
--чки
--чно
--чо
--чь
--ш
--ша
--шахо
--ше
--шеи
--шеит
--шер
--шие
--шил
--шит
--ших
--шо
--шоз
--шом
--шон
--шоу
--шра
--шу
--шуа
--шуеит
--шь
--шьа
--шьеи
--шьиа
--шьо
--шьы
--шьҭыхралатәи
--шқес
--шҟа
--шҭа
--шә
--шәа
--шәала
--шәо
--шәоит
--шәоу
--шәтәра
--шәтәразы
--шәтәҩы
--щение
--щении
--ы
--ыгас
--ыгә
--ые
--ыжь
--ыз
--ызгоз
--ызт
--ыи
--ык
--ыл
--ыла
--ылаз
--ылахьан
--ыло
--ылоз
--ылоит
--ылон
--ым
--ыми
--ымкәа
--ымшеит
--ымшәарақәа
--ымшәо
--ымҭа
--ын
--ынтәи
--ынҵа
--ып
--ыр
--ыра
--ыркра
--ырхуеит
--ырхәра
--ырц
--ырҭа
--ырҵеит
--ырҵоит
--ырҵыз
--ырԥшны
--ыс
--ыуп
--ых
--ыхны
--ыхо
--ыхын
--ыц
--ыш
--ыџь
--ыҟало
--ыҟәеи
--ыҧ
--ыҵны
--ыӡ
--ыӡбон
--ыԥ
--ыԥш
--ь
--ьа
--ьан
--ье
--ьеи
--ьи
--ьы
--ьын
--ьҭа
--э
--эм
--эн
--ю
--ют
--я
--ям
--ян
--ятәи
--ів
--џа
--џьа
--қ
--қа
--қеа
--қс
--қт
--қтор
--қторс
--қуа
--қуеи
--қьа
--қә
--қәа
--қәагьы
--қәак
--қәала
--қәаны
--қәеи
--қәи
--қәнаҵоит
--қәоу
--қәоуп
--қәырҵеит
--қәҵара
--қәԥоз
--ҟ
--ҟа
--ҟаз
--ҟазшьоу
--ҟазшьоуп
--ҟам
--ҟан
--ҟанаҵон
--ҟаҵаҩ
--ҟаҵаҩыс
--ҟаҵо
--ҟны
--ҟы
--ҟьа
--ҟәа
--ҟәо
--ҟәоз
--ҟәоит
--ҟәома
--ҧ
--ҧгахоит
--ҧыргоит
--ҩ
--ҩа
--ҩи
--ҩра
--ҩс
--ҩуа
--ҩцәа
--ҩы
--ҩыз
--ҩык
--ҩыла
--ҩын
--ҩыс
--ҭ
--ҭа
--ҭаз
--ҭан
--ҭар
--ҭареи
--ҭеи
--ҭеит
--ҭит
--ҭо
--ҭоз
--ҭом
--ҭон
--ҭоуп
--ҭрақәеи
--ҭу
--ҭуеит
--ҭын
--ҭҵаара
--ҭҵаараҿы
--ҭҵааҩ
--ҭҵааҩы
--ҭә
--ҭәи
--ҳ
--ҳа
--ҳаз
--ҳал
--ҳалалра
--ҳам
--ҳар
--ҳаҭуп
--ҳаҭым
--ҳәа
--ҳәара
--ҳәо
--ҵ
--ҵа
--ҵаанӡа
--ҵаз
--ҵак
--ҵан
--ҵаны
--ҵара
--ҵарц
--ҵас
--ҵаҩ
--ҵеит
--ҵкыс
--ҵны
--ҵо
--ҵоз
--ҵоит
--ҵон
--ҵоу
--ҵра
--ҵуа
--ҵуеит
--ҵыз
--ҵыс
--ҵҟа
--ҵәаз
--ҵәҟьа
--ҷ
--ҽ
--ҽуеит
--ҿ
--ҿа
--ҿгьы
--ҿеи
--ҿи
--ҿиааз
--ҿы
--ә
--әа
--әаз
--әеи
--әеит
--әи
--әо
--әоз
--әозар
--әоит
--әом
--әон
--әр
--әу
--әуеит
--әуп
--әшьа
--әыла
--әым
--ӡ
--ӡа
--ӡаз
--ӡакәа
--ӡам
--ӡан
--ӡаны
--ӡатәи
--ӡе
--ӡеи
--ӡеит
--ӡом
--ӡон
--ӡоу
--ӡуеит
--ӡын
--ӷ
--ӷа
--ӷба
--ӷь
--ӷәо
--ӷәоит
--ԥ
--ԥа
--ԥгара
--ԥгарҭа
--ԥгашьа
--ԥо
--ԥс
--ԥса
--ԥтә
--ԥхьыӡ
--ԥш
--ԥшит
--ԥшны
--ԥшу
--ԥшуа
--ԥшуаз
--ԥшуеит
--ԥшым
--ԥыгон
--ԥызгоз
--ԥыргарц
--ԥыс
--ԥысуа
--ԥҳа
--ԥҵареи
--ան
--յան
--بية
--ة
--رات
--ية
--ა
--ალური
--ანი
--არა
--არი
--აური
--აცია
--ბა
--ბი
--გიური
--ე
--ები
--ების
--ეთი
--ეთის
--ელი
--ენტი
--ერთა
--ერი
--ვა
--ველი
--ვილი
--ვის
--ზე
--თა
--ი
--ია
--იის
--ის
--იფში
--იშვილი
--კა
--კი
--ლ
--ლი
--ლის
--მე
--მი
--მის
--ნ
--ნა
--ნე
--ნი
--ნის
--ო
--ობის
--რა
--რი
--რის
--რხვა
--ს
--სი
--უ
--უა
--ული
--ური
--ფი
--ფში
--შვილი
--ში
