!
"
#
##0
##1
##10
##11
##12
##13
##14
##15
##16
##17
##18
##19
##2
##20
##21
##22
##23
##24
##25
##26
##27
##28
##29
##3
##30
##31
##32
##33
##34
##35
##36
##37
##38
##39
##4
##40
##41
##42
##43
##44
##45
##46
##47
##48
##49
##5
##50
##51
##52
##53
##54
##55
##56
##57
##58
##59
##6
##60
##61
##62
##63
##64
##65
##66
##67
##68
##69
##7
##70
##71
##72
##73
##74
##75
##76
##77
##78
##79
##8
##80
##81
##82
##83
##84
##85
##86
##87
##88
##89
##9
##90
##91
##92
##93
##94
##95
##96
##97
##98
##99
$
%
&
'
(
)
*
+
,
-
.
/
0
00
000
001
002
003
004
005
006
007
008
009
01
010
011
012
013
014
015
016
017
018
019
02
020
021
022
023
024
025
026
027
028
029
03
030
031
032
033
034
035
036
037
038
039
04
040
041
042
043
044
045
046
047
048
049
05
050
051
052
053
054
055
056
057
058
059
06
060
061
062
063
064
065
066
067
068
069
07
070
071
072
073
074
075
076
077
078
079
08
080
081
082
083
084
085
086
087
088
089
09
090
091
092
093
094
095
096
097
098
099
1
10
100
1000
101
1010
1012
1015
102
1020
103
1030
1031
104
1040
1046
1048
105
1050
106
1060
1066
107
1070
108
1080
1085
109
1090
1099
11
110
1100
1108
111
112
1120
113
1130
1137
114
1147
115
1150
1153
1154
116
1160
117
1170
118
1180
1185
1187
119
1190
1191
12
120
1200
1204
1207
121
1210
1214
1215
1216
122
1220
123
1230
124
1240
1241
1249
125
1250
1254
126
1260
1261
1265
127
1270
1276
1279
128
1280
1285
129
1290
1291
1294
1296
13
130
1300
1304
131
1310
1314
1316
1319
132
1320
1328
133
1330
1332
134
1340
1346
1348
135
1350
1356
136
1360
1367
1368
137
1370
1377
1378
138
1380
1383
1385
1389
139
1390
1397
1399
14
140
1400
1404
1405
1406
141
1410
1415
1417
142
1420
1422
1429
143
1430
1431
1432
1433
1438
1439
144
1440
145
1450
1451
1452
1453
1454
1455
1458
1459
146
1460
1461
1462
1464
1468
1469
147
1470
1471
1472
1474
1475
1477
1478
1479
148
1480
1481
1483
1484
1485
1487
1488
149
1490
1491
1492
1493
1494
1497
1498
1499
15
150
1500
1501
1502
1503
1504
1505
1506
1507
1508
1509
151
1510
1511
1512
1513
1514
1515
1516
1517
1519
152
1520
1521
1522
1523
1524
1525
1526
1527
1528
1529
153
1530
1532
1533
1534
1535
1536
1537
1538
1539
154
1540
1541
1542
1543
1545
1546
1547
1549
155
1550
1551
1552
1553
1554
1555
1556
1557
1558
1559
156
1560
1561
1562
1563
1564
1565
1566
1567
1568
1569
157
1570
1571
1572
1573
1574
1575
1576
1577
1578
1579
158
1580
1581
1582
1584
1585
1587
1588
1589
159
1590
1591
1592
1593
1594
1595
1596
1597
1598
1599
16
160
1600
1601
1602
1603
1604
1605
1606
1607
1608
1609
161
1610
1611
1612
1613
1614
1615
1616
1617
1618
1619
162
1620
1621
1622
1623
1624
1625
1626
1627
1628
1629
163
1630
1631
1632
1633
1634
1635
1636
1637
1638
1639
164
1640
1641
1642
1643
1644
1645
1646
1647
1648
1649
165
1650
1652
1653
1654
1655
1656
1657
1658
1659
166
1660
1661
1662
1663
1664
1665
1666
1667
1668
1669
167
1670
1671
1673
1674
1675
1676
1677
1678
1679
168
1680
1681
1682
1683
1684
1685
1686
1687
1688
1689
169
1690
1691
1692
1693
1694
1695
1696
1697
1699
17
170
1700
1701
1702
1703
1704
1705
1706
1707
1708
1709
171
1710
1711
1712
1713
1714
1715
1716
1717
1718
1719
172
1720
1721
1722
1723
1724
1725
1726
1727
1728
1729
173
1730
1731
1732
1733
1734
1735
1736
1737
1738
1739
174
1740
1741
1742
1743
1744
1745
1746
1747
1748
1749
175
1750
1751
1752
1753
1754
1755
1756
1757
1758
1759
176
1760
1761
1762
1763
1764
1765
1766
1767
1768
1769
177
1770
1771
1772
1773
1774
1775
1776
1777
1778
1779
178
1780
1781
1782
1783
1784
1785
1786
1787
1788
1789
179
1790
1791
1792
1793
1794
1795
1796
1797
1798
1799
18
180
1800
1801
1802
1803
1804
1805
1806
1807
1808
1809
181
1810
1811
1812
1813
1814
1815
1816
1817
1818
1819
182
1820
1821
1822
1823
1824
1825
1826
1827
1828
1829
183
1830
1831
1832
1833
1834
1835
1836
1837
1838
1839
184
1840
1841
1842
1843
1844
1845
1846
1847
1848
1849
185
1850
1851
1852
1853
1854
1855
1856
1857
1858
1859
186
1860
1861
1862
1863
1864
1865
1866
1867
1868
1869
187
1870
1871
1872
1873
1874
1875
1876
1877
1878
1879
188
1880
1881
1882
1883
1884
1885
1886
1887
1888
1889
189
1890
1891
1892
1893
1894
1895
1896
1897
1898
1899
19
190
1900
1901
1902
1903
1904
1905
1906
1907
1908
1909
191
1910
1911
1912
1913
1914
1915
1916
1917
1918
1919
192
1920
1921
1922
1923
1924
1925
1926
1927
1928
1929
193
1930
1931
1932
1933
1934
1935
1936
1937
1938
1939
194
1940
1941
1942
1943
1944
1945
1946
1947
1948
1949
195
1950
1951
1952
1953
1954
1955
1956
1957
1958
1959
196
1960
1961
1962
1963
1964
1965
1966
1967
1968
1969
197
1970
1971
1972
1973
1974
1975
1976
1977
1978
1979
198
1980
1981
1982
1983
1984
1985
1986
1987
1988
1989
199
1990
1991
1992
1993
1994
1995
1996
1997
1998
1999
2
20
200
2000
2001
2002
2003
2004
2005
2006
2007
2008
2009
201
2010
2011
2012
2013
2014
2015
2016
2017
2018
2019
202
2020
2021
2022
2025
203
204
205
206
207
208
209
21
210
211
212
213
214
215
216
217
218
219
22
220
221
222
223
224
225
226
227
228
229
23
230
231
232
233
234
235
236
237
238
239
24
240
241
242
243
244
245
246
247
248
249
25
250
2500
251
252
253
254
255
256
257
258
259
26
260
261
262
263
264
265
266
267
268
269
27
270
271
272
273
274
275
276
277
278
279
28
280
281
282
283
284
285
286
287
288
289
29
290
291
292
293
294
295
296
297
298
299
3
30
300
3000
301
302
303
304
305
306
307
308
309
31
310
311
312
313
314
315
316
317
318
319
32
320
321
322
323
324
325
326
327
328
329
33
330
331
332
333
334
335
336
337
338
339
34
340
341
342
343
344
345
346
347
348
349
35
350
3500
351
352
353
354
355
356
357
358
359
36
360
361
362
363
364
365
366
367
368
369
37
370
371
372
373
374
375
376
377
378
379
38
380
381
382
383
384
385
386
387
388
389
39
390
391
392
393
394
395
396
397
398
399
4
40
400
4000
401
402
403
404
405
406
407
408
409
41
410
411
412
413
414
415
416
417
418
419
42
420
421
422
423
424
425
426
427
428
429
43
430
431
432
433
434
435
436
437
438
439
44
440
441
442
443
444
445
446
447
448
449
45
450
451
452
453
454
455
456
457
458
459
46
460
461
462
463
464
465
466
467
468
469
47
470
471
472
473
474
475
476
477
478
479
48
480
481
482
483
484
485
486
487
488
489
49
490
491
492
493
494
495
496
497
498
499
5
50
500
5000
501
502
503
504
505
506
507
508
509
51
510
511
512
513
514
515
516
517
518
519
52
520
521
522
523
524
525
526
527
528
529
53
530
531
532
533
534
535
536
537
538
539
54
540
541
542
543
544
545
546
547
548
549
55
550
551
552
553
554
555
556
557
558
559
56
560
561
562
563
564
565
566
567
568
569
57
570
571
572
573
574
575
576
577
578
579
58
580
581
582
583
584
585
586
587
588
589
59
590
591
592
593
594
595
596
597
598
599
6
60
600
6000
601
602
603
604
605
606
607
608
609
61
610
611
612
613
614
615
616
617
618
619
62
620
621
622
623
624
625
626
627
628
629
63
630
631
632
633
634
635
636
637
638
639
64
640
641
642
643
644
645
646
647
648
649
65
650
651
652
653
654
655
656
657
658
659
66
660
661
662
663
664
665
666
667
668
669
67
670
671
672
673
674
675
676
677
678
679
68
680
681
682
683
684
685
686
687
688
689
69
690
691
692
693
694
695
696
697
698
699
7
70
700
701
702
703
704
705
706
707
708
709
71
710
711
712
713
714
715
716
717
718
719
72
720
721
722
723
724
725
726
727
728
729
73
730
731
732
733
734
735
736
737
738
739
74
740
741
742
743
744
745
746
747
748
749
75
750
751
752
753
754
755
756
757
758
759
76
760
761
762
763
764
765
766
767
768
769
77
770
771
772
773
774
775
776
777
778
779
78
780
781
782
783
784
785
786
787
788
789
79
790
791
792
793
794
795
796
797
798
799
8
80
800
801
802
803
804
805
806
807
808
809
81
810
811
812
813
814
815
816
817
818
819
82
820
821
822
823
824
825
826
827
828
829
83
830
831
832
833
834
835
836
837
838
839
84
840
841
842
843
844
845
846
847
848
849
85
850
851
852
853
854
855
856
857
858
859
86
860
861
862
863
864
865
866
867
868
869
87
870
871
872
873
874
875
876
877
878
879
88
880
881
882
883
884
885
886
887
888
889
89
890
891
892
893
894
895
896
897
898
899
9
90
900
901
902
903
904
905
906
907
908
909
91
910
911
912
913
914
915
916
917
918
919
92
920
921
922
923
924
925
926
927
928
929
93
930
931
932
933
934
935
936
937
938
939
94
940
941
942
943
944
945
946
947
948
949
95
950
951
952
953
954
955
956
957
958
959
96
960
961
962
963
964
965
966
967
968
969
97
970
971
972
973
974
975
976
977
978
979
98
980
981
982
983
984
985
986
987
988
989
99
990
991
992
993
994
995
996
997
998
999
:
;
<
=
>
?
@
[
\
]
^
_
`
a
aa
aachen
aalto
aaron
ab
ababa
abadeyo
abadi
abado
abakan
abako
abandonar
abandonas
abandonesis
abandonis
abandonita
abandono
abaniko
abasar
abaso
abatar
abba
abbas
abbasid
abbott
abc
abceso
abciso
abd
abdallah
abdel
abdelaziz
abdikar
abdikas
abdikis
abdiko
abdominala
abdomino
abdoulaye
abdu
abdul
abdullah
abe
abel
abeleyo
abeli
abelo
abeluyo
aberaco
aberdeen
abhazia
abi
abidine
abidjan
abieto
abilene
abingdon
abisinia
abismo
abiso
abito
abjekta
abjurar
abkhazia
ablaciono
ablativo
able
ableto
abluciono
abnegar
abnego
abolisar
abolisas
abolisesis
abolisis
aboliso
abominar
abomininda
abomino
abono
abordar
abordo
aborijena
aborijeni
aborijeno
abortigo
aborto
about
above
aboyar
abraham
abreviar
abreviata
abreviita
abreviuro
abrikoto
abril
abrogar
abrotano
abrupta
abrupte
abruzzo
absenta
absenteso
absinto
absoluta
absolute
absolutismo
absolvar
absolvo
absorbar
absorbas
absorbiva
absorbo
abstenar
abstersar
abstinencar
abstinenco
abstrakta
abstraktigar
abstrakto
abstruza
absurda
abu
abubakar
abulio
abundanta
abundar
abunde
abundego
abundo
abutar
abutmento
ac
aca
acade
academia
academy
accident
accord
according
account
accuse
ace
acelerar
acelerata
acelerilo
acelero
acendar
acendentaro
acendilo
acensanta
acensar
acensas
acensebla
acensilo
acensis
acenso
acentizar
acento
aceptar
aceptas
aceptata
aceptebla
aceptesas
aceptesis
aceptis
aceptita
acepto
acerba
acero
acesar
acesebla
aceso
acesora
acetat
acetono
ach
achento
acheter
aciano
acid
acida
acide
acidentala
acidente
acidenti
acidento
acideso
acidi
acido
acioni
acioniero
aciono
acipitro
acizo
acordo
acori
acosta
acqua
acre
acres
across
act
acte
action
actor
ad
ada
adair
adam
adamo
adams
adaptar
adaptesar
adaptesis
adaptita
adapto
adas
adavane
add
addextre
addis
addope
ade
adelaide
aden
adepti
adepto
adequata
adeste
adextere
adheranti
adheranto
adherar
adheras
adheris
adheriva
adhero
adhike
adiar
adibe
adicionar
adiciono
adinfre
adio
adj
adjacanta
adjektivi
adjektivo
adjudikar
adjudiko
adjuntajo
adjuntar
adjuntas
adjuntesas
adjuntesis
adjuntis
adjuntita
adjunto
adjurar
adjutanto
adlatere
adler
admaxime
adminime
administrado
administrala
administrantaro
administranto
administrar
administras
administrata
administration
administrerio
administrero
administresas
administresis
administreyo
administris
administristo
administrita
administro
admiralo
admiranto
admirar
admirinda
admiro
admisar
admisas
admiso
admitiendo
admonte
adnorde
ado
adolecanti
adolecanto
adolecar
adolf
adolfo
adolph
adolphe
adoptar
adoptas
adoptesis
adoptis
adoptita
adopto
adoranto
adorar
adoro
adosar
adportar
adportas
adportesis
adportis
adportita
adrenalino
adreso
adrian
adriana
adrianus
adriatiko
adrien
adsinistre
adsude
adsupre
adsur
adube
adulta
adulterar
adultero
adulti
adulto
adv
advale
advenar
adventisti
advento
adverb
adverbo
advere
adversa
adverso
advokar
advokati
advokatino
advokato
advoko
adweste
adyunto
ae
aer
aera
aeral
aerala
aerizar
aero
aerodinamiko
aerodromo
aerolito
aeronautiko
aeronavo
aeroplani
aeroplano
aeroportui
aeroportuo
aerostato
af
afabla
afableso
afanono
afar
afecionar
afeciono
afeganista
afektacar
afektacema
afektaco
afektar
afektas
afektesas
afektesis
afektis
afektita
aferala
aferi
aferisto
afero
affair
affaire
affaires
affairs
affare
affari
afgana
afganistan
afidio
afina
afineso
afirmar
afirmas
afirmis
afirmo
afisho
afixo
afliktar
afliktesar
aflikteso
afonso
aforismo
afp
afrankita
africa
african
afrik
afrika
afrikala
afrikan
afrikana
afrikani
afrikansa
afro
afrontar
afrontis
after
afto
afusto
ag
agacar
agadi
agado
again
against
agama
aganta
aganto
agar
agariko
agaro
agas
agatha
agato
agavo
age
aged
agema
agemeso
agencia
agency
agendo
agent
agenterii
agenterio
agenteso
agenti
agento
agg
agi
agir
agire
agis
agita
agitado
agitanto
agitar
agitata
agitero
agiteso
agito
agiva
agiveso
agivo
aglo
aglomerajo
aglomerar
aglutinar
agnelo
agnoskar
agnoskas
agnoskata
agnoskesas
agnoskesis
agnoskis
agnoskita
agnosko
agnostika
ago
agoniar
agorafobio
agostinho
agostino
agosto
agrafo
agrala
agre
agreabla
agree
agreement
agregar
agri
agricola
agrimonio
agro
agrokultiva
agrokultivala
agrokultivisti
agrokultivisto
agrokultivo
agronomio
agronomo
agrourbeto
agua
aguilar
aguinaldo
agulo
agusti
ah
ahidjo
ahlberg
ahmad
ahmed
ahmet
ai
aid
aids
aiguille
aiheuttaa
aika
aikaan
ailanto
aim
aime
ain
aine
aines
air
airbus
aire
aires
airlines
airport
ais
aise
aitkin
aj
ajaa
ajassa
ajila
ajile
ajileso
ajio
ajiotar
ajo
ajornar
ajorno
ajune
ajustar
ajusto
ajuto
ak
akacio
akademiala
akademiano
akademii
akademio
akantonar
akaparar
akaro
akbar
akileo
akira
aklamar
aklamo
aklimatar
aklino
akneo
akoluto
akomodar
akompananto
akompanar
akompanas
akompanata
akompanis
akompanita
akompano
akonito
akonto
akordar
akordeono
akordigar
akordo
akoro
akra
akre
akreso
akrido
akrobato
akrochar
akron
akronimo
akropolo
akroterio
akseli
akselin
akti
aktinio
aktisto
aktiva
aktive
aktivesi
aktiveso
aktivisto
aktivo
akto
aktori
aktorino
aktoro
aktorulo
aktuala
akular
akumulajo
akumular
akumulatoro
akumulo
akupunturo
akurata
akurateso
akush
akushar
akushistino
akustikala
akustiko
akuta
akuteso
akutigar
akutigilo
akuzar
akuzas
akuzata
akuzativo
akuzato
akuzesas
akuzesis
akuzi
akuzis
akuzita
akuzo
al
ala
alabama
alabastro
alagoas
alain
alaktar
alakto
alamani
alambiko
alamos
alan
alani
alania
alarmar
alarmo
alas
alaska
alaudo
alba
albania
albanian
albaniana
albany
albatroso
albergestro
albergo
albero
albert
alberta
alberti
alberto
albin
albino
albion
albo
albrecht
album
albumeno
albumi
albumino
albumo
albuquerque
alcedo
alden
aldo
ale
alec
alegar
alegoriala
alegorio
alegre
alejandro
alejar
alejo
aleksandar
aleksander
aleksandr
aleksandro
aleksis
alelo
alema
alencar
aleno
aleo
aleppo
alergio
alerta
ales
alessandro
alex
alexander
alexandr
alexandra
alexandre
alexandria
alexandrino
alexandros
alexandrovich
alexandru
alexei
alexeyevich
alexis
alezala
alezar
alfa
alfabetala
alfabeti
alfabeto
alfabetolibro
alfaro
alfenido
alfons
alfonso
alfred
alfredo
algarismi
algarvo
alge
algebrala
algebro
algeria
algi
algo
algoritmo
ali
alia
aliancar
alias
aliaxandr
alibio
alice
alicia
alienar
aligatoro
alim
alimentar
alimento
alineo
aliniar
alio
aliteraco
aliyev
alizei
alizeo
aljazeera
aljer
aljeria
aljeriana
alkaa
alkaldo
alkalio
alkaloido
alkaraveo
alkemio
alko
alkoholo
alkoholoza
alkovo
alku
all
alla
allan
alle
allen
allende
aller
alliance
allmusic
alma
almanako
almanaque
almaz
almeida
almonajo
alno
alo
alois
alone
along
alonge
alonjo
alonso
aloo
alopatio
alopecio
aloso
aloyar
aloyuri
aloyuro
aloza
alpako
alpala
alpha
alphonse
alpi
alpo
als
also
alt
alta
altai
altajo
altaro
alte
alteo
alterar
alternado
alternanta
alternar
alternativa
alternative
alternativo
alternatoro
alterno
altero
alteso
altitudi
altitudo
altman
alto
alton
altoona
altr
altra
altralatere
altraloke
altravorte
altre
altri
altro
altru
altruismo
aludar
aludo
alue
alumeto
alumetuyo
aluminio
alumino
aluno
aluro
alus
aluviono
alva
alvar
alvarado
alveolo
alves
alvin
alzacia
alzaciana
alzheimer
am
ama
amadeus
amadou
amalgamo
amansar
amanta
amanto
amapa
amar
amaral
amaranto
amaro
amas
amase
amaseskar
amasi
amasigar
amaso
amata
amateur
amato
amatora
amatorala
amatoro
amazon
amazonas
amazonia
amazoniana
amazono
amba
ambajo
ambasadeyi
ambasadeyo
ambasadisto
ambasado
ambe
ambedkar
ambiciar
ambicio
ambicioza
ambiental
ambientala
ambiento
ambigua
ambiguajo
ambigueso
ambono
amboso
amboy
ambro
ambrose
ambrosius
ambrozio
ambulanco
ame
amebo
amelia
ameliorar
amen
amendo
amento
america
american
americano
americio
amerika
amerikala
amerikana
amerikani
amerikano
ameskar
ametisto
amfetamino
amfibia
amfibio
amfioxo
amfiteatro
amforo
amhara
ami
amianto
amid
amikala
amikeso
amiki
amikino
amiko
amikulo
amilo
amin
amino
amis
amnestiar
amnestio
amnezio
amniono
amo
amoniako
amonio
amonito
amono
amor
amorala
amorantino
amoranto
amorar
amorcar
amorcilo
amore
amorfa
amoro
amoroza
amortisar
amortisilo
amortiso
amos
amour
ampelopso
ampla
ample
ampleso
ampligar
ampligo
amplitudo
ampulo
amputar
amputo
amsterdam
amuleto
amundsen
amur
amuzanta
amuzar
amuziva
amuzo
amy
an
ana
anado
anadyuno
anagalo
anagramo
anakin
anakoluto
anakondo
anakoreto
anakronismo
analgeziar
analitikala
analitiko
analizala
analizar
analizo
analo
analoga
analogajo
analogeso
ananaso
anarkiismo
anarkiista
anarkiisto
anarkio
anastasia
anastasio
anastasius
anastomoso
anat
anatemar
anatemo
anatolia
anatom
anatomiala
anatomio
ancestrala
ancestri
ancestro
anche
anchieta
anchorage
anchovo
ancien
anciena
ancient
ancus
and
andalus
andaluzia
andar
andare
anders
andersen
anderson
andersson
andi
andma
andora
andra
andrade
andre
andrea
andreas
andrei
andrej
andrew
andrews
andreyevich
androgina
androido
andrzej
andrzejo
andy
anekdoto
anemio
anemometro
anemono
anesteziar
anestezio
aneto
anevrismo
anexado
anexar
anexas
anexesis
anexis
anexita
anexo
angara
angel
angela
angeles
angeliko
angelo
angelou
angino
angiospermo
angkor
angla
angle
angli
anglia
angliana
angliani
angliano
anglikana
anglikani
anglo
anglosaxona
angola
angolana
angolo
angora
angorar
angoro
anguila
anguilo
angula
angulala
anguli
angulo
anhalt
anhelar
anhelo
ani
anilino
anim
animal
animala
animalaro
animale
animali
animalo
animals
animar
animata
anime
animismo
animita
animo
aniono
anita
aniversario
anizo
anjelo
anjou
ank
ankara
anke
ankore
ankorfoye
ankragar
ankro
anma
anmo
ann
anna
annan
anne
anni
annie
anno
annual
ano
anobio
anodo
anoka
anomala
anomaleso
anonima
anonimeso
anos
another
ans
anso
ant
anta
antaa
antagonismo
antagonisto
antananarivo
antanas
antarktika
ante
antea
antecedento
antee
anteni
anteno
antequera
anteriora
antero
anthony
anti
antibiotiko
anticiklono
anticipar
anticipe
anticipo
antidoto
antifono
antigua
antikorpo
antili
antilopo
antimonio
antiochus
antipatiar
antipatio
antipirino
antiq
antiqua
antiquajo
antique
antiqueso
antiqui
antirino
antisepsiar
antitezo
anto
antoine
antoinette
antologio
anton
antonescu
antoni
antonimo
antonin
antonina
antonio
antonius
antonomazio
antracito
antraxo
antropologio
antropologo
antropomorfa
antropomorfismo
antwerpen
anular
anuncar
anuncas
anuncesis
anuncia
anuncis
anunco
anuso
anwar
anxiar
anxio
anxioza
any
anyone
anything
ao
aorto
aos
ap
aparanta
aparar
aparas
aparati
aparato
aparis
aparo
apart
aparta
apartamenti
apartamento
aparte
apartenanta
apartenar
apartenas
aparteninta
apartenis
apartheid
apartigar
apatio
apatioza
apelar
apelo
apendicito
apendico
apene
apenini
aperceptar
aperitivo
aperta
apertar
apertas
apertata
apertesas
apertesis
apertis
apertita
apertivo
aperto
aperturo
apetitar
apetito
aplastar
aplastilo
aplasto
aplaudar
aplaudo
aplikado
aplikaji
aplikajo
aplikar
aplikas
aplikata
aplikebla
aplikesas
apliki
aplikita
apliko
aplombo
apo
apodiktika
apofizo
apog
apogar
apogas
apogata
apogeo
apogilo
apogita
apogo
apogopunto
apogotrabo
apokalipso
apokrifa
apollo
apologio
apologo
apoplexio
apoptozo
apostateso
apostato
apostilo
apostolala
apostoli
apostolo
apostrofo
apotekisto
apoteko
apoteoso
appareil
appearance
appel
apple
appleton
apply
apre
apreciar
aprentiseso
aprentiso
apretar
april
aprilo
apro
aprobar
aprobas
aprobesas
aprobesis
aprobis
aprobita
aprobo
aprocho
aproximar
aproxime
apsido
apta
apteso
apud
apuda
apude
apuntar
apuntilo
apuso
aqua
aquala
aquarelo
aquario
aquedukto
aqui
aquilegio
aquilono
aquino
aquirajo
aquirar
aquiras
aquiris
aquirita
aquiro
aquitania
aquizar
aquo
aquobarilo
aquofalo
aquofluo
aquomelono
aquoza
ar
ara
arab
araba
arabe
arabi
arabia
arabiana
arabiano
arachar
arafat
arago
aragon
aragonana
arakido
arako
araneo
araneotelo
arango
aranjar
aranjeso
aranji
aranjis
aranjita
aranjo
aranjuro
arawak
arbalesto
arbitrajo
arbitrala
arbitranto
arbitrar
arbitriala
arbitrio
arbitro
arbor
arborala
arboratra
arboreto
arbori
arborizar
arboro
arbororano
arbre
arbustaro
arbusto
arbuzovka
arc
arce
arch
archaeology
archibald
archit
architecture
archive
archo
arco
ardeni
ardezo
ardmore
ardoranta
ardorar
ardoro
ardoroza
ardua
are
area
arehawsk
arei
areko
arena
areno
areo
areolo
areopago
arestar
arestas
arestesas
arestesis
arestis
aresto
argalo
argano
argent
argentina
argila
argilo
argiloza
argono
argument
argumentar
argumentas
argumenti
argumentis
argumento
ari
aria
ariana
arias
arida
ariel
arieto
arif
arilo
ario
aristide
aristo
aristokrata
aristokrataro
aristokrati
aristokrato
aristolokio
aristoteles
arithm
aritmetiko
arivar
arivas
ariveyo
arivis
arivo
arizona
arjent
arjenta
arjentano
arjentea
arjentinia
arjentinian
arjentiniana
arjento
ark
arkabuzo
arkado
arkaika
arkaismo
arkana
arkansas
arkeologiala
arkeologiisti
arkeologiisto
arkeologio
arkeologo
arkero
arketo
arki
arkianjelo
arkiduko
arkiepiskopo
arkipelagi
arkipelago
arkitekti
arkitekto
arkitekturala
arkitekturo
arkitravo
arkivi
arkivo
arkivolto
arko
arkpafado
arktika
arktiko
arlekino
arlington
arm
arma
armadilo
armala
armand
armando
armaro
armas
armatoro
armaturo
arme
armeala
armei
armenia
armeniana
armeniani
armeo
armeokorpo
armes
armeyo
armi
armistico
armizar
armizita
armo
armoracio
armoro
arms
armstrong
army
arniko
arnold
aro
aroganta
arogar
arogema
arogemeso
aromata
aromato
aromatoza
aromo
arosemena
around
arozar
arozilo
arquit
arre
arrie
arrive
arriver
arrow
arroyo
arsenalo
arseno
arss
art
artala
arte
artemizio
arterio
arteriotomio
arterito
arteza
arthur
arti
artichoko
article
artifical
artificala
artificale
artificial
artifico
artigas
artikli
artiklo
artiko
artikular
artilrio
artist
artistala
artisti
artisto
artizano
arto
artrito
artro
artropodo
arts
artur
arturo
aruba
arufar
arumo
aruspico
arvernia
arvid
arvo
arvoinen
ary
as
asafetido
asaltar
asalto
asasinar
asasinesas
asasinesis
asasinita
asasino
asbesto
ase
aseen
asekurajo
asekurakto
asekurar
asekuro
aselo
asemblajo
asemblar
asemblas
asemblis
asemblita
asemblitaro
asemblo
asembluro
asentar
asepta
asertar
asertas
aserti
asertis
asertita
aserto
asesoro
asettaa
asettua
asfalto
asfixiar
asfodelo
ash
asha
ashanti
ashby
ashland
ashley
ashton
asi
asia
asian
aside
asidua
asiejar
asiejo
asignar
asimilar
asimilo
asimptoto
asintorf
asiria
asistaji
asistantaro
asistanto
asistar
asistas
asistis
asisto
ask
askarido
asketismo
askoltar
asno
aso
asociar
asociata
asociesas
asociita
asociitaro
asociito
asocio
asociuri
asociuro
asomar
asortar
asorto
asparago
aspect
aspektar
aspektas
aspekti
aspekto
aspera
aspereso
aspersar
asperso
aspiko
aspirar
aspiratoro
aspirino
aspiro
assad
assemble
assembly
assis
assisi
associated
association
aste
asterio
asterisko
astero
asteroidi
asteroido
asti
astia
astigmata
astigmateso
astmo
astonanta
astonar
astonegar
astoniva
astono
astr
astragalo
astri
astriktar
astriktiva
astro
astrofizikisto
astrofiziko
astrol
astrologio
astrologo
astron
astronauti
astronautiko
astronauto
astronomi
astronomiala
astronomio
astronomo
asturia
asturiana
asturias
asumar
asumas
asumis
asuncio
asuncion
asunciono
at
atachar
atachita
atahualpa
atakado
atakanta
atakantulo
atakar
atakas
atakema
atakeri
atakesis
ataki
atakis
atako
atakus
ataque
ataques
ataraxio
atasheo
atatu
atavismo
ataxio
ate
ateismo
ateisti
ateisto
ateliero
atencar
atencema
atencez
atencigar
atenco
atencoze
ateneo
atentado
atentados
atentar
atenti
atento
atenuar
atestar
atesti
atesto
atesturo
athens
athina
atiko
atingar
atingas
atinge
atingebla
atingis
atingita
atingo
atipa
atitudo
atkinson
atla
atlanta
atlantic
atlantika
atlantiko
atlas
atlaso
atletala
atleti
atletino
atletismo
atleto
atmosferala
atmosfero
atoli
atolo
atom
atomala
atomi
atomo
atomobombo
atr
atra
atraktar
atraktas
atrakteso
atraktilo
atraktis
atraktiva
atraktivi
atraktivo
atrakto
atrapar
atrapo
atribuar
atribuas
atribuita
atribuo
atributi
atributo
atriumo
atrofio
atta
attack
attacks
attention
attila
atto
atuno
aturdar
atwater
au
auburn
auch
aucionar
aucione
auciono
auckland
aud
audacar
audacego
audaco
audacoza
audacoze
audado
audala
audantaro
audar
audebla
audienco
audis
audo
audubon
auf
auge
augmentar
augmentas
augmentesis
augmentis
augmento
augsburg
augurar
auguro
august
augusta
auguste
augustin
augustine
augustinus
augusto
augustus
aukko
aulo
aung
aurelius
aureolo
aurikulo
aurora
auroro
aus
auschwitz
aussi
austen
austera
austereso
austin
austra
australa
australia
australian
australiana
australiani
australopithecus
austria
austrian
austriana
austriani
austriano
austro
austroneziana
austroneziani
autant
autarka
autarkeso
autentika
autentikeso
auteur
author
authority
autismo
auto
autobiografio
autobusi
autobuso
autodidakto
autografo
autoklavo
autokrato
automata
automatala
automato
automobil
automobila
automobilala
automobile
automobili
automobilismo
automobilisto
automobilo
autonoma
autonomeso
autonomio
autopsio
autor
autoreso
autori
autoritati
autoritato
autoritatoza
autoritatozi
autoro
autoroyuro
autovoyo
autre
autres
autunala
autuno
aux
auxiliara
auxiliary
av
ava
avalancho
avan
avana
avanbrakio
avancar
avancas
avance
avanchambro
avanci
avancigar
avancinta
avancis
avanco
avane
avangard
avanguardo
avano
avanposteno
avant
avantaji
avantajo
avantajoza
avantalo
avanti
avara
avaracha
avareso
avari
avariar
avario
avaro
avata
ave
avea
avec
avelano
aveno
aventurar
aventurema
aventurero
aventuri
aventuro
avenue
avenui
avenuo
aver
averajo
avere
averso
avertar
averto
avery
avi
avia
aviacado
aviacar
aviacilo
aviacisto
aviaco
aviation
avida
avideso
avignon
avino
avion
avionala
avioni
aviono
aviv
avizar
avizo
avo
avoca
avoceto
avoir
avokado
avon
avril
avulo
avv
aw
award
away
ax
axe
axel
axelo
axiomala
axiomi
axiomo
axis
axo
axoloto
axonometrio
ayala
ayatolo
aye
ayers
aymara
ayn
ayutthaya
az
azaleo
azerbaijan
azerbaijana
azerbaijanana
azia
aziala
aziana
aziani
azilo
azima
azimuto
azione
aziz
azoto
azteka
azteki
azur
azura
azurea
azuro
b
ba
baarova
bab
baba
babel
babilachar
babilado
babilar
babilema
babilemo
babilonia
babiloniana
babinavichi
babinichi
babiruso
babucho
babuino
baby
bach
bachelereso
bachelero
bacilo
back
background
bacon
bad
badajoz
baden
badenia
badmintono
baekje
bagajo
bagajuyo
bagatelo
bagdad
baghdad
bagno
baha
bahaa
bahadur
bahai
bahama
bahava
bahia
bahn
bahrain
bai
baikal
baikonur
baile
bailey
bain
bains
bakanalo
bakar
baker
bakersfield
bakita
bakkum
bako
bakr
bakterii
bakterio
bakteriologio
baktria
baku
bal
balado
balaguer
balance
balanciero
balanco
balas
balasto
balayar
balayilo
balboa
balbutar
balda
baldakino
balde
baldrio
baldwin
baleari
baleni
baleno
baleto
bali
baliso
balistikala
balistiko
balisto
balkana
balkani
balkano
balkono
ball
ballot
balnar
balneyo
balno
balnobaseno
balnochambro
balnokuvo
balo
baloneto
baloni
balono
balotear
baloto
baltika
baltiko
baltimore
balustrado
balustro
balzamino
balzamo
bamako
bambuo
ban
banano
banco
bancroft
band
banda
bandacho
bandajo
bande
banderolo
bandi
bandito
bando
bandoliero
banero
bangkok
bangladesh
bangui
bank
bankala
banki
bankisto
banko
bankobilieto
bankrotar
bankroto
banks
bantua
bantui
baobabo
baptar
baptesis
baptis
baptista
baptiste
baptita
bapto
baptomatro
baptopatro
bar
barack
barako
baraktar
barar
barba
barbados
barbakano
barbara
barbareso
barbaro
barbarossa
barbisto
barbo
barbosa
barbotar
barboza
barbuda
barbuliar
barca
barcelona
barco
bardano
bare
barejo
bareleto
bareli
barelo
barents
bari
baricentro
barikado
barilo
bariloche
bario
barito
baritono
barkaso
barker
barko
barnes
barnum
baro
baroka
baroko
barometro
baron
baroni
baronino
barono
barra
barre
barrel
barrett
barrio
barrios
barros
barrow
barry
barto
bartolome
bartolomeo
bartolomeu
barton
baruch
barzdowka
bas
basa
basamento
basbalo
base
basel
baseni
baseno
bashar
bashir
basic
basigar
basisto
baska
basketbalisto
basketbalo
baskia
baskiana
basko
baskular
baskulilo
baso
basono
bass
basse
basso
bastarda
bastardo
bastiono
basto
bastoneto
bastono
bat
batado
batali
bataliagro
bataliar
batalii
batalio
batalioni
bataliono
batalo
batar
bate
bateau
bategar
bateleto
bateli
batelo
bateman
baterii
baterio
bates
batiskafo
batista
batisto
batlle
bato
batrako
battista
battle
battre
battuta
baudet
baudouin
bauer
baum
bautista
bauxito
bavajo
bavar
bavaria
bavariana
baxter
bay
bayern
bayo
bayoneto
baz
baza
bazal
bazala
bazalto
bazaro
bazeyo
bazi
baziliko
bazilo
bazo
bbc
bc
be
beach
bean
bear
beast
beat
beata
beateso
beatifikar
beatles
beatrix
beatriz
beau
beaucoup
beaufort
beaufront
beautiful
beauty
beauvoir
beaux
beaver
beaverton
bebeo
bec
beck
becker
beckett
become
becomes
becquerel
bed
bedelo
bedford
bedo
beduino
bee
been
beethoven
beetle
before
begin
begino
begins
begonio
behind
bei
beijing
being
beirut
beja
bekafiko
bekaseto
bekaso
beko
bel
bela
belacho
beladono
belajo
bele
belega
belemnito
beleso
beleta
belga
belgia
belgiana
belgo
belgorod
belgrade
belgrano
believe
beligar
belino
belize
bell
bella
belle
belles
bellevue
bellini
bello
belo
belt
beltrami
beludjistan
belvedero
bemolo
ben
benazir
bend
bendi
bendo
bene
benedictus
benedikar
benediko
benediktano
benediktus
beneficar
benefico
benelux
benes
benfica
bengal
bengali
bengt
benigna
benigno
benin
benito
benjamin
benko
bennett
benny
benson
bentley
bento
benton
benz
benzeno
benzino
benzoo
beograd
ber
berbera
berberi
beredo
berenjeno
berg
bergamoto
bergen
berger
bergman
beri
beria
berilio
bering
berjero
berkeley
berkelio
berlin
berlioz
berloko
berlusconi
bermo
bermu
bermuda
bermudi
bern
bernaklo
bernard
bernardino
bernardo
bernhard
bernie
bernoulli
bernstein
bero
berry
bersar
bersilo
bertha
bertrand
besarabia
best
bestiala
bestie
bestii
bestio
beta
beth
bethany
betjeman
beto
betonio
betono
betravo
better
betty
between
bevanda
beverly
bey
beyond
bezonar
bezonas
bezonata
bezonesas
bezonesis
bezoni
bezonis
bezono
bełchato
bh
bhutan
bhutto
bi
bia
biafra
bianco
biała
białobrzegi
białystok
biblala
bible
bibliofilo
bibliografio
biblioteca
biblioteki
bibliotekisto
biblioteko
biblo
bice
bicepso
biciklero
bicikli
biciklismo
biciklistino
biciklisto
biciklo
biden
bideto
bidono
bie
bielorusa
bielorusi
bielorusia
bielorusiana
bien
bifsteko
bifurkar
bifurkilo
bifurko
big
bigameso
bigota
bigoteso
bigoto
bilanco
bilderberg
bildl
bilgo
biliardo
bilieti
bilieto
bilingua
bilingueso
biliono
bill
billboard
billet
billy
bilo
bilokalkolo
bilorneto
bilorno
biloveziko
biloxi
bin
bina
binara
bindar
bineto
bingen
bingham
binoklo
binokulara
binomio
bio
biodiverseso
biofizikisto
biofiziko
biografi
biografia
biografiala
biografio
biographical
biographie
biography
biokem
biokemiisto
biokemio
bioko
biol
biologiala
biologiisto
biologio
biologo
biomaso
bioniko
biosfero
bioteknologio
bipunto
bird
birds
bireto
biriferio
birko
birmingham
biro
birth
bis
bisau
bisextila
bishop
biskoto
bismarck
bismuto
bisquito
bissau
bit
bito
bitra
bitre
bitreso
bitrigar
bitumo
bitumoza
bivalvo
bizancana
bizancani
bizanco
bizantina
bizara
bizelo
bizono
biłgoraj
bjo
bla
black
blackwell
blade
blagoveshchenka
blaine
blair
blaise
blake
blamar
blaminda
blamo
blanc
blanca
blanche
blanco
blanka
blankatra
blanke
blanki
blanko
blasfemar
blasfemo
blast
blato
blazar
blazon
blazono
ble
blendo
bleu
bli
blica
blico
bligh
blind
blinda
blinde
blindeso
blindigar
bloch
block
blogo
blok
blokala
bloke
bloki
bloko
blokusar
blokuso
blonda
blood
bloom
bloomfield
bloomington
blotisar
blount
blow
blu
blua
blue
blues
blufar
bluff
blume
blutar
blutilo
bluzo
bm
bo
boa
boao
board
boas
boat
bob
bobby
bobino
boca
body
boeing
bofiliino
bofilio
bofiliulo
bofisto
bofratino
bofratulo
bogdan
bogio
bogota
bohemia
bohemiana
bohr
boikotar
boikotis
boikoto
boire
bois
boise
bok
bokala
bokalo
bokassa
bokedo
boko
bol
bolan
bolesław
bolesławiec
boleti
boleto
boli
boliar
bolido
boliigar
bolio
bolivar
bolivia
boliviana
bolo
bologna
bolshaya
bolsheviki
bolshoi
bolsonaro
bolt
bolto
bomatro
bomb
bomba
bombal
bombardar
bombardas
bombardaviono
bombardesis
bombardi
bombardilo
bombardis
bombardo
bombi
bombicilo
bombo
bon
bona
bonaire
bonajo
bonaparte
bonbono
bond
bone
bonega
boneso
boneto
bongo
bonheur
bonhumora
bonifa
bonifacius
bonigar
bonimentar
bonn
bonne
bono
bonveno
bonvolo
book
books
boomer
boone
bopatro
bor
bora
boracho
borar
boraxo
borborigmo
bord
bordear
bordeaux
border
bordi
bordizar
bordo
bordumo
bore
boreala
boreo
borges
borgezala
borgezaro
borgezo
borgia
borilo
boris
borki
born
borneo
borno
bornu
borodino
borono
borowa
bors
borsa
borso
bosajo
bosch
bosforo
bosketo
boski
bosko
boskoza
bosnia
bosniana
bossa
boston
bot
bota
botan
botanika
botanikala
botanikisto
botaniko
botelo
boteto
botha
boto
botswana
bottom
botulismo
boubacar
bouche
bougainville
boulogne
bounty
bourbon
bourse
bout
bouteflika
bouterse
boutros
bovaro
bovi
bovino
bovo
bovokarno
bovulo
bovyunino
bovyuno
bowie
bowling
box
boxar
boxing
boxisto
boxo
boxokombato
boy
boyd
boyer
boyle
boyo
boys
boz
bozize
br
bra
braceleto
bracho
bradford
bradipo
bradley
braga
bragg
braille
brakii
brakio
brakistokrono
brakiumo
brako
brakteo
bramano
bramar
bramo
branch
branchi
brancho
branco
brand
brandenburg
brandio
brandisar
brando
brandt
branica
brankio
brano
bras
brasar
brasi
brasil
brasileira
brasileiro
brasilia
bratislava
braun
braunschweig
brava
bravacho
brave
braveso
bravo
brazil
brazilia
brazilian
braziliana
braziliani
brazzaville
bre
bread
break
breaking
breath
brecho
breda
brejnev
brekiro
bremen
bremo
brenner
brest
bretelo
breton
bretona
bretonia
brewster
brezo
brian
briand
bride
bridge
brido
brief
brien
brigado
brigham
bright
brighton
brigitte
briki
briko
brikolar
brilanta
brilar
brilianto
briligar
brilo
briloza
bring
bringen
brino
briocho
brisbane
briska
bristol
britain
britana
britania
britanian
britaniana
britaniani
britaniano
britannica
british
brizanto
brizo
bro
broad
broadcasting
broadway
brocho
brodar
brodkast
brodkastar
brodkasterii
brodkasterio
brodkastesas
brodkasto
broglie
broken
brokolikaulo
bromo
bronkio
bronkito
bronson
brontosauro
bronx
bronz
bronza
bronze
bronzea
bronzo
brook
brooklyn
brooks
brosar
broshar
broshuro
brosilo
brother
brothers
brovo
browa
broward
brown
browne
browning
brownsville
broz
bru
bruce
brueghel
brueto
bruisar
bruisego
bruiso
bruisoze
bruit
brul
brulado
brulanta
brular
brulas
brulesis
bruletar
brulis
brulita
brulo
brun
bruna
brunatra
brunei
brunigar
bruno
brunswick
brush
bruska
bruske
brutala
brutale
brutaro
bruto
bruxel
bruxelles
bryan
bryant
brzezie
brzeziny
brzozo
bs
bu
buarque
bubacho
bubalo
bubo
bubonala
bubono
buch
buchanan
buchar
bucherio
buck
bucures
bud
buda
budapest
budar
buddhismo
buddho
buddy
bude
budismo
budista
budisti
budjetala
budjeto
budo
buduaro
buena
bueno
buenos
bufalo
bufar
bufeto
buffalo
bufono
bufro
bugaj
buglo
building
buildings
bujio
buketo
buklo
bukovina
bukowa
bulbi
bulbo
buldozero
buletino
buleto
bulgara
bulgari
bulgaria
bulgariana
buli
bulimio
buliono
bulletin
bulo
buloletro
bulvardo
bun
bundang
bunta
buon
buona
buono
burasko
burbiliono
burdono
bureau
buren
bureto
burgess
burgo
burgos
burgundia
burgundiani
buri
burjonifar
burjono
burke
burkina
burleska
burlington
burma
burmana
burmani
burnham
burns
burnuso
buro
burokratismo
burokrato
burroughs
burso
burst
burt
burton
burundi
bus
busan
busch
bush
busho
business
busko
buso
busolo
busprito
bustamante
busto
bustrofedono
but
butan
butar
butiki
butiko
butler
butono
butoro
butro
butte
buvrelo
buxeto
buxi
buxo
buzardo
buzo
by
byc
byron
c
ca
caballero
cabildo
cabinet
cabo
cabral
cabrera
caccia
cadere
caen
caesar
caetano
cafe
cage
cai
cairo
calais
caldas
caldero
caldwell
cale
calgary
calhoun
cali
california
call
callao
callaway
called
calumet
calvin
calvo
camacho
camargo
cambio
cambridge
camden
camera
cameron
camille
camilo
caminha
camo
camp
campbell
campinas
campo
campos
camus
can
canada
canadian
canal
canby
cane
canis
cannes
cannon
canon
canterbury
canto
canton
cantor
canyon
cao
cap
cape
capelli
capita
capital
capo
capone
cappello
capra
captain
car
cara
caracas
caracte
carala
carattere
carbon
card
cardinal
cardoso
cards
care
carey
cargo
caribbean
carino
cario
carl
carlevaro
carlisle
carlo
carlos
carlton
carmel
carmen
carmona
carnaval
carne
carneiro
caro
carol
carolina
caroline
carpenter
carr
carranza
carre
carrero
carriage
carrie
carro
carroll
carrollton
carry
cars
carson
cart
carta
cartagena
carte
carter
cartes
carthage
cartier
carvalho
carver
cas
casa
casares
casas
cascade
case
cases
casey
cash
casimir
caso
cass
cassini
cassius
cast
castello
castelo
castillo
castle
castro
cat
catalunya
catarina
catch
catherine
catholic
catlins
cato
cattivo
causa
cause
cavalcanti
cavallo
cave
cavendish
caxias
cayare
cd
cdot
ce
ceara
ceci
cecil
cedar
cedas
cedesis
cedilio
cedis
cedo
cedro
cefalopodo
ceko
cela
celar
celate
cele
celebrar
celebras
celebresas
celebris
celebro
celema
celerio
celestinus
celeyo
celiba
celibino
celibulo
celis
celita
celsio
celsius
celula
celulala
celuli
celulo
celuloido
celuloso
cembro
cemento
cenala
cenaro
ceneyo
ceni
ceno
censo
censuro
census
cent
centauro
center
centerville
centesma
centi
centimetri
centimetro
centimo
cento
centr
centra
centrafrika
central
centrala
centrale
centre
centri
centripetala
centro
century
centyara
cepo
ceptro
ceramikaji
ceramikajo
ceramiko
cerastio
cercle
cereali
cerealo
cerebrala
cerebro
ceremoniala
ceremonii
ceremonio
ceres
cerfolio
cerio
cerizo
cernan
cernar
cero
cerrado
cerro
cerrone
certa
certain
certe
certena
certeso
certifikar
certigar
certigo
certio
cerumeno
ceruzo
cervantes
cervino
cervo
ces
cesar
cesare
cesas
cesigar
cesio
cesis
ceso
cetaceo
cetera
cetere
ceteri
cetero
cetonio
cette
ceuta
ceylon
cezarala
cezaro
cf
cfa
cfb
ch
cha
chaco
chad
chagrenanta
chagrenar
chagrenigar
chagreno
chaikovski
chaim
chain
chair
chalazo
challenger
chambelano
chamber
chamberlain
chambers
chambra
chambre
chambrego
chambri
chambro
chamo
chamorro
champ
champanio
champiniono
champion
championesi
championeso
championi
championino
championkonkursi
championkonkurso
championo
championship
championships
champlain
champs
chan
chance
chanco
chandler
chang
change
changer
chanjanta
chanjar
chanjas
chanjema
chanjesis
chanjeso
chanji
chanjis
chanjo
chankro
channel
chant
chanto
chao
chapeau
chapel
chapelo
chapitri
chapitro
chapleto
chaplin
chapman
chapo
character
chareto
charge
charioto
charjar
charjita
charjo
charles
charleston
charlie
charlotte
charmanta
charmar
charmiva
charmo
charniro
charo
charto
chas
chasado
chasar
chasas
chase
chaseri
chasero
chasisto
chaso
chasse
chasta
chasteso
chat
chaud
chaudhry
chauvin
chazublo
che
chechena
checheni
chechenia
checheniana
check
checs
cheddi
chef
chefa
chefe
chefeso
chefi
chefkontoro
chefloko
chefministri
chefministrino
chefministro
chefo
chefurbo
chega
cheikh
cheka
chekarpati
cheki
chekia
chekiana
cheko
chekoslovakia
chekoslovakiana
chelsea
chelyabinsk
chem
chemical
chemin
chemistry
chen
cher
chera
chercher
cherokee
cherpar
cherry
cheshire
chess
chester
cheval
chevalier
cheveux
chevrolet
chevrono
chew
chez
chełm
chi
chiang
chicago
chico
chief
chien
chifchafo
chika
child
children
chile
chili
chiliana
chillicothe
chilo
chim
chimo
chimpanzeo
chin
china
chinchilo
chinese
chingiz
chinia
chiniala
chinian
chiniana
chiniane
chiniani
chiniano
chiniono
chipa
chipe
chipro
chir
chirac
chitino
cho
chokolado
chomar
chomeso
chopin
chopino
chornobil
chose
choseala
chosei
choseo
choses
chp
chris
christiaan
christian
christiania
christina
christine
christmas
christoffer
christoph
christophe
christopher
chrysler
chu
chua
chuck
chun
chung
church
churchill
chuvo
chyno
ci
cia
cianido
cias
cibernetiko
ciboleto
cibolo
ciborio
cicero
cid
cidade
cidades
cidro
cie
ciel
cielala
cielo
cieloskrapero
ciencal
ciencala
cienci
ciencisti
ciencisto
cienco
cifri
cifro
cigani
cigano
cigno
cikado
cikatro
ciklala
ciklameno
cikli
ciklismo
ciklisto
ciklo
cikloido
cikloni
ciklono
ciklopo
ciklotrono
cikonio
cikorio
cilindra
cilindrala
cilindratra
cilindro
cilio
cimaso
cimbalo
cimo
cin
cinabro
cinamo
cincinnati
cinco
cindri
cindro
cindruyo
cinekamero
cinem
cinema
cinematiko
cinematografar
cinematografisto
cinematografuri
cinematografuro
cinemi
cinemo
cinetika
cinika
cinikeso
cinklo
cinq
cintilifar
cintilo
cio
cipreso
ciprino
cirajo
circa
circle
cirkla
cirklatra
cirkle
cirkli
cirklo
cirklokurvo
cirko
cirkondanta
cirkondar
cirkondas
cirkondata
cirkondesas
cirkondis
cirkondita
cirkonspekta
cirkonstanci
cirkonstanco
cirkuiti
cirkuito
cirkulado
cirkular
cirkulero
cirkulo
cirkum
cirkuma
cirkumaji
cirkumajo
cirkume
ciruso
cis
cisterno
citadelo
citajo
citar
citaro
cite
cities
citizen
cito
citologio
citoplasmo
citroe
citrono
citrus
citruso
citta
city
ciudad
civeto
civil
civila
civile
civili
civilizar
civilizeso
civilizuri
civilizuro
civilo
civismo
civitanala
civitaneso
civitani
civitano
civito
cizelagar
cizelar
cizelilo
cizelo
cizo
ck
cken
cla
clackamas
clair
claire
clapton
clara
claremont
clarence
clarendon
clark
clarke
clarksville
clash
class
classe
classification
classinform
claude
claudia
claudius
claus
clav
clay
clayton
cle
clear
clearwater
clement
clermont
cleveland
climate
clinton
clive
clock
clos
close
cloth
clothes
clothing
cloud
club
clube
clyde
cm
cn
cnn
co
coal
coast
coat
coburg
coche
coco
code
coelho
coeur
coffee
cohen
coimbra
coin
col
cola
colas
colbert
cold
cole
coleman
colin
colle
collect
collection
college
collier
collins
collor
colo
colombia
colombo
colonia
colony
color
colorado
colore
colour
coloured
colpo
columbia
columbus
com
comando
combat
combien
come
comedia
comercio
comite
comm
command
comme
commerce
commercial
commercio
commettere
commettre
commission
commit
committee
common
commons
commonwealth
commun
communication
communications
community
como
compagnie
companion
company
comparative
comparison
compass
comple
complete
composition
compte
compton
computer
comte
comune
con
concepcio
concert
concord
concorde
concordia
conde
condita
condition
conduct
conference
confidence
conflict
congo
congress
conj
connecticut
connection
connor
conquista
conquistador
conrad
conscience
conseil
consejo
consiglio
constable
constant
constantin
constellation
constitucio
constitution
construction
contact
conte
contemporary
contest
conti
continue
conto
contra
contract
contrario
contre
contro
control
convention
conway
cook
cooking
cool
coolidge
cooper
copacabana
coppola
copy
cor
coral
cord
corde
coreia
cori
corneille
cornelis
cornelius
cornell
corona
coronado
coronavirus
corpo
corporation
corps
corpus
correa
correia
correio
corrente
correre
corrientes
corso
corte
cortes
cos
cosa
cose
cosi
cosmoglotta
cost
costa
costello
costume
cottage
cotton
cottonwood
cou
coubertin
couleur
council
count
counter
countries
country
county
coup
coupe
couper
couple
coups
cour
courage
courant
courir
cours
course
court
courtland
couturat
couvert
couvrir
cove
coventry
cover
covid
covington
cowboy
cox
craig
crash
crawford
cre
cream
credit
creek
crema
crescent
cri
crime
criminal
crire
crisis
cristal
cristina
cristo
cristoforo
critical
croire
croix
cromwell
crop
cross
crossing
crow
crown
cruz
cry
crystal
cs
csa
cska
ctor
cu
cuando
cuba
cue
cuiaba
cuisine
culo
cultura
cultural
culture
cumberland
cunamio
cunha
cuore
cup
cure
curie
curitiba
current
curtis
curve
custer
customs
cut
cuyahoga
cy
cyril
cz
czarny
czastary
cze
czech
czesław
czew
czna
czno
czo
czyca
czyz
cœur
d
da
dabramisli
dabrin
dacia
dacko
dada
dade
dae
daewoo
dafno
dag
dagestan
dago
dahome
dai
daily
daimler
daimo
dakota
dal
dalai
dale
dali
dalio
dall
dalla
dallas
dalmatia
dalton
daly
dam
dama
damascus
damasko
damaskus
dame
dami
damijano
damnar
damo
damzelo
dan
dana
dance
dandio
dane
danger
dangerous
dani
dania
daniana
daniano
daniel
daniela
danjero
danjeroza
dankar
danke
danko
danny
dans
dansado
dansala
dansar
dansas
danse
dansi
dansistino
dansisto
danso
dante
danubio
danville
danza
dar
dardaneli
dardo
dare
darfar
darfas
darfis
dario
dark
darnar
darsi
darth
darwin
darya
das
data
database
date
datelo
dates
dati
dativo
datizar
datizas
datizita
dato
datumaro
datumi
datumo
daturo
daugava
davanti
dave
davenport
david
davis
davy
dawda
dawkins
dawson
daxo
day
days
dayton
daytona
dazlar
dc
de
dead
deadly
deaji
deajo
deal
deala
dean
death
debajo
debar
debatar
debatebla
debati
debato
debayle
debbie
debeto
debi
debila
debileso
debiligar
debitar
debo
debochanta
debochar
debochema
debochero
debochistino
debocho
deborah
debt
debushar
debushas
debussy
debut
debutar
debutis
debuto
dec
decanta
decar
decatur
december
decembro
decendantaro
decendanti
decendanto
decendar
decendas
decendis
decendo
decensar
decensas
decenso
deceptar
decepto
dechifrar
decidar
decidas
decidema
decidesis
decidi
decidiganta
decidigiva
decidis
decidita
decido
decimala
decimalo
decimetro
declara
deco
decreto
decretos
dedikar
dedikata
dedikita
deduktar
dedukto
dee
deep
deer
def
defekto
defektoza
defensar
defensas
defenseri
defensero
defensi
defensis
defensisti
defensisto
defensiva
defenso
deferencar
deferenco
defiar
deficito
defilar
defileo
definar
definas
defini
definis
definita
definite
definition
definitiva
definitive
defino
defio
deformar
deformita
deformo
deformuro
degenerar
degenero
degli
degnar
degradar
degrado
degre
degree
dei
deino
deixa
deixam
dejunar
dejuneto
dejuno
dejurar
dek
dekadanta
dekadar
dekadis
dekado
dekalb
dekalkomanio
dekalogo
dekano
dekantar
dekapar
dekedu
dekesma
deki
dekimo
deklamar
deklarar
deklaras
deklaresas
deklaresis
deklaris
deklarita
deklaro
deklinar
deklino
deko
dekoktar
dekoltar
dekorar
dekoruro
dekremento
dekretar
dekretas
dekreti
dekreto
del
dela
delano
delaware
delegaciono
delegar
delegitaro
delegito
delektar
delektesar
delekteso
deletera
delfini
delfino
delfzijl
delgado
delhi
deliberar
delibero
delicio
delicioza
delikata
delikatajo
delikatega
delikateso
deliktanto
deliktar
delikto
deliquecar
deliranta
delirar
deliro
dell
della
delle
delonge
delore
delta
delto
dem
demagogio
demagogo
demand
demandante
demandar
demandas
demander
demandi
demandis
demandita
demando
demarshar
demarsho
dementa
dementerio
dementeso
dementiar
dementio
demi
demisionar
demisionas
demisionis
demisiono
democracy
democratic
demografiala
demografio
demographic
demokrata
demokratala
demokrati
demokratial
demokratiala
demokratio
demokrato
demolisar
demolisesis
demoliso
demono
demonstranti
demonstrar
demonstras
demonstrativa
demonstri
demonstris
demonstro
den
denaro
denaturar
dendrito
denigrar
denigro
denis
denisovka
dennis
denominatoro
denove
densa
dense
denseso
dent
dentala
dentaro
dentego
dentelo
denteto
denti
dentifrico
dentino
dentisto
dentizar
dento
dentopikilo
dentoza
dentro
dents
denuncar
denuncis
denunco
denver
deo
deodoro
departamento
departar
departas
departis
department
departmenti
departmento
departo
dependanta
dependar
dependas
dependis
dependo
deperisar
deperiso
depesho
deplorar
deplorinda
deportar
deportesis
deporto
depos
depose
depozajo
depozar
depozario
depozas
depozeyi
depozeyo
depozo
deprenar
depresar
depreseso
depreso
depuis
deputar
deputati
deputato
der
derby
derek
derevnya
derivado
derivajo
derivar
derivas
derivata
derivesas
derivita
derivo
dermatologio
dermo
dernier
dervisho
des
desafabla
desagnoskar
desagreabla
desaparar
desaparas
desaparecidos
desaparigar
desaparinta
desaparis
desaparita
desaparo
desaprobar
desaranjar
desarmizo
desasociar
desavantajo
desbela
desbona
descartes
descharjar
descharjo
desde
desegnado
desegnar
desegnesis
desegni
desegnis
desegnisto
desegnita
desegno
desegnuri
desegnuro
desembarasar
desembarkar
desembarkas
desembarkis
desembarko
desembragar
desengajar
deseret
desero
desertar
desesperanta
desesperar
desesperigar
desespero
desestimar
desestiminda
desestimo
desfacar
desfacila
desfacilaji
desfacilajo
desfacile
desfacilesi
desfacileso
desfaciligar
desfaldar
desfavoroza
desfelica
desfeliceso
desfidar
desfido
desfortuno
desfortunoza
deshonesta
deshonoro
design
desikatoro
desinkombrar
desintrikar
desjuntar
deskargar
deskatenizar
deskomforto
deskonfesar
deskonkordo
deskontenta
deskovrajo
deskovrar
deskovras
deskovresas
deskovresis
deskovri
deskovrinto
deskovris
deskovristo
deskovrita
deskovro
deskrasizar
deskreskar
deskreskis
deskresko
deskriptar
deskriptas
deskriptata
deskriptesas
deskriptesis
deskriptis
deskriptita
deskripto
deskuplar
deskurajo
deskurajoza
desligar
deslizamento
desmaskar
desmetar
desmond
desmuntar
desneta
desnobla
desnobleso
desobedio
desobstruktar
desordinar
desordino
despenso
despia
despitar
despitigar
despito
desplumizar
despopulara
despoto
desprizar
desprofunda
desquieta
desquieteskar
desquieteso
desquietigar
desricha
dessaja
dessalizar
dessau
dessin
dessous
desspular
dessus
destensar
destinar
destinata
destini
destinita
destino
destranquila
destruktadi
destruktado
destruktar
destruktas
destruktesas
destruktesis
destruktis
destruktita
destruktiva
destrukto
desunionar
desvelizar
desvestizar
desvinko
desvolvar
det
detachmento
detali
detalo
detaloza
detaloze
detektar
detektivo
detektoro
determinar
determinas
determinita
determino
detersar
detersivo
detonar
detranchar
detrimentar
detrimento
detroit
dette
deturnar
deuterio
deutsch
deutsche
deux
devancar
devant
devar
devas
devastanta
devastar
devastas
devastis
devastita
devasto
developado
developanta
developar
developas
developata
developesar
developesis
developeso
developis
developita
development
developo
devenar
devenas
devenir
devenis
deveno
devi
deviacar
deviaco
devil
devis
devizo
devo
devoco
devocoza
devoir
devorar
devota
devoteso
devus
dewey
dexter
dextra
dextrana
dextrano
dextre
dextrino
dez
dezerta
dezerti
dezerto
dezinenco
dezirar
deziras
deziregar
dezirego
deziri
dezirinda
deziris
deziro
dezolanta
dezolar
dfb
dhaka
di
dia
diabetiko
diabeto
diablala
diablatra
diable
diablo
diademo
diado
diafana
diafaneso
diafizo
diafragmo
diagnozar
diagnozo
diagonala
diagrami
diagramo
diakoniso
diakono
diakritika
diakritiko
diala
dialektala
dialekti
dialektiko
dialekto
dialogar
dialogi
dialogo
diamanti
diamanto
diametro
diamond
diana
diane
dianto
diapazono
diapozitivo
diareo
diario
dias
diasporo
diatonika
diatribo
dica
dicajo
dicanta
dicante
dicar
dicas
diccionario
dice
dicernar
dicernas
dicernebla
dicerno
dicesas
dicionarii
dicionario
diciono
diciplinar
diciplini
diciplino
dicipuli
dicipulo
dicis
dicita
dick
dickens
dickinson
dico
dictionary
dictionnaire
did
didaktiko
didelfo
didier
die
died
diego
dielektriko
diem
dies
diesel
dieto
dietrich
dieu
diezo
difamar
difamo
diferanta
diferante
diferar
diferas
diferencialo
diferenciar
diferi
difero
diffe
different
difrakto
difterio
diftongi
diftongo
difuzar
difuzesis
difuzita
difuzo
digestar
digestiva
digesto
digi
digital
digitalo
digizar
digna
digne
digneso
digo
digramo
digresar
dii
dijitala
dika
dikeso
dikigar
dikotiledona
dikotomio
diktamo
diktar
diktatoreso
diktatoro
dil
dilatar
dilemo
diletanto
diletar
dili
diligenta
diligente
diligenteso
dilijenco
dilma
dilutar
dilutita
diluvio
dimensioni
dimensiono
dimezo
diminutar
diminutas
diminutesis
diminuteso
diminutis
diminuto
dimisio
dimitrios
din
dina
dinamikala
dinamiko
dinamito
dinamo
dinastii
dinastio
dindo
dine
dinear
dineo
dino
dinosaurio
dinosauro
dio
diocezo
diogo
dios
dioxido
dioxino
diplasar
diplasis
diplasita
diplaso
diplomacala
diplomacisto
diplomaco
diplomo
diporto
diptero
dir
dire
direcione
direcioni
direciono
direct
direction
direktado
direktanta
direktanto
direktar
direktas
direktata
direkte
direktero
direktis
direktisto
direktita
direkto
direktorio
direta
direte
diritto
dirty
dis
disaster
disco
discours
discovery
disdonar
disease
disenterio
disertar
diserturo
dish
dishi
disho
disidenta
disidento
disimular
disimulema
disipanto
disipar
disipemo
disk
disketo
diski
disko
diskontar
diskreta
diskriminaco
diskriminanto
diskursachar
diskursar
diskursi
diskurso
diskutado
diskutar
diskutas
diskuti
diskutis
diskuto
dislokar
dismo
disney
disonancar
disparata
dispensar
dispenso
dispepsio
dispersar
dispersita
disperso
displaystyle
disponar
disponebla
disponebleso
dispozar
dispozeso
dispozita
disputar
disputata
dispute
disputema
disputi
disputis
disputo
disruptar
dissekar
dissemar
dissemesis
dissemita
dissemo
dissolvar
dissolvas
dissolvesas
dissolvesis
dissolvis
dissolvo
dissolvuro
dista
distala
distance
distanta
distante
distar
distas
disti
distilar
distilita
distilo
distingar
distingas
distingata
distingebla
distingeso
distingita
distingiva
distingo
distinta
disto
distraktar
distraktita
distraktiva
distrakto
distranchar
distributar
distributo
district
distrikro
distriktala
distrikti
distrikto
dit
ditenar
diteno
dition
ditions
ditreso
divagar
divenabas
divenabis
divenante
divenar
divenas
diveninta
divenir
divenis
divenos
divenus
divergar
divers
diversa
diverse
diverseso
diversigar
diversiono
dividanto
dividar
dividas
dividebla
dividendo
dividesar
dividesas
dividesis
dividis
dividita
divido
dividuro
divina
divinar
divino
division
divizioni
diviziono
divorcar
divorcis
divorco
divulgar
dix
dixon
diz
dizastro
dizastroza
dizzy
dj
django
djibouti
djibuti
djvu
dlamini
dmitri
dna
dnepr
do
doario
dobiecin
doc
docado
docar
docas
docento
docero
docesas
docila
docileso
docis
docisti
docisto
doctor
doctrine
document
documents
dodekaedro
dodekagono
dodge
doe
does
dog
doganala
dogano
dogmato
dogo
doherty
dois
dojo
doki
doko
doktoreso
doktoro
doktrinala
doktrini
doktrino
dokument
dokumentala
dokumenti
dokumento
dolara
dolari
dolaro
dolca
dolcacha
dolce
dolceso
dolcigar
dolez
dolmano
dolmeno
dolo
dolomito
doloranta
dolorar
dolores
doloriganta
dolorigar
doloro
doloroza
doloza
dom
domacho
domajar
domajas
domajesar
domajesis
domaji
domajis
domajita
domajiva
domajo
domala
domaro
dome
domego
domeni
domenico
domeno
domestika
dometo
domi
domicilo
dominacajo
dominacanta
dominacar
dominacas
dominacesis
dominacis
dominaco
domingo
domingos
domini
dominika
dominikana
dominikano
dominique
domino
domitianus
domo
domtar
don
donacaji
donacajo
donacar
donacas
donacis
donaco
donaji
donald
donar
donas
donata
done
doneck
donesas
donesis
donetsk
dong
donis
donita
donna
donne
donner
dono
dont
doo
dooku
doolittle
door
dop
dopa
dopado
dopajo
dope
doplanda
doplande
doplando
dopo
dorado
dorika
doris
dorji
dorlotar
dorloto
dormanta
dormar
dormetar
dormeyo
dormigiva
dormir
dormo
dormochambro
dorno
dornoza
dorothy
dors
dorsala
dorso
dorsosako
dorsosalto
dos
doselo
dosiero
dostoyevski
dotar
doto
douard
double
douglas
douleur
dove
dover
down
doyle
dozeni
dozeno
dozens
dozo
dr
dragar
drago
dragono
drajeo
drake
drakmo
drako
drama
dramatala
dramati
dramatifisto
dramatisto
dramato
draogo
drapirar
drapo
drashar
drastika
draw
drawing
dream
dreams
drenar
dreno
drenthe
dresar
dresden
dress
drew
dreyfus
drezino
driftar
drilo
drink
drinkaji
drinkajo
drinkar
drinkebla
drinkerii
drinkerio
drinkeyi
drinkeyo
drinko
drinkopekunio
drive
dro
drogi
drogo
droit
drola
dromedaro
dronar
dronas
dronesar
dronto
drop
drosero
drugi
druido
drum
drummond
drupo
druz
dry
drzejo
du
dua
duacent
duadek
duadekesma
duala
duarte
dubai
dubc
dubitar
dubito
dublin
dubois
dubrowna
dubuque
duchambra
duchamp
duck
duda
dudley
due
duelar
duelo
dueno
duesma
duesmafoye
duesme
dueto
dufoye
duima
duime
duimo
duisburg
duke
duki
dukino
dukio
duko
duktanta
duktanto
duktar
duktas
duktata
dukteri
duktero
duktila
duktileso
duktis
duktisto
duktita
dukto
dulce
dulkamaro
duluth
dum
dumas
dume
dumont
dumviva
dumvive
duncan
dungo
duni
dunlap
duno
duo
duodenumo
duopla
duople
duopligar
duopligo
dupa
dupigar
duplikato
dupo
duque
dura
durado
duran
durand
durant
duranta
durante
durar
duras
durch
dure
durigar
durigis
durigo
during
durinta
durio
duris
duriva
durkheim
duro
duros
durstar
dursto
dus
dusenca
dushar
dusho
dutra
duty
duvalier
duyongo
dvd
dvor
dw
dwight
dy
dyer
dylan
dz
e
each
eagle
ear
earl
early
earth
earthquake
east
eastern
eastman
easton
easy
eat
eau
eben
ebenisto
ebeno
eberhard
ebert
ebiografia
ebl
ebonito
ebria
ebrieso
ebrieta
ebriigar
ebro
ebu
ebuliar
ebulio
ec
ecc
eccl
eccles
ecelanta
ecelar
ecelo
ecentrika
eceptala
eceptar
ecepte
ecepto
ecesanta
ecesar
ecese
ecesiva
eceso
echekar
echo
echopo
echternach
ecitar
eciteso
ecito
ecizar
eco
econ
econom
economic
economist
economy
ecuador
ed
eda
edc
eddie
edemo
eden
edeno
ederduno
edero
edgar
edge
edgerton
edicio
edifici
edifico
edifikar
edikto
edinburgh
edipus
edison
editar
editas
editerio
editero
editesis
edition
editis
editisto
editita
edito
editor
editora
editorial
edituri
edituro
edmond
edmonton
edmund
edo
edouard
edro
eds
edu
eduard
eduardo
education
edukado
edukala
edukar
edukerio
edukesis
edukeso
edukisto
edukita
eduko
edvard
edward
edwards
edwardsville
edwin
eec
eek
eesti
efacar
efaco
efe
efekti
efektigar
efektigas
efektigis
efektigita
efektigo
efektiva
efektivo
efekto
efemera
efemerido
efemero
efervecanta
efervecar
effect
effet
effort
eficienta
eficienteso
efikanta
efikar
efikas
efikema
efikeskas
efikeskis
efikiva
efikive
efikiveso
efiko
eflorecar
eg
egala
egale
egalesas
egaleso
egaligar
egalo
egarar
egardar
egardas
egardata
egarde
egardesas
egardis
egardo
egea
egg
egido
egipti
egiptia
egiptian
egiptiana
egiptiani
egiptologo
eglefino
ego
egoismo
egoista
egotismo
egotisto
egypt
ei
eichmann
eiffel
ein
eine
einem
einen
einer
eines
einstein
eiri
eisenhower
eisinga
eje
ejektar
ek
ekfluar
ekfluas
ekflueyo
ekfluo
ekidno
ekimoso
ekino
ekinodermo
ekirar
ekiras
ekireyo
ekiris
ekiro
eklektika
ekleziala
eklezii
eklezio
eklipsar
eklipso
ekliptiko
eklogo
eklund
ekman
ekmigranti
ekmigrar
ekmigris
ekmigro
eko
ekologiala
ekologio
ekonomial
ekonomiala
ekonomiale
ekonomii
ekonomikala
ekonomikistino
ekonomikisto
ekonomiko
ekonomio
ekonomo
ekosistemi
ekosistemo
ekpulsar
ekpulsas
ekpulsesas
ekpulsesis
ekpulsis
ekpulsita
ekpulso
eksekrecar
ekswichar
ektirar
ektodermo
ektopio
ekumenika
ekzemo
el
ela
elaborar
elaine
elastika
elastikeso
elbaradei
elbe
eldridge
ele
eleanor
elec
elected
election
elections
electr
electric
elefanti
elefanto
eleganta
eleganteso
elegio
eleic
elektado
elektala
elektanto
elektar
elektas
elektata
elekteri
elektesas
elektesis
elekti
elektis
elektita
elekto
elektr
elektra
elektral
elektrala
elektrika
elektro
elektrodo
elektrolizo
elektromagnetala
elektronala
elektroni
elektronika
elektronikal
elektronikala
elektroniko
elektrono
elektroza
elementala
elementi
elemento
elena
elettr
elevar
elevatoro
elevita
elevo
elfo
elgin
eli
elia
elias
elie
eliminar
eliminis
elimino
eliot
elipso
elis
elisabeth
eliti
elito
elitro
eliza
elizabeth
elizionar
elk
elkton
ella
elle
ellen
ellice
elliot
elliott
ellis
ellsworth
elmo
elmore
eloquenta
eloquenteso
elqua
else
elton
elu
elua
eludar
elvis
em
ema
emalio
emanar
emancipar
emancipo
emanuel
emanuele
embarasar
embarasata
embaraso
embargar
embargo
embarkar
emblemo
embolio
embotar
embracar
embraco
embragar
embragilo
embrazuro
embriologio
embriono
embuskar
embusko
emendar
emendesis
emendo
emergency
emerita
emersar
emersis
emerso
emerson
emfazar
emfazas
emfazo
emfizemo
emi
emil
emilia
emiliano
emilio
emily
eminenta
eminenteso
eminento
emirii
emirio
emiro
emisar
emisas
emiso
emma
emmanuel
emmy
emo
emocala
emocanta
emocar
emoci
emociganta
emocigar
emoco
empalar
empatio
empire
empirikala
empiriko
emplastro
emploi
employar
employas
employata
employati
employato
employeso
employi
employis
employment
employo
emula
emulsar
emundar
emuo
en
enca
encefalito
encefalo
encenigo
encikliko
enciklopedio
encore
encyclopaedia
encyclopedia
encyclopædia
end
ende
endemika
endemio
endetala
endetale
endivio
endogamio
endokardio
endokarpo
ends
enduktar
enduktesis
enduktis
endukto
enemika
enemikala
enemikeso
enemiki
enemiko
energia
energiala
energio
energioza
energioze
energy
enfant
enfants
enfluanti
enfluanto
enfluas
enfokigas
enfokigis
engajar
engajis
engelbert
engels
engine
england
english
engrosa
enigmato
enirar
eniras
enireyo
eniris
eniro
enkarcerigar
enkarcerigesas
enkarcerigesis
enkarcerigis
enkarcerigita
enkarcerigo
enklavo
enkorpigar
enkorpigas
enkorpigesis
enkorpigis
enkorpigita
enkorpigo
enlistigita
enluminar
enmigrado
enmigranti
enmigranto
enmigrinti
enmigris
enmigro
ennalta
ennave
ennen
enorma
enoyar
enoyiganta
enoyigiva
enoyo
enrejistrar
enrejistresis
enrejistris
enrejistrita
enrejistro
enrico
enrique
ensemble
ensembli
ensemblo
enskribar
enswichar
entablamento
entamar
entendre
enterigar
enterigo
enternar
enterprise
entertainment
enti
ento
entomologio
entote
entraprezajo
entraprezar
entraprezi
entraprezis
entraprezisto
entraprezo
entrare
entratenar
entrateno
entravar
entravilo
entre
entremeso
entrenar
entrenero
entrenisto
entreno
entreo
entrer
entresolo
entropio
entuziasmar
entuziasmigar
entuziasmo
entuziasmoza
enumerar
enuncar
enunco
enurbala
envelopar
envelopas
envelopilo
enverguro
envers
envidiar
envidio
envidioza
envidiozo
envio
envolvar
envolvas
enz
enzimi
enzimo
eo
eolala
eolia
eozino
epa
eperlano
epicentro
epidemiala
epidemii
epidemio
epidemiologio
epidermo
epidurala
epifanio
epigastro
epigloto
epigono
epigrafo
epigramo
epika
epikajo
epikuro
epilepsio
epilogo
episkopala
episkopeyo
episkopi
episkopio
episkopo
epistemologio
epistolo
epitafo
epitelio
epiteto
epitomo
epizodi
epizodo
epizootio
epoka
epoki
epoko
epoleto
epruveto
equacioni
equaciono
equador
equadorana
equatorala
equatoro
equi
equilibrar
equilibrigar
equilibro
equinoxo
equipar
equipita
equipo
equipuri
equipuro
equiseto
equitato
equitatoza
equivalanta
equivalanto
equivalar
equivalas
equivalo
er
era
erasmus
eratika
erci
erco
erectus
erektar
erektita
ergonomio
ergoto
eri
eric
erich
erik
erikeyo
eriko
eriksson
eringio
eritrea
eritrocito
eritta
erizipelo
ermino
ermito
ernest
ernesto
ernst
ero
erodar
erodo
eroracho
erorar
erore
erori
erorigar
eroriva
eroro
eroroza
erotika
erreur
erste
erudar
erudita
eruditeso
eruditi
erudito
eruptar
eruptas
erupti
eruptis
erupto
erwin
erza
es
esa
esabas
esabis
esabus
esamifar
esamo
esanta
esante
esar
esas
esayi
esayisto
esayo
esbosar
esbosuro
escape
escobar
escola
escorial
escrime
escritor
esenca
esencala
esence
esenco
esez
esforcar
esforcas
esforci
esforcis
esforco
eshafodo
esi
esiin
esine
esinta
esinte
esir
esis
esitta
esk
eskadro
eskadrono
eskaldar
eskalero
eskamotar
eskapar
eskapas
eskapis
eskapo
eskarbilo
eskaro
eskarpa
eskarpajo
eskartar
eskarte
eskartita
eskarto
eske
esko
eskombri
eskombro
eskopeto
eskorto
eskrokar
eskrokero
eskroko
eskudelo
eskupilo
esma
esmerilio
eso
esos
esotera
esp
espace
espado
espalero
espan
esparo
esparto
espe
especie
espelar
espelo
esperajo
esperantala
esperantisti
esperantisto
esperanto
esperar
espero
espi
espineto
espinho
espino
esplanado
espresa
espreso
esprit
espritajo
esprito
espritoza
espruva
esquadala
esquadi
esquado
esquivel
essas
essen
esser
essere
essex
est
esta
establisar
establisas
establisata
establisesas
establisesis
establisis
establisita
establiso
establisuro
estadi
estado
estados
estafeto
estakado
estal
estala
estalar
estaleyo
estampar
estanchar
estar
estatal
estate
estates
estati
estayo
este
esteban
estela
estero
estetikala
estetiko
esther
esti
estimar
estimata
estimates
estimativa
estimativas
estiminda
estimo
esto
estompar
estonia
estoniana
estoniano
estoril
estr
estrada
estrado
estragono
estrella
estribo
estuario
estudios
esus
esvanar
esvano
eswatini
et
eta
etaja
etajero
etaji
etajo
etalono
etamino
etapar
etapeyo
etapi
etapo
etato
etc
eteenpa
eterna
eterneso
etero
eteryt
ethnologue
etikala
etiketo
etiko
etimologiala
etimologio
etiolar
etiopia
etiopian
etiopiana
etiqueto
etna
etniala
etniale
etnii
etnio
etnografio
etnologio
etnologo
etologio
etoso
etowah
etta
etuyo
etw
etwas
eu
eua
eufemismo
eufonio
euforbio
euforio
eufrati
euge
eugen
eugene
eugeniko
eugenio
eugenius
eukalipto
eukaristio
euklid
euklidana
euler
eunuko
euratom
eurazia
euraziana
eureka
euri
eurico
euro
eurodance
europa
europala
europan
europana
europani
europano
europe
european
europio
eurostat
eurovision
euroviziono
eurozono
eusebio
eutanazio
eva
evakuar
evakuesas
evakuesis
evakuo
evaluado
evaluar
evaluita
evaluo
evangeliala
evangelio
evans
evanta
evante
evar
evaristo
evas
eve
even
evening
event
eventajo
eventar
eventas
eventeyo
eventi
eventinta
eventis
evento
eventos
events
eventuala
eventuale
eventus
ever
everest
everglades
everly
every
everything
eveso
evic
evidenta
evidentaji
evidentajo
evidente
evidenteso
eviero
eviktar
evil
evinta
evinte
evis
evismo
evitar
evo
evolucionar
evolucionis
evoluciono
evoza
ex
exact
exajerar
exakta
exakte
exakteso
exaltar
examenar
exameno
examination
exantemo
exarko
exasperar
exaucar
exchange
exe
exekutado
exekutar
exekutas
exekutebla
exekutis
exekutita
exekutiva
exekutivo
exekuto
exemple
exempleri
exemplero
exempli
exemplo
exercado
exercar
exercas
exercer
exerci
exercis
exercita
exerco
exfoliar
exhalar
exhaustanta
exhaustar
exhausteso
exhaustita
exhaustiva
exhortar
exhorto
exilar
exilas
exilesis
exileso
exilis
exilita
exilito
exilo
existanta
existar
existas
existinta
existis
existo
exkavar
exkavo
exkluzar
exkluzite
exkluziva
exkluzive
exkoriar
exkremento
exkursar
exkursi
exkurso
exkuzar
exkuzo
exodo
exorcisar
exordio
exotika
exp
expansar
expansas
expansesis
expansis
expanso
expediar
expedicioni
expediciono
expektar
expektas
expektata
expektis
expekto
experiencar
experienci
experiencis
experienco
experiencoza
experimentado
experimentala
experimentar
experimenti
experimento
experta
experti
expertizar
expertizo
experto
expiacar
expirar
expiro
explicita
explikar
explikas
expliki
explikis
expliko
explorado
explorar
exploras
exploreri
explorero
explori
exploris
exploristo
exploro
explosa
explosion
explotado
explotar
exploto
explozar
explozas
explozi
explozigar
explozis
exploziva
explozivi
explozivo
explozo
expo
exponento
exportacaji
exportacajo
exportacar
exportacas
exportacero
exportaci
exportacis
exportaco
expozado
expozar
expozas
expozesas
expozeyo
expozi
expozita
expozo
expresa
expresar
expresas
expresidente
expresis
expresita
expresiva
expreso
express
expression
expresuro
expropriar
extazar
extensa
extensajo
extensar
extensas
extensebla
extensesis
extenseso
extension
extensis
extensita
extenso
exter
extera
exterajo
exteral
exterala
extere
exterlanda
exterlandal
exterlandala
exterlandani
exterlande
exterlando
exterminar
externo
extingar
extingesis
extingita
extingo
extirpar
extorsar
extorso
extra
extraktado
extraktar
extraktas
extraktita
extrakto
extraordinara
extravaganta
extravagar
extre
extrema
extremadura
extremaji
extremajo
extreme
exudar
ey
eyade
eye
eyes
eyo
ez
ezequiel
ezofago
ezra
f
fa
fabbrica
fabbricante
fabi
fabli
fablo
fabo
fabric
fabricant
fabrik
fabrikado
fabrikanto
fabrikar
fabrikas
fabrikerii
fabrikerio
fabrikesis
fabrikis
fabrikisto
fabrikita
fabriko
fabrique
fac
facanta
facar
facas
facata
face
facebla
facebook
facenda
faces
facesar
facesas
facesis
faceto
facez
facila
facile
facileso
faciligar
faciligis
facinar
facio
facionar
facis
facita
faco
facolta
fact
factbook
factfinder
facto
facts
faculte
faculty
fado
faero
faetono
fago
failure
fair
fairbanks
faire
fairespruva
fairfax
fairfield
fairi
fairo
fairoza
fairview
faisal
fait
faith
faki
fako
fakochero
faksimilo
fakte
fakti
fakto
faktori
faktorialo
faktorio
faktoro
fakturo
fakultati
fakultativa
fakultato
falango
falar
falas
falbalo
falchar
falco
falcon
faldar
faldebla
falduro
faleno
faliar
falias
faligar
faliigar
faliis
falio
falis
falklandi
falkono
fall
fallece
falls
falo
falsa
false
falseto
falsigar
falsigo
falva
fam
fame
familiala
familiani
familiara
familiare
familier
familii
familio
familionomo
famille
family
famino
famo
famoza
fan
fanar
fanatika
fanatiko
fanfaro
fanfaronado
fanfaronar
fanfarono
fangio
fango
fangoza
fantasmagorio
fantastika
fantaziar
fantazio
fantomo
far
farabundo
faraono
farbo
farc
fardo
fare
faria
faribault
faringito
faringo
farino
farm
farmaciala
farmacio
farmar
farmeyi
farmeyo
farmington
farmisti
farmisto
farmo
faro
farrell
farsi
farso
fasado
fashion
fashismo
fashista
fashisto
fasko
faso
fasonar
fasono
fast
father
fatigar
fatigegar
fatigeso
fatigita
fatigo
fatimid
fato
fatto
fatua
fauco
fault
fauno
faure
fausse
faut
faute
faux
favo
favorar
favorata
favorato
favore
favorebla
favoris
favoro
favoroza
favoroze
fayenco
fayette
fazano
fazeolo
fazer
fazi
fazo
fbi
fc
fe
feala
fear
febla
feble
febleskar
febleskis
febleso
febligar
febligis
febrar
febro
febroza
februaro
february
fede
federac
federal
federala
federar
federata
federation
federico
federis
federita
federiti
federito
federo
federuro
feel
feeling
feet
fekifar
feko
fekulo
fekunda
fekundeso
fekundigo
feldi
feldo
felgo
felica
felice
feliceso
felino
felipe
felix
fellow
felo
felta
felto
female
femina
feminala
femini
feminista
feministo
femino
femme
femuro
fencing
fenco
fendar
fenduro
fenestri
fenestro
feniciana
feniciani
fenikulo
fenixo
feno
fenolo
fenomeni
fenomeno
fenomenologio
fenugreko
feo
fer
fera
ferajo
ferdeko
ferdinand
ferdinando
ferenc
ferguson
feridos
feringa
ferio
ferma
ferme
fermentacar
fermentaco
fermento
fermeso
fermi
fermigar
ferna
fernandes
fernando
fero
feroca
feroceso
ferovoyala
ferovoyi
ferovoyo
ferraz
ferreira
ferrer
ferro
ferry
fertila
fertileso
fervorar
fervoro
fervoroza
fervoyala
fervoyi
fervoyo
festa
festala
festar
festi
festinar
festino
festival
festivali
festivalo
festo
festodio
festono
festuko
fetida
fetisho
feto
feu
feudala
feudismo
feudo
feuille
fever
fi
fiakro
fialo
fiancar
fiancito
fianco
fiasko
fiat
fibri
fibro
fibroza
fibulo
fica
ficho
fico
fidar
fideikomiso
fidel
fidela
fideleso
fidinda
fidji
fidjiana
fidjiani
fido
fie
field
fields
fiera
fiere
fiereso
fierro
fifa
fifth
fig
figaro
fight
fighting
figiero
figo
figueroa
figurala
figurale
figuranto
figure
figures
figuri
figuro
fika
fikario
fiktiva
fiktivajo
fil
filadelfia
filamento
filantropo
filaso
filatelio
file
files
filet
fileto
filho
fili
filiala
filialo
filigrano
filii
filiini
filiino
filiko
filio
filip
filipe
filipiko
filipinana
filipini
filippo
filistro
filiuli
filiulo
fill
fille
fillmore
film
filmi
filmifisti
filmifistino
filmifisto
filmo
filo
filologio
filologo
filos
filozofi
filozofiala
filozofiar
filozofino
filozofio
filozofo
fils
filtrar
filtrilo
filtro
fin
fina
finajo
final
finala
finalo
finan
financal
financala
financale
finance
financi
financial
financo
finanta
finar
finas
find
fine
fingar
finger
fingo
fingri
fingro
fini
finigar
finigis
finir
finis
finisar
finita
finko
finlandan
finlandana
finlandani
finlandano
finlando
finney
fino
finos
fintar
finto
fiorituro
fire
firenze
firm
firmamento
firmi
firmo
first
fis
fisch
fischer
fish
fisher
fishi
fisho
fisica
fisiol
fiskala
fisko
fistulo
fit
fitar
fitzgerald
fiume
five
fixa
fixe
fixigar
fixigita
fixigo
fizika
fizikala
fizikale
fizikisti
fizikisto
fizikistulo
fiziko
fiziologiala
fiziologiisto
fiziologio
fizionomio
fizioterapio
fla
flado
flag
flagi
flago
flagranta
flagrar
flagro
flajoleto
flako
flakono
flamengo
flamifar
flamingo
flamo
flanar
flandria
flandriana
flanelo
flanjo
flankala
flanke
flanki
flanko
flarado
flarar
flash
flat
flatar
flatero
flato
flatuar
flatulenta
flatuo
flaubert
flava
flavatra
flavius
fle
flebito
flechi
flecho
fleetwood
flegar
flegistino
flegisto
flegmo
flegmoza
flego
fleming
flereto
flesh
fleur
flevoland
flexar
flexebla
flexebleso
flexione
flexiono
flexo
flight
flint
flirtar
flitro
flogar
flogilo
floko
flood
floods
floor
flor
flora
florala
florence
flores
flori
florian
floriano
florida
florifanta
florifar
florifis
florifo
florkaulo
floro
floroza
floso
flotacanta
flotacar
flotaco
flotilio
floto
flow
flower
flowers
floxo
floyd
flu
fluanta
fluar
fluas
flugado
fluganta
flugar
flugas
flugeskar
flugi
flugis
flugo
flugoroto
flui
fluida
fluidi
fluido
fluktuar
fluktuo
flundro
fluo
fluorino
fluoro
fluro
flutisto
fluto
fluviala
fluvii
fluvio
fluxiono
fluxo
fly
fm
fo
fogo
foi
fois
fokker
foko
fola
fold
fole
foleso
folha
foliaro
folieto
folietono
folii
folikulo
folio
foliumar
folk
folklorala
folkloro
folo
folwark
fomentar
fomento
fonction
fond
fonda
fondado
fondar
fondas
fondata
fonderi
fondero
fondesas
fondesis
fondinta
fondinti
fondinto
fondis
fondita
fondo
fonds
fonduro
fonemo
fonetikala
fonetiko
fono
fonologio
fonseca
fontaine
fontanelo
fonte
fonteno
fonti
fonto
food
fool
foot
football
for
fora
forall
forbes
forc
forcato
force
forcepso
forces
forci
forco
ford
fore
foreign
forejo
forest
foresta
forestala
foresti
foresto
forever
forfeto
forfikulo
forigar
forirar
foriras
foriris
forjar
forjetar
forjeyo
forjisto
fork
forketo
forko
forlasar
form
forma
formacanta
formacante
formacar
formacas
formacesar
formacesas
formacesis
formacis
formacita
formaco
formacuro
formala
formale
formar
formato
forme
former
formi
formiko
formikumar
formizar
formo
formulario
formuli
formulo
fornego
forno
forportar
forprenar
forpulsar
forsan
forsar
forsska
fort
forta
fortaleza
forte
fortega
forteso
forth
fortifikajo
fortifikar
fortifikita
fortifikuri
fortifikuro
fortigar
fortran
fortresi
fortreso
fortune
fortuno
fortunoza
fortunoze
forum
forumo
forward
forza
fosato
fosfato
fosfo
fosforecar
fosila
fosili
fosilo
foso
foster
fosto
fotelo
foto
fotogena
fotografado
fotografar
fotografilo
fotografis
fotografisto
fotografo
fotografuri
fotografuro
fotokopiar
fotono
fotosintezo
fototaktismo
fototerapio
fou
foucault
foule
found
foundation
fountain
four
fourier
fox
foxi
foxo
foxtroto
foye
foyero
foyi
foyo
fr
fra
frac
fraciono
fraction
fragmenti
fragmento
frago
frais
frajila
frajileso
frakasar
frako
framasonaro
framasono
frambo
framo
franc
franca
france
frances
francesco
franci
francia
franciana
franciani
franciano
francis
francisco
franciscus
francisko
franciskus
franciszek
franck
franco
francs
frangulo
franjo
frank
frankfort
frankfurt
franki
frankia
frankiani
franklin
franko
frans
frantis
franz
frapanta
frapar
frapas
frapesis
frapi
frapis
frapo
fraser
fratala
fraterkulo
frateso
frati
fratini
fratino
frato
fratuli
fratulo
fraudar
fraudi
fraudo
fraudoza
fraxino
frayo
frazeologio
frazi
frazo
fre
fred
freddie
freddo
frederic
frederick
frederik
fredrik
free
freeborn
freedom
freeman
freeport
freetown
fregato
frei
freitas
fremisar
fremiso
fremont
french
frenezio
frenezioza
freno
frente
frequa
freque
frequenco
frequentar
frequentis
frequeso
fresco
fresha
freski
fresko
fresno
fretar
freud
fri
friabla
frianda
frica
fricionar
friciono
frida
friedman
friedrich
friends
frigorizilo
frigoro
frikasar
fripo
fripona
fripono
friskar
friso
fristo
fritar
frites
fritilario
fritz
friulana
friuli
frivola
frivolajo
frivoleso
frizar
frizia
friziana
fro
froid
froko
frolar
from
fromajo
frondo
front
frontala
frontier
frontierala
frontieri
frontiero
frontispico
fronto
frontono
frost
frostar
frostigar
frosto
frotar
fru
frua
frue
frugala
frugilego
fruit
fruits
frukt
frukti
fruktifanta
frukto
frumento
frunsar
frusta
frustrar
fruto
frutto
ftizio
fu
fudro
fuego
fueli
fuelo
fuentes
fuganta
fugar
fugas
fugigar
fuginta
fugis
fugo
fuino
fujimori
fuko
fukushima
fula
fulani
fular
fulardo
fulgencio
fuligino
fulko
full
fulmaro
fulminar
fulmino
fulton
fumar
fumario
fumo
fumuro
fun
funcionado
funcionala
funcionanta
funcionar
funcionas
funcioni
funcionigar
funcionis
funciono
function
fundamentala
fundamentale
fundamenti
fundamento
funde
fundo
fune
funelo
funeral
funerala
funero
funesta
fungi
fungo
funk
funto
funzione
fuoco
fuori
fuorto
fur
fureto
furetumar
furgono
furiar
furiero
furieskar
furio
furioza
furioze
furnazo
furnelo
furnisar
furnisas
furnisis
furniso
furo
furtado
furtar
furte
furtero
furtisto
furto
furunklo
fushar
fusil
fusilagesis
fusili
fusilo
fusto
futbal
futbalisto
futbalistulo
futbalo
futebol
futero
futura
future
futuro
fuxio
fuzar
fuzeblo
fuzei
fuzeno
fuzeo
fuziono
fuzita
fuzo
fyodor
fyordo
fys
fysiol
g
ga
gabano
gabaro
gabon
gabor
gabriel
gabriela
gabriele
gabrielle
gaceta
gado
gafo
gagarin
gagato
gagner
gain
gainesville
gaino
gaius
gajo
gal
gala
galanta
galaxiala
galaxii
galaxio
gale
galerii
galerio
galero
galeto
galewice
galia
galicia
galilea
galilei
galileo
galimatiaso
galinelo
galio
galiono
galisia
galisiana
gall
gallia
gallo
galo
galono
galopar
galosho
galvanometro
gama
gamal
gambi
gambia
gambitar
gambo
gambolar
game
gamelo
games
gameto
gamo
gamsakhurdia
ganajo
gananto
ganar
ganas
gandhi
ganesis
ganeto
gang
ganga
gangliono
gangreno
ganis
ganistino
ganisto
ganita
gano
ganso
ganti
ganto
gao
gap
gapar
garantiar
garantio
garar
garbanzo
garbo
garci
garcia
gard
gardar
garde
garden
gardeni
gardenio
gardeno
gardenokultivado
gardens
garder
gardero
gardio
gardisto
gardner
gardo
gareyo
garfield
garibaldi
garito
garland
garment
garnir
garnisar
garnisita
garnituro
garnizono
garoto
garrett
garry
garsono
gartero
gary
gas
gasi
gaskonia
gaso
gasometro
gasoza
gaspar
gasteropodo
gasti
gastigar
gastigas
gastigis
gasto
gaston
gastralgio
gastrito
gastroenterologio
gastronomio
gastronomo
gate
gates
gation
gatsby
gau
gauguin
gaujar
gaulle
gavar
gavialo
gay
gaya
gaye
gayeso
gayigar
gayoom
gaz
gaza
gazelo
gazetteer
gazo
gazolino
gazoneyo
gazono
gdan
gdeposylka
gdp
gdr
ge
geben
geblo
gediminas
gees
gefa
gegen
gehen
geheno
geiger
geist
gelatino
gelto
gemi
gemini
gemo
gen
genciano
gene
genealogiala
genealogio
gener
generacioni
generaciono
general
generala
generale
generali
generalo
generation
generatoro
genere
generi
genero
genetikala
genetikisto
genetiko
geneva
geneve
genezo
geni
genio
genioza
genitado
genitala
genitar
genitis
genitiva
genitivala
genitivo
genito
genitori
genitoro
genituro
geno
genova
genovana
genre
genro
gens
gent
gente
gento
gentocido
genu
genui
genuo
genupozar
genus
geocentrala
geodezio
geoffrey
geofiziko
geogr
geografia
geografiala
geografiale
geografio
geografo
geographic
geography
geol
geologiala
geologio
geologo
geom
geometriala
geometrio
georg
george
georges
georgetown
georgi
georgia
georgios
gepardo
gepatri
gepatro
ger
gerais
gerald
geranio
gerard
gerardo
gerd
gerfalko
gerhard
gerilera
gerileri
germa
germain
german
germana
germanala
germane
germani
germania
germanian
germaniana
germaniani
germaniano
germano
germany
gershwin
gesellschaft
gespozi
gestar
gesto
get
getro
getu
geun
gewebe
geya
ghana
gheorghe
ghetto
ghost
gi
gia
giacomo
gianni
gibb
gibo
gibono
giboza
gibraltar
gibson
gicheto
gift
giganta
giganto
gil
gilbert
gilberto
gildo
gilemoto
gilles
gillespie
gilly
gilman
gilotino
gimbardo
gimbutas
gime
gimnastikino
gimnastikistino
gimnastikisto
gimnastikistulo
gimnastiko
gimnazio
gimnoto
gina
ginekologio
ginekologo
ginesto
ginger
ginza
gio
gioco
gion
giorgio
giorno
giovane
giovanni
gipaeto
gipso
gipuro
girl
girlando
girls
giro
girolamo
giroskopo
gis
gisar
giso
gitari
gitaristo
gitaro
giulio
giuoco
giuseppe
giustizia
give
gizardo
gks
glacar
glaciajo
glacial
glaciala
glacieri
glaciero
glacieskar
glacio
gladiatoro
gladiolo
gladstone
glandi
glando
glano
glas
glasgow
glaso
glass
glata
glatigar
glaukomo
glaukonito
glavo
gle
glebo
glen
glendale
glenn
glenwood
glezar
gli
glicerino
glicerio
glicerolo
glicino
glikolo
glikoso
glinar
gliro
glit
glitar
glito
glitonodo
global
globala
globatra
globe
globo
globulo
gloria
gloriizar
glorio
glorioza
glosario
gloso
gloto
glu
gluglar
glumo
gluo
glushkovo
glutar
glutei
gluteno
gluteo
glutinar
gm
gnassingbe
gneiso
gnomo
gnomono
gnuo
go
goa
gobierno
gobio
gobleto
god
gode
godfrey
godoy
godrono
godunov
goebbels
goeleto
goes
goethe
gogh
goguryeo
goia
going
gola
gold
golden
golf
golfo
goli
golo
gologardisto
golpo
gomes
gonc
gondo
gondolo
gone
gonoreo
gonza
gonzaga
gonzalo
good
goodman
goods
google
gorbachyov
gordo
gordon
gore
gorge
gorgear
gorgolar
gorilo
goshen
gospel
gostynin
got
gotha
goti
gotika
gotlando
goto
gottfried
gottlieb
gou
goulart
gov
government
governo
governor
goya
gra
grabar
grabisto
grabo
graburo
grace
gracia
gracila
gracio
gracioza
graco
grada
grade
gradi
gradiento
gradizo
grado
gradope
gradoza
graf
grafik
grafika
grafiko
grafito
grafologio
graham
grain
gram
grama
gramatikala
gramatiko
grami
gramino
gramm
grammar
grammy
gramo
gramofono
gramsci
gran
granada
granados
granario
grand
granda
grandanombra
grandaparte
grande
grandega
grandesi
grandeso
grandioza
grandiozeso
grandpolonia
granger
grani
granito
grano
grant
grantar
grantas
grantesis
grantis
grantita
granto
granulo
grape
grapino
grapo
gras
grasa
graso
grasoza
grass
gratar
gratifikar
gratino
gratitudar
gratitudo
gratitudoza
gratuita
gratuite
gratular
grau
grava
grave
graveso
gravida
gravideso
gravio
gravitado
gravitala
gravitar
gravito
gray
grazia
gre
great
greater
greatest
grebo
greco
greece
greek
green
greene
greenfield
greensboro
greenville
greenwich
greenwood
greftar
gregoriala
gregorio
gregorius
gregory
greka
greke
greki
grekia
grekiana
greko
grelo
greluno
gremio
grenada
grenadini
grenado
grenlando
grenville
greso
greta
greto
grey
griffith
grifono
grigori
grilar
grilio
griliotalpo
grimar
grimasar
grimaso
grimes
grincar
grindar
gripo
griza
grizatra
gro
grodzisk
grondar
grondo
groningen
gropo
gros
grosa
groseso
grosiera
grosiero
gross
grosso
groteska
groto
ground
group
groupe
groups
grove
grover
grow
growth
grozelo
grozni
gru
grucho
grumelo
grumo
grunar
grundy
gruo
grupala
grupi
grupigar
grupo
gruzia
gruziana
gruzo
gryaznaya
gu
gua
guadalajara
guadalcanal
guadalupe
guadelupa
guam
guanabara
guangzhou
guano
guarani
guard
guardia
guardian
guardo
guatar
guatemala
guatemalana
guato
guayaquil
guberniestri
guberniestro
gubernio
gudro
gue
guernsey
guerra
guerre
guerrero
guevara
guez
gufo
gui
guidanto
guidar
guide
guidilo
guidita
guido
guillaume
guillermo
guimara
guine
guinea
guinness
gujarat
gulag
gulf
gulfo
gulyasho
gumo
gun
gunnar
guns
gurdo
gurmanda
gurmando
gurto
gus
gustado
gustaf
gustar
gustav
gustave
gustavo
gusto
gut
gutenberg
guthrie
guti
gutie
gutifar
guto
guturo
guvernado
guvernal
guvernala
guvernanto
guvernar
guvernas
guvernata
guverneriala
guvernerii
guvernerio
guvernesis
guverni
guvernilo
guvernis
guvernisteso
guvernisti
guvernisto
guvernita
guverno
guy
guyana
guzma
gyatso
gyo
gyula
gło
h
ha
haag
haakon
haarlem
hab
habarovsk
haben
haber
habib
habila
habile
habileso
habilitar
habit
habitado
habitanta
habitantaro
habitanti
habitanto
habitar
habitas
habitata
habitebla
habitesas
habitesis
habiteyi
habiteyo
habitis
habitita
habitude
habsburg
habsburga
habsburgi
habyarimana
hacer
hachar
had
hadji
hadrianus
hagia
hahn
hai
haile
hair
haiti
haitiana
haitiani
hakar
hakilo
hakisto
halbardo
hale
halen
haley
half
hali
hall
halldo
halle
halley
halo
halono
halt
haltar
halten
haltero
halteyo
haltez
haltigar
haltigo
haltiko
haltis
halto
halucinar
halucino
haluxo
hama
hamadriado
hamako
hamamelo
hamas
hamburg
hamburger
hamid
hamilton
hammarskjo
hammas
hammer
hampshire
hampton
hamstro
han
hancho
hancock
hand
handbalo
handbook
hands
hang
hangaro
hani
hanino
hankkia
hann
hanna
hannes
hannibal
hannover
hano
hanoi
hanover
hans
hansen
hanso
hanti
hanulo
hanyuno
happen
happy
haq
har
hara
harald
haram
hararo
harbor
harbour
hard
harda
harde
hardeskar
hardeso
hardigar
hardin
hardy
haremo
hari
haringo
hariri
harjoittaa
harlamov
harlan
harlem
harmoniar
harmoniko
harmonio
harmonioza
harmoniumo
harneso
haro
harold
harper
harpo
harpuno
harris
harrisburg
harrison
harry
hart
hartford
harvard
harvey
has
hasan
hashisho
hasio
hassan
hastar
haste
hastigar
hastings
hasto
hastoza
hastoze
hat
haular
hauo
haus
hausa
haut
haute
havabas
havaji
havajo
havana
havanta
havante
havar
havas
havayi
have
havel
haven
having
havinta
havis
havos
havus
hawk
hawkins
hay
haydn
hayes
hazardala
hazarde
hazardo
hda
he
head
heads
health
heart
heat
heath
heaven
heavy
hebrea
hebree
hebridi
hecho
hector
hedelma
hederaceo
hedero
hedonismo
hee
heemskerk
hefo
heg
hegel
hegemonio
hego
heidelberg
heidi
heights
hein
heina
heinrich
heinz
heitor
heitta
hektara
hektari
hektaro
hela
heleboro
helen
helena
heleno
heliantemo
helianto
helico
heliko
helikopteri
helikoptero
helio
heliocentrala
hell
hella
heller
helmo
helmut
help
helpanta
helpanto
helpar
helpas
helpez
helpilo
helpis
helpita
helpo
helpolinguo
helsinki
hem
hemala
hemanari
hemanaro
hematito
heme
hemeo
hemi
hemiplegio
hemiptero
hemo
hemofilio
hemoglobino
hemoptizio
hemoragio
hemoroido
hen
henderson
hendrik
hendrix
henkilo
henkinen
henkisesti
hennepin
henning
henri
henrik
henrique
henry
henryk
henryko
hepatiko
hepatito
hepato
hepburn
heptadekagono
her
hera
herald
heraldo
herbario
herbatra
herbe
herbert
herbi
herbie
herbivora
herbo
herboro
herboza
herdo
here
heredajo
heredala
heredanti
heredanto
heredar
heredebla
heredinti
heredinto
heredis
heredo
herezio
herisar
herisono
heritage
herkulo
hermafrodita
hermafrodito
herman
hermann
hermetika
hermosillo
herna
hernando
hernio
hero
heroala
heroeno
heroes
heroi
heroino
heroismo
herono
heroo
herpeto
herrera
herschel
herso
hertz
herzegovina
herzog
hesia
hess
hesse
het
heterogena
heterosexuala
hetta
heure
heuristiko
hevonen
hevosen
hexagono
hexagramo
heydar
heyerdahl
hezitanta
hezitar
hezitema
hezito
hi
hiacinto
hiato
hibisko
hibrida
hibrido
hickory
hicks
hidalgo
hide
hideki
hido
hidranto
hidraulikala
hidrauliko
hidro
hidroelektrala
hidrogeno
hidrografiala
hidrografio
hidrokarbido
hidrolizo
hidrologio
hidrometrio
hidrometro
hidroponiko
hidrostatiko
hidroterapio
hidroxido
hieno
hiera
hierarkiala
hierarkio
hiere
hiero
hieroglifi
hieroglifo
higgins
high
higher
highland
highway
higienala
higieno
higrometro
hike
hill
hillary
hills
hillsboro
him
himalaya
himeno
himenoptero
himni
himno
hindenburg
hindi
hindu
hindua
hindui
hinduismo
hinduisti
hinduo
hioido
hip
hipar
hiper
hiperbolo
hiperboloido
hipnotigar
hipo
hipodromo
hipofizo
hipokampo
hipokondrio
hipokrita
hipokritajo
hipokriteso
hipokrito
hipopiono
hipopotamo
hipoteko
hipotenuzo
hipotezala
hipotezi
hipotezo
hiroshima
hirundo
his
hisar
hiskiamo
hispan
hispana
hispane
hispani
hispania
hispanian
hispaniana
hispaniani
hispaniola
hispano
hist
histamino
histerezo
histerio
histo
histoire
histologio
historia
historial
historiala
historiale
historic
historica
historical
historii
historiisti
historiisto
historio
historiografio
historiografo
history
histriono
hit
hitler
hits
hjalmar
hkina
hko
hl
hler
hms
ho
hobart
hobio
hoboyo
hodgkin
hodiala
hodie
hodometro
hoffa
hoffman
hoffmann
hogben
hoitaja
hoito
hoje
hokeisto
hokeo
hokkaido
hoko
hola
holando
hold
holdo
hole
holgui
holi
holiday
holland
hollande
hollow
holly
hollywood
holmes
holmio
holokausto
holoturio
holstein
holt
holy
hom
homa
homajar
homajas
homaje
homajo
homal
homala
homardo
homaro
hombre
home
homem
homeopatio
homeosexuala
homeosexualeso
homeosexuali
homeosexualo
homepage
homero
homeros
homi
homiel
homilio
homina
hominala
homini
hominidi
homino
homme
hommes
homo
homogena
homologa
homologio
homonima
homonimo
homuli
homulo
honda
hondecoeter
honduras
hondurasana
honesta
honesteso
hong
honneur
honolulu
honor
honorala
honorario
honore
honori
honorius
honorizanta
honorizar
honoro
honorumala
honour
honshu
hood
hook
hoover
hop
hope
hopkins
hopper
hora
horala
horatio
hordeo
hordo
hori
horizontala
horizontale
horizonte
horizonto
horlojeto
horlojo
hormono
horn
hornblendo
horniso
horo
hororar
hororinda
hororo
horoskopo
hors
horse
horses
horst
hortensio
hosni
hospico
hospital
hospitali
hospitalo
hosti
hostino
hostio
hosto
hostulo
hot
hotel
hoteli
hotelo
houphoue
hour
house
housing
houston
how
howard
hoxha
hoyt
hren
hrodna
hrushchyov
hta
htea
hti
htm
html
hto
http
https
hu
hua
huang
hubbard
hubble
hubert
hucisko
hudson
huerta
hufo
hugenoti
hugh
hughes
hugo
hui
huile
hull
hum
human
humana
humanismo
humanisto
humberto
humboldt
hume
humero
humida
humideso
humidigar
humila
humileso
humiligar
humora
humori
humoro
humphrey
humuristo
humuro
humuso
hund
hundi
hundino
hundo
hundoherbo
hundred
hundreds
hungara
hungari
hungaria
hungarian
hungariana
hungariano
hungary
hungrar
hungro
huni
hunt
hunter
hunting
huntington
huo
huone
huono
hurdo
huron
hurricane
hurt
hurtado
hus
hussain
hussein
huta
hutor
hutu
huxley
huygens
hwan
hyde
hyderabad
hye
hyo
hyun
hyundai
hyva
hyvin
i
ia
iaea
iala
iambo
ian
iata
iba
ibarra
ibe
iberia
ibge
ibm
ibn
ibo
ibrahim
ic
ica
icao
ice
iceland
ich
ichak
ichiro
ici
ico
id
ida
idaho
idala
ide
idea
ideal
ideala
idealismo
idealo
idei
identa
identeso
identifikar
identity
ideo
ideografio
ideologiala
ideologio
idi
idilio
idiom
idiomi
idiomo
idiotismo
idioto
idista
idisti
idisto
ido
idolinguo
idolo
ie
ier
ierusalem
iesu
if
ig
igar
igas
igis
iglesias
ignacio
ignaco
ignacy
ignorar
igor
iguac
iguano
ihminen
ihmisen
ii
iii
iji
ik
ika
ike
ikoni
ikono
ikonografio
ikonoklasto
ikosaedro
iktero
iktiokolo
iktiologio
il
ilca
ileono
ilexo
ili
ilia
iliado
iliako
ilio
iliria
iliterata
ilkea
ill
illinois
ilma
ilman
ilmu
ilo
ilqua
ils
ilta
ilu
ilua
iluminar
ilustrar
ilustristo
ilustrita
iluzionar
iluziono
ilya
im
image
imaginado
imaginala
imaginar
imaginita
imagino
imaji
imajo
imamo
imbastar
imbecila
imbibar
imbrikar
imdb
imen
imensa
imersar
imf
imitar
imitero
imito
imituro
immanuel
imobli
imoblo
imortelo
impaso
impedar
impedas
impedis
impedo
imperar
imperas
imperativo
imperatoro
imperema
imperfekto
imperial
imperiala
imperiestri
imperiestrino
imperiestro
imperii
imperio
imperis
impero
impers
impertinenta
impetuar
impetuema
impetuo
impetuoza
implemento
implicita
implikar
implikas
impliko
implorar
impo
importa
importacar
importacas
importaci
importacita
importaco
importance
important
importanta
importar
importas
importe
importo
impostar
imposti
imposto
impotenta
impozanta
impozar
impozas
impozis
impregnar
imprekar
impresar
impresario
impresebla
impresionismo
impresionista
impresiva
impreso
impression
imprim
imprimala
imprimar
imprimerie
imprimerio
imprimisto
imprimita
imprimo
imprimuri
imprimuro
improvizar
improvizita
impulsar
impulso
imputar
imre
imuna
imuneso
imunologiisto
imunologio
in
ina
inata
inaugurar
inauguras
inauguresas
inauguresis
inauguris
inaugurita
inauguro
inc
ince
incendiala
incendiar
incendii
incendio
incenso
incesto
inch
incheon
incidar
incidenta
incidento
incitar
incito
incizar
incizo
increase
ind
inde
indemnizar
indemno
independe
independence
independent
index
indexo
india
indian
indiana
indiani
indiano
indico
indieno
indiferenta
indiferenteso
indignar
indigno
indigo
indii
indijanta
indijar
indijena
indijeni
indijeno
indijo
indikajo
indikar
indikas
indikativo
indikatoro
indikesas
indikesis
indikilo
indikis
indikita
indiko
individua
individuala
individuale
individui
individuo
indo
indochinia
indolenta
indolenteso
indonesia
indonezia
indoneziana
indosar
indoso
induktar
indulgar
indulgema
indulgo
indus
industrial
industriala
industrie
industrii
industriisto
industriizita
industrio
industry
indutar
induturo
ine
inen
inercio
inerta
inerteso
infalibla
infama
infameso
infant
infantala
infanteso
infanteto
infanti
infantino
infanto
infantrio
infarkto
infektar
infektita
infektiva
infekto
inferar
inferiora
infernala
inferno
infero
infestar
infiltrar
infinita
infinite
infinitivo
infirma
inflaciego
inflaciono
inflamar
inflamebla
inflamo
inflamuro
inflar
inflesar
inflexar
inflexo
inflita
infloresenco
influanta
influar
influas
influata
influence
influenzo
influesas
influesis
influi
influis
influita
influiva
influo
influro
info
inform
informajo
informar
informas
informatikala
informatiko
information
informeso
informi
informis
informo
infra
infrasilezia
infre
infuzar
infuzuro
inge
ingermanlando
inglobar
ingmar
ingranar
ingredienti
ingrediento
ingrid
inguino
ingushia
inhalar
inheranta
inherar
inhibar
ini
iniciala
inicianto
iniciar
iniciis
inicio
injektar
injekto
injeniar
injeniorarto
injeniori
injenioro
injenioza
ink
inkai
inkandeco
inkao
inkarnacar
inkasar
inkastrar
inklinar
inklineso
inklinita
inklino
inkluzanta
inkluzante
inkluzar
inkluzas
inkluze
inkluzesis
inkluzinta
inkluzinte
inkluzis
inkluzita
inkluzite
inkluzo
inko
inkombrar
inkrustar
inkubacar
inkubo
inkulkar
inkunablo
inkurar
inkursar
inkursi
inkurso
inkuyo
innsbruck
ino
inocenta
inocentius
inokular
inquestado
inquestanta
inquestar
inquesti
inquesto
inquiziciono
ins
insect
insecte
insekt
insekti
insekto
insektomanjanta
insertar
insetto
insidiar
insieme
insigno
insinuar
insipida
insipideso
insistanta
insistar
insolenta
insolenteso
inspektar
inspektisto
inspekto
inspirar
inspiresis
inspireso
inspiris
inspirita
inspiro
instalar
instalas
instalesis
instalis
instalita
instalo
instaluro
instanco
instantala
instante
instanto
instigar
instigis
instigo
instinto
institucar
institucuri
institucuro
institut
institute
institution
instituto
instr
instruciono
instruktar
instruktisto
instruktita
instruktiva
instrukto
instrument
instrumentala
instrumenti
instrumento
insul
insulala
insulana
insulani
insularo
insuleti
insuleto
insuli
insulino
insulo
insultanta
insultar
insulto
insurance
int
intal
inte
integer
integra
integralo
integre
integreso
integrigita
integro
intelektala
intelektar
intelektebla
intelekto
intelektozi
inteligenta
inteligenteso
intelligence
intencanta
intencar
intencas
intencata
intence
intenci
intencis
intencita
intenco
intendanto
intensa
intense
intenseso
intention
inter
interago
interaltre
interceptar
intercesar
interdiktar
interdiktas
interdiktata
interdiktesas
interdiktesis
interdiktis
interdiktita
interdikto
interegala
interesanta
interesar
interesas
interesata
interesi
interesis
interesiva
intereso
interest
interesti
interesto
interfero
interiez
interimo
interj
interjeciono
interkonsento
interlingua
interlingue
intermariajis
intermezo
intermitanta
intermitar
intermixar
interna
internaciona
internacional
internacionala
internacionalo
internacione
internajo
internal
international
internationale
interne
internet
interno
interogativa
interogativo
interpelar
interplektita
interpozar
interpretado
interpretar
interpretas
interpretis
interpreto
interregno
interrelato
interretala
interreto
interruptar
interrupto
intersekar
interseko
intersequanta
interspaco
interstate
intertempe
intertempo
intervalo
intervenar
intervenis
interveno
interviuvar
interviuvo
intestinala
intestini
intestino
intima
intimeso
into
intonar
intoxikar
intr
intrigar
intrigo
intrikar
intrinseka
introduction
introduktar
introduktesis
introduktis
introdukto
intruzar
intruzo
intuicar
intuico
intumecar
inulino
inulo
inundac
inundadi
inundado
inundar
inundebla
inundo
invadar
invadas
invaderi
invadesis
invadi
invadis
invado
invalida
invasion
invektivar
inventar
inventariar
inventario
inventas
inventero
inventesis
inventinto
inventis
inventisto
inventita
invento
inventuro
inversa
inverse
inversigar
inversigo
inverso
investar
invitar
invitis
invito
inyamo
io
ioannes
ioannis
iodo
iok
ion
ioni
ioniana
ionika
iono
iosif
iowa
ipce
ipsa
ipse
ir
ira
iracar
iracema
iraceskar
iracigar
iraco
iracoza
irak
irakana
iran
irana
iranan
iranana
iranta
irante
iraq
iraque
irar
iras
ireland
irene
irez
irga
irgakaze
irgaloke
irgamaniere
irge
irgekande
irgo
irgu
irgube
iridio
irido
irigacar
irigaco
irina
iris
irish
iriso
iritar
irkutsk
irlandan
irlandana
irlandani
irlando
iro
iron
ironie
ironio
iroquois
irti
iruptar
irving
irwin
is
isa
isaac
isabel
isabelle
isbn
isen
isesti
iset
isidore
isidro
isis
isku
isla
islama
islamabad
islamala
islamana
islamani
islamic
islamo
island
islandana
islando
islands
islas
isle
ism
ismael
ismail
iso
israel
israelan
israelana
israeli
ist
ista
istanbul
istmo
isto
istva
isyys
it
ita
itaipu
itala
italia
italian
italiana
italiane
italiani
italiano
italo
italy
itamar
itasca
iterado
iterar
itere
itero
iti
itinerario
ito
its
itse
itsea
itselleen
itsensa
itta
iturbide
iulius
ius
iustinianus
iv
iva
ivan
ivanavich
ivanov
ivanovich
ivanovka
ivar
ivo
ivora
ivoro
iz
izokrona
izolar
izolata
izolita
izolo
izotermo
izotopo
j
ja
jaber
jaboto
jacanta
jacante
jacar
jacas
jacek
jaceyi
jaceyo
jacinto
jacis
jack
jackie
jackson
jacksonville
jacob
jacopo
jacques
jade
jado
jae
jagan
jaguaro
jaime
jair
jakaa
jakarta
jaketo
jako
jakob
jalisco
jalka
jaluza
jaluzeso
jam
jamaica
jamaika
jamaikan
jamaikana
jamais
jambe
james
jamestown
jamiroquai
jan
jana
jane
janeiro
janet
janez
jano
januaro
january
janvier
japa
japan
japanese
japonia
japonian
japoniana
japoniane
japoniani
japoniano
jardin
jardiniero
jargonar
jargono
jaro
jarocin
jaroslav
jasmino
jason
jasper
java
javelino
javier
jawara
jay
jaz
jazeera
jazo
jazz
je
jean
jeanne
jec
jedi
jeff
jefferson
jeffrey
jehova
jeleo
jeleznogorsk
jelozio
jemar
jemela
jemeli
jemelo
jenar
jendarmo
jeneroza
jenerozeso
jenio
jenjivito
jenjivo
jenkins
jennifer
jenri
jenro
jens
jensen
jentila
jentileso
jeo
jerado
jeranto
jerar
jeremy
jeresas
jeris
jeristo
jermifar
jermo
jero
jerome
jerry
jersey
jerusalem
jerzeo
jerzy
jespersen
jesse
jessica
jesu
jesus
jet
jetado
jetar
jeter
jeto
jeu
jeune
jewell
jewish
jez
jeziorko
jezuiti
jezuito
jhk
ji
jia
jibeto
jigme
jigolo
jihad
jileto
jilfloro
jim
jime
jimi
jimmy
jin
jineto
jinjero
jinnah
jino
jir
jirafo
jirar
jiro
jk
jllek
jltak
jm
jnk
jo
joa
joachim
joan
joaqui
joaquim
joaquin
jobim
joe
joel
johan
johann
johanna
johannes
johannesburg
johansson
john
johnny
johns
johnson
johnston
johtaja
joie
join
joint
joka
jokar
jokema
jokeo
jokero
joko
jolia
jolla
jomo
jon
jonas
jonathan
jones
jong
jonglar
jonko
joplin
jordan
jordania
jorge
jornala
jornesko
jorno
jose
josef
joseon
joseph
josephine
joshua
josip
jouer
joukko
jour
journal
journey
jours
joutua
jovdio
joy
joyar
joyce
joyigar
joyo
joyoza
joyoze
joz
jozef
jpg
jr
jssak
jstak
jtak
ju
jua
juan
juana
juar
jubeo
jubilear
jubileo
juche
juda
judaismo
judala
judd
judea
judge
judi
judiciado
judicial
judiciala
judiciar
judicias
judiciero
judiciesas
judiciesis
judicii
judiciistaro
judiciisti
judiciisto
judicio
judikar
judikas
judikata
judikesar
judikesas
judikesis
judikis
judiko
judo
judoistino
judoisto
judoo
judy
juego
juge
juger
juhlallinen
juho
juis
jujubo
jukov
jules
julho
julia
juliala
julian
juliana
julianus
julie
julien
julieno
juliette
julio
julistaa
julius
july
junction
june
jung
jungar
jungle
junglo
junio
junior
juniora
junipero
junko
juntar
juntas
juntesas
juntis
juntita
junto
junturo
jupitero
jupo
jur
jurar
jure
jurio
juriskonsulto
jurisprudenco
jurnalaro
jurnali
jurnalistaro
jurnalisti
jurnalistino
jurnalisto
jurnalo
juro
jus
juscelino
jusqu
just
justa
justatempe
juste
justeso
justice
justicia
justifikar
justifiko
justin
justo
jutlando
juto
juveli
juvelisto
juvelo
jyva
k
ka
kaarlo
kaasu
kab
kabalo
kabaneto
kabano
kabareto
kabila
kabino
kabli
kablo
kabo
kabrar
kabrioleto
kabul
kabverdo
kad
kadastro
kadavri
kadavro
kadenco
kadeto
kadmio
kadro
kaduceo
kaduka
kafeerii
kafeerio
kafeiero
kafeino
kafeo
kafka
kaftano
kaganio
kagulo
kai
kaida
kaikki
kaiman
kaimano
kairo
kaito
kaj
kajo
kakaiero
kakao
kakar
kakatuo
kakexio
kakia
kakofonio
kaksi
kaktuso
kala
kalabria
kalamino
kalamitato
kalandrar
kalcedono
kalcio
kaldiero
kaldrono
kaledonia
kalemburo
kalendario
kalenturo
kalesho
kalevala
kalfatar
kalibro
kalibrokompaso
kalico
kalidoskopo
kalifio
kalifo
kalifornia
kaligrafar
kaliko
kaliningrad
kalio
kalisz
kalkaneo
kalko
kalkolo
kalkopetro
kalkoza
kalkular
kalkulas
kalkuli
kalkulilo
kalkulis
kalkulita
kalkulo
kalkuta
kalma
kalmar
kalmaro
kalmeskar
kalmeso
kalmigar
kalo
kalorala
kalorio
kaloro
kaloto
kalquar
kalsono
kaltainen
kaluga
kalumniar
kalva
kalvario
kalvo
kalzego
kalzeto
kalzo
kam
kamaradeso
kamarado
kamarilio
kambiar
kambie
kambio
kambodja
kambodjana
kambrar
kamchatka
kamehameha
kameleono
kameli
kamelio
kamelo
kamen
kameno
kameo
kameri
kamero
kamerun
kamforo
kamien
kamil
kamilo
kamioni
kamionka
kamiono
kamizo
kamizolo
kamo
kamomilo
kampania
kampaniar
kampanii
kampanio
kampanulo
kampar
kampeyi
kampeyo
kampo
kamuflar
kan
kanabino
kanabo
kanada
kanadan
kanadana
kanaleto
kanali
kanalio
kanalo
kanapeo
kanarii
kanario
kancelero
kancero
kande
kandelabro
kandeliero
kandelo
kandida
kandidateso
kandidati
kandidato
kandideso
kandio
kane
kanelo
kanetilio
kangas
kanguruo
kanibalismo
kanibalo
kanikulo
kanio
kankro
kannattaja
kano
kanonala
kanoni
kanoniko
kanono
kanoo
kanoto
kansas
kansoni
kansono
kanssa
kant
kantado
kantar
kantarelo
kantarido
kantas
kantata
kantato
kantero
kantetar
kanti
kantiko
kantino
kantis
kantisti
kantistino
kantisto
kantistulo
kanto
kanton
kantoni
kantono
kantoro
kanulo
kanvaso
kao
kaolino
kaoso
kap
kapabla
kapablesi
kapableso
kapaca
kapaceso
kapelino
kapelo
kapero
kapi
kapilara
kapitali
kapitalismo
kapitalista
kapitalo
kapitanio
kapitano
kapitelo
kapitulacar
kapitulacas
kapitulacis
kapitulaco
kapitulo
kapo
kapodistrias
kapono
kaporalo
kapoto
kapovesto
kapreolo
kapri
kapricema
kaprico
kapricoza
kaprifolio
kaprikorno
kaprimulgo
kapriolar
kapriolo
kapro
kaprulo
kapstano
kapsulo
kaptacar
kaptajo
kaptar
kaptas
kaptesar
kaptesas
kaptesis
kaptilo
kaptis
kaptita
kaptiti
kaptito
kapto
kapuco
kara
karabakh
karabino
karabo
karachi
karafo
karakalo
karakteri
karakterizar
karakterizas
karakterizata
karakterizesas
karakteriziva
karakterizivi
karakterizivo
karakterizo
karaktero
karamelo
karasino
karate
karato
karavano
karavanserayo
karavelo
karbato
karbido
karbo
karbobioxo
karbohidrato
karbonario
karbono
karborundo
karbunklo
karburatoro
karcerani
karcerano
karcero
karcinomo
kardamino
kardamomo
kardano
kardar
kardelo
kardinala
kardinalo
kardiologio
kardono
karduno
karear
karel
karelia
kareliana
karelo
karen
kareno
karesmo
karezar
karezo
kargaji
kargajo
kargar
kargo
kariar
karib
karibia
karibiana
karico
kariero
karikatar
karikaturo
karim
karimov
karintia
kariofilo
karitato
karl
karlino
karmelito
karnaciono
karnavali
karnavalo
karnivora
karnivoro
karno
karnoza
karol
karolew
karolina
karolini
karolus
karoso
karotino
karoto
karpati
karpentar
karpenturo
karpino
karpo
kartagani
kartago
kartamino
kartamo
kartelo
kartero
karteziana
karti
kartilago
karto
kartocho
kartochuyo
kartografio
kartografo
kartoludo
kartono
kartuno
kartusho
karubo
karunklo
karuselo
karvio
kasacar
kasaco
kaseto
kashaloto
kashmir
kashmiro
kashuba
kashubi
kasiso
kasisto
kaskado
kaski
kasko
kaso
kasono
kasper
kaspia
kasqueto
kasrolo
kassel
kastaniero
kastano
kastanyeto
kasteli
kastelo
kastilia
kastiliana
kasto
kastoro
kastrar
kastrioti
kastrita
kasvi
kataklismo
katakombo
katakrezo
katalepsio
katalizo
katalogo
katalpo
katalunia
kataluniana
kataplasmo
katapulto
katar
katarakto
katareto
katarina
kataro
katarso
katastrofo
kate
katedralo
katedro
kategorii
kategorika
kategorio
katekismo
kateni
katenizar
kateno
kateto
katguto
kati
kato
katodo
katolik
katolika
katoliki
katolikismo
katoliko
katrina
katto
kauchuka
kauchuko
kauchukofigiero
kauciono
kaudo
kaukazia
kaukazo
kaulo
kaunda
kauppa
kaupunki
kaurio
kaustika
kautero
kautta
kauzala
kauzi
kauzo
kava
kavajo
kaval
kavalacho
kavali
kavalieri
kavaliero
kavalino
kavalk
kavalkado
kavalkar
kavalke
kavalkero
kavalko
kavalo
kavalriani
kavalrio
kavalulo
kavanaugh
kaverni
kaverno
kaviaro
kavigar
kay
kayako
kayeno
kayero
kayo
kazaki
kazakstan
kazakstanana
kazan
kaze
kazeino
kazemato
kazeo
kazerno
kazi
kazimierz
kazimierzo
kazini
kazino
kazo
kazuala
ke
keaton
kebekia
kechupo
keel
keep
keglo
keha
kei
keita
keith
kekkonen
kelero
kelk
kelka
kelkafoye
kelkatempe
kelke
kelki
kelko
kello
kellogg
kelly
kelo
kelta
kelti
kem
kemal
kemerovo
kemial
kemiala
kemiale
kemiisto
kemio
kempo
ken
kendall
kenelo
kenga
kenia
keniana
kennedy
kenneth
kenny
kent
kenton
kentucky
kenya
kenyatta
keokuk
kepio
kepler
kera
kerala
keratino
kerio
kerlo
kermeso
kern
kerno
kerozeno
kerubo
keskena
kesto
ketono
kevin
key
kg
kha
khalifa
khan
khartoum
khl
khmer
khoisan
khomeini
ki
kia
kickboxing
kidnapar
kidnapo
kids
kiel
kielce
kieli
kielta
kiinni
kiinnitta
kiiv
kik
kikar
kiko
kilio
kill
killed
killing
kills
kilogrami
kilogramo
kilometra
kilometri
kilometro
kim
kimero
kin
kinacent
kinadek
kind
kinesma
kinestezio
king
kingdom
kingman
kingston
kino
kinshasa
kiosko
kipu
kiragro
kirchner
kirgizia
kirgiziana
kirgizistan
kiribati
kirila
kirj
kirja
kirjan
kirjoittaa
kirjoitus
kirki
kirko
kiroptero
kirov
kirsho
kirurgiala
kirurgiisto
kirurgio
kisar
kiso
kiss
kisto
kitayevka
kitts
kivi
kiyiv
kiyiva
kizelguro
kka
kki
klado
klakar
klako
klamado
klamar
klamath
klamo
klamopunto
klan
klani
klano
klapo
klara
klare
klareso
klarigar
klarinetisto
klarineto
klariono
klasa
klasi
klasifikar
klasifikata
klasifikesas
klasifikita
klasifiko
klasifikuro
klasik
klasika
klasikala
klaso
klaudikar
klauno
klaus
klauzo
klavaro
klavikordo
klavikulo
klavo
klefo
klein
kleine
kleist
klemar
klemens
klementa
kleopatra
klepsidro
kleptomanio
klerikaro
kleriki
kleriko
klerko
kleszczo
klientaro
klienti
kliento
klifo
kliko
kliktar
klimar
klimatala
klimati
klimato
klimatologio
klimera
klimero
klinar
klinikala
kliniko
klinko
klinometro
klipero
klishar
klistero
klitorido
klivar
kloako
kloki
kloko
klorido
kloro
klorofilo
kloroformo
kloroplasto
kloroso
klosh
klosho
klostro
klovagar
klovo
klozado
klozar
klozas
klozesas
klozesis
klozeso
klozilo
klozis
klozita
klozo
klp
klubala
klubi
klubo
klukar
kluki
kluzo
km
kma
knaucio
knife
knight
knikar
knock
know
knowledge
known
knox
knut
knuto
ko
koadjutoro
koagulajo
koagular
koagulo
koaktanta
koaktar
koaktas
koaktata
koakte
koaktesas
koaktesis
koaktis
koaktita
koakto
koalisar
koaliso
koalisuro
koalo
kobalto
kobayo
kobe
kobehavn
koboldo
kobro
koch
kochenilo
kochinchinia
kocigo
kocinelo
kodeino
kodexaro
kodexi
kodexo
kodicilo
koeficiento
koercitiva
kofi
kofio
kofro
koheranta
koherar
koheriva
kohero
kohl
kohorto
kohta
kohtaan
koincidar
koincidas
koincidis
koincido
koira
koitar
koito
kokaino
kokao
kokku
kokleo
koklusho
koko
kokonaisuuteen
kokono
kokoon
kokosiero
kokoso
kolacionar
kolareto
kolaterala
kolchiko
kolda
kolde
koldesko
koldeso
koldeta
koldigar
kolegi
kolegio
kolego
kolektajo
kolektala
kolektar
kolekteri
kolektero
kolektis
kolektita
kolektiva
kolektivismo
kolekto
kolektoro
kolekturi
kolekturo
koleoptero
kolero
koliar
koliaro
kolibrio
kolikar
koliko
kolimbo
kolineto
kolini
kolino
kolinoza
kolirio
kolizionar
kolizionas
kolizionis
koliziono
kolkotaro
kolmo
kolo
kolofono
koloido
kolokadi
kolokado
kolokar
koloko
kolombo
kolonelo
koloni
kolonia
kolonial
koloniala
kolonialismo
koloniani
kolonieti
kolonieto
kolonigiisti
kolonii
koloniigar
koloniigesis
koloniigis
koloniigisti
koloniigo
koloniisti
koloniisto
kolonio
kolono
kolor
kolora
kolorado
kolori
kolorito
kolorizar
koloro
koloroza
koloso
kolportar
kolubro
kolumbia
kolumbiana
kolumno
kolumo
koluteo
koluzionar
kolzo
kom
komandanto
komandar
komandas
komandata
komandero
komandesis
komandinto
komandis
komandita
komanditar
komando
komandoro
komato
kombat
kombatanti
kombatanto
kombatar
kombatas
kombatema
kombati
kombatis
kombato
kombinar
kombinas
kombinatoriko
kombinesis
kombinita
kombino
kombinuro
kombustado
kombustar
kombustebla
kombustivi
kombustivo
kombusto
komedii
komediistino
komediisto
komedio
komedono
komencabis
komencala
komencanta
komencante
komencar
komencas
komence
komencinta
komencis
komencita
komenco
komencos
komendar
komendo
komentar
komentaro
komentisto
komento
komercaji
komercajo
komercal
komercala
komercale
komercar
komercis
komercisti
komercisto
komerco
kometo
komforte
komforto
komfortoza
komi
komika
komikisto
komisar
komisario
komisiono
komisis
komisita
komisitaro
komisito
komiso
komisuro
komitati
komitato
komizo
komo
komocionar
komoda
komode
komodo
komodoro
komonala
komoni
komono
komopunto
komori
kompakta
kompanii
kompanio
kompano
komparar
komparas
komparata
komparativo
kompare
komparebla
komparez
komparita
komparo
kompaso
kompatar
kompatema
kompatinda
kompato
kompendio
kompensar
kompense
kompenso
kompetenta
kompetenteso
kompilar
komplemento
kompleta
komplete
kompleteskas
kompleteskis
kompletigar
kompletigas
kompletigesis
kompletigis
kompletigita
kompletigo
komplexa
komplexeso
komplexiono
komplexo
komplezanta
komplezar
komplezema
komplezo
komplico
komplikar
komplimentar
komplimento
komplotar
komploto
kompoto
kompozado
kompozaji
kompozajo
kompozanti
kompozanto
kompozar
kompozas
kompozata
kompozesas
kompozesis
kompozeso
kompozi
kompozis
kompozisti
kompozistino
kompozisto
kompozistulo
kompozita
kompozo
kompozuri
kompozuro
komprajo
kompranto
komprar
kompras
komprenar
komprenas
komprenebla
kompreneble
komprenende
komprenis
komprenita
kompreno
kompresar
kompresis
kompresita
kompreso
kompris
komprita
kompro
kompromisar
kompromiso
kompunciono
kompunda
kompundi
komputerala
komputeri
komputero
komputori
komputoro
komti
komtii
komtino
komtio
komto
komuna
komune
komunesi
komuneso
komuniar
komunikado
komunikajo
komunikar
komuniki
komunikili
komuniko
komuniono
komunismo
komunista
komunisti
komunisto
komunitati
komunitato
komutar
kon
konan
koncentrar
koncentras
koncentresas
koncentreyi
koncentreyo
koncentris
koncentrita
koncentro
konceptaji
konceptajo
konceptar
koncepti
konceptita
koncepto
koncernanta
koncernante
koncernar
koncernas
koncernata
koncerne
koncernis
koncernita
koncerno
koncertar
koncerti
koncerto
koncesar
koncesionar
koncesiono
koncianta
konciar
koncienco
konciliar
konciliebla
koncilio
koncilo
koncio
konciza
koncize
kondamnar
kondamnas
kondamnesas
kondamnesis
kondamnis
kondamnita
kondamno
kondensar
kondensatoro
kondicionalo
kondicionar
kondicione
kondicioni
kondiciono
kondimento
kondolar
kondolo
kondominio
kondoro
konduktar
konduktilo
konduktiva
konduktiveso
kondukto
konduktoro
kondutar
konduti
konduto
kone
konektar
konektas
konektesas
konekti
konektis
konektita
konekto
konestablo
konfekto
konferani
konferar
konferi
konfero
konfesar
konfesiono
konfeso
konfidar
konfidencala
konfidencar
konfirmar
konfirmas
konfirmis
konfiskar
konfitajo
konfitar
konfliktar
konflikti
konflikto
konforma
konforme
konformesar
konformeso
konformigar
konfrontar
konfrontis
konfronto
konfuceismo
konfundar
konfuza
konfuze
konfuzeskar
konfuzeso
konfuzigar
kong
kongenitala
konglomerato
kongo
kongregaciono
kongreso
kongro
kongruar
koniagar
konifero
koniko
konin
koninginnedag
konio
konivencar
konivenco
konjedar
konjedo
konjektar
konjekto
konjelar
konjelo
konjugar
konjugo
konjunciono
konjuntivo
konjunturo
konjurar
konkava
konki
konklavo
konkluzar
konkluze
konkluziva
konkluzo
konko
konkordar
konkordas
konkordato
konkordis
konkordo
konkreciono
konkreta
konkubino
konkubo
konkurencantino
konkurencanto
konkurencar
konkurenco
konkursanto
konkursar
konkursas
konkursi
konkursis
konkurso
konkusionar
kono
konocado
konocaji
konocar
konocas
konocata
konocato
konocesas
konocesis
konoceskar
konoceskis
konoci
konocigar
konocis
konocita
konoco
konosmento
konquestar
konquestas
konquestero
konquestesis
konquesti
konquestis
konquestita
konquesto
konrad
konsakrar
konsakrita
konsentar
konsentis
konsento
konsequanta
konsequantajo
konsequar
konseque
konsequi
konsequo
konservajo
konservar
konservas
konservatorio
konservema
konservemi
konservesas
konservis
konservita
konservo
konsiderante
konsiderar
konsideras
konsiderata
konsideresas
konsideresis
konsiderinda
konsideris
konsiderita
konsidero
konsignar
konsilantaro
konsilanto
konsilar
konsilero
konsilio
konsilistaro
konsilisto
konsilo
konsistanta
konsistar
konsistas
konsistinta
konsistis
konsistorio
konskriptar
konskripto
konsolacar
konsoldo
konsolo
konsomeo
konsonancar
konsonanti
konsonanto
konsorto
konspirar
konspiro
konsputar
konstanta
konstante
konstanteso
konstantin
konstantinoplo
konstantinos
konstantinus
konstanto
konstatar
konstatas
konstatis
konsternar
konsterno
konstipar
konstitucal
konstitucala
konstitucanta
konstitucar
konstitucas
konstituci
konstituciono
konstituco
konstriktar
konstruktado
konstruktajo
konstruktar
konstruktas
konstruktata
konstruktesar
konstruktesas
konstruktesis
konstruktis
konstruktisto
konstruktita
konstrukto
konstrukturi
konstrukturo
konsuli
konsulo
konsultar
konsulto
konsumar
konsumas
konsumata
konsumeri
konsumita
konsumo
kontado
kontagiar
kontagio
kontaktar
kontakti
kontakto
kontaminar
kontamino
kontanta
kontante
kontanto
kontar
kontemplar
kontenajo
kontenanta
kontenar
kontenas
kontenata
konteninta
kontenis
kontenita
konteno
kontenta
kontenteso
kontentigar
kontestar
kontestebla
kontesto
konti
kontigua
kontinencar
kontinental
kontinentala
kontinenti
kontinento
kontingenta
kontingento
kontinua
kontinue
kontinueso
kontinuo
kontisto
konto
kontori
kontoro
kontra
kontrabandar
kontrabando
kontrabaso
kontradanso
kontrafaktar
kontrafakto
kontraforto
kontraktar
kontrakto
kontrakturo
kontralto
kontrapunto
kontrastar
kontraste
kontrasto
kontratar
kontratas
kontrati
kontrato
kontravencar
kontravenco
kontre
kontrea
kontreagar
kontreajo
kontreatako
kontredicar
kontredico
kontree
kontrepapo
kontrevole
kontributajo
kontributar
kontributas
kontributi
kontributis
kontributo
kontrolar
kontrolas
kontrolata
kontrolesas
kontrolesis
kontrolis
kontrolita
kontrolo
kontroversar
kontroverso
kontumaca
konturo
kontuzar
kontuzo
kontuzuro
konvalecar
konvektar
konvekto
konvenanta
konvenar
konvenas
konvencionala
konvencionar
konvencioni
konvenciono
konveno
konvento
konvergar
konvergas
konversado
konversar
konverso
konvertar
konvertas
konvertesis
konvertis
konvertita
konverto
konvertoro
konvexa
konvinkar
konvinkeso
konvinkis
konvolvulo
konvoyar
konvoyo
konvulsar
konvulso
konyako
kool
koongya
kooperado
kooperar
kooperativi
kooperativo
koopero
kooptar
koordinar
koordinata
koordinati
kootenai
kopiar
kopii
kopio
kopiuri
kopiuro
kopro
koprolito
kopso
kopulacar
kopulaco
kopulo
koquar
koquarto
koqueyo
koquisto
koquita
koquo
koquoarto
korala
koralia
koralio
koram
korano
korbelo
korbo
korczew
kord
kordego
kordeto
kordi
kordiala
kordio
kordo
kordono
korea
korean
koreana
koreane
koreani
koregono
korekta
korekte
korekteso
korektigar
korektigo
korelatar
korenevo
korento
koreo
korespondanta
korespondar
korespondas
korespondo
koriandro
koridoro
korifeo
korinto
koriono
korkino
korko
kormorano
korna
kornajar
kornako
kornalino
kornamuzo
korneliero
korneo
korneto
korni
kornico
korniko
korno
kornwal
kornwalana
koro
korodar
korodo
korolario
korolo
koronaviruso
korpala
korpi
korpo
korporacionala
korporaciono
korpulenta
korpuskulo
korsajo
korsaro
korsaronavo
korseto
korsika
korso
korta
kortano
korti
kortico
korto
korundo
korupta
koruptar
korupteso
korupto
korvear
korveto
korvo
kos
kosmala
kosmetiko
kosmo
kosmodromo
kosmogonio
kosmologio
kosmonauto
kosmonavi
kosmonavo
kosmopolita
kosmoprobilo
kosmosondilo
kosmostaciono
kosovo
kossuth
kosta
kosto
kostroma
kostumi
kostumo
kotava
koti
kotiledono
kotleto
koto
kotono
kou
kova
kovar
kovid
kovranta
kovrar
kovras
kovrata
kovresas
kovresis
kovrilo
kovris
kovrita
kovro
koxalgio
koyoto
koypo
kozi
kozienice
kozo
koło
kr
kra
krabo
kraftwerk
krajen
krak
krakar
kraknelo
krako
krampo
krampono
kranio
kraniopelo
krano
krapiwna
krapular
krapulo
kras
krasnaya
krasni
krasnogorski
krasnoyarsk
krasnoye
krasnystaw
kraso
kratego
kratero
kravacho
kravato
krayono
kreado
kreanta
kreanto
krear
kreas
kreata
krebs
krecento
kredaji
kredajo
kredar
kredas
kredebla
kredenco
kredi
kredinda
kredis
kreditar
kredito
kredo
kreesas
kreesis
kreinta
kreinto
kreis
kreita
kreiva
kremacar
kremaco
kremlin
kremo
kremoglacio
kremono
kreo
kreola
kreolo
krepisar
krepitar
krepito
krepo
krepuskulo
kreskabas
kreskado
kreskanta
kreskar
kreskas
kreskis
kresko
kreskos
kreso
krespo
kresto
krestomatio
kretino
kreto
kretono
krevar
kreveto
krevisar
krevisuro
kriar
kriblagar
kriblo
krichaw
kriketo
kriko
krimea
kriminal
kriminala
kriminanto
kriminar
kriminero
krimini
krimininto
kriministi
krimino
kriminoza
kriminozo
krinaro
krinki
krino
krinolino
krio
kripla
kriplo
kripo
kripto
kriptografado
kriptono
kris
krispa
kristala
kristali
kristalino
kristalo
kristalografio
kristana
kristani
kristanismo
kristano
kristian
kristin
kristina
kristnasko
kristo
kristonasko
kriterii
kriterio
kriti
kritika
kritikala
kritikar
kritikas
kritikero
kritikesis
kritiki
kritikis
kritikisti
kritikisto
kritiko
krizala
krizalido
krizantemo
krizego
krizi
krizo
kroasar
kroata
kroati
kroatia
kroatiana
kroatiano
krokar
krokodilo
kromatografio
kromo
kromosomo
kronglaso
kroni
kronika
kroniko
kronizar
kronizas
kronizesas
kronizesis
kronizita
kronizo
krono
kronologio
kronometro
kropo
kroso
krotalo
krotoszyn
krozar
krozero
kruani
kruce
krucho
krucifero
krucifixo
kruco
krucomiliteri
krucomiliti
krucomilito
krucovoyo
krucumar
krucumas
kruda
krude
kruela
kruelega
krueleso
krular
krulas
krulis
krulo
krumo
krumplar
kruo
krupiero
krupka
krupo
kruro
krustacei
krustaceo
krusto
kruzelo
krzyz
ks
ksi
ksie
ksw
ku
kuafar
kuala
kuba
kuban
kubana
kubismo
kubito
kubitschek
kublai
kubo
kudo
kugli
kuglo
kuhn
kuin
kujawski
kukajo
kukka
kuko
kukombro
kukulo
kukurbito
kulato
kulbutar
kulbutigar
kulbuto
kulco
kulierego
kuliero
kuliso
kulkea
kulku
kull
kulma
kulminar
kulminis
kulmino
kulminopunto
kulo
kulpanta
kulpar
kulpinta
kulpinto
kulpo
kulpoza
kulta
kultar
kultelo
kultivado
kultivar
kultivas
kultivata
kultivebla
kultivesas
kultivi
kultivis
kultivisto
kultivo
kulto
kultural
kulturala
kulturale
kulturi
kulturo
kum
kumar
kumino
kun
kune
kuneiforma
kunfederita
kunfederuro
kunflueyo
kunfondinto
kunfuzar
kunfuzis
kunikli
kuniklo
kunio
kunlaborado
kunlaborar
kunlaboris
kunlaboro
kunligar
kunpremiizesis
kunsido
kunst
kunta
kuntexto
kunvenar
kunvenas
kunveni
kunvenis
kunveno
kunvokar
kunvokas
kunvokis
kunvoko
kuomintang
kupi
kuplar
kupleto
kupo
kupolo
kupono
kupro
kur
kuracado
kuracao
kuracar
kuracati
kuracato
kuraco
kuradi
kurado
kurajar
kuraje
kurajigar
kurajigis
kurajo
kurajoza
kurajozigar
kuranta
kurar
kuraso
kurbaturar
kurchatov
kurda
kurdi
kurento
kureto
kuriero
kurio
kurioza
kuriozeso
kurkuliono
kurkumo
kurlando
kurlio
kuro
kursi
kursiva
kursk
kurskstat
kurso
kursoro
kurt
kurta
kurtatempe
kurte
kurteno
kurtezar
kurti
kurtigar
kurva
kurveskar
kurveso
kurvi
kurvigar
kurvo
kuseno
kush
kushar
kuskuso
kustar
kusti
kustis
kusto
kustoza
kustuma
kustumala
kustumale
kustumar
kustumata
kustume
kustumeskar
kustumi
kustumigar
kustumo
kutikulo
kutio
kutno
kuu
kuusinen
kuv
kuva
kuvento
kuverto
kuvo
kuwait
kuyavia
kuz
kuzino
kuzo
kuzulo
ky
kyi
kykeneva
kyky
kyo
kyoto
københavn
kłobuck
l
la
labii
labio
labiobarbo
labirinto
labor
laborado
laborala
laboranta
laborar
laboras
laboratorii
laboratorio
laboratory
laborema
laboreyo
labori
laboris
laborista
laboristala
laboristi
laboristo
laboro
laboruro
labour
labrador
lac
lacerar
lacero
lacerto
laciva
lack
laco
laden
lado
lady
lafayette
lafur
laga
lageto
lagi
lago
lagos
lagrange
laguna
laguno
lahore
lai
laika
laikeso
laine
laisser
lait
laite
laiva
laivan
lajos
lake
lakeland
lakeo
lakes
lakeside
laki
lako
lakonika
lakrimi
lakrimo
laktatra
lakto
laktoso
lakuno
lama
lamantino
lamao
lamar
lamb
lamelo
lamentar
lamento
laminar
lamo
lampi
lampiono
lampiro
lampo
lampredo
lan
lana
lancaster
lance
lanco
land
landa
landala
landau
landi
lando
lane
lang
lange
lango
langorar
langoro
language
languages
langue
langues
langusto
lanio
lanjo
lanka
lano
lans
lansado
lansana
lansar
lansas
lansata
lansesas
lansesis
lansis
lansita
lanso
lantano
lanterno
lanugo
lanugoza
lao
laos
lapar
lapido
laponia
laponiana
lapsi
lara
lardo
large
largo
larico
laringito
laringo
laringoskopo
larja
larje
larjeso
larry
lars
larsson
larvi
larvo
las
lasar
lasas
lasero
lasez
lasho
lasi
lasis
laskea
lasku
lassen
lasso
last
lasta
lastafoye
laste
lasto
lat
late
latenta
latera
laterala
latere
lateri
latero
latest
latexo
latin
latina
latinal
latine
latinida
latinigado
latino
latiro
latitudi
latitudo
lato
latrino
latugo
latuno
latvia
latviana
laubo
laudar
laudegar
lauderdale
laudinda
laudo
laulu
laura
laureate
laureati
laureato
laurel
laurence
laurent
lauri
lauro
lausanne
lauso
lauta
laute
lava
lavado
laval
lavao
lavar
lavareto
lavendo
laveyo
lavo
lavoro
law
lawrence
lawson
laxa
laxeskar
laxesko
laxeso
laxigar
laxigo
lay
lazaga
lazareto
lazio
lazo
lc
ld
lds
le
lea
lead
leader
leaders
leaf
league
leal
least
leather
leau
leave
leaves
lebanon
lech
lecioni
leciono
lectr
led
leda
ledeso
ledra
ledro
lee
leeds
leeuwarden
left
leg
lega
legacar
legacy
legal
legala
legale
legaro
legato
legen
legend
legendala
legendi
legendo
legi
legifala
legifanta
legifantaro
legiono
legisto
legitima
legitimeso
legno
lego
legumi
leguminoso
legumo
lehre
lehti
lei
leibniz
leiden
leigh
leighton
leikata
leipa
leipzig
leite
lejer
lejera
lekar
lektado
lektar
lektas
lektebla
lektez
lektis
lekto
lektoro
leland
lemingo
lemo
lemuriano
lena
length
lengua
leni
lenin
leningrad
lenio
lennon
lenso
lenta
lente
lentigar
lentigino
leo
leon
leonana
leonard
leonardo
leondento
leone
leonel
leonid
leono
leopardo
leopold
leopoldo
leporo
lepro
ler
lernado
lernanti
lernanto
lernar
lernas
lernis
lerno
lernolibro
les
lesivar
leslie
lesoto
less
leste
lester
let
letargio
lethwei
letras
letri
letro
letroportisto
letter
lettera
letterat
letters
letto
lettre
lettres
leukemio
leukocito
lev
leva
levar
levas
level
lever
levero
levi
levine
levis
levistiko
levo
levriero
levy
lewis
lexikala
lexiko
lexikografio
lexikografo
lexikologio
lexington
ley
lez
lezar
lezo
lezuro
lg
li
lia
liano
libanana
libano
libby
libe
libelo
libelulo
liber
libera
liberal
liberala
liberali
liberalismo
liberation
libere
liberesi
libereskar
libereso
liberia
liberigar
liberigas
liberigesas
liberigesis
liberigis
liberigita
liberigo
libero
liberte
libertina
liberty
libia
libiana
libraro
library
libre
libreti
libretisto
libreto
libri
libro
licencar
licenco
liceo
licht
lico
liczbach
lidia
lido
lie
liechtenstein
lier
lietnanto
lieu
life
lig
ligamento
liganta
ligar
ligas
ligata
ligesas
light
lightning
ligi
ligili
ligilo
ligis
ligita
ligitima
ligna
lignatra
ligne
lignino
lignito
ligno
ligo
liguria
liguro
ligustro
liha
liin
liitta
likar
like
likeno
liko
lilaco
lili
lilio
lille
lima
limako
limando
limbo
limburg
limburgana
lime
limeto
limfo
limfocito
limited
limiti
limitizar
limitizas
limitizita
limito
limonado
limono
limousin
limpida
lin
lina
lincho
linco
lincoln
lincolnshire
linda
linden
line
linea
lineala
linealo
lineamento
lineara
linei
linen
lineo
lines
linge
lingoto
lingua
linguala
linguaro
lingui
linguisti
linguistic
linguistics
linguistikala
linguistiko
linguisto
linguo
linie
linimento
linjaro
linjo
linn
linna
lino
linoleumo
lintelo
lintu
linus
linux
lio
lion
lionel
liozna
lipido
lipsko
liquid
liquida
liquidacar
liquide
liquidi
liquido
liquids
liquoro
lire
lirika
liriki
liriko
liro
lis
lisa
lisboa
liski
list
lista
listelo
listi
listo
liszt
lit
litanio
literala
literale
literatur
literatura
literaturala
literature
literaturo
literi
litero
liteto
lithuania
litiero
litijo
litio
lito
litorala
litori
litoro
litri
litro
litte
little
lituana
lituania
lituaniana
liturg
liturgiala
liturgio
liu
liuto
liv
livar
livas
live
liverpool
lives
livida
living
livingston
livingstone
livis
livonia
livoniana
livrar
livre
livreo
livro
lix
lizo
lja
ljy
lka
lkeen
lko
ll
lla
lle
lleen
ller
lleras
llikko
llinen
llo
lloyd
lma
ln
lo
load
lobo
loc
local
locale
loch
locho
lockheed
lodge
log
logan
logaritmo
logic
logika
logikala
logikisto
logiko
logo
loi
loilem
loin
loire
lojar
lojas
lojeyi
lojeyo
lojigar
lojio
lojis
lokacar
lokaco
lokal
lokala
lokale
lokativo
loke
loki
lokizar
lokizas
lokizita
lokizo
loklo
loko
lokomoco
lokomotivi
lokomotivo
lokusto
lolio
lombarda
lombardi
lombardia
lombardo
lombriko
loncho
london
lone
long
longa
longatempe
longe
longeso
longford
longigar
longitudi
longitudo
loo
look
lope
lopes
loppuun
lor
lora
lorca
lord
lordi
lore
lorenz
lorenzo
lorno
los
lose
loss
lost
lot
lotao
lothair
lothar
loti
loto
lotriar
lotringia
lotrio
lotuso
lou
louis
louise
louisiana
louisville
lourenc
louvre
love
low
lowell
lower
loyala
loyale
loyaleso
lp
lta
ltd
ltimo
lu
lua
luanda
luang
lublin
lubrifikar
lubusz
lubyanka
luc
lucas
luce
luci
lucia
luciano
lucida
lucien
lucio
lucius
lucy
lud
ludanti
ludanto
ludar
ludas
ludema
luderi
ludero
ludesis
ludeyo
ludi
ludilo
ludis
ludisti
ludisto
ludo
ludovico
ludwig
ludwiko
ludwino
luftwaffe
lugano
lugar
lugo
lui
luigi
luis
luiz
luka
lukano
lukas
lukashenka
luke
luko
luktado
luktar
luktas
lukti
luktis
luktistino
luktisto
luktistulo
lukto
lula
lular
lum
lumala
lumar
lumbo
lumi
lumie
lumizar
lumizo
lumo
lumoradii
lumoza
lumozeso
lumpo
lumpur
lun
luna
lunala
lunatika
lundio
lungo
luno
luo
luogo
lupanaro
lupino
lupo
lupulo
lupuso
lurar
lurilo
lusitania
lustro
luterana
luteranismo
luther
luto
lutro
luu
luxacar
luxembourg
luxemburg
luxemburgia
luxemburgiana
luxo
luxoza
luxoze
luxurio
luxurioza
luz
luzerno
luzon
lvares
lvarez
lvaro
lwo
ly
lyhyt
lynch
lyndon
lynn
lynx
lyo
lyon
lyons
lyubimovka
m
ma
maa
maahan
maan
maarten
maasta
maastricht
maata
mac
macarthur
macchina
macdonald
macedo
macedonia
macedoniana
macedonio
maceio
macerar
mach
machado
machen
machine
mackenzie
macmillan
macon
macri
macron
madagaskar
madame
made
madeira
madera
madero
madinah
madison
madonna
madono
madras
madre
madrid
maduro
mae
maestro
maestroverki
magalha
magazine
magazino
magdalena
magiala
magiar
magic
magiisto
magio
magna
magnato
magne
magnetala
magnetic
magneto
magnetofono
magnezio
magnezo
magnitude
magnolia
magnolio
magnus
mago
magra
magreskar
magritte
maha
mahagono
maharashtra
mahiliow
mahler
mai
maia
maiden
maifloro
mail
main
maine
mains
maior
mais
maison
maitre
maizo
majesto
majlis
major
majora
majorano
majorato
majordomo
majoritato
majoro
makadamo
makaronio
makarono
makau
make
maker
makes
making
makio
makkah
maklo
makrelo
maksaa
maksu
makulaturo
makuli
makulizar
makulo
makuloza
mal
mala
malada
malade
maladesi
maladeskar
maladeskis
maladeso
maladeta
maladi
maladie
malado
malaizia
malajo
malaka
malakito
malam
malario
malattia
malawi
malaya
malayo
malaysia
malcolm
maldicensar
maldivi
male
malear
maledikar
maleebla
maleolo
maleso
malgre
mali
malicema
malico
malicoza
maligna
maligno
malik
malio
malmo
malo
malodoranta
malodorar
malone
maloye
malta
maltana
malto
malvarozo
malyoto
mama
mamadou
mamas
mami
mamiferi
mamifero
mamilo
mamluk
mamo
mamore
mamuto
man
mana
management
managua
manaus
mancha
manche
manchester
mancho
mandalay
mandarino
mandato
mande
mandela
mandelo
mandibulo
mandjuria
mandolino
mandragoro
manejo
manekinino
manekino
manet
maneto
manga
mangano
manger
manglieri
mango
mangusto
manhattan
mani
manie
maniera
maniere
manieri
maniero
manifestar
manifesti
manifestis
manifesto
manikeismo
maniko
manila
manio
manioko
manipulado
manipular
manipulo
manitoba
manivelo
manjajo
manjar
manjas
manjebla
manjesas
manjo
mankanta
mankar
mankas
mankis
manko
mann
manner
mannerheim
manners
mano
manometro
manor
manoto
manovrar
manovro
manque
manquer
mans
mansardo
mansfield
mansheto
manson
mantelo
mantenar
mantenas
mantenis
manteno
manu
manuagar
manual
manuala
manuale
manuedo
manuel
manufakturo
manui
manuo
manuskripti
manuskripto
many
mao
maori
map
mapi
maple
mapo
mapuche
mar
mara
marais
marala
maranha
maratono
marble
marbordala
marbordo
marc
marcel
marcello
marcellus
marcelo
march
marchado
marchand
marchandar
marchar
marchas
marche
marcher
marchis
marcho
marcia
marcipano
marcius
marco
marconi
marcos
marcus
mardio
mare
marengo
mareo
margaret
margarino
margravo
margriteto
margrito
marguerite
mari
maria
mariage
mariajala
mariajar
mariajas
mariajata
mariajesis
mariajeso
mariaji
mariajis
mariajita
mariajo
marian
mariana
mariani
marianka
mariano
maricopa
marie
marihuano
marija
marilando
marilyn
marin
marina
marine
mariner
marino
marinus
mario
marion
marioneto
maristi
maristo
maritime
marjino
mark
market
markezo
marki
markizar
markizis
marko
marks
markus
marlene
marley
marlon
marmara
marmelado
marmito
marmora
marmoro
marmoto
marne
marno
maro
marodar
marokana
maroko
marono
marque
marques
marriage
mars
marsalis
marseille
marsh
marshall
marshalo
marshi
marsho
marshoza
marso
marsuino
marsupialo
marta
martel
martelagar
martelego
martelo
martes
martha
marti
martial
martignon
martim
martin
martinik
martins
martinus
martiri
martiro
marto
martro
martti
marvelatra
marveli
marvelo
marveloza
marvin
marx
marxismo
marxista
mary
maryland
mas
masajar
masakrar
masakras
masakro
masaryk
mashin
mashinacar
mashinaro
mashini
mashino
mashke
mashkuto
masho
masiva
masivo
maskar
maskili
maskilo
masko
maskula
maskulala
maskuli
maskulo
maslovka
maso
mason
masonar
masonuro
mass
massachusetts
massacre
masse
master
mastico
mastikar
masto
mastro
mat
mata
matadoro
matam
match
mate
matem
matemat
matematikala
matematikisti
matematikisto
matematikistulo
matematiko
mateo
materia
materiajo
material
materiala
materiali
materialo
materiaro
materii
materio
math
mathbb
mathcal
mathias
mathieu
matida
matie
matilda
matin
matinala
matine
matino
matisse
mato
matraco
matrala
matreso
matrico
matrikulo
matrimonio
matro
matrono
matt
matter
matthew
matthews
matthias
matti
matura
matureskar
matureso
mau
mauno
maupin
maura
mauri
maurice
mauricio
maurico
mauritania
mauritius
maurits
mauvais
mauvaise
mauzoleo
max
maxilo
maxim
maxima
maxime
maximilian
maximiliano
maximilien
maximo
maximus
maxwell
may
maya
mayer
mayfield
maynard
mayo
mayonezo
mayor
mayorka
mayoro
mayotte
mayuskulo
mazo
mazovia
mazowiecka
mazowiecki
mazuria
mazury
mbia
mc
mccarthy
mccartney
mcdonald
mclean
mcleod
mcveigh
me
mea
meade
meaning
means
measure
meat
mec
mecc
meccan
meceno
mechan
mechanics
mecho
mecklenburg
med
medalii
medaliistino
medaliisto
medalio
medford
media
mediacanta
mediacanto
mediacar
mediaco
mediano
mediata
medic
medical
medici
medicinala
medicine
medicino
medieval
medii
medikala
medikamenti
medikamento
mediki
mediko
medina
medio
meditar
mediteranea
mediteraneala
mediteraneo
mediumo
medulo
meduzo
medvenka
meer
mefito
megafono
megero
mehmed
mehmet
meiji
meitner
meji
mek
meka
mekanika
mekanikal
mekanikala
mekaniko
mekanismi
mekanismo
mekong
mel
melankolio
melankolioza
melanomo
melaso
melbourne
meleo
meliso
melkar
mello
melo
melodii
melodio
melodioza
melodramo
melolonto
melono
melville
melvin
mem
member
members
membra
membrani
membrano
membraro
membreskas
membreskis
membreso
membri
membro
membrostati
meme
memetiko
memi
memo
memorado
memorando
memorar
memore
memoria
memorial
memorialo
memoriganta
memorigar
memorigas
memorigilo
memorinda
memoro
memory
memphis
men
menajar
menajo
mencionar
mencionas
mencionata
mencionesas
mencionesis
mencionis
mencionita
menciono
mendan
mende
mendelssohn
mendes
mendikar
mendikero
mendikisto
mendoza
mene
menem
mener
menezes
meningito
menisko
menna
meno
menopauzo
menos
menstruo
ment
mental
mentala
mentale
mentally
mente
mentiar
mentiero
mentio
mento
menton
mentono
mentoro
menuo
menuzar
menuzisto
mer
mercedes
mercenarii
mercero
mercosur
mercury
meredith
meri
meridiano
meringo
merino
meritar
meriti
merito
meritoza
merkar
merkati
merkato
merkel
merkki
merkovorto
merkurdio
merkurio
merkuro
merlano
merlo
merlucho
mero
mes
mesa
mesajacho
mesaji
mesajo
mesio
meskina
meso
mesonar
messina
mestici
mestico
mestieri
mestieristo
mestiero
mesure
met
metabolio
metaf
metafiziko
metafore
metaforo
metal
metala
metalala
metali
metalli
metallia
metallica
metallin
metalo
metals
metalurgio
metamorfosar
metamorfoso
metanalo
metano
metar
metempsikoso
meteoro
meteorologiala
meteorologiisto
meteorologio
method
metilo
metodi
metodo
metodologio
metonimio
metra
metrala
metri
metriko
metro
metroala
metrologio
metroo
metropolala
metropolitan
metropoliteno
metropolo
metsa
metter
mettere
mettersi
mettre
meuble
meuse
meuthen
mexico
mexikia
mexikian
mexikiana
mexiko
meyer
mez
meza
mezavalora
mezavalore
mezavaloro
meze
mezepokal
mezepokala
mezepoko
mezo
mezolitiko
mezopotamia
mezurar
mezuras
mezurebla
mezuri
mezurili
mezurilo
mezuro
mezurounajo
mezvalora
mezvalore
mezzo
mg
mi
mia
miami
miarida
miaular
mica
michael
michal
michało
michel
michelangelo
michelle
michigan
micirklo
mick
mickey
mico
microsoft
middle
middletown
midi
midway
mie
miec
miejava
mielaquo
mieli
mielo
mielta
mieno
mies
mieux
migrado
migranta
migrar
migras
migration
migreno
migris
migro
miguel
mihai
mihail
mihailovich
mika
mikael
mikalai
mikao
mike
mikelon
mikhail
miklo
mikologio
mikr
mikra
mikrapolonia
mikrega
mikreso
mikrigar
mikro
mikrobiologiisto
mikrobiologio
mikrobo
mikrofilmo
mikrofono
mikronezia
mikroskopala
mikroskopo
mil
mila
milan
milano
milda
mile
miles
mili
miliard
miliardi
miliardo
milici
milico
milii
milimetri
milio
milion
milioni
milioniero
miliono
milit
milita
militado
militaire
milital
militala
militale
militanta
militanti
militanto
militar
militara
militarala
military
militema
militeri
militero
militestri
militestro
militeto
militi
militis
militistala
militisti
militisto
milito
militonavo
mill
milla
mille
miller
million
mills
milo
milos
milton
milyeto
mimar
mimo
mimoso
min
mina
minacanta
minacar
minacas
minacis
minaco
minado
minar
minareto
minas
mind
mine
minema
minen
miner
mineral
minerala
minerali
mineralo
mineralogio
minestrelo
mineyi
mineyo
ming
minh
miniaturo
minim
minima
minime
minimo
miniona
minister
ministerio
ministi
ministo
ministraro
ministre
ministri
ministrino
ministro
ministros
ministry
miniumo
minneapolis
minnesota
mino
minor
minora
minoritatala
minoritati
minoritato
minorka
minoro
minsk
minto
minucio
minucioza
minun
minus
minuskula
minuskulo
minuta
minuti
minuto
mio
miopa
miozoto
mir
mirajo
miraklo
miranda
miriado
miriapodo
mirmekofago
miro
miroslav
mirtelo
mirto
mirza
mis
misduktar
mise
misfero
misioneri
misionero
misioni
misionisto
misiono
misirar
mispazo
mispelo
miss
missa
missing
mission
mississippi
missouri
mistelo
misterio
misterioza
mistifikar
mistika
mistiko
mistral
misura
misuzar
misuzo
mit
mita
mitchell
miteno
miti
mito
mitol
mitologiala
mitologio
mitralio
mitraliosi
mitralioso
mitsotakis
mitsubishi
mittari
mitterrand
mix
mixajo
mixar
mixas
mixed
mixis
mixita
mixo
mixuro
mizantropo
mizerar
mizerikordio
mizero
mizeroza
mizerozo
mizuki
mln
mm
mma
mnemoniko
mo
mobile
mobilizar
mobilizo
moblaro
mobli
moblizita
moblo
mobutu
mocha
mod
moda
modaleso
mode
model
modeli
modelo
moderar
moderema
modern
moderna
moderne
modernigar
modernigesis
modernigo
modernismo
modernista
modero
modest
modesta
modi
modibo
modifikar
modifikas
modifikesis
modifiki
modifikis
modifikita
modifiko
modifikuri
modifikuro
modigliani
modiliono
modisto
modlar
modo
modulacar
modulo
mofeto
mogadishu
mohamed
mohamedana
mohamedani
mohamedano
mohammad
mohammed
moi
moines
moins
moire
mok
mokado
mokar
mokasino
moko
mol
mola
molaro
moldar
moldavia
moldova
moldovana
mole
molekulala
molekuli
molekulo
moleskar
moleso
molestar
molibdo
moligar
molina
molio
molotov
molto
moluski
molusko
moment
momento
mon
monagas
monakala
monakeyi
monakeyo
monaki
monakino
monako
monarchy
monarki
monarkiala
monarkii
monarkio
monarko
monata
monatala
monati
monato
mondal
mondala
mondale
monde
mondi
mondo
mondomiliti
mondomilito
mondumo
mondvaste
moneda
monet
moneta
monetala
monetaro
moneti
moneto
monetopeco
monetuyo
money
mongo
mongola
mongoli
mongolia
mongoliana
monica
monitoro
monmouth
monnaie
mono
monogama
monografio
monogramo
monoklo
monokroma
monologo
monomero
monopolo
monoteismo
monotona
monroe
mons
monsinioro
monstro
mont
montala
montana
montaner
montanto
montari
montaro
monte
monteiro
montenegro
monter
monterey
montero
montes
montesquieu
monteto
montevideo
montgolfier
montgomery
monti
monticello
monto
montoacensisto
montoza
montranta
montrar
montras
montrata
montre
montreal
montrer
montresas
montresis
montreux
montris
montserrat
montsoreau
montt
monumentala
monumenti
monumento
moon
moore
mopso
mor
mora
moraes
moral
morala
morale
moralement
morales
moralo
moravia
morbala
morbi
morbo
mordanta
mordar
mordema
mordovia
more
moreau
moreira
morelo
moreno
morfemo
morfino
morfologio
morga
morgan
morge
mori
moritz
mormon
mormona
mormoni
mormonismo
morning
moro
moroni
morre
morrem
morreu
morris
morrison
morse
morso
mort
morta
mortabis
mortadelo
mortado
mortal
mortala
mortale
mortanta
mortar
mortas
morte
mortero
mortes
mortezo
morti
mortiganta
mortigar
mortigas
mortigesas
mortigesis
mortigesos
mortigi
mortigis
mortigisto
mortigita
mortigiva
mortigo
mortinta
mortinti
mortinto
mortis
mortiva
morto
morton
mortopuniso
mortos
moruo
moruso
mos
moscow
moses
moshe
moskardino
moskeo
moskito
moskva
moso
moss
most
mostki
mosto
mosul
mot
motacilo
mother
motifo
motion
motivi
motivizo
motivo
moto
motor
motorcikli
motori
motorizita
motoro
motors
motown
mots
mott
mound
mount
mountain
mountains
mourir
mouse
mouskouri
moussa
mouth
mouton
mouvement
movadi
movado
movanta
movar
movas
move
movebla
movebleso
movement
movementi
movemento
moveskar
movi
movie
movimenti
movimento
movimiento
moving
movis
moviva
movo
moyen
moyeni
moyeno
mozaiko
mozambik
mozambikana
mozart
mp
mpo
mr
ms
mswati
mt
mtv
mu
muammar
muar
mubarak
much
mucilajo
muelar
mueleyo
muelili
muelilo
muere
muertos
muevo
mufo
mugabe
mughal
muhamad
muhammad
muhammed
mujar
mukaan
muko
mukozo
muldar
mulierala
mulieri
muliero
mulo
mult
multa
multafoye
multakolora
multe
multega
multeso
multi
multiplikar
multipliko
multo
multopla
muluro
mumbai
mumio
mun
muna
mundi
mundial
mundo
mungar
munici
municioni
municiono
municipal
municipala
municipi
municipo
munire
muntar
muntita
muotoinen
mur
murad
murat
murcia
muregi
murego
mureno
muri
murillo
murio
murmurar
murmuro
muro
murphy
murray
mus
musa
musareno
muscle
muse
museo
museu
museum
mush
musho
music
musica
musical
musil
musique
musk
muskado
musketo
musko
muskulala
muskuli
muskulo
muslim
muslo
muso
musono
musorgski
mussolini
must
mustafa
mustar
mustardo
mustas
mustis
mustos
mustus
muta
mutaco
mutharika
mutilar
mutilo
mutoni
mutono
mutuala
muu
muuttaa
muz
muzei
muzelo
muzeo
muzik
muzikaji
muzikajo
muzikal
muzikala
muzikar
muziki
muzikisti
muzikistino
muzikisto
muzikistulo
muziko
muzo
mv
my
myanmar
myanmarana
myelito
myelo
myo
mys
mystery
myt
myth
myys
n
na
nabo
nabobo
nabokov
nach
nacht
nacio
naciona
nacional
nacionala
nacionaleso
nacionalismo
nacionalista
nacionalisti
nacioneso
nacioni
naciono
nacismo
nad
nader
nadia
nadine
nafto
nagasaki
nage
nagorno
naguib
nagy
nahuatl
nainen
nairobi
naisen
naissance
naiva
naiveso
naivo
naktigalo
nam
name
names
namibia
nana
nancy
nanjing
nano
nanoteknologio
nansen
nantes
napo
napole
napoleon
napoleonala
napoli
nara
naracala
naracar
naracas
naraci
naraco
narayan
narcisismo
narciso
narkotar
narkotigar
narkotigiva
narrow
narva
nas
nasa
nascimento
nascita
nash
nashville
nasir
nask
naskala
naskar
naskas
naske
naskeyo
naskigar
naskinta
naskinto
naskis
naskita
nasko
naskodio
naso
nassau
nasser
nat
natado
natal
natalie
natalya
natar
natas
nate
nathan
nathaniel
nation
national
nationale
nations
natistino
natisto
nativa
native
nato
natoveziko
natro
natur
natura
natural
naturala
naturale
naturalismo
naturalisto
nature
naturo
naufrajar
naufrajo
nauru
nauvoo
nauzear
nauzeiganta
nauzeigar
nauzeigiva
nauzeo
nav
naval
navala
navano
navara
navaro
nave
navestro
navi
navig
navigado
navigala
navigar
navigas
navigation
navigebla
navigis
navigisto
navigo
navire
navo
nayado
naz
nazala
nazarbayev
nazi
naziista
naziisti
nazisti
nazo
nazotuko
nba
nbc
nberg
nchen
nchez
ncia
nd
nde
ndebele
nden
ndez
ndia
ndido
ndio
ndor
ndung
ne
nea
neacesebla
neal
neanderthal
neanderthalensis
neapta
near
neatencema
nebraska
nebular
nebulo
nebuloso
nebuloza
necerta
necerteso
necesa
necesajo
necese
neceseso
neck
ned
nedecanta
nedefinita
nedependanta
nedependante
nedependanteskar
nedependanteskas
nedependanteskis
nedependantesko
nedependeso
nedependo
nederlandan
nederlandana
nederlandane
nederlandani
nederlandano
nederlando
nederlandse
nedeterminita
nedireta
nedirete
nedubitebla
need
neegala
neegaleso
neevitebla
neexakta
neexpektita
nefacila
nefatigebla
neferma
nefinita
nefixa
neflexebla
neformala
negar
negativa
negis
neglijanta
neglijar
neglijema
neglijeo
neglijo
nego
negociado
negociar
negocii
negociis
negocio
negra
negri
negro
nehabila
nehabitata
nehumana
neige
neil
neill
neimportanta
nejusta
nejuste
nek
nekapabla
nekapableso
nekareebla
neklara
nekomparebla
nekompetenta
nekompleta
nekonciliebla
nekonocata
nekonocita
nekonstanta
nekontebla
nekontenta
nekontestebla
nekonvenanta
nekorekta
nekredebla
nekrologo
nekromancio
nekropolo
nekroso
nektaro
nel
nelegala
nelegitima
nelja
nell
nella
nelle
nelly
nelson
nematodo
nematura
nemediata
nemediate
nemezurebla
nemortiva
nemulta
nen
nena
nenociva
nenormala
nenufaro
neo
neoficala
neofito
neoklasika
neolitika
neolitiko
neologismo
neono
neoportuna
neordinara
neosho
nepal
nepalana
nepara
nepenetrebla
neperfekta
nepermeebla
nepolita
neposibla
nepotino
nepotismo
nepoto
nepotulo
nepreciza
neprofunda
neprudenta
neptuno
nepura
ner
nereguloza
nerezistebla
nero
neruda
nerva
nervala
nervaro
nervaturo
nervi
nervo
nes
nesala
nesana
nesentiva
nesolida
nesolvebla
ness
nestabila
nestabileso
nesto
nesuceso
nesuficanta
net
neta
netanyahu
nete
neteso
netflix
netigar
netigo
neto
netolerebla
netranquileso
netransitiva
network
neula
neurociencisto
neurono
neussner
neutila
neutra
neutral
neutrala
neutreso
neutro
neutrono
neuzata
nevada
nevalida
nevarianta
neveo
never
nevera
neves
nevidebla
neville
nevinkebla
nevino
nevis
nevo
nevralgio
nevrastenio
nevrologiisto
nevrologio
nevroso
nevulo
nevuso
new
newcastle
newfoundland
newman
newport
news
newspaper
newton
next
nexta
neyusta
nez
nf
ng
nga
nge
ngel
nger
ngo
ngu
nguesso
nguye
nguyen
ngxi
ngzu
nh
nha
nhl
ni
nia
nica
nicaragua
niccolo
nice
nicho
nicholas
nicht
nick
nico
nicola
nicolaas
nicolae
nicolas
nicole
nie
niels
nielsen
niemeyer
niente
nietzsche
nig
nige
niger
nigeria
nigeriana
night
nigra
nigrigar
nigsberg
nihiligar
nihiligo
nihilo
niin
nijer
nijni
nik
nikaragua
nikaraguana
nikelo
niki
nikita
nikola
nikolai
nikolaus
nikolayevich
nikotino
nilo
nilono
nils
nimbo
nimfo
nimi
nimo
nin
nina
nine
ning
nino
nintendo
nio
niobio
nior
nirvana
nis
nissan
nitero
nitrato
nitro
niue
nivar
nivas
nivea
niveli
nivelo
niveolo
nivo
nivofloko
nivoza
niwy
nixo
nixon
nkrumah
nkvd
nne
nno
nnrot
no
nobel
nobela
nobelaro
nobeleso
nobeli
nobelo
nobelprize
nobile
nobla
noble
nocar
noce
noche
nochizar
nocho
nocioni
nociono
nociva
nodo
noe
noel
noir
noire
noise
noktala
nokte
nokti
nokto
noktomezo
noktuo
nokturno
nola
nom
nomada
nomadi
nomado
nomar
nomas
nomata
nombra
nombrando
nombre
nombri
nombro
nombroza
nome
nomenklaturo
nomesar
nomesas
nomesis
nomi
nominala
nominar
nominas
nominativo
nominesas
nominesis
nominezas
nominis
nominita
nomino
nomis
nomita
nomizar
nomizas
nomizata
nomizesas
nomizesis
nomizis
nomizita
nomizo
nomo
non
nonacent
nonadek
none
nonesma
nord
norda
nordal
nordala
norde
nordesta
nordeste
nordo
nordrheno
nordwesta
nordweste
nordwesto
norfolk
noriega
norio
norma
normala
normale
norman
normanda
normandi
normandia
normi
normo
norodom
noronha
norte
north
northern
norvegia
norvegian
norvegiana
norvegiani
norvegiano
norway
nos
nose
nossa
nostaa
nostalgio
nostoko
not
nota
notar
notario
notas
notata
note
notes
nothing
noti
noticias
notico
notifikar
notifiko
notinda
notinde
notita
notizar
notizo
noto
notora
notoreso
notre
notte
nous
nousta
nouveau
nouvelle
nov
nova
novaji
novajo
novas
novaya
nove
noveli
novelisto
novelo
november
novembro
novgorod
novi
novial
novica
novico
novigar
novigi
novigo
noviguro
novo
novosibirsk
now
nowa
nowe
nowy
ns
nsa
nsson
nster
nt
nta
nter
ntgen
ntica
nto
ntya
nu
nuanci
nuanco
nubi
nubia
nubo
nuboza
nuclear
nuco
nuda
nudigar
nudlo
nuestra
nueva
nuevo
nugato
nuit
nukleala
nuklear
nukleara
nuklei
nukleo
nuko
nul
nula
nulafoye
nulatempe
nule
nulo
nultempe
nulu
num
numa
number
numbers
numerala
numeri
numero
numidia
nun
nuna
nunadie
nuncio
nune
nuno
nuntempa
nuntempal
nuntempala
nuntempe
nuovo
nur
nura
nurin
nursultan
nut
nutrado
nutrajo
nutrar
nutras
nutriva
nutrivala
nutrivas
nutrivi
nutrivo
nutro
ny
nyelv
nyerere
nyi
nyt
nz
o
oahu
oak
oakland
oas
oaziso
ob
obama
obcena
obceneso
obediar
obediema
obedio
obelisko
obeza
objecionar
objeciono
object
objekt
objektala
objekti
objekto
objet
oblast
obleo
obligaciono
obliganta
obligar
obligata
obligation
obligeso
obligo
obliqua
oblique
obliterar
obliviar
oblonga
obolo
obote
obra
obras
obrego
obsedar
observado
observanto
observar
observas
observata
observatorio
observebla
observis
observita
observo
observoturmo
obsidiano
obskura
obskureskar
obskureso
obskurigar
obsoleta
obstakli
obstaklo
obstinanta
obstinar
obstinema
obstruktar
obstrukto
obtenar
obtenas
obtenebla
obtenesas
obtenis
obtenita
obtuza
obusi
obuso
oc
occhi
occhio
occidental
occupation
ocean
oceanala
oceani
oceania
oceano
oceanografio
oceloto
och
ociar
ocidanto
ocidar
ocidas
ocidata
ocidental
ocidentala
ocidento
ocidero
ocidesas
ocidesis
ocidili
ocidis
ocidita
ocido
ociera
ociero
ocilanta
ocilar
ociligar
ocilo
ocitaniana
ocitar
october
od
odd
odeon
oder
odianto
odiar
odiinda
odio
odiseo
odo
odoacer
odontologio
odoranta
odorar
odoras
odore
odoro
odoroza
odyssey
of
ofensar
ofensiva
ofenso
off
offenbach
office
officer
official
officio
ofical
oficala
oficale
oficeyo
ofici
oficial
oficiala
oficiale
oficiar
oficiero
oficii
oficio
oficiri
oficiro
oficisti
oficisto
ofico
ofrar
ofras
ofris
ofro
ofseto
ofta
oftalmologio
ofte
often
og
oggetto
ogivo
oglar
ogni
ogro
oh
ohio
ohm
ohne
oikeaksi
oikeus
oil
ois
oise
oiseau
ok
okacent
okadek
okapio
okazione
okazioni
okaziono
okcitana
oked
okesma
okinawa
oklahoma
okro
oktavo
oktobro
oktogono
okul
okulala
okuli
okulo
okulta
okupado
okupanta
okupar
okupas
okupata
okupesas
okupesis
okupeso
okupis
okupita
okupo
ol
ola
olaf
olav
olca
old
olda
oldeso
oldi
oldo
oldulo
ole
oleg
olema
oleo
oles
oleva
olga
oli
olia
oligarkio
olim
olima
olimpi
olimpia
olimpiado
olimpiala
olinda
olio
olive
oliveira
oliver
olivier
olivo
olla
olo
olof
olqua
olqui
olta
olti
oltre
olu
olua
olympic
olympics
om
oma
omaha
oman
omar
ombrizar
ombro
omega
omisar
omiso
omleto
omna
omnadia
omnadiala
omnadie
omnakaze
omnaloke
omnaspeca
omnatempe
omnayare
omni
omnibusi
omnibuso
omnivora
omno
omnu
omsk
on
onagro
once
ond
ondatra
onde
ondegi
ondego
ondi
ondifar
ondo
ondoza
one
onep
oneself
oni
onklino
onklo
onklulo
online
only
onore
ont
ontario
ontologio
onu
onua
onyono
op
opaka
opato
ope
opel
open
opera
operacar
operacas
operaci
operaco
opereto
operi
opero
opinion
opinionar
opinionas
opinione
opinioni
opinionis
opiniono
opiumo
opl
ople
opoczno
opold
opole
oportar
oportas
oportuna
oportune
oportuneso
opoza
opozanta
opozantaro
opozante
opozanti
opozanto
opozar
opozas
opozata
opoze
opozinti
opozis
opozita
opozite
opozo
opp
oppi
oppose
opposition
opresanta
opresar
opresiva
opreso
opt
optikala
optiko
optimismo
or
ora
oraklo
orala
oran
orang
orange
orangutano
oranjea
oranjo
oratoro
orbitala
orbiti
orbito
orchestra
orchestre
ordeni
ordeno
order
ordero
orders
ordinal
ordinar
ordinara
ordinare
ordine
ordineso
ordino
ordo
ordre
ore
orea
oregon
oreille
oreli
oreliono
orellana
orelo
oreloringo
orfano
org
organala
organeto
organi
organika
organisation
organismi
organismo
organizado
organizar
organizas
organizata
organization
organizesas
organizesis
organizeso
organizi
organizis
organizita
organizo
organizuri
organizuro
organo
orgenisto
orgeno
orgio
orient
oriental
orientala
orientizar
orientizita
oriento
orifico
origin
original
originala
originalajo
originale
originaleso
originalo
originas
origine
origini
originis
origino
origins
orikteropo
oriolo
oripelo
orkestrala
orkestrestro
orkestri
orkestro
orlando
orlar
orle
orleans
orluro
ornamentala
ornamento
ornar
ornita
ornitologio
ornitorinko
ornivo
oro
orr
orsha
ort
orta
ortega
ortiz
orto
ortodoxa
ortodoxi
ortografio
ortopedio
orveto
orville
orwell
oryol
os
osa
osage
osaka
osama
oscar
osceola
osetia
osiek
osiny
oskar
oslo
osman
osmoso
osoittaa
ospina
ossa
osso
osta
ostala
ostentar
ostente
ostentema
ostento
osteyo
osti
osto
ostro
ostrogoti
ostrołe
ostwald
osvaldo
oswald
oswaldo
otalgio
other
otis
otoman
otomana
otomani
otro
ott
ottaa
ottawa
otter
otto
ottoman
otuso
ou
ouagadougou
oue
oui
ould
our
ouro
out
outre
outside
ouvrage
ouvrier
ovala
ovario
ovatra
over
overline
ovi
oviedo
ovifar
ovo
ovoida
ovulo
owen
own
oxalo
oxford
oxido
oxigeno
oxo
oz
oziero
ozono
ozores
ozyorsk
p
pa
paavo
pablo
pacala
pace
pacema
paceskar
pacheco
pacienta
pacienteso
pacific
pacifik
pacifika
pacifiko
pacifisto
pacigar
pack
paco
pacoza
pacoze
padelo
padloko
pado
padova
padre
paella
paese
paf
pafado
pafante
pafar
pafas
pafero
pafili
pafilo
pafis
pafistino
pafisto
pafistulo
pafo
pag
pagana
paganismo
pagano
pagar
pagare
pagas
pagata
pagayo
page
pagenda
pages
pagi
pagina
pagini
pagino
pagis
pago
pagodo
paha
pahlavi
pahrump
pai
paikassa
paikka
paille
pain
painaa
paino
pains
paint
pair
pais
paix
paje
pajo
pakego
paketboto
paketo
pakistan
pakistanana
pako
paktar
paktas
pakti
paktis
pakto
pala
palace
palaci
palacio
palaco
paladio
palaiologos
palais
palatala
palatenio
palato
palau
pale
paleolitiko
paleontologio
palermo
paleskar
palestina
palestinana
palestinani
paleto
paliatar
palindromo
palio
palisado
palisandro
paliso
paljon
pallo
palm
palma
palme
palmeiras
palmer
palmiero
palmo
palmyra
palo
palpar
palpebro
palpitar
paltoto
palumbo
pamfleto
pampa
pamplona
pan
panaceo
panama
panamana
pancho
pandemio
pando
pane
panear
paneli
panelo
panema
paneo
pangolino
panikar
paniko
pankreato
panna
pano
panonia
panoramo
pantalono
pantanal
pantero
pantoflo
pantomimo
paolo
papa
papagayo
papal
papala
papandreou
papas
papavero
papayo
papel
papen
paper
papera
paperi
papero
papeso
papi
papier
papilioni
papiliono
papin
papiro
paplo
papo
papriko
papua
papulo
par
para
parabolo
paradar
paradi
paradigmo
paradise
paradiz
paradizo
parado
paradoxo
parafalo
parafino
parafrazar
paragrafo
paraguay
paraguayana
paraguayani
parai
paralela
paralele
paraleleso
paralelo
paralelogramo
paralizar
paralizeso
parametri
parametro
parana
paranagua
parapeto
parapluvo
parashuto
parasuno
paravento
parazita
paraziti
parazito
parcelo
pardo
pardonar
pardonez
pardono
pare
paredes
parenkimo
parenta
parenteso
parentezi
parentezo
parenti
parento
parer
pareto
parfinar
parfinita
parfumo
pari
pariado
pariar
parieto
parigar
pario
paris
parity
park
parker
parki
parko
parks
parkurar
parkuras
parlamental
parlamentala
parlamentani
parlamentano
parlamento
parlare
parlement
parler
parliament
parma
paro
parodiar
parodio
parokio
paroko
parol
parola
parolado
parolala
parolanta
parolanti
parolanto
parolar
parolas
parolata
parole
parolema
parolesas
parolesis
parolez
paroli
parolis
parolita
parolo
parolomaniero
paromi
paromo
paroxismo
parque
parqueto
parra
parry
part
parta
partaka
partala
partale
parte
partenero
parti
particiono
participo
particular
partido
partie
partigar
partigas
partigo
partii
partikulara
partikulare
partikuli
partikulo
partio
partir
partisala
partisana
partisani
partisano
partisi
partiso
partito
partizani
partizano
parto
partoprenanta
partoprenanti
partoprenanto
partoprenar
partoprenas
partopreninti
partopreninto
partoprenis
partoprenisto
partopreno
parts
parturar
parturo
party
paruo
parvenuo
parze
pas
pasabla
pasable
pasado
pasajanti
pasajar
pasajeri
pasajero
pasajo
pasamano
pasanta
pasar
pasas
pascal
paschalis
pasero
paseyo
pasha
pasifloro
pasigar
pasinta
pasinto
pasioni
pasiono
pasionoza
pasis
pasiva
pasivo
pasko
paso
pasovorto
paspelo
pasporto
pass
passage
passare
passe
passenger
passer
passes
passion
passo
past
pasta
paste
pastel
pastelo
pasteto
pasteur
pastilo
pastinako
pasto
pastorala
pastori
pastoro
pasturajo
pasturar
pastureyi
pastureyo
pat
patagonia
patato
patelo
patento
patero
patetika
path
patibulo
pato
patois
patologio
patoso
patr
patrala
patreso
patri
patriarko
patrice
patricia
patricio
patrick
patrik
patrimonio
patrio
patriota
patrioto
patro
patroliar
patron
patrono
patronomo
patton
pau
paul
paula
pauli
paulo
paulus
pauzar
pauzo
pavaro
pavel
paviliono
pavimento
pavlovsk
pavo
pavono
pavonumar
pavorar
pavorigar
pavoro
pawło
pay
payer
payne
pays
paz
pazar
pazi
pazo
pbs
pdf
pe
pea
peace
peano
pearl
pearson
peau
peceto
pecho
peci
pecigar
peco
ped
pedagogio
pedagogo
pedalo
pedanto
pedbalono
pede
peder
pedersen
pedi
pediatrio
pedikulo
pedikuloso
pediranto
pedirar
pedo
pedofilio
pedokuracisto
pedro
pedunklo
peel
pegazo
pego
peine
peitta
peizaji
peizajo
pejorativa
pejorative
pekar
pekario
peko
pektar
pektilo
pektoro
pekuniala
pekunio
pela
pelala
pele
pelerino
pelham
peli
pelikano
pelikulo
peliso
pelissa
pelle
pelmele
pelmelo
pelo
peloto
pelotono
pelvo
pembroke
pen
pena
penacho
penang
penar
pendant
pendanta
pendar
pendulo
pene
penetrar
penguin
penh
penicilino
peninsulo
peniso
penn
pennsylvania
penny
peno
penoza
pensacola
pensado
pensar
pensas
pense
pensero
pensi
pensiero
pensilvania
pensionar
pensiono
pensis
penso
pentagono
pentagramo
pentatlo
pentekosto
pento
penza
peonio
people
peoria
pepe
pepin
pepito
pepper
per
pera
perce
perceptar
perceptas
perceptebla
perceptiva
percepto
perchar
percy
perdabis
perdaji
perdajo
perdar
perdas
perdesis
perdi
perdis
perdita
perdo
perdre
perdriko
pereira
perena
peres
perfekta
perfekte
perfekteso
perfektigar
perfekto
perfida
perfideso
perforar
perform
periferio
perihelio
perikarpo
perimetro
period
periodala
periodi
periodo
peripecio
perisar
perisas
perisis
peristilo
peritoneo
perkalo
perkins
perko
perkut
perkuto
perli
perlo
perm
permananta
permanante
permanar
permanent
permanenta
permano
permear
permisar
permisas
permisata
permisesis
permisis
permisita
permiso
permutar
permuto
pernambuco
pero
peroneo
perpendikla
perpetua
perpetue
perpetueso
perplexa
perplexeso
perquizitar
perry
pers
persa
perse
persekutar
persekuto
persequar
persequo
perseverar
persevero
persia
persian
persiana
persiani
persieno
persiko
persistanta
persistar
persistemeso
person
persona
personaji
personajo
personal
personala
personale
personaleso
personaro
persone
personeso
personi
personne
persono
persons
perspective
perspektiva
perspektivo
persuadar
perth
perturbar
perturbeso
perturbo
peru
peruana
perucho
peruko
perversa
pervomaiski
pervomaiskoye
pesca
pesce
pesimismo
peskado
peskar
peskero
peskisti
peskisto
pesko
peso
pessoa
pessoas
pest
pesto
petalo
petar
pete
peter
peterburg
petersburg
peterson
peticionar
peticiono
petit
petite
petits
peto
petr
petra
petre
petrelo
petri
petrisar
petro
petroepoko
petrolo
petrolonavo
petroselo
petrus
petter
petty
petulanta
petular
petulema
petulemeso
peu
peuple
peur
peus
peut
pez
pezajo
pezanta
pezar
pezas
pezo
pezoza
pezzo
pflanze
ph
pha
phane
phantom
pharm
phelps
phil
philadelphia
philip
philipp
philippe
philippines
phillip
phillips
philos
philosophy
phnom
phoenix
phone
phot
php
phraya
phu
phys
physical
physically
physics
physiol
physique
pi
pia
pianisto
piano
pianta
piaseczno
piaski
piaui
piazza
picasso
piccola
piccolo
piceo
pico
picture
pictures
pida
pie
piece
pieces
pied
piede
piedestalo
piedi
piedra
pieds
piemont
piemontana
pieni
pieno
pier
pierce
piero
pierre
pieso
piet
pieter
pietra
pietro
pigmento
pigmeo
pigo
pikanta
pikar
pikardia
pike
piketo
pikku
piklo
piknikar
pikono
piktado
piktala
piktar
piktis
piktisti
piktistino
piktisto
piktistulo
piktita
pikto
piktogramo
pikturi
pikturo
pilaro
pilastri
pilastro
pilgrimar
pilgrimo
pili
pilo
pilorio
pilot
pilotar
pilotisti
pilotisto
pilulo
pima
pimento
pin
pinaklo
pinastro
pinceto
pinchar
pinco
pine
pinellas
pines
pinglo
pinguino
pinilla
piniono
pink
pino
pinochet
pinselo
pinta
pintado
pinti
pinto
pintoza
pinyin
pinyine
pinzo
pio
piocho
pioneer
pionira
pioniri
pioniro
piono
piotr
piotrko
pipe
piper
pipeto
pipiar
pipito
pipo
pipro
pique
piquo
pirahi
piramidi
piramido
pirateso
pirati
pirato
pirenei
pires
piretro
piro
pirogalo
pirogo
pirolo
piroso
pirotekno
piruetar
pis
pisa
pishchalava
pissarro
pista
pistacho
pistar
pistilo
pistolo
pistols
piston
pistono
pit
pita
pitagoro
pitie
pitka
pito
pitoreska
pitt
pittsburgh
piu
pius
pivoto
pizarro
pizo
piłsudski
pk
pl
pla
place
placento
places
placi
placita
placo
plad
plado
plafono
plago
plain
plaine
plains
plaisir
plaji
plajiar
plajo
plaki
plakizar
plako
plan
plana
planaji
planajo
planck
plando
plane
planet
planeta
planetaro
planeti
planeto
plani
planigar
planko
planktono
plano
plant
planta
plantacar
plantacerii
plantacerio
plantago
plantaro
plante
planti
planto
plants
plasi
plasmo
plaso
plastika
plastiki
plastiko
plastilino
plastro
plastrono
plat
plata
platajo
platano
plate
plateno
platformo
platigar
platino
platon
platte
plaudar
play
playstation
plaza
ple
pleado
plear
pleas
pleasant
please
pleata
plebeyaro
plebiciti
plebicito
pledar
pleesas
pleesis
plei
plein
pleis
pleistoceno
pleita
plektar
plena
plendar
plendo
plene
plenigar
plenigita
plenigo
plenipotenco
pleo
pleto
pleuronekto
plevrito
plevro
pleyado
plezar
plezuro
pli
plinto
plioceno
plisar
plisuro
plo
plomb
plombo
ploranta
plorar
plot
plu
plua
plualtigar
plubeligar
plubonigar
plubonigis
plubonigita
plubonigo
plue
pluforteskis
plufortigar
plufortigis
plugar
plugilo
plugrandigar
plulongigar
plum
plumaro
plume
plumi
plumo
plump
plumpa
plunjar
plur
plura
plurafoye
plurala
pluralo
plurapartisala
plurnaciona
plursporta
plus
plusa
pluse
plusho
plusieurs
plusquamperfekto
plutokratio
plutonio
plutono
pluv
pluvar
pluvas
pluvegi
pluvego
pluveto
pluvi
pluviometro
pluvo
pluvoza
plymouth
pm
po
poblacio
pocahontas
poche
pocket
poco
podagro
podde
poder
podgorica
podlahia
podlaska
podlaski
podlesie
poe
poemaro
poemas
poemi
poemo
poesi
poet
poeta
poeti
poetiko
poetino
poeto
poeziala
poezio
pogromo
poids
poikki
poincare
poinsetio
point
pointe
points
pois
poisson
poistaa
poitiers
poitou
poka
poke
poko
pokope
pokrovski
pol
pola
polala
polareso
polarigo
polaro
polder
pole
polemikar
polemiko
poleno
polexo
poli
policala
police
policistaro
policisti
policisto
polico
policy
poliedro
poligama
poligameso
poligono
poligrafo
polikroma
polimero
polinezia
polineziana
polineziani
polinomio
poliomielito
polipo
polis
polisar
polisemio
polish
polisita
polistireno
polit
polita
polite
politeismo
politeso
politica
political
politics
politika
politikal
politikala
politikale
politiki
politikisti
politikistino
politikisto
politikistulo
politiko
politique
polk
polko
polo
polona
polone
poloni
polonia
polonian
poloniana
polonio
polpo
polskawliczbach
polstero
poltrona
poltrono
polutajo
polutar
poluto
polvere
polvo
polvosugilo
polyana
pomelo
pomerania
pomeria
pomiero
pomme
pommes
pomo
pompelmuso
pompidou
pompo
pompono
pompoza
ponce
ponderar
poneo
poner
poniardo
pont
ponta
ponte
ponteto
ponti
pontifikala
pontifiko
ponto
pontono
pontus
ponyeto
pool
poor
pop
pope
poplito
poplo
popo
popolo
popper
popul
populac
populacional
populaire
populala
populani
popular
populara
populareskar
populareskis
populareso
popularigar
population
populi
populizar
populizita
populo
populoza
popurito
por
porcelano
porcioni
porciono
pordego
pordi
pordisto
pordo
pore
porelo
porfirio
porkespino
porki
porko
porkyuno
pornografio
poro
porras
porre
porsche
port
porta
portajo
portal
portalo
portanta
portante
portanto
portar
portare
portas
portata
porte
portebla
porteo
porter
portfolio
portiko
portis
portisto
portland
porto
portrait
portreti
portreto
portsmouth
portuala
portugal
portugalan
portugalana
portugalane
portugalani
portugalano
portui
portulako
portuo
pos
posa
posdimezo
pose
posedaji
posedajo
posedanto
posedar
posedas
posedis
posedo
poser
posh
posho
posibla
posible
posiblesi
posibleso
posibligar
posibligas
posibligis
position
posmorge
posnia
posse
possession
possible
post
posta
postala
poste
posteno
posti
postigo
postiliono
posto
postokarto
postpoziciono
postular
postulas
postulata
postulato
postuli
postulis
postulo
postuma
posturar
posturo
posvivis
pot
potaso
potato
potenciala
potencialo
potenco
potenta
potenteso
potento
poto
potomac
potosi
potsdam
pottawattamie
potter
poudre
poul
pound
pour
pousser
pouvoir
povanta
povar
povas
povi
povis
povo
povos
povoza
povra
povreso
povri
povro
povus
powder
powell
power
powers
pozar
pozas
pozata
pozesas
pozesis
pozeso
pozicioni
poziciono
pozis
pozita
pozitiva
pozitivismo
poznan
pozo
pp
ppen
pr
pra
practice
practise
pradesh
prado
pragmatala
pragmatismo
pragmato
prague
praha
praia
prairie
praktikado
praktikala
praktikanti
praktikanto
praktikar
praktikas
praktikata
praktikesas
praktiki
praktikis
praktiko
pralino
prasad
pratala
prater
prato
pratt
pre
preavo
precedanto
precedar
precepto
preceptoro
preci
precipiso
precipitar
precipito
precipua
precipue
preciza
precize
precizeso
preco
precoza
predicar
predico
predikar
predikisto
prediko
predominacas
prefaco
prefektio
prefekto
preferar
preferas
preferata
prefere
preferis
prefero
prefix
prefixo
pregar
pregas
pregi
pregis
prego
prehiere
prehistoriala
prehistorio
preiranta
preiranto
preirar
prejudiko
prekoca
prekursoro
prelato
preliminara
prematura
premie
premier
premii
premiizesis
premiizita
premio
premiso
prenar
prenas
prender
prendere
prendergast
prendre
prenesis
prenis
prenita
preno
prenomo
prep
preparado
preparar
preparas
preparata
preparis
preparita
preparo
preponderanta
preponderar
prepondero
preposiz
prepoziciono
prepuco
prerogativo
presa
presado
presar
presbita
presbiterio
prescott
present
presentar
preseso
presi
presidencia
president
presidente
presidential
preske
preskriptar
preskripto
presley
preso
press
presse
pressure
prestar
prestes
prestijo
prestijoza
presto
preston
pretendar
pretenders
preter
preterflugas
preterirar
preterito
preterpasar
preterpasis
pretextar
pretexto
preto
pretoria
pretoro
pretty
preurbo
preuve
prevarikar
preventar
prevento
previdar
prevido
prevosto
prezenta
prezente
prezenteso
prezento
prezervar
prezervas
prezervata
prezervesas
prezervis
prezervita
prezervo
prezidantal
prezidantala
prezidanteso
prezidanti
prezidantino
prezidanto
prezidar
prezidero
prezuntar
prezuntema
prezunto
prezuntoza
prezzo
pri
price
pride
priest
prieto
priklar
prikleso
prim
prima
primadono
primara
prime
primeira
primeiro
primer
primitiva
primo
primordiala
primorsk
primrozo
primulo
prin
princala
prince
princeton
princi
princii
princino
princio
principe
principi
principo
princo
princulo
print
printempo
printing
priora
prioreso
prioro
pris
prise
prismato
prison
privacar
privaco
privata
private
privateso
privato
privileji
privilejo
prix
prizar
prizas
prizata
prize
prizentado
prizentar
prizentas
prizentesas
prizentesis
prizentis
prizentistino
prizentisto
prizentita
prizento
prizis
pro
probabla
probable
probableso
probado
probante
probar
probas
probe
probesis
probi
probilo
probis
problem
problemi
problemo
probo
proce
procedar
procedi
procedo
proceduro
procento
procesar
procesi
procesiono
proceso
proda
prodaji
prodajo
prodeso
prodiganta
prodigar
prodigema
produce
product
production
produire
produit
produktado
produktanta
produktar
produktas
produktata
produkteri
produktero
produktesas
produktesis
produkti
produktis
produktisto
produktita
produktiva
produktiveso
produkto
produktos
produkturi
produkturo
produrre
produto
profana
profanacar
profesar
profesionala
profesionale
profesiono
profesori
profesoro
profession
professional
professor
profeto
profile
profilo
profit
profitar
profitas
profiti
profitis
profito
profitoza
profumo
profunda
profundajo
profunde
profundeso
prognozar
program
programaro
programi
programifo
programo
progresar
progresema
progresiono
progresiva
progreso
progress
progressive
project
projektar
projektili
projektilo
projekto
projektoro
projet
projetar
projetas
projetata
projetesis
projeti
projetis
projetita
projeto
proklamar
proklamas
proklamesas
proklamesis
proklamis
proklamita
proklamo
prokuraco
prokurar
prokuratoro
proletariaro
prolixa
prolixeso
prolog
prologo
prolongar
prolongo
prolonguro
promenar
promeneyo
promeno
promisar
promisas
promise
promisis
promiso
promocala
promocar
promocesar
promocesis
promocis
promoco
promoncala
promontorio
promulgar
promulgas
promulgesis
pron
pronom
pronomi
pronomo
pronta
prontigar
pronuncado
pronuncar
pronuncata
pronuncesas
pronuncez
pronuncita
pronunco
prop
propagado
propagando
propagar
propago
property
proporcionala
proporcionale
proporcione
proporciono
propos
propozajo
propozar
propozas
propozesis
propozi
propoziciono
propozis
propozita
propozo
propr
propra
propraji
proprajo
propre
propria
proprie
proprietaji
proprietajo
proprietanti
proprietanto
proprietar
proprietata
proprieteri
proprietero
proprieti
proprieto
proprigar
proprio
propulsar
propulso
prorogar
proskriptar
proskriptas
proskriptis
proskripto
prospects
prospekto
prosperanta
prosperar
prosperas
prospereso
prosperis
prospero
prosperoza
prostato
prostitucado
prostitucar
prostituceyo
prostituco
prostitution
prostracar
protagonisto
protaktinio
protecionismo
protection
proteini
proteino
protektado
protektanta
protektanto
protektar
protektas
protektata
protektero
protektesas
protektis
protektita
protekto
protektorato
protest
protestanta
protestanti
protestantismo
protestanto
protestar
protestas
protesteri
protesti
protestis
protesto
protests
proto
protokolo
protono
protoplasmo
prototipo
protuberanco
prouver
prova
provenco
proverbo
providence
provincala
province
provinci
provinco
provizar
provizas
provizis
provizita
provizo
provizora
provizore
provizuri
provizuro
provoca
provokar
proxeneto
proxim
proxima
proxime
proximeskar
proximeso
proximigar
proximigas
proximigis
proximigo
prozelitismo
prozelito
prozo
prozodio
pruda
prudenta
prudente
prudenteso
pruino
pruno
pruntar
pruo
pruritar
prurito
prusia
prusiana
prusiani
prusinowice
pruvar
pruvas
pruvi
pruvis
pruvo
przysucha
psalmo
psalmodiar
pseudo
pseudonimo
psicol
psikala
psikiatriisto
psikiatrio
psiko
psikoanalizo
psikologiala
psikologiisto
psikologio
psikologo
psikoso
pskov
pt
pu
pubera
pubiala
pubio
public
publications
publik
publika
publike
publikigar
publikigas
publikigesas
publikigesis
publikigis
publikigita
publikigo
publiko
publique
publishers
publishing
publius
puccini
pudorar
pudoro
pudro
puebla
pueblo
puente
puerala
puereso
pueri
puerini
puerino
puero
puerto
pueruli
puerulo
pufo
pugno
puhua
puig
pukea
pulaski
pulchinelo
pulco
pulio
pull
pullo
pulmoni
pulmonito
pulmono
pulpo
pulpoza
pulsado
pulsar
pulsaro
pulsas
pulso
pultro
pulular
pulvero
pumao
pumico
pump
pumpar
pumpilo
punainen
puncar
puncho
puncilo
puncionar
pundo
pune
punika
punisala
punisar
punishment
punisi
punisita
puniso
punjab
punk
punta
punti
puntizar
puntizo
punto
puntokomo
puo
puolella
puolesta
puoli
puoliksi
pupeo
pupilo
pupitro
pupo
pura
purcell
purchasing
pure
pureo
pureso
purgar
purgatorio
purgiva
purgivo
purgo
purigar
purigo
purkaa
purple
purpose
purpurea
push
pushkin
pusifar
puso
put
putativa
puteo
putin
putki
putoro
putrar
putrinta
putro
puu
puławy
py
pyha
pyo
pyongyang
pyotr
pysya
python
płock
q
qaddafi
qc
qd
qi
qin
qing
qqch
qqn
qu
qua
quadranto
quadrata
quadratala
quadrati
quadrato
quadriangula
quadrilatero
quadrilo
quadro
quadros
quake
quakero
qual
quala
qualche
quale
qualesi
qualeso
qualifikar
qualio
qualita
qualite
quality
quan
quand
quando
quankam
quanta
quante
quantesi
quanteso
quanti
quantika
quantita
quantite
quantity
quanto
quantumo
quar
quaradek
quaranteno
quarco
quaresma
quarfoye
quarimo
quarko
quaropla
quarrel
quarteri
quarterly
quartermastro
quartero
quarteto
quarto
quasio
quatre
quatro
quaza
quaze
que
quebec
quechua
queda
queen
queens
quel
quelle
quelque
querar
quercitrono
querko
quesada
quest
questar
question
questionar
questioni
questiono
questo
queue
quez
qui
quick
quickfacts
quieta
quieteso
quietigar
quijote
quik
quika
quilayo
quin
quincy
quingo
quinino
quinn
quino
quintana
quintesenco
quinteto
quinto
quintus
quiproquo
quirlar
quisling
quita
quitigar
quitigo
quito
quo
quociento
quodlibeto
quoi
quon
quorumo
quoto
r
ra
rabatar
rabato
rabin
rabino
rabio
raboto
race
racemo
rachel
racine
racion
racionala
racionalismo
raciono
racionoza
rada
radaro
radcliffe
radek
radiacar
radiaco
radiado
radiala
radiar
radiatoro
radii
radikala
radikale
radiki
radikifar
radiko
radio
radioaktiva
radioaktiveso
radiografar
radiografuro
radiumo
radiuso
rado
radom
radomsko
radono
radotar
radoto
raf
rafael
rafaela
rafaneto
rafano
rafinar
rafinita
rafino
rafto
rage
ragione
ragnar
rago
raguto
raha
rahaa
rahan
rahman
rai
rail
railroad
railway
raimundo
rain
rainer
raise
raison
raja
rajuntar
rak
rakar
rakennus
raketo
rakhine
rakito
rakkaus
rakontacho
rakontar
rakontas
rakonti
rakonto
ral
rale
raleigh
raliar
ralio
ralo
ralph
ram
rama
rami
ramio
ramiro
ramo
ramon
ramone
ramones
ramos
rampo
ramsay
ramsey
ran
ranca
rance
rancho
rand
randolph
randy
rang
range
ranger
rangi
rangizar
rangizesis
rangizita
rango
rank
rankorar
rankorder
rankorema
rankoro
rano
ransono
ranunkulo
ranuro
raoul
rap
rapecar
rapeco
rapid
rapida
rapide
rapidege
rapideso
rapids
rapiero
raportar
raportas
raporti
raportis
raporto
rapport
rapsodio
rapt
raptajo
raptar
raptisto
rapto
rara
rard
rare
ras
rasala
rashid
rasi
rasismo
raskalo
rasmussen
raso
raspar
rassemblement
rastaquero
rastar
rasteliero
rastilo
rat
rate
ratifikar
ratifikas
ratifikis
ratifiko
ration
rato
ratono
rau
rauka
raupo
rauta
rauto
ravel
ravelino
ravenna
ravi
ravino
ravisar
rawa
rawicz
ray
raymond
rayo
rayono
raza
razar
razilo
rbol
rcito
rd
rdoba
rdra
re
rea
reach
read
reading
ready
reagan
reaktar
reaktas
reakti
reakto
reaktoro
real
reala
realajo
reale
reales
realeso
realgaro
realigar
realigita
realigo
realismo
realista
reason
rebela
rebeleso
rebeli
rebelo
rebordo
rebuso
rec
received
recensar
recenso
recenta
recente
recepto
recevar
recevas
recevata
recevilo
recevis
recevita
recevo
recevoir
recevos
recidivar
recife
recipiento
reciproka
reciproke
recitar
recito
reconquista
record
recorde
records
red
reda
redaktar
redaktero
redaktis
redaktisto
redaktita
redakto
redatra
redding
rede
redemtar
redemto
redeskar
redi
redingoto
redistricting
reduito
reduktar
reduktita
redukto
reduto
redwood
reed
reeve
referar
referas
refere
reference
referesas
referi
referis
referita
refero
referovoto
reflektar
reflektas
reflekto
reflexo
refluxo
reform
reformar
reformi
reformis
reformita
reformo
refraktar
refraktara
refraktoro
refreno
refujanti
refujar
refujeyo
refujinti
refujis
refutar
refuzar
refuzas
refuzis
refuzo
regalar
regalo
regard
regardar
regardas
regardo
regato
regenerar
regenero
regenteso
regento
reggae
regia
regimento
regina
regio
region
regional
regionala
regioni
regiono
registragar
registragis
registragita
registrago
registri
registro
regnanta
regnanto
regnar
regnesis
regnis
regno
regoliso
regolo
regresar
regreso
regretar
regretinde
regreto
regulado
regulala
regular
regularo
regulas
regulatoro
reguli
reguliero
regulizar
regulo
reguloza
reguloze
rehabilitar
rehabilito
rei
reich
reichstag
reid
reims
reinhard
reino
reis
rejal
rejala
rejektis
rejeso
rejestr
reji
rejii
rejimi
rejimo
rejino
rejio
rejo
rejolando
rejuli
rejulo
rekamar
rekapitular
reklamacar
reklamaco
reklamar
reklamo
rekolecar
rekoleco
rekoliar
rekoltajo
rekoltar
rekolto
rekomendar
rekomendo
rekompensar
rekompenso
rekordi
rekordo
rekortar
rekrutar
rekruto
rekta
rektangula
rektangulo
rekte
rekti
rektifikar
rektifiko
rektigar
rekto
rektoro
rektumo
rekuperar
rekuperis
rekuperita
rekupero
rekursar
rekurso
rekuzar
rel
relat
relatanta
relatante
relatar
relatas
relate
relati
relatif
relating
relation
relations
relatis
relativa
relative
relativeso
relativo
relato
relayo
relegar
relevar
relevo
reli
relief
reliefo
relig
religiala
religieux
religii
religio
religion
religious
religioza
reliquio
relo
remar
remarkar
remarkas
remarkinda
remarkinde
remarkis
remarko
rembrandt
reme
remediar
remediilo
remedio
remettre
remilo
remisar
remiso
remo
remonstrar
remonstro
remorkar
remorko
remoro
remorsar
remorso
remove
remparo
remplasar
remplasas
remplasesis
remplasigar
remplasigo
remplasis
remplaso
remus
ren
renato
renault
rence
render
rendere
rendevuar
rendevuo
rendimento
rendre
rene
renegar
renesanco
renfrew
rengiyn
reni
renkontrar
renkontras
renkontri
renkontris
renkontro
rennes
reno
renoir
rent
rentiro
rento
renuncar
renuncas
renuncis
renunco
renversar
renversita
renverso
reostato
reparar
reparo
repartisar
repasar
repasilo
repastar
repasteto
repasto
repentar
reperar
reperkutar
reperopunto
repertorio
repetar
repeto
repleta
replikar
repliko
report
reports
repos
repozar
repozas
repozo
reprendre
represar
represita
represo
reprezalar
reprezalo
reprezentanta
reprezentanti
reprezentanto
reprezentar
reprezentas
reprezentata
reprezenteri
reprezentero
reprezentesas
reprezentis
reprezentita
reprezento
reprezenturo
reprimandar
reprimando
reprochar
reprocho
reptar
repteri
reptero
repu
repubblica
republic
republikala
republikana
republikani
republiki
republiko
repudiar
repugnanta
repugnar
repugneso
repugniva
repugno
repulsar
repulsis
repulso
reputar
reputeso
reputo
request
requiem
requizitar
requizito
rer
res
research
resercho
resident
residente
resigns
reskripto
resolution
resonar
resortisar
resortiso
resorto
respect
respektar
respektinda
respekto
respirado
respirala
respirar
respiro
respondar
respondas
respondis
respondo
responsanta
responsar
responsas
responsis
responsiva
responsiveso
responso
rest
restaji
restajo
restanta
restar
restas
restaurado
restaurar
restauresis
restauro
reste
restinta
restis
restitucar
restituco
resto
restorar
restorerii
restorerio
restriktar
restrikti
restriktita
restrikto
result
results
resursi
ret
retablo
retala
retaro
retenar
retenas
reteno
reti
retikulo
retino
reto
retorikala
retoriko
retorto
retosituo
retour
retraktar
retrakto
retretar
retretas
retretis
retreto
retrieved
retro
retrodonar
retrodonas
retrodonis
retroe
retroirar
retroiras
retroiris
retromarchar
retrosendar
retrovenar
retrovenas
retrovenis
retroveno
retsituo
return
retushar
reumatismo
reunion
reutec
reuters
rev
revanchar
revancho
revar
revelar
revelis
revelo
revendikar
revendikis
revendiko
revenir
revenui
revenuo
revere
reverencar
reverenco
reverso
review
revision
revista
revizar
revizita
revizo
revo
revokar
revokas
revokesas
revokesis
revokis
revokita
revoko
revoltar
revoltas
revolti
revoltinti
revoltis
revolto
revolucionala
revolucionar
revolucioneri
revolucionero
revolucioni
revoluciono
revolution
revolvero
revuar
revue
revui
revuo
rex
rey
reyes
reykjavi
reynolds
rez
reza
reze
rezervar
rezerveyi
rezerveyo
rezervi
rezervita
rezervo
rezervuyo
rezidala
rezidanti
rezidanto
rezidar
rezidas
rezidento
rezideyi
rezideyo
rezidis
rezido
rezidui
reziduo
rezignar
rezino
rezinoza
rezistado
rezistanta
rezistar
rezistema
rezistis
rezistiva
rezistiveso
rezisto
rezolvar
rezolvo
rezonado
rezonar
rezono
rezultaji
rezultajo
rezultanta
rezultar
rezultas
rezulte
rezulti
rezultinta
rezultis
rezulto
rezumar
rezume
rezumo
rezurektar
rg
rgen
rgio
rhea
rhenlando
rheno
rho
rhode
rhodes
rhythm
ri
ria
rias
ribbentrop
ribeira
ribeiro
ric
rica
ricardo
rice
rich
richa
richard
richards
richardson
richega
richelieu
richeskar
richeso
richie
richigar
richland
richmond
richter
rick
rico
rida
ridar
ride
ridegar
rider
ridetar
rideto
ridge
ridicar
ridikula
ridinda
rido
rie
riel
rielektesar
rielektesas
rielektesis
rielekto
rien
riestablisar
riestablisas
riestablisesis
riestablisis
rieur
rifacar
rifi
rifo
riganar
riganis
right
rightarrow
rights
rigida
rigideso
rigidigar
riglagar
riglo
rigo
rigoro
rigoroza
rijn
rika
rikaptar
rikaptas
rikaptis
riko
rikochar
rikomencar
rikonciliar
rikoncilio
rikonocar
rikonocebla
rikonquestar
rikonquestis
rikonstruktado
rikonstruktar
rikonstruktesis
rikonstruktis
rikonstrukto
rimbaud
rimborsar
rimborso
rimemorar
rimemorigar
rimeno
rimo
rin
rinaskar
rinasko
rinen
rinforcar
rinforci
ring
ringgold
ringi
ringo
rinocero
rinomizesis
rinomizis
rinomizita
rinovigar
rinovigebla
rinovigesis
rinovigo
rinsar
rio
rioja
riokupis
rios
riot
ripar
riproduktar
riproduktas
riprodukto
rir
rire
risaneskar
risanigar
rise
rises
riskar
riski
risko
riskoza
risolar
rispektiva
rispektive
risultato
rita
ritchie
rite
ritmala
ritmi
ritmo
ritmoza
rito
ritter
rituala
rituo
riunigo
rivala
rivaleso
rivali
rivalo
rivenar
rivenas
rivenis
riveno
river
rivera
rivereti
rivereto
riveri
rivero
rivers
riverside
riveto
rivi
rivido
rivie
riviera
rivivigar
rivivigo
rivo
rivovenas
rix
rizo
rizomo
rjesta
rjestys
rk
rka
rki
rky
rma
rme
rn
rna
rnberg
rne
rnu
ro
road
roald
robe
robert
roberto
roberts
robertson
robespierre
robic
robin
robineto
robinio
robinson
robles
robo
roboti
robotiko
roboto
robusta
roca
roch
rocha
rochelle
rochester
rock
rockwell
rod
roda
rodano
rodar
roderi
rodero
rodezia
rodney
rodo
rododendro
rodolfo
rodomonto
rodri
rodrigo
rodrigues
roger
rogers
rogo
roh
roi
rojas
rokajo
rokambolo
roki
roko
rokoko
rokoza
rola
roland
role
rolero
rolf
roli
roll
rolling
rolls
rolo
roly
rom
roma
romain
romala
roman
romana
romanala
romance
romancha
romanco
romani
romania
romanisto
romano
romanos
romanovka
romantika
romantikismo
rombo
rome
romero
rommel
romulus
ron
ronald
ronda
rondatra
rondelo
rondo
rondonia
ronkar
ronnie
roof
room
roosevelt
root
rope
roque
roraima
ros
rosa
rosbifo
rose
roseau
rosen
roses
rosetta
roskilde
rosmarino
rosmaro
roso
rospo
ross
rossi
rosstat
rostar
rostov
rostro
rot
rota
rotacado
rotacanta
rotacar
rotacas
rotaco
rotano
rotation
roth
roti
rotifero
roto
rotolar
rotolo
rotondo
rotoro
rotterdam
rotulo
roue
rouen
rouge
rough
round
rousseau
rousseff
route
routledge
rovo
row
roy
royal
royalisto
royce
roz
roza
rozario
rozea
rozlauro
rozo
rpa
rquez
rrez
rsia
rss
rt
rta
ru
ruanda
rubando
rubarbo
rubens
rubino
rubio
rubriko
ruda
rude
rudeso
rudimenta
rudimento
rudolf
rue
rufa
rufino
rufus
rugbio
rugo
rugoza
ruhollah
ruhr
ruin
ruinar
ruini
ruinita
ruino
ruiz
ruko
ruktar
rukto
rukular
rul
rulado
rular
rule
rulers
ruleto
rumana
rumania
rumaniana
ruminar
rumo
rumoro
rumpo
run
runeberg
runner
runo
ruoka
ruptar
ruptas
ruptebla
ruptesar
ruptis
ruptita
rupto
rupturo
rural
rurala
ruraltipa
rurani
rurano
ruro
rus
rusa
ruse
rush
rusi
rusia
rusian
rusiana
rusiano
rusiec
rusko
ruso
russell
russia
russian
russo
rustika
rusto
ruth
rutherford
rutino
ruto
ruud
ruz
ruzar
ruzema
ruzo
ruzoza
rwanda
ry
ryan
ryazan
ryhma
rz
rza
rze
rður
s
sa
saada
saama
saarinen
saattaa
saavedra
saba
sabah
sabato
sabbath
sabeliko
sable
sablo
sabloza
sabordo
sabri
sabro
sac
sacerdoti
sacerdoto
sache
sachs
saciar
saciesar
sacramento
sacre
sad
sadat
saddam
sade
sadismo
safety
safiro
safrano
saga
sagaca
sagasta
sahara
sahel
said
saigon
sail
saimo
saint
saipan
saja
sajeso
sakarino
saketo
sako
sakra
sakramento
sakrifikar
sakrifiko
sakrilejar
sakristo
sakrumo
sal
sala
salado
saladuyo
salah
salamanca
salamandro
salariar
salarii
salario
salazar
saldar
sale
saleh
salem
sali
saliajo
salianta
saliar
saliko
salinas
saline
salino
salisbury
salivo
salizar
salizita
salle
sally
salman
salmono
salo
salome
salomon
saloni
salono
saloza
salpetro
salpo
salsa
salsifio
salt
salta
saltado
saltar
saltis
salto
salubra
salutar
salutara
saluto
salvador
salvadorana
salvanto
salvar
salvatore
salvear
salveso
salvo
salyut
salzburg
sam
sama
samanoma
samara
samarkand
samasexua
samatempe
samayare
samba
sambuko
same
sami
samideani
samideano
samnoma
samoa
samoana
samoani
samsung
samtempe
samuel
san
sana
sanaa
sanatorio
sancho
sancionar
sancioni
sanciono
sand
sanders
sandinisti
sandra
sandro
sandwich
sandwicho
sandy
sanesala
saneso
sanesoflego
sang
sangala
sangifar
sango
sangoza
sanguisugo
sankt
sans
sanskrita
sant
santa
santakruco
santalo
santana
santander
sante
santi
santiago
santino
santo
santos
santuario
sao
sapajuo
sapar
sapiens
sapir
saponario
sapono
saporar
saporo
saporoza
sapporo
saprofito
sapto
sar
sara
saraceno
sarah
sarajevo
sarawak
sarcelo
sardinia
sardino
sardonika
sargaso
sargent
sargsyan
sarigo
sarkasmo
sarklar
sarko
sarkofago
sarmento
sarney
sarpaneva
sartre
sat
sata
sataa
satano
sate
sateliti
satelito
satino
satirala
satire
satiro
satiruso
satisfacar
satisfaco
sato
saturar
saturdio
satureso
saturita
saturn
saturno
sau
sauco
saud
saudi
saul
sauno
sauvage
sava
savano
savanta
savar
savas
savata
save
saveskar
saveskis
savigar
savina
savis
savo
savoir
savorio
savoya
savurar
saw
sawyer
saxofonisto
saxofono
saxona
saxoni
saxonia
say
says
scala
scale
scar
scg
scha
schach
schengen
schiff
schiller
schlaf
schlag
schleswig
schlu
schmidt
schnee
schneider
scho
scholz
school
schopenhauer
schraube
schreiben
schrift
schro
schu
schubert
schule
schuman
schumann
schutz
schwarz
schwer
science
sciences
scientific
scienza
scots
scott
scratch
screen
screw
scuola
se
sea
sean
search
seat
seattle
sebastia
sebastian
sebo
sec
secioni
seciono
second
secondo
seconds
secret
section
security
sed
sedentaria
sedgwick
sediciar
sedicii
sedicio
sedimenti
sedimento
sedo
seduktanta
seduktar
seduktiva
see
seed
sees
segar
segilo
segli
segliro
seglo
segmenti
segmento
segregacar
segregaco
segun
segunda
segundo
segunvole
seguro
sei
seido
sein
seina
seine
sejornar
sejorno
sek
seka
sekalo
sekar
seko
sekondar
sekrecar
sekrecas
sekreta
sekretajo
sekretariato
sekretario
sekrete
sekreto
sekto
sektori
sektoro
sekulara
sekundara
sekundi
sekundo
sekura
sekure
sekureso
sekurigar
sel
selakto
selassie
selektado
selektar
selektas
selektesas
selektesis
selektis
selektita
selekto
selenio
self
selka
sell
selma
selo
selva
sem
semaforo
semana
semanala
semani
semano
semantikala
semantiko
semar
semblanta
semblante
semblar
semblas
semble
semblis
semblo
semestro
semida
semido
seminario
semini
semino
seminole
semiotiko
semlo
semolo
sempervivo
sempre
sempreverda
sen
senarma
senatani
senatano
senato
sence
sencesa
sencese
senci
senco
send
sendajo
sendar
sendas
sendata
sendenta
sendependa
sendesas
sendesis
sendis
sendita
sendo
sendube
seneca
senegal
senegalana
senfina
senhora
senila
seniora
seniorala
senioro
senkolora
senkompata
senkuraja
senkurajigar
senlimita
senlitora
senmakula
senmezura
senmova
sennombra
senodora
senpartisa
senpudora
senreflekta
sens
sensaciono
sensala
sensapora
sense
sensencajo
senses
senshama
sensi
senso
sensuala
sensucesa
sensucese
sent
sentado
sentar
sentas
sentebla
sentema
sentemeso
sentenco
senti
sentidos
sentima
sentimentala
sentimenti
sentimento
sentinelo
sentir
sentis
sentiva
sento
senvalora
senviva
senvoca
senza
seoul
sep
sepacent
sepadek
separar
separas
separata
separate
separesas
separesis
separeso
separis
separita
separo
sepesma
sepio
sepoy
septembro
septicemio
septimius
sepultar
sepulteyo
sepulto
sequanta
sequantaro
sequante
sequanti
sequanto
sequar
sequas
sequata
seque
sequestrar
sequinta
sequis
sequita
sequo
sequoyo
ser
sera
serafo
serba
serbala
serbatano
serbi
serbia
serbiana
serchado
serchante
serchar
serchas
serchis
sercho
serena
serenado
sereneso
serfeso
serfo
serge
sergei
sergeyevich
sergio
sergipe
sergius
serie
series
serii
seringo
serino
serio
serioza
serioze
serjento
sero
serpenti
serpento
serpo
serpolo
serra
serrano
seruro
servadi
servado
servalo
servant
servanto
servar
servas
serve
servesas
servi
service
servico
servir
servis
servistaro
servistino
servisto
servitudo
servo
ses
sesgar
sesiono
set
sete
setzen
seul
seven
severa
severe
severeso
severus
seviciar
sevilla
seward
sex
sexo
sextanto
sexual
sexuala
sexuale
sexualeso
sexuo
seycheli
seychelles
seymour
sezamo
sezonala
sezoni
sezono
sf
sfera
sferatra
sfero
sfintero
sfinxo
sh
sha
shabab
shablono
shabrako
shade
shaft
shafto
shah
shaho
shakalo
shake
shakespeare
shako
shakoludisto
shakoludo
shakto
shalmo
shalo
shaloto
shalupo
shamar
shamigar
shaminda
shamo
shamoto
shamoza
shampunar
shan
shancelar
shanghai
shankar
shannon
shape
shaped
shapko
sharado
share
sharia
sharif
sharko
sharlatano
sharon
sharp
sharpo
shaw
she
sheet
sheffield
shehu
sheikh
sheiko
shek
sheklo
shelby
shelbyville
sheldon
shell
shelley
shelo
shepard
sheridan
sherwood
shi
shia
shibro
shifono
shikanar
shikano
shildo
shinko
ship
ships
shipunovo
shirley
shirmar
shirmas
shirmata
shirmilo
shiva
sho
shoe
shoes
shoguno
shokar
shoko
shoot
shooting
shop
shopping
shore
shores
short
shot
shovar
shovelagar
shovelo
shovina
shovinismo
shovinisto
show
shrapnelo
shu
shui
shulkin
shultro
shuo
shut
shutro
si
sia
siad
siam
siarhiey
sibelius
siberia
siberiana
sibirski
sic
sica
sich
sicilia
siciliana
sicilii
sick
sid
sidanta
sidar
sidas
side
sident
sideskar
sideyi
sideyo
sidi
sidili
sidilo
sidney
sido
sie
siedlce
siedliska
siegbahn
siegfried
siejar
siejas
siejis
siejo
siena
sieradz
sierra
siestar
siesto
siete
sifiliso
siflar
siflilo
siflo
sifono
sig
sigareto
sigaro
sight
sigismund
siglar
siglo
sigmund
sign
signal
signalar
signali
signalo
signatar
signatas
signatesas
signatesis
signatis
signatita
signato
signature
signaturo
signe
signi
signifikanta
signifikante
signifikar
signifikas
signifiki
signifikis
signifikiva
signifiko
signo
signs
sihanouk
siirta
sika
sikeskar
sikeso
sikigar
sikigita
siklo
sikomoro
sil
silabi
silabo
silencar
silence
silencigar
silenco
silencoza
sileno
siles
silexo
silezia
silfo
silico
silikato
siliko
siliquo
silk
silka
silkeborg
silko
silla
silma
silogismo
silueto
siluro
silva
silvano
silver
silvester
silvio
silvo
sim
sima
simbioso
simbolala
simboli
simbolismo
simbolizar
simbolizas
simbolo
simeon
simetra
simetreso
simfonii
simfonio
simila
simile
similesar
similesas
similesi
simileso
simili
similigar
simio
simo
simon
simone
simpatiar
simpatio
simpla
simple
simpleso
simpligita
simpson
simptomi
simptomo
simular
simulo
simultana
sin
sinagogi
sinagogo
sinai
sinapo
since
sincera
sincere
sincereso
sinclair
sindh
sindikatano
sindikati
sindikato
sindiko
sindromo
sine
sinekdoko
sinekuro
sing
singapore
singapur
singer
singh
singla
singladia
singladie
singlayare
single
singlu
singlutar
singulara
singulareso
singularo
siniorino
sinioro
siniorulo
sinistra
sinistrana
sinistre
sinkar
sinkas
sinkis
sinko
sinkopar
sinkopo
sinkretismo
sinkrona
sino
sinodo
sinonima
sinonimo
sinso
sint
sintaxala
sintaxo
sintezala
sintezar
sintezo
sintra
sinuo
sinuoza
sinusito
sinuso
sinusoido
sio
siorino
sioro
siorulo
sioux
sir
siracusa
sire
sireno
siria
siriana
siriani
siringo
sirius
siroko
siropo
sis
sisa
sisadek
sisar
sisesma
sismo
sistema
sistemala
sistematiko
sistemi
sistemo
sister
sisters
sit
sita
site
sitelo
sith
sito
situacioni
situaciono
situar
situas
situata
situation
situesas
situesi
situesis
situeso
situi
situita
situo
sive
sivo
sivu
sivuun
six
sixtus
sizar
size
sjo
sjælland
sk
ska
skabelo
skabio
skafandro
skalaro
skalio
skalo
skandalar
skandalo
skandar
skanderbeg
skandinavia
skandinaviana
skapulario
skapulo
skarabeo
skarlatino
skarsa
skeleti
skeleto
skemo
skeno
skeptika
skeptikismo
skermar
skermistino
skermisto
skermistulo
skermo
sketado
sketar
ski
skie
skierniewice
skikurar
skin
skio
skisar
skismo
skiso
skist
skisuro
skizofrenio
sklavala
sklaveso
sklavi
sklavigar
sklavo
sko
skol
skolala
skolani
skolano
skolastika
skolastikismo
skolastiko
skolestro
skoli
skolo
skolopendro
skope
skopi
skopje
skopo
skorbuto
skorio
skorpiono
skorzonero
skota
skotia
skotiana
skovgaard
skrachar
skrachuro
skrapar
skrapero
skreno
skribachar
skribado
skribaji
skribajo
skribar
skribas
skribata
skribe
skribesas
skribesis
skribis
skribisti
skribisto
skribita
skribo
skriburi
skriburo
skriptar
skriptis
skriptisti
skriptistino
skriptisto
skriptita
skripto
skrubino
skrubo
skrupulo
skrupuloza
skudo
skultar
skultistino
skultisto
skultita
skulto
skulturi
skulturo
skunero
skurar
skurelo
skuro
sky
skylab
skywalker
slam
slamo
slango
slava
slavi
slavonia
sleep
sligo
slingo
slip
slobodan
slogano
slough
slovaka
slovakia
slovakiana
slovena
sloveni
slovenia
sloveniana
slow
slupo
sluzi
sluzo
sm
sma
smaliani
small
smalto
smell
smeraldo
smet
smith
smithsonian
smolarnia
smolensk
smooth
smyrna
snapar
sniflar
snortar
snow
so
soares
sobieski
sobra
sobre
sobreso
sochaczew
social
sociala
socialdemokrata
socialdemokrati
sociale
socialismo
socialist
socialista
socialisti
socialisto
socie
sociedad
societa
societi
societo
society
socii
socio
sociol
sociolinguistiko
sociologio
sociologo
sociso
sodassa
sodo
sodomiar
sofao
sofia
sofismo
sofistiko
sofisto
sofito
sofiya
soft
soi
soit
soklo
soko
sokolniki
sokoło
sokrates
sokursar
sokurso
sol
sola
solano
solar
soldados
soldar
soldat
soldati
soldato
soldier
soldiers
sole
soleil
solena
solene
solenoido
soleo
soli
solicitar
solida
solidara
solidareso
solideso
solidi
solidigar
solidigo
solido
solio
solipsismo
solitara
solitareso
solitero
solncevo
solo
solomon
solstico
solu
solution
solvar
solvebla
solventa
solvi
solvo
solvuro
somali
somalia
somaliana
somalilando
some
someone
somerala
someri
somero
something
somito
somme
somnolar
somoza
son
sonalio
sonar
sonato
sondar
sondilo
soneto
song
songhai
songs
soni
sonia
sonigar
sonjar
sonjo
sonner
sonny
sono
sonora
sony
soo
sophia
sophie
soporto
soprano
sorba
sorbeto
sorbi
sorcado
sorcar
sorcero
sorcisto
sorco
sordida
sordidajo
sordidigar
sordino
sorgar
sorgema
sorgo
sorgoze
sorgumo
soria
sorsa
sort
sorte
sorti
sortir
sorto
sosa
sosnovi
sospirar
sost
sot
sota
soto
sotto
soul
sound
soup
source
sous
sousa
south
southeast
southern
sovaja
soviet
sovieta
sovietia
sovietian
sovietiana
sovietiani
soyo
soyuz
sozio
sp
spa
spacala
space
spaci
spaco
spaconavo
spacoza
spado
spain
spanielo
spanish
spano
sparar
sparegema
sparema
sparta
sparviero
spasmo
spassk
spazio
spe
speak
speaking
speca
specala
specalajo
specale
specaleso
specaligata
specaligita
specalisti
specalisto
speci
special
specie
species
specifika
speciganta
specimeni
specimeno
speco
speech
speed
spegulo
spektakli
spektaklo
spektanti
spektanto
spektar
spektro
spektroskopio
spekulado
spekular
spekulo
spelto
spencer
spensar
spensi
spenso
spermaceto
spermatozoido
spermo
spi
spice
spici
spicizar
spico
spiegel
spiel
spiko
spinato
spindelo
spino
spinoza
spionado
spionar
spionero
spionisto
spirala
spiralo
spireo
spirit
spiritala
spiriti
spiritismo
spirito
spirits
spiro
splendida
splendideso
spleno
splinto
splisar
split
splito
spokane
spoko
spoliado
spolianto
spoliar
spolias
spoliesis
spoliis
spolio
sponjatra
sponjo
spontana
spontane
spontaneso
sporadika
sporno
sporo
sport
sporta
sportal
sportala
sporti
sporting
sportisti
sportisto
sporto
sports
spot
spoto
spozigis
spozino
spozis
spozo
spozulo
sprache
spricar
sprico
spring
springar
springfield
springo
springs
sproso
spular
spumo
sputar
sputnik
squadro
squami
squamo
square
squatar
squez
squilo
sr
sredni
sri
sro
ss
ssa
ssangyong
ssel
sseldorf
ssig
ssigkeit
st
sta
stabila
stabileso
stabiligar
stablo
stabo
stacanta
stacar
stacas
staceskar
stacionara
stacioni
staciono
stacis
stadii
stadio
stadtbahn
stafford
stafisagro
stage
stagnanta
stagnar
stagno
stakiso
stala
stalin
stalingrad
stalo
stamford
stamino
stampar
stampilo
stampuro
stan
stanco
stand
standar
standard
standardiero
standardo
standas
standi
stando
stanford
stangi
stango
stanislav
stanisław
stanisławo
stanley
stano
stanton
staplo
star
starchar
starchita
stare
stark
starr
stars
start
startar
startis
starto
stary
stasieva
staszo
stat
statal
statala
state
staten
states
statestro
stati
statiko
station
statistical
statistics
statistika
statistikala
statistiki
statistiko
stativo
stato
statoro
statueto
statui
statuo
statura
staturo
status
statuti
statuto
statystyczny
stay
ste
steam
stearino
stearns
steatito
stebar
steel
stefa
stefan
stefano
stefanus
stehen
stein
steiner
stekar
stelaro
steleo
steli
stella
stelle
stellen
stelo
step
stephen
stepi
stepo
steps
stereotipar
sterila
sterileso
sterko
sterling
stern
sternar
sternbild
sternumo
sternutar
stero
steve
steven
stevens
stevenson
stevie
stewart
sti
stica
sticas
stick
stico
stif
stifa
stifto
stigmato
stila
stileto
stili
stilistiko
still
stilo
stimular
stimulas
stimulis
stimulita
stimulivo
stimulo
stipendio
stipeto
stipito
stipo
stipular
stipulo
stivar
sto
stochowa
stock
stockholm
stockton
stoff
stoffa
stofi
stofo
stoika
stoki
stoko
stolono
stomach
stomakala
stomako
stona
stonagar
stone
stonego
stones
stoni
stono
stonojetilo
stop
stopar
stopilo
stor
store
stories
storm
storo
story
stoterar
stra
straba
strada
stradi
strado
straight
strandar
strangular
stranja
stranjera
stranjeri
stranjero
stranjeso
straso
strategiala
strategii
strategio
strati
strato
stratosfero
strauss
stravinski
stream
street
streketo
streko
strength
streta
stretajo
strete
strickland
stridar
strigo
strii
striizar
strikar
strike
strikes
striki
striko
strikta
strikte
strikteso
string
stringero
strio
strioza
strip
stro
stroessner
strofo
strokar
stroke
stroki
stroko
strong
stropo
strucho
structure
struggle
strukturala
strukturi
strukturo
strum
strumento
strzyz
stu
stuart
student
studenti
studento
students
studiado
studianti
studiar
studias
studiata
studies
studieyo
studii
studiis
studiisti
studiisto
studio
studiuro
study
stufar
stuifbergen
stuko
stulego
stulo
stulta
stultajo
stulteso
stulto
stumpo
stuntar
stupida
stupidajo
stupide
stupideso
stupidigar
stupido
stupo
stuporar
stuporo
sturgo
sturmar
sturmo
sturno
stuttgart
stuvo
style
su
sua
sub
suba
subdividesas
subdividuri
subdividuro
sube
subgrupo
subie
subisar
subisas
subisis
subisita
subita
subite
subject
subjektala
subjekti
subjekto
subjenro
subjuntivo
subkontinento
sublima
submara
submersar
submisar
submiseso
submisionar
submisita
submiso
suboficiro
subordinar
subordinita
subornar
suborno
subreptar
subreto
subsidiar
subskribas
subst
substancala
substance
substanci
substanco
substantivi
substantivo
substitucar
substituco
substrukturi
substrukturo
subtenar
subtenas
subtera
subterfujo
subtila
subtile
subtileso
subtropikala
suburbala
suburbi
suburbo
subvencionar
subvenciono
subversar
subverso
subvesto
sucedanta
sucedante
sucedanti
sucedanto
sucedar
sucedas
sucedesas
sucedesis
sucedinto
sucedis
sucedo
sucesanta
sucesar
sucesas
sucese
sucesi
sucesis
suceso
sucesoza
sucesoze
such
suciar
sucii
sucino
sucio
sucre
sud
suda
sudafrika
sudafrikana
sudal
sudala
sudan
sudario
sude
sudesta
sudeste
sudo
sudorifar
sudoro
sudwesta
sudweste
sue
sueda
suede
suedi
suedia
suedian
suediana
suez
suffer
suffiksi
suffix
suffolk
suficanta
suficante
suficar
suficas
sufixi
sufixo
sufl
suflar
suflas
sufleo
suflo
sufokar
sufoko
sufrado
sufrar
sufras
sufris
sufro
sugar
sugestar
sugestas
sugestis
sugesto
sui
suicida
suicide
suin
suis
suisa
suisi
suisia
suisiana
suit
suite
suivre
sujet
sukarno
suko
sukombar
sukoza
sukra
sukrizita
sukro
sukrokano
sukroza
sukusar
sukuso
sul
sulfato
sulfido
sulfo
suli
sulkea
sulko
sulla
sullivan
sulo
sultan
sultanio
sultano
sultat
sum
sumaria
sumatra
sume
summary
summer
summit
sumnar
sumner
sumno
sumo
sumter
sun
sunala
sunday
sundio
sung
sunni
suno
sunofloro
sunolumo
sunoza
sunrise
suo
suocidant
suocidar
suocidas
suocidint
suocidis
suocido
suolo
supear
supeo
super
supera
superba
superbe
superbeso
supere
superesar
supereso
superflua
superior
superiora
superioreso
superioro
superirar
superiras
superiris
superlativo
superliga
supernatura
supernovo
superstico
suplantar
supleanto
suplear
suplementa
suplementala
suplemento
suplikar
supo
suportanta
suportanti
suportar
suportas
suporteri
suportesis
suportilo
suportis
suportita
suporto
supozajo
supozar
supozas
supozata
supozeble
supozis
supozita
supozite
supozitorio
supozo
support
supra
suprajo
supre
suprega
supremes
supresar
supresesis
supresis
supreso
supro
sur
sura
surbaze
surda
surdeso
surdigar
sureala
surealismo
surfacala
surface
surfaci
surfaco
surg
surinam
surjeto
surkreskajo
surkruto
surmaniko
surmenar
surmuleto
surnomacho
surnomizesis
surnomizita
surnomo
suro
surogato
surpass
surpozar
surprise
surprizar
surprizo
surtuto
survey
surveyar
surveyo
surveyor
survoye
sus
susan
suskriptar
suspektar
suspektinda
suspektito
suspekto
suspendar
suspendita
suspendo
suspensar
suspensas
suspensiono
suspensis
suspenso
sussex
sustenar
sustenebla
sustenilo
susteninda
susteno
sustracionar
sustraciono
sustraktar
susurar
sutano
sutar
sutherland
suto
suu
suunta
suur
suuri
suveniro
suverena
suvereneso
suvereni
suvereno
suwałki
suzanne
suzdal
suzuki
sven
svetlana
swabro
swahilia
swan
swazilando
sweet
swift
swimming
swing
sword
sy
syda
sydney
sylvester
sylvia
syo
syracuse
syria
syrja
syste
system
systems
syva
szadek
szadkowice
szczerco
sze
szlo
słupca
słupia
t
ta
tabako
tabano
tabelo
tabernaklo
table
tableau
tablero
tablissement
tablo
tabloteniso
tablotuko
tabuleto
tabulo
tabureto
tacar
tacema
tache
taco
tadeusz
tadjoura
tae
taekwondo
taft
tag
tage
tago
tahansa
tahiti
tai
tail
tailandana
tailando
taille
tain
taipei
tait
taiwan
tajikistan
takaisin
take
taken
takes
takia
takimetro
tako
taktiki
taktiko
takto
tal
tala
talamaniere
talbot
tale
talento
talentoza
taliar
talibani
talio
taliono
talioro
talismano
talk
talking
talko
tallinn
talo
talon
talono
talpa
talpo
taluso
talvego
tam
tama
tamar
tambie
tamburi
tamburisto
tamburo
tamen
tamil
tampa
tampar
tampere
tampono
tamtamo
tan
tanana
tancredo
tandem
tang
tanganyika
tangento
tango
tanino
tanki
tanko
tano
tant
tanta
tantalo
tante
tanto
tanzania
taoiseach
tapa
tapar
tape
tapeto
tapiso
tapotar
tarantulo
tarawa
tarda
tarde
tardesar
tardeskar
tardigar
tarifo
tarja
tarkka
tarno
taro
taroko
tarso
tartaro
tarto
tartu
tartufo
tarzan
tas
taski
tasko
tasman
tasmania
taso
tastar
taste
tat
tata
tatar
tatari
tatarstan
tatempa
tatempe
taudin
tauro
tauti
tavalla
tavara
tavaran
tavares
taverno
tax
taxar
taxi
taxii
taximetro
taxio
taxo
tayare
taylor
tayo
tazio
tbilisi
te
tea
team
tear
tears
teatr
teatraji
teatrajo
teatrala
teatri
teatro
teatt
teau
teborg
tech
techn
technical
technology
tecn
tecnol
ted
tedanta
tedar
tee
teen
teeth
tegar
tegema
tegucigalpa
tegulo
tegumento
tehda
tehran
tehta
tehty
teil
teixeira
tejada
tek
tekema
tekija
tekn
teknikala
tekniki
teknikisto
tekniko
teknologiala
teknologii
teknologio
teko
teksti
tekstia
tekstin
tekto
tel
tela
telecom
telefonala
telefonar
telefonilo
telefono
telegrafar
telegrafilo
telegrafo
telegramo
telegraph
telekomuniki
telekomuniko
teleskopo
televidilo
television
televizion
televizionala
televiziono
tell
telo
tem
temato
tement
temerara
temi
temo
tempa
tempala
tempale
tempe
temperamento
temperar
temperaturala
temperaturi
temperaturo
temperema
tempero
tempestar
tempesti
tempesto
tempestoza
tempi
temple
templi
templo
tempo
tempope
temporala
temporisar
temporo
temps
temptations
ten
tenaca
tenalio
tenar
tenaro
tenas
tencho
tendance
tendencar
tendencas
tendenci
tendenco
tendency
tendenza
tender
tendino
tendo
tendre
tenebro
tenebroza
tener
tenera
tenere
tenerife
teng
tenio
tenir
tenis
tenisistino
tenisisto
tenisistulo
teniso
tennessee
tennis
teno
tenochtitla
tenoro
tensar
tenseso
tensi
tensita
tenso
tentakulo
tentar
tento
tenua
tenue
teo
teodoro
teogonio
teokratio
teologiala
teologiisto
teologio
teologo
teoremo
teoriala
teoriale
teorii
teoriisto
teorio
teozofio
tepida
teplico
ter
tera
terakoto
terala
terapiala
terapio
teraso
teratologio
terceto
terciara
terebinto
terence
tereni
tereno
teresa
teresin
terglitadi
terglitado
terino
teritoriala
teritorii
teritorio
term
termala
termi
terminaro
termini
termino
termisto
termito
termo
termodinamikala
termodinamiko
termometro
terms
tero
terorar
teroriganta
terorigar
terorigiva
terorismo
terorist
terorista
teroristi
teroristo
teroro
terovenar
terpentino
terpleno
terpomi
terpomo
terra
terrain
terre
terremoto
terreno
terry
tertremo
tervenas
terveno
teryt
tes
test
testa
testamentala
testamentar
testamento
testi
testikulo
testo
tetraedro
tetraso
texajo
texala
texar
texas
texo
text
texte
texti
texto
texuri
texuro
tezi
tezo
th
tha
thai
thailand
thames
than
thani
that
thatcher
the
theat
theater
theatre
their
theme
then
theo
theodor
theodore
theodorik
theodoros
theodosius
theol
theory
there
theresa
they
thin
thing
things
think
third
this
thomas
thompson
thomson
thor
thorn
thought
thousand
thousands
three
through
throw
thu
thunberg
thunder
ti
tia
tiaro
tiberius
tibet
tibetana
tibio
tica
ticino
ticket
tico
tide
tie
tiempo
tien
tienne
tier
tiere
tierra
tieta
tieteen
tifo
tifoido
tifono
tiger
tigri
tigris
tigro
tihonov
tijuana
tikar
tiki
tiko
til
tila
tilapa
tildo
tilio
till
tillore
tim
tima
timar
timas
timbalo
timbro
timbuktu
time
timeline
timenda
times
timiano
timida
timidigar
timinda
timis
timo
timono
timor
timothy
timpano
timur
timuso
tin
tina
tindro
tineo
tinio
tinklar
tinlauro
tino
tintar
tinto
tip
tipa
tipala
tipi
tipo
tipogr
tipografo
tipton
tipulo
tique
tir
tiradentes
tirado
tirane
tirano
tirar
tire
tirer
tirita
tiro
tirol
tiros
tirso
tiso
tisui
tisuo
titanic
titanio
titano
titel
titilar
title
tito
titolo
titre
tituli
tituliero
titulizar
titulizita
titulo
titus
tizano
tnp
to
toalo
tobago
tobias
tobruk
tocantins
today
todd
todeksi
todo
todos
toffe
tofo
together
togo
toile
toilette
toimia
toinen
toiseen
toiselle
toisen
toisiaan
toisiinsa
tokio
tokugawa
tokyo
toldo
toledo
tolerar
tolerebla
tolerema
toleremeso
tolero
tolkien
toll
tolo
toluca
tom
toma
tomar
tomas
tomaszo
tomato
tombako
tombalbaye
tombe
tomber
tombeyo
tombi
tombo
tome
tomi
tommaso
tommy
tomo
tomografio
tomorrow
ton
tonala
tondar
tondrar
tondro
tonga
tongana
tongue
toni
tonika
tono
tony
too
tool
tooth
top
topazo
topinamburo
topo
topografio
topologio
toquinho
torako
torcho
tordar
tordesillas
tordita
tordo
toreadoro
torefaktar
torento
torfo
torida
torino
tormentar
tormentilo
tormento
tornadi
tornado
tornar
tornasolo
toro
torono
toronto
torpedi
torpedo
torporar
torporo
torre
torres
torrijos
torso
tortikolo
torto
tortugi
tortugo
torun
tos
toskania
tostar
tosto
tot
tota
total
totala
totale
totalizatoro
totalo
tote
toto
touch
toujours
toulouse
tour
toure
tourism
tourist
tourner
tours
tous
toussaint
tout
toute
toutes
tower
town
towns
township
toxika
toxikeso
toxikologio
toxino
toy
tr
tra
trabo
traci
traciono
track
traco
tracy
trad
trade
tradicional
tradicionala
tradicionale
tradicionar
tradicioni
tradiciono
traduit
tradukar
tradukesis
tradukis
tradukisto
tradukita
traduko
tradukuri
tradukuro
trafiko
trage
tragediala
tragedio
trahizar
trahizo
traianus
trail
train
traino
trairanta
trairar
trairas
trairis
trait
traite
traiti
traito
trajektorio
trajeto
trakar
trakeo
trakia
trako
trakomo
traktado
traktar
traktas
traktata
traktato
traktesas
traktis
traktita
trakto
traktoro
tram
tramo
tramplar
trampolino
tramveturi
tramveturo
tramvoyo
tranar
trancar
trancendanta
tranchar
tranchei
trancheo
tranchiva
trancho
tranquila
tranquile
tranquileso
trans
transaktar
transakto
transdnistria
transe
transepto
transferar
transferas
transferesis
transferis
transfero
transformar
transformas
transformesis
transformi
transformis
transformo
transilvania
transirar
transiras
transiris
transiro
transistoro
transitala
transitiva
transito
transkaukazia
translacar
translaci
translaco
translate
translation
transliterigado
transliterizita
translojar
translojas
translojis
translucida
transmara
transmis
transmisado
transmisar
transmisas
transmisata
transmisesas
transmisesis
transmisis
transmiso
transmission
transparar
transpirar
transport
transportado
transportanta
transportar
transportas
transportata
transportesas
transportesis
transporti
transportis
transportita
transporto
transportonavi
transportonavo
transpozar
transvaal
transversa
transverse
transvivar
transvivas
transvivinti
transvivis
transvivo
traore
trapezo
trapezoido
trapo
tras
trasar
trato
traumato
traurala
trauro
travail
travel
traveo
travers
traverseto
traverso
travertino
travestiar
travestio
tre
treat
tree
trefo
treiben
treki
treko
treliso
tremao
tremar
tremi
tremo
trempar
trempita
tremulo
treni
treno
trenton
trepano
trepidar
tres
tresayar
treso
tresto
trezoro
tri
triacent
triadek
trial
triangula
triangulo
tribologio
tribuala
tribui
tribular
tribunali
tribunalo
tribune
tribuno
tribuo
tributo
triciklo
tridento
trie
trier
triesma
triesmafoye
trieste
trifolio
trifoye
trigonometrio
triimi
triimo
trikino
trikotar
trilar
trilogio
trimble
trimestro
trinidad
trinity
trio
trioleto
triopla
trip
tripo
tripoli
triptiko
triremo
trismo
trista
tristeso
tritono
triturar
triumf
triumfar
triumfo
triumviraro
triuno
triviala
tro
troa
trocki
troe
trofeo
troglodito
trogo
troick
trois
troleo
troleobusi
trombo
trombono
trompar
tromper
trompiva
trompo
trono
troops
trop
tropical
tropikala
tropiko
tropo
troposfero
trotar
trotuaro
trouble
troupe
trouver
trovar
trovas
trovata
trovebla
trovesar
trovesas
trovesis
trovis
trovita
[...]
