!
"
#
##0
##1
##10
##11
##12
##13
##14
##15
##16
##17
##18
##19
##2
##20
##21
##22
##23
##24
##25
##26
##27
##28
##29
##3
##30
##31
##32
##33
##34
##35
##36
##37
##38
##39
##4
##40
##41
##42
##43
##44
##45
##46
##47
##48
##49
##5
##50
##51
##52
##53
##54
##55
##56
##57
##58
##59
##6
##60
##61
##62
##63
##64
##65
##66
##67
##68
##69
##7
##70
##71
##72
##73
##74
##75
##76
##77
##78
##79
##8
##80
##81
##82
##83
##84
##85
##86
##87
##88
##89
##9
##90
##91
##92
##93
##94
##95
##96
##97
##98
##99
$
%
&
'
(
)
*
+
,
-
.
/
0
00
000
0000
0001
00027777777777777778
00035488235475000004
001
002
00232
0023597372167
003
0036
004
005
00546
006
007
008
009
01
010
011
013
014
016
016666666666666666
02
020
021
024
026
028
0292
03
030
031
033
04
040
041
043
045
0469088
047
048
05
051
052
055
05585262
056
057
06
063
06800
07
072
075
078
08
080
085
086
088
089
09
093
094
097
098
1
10
100
1000
10000
100000
1000000624
1007
101
101325
10146
1016
102
1026
103
1030
1031
1038
1039
104
105
1054
1055
1055055
1055055852
106
107
1071
108
1080
10839
1085
10871
109
11
110
1100
1101
111
1111
112
1124
1129848290276167
113
1137
114
1143
1146
11480
115
1154
11568
11584
116
116024
1161
1169
117
118
1186
1187
119
1191
1195
12
120
1200
1203
1208
121
1213
122
1229
123
1230
1233
1234
124
1242
124212
1244
1245
125
1250
126
127
1272
128
1280
12811
1284
1287
129
1290
13
130
1300
131
132
1321
133
1337
134
1340
135
1351
136
1369
137
138
1380
139
14
140
1400
141
1410
1412
142
1420
143
144
1440
1442
145
1451
1452
14526
1453
1457
146
1464
1469
147
1470
1472
1473
1474
1475
1476
1478
148
1480
1481
1483
1484
1485
1488
149
1490
1492
1495
1496
1497
1498
1499
15
150
1500
1501
1502
1504
1507
1509
151
1510
1511
1513
1516
151807
1519
152
1520
1522
1525
1527
15277
153
1530
1531
1535
1539
154
1540
1541
1542
1545
1546
1547
1549
155
1550
1552
1553
1554
1556
1557
1558
156
1560
1561
1562
1563
1564
1565
1568
157
1570
1573
1574
1574074074074073
157436210791112172
158
1580
1581
1582
1583
1584
1585
1586
1587
1588
159
1591
15940
1595
1596
1598
1599
16
160
1600
1601
1602
1603
1604
1605
1606
1608
1609
161
1610
1611
1612
1613
1614
1615
1616
162
1620
1621
1622
1623
1624
1625
1626
1627
1628
163
1630
1631
1632
1633
1634
1635
164
1640
1641
1642
1643
1644
1646
165
1650
1651
1653
166
1660
1664
1666
1668
167
1670
1671
1677
168
1680
169
17
170
1700
1703
1704
1707
171
1710
1713
1714
1715
1718
172
1724
1729
173
1730
1734
174
1740
1741
1742
1743
1746
1748
1749
175
1750
1753
1754
1755
1758
176
1760
1763
1766
1767
177
1770
1773
1776
1778
178
1780
1781
1783
1786
1787
1788
1789
179
1790
1791
1795
1798
1799
18
180
1800
1801
1802
1803
1804
1805
18055
1806
1808
1809
181
1810
1812
1813
1814
1815
1817
1818
1819
182
1820
1821
1822
1823
1824
1825
1826
1827
1828
1829
183
1830
1831
1832
1833
1834
1835
1836
1837
1838
1839
184
1840
1841
1842
1843
1844
1845
1846
1847
18474
1848
1849
185
1850
1851
1852
1853
1854
1855
1856
1857
1858
1859
186
1860
1861
1862
1863
1864
1865
1866
1867
1868
1869
187
1870
1871
1872
1873
1874
1875
1876
1877
1878
1879
188
1880
1881
1882
1883
1884
1885
1886
1887
1888
1889
189
1890
1891
1892
1893
1894
1895
1896
1897
1898
1899
19
190
1900
1901
1902
1903
1904
1905
1906
1907
1908
1909
191
1910
1911
1912
1913
1914
1915
1916
1917
1918
1919
19191
192
1920
1921
1922
1923
1924
1925
1926
1927
1928
1929
193
1930
1931
1932
1933
1934
1935
1936
1937
1938
1939
194
1940
1941
1942
1943
1944
1945
1946
1947
1948
1949
195
1950
1951
1952
1953
1954
1955
1956
1957
1958
1959
196
1960
1961
1962
1963
1964
1965
1966
1967
1968
1969
197
1970
19702
1971
1972
1973
1974
1975
1976
1977
1978
1979
198
1980
1981
1982
1983
1984
1985
1986
1987
1988
1989
199
1990
1991
1992
1993
1994
1995
1996
19969
1997
1998
1999
2
20
200
2000
20000
2001
20016
2002
200237
2003
2004
2005
2006
2007
2008
2009
201
2010
2011
2012
2013
2014
20140317
201403171409
201406
20140607115503
2015
2016
2017
2018
2019
202
2020
2021
2022
2023
2026
203
2030
204
2044809344
205
206
207
208
209
21
210
2100
211
211579
212
213
214
215
216
217
2174
218
219
22
220
221
222
223
224
225
226
227
228
229
23
230
231
232
233
234
235
23597372167
236
236341
237
238
239
24
240
241
242
242189
243
24332
244
24496
245
246
247
248
249
25
250
2500
251
252
253
254
255
256
257
258
259
26
260
2600
261
262
263
264
265
266
267
268
269
27
270
271
272
273
274
275
276
27679
277
27777777777777779
278
279
28
280
281
282
283
284
285
286
2869
287
288
289
29
290
291
292
293
294
295
296
297
298
298866
299
299715
3
30
300
3000
301
302
303
304
3048
305
306
307
308
309
31
310
311
312
313
313437
314
315
31557600000000000
316
316580
3166
316846592
317
318
319
32
320
321
322
323
324
325
326
327
328
329
33
330
330242
331
332
333
334
335
336
337
338
339
34
340
341
342
34283
343
344
345
345891
346
347
348
349
35
350
3500
351
352
353
354
355
3558179483314004
356
357
358
359
359237
36
360
3600
3600000
361
362
363
364
3645
365
366
367
368
369
37
370
371
372
373
375
376
377
378
379
38
380
3800
381
384
385
386
387
388
389
39
390
391
392
393
394
395
3959
396
397
398
39816686
399
4
40
400
4000
401
403
404
405
406
407
408
409
4092
41
410
412
413
414
415
416
417
41769
418
4184
4184000
4184000000
4185
41943
42
420
421
422
423
424
429
4290
43
430
431
432
4327
435
436
437
438
4382
439
44
441
443
444
4445
445
447
44704
448
45
450
451
452
453
456
457
458
459
46
460
461
462
463
464
466
467
47
470
471
473
475
476
478
479
48
480
481
482
48216
483
484
486
488
49
490
492
493
494
495
496
497
498
49875
499
5
50
500
5000
50000
501
502
503
504
505
506
507
509
51
510
511
512
514
515
516
517
518
519
5195
52
520
521
522
524
525
526
527
53
530
531
532
534
5359237
537
538
54
540
542
544
54609
54789
549
55
550
552
553
554
555
55555555555555558
557
56
560
562
563
564
565
566
567
568
569
57
570
573
574
576
578
579
58
580
582
583
58370
585
588
589
58987294928
59
590
591
592
59237
593
595
596
597
598
6
60
600
601
602176487
603
604
605
606
607
608
609
61
610
612
613
615
618
62
620
621
626
628
629
63
630
631
632
634
636
638
639
64
640
641
642
645
646
648
64813
649
65
650
652
653
656
66
660
664
666
667
668
669
67
670
674
675
676
677
678
68
680
682
685
686
687
688
6894
69
690
691
694
695
696
698
69987158227022
7
70
700
7000
700000
703
708
70951
71
711
712
713
714
715
7154
716
717
72
7208
72114
722
7245
725
727
7271
728
73
731
732
733
734
735
738
74
740
74080
741
742
743
744
745
746
747
748
7492
75
750
751
752
753
754
756
7572931683608
76
760
761
762
765
766
76791
769
77
770
772
773
775
776
779
78
780
7817
783
7843
785
785411784
786
787
788
789
79
790
791
792
793
797
79797
799
8
80
800
8000
801
80234544
803
803776
804
80665
807
808
809
81
810
811
81198
813
814
815
816
8168
819
81988
82
820
825
82642731689663
827
828
829
83
830
8316846592
835
838
839
84
840
841
8415630
842
844
847
8493
85
850
85262
853
854
855
856
858
86
860
8601
863
86430
866
868
869
87
870
871
879
88
883
884
885
889
89
890
892
894
895
897
899
9
90
900
901
903
904710203122
905
907
908
91
910
91089
912
913
914
916
918
919
92
920
9212
9218
9219
924
925
927
93
930
931
932
933
937
939
94
940
943
944
945
946
95
950
951
953
954
956
957
958
96
960
962
963
964
965
966
967
968
97
970
974
9748481
975
976
977
978
9781403917232
9781403938695
979
98
980
98066
9816686
984
986
987
988
99
990
991
992
994
995
996
998
999
9999
:
;
<
=
>
?
@
\
^
_
`
a
aa
aaa
aaro
aarzemnieki
ab
aba
abad
abada
abadi
abadia
abadis
abahu
abajo
abaju
abaldona
abaldonal
abaldonarun
abaldonau
abaldonu
aballa
aballal
aballan
aballarun
aballau
aballo
abaluartau
aban
abana
abanc
abandon
abandona
abandonal
abandono
abandonu
abanicu
abaquistas
abara
abarca
abarcal
abarullal
abas
abastecia
abastecimientu
abati
abaxu
abbey
abbr
abbreviation
abc
abd
abdelaziz
abderrama
abdicacio
abdomin
abe
abecedariu
abejar
abejas
abel
abella
abello
abemus
abentaja
aberdeen
aberia
abertura
abessivu
abi
abia
abian
abieltu
abiendu
abierta
abiertas
abiertes
abierto
abiertu
abiertus
abigeru
abinia
abita
abitacio
abitacionis
abitaeru
abital
abitan
abitanti
abitantis
abitarun
abitau
abitual
abitualis
abitualmenti
ablativu
able
abo
abobadada
abobeceeru
aboca
abocal
aboga
abogau
aboli
abolicio
abollecel
abolta
abonda
abondancia
abondanti
abondantis
abondas
abondu
abondus
aboriginal
abostu
about
above
abr
abra
abrac
abraham
abre
abrevaerus
abrevia
abreviacio
abrevial
abreviatura
abreviaturas
abreviau
abri
abria
abrian
abrias
abrieru
abril
abrin
abrio
abriu
abriura
abroad
abruptamenti
abs
absoluta
absolute
absoluto
absolutu
absorcio
absorption
abstract
absvalue
abu
abuela
abundan
abundante
abundanti
abundantis
abuquerqui
abusefilter
abusefilters
abusu
ac
aca
acaba
acabaeru
acabal
acaban
acabandu
acabara
acabarun
acabbal
acaberu
acaberus
acabiha
acabihal
acabihan
acabihau
acabihaus
acabiho
acabija
acabijal
acabijan
acabijarun
acabijaus
acabijo
acabo
acad
acade
academia
academic
academy
acae
acaeci
acaemia
acagazau
acampa
acb
accedido
acceleration
accept
acceptable
accepted
accepts
accesit
acceso
access
accessdate
accessed
accesses
accessible
accessmonth
accessyear
accidentes
accio
accitania
according
account
accussi
ace
acea
acebi
acecionis
aceel
acei
aceia
aceite
aceites
aceiti
aceitis
acelca
acelera
aceleracio
acen
acentu
acentua
acentuacio
acentus
acepta
acerca
acercan
aceru
aces
acesorius
acesso
acessu
acesu
acesus
aceta
acetacio
acetal
acetarun
acetau
aceto
acetre
acetu
aceu
aceus
acevedo
achacinal
achelensi
achilleis
achiperres
achiperri
achiperris
acia
acibi
acibiendu
acibierun
acibio
acid
acienta
acienti
aciertu
acinoju
acio
acion
acionis
acipressis
acistau
acla
acogi
acogia
acohel
acohi
acohia
acolleramientu
acolmal
acoloca
acomolgau
acompan
aconllega
aconllegan
aconsehaban
aconsiguiendu
acontecel
aconteceris
aconteci
acontecia
acontecierun
acontecimientu
acontecimientus
acontecin
acontecio
aconteciu
acontecius
acontina
acontinaba
acontinal
acontinan
acontinandu
acontinara
acontinarun
acontinau
acontino
acordanc
acordi
acordis
acordo
acorrel
acorri
acorrin
acotau
acoustics
acre
acres
acro
acroma
across
acta
actas
action
actitivu
activa
activacio
activan
activated
active
actively
activia
activiais
activida
actividad
actividades
actividadis
actividais
activista
activities
activity
activu
acto
actol
actor
actos
actri
actris
actu
actual
actuales
actualia
actualida
actualidad
actualis
actualmente
actualmenti
actus
acu
acua
acuarelas
acueducto
acueductu
acuedutu
acuedutus
acuerdan
acuerdo
acuerdu
acuerdus
acui
acuil
aculla
aculloti
acumula
acumulacio
acumulalsi
acun
acupa
acupan
acupandu
acupava
acupo
acus
acusativu
acusau
acuso
ad
ada
adalid
adam
adama
adapta
adaptacio
adaptalsi
adas
adata
adatacio
adatacion
adatal
adatalsi
adatau
adc
add
addcat
addclass
added
adding
addison
addition
additional
address
adds
ade
adecua
adecuadamenti
adecuau
adelaida
adema
adenina
adentru
adetus
adi
adicio
adicional
adicionalis
adif
adil
adio
aditivu
aditivus
adj
adjectival
adjetivu
adjust
adjusted
admenistrativa
administracio
administrador
administradores
administrativas
adn
ado
adocio
adolescentis
adolf
adolfo
adopcio
adopta
adoptau
adoptivu
adoracio
adornus
adota
adotal
adotandu
adotau
adoto
adotun
adquieri
adquiri
adquiril
adquirio
adquisitivu
adra
adradas
adrados
adrava
adrentu
adria
adrian
adriano
adrianu
adsabs
adul
adult
adulto
adultos
adultu
adultus
adv
advanced
adventure
advisory
ae
aec
aeijzaa
aenene
aero
aeronavi
aeronavis
aeropueltu
aeropuertu
aeru
aerupuertu
afa
afe
afeccio
afecha
afechamientu
afechara
afechau
afechi
afecho
afecta
afectan
afectu
afehtu
afeta
afetal
afetan
afetaus
afeto
affair
affaires
affairs
afganista
afi
afianciamientu
aficio
aficionis
afijus
afiliaus
afilma
afina
afinacio
afinas
afirma
afirmal
afirman
afitau
aflue
afluenti
afluentis
afonsu
aforu
afotu
afotus
afra
africa
africae
african
africana
africanas
africanu
africanus
afrika
afrique
afro
afrorecierun
afrorecio
after
afterword
afundarun
afusilal
ag
aga
agadir
agaha
again
agaivau
agamemnon
agan
agarra
agarrandu
agarris
age
aged
agencia
agencias
agency
agenti
agentis
aging
aglomeracio
aglutina
aglutinacio
aglutinanti
ago
agora
agosto
agostu
agotamientu
agra
agrabau
agradabli
agradabri
agraeci
agraecimientus
agraria
agrariu
agredientis
agregaci
agregacio
agregau
agregaus
agresio
agri
agric
agricantus
agricoltura
agricultura
agriculture
agricurtol
agricurtura
agripa
agro
agroecologi
agropecua
agrupa
agrupacio
agrupacionis
agrupan
agrupaus
agu
agua
aguanta
aguantal
aguardienti
aguas
aguda
aguila
aguilo
aguirre
aguja
agura
agus
agusti
agustu
agut
aguzalapi
aguzalapis
ah
ahentis
ahetivu
ahetivus
ahi
ahigal
ahila
ahilaba
ahilaban
ahilan
ahilandu
ahinchonal
ahoguin
ahola
ahora
ahoril
ahorilis
ahorra
ahorran
ahorrau
ahorros
ahuera
ahueras
ahuntaol
ahurdas
ahuyerun
ahuyi
ahuyia
ahuyil
ahuyo
ai
aicio
aicionalis
aicionis
aids
aiga
aigan
ailla
ailles
aimara
ain
aina
air
airdate
aire
aires
airi
airis
airlines
airoma
airways
ais
aise
aisla
aislamientu
aislanti
aislau
aistis
aiti
aitianu
ajaccio
ajedrez
ajenas
ajenos
ajetivus
ajoril
ajorri
ajos
aju
ajunta
ajuntal
ajuntamientu
ajuntan
ajuntarun
ajunto
ak
aka
akb
aku
al
ala
alaba
alabancias
alabanis
alabri
alacant
alachau
alacu
alago
alal
alamea
alampandu
alampu
alan
alandu
alanhi
alanti
alantri
alantrinu
alanus
alaqui
alarco
alarga
alargaeru
alargamientu
alargau
alargo
alarma
alarun
alas
alaska
alatra
alatrasinu
alatri
alatriste
alau
alaus
alava
alavo
alba
albacete
albaceti
albala
alban
albane
albania
albarca
albarcan
albarcandu
albarcava
albardas
albarregas
albelia
albeliais
alberga
albergandu
albergar
albergui
albert
alberti
alberto
alberts
albertu
albi
albin
albis
albonda
albondas
albondosa
albondosas
albondosus
albondu
albondus
albornoz
albuera
album
albumlink
albun
albuquerqui
alburquerque
alc
alca
alcac
alcaicu
alcala
alcalde
alcaldi
alcaldia
alcanc
alcanzal
alcardi
alcardia
alcazaba
alcedo
alceu
alchiperri
alcibi
alcibin
alcibio
alcibiu
alcifro
alco
alcobendas
alcock
alcoho
alcohol
alcol
alconaba
alconchel
alcone
alconeta
alcontral
alcontrau
alcontro
alcoo
alcool
alcorco
alcornoqui
alcornoquis
alcu
alcubilla
alcue
alcuentra
alcuentraba
alcuentraban
alcuentral
alcuentralsi
alcuentramus
alcuentran
alcuentrara
alcuentrau
alcuentraus
alcuentri
alcuentrin
alcuentro
alcuerda
alcuerdu
alcuerdus
alde
aldea
aldealafuente
aldealices
aldealpozo
aldealsen
aldeanueva
aldeas
aldehuela
aldehuelas
aldehueras
aldeidu
aldigu
ale
alego
alegri
alehandria
alehandrinus
alehandru
aleja
alejacion
alejandria
alejandro
alejandru
alejau
alema
aleman
alemana
alemanas
alemania
alemanis
alentejana
alentejano
alentejo
alentisque
ales
alessandro
aletas
aletismu
alevanta
alevantamientu
alevantamientus
alevantarun
alevanto
alex
alexander
alexandra
alexandre
alexandri
alexbot
alexsh
alfa
alfabe
alfabetu
alfabetus
alfaguara
alfareri
alfareria
alfaro
alfiliriqui
alfons
alfonso
alfonsu
alfred
alfredo
algar
algarve
algas
algebra
algeciras
algo
algodo
algotra
algotras
algotru
algotrus
algu
alguardienti
alguer
alguien
alguna
algunas
algunos
algunus
alha
alhama
alhambra
alhuce
ali
alia
alianc
alianza
alias
aliases
aliaseslist
aliau
aliaus
alicante
alicanti
alicia
alico
alicuandu
alifanti
align
alignbars
alii
alijal
alimenta
alimentacio
alimentacion
alimental
alimentan
alimentaria
alimentariu
alimentau
alimentaus
alimento
alimentos
alimentu
alimentus
aliniacio
aliquandu
alis
aliud
alive
alizacio
aljaferi
aljetival
aljetivu
aljetivus
all
alla
allah
allan
allcat
alleborgobot
allega
allegandu
allen
alli
allina
allow
allowblankparams
allowed
allows
allowsmall
alma
almacenamientu
almagro
almajano
almaluez
almanzor
almarza
almas
almaza
almazul
almenar
almenas
almendralehu
almendraleju
almenistra
almenistracio
almenistracion
almenistraol
almenistraoris
almenistrativa
almenistrativamenti
almenistrativas
almenistrativu
almenistrativus
almenistrau
almenti
almeri
almeria
almienta
almiental
almientaus
alministraba
alministracio
alministraeru
alministraol
alministraoris
alministrativa
alministrativas
alministrativu
almira
almiracio
almiracionis
almitiendu
almitil
almo
almodo
almohadis
almonia
almoniacu
almonti
almora
almost
almuerc
almun
alo
alofo
alogu
alogundispue
alohamientus
aloja
alom
along
alonso
alos
alpanseque
alpes
alpha
alphabet
alpi
alpinus
alpis
alque
alqueolo
alqueria
alquerias
alquierin
alquiriendu
alquiril
alquirio
already
alrededol
alreol
alreora
alreoris
alrredor
als
alsa
alsi
also
alt
alta
altal
altamente
altamenti
altamira
altas
altavista
alteracio
alteracionis
alterations
alterna
alternandu
alternate
alternativa
alternativas
alternativu
alternativus
although
altitu
altitude
alto
altocumulus
altol
altonci
altoncis
altos
altrations
altri
altstadt
alttype
altu
altuenci
altura
alturas
altus
altvalue
alu
alucemas
aluegu
alufonus
alugu
alumina
aluminatu
aluminatus
aluminiu
aluminossis
aluminossus
alumnu
alunu
alunus
alusio
aluspue
aluspues
aluvial
alvar
alvarado
alvarau
alve
alverbiu
alverbius
alvertil
alvierti
alviolal
alviolaris
always
alza
alzheimer
alþingi
am
ama
amac
amadeus
amadou
amal
amalia
amamos
amamus
amanda
amaneci
amante
amanti
amantis
amargosu
amargujea
amarilla
amarillentu
amarillina
amarillu
amaro
amaru
amas
amassau
amaya
amazigh
amazo
amazon
amazonas
ambas
amberga
amberis
ambi
ambienta
ambiental
ambientalis
ambiente
ambienti
ambientis
ambiqui
ambos
ambox
ambro
ambroz
ambulantis
amburgu
ambus
ame
amelie
amen
amenac
amenalmenti
amenaza
amenazadas
ameniza
amenizacio
ameno
amenorgamientu
amenu
ameri
america
american
americana
americanas
americanu
americanus
ameru
amhra
ami
amicitia
amiens
amientu
amientus
amiga
amigo
amigos
amigu
amigus
aministrativa
aminoa
aminoaceus
amista
amistais
amity
amiye
amnisti
amo
amoc
amol
among
amor
amora
amore
amores
amorfu
amoris
amorosa
amos
amosfe
amotus
amount
amour
amoureux
amp
ampere
ampersand
amphibian
amphibians
amphibiaweb
ampie
ampli
amplia
ampliacio
ampliamenti
amplificaoris
ampliu
ampria
ampriacio
ampriamenti
amprias
ampriu
amprius
ampuzalsi
amru
ams
amsterdam
amu
amuestra
amuralla
amurallau
amus
an
ana
anabolismu
anacrusi
anal
anales
anali
analic
analis
analizal
analizaus
analo
analogia
analysis
anapestu
anas
anato
anatolia
anatolian
anatomi
anatomia
anc
anca
ancanc
anceps
ancestralis
ancestru
ancha
anchas
anchiano
ancho
anchol
anchor
anchu
anchura
ancien
ancient
and
anda
andaba
andal
andalu
andaluci
andalucia
andaluz
andaluza
andaluzi
andaluzia
andama
andan
andanciu
andando
andaris
andas
andava
andeal
andenantis
andere
anders
andersen
anderson
andes
andi
andina
andinantis
andino
andiquiera
andis
andorina
andorra
andrade
andre
andrea
andrew
andrey
andro
andu
anduvu
andy
ane
anea
anego
anejo
aneu
anexa
anexu
anfibiu
anfibius
anfiteatru
anfiteatrus
angan
angariar
angariare
ange
angel
angela
angeles
angelique
angelo
angels
angi
angiosperm
anglada
anglal
anglo
anglosajo
anglu
ango
angola
angu
anguan
anguiano
anguna
angunas
angunos
angunu
angunus
anhi
anhinojo
ani
anibal
aniceto
anillu
anillus
anima
animacio
animacion
animal
animales
animalia
animalis
animalista
animation
animau
animaus
animo
anivelsa
aniversa
aniversariu
ann
anna
annales
anne
annecy
anno
annotation
annotations
announcement
annual
annum
ano
anomali
anombra
anombrau
anombraus
anon
anore
anoressia
anos
anota
another
anque
ans
ansi
ansia
ansiea
ansieda
ansimesmu
ansina
ansomarun
answer
ant
anta
antan
ante
antena
antepasau
antequera
anteriol
anteriolmenti
anterior
anterioris
anteriormenti
antes
antesala
anthocyanins
anthology
anthony
anthropology
anti
antibio
antibrazu
anticipa
anticuerpus
antie
antiel
antier
antiga
antigu
antigua
antigual
antiguamenti
antiguas
antiguea
antiguo
antigus
antiguu
antiguus
antillas
antinu
antioquia
antioxidant
antioxidanti
antioxidantis
antioxidants
antiriol
antirioris
antis
antise
antisemitismu
antitripsina
anto
antoci
antocianinas
antocis
antoine
antologi
antologia
antolohia
anton
antoncis
antoni
antonia
antoninu
antoninus
antonio
antoniu
antropo
antropologi
antropologia
antropomo
antruehu
antruehus
antrueju
antruejus
antu
anu
anual
anualis
anualmenti
anuhea
anuncia
anunciacio
anunciau
anunciava
anuncio
anunciu
anus
anversus
anxo
any
anyo
anyoacceso
anyos
anys
anything
anywhere
anza
anzas
anzina
ao
aol
aor
aora
aoris
aoristu
aosta
ap
apaci
apaecel
apaeci
apaecin
apaf
apaga
apaicel
apaici
apaicia
apaicierun
apaicin
apaicio
apaicionis
apaicira
apaiciu
apalcamientu
apan
aparatu
aparatus
aparda
apare
aparecel
apareci
aparecierun
aparecin
aparecio
aparentementi
aparenti
aparentis
aparici
aparicio
aparicion
aparta
apartau
aparti
apartiju
apatus
apazi
ape
apec
apela
apelativu
apella
apellau
apelli
apellido
apellidos
apelliu
apellun
apen
apenas
apeninas
apeninos
apeninus
apertura
apesal
apesca
apescal
apescar
apetitu
apg
api
apiertal
apisce
aplex
aplica
aplicacio
aplicacionis
aplicau
apo
apocolocyntosis
apofonias
apolo
apolodoru
apolohia
apolu
apopal
apopar
apopto
apoptosis
apoptosoma
apoptotic
apopu
aporta
aportacio
aportal
aportan
aportandu
aportau
aportis
aposto
apostrofi
apostrophe
apostrophes
apoteosi
apoya
apoyal
apoyan
apoyandu
apoyar
apoyau
apoyo
apoyu
appeal
appear
appearance
appears
append
appendix
apple
applications
applied
applies
apply
appreciate
approach
appropriate
approved
apr
apra
apre
apreba
aprebacio
aprebal
aprebau
aprebaus
aprebi
aprebo
apreciativus
apreciau
aprehentu
aprendel
aprendi
aprendio
aprendiz
aprendizagi
aprendizaji
aprepara
apreparal
apreparan
apreparandu
apreparau
apreparaus
apreparo
apresenta
apreva
aprevo
aprica
apricacio
apricacion
apricacionis
aprical
apricandu
aprico
april
apropiau
aprosima
aprosimacio
aprosimadamenti
aprosimamenti
aprossimadamenti
aprossimamenti
aprossimau
aprovecha
aprovechal
aprovechamientu
aprovechandu
aprovecharun
aprovechau
aprovecho
aproxima
aproximacio
aproximadamenti
aproximau
apru
apuleyu
apulia
apuntan
apuntes
apuntis
aqaba
aqua
aque
aquel
aquella
aquellas
aquellos
aquellu
aquellus
aquesta
aqui
aquilea
aquili
aquina
aquita
aquitaine
ar
ara
arabateal
arabi
arabia
arabic
arabis
aracena
arag
arago
aragoc
aragone
aragonesa
arameu
aran
aranco
aranda
arane
aranja
aranjuez
aras
aratu
araucano
araya
arban
arbatu
arbora
arboterapia
arbu
arbus
arc
arca
arcac
arcade
arcai
arcaic
arcaica
arcaicos
arcaicu
arcaicus
arcaismus
arcaizanti
arcanc
arcanci
arcende
arcendel
arcendentis
arcendio
arcensu
arch
archaea
archena
archidio
archie
archipie
architecture
archivado
archivau
archive
archived
archivedate
archiveurl
archivo
archivos
archivu
archivum
archivus
arciel
arciendi
arcilla
arcillas
arcillosas
arco
arcos
arcrd
arcu
arcus
ardilla
ardoz
are
area
areas
aren
arena
arenas
arendt
arenillas
arenosu
arenu
arequipa
arg
arge
argel
argelia
argelinu
argentina
argentinu
argo
argonautica
argos
args
argsk
argsv
argtables
argtableval
argu
argument
argumentacio
argumentos
arguments
argumentsname
argumentu
argumentus
arguna
argunas
argunu
argunus
argus
arhentina
arhentinu
ari
aria
arianus
arias
ariel
ariels
aries
arina
aris
aristas
aristo
aristocra
aristocracia
arithop
aritme
arius
arizona
arla
arma
armacenamientu
armando
armas
armau
armauras
arme
armenia
armeniu
armenius
armo
armoni
arn
arnedo
arnes
arno
arochi
aroma
around
arpa
arpent
arpitanu
arqueas
arqueo
arqueolo
arqueologi
arqueologia
arqueulo
arqui
arquio
arquiolo
arquiologi
arquitecto
arquitectura
arquiteto
arquitetu
arquitetura
arquitetus
arr
arra
arradiu
arraiga
arraigu
arranca
arrancaera
arrancandu
arrancarun
arrancha
array
arraya
arrayan
arrayandu
arrayanti
arrayantis
arrayau
arrayaus
arrayu
arrayus
arrecogi
arrecogia
arrecohel
arrecohi
arrecohiendu
arrecohin
arrecohiu
arrecupera
arrecuperacio
arrecuperaeru
arrecuperal
arrecuperarun
arrecupero
arregan
arreglu
arregra
arregriju
arregrus
arregui
arrehunta
arrehuntan
arrejuntal
arrejuntan
arrelumbraban
arremata
arrematal
arremeti
arremollecel
arrempuhi
arrempujal
arreol
arrepan
arrepara
arreparan
arreparandu
arreparau
arreparaus
arrepartius
arrepio
arrepiu
arreprehenta
arreprehentan
arrepresenta
arrepresentacio
arrepresentacionis
arrestu
arriaga
arrianu
arriba
arribita
arribota
arrigorriaga
arriscau
arriscaus
arriu
arro
arrodea
arrodeau
arroea
arroeava
arros
arrosas
arroyo
arroyomolinos
arroyomolinus
arroyu
arroyus
arroz
arruina
arruinacal
arruinacaus
arrumanu
arrutaus
ars
art
arta
artamenti
artas
artazimutal
arte
arteria
arterial
artes
artesanal
artesanalis
artesanas
artesani
artesania
artesanu
artesanus
arthur
arti
article
articlerender
articles
articula
articulacio
articulal
articulaus
articulo
articulu
articulus
artificial
artificialis
artioda
artis
artist
artista
artistas
artitu
arto
artol
artritis
artro
arts
artu
artuestremen
artura
arturas
arturo
artus
aru
aruba
arun
arvillas
arvola
arvu
arvus
arxiv
as
asamblea
asartal
asas
asburgus
ascendenti
ascientu
ascii
asclepiadea
asclepiadeu
asclepiadeus
ascomienc
ascu
ascuchal
ascucho
ascuendin
ase
asean
asediu
asegural
asemeja
asen
asenta
asentamientu
asentamientus
asesinatu
asessual
asfa
asfaltu
ash
asi
asia
asiaha
asiahal
asiahamientu
asiahan
asiaja
asiajau
asian
asiana
asigu
asiguraba
asihamientu
asimesmu
asimila
asin
asina
asinaus
asinmesmu
asinque
asistencia
asisti
asistil
asitia
asitiau
ask
asmara
aso
asocia
asociacio
asociaciones
asociacionis
asociados
asociau
asociaus
asoluta
asolutas
asolutismu
asolutivu
asolutu
asp
aspe
aspeci
aspecii
aspecis
aspecto
aspectos
aspects
aspectu
aspectus
aspera
asperaba
asperal
asperger
asperu
aspetu
aspetus
aspira
aspiracio
aspiracion
aspiracionis
aspiran
aspirantizacio
aspirau
aspx
assaigs
assamblea
assambrea
asse
assegura
assegural
assemble
assembled
assen
assenta
assental
assentamientu
assentamientus
assenti
assessinatu
assessinau
assessino
assi
assiajamientu
assign
assigned
assigura
assiguraba
assiguran
assimilacio
assimilacionis
assimilo
assin
assina
assinque
assisted
assistiamentu
assiti
assitia
assitial
assitiamentu
assitiamientu
assitian
assitiarun
assitiau
assitiaus
assitio
associacio
associacionis
associated
association
assoluta
assolutu
assolvia
assomal
assu
assume
assuming
assunc
assuntu
assuntus
ast
asta
astas
asteca
astecas
asteroidi
astiberri
astilu
astorga
astra
astracio
astralianu
astratu
astratus
astrazio
astro
astrono
astronomi
astronomia
astronomicu
astru
astrus
astu
astul
astulione
astulionesa
astur
asturiana
asturianas
asturiano
asturianu
asturianus
asturias
asturies
asturleone
asturlione
asubiar
asumi
asumia
asumin
asuncio
asuntu
asuntus
at
ata
atacal
atacau
ataco
atacun
atahualpa
atal
ataqui
ataquis
atarac
ataruga
atarugal
atarugau
atas
atatu
atei
atellana
atelmina
atema
atempera
atena
atenas
atencio
atencion
atendel
atendiendu
atenea
ateneo
ateneu
ateniensi
atenol
atenta
atentau
atentaus
atermina
aterric
atestiga
atestiguan
athenis
athletic
ati
aticista
atiha
atihau
atihi
atihu
atihuh
atihus
atija
atijal
atijanti
atijau
atijaus
atiju
atijus
atila
atillus
atitivu
atitivus
atitle
atituis
ativa
ativamenti
ativia
ativiais
ativida
atividais
ativu
ativus
atla
atlanta
atlas
atle
atm
atmo
atmosfe
atmosphere
ato
atocha
atol
atoll
aton
atopa
atopaban
atopal
atopalsi
atopamus
atopan
atoparun
atopau
atopo
ator
atorga
atoris
atp
atra
atracio
atrael
atrai
atras
atrativu
atrave
atravesa
atravesal
atravesau
atravessau
atraviesa
atraviessa
atri
atribui
atributus
atribuyi
atribuyin
atriz
atsdr
att
attempt
attempts
attention
atthis
attr
attribute
attrs
atu
atua
atuaba
atuacio
atuacionis
atual
atualia
atualic
atualis
atualizal
atualmenti
atuandu
atun
atus
au
aubrey
aud
aude
audecha
audechaban
audechan
audiencia
audio
audiovisual
auditivu
auditoriu
audiu
audrey
auflage
aug
augua
auguas
august
augusta
augustavita
auguste
augusto
augustobriga
augustu
augustus
aula
aulas
aules
aulo
aulus
aumenta
aumental
aumentandu
aumentau
aumentu
aumentus
aun
aunque
aurea
aurelio
aurelius
auronplay
aurora
aus
ause
ausejo
ausencia
ausentis
ausia
aussiliaris
austra
austral
australia
australian
australiana
australianu
austri
austria
austriacu
austriacus
austrone
auta
autarquia
autau
autaus
aute
autho
author
authorformat
authority
authorlink
authorlist
authormask
authorn
authors
authorseparator
auto
autobu
autobulu
autobuses
autobusis
autoinmuni
autol
autolis
automa
automated
automatic
automatically
automo
automobis
autono
autonomi
autonomia
autonomous
autopista
autopistas
autor
autora
autores
autori
autoria
autoriais
autorida
autoris
autorreferencia
autorretrato
autorretratu
autovia
autovias
autu
autual
autualmenti
autubu
autubusis
autugobielnu
autuma
autumn
autumo
autuno
autunomia
autunomias
autupista
autupistas
autuvia
autuvias
auvasa
auvernia
av
ava
available
avan
avana
avanc
avances
avanci
avancis
avant
avantage
avanti
avanza
avanzados
avda
ave
avec
avehantau
avel
avelsi
avemus
avena
avenia
avenias
avenida
avenidas
aventaja
aventura
aventuras
aventures
averi
averroes
aves
avesta
avezis
avi
avia
aviacio
aviamus
avicena
aviendu
avientarun
avile
avio
avionis
avis
avius
aviv
avn
avogau
avoid
avoirdupois
avram
avril
avuelapluma
avuelu
aw
award
awards
aware
awareness
away
ay
aya
ayala
ayamonti
aye
ayel
ayer
ayerbi
ayman
ayt
aytopalencia
ayu
ayua
ayual
ayuas
ayuda
ayudanti
ayuntamiento
ayuntamientu
ayuntamientus
ayuo
ayuso
az
azabal
azafra
azan
azeiti
azeitis
azerbaiya
azeri
azetuna
azetunas
azimu
azio
azituna
azitunas
aznar
azor
azov
azu
azuaga
azud
azufri
azul
azulado
azulis
azərbaycan
b
ba
baaho
baajo
babel
babilo
babilonia
baby
bac
bacanalis
bacas
baccam
bach
bachillel
bachiller
bachillerato
bachilleratu
back
background
backgroundcolors
backtranslate
bacteria
bacterianas
bacterias
bacu
bad
badaho
badajo
badajoz
bado
baetica
baez
bafta
baga
bagdad
bagu
bagus
baha
bahal
bahamari
bahan
bahas
bahi
bahia
bahrein
bahu
bahus
bai
baia
baila
bailaera
bailal
bailan
bailaus
bailey
baili
bailis
bainon
baja
bajal
bajas
baji
bajista
bajo
bajos
baju
bajus
baker
baku
bal
balafia
balba
balboa
balburda
balburdas
balca
balcanis
balco
balcu
baldi
baleal
balear
balearis
baleu
bali
balinesis
ballesterus
balnea
balo
baloncestu
balonmanu
baltimore
baltuslava
baluarte
baluchista
bamako
bambi
bambolla
bambu
ban
bana
banca
bancu
bancus
band
banda
bandas
bandea
bandeaban
bandeal
bandera
banderas
bandeu
bandi
bandname
bandolerus
bandu
bandul
bandus
bang
bangguru
bangkok
bangla
banglade
bangladesh
banja
banner
banos
bantu
banu
bao
baobab
bar
barack
baran
baraona
barata
baratu
baratus
barba
barbado
barban
barbara
barbera
barbiscachi
barbiscachu
barbu
barbudu
barca
barcarrota
barcelona
barcino
barco
barcones
barcu
barcuna
barcus
bardal
bardata
bardi
bare
bari
bariju
baris
barka
barngarla
barngarlidhi
barnum
baro
barone
barquilla
barra
barrado
barranquilla
barrantes
barras
barrau
barreado
barreda
barreiro
barrel
barrels
barrera
barrica
barriga
barril
barrilis
barrio
barriu
barrius
barro
barroca
barrocas
barrocu
barros
barrow
barru
barruecus
barrunta
barruntaban
barruntaera
barruntava
barrus
bartlett
bartolome
barvic
bas
basa
basaba
basado
basan
basandu
basas
basau
basaus
base
based
basi
basic
basicamenti
basics
basilea
basilica
basis
baskenland
basketball
basque
bass
bassols
basta
bastanti
bastantis
bastecia
basura
bat
bataille
batalla
batallas
bateri
bateria
baterias
bati
batimientus
bau
bauth
bautismu
bautista
bautizau
baviera
baxa
baxas
baxera
baxu
baxus
bay
bayern
bayet
bayubas
baza
bb
bbc
bbl
bc
bce
bcl
bd
bdft
be
bearn
beast
beata
beate
beatificacio
beatles
beatriz
beaumont
beaute
beautiful
beauty
bebe
bebel
bebi
bebia
bec
because
beccaria
becerra
bechamel
becicleta
beck
become
becomes
beda
bedis
been
beethoven
before
begin
beginning
begins
behavior
behaviour
behind
behobia
beijing
being
beirut
bejal
bejarano
bel
bela
belcebu
bele
belfast
belga
belgas
belgradu
beli
beliau
belici
belisa
bell
bella
bellas
bellec
belles
belleza
bellezas
belli
bello
bellota
bells
bellu
bellum
bellus
belo
below
belsana
belsi
beltra
belvedere
bemol
ben
benditu
benedicta
beneditu
benefi
beneficiau
beneficiis
beneficios
beneficiosas
beneficiu
beneficius
bengala
bengali
beni
benidorm
benito
benitu
benjamin
bent
bente
bento
beo
ber
bera
beras
berato
berc
berdi
berebel
bereber
bereberis
berenguer
berg
bering
berkeley
berlanga
berli
berlin
berlioz
berlusconi
bermejo
bermu
berna
bernabe
bernal
bernard
bernarda
berne
bernoulli
berrichon
berry
berteriak
bertol
bertrand
beru
besa
besaye
best
bestias
besu
bet
beta
better
between
bever
beverage
beyond
bf
bg
bh
bha
bhojpuri
bhp
bi
bia
bian
bianca
bianchetti
biarritz
bias
bibcode
bibi
bibil
biblia
biblio
bibliogra
bibliografi
bibliografia
biblioteca
bibliotecarios
bibliotecas
bibliothek
bibliotheken
bibliugra
bibliugrafi
bibliugrafia
bibliuteca
bic
bica
bicas
bicha
bichaba
bichan
bichas
bichau
bichinus
bicho
bichu
bichus
bicu
bicus
bid
bidasoa
biden
bidimensional
bielorru
bielorrussia
bielorrussu
biembru
biembrus
bien
biendu
biene
bienestal
bienestar
bienis
bienveni
bienviniu
biesca
bifas
big
biga
bigu
bihari
bil
bila
bilady
bilbao
bilbau
bilbiografi
bili
bilingu
bilirrubina
bilis
bill
billal
billetes
billetis
billion
billonis
billota
billotas
billy
bimbri
bimembris
bin
bina
bingen
binomial
bio
biobi
biochem
biochemistry
biochim
biodiversidad
biodiversity
biogra
biografi
biografia
biografias
biography
biol
biolo
biologi
biologia
biological
biology
biolohia
biomasa
biome
biomedical
biomole
biophys
bioqui
biorxiv
biosfera
biosi
bipolal
biquipedia
bird
birdlife
birds
birmingham
bis
bisagu
bisiestu
bisiestus
bissau
bit
bita
bitat
bitats
bitu
bitus
biu
biugrafias
biulo
biulohia
bius
biva
biza
bizantinu
bizkaia
bj
bl
bla
black
blackwell
blacos
blame
blanc
blanca
blancas
blanco
blancos
blancu
blancus
blank
blas
blasco
blaso
blast
bleu
blia
blica
blicas
blico
blicu
blicus
bliecos
blight
blink
bliu
block
bloemfontein
blog
blogs
blogspot
blogui
blood
bloque
bloqui
bloquis
blue
blues
blurb
bm
bmg
bn
bo
boa
boada
board
boas
bob
bobilla
boca
bocas
boccoli
boculismu
boda
bodio
body
boe
bog
bogota
boiling
boka
bokutachi
bolas
bold
boleti
boli
bolivariana
bolivia
boliviana
bolla
bollir
bologna
bolon
bolsa
bolsas
bolus
bom
bomba
bombay
bomberus
bonaparte
bonaventura
bonet
bonifacio
bonifaciu
bonn
bonus
book
books
booksources
booktitle
boolean
boquea
boqueronis
boquiqui
borassus
borbo
borbonis
border
bordi
boreal
borg
borges
borgon
borja
borjabad
borkowski
bornemisza
borobia
borrego
borrow
borsa
bos
bosch
bose
bosna
bosne
bosnia
bosque
bosques
bosqui
bosquis
bosseu
boston
bot
bota
botanical
botarate
bote
botella
botellas
both
botica
boticariu
boticas
botija
boto
botonis
bots
botsuana
bottasks
botticelli
bottom
botu
botua
bound
bovinu
box
boxes
boxtable
boxtype
boy
boyal
boyce
boyle
bq
br
brac
bracket
brackets
brad
bradley
braga
braganc
brake
branca
brancas
branco
brancu
brancus
brandu
brandy
branu
branus
bras
brasi
brasil
brasileiro
brasilen
bratislava
brave
braviu
bravo
bravu
brazil
brazu
break
breaks
breathing
breda
bremen
bremer
bretan
breto
breve
brevi
brevis
brevitu
brewer
bri
bria
brian
bric
brica
bricas
briciole
bricu
bricus
bridas
bridge
bridges
brief
briega
brillan
brillanti
brillantis
brinda
brindan
bring
brisas
brita
britain
britania
britannica
british
briu
brlpo
bro
broadway
broc
brocense
brocensi
brock
broflovski
broglie
broken
brokendate
bron
broncensi
bronci
broncu
bronx
brooklyn
broti
brown
browser
brozas
bru
bruce
bruhas
bruja
brujas
brujo
brun
brundisii
brunei
bruni
bruno
brusca
bruselas
brusselas
bruto
brutu
brutus
bruxas
bruxelles
bs
bsh
btitle
btu
bu
buama
bubbles
buberos
bucarest
buce
buch
buco
buda
budapest
buddha
buddhism
budelberger
budget
budismo
budismu
budista
budistas
buei
buen
buena
buenas
bueno
buenos
buey
bug
buhoyu
build
building
built
builtin
buitrago
buitre
bujacu
bujara
bula
bulga
bulgaria
bull
bulletin
bullire
bulus
bump
bun
bundesrat
buon
buonaparte
buoni
bura
buracu
buracus
burdeos
burdeus
bureaucrat
burgo
burgos
burguesia
burguesis
burguillus
burgus
burning
buro
burocra
burquina
burru
burundi
bus
busan
busca
buscal
buscandu
buscaol
buscaoris
buscar
busco
bush
bushel
business
bustamante
bustrofedo
bustu
but
buta
buti
butri
butris
butterworth
buur
bw
bwv
by
bye
byron
byte
bytes
byzantine
bz
bɑ
c
ca
caa
caas
caba
caballero
caballeros
caballeru
caballerus
caballu
caballus
caban
cabbec
cabe
cabec
cabece
cabecera
cabecerus
caberus
cabeza
cabi
cabiceru
cabildu
cabina
cabisgachu
cables
cabo
cabra
cabras
cabrejas
cabrera
cabrerus
cabrillas
cabris
cabrito
cabu
cabusia
cac
cacau
caceren
cacharreri
cacharreru
cacharru
cachinu
cachinus
cachipega
cachu
cachuela
cachus
caco
cada
cadas
cadaval
cadena
cadenas
cadernos
cadis
caec
caecera
caeiru
cael
caena
caenas
caer
caesar
caesarina
caeza
caf
cafe
cafeteria
cagac
cage
caha
cahas
cai
caia
caiada
caima
cairo
cairu
caiu
caius
caixa
caja
cajal
cajas
cajun
cal
cala
calabac
calabria
calafriu
calagurris
calahorra
calamandrun
calanda
calandariu
calatan
calatrava
calavoracio
calavoro
calc
calca
calci
calcio
calciu
calcium
calcoli
calcula
calculal
calculate
calculated
calculates
calculation
calculi
calderehu
caldereta
caldero
cale
caledo
caleidosco
calenda
calendar
calendario
calendariu
calental
calentamientu
cali
calia
calic
calida
calidad
calientaba
caliente
calienti
calientis
califa
califatu
califica
calificacio
calificaciones
califican
calificau
califo
california
calis
call
callao
callas
calle
called
caller
calli
calling
callis
calls
callsign
calma
calname
calni
calo
calol
calori
calorias
calorie
calories
calorosu
calorosus
calpe
calpu
calru
calta
caltojar
calurosus
calus
calvariu
calvino
calvo
calzada
cam
cama
camara
camarasa
camargo
camas
cambea
cambeal
cambeau
cambeo
camberra
cambeu
cambeus
cambia
cambial
cambio
cambios
cambiu
cambius
cambo
camboya
camboyanu
cambridge
came
camelo
camero
cameron
cameros
cameru
camilo
caminho
camino
caminu
caminus
camio
camionis
camiso
camo
camp
campaign
campamentu
campan
campana
campanariu
campanas
campanillus
campea
campeandu
campeo
campeonato
campeonatu
campesina
campesinu
campesinus
campin
campio
campionis
campo
campoo
campora
campos
campu
campus
campusinu
campusinus
camus
can
cana
canada
canadiensi
canadiensis
canal
canalejas
canales
canalic
canalis
canalizau
canaria
canarias
canariu
canc
cancelacio
cancelado
cancer
canchal
canchalis
cancho
canchu
canchus
canci
cancillel
canciller
cancilleria
cancio
cancion
cancionero
cancioneru
canciones
cancionis
cancri
cancru
candelaria
candelas
candiatu
candidata
candidatu
candidatura
candidatus
candilatus
candilichera
candongo
canelo
canis
cannes
cannot
cano
canon
canonizacio
canorus
cansau
canta
cantaba
cantabria
cantaeru
cantai
cantaistis
cantal
cantamus
cantando
cantandu
cantante
cantanti
cantantis
cantaol
cantares
cantaris
cantastis
cantau
cantautol
cante
cantea
canteal
cantera
canterus
canti
cantia
cantiais
cantida
cantidad
cantidadis
cantidais
cantis
canto
cantol
canton
cantonis
cantora
cantoras
cantores
cantoris
cantos
cantu
cantus
canvas
cao
cap
capa
capacia
capaciais
capacida
capacis
capacitacio
capacitation
capacitau
capacity
capadocia
capas
capaz
capazis
cape
capeas
capela
capelas
capi
capilla
capita
capitaine
capital
capitalia
capitalida
capitalis
capitalismu
capitalista
capitalization
capitanis
capitel
capitulaciones
cappelletti
capra
caprichu
caprinu
capture
caput
caputo
caquinus
car
cara
caraba
carabantes
carabas
caracas
caracena
caracolis
caracteres
caracteri
caracteric
caracteriza
caracterizacio
caracterizan
caracterizau
caraiteri
caraiteris
caraiteriza
caraiterizan
caraiterizau
caraiti
caraitil
caraitis
caranton
caras
carat
caratel
carateri
carateric
carateris
carateriza
caraterizalsi
caraterizan
caraterizau
caravas
carbo
carbonatacio
carbonatu
carbonu
carc
carcavosu
carci
carciju
carcis
carcu
carcula
carculaban
card
carden
cardenal
cardiff
cardinal
cardinalis
cardiovascular
cards
care
careci
carecin
carena
carga
cargal
cargas
cargau
cargo
cargos
cargu
carguju
cargus
caribi
caricaturas
caricom
carioca
carisma
carl
carles
carlistas
carlo
carloman
carlos
carlus
carm
carmen
carmesi
carmin
carmina
carmona
carnaval
carnavales
carnavalis
carne
carneriles
carni
carnis
carolina
caroline
carolingiu
carotenoidis
carotenu
carpa
carpenter
carpinteri
carpio
carrasco
carrascosa
carren
carrera
carreras
carretera
carreteras
carril
carrilis
carrin
carrinha
carroll
carron
carros
carru
carruchau
carrum
carrus
carsrac
carsracbot
carta
cartagu
cartahinensi
cartahinesis
cartas
cartel
cartelis
carter
carteru
cartes
carthagini
cartografi
cartografia
cartography
caru
carus
carvajal
carxe
carza
cas
casa
casablanca
casada
casado
casados
casal
casalsi
casamientu
casandra
casanova
casar
casarejos
casaris
casas
casatejada
casau
casca
cascajo
cascavel
cascu
case
caseri
cases
caseta
cash
casi
casillas
casimiro
casina
casino
caso
casos
caspasa
caspasas
caspase
caspases
caspiu
cassa
cast
castan
castell
castellae
castellana
castellanas
castellaneu
castellanizacio
castellanizau
castellano
castellanu
castellanus
castello
castelo
castigal
castigo
castigu
castigus
castilfri
castilla
castillana
castillanu
castillanus
castillo
castillos
castillu
castillus
castilruiz
castle
castra
castro
castu
castua
castuera
castuo
casu
casual
casus
cat
cata
catal
catala
catalana
catalanis
catalans
catale
catalina
catalizan
catalizaoris
catalog
cataloga
catalogau
catalun
catalunya
catedra
catedral
catedrales
catedrali
categori
categoria
categorias
categories
categoriesns
categorizal
categorization
categorize
categorizing
category
caterina
cathay
cathedral
catilina
cato
catolicismu
catorci
catorzi
catra
cats
cattitle
cau
cauca
cauci
caucis
caudal
caudalis
caudillu
caura
cauriensis
caurium
causa
causal
causan
causandu
causas
causativu
causau
cause
causis
causo
causu
cautiva
cautival
cautivo
cautivu
cautum
cavaco
cavallerus
cave
cavea
cavernas
cavida
cavila
cavilaba
cavilacionis
cavilal
cavilau
caya
cayel
cayendu
cayi
cayo
cayu
caza
cazaju
cazasta
cazris
cb
cbk
cc
ccr
cd
cdc
cdiac
cdot
ce
cea
ceadel
ceas
ceba
cebolla
ceborrincho
ceca
cecilia
cecilio
cecina
ceclavi
cecof
cediendu
cedru
cefet
cefta
cei
ceillu
celanda
celca
celcana
celcanas
celcanu
celcanus
celebra
celebraba
celebraban
celebracio
celebracionis
celebraeru
celebral
celebralsi
celebran
celebrandu
celebrara
celebrarun
celebrativu
celebrau
celebraus
celebri
celebro
celebru
celestes
celesti
celestial
celestino
celestis
cell
cells
cellular
celosi
celsius
celso
celt
celta
celtas
celtic
celts
celu
celulal
celular
celularis
celus
cementeriu
cementu
cementus
cemii
cena
cencia
cencias
cenic
cenizas
censaus
censo
censos
censu
censura
census
cent
centena
centenal
centenaris
centenera
center
centers
centi
centimeter
centimeters
centimetre
centimetres
centra
central
centralic
centralis
centraliza
centralizau
centran
centrau
centre
centro
centroafricana
centros
centru
centrucampista
centrus
cents
century
cenzilla
cenzillu
cenzillus
cera
ceramista
cerbo
cerca
cercana
cercanas
cercani
cercania
cercanias
cercanu
cercanus
cercuitu
cercuitus
cerculacio
cerculaeru
cerculal
cercularis
cercundantis
cercunflehu
cercunfrehu
cercusta
cercustancialis
cerden
cerdu
cerdus
cereal
cerealis
cerebru
ceremo
ceremonial
ceres
cerezo
cerimo
cern
cerni
cero
cerquina
cerro
cerru
certa
certain
certamen
certamin
certas
ceru
cervantes
cerve
cervera
cesa
cesar
cesi
cesis
cest
cestus
cet
cetona
ceu
ceus
ceuta
ceva
cevil
cevilic
cevilis
cevilizacio
cevilizacion
cevilizacionis
ceviqui
cf
cfa
cfg
cfgkey
cfm
cg
cgi
ch
cha
chabi
chacinas
chaco
chad
chafarinas
chain
challenge
chalral
chalras
chama
chamari
chamariz
chamba
chambal
chamban
chambandu
chambau
chambergu
chambin
chambre
chambu
chambus
chamiciana
chamizo
chamorro
chamorru
champan
champs
chan
chana
chanas
chance
chanel
chanfaina
chang
change
changed
changes
changu
channel
chanson
chansons
chante
chantraine
chanu
chanura
chanuras
chanus
chaos
chaparrera
chapter
chapterlink
chapterurl
chapterurlorigin
chaqueti
char
character
characterization
characters
charca
charcas
charcu
charge
charles
charlotte
charneca
charo
charramandusca
charramanduscu
charrangana
charru
chars
charsi
charts
chasca
chascu
chascus
chat
chavacano
chaves
che
checa
chechenu
check
checkdigit
checked
checking
checkisbn
checks
checksum
checktype
checkurl
checu
cheek
chef
chega
chegal
chegan
chegandu
chegara
chegaria
chegarun
chegau
chego
cheirus
cheli
chelu
chem
chemical
chemistry
chengdu
chennai
chi
chiang
chica
chicago
chicas
chicharronis
chichipa
chicu
chicus
chiguayante
chil
child
childar
children
chile
chilena
chilenu
chili
chill
chilla
chillout
china
chinas
chinese
ching
chinu
chinus
chios
chipilen
chipilo
chipri
chiquenina
chiqueninas
chiqueninu
chiqueninus
chiquina
chiquinas
chiquinina
chiquininas
chiquininu
chiquininus
chiquinu
chiquinus
chirivehis
chiriviqui
chiscano
chiscanoi
chiste
chne
cho
choc
chocan
chocazu
chocolati
choice
chomsky
chongqing
choose
chopin
chopus
choqui
chori
choricius
chorizu
chosen
chr
chris
christ
christi
christian
christianity
christmas
christopher
chu
chum
chune
chung
church
churchill
churriguera
ci
cia
ciaana
ciaania
ciaanu
ciaanus
ciadanus
ciaela
ciais
cian
cias
cibuen
cica
cicero
ciceronianu
ciclista
ciclistas
ciclope
ciclopedia
ciclu
ciclus
cid
cida
cidade
cidais
cidones
cidu
cidus
cie
ciegu
ciegus
ciel
cielo
cielos
cielu
cielus
cien
ciencia
ciencias
cient
cienti
cientu
cientus
cierra
cierral
cierrau
cierta
ciertas
cierto
ciertu
ciertus
cierva
ciervu
ciervus
cies
cieza
cifra
cifral
cifras
cigarra
cigu
cigudosa
cihuela
cii
ciis
cil
cilcu
cili
cilis
cilleros
cillerus
cilmenti
cima
cimbarra
cimenteriu
cimera
cimeras
cimeru
cimerus
cimu
cin
cinc
cincel
cinchu
cinco
cincu
cincuenta
cine
cinema
cinematogra
cini
cinta
cintas
cio
cios
circa
circle
circu
circuit
circuitu
circuitus
circula
circulacio
circulal
circular
circularis
circulatoriu
circunferencia
circus
cireni
cirgu
ciri
ciria
ciriaco
ciris
cirolares
cirrus
ciru
cirujales
cis
cisalpinas
cisjordania
cistei
cit
cita
cital
citamenti
citandu
citas
citation
citationclass
citations
citau
cite
citeref
citeriol
cites
citeseerx
citi
cito
citocromu
citoplasma
citosina
citoso
citosol
citu
city
ciu
ciua
ciuda
ciudad
ciudadanus
ciudadela
ciudades
ciuile
cius
ciutat
civil
civilis
cj
ck
ckoerner
cl
cla
cladu
claire
clamare
clara
claramenti
clarendon
clari
clark
clarke
claro
claru
clasecita
clasifica
clasificacio
clasis
class
classes
classic
classical
classics
classification
clau
claude
claudia
claudio
claudiu
clausura
clavelis
clavero
claves
clavi
clawthorne
cle
clean
cleaned
cleanti
cleanup
clear
cleme
clemente
clementi
clements
cleo
clermont
cleu
cleus
cli
clicks
clima
climas
climate
climatologi
climent
climi
climis
climugrama
clin
clinical
clinker
clip
clissau
clito
clitu
cliu
clius
clive
clock
clorofila
cloroformu
cloru
close
closing
cloud
clu
club
clube
clubis
clus
cluster
clusu
clyde
cm
cmbox
cn
cnica
cnicas
cnicu
co
coa
coagulacio
coalicio
coalicion
coauthor
coauthors
coautores
cobain
cobar
cobertura
cobitis
cobra
cobrandu
cobri
cobro
cochi
cochinu
cochiquera
cochis
cocido
cocina
cocu
cocus
coddi
coddina
code
codes
codifica
cody
coe
coello
coerenti
coetanu
coetanus
coetis
coficialis
cogecha
cogel
cogi
cogie
cogiendu
cogin
cognomen
coguta
cohen
cohi
cohiu
cohtrucio
coi
coifica
coifical
coigu
coigus
coimbra
coin
coincidi
coincidiendu
coincidil
coincii
coine
coins
cointerviewers
col
cola
colabora
colaboracio
colaboracionis
colaboran
colaborandu
colaborao
colaboro
colabuta
colabutacio
colabutacionis
colabutandu
colabutaoris
colabutau
colabuto
colandu
colas
colavoracio
colavoral
colavoraoris
colby
cold
cole
coleccio
colecio
colecionis
colecionismu
colecionistas
colectivu
colegiata
colegio
colegiu
colehiata
coles
coletivamenti
coletol
colgante
colganti
coli
colin
colinas
colindantis
colla
collaboration
collaciu
collacius
collapsible
collection
college
colleras
collier
collins
colmilleja
colo
colocacio
colofo
colol
cololis
colomb
colombia
colombianu
colombianus
colombo
colombufi
colon
colonia
colonial
colonialismu
colonias
colonic
coloniza
colonizacio
colonizacion
colonizaoris
colonus
coloquial
coloquio
color
colora
coloracio
coloracionis
colorado
colorantis
colorau
colores
colori
coloris
colors
colos
coltura
coltural
colturalis
colturas
colu
columba
columbia
columbus
columna
coluna
colunas
com
comalca
comalcas
comandanti
comandu
comarca
comarcal
comarcas
comarques
combati
combatiendo
combatientis
combatis
combina
combinacio
combinan
combination
combinations
combinau
combinaus
combo
combos
combustibli
combustio
come
comedia
comedias
comei
comel
comelcial
comelcialis
comelciu
comemorativa
comemorativas
comenc
comendador
comenienti
comenta
comenzo
comercial
comercialic
comercialis
comercianti
comerciantis
comercio
comerciu
comestibli
comestiblis
comeya
comi
comia
comics
comida
comienc
comillas
comin
comincia
coming
comio
comisariu
comisio
comissio
comistis
comite
comma
command
commas
commemorative
comment
comments
commercial
committee
common
commonly
commons
commonwealth
communities
community
como
comodi
comodiais
comotti
comp
compa
compact
compan
companion
company
compara
comparacio
comparal
comparanti
comparantis
comparau
comparaus
compare
comparedisplay
comparelink
comparepages
compares
compareurl
comparisons
comparsas
comparti
compartia
compartiendu
compartin
compartiu
compatible
compatibri
compay
compe
compete
competencia
competencias
competenti
competicio
competicionis
competil
complecio
complehu
compleja
complejas
complejia
complejida
compleju
complejus
complementa
complementaria
complementu
completa
completamenti
completas
complete
completed
completes
completivu
completo
completu
complex
complutense
complutensi
compo
componel
componen
componenti
componentis
components
componi
componieru
componin
componsi
compop
comportamientu
comportamientus
composicio
composicionis
composite
compositol
compositora
compositoris
compostela
comprebal
comprehensive
comprehia
comprementu
comprendel
comprendi
comprendias
comprendin
comprendiu
comprendius
comprensio
compreta
compretal
compretamenti
compretu
comprexu
comprica
compricau
compro
comprobar
comprometi
comprometiu
compromiso
compromissu
compromisu
compuesta
compuestas
compuestu
compuestus
compusicio
compusiendu
compusu
computacio
computaora
computer
comte
comu
comuelgu
comun
comuna
comunal
comunas
comunera
comunerus
comunes
comunia
comuniais
comunica
comunicacio
comunicacion
comunicaciones
comunicacionis
comunical
comunican
comunicau
comunida
comunidad
comunidade
comunidades
comunidais
comuniquin
comunis
comunismu
comunista
comunistas
comunita
comunitaria
comunmenti
con
cona
conakry
conas
concat
concatenate
concatenation
concausa
concausas
conce
concecio
concedel
concedi
concediendu
concedio
conceel
concehalis
concehu
concei
concejal
concejil
conceju
concejus
concelho
concencia
concentra
concentracio
concentracionis
concentran
concentration
concepcio
concepto
conceptos
concepts
conceptu
conceptus
concernienti
concerns
concert
concerta
concesio
concetu
concetus
conceutu
conceutus
conceyu
concha
conci
conciencia
conciertu
conciertus
conciliu
concilius
concissa
concluil
conclusio
conclusivu
concours
concreta
concretaenti
concretamenti
concretu
concretus
concuerda
conculsu
conculsus
concursante
concursantes
concursanti
concurso
concursu
condal
condalgu
condalgus
condao
condau
conde
condeixa
condena
condenau
condenaus
condensa
condensi
condes
condi
condicio
condicionis
condis
condita
condition
conditions
condizionis
condoms
conduci
conduct
conducta
conductol
conductor
condumiu
condumius
conduran
conduta
condutoris
conehal
coneju
conel
conesio
conessio
coneta
conetaba
conetau
conexionis
confederacio
confederacion
confere
conference
conferenceurl
conferencia
conferencias
confi
confianc
confianza
confieri
config
configuracio
configuration
confirma
conflent
conflict
conflicts
conflictu
conflictus
conflitu
conflitus
conflue
confluencia
conforman
confruin
confundil
confundilsi
confusionis
conge
congo
congregacio
congreso
congress
congressu
congressus
congresu
congresus
congu
conholma
conholman
conholmi
conhorma
conhorman
conhormandu
conhormi
conhugacio
conhuncionis
conhundil
conhundin
conhunta
conhuntamenti
conhuntu
conhuntus
coni
conifa
conimbriga
conjeturas
conjugacio
conjugacion
conjugaus
conjuncio
conjuncionis
conjunta
conjunto
conjuntu
conjuntus
conjura
conjuru
conlleva
conllevo
conmemora
conmemoracio
conmemoral
conmemorativu
connected
connections
cono
conoce
conocel
conocelsi
conocemus
conocencia
conocer
conoci
conocia
conocias
conocido
conocieru
conocierun
conocimiento
conocimientu
conocimientus
conocin
conocio
conociu
conocius
conomi
conos
conotacionis
conozi
conparanti
conparantis
conpassivu
conpo
conposicion
conquista
conquistal
conquistan
conquistaol
conquistaoris
conquistarun
conquistas
conquistau
conquistaus
conquisto
conrad
consagra
consagrau
consecucio
consecue
consecuencia
consecuencias
consegui
conseguia
conseguil
conseguir
conseguira
conseguiu
conseheria
conseheru
consehu
consehus
consejeri
consejeru
consejo
consejos
conseju
conselva
conselvacio
conselval
conselvan
conselvandu
conselvaol
conselvato
conselvau
conselvaus
conselvo
consensu
consensua
consequ
conserva
conservacio
conserval
conservan
conservandu
conservanti
conservantis
conservaol
conservaora
conservar
conservato
conservatoriu
conservau
conservaus
consider
considera
consideraba
considerabli
considerablis
considerably
considerabri
consideracio
considerada
consideral
consideralsi
consideran
considerandu
consideras
consideration
considerau
consideraus
considered
considero
consiera
consierabri
consieracio
consieral
consieralsi
consieran
consierandu
consierau
consieraus
consiero
consiga
consigu
consigui
consiguia
consiguiendu
consiguienti
consiguierun
consiguil
consiguin
consiguio
consiguiu
consistente
consistenti
consisti
consistia
consistorial
consolacionis
consolidal
consona
consonancia
consonanti
consonantis
consta
constant
constantementi
constanti
constantinopla
constantis
constitucio
constitucion
constitucional
constitucionalmenti
constitui
constituia
constituiu
constituyenti
constituyi
constituyin
construc
construccio
construcciones
construcio
construi
construia
construil
construiu
construius
construyerun
construyi
consu
consulta
consultado
consultau
consumi
consumidor
consumil
consumin
consumption
consumu
consurta
contaba
contabilic
contabri
contabris
contact
contacto
contactu
contaeru
contain
containing
contains
contal
contamina
contaminacio
contaminantis
contandu
contar
contara
contatu
contau
contautu
contautus
contava
contempla
contempora
contemporana
contemporania
contempura
contenda
contendri
contenel
contenga
contengan
conteni
contenia
contenido
conteniu
contenius
content
contentlang
contenttitle
contes
contest
contestal
contestandu
contestar
contestu
contestus
conti
contie
contien
contieni
contienin
contienti
contiesta
contina
continacio
continas
continativu
continental
continentalis
continenti
continentis
contingenti
continiu
continius
continu
continua
continuacio
continuamenti
continuo
continus
conto
contra
contrabandistas
contrabandu
contracio
contracionis
contrai
contrapara
contraparti
contrariu
contrasta
contrasti
contrastis
contratu
contratus
contre
contri
contribucio
contribucionis
contribui
contribuil
contribute
contribution
contributions
contributionurl
contributor
contributorlist
contributors
contribuyentis
contribuyin
contribuyo
control
controla
controlal
controls
conun
conurbacio
conus
convelsio
convencin
convencio
convencional
convencionalis
convencionis
convenienti
conveniu
convenius
convention
convento
conventu
conventual
conventus
convergencia
conversaciones
conversation
conversio
conversion
conversus
convert
converted
converti
convertil
convertilsi
converting
convertiria
convertiu
converts
conveys
convielti
convierta
convierte
convierti
conviltie
conviltiendu
conviltio
conviltiu
convirtie
convirtiendu
convirtiera
convirtio
convirtirian
convive
convivencia
convoa
convoca
convocal
convoco
convoo
conxuntu
cooficial
cook
cool
cooper
cooperacio
cooperativa
coord
coordena
coordinacio
coordinador
copa
cope
copenagui
coperacio
copia
copial
copias
copied
coplas
copper
copre
coptu
copy
copying
coquerosa
cor
cora
corac
coral
coralis
corazo
corbin
corbo
corcha
corchu
cord
cordal
cordaus
cordel
cordena
cordero
corderu
cordial
cordillera
cordilleras
cordinacio
cordo
cordobilla
corduba
cordube
core
corea
coreanu
coregu
coreografi
coria
coriambu
corinthi
corintios
corintu
coritiba
cornalvu
cornamusa
cornamuse
corne
cornell
cornifi
cornutu
coro
corona
coronado
coronaeru
coronas
coronau
coronel
coroni
corpo
corporacio
corporacionis
corporal
corporalis
corporate
corpos
corpus
corral
correa
correas
correcio
correct
correctly
corregil
corregirisbns
correhil
correicio
correl
correo
correol
corresponde
correspondencia
corresponderia
correspondi
correspondienti
correspondientis
correspondin
corresponding
correta
corretu
correu
correus
correutu
corri
corria
corrienditu
corriendu
corriente
corrienti
corrientienti
corrientimenti
corrientis
corrigil
corrobla
corrobra
corroelsi
corru
corrucion
corrutu
corsu
corta
cortal
cortas
corte
cortec
corteggiare
cortejal
cortejar
corteza
corti
cortijinu
cortijo
cortiju
cortijus
cortinas
cortinu
cortinus
cortis
corto
cortometragi
cortometraji
cortu
cortus
coru
corujas
corun
corus
corvo
cos
cosa
cosas
coscienti
coscurita
cosera
coses
cosinas
coslada
cosme
cosmolo
cosmologi
cosovu
cossa
cossario
cost
costa
costal
costalago
costana
costancia
costanti
costantimenti
costantinopla
costantis
costas
costau
coste
costelacio
costera
costeras
costeru
costi
costillas
costitu
costitucio
costitucion
costitucional
costitui
costituia
costituyi
costituyin
costrucio
costrucionis
costrui
costruia
costruias
costruicio
costruicionis
costruil
costruira
costruiu
costruius
costrutora
costruye
costruyendu
costruyerun
costruyi
costruyin
costruyo
costumbres
costumbri
costumbris
costus
cotidiana
cotorina
cotorru
cotran
cottere
cotu
coubertin
could
coulomb
council
count
counter
counteracts
counting
countries
country
courtney
couto
covaleda
covalentis
covid
cow
cox
coyontura
cozi
cozina
cozinal
cozineal
cp
cplp
cpsanvi
cr
cra
craig
craniu
crara
craramenti
craras
crarisas
craru
crarus
crash
crasi
crasifica
crasificacio
crasificacionis
crasificaeru
crasifical
crasificalsi
crasificau
crasificaus
crasifico
crasificun
crasis
crassi
crassicista
crassifica
crassificacio
crassificacion
crassifical
crassifican
crassis
crastini
crata
cratas
crati
cravi
cravis
crazy
crc
cre
crea
creacio
creados
creal
creandu
creaol
crear
create
created
createlink
creating
creativa
creative
creativia
creaturas
creau
crec
creceeru
crecel
creci
crecias
creciendu
crecienti
crecientis
crecimentu
crecimientu
crecin
crecio
cree
creencias
crei
crein
cremona
creo
creta
creu
creus
crevillente
crex
creye
creyencias
creyendu
creyentis
creyi
creyu
crh
cri
cria
criacio
criacion
criacionis
criaeru
crial
crian
criandu
criaol
criaoris
criara
criarun
crias
criau
criaus
cricket
crime
crimea
crimin
criminal
criminalis
crimson
crio
criolla
criollas
criollu
criollus
crise
crisi
crisipu
crisis
cristal
cristales
cristalinas
cristalis
cristiana
cristianas
cristiani
cristianismu
cristiano
cristianu
cristianus
cristina
cristo
cristobal
cristu
crite
criteriu
criterius
critica
critical
critico
crito
critu
criu
criya
criyacio
cro
croa
croacia
croata
croatas
croma
cromosoma
cronista
cronolo
cronologi
cronologia
croqueta
croquetas
cross
cru
cruc
cruci
crucificau
crucis
cruel
crus
crusades
crusta
cruz
cruza
cruze
cruzificau
cruzis
cry
cs
csb
csf
csh
csic
csn
css
csstext
ct
ctea
cter
ctica
cticamenti
cticas
cticu
cticus
ctil
ctilu
ctonas
ctor
ctra
ctrica
ctricas
ctrico
ctricu
ctx
cu
cua
cuacus
cuadro
cuadru
cuaharinga
cuaharingal
cuaharingan
cuaharingau
cuaharingaus
cuaharingo
cuaharingui
cuairau
cuairaus
cuairu
cuairus
cual
cuala
cualas
cualcita
cuales
cualesquiel
cualiais
cualicio
cualida
cualis
cualisquia
cualisquiel
cualisquiera
cualitativu
cualquiel
cualquier
cualquiera
cuando
cuandu
cuantas
cuantifica
cuantis
cuanto
cuantu
cuantua
cuantus
cuarc
cuarci
cuarcita
cuarenta
cuaresma
cuarta
cuartetus
cuartu
cuartus
cuasi
cuatelna
cuaternariu
cuatro
cuatru
cuba
cubana
cubanu
cubic
cubierta
cubiertas
cubiertu
cubiertus
cubilla
cubo
cubri
cubriendu
cubril
cubu
cucharas
cuculus
cudia
cudiau
cudiaus
cue
cueldas
cuellu
cuelpin
cuelpu
cuelpus
cuenca
cuencas
cuenta
cuentaba
cuentabris
cuental
cuentan
cuentandu
cuentas
cuentava
cuento
cuentos
cuentu
cuentus
cuerda
cuerdas
cuernavaca
cuernus
cuerpo
cuerpos
cuerpu
cuerpus
cuerta
cuertandu
cueru
cuerus
cuervus
cuesta
cuestio
cuestiones
cueto
cueva
cuevas
cuft
cuftnaturalgas
cuidado
cuin
cula
culas
culebras
culinariu
culo
culos
culso
culsu
culta
cultiva
cultivau
cultivu
cultivus
cultu
cultura
cultural
culturales
culturalis
culturas
culture
cultures
cultus
culu
culus
cum
cumbia
cumbre
cumbri
cumi
cummings
cumo
cumpli
cumplil
cumplimientu
cumpran
cumpri
cumpria
cumpril
cumprimentu
cumprimientu
cumprio
cumpriu
cumprius
cumu
cumucu
cumulonimbus
cumulus
cumunera
cumunerus
cumunis
cun
cuna
cunoci
cuota
cupidus
cura
cural
curau
curia
curial
curie
curiosa
curiosamenti
curiosia
curiosiais
curiosidad
curitiba
curr
currency
current
currently
curri
cursal
curso
cursos
cursu
cursum
cursus
curtis
curtiva
curtivus
curtu
curtura
curtural
curturalis
curturas
curtus
curva
curvas
cus
cusano
cuscu
cussu
custio
custion
custionis
custom
customary
customs
cut
cuta
cutis
cutu
cuya
cuyas
cuyd
cuyo
cuyu
cuyus
cuzco
cv
cvt
cvtround
cwt
cy
cycle
cycloheximide
cypriot
cœur
d
da
daa
daba
daban
dabu
dacca
dacia
dadu
dahl
dai
daily
daimiel
daishonin
daisuke
dakar
dal
dalarnas
dalcuerdu
dalecarlianu
dalgotru
dalgu
dalgunas
dalgunus
dali
dalis
dallas
dalma
dalse
dalsi
dam
dama
damas
damascu
dambas
dambos
dambus
dame
damien
damn
dan
danang
danc
dance
dancefloor
dandi
dandu
dane
danesa
danesis
dangan
dangu
dangunas
dangunus
daniel
daniela
danny
dans
dantis
danu
danubianus
danubiu
danza
danzas
dao
daquel
daquellas
daquellu
daqui
dara
dardanelus
dari
daria
dark
darkgrey
darlow
daro
darre
darriba
darwin
das
dash
dashes
dashtohyphen
dastur
dat
data
database
datacion
datan
dataset
date
dateformat
dates
dati
dativu
datos
datu
datus
dau
dauphine
daus
david
davidson
davies
davis
dawlat
day
dayfirst
daylast
days
dc
dd
ddr
de
dea
dead
deadurl
dealer
dear
deas
death
debaju
debati
debe
debel
debelsi
debemus
deben
deberi
debi
debido
debilia
debilitaeru
debin
debiu
debu
debug
debuhu
debuhus
debuju
debut
debuto
dec
deca
decade
decae
decaentistas
decametre
decanu
decassi
decayo
deceanglus
december
decenas
decendienti
decensu
decensus
deci
decidi
decidierun
decidil
decidio
decidun
deciendin
decii
decimal
decimals
decimeter
decimetre
decimus
decir
decisio
decision
decisionis
decisivu
deciyo
declamationes
declara
declaracio
declaracionis
declaration
declarau
declared
declaro
declina
declinacio
declivi
deco
decora
decoracio
decoracionis
decoral
decorate
decorated
decrara
decraracio
decrarativu
decrarau
decraro
decretarun
decreto
decretu
decretus
decumentacio
decumental
decumentalis
decumentau
decumentaus
decumentu
decumentus
dedica
dedicada
dedicado
dedicau
dedico
deduzi
deep
deepcopy
def
default
defaults
defendel
defendi
defendia
defendiendu
defensa
defensas
defensiva
defensivus
defensol
defensoris
defere
deferencia
deferencial
deferencias
deferenti
deferentis
deffunctum
defici
deficultais
deficurta
defiendi
defiendin
defilan
defili
define
defined
defini
definia
definias
definicio
definicion
definicionis
definierun
definil
definilsi
definin
definition
definitiva
definitivamenti
definitivu
definiu
definius
defius
defkey
deformacio
degital
degitalis
degli
degradacio
degree
degrees
deh
dehesa
dehesas
dehormacio
dehuntu
dehuyendu
dehuyi
dehuyil
dehuyo
dei
deica
deicau
deida
dein
deja
dejo
del
dela
delante
delanteras
delanteru
delantri
delas
delavo
delega
deleganti
delegaus
delete
delfi
delfu
delfus
delgado
delhi
delica
delicau
delimita
delitu
delitus
delivery
dell
della
dellas
delle
dellu
dellus
delo
delos
dels
delta
deltas
deluxe
dem
dema
demanda
demarcacio
demas
demaseau
demasiau
deme
demetrio
demo
democra
democracia
demogra
demografi
demografia
demonios
demostrandu
demostrativu
demostrau
demu
demuestra
demuestral
demugra
demugrafia
den
dende
dendi
dengu
denguna
dengunu
denia
deniz
dennis
denomina
denominaba
denominacio
denominacionis
denominal
denominan
denominaol
denominas
denominator
denominau
denominaus
denomino
denota
denotal
denotan
densa
densamente
densia
densiais
densida
densidade
densiguia
density
denstr
densu
densus
dental
denticulaus
dentre
dentri
dentro
dentru
denuncia
deo
deolinda
deop
departament
departamento
departamentu
departamentus
department
depatra
depende
dependel
dependencia
dependencias
dependent
dependera
dependi
dependia
dependiendo
dependiendu
dependienti
dependientis
dependin
depending
depends
depo
deporte
deportes
deporti
deportis
deportistas
deportiva
deportivas
deportivo
deportivos
deportivu
deportivus
deprecated
depredaoris
deprende
deprendel
deprendi
deprendiendu
deprendieru
deprendierun
deprendin
deprendio
deprendiu
deprendizahi
depressio
depth
deputa
deputacio
deputau
deputaus
deque
der
derecha
derecho
derechos
derechu
derechus
derecio
derek
dergau
derigenti
derigi
derigia
derigil
derigio
derigiu
derihenti
derihi
derihia
derihil
derihiu
deriva
derivacio
derivaeru
derivan
derivau
derivaus
derive
derivo
derroca
derrota
derrotal
des
desabita
desafi
desafrojal
desagradabli
desagu
desambigua
desamortizacio
desapaicio
desapaiciu
desapareci
desaparecias
desaparecio
desapareciu
desaparicio
desaparta
desapartaeru
desapartal
desapartan
desapartau
desapartaus
desarrolla
desarrollal
desarrollan
desarrollarun
desarrollau
desarrollo
desarrollu
desatamenti
desatitu
desaugua
desca
descabrija
descadencia
descansa
descarga
descargas
descartes
descendants
descendencia
descendienti
descendientis
descendio
descensu
desciendi
desciendin
desciplina
desconcertantes
desconhecida
desconoci
desconocias
desconocido
desconocin
desconocius
descontrol
descrebi
descrebil
descrebio
descrevil
describi
describil
describin
descricio
descricion
descricionis
descripcio
description
descrita
descritas
descritivu
descritu
descruyendu
descubiertas
descubiertu
descubiertus
descubri
descubrimientu
descubrimientus
descubrio
desculsu
descutin
desde
desdi
dese
desea
desean
desembarcu
desemboca
desembocan
desembocaura
desembocauras
desempen
desempleu
desen
desenbocaura
desengan
desenroa
desenroamientu
desenroo
deseosu
desepara
deseparau
deseu
deseus
desfruta
desgra
desgracia
desi
desiderativu
desieltu
desiertu
desiertus
design
designa
designal
desigual
desigualda
desilusionis
desina
desinacio
desinal
desinau
desine
desiste
desistenti
desistentis
desisti
desistia
desistiendu
desistierun
desistil
desistin
desitin
desminuin
desminuira
desnivelis
desolacio
desotra
desparrama
desparramancia
desplazamientu
desposicio
desprac
despreciabli
desprecio
desprendel
desprestigio
desprica
desprical
despropiacio
despue
despuebra
despues
desputa
desputas
desqueri
desquitandu
dessa
dessamin
dessas
dessegui
dessenro
dessepara
dessi
dessigil
dessiliu
dessinal
dessista
dessiste
dessistenti
dessistentis
dessisti
dessistia
dessistian
dessistil
dessistin
dessistio
dessiti
desta
destaca
destacabris
destacal
destacan
destacandu
destacarun
destacau
destacaus
destaco
destancias
destas
deste
destendi
destendia
destendiendu
destendio
destendiu
destendius
destensa
destensio
destension
destensu
desterral
desterrau
desti
destiendi
destierru
destila
destin
destina
destinados
destinan
destinau
destinaus
destincio
destingui
destinguiendu
destinguil
destinguin
destino
destinta
destintas
destintivu
destintu
destintus
destinu
destinus
destirajal
destrac
destraci
destribu
destribucio
destribuius
destritu
destritus
destruccio
destruia
destruiu
destruyerun
destruzio
destu
destus
desusu
desventajas
desvia
desvius
details
detalla
detalli
detallis
detect
detected
detection
detective
detects
detelmina
detelminau
detenel
determina
determinal
determinan
determinas
determinau
determinaus
determine
determined
determines
detra
deu
deuces
deuda
deudas
deus
deutsche
deutschlands
deva
devanagari
developed
development
develsus
devemus
devi
devidi
devii
deviia
deviias
deviilsi
deviin
deviiu
deviius
devil
devin
devina
devinia
deviniais
devinida
devinu
devis
devisio
devision
devisionis
deviu
devlin
devocio
devurgaeru
dexa
dexal
dexara
dexarun
dexisti
dexistin
dexo
dez
deza
dezena
deziembri
df
dff
dharma
dhm
di
dia
diabate
diabetis
diablo
diablu
diacri
diaeresis
diafragma
diagno
dial
diale
dialectales
dialectalis
dialecto
dialectologi
dialectu
dialectus
dialetal
dialetalis
dialetu
dialetulohia
dialetus
dialeutal
dialeutalis
dialeutu
dialeutus
dialnet
dialogi
dialogus
diamanti
diametru
diamond
dian
diana
diapaso
diapsida
diaria
diarias
diario
diariu
diarius
dias
diasistema
diato
diatriba
diba
diban
dibi
dibujo
dibuju
dibujus
dic
dica
dicamente
dicamenti
dicaprio
dicas
diccionari
diccionario
dice
dicha
dichas
dichos
dichu
dichus
dici
diciembre
diciembri
dicio
diciona
dicionariu
diciplina
diciplinas
dicis
dick
dico
dicos
dicotiledo
dictadura
dictau
dictionary
dictionnaire
dicu
dicus
did
dida
didi
didu
didun
die
diecise
diecisieti
diego
diendu
dientis
diera
dieron
dierun
dies
diesil
dieta
diete
diez
difere
diferencia
diferenciacio
diferencial
diferencian
diferencias
diferentes
diferenti
diferentis
diferenzia
diff
difference
different
diffmt
difi
difici
dificultosa
dificultosu
difieri
difusio
diga
digas
digest
digestio
digestivu
digit
digital
digitalis
digits
digna
digo
digu
digus
dijon
dil
dilsi
dimana
dimanaus
dimanche
dimensionis
dimi
dimiti
dimitri
dimmock
dimpue
dimus
din
dina
dinamalca
dinamarca
dinar
dinasti
dinastia
dinero
dineru
dinger
dinguela
dinia
dinosaurius
dio
diocesana
diocesano
dioni
dionisiu
dios
diosa
diosdado
dioses
diosis
diploma
diputacio
diputacionis
diputau
diputaus
dir
dira
direccio
direcio
direcion
direcionis
direct
directa
directamenti
directiva
directly
directo
directol
director
directory
directu
direicio
direta
diretamenti
diretiva
direto
diretol
diretora
diretoris
diretu
diretus
direutu
diri
dirige
dirigenti
dirigi
dirigia
dirigida
dirigido
dirigiu
dirigius
dirty
dis
disaca
disambiguator
disc
discapacidad
discapacitaus
disci
disciplina
disciplinas
disco
discogra
discografi
discografia
discogs
discouraged
discovery
discriminacio
discu
discubrimientus
discugrafi
discugrafia
disculpas
discurri
discurso
discursos
discursu
discursus
discus
discusio
discussion
discussions
discuti
discutiniu
dise
disease
disen
disieltu
disiertu
disiertus
disminucio
disminuyi
disney
disolventis
disolvio
disonanti
disp
dispensa
dispersa
display
displayauthors
displayed
displayeditors
disponel
disponi
disponiblis
disponibri
disponibris
disponiendu
disponin
disponiu
disposicio
disposicionis
dispositivu
dispositivus
dispue
dispuesinu
dispuestas
dispuestu
dispuntan
disputa
disputas
disputaus
disques
dissen
dissertation
dissimilau
dista
distance
distancia
distancias
distincio
distingui
distinguil
distinguilsi
distinguin
distintas
distintos
distintu
distintus
distressor
distribucio
distribucion
distribuieru
distribution
distributor
distritu
distritus
disueltu
dit
dita
ditadura
ditaol
ditas
ditaura
ditions
ditongacionis
ditongu
ditongus
ditus
diu
diurnas
diurnu
dius
div
diva
divelsa
divelsas
divelsia
divelsus
diversas
diverse
diversia
diversida
diversidad
diversio
diversity
diversu
diversus
divide
dividi
dividin
diviia
divina
divinu
divisa
divisas
divisio
divisionis
divo
divulgacio
divulgacion
divulgaol
dixendu
dixestivus
dixu
diz
dizi
dizia
diziembri
dizil
dizin
diðiembri
dj
djs
djudeo
dk
dl
dm
dmoz
dmy
dn
dna
do
dobli
dobretis
dobri
dobris
doc
doce
docenas
docenti
doci
dockery
docket
docname
docpage
docpagebase
docs
docspace
doctitle
doctor
doctoral
doctrina
documenta
documental
documentalis
documentation
documented
documents
documentu
documentus
does
doesn
dog
dogan
doh
doha
doi
doibroken
doing
dois
dola
dolar
dolmen
dolmin
dolol
dolores
dolorosa
dolus
dom
domain
domains
dome
domen
domenico
domestica
domesticacio
domesticus
domi
domici
domicianu
domin
domina
dominacio
dominanti
dominau
domingo
domingos
domingu
domingus
domini
dominica
dominicana
dominicu
dominio
dominiu
dominius
domino
domodedovo
don
donacio
donacionis
donald
donantis
doncellas
donde
dondi
done
donepairs
donetsk
dong
donina
donna
dono
donoso
donostia
donum
dor
dora
dorado
dorau
dordon
dordrecht
dormida
dormiinas
dorsal
dos
dose
dosso
dot
dota
dotau
dotis
dotol
dotor
dotoral
dotras
dotrina
dotrinas
dotru
dotrus
dots
dotu
dou
double
doubled
doue
douglas
douro
dove
dover
dow
down
dozena
dozi
dp
dplp
dpm
dq
dr
dra
drachm
drae
draft
drago
dragon
dram
drama
dramaturgu
draws
dream
dreams
dreamworks
dreitu
drentu
dresde
dresden
drew
dricu
drini
driu
driver
drogas
drum
dry
drygal
ds
dsb
du
dua
dual
duas
dubai
dubli
dublin
dubois
dubrovnik
duc
ducau
duci
ducis
duda
dudas
duduk
due
duelgu
duen
duendi
duendis
duero
dueru
dui
dula
dulce
dulci
dulcis
dulo
dumbo
dumboa
dummy
dun
duna
dunam
dunant
dunas
duncan
dunos
dunu
dunum
dunus
duo
duosa
duosu
dup
duplicate
duplication
dupricacio
duque
duqui
dura
duracio
duracion
dural
duran
durante
duranti
durara
durarun
duras
duration
durativeu
durban
durci
durcis
dureza
durii
during
durkheim
duro
duru
duruelo
durus
dus
dust
dutton
duu
duus
dux
dv
dvd
dwarfs
dy
dye
dyeus
dying
dynamite
dz
dziesma
dɛ
e
ea
each
earlier
early
earnshaw
earth
easier
easily
easo
east
eastern
easy
eat
eb
ebemus
ebera
eberia
eberiamus
eberie
eberien
ebi
ebia
ebin
ebis
ebiu
ebre
ebrea
ebreu
ebro
ebru
ec
eca
ecas
ececio
ececional
ececionis
eceel
eceentis
ecema
ecetu
ecetuandu
ecfcf
echal
echan
echavan
echevarri
ecia
eclesia
eclogae
eco
ecolo
ecologi
ecologia
ecology
econo
economi
economia
economista
economistas
economy
ecos
ecosistema
ecosistemas
ecta
ectarias
ecu
ecuacio
ecuacionis
ecuaol
ecuatorial
ecuno
ed
eda
edad
edades
edc
ede
eden
edgar
edic
edicio
edicion
ediciones
edicionis
edicions
edifi
edifica
edifical
edificio
edificios
edificiu
edificius
edil
edimburgu
edirne
edit
edita
edital
editandu
editar
edited
edition
editions
editlink
editol
editor
editora
editorcount
editores
editorformat
editorgiven
editorial
editorlink
editorlist
editormask
editors
editorseparator
editorsurname
edits
edric
eds
edu
eduardo
educa
educac
educacio
educacion
educancia
educaol
education
educativa
educativas
educativu
educativus
edward
edwin
ee
een
eeuu
ef
efe
efecto
efectoras
efectu
efectus
efesios
efestu
efetiva
efetivu
efetivus
efetu
efetua
efetus
efeutu
efeutus
effect
efficiency
efficient
efi
eficas
eficienti
efora
efta
eg
egeu
egi
egipciu
egiptu
egitu
ego
egu
eh
eha
ehaban
ehal
ehan
ehandu
eharia
eharras
ehe
ehecutivu
ehelci
ehemplu
ehempraris
ehempru
ehemprus
eherci
ehi
ehkkhe
eho
ehpan
ehpeci
ehpena
eht
ehta
ehti
ehtremaura
ehtremen
ehtudiu
ehtudius
ehu
ehun
ei
eica
eicau
eicio
eicionis
eico
eiffel
eifi
eificacio
eificiu
eificius
ein
eine
einfu
einstein
eiro
eisenstein
eissn
eita
eital
eitarun
eitau
either
eitol
eitorial
ej
eja
ejal
ejandu
eje
ejecucio
ejecucionis
ejecutiva
ejecutivu
ejelci
ejemplares
ejemplaris
ejemplo
ejemplu
ejemplus
ejempru
ejemprus
ejercel
ejerci
ejercicio
ejerciciu
ejercierun
ejercin
ejercio
ejerciu
eji
ejo
eker
el
ela
elabora
elaboracio
elaboraeru
elaboral
elaboran
elaborau
eladio
elam
elas
elba
elderly
ele
elea
elecciones
eleccionis
elecio
elecionis
electoral
electric
electrical
electricia
electricidad
electro
electromagne
electromane
electronic
electronis
electronvolt
electu
elefant
eleftheria
elegans
elegi
elegiu
elehi
elehia
elehias
elehiu
element
elemental
elementalis
elemento
elementos
elements
elementu
elementus
elena
eleni
elesia
eletoral
eletricamenti
eletricia
eletricida
eletro
eletroacu
eletromane
eletronegativia
eletronis
eletu
eleutronis
eleva
elevacio
eleval
elevau
elfdalian
elfdalianu
elhas
eli
elia
elico
eligil
elimentu
elimentus
elimina
eliminacio
eliminal
eliminan
eliminar
eliminau
elis
elisa
eliu
elizabeth
ell
ella
ellas
ello
ellos
ellu
ellus
elmana
elmore
elmundo
elnortedecastilla
elok
eloy
elpais
elpepiint
elperiodicoextremadura
els
else
elseif
elsevier
elta
elu
elum
elus
elustris
elva
elvas
elvi
elvin
elvira
elviro
elvis
em
email
emancipacio
emaus
emausbot
embahu
embaja
embaju
embalgu
embalse
embalses
embalsi
embalsis
embaraza
embargo
embargoed
embargu
embassy
embaxu
embeci
embecis
embedded
emblema
emblemas
embras
embrio
embrionariu
embu
emburaca
embutius
eme
emendi
emerita
emeritensi
emeritensis
emi
emigracio
emigranti
emigrantis
emigrau
emil
emilia
emiliano
emilianu
emilio
emils
eminentimenti
eminentis
emir
emira
emiratu
emiratus
emisfe
emisferio
emisferiu
emisio
emision
emisionis
emisol
emisoras
emission
emissoras
emit
emite
emiti
emitia
emitin
emits
emitted
emmanuel
emmerson
emocio
emocional
emocionis
emotion
empalmi
empar
emparenta
empe
empenc
emperaol
emperaoris
emperativu
emperativus
emperatri
empereur
emperial
emperialis
emperiu
empezo
empi
empienc
empiil
empiqui
empire
emplea
empleal
empleau
empleu
emplotiva
emplotivas
emporta
emportancia
emportanciosus
emportanti
emportantis
empre
emprea
empreal
emprean
empreau
empreaus
empremeabilia
emprenci
emprencipia
emprencipian
emprencipio
emprenta
emprentacio
empreo
empresa
empresariu
empresas
emprestau
empreu
emprincipius
empty
empuestus
empuhi
empunta
empuntal
empuntalu
empuntau
empunto
empuntu
emputecia
emulated
en
ena
enable
enabled
enabling
enantinu
enantis
enas
enc
encabec
encaenau
encaimientu
encalga
encamisa
encanta
encara
encarga
encargan
encargau
encargaus
encargo
encargu
encarnacio
encartaciones
encasulla
enceta
encetal
encetan
encetandu
encetara
encetarun
encetau
enceti
enceto
encetu
encetun
enchiridion
encia
enciclope
enciclopedia
enciclopeya
encima
encina
encinas
enclava
enclavi
enclavis
encli
enclu
enclui
encluia
encluian
encluil
encluin
encluius
enclusu
encluyendu
encluyi
enco
encode
encomienda
encompretu
encontabri
encontra
encontral
encontralsi
encontrar
encontrau
enconvenientis
encorporacio
encorporau
encravi
encrementa
encrementu
encru
encrui
encruias
encruil
encruin
encrusu
encruyendu
encruyi
encuaira
encubaora
encuentra
encuentran
encuentro
encuentru
encuentrus
encuesta
encuestas
encuestaus
encursionis
encyclopaedia
encyclopedia
encyclopædia
end
enda
endangered
endash
endashes
endbox
ende
endedica
endedol
endefiniu
endenantis
endentru
endepe
endepende
endependecia
endependencia
endependentismu
endependentista
endependentistas
endependienti
endependientis
endependizo
endespue
endespues
endi
endica
endical
endican
endicandu
endicativa
endicativu
endici
endigual
endilga
endilgal
endilgarun
endilgui
endilguis
endilgus
endireta
endirgal
endirgaol
endirgo
endirgui
endirguis
endirgus
endispu
endispue
endispues
endispuesinu
endistintamenti
endividu
endividual
endividualis
endividus
endopla
endoplasma
endrentu
endretu
ends
endu
endurecel
endurecimientu
endustria
endustrial
endustrialis
endustrializacio
endustrias
enduza
ene
enea
eneida
enel
enelgia
enelhia
enemies
enemigu
enemigus
energe
energi
energy
enerhia
enero
eneru
enfa
enfantil
enfants
enfarji
enfenecio
enferioris
enfermeda
enfermedadis
enfermeria
enfermu
enfijus
enfinitivu
enfinitu
enfinitus
enflacion
enflue
enfluencia
enfluencias
enfluyentis
enfoqui
enfoquis
enforcement
enforma
enformacio
enformacion
enfrentamientu
enfrenti
enfriamientu
enfrontilan
enfrue
enfruencia
enfruencias
enfruenciau
enfrujencia
enfruye
enfruyenti
enfruyentis
enfruyieru
enfruyo
enfunciona
enfuncionandu
enfurruscal
eng
engajeral
engalaterra
engan
engels
engenieria
engenieru
engenierus
engineering
engl
english
engloba
engredientis
engressa
engressal
engresso
engresus
engscale
engu
enhalla
enhallan
enhama
enhances
enhenieria
enhenierus
enhiesta
enhila
enholma
enholmacio
enhorma
enhormacio
enhormal
enhormativus
enhormau
eni
enicia
enicial
eniciandu
eniciativas
eniciau
enicio
eniciu
enicius
enjallalsi
enjama
enlace
enlaceautor
enlaces
enlaci
enlacis
enlia
enliaban
enlial
enliaus
enlio
enllena
enllenita
enllenu
enmeyatamenti
enmigracio
enmigrantis
enmuebris
eno
enormi
enormis
enos
enough
enpii
enpo
enporta
enportancia
enportanti
enportantis
enprenta
enpressivas
enquaira
enque
enqui
enquisicio
enretuertal
enreus
enrevesina
enric
enriched
enrichment
enrique
enriquecia
enriqueta
enriqui
ensaio
ensala
ensamblau
ensayista
ensayos
ensayu
ensayus
ensecal
ensen
ensin
ensitia
ensota
enstaural
enstauro
enstitucio
enstitucionis
enstrumentu
enstrumentus
ensularis
ensultara
entalla
entallau
entalli
entanga
entangal
entangau
entaponal
entaramaus
entativa
entavi
entavia
ente
entegra
entegracio
entegral
entegran
entegrau
entegraus
enteletual
enteletualis
entelgu
enteligencia
entelnacional
entelpretacio
entenas
entencio
entencionis
entendel
entendelsi
entendi
entendia
entendimientu
entendiu
entendius
entensa
entensas
entensia
entensivu
ententa
entental
ententandu
ententivu
entento
ententu
ententus
enteosas
enteosu
entepretacio
entera
enteracio
enteracionis
enteramenti
enteras
entercambeu
entere
entered
enteresa
enteresanti
enteresantis
enteresis
enteressa
enteressis
enteresso
enterinu
enteriol
enterna
enternacional
enternacionalis
enternu
enternus
entero
enterramientus
enterria
enterrogativu
entertainment
enteru
enterus
entervencio
entervencion
enti
entia
entiais
entida
entidad
entidais
entie
entiendi
entiendin
entiendu
entifica
entifical
entire
entis
entities
entitula
entitulal
entitulau
ento
entoavi
entocis
entonces
entoncis
entornu
entornus
entovi
entovia
entra
entrada
entral
entramus
entran
entrancal
entrandu
entrara
entrarun
entrau
entre
entrega
entregau
entrego
entremeyas
entrenacional
entrenacionalis
entrenador
entrenamientu
entrenaol
entrepeta
entretenimientu
entrevalu
entrevista
entrevistas
entrevistau
entrevoca
entri
entrichamba
entrichambabris
entriega
entriegaba
entriego
entries
entrihazi
entrimeyu
entrinacional
entrinacionalis
entrinacionalmenti
entrincanti
entrivista
entrivoca
entrivola
entro
entrod
entroducia
entroduzi
entroduzia
entroucio
entry
entwurf
enu
enugra
enumerated
enus
env
envadio
envaia
envasio
envasion
envasionis
envasol
envasoris
envejecimientu
envencio
enventa
envental
enventau
envento
enventol
enventoris
enventu
enventus
envera
enverea
envestigacio
envestigacion
envestigacionis
envestigaeru
envestigaol
envestiu
envfunc
envfuncs
envi
envia
enviau
envidial
envio
environment
environmental
envita
envitaus
envito
envruequi
enwiki
enxaretal
enzima
enzimas
enzyme
eo
ep
epa
epe
epente
epi
epicteto
epictetu
epicu
epicureistas
epicuru
epidemia
epidemicae
epidemiology
epigrama
epigramas
epimeteu
epipaleuli
episcopal
episode
episodelink
episodio
episodios
episodiu
episodius
epistemowikia
epistola
epistulae
epistulæ
epitetu
epoca
epocas
epopeya
eporti
eportis
eportiva
eportivus
eprint
epstein
equ
equadol
equal
equals
equation
equatorial
equi
equili
equilibrio
equilibriu
equinociu
equinu
equipamientus
equipos
equipu
equipus
equites
equival
equivale
equivalent
equivalenti
equivalentis
equivali
er
era
eracli
eraclitu
eran
eras
erba
erbi
ercegovina
ere
ereau
erederus
ereeru
erencia
erg
ergativu
erguijuela
ergullu
ergumentu
ergumentus
eric
erik
eris
eritrea
eritrocitus
ermana
ermanu
ermanus
ermida
ermita
ermitas
ermundurus
ernest
ernesto
ero
erodianu
erodium
eros
erosio
erosion
erotismu
err
erro
errol
error
errorcomment
errors
errs
erta
ertas
ertra
ertu
ertus
eru
eruditu
erupcio
erus
erva
ervad
ervi
ervin
ervu
es
esa
esapaicel
esapaicio
esarrolla
esarrollal
esarrollan
esarrollandu
esarrollau
esarrollo
esarrollu
esas
esatitu
esbarrumba
esboc
esborra
esborral
esborrara
esborrau
esborraus
esc
esca
escabecha
escachas
escala
escalas
escalda
escalera
escalona
escalote
escamas
escambaja
escan
escandinavia
escapa
escapazis
escape
escapebrackets
escapo
escarchaura
escarpa
escarpi
escasa
escasas
escase
escassas
escasus
escava
escavacionis
esce
escecional
escele
escelenti
escena
escenariu
escenas
escenificacio
escepcionis
escesiva
escesu
escetu
eschangabaili
eschangal
eschango
esclava
esclavitu
esclavo
esclavus
esclusiva
esclusivamenti
esclusivus
esco
escoba
escobar
escobas
escobosa
escoce
escocesis
escocia
escogel
escolal
escolaris
escomenc
escomencipio
escomienc
escomienzu
escondichas
escontra
escorial
escramativu
escrava
escravitu
escravu
escravus
escrebi
escrebia
escrebias
escrebiendu
escrebiera
escrebieru
escrebil
escrebilsi
escrebimus
escrebin
escrebio
escrebiol
escrebiolis
escrebiora
escrebioris
escrebiu
escrebiura
escrebius
escrebu
escrevi
escrevia
escreviera
escrevieru
escrevil
escrevio
escreviol
escreviora
escrevioris
escrevira
escreviu
escreviura
escrevius
escribi
escribil
escribin
escribio
escribiol
escribiola
escribiolis
escribir
escribiura
escricio
escricionis
escrita
escritas
escrito
escritor
escritores
escritoris
escritos
escritu
escritura
escritus
escrivienti
escrivientis
escrivio
escrucal
escrucaoris
escu
escuadra
escuchal
escudo
escuela
escuelas
esculenta
escultol
escultor
escultoris
escultura
esculturas
escura
escurana
escuras
escurial
escuro
escurriu
escursionis
escurtol
escurtura
escurturas
escuru
escurus
escusa
ese
esencial
esencialis
eses
esfe
esfera
esferas
esferu
esgalac
esgalamiu
esgarras
esgueva
esguil
eshuerc
esi
esillus
esiodu
esis
eskalon
eskuc
eslavas
eslavus
eslova
eslovacu
eslovaquia
eslove
eslovenu
esmenc
esmiajal
esmienc
esmienza
esmienzan
esmienzandu
esmienzo
esmienzu
esmincial
esmincio
esmirna
esnalo
eso
esos
esp
espa
espacial
espacialis
espacio
espacios
espaciu
espacius
espada
espadan
espaecio
espalda
espan
espana
espandi
espandira
espanha
espanhol
espanhola
espansio
espansion
espansionis
espansivu
espantaperrus
esparecio
esparigu
esparrama
esparramamientu
esparramo
esparta
espartanu
espartanus
espasa
espe
especi
especial
especiales
especialia
especialic
especialis
especialista
especialistas
especializa
especializau
especializaus
especialmente
especialmenti
especias
especie
especies
especifica
especii
especiis
especis
espedicio
espedicion
espedicionis
espejo
espeju
espen
espena
espenal
espenan
espenara
espenau
espeno
espera
esperanc
esperanza
espere
esperezun
esperie
esperiencia
esperiencias
esperimenta
esperimentau
esperimentu
espermatoddoidi
espermatoddoidis
espermiograma
esperria
esperriaban
esperriau
esperrio
espertu
espertus
espeta
espetacularis
espetaoris
espetru
espetu
espetus
espezis
espi
espienc
espiga
espinac
espino
espinosa
espinoza
espira
espiral
espiralis
espiritual
esplendol
esplendor
espli
esplica
esploraol
esploraoris
esplotacio
esplotacionis
esplotaeru
esplotiva
esplotivas
esplotivu
espo
espondeu
espondeus
esponenti
esponentis
esponia
esponta
espora
esporas
esportacio
esportacionis
esposa
esposicio
esposicionis
esposu
espranacio
espresa
espresal
espresio
espresionis
espressa
espressal
espressionis
esprica
esprical
espricotea
espricoteal
esprimenta
esprimental
esprimentan
esprimentarun
esprimentau
esprimento
esprimentus
espritos
espritu
espronceda
esproraol
esproraoris
esprotacio
espublica
espublicau
espubrica
espubricacio
espubricacion
espubricacionis
espubrical
espubrican
espubricandu
espubricarun
espubricau
espubricaus
espubrico
espuesta
espuestu
espuestus
espulsa
espuntaus
espurechamientu
espurechas
espurechu
espurgabuei
esqueletu
esquema
esquemas
esquerda
esquerosu
esquierda
esquilo
esquilu
esquisitu
esquistu
essa
essarrollan
essas
essays
esse
essencial
essencialis
essential
essestencia
essesti
essestin
essestio
essestiu
essi
essista
essistencia
essisti
essistin
essote
essu
essus
est
esta
estaba
estaban
estabilia
estabilida
estabilizal
establecel
estableci
establecia
establecias
estableciendu
establecimientu
establecimientus
establecin
establecio
estableciu
establecius
establi
estabrecel
estabrecimientu
estabri
estabris
estaca
estacio
estacional
estacionalis
estacionariu
estacionis
estadi
estadio
estado
estados
estadounidensi
estadunidensi
estai
estal
estalachis
estalacionis
estalau
estalla
estallido
estambul
estampa
estampana
estamus
estan
estandal
estandaric
estandarizacio
estandu
estanislao
estanti
estar
estara
estaramaus
estaria
estarian
estas
estatal
estatalis
estatu
estatua
estatuas
estatus
estatuto
estatutos
estatutu
estau
estaunidensi
estauniensi
estauniensis
estaus
estauta
estautas
estava
estavan
estayu
estazionis
este
esteatohepatitis
esteatopigia
esteban
estel
estela
estelnu
estelnus
estenazas
estendel
estendi
estendia
estendie
estendio
estendiu
estensa
estensamenti
estensio
estension
estensivu
estensu
estensus
estepa
estereoce
esteriol
esterior
esterioris
esterlina
esterna
esternu
esternus
estesi
esti
estiano
estiendi
estiendin
estijeras
estila
estilaba
estilan
estilava
estilla
estilo
estilu
estilus
estima
estimacio
estimacionis
estimaeru
estimau
estimula
estimulacio
estincio
estinguio
estinguiu
estintus
estio
estirancau
estirpi
estitucio
estitucional
estitucionalis
estitucionis
estitutu
estitutus
estival
esto
estocolmu
estoi
estoica
estoicismu
estoicos
estoicu
estoicus
estol
estomka
estonia
estoniu
estoria
estorial
estoriaol
estoriaoris
estoriogra
estoriografi
estoriografia
estos
estoy
estrabo
estracio
estrada
estrael
estrai
estran
estrangeru
estranheras
estranjerus
estraseras
estrate
estrategia
estraterrestri
estratus
estre
estrecha
estrechamenti
estrechu
estrella
estrellas
estrellinas
estrellita
estrema
estremadura
estremas
estremau
estremaura
estremaweb
estremen
estremu
estremus
estrena
estreno
estrenu
estri
estriba
estribacionis
estrictamenti
estrictu
estritamenti
estritu
estroc
estrofa
estrofas
estrordina
estrucio
estructura
estructural
estructuras
estruia
estruicio
estrumentacio
estrumental
estrumentu
estrumentus
estrumpil
estrumpiu
estrunca
estrutura
estrutural
estruturas
estu
estua
estuariu
estuarius
estudia
estudial
estudian
estudiantis
estudiau
estudiaus
estudio
estudios
estudiosus
estudis
estudiu
estudius
estumpiu
estus
estuviendu
estuviera
estuvierun
estuvu
estuvun
estuya
estuyaeru
estuyal
estuyan
estuyandu
estuyanti
estuyantis
estuyara
estuyo
estuyosu
estuyosus
estuyu
estuyus
esu
esuatini
esus
esvalidoisbn
esvarciando
esvazial
esvreal
eswiki
et
eta
etal
etapa
etapas
etc
eteocli
eterminau
eterna
eternu
etero
ethel
ethics
ethnologue
eti
etimolo
etimologi
etimologia
etimulo
etimulogia
etimulohi
etimulohia
etiopia
etiqueta
etiquetalsi
etnia
etno
etnogra
etnografi
eto
etope
etruscu
etruscus
ett
etu
etxebarri
etxebarria
etxepare
eu
euca
eucariota
eucariotas
eucativa
eucativus
eufo
eufratis
euge
eugenio
eula
eulalia
euler
eur
eureka
euro
euromaida
europa
europaea
europapress
europe
europea
european
europeu
euros
eurovisio
eurovision
euru
eurus
eusebio
eusk
euskadi
euskal
euskera
ev
eva
evaluacio
evaluaeru
evange
evangelista
evans
evapora
evaporacio
even
evening
event
evento
eventu
eventually
eventurl
eventus
ever
everest
everett
everlasting
every
everybody
everyone
evi
evic
evide
evidencia
evidencias
evie
evis
evit
evital
evitan
evitandu
evo
evol
evolucio
evolucionandu
evolution
evolutionary
evolutiva
evu
evus
ex
exa
exactly
examen
examination
example
examples
excepcio
except
exception
exceptions
exceptu
excesiva
excitacio
exclude
exclusivamente
exclusive
exe
executions
exempla
exemplu
exhaust
exilio
exist
existe
existen
existencia
existentis
existi
existil
existin
existing
exists
exp
expanded
expansio
expected
expecttype
experencia
experience
experiencia
experiment
experimental
experimentus
expertos
experts
expired
explica
explical
explican
explorer
explotacio
exponent
exposicio
expresio
express
expression
expstr
ext
extended
extensio
extension
extensions
exteriol
exterior
externa
external
externallink
externallinkid
externos
externu
externus
extiendi
extincio
extinct
extra
extract
extracted
extractnames
extracts
extrai
extran
extraneous
extranjero
extrema
extremadura
extremaduran
extremau
extremaura
extremen
extremida
extremo
extremoduro
extremos
extremu
extremus
extwiki
exupe
eyaculacio
eyaculau
eye
eyed
eyos
ez
ezil
eɾa
f
fa
fab
fabetus
fabla
fabra
fabrica
fabricacio
fabrical
fabricantis
fabricaus
fabula
fabulare
fabuleux
facebook
facha
fachada
faci
facial
facilida
facilita
facilital
facilitan
facilitandu
facilitarun
facilito
facilmenti
fact
factbook
facto
factor
factoris
factors
facts
faculta
facultad
facultais
facurta
facurtais
fadd
fadu
fagin
fago
fagu
fagus
fahrenheit
fail
failed
failing
fails
faisanis
faith
fajalauza
fakiri
fala
falada
falantes
falanti
falantis
falar
falas
falco
falcucci
fall
falla
fallback
fallece
falleciu
fallus
falo
false
falta
falu
fam
fama
fami
famiglia
familia
familial
familiar
familiaris
familiarizau
familias
family
famo
famosa
famosas
famosos
famosu
famosus
fan
fandango
fani
fans
fantasia
fantasmas
fao
faq
far
farao
fargs
farina
farka
faro
farquharson
farrunga
farsa
farsu
farsus
farta
farther
faru
fas
fase
fasi
fasis
fassi
fasu
fatal
fato
fatol
fatoris
fatu
fauna
fauno
faustina
favol
favor
favorabli
favorabri
favorabris
favorecel
favoreci
favorecius
favoritus
faxa
faye
faze
fazer
fc
fcgi
fco
fd
fe
feat
feature
featured
features
feb
febrero
febris
february
fecal
fecha
fechaacceso
fechaarchivo
fechal
fechar
fechas
fechau
fecho
fecundacio
fecundacion
fecundal
federacio
federacion
federacionis
federal
federalis
federalmenti
federation
federau
federaus
federer
federico
fedo
fedru
feed
feedback
feel
feet
fegura
feguran
feguras
fegurau
feijo
feijoo
feira
feji
feldespatu
feldmoching
feli
felices
felicia
felipe
felipi
feliz
fem
femenina
femeninas
femeninu
femeninus
feminina
femininas
femininu
femininus
feminismu
femme
femmes
feni
feniciu
fenicius
feno
fenucu
feqiye
fera
feras
ferdinand
ferecra
feria
ferial
ferias
fermentau
fermi
ferna
fernanda
fernando
fernandu
feroe
feroes
ferrand
ferrara
ferrer
ferritu
ferrocarril
ferrocarrilis
ferrol
ferrovia
ferrucarril
ferruvia
ferry
fertilida
fertilization
feru
ferus
fest
festa
festejus
festival
festivalino
festivalinu
festivalis
festivia
festivu
fesu
fet
fetch
fetchlanguagename
feu
feudal
few
fez
ff
ffa
ffm
fft
fi
fiablis
fianc
fiat
fibra
fibras
fic
fica
ficaenti
ficamente
ficamenti
ficanc
ficas
ficha
ficio
ficit
fico
ficos
ficr
ficu
ficus
fide
fideicomisu
fidias
fiebri
fiel
field
fields
fielis
fielmenti
fierabra
fiesta
fiestas
fifa
figs
figueredo
figueroa
figura
figuras
figure
figures
fiha
fihas
fihu
fija
fijan
fiju
fila
filas
filate
file
filebu
filemo
files
fili
filiacio
filip
filipinas
filipinus
fill
film
filmaffinity
filmografi
filmografia
filo
filogenia
filohenia
filolo
filologi
filologia
filolohia
filoso
filosofal
filosofi
filosofia
filters
filtracio
filu
filulo
filus
filuso
filusofi
filusofia
filusofu
filusofus
fin
fina
final
finales
finalia
finalida
finalis
finalista
finally
finalmente
finalmenti
financia
financial
financieru
financierus
finas
finca
fincalidais
fincas
find
finds
fine
fingal
finis
finla
finlande
finlandia
finn
fino
finu
finura
fio
fiorella
fiques
fire
firefox
firenze
firma
firman
firmandu
firmarun
firmau
firmi
firmicutes
firmo
first
firstn
fiscal
fiscalis
fisher
fisicoqui
fisicu
fisiolo
fisiologi
fiu
five
fix
fixa
fixed
fixing
fixup
fixups
fiyi
fiyianu
fizo
fj
fl
fla
flabellifer
flag
flagela
flagged
flags
flama
flamenco
flamencu
flandes
flandis
flar
flash
fle
flecha
flechas
flessio
fleurs
flint
flip
flipped
floor
flor
flora
florales
florals
flore
florence
florencia
florentinu
flores
florida
floru
flow
flu
fluhu
fluid
fluidus
fluil
fluiu
fluju
flutuacionis
fluvial
fluvialis
fluyi
fly
fm
fmargs
fmbox
fmi
fmt
fo
focal
focu
focus
foe
fogal
fogo
foi
foix
fol
folasterus
folclo
folclore
folclori
folio
folk
folklo
folklore
folklori
folleto
follow
followed
following
follows
fomentacio
fomental
fomentu
fon
fonas
fondo
fone
fonema
fonemas
foneticamenti
fonil
fono
fonolo
fonologi
fonologia
fonseca
font
fontsize
fonu
fonulo
fonus
foo
food
foot
football
for
foral
foralis
foras
forasteru
forasterus
forbes
force
foreign
forensi
forestal
forestalis
forever
foreword
foriata
foriatus
form
forma
formacio
formada
formal
formalis
formalmenti
forman
formandu
formas
format
formatdate
formateados
formatinlanguage
formatmessage
formato
formats
formatted
formatting
formau
formaus
forme
formientu
forms
fornari
foro
foros
fort
fortaleza
fortnight
fortuna
fortune
foru
forum
forus
forward
fosa
fosfatidilserina
fosfatu
fosfoli
foto
fotogra
fotografi
fotografia
fotorrecepcio
fotos
fotosi
fotu
fotus
found
foundation
four
fourth
fox
fr
fra
frabical
frac
fracaso
fracasu
fracpart
fraction
fracture
fracu
fragmenta
fragmentacio
fragmentation
fragmentos
fragmentu
fragmentus
fragosu
fraguandu
fraguau
fraili
frame
frameless
framentus
framework
franc
franca
france
frances
francesa
francesan
francesas
francesc
francesco
francesis
francia
francis
franciscana
franciscanu
francisco
franciscu
franck
franco
francu
francuprovenc
francus
frandis
franja
frank
frankfurt
franquismu
franquista
franz
frasco
frasi
frasis
fratrem
frauta
frautas
fray
frazio
fre
frea
freak
frechilla
frecue
frecuencia
frecuentementi
frecuenti
frecuentis
fred
frederick
free
freedom
fregenal
freguesias
frehenal
french
frente
frenti
frentis
frequ
fresca
frescas
frescu
frescus
fresno
fresnu
freud
frexenal
freylas
fri
fria
friascu
frica
fricativa
fricativas
fricativizacio
fricativu
fridin
friedrich
friend
frigiu
frijonis
fritas
fritus
fritz
friu
friul
friulanu
frius
frol
frolis
from
frontal
fronte
frontera
fronteras
fronteric
fronterizu
frora
froralis
froris
frost
frota
fructosa
fruhian
fruhin
fruit
fruta
frutal
frutalis
frutas
frutu
frutus
fruyi
fruyin
fry
fs
ft
ftin
ftlb
ftlbf
ftp
fu
fubolista
fubu
fubulista
fuchs
fudge
fue
fuego
fuegu
fuel
fuenlabrada
fuensaldan
fuensanta
fuente
fuentecantos
fuentelmonge
fuentelsaz
fuentepinilla
fuentes
fuentestru
fuenti
fuentis
fuera
fuero
fuerte
fuertes
fuerus
fuerza
fueu
fuga
fui
fuiteiru
fujimori
fukelman
fulanu
full
fullurl
fumec
funchal
funcio
funcional
funcionariu
funciones
function
functional
functionality
functions
funda
fundac
fundacio
fundamental
fundamentalis
fundamentalmenti
fundamentals
fundaol
fundo
fundraiser
fundraising
funera
funeral
fungi
fur
furbol
furens
furlan
furraca
furriona
furrionas
furrulaba
furrulal
furrulan
further
fusca
fusio
fusion
fussi
fuster
futbol
futura
future
futurista
futuro
fuzzy
fy
fyero
g
ga
gabarrus
gabata
gabauda
gabineti
gabo
gabriel
gac
gacha
gachas
gacheras
gadafi
gadis
gadu
gae
gafas
gafotas
gaia
gail
gainza
gaita
gaitas
gaiteru
gaius
gaiva
gaja
gal
gala
galaicu
galardonis
galassia
galassias
galaxias
gale
galega
galegos
galera
galeri
galeria
gales
galesis
gali
galia
galicia
galilei
galileo
galindo
galipedia
galis
galisteu
galiza
gall
gallardo
gallaro
gallega
gallego
gallegu
gallegus
gallery
gallimard
gallina
gallinas
gallon
gallons
gallu
gallus
galo
galtung
galu
gama
gamas
gambia
gambusinu
game
gamelan
gamero
gametus
gamma
gamu
gan
gana
ganaderi
ganador
ganaera
ganaeria
ganaeru
ganal
ganan
ganaol
ganaora
ganaoris
ganar
ganarun
ganau
ganaus
gand
gandhi
ganges
gangis
ganna
gano
ganti
ganu
gao
gaps
gara
garantiza
garantizal
garantizandu
garb
garba
garbanzos
garbi
garci
garcia
garde
garden
gardener
gardner
gargallo
garganta
gargantas
gargoris
gargu
gari
garland
garona
garray
garri
garrido
garros
garrovillas
garruchajal
garten
gary
gas
gasco
gaseosa
gaseosu
gaseosus
gasis
gasolina
gasoline
gasopeta
gaspachu
gasset
gasta
gastaba
gastaban
gastaeru
gastal
gastalsi
gastalu
gastamus
gastan
gastandu
gastaran
gastarun
gastas
gastau
gastaus
gastava
gastavan
gasteiz
gasti
gastin
gasto
gastronomi
gastronomia
gastronumia
gastu
gastus
gata
gate
gates
gato
gatos
gatu
gatus
gau
gaudi
gauge
gaulle
gauss
gautama
gauthier
gavilla
gay
gayo
gayu
gaza
gb
gbp
gco
gd
gdansk
gdgourou
ge
gehry
gela
gelaus
gelma
gelmana
gelmanamientu
gelmanas
gelmanu
gelmanus
gemina
geminacionis
gen
gena
genas
gene
genera
generacio
generacion
generacionis
general
generalis
generalitat
generalizau
generally
generalmente
generalmenti
generan
generandu
generate
generated
generates
generation
generational
genero
genes
genetics
geni
genil
genis
genital
genitivu
genoma
genova
genre
gens
gente
genti
gentili
gentiliciu
gentis
genu
genus
geo
geodesia
geogra
geografi
geografia
geographic
geographical
geography
geolgianu
geolo
geologi
geologia
geome
geometri
geometria
geomorfologia
george
georges
georgia
georgianu
georgicae
geppetto
ger
gerais
geral
gerardm
germa
german
germanas
germania
germanicus
germanu
germanum
germanus
germany
geru
gerundial
gerundiu
gerundium
gerundivu
gesta
geste
gestio
gestus
get
getafe
getargs
getcontentlanguage
getcurrenttitle
getdate
getenvironment
getmetatable
getparent
gets
gettitle
gettitleobject
gfc
gg
ghana
ghibelli
ghil
ghirlandaio
gi
gia
gibraltal
gibraltar
gica
gicamenti
gicas
gico
gicos
gicu
gicus
gielu
giernu
gift
gigalitre
giganti
gigantis
gigatonne
gigawatt
gijo
gil
gilbert
gili
gill
gille
gilroy
gima
gimen
gimi
gimin
gimnasia
gin
gina
ginas
gine
ginebra
ginecologi
ginis
gion
gional
giordano
giorgio
giovanni
gipuzkoa
gira
giring
girl
giro
girona
gironda
giros
git
gitanus
giu
gius
giuseppe
give
given
gives
giving
giza
gj
gje
gl
gla
glacial
glaciaris
glario
glasgow
glayo
glen
glico
glo
global
globally
globals
globe
globo
globu
gloria
glu
gluco
glucosa
glutatio
gm
gmatch
gmol
gn
gnaeus
gnome
gnulinex
go
goa
goal
gobelnal
gobelnantis
gobelnau
gobelno
gobernacio
gobernal
gobernanti
gobernaol
gobernarun
gobernau
gobi
gobielnan
gobielnu
gobielnus
gobierno
gobiernu
gobiernus
goc
gocha
gochu
god
godal
godfather
godoy
godus
goe
goebbels
goes
gogh
goia
gol
gold
golden
goldre
goleadoras
goleaol
golf
golfu
golgi
golis
golmayo
golpeal
golpi
golvel
golvi
golviendu
golvierun
golvio
goma
gomera
gomes
gonc
gone
gonu
gonza
gonzalez
gonzalo
good
google
gopher
gor
gora
goran
gordas
gordillo
gordo
gordon
gordu
gorfu
gorka
gormaz
gorpi
gorra
gorras
gorvel
gorvelsi
gorvierun
gorvio
gorvun
gospel
got
gota
gotas
gottfried
goulou
goundarou
gov
governanti
governantis
governaol
government
goviernu
goviernus
goya
gozo
gps
gr
gra
graba
grabacio
grabacionis
grabado
grabados
grabal
graban
grabarun
grabau
grabaus
grabiel
grabielana
gracia
gracial
graciaris
gracias
gradacio
gradient
grado
gradu
gradua
gradual
graduo
graecia
grafi
grafia
grafias
grafu
grafus
grain
gram
grama
gramatical
gramaticalis
grami
grammar
grammy
grams
gramus
gran
grana
granada
granadilla
granadina
granados
granai
granailla
granaina
granainas
grand
grande
grandes
grandi
grandis
grandol
grandpa
granel
grani
granito
granitu
granitus
granja
grant
granu
granulumetria
granus
grape
grasas
grass
grassa
grasus
grateful
grau
graus
grava
graval
gravami
gravamis
gravarun
gravea
graveda
graves
gravi
gravimenti
gravis
gravitacional
gravitatoria
gravity
gray
gre
great
greater
greatest
grec
grecia
greco
grecu
greda
gredos
gredus
greece
greek
green
greenwich
greenwood
gregorian
gregorianu
gregorio
gregoriu
gregory
gregu
gregus
gremiu
grenada
grenoble
greus
gridcolor
griega
griegas
griego
griegos
griegu
griegus
griffin
grillus
grimm
gris
grisa
grisis
grison
grito
groenla
groenlandia
grosol
grosso
group
grouping
groups
groupsgroups
grows
growth
grrm
gru
gruessu
grupo
grupos
grupu
grupus
gs
gsub
gt
gu
gua
guaalupi
guadalahara
guadalajara
guadalcanal
guadalenti
guadalquivil
guadalupe
guadalupi
guadarrama
guadiana
guadix
gual
gualterio
guam
guan
guangxi
guangzhou
guanina
guanu
guarani
guarda
guardado
guardal
guardamar
guardia
guardian
guaren
guarreu
guarru
guarrus
guas
guatemala
guay
guayana
guayaquil
gubernamental
gubernamentalis
gueda
guernsey
guerra
guerras
guerreras
guerrero
guerreru
guerrilla
guerta
guez
guggenheim
guglielmo
gui
guia
guial
guide
guidelines
guihu
guijitu
guijo
guiju
guijuelus
guila
guilin
guille
guillermo
guinea
guio
guion
guionista
guipa
guipai
guipal
guipau
guipu
guisu
guitarra
guitarras
guitarrista
gula
gulya
gum
gura
gurejele
guresu
gurulla
gus
gusma
gustaba
gustan
gustari
gustativas
gustave
gustavo
gustu
gutenberg
gutie
guu
guus
guyana
guyane
gv
gw
gy
gynecology
gyo
gyptien
h
ha
hab
haba
habali
habana
habel
haber
habi
habiendu
habilida
habitan
habitantes
habitantis
habitual
habitualmenti
habla
hablal
hablan
hablaol
hablaoris
hablar
hablativu
hablato
habra
habri
habricacio
habsburgo
hace
hacen
hacer
hachas
hachu
haci
hacia
haciendo
haciendu
hacis
had
hadel
hadi
hadia
hadra
hadria
hadrien
hae
haen
hag
haga
hagamus
hagan
hagas
hagu
hai
haiga
hail
hain
haka
hal
halagu
hale
hall
halla
hallal
hallan
hallarun
hallau
hallauras
hallaus
hallavan
halliday
hallo
halloween
halta
haltal
haltu
hambre
hambri
hamlet
hamo
hampshire
han
hanabiratachi
hand
handbook
handle
handled
handler
handlers
handlersk
handles
hands
hangri
hanks
hannibal
hanoi
hans
hapo
happy
har
hara
harabugu
harai
harald
harandilla
harare
harbour
hard
hardi
harding
hardy
harina
haro
harold
harramplas
harreal
harris
harrison
harry
hart
harta
harto
hartu
haru
harv
harvard
harvey
has
hascategories
hasta
hastime
hata
hate
hateal
hatu
hatus
hauptbahnhof
have
havel
haven
having
hawaii
hawking
hay
haya
hayedo
hayeu
haystack
haza
haze
hazei
hazel
hazelsi
hazelu
hazemus
hazer
hazi
hazia
hazian
hazienda
haziendu
hazin
hazino
haziu
hazra
hazre
hazremus
hcv
hdl
he
headache
heading
headingfontsize
headingstyle
health
heart
heat
heath
heaven
heavy
heb
hebe
hebo
hebreru
hebrew
hecha
hechal
hechas
hechic
hecho
hechos
hechu
hechura
hechus
hectare
hector
hedwig
heesters
hefi
hefis
hei
heidelberg
height
heimat
heinemann
heitiu
heitu
hel
hela
helama
helen
helena
helenius
helipi
heliu
helium
hell
hello
helloween
helma
helmana
helmanamientu
helmano
helmanu
helmanus
helmholtz
helmosa
helmosura
help
helper
helping
helsinki
hematopoye
hembra
hembras
hemelas
hemelus
hemina
hemingway
hemisferiu
hemisphere
hemos
hen
henares
henas
hendaia
henderson
hene
henera
heneracio
heneracionis
heneral
heneralia
heneralis
heneralmenti
heni
henis
henitivu
heno
henofonti
henri
henrik
henrique
henriques
henry
henti
hentili
hentiliciu
hentis
heo
heogra
hepa
hepatitis
hepatocitus
her
hera
herb
herba
herbert
herbst
hercegovina
hercegovine
hercules
here
heredia
hereditaria
hereeru
herencia
herguijuela
heri
heritage
herma
hermana
hermandad
hermano
hermanos
hermanu
hermanus
hermes
hermoso
herna
hernando
hernandu
hero
herodes
herramienta
herramientas
herrau
herrera
herreri
herreritu
herrero
herri
herria
herrucarril
herschel
herti
hertz
herva
herzegovina
herzog
hesa
hesas
hesse
hestio
hesto
hestoria
hetero
heugra
heugrafia
heulohia
heume
heures
hevia
hey
hh
hhp
hi
hia
hica
hicaenti
hicas
hicisteis
hicu
hicus
hidalgo
hidden
hide
hidra
hidro
hidrolo
hidu
hidun
hieli
hielu
hienda
hiendas
hierru
high
highlighting
highlights
higieni
higuera
higus
hiho
hihtologi
hihtoria
hija
hijas
hijo
hijos
hijovejo
hiju
hijus
hil
hilipinas
hill
him
himalaya
himin
himno
himploteal
himself
hin
hina
hinas
hinca
hincal
hindu
hinis
hinojalis
hinojosa
hinoju
hipo
hipota
hira
hiran
hiroshima
hiru
his
hispa
hispan
hispania
hispanica
hispanidad
histo
histoire
historia
historiador
historiae
historias
historical
historique
history
historylink
hitchcock
hitler
hits
hiu
hius
hiv
hizi
hiziendu
hiziera
hizierun
hizo
hizu
hizun
hk
hl
hla
hm
hms
hnatr
ho
hoa
hoagaxo
hogal
hogan
hogar
hoi
hoja
hojas
hokkaido
hola
holbrook
hold
holding
holds
hole
hollande
hollow
hollywood
holma
holmaban
holmacio
holmacion
holmacionih
holmacionis
holmal
holmalmenti
holman
holmandu
holmarun
holmas
holmatu
holmau
holmaus
holmo
holstein
hom
hombre
hombres
hombri
hombris
home
homenaje
homenaji
homental
homeostasis
homo
homoge
honda
hondarribia
hondo
hondu
hondura
honduras
hondus
hong
hongu
hongus
honolulu
honor
honori
honorio
honoris
honorum
honral
honras
honshu
hooty
hooverphonic
hope
hopkins
hora
horarios
horas
horc
horca
horizon
horizontal
horizonte
horizonti
horma
hormaba
hormacio
hormacion
hormacionis
hormaeru
hormal
hormalis
hormalmenti
horman
hormandu
hormarun
hormas
hormatu
hormatus
hormau
hormaus
hormavan
hormi
hormidabris
hormo
hormona
hormulacio
hornu
hornus
horripilare
horror
horsepower
hortalec
hortificarun
hortificau
horvitz
hosi
hospederi
hospital
hospitalet
host
hostname
hot
hotel
hotrileal
hound
hour
hours
house
houston
hovin
how
however
hoy
hoyas
hoyos
hoyus
hozicu
hp
hpa
hph
hr
hrung
hs
ht
htm
html
htmlhttp
http
https
hu
hua
hualpe
hualqui
huan
huang
huanka
huascar
huatl
hubble
hubo
hubu
huchea
hucheaba
hucheal
huchean
hucheau
hucheaus
hucheo
hucheun
huderias
hudia
hudicial
hudicialis
hudioespan
hudius
hudson
hue
huega
huegamus
huegu
huegus
huelgas
huella
huelva
huendu
huenti
huentiduen
huentis
huera
hueran
hueraparti
huerc
hueron
huerta
huertas
huertementi
huerti
huertimenti
huertis
huerto
hueru
huerun
huerus
huerza
huerzas
huesca
huesi
huesin
huessi
hueu
huevis
huevo
hugal
hugan
hugaol
hugaoris
hugh
hughes
hugo
hui
huliu
humal
humala
human
humana
humanas
humano
humanos
humans
humanu
humanus
humberto
hume
humeda
humedales
humi
humildi
humo
humor
humu
huncio
huncion
hunciona
huncional
huncionalia
huncionalis
huncionamientu
huncionan
huncionariu
hunciones
huncioni
huncionin
huncionis
hunda
hundacio
hundacion
hundaeuru
hundal
hundamenta
hundamental
hundamentalis
hundamentalmenti
hundamentu
hundamentus
hundandu
hundaol
hundaor
hundaoris
hundarun
hundau
hundea
hundeamientu
hundi
hundigahu
hundigahus
hundo
hundred
hundredweight
huniu
hunt
hunta
huntas
hunter
huntu
huntus
hura
hurdanu
hurdes
hurdis
hurguin
huri
hurisdicio
hurramachu
hurtado
hus
husio
hussein
husti
husticia
hustu
hutura
huturas
huturismu
huturu
huturus
huvenilis
hy
hybri
hybridity
hydrogem
hydrogen
hymnus
hyphen
hyphenated
hyphens
hyva
hz
hɛ
i
ia
iafd
ial
iam
ian
ias
iba
ibahernando
iban
ibarra
ibe
iberia
ibero
iberu
iberuamericana
iberuamericanu
iberus
ibi
ibid
ibidem
ibielnu
ibielnus
ibierno
ibn
ibol
ibor
iboris
ibrahim
ic
ica
ice
ich
icha
ichas
ichu
icil
iciona
iciu
icon
icono
icu
icus
icv
id
ida
idalgu
ide
idea
ideal
idealis
ideas
ident
identia
identical
identida
identidad
identifica
identificacio
identificadores
identifical
identifico
identifier
identifiers
identifies
identify
ideo
ideogramas
ideolo
ideologi
ideologia
ideological
ideulo
idhu
idi
idil
idilio
idin
idioma
idiomas
idir
idiu
idra
idrata
idratacio
idrataeru
idratalsi
idratau
idratus
idro
idrocarburus
idroele
idrogra
idrografi
idrosta
idruele
idrugra
idrugrafia
ids
idu
ie
iegu
iendi
iendu
ientia
ies
iespana
ietf
if
ifad
ifba
ifeme
ificau
iga
igieni
iglesia
iglesias
ignacio
ignorado
ignorandu
ignore
ignored
ignoreisbn
ignoreisbnerror
ignores
igo
igor
igreja
igresia
igu
igual
igualda
igualis
igualmente
igualmenti
igus
iha
ihas
ihi
ihp
ihu
ihus
ii
iicio
iii
iil
iimus
iin
iiremus
iiu
ij
ija
ijas
ijiste
ijisti
iju
ijus
iksu
il
ila
ilas
ilativu
ildivo
ile
ilegal
ilegi
ileria
ilesia
ilesias
ilex
ilha
iliacon
iliada
illa
illinois
illustrata
illustrated
ilta
iluminacio
ilusio
ilustra
ilustracio
ilustracionis
ilustrau
ilustres
ilustri
ilustris
im
ima
image
imagecelldiv
imagecheckblank
imageemptycell
imageemptycellstyle
imageleft
imageleftcell
imagem
imagen
imagens
imageright
imagerightcell
imagerightnone
images
imagesize
imagi
imagin
imaginacio
imagis
imahin
imahis
imalaya
imax
imbe
imbox
imdb
imediatamenti
img
imigrantis
imitacio
immanuel
immediately
immunol
imp
impact
impactu
impatu
impe
imperator
imperfetivu
imperfetu
imperial
imperio
imperiu
impgal
implementar
implementation
impli
implica
implican
implications
implicit
implict
implied
imponenti
import
importa
importance
importancia
important
importante
importantes
importanti
importantis
imported
imposibli
impossibri
impote
impoz
imppt
impqt
impresa
impresarialis
impresariu
impresas
imprescindiblis
impresiones
improper
improve
improved
impulsau
impulse
imus
in
ina
inactivas
inactive
inactivedate
inactivos
inagura
inaguracio
inaguro
inanimau
inari
inarray
inas
inativu
inaugura
inauguracio
inauguracion
inaugurau
inauguro
inc
inca
incapa
incapacia
incas
incase
inch
incheon
inches
inciendu
incienso
inciertu
inclu
include
included
includemetatable
includes
including
inclui
incluias
incluida
incluidos
incluil
incluilsi
incluin
incluiu
incluius
inclusive
incluso
inclusu
incluye
incluyen
incluyendu
incluyi
incluyin
incoativu
incoloru
incompleta
incompletivu
incorpora
incorporan
incorporau
incorporo
incorrect
incorrecta
incorrectly
incorrecto
incorrectos
increase
increases
increment
incrementa
incrementu
incubadora
incubator
inculta
inda
indagacions
independence
independencia
independent
independiente
independientementi
independienti
indetelminacio
index
indexar
indexed
indexer
indi
india
indiana
indias
indic
indica
indicated
indicator
indigenous
indiu
indius
indivi
individu
individual
individualis
individus
indo
indone
indonesia
indonesiu
indouropea
indre
indu
induced
induci
inducil
induismu
indulgenti
induropea
induropeas
induropeu
industria
industrial
industrialis
ine
inestablis
inexistente
inext
inf
infa
infancia
infante
infantes
infanti
infantil
infants
infecio
infeciones
infecta
infectan
infectaus
infections
infeiciones
inferiol
inferior
inferiores
inferioris
inferno
infertile
infezio
infierno
infiernos
infiernus
infinitivu
infinitivus
infinito
infinitu
infinitus
inflamacio
inflamatoria
influe
influence
influencia
influenza
info
infobox
infoboxes
informa
informacio
informal
information
informatiu
informativos
informativu
infracrasi
infraestructura
infraestructuras
infraestrutura
infraestruturas
infraordin
infrujencia
ing
ingalaterra
inge
ingenieri
ingenieru
ingesta
ingestion
inginieru
inglaterra
ingle
inglesa
ingraterra
ingre
ingrediente
ingredientes
ingresa
ingresis
ingreso
ingresu
ingresus
inhabitant
inhabitants
inherit
inhibicio
inhtitutu
ini
inicia
inicial
inicialis
inicialmenti
iniciaoras
iniciativa
iniciativas
inicio
iniesta
inimigu
initial
initialization
initials
inlb
inlbf
inlustri
inlustris
inmaculada
inmediatu
inmigrantis
inmobi
inmuni
inmunitaria
inmunitariu
inmunodeficiencia
inmunolo
inn
innocence
innovacio
innovacionis
innovadora
innsbruck
inocencio
inora
inorga
inorganic
inout
inouva
inovacio
inoz
inozf
inpredizibri
input
inputs
inque
inqui
inquilino
inracional
inregulariais
inregularis
inresistibri
insectus
inseminacio
insen
insenificanti
insensitive
insert
inserted
inset
insetu
insetus
insieme
insomniu
inspetol
inspiracio
inst
instagram
instalacionis
instances
instead
institucio
institucional
institucionis
institut
institute
institutio
institution
institutiones
instituto
institutu
instruccio
instrucio
instruments
instrumentus
insuficiencia
insulal
insularis
insulina
int
intake
inte
integer
integers
integra
integracio
integral
integran
integrau
intel
intelectu
intelectual
intelferencia
inteligencia
inteligenti
intellectual
intended
intensa
intensas
intensia
intensida
intensu
intentau
intento
intentu
inter
interacio
interacionis
interactu
interamericana
interazio
intercambiu
intercept
intercontinental
intercultur
intere
interesados
interesantes
interested
interface
interfas
interfaz
interinu
interiol
interior
interlanguage
interleukin
intermeyus
interna
internacional
internacionalis
internacionalmenti
internal
internallink
internallinkid
international
internationalization
internazional
internet
interno
internu
internus
interpol
interpreta
interpretacio
interpretation
interurbanus
intervalu
intervalus
intervencio
intervieni
intervienin
interview
interviewer
interviewerlist
interviewers
interwiki
interwikis
inti
intierru
intis
into
intrabe
intracellular
intracelular
intransitivus
intre
intri
introduccio
introducio
introduciu
introduction
inu
inundacio
inundaciones
inundacionis
inus
invalid
invalidating
invalidtypeerror
invalue
invariant
invasio
invasores
invehtigacio
invehtigacionis
invencio
inventarius
invento
inventol
inversio
invert
invertebraus
investi
investigacio
investigaciones
investigacionis
investigal
investigaol
investigaora
invielnu
invielnus
invierno
invisible
invisibles
invite
invoke
involucra
involved
io
ion
ionis
ipa
ipairs
iparm
ipasu
ipcc
ipias
ipifricativizacio
ipo
iponati
iprage
ipv
iqui
iquilibrus
iquinoti
iquipedia
iquipeya
iquipeyas
iquipeyistas
iquis
ir
ira
irak
iran
irani
irania
iraq
iraqi
iraqui
irc
ire
ireland
irene
iri
iris
irish
irlanda
irlande
irlandesa
irlandesas
irlandesis
irma
iro
iroha
iron
irracional
irregularis
iru
irun
irving
irwin
is
isa
isaac
isabel
isan
isar
isbc
isbn
isbncorrecto
isbnincorrecto
isbnsugerido
iscomplex
ise
isfirst
isi
isidoro
isidro
isidru
isima
isimas
isimu
isiru
isla
islam
island
islande
islandesa
islandesas
islandesis
islandia
islands
islas
isle
islinas
islotis
ismael
ismn
ismu
isn
isnegative
iso
isoglosas
isp
ispa
ispana
ispanas
ispania
ispanu
ispanuame
ispanupalrantis
ispanus
isque
isquierda
israel
israeli
issima
issimas
issimu
issmall
issn
issubstituted
issue
issued
issues
ist
ista
istanta
istas
istemperature
istemplatepage
istica
isticas
istis
istitucionis
istmo
istoria
istriotu
istru
istrumentu
istrumentus
isxn
iszero
it
ita
ital
italia
italian
italiana
italianas
italiano
italianu
italianus
italic
italics
italo
italu
italy
item
itemid
items
itinera
ito
its
itu
iu
iucn
iulia
iulii
iulipa
iulius
iure
ius
iv
iva
ivielnu
iviernu
iviernus
ix
ixihi
iyendu
iyo
iz
izacio
izaus
izi
izia
izias
iziendu
izil
izilsi
izimus
izin
iziona
izionariu
izira
iziu
izquierda
izquierdas
iðil
iɣuh
iʎa
j
ja
jacinto
jacks
jackson
jacob
jacobo
jacques
jaddi
jadel
jadi
jadria
jae
jaime
jaimita
jakarta
jako
jal
jaldus
jalo
jam
jama
jamaica
jamendo
james
jamo
jan
jancis
janeiro
jangada
jansen
january
japan
japanese
japo
japone
japonesa
jaqui
jar
jara
jarai
jardi
jardinis
jaro
jarom
jarramplas
jarta
jason
jasta
jata
jaume
java
javane
javanesa
javanesis
javier
javierito
jay
jayal
jazz
jaði
jaðia
jaðin
jcgm
jdn
jdz
je
jean
jebreru
jecha
jechandu
jechava
jechu
jefatura
jefe
jeff
jeffrey
jefi
jeg
jehova
jeitu
jekh
jekhi
jendrik
jeneru
jennifer
jenny
jeno
jentu
jera
jerarqui
jeremy
jerez
jerga
jericho
jero
jersey
jerso
jerte
jerti
jerusale
jerusalem
jessica
jesu
jesucristo
jesucristu
jesuitas
jesus
jetstar
jewish
jf
jfm
jg
ji
jian
jiang
jicu
jidu
jim
jime
jimmy
jin
jizo
jiðiendu
jiðu
jj
jk
jm
jo
joa
joan
joaqui
joaquim
job
jobs
joe
joey
johan
johann
johannes
johannessen
john
johnny
johns
johnson
join
joiner
joins
jokers
jokertown
jolma
jolmas
jombri
jombritu
jonas
jonathan
jondo
jondu
jones
jordania
jordi
jorge
jorma
jormandu
jornada
jornadas
jose
joseba
josef
josep
joseph
josephine
josh
josif
jospo
jota
joule
journal
journey
jov
jovem
joven
jovenil
jovens
joventu
joventuis
jovin
joyce
jp
jpg
jr
js
json
jstor
ju
juan
juana
juanra
juba
jubilacio
jubilau
judai
judaismu
judas
jude
judeoespan
judi
judia
judicial
judicialis
judiu
judius
jue
juega
juegaol
juegaoris
juegau
juego
juegos
juegu
juegueti
juegus
juendu
juenti
juentis
juera
juerti
juerun
juerza
jues
jueves
juevis
juga
jugan
jugaol
jugaolis
jugaoris
jugar
jugo
juguete
juguetes
juguetis
jui
juice
juicial
jul
jules
julgal
julia
julian
juliana
julianu
julie
julio
juliu
july
jumbo
jun
juncal
juncus
june
junio
junior
juniu
junquera
junt
junta
juntadeandalucia
juntanc
juntandu
juntas
junto
juntos
juntu
juntura
juntus
jura
jurado
jurau
jurdes
juri
jurisdiccio
juro
juromenha
juru
just
justi
justicia
justifica
justify
justo
justu
jutla
juvenal
juvenil
juventu
juventudes
jw
k
ka
kabul
kabuto
kada
kai
kaiser
kalenda
kalliopi
kaluga
kama
kampala
kan
kana
kandidat
kansai
kant
kaohsiung
kaopa
kara
karabaj
karachi
karak
karakorum
karaoke
karen
karl
karlsruhe
kas
kashiwa
kate
kategori
kategorie
kategorija
katty
kaufman
kaveza
kaze
kboe
kc
kcal
kci
ke
keats
kec
kecil
keep
keeper
keepers
keith
kej
kelle
kelly
kelvin
kemal
kemp
ken
kenneth
kenning
keown
keras
keres
kern
kerned
kerning
keroncong
kes
kestrel
ket
kev
kevin
kevt
key
keynes
keys
keyword
keywords
kg
kgco
kgf
kh
khan
khati
kho
khurshed
ki
kids
kiel
kien
kiev
kijites
killer
kilo
kilocalorie
kilocalories
kilogram
kilograms
kilojoule
kilojoules
kilolitre
kilometer
kilometers
kilometre
kilometres
kilometrus
kilomole
kilomoles
kiloparsecs
kiloton
kilotonne
kilotonnes
kilowatt
kim
kimball
kimi
kind
king
kingdom
kipiani
kiribati
kirja
kirjan
kiss
kits
kj
kk
kl
kleine
klincksieck
klinsieck
kluwer
km
kmol
kms
kmt
kn
knot
know
knowledge
known
ko
kobe
koe
koi
kojie
koko
kolomna
koma
kome
komer
komo
kon
konami
konecky
konfederated
kong
korea
korean
koreatimes
kos
kotiin
kpa
kra
krane
krasnoyarsk
krebs
kremlin
krieger
krimi
kritik
krk
kro
kroncong
ks
ksh
kt
kttnt
ku
kuala
kuando
kuc
kumar
kumzari
kun
kuo
kuomintang
kurda
kurdista
kurdo
kurdu
kuro
kurpfalz
kurt
kush
kuwait
kv
kw
kwa
kwh
kwon
ky
kyo
kz
l
la
lab
laba
labas
label
laberinto
labial
labiuburru
laboa
labol
labor
labora
laboral
laboratoriu
laboratorius
laboratory
laboris
labort
labrador
labraol
labraoris
labu
labus
labuta
labutacio
labutal
labutan
labuto
labutu
labutus
lac
lacambra
lacerda
lacio
laciu
laco
lacroix
lad
laden
ladino
ladinu
lado
ladrillu
ladrillus
lady
lae
laercio
laga
lagal
lagareta
lagaris
lagartu
lagartus
lago
lagos
lagu
laguin
laguna
lagunas
lagus
lah
lai
laim
lairo
lake
lal
lalgol
lalgus
lam
lama
lambia
lamu
lan
lana
lanal
lanas
lanc
land
landau
landea
landeaeru
landeal
landean
landeandu
landeara
landeo
landero
landeru
landerus
landeu
landeus
lane
lang
lange
langit
langosta
langostus
language
languages
langue
languedoc
languiosa
lanka
lanu
lanza
lanzamientu
lanzarote
lanzaus
lanzo
lao
laos
lapi
lapizsomluz
lapu
laqui
lar
larache
lares
larga
largas
large
largo
largol
largometraji
largometrajis
largos
largu
largura
largus
laringalis
laris
larousse
larry
lars
las
lasexta
lassa
lasso
last
lastauthoramp
lastest
lastfirst
lastfirsttable
lastn
lat
later
lateral
lateralis
latest
lati
latin
latina
latinas
latinista
latinizau
latinu
latinus
latitu
latm
lato
latter
latvia
latviju
lau
laudes
laura
laureates
laureau
laurel
laurent
laus
lava
lavaeru
laval
lavau
lavol
lavutal
lavuto
lavutu
lavutus
law
lawrence
laws
laxaripe
lay
laydate
laysource
laysummary
layurl
lazio
lazy
lb
lbco
lbf
lbfft
lbm
lbmol
lbum
lbumes
lbumis
lbun
lc
lccn
lcicu
lcitu
lciu
lculu
lculus
lcwt
ldicu
le
lea
leading
league
leal
leap
learn
least
leave
lebri
lecciones
lechi
lechu
lechuzo
lectisternium
lectura
led
leda
ledoux
lee
leel
left
legacy
legado
legal
legalic
legalis
legalmenti
legane
legau
legend
legendo
legi
legio
legionis
legislacio
legislacion
legislativa
legislativas
legislativu
legislatura
lego
legrey
legui
leguminosas
lehendakari
lehi
lehionis
lehislacio
lehislativa
lehiu
lei
leibniz
leinster
leipzig
leis
lejana
lejanu
lejaune
lejiu
lejos
lejotis
lejus
lekeitioak
lello
lema
lemos
lemosi
len
lena
lenghe
length
lengu
lengua
lenguagi
lenguagis
lenguahi
lenguaje
lenguaji
lenguas
lenicismu
lenin
leningradu
lennon
lentamenti
lentis
lentu
lenzen
leo
leon
leona
leonard
leonardo
leonau
leone
leonesa
leonesismus
leonor
leopold
leovigildo
lera
lerma
les
lesbu
lesema
leslie
lesmes
lesotho
lesotu
less
lessicaliza
lessons
lesund
let
letizia
leto
letol
letona
letonia
letra
letras
letrashttps
letrica
letrina
letrinas
lett
letter
letters
letura
leturas
leu
leucemia
leucocitus
leucocytes
leukemia
lev
levanta
levantal
levantamientu
levanti
level
levels
levementi
levis
lewis
lex
lexi
lexical
lexicon
lexis
ley
leyel
leyenda
leyendas
leyieru
leyis
leyiu
leyo
lez
lfor
lg
lganu
lganus
lgaru
lgia
lgica
lhe
lhia
lhica
lhicus
lhs
li
lia
liaison
liana
lias
lib
libanesa
libe
liber
libera
liberacio
liberal
liberalis
liberalismu
liberandu
liberau
liberta
libertad
libertadores
libertais
libertas
liberte
liberty
libia
libra
library
libraryutil
libre
libreri
libres
libri
librimenti
librinu
librinus
libris
libro
libros
libru
librus
libu
lica
licambi
licas
lice
licencia
licenciau
licenciaus
licencio
license
lici
licionis
lico
licol
licopenu
licor
licos
licu
licuefazio
licus
lida
lidas
liddell
lidos
lidu
lidus
lie
liebri
liechtenstein
lied
liede
lieder
lienc
lies
life
liffey
lifshitz
liga
ligas
ligau
ligaus
ligera
ligeramenti
ligero
ligeru
light
lightgrey
ligil
ligio
ligiu
ligur
liguria
lihera
liheramenti
liheru
liherus
lihia
lihil
lihiu
liiv
like
lila
lille
lima
limen
limes
limi
limit
limita
limitau
limitaus
limited
limites
limits
limo
limpial
limpieza
lin
lina
linaje
linci
linda
linderus
lindi
lindis
lindl
lindo
lindu
line
linea
lineal
linear
lineas
linegrey
lines
linex
linfa
linfocitus
linfoidi
lingala
lingu
lingua
linguagem
lingue
linguistic
linguistics
link
linkbox
linkclasses
linked
linkey
linking
linkn
links
linksdata
linnaeus
linnean
linu
linux
lio
lion
lione
lionel
liones
lionesa
lionesas
lionesis
lionesismu
lionis
lios
lippincott
liquiamenti
lira
lire
lis
lisa
lisas
lisboa
lisi
lisis
list
lista
listado
listas
listau
liste
listed
listening
listk
listparam
listpeople
lists
lit
lite
liter
litera
literal
literalmenti
literari
literaria
literariu
literarius
literatura
liti
litis
litoral
litre
litru
litrus
little
litu
litua
lituana
lituania
lituanu
liu
liubliana
lius
liv
liva
live
liverpool
liveweb
liviana
living
livro
lix
lk
ll
lla
llama
llamaba
llamaban
llamada
llamadas
llamado
llamal
llamalsi
llaman
llamaran
llamas
llamau
llamaus
llamo
llamu
llana
llanes
llanfair
llano
llanto
llanu
llanura
llanuras
llanus
llaos
llar
llavi
llavis
llega
llegada
llegal
llegan
llegandu
llegar
llegara
llegaran
llegarun
llegau
llegaus
llegenda
llego
llegui
llegun
lleida
llena
llengua
llenus
llerena
lleva
llevaba
llevaban
lleval
llevan
llevando
llevandu
llevara
llevarun
llevau
llevin
llevo
lli
lliberta
llibres
lliga
llingua
llio
llione
llobregat
llon
llopis
llora
llorente
llu
llui
llumiacu
lluvia
lluvias
lluviosas
lluviosus
lmata
lmenis
lminis
lminu
lminus
lmulus
ln
lng
lnieks
lo
load
loaddata
loaded
loba
lobo
lobu
lobus
loc
local
locales
localia
localiais
localida
localidad
localidais
localis
localisation
localisations
localisationupdate
localise
localised
localising
localiza
localizacio
localizan
localize
localized
location
locativu
locativus
locke
locomotion
locu
locucionis
locutivu
lodigiano
log
loga
logaritmu
logi
logia
logical
logo
logos
logotipu
logra
logral
lograndu
lograus
logro
logron
logrosa
logrossa
logrus
logting
logu
logus
loh
loira
loire
loja
lola
lomas
lomax
lomba
lombarda
lombardia
lombardu
lombardus
lombu
lombus
lomu
lomus
london
londres
londri
londris
long
longa
longer
longevida
longitu
longitud
longitudis
longmonth
longo
longol
longu
longus
lonhitu
lono
look
looked
looking
looks
lookup
loop
loops
lope
lopi
lor
lorca
lord
lordi
lorena
lorenc
lorene
lorenzo
lorenzu
los
losilla
loss
lota
lou
louis
louisiana
lourdes
louvre
louzado
love
loves
lower
lowercase
lozano
lp
lpagu
lquicus
lt
lta
lten
ltf
ltia
ltica
lticas
lticu
lticus
ltima
ltimas
ltimo
ltimos
ltimu
ltimus
ltiples
ltiplis
ltiplu
ltiplus
lu
lua
luaargs
luana
luang
luas
luc
lucani
lucaniae
lucanu
lucas
lucha
luchi
luchis
luci
lucia
lucien
lucienbot
lucila
lucilio
lucilium
lucio
lucis
luciu
lucius
lucru
ludwig
luego
luegu
luenga
luengahi
luengahis
luengaji
luengas
luengu
luengua
luenguas
lugal
lugansk
lugar
lugaren
lugares
lugaris
lugo
lugu
lui
luigi
luiginu
luis
luisa
luka
lula
lulas
lullaby
lum
lume
lumen
lumie
luminosia
luminosida
luminosu
lumpur
luna
lune
lunis
lup
lupercalis
lupus
luque
lus
lusaka
luse
lusemburgu
lusemburgue
lusita
lusitana
lusitanas
lusitania
lusitanu
lusitanus
luso
lussembulgu
lussembulgue
lussemburgu
luteru
luther
lutu
lux
luxembourg
luz
luzia
luzis
lv
lvarez
lvaro
lvaru
lvdalen
lvdalska
lvdalskan
lvdalsma
lvega
lvez
lvia
lvora
lxv
ly
lycopene
lynx
lyon
lɑl
m
ma
mabot
mac
macau
macchus
macdonald
macedo
macedon
macedonia
macedoniu
mach
machado
machiavelli
machine
macho
machorra
machos
machu
machus
maci
macia
macic
macizu
macmillan
macro
macroecono
macron
macu
madagascal
madagascar
madalena
madaleniensi
maddie
made
madeira
madera
madia
madonna
madoz
madra
madre
madri
madrid
madril
madrilen
madrina
madron
madrona
madruga
madura
madural
mae
maea
maera
maeras
maestra
maestre
maestro
maestru
maestrus
maestruscuela
mag
magan
magazine
magdalena
magesta
magia
magic
magie
magiste
magisteriu
magistral
magna
magne
magnesiu
magnetic
magnetizing
magni
magnitu
magnitud
magnitude
magnitudis
magnu
magnus
mago
magrana
magreb
magu
maguilla
mahal
mahoma
mai
maia
maiden
mail
mailing
mailinglist
maimo
maimona
main
maincat
maine
maint
maintain
maintenance
maior
mairi
mairil
mairilen
mairilis
mairis
mairon
mairuga
mais
maja
major
majority
make
makecategorylink
makeinvokefunc
makes
makestartboxdata
makestartboxlinksdata
maketoolbar
makeurllink
makewikilink
making
makova
mal
mala
malaria
malas
malatesta
malato
malatu
malaui
malaysia
malayu
malcolm
maldivas
male
males
maletu
maletus
malgrat
malhin
mali
malis
mallorca
mallorquinis
malocotonerus
maloti
malotia
malotias
malpartia
malta
malte
maltraviesu
malu
malus
malvestiti
malvinas
malvino
mama
mamaen
mami
mamiferus
mammalian
mammals
man
mana
manantialis
manc
mancala
mancha
manchas
manchegu
manchester
mancomunia
mancomunida
manda
mandaeru
mandal
mandandu
mandari
mandarin
mandarun
mandatu
mandau
mandaus
mandela
mandi
mando
mandu
manducal
mane
manehau
maneja
manera
maneras
manes
manhattan
mani
manifesta
manifestacio
manifestaciones
manifestacionis
manifesto
manifiesta
manifiestan
manifiestu
manila
maniobras
manipulacio
manitu
manitudis
mann
mannix
mannoia
mano
manolito
manolo
manoo
manos
manque
manqui
manteca
mantenel
mantenelsi
mantener
mantenian
manteniendu
mantenimiento
mantenimientu
manteniu
mantequilla
mantie
mantien
mantiene
mantieni
mantienin
mantu
mantua
mantuviendu
mantuvierun
mantuvu
mantuvun
manu
manual
manualis
manually
manualmenti
manuel
manuela
manufactura
manufaturas
manus
manuscrita
manuscritos
manuscritus
many
manzana
manzano
mao
maori
map
mapa
mapas
mapframe
maplandia
mapping
maps
mapurl
maqueta
maquetas
maquetismu
maquina
maquinaria
mar
mara
marabillarun
maras
marato
marc
marca
marcal
marcan
marcandu
marcas
marcau
marcaus
marcel
marcello
marcelo
march
marcha
marche
marchena
marcho
marci
marcial
marcialis
marco
marcoaurelio
marcomanus
marcos
marcu
marcus
mare
mareas
marfil
margarita
margem
margin
margullerun
margullil
margullo
marhin
mari
maria
mariam
mariana
marianna
mariano
marias
maricona
marie
marin
marina
marinas
marine
marinerus
marino
marinu
marinus
mario
marioneta
maris
mariscal
mariu
marjorie
mark
marked
markers
marks
markt
markup
markus
marmu
marque
marquesau
marra
marrakech
marral
marro
marroqui
marru
marruecu
marruecus
marrun
marrus
marsella
marsh
marshall
marsismu
marta
martes
marti
martin
martindale
martinez
martinica
martins
martis
maruchi
marwan
marx
marxismu
marxist
marxista
mary
marzo
marzu
mas
masa
masas
masculina
masculinu
masculinus
masiva
masivu
masjid
mask
maskn
maso
mass
massa
massas
master
masters
masuda
mata
matachel
matal
matalebreras
matamala
matanc
matancia
matanza
matar
matarun
matas
match
matched
matches
matchestitle
matching
mate
matelna
matema
matematicos
mateo
mateos
materia
material
materiales
materialis
materialismu
materials
materias
materna
maternas
maternu
mateu
math
mathematica
mathematical
mati
matilde
mato
matorral
matrem
matri
matricula
matrimo
matrimon
matrimoniu
matris
mattarella
matteo
matter
matthew
mau
maud
maurice
mauriciu
maurita
mauritania
maurizio
max
maxdef
maxdiff
maximum
maximus
maxlen
maxsigfig
maxwell
may
maya
maybe
mayo
mayol
mayoldomu
mayoldomus
mayolmenti
mayor
mayori
mayoria
mayoris
mayorita
mayoritariamenti
mayormenti
mayr
mays
mayu
mazas
mb
mbalus
mbbl
mbeal
mbeu
mbeus
mbia
mbica
mbicu
mbicus
mbitu
mbitus
mbiu
mbius
mbolu
mbolus
mbox
mbq
mbricus
mbtu
mbulu
mbulus
mc
mcal
mccartney
mcdonald
mcgraw
mci
mcode
md
mdy
me
meaera
meal
mean
meandrus
meaning
means
meas
measurement
meca
mecanismu
mecanismus
mechanics
mechanisms
med
meda
medalla
medallas
medea
medecina
medelli
medi
media
mediante
medianti
medias
mediaus
mediawiki
medical
medicamentus
medicina
medicinalis
medicine
medida
medidas
medieval
medievalis
medievu
mediko
medil
medina
medinaceli
medio
mediodi
medios
mediterra
mediu
medium
medius
medlineplus
meet
megacalorie
megacalories
megajoule
megali
megalitismu
megalitre
megaton
megatonne
megatonnes
megawatt
megu
mehicana
mehicanu
mehmed
mehol
mehoral
mehorau
mehoris
mei
meia
meiac
meias
meica
meicina
meicinal
meicinalis
meicu
meicus
meigas
meio
meiosis
meiterra
meiterranea
meiterraneu
meiu
meius
mejicana
mejicanu
mejicanus
mejol
mejor
mejora
mejoral
mejorar
mejoras
mejores
mejoris
mejuto
mekong
mela
melancholiebot
melanco
melatonin
melatonina
melbourne
mele
melecina
melena
melezina
melezinas
meli
melia
melilla
melital
melitaris
melito
melo
melodi
melodias
members
membrana
membranas
membrane
membru
membrus
meminta
memo
memoized
memorabris
memoria
memoriaglobo
memorial
memorias
memory
men
mena
menas
menc
mencio
mencionau
mendeleev
mendigo
mendiza
mendoza
mene
menedemu
menes
menganu
menis
meniste
menistra
menistru
menistrus
menkes
meno
menol
menor
menoris
menos
mensagem
mensageu
mensagi
mensahi
mensaje
mensajes
mensaji
menta
mentaban
mentacio
mental
mentalis
mentandu
mentau
mentaus
mentava
mente
menti
mentiras
mento
mentris
menu
menudu
menumentu
menumentus
menus
menutu
meoyo
mer
mera
merca
mercado
mercadotecnia
mercal
mercancias
mercao
mercau
mercaus
merce
mercedes
mercosur
mercu
mercuriu
mercury
merecin
merg
merge
mergeargs
merica
mericu
meridiana
meridianu
meridional
meridionalis
meriendilla
merino
meris
meriyanu
meriyonal
meriyonalis
merma
mero
meros
meru
merus
mes
mesa
mesacceso
mesas
mescla
meses
meseta
mesi
mesis
mesma
mesmaenti
mesmamenti
mesmas
mesmitu
mesmizitu
mesmo
mesmu
mesmus
mesopota
mesopotamia
mesozoicu
mesquita
mess
message
messagebox
messagename
messages
messageskey
messi
messier
mesta
mestas
mestel
mestura
mesturagi
mestural
mesturalsi
mesturan
mesturandu
mesturas
mesturau
mesturaus
met
meta
metaargs
metaargskey
metabo
metabolism
metabolismu
metadata
metafi
metais
metal
metalis
metals
metalu
metalurgia
metamorfosis
metano
metanu
metatable
meteorolo
meteorologi
meteorologia
meter
meters
method
methods
meti
metionina
metiu
metodologi
metre
metres
metric
metro
metrology
metropolitana
metropolitanu
metros
metru
metrupolitana
metrupolitanas
metrus
meu
mev
mexico
meya
meyadoris
meyana
meyanamenti
meyanti
meyas
meyaus
meyeval
meyevalis
meyia
meyianti
meyias
meyius
meyu
meyudi
meyudia
meyus
mez
mezcla
mg
mgo
mh
mi
mia
miaha
miaja
miajadas
miajo
mica
micamenti
micas
mice
michael
michel
michelangelo
michele
micheli
michelle
michigan
mickey
mico
micos
micro
microbial
microbiol
microbiologi
microbiology
microlitre
microne
micronesia
microorganismus
microsco
microsoft
microtonalis
microtonus
microwatt
micrulitus
micu
micus
mid
middle
midi
midiendu
midil
midin
midu
mie
miedo
miel
mielo
mieloidi
mieloidis
mielopoyesis
mielra
mielru
miembros
miembru
miembrus
mienta
mientan
mienti
mientis
mientras
mientres
mientris
mierda
mieres
mies
mieu
migas
might
migracio
migracionis
migratoria
migratorias
migratorius
miguel
miguelita
miguelo
mihina
mihoris
mii
miia
miias
miil
mijina
mijirrinina
mijol
mijoris
mike
mikel
mikheil
mikko
mil
mila
milagro
milagros
milagrus
milan
milanu
mile
mileniu
milenius
milenta
miles
miliarius
milie
milis
milital
militar
militaris
military
militiae
militiaeque
milito
milk
milla
millas
millenium
millennium
milliard
millicalorie
millicalories
milligram
milliliter
millilitre
millimeter
millimetre
million
millionaire
milliwatt
millo
millonario
millones
millonis
mills
millu
milton
mimal
mimbre
mimu
min
mina
minas
mindiff
minecraft
minera
mineral
mineralis
mineralohia
mineria
minermu
minerva
minervo
minh
minha
mini
miniatura
miniaturadeimagen
minibu
minim
minimum
minis
ministe
ministerio
ministeriu
ministra
ministru
ministrus
minnesota
mino
minol
minor
minorasia
minori
minoria
minorias
minorita
minsk
minu
minus
minusva
minute
minutes
minutos
minutu
minutus
mio
miquelo
mir
mira
mirabel
mirada
mirador
miraglia
miral
miranda
mirande
mirandesa
miraol
miraoris
mirbeau
miria
mirlo
miro
mirones
mirror
mirrorsummary
mirrorurl
miru
miruellu
mirus
mis
misa
misio
misisipi
misma
mismatch
mismo
mismos
miss
missing
mission
mississippi
missouri
miste
misterio
misteriosamenti
misteriu
misterius
misticismu
mit
mita
mitad
mitchell
mite
mites
miti
mitileni
mitis
mitochondrial
mitocondria
mitocondrial
mitocondrialis
mitocondrias
mitolo
mitologi
mitologia
mitolohia
mitos
mitu
mitulohia
mitus
miu
mius
mivart
mix
mixed
mixes
mixta
miyagi
mj
mjbmr
mjbmrbot
mk
mkwh
ml
mlatm
mly
mm
mmbtu
mmmm
mmol
mn
mo
moa
moal
moalia
moas
mobi
mobile
mobis
moc
mocea
mochica
moda
modalia
modalida
mode
modelna
modelo
modelos
modelu
modelus
modera
modern
moderna
modernamenti
modernas
modernismu
moderno
modernos
modernu
modernus
modes
modesta
modesto
modf
modifica
modificacio
modificacionis
modificau
modified
modifier
modify
modo
modre
modu
modulates
module
modules
moe
moeda
moelismu
moelna
moelnu
moelu
moelus
moerna
moernas
moernu
moernus
moestu
mof
mohamed
mohammed
mohenjo
mohus
moi
moifica
moificau
moifico
moin
moinha
mois
moise
moje
mol
molar
molda
moldavia
moldavu
moldis
mole
moleculal
molecular
molecularis
molecule
moles
molie
molina
molinero
molinos
molinosdeviento
molinu
molinumdeventum
molinus
moll
molla
mollet
molnes
molo
molu
moluscus
momblona
moment
momento
momentu
momentus
mon
mona
monaco
monacu
monago
monalquia
monarca
monarqui
monarquia
monaste
monasterio
monasteriu
moncayo
monday
monde
mondegu
monea
moneas
monecipiu
monecipius
moneda
monedas
monegascu
monegros
moneste
monesterio
monesteriu
moneta
monfragu
mongis
mongol
mongolia
moni
monici
monicipal
monicipalis
monicipiu
monicipius
monjas
monjis
mono
monocitus
monofile
monoli
monolingu
monopo
monorail
monorrail
monosaca
monotei
monoti
monotongal
monroe
monroy
monsalud
monsters
mont
monta
montagner
montan
montanchi
montanchih
montano
monte
monteagudo
montehermoso
montelmosu
montenegro
montenegru
montermosu
montero
montes
montesinos
montevideo
montevideu
month
monthly
months
monti
montihu
montijanu
montijanus
montijo
montiju
montilmosu
montimayol
montimayor
montis
monto
montoru
montpellier
montreal
montserrat
monumental
monumentalis
monumento
monumentos
monuments
monumentu
monumentus
monusi
monuti
moon
moondog
moore
mora
moral
moraleha
moraleja
morales
moralia
moralis
moralizanti
moralo
moraoris
moras
moratalla
morcilla
morcillas
morcillu
morddeich
more
morena
moreno
morenu
moreras
morerias
moret
morfema
morfemas
morfolo
morfologi
morfologia
morfologicamenti
morfolohia
morgan
mori
moriano
moril
morir
moriscos
mormo
mormona
morning
moro
moroni
morrison
mort
mortadelo
mortal
mortalis
morte
morteru
morus
mos
mosa
mosafir
mosaic
mosaicu
mosca
moscatel
moscova
moscow
moscu
mosela
mosotrus
mosquitu
most
mostly
mostral
mostrar
mostro
mostu
mosulmanis
motacilla
moti
motivaus
motivo
motivu
motivus
moto
motol
motor
motoris
motril
motriz
motu
mou
mouretii
mous
mouse
mouskouri
mov
move
movel
movelsi
movement
moveprot
movi
movicio
movicion
movicionis
movie
movilida
movimiento
movimientu
movimientus
moza
mozambiqui
mozart
mozilla
mp
mpagu
mpano
mpge
mpgimp
mpgus
mph
mpia
mpica
mpicu
mpicus
mpiu
mpria
mprotectionbanner
mr
ms
msg
msgkey
msn
msnm
msterdam
mt
mtontnt
mttnt
mtukudzi
mtv
mtx
mu
mua
muacio
muacionis
mual
muan
muandu
muarun
muau
muc
much
mucha
muchachas
muchachu
muchas
muchi
muchias
muchius
mucho
muchos
muchu
muchus
mucosa
mud
mude
muehal
muela
muelas
muelino
muelna
muelnismus
muelnista
muelnu
muelnus
muelti
muelu
mueri
muerta
muertas
muerte
muerti
muertis
muertos
muertu
muertus
muescas
muestra
muestraba
muestraban
muestral
muestran
muestrandu
muestras
muestrau
muestro
muestru
muestrus
muevi
muevin
mugel
mugeris
muhammad
muharri
muhel
muheris
muhotrus
mui
mujel
mujer
mujeres
mujeris
mul
mula
muladi
muller
mullers
mult
multi
multilingual
multimedia
multimeya
multiple
multiplier
multitu
mulu
mulus
mummies
mun
munc
mundi
mundial
mundialis
mundialmenti
mundo
mundu
mundus
munich
munici
municipal
municipalidad
municipalis
municipio
municipios
municipiu
municipium
municipius
munilla
muo
mur
mura
muralla
murallas
muras
murcia
murciana
murcianu
murcie
muret
murgas
muriel
murillo
murio
murray
murtimeya
murtitu
muru
murus
mus
musa
musas
musculal
museo
museos
museu
museum
museus
music
musica
musical
musicalis
musique
muslus
muso
musotros
musotrus
mussotrus
mussulmana
must
mustafa
muste
musteriensi
musulma
musulmana
musulmanas
musulmanis
mutacio
mutacionis
mutua
mutuamenti
muy
muyer
mw
mwh
mx
my
myanmar
myce
myeloid
myr
myspace
mystery
mɪ
n
na
naba
nabus
nac
nace
nacel
nacencia
naci
nacia
naciendu
naciera
nacierun
nacimiento
nacimientu
nacin
nacio
nacion
nacional
nacionalia
nacionaliais
nacionalida
nacionalis
nacionalismu
nacionalismus
nacionalista
nacionalistas
nacionalizau
naciones
nacionis
naciu
nacius
nacu
nad
nada
nadal
nadie
nadil
nador
nai
naidi
naifa
naina
nal
nalgotras
nalgotrus
nalgunas
nalgunus
nam
nama
name
named
namelist
namelistformat
names
namesep
nameseparator
namesi
namespace
namespaces
namibia
namur
nan
nana
nang
nanguna
nangunas
nangunus
nanki
nanning
nano
nanoceria
nanofluid
nanoparti
nanoparticles
napoleo
napoleon
napoli
napolitanu
naquellus
nara
naranja
narci
narcotra
nari
narin
narita
narodnaya
narra
narracio
narraciones
narraol
narrativa
narrativus
narrau
narros
nas
nasa
nasal
nasalis
nasaliza
nasze
nat
nata
natacio
natal
natalia
natarinus
nati
nation
national
nations
nativa
nativas
native
nativu
nativus
natl
natura
naturae
natural
naturalec
naturaleda
naturales
naturaleza
naturalis
naturalista
naturalistas
naturalmenti
nature
naumanni
nauru
nautical
nava
navaconceju
naval
navaleno
navalmoral
navalvillal
navarra
navarras
navarrete
navarro
navarru
navas
navasfrias
nave
navegabli
navegacio
naveros
navi
navia
navigator
navis
naypyidaw
nazare
nazaret
nazari
nazca
nazi
naziroglu
nazis
nazismu
nba
nbk
nbsp
ncara
ncavo
ncbi
ncer
nchen
nchez
nci
ncia
ncian
ncias
ncipe
ncipi
ncipis
ncipiu
nciu
ncopa
ncru
nculo
nculus
nd
ndal
ndalu
ndalus
ndar
ndares
ndaru
ndash
ndataset
nde
ndebele
ndencia
nder
ndez
ndi
ndia
ndias
ndice
ndici
ndicis
ndicu
ndido
ndiu
ndius
ndo
ndola
ndoli
ndolu
ndolus
ndose
ndosi
ndrica
nds
ndu
ndula
ndulas
nduli
ndulu
ndulus
ndum
ndusi
ndussi
ne
nea
neapolis
near
nearest
neas
nebraska
nebrija
nebris
nebulosa
nebulosas
neca
necesaria
necesarias
necesario
necesariu
necesia
necesida
necessarily
necessary
nech
necro
necrosis
need
needed
needing
needle
needs
neerlande
nefeli
nefi
negacio
negativa
negativas
negative
negativu
nego
negocius
negra
negras
negri
negritos
negritus
negro
negros
negru
negrus
neil
neither
nel
nela
nella
nellas
nellus
nelly
nelson
nem
nen
nengu
nenguna
nengunu
neo
neocra
neocrassicismu
neoli
neozelande
nepal
nepali
nepas
neptunu
nereu
nerlande
nero
neronis
neru
neruda
nerus
nerva
nervioso
nerviosu
nes
nesa
nesas
nese
neseda
neseditan
neseza
neseziais
nesezitan
nesi
nesis
neskin
nessa
nessas
nessec
nessi
nessus
nest
nesta
nestas
neste
nesti
nestus
nesus
net
neta
netherlands
neto
netscape
netu
netunu
network
neu
neulatinas
neuli
neurolo
neuronas
neuroscience
neurotransmisoris
neus
neutral
neutralia
neutralida
neutralis
neutro
neutronis
neutru
neva
nevada
never
neves
nevis
new
newdate
newindex
newline
newlines
newrawmessage
news
newsgroup
newspaper
newton
next
nez
nezesita
nfanu
nfasi
nfechas
ng
ngaru
ngel
ngeles
nger
nghua
ngilis
ngstro
ngu
ngua
nguas
nguez
ngulu
ngulus
nguyen
nh
nha
nhat
nhon
ni
nia
nias
nic
nica
nicamenti
nicara
nicaragua
nicas
niccolo
nice
nich
nichiren
nichts
nichu
nick
nickelodeon
nico
nicola
nicolas
nicolau
nicos
nicu
nicus
nida
nides
nidi
nidji
nido
nidu
nie
niebie
nien
niervosu
niervu
nieto
nietu
nietzsche
nieurs
nieuwe
nieve
nieves
nievi
nievis
nige
nigeria
night
nigi
nih
niilismu
nika
nikola
nikos
nil
nilargs
nilargskey
nilu
nima
nimas
nimes
nimo
nimos
nimu
nimus
nin
nina
ningu
ninguna
nio
nippon
nirge
nirgi
niro
niru
nirus
nirvana
nis
nita
nitas
nitro
niu
niue
nius
nivel
nivelis
nizhni
nj
njic
nkel
nkope
nl
nlm
nm
nmenti
nmi
nn
nne
nnica
nnis
no
noam
nobel
nobelprize
noble
nobleza
nobli
noblis
nobreza
nobri
nobris
nocat
noceda
noche
nochi
nochis
nocio
nocomma
nocturnu
node
noe
noelia
noemi
nogala
nogueira
noi
noise
noite
nolay
nolis
nolma
nolmal
nolmalic
nolmalmenti
nolmas
nolmativa
nom
noma
nomas
nombra
nombradia
nombraeru
nombral
nombrarun
nombrau
nombraus
nombre
nombreria
nombres
nombri
nombris
nombro
nome
nomen
nomenclatura
nomi
nomina
nominacio
nominal
nominales
nominalis
nominalmenti
nominatiuum
nominativu
nominativus
nominau
nomindar
nomine
nominees
noms
nomu
nomus
non
none
nopp
nor
noragu
norba
nord
nordeste
nordesti
noresti
norias
norma
normaeru
normal
normalis
normalizacio
normalization
normalize
normalized
normally
normalmente
normalmenti
norman
normandi
normandu
normas
normativa
normativas
normativu
normes
norociental
noroesti
norte
norteamericana
norten
north
northern
norti
nortiame
nortiamericanu
nortiamericanus
norton
noruega
noruegu
noruegus
nos
nosa
nosiulo
noslu
nosotras
nosotros
nossa
nostanti
nostra
nostri
nostru
not
nota
notabli
notablis
notabri
notabris
notacio
notal
notas
notation
note
notes
notestitle
nothing
nothomb
noti
notice
noticia
noticias
notification
notifying
noto
notomi
notracking
notras
notru
notrus
nottingham
nov
nova
novak
novas
novela
novelas
novelda
novelista
november
novena
noventa
novenu
novia
novialgu
noviembre
noviembri
noviercas
novna
novo
novum
now
nowiki
nowrap
nowy
noxtrum
npalramenta
nque
nr
ns
nsaris
nscrita
nscritu
nseca
nsecu
nsitu
nsiu
nski
nstable
nsul
nsula
nsulas
nsuli
nsulis
ntabra
ntabras
ntabro
ntabru
ntabrus
ntalu
ntara
ntesi
ntesis
nther
ntica
nticamenti
nticas
ntico
nticu
nticus
ntigra
ntimas
ntimu
ntimus
ntina
ntis
ntisi
ntisis
ntoma
ntomas
ntra
ntrica
ntricu
ntro
ntu
nu
nua
nubes
nubi
nubia
nubis
nuca
nucleal
nuclear
nuclearis
nucleicu
nucleicus
nucleo
nucleonis
nucleu
nucliu
nuclius
nuebu
nuecis
nuestra
nuestras
nuestro
nuestros
nuestru
nuestrus
nuesu
nueva
nuevamenti
nuevas
nuevi
nuevinu
nuevo
nuevos
nuevu
nuevus
nui
nuit
nula
nulu
nulus
num
numa
number
numbered
numbers
numberu
numdot
numeracio
numeral
numeralis
numerator
numeric
numerical
numero
numerosa
numerosas
numerosus
numiracio
numirosas
numirosus
numisma
nums
numsep
numstr
nun
nuna
nunas
nunc
nunca
nunu
nunus
nuovo
nuremberg
nus
nusotrus
nutr
nutrexpa
nutricio
nutricional
nutrientis
nutrition
nutritional
nuts
nuvelsida
nuversida
nuversidais
nuversitaria
nuversitariu
nuvi
nuvis
ny
nytimes
nɔ
nɪʊs
o
oa
oacceso
oaci
oath
obama
obi
obispo
obispu
obispus
obj
object
objecto
objects
objetivo
objetivos
objetivu
objetivus
objeto
objetos
objetu
objetus
obliga
obligau
obra
obras
obrero
obreru
obrerus
obres
obriga
obrigato
obrigatoriu
obrigau
obrinas
obscura
obselvaol
observa
observacionis
observan
observau
observo
obsoleto
obstanti
obstetricia
obstetrics
obtencio
obtenel
obtener
obtieni
obtuvu
oc
ocan
ocana
ocas
ocasio
ocasionalmenti
ocasiones
ocasionis
ocassio
ocassionis
occidental
occiental
occitan
occitana
occur
occurs
ocde
oce
ocea
oceani
oceania
oceanu
ochenta
ochoa
ochu
oci
ocia
ocidental
ocidentalis
ocidenti
ociental
ocientalis
ocienti
ocimientus
ocins
ocinsoutput
ocio
ocional
ocionalis
ocionis
ocita
ocitana
ocitanu
ociu
oclc
oclusiva
oclusivas
oclusivo
oclusivu
ocm
ocn
ocolc
ocrusivas
ocs
oct
octauia
octava
octave
october
octubre
octubri
ocupa
ocupacio
ocupacion
ocupacionis
ocupal
ocupan
ocupandu
ocupau
ocupo
ocurra
ocurri
ocurril
ocurrio
od
oda
odas
oddity
oder
odia
odin
odissea
odo
odu
odyssia
oe
oea
oecs
oedipus
oehti
oei
oesti
oetaeus
of
ofensiva
off
office
official
officiis
officinalis
offset
ofi
ofic
ofical
oficial
oficiales
oficialia
oficialida
oficialis
oficialmente
oficialmenti
oficina
oficinas
oficiu
oficius
ofrecel
ofreci
ofrecia
ofreciendu
ofrecierun
ofrecin
ofrecio
often
ogan
ogg
oguan
oh
ohas
ohetivismu
ohetivu
ohetivus
ohetu
ohetus
ohio
ohm
ohus
oi
oiasso
oiea
oif
oil
oilbbl
ois
oisi
oit
oja
ojas
ojeda
ojetivu
ojetivus
ojetu
ojetus
oji
ojo
ojos
oju
ojus
ok
oka
oklahoma
ol
ola
olanda
olande
olandesa
olanu
olas
old
older
olea
oleaginosas
olegario
oles
oleu
olga
olganic
olganismu
olganismus
olganiza
olganizacio
olganizan
olganizau
olganizaus
oli
olimpia
olimpu
olis
olisipo
oliva
olive
oliveira
olivenc
oliventina
oliventino
oliventinu
olivenza
oliver
olivera
oliveras
oliveru
oliverus
olivia
olivu
olivus
olla
oller
olmo
olocaustu
om
oma
omargs
ombox
ombri
ombris
ombrus
omc
ome
omega
omenahi
omeru
omi
omit
omitsep
omitted
omm
omni
omo
omoral
oms
omt
on
ona
onard
onas
oncala
once
onceniu
oncha
onci
onda
ondas
onde
ondi
ondulau
one
onepage
oneri
ones
ong
oni
onis
online
only
ono
onol
ons
onu
onzenu
onzi
oo
op
opanal
opcio
open
opening
openlibrary
opep
opera
operacio
operacionis
operador
operadora
operation
operativa
operativu
operator
opinan
opinio
opinion
opinionis
opm
opo
opoltunia
oponi
oportu
oportunida
oposicio
oposicion
oposicionis
opresio
opt
optical
optimization
option
optional
options
opuesta
opuestas
opuestu
opulal
opulo
opus
opusicio
or
ora
oracio
oracion
oracionis
oral
oralis
oralmenti
orandu
orange
oraol
orariu
oras
oratio
orato
orator
oratoria
orba
orbita
orbital
orc
orca
orchestra
orden
ordena
ordenal
ordenamientu
ordenaol
ordenaoris
ordenau
ordeno
order
orders
ordin
ordina
ordinal
ordinaria
ordinariu
ore
oreiro
oreja
orellana
orellanita
orensi
orental
orenti
ores
oresund
orfebri
org
orga
organic
organihmu
organismu
organismus
organiza
organizacio
organizacion
organizaciones
organizacionis
organizal
organization
organizau
organizo
orgasmu
orgasmus
orgullo
ori
orienta
orientacio
oriental
orientalis
orientalsi
orientation
oriente
orienti
orig
origen
origi
origin
origina
original
originalis
originalmente
originalmenti
originalurl
originan
originaria
originariu
originau
origink
origino
origins
origyear
orihin
orihina
orihinal
orihinalia
orihinalis
orihinalmenti
orihinis
orihoscu
orihuela
orilla
orillas
orina
orinas
orinocu
orio
oriol
oriolus
orionis
oris
oriu
oriunda
oriundu
oriundus
oriya
orizontal
orizontalis
orizonti
orleans
ormigo
ornitolo
oro
orogra
orografia
oropendi
orquesta
orquestas
orqui
orru
orrus
ors
ort
ortega
ortiz
orto
ortodoxa
ortogra
ortografi
ortografia
ortografias
ortograficamenti
ortu
ortugra
ortugrafia
oru
oruwinners
orvial
orviu
oryema
oryza
os
osa
osaka
osama
osas
osborne
oscar
oscars
oscarthe
osce
oscec
oscila
oscilacionis
oscilan
oscura
oscurida
oscuru
oseloff
oservaol
oservatoriu
ositonas
oslu
osma
osmo
ospital
osselva
osselvaol
osservaol
ossi
ossia
ossidacio
ossidanti
ossidativu
ostalis
ostanti
osteleria
ostenta
osti
ostrucio
osu
osus
ota
otan
otanicar
otas
otativu
otava
otaviu
otavu
otel
otelis
otencio
otenel
otero
other
others
otherwise
oti
otieni
otobu
otobusis
otolgau
otomanu
otomanus
oton
otona
otorga
otorgau
otra
otrantu
otras
otro
otros
otru
otrus
ottawa
otto
otu
otubri
otuvu
ou
oui
ounce
ounces
oup
our
out
outinfo
output
outputs
outra
outros
outru
outubri
outvalue
ouvido
ov
ovagovic
oval
ovala
ovehas
oveja
ovejas
ovejero
over
overflow
overhead
overlap
overlinking
overload
overloads
override
overwritten
ovi
oviedo
ovieu
ovinu
ovocitu
owl
own
oxford
oxi
oxidacio
oxidative
oxidativu
oxygen
oy
oya
oyel
oyi
oyiu
oyo
oz
ozf
ozi
ozt
p
pa
pablo
pablu
pac
paca
pacensi
pacensis
pacheco
paci
pacienti
pacientis
pacific
pacino
paco
pacoru
pactu
padding
padeci
padilla
padlock
padre
padres
padris
padro
padua
paeci
paecia
paecin
pag
paga
pagal
page
pagerank
pages
pagetype
pagina
pagodinho
pagu
pagus
paha
pahi
pahu
pai
paicel
paici
paicia
paicin
paiciu
paido
pair
pairi
pairimuestru
pairis
pairs
pais
paisagi
paisahi
paisahis
paisajes
paisaji
paisanu
paises
paisis
paita
paja
paji
pak
pakista
pal
pala
palabra
palabras
palabrinas
palac
palacio
palacios
palaciu
palais
palantri
palas
palatal
palatalis
palataliza
palatizacio
palau
palbus
pale
palemo
palencia
paleoli
paleontologi
palermo
palermu
palestina
palestinus
paleuli
palgrave
palla
pallabra
palli
palma
palmare
palmas
palmeras
palmi
palmo
palo
palomas
palomeru
palos
palpare
palpum
palra
palraba
palraban
palraera
palraeru
palral
palrali
palralu
palralus
palralvus
palramenta
palramentu
palramentus
palramus
palran
palrandu
palranga
palranti
palrantis
palras
palrau
palraus
palrava
palravan
palravus
palre
palremus
palrin
palro
palti
palticipa
palticipacio
paltis
palu
paludismo
paludismu
palus
pam
pamela
pamplona
pan
panama
panda
pandemia
pandi
pandora
panelis
panfi
panhispa
paniagua
paniaugua
panora
panorama
pantalla
pantallas
pantanu
pantanus
panteo
panto
pantuflo
paola
paolo
papa
paparrica
paparrona
papaya
papel
papelis
paper
papers
papialvilla
papilas
papira
papiru
paponis
papu
papua
paque
paqui
paquista
paquistani
par
para
parabo
parabra
parabras
parabreru
parabrina
parabrinas
paracas
parade
paradigma
paradima
parado
parafile
paragi
paraguai
paraguay
parahi
parai
paral
paralela
paralelas
paralelismu
paralelu
paralelus
paralic
paralympians
param
parameter
parameters
parametro
paramlink
paramorder
paramore
params
parana
paras
parcela
parcelas
parcial
parcialmenti
parda
pardal
pardaleras
pardin
pardo
pardu
pare
parece
parecel
pareci
parecin
pareciu
pared
paredes
pareis
pareja
parejas
parejo
parelis
parens
parent
parenteral
parentescu
parentheses
pareones
pareonis
pares
pargs
pari
pariente
parientis
paris
park
parker
parkinson
parla
parlamentaria
parlamentariu
parlamento
parlamentu
parlanjhe
parlar
parm
parme
parms
parmsi
parmsiparm
parmsoption
parmsparms
parodiandu
paroquial
parossi
parque
parques
parqui
parquis
parra
parralis
parriba
parro
parroquia
parroquial
parroquias
parse
parsec
parsecs
part
parte
partecipal
partes
parti
partia
partial
partici
participa
participacio
participacionis
participal
participan
participandu
participantis
participar
participarun
participate
participation
participau
participiu
participo
participou
participun
particles
particulal
particulalmenti
particular
particularia
particulariais
particularis
particularly
particularmenti
particus
partida
partidariu
partidarius
partido
partidos
partidu
partiendu
partiha
partiju
partil
partilu
partin
partir
partis
partitivu
partiu
partius
parts
partspart
partu
partus
paru
parus
parvordin
pas
pasa
pasaba
pasado
pasaherus
pasaje
pasajerus
pasal
pasan
pasandu
pasar
pasarun
pasau
pasaus
pascua
pascual
paseo
paseu
pasi
pasiega
pasiegos
pasiegu
pasillus
pasio
pasivu
pasmo
paso
pasos
pasqual
pasquali
pass
passa
passage
passageurl
passahi
passahis
passal
passan
passandu
passara
passarun
passau
passava
passed
passer
passio
passiva
passo
passu
passus
past
pasta
pastizalis
pastizzi
pastol
pastor
pastoril
pastorilis
pastoris
pastu
pastuen
pastus
pasu
pasus
pata
patas
patata
patatas
patateras
pate
patenti
pater
pateraggelos
paterna
paternu
path
pathet
pathways
patineal
patio
patiu
pato
patolo
patologi
patolu
patra
patri
patria
patricia
patrick
patrimo
patrimon
patrimonio
patriotismu
patro
patrocinaol
patrona
patronal
patronato
patronatu
patroni
patronis
pattern
patterns
patu
pau
paul
paula
paulo
pausa
pave
pavimentu
pavli
pax
paya
pays
payu
paywall
paz
pazu
pc
pcall
pd
pdf
pe
peace
peagi
peahi
peak
peanias
pearl
pearson
peatonal
pecaus
peces
pecho
pechos
pechu
peci
pecina
pecis
peck
pedago
pedani
pedania
pedio
pediorismu
pediorista
pedra
pedreros
pedricau
pedro
pedru
pega
pegal
pegas
pegau
pei
peinau
peiru
pekka
pel
pela
pelan
pelayo
peli
peligrosas
peligrosos
peligrossa
peligru
pelitasqui
pelle
pelleju
pelog
peloponesu
pelota
peloto
pelra
pelu
pen
pena
penaeru
penal
penas
penat
penco
pendiente
pendienti
pendientis
pending
pene
penetracio
penguin
penh
peni
penicla
peninsula
peninsulal
peninsular
peninsularis
penna
pennsylvania
penny
pensaba
pensaban
pensaeru
pensaerus
pensal
pensamiento
pensamientu
pensamientus
pensaol
pensaoris
pensar
pensau
pense
penta
pentateucu
pentium
penu
people
pepa
pepe
pepitas
pequen
pequena
pequenas
pequi
per
pera
peraleda
peralis
peralta
peras
percent
percepcio
perch
percusio
percussio
percy
perda
perdas
perdel
perdere
perdi
perdida
perdido
perdiendu
perdierun
perdio
perdiu
perdius
perdo
perdura
perdurandu
pere
perea
pereda
peregrinus
pereira
perejil
perenni
perez
perfeccio
perfect
perfectum
perfetamenti
perfetivu
perfetu
perfil
perfilis
perform
performance
performed
perguntal
peri
peria
pericles
peridu
perife
perifra
perigru
perinola
perio
period
periodic
periodical
periodically
periodismo
periodismu
periodista
periodistica
periods
periodu
periodus
perioicu
periou
perious
peripate
perispo
peristilus
periu
perla
permanecel
permanecen
permaneci
permanente
permanenti
permisos
permitan
permite
permiti
permitido
permitiendu
permitil
permitin
permitio
pero
peroxide
perpetua
perpin
perras
perritracu
perro
perru
perrunillas
perrus
perry
persa
persas
perse
persii
persio
person
persona
personajes
personajis
personal
personalia
personalida
personalis
personas
perspectiva
pertenci
perteneci
pertenecienti
pertenecientis
pertenecin
pertext
perto
peru
peruana
peruanu
perugino
pervivencia
pes
pesa
pesal
pesao
pesar
pesau
pesaus
pesca
pescaoris
pescau
pesclum
pescuec
pescueza
pescuezu
pesetas
peseteru
pesi
peso
pesquera
pesquero
pessal
pessoa
pessona
pessonal
pessonas
pessulum
pestan
pesti
pesu
pet
peta
petaba
petaria
pete
peter
petersburgu
peti
peticio
petin
petit
petite
petito
peto
petra
petro
petrocaribe
petroliu
peus
pev
pez
pezi
pezis
pfeifen
pframe
pg
ph
phabricator
phaedra
phage
phare
pharmacological
pharmacology
pharsalia
pheron
phil
philadelphia
philip
philippe
philosophiae
philosophical
phnom
phoenissae
phoenix
phone
phong
phono
photo
php
phu
phy
phylogeny
physical
physics
physiology
phɑl
pi
pia
pian
piana
piano
pianu
pias
pib
pic
pica
picamente
picamenti
pican
picapeci
picardu
picas
picasso
piccardo
pichilemu
pick
pico
picon
picos
pictures
picu
picus
pida
pidal
pidamenti
pidas
pide
pidi
pidio
pido
pidu
pidus
pie
piea
piec
piedra
piedras
piel
pielna
piemonte
piemonti
piensa
piera
pierah
pieras
pierce
pierdi
pierdin
pierle
pierna
piero
pierre
pieru
pies
pieza
piezas
piezis
pigmentu
pigmentus
pii
piian
piil
piin
pikku
pil
pila
pilal
pilam
pilar
pilaris
pilas
pili
pilo
pilonis
pilotu
pilu
pimento
pimienta
pimientus
pin
pinar
pinares
pinchi
pinchu
pindiongu
pindongus
pine
pineal
pinelli
pinga
pingau
pingayu
pinheiro
pinicla
piniclas
pinilla
pino
pinocchio
pinochet
pinos
pinotis
pint
pinta
pintal
pintas
pintau
pintinas
pinto
pintol
pintor
pintora
pintoris
pintura
pinturas
pinu
pinufranqueau
pinus
pinyi
pinyin
pio
piol
pionero
pioneru
pionerus
pioris
piornal
pios
piotr
pipe
pipep
pipepbot
pipes
piqui
piquin
pira
piraha
pirata
piratas
pirateria
pirates
pirineus
piru
pis
pisa
piscina
piscinas
pise
piso
pista
pistas
pisu
pisuerga
pisus
pita
pitago
pitarra
pitcairn
pitch
piti
piticion
pitkern
pito
pitt
pitu
piu
pius
piyendu
piyo
pizarro
pj
pk
pl
pla
plac
placa
placas
place
placentarius
placer
places
plaeras
plain
plainlinks
plan
plana
planas
planeta
planis
plant
planta
plantae
plantandu
plantarum
plantas
plantea
planteando
plantilla
plants
planu
plasencia
plasma
plasmodium
plata
plataforma
platicamenti
platicau
plato
platus
play
plaza
plazu
pleamari
please
pleiku
plen
plena
plenamenti
plenu
pli
plo
plomu
plontinu
plontu
plotarea
plotdata
plumaje
plumas
plumilla
plums
plural
pluricelularis
plus
plutarco
plutarcu
pluto
pm
pmc
pmcs
pmid
pmids
pn
pnas
png
pnv
po
poblacio
poblaciones
poboacio
pobracio
pobre
pobrema
pobremas
pobreza
pobri
poc
poca
pocas
pocket
poco
pocos
pocu
pocus
pod
podcast
pode
podemos
poder
poderi
poderis
poderosu
podi
podia
podra
podri
podria
podus
poe
poel
poema
poemariu
poemas
poemus
poeris
poesi
poesia
poesias
poeta
poetas
pograma
pogramacio
pogramaol
pogramas
pogressa
pogressista
pogressivu
poi
point
poipa
poipu
poitevi
poitevin
poitou
poke
pol
pola
polaca
polacu
polacus
polal
poland
polar
polaris
polas
polcima
pole
poli
polici
policia
policleto
policy
polideportivo
polideportivu
polimerasa
polin
poline
polinesia
polinici
polis
polisaca
polish
polite
politica
political
politicas
politics
politicu
polito
polo
polon
polonia
polos
polqu
polque
polska
polu
polus
polvinil
polvu
polyglotta
polygram
pombahu
pompeu
pompeyu
pompidou
pompo
pon
ponce
ponci
poncima
pondemaat
pondi
pone
ponel
poner
ponerse
poni
ponienti
ponin
pons
pontevedra
pontifi
pop
popa
pope
popu
popula
populac
populal
populalmenti
popular
populares
popularia
popularida
popularis
popularizau
popularmenti
populates
poquina
poquinas
poquininu
poquinu
poquinus
por
porcelana
porcentagi
porcentahi
porcentaje
porcentaji
porcima
porcina
porcinu
porcio
porcionis
porel
pornogra
pornografia
pornu
porque
porquerus
porqui
porrina
port
porta
portail
portal
portalegre
portalgu
portalis
portamientu
portamientus
portan
porter
porteria
porteru
portillo
portion
portions
portland
portmanteau
porto
portocarrero
portrait
portu
portuaria
portuga
portugal
portugue
portuguesa
portuguesas
portuguesis
poruna
porus
pos
posa
posalviolaris
poseel
poseen
posei
posein
posesio
posesionis
poseyel
posguerra
posibilia
posibilida
posible
posiblementi
posibli
posiblis
posibri
posibrienti
posibris
posicio
posicion
posicionamientu
posiciones
posicionis
posido
posin
position
positiva
positivas
positive
positivu
possei
possein
possession
possessivu
possibilia
possibiliais
possible
possibli
possiblimenti
possibly
possibri
possibrimenti
possibris
possimenti
post
postal
postalis
posteriol
posteriolmenti
posterior
posterioris
posteriormente
posteriormenti
posto
postrera
postri
postscript
postula
postulan
postulau
postulaus
postura
posturas
potaje
potasiu
pote
potencia
potencial
potencialis
potencias
potenti
potential
potentis
potesta
potter
pou
poulain
poulos
pound
pounds
pour
pourcel
povoac
pow
power
pozalmuro
pozo
pozu
pozuelo
pozuelu
pozus
pp
ppen
ppprefix
pprefix
pr
pra
prabang
prac
praca
pracas
pracel
pracentina
pracentinu
practical
practice
prado
praenomen
praenomina
praetexta
prag
praga
pragas
pragma
praia
pran
prana
pranas
praneta
pranetas
pranta
prantas
prantea
pranteandu
prantill
prantilla
prantillas
pranu
pranus
prase
prasenc
prasencia
prassi
prat
prata
pratahorma
pratahormas
pratau
prateau
pratica
praticamenti
pratillu
pratinu
pratu
pratus
prau
prauchanu
praya
prayas
prayer
praza
prazo
prazu
pre
prea
preba
prebal
prebas
prec
precedentis
preceding
preceenti
preceentis
preceiu
precibi
precipitacio
precipitaciones
precipitacionis
precisa
precisan
precisio
precision
precissamenti
preciu
precius
precolombina
precupacion
precura
precuraba
precuran
precurandu
precuraoris
precurava
precuro
precutol
predesinencial
predicau
predicaus
predicionis
predomin
predominantementi
predominanti
predominantis
preesto
preestoria
prefecio
prefere
preference
preferences
preferencia
preferenti
preferentimenti
preferred
prefeta
prefetu
prefetura
prefeturas
prefieri
prefihu
prefihus
prefiju
prefix
prefixed
prefixedtext
prefixes
prego
pregunta
preguntas
prehenta
prehentalsi
prehentan
prehenti
prehessol
prehisa
prehisan
prehunda
prehundia
prejisa
prejisamenti
preliminary
preload
prema
premanecel
premaneci
premanecio
premanenti
premiers
premio
premios
premissu
premisu
premisus
premita
premiti
premitia
premitiendu
premitierun
premitil
premitin
premitio
premitira
premiu
premius
prena
prenamenti
prenci
prencipal
prencipales
prencipalis
prencipalmenti
prencipau
prencipia
prencipial
prencipian
prencipiandu
prencipiarun
prencipiau
prencipinu
prencipio
prencipiu
prencipius
prenda
prendel
prenombris
prensa
prentice
prenu
prenuncia
prenunciacio
prenunciaeru
prenuncial
prenuncialsi
prenunciau
prenuncio
preocupacio
prepara
preparacio
preparara
preparativus
preparaus
prepo
preponel
prepongu
preposicio
preposicion
preposicionalis
preposicionis
prepuesta
prepuestas
preromana
prerromana
prerromanas
prerromanu
prerromanus
presa
presas
prese
presence
presencia
present
presenta
presentacio
presentado
presentador
presentaeru
presental
presentalsi
presentan
presentandu
presentaol
presentaora
presentarun
presentation
presentau
presentaus
presentera
presenteras
presenti
presentis
presento
presidencia
presidencialis
president
presidenta
presidente
presidenti
presie
presiencia
presiencial
presiencialis
presiencialista
presienta
presienti
presientis
presiiu
presio
presion
presocra
presona
presonahi
presonahis
presonal
presonalia
presonalmenti
presonas
prespa
press
presse
pressegui
pressenta
pressenti
pressento
pressocra
pressona
pressonagi
pressonagis
pressonahi
pressonahis
pressonaji
pressonajis
pressonal
pressonaliais
pressonalis
pressonalmenti
pressonas
pressrelease
pressure
presta
prestatariu
presti
prestigiosas
prestigioso
prestigiosus
prestigiu
prestihiosa
presto
presumably
presume
presupuestu
presus
prete
pretenci
pretencin
pretende
pretendi
pretendian
pretenecel
preteneci
pretenecia
preteneciendu
pretenecienti
pretenecientis
pretenecin
pretenecio
preteneciu
pretensau
pretesta
preto
pretol
pretura
preunit
preunits
prevas
preve
prevei
prevencio
prevenil
prevent
prevention
preventivas
preventivu
prevents
previamenti
preview
previle
previlehia
previlehiau
previous
previously
previsio
previsionis
previstu
previu
previvi
prevoca
prevocal
prevocan
prevocandu
prevocau
prevoco
prex
prf
pri
priberam
prieto
prietu
prim
prima
primaera
primaria
primarias
primarily
primariu
primarius
primary
primas
primatis
primavera
prime
primel
primer
primera
primeramenti
primeras
primero
primeros
primeru
primerus
primilla
primitiva
primitivas
primitivu
primitivus
primo
primu
primus
prince
princesa
princeton
principal
principales
principalis
principalmente
principalmenti
principia
principios
print
printblurb
printtitle
prioratu
prioritariamenti
priscu
prisin
prisio
prisma
priva
private
privau
privaus
prize
prizes
pro
probabili
probabilia
probablementi
probabli
probably
probabri
probabrienti
probabrimenti
probi
probis
problem
problema
problemas
problemes
problems
probrema
probremas
proc
procariotas
procaspasa
proce
procedentis
procedi
procedimientus
procedin
procee
proceedings
proceei
proceel
proceenti
proceentis
procei
proceimientu
proceimientus
procein
procesa
procesamientu
procesau
procesaus
procesio
proceso
procesos
process
processed
processing
processu
processus
procesu
procesus
proclamau
proclamo
procli
procuran
procuraol
prod
prodominiu
produccio
produci
producia
produciendu
producil
producin
producing
producio
producion
producir
produciu
producius
product
production
productions
producto
productor
productos
productu
productus
produhu
produjiendu
produjieran
produju
produtiva
produtol
produtoris
produtu
produtus
produxiendu
produzi
produzil
produzin
produzio
produziu
proel
prof
profesional
profesol
profesor
profesoris
professio
profession
professional
professionalis
professol
professor
professoris
profeta
profissional
profunda
profundida
profundu
progenitoris
progesterone
program
programa
programacio
programas
programmed
programming
progresa
progreso
progress
progresu
prohessu
prohunda
prohundas
prohundia
prohundizal
prohundu
project
projects
projessu
proletarius
proli
proliferacio
prolonga
promesa
promesas
promete
prometeu
prometheus
prometi
promeyu
promocio
promociona
promote
promovel
promu
promuevi
promulga
promyelocytic
prono
pronombri
pronombris
pronominalis
pronto
prontu
pronuncia
pronunciacio
pronunciau
proof
prop
propagacio
propagan
propaganda
proper
properispo
properly
propersign
properties
property
propi
propia
propiais
propiamenti
propias
propiciau
propicio
propiea
propieais
propieda
propiedadis
propiedais
propieta
propietariu
propietarius
propio
propiu
propius
propo
propolciona
proponel
propongu
proponi
proponimientu
proponin
proporc
proporcio
proporciona
proporcional
proporcionandu
proporcionis
proporciono
proposal
proposed
propr
propria
propriu
propuesta
propuestas
propuestu
pros
prosa
prosas
proserpina
prosimia
prosperia
prossimia
prossimida
prostituta
prota
protagonismu
protagonista
protagonistas
protagunista
proteasas
proteccio
protecio
protecion
protected
protection
protectionlevels
protectorau
protects
protegel
protegi
protegia
protegidos
protegiu
protehel
protehi
protehias
protehiu
protehius
protei
proteica
protein
proteobacteria
proteolysis
protestantis
protestas
protetol
protezio
protista
protistas
proto
protocol
protocolu
protocolus
protonis
prototi
prototipu
prouci
proucia
proucias
proucieru
proucil
proucin
proucio
proucion
prouciu
prouidentia
prouju
proutol
proutu
proutus
prov
prova
provechu
provenc
provencia
provenienti
provenientis
provenzal
provi
provide
provided
provides
provie
provien
provieni
provinci
provincia
provincial
provincialis
provincias
provisional
provista
provoca
provocal
provocan
provocandu
provocau
provoco
proximida
proyecto
proyectos
proyectu
proyectus
proyetu
proyetus
proyeuta
proyeutu
proyeutus
prozac
prubabilida
prueba
pruebas
prumagi
prumas
prunus
prural
pruralia
pruralis
prusia
pruvincia
ps
pse
psi
psicoana
psicolo
psicologi
psidi
psoe
psychology
pt
ptbotgourou
pteru
pterus
ptica
pticas
pticu
ptimu
ptr
pu
pub
public
publica
publicacio
publicaciones
publicacionis
publicacions
publical
publication
publicationdate
publicationplace
publications
publicau
publicaus
publicia
publicidad
publico
publio
publique
publish
published
publisher
publisherid
publishername
publishers
publishing
publius
pubmed
pubmedcentral
pubrica
pubricacio
pubricacionis
pubricarun
pubricau
pubricaus
pubricia
pubricita
pubrico
pubs
puc
puca
pucminas
pudel
pudiendu
pudiera
pudong
pudra
pudri
pudria
pudriamus
pudrian
pudrie
pue
puea
puean
puebla
pueblacio
pueblau
pueblo
pueblonuevo
pueblos
pueblu
pueblus
puebra
puebracio
puebracion
puebracional
puebracionis
puebraoris
puebrau
puebraus
puebrinu
puebru
puebrunuevu
puebrus
puede
pueden
puedi
puedin
puei
puein
pueis
puel
puelles
puelmi
puema
puemas
pueminas
puemus
puen
puente
puentecilla
puenti
puentis
pueri
puerien
pueris
puerta
puertal
puertas
puerto
puertu
puertus
pues
puesi
puesia
puesias
puesta
puestas
puesto
puestu
puestus
pueta
puetas
puetisa
pueu
pui
puia
puian
puiu
pul
pula
pulas
pulau
puli
pulia
pulias
pulici
pulicia
pulitzer
puliu
pulmonal
pulmonis
pulpa
pulsa
pulu
pulus
pumpkin
pumpkins
pun
puna
punctuation
punica
punishment
punk
punta
puntas
punto
puntos
puntu
puntus
punu
pur
pura
puramenti
puras
purbo
purec
pureza
purge
purgossu
puri
purodha
purpose
purpu
pursa
pursal
purtugal
purtugue
purtuguesa
purtuguesas
purtuguesis
puru
pus
pushkin
pusicio
pusiendu
pusitiva
pusu
pusun
put
putas
putencial
putin
putumayo
puu
puun
puy
puye
puyendu
puyera
puyeran
pv
pw
px
pxduas
pxel
pxquehas
pxvotacionis
py
pyeong
pyongyang
python
pywikipedia
q
qa
qadri
qaeda
qantas
qatar
qinu
qm
qo
qq
qt
qtr
qu
qua
quad
quadrangular
quadrillion
quadrimester
quadus
quaestiones
quaira
quairau
quairaus
quairil
quairu
quairus
qual
quala
qualified
qualis
qualisquia
qualisquiel
qualisquiera
qualquiel
qualquiera
qualu
quand
quando
quandu
quanti
quantinas
quantis
quantitu
quantu
quarenta
quart
quarta
quartapelle
quarte
quarter
quartet
quarts
quartu
quartus
quase
quasi
quasique
quatre
quatro
quatru
que
quea
queaba
queaban
queal
quean
queandu
queara
quearemus
queari
quearia
quearun
queau
quebec
quechua
queda
quedando
quedo
quedre
queen
queens
quei
queimada
quein
queji
quel
queo
quercus
quere
querel
querencia
querencias
queri
queria
querian
quero
queronea
query
question
questions
quesu
quesus
queu
quevedo
quexas
quez
qui
quia
quias
quicia
quida
quidia
quidu
quie
quieas
quiei
quieis
quiel
quien
quienis
quiera
quiere
quieren
quieri
quiero
quieru
quiiri
quijiendu
quijote
quiju
quijun
quilis
quilo
quilometrus
quilumetru
quimicu
quin
quina
quinas
quince
quinci
quinientus
quinta
quintana
quintanas
quintilianu
quinto
quintu
quintus
quinzi
quirguista
quiria
quiribati
quiro
quita
quital
quitandu
quitarra
quitarras
quitarrista
quitu
quiu
quius
quiza
quizia
quiða
quiðia
quo
quoc
quos
quotation
quote
quoted
quotes
r
ra
rabac
rabat
rabe
rabel
rabi
rabin
rabis
rabu
rac
racean
raceandu
rach
racha
racional
racionalis
racontas
rad
radatz
radiacio
radiacionis
radiation
radic
radical
radicalis
radicals
radio
radiofo
radiofrecuencia
radioifusio
rado
rae
raeeras
rafa
rafael
raff
rag
ragga
ragusa
rahman
rahu
rahula
rai
raical
raicalis
rail
railway
raimon
rais
raise
raizis
rajoy
rala
ralamenti
ralida
ralla
ralph
ralu
ram
rama
ramallo
ramas
rambla
ramblas
rambuta
rambutan
rami
ramirez
ramiro
ramo
ramos
rampling
ramu
ramus
ranas
random
raneal
range
rangei
ranges
rangu
ranh
rankine
ranking
rapacis
rapazis
raquel
rara
raramenti
raras
raru
ras
rasgu
rasgus
raspal
rastrojo
rat
rate
rathaus
rather
ratificau
ratio
rationem
rato
ratonis
ratu
rau
ravel
raw
rawget
rawpage
rawset
ray
raya
rayalis
rayanus
raymond
rayo
rayu
rayus
raza
razas
razo
razonis
rba
rbara
rbarus
rbia
rbita
rbitas
rbiu
rbius
rbol
rboles
rbolis
rcega
rcena
rcia
rciga
rcitu
rcitus
rciu
rcius
rcolis
rculo
rculu
rculus
rcuris
rd
rda
rde
rdenas
rdenis
rdia
rdicas
rdico
rdicu
rdida
rdiga
rdigas
rdinis
rdoba
rdova
rduba
rdulus
re
rea
reach
reacio
reacion
reaciona
reacional
reacionis
reactivas
reactivida
reactivu
read
reader
readers
reading
reads
ready
reagan
real
reales
realia
realic
realida
realis
realismu
realistas
reality
realiza
realizacio
realizado
realizal
realizan
realizar
realizara
realizau
realizo
really
realmenti
realworld
reap
reapertura
reas
reason
reasons
reassemble
reativacion
reativu
reazio
reazionis
rebabera
rebalizas
rebe
rebeldis
rebelio
rebelion
rebollal
rebollar
rebollaris
rec
recada
recadan
recarquin
recebi
recebil
recebio
recebira
recechava
rececio
recent
recently
recepcio
receptor
receptoris
recesio
receta
rechac
reci
recibe
recibi
recibierun
recibil
recibin
recibio
recie
recientementi
recienti
recientienti
recientimenti
recientis
recintu
recipienti
recital
recitalis
recito
reclama
reclamation
reco
recogi
recognize
recognized
recolecio
recomenda
recomienda
recompensa
recon
reconoce
reconocel
reconocen
reconocencia
reconoci
reconocia
reconocimiento
reconocimientu
reconocimientus
reconocin
reconociu
reconocius
reconquista
reconstrucion
recopa
recopilacio
recopilato
record
recordaeru
recorded
recordings
records
recorreal
recorri
recorriu
recostrucio
recostruia
recostruiu
recrama
recreacio
recriacio
recta
rectus
recuairu
recuerda
recuerdan
recuerdo
recuerdos
recuerdu
reculsus
recupera
recuperacio
recuperal
recursos
recursu
recursus
red
redacio
redato
rede
redi
redirecio
redirecionis
redirect
redirects
redis
redonda
redondo
redor
redox
reduce
reduci
reducio
reduciu
redundant
redupricacio
redupricacion
redupricacionis
redupricaus
reduzidas
reduzil
reduziu
reel
ref
refer
refere
reference
references
referencia
referenciah
referencias
referencies
referendum
referenti
referentis
referi
referil
referilsi
referiu
refiei
refiere
refieri
refierin
refinamientu
refinau
refiri
refiria
refiriendosi
refiriendu
refiriu
refleja
reflessio
reflexiones
reforma
reformas
reformat
refractariu
refrehal
refreja
refs
refugio
reg
regachu
regachus
regal
regalu
regalus
regardless
regards
regatuh
regeneracio
regentis
regex
regi
regia
regimin
regina
regio
region
regional
regionalis
regionalismu
regionalista
regionalistas
regiones
regionis
register
registered
registra
registrant
registration
registrationrequired
registrau
registraus
registro
registru
registrus
registry
reglamentu
reglamentus
reglas
regocihu
regra
regras
regresio
regressa
regu
reguedi
regueri
regula
regulacio
regulal
regulalmenti
regulan
regulaol
regular
regularis
regulated
regulationof
regulau
rehendiya
rehi
rehilal
rehileu
rehimin
rehio
rehional
rehionalis
rehiones
rehionis
rehistil
reholma
reholmas
rehorc
rehorma
rehormaol
rehormas
rehuerti
rehuiju
rehuijus
rei
reilly
reina
reinau
reinaus
reino
reinu
reinus
reis
reiss
reissue
reiter
reiterativas
reiterativu
rela
relacio
relacion
relaciona
relacionan
relacionas
relacionau
relacionaus
relacionis
relanzau
relata
relatan
related
relatinus
relations
relationship
relativa
relativamenti
relativas
relative
relativida
relativu
relativus
relatos
relatu
relatus
release
relegi
releva
relevant
relevanti
relevantis
relievi
relievis
religio
religion
religionis
religiosa
religiosas
religiosu
religiosus
religiu
relihio
relihion
relihiosa
relihiosas
relihiosu
relihiosus
rello
reloj
rem
remainder
remanando
remaneci
remaneciendu
remanecienti
remanecin
remanecio
remanenti
remanentis
remap
remaplang
remato
rembrandt
remedios
remescla
remesclas
reminice
remitin
remix
remolacha
remonta
remontan
remotu
removalnotice
remove
removeblanks
removed
removes
removing
remuecu
remuelacionis
ren
renace
renacel
renacentista
renacentistas
renacimiento
renacimientu
renaissance
renaixenc
renania
render
rendered
rendering
renderstartbox
renderstartboxlinks
rendili
rene
renfe
renieblas
rennes
renombranc
renombrau
renombraus
renombri
renova
renta
renti
renuncia
renuncio
renzi
reol
reondel
reor
reorganizal
rep
reparacio
reparal
reparti
repartias
repartin
repartius
repartu
repercusio
reperto
repertoriu
repetil
repetitivu
repio
repiticio
repiticion
repitin
replace
replaced
replacement
replaces
replicacio
repoli
reponel
reponse
report
reportagi
reposteria
reposu
reprehentacio
represent
representa
representaban
representacio
representacion
representacionis
representaeru
represental
representan
representandu
representanti
representantis
representativa
representativu
representau
representava
representing
represento
represents
represio
repressenta
repressentanti
reproducilsi
reproducin
reproducio
reproducion
reproduction
reproduzio
reproucio
reptilis
repu
repubblica
republic
republica
republicana
republicanu
republiek
republik
republika
repubrica
repubricanu
repuebra
repuebracio
repunteal
reputacio
request
requests
requiere
requieren
requieri
requierin
requilorios
require
required
requires
requisitus
res
resbalal
rescati
rescreci
rescrecin
rescrei
rescuers
research
researchgate
resen
reserva
reservas
resi
residencia
residi
resie
resiencia
resiencialis
resienti
resientis
resis
resiste
resistencia
resistenti
resistentis
resistil
resistio
resnick
resolucio
resolvel
resolvio
resonancia
resonando
resonandu
resono
resorvel
resource
respectivamenti
respectivas
respecto
respectu
respeta
respetal
respetandu
respetivamenti
respetivas
respetivi
respetivimenti
respetivus
respetu
respeutu
respiracio
respiratorias
respiratoriu
respondel
respondi
responsabli
responsablis
responsabri
responsabris
respublika
respuesta
respuestas
ressurtau
restantes
restanti
restantis
restaura
restauracio
restauranti
restaurantis
restauraol
restaurau
restos
restu
restus
resu
resueltas
resuertas
result
resulta
resultal
resultan
resultanti
resultau
resultaus
resulting
resulto
results
resumen
resumin
resurta
resurtan
resurtandu
resurtanti
resurtau
resurtaus
ret
reta
retablu
retabru
retahila
retangulal
retenel
reti
retil
retilis
retina
retinglando
retinglo
retira
retirada
retiral
retirau
retiro
retiru
retitu
reto
retol
retola
retorau
retorno
retortillo
retracio
retratau
retrataura
retrato
retratu
retrieved
retro
retrv
retu
return
returned
returns
returoma
reu
reucia
reuciendu
reucil
reumatoidi
reuni
reunio
reunionis
reus
reuse
rev
revacaerus
revalido
reve
revela
revelacionis
revelo
reverdecer
reverdegueal
reverte
review
reviews
revindicacionis
revirigu
revisa
revisio
revista
revistas
revistil
revival
revivalistics
revive
revivil
revocaeru
revolucio
revolucion
revolucionario
revolucionariu
revolucionis
revolution
revuelta
rexo
rey
reyes
reyis
reykjavi
reyna
rez
reza
rezensionen
rezie
rezienti
rezientis
rezipienti
rezistil
reznos
rf
rfa
rfc
rficu
rft
rganu
rganus
rgb
rgia
rgicas
rgos
rgulus
rhead
rhein
rhia
rho
rhs
ri
ria
riad
riada
rial
rialengu
rialia
rialis
rialmenti
rian
rias
riau
riaza
riba
ribera
riberas
riberen
ric
rica
ricaenti
ricamenti
ricardo
ricas
rice
rich
richard
richards
riches
richter
rico
ricos
ricu
ricus
rida
ridas
ride
ridus
rie
riegu
ries
riesgu
riesgus
rif
rifen
riga
right
rights
rigi
rigin
rigiu
rigt
rigth
rigurosus
rigus
rihio
rii
rimas
rimu
rimus
rin
rinco
rindierun
ring
rings
ringurrangu
rinneadh
rio
rioha
rioja
riojanu
rios
rioseco
riquec
riqueza
ris
rise
risi
ristri
risurtanti
risurtau
rita
ritmu
ritmus
rito
ritu
ritual
ritualis
ritus
riu
rius
rival
rivas
rivelles
river
rivera
riviravolta
rivista
rivistas
rj
rk
rko
rm
rmacus
rmara
rmatas
rmica
rmicas
rmicu
rmicus
rmino
rminu
rminus
rms
rmula
rmulas
rn
rne
rnia
rniu
rnius
ro
roa
road
roanu
robbins
robert
roberto
roberts
robinson
robledo
robles
robli
robo
robot
robots
robrea
robreillu
robris
roca
rocas
roci
rock
rockas
rocosus
rod
roda
rodas
rodau
rodea
rodeau
rodoreda
rodri
rodrigo
rodrigu
rodrigues
roean
rogal
roger
rogers
roha
roi
roja
rojas
rojizo
roju
rojus
roka
rola
roland
role
rolis
roll
rolling
rollu
rom
roma
romae
romale
roman
romana
romanae
romanas
romance
romancero
romances
romanche
romanci
romancis
romandia
romanescu
romani
romanic
romanidacio
romanizacio
romanization
romanizaus
romano
romanorum
romanos
romanticismu
romanu
romanus
romanze
rombu
romeo
romeri
romeria
romero
romeros
romeru
romi
rompel
ron
ronald
roncu
ronda
rondaeru
rondallas
rondan
rondas
rondo
rood
room
rooney
root
roots
ropa
roque
ros
rosa
rosado
rosalis
rosario
rosariu
rosas
rosaus
roscas
rosco
rose
rosello
rosengarten
rosenkvist
rosie
roso
rosquillas
ross
rossello
rossi
rossonoemi
rotacio
rotacional
rotacismu
rotas
rotterdam
rotura
roubaix
roumie
round
rounded
rounding
rousseau
route
routledge
row
rowling
roxu
royal
royo
rozu
rps
rpura
rquez
rquicu
rr
rrafu
rreas
rrez
rria
rricu
rrigu
rrigus
rriu
rrius
rrocu
rs
rsicu
rsilu
rsiu
rstenried
rsticas
rt
rtaru
rtebras
rtext
rti
rtia
rtica
rticas
rtico
rticu
rticus
rtida
rtil
rtilis
rtima
rtimas
rtimos
rtimu
rtimus
rtipris
rtires
rtve
ru
rua
ruanda
ruanu
rube
rubens
rubio
rubius
rublu
rudolf
rue
ruea
rueas
rueda
rufo
rufu
rugby
rui
ruidera
ruina
ruinas
ruiu
ruiz
rules
ruma
rumana
rumani
rumania
rumanu
rumanus
rumba
rumbu
rumpi
run
runcha
runchaeru
runchal
runchas
runcho
runchun
running
rupestris
rupi
rupia
rura
rural
ruralis
ruri
rus
rusa
rusia
russa
russell
russia
russian
russu
russus
rustri
rustrihu
rustril
rustrilsi
rustrin
rustriu
rustrius
rusu
rusus
ruta
rutas
rutheford
rutura
ruy
rvolis
rw
ry
ryan
rður
rɑhp
s
sa
saarc
saavedra
sab
sabaleta
sabate
sabe
sabel
sabemus
saber
saberis
sabi
sabiduria
sabihondu
sabihondus
sabina
sabio
sabis
sabiu
sabo
sabol
sabor
saboris
sabra
sabri
sabroso
sabulugal
sabulugaris
saca
sacaba
sacal
sacan
sacarosa
sacarun
sacau
saceldotal
saceldoti
saceldotis
sacerdotal
sacerdoti
sacerdotis
sachu
saco
sacramentu
sacrifi
sacrifica
sacru
sacu
saddam
safari
safe
safeforitalics
safejoin
safo
safu
saga
sagan
sagra
sagrada
sagrajas
sagrau
sagraus
sahara
sahel
sahonis
sahurda
sahurdo
sahurdonis
sai
saih
saint
saintongeais
sainz
sajo
sajonia
sakit
sakura
sal
sala
salam
salamanca
salas
salazar
salchichonis
saldre
salduero
sale
salga
salgado
sali
salia
salian
salias
salicina
saliendu
saliente
salienti
saliera
salierun
salil
salin
salinas
salio
salire
salis
salmantica
salmantina
salmantinu
salmantinus
salmo
salo
salol
salomo
salomon
salor
salorinu
salsa
salt
saltu
saltus
salu
salud
saludetes
saludinus
saludo
saludos
saludu
saludus
saluinu
salustio
salva
salvador
salvaji
salvajis
salvaol
salvat
salve
salvo
salvu
samanta
samarcanda
samarti
samba
same
sami
samiguel
samoa
sampa
samu
samuel
san
sana
sanander
sanchez
sanchi
sancho
sanchu
sandalia
sandbox
sandboxes
sandboxlink
sandboxlinks
sandboxpreload
sandboxtitle
sander
sandhi
sandi
sandijuelas
sandro
saneamientu
sanger
sangonera
sangra
sangrau
sangre
sangri
sangui
sania
sanida
sanidad
sanita
sanitarias
sanitarius
sanitizedataset
sankt
sanremo
sans
sanse
sanso
sant
santa
santana
santandel
santander
santano
santare
santas
santi
santia
santiago
santiagu
santiba
santiban
santificau
santivan
santo
santoge
santos
santu
santua
santuariu
santus
sanz
sao
sapiens
sapienti
sapir
sar
sara
sarabia
sarah
sarajevo
sarajevu
saramago
saratov
sarda
sardu
sare
sarrionandia
sarta
sartal
sartalehu
sarte
sarteneja
sartre
sarvacio
sarvaol
sarvas
sarvu
sata
sate
satelital
satelitis
sati
satirico
satisfacio
sativa
satoshi
satu
satura
saturacio
saturae
saturn
saturnalis
saturnino
saturnu
satyricon
sau
saudita
saunders
saura
save
saved
say
saya
says
sbia
sbicu
sbiu
sbox
sc
scal
scale
scaled
scalemajor
scaleminor
scales
scandinavian
scar
scara
scaraautor
scene
sceras
scf
schaeffer
schalke
scheme
schiff
schleswig
schmitt
schneider
scho
school
schro
schwabing
schwarze
sci
science
scientific
scope
scotland
scott
scr
screenshot
scribunto
scripsit
script
scriptchapter
scripts
scrita
scritu
scrofa
scua
scula
sculas
sculu
sculus
scwt
sd
se
sea
sean
search
searches
searching
sears
season
seasonal
seasons
seattle
sebastia
sebastian
sebastiano
seborga
seca
secas
secau
seccio
secio
secion
secionis
second
secos
secrecio
secret
secreta
secretaria
secretariu
secretas
secreto
secretu
sect
section
sections
sectionurl
sector
secu
secue
secuela
secuencia
secuencias
secuestro
secunda
secundaria
secundariamenti
secundarius
secundum
secus
sede
sedi
sedimenta
sedimentus
sedra
sedremus
sedri
sedria
sedrian
sedrie
sedrien
see
seem
seen
sefarad
sefardi
segal
segment
segmentu
sego
segovia
segregacio
segretariu
segri
segu
segui
seguil
seguioris
seguiu
segunda
segundera
segunderu
segundo
segundu
segundus
segura
seguramenti
seguranc
segurancia
seguras
seguros
seguru
segurus
sei
seicionis
seimentus
seine
seis
sel
selaya
seleccio
selecio
selecion
seleciona
selecional
selecionis
select
selecta
selected
selection
selectone
selena
seleniu
selenium
self
selin
sellu
sellus
selpienti
selu
selva
selvas
selvi
selvidumbri
sema
semana
semanal
semanario
semanas
semanticamenti
semejanti
semejanza
semejanzas
semen
sementera
semi
semia
semiconductor
semicondutol
semifinal
semifinalis
semifinals
semilal
semilaris
semilla
semillas
semin
semina
seminal
seminalis
seminario
seminci
seminograma
semio
semipie
semitonu
semo
semos
sempri
semus
sen
sena
senaol
senara
senau
sencha
sencilla
sencillus
send
senderos
senderu
sendler
sendling
seneca
senegal
senescencia
senhora
senifica
senifical
senifican
senificativa
senificativu
senificau
senificaus
senifico
senior
sensacio
sensacion
sensacionis
sense
sensibli
sensiblis
sensibri
sensibris
sensorial
sensorialis
sensu
sent
sentara
sentau
sente
sentence
senti
sentidos
sentil
sentimientu
sentimientus
sentir
sentiu
sentius
senu
senzillus
seo
seoul
sep
separa
separacio
separador
separalsi
separan
separate
separated
separately
separatista
separator
separators
separau
separaus
sepc
september
septentrional
septiembre
septiembri
septumi
sepulcrus
sequ
sequanus
sequence
sequential
sequi
ser
sera
seranu
serapias
serbia
serbiu
serbius
serena
sereni
sergio
seri
seria
serial
seriale
serie
seriea
series
serieslink
seriesno
seriesnumber
seriesseparator
serif
serii
seriis
seris
sermo
sero
serotonin
serotonina
serra
serradilla
serrai
serrailla
serraillana
serraillanu
serrana
serrano
serranus
serseni
serve
server
servi
servia
service
services
servicio
servicios
serviciu
servicius
servil
serving
serviol
ses
sesenta
sesio
sesotho
session
sessu
sessual
sessualida
sessualis
sessus
sesta
sestu
sestus
set
setas
setenta
setentrional
setentrionalis
seterror
setiembri
setmetatable
setol
setoris
sets
setsuana
setting
settings
setu
setup
seu
seudo
seus
seven
severa
several
severiano
severo
severu
sevilla
sevillana
sevillanu
sex
sexo
sextilis
sexting
sextu
sexu
sexual
seya
seyan
seɾji
sfera
sformat
sforu
sforza
sg
sh
sha
shadow
shadows
shaft
shakespeare
shaku
shallow
shan
shanghai
shannon
shantalen
shared
sharks
sharon
sharp
she
sheet
sheets
shek
sheldon
shelley
shenzhen
shi
shift
shinto
shiori
shock
shors
short
shorter
shortmonth
should
shouldbe
shouldn
show
showinvalidtypeerror
shown
shows
shp
shtml
shu
shuffle
si
sia
sias
sibe
siberia
sibilantis
sica
sicamenti
sicas
sici
sicilia
siciliana
sicilianu
sico
sicolo
sicologi
sicologia
sicos
sicu
sicus
sid
sida
side
sideral
sidi
sidney
sido
sidu
sie
siebot
siebrand
siegru
siegrus
siem
siembra
siempre
siempri
siendo
siendu
sienti
sientin
sientu
siero
sierra
sierras
sierru
sierrus
sierto
siete
sieti
sigfig
siglas
siglo
siglos
siglu
sigmund
sign
signal
signals
significa
significand
significant
significativamenti
significau
signu
signus
sigras
sigru
sigrus
sigu
sigue
siguen
sigui
siguia
siguias
siguiendu
siguiente
siguientes
siguienti
siguientis
siguierun
siguil
siguin
siguio
siguiol
siguioris
siguira
siguiria
siguiu
siguius
sigun
sigura
siguramenti
siguru
sigwart
sihtema
sil
sila
silaba
silabogramas
sile
silencio
silenciosus
silgueru
silguerus
sili
silicatu
silicatus
silis
sillaris
sillas
silleria
silo
silos
siluae
silueta
silva
silver
silvestre
silvestri
silvestris
silvio
sim
sima
simancas
simas
simbel
simbo
simbolic
simbolismu
simboliza
simbologia
sime
simetri
simienti
simientis
similal
similar
similaris
similarly
simo
simon
simple
simplemente
simplementi
simples
simpli
simplicity
simplificau
simplify
simplis
simply
simpreza
simpri
simprienti
simprimenti
simpris
simpson
simu
simulaol
simus
sin
sina
sinaba
sinai
sinau
since
sincretismu
sincro
sindhu
sindicatu
sindicatus
sined
sinfinitu
sinfoni
sing
singapore
singapur
singapura
single
singles
sings
singulal
singular
singulares
singularia
singularida
singularis
sinifica
sino
sinonimia
sinosi
sinta
sintagma
sintama
sintamas
sintassi
sintassis
sintaxis
sinte
sintetic
sintetiza
sintetizal
sintetizan
sintetizaoris
sintia
sintil
sintimientu
sintio
sintiu
sintius
sintoi
sinu
sinurl
sinus
sio
siprage
siprefixes
siquia
siquiera
sir
siracusa
siria
siruela
sirvi
sirviendu
sirvientas
sirvin
sirvio
sirviol
sis
siste
sistema
sistemas
sitacio
site
siti
sitia
sitio
sitioweb
sitiu
sitius
sito
situ
situa
situacio
situacion
situacionis
situada
situau
situs
siu
sius
six
sixto
size
sjælland
sk
ska
sketch
ski
skin
skins
skip
sky
skyline
sl
slash
sleep
slendro
slovenia
sm
small
smallparam
smalltext
smg
smicu
smicus
smith
smo
smolensk
smoot
smos
smu
smus
sn
snia
sniu
snow
so
sob
sobau
sobera
soberana
soberani
soberania
soberanu
sobra
sobre
sobresal
sobresali
sobresalienti
sobresalin
sobrevivil
sobrevivin
sobri
sobrinombri
sobrinu
sobrito
sobrivive
sobrivivil
socampana
soccer
social
socialdemo
sociales
socialic
socialis
socialismo
socialismu
socialist
socialista
socialistas
sociea
socieais
socieda
sociedad
sociedais
societat
society
socio
sociolingu
sociologi
sociologia
sociology
sociu
sociuluengu
socuellu
sodiu
sodomi
sofa
sofi
sofia
sofista
sofo
sofos
soft
software
sofu
sofus
soi
soitan
soja
sojo
sol
sola
solal
solamenti
solana
solar
solaris
soldau
soldaus
sole
solea
soledad
soleil
soleni
soler
soli
solicitar
solicitu
soliedra
soliloquio
soliloquios
solita
solitaire
solitariu
sollehu
solln
solo
solombra
solomon
solsticiu
soltera
solu
solubilida
solubli
solublis
solucio
solucionis
solus
solve
soma
somali
sombra
sombras
sombreru
some
someone
sometel
something
someti
sometimes
sometin
somni
somos
son
sona
sonal
sonandu
sonantis
sonar
sonata
sonatas
sonau
sonaus
sonda
sondane
sonetos
song
songs
soni
sonin
sonis
soniu
sonius
sono
sonora
sonoras
sonoria
sonoru
sonorus
sons
sont
sony
sopa
sophia
soporta
soportal
soporti
soportis
sor
soran
sorda
sordas
sordau
sordaus
sordo
sordomuus
sordu
soria
sorolla
sorpresa
sorry
sort
sortable
sorteu
sortkey
sortspan
sos
sostenel
sosteni
sostenibli
sosteniu
sostieni
sostriba
sostriban
sostribandu
sostribara
sostribau
sostribaus
sostribo
sostribu
sotillo
soto
sotras
sotru
sotrus
sotus
sou
soukous
souleymane
sound
soundtrack
source
sources
south
southern
souvenir
sovie
soviet
soy
sp
spa
space
spaced
spaces
spacey
spacing
spain
spambots
span
spanish
sparseconcat
speaker
speakers
speaking
spec
special
species
specific
specified
specify
speech
speed
speedy
spell
spelled
spelling
spencer
spera
sperm
spermatozoa
speru
spiders
spin
spirit
spiritu
spiru
spiu
splash
split
splitting
spongebob
sport
sporting
sports
spra
spree
spring
springer
sq
sqbr
sqcm
sqft
sqin
sqkm
sqm
sqmi
square
squared
squarepants
squeda
sqverst
sqyd
sr
sra
sri
srpska
srt
ss
sscnapoli
ssena
ssia
ssica
ssicas
ssicu
ssicus
ssidu
ssima
ssimas
ssimu
ssimus
ssitu
ssiu
ssius
ssrn
ssrns
ssu
st
sta
stabilized
stadium
staff
stage
stakka
stalin
stamu
stamus
stan
standard
stanford
star
start
startbox
started
starting
stas
stasis
stat
stata
state
staten
states
stating
station
statistical
statistics
statistika
stativu
status
stay
ste
steady
steam
stefan
stefano
stein
steis
sten
step
stephen
stepmania
steps
sterreich
stestain
steve
steven
stevens
steward
stewards
stf
sti
stia
stic
stica
sticamenti
sticas
stico
sticos
sticu
sticus
stiff
stil
still
stis
stiu
stol
stoles
stone
stones
stop
stops
stor
store
stored
storia
stories
story
stos
stoyanov
str
straight
strange
strasbourg
strassburg
stratus
streamer
streamers
street
stress
strforce
strftime
stria
string
strings
strip
stripmarker
stripmarkers
stripped
stronger
structure
structures
strval
stu
stuart
studi
studies
studio
studios
study
stula
stumu
stus
stuttgart
style
stylein
styleout
styles
styling
su
sua
suahili
suamericanas
suas
suave
suavi
suavis
suazi
sub
subasta
subcontinenti
subdiv
subdivisions
subdivs
subespe
subespeciis
subfilu
subi
subil
subin
subinfo
subio
subject
subjectlink
subjectspace
subjetivu
sublevaus
submarina
submarine
subordin
subordina
subordinacio
subordinantis
subordinau
subpage
subpages
subrimi
subscription
subscriptionrequired
subsistencia
subst
substitute
substituted
substring
subterra
subtropicalis
subunida
subunit
suburbius
subyacenti
success
successful
sucediendu
sucedierun
sucedio
sucediu
sucesio
sucesivas
sucesivus
sucesora
sucesoris
sucessio
sucessol
sucessus
sucesus
such
sucios
suckow
sucontinenti
sucre
sud
suda
sudame
sudamericana
sudan
sudanesa
sudesti
sudevisio
sudialetu
sudialetus
sudoesti
sue
sueca
suecia
suecu
suegra
suegru
suel
suele
suelen
sueli
suelin
suelo
suelu
suelus
suen
suerte
suerti
suertus
sueru
suevus
suez
sufficient
suffix
suficientementi
suficienti
suficientimenti
suficientis
sufihus
sufijaus
sufijo
sufiju
sufijus
sufrahiu
sufri
sufril
sufrin
sufrio
sufrira
sufriu
sugar
sugerida
sugeridos
suggest
suggested
suggesting
suggestion
suggestions
suggests
sugieran
sugiere
sugieri
sugierin
sugrupu
suh
suheriu
suhetu
suhieran
sui
suic
suicidalsi
suicide
suicido
suidae
suitable
suite
suiza
suizu
sujetal
sujetu
sujetus
sujuntivu
sul
sula
suleste
sulesti
sulfatoxymelatonin
sulfatu
sulfatus
sulfuru
sulgierun
sulhio
sulla
suloesti
sulta
sultan
sum
suma
suman
sumandu
sumarinus
sumatra
sumeseta
suministru
summarized
summary
summer
sun
sundanesis
sung
sunset
suomi
super
supera
superaba
superal
superan
superandu
superau
supercopa
superfamilia
superfi
superfici
superficial
superficialis
superficie
superficii
superficis
superiol
superior
superiores
superioris
supermarketguru
supernova
supero
supervisio
supesticio
supicopa
supidotau
supiendu
supifi
supifici
supilalgus
suplementu
suplementus
supo
supogu
suponel
suponelsi
suponi
suponia
suponin
suposicio
suppl
supplied
support
supported
supporting
supports
supposed
suprema
supremo
supremu
supremus
supuesta
supuestamenti
supuesto
supuestu
supusiera
supusu
sur
sure
suren
suresti
surgi
surgin
surgio
surhin
surinam
suriname
surname
suroeste
suroesti
suru
sus
susan
susana
suscripcio
susiste
suspendiu
susta
sustancia
sustancias
sustantivu
sustantivus
sustenta
sustentacio
sustitucio
sustitucionis
sustitui
sustituia
sustituil
sustituiu
sustituyo
sustratu
suterra
sutipu
sutra
sutropical
suvarnabhumi
suya
suyu
suyus
suzalachaus
suzanne
suzuki
sv
svalbard
svenska
svg
svn
sw
swap
sweet
sydney
sym
symbol
symlink
syntax
synthesis
sysop
system
systems
t
ta
tab
tabacaria
tablas
table
tablefield
tablei
tables
tablespoon
tabra
tabras
tabreru
tabrina
tabrinas
tabronis
tac
tacu
tae
taekwondo
tag
tagalo
tagalog
tagalu
taganka
tagliero
tags
tahu
taibilla
taifa
taifas
tail
taila
tailande
tailandia
taipei
tait
taiwa
taiwan
tajabone
tajahuerce
tajo
taju
tajueco
take
taken
takes
taking
tal
tala
talava
talavera
talaverana
talayuela
talbi
talbina
talcahuano
talega
talentos
talentosu
talentu
tales
talis
talk
talkargistalkpage
talking
talkpagetitle
talktext
talktitle
talla
tallal
tallel
taller
talleres
talleris
tallu
talmenti
talo
talu
talus
talveila
tam
taman
tamara
tambalucu
tambe
tambie
tambor
tamboril
tamboris
tame
tamie
tamien
tamil
tampocu
tamuja
tan
tang
tanta
tantas
tanto
tantu
tantus
tanu
tanza
tanzen
tao
taoismu
taoyuan
tapa
tapas
tapocu
tapsigargina
taquilla
tar
tara
tarda
tarde
tardelcuende
tardi
tardia
tardinu
tardiu
tardo
tarea
tareas
target
tarifit
tariq
tarnovo
taroda
tarraconense
tarracu
tarragona
tartana
tas
tasa
tasas
task
taskent
tau
taurinu
tauromaquia
tautou
taxi
taxo
taxono
taxonomi
tayiquista
tayiri
taylor
tba
tbl
tbol
tbsp
tcoins
tcommon
tcuft
td
tdt
te
tea
team
teatral
teatralis
teatro
teatru
teatrus
teba
tebas
tebeus
technical
technology
techreport
techu
tecnolo
tecnologi
tecnologia
tecras
tecrau
tecraus
tecto
tedra
teetetu
tegu
tehas
tehera
tei
teis
teja
tejada
tejado
tejas
teji
tejiu
tejius
tejo
tel
tela
telaran
telas
tele
telecinco
telecomunicacionis
telefo
telefonia
telemadrid
telenovelas
teles
telescopiu
teletoledo
televisio
teli
telifonu
telivisio
telminacio
telminacionis
telo
telu
tem
tema
temas
temblar
temi
temp
temperatura
temperaturas
temperature
templa
templanu
template
templatecat
templatecategory
templatecategoryrequirename
templatedata
templateerrorcategory
templatelink
templatename
templates
templatesort
templatestyles
templatetitle
templau
templi
templo
templu
templus
tempo
tempora
temporada
temporal
temporalmenti
temporary
temporas
temprana
tempranilla
tempranillo
tempranu
tempraus
tempru
temps
tempura
ten
tena
tenaza
tenca
tencas
tende
tendel
tendencia
tendra
tendre
tendremus
tendri
tendria
tendrie
tendrien
tenel
tenelsi
tenemus
tener
tenere
tenerife
tenerifi
tenga
tengamus
tengan
tengo
tengu
teni
tenia
tenian
tenicismus
teniendo
teniendu
tenienti
tenis
tenista
teniu
tenochtitlan
tenolo
tenologi
tenologia
tenorio
tensio
tensionis
tentacio
tentarun
tentiga
tentu
tentual
tentudi
tenulohia
tenulohias
tenuluhia
teo
teodosio
teofrastu
teolo
teori
teoria
teorias
ter
tera
terape
terapia
terawatt
tercel
tercer
tercera
terceras
terceru
tercia
terciariu
terciu
tercius
tere
terem
teresa
teris
termalis
termas
termina
terminacio
terminaciones
terminal
terminan
terminandu
terminate
terminau
termino
terminologi
termo
termodina
terms
ternera
terra
terrakota
terranova
terraza
terre
terremotu
terrenu
terrenus
terrero
terrestri
terrestris
territo
territori
territorial
territorialis
territorialmenti
territorio
territorios
territoris
territoriu
territorius
terro
terrol
terrorismu
terrorista
terroristas
teruel
tes
tesi
tesinu
tesis
tesla
tesoro
tesoru
tesorus
tessa
tessalo
test
testamentu
testcases
testcaseseditlink
testcaseslink
testcaseslinkdisplay
testcaseslinks
testcasespreload
testcasesrunlink
testcasesrunlinkdisplay
testcasestitle
tested
testi
testigos
testigu
testigus
testil
testilis
testimon
testimoniu
testing
testo
testos
tests
testu
testual
testudines
testura
testus
tesu
teto
tetra
tetraca
tetralohias
tetua
tetun
teu
teugonia
teulohia
tex
texas
texi
text
textbook
textcell
textcelldiv
texto
textos
textstyle
teyran
tez
tfrac
tg
th
tha
thai
thaj
thames
than
thank
thanks
thapsigargin
that
the
theater
theatre
thebais
their
them
then
theo
theoretical
theories
theory
therapy
there
therm
thermal
thermochemical
therms
thermus
these
thesis
they
thiago
thing
things
think
thinking
third
this
thisvalue
thiʎa
thm
tho
thomas
thompson
thornthwaite
those
thou
thought
thoughts
thousand
three
through
thumb
thumbnail
thuot
thyestes
thyssen
ti
tia
tian
tibe
tibetana
tiburi
tica
ticaenti
ticah
ticamenti
ticas
ticket
tico
ticos
ticu
ticus
tidiedval
tidningar
tidu
tidus
tidyval
tie
tiei
tiempo
tiempos
tiempu
tiempus
tien
tiendas
tiendi
tiendin
tiene
tienen
tienes
tieni
tienin
tienis
tierra
tierras
tiersen
tiesa
tiflis
tigris
tiin
tiini
tiinin
tiinis
tiktok
til
tildi
tiles
tili
tilis
till
tilu
tilus
tim
tima
timas
timbri
time
timeaxis
timecaption
times
timestamp
timeu
timo
timol
timor
timoteo
timothy
timpa
timu
timus
tin
tina
tincio
tini
tinia
tinian
tinin
tiniu
tinta
tintas
tintu
tintus
tio
tipicamenti
tipler
tipo
tipografia
tipologi
tipos
tipu
tipus
tique
tiques
tira
tiraeru
tiran
tirandu
tirania
tiranu
tiras
tiraus
tirdis
tiro
tirteu
tiru
tis
tisi
tissi
tit
title
titlearg
titlelink
titlenote
titles
titletype
titleyear
tito
titu
titulal
titus
tiu
tius
tiɣwu
tj
tl
tlcan
tld
tm
tmbox
tmicu
tn
tnf
tnfa
tnica
tnicu
tnt
to
toa
toas
tobagu
tobi
toby
toc
toca
tocaba
tocal
tocan
tocandu
tocanti
tocantis
tocau
toco
tocoferol
tod
toda
todas
todavi
today
todays
todd
tode
todo
todos
todu
todus
toga
together
togu
toi
tokio
tokyo
tol
tola
tolas
tole
toleana
toleanus
toledo
toletum
toleu
tolkien
tolneu
tolo
tolomeu
tolos
tolosa
tolstoy
tolus
tom
toma
tomal
toman
tomandu
tomar
tomara
tomarun
tomate
tomati
tomatis
tomau
tome
tomicu
tomo
tomorrow
tomos
tomu
tomus
ton
tona
tonal
tonalida
tonas
tonga
tonnage
tonne
tonnes
tontnt
tonu
tonumber
tonus
tony
too
tool
tools
top
topa
topal
topan
topics
topo
topogra
topografi
toponi
toponimia
topu
topunimia
topus
tor
tora
tordesillas
toria
torias
torlengua
tormantus
tormenta
tormentas
tormes
tormis
tornavacas
torneu
torneus
torniega
torniegu
torniegus
tornike
torno
tornu
toro
toronto
toros
torque
torr
torre
torrea
torreblacos
torrecilla
torrecillas
torrejo
torrelavega
torrencialis
torrent
torreo
torreonis
torres
torri
torrimocha
torriorga
torriquema
torris
torrojoncillu
torrubia
torta
tortilla
torture
toru
torus
tos
toscana
toscanu
toscanus
toscas
toscus
tosi
tossantus
tossina
tossinas
tostring
total
totalia
totalida
totalis
totalitariu
totalmenti
tottenham
tou
toulouse
toumani
tour
toure
tours
tous
tout
tovar
towards
tower
towers
town
toxic
toxicida
toxicity
toxicology
tozu
tozus
tp
tpi
tr
tra
trabaja
trabajadores
trabajal
trabajo
trabajos
trabaju
trac
tracamundea
tracamundeu
tracamundina
tracking
tracks
tractu
trad
trade
tradicio
tradicion
tradicional
tradicionalis
tradicionalmenti
tradiciones
tradicionis
traduccio
traduci
traducido
traducidos
traducio
traducion
traducionis
traducir
traduciu
traductor
traductores
traduju
tradutol
traduzil
traduzio
traduzius
trael
trage
tragedias
trahanu
trahe
traheya
trahlau
trai
traianus
traicio
traicion
traicional
traicionalis
traicionalmenti
traicionis
trailing
train
traius
trajanu
traje
tramos
tramp
tramu
tramus
trang
tranquilia
trans
transchapter
transcluded
transcripcio
transcript
transcripturl
transcurri
transduction
transerror
transeu
transfer
transferencia
transformacio
transhormacio
transicio
transicion
transistol
transistor
transistoris
transitivu
transitivus
transitoriu
translate
translated
translatenext
translatewiki
translating
translation
translations
translator
translatorlist
translators
transmisio
transmission
transmiti
transmitil
transmitin
transparencia
transparenti
transportal
transporti
transquote
transtitle
transwiki
tranvi
tranvia
trap
trapo
trapos
trappoli
tras
trasantiel
trascricio
trascrita
trascritas
trascritus
trascurri
trasera
trasholma
trashormacio
trashormal
trasierra
trasilu
traslada
trasladarun
traslado
traslasierra
trasmisio
trasmiti
trasmitil
trasmitin
trasmitiu
trasporta
trasporti
trasportis
trasta
trastaleal
trastis
trastornu
trastornus
trasvasi
trata
trataba
tratado
tratados
tratal
tratalsi
[...]
