!
"
#
##0
##1
##10
##11
##12
##13
##14
##15
##16
##17
##18
##19
##2
##20
##21
##22
##23
##24
##25
##26
##27
##28
##29
##3
##30
##31
##32
##33
##34
##35
##36
##37
##38
##39
##4
##40
##41
##42
##43
##44
##45
##46
##47
##48
##49
##5
##50
##51
##52
##53
##54
##55
##56
##57
##58
##59
##6
##60
##61
##62
##63
##64
##65
##66
##67
##68
##69
##7
##70
##71
##72
##73
##74
##75
##76
##77
##78
##79
##8
##80
##81
##82
##83
##84
##85
##86
##87
##88
##89
##9
##90
##91
##92
##93
##94
##95
##96
##97
##98
##99
$
%
&
'
(
)
*
+
,
-
.
/
0
00
000
001
002
003
004
005
006
007
009
01
010
011
013
015
017
018
02
020
021
03
030
031
033
03336
034
0340
036
03797
038
03823
04
040
044
048
05
050
052
06
06895
07
070
075
07561
08
09
099
1
10
100
1000
10000
1001
1005
1007
101
1011
1016
102
1022
1024
1025
1027
103
1034
1036
1038
104
1040
1045
1046
1049
105
1050
1056
106
1064
1066
107
1070
1071
1075
1077
1079
108
1080
1081
1082
1083
1084
1085
1087
109
1090
1093
1094
1095
1096
1098
1099
11
110
1100
1101
1105
111
1111
1112
1115
1118
112
1120
1121
1122
1123
1124
1125
1126
1127
1128
113
1130
1135
1136
1137
1139
114
1140
1142
1143
1144
1145
1146
1147
1148
115
1150
1152
1153
1154
1155
1156
1157
116
1160
1162
1164
1167
117
1170
1171
1173
1175
1176
1177
1178
1179
118
1180
1181
1182
1183
1184
1185
1186
1187
1188
1189
119
1190
1191
1192
1193
1194
1195
1196
12
120
1200
1201
1202
1204
1205
1206
1207
1208
1209
121
1210
1212
1214
1215
1216
1217
1218
1219
122
1220
1221
1222
1223
1224
1225
1226
1227
1228
1229
123
1230
1231
1232
1233
1234
1235
1236
1237
1238
1239
124
1240
1241
1242
1243
1244
1245
1246
1247
1248
1249
125
1250
1251
1252
1253
1254
1255
1256
1257
1258
1259
126
1260
1261
1262
1263
1264
1265
1266
1267
1268
1269
127
1270
1271
1272
1273
1274
1275
1276
1277
1278
1279
128
1280
1281
1282
1283
1284
1285
1286
1287
1288
1289
129
1290
1291
1292
1293
1294
1295
1296
1297
1298
1299
13
130
1300
1301
1302
1303
1304
1305
1306
1307
1308
1309
131
1310
1311
1312
1313
1314
1315
1316
1317
1318
132
1320
1321
1322
1323
1324
1325
1326
1327
1328
1329
133
1330
1331
1332
1333
1334
1335
1336
1337
1338
1339
134
1340
1341
1342
1343
1344
1345
1346
1347
1348
1349
135
1350
1351
1352
1353
1354
1355
1356
1357
1358
1359
136
1360
1361
1362
1363
1364
1365
1367
1368
1369
137
1370
1371
1372
1373
1374
1375
1376
1377
1378
1379
138
1380
1381
1382
1383
1384
1385
1386
1387
1388
1389
139
1390
1391
1392
1393
1394
1395
1396
1397
1398
1399
14
140
1400
1401
1402
1403
1404
1405
1406
1407
1408
1409
141
1410
1411
1414
1415
1416
1417
1418
1419
142
1420
1421
1422
1423
1424
1425
1426
1427
1428
1429
143
1430
1431
1432
1433
1434
1435
1436
1437
1438
1439
144
1440
1441
1442
1443
1444
1445
1446
1447
1448
1449
145
1450
1451
1452
1453
1454
1455
1456
1457
1458
1459
146
1460
1461
1462
1463
1464
1465
1466
1467
1468
1469
147
1470
1471
1472
1473
1474
1475
1476
1477
1478
1479
148
1480
1481
1482
1483
1484
1485
1486
1487
1488
1489
149
1490
1491
1492
1493
1494
1495
1496
1497
1498
1499
15
150
1500
1501
1502
1503
1504
1505
1506
1507
1508
1509
151
1510
1511
1512
1513
1514
1515
1516
1517
1518
1519
152
1520
1521
1522
1523
1524
1525
1526
1527
1528
1529
153
1530
1531
1532
1533
1534
1535
1536
1537
1538
1539
154
1540
1541
1542
1543
1544
1545
1546
1547
1548
1549
155
1550
1551
1552
1553
1554
1555
1556
1557
1558
1559
156
1560
1561
1562
1563
1564
1565
1566
1567
1568
1569
157
1570
1571
1572
1573
1574
1575
1576
1577
1578
1579
158
1580
1581
1582
1583
1584
1585
1586
1587
1588
1589
159
1590
1591
1592
1593
1594
1595
1596
1597
1598
1599
16
160
1600
1601
1602
1603
1604
1605
1606
1607
1608
1609
161
1610
1611
1612
1613
1614
1615
1616
1617
1618
1619
162
1620
1621
1622
1623
1624
1625
1626
1627
1628
1629
163
1630
1631
1632
1633
1634
1635
1636
1637
1638
1639
164
1640
1641
1642
1643
1644
1645
1646
1647
1648
1649
165
1650
1651
1652
1653
1654
1655
1656
1657
1658
1659
166
1660
1661
1662
1663
1664
1665
1666
1667
1668
1669
167
1670
1671
1672
1673
1674
1675
1676
1677
1678
1679
168
1680
1681
1682
1683
1684
1685
1686
1687
1688
1689
169
1690
1691
1692
1693
1694
1695
1696
1697
1698
1699
17
170
1700
1701
1702
1703
1704
1705
1706
1707
1708
1709
171
1710
1711
1712
1713
1714
1715
1716
1717
1718
1719
172
1720
1721
1722
1723
1724
1725
1726
1727
1728
1729
173
1730
1731
1732
1733
1734
1735
1736
1737
1738
1739
174
1740
1741
1742
1743
1744
1745
1746
1747
1748
1749
175
1750
1751
1752
1753
1754
1755
1756
1757
1758
1759
176
1760
1761
1762
1763
1764
1765
1766
1767
1768
1769
177
1770
1771
1772
1773
1774
1775
1776
1777
1778
1779
178
1780
1781
1782
1783
1784
1785
1786
1787
1788
1789
179
1790
1791
1792
1793
1794
1795
1796
1797
1798
1799
18
180
1800
1801
1802
1803
1804
1805
1806
1807
1808
1809
181
1810
1811
1812
1813
1814
1815
1816
1817
1818
1819
182
1820
1821
1822
1823
1824
1825
1826
1827
1828
1829
183
1830
1831
1832
1833
1834
1835
1836
1837
1838
1839
184
1840
1841
1842
1843
1844
1845
1846
1847
1848
1849
185
1850
1851
1852
1853
1854
1855
1856
1857
1858
1859
186
1860
1861
1862
1863
1864
1865
1866
1867
1868
1869
187
1870
1871
1872
1873
1874
1875
1876
1877
1878
1879
188
1880
1881
1882
1883
1884
1885
1886
1887
1888
1889
189
1890
1891
1892
1893
1894
1895
1896
1897
1898
1899
19
190
1900
1901
1902
1903
1904
1905
1906
1907
1908
1909
191
1910
1911
1912
1913
1914
1915
1916
1917
1918
1919
192
1920
1921
1922
1923
1924
1925
1926
1927
1928
1929
193
1930
1931
1932
1933
1934
1935
1936
1937
1938
1939
194
1940
1941
1942
1943
1944
1945
1946
1947
1948
1949
195
1950
1951
1952
1953
1954
1955
1956
1957
1958
1959
196
1960
1961
1962
1963
1964
1965
1966
1967
1968
1969
197
1970
1971
1972
1973
1974
1975
1976
1977
1978
1979
198
1980
1981
1982
1983
1984
1985
1986
1987
1988
1989
199
1990
1991
1992
1993
1994
1995
1996
1997
1998
1999
2
20
200
2000
2001
2002
2003
2004
2005
2006
2007
2008
2009
201
2010
2011
2012
2013
2014
2015
2016
2017
2018
2019
202
2020
2021
2022
2023
203
204
205
206
207
208
209
21
210
2100
211
212
213
214
215
216
217
218
219
22
220
2200
221
222
223
224
225
226
227
228
229
23
230
2300
231
232
233
234
235
236
237
238
239
24
240
2400
241
242
243
244
245
246
247
248
249
25
250
2500
251
252
253
254
255
256
257
258
259
26
260
2600
261
262
263
264
265
266
267
268
269
27
270
271
272
273
274
275
276
277
278
279
28
280
2800
281
282
283
284
285
286
287
288
289
29
290
291
292
293
294
295
296
297
298
299
3
30
300
3000
301
302
303
304
305
306
307
308
309
31
310
311
312
313
314
315
316
3166
317
318
319
32
320
321
322
323
324
325
326
327
328
329
33
330
331
332
333
334
335
336
337
338
339
34
340
341
342
343
344
345
346
347
348
349
35
350
3500
351
352
353
354
355
356
357
358
359
36
360
361
362
363
364
365
366
367
368
369
37
370
371
372
373
374
375
376
377
378
379
38
380
381
382
383
384
385
386
387
388
389
39
390
391
392
393
394
395
396
397
398
399
4
40
400
4000
401
402
403
404
405
406
407
408
409
41
410
411
412
413
414
415
416
417
418
419
42
420
421
422
423
424
425
426
427
428
429
43
430
431
432
433
434
435
436
437
438
439
44
440
441
442
443
444
445
446
447
448
449
45
450
4500
451
452
453
454
455
456
457
458
459
46
460
461
462
463
464
465
466
467
468
469
47
470
471
472
473
474
475
476
477
478
479
48
480
481
482
483
484
485
486
487
488
489
49
490
491
492
493
494
495
496
497
498
499
5
50
500
5000
501
502
503
504
505
506
507
508
509
51
510
511
512
513
514
515
516
517
518
519
52
520
521
522
523
524
525
526
527
528
529
53
530
531
532
533
534
535
536
537
538
539
54
540
541
542
543
545
546
547
548
549
55
550
551
552
553
554
555
556
557
558
56
560
561
562
565
567
568
57
570
571
572
574
575
576
578
579
58
580
581
582
583
584
585
586
587
588
589
59
590
591
593
594
595
596
597
598
6
60
600
6000
601
602
603
604
605
607
608
61
610
611
612
613
614
615
616
617
618
62
620
621
622
623
625
626
627
628
629
63
630
631
632
634
635
636
638
639
64
640
641
642
643
644
645
647
649
65
650
6500
651
652
653
654
655
656
657
658
66
660
661
662
663
664
668
669
67
670
671
672
673
674
675
679
68
680
681
684
685
686
687
688
689
69
690
691
694
695
698
7
70
700
7000
7001
701
702
705
706
707
708
709
71
711
712
713
714
715
716
7165
717
718
719
7193
72
720
721
722
724
725
726
727
7272
728
7296
73
730
731
732
735
736
737
739
74
740
741
742
743
744
745
746
747
749
75
750
751
752
753
754
755
756
757
758
759
76
760
7608
761
7618
762
763
7630
7643
765
7650
766
767
768
769
77
770
7700
7701
7705
771
772
7720
773
774
775
7757
777
7772
7774
778
779
78
780
781
782
783
785
7857
786
787
7873
788
7887
7891
79
790
791
7913
7917
792
793
7946
795
7954
796
7965
797
7977
798
799
7995
8
80
800
8000
8001
8012
8018
802
8031
805
8053
806
8062
807
808
809
81
810
8100
811
812
813
814
816
817
818
819
82
820
8204
8218
822
8228
823
824
825
8252
8253
8258
826
8260
827
8274
828
8288
829
83
830
8300
831
8321
8329
833
8334
835
8353
836
8376
838
839
84
840
841
842
8425
843
844
845
848
849
85
850
852
853
855
856
85616
85782
85791
858
85823
85882
86
860
861
86142
863
865
866
867
869
87
870
871
87173
872
87407
87421
875
87548
876
877
87799
878
879
88
880
88255
884
885
88506
8859
886
88680
887
888
89
890
89007
891
89104
89244
893
894
895
896
89678
897
89735
9
90
900
9000
901
905
906131
907
908105
909850
91
910
911
912
913
91371
915
92
924
926
929
93
930
933765
936
94
940
946
95
950
953
954
955
96
960
961
962
963
965
966
97
972
973
974
975
978
98
980
983
985
99
991
993
996
998
999
:
;
<
=
>
?
@
\
^
_
`
a
aa
aabach
aabassig
aabasst
aabau
aabaut
aabe
aabebrennt
aabindig
aabo
aabote
aabotte
aabrocht
aabunde
aach
aache
aachen
aachener
aacho
aachoo
aachumft
aachuu
aada
aadail
aadeil
aadel
aadlige
aadligi
aadra
aadrag
aadribbe
aadryb
aafa
aafang
aafange
aafangs
aafangt
aafierer
aaforderige
aafu
aaga
aagaab
aagaabe
aagabe
aagchindet
aagchlagt
aagchryzlet
aage
aagea
aageblich
aagebot
aagee
aager
aagfange
aagfiert
aagfu
aagga
aagha
aaghaa
aaghalte
aagherige
aagherigi
aaghert
aagho
aagiga
aagit
aagla
aaglait
aagleit
aaglue
aaglueget
aagluegt
aagma
aagmacht
aagno
aagnoh
aagnoo
aagnuu
aagobe
aagoobe
aagordne
aagordnet
aagra
aagregt
aagrife
aagriff
aagriffe
aagsa
aagschafft
aagschlosse
aagsetzt
aagsidlet
aagsiidlet
aagstellt
aagstellte
aagstige
aagstra
aagwa
aagwachse
aagwendet
aagwise
aaha
aahang
aaku
aala
aalaag
aalaage
aalag
aalage
aalass
aalen
aalige
aaloss
aalt
aalte
aalti
aaluege
aaluegt
aamerkige
aan
aana
aanahm
aane
aanee
aaordnig
aapasst
aarau
aarauer
aarba
aarbede
aarbet
aarbete
aarburg
aare
aaregig
aargau
aargauer
aargauerzeitung
aargauische
aargo
aargou
aaron
aart
aarte
aasa
aasatz
aaschleeg
aaschlie
aaschlu
aaschluss
aasicht
aasichte
aasprich
aaspru
aaspruch
aastalt
aastiig
aastra
aateil
aatra
aawa
aawalt
aawendig
aawendige
aaza
aazaal
aazahl
aazeige
aazeigt
aazluege
aazu
ab
aba
abaer
abasst
abau
abaut
abb
abba
abbas
abbau
abbaut
abbaye
abbe
abber
abbey
abbildet
abbildig
abbildige
abbildungen
abbo
abbra
abbrennt
abbroche
abbruch
abc
abcho
abchu
abchuu
abd
abda
abdailig
abdallah
abdankig
abdankt
abdeilig
abdra
abdre
abdruckt
abe
abeba
abebrennt
abegg
abel
abem
abend
abendblatt
abendla
abendland
abenteuer
abentu
aber
aberglaube
abert
abessinie
abfa
abfahrt
abfall
abflu
abfluss
abfu
abga
abgabe
abgange
abgangeni
abgchu
abgee
abgeordnete
abgeordneten
abgerufen
abgfalle
abgfu
abghalte
abgit
abgla
abglait
abglaitet
abgleent
abglehnt
abgleit
abgleitet
abglest
abglo
abgloffe
abgmacht
abgoordnete
abgordnete
abgordnetehuus
abgordneti
abgra
abgrenzig
abgrisse
abgru
abgrue
abgruefe
abgruefen
abgrund
abgsa
abgsait
abgschafft
abgschlosse
abgschnitte
abgschtellt
abgsee
abgseh
abgsetzt
abgsicheret
abgspalte
abgstammt
abgstige
abgstimmt
abgstu
abgwa
abgwehrt
abha
abhandlig
abhandlige
abhandlung
abhandlungen
abhang
abi
abidjan
abidur
abies
abitur
abkauft
abkomme
abku
abla
ablagerige
ablauf
ableaba
ableite
ablo
ablutchlass
abna
abor
abote
about
abr
abraham
abram
abril
abriss
abru
abs
absa
absatz
abschaffig
abschied
abschluss
abschnidd
abschnitt
abschrift
abschtand
abschtellgleis
absetzig
absi
absicht
absolut
absolute
absoluti
absolutismus
absolviert
abspaltig
absta
abstamme
abstammig
abstand
abstimme
abstimmig
abstimmige
abstract
abstrakte
abstrakti
absturz
abt
abtei
abteilig
abteilung
abtra
abtruckt
abtrukt
abu
abunde
abwa
abwehr
abwehre
abzoge
abzooge
abzug
abzwyg
abzwygende
ac
acade
academia
academic
academy
accademia
ach
acha
achaia
achdorf
ache
acher
achern
achilles
achim
achkarren
achl
acho
achoo
achre
achse
achsfolg
acht
achtburger
achte
achtelfinal
achti
achtung
achza
acker
ackerbau
ackerbo
ackerland
ackermann
act
acta
actes
action
ad
ada
adac
adagio
adal
adalbert
adam
adams
addis
ade
adeil
adel
adelba
adelberg
adele
adelheid
adelsfamilie
adelsgschla
adelsheim
adenauer
ader
adha
adjektiv
adl
adler
adlige
adligi
admin
administration
administrative
admiral
adolf
adolph
adolphe
adoptiert
ador
adorno
adra
adria
adrian
adrianopel
adrien
adrienne
adva
advanced
advent
adventure
adventures
ae
aegidius
aerka
aesch
aewonor
af
afa
afang
afange
afangs
afangt
afar
afd
aff
affa
affaire
affairs
affe
affoltere
affoltern
affrikate
afghanistan
afo
afoot
aford
africa
african
afrika
afrikaans
afrikaner
afrikanisch
afrikanische
afrikanischi
afrique
afro
after
afu
ag
aga
agabe
again
against
agatha
age
agebot
agee
agency
agenda
agentur
ages
agfanga
agfange
agfu
agglome
agglomeration
aggse
agha
agho
agiade
agis
agla
agleit
agloo
aglueget
agluegt
agmacht
agnes
agno
agnoh
agnoo
agnumme
agoot
agostino
agr
agra
agri
agricola
agriculture
agriff
agriffe
agrippina
agsa
agschlosse
aguilera
ah
aha
ahalt
ahand
ahd
ahmad
ahmed
ahorn
ahv
ai
aichach
aiche
aid
aidgnessisch
aidgnessische
aidgnosse
aidgnosseschaft
aids
aidu
aier
aifach
aifache
aige
aigene
aigeni
aigeschafte
aigesta
aigetli
aigle
aigne
aigni
aim
aime
aimol
ain
aina
aine
ainem
ainer
ainewa
ainhait
ainhaite
aini
ainiga
ainige
ains
aint
ainu
ainzelne
ainzelni
ainzelnohwiisa
ainzelnoohwiisa
ainzelnoowiis
ainzig
ainzige
aipytide
air
airbus
aircraft
aire
aires
airlines
airolo
airport
ais
aischylos
aise
aisl
aisne
aistimmig
aitrachdal
aitrachdalbaan
aiwohner
aix
aiza
ajoie
ak
akademi
akademie
akademii
akademische
akademischer
akademischi
akademy
akko
akkon
akkordeon
akkusativ
akropolis
aksum
akt
akte
akten
aktie
aktion
aktione
aktiv
aktive
aktivi
aktivita
aktivitete
aktua
aktualisiert
aktualisierte
aktue
aktuell
aktuelle
aktuelli
akustische
akustischi
akut
akw
akwitanie
akza
akzent
akzeptanz
akzeptiere
akzeptiert
al
ala
alabama
alag
alagna
alain
alamanne
alamannen
alamannische
alan
alarich
alarm
alaska
alb
alba
alban
albaner
albanie
albanisch
albanische
albanischi
albbruck
albdal
albe
albedo
alber
alberich
albert
alberto
albgau
albin
albis
albra
albrecht
albstadt
albula
album
albus
ald
alda
alde
alder
aldi
aldr
aldstadt
ale
alem
alemane
alemanisch
alemanische
alemanischi
alemanne
alemannen
alemannia
alemannie
alemannisch
alemannische
alemannischen
alemannischer
alemannisches
alemannischi
aleppo
ales
alessandria
alessandro
alewyl
alex
alexander
alexandra
alexandre
alexandria
alexandrie
alexios
alexis
alfabeet
alfons
alfonso
alfred
alfredo
alge
algebra
algebraische
algebraischi
algemein
algerie
algier
algorithme
algorithmus
ali
alias
alice
alienor
alif
alighieri
align
alignbars
alija
alkibiades
alkohol
all
alla
allan
allda
alldaag
alldag
alle
allee
allegro
allei
allein
allem
allemand
allemannische
allen
allene
aller
allerdings
allerhand
allerheilige
allerheiligen
alles
allga
allgai
allgaier
allgem
allgema
allgemein
allgemeine
allgemeinen
allgemeiner
allgemeines
allgemeini
allgemeins
allgmain
allgmaine
allgmaini
allgmein
allgmeine
alli
alliance
allianz
allierte
alliierte
allium
alliwiil
alliwyl
alljohr
allma
allmee
allmeh
allmende
allne
allno
alloi
allophon
alls
allschwil
allta
alltag
allwa
allzu
alma
almanach
almorawiide
alne
alnus
alois
aloys
alp
alpa
alpe
alpen
alperhy
alperuum
alpes
alpha
alphabet
alphabetisch
alphonse
alphorn
alpi
alpin
alpina
alpine
alpini
alpino
alpinum
alpinus
alroune
als
alsace
alsacien
alsacienne
alsatia
also
alt
alta
altar
altbasel
altchinesische
altdorf
alte
alteburg
altem
alten
altenburg
altenglisch
altenstadt
alter
alterdum
alternativ
alternative
alternativi
alternativtext
alters
altertu
altertum
altertumskunde
altes
altfranzo
altgr
altgriechisch
altgriechische
altheim
althochdu
althochtu
althoochtu
alti
altkirch
altnordisch
alto
altona
altr
alts
altsa
altschdadt
altschtadt
altsta
altstadt
altstette
altwa
alu
aluege
aluegt
aluminium
alveolare
am
ama
amadeus
amalie
amann
amateur
amazon
amazonas
ambrosius
ame
amene
amerbach
america
american
amerika
amerikaner
amerikanisch
amerikanischa
amerikanische
amerikanischen
amerikanischer
amerikanischi
amerkige
amfibie
ami
amiens
amiga
amigs
amin
amis
amma
amman
ammann
amme
ammianus
amnesty
amo
amol
amor
amore
amos
amour
ampfer
amphibie
amphitheater
amrikanische
amsle
amsterdam
amt
amtes
amtiert
amtl
amtlech
amtli
amtlich
amtliche
amtlichi
amtlig
amts
amtsbezirk
amtsblatt
amtsgricht
amtsperiode
amtssproch
amtssproche
amtssprooch
amtsziit
amtszit
amtszyt
amun
amundsen
amur
amy
an
ana
anaconda
analog
analoge
analogi
analu
analyse
analysen
analysis
analytische
ananke
anarchie
anarchismus
anastasius
anatolie
anatolische
anatomie
anatomii
anatomy
anc
ancien
ancienne
ancient
ancona
and
anda
andalus
andalusie
andania
ande
andeer
andelfinge
andelfingen
ander
andera
andere
anderem
anderen
anderer
anderersits
anderes
anderi
andermatt
andern
anderne
anders
andersch
anderscht
andersen
anderson
anderst
anderthalb
andi
andlau
andorra
andra
andre
andrea
andreas
andreaschru
andrem
andres
andrew
andri
andronikos
andrs
andschpi
andy
ane
anekdote
anemone
anenand
aner
anercha
anerchennt
anere
anerka
anerkannt
anerkenne
anerkennig
anerkennt
anfa
anfang
angara
angaschiert
ange
angel
angela
angeles
angelica
angelika
angelina
angelo
angelos
angelsa
angelsachse
angere
angeri
angers
angewandte
anglikanische
anglisch
anglischa
anglo
angola
angrenzenden
angriff
angscht
angst
anhalt
anhand
anhang
ani
animal
animation
anime
anita
anja
anjou
ankara
anke
anker
anla
anlass
anleitung
anmerkungen
ann
anna
annalas
annale
annalen
annales
annan
anne
annegret
annektiert
anneliese
annemarie
anneri
annette
annexion
anni
annie
anno
annual
anonym
anonyme
another
ans
ansa
ansambel
ansbach
anselm
ansichten
anstalt
anstatt
ant
antarktika
antarktis
antarktische
ante
anthologie
anthology
anthony
anthropologie
anthropology
anti
antibiotika
antiiki
antiju
antik
antike
antiken
antiki
antille
antilope
antiochia
antiochos
antiqua
antisemite
antisemitische
antisemitischi
antisemitismus
antje
anto
antoine
antoinette
anton
antoni
antonia
antonino
antoninus
antonio
antonius
antony
antwa
antwort
antworte
antworten
anwendung
anzeiger
anzig
ao
aoc
aosta
aostatal
apartheid
apasst
apennin
apeza
apfel
aphel
aphorismen
aphrodite
apollo
apollodor
apollon
aposchtel
apostel
apparat
appenzell
appenzeller
appeza
appezell
appezo
appiza
apple
approach
approximant
apr
apre
april
aprile
apsis
apt
apud
apulie
aqua
aquae
aquarell
aquila
aquitanie
ar
ara
arab
araber
arabie
arabisch
arabische
arabischen
arabischi
arad
arafat
arago
aragon
aragorn
arama
ararat
arba
arbaiter
arbe
arbedo
arbeit
arbeite
arbeiten
arbeiter
arbeiterbewegung
arbeitsgemeinschaft
arbeitsgruppe
arbeitskreis
arbeitstagung
arbet
arbete
arbetschreft
arbetsgruppe
arbetslosigka
arbetslosigkait
arbetslosigkeit
arbetspla
arbetsstell
arbogast
arbon
arc
arch
archa
archaeology
arche
archeologischi
archidekduur
archidekt
archidekte
archidektur
archidektuur
archiiv
archimedes
archimedische
archipel
archita
archite
architecture
architekt
architekte
architekten
architektur
archiv
archivar
archive
archives
archivio
archivs
archyv
arco
ard
ardenne
ardikel
ardikl
arduino
are
area
areal
areas
arena
aretha
areuse
arg
argentinie
argentinische
argos
argovia
argovio
arguma
argument
arie
ariel
ariola
aristodemos
aristokratii
aristomenes
aristoteles
arithmetik
arizona
arkadie
arktis
arktisch
arktische
arles
arlese
arlesheim
arlise
arm
arma
armand
armando
arme
armea
armee
armen
armenie
armenier
armenisch
armenische
armi
armin
armorique
arms
armstrong
armuet
armut
army
arndt
arne
arnim
arno
arnold
arnulf
arosa
around
arp
arrimmu
arrondisements
arrondissement
arrondissements
ars
arsenal
arslan
art
artaxerxes
arte
artefakt
artemis
arten
arth
arthur
article
artig
artikel
artikl
artiku
artikulation
artikulationsort
artikuliert
artillerii
artist
artists
artium
arts
artur
artus
arx
arzbischoof
arzt
as
asa
asal
asche
aschluss
aschpa
ascht
aschteroid
aschtronom
aschtronome
ascii
ascona
ase
asean
asen
aserbaidschan
ases
asewa
asia
asiatische
asicht
asie
asien
asine
asklepios
aso
asp
aspa
aspach
aspects
aspekt
aspekte
aspruch
asptt
ass
assa
assange
assba
assembly
assimilation
assimiliert
assischta
assisi
assnote
association
assomption
assur
assyrer
assyrie
assyrisch
assyrische
assyrischi
asta
aster
asterix
asteroid
asteroide
aston
astrid
astronom
astronome
astronomi
astronomie
astronomii
astronomische
astronomischi
asu
asyl
at
ata
atatu
ateliee
atelier
athanasius
athen
athena
athene
athener
athenische
athens
atlante
atlantic
atlantik
atlantique
atlantis
atlantische
atlas
atmosfa
atmospha
atoll
atom
atombombe
atomchraftwa
atomka
atp
atra
attack
attentat
atter
atti
attika
attila
attinger
attische
attischi
attribut
au
aua
aube
aubin
aubom
aubonne
auch
auckland
audio
aue
auer
auerbach
auf
aufbau
aufbruch
aufgaben
aufgrund
aufkla
aufl
auflage
aufsa
aufstand
aufstieg
auftrag
auftrage
aufzeichnungen
aufzu
aug
auga
auge
augen
augenblick
augsburg
augsburger
augschburg
augschburger
augscht
augschtdal
augschte
augst
augste
auguscht
august
augusta
augustana
auguste
augustin
augustine
augustiner
augustinergass
augustinus
augusto
augustus
aui
aula
aung
auray
aure
aurel
aurelius
aurich
aurobindo
aus
ausbildong
ausblick
auschtralie
auschtralische
auschwitz
ausdru
ausfu
ausg
ausgab
ausgabe
ausgaben
ausgewa
ausla
ausland
auso
ausstellung
ausstellungskatalog
austin
australia
australian
australie
australis
australische
austrasie
austria
auswa
auswahl
auszu
auszug
aut
aute
authority
auti
auto
autobaan
autobahn
autobahne
autobiograf
autobiografie
autobiografii
autobiografy
autobiographie
autobiography
automatisch
automatische
automobil
autonom
autonome
autonomi
autonomie
autonomii
autonomiigebiet
autonomy
autoor
autoore
autor
autora
autore
autoren
autori
autorin
autorita
autos
autres
auvergne
aux
außer
außerdem
av
avalon
avantgarde
avatar
ave
avec
avenches
aventicum
aventure
avenue
aviation
avignon
aviv
avn
avold
avry
awa
award
awards
aware
awer
ax
axel
axiom
axpo
ay
ayyubide
az
azahl
azeigt
azur
aß
b
ba
baa
baabrugg
baachme
baad
baade
baader
baadisch
baadische
baan
baane
baanho
baanhof
baanhoof
baanlinie
baanlinnie
baanschteig
baanschteigchante
baanschtreggi
baanu
baar
baasel
baaselbieter
baaseldytsch
baasler
bab
babbiir
babel
babst
baby
babylon
babylonie
babylonier
babylonisch
babylonische
bach
bacha
bachdal
bache
bachelor
bacher
bachmann
back
bacon
bad
bada
badde
baddische
baddischi
bade
baden
badener
badenweiler
bader
badewyyler
badi
badisch
badische
badischen
badischer
badisches
badischi
baer
baerbock
bag
bagdad
bagge
bagnes
baha
bahai
bahn
bahndate
bahne
bahnen
bahnexzentrizita
bahngsellschaft
bahnho
bahnhof
bahnhoof
bahnlinie
bahnschtreggi
bahnstrecki
bahnu
bahr
bahrain
bai
baid
baida
baide
baidi
baier
baihuus
baikal
baikalsee
bailey
baim
bains
bair
bairisch
bairische
baker
bakr
bakterie
bakterien
bakunin
bal
bala
balast
balaton
balche
bald
baldr
balduin
balenga
bali
balingen
balkan
balke
balkon
ball
ballade
balle
ballet
ballett
ballettda
balligsruum
bally
balm
balmer
baloise
baltea
balthasar
baltikum
baltimore
baltische
balzers
bamba
bamberg
bambi
ban
banane
banat
banater
band
banda
bande
bandle
bandnummere
bands
bang
bangkok
bangladesch
banholzer
bank
banke
bankier
bankrott
banks
bann
banner
bantu
bappe
bapst
baptist
baptiste
bar
baraat
barack
barak
barallel
baranya
barat
barbara
barbarossa
barbe
barcelona
bardei
bardeie
barfu
barga
barge
bargen
bari
bariis
bariiser
baris
bariton
barlema
barnes
barock
barocke
barocki
barockmuusig
baron
barre
barrett
barrier
barry
barset
bart
bartei
barteidag
barteie
barth
barthe
bartholdi
bartholdy
bartholoma
barto
bas
baschi
base
based
basel
baselbiet
baselbieter
baseldeutsch
baseldu
baseldytsch
baselland
basf
basic
basiere
basiert
basil
basileios
basilica
basiliensis
basilika
basilisk
basilius
basis
baskeland
baskisch
basler
basotho
bass
bassa
basse
bassermann
bassett
bassiere
bassiert
bassiirt
basso
basst
bassyrt
bastei
bastien
basu
basutoland
bat
battista
battle
bau
baua
bauart
bauarte
baud
bauda
baudeil
baudelaire
baue
baueleme
bauelima
bauen
bauer
bauern
bauet
bauform
bauforme
baugeschichte
baugschicht
bauhaus
bauho
bauhuus
baukoschte
baukultur
baukunst
baum
bauma
baumann
baume
baumeister
baumer
baumgartner
baur
baura
baureie
baureihe
bausch
baut
baute
bauten
bauti
bauwa
bauwerch
bauwercher
bauwerk
bauwys
bauzeitung
bauzit
bay
bayaz
bayer
bayere
bayerisch
bayerische
bayerischen
bayerischer
bayern
bayernliga
bayezid
bayre
bayreuth
bayrisch
bayrische
bayrischi
bb
bba
bbc
bbe
bben
bber
bberbau
bberdra
bberdrait
bberfinge
bberfinger
bberflu
bberfu
bberga
bbergang
bbergange
bberno
bberquere
bberquert
bberschpannt
bberschritte
bbersicht
bberwachig
bberwachigssignaal
bberwigend
bberwurscht
bbi
bbis
bbq
bbt
bc
bca
bce
bd
bde
bdp
be
bea
beach
beamte
beamti
bearb
bearba
bearbeitet
bearbeitete
bearbeitung
beardigt
beat
beata
beate
beatles
beatrice
beatrix
beaufort
beautiful
beauvoir
beaux
bebel
beblenga
bebu
bec
bech
becher
becho
bechoo
bechunnt
beck
becke
becker
becki
beckmann
bed
beda
bedarf
bede
bedeckt
bedecktsamer
bedeidong
bedeiligt
bedeutung
bedi
bedie
bedient
bedingig
bedingige
bedingt
bedo
bedong
bedonig
bedont
bedoont
bedra
bedraa
bedrait
bedrib
bedribbe
bedribe
bedriib
bedriibe
bedroffe
bedrohig
bedroht
bedrohte
bedroot
bedryb
bedrybe
bedrybt
bedu
bedytet
bedytig
beed
beede
beedi
beendet
beer
beeri
beethoven
befa
befaare
befahre
befalls
befasst
befehl
befendet
befeschtigt
befestigt
befi
befinde
befindet
befliss
beflu
befluss
befo
befohle
befoole
before
befra
befreie
befreiig
befreijig
befreit
befreiung
befru
befu
befunde
bega
begange
bege
begegnet
begegnung
begegnungen
begge
beggi
begin
beginn
begla
begleiter
begleitet
begra
begraabe
begrabe
begrenzt
begriff
begriffe
begriffskla
begrindet
begru
begu
beha
behandelt
behandle
behandlet
behandlig
behaupte
behauptet
behe
beherde
beherrsche
beherrscht
behind
behinderig
beho
bei
beida
beide
beiden
beides
beidi
beidne
beidsitig
beiflusst
beiheft
beihefte
beiiflusse
beiiflusst
beijing
beilage
beim
bein
being
beinhaltet
beira
beirut
beischbiel
beischbiil
beischpiel
beispiel
beispiele
beispiil
beitra
beitrag
beiwa
beka
bekannde
bekannt
bekannte
bekannter
bekannteschte
bekannteste
bekanntheit
bekannti
bekanntischte
bekanntist
bekanntiste
bekannts
bekanntschaft
bekant
bekante
bekanti
bekennt
bekenntnis
bel
bela
belaageret
belaagerig
belageret
belagerig
belait
belaschtet
belaschtig
belastet
belche
bele
beleeg
beleg
belege
belegt
beleit
belfort
belgia
belgica
belgie
belgien
belgier
belgisch
belgischa
belgische
belgischi
belgrad
beli
belie
beliebt
beliebte
beliebti
beliebts
bell
bella
belle
belles
belletristik
bellevue
bellige
bellinzona
bello
belmont
belser
beltz
belu
belz
bem
bemerkenswa
bemerkt
bemerkungen
bemu
ben
bena
benamst
benannt
bend
bende
bender
bendi
bene
benedikt
benediktiner
benediktinerabtei
benelux
benennig
benennt
benes
benfeld
bengale
beni
benin
benito
benjamin
benner
bennett
benno
benny
beno
benochberte
benoi
benrather
benserade
benserwartig
benslauf
bensmittel
bensruum
benswa
benswiis
benteli
bentzinger
benu
benutze
benutzer
benutzig
benutzt
benz
benziger
benzin
beobachder
beobachte
beobachter
beobachtet
beobachtig
beobachtige
beobachtungen
ber
bera
beraich
berall
berarb
berarba
berarbeitete
berater
berau
berbaut
berber
berblick
berblinger
bercho
berchoo
berchtold
berchunnt
berchunt
berdra
berdrait
bere
berechnet
berei
bereich
bereit
bereits
berem
berend
berengar
berfa
berfall
berfalle
berflu
berfu
berg
berga
bergamo
bergang
bergange
bergbau
berge
bergee
bergell
bergen
berger
bergisch
bergland
bergmann
bergstrasse
bergu
berhaupt
berholt
berhopt
beri
beriahmta
berich
bericht
berichte
berichtet
beriemt
beriich
beringe
beringen
beringer
berkeley
berla
berle
berlegungen
berlieferung
berliferet
berliferig
berliiferet
berliiferig
berliin
berlin
berlinale
berliner
berlinge
berlingen
berloo
berm
bern
berna
bernaa
bernaah
bernahm
bername
bernard
bernardino
bernardo
bernau
bernauer
bernd
berne
bernee
berneh
berner
bernhard
bernhardt
bernimmt
bernina
berno
bernoh
bernoo
bernoulli
bernstein
bernuu
bero
beromu
berong
berooter
beroter
berpru
berquert
berra
berraschend
berrascht
berregional
berri
berry
bers
berschritte
berschwemmige
berseegebiet
bersetze
bersetzer
bersetzig
bersetzige
bersetzt
bersetzung
bersetzungen
bersicht
bersichten
bert
berta
bertelsmann
bertha
berthold
bertold
bertolt
bertra
bertragen
bertrand
bertreit
beru
beruaf
berucksichtigt
berue
beruef
beruefe
beruefig
beruf
berwacht
berwiegend
berwinde
berwunde
berych
beryych
berzchoo
berzu
bes
besa
besanc
besatzigszone
besch
bescha
beschda
beschde
besche
beschlo
beschlosse
beschlu
beschluss
beschra
beschreibong
beschreibung
beschribbe
beschribe
beschribig
beschribt
beschriibe
beschriibig
beschriibige
beschriibt
beschrybe
beschrybig
beschrybt
bescht
beschta
beschtand
beschtbherschti
beschte
beschti
beschtimmt
beschtimmte
beschto
beschtoht
beschu
beschwa
beserwartig
besetzt
besidlet
besidlig
besigt
besiidlet
besiidlig
besiigt
besitz
besitzt
beslauf
besmittel
besonderer
besonders
besruum
besse
besser
bessere
besseri
best
besta
bestaht
bestand
bestandda
bestanddeil
bestande
bestandsaufnahme
bestandteil
beste
bestehen
bestehende
besteit
besten
bester
besti
bestimme
bestimmig
bestimmige
bestimmt
bestimmte
bestimmti
bestimmung
besto
bestoht
bestoot
bestot
besuch
besunders
beswa
bet
beta
bete
beteiliget
beteiligt
beteiligte
beteiligung
bethlehem
beton
betonig
betont
betra
betrachtet
betrachtung
betrachtungen
betrag
betrait
betreffend
betreit
betreut
betrib
betribbe
betribe
betribt
betrie
betrieb
betrifft
betriib
betriibe
betroffe
betroffene
bett
bette
better
bettige
bettina
bettme
betty
between
beuron
beuys
beva
bevelkerig
bevelkerigsentwicklig
bevelkerigsgruppe
bevelkerung
bevelkerungsentwi
bevo
bevor
bevorzugt
bewa
bewacht
bewaffnet
bewaffnete
bewaffneti
bewahrt
bewaldet
bewaldete
beweege
beweegig
beweegige
bewege
beweggt
bewegig
bewegige
bewegliche
beweglichi
bewegt
bewegte
bewegung
beweis
bewiis
bewiise
bewilligt
bewirkt
bewohner
bewohnt
bewooner
bewoont
beworbe
bewu
bewusst
bewusstsii
bey
beyeler
beyer
beyerle
beyflusst
beyond
beza
bezaichnet
bezaichnig
bezeichne
bezeichnet
bezeichnig
bezeichnige
bezeichnung
bezeichnunge
bezie
beziehig
beziehige
beziehigswiis
bezieht
beziehung
beziehungen
bezieige
beziejig
beziejige
beziejigswiis
beziet
beziirksamt
bezirk
bezirke
bezirks
bezirksamt
bezirksgricht
bezirkshauptort
bezirkshu
bezirksschuel
bezirkswa
bezoge
bezooge
bezu
bezug
bezugssu
bezuug
bezzel
bf
bfa
bfaarchilche
bfaarer
bfla
bflanze
bfs
bgoordnet
bgoordneta
bh
bha
bhaalte
bhagavadgita
bhalte
bhaltet
bhandlet
bhauptet
bhe
bhf
bho
bi
bia
biacher
bianca
biasca
bibel
biber
biberach
bibi
bible
bibliografie
bibliografii
bibliographie
bibliographisches
bibliography
biblioteca
biblioteek
biblioteeke
bibliothe
bibliotheca
bibliothek
bibliothekar
bibliotheke
biblische
biblischi
bibra
bichsel
bichwil
bickel
biden
bidra
bidu
bie
biecher
biechli
bied
biedermann
biedge
biel
bielefeld
bieler
bielersee
bien
biennale
bienne
bienzle
bier
bieri
biermann
biermo
biet
biete
bietenhard
bietet
bifestigt
big
bige
bigi
bigler
bigriff
bigru
bihl
bihne
bihni
bii
biibhalte
biidra
biidritt
biim
biine
biischpiil
biischpiilswiis
biispiil
biispil
biitra
bikannt
bikannte
bikannti
bike
bikini
bikumma
bikumme
bilait
bilanz
bild
bilda
bildband
bilddokumenten
bilde
bilded
bildende
bildenden
bildendi
bilder
bilderbuch
bildern
bildersturm
bildet
bildete
bildhauer
bildhauerei
bildig
bildigswa
bildle
bildli
bildnis
bildr
bildschiibe
bildschirm
bildung
bilingue
bill
billboard
billiger
billigheim
billy
bilz
bim
bimene
bin
bina
binde
binder
bindig
bindnis
binennt
binere
binge
bingen
binger
binne
binnige
binze
bio
bioggio
biografi
biografie
biografii
biografy
biographie
biographien
biographii
biographische
biographisches
biography
biolog
biologi
biologie
biologii
biologisch
biologische
biologischi
biology
biospha
biotop
bip
bipolartransischto
bir
bira
birche
bircher
bird
birds
bire
birger
birgermaischter
birgermoeschter
birgermoischtr
birgit
birke
birkenau
birkha
birmischtorf
birnbaum
biro
birr
birs
birsegg
birsfa
birsig
birth
birthday
biru
bis
bisch
bischa
bischbil
bische
bischef
bischen
bischer
bisches
bischi
bischo
bischof
bischoff
bischofssitz
bischoof
bischpiil
bischpil
bischribe
bischt
bischtum
bischwiller
bisha
bisher
bisherige
bisidlet
bisigt
bislang
bismarck
bispiil
bispil
bispilswiis
bispyl
bissau
bisse
bissenge
bissle
bist
bistande
bistoot
bistum
bit
bitche
bitra
bitrachtet
bitsch
bitscherland
bitte
bitter
bittet
bitz
bitzeli
biuder
bivo
biwegig
biz
bizaichnet
bizaichnig
bizu
bjo
bke
bl
bla
blaan
blaanig
blaanma
blaant
blaante
black
blackwell
blaise
blakette
blan
blanc
blanche
blanig
blanq
blanquet
blant
blante
blanvalet
blasie
blasien
blasius
blatt
blatte
blatter
blattform
blattner
blatz
blau
blaubeira
blaue
blauem
blauen
blauer
blaui
blauwal
ble
blech
blei
bleiba
bleiben
bleibt
bleiche
bleistift
blenio
bler
bletter
bleu
bleue
bli
blia
blibbe
blibe
bliben
blibt
blich
bliche
blicherwys
blichi
blick
blicke
blieb
bliete
blig
blige
bligg
bliiba
bliibe
bliiben
bliibt
blik
blind
blinde
blinge
blitz
bliwe
blo
bloch
blocher
block
blockiert
blog
blomegg
blommegg
blood
blos
bloss
blotzheim
bloß
bls
blu
bludaz
blue
blueme
blues
bluescht
bluet
bluetig
bluetige
blum
blumberg
blume
blumegg
blumen
blummba
blummberg
blut
blutt
blv
blybe
blybt
blyybe
bmg
bner
bnis
bniss
bnutzt
bo
board
bob
bobby
bobo
boccaccio
bochum
bock
bod
boda
bodasee
bodde
bode
boden
bodenfla
bodensee
bodenseekreis
bodensees
bodesee
bodeseealemannisch
bodeseekreis
bodi
bodman
bodmer
bodo
body
boeing
boge
bogen
bohnenberger
boide
boigny
boirischa
bois
boldt
boli
bolitik
bolitiker
bolitikeri
bolitikwisseschaft
bolitisch
bolitische
bolitischi
bolitker
bolivie
bolizei
boll
bollschwil
bolo
bologna
bolonja
bombardiert
bombay
bombe
bomm
bon
bonaduz
bonaparte
bond
bonde
bondo
bondorf
bonfol
bongo
bonhoeffer
bonifatius
bonn
bonndorf
bonne
bonner
bonnie
bononcini
boode
boodesee
boodi
booge
book
books
boole
boom
boone
boor
boot
boppard
bora
bord
bordeaux
bordret
borges
borgosesia
boris
bormio
born
borneo
bornu
boromir
borst
borussia
bosch
boscht
boschtleitzaale
boschung
bosco
bosnie
boss
bossue
boste
boston
bosuune
bosworth
bot
botanik
botaniker
botanisch
botanische
botany
bote
botschaft
botschafter
botsuana
botswana
bott
botte
bottom
bou
boudry
boue
bouet
bouffe
bouffier
bougainville
boulay
boulevard
boulez
boum
bourg
bourgogne
bout
bouvier
bouwa
bouwerch
bouzonville
boveri
bowie
box
boxer
boy
boykott
boys
bozen
bp
br
bra
bracht
bradley
brahm
brahma
brahms
braig
brain
brait
braite
braiti
braktisch
branche
brand
brande
brandeburg
brandenburg
brandstetter
brandt
brant
brasilianische
brasilie
brasilien
brass
brassens
brassica
bratislava
bratsche
brattele
brauch
brauchd
brauchen
braucht
brauchtum
brauerei
brauereie
braun
braune
braunschweig
braut
bravo
braxis
brazzaville
brd
bre
breagaz
breagazer
breagazerwald
breagazerwaldgebirg
break
breasted
brecht
breg
bregaglia
bregenz
bregez
bregt
bregte
brehm
breil
breisach
breisgau
breit
breite
breitenbach
breitenstein
breiter
breiti
breitnau
breker
brel
breme
bremen
bremer
bremerhave
bremerhaven
bremgarten
bremierminischter
brenga
brengt
brenner
brennt
breno
brentano
brenz
bresa
brescia
bresida
bresidium
breslau
brest
bret
bretagne
breton
bretonisch
bretonische
bretonischi
brett
bretten
breuer
brezhoneg
bri
bria
briaf
brian
brichdet
bricht
brichte
brichtet
bridge
bridges
brie
brieder
brief
briefe
briefen
briefmarke
briefwa
briefwechsel
briens
brienz
brienzersee
briester
brig
brigach
brigade
brige
brigels
brigens
brigitte
briilinge
briis
briisach
briisgau
briiswa
brill
bringe
bringt
brinz
brinza
brinzip
brinzyp
brion
brisach
brisacher
brisgau
brit
britain
britannica
britannie
brite
briten
britisch
britischa
britische
britischen
britischi
britischs
british
britten
brivatbsitz
brivate
brivati
bro
broadway
brobiere
brobiert
brobla
brobleem
broblem
broc
broche
brocht
brock
brockhaus
brod
brodbeck
brodukt
broduktion
brodukzioon
broduza
broduziere
broduziert
broduzyrt
brofa
brofeet
brofyl
brogramm
broja
broje
brojekt
brombach
bronse
bronze
bronzeziit
bronzezit
bronzezitt
bronzezyt
broocht
brooklyn
broot
bros
broschu
brot
brotescht
brothers
brovinz
browinz
browinze
brown
browser
broye
broza
broze
bru
bruadr
brubeck
bruce
bruch
bruche
bruchsal
bruchstu
brucht
bruck
brucker
bruckmann
bruckner
bruder
brue
brueder
bruederholz
bruef
bruefsmilida
brugg
brugge
bruggene
brugger
brun
brune
brunne
brunnen
brunner
brunno
bruno
brunscht
bruppacher
bruscht
brust
brutal
bruuch
bruuchd
bruuchdum
bruuche
bruucht
bruuchte
bruuchti
bruuchtum
bruun
bruune
brysach
brysgau
bryys
bryysdreeger
bryysgau
bs
bsa
bsatzig
bsatzigszone
bsc
bscha
bschafft
bschaue
bscheftigt
bschliss
bschlosse
bschlu
bschluss
bschra
bschribe
bschriibe
bschrybt
bscht
bschta
bschtanddeil
bschtande
bschtellt
bschtimmt
bschtimmte
bschtimmti
bschto
bschtoht
bse
bsetze
bsetzig
bsetzt
bsetzte
bsetzung
bsfa
bsi
bsidlet
bsidlig
bsitz
bsitzer
bsitzige
bsitzt
bsonders
bsondrs
bsorte
bsta
bstand
bstande
bstantiv
bstehn
bsteht
bsteit
bstellt
bstetigt
bstimmt
bstimmte
bstimmti
bstoht
bstoot
bsu
bsuach
bsue
bsuech
bsueche
bsuecher
bsuecht
bsunder
bsundere
bsunderhait
bsunderheit
bsunderheite
bsunderi
bsunders
bsundersch
bsundrige
bsundrigi
bsundrigs
bt
btailung
bte
bti
btissin
bu
bua
buach
buacha
buch
buchau
buchdruckerei
buchen
bucher
buchgesellschaft
buchhandlung
buchholz
buchner
buchs
bucht
buchte
buchverlag
buck
buckel
buda
budapest
buddha
buddhismus
buddhistische
budget
bue
bueb
buebe
buebedorf
buech
buechdruck
buechdrucker
bueche
buechebach
buechha
buechma
buechschtab
buechschtabe
buechstaabe
buechstab
buechstabe
buenos
buffalo
bug
buganda
bugge
building
bukarest
bulgare
bulgarie
bulgarisch
bulgarische
bulgarischi
bulge
bull
bulle
bulletin
bullinger
bumpventyl
bun
bund
bunde
bundes
bundesamt
bundesarchiv
bundesbaan
bundesbaane
bundesbahn
bundesbank
bundesbarteidag
bundesbresida
bundesbrief
bundeschanzler
bundeschanzleri
bundesdaag
bundesdag
bundesdagsfraktion
bundesdagswahl
bundesebeni
bundesgricht
bundesgsetz
bundeshuus
bundeskanzler
bundesla
bundesland
bundesliga
bundesminischter
bundesminischteri
bundesminischterium
bundesposcht
bundespra
bundespresida
bundesra
bundesrat
bundesregierig
bundesrepublik
bundesro
bundesroot
bundesrot
bundesschta
bundesschtro
bundesstaat
bundesstaate
bundesstro
bundestag
bundestagsfraktion
bundestagswahl
bundesverband
bundesverdinschtchru
bundesverfassig
bundesverfassigsgricht
bundesversammlig
bundesvorsitzer
bundesvorstand
bundesweer
bundeswehr
bundeszentrale
bung
bunker
bunte
burch
burckhardt
burdlef
bure
bureau
burg
burgaalag
burgdorf
burge
burgeland
burgemeischter
burgen
burgeninventar
burger
burgerchrieg
burgermaischter
burgermaischteri
burgermeischter
burgerra
burghof
burgruine
burgstall
burgtheater
burgund
burgunder
burgunderchrieg
burgundische
buri
burkart
burke
burkhalter
burkhard
burkhardt
burkhart
burkina
burns
burte
burton
burundi
bus
busch
buser
bush
business
buske
buslinie
busse
but
butler
butsch
butscht
butschversuech
butter
buuch
buur
buure
buurechrieg
buuredorf
buurehof
buurehuus
buurged
buurt
buut
buxtehude
buxwiller
bvb
bvo
bw
bwl
by
bybhaalte
bydra
bydreg
byron
byrot
byschpel
byschpiil
byschpil
byschpill
byschpillswys
byspiil
byspil
bytra
byydreeg
byzantine
byzantiner
byzantinisch
byzantinische
byzantinischi
byzantinischs
byzantium
byzanz
bz
bzite
bzw
c
ca
cabaret
cadalbert
caesar
caesarea
cafe
cahiers
calais
calanca
calb
calder
california
caligula
call
calvaire
calvin
calw
cambridge
camera
cameron
camii
camille
camp
campagne
campanula
campbell
campe
campell
campione
campo
campus
camus
can
canada
canal
canberra
cancellara
cannes
cannstatt
canterbury
canton
cantone
cantz
canvas
cap
cape
capella
capital
capo
cappella
capriasca
capriccio
captain
car
caracalla
caracas
caravaggio
cargo
caribbean
carigiet
carl
carla
carlo
carlos
carlsen
carme
carmen
carol
carola
carolina
caroline
carona
carouge
carroll
carsten
carte
carter
carteret
cartier
carus
cas
casa
casagrande
casanova
case
casimir
casino
caspar
cassini
cast
castel
castello
castle
castor
castro
castrum
cat
catalogo
catalogue
catharina
catharines
cathedral
catherine
catholic
caucasus
caught
cavalli
cavendish
cazis
cbs
cc
cd
cdot
cds
cdu
ce
celestino
cell
cello
celsius
cem
cembalo
census
cent
centaurea
center
central
centrale
centre
centro
century
cercle
ceres
cern
cerniat
cernier
cervantes
ces
cesare
ceuta
cev
cevi
cevio
ch
cha
chaa
chaarlsrue
chaarlsruei
chaarte
chabis
chablais
chagall
chaim
chaisa
chaiser
chaiserlige
chaiserrych
chaiserstuel
chalb
chalch
challenge
chalt
chalte
chalti
cham
chame
chamer
chammer
chammere
chamonix
champ
champagne
champf
champion
champions
championship
champs
chan
chance
chander
chandersta
chang
change
chann
channa
channel
chanoux
chanson
chansons
chant
chante
chanzler
chanzlerkandidat
chaos
chapel
chapelle
chaplin
chapman
chappe
chappel
chappele
chappeli
chapter
charakter
charakterisiert
charakteristisch
charakteristische
charente
charles
charlie
charlotte
charlsrue
charlsrueh
charly
charmey
charsau
chart
charta
charte
charts
chas
chasare
chasch
chaschte
chasper
chat
chateau
chatz
chatze
chaucer
chauf
chaufe
chaufma
chaufmann
chauft
chaumont
chaux
chavannes
chba
chblo
chbo
chchrie
chd
chde
chdeil
chdem
chder
chdet
chdig
chdige
chdigt
che
ched
cheer
chees
chef
chefredakter
chefredakteur
chel
chele
cheli
chelsea
chem
chema
cheme
chemi
chemical
chemie
chemii
chemiker
chemin
chemins
chemisch
chemische
chemischi
chemistry
chemme
chems
chemy
chen
chend
chende
chendi
chene
chenevie
chenga
chengdu
chenig
chenigi
chenigrych
chenne
chennen
chennt
chennte
cher
cherche
chere
cherei
cheret
cheri
cherig
cherle
chermignon
chern
chernstadt
chers
cheschte
chess
chessel
chesswil
chet
chette
chetti
chez
chf
chfolger
chi
chia
chiandru
chiasso
chicago
chie
chief
chiem
chienba
chiesa
chig
chiga
chige
chigi
chiis
chiisige
chila
chilbi
chilch
chilche
chilchemusik
chilchhofe
chilchlige
chilchu
child
childebert
childerich
children
chile
chilegma
chilegmeind
chilegmeinde
chilen
chilene
chille
chillemuusig
chillestaat
chilperich
chin
china
chinas
chind
chinder
chinderbuech
chinderga
chindergarte
chinderschuel
chindha
chindhait
chindheit
chine
chinese
chinesisch
chinesische
chinesischen
chinesischer
chinesischi
ching
chinig
chinscht
chinschtler
chinschtleri
chinschtlerisch
chip
chips
chirac
chirch
chirche
chirchlige
chirico
chisch
chische
chischi
chiuche
chla
chlai
chlaiasie
chlaider
chlaine
chlainere
chlaineri
chlaini
chlammere
chlaus
chle
chlech
chlee
chleggau
chleggi
chlei
chleider
chleidig
chleigebiet
chlein
chleine
chleinere
chleineri
chleini
chleis
chler
chleschter
chli
chlich
chliche
chlichen
chlichi
chlig
chlii
chliiasie
chliima
chliine
chliiner
chliinere
chliineri
chliini
chliises
chlima
chlin
chline
chlineri
chlinge
chlingnau
chlini
chlinner
chlinneri
chlises
chlo
chlodwig
chlooschter
chlooster
chloote
chlorophyll
chloschter
chloschterchilche
chloschterchile
chloster
chlothar
chly
chlyne
chlyner
chlynere
chlyneri
chlyni
chlyses
chna
chnapp
chne
chner
chnet
chnig
chnige
chnik
chnisch
chnische
chnischi
chno
chnoche
chnology
chnote
chnu
cho
choblez
choch
choche
chohle
chohledioxid
choice
cholbe
cholera
chologii
chomsky
chon
chonufinge
choo
choor
chopf
chopin
chor
choral
chorb
chorn
chorwa
chorz
choschtez
chosrau
chr
chra
chraft
chraftfaarzu
chraftwa
chrais
chraisamt
chraisdag
chraisverband
chrank
chranke
chrankehuus
chranket
chrankete
chrankha
chrankheit
chrankheite
chrankhet
chranki
chre
chreft
chreis
chreise
chreisstadt
chri
chria
chrie
chrieg
chrieger
chriegerische
chriegsschiff
chriegsverbra
chris
chrischona
chrischte
chrischtedum
chrischtetum
chrischti
chrischtleche
chrischtlechi
chrischtli
chrischtliche
chrischtlige
chrischtus
christ
christa
christe
christedum
christel
christen
christentum
christetum
christi
christian
christiane
christianisierig
christina
christine
christlich
christliche
christlichen
christlicher
christlichi
christlig
christlige
christligi
christmas
christof
christoph
christophe
christopher
christophorus
christus
chro
chromosom
chromosome
chrone
chronik
chronike
chroniken
chronischt
chronist
chronkolony
chronologie
chronologii
chronologisch
chronology
chronos
chroone
chrozige
chru
chrummenau
chruschte
chrysander
chrysanthemum
chryyde
chryz
chs
chscht
chschtabbe
chschte
chschti
chse
chsel
chselwu
chsisch
chsische
chsischen
chsischi
chsle
chslet
chst
chstalemannisch
chste
chsten
chsti
cht
chta
chte
chtem
chten
chter
chtere
chterwaj
chtet
chti
chtig
chtiga
chtige
chtiger
chtigi
chtigkeit
chtigt
chtigte
chtigti
chtigung
chtler
chtleri
chtli
chtlich
chtliche
chtlichi
chtlig
chtlige
chtligi
chtling
chtma
chtnis
chtold
chts
chtsaawalt
chtsawalt
chtschrybig
chtsgschicht
chtsorgan
chtspra
chtsverchehr
chtswisseschaft
chtswisseschafte
chtswu
chtung
chu
chuchi
chuck
chue
chueche
chugle
chum
chumme
chummt
chund
chunde
chung
chunnt
chunnts
chunscht
chunt
chupfer
chupfersta
chupferstich
chur
church
churchill
churer
churra
churz
churze
churzem
churzer
churzes
churzfilm
churzform
churzgschichte
churzi
churzla
chuu
chuugele
chuum
chuurz
chuurzfilm
chwa
chweis
chwys
chza
chzg
chzig
ci
cia
ciba
cicero
cie
cile
cinema
circa
circle
circolo
circus
cirsium
cis
cit
citaro
cite
cities
citroe
citrus
citta
city
civil
civitas
cj
ck
cka
ckblick
ckchen
cke
ckel
ckelt
cken
cker
ckerli
ckert
ckga
ckig
ckige
ckinge
ckingen
ckkehr
ckla
ckle
ckler
ckli
cklich
cklig
cklin
cklung
ckner
cks
cksa
ckschta
cksicht
cksichtigt
cksichtigung
ckt
ckte
cktritt
ckzug
claire
clan
clara
clarendon
clark
clarke
class
classic
classical
classification
claude
claudia
claudio
claudius
claus
clauss
clav
cle
clemens
cleopatra
climate
clinton
clique
clos
clown
club
cluny
cluster
cm
cnrs
co
coa
coast
coat
cobar
coburg
cockpit
cocteau
cod
code
codes
codex
coffrane
cohen
cohn
col
cola
cold
cole
coli
colin
colla
colle
collected
collection
college
collegium
collins
colloquium
colmar
colmarer
colmer
colombier
colonia
colonial
color
colorado
colors
columbia
columbus
com
comasco
combe
come
comedy
comersee
comes
comic
comics
coming
comite
comm
comme
commedia
commission
committee
common
commons
commonwealth
communaute
commune
communes
communication
communis
community
como
compagnie
companion
company
comparative
compilation
complete
complex
computer
comte
comtois
comune
comuni
con
concept
concert
concerto
concise
concordia
conde
condita
confe
conference
conflict
congo
congress
conquest
conrad
conradin
conseil
conservation
constant
constantin
constantius
construction
consulta
contact
contador
conte
contemporary
content
contes
contest
context
continental
contra
contre
control
convallaria
convention
cook
cool
coop
cooper
coors
cop
coray
corbusier
corcelles
cordillera
core
coregonus
corelli
corinth
cornelia
cornelius
cornell
cornwall
corona
coronavirus
corporation
corps
corpus
corrodi
corte
corto
cos
cosmos
cossonay
costa
cot
cotentin
cotta
council
country
county
courage
courcelles
courgenay
cours
court
courtelary
cousin
couverte
covent
cover
covid
craig
crailsheim
cramer
cranko
crans
cre
creative
creek
crew
crime
crisis
critical
critique
croce
croix
cropped
cross
crozon
cruz
cry
crystal
cs
csa
csu
ct
cu
cultura
cultural
culture
cultures
cum
cunego
cuneo
cup
cure
curie
current
curt
curtis
customs
cut
cv
cvp
cycle
cyprien
cœur
d
da
daa
daademit
daadezue
daag
daagsatzig
daal
daam
daame
daar
daargstellt
daarstelle
daarsteller
daarstellig
daarstellige
daarstellt
daas
daate
daatsa
daatsach
daba
dabei
dach
dachau
dachsberg
dachverband
dada
dadaismus
dado
dadurch
daf
dafele
dafle
dafrika
dafu
dag
dagebuech
dagmar
dagobert
dagog
dagogik
dagogische
dagogischen
dagsatzig
dagt
daguerre
daher
dai
daift
daig
dail
dailgnuu
dailna
dailt
dailwys
daily
daimler
daitsch
dakar
dakota
dal
dalai
dalbaan
dalbe
dalbodde
dalcher
dale
dali
dalla
dallas
dalschperre
dalschperri
dalwange
dam
damalige
damaligi
damals
damaskus
damasus
dame
damerika
damian
damit
damm
damon
dampf
dampflok
dampflokomotyv
dampflokomotyve
dampfloks
dampfmaschine
dampfmaschinne
dan
dana
danach
dance
dancehall
dane
dani
daniel
daniela
dank
danke
dann
danne
dans
dante
danton
danz
danze
danzig
danzt
danztheater
daoulas
daphne
dar
dara
dareios
darf
dargestellt
dargschtellt
dargstellt
darin
dark
darkover
darm
darms
darmsta
darmstadt
darod
darschtellig
darschtellt
darstelle
darsteller
darstellig
darstellige
darstellt
darstellung
daru
darum
darwin
das
dass
dasteinstruma
dat
data
database
date
datebank
datei
dateie
daten
datenbank
dath
datierig
datiert
dativ
datsa
datsach
datum
daucht
dauft
dauphine
dauret
dave
david
davis
davon
davos
davoser
day
days
dazu
daß
db
dbadde
dbade
dbaden
dc
dchen
dd
dda
dde
dder
ddere
ddeutsche
ddp
ddr
ddu
de
dea
dead
deal
deam
dean
deana
deane
death
debatte
debi
debii
deborah
debrecen
debu
debussy
deby
december
dechtere
dechterle
deck
decke
decker
decki
deckt
decurtins
dee
deene
deep
deere
deeri
deert
dees
deet
deete
definiere
definiert
definierte
definition
definitione
definitiv
definizion
definizioon
definyrt
defir
defo
defu
dega
degas
degege
degerfelden
degli
deha
dehei
deheim
dehnt
dei
deil
deile
deilgnoh
deilig
deilli
deilna
deilriich
deils
deilschtugg
deilt
deilwiis
deilwis
deilwys
deilwyys
dein
deine
deitsch
deitscha
deitsche
deitscher
deitschland
dekan
dekanat
deklination
dekret
del
delaunay
dele
delegation
delegierte
delhi
deli
dell
della
delle
dello
delphi
delphin
delphine
delta
deluxe
dem
demand
demeter
demit
demm
demo
democracy
democratic
demokra
demokrat
demokrate
demokratie
demokratii
demokratisch
demokratische
demokratischen
demokratischer
demokratischi
demokraty
demonschtrante
demonschtration
demonschtratione
demonstration
den
dena
dene
denebet
denen
deng
denis
denk
denke
denken
denkens
denker
denkma
denkmal
denkmalpflege
denkmalschutz
denkmo
denkt
denn
denne
dennis
denno
dennoch
dennzumol
deno
denoch
denoo
denooch
denswil
dent
denzlingen
departema
departement
department
deportation
deportiert
depot
depression
depuis
der
dera
deraliste
deration
derbi
derbii
derby
derbyy
derdur
dere
derek
deren
derer
derf
derfe
derfel
derfer
derfir
derfu
derga
dergege
derich
dermit
dermuus
dern
derna
derndinger
derno
dernoh
dernoo
derre
derry
ders
dert
derte
dertemol
dertemool
dertige
dervo
dervor
dervu
derwa
derwylscht
derwyyl
derwyylscht
derzit
derzu
derzue
des
descartes
descharnes
deschtlich
desell
desertina
deshalb
desiderius
design
designer
desire
desmo
desmol
despot
despotat
dessau
dessen
dessous
dessus
desto
det
deta
detail
details
dete
detlef
detlev
detroit
dett
deum
deutsch
deutsche
deutschen
deutscher
deutsches
deutschland
deutschlandfunk
deutschlands
deutschsprachige
deutschsprachigen
deutschsprachiger
deutung
deux
devant
development
devi
devil
devise
devo
devon
devoo
devor
devu
devuu
dez
deza
dezamber
deze
dezembe
dezember
dezembr
dezu
dezue
dezuegho
dezwu
deß
dfb
dfg
dfra
dfrankriich
dfrankrych
dfuess
dg
dhang
di
dia
diagnose
diagramm
diakon
diala
diale
dialect
dialectes
dialectologie
dialects
dialekt
dialekte
dialektik
dialektologe
dialektologie
dialektwo
dialetti
dialetto
dialog
diamond
dian
diana
dianthus
diaspora
dibeng
dibenga
dibenge
dich
dichder
dichdig
dicht
dichte
dichter
dichteri
dichterin
dichters
dichtet
dichti
dichtig
dichtr
dichtung
dichtungen
dick
dicke
dickens
dicki
dictionary
dictionnaire
dicziunari
did
didier
die
dieb
diederichs
dief
diefe
diefebeni
diefer
diefere
diefi
diefland
diefscht
diefst
diego
diei
diej
diela
dielsdorf
dien
diene
diener
dienet
dienge
dienscht
dienst
dienste
dienstla
dient
dier
dierarte
dierer
dierwa
dies
diese
diesem
diesen
dieser
dieses
dieter
dieth
diethelm
dietike
dietmar
dietrich
dietz
dieu
dieuze
differa
differenz
differenzialgliichige
diftong
dig
dige
diger
digital
digitale
digitali
digitalisaat
digitalisat
digitalisierig
digitalisierte
digitalisierti
digt
digung
diha
dii
diibenga
diibenger
diitsch
diitscha
diitschla
dijon
dikrech
diktator
diktatur
dill
dille
dillier
dillinga
dimension
dimensione
dimitri
din
dinaschty
dine
diner
ding
dinge
dingen
dinger
dinkelberg
dinn
dinne
dino
dinosaurier
dio
diogenes
diokletian
dion
dione
dionysos
dioskure
diphthong
diphthongierig
diplom
diplomat
diplomate
diplomatisch
diplomatische
diplomatischi
dir
dira
dirac
dire
direkt
direkte
direkti
direktor
direktorium
direktr
diriga
dirige
dirigent
dirk
dis
disa
disch
discha
dische
dischen
discher
disches
dischi
dischpetiert
dischtanz
dischtrikt
discovery
dise
disellokomotyve
disentis
disi
diskografi
diskografii
diskografy
diskriminierig
diskurs
diskussion
diskussione
diskutiert
disney
diss
dissertation
dissertazioon
distanz
distanze
distel
distretto
distribution
district
distrikt
disziplin
diszipline
dit
ditalie
ditel
ditelblatt
dition
ditionell
ditions
dits
ditsch
ditscha
ditsche
ditscher
ditschi
ditschla
ditschland
ditzingen
diva
diverse
diversi
diversity
division
diz
dizionario
dj
dkorea
dkurier
dkuryr
dl
dla
dle
dlech
dleche
dler
dli
dlich
dliche
dlichen
dlicher
dlichi
dlig
dliga
dlige
dligi
dling
dm
dmc
dmg
dmitri
dn
dna
dnepr
dnigi
dnvp
do
doa
doarobiro
dobei
dobel
doc
doch
dochder
dochter
doctor
documenta
documents
dod
dode
dodebi
dodeby
dodefu
dodemit
doderby
doderbyy
doderdur
doderfir
dodermit
doderno
dodervo
dodervu
doderzue
dodesopfer
dodevo
dodezu
dodezue
dodin
dodmol
dodra
dodrin
dodrmit
dodruf
dodrunter
dodrus
dodrzue
dodtmis
dodur
dodurch
dog
doge
dogon
doha
doher
doi
doig
doil
dokter
doktor
doktr
doku
dokuma
dokument
dokumentarfilm
dokumentation
dokumente
dokumenten
dokumentiert
dold
dolder
dole
dollar
dollfus
dolmen
dom
doma
domain
domains
domat
dome
domenico
domestica
domi
dominanz
domingo
dominiere
dominiert
dominik
dominikaner
dominique
domino
domit
domitian
domkapitel
domleschg
domodossola
domolig
domolige
domols
domoolige
dompierre
don
dona
donald
donat
donau
donaudal
donaudalbaan
donaueschinge
donaueschingen
donaueschinger
donauwo
done
donizetti
donna
donne
donner
donnergott
donnschtig
doo
doochter
dood
doodrzue
doon
door
doorf
doorff
doors
doorum
doote
dootedanz
dooti
doozmaal
doozmool
doppel
doppelschiibe
doppelt
doppelte
dopplet
dopplete
dor
dora
dore
dorf
dorfbach
dorfcha
dorfchile
dorfer
dorfes
dorfplatz
dorfrand
dorfza
dorfzentrum
doris
dorische
dorn
dornach
dornbirn
dorneck
dornier
dornro
dorothea
dorothee
dort
dortmund
dorum
dos
doschte
dossier
dost
dostasie
doste
dosteuropa
dot
dotal
dote
doteda
doti
dotiert
dotmis
dotzed
dou
douard
double
doubs
douglas
dover
down
download
doza
dozmol
dozmool
dp
dpol
dr
dra
draa
draaibuech
dracha
drache
dradition
draditiona
draditione
draditionelle
dradizion
dradiziona
dradizionell
dradizionelle
dradizionelli
dradizioon
dradizioone
drage
drago
dragon
drai
drait
drake
dram
drama
dramatiker
dramatische
dramatischi
dramaturg
dramaturgie
drame
drand
dranse
dransport
drauf
draum
draus
drbei
drbi
drbii
drby
dre
dream
dreams
dreck
dreger
drehbuach
dreher
dreht
drei
dreieck
dreiegg
dreier
dreihundert
dreila
dreimol
dreisam
dreisee
drej
dren
drennig
drennt
dresda
dresde
dresden
dresdner
drey
dreyer
dreyfus
drfir
drfu
drg
drgeege
drgege
drhoim
dri
dribe
driber
dridda
dridde
driddel
drifft
drii
driibe
drillt
drin
dringend
drinke
drinkwasser
drinn
drissig
drissigja
drissigjo
dritt
dritte
drittel
dritten
dritter
drittgro
dritti
dritts
driza
drmit
drna
drno
drnoch
drnooh
dro
droche
droemer
droffe
droge
droht
droit
drom
dromm
dron
droon
droot
drosera
droste
drotz
drotzda
drs
dru
drubbe
druck
drucke
druckene
drucker
druckerei
druckezyt
druckt
druf
drufabe
druff
druffabe
druffhy
drugg
drugge
druggt
drum
drumbeete
drumbeeter
drumm
drummle
drumume
drunder
drunter
druppe
druppen
drus
drusus
druuf
druus
drvo
drvoo
drvor
drvu
dry
drybfaarzu
drybwa
drybwage
dryden
dryssg
dryssgjehrige
drzu
drzua
drzue
drzuechoo
drzuegho
ds
dsc
dscha
dschi
dschibuti
dschingis
dschwarzwald
dsee
dsite
dsudan
dsyte
dt
dta
dte
dtebuch
dtebundes
dter
dtetages
dtirol
dtiroler
dtische
dtischen
dtischer
dtischi
dtle
dtli
dtpartnerschafte
dts
dtv
du
dua
duad
dual
duat
dub
dubai
dubak
dublin
duchamp
duden
due
dued
duell
duene
duet
duett
dufer
dufour
dui
duisburg
duke
duldet
dum
dumont
duna
dunant
duncker
dunkel
dunkelheit
dunkle
dunkler
dunkli
dunkt
dunnel
dunschtig
duo
dur
dura
durab
durbach
durch
durchbruch
durchfu
durchga
durchgangsbaanhof
durchgesehene
durchma
durchmesser
durchquert
durchs
durchschnitt
durchschnittlich
durchschnittlig
durchuus
dure
duregfiert
duregfu
duregsetzt
duresetze
durezsetze
durga
durgangsbahnhof
durgfiert
durgsetzt
durich
during
durlach
durm
durma
durmesser
durnier
durre
durs
durschnitt
durschnittli
durschnittlige
durscht
dursetze
dusse
dutch
duttlinga
duttlinge
duube
duur
duure
duuregfu
duuregsetzt
duuresetze
duuret
duurhaft
duurt
duusig
duusigi
dva
dvd
dvds
dverlag
dvor
dvp
dwa
dwalser
dwescht
dweschtdu
dweschte
dweschtlech
dweschtlich
dweschtliche
dwest
dwestdeutschland
dweste
dwesten
dwestlig
dy
dydsch
dydschland
dylan
dynamik
dynaschdii
dynaschtii
dynastie
dynastii
dynasty
dyr
dytli
dytlig
dytlige
dytligi
dytsch
dytsche
dytscher
dytschi
dytschland
dytschsprochige
dz
e
ea
ean
earl
early
earth
east
eastern
easy
eau
eb
eba
ebba
ebbe
ebbes
ebbis
ebd
ebe
ebefalls
eben
ebene
ebeni
eber
eberhard
eberle
eberler
ebert
ebeso
ebig
ebige
ebis
ebli
ebnet
ebni
ebo
ebola
ebook
ebringe
ebringen
ebringer
ebt
ech
echa
echallens
eche
echer
echli
echnaton
echo
echstabe
echt
echte
echter
echterdingen
echti
echtland
eck
eckardt
eckart
ecke
eckert
eckhard
eco
ecole
econ
economic
economy
ecuador
ed
eda
edd
edda
eddie
eddy
ede
edel
edelweiss
eden
edena
eder
edere
ederswiler
edgar
edi
edikt
edinburgh
edison
edit
edited
edith
edition
editions
editore
edizioni
edle
edmond
edmund
edouard
eds
edu
eduard
education
edv
edvard
edward
edwin
ee
eebeni
eegne
eemoolige
eender
eener
eer
eere
eeredokter
eeremitgliid
eerige
eerscht
eerschte
eerschti
eerschtu
eerstain
eeschtryych
eewafa
ef
efe
effe
effekt
effentlige
effentligkeit
effetli
effetlige
effetligi
effetligkait
effizia
efig
efige
efrige
efringen
eft
efta
eg
ega
egal
ege
eger
egg
egge
egger
egginge
eggingen
egho
egig
egino
egk
egli
eglisau
eglise
egmont
egon
egressive
egschnitte
egt
egu
egypt
egypte
egyptian
eh
ehama
ehc
ehe
ehefrau
ehem
ehemalig
ehemalige
ehemaligen
ehemaligi
ehemo
ehemolegi
ehemolig
ehemolige
ehemoligi
ehemoligs
ehemols
ehemoolige
ehemooligi
ehemooligs
ehepaar
eher
ehere
ehi
ehige
ehinge
ehinger
ehje
ehl
ehlig
ehm
ehma
ehmalige
ehmolegi
ehmolig
ehmolige
ehmoligi
ehmt
ehmte
ehn
ehnder
ehne
ehner
ehnere
ehni
ehr
ehra
ehre
ehrebu
ehreburger
ehremitglid
ehren
ehrende
ehrendi
ehrer
ehres
ehrestette
ehret
ehri
ehrig
ehrige
ehrlich
ehronga
ehrt
ehrte
eht
ehud
ei
eich
eichberg
eichborn
eiche
eichendorff
eicher
eichhorn
eichsta
eid
eidgeno
eidgenosse
eidgenossenschaft
eidgenosseschaft
eidgno
eidgnosse
eidgnosseschaft
eidu
eier
eifach
eifache
eifacher
eifachi
eifachs
eifel
eige
eigeheite
eigena
eigene
eigenen
eigener
eigeni
eigentlech
eigentlich
eigentliche
eigentlig
eigenverlag
eiger
eiges
eigeschafte
eigesta
eigete
eigeti
eigetli
eigetlich
eigetlig
eigets
eigetum
eigne
eignes
eignet
eigni
eignigs
eiheit
eiheite
eiheitsstaat
eim
eimol
ein
eina
eine
einem
einen
einer
einere
einersits
eines
einewa
einfach
einfluss
einfu
eingeleitet
eingleisige
einhard
einheit
einheite
einheitlich
einheitliche
eini
einig
einige
einigen
einiger
einigi
einigsmeischter
einigung
einisch
einleitung
einmal
eins
einsame
einsatz
einsidle
einsiedeln
einst
einstein
einsteins
eint
einte
eintrag
einwohner
einzel
einzelho
einzeln
einzelnachweise
einzelnachwiis
einzelnachwys
einzelne
einzelnen
einzelni
einzelno
einzelnochwiis
einzelnochwis
einzelsproch
einzelzitfahre
einzig
einzige
einzigi
einzigs
eire
eiropa
eis
eischeme
eischemto
eisen
eisenbahn
eisenbahnen
eisenstein
eisidle
eiwohner
ej
eje
eji
ek
eka
ekd
ekkehard
ekliptik
ekschterni
ekwiwala
el
ela
elai
elb
elba
elbe
ele
eleanor
electric
electronic
elegtrisch
elegtrische
elegtrischi
elegtrone
elegtronische
elegtronischi
elegtrotechnig
elei
elektra
elektrisch
elektrische
elektrischi
elektrischs
elektrizita
elektro
elektrodu
elektrodynamik
elektromagnetische
elektromagnetischi
elektron
elektrone
elektronik
elektronisch
elektronische
elektronischi
elektrotechnik
elema
element
elementarda
elementare
elemente
elena
eleonore
eler
elera
elf
elfeba
elfebeikischte
elfi
elfriede
elfte
elgg
eli
elias
elifant
elifante
elig
elima
elinge
elis
elisa
elisabeth
elisabetta
elise
elite
elizabeth
elke
ell
ella
ellai
elle
ellei
ellen
eller
ellermann
ellesmere
ellipse
ellis
ellwa
elmar
eloy
els
elsa
elsaesser
elsass
elsasser
elsassisch
elsassischa
elsassische
elsassischer
elsassischi
elsaß
else
elser
elsevier
elsgau
elsis
elsiss
elster
elt
elter
eltere
elteri
eltern
eltischt
eltischte
eltischti
eltist
eltiste
eltisti
eltra
eltre
eltscht
eltschte
elvira
elvis
elz
elzach
elzdal
elze
elztal
em
ema
emaal
emal
emanuel
emanzipation
embrach
embryo
eme
emen
emene
emi
emigrant
emigration
emigriert
emil
emile
emilia
emilie
emilio
emily
emir
emirat
emission
emli
emm
emma
emmanuel
emme
emmedinge
emmendingen
emmer
emmr
emmy
emne
emol
emool
emperor
empfa
empfange
empfangsgeba
empfohle
empfunde
empire
empirische
empo
empore
ems
emt
emte
emti
emtiste
en
ena
enand
enander
enceladus
encyclopaedia
encyclopedia
encyclopædia
end
ende
endeavour
endemisch
ender
endet
endgu
endi
endig
endingen
endlich
ends
endschandre
ene
enem
enenga
ener
enere
energi
energie
energii
energy
eneri
enerig
enerige
enfants
eng
engadin
engadiner
engagement
engagiert
engaschiert
engaschma
enge
engel
engelberg
engelhardt
engelmann
engels
engi
engine
engineering
engl
engla
england
engler
englisch
englische
englischen
englischi
english
enhaut
eni
enke
enkel
enklave
enn
enne
enner
enorm
enormi
enrico
ens
enseignement
ensemble
enstande
ent
enta
entdecke
entdecken
entdecker
entdeckig
entdeckige
entdeckt
entdeckung
entdeggt
entente
enterprise
entertainment
entfa
entfe
entfernig
entfernt
entfu
entgege
entha
enthaalte
enthaaltet
enthalte
enthaltet
enthu
entla
entlang
entlebuch
entloo
entmachtet
entre
entremont
entru
entrundig
entscha
entschaidig
entschdande
entscheid
entscheide
entscheidend
entscheidende
entscheidet
entscheidig
entscheidige
entscheidung
entschidde
entschide
entschiide
entschlosse
entschpre
entschpricht
entschpringt
entschtande
entschtehig
entschto
entspra
entspre
entsprechend
entsprecht
entspricht
entspringt
entsproche
entsta
entstanda
entstande
entstanden
entstandene
entstehig
entstehn
entsteht
entstehung
entsto
entstoh
entstoht
entstoo
entstoot
entwa
entwedder
entweder
entwi
entwickelt
entwickle
entwickler
entwicklet
entwicklete
entwicklig
entwicklige
entwicklung
entwicklungen
entwiggle
entwigglet
entwigglig
entworfe
entwu
entwurf
entzoge
entzu
environment
environmental
enz
enzchrais
enzian
enzwischa
enzyklopa
enzyklopedii
enzym
eos
ep
epfe
epfel
ephesos
ephraim
epidemy
epik
epiker
epirus
epische
episod
episode
epoche
epos
eppa
eppe
eppeberg
eppingen
epple
eps
eptige
equatorialginea
equisetum
er
era
eragon
eraignis
erasmus
erb
erbaut
erbe
erben
erbfolgchrieg
erbse
ercha
erchennbar
erchenne
erchennt
erchla
erchle
erda
erdbebe
erde
erden
erdgas
erdmo
erdmond
erdo
erdoberfla
ere
erec
ereffnet
ereignis
ereigniss
ereignisse
erem
eren
erende
erendi
erer
eres
eretz
erfaare
erfaarig
erfaarige
erfahre
erfahrig
erfahrige
erfahrt
erfahrung
erfahrungen
erfasst
erfehrt
erfillt
erfinder
erfindig
erfindige
erfindung
erfolg
erfolge
erfolglos
erfolgrich
erfolgriich
erfolgriiche
erfolgriichste
erfolgrych
erfolgryche
erfolgryych
erfolgt
erforderet
erforderlich
erforderliche
erforsche
erforschig
erforscht
erforschung
erfu
erfunde
erfurt
erg
erga
ergebnis
ergebniss
ergebnisse
ergee
ergit
ergo
ergolz
ergriffe
erha
erhaalte
erhalde
erhalt
erhalte
erhalten
erhaltene
erhalteni
erhaltig
erhard
erhebig
erhebige
erheblich
erhebt
erho
erhobe
erholt
erhoobe
eri
eric
erich
erig
erige
erik
erika
erinnere
erinneret
erinnerig
erinnerige
erinnert
erinnerung
erinnerungen
eritrea
erjeng
erka
erke
erkennbar
erkenne
erkennt
erkenntnis
erkenntniss
erkennungsnumme
erkla
erklert
erla
erlach
erlange
erlangen
erlangt
erlass
erlaube
erlaubnis
erlaubt
erle
erlebach
erlebnisse
erlebt
erledigt
erlenbach
erlitte
erlo
erloo
erlu
erma
ermatinge
ermittlet
ermo
ermorde
ermordet
ermordig
ermordung
erna
ernannt
erne
ernehrig
ernennt
ernest
ernesto
erneueret
erneuerig
erneut
erni
erno
ernst
ero
erobere
eroberer
eroberet
eroberig
erobert
eroberung
eroobere
erooberet
erooberig
erosion
erotische
erpe
erra
erraicht
erreger
erregig
erregt
erreichbar
erreiche
erreicht
errichdet
errichte
errichtet
errichtig
errunge
ers
ersatz
ersch
erschaffe
erschd
erschda
erschde
erschdi
erscheint
erschiene
erschienen
erschiine
erschiinig
erschiint
erschine
erschint
erschlie
erschlosse
erscho
erscht
erschta
erschte
erschten
erschter
erschti
erschtmals
erschtmol
erschtmols
erschtr
erschts
erschtstimme
erschu
erschyne
erschynt
erschyynd
ersetze
ersetzt
erst
erstausgabe
erstdruck
erste
erstein
erstellt
ersten
erster
erstes
ersti
erstmals
erstmols
erstreckt
ersts
erstusgoob
ert
erteilt
ertra
erw
erwa
erwachsene
erwaggsene
erwarte
erwartet
erweiterte
erwiiteret
erwin
erwise
erwitere
erwiteret
erwiterig
erworbe
erwu
erwyteret
erza
erzbischof
erzbischtum
erzbistum
erzherzog
erziehig
erziehung
erziejig
erzu
es
esa
esch
escha
eschach
eschbach
eschbe
esche
eschebach
eschedaal
eschenbach
escher
eschinge
escht
eschte
eschti
eschtland
eschtli
eschtlich
eschtlig
eschtlige
eschtrich
eschtrych
eschtrychisch
eschtrychische
eschtryych
ese
esel
esinge
eskaliert
eso
esoo
esotheerik
espace
espan
esperanto
esposizione
ess
essa
essai
essay
essays
esse
essen
esser
esserblatz
esserkiirche
esseyist
essi
essig
essleng
esslenga
esslenge
esslinge
esslingen
esst
esswasserfisch
est
estavayer
este
estet
esther
esti
estland
estnisch
et
eta
etabliere
etabliert
etappe
etappera
etapperenne
etc
ete
eter
eterzu
etet
etezit
eth
ethik
ethiopia
ethiopie
ethiopisch
ethiopische
ethni
ethnie
ethnisch
ethnische
ethnischi
ethnolog
ethnologue
eti
etienne
etig
etige
etliche
etlichi
etrusker
etruskische
etruskischi
etsch
ettenheim
etter
ettikon
ettlinge
ettlingen
ettringe
etu
etudes
etwa
etwas
etymologie
etymologii
etymologisches
etz
etzel
eu
eubo
euch
euge
eugen
eugene
eugenio
eukaryote
euklid
euklidische
eulenspiegel
euler
euphonium
euphorbia
euphrat
eur
eurasie
eure
euripides
euro
europa
europacup
europaea
europamaischterschaft
europameischterschaft
europas
europawahl
europe
european
eurovision
euryanthe
eurypontide
eusebius
eutinge
ev
eva
evakuiert
evaluer
evangelisch
evangelischa
evangelische
evangelischen
evangelischer
evangelischi
evangelium
evans
eve
eveline
event
eventuell
everest
every
everything
evidence
evil
evo
evolution
evp
ew
ewa
ewald
ewe
eweg
ewegg
eweng
ewig
ewige
ewigen
ewigkeit
ex
exakt
exakti
excel
exchange
exekutive
exemblaar
exemplar
exhibition
exil
exischta
exischtiert
exischtyre
exischtyrt
exista
existenz
existiere
existiert
exklave
exkommuniziert
expa
expansion
expedition
expedizioon
experima
experiment
experimentelle
explizit
explorer
explosion
expo
export
exportiert
exposition
expre
express
expressionismus
exta
externa
externi
externstai
extra
extreem
extrem
extreme
extremi
exzentrizita
eye
eyes
eyth
ez
eß
f
fa
faane
faarbaan
faarblaan
faardie
faare
faarga
faart
faarte
faartrichtung
faarwa
faarzit
faarzu
faase
faber
fabian
fabrigg
fabrigge
fabrik
fabrikant
fabrike
face
facebook
fach
fachgebiet
fachhochschuel
fachhochschule
fachhoochschuel
fachlu
fachschuel
fachwa
fachzertifikaat
factbook
facto
facts
faesch
fagott
fahne
fahr
fahre
fahrer
fahret
fahrga
fahrplan
fahrrad
fahrt
fahrzu
faido
fair
faire
faksimile
fakte
fakten
faktisch
faktor
faktore
fakulta
fakulteet
fakultet
fakultete
falk
falke
falkesta
fall
falle
fallen
falls
fallt
falsch
falsche
falschi
falte
falter
fame
famili
familia
familie
familien
familienaame
familiename
familienname
famillie
family
fan
fang
fange
fangt
fankhauser
fanny
fans
fanschter
fantasie
fantasy
faou
far
faraday
farb
farbe
farben
farbig
farbige
farbigi
farbstein
fare
farm
farmer
farn
farnsahseria
farnsburg
fasch
faschd
faschismus
faschiste
faschistische
faschistischi
fascht
fasna
fasnacht
fasnachts
fasnet
faso
fass
fassaade
fassade
fasse
fassena
fassig
fassige
fassong
fasst
fassung
fast
fastnacht
faszination
fatah
father
fatimide
fatio
fauna
fauscht
faust
favorite
favre
fayard
faz
fazzini
fb
fbp
fc
fca
fcaugsburg
fcb
fd
fdigt
fdp
fe
fealdkirch
feat
feature
featuring
feb
febber
februar
fechter
federal
federation
federe
federer
federica
federico
fee
feel
feelt
fehde
fehler
fehlt
fehr
feier
feiert
fein
feind
fekt
fektur
fel
feld
feldberg
feldeffe
felder
feldherr
feldis
feldkirch
feli
felice
felipe
felix
fell
fellbach
fellow
fellt
fels
felse
felsen
felswa
felswand
female
femme
femmes
fen
fend
fenda
fendet
fenf
fenin
fenomeen
fenschter
fenster
fer
ferderig
ferdich
ferdinand
fere
ferenc
ferie
ferli
fermi
fern
ferna
fernand
fernando
ferne
ferner
fernrohr
fernsa
fernseh
fernseha
fernsehen
fernsehfilm
fernsehserie
fernsehserii
ferrara
ferrari
fers
fertig
fertiggstellt
fescht
feschte
feschtghalte
feschtglait
feschtglegt
feschtgleit
feschtgsetzt
feschtgstellt
feschti
feschtig
feschtige
feschtival
feschtland
feschtspiil
feschtung
fest
feste
festgabe
festgla
festglegt
festgleit
festgnoo
festgstellt
festi
festig
festige
festival
festko
festland
festschrift
festspiele
festspiil
fett
feudalhe
feudalismus
feuer
feyerabend
ff
ffa
ffe
ffel
ffem
ffende
ffentlecht
ffentlich
ffentliche
ffentlichen
ffentlichi
ffentlichkeit
ffentlicht
ffentlichung
ffentlichungen
ffentlig
ffentliga
ffentlige
ffentligi
ffentligka
ffentligt
ffentligung
ffer
ffet
ffi
ffig
ffige
ffiger
ffike
ffler
ffne
ffnet
ffnig
ffnige
ffnung
fft
ffu
fh
fi
fia
fichte
fiction
fide
fidel
fiderisch
fidschi
fidula
fie
fieber
fiedler
fiehrt
field
fields
fier
fiere
fierer
fierig
fiert
fietz
fifa
fig
fige
figer
figschte
figste
figu
figueres
figur
figura
figure
figuren
figureschiibe
figuur
figuure
fihrt
fii
fiir
fiirdig
fiire
fiirigange
fiirscht
fiirschteduum
fiirtig
fiktion
fiktive
fiktivi
filbinger
filderstadt
file
files
filiale
filippo
filisur
fille
film
filmbryys
filmda
filmditel
filme
filmfeschtspiil
filmmacher
filmmusik
filmografii
filmografy
filmregisseur
films
filology
filoloog
filosof
filosofii
filosofische
filosofischi
filosofy
filosoof
fils
filter
fimf
fimft
fimfte
fin
fina
final
finale
finanz
finanze
finanzia
finanziell
finanzielle
finanzielli
finanziere
finanzierig
finanziert
finanzminischter
finanzminister
finck
find
finde
finded
finden
findet
findling
findt
fine
finger
finiste
fink
finke
finn
finnisch
finnische
finnland
finno
finschternis
finsternis
fir
fire
firefox
firenze
firigange
firma
firme
firmene
firs
firscht
firschte
firschteba
firschtedum
firschtetum
first
fis
fisch
fischarte
fischbach
fische
fischer
fischerei
fischma
fishes
fitzgerald
five
fix
fl
fla
flach
flache
flachi
flachland
flachs
flagge
flags
flaisch
flamenco
flamm
flammarion
flamme
flandere
flanke
flash
flavio
flavius
fle
fleche
flechene
flechi
flechine
fleck
flecke
fleisch
fleischer
flensburg
fler
flerland
fli
flia
fliche
flichte
flichtling
flie
fliege
fliegen
fliegt
fliesse
fliessend
fliesst
fließe
fließt
flige
fligel
fliger
flight
flims
fliss
flitz
flo
flora
florence
florenz
florestan
florian
florida
florin
flosse
flotte
flu
flucht
flue
fluerna
fluername
fluet
flug
flugblatz
fluggsellschaft
flugha
flughaafe
flughafe
flughafen
flughaffe
flugplatz
flugunfa
flugzu
flums
flur
flurna
flurname
flurnamen
fluss
flussbett
flusslauf
flusspfa
fluß
fly
fm
fn
fnaame
fo
focus
fokus
folg
folga
folge
folgen
folgenda
folgende
folgendes
folgendi
folget
folgt
folk
folklore
folkwang
folter
fom
fondation
fonds
fonogrammarchyv
fontaine
fontaines
fontana
fontsize
food
foorme
foorschig
foot
football
for
fora
forbach
forbes
force
forces
ford
fordere
forderet
forderig
forderige
fore
foreign
forest
forever
forges
form
forma
formal
formale
formali
format
formation
formatione
formazza
forme
formel
formell
formelzeiche
formen
formle
formosus
formsignaal
formulierig
formuliert
forsche
forscher
forschig
forschige
forschigsstell
forscht
forschung
forschungen
forst
forster
fort
forte
fortgsetzt
fortis
fortschritt
fortsetzig
fortsetzung
forum
fossey
fossil
fossilie
fotene
foti
foto
fotograf
fotografie
fotografien
fotografii
fotos
fouesnant
foundation
foundations
four
fox
fp
fpo
fr
fra
frac
frag
frage
fragen
fragma
fragment
fragmente
frai
fraidestadt
fraktion
fraktione
fraktionsvorsitzer
fraktionsvorsitzeri
frakzion
frakzioon
framed
franc
franca
france
francesca
francesco
franche
francis
francisco
franck
francke
franckh
franco
francoprovenc
francorum
francs
frangfurt
frangfurter
frank
franke
franken
frankeriich
frankfurt
frankfurter
franklin
frankoprov
frankoprova
frankoprovenzalisch
frankoprovenzalische
frankreich
frankreichs
frankrich
frankriich
frankrych
frankryych
franz
franzeesch
franzeesche
franzeesisch
franzeesischa
franzeesische
franzesisch
franzesische
franzesischi
franziska
franziskaner
franziskus
franzo
franzoos
franzoose
franzos
franzose
franzosen
frau
fraua
fraue
frauefa
frauefeld
frauen
frauenfeld
frauera
frauestimmra
fraumo
fraunhofer
fraxinus
fre
fred
freddie
freddy
frederick
frederik
fredi
fredy
free
freedom
freetown
frei
freia
freiamt
freiba
freiberg
freibue
freiburg
freiburger
freid
freie
freiebach
freiem
freien
freier
freiga
freigloo
freigsetzt
freiha
freihait
freiheit
freiheitska
freiherr
freiherre
freii
freije
freiji
freimuurer
freind
freindschaft
freis
freischa
freischu
freising
freisinnige
freistaat
freitag
freiwillig
freiwillige
freiwilligi
freizeit
freizyt
frej
freje
freji
frekwa
fremd
fremda
fremde
fremden
fremdi
fremdwo
french
freque
freshwater
freske
fresko
fresst
freud
freude
freudenberg
freund
freunde
freundschaft
frey
freyja
freyr
fri
fria
friaul
fribourg
friburg
friburger
fricht
frick
frickdaal
frickingen
fricktal
frida
friday
fride
fridhof
fridhoof
fridolin
fridrich
fridrichshafe
frie
fried
frieda
friedberg
friede
friedel
friedemann
frieden
friedens
friederike
friedhelm
friedhof
friedli
friedrich
friedrichshafen
friegschicht
frieher
friehere
friehjohr
friehner
frieje
friejer
friejere
frieji
friejohr
friend
friends
friener
fries
friese
friher
friiburg
friiburger
friide
friidensverdraag
friidensverdrag
friidho
friidhof
friidhoof
friili
frikativ
frisch
fritig
fritz
fritzle
fritzli
fro
froben
frobenius
frodo
frog
froge
frogeboge
frogebuech
frogt
froh
frohburg
from
fromm
fromme
frommi
front
fronte
froog
frooge
froogebeege
froogeboge
froogebooge
frosch
froschlurch
frost
frou
froubrunne
froue
fru
frucht
fruchtbar
fruchtbare
frutige
frutigen
fry
frybu
fryburg
fryburger
frynd
fryybeg
fryybeger
fryybu
frz
fs
fschaft
fschte
fschti
ft
fta
fte
fter
fters
ftet
fti
ftig
ftige
ftiget
ftigt
ftigung
ftler
ftling
ftsfierer
ftsfiereri
ftsfu
ftshuus
ftsmaa
ftstrom
ftswa
ftwark
fu
fuaß
fuaßnoda
fuaßnota
fuchs
fue
fuess
fuessball
fuessballer
fuessballspiiler
fuessballspiler
fuessga
fuessnoote
fuessnote
fuesswa
fueß
fueßball
fueßballspiiler
fueßballspiler
fueßnote
fueßnotte
fufza
fufzig
fuge
fuhrmann
fukushima
fulbe
fulda
full
fuller
fun
fund
fundama
fundament
fundamentale
funde
fundort
fung
fungiert
fungtion
funk
funke
funktion
funktiona
funktione
funktionen
funktioniert
funkzion
funkzione
funkzioniere
funkzioniert
funkzioon
funkzioone
furche
furrer
furt
furtgsetzt
furtpflanzig
furtwa
furtwange
fusion
fusione
fusioniere
fusioniert
fustanella
futur
future
fuule
fuuse
fuß
fußball
fycht
fyr
fyre
fyrtig
fyyr
fyyrtig
fzg
fzv
g
ga
gaa
gaade
gaar
gaarde
gaarte
gaas
gaat
gaats
gab
gabe
gabi
gabler
gabriel
gabriela
gabriele
gabun
gad
gaddafi
gaga
gaggenau
gah
gaht
gai
gaignet
gainigt
gais
gaischtlige
gaist
gaius
gal
gala
galater
gale
galerie
galerii
galge
galila
galilei
galileische
galileo
galizie
gall
galla
galle
gallen
galler
gallery
galli
gallia
gallie
gallier
gallimard
gallisch
gallische
gallischi
gallo
galloromanische
gallus
gama
gambarogno
gambia
game
games
gamma
gams
gan
gandalf
gandhi
gang
ganga
gange
gangen
ganges
ganget
gans
ganter
gantertschwil
ganymed
ganz
ganza
ganze
ganzen
ganzes
ganzhorn
ganzi
gaon
gar
garantiert
garci
garda
gardasee
garde
garden
gare
garibaldi
garmisch
garn
garnison
garonne
garrett
garte
garten
gary
gas
gasastra
gascht
gaschthof
gaschthuus
gasfo
gass
gasse
gasser
gast
gaster
gaston
gate
gattig
gattige
gattung
gatu
gau
gauchat
gauck
gaudenz
gaudi
gauguin
gauleiter
gaulle
gaume
gauß
gawiller
gay
gaza
gb
gbagbo
gbar
gcha
gchaa
gchauft
gcheert
gcheerunt
gcho
gchrent
gchro
gchru
gchu
gd
ge
gea
geb
geba
gebe
gebei
gebej
geben
gebet
gebhard
gebhardt
gebi
gebia
gebiat
gebie
gebiet
gebiete
gebietsko
gebietsreform
gebiit
gebiite
gebirg
gebirge
gebirgsgruppe
gebirgszug
gebo
gebora
gebore
geboren
geborene
geboreni
gebot
gebr
gebracht
gebrauch
gebru
gebruch
gebruuch
gebu
geburt
geburtsdaag
geburtsdag
geburtshuus
geburtsort
geburtsstadt
geburtstag
ged
geda
gedanke
gedankeguet
gedanken
gedenken
gedenksta
gedi
gedicht
gedichtba
gedichtband
gedichte
gedichten
gedichter
gediicht
gedra
gee
geega
geege
geegesatz
geegesta
geegestand
geegewart
geel
geen
geert
gefa
gefahr
gefu
gefunden
geg
gega
gege
gegen
gegend
gegende
gegenenander
gegeniber
gegeno
gegenu
gegenwa
gegenwart
gegepapscht
gegesa
gegesatz
gegesitig
gegesta
gegestand
gegewa
gegewart
gegezug
gegner
gegnerische
gegnerischi
gegnig
gegnige
gegru
geh
geha
gehaite
gehalten
geheime
geheimnis
geheit
geheite
gehen
gehn
geho
gehrt
geht
geid
geids
geier
geiger
geignet
geinigt
geischt
geiser
geisinge
geislingen
geiss
geissblia
geist
geister
geistes
geisteswissenschaften
geistige
geistliche
geistlige
geistliger
geit
geits
geiß
geißler
geje
geku
gel
gela
gelb
gelbe
gelberg
geld
gele
gelehrten
gelesen
gelhorn
geli
geliebte
gelig
gelland
gellert
gelt
gelte
geltet
gem
gema
gemacht
gemeind
gemeinde
gemeinden
gemeindenamen
gemeinderatswahlen
gemeindetages
gemeindevera
gemeindeveraenderungen
gemeine
gemeiner
gemeinnu
gemeinsam
gemeinschaft
gemmingen
gemu
gen
genannt
genannte
genannti
genau
genauer
genaui
genauso
gend
gende
gender
gene
genealogie
genera
general
generaldirektor
generalsekreta
generalversammlig
generation
generatione
generazioon
generazioone
genere
generell
generoso
genesis
genetik
genetisch
genetische
genetischi
geneveys
genf
genfer
geng
gengenbach
geni
genie
genitiv
genius
genocide
genom
genre
gensburg
genscher
gent
gentiana
gentlig
genu
genua
genug
genus
genzburg
geo
geobot
geobreizh
geoda
geoffrey
geogra
geograf
geografi
geografie
geografii
geografisch
geografische
geografischi
geografy
geograph
geographi
geographic
geographie
geographii
geographisch
geographische
geographischi
geography
geolog
geologi
geologie
geologii
geologisch
geologische
geologischi
geology
geometrie
geometrii
geometrisch
geometrische
geometrischi
geometry
georg
george
georgen
georges
georgia
georgie
gepa
geppenga
geppenge
ger
gera
gerade
gerald
gerard
gerbel
gerber
gerbert
gerbt
gerd
gere
gerechtigkeit
geret
gerfa
gerhard
gerhardt
gerhart
geri
gericht
gerig
gerlach
germ
germaane
germain
german
germane
germanen
germania
germaniae
germanica
germanicus
germanie
germanisch
germanische
germanischen
germanischi
germanischt
germanischtik
germanistik
germanistische
germany
gern
gernot
gero
gerok
gerold
geroldseck
gerra
gersau
gerste
gerster
gerstner
gert
gertrud
gerund
gerundium
gerwig
ges
gesa
gesagt
gesammelt
gesammelte
gesamtausgabe
gesamtregister
gesamtschule
gesang
gesatz
gescha
geschburg
geschicht
geschichte
geschichten
geschichtliche
geschichtsverein
geschichtswissenschaft
geschlecht
geschrieben
gescht
gesehen
gesellschaft
gesellschaften
gesetz
gesetze
gesicht
gesichter
gespra
gesprochen
gessler
gessner
gesta
gestalt
gestalten
gestaltung
gestapo
gestern
gestorben
gesunde
gesundheit
get
getra
getreide
gets
gettin
geuenich
gewa
gewald
gewalt
gewart
gewesen
gewidmet
gewinnt
gewo
geworden
gewu
geyer
gezittechra
gezyt
gfa
gfaare
gfahre
gfale
gfalla
gfalle
gfallen
gfallene
gfanga
gfange
gfangegnoo
gfangene
gfangeni
gfangeschaft
gfasst
gfe
gfeerdet
gfehrdet
gfeller
gfellt
gferchtet
gferderet
gfia
gfiehrt
gfiert
gfihrt
gfiiret
gfiirt
gflichtet
gfloche
gfloge
gflohe
gflosse
gflu
gfo
gfohr
gfolgt
gfonda
gfoor
gforderet
gfordert
gformt
gforschet
gforscht
gfro
gfrogt
gfu
gfunda
gfunde
gfyret
gfyyrt
gg
gga
ggange
ggangen
ggau
ggd
gge
ggee
ggel
gger
ggf
ggg
ggi
ggle
ggli
ggmeind
ggmeindsflechi
ggmeindspresident
ggor
ggredt
ggru
ggs
ggscht
ggschte
ggsdaagchrieg
ggsel
ggselwirkig
ggsi
ggsle
ggslet
ggst
ggste
ggsti
ggt
ggu
ggulte
gha
ghaa
ghaalte
ghaerd
ghaered
ghaimnissa
ghaisse
ghaiße
ghalda
ghalde
ghalt
ghalte
ghana
ghandlet
ghe
ghebt
gheera
gheerd
gheere
gheeret
gheert
gheft
gheie
gheime
gheisse
gheisst
gheit
gheiße
ghere
ghered
gheret
gherrscht
ghert
ghet
ghett
ghetto
ghil
ghirota
gho
ghobe
ghockt
ghofft
ghoißa
gholfe
gholt
ghu
ghulfe
ghuus
ghyroote
ghyrote
gi
gia
giacobbo
giacometti
giacomo
gian
gib
gibiet
gibloux
gibraltar
gibt
gibts
giburt
gid
gidicht
gids
gie
gier
gieter
gießen
gießler
gif
gift
giftig
gig
gige
giger
gigi
giige
giit
giits
gil
gilardoni
gilbert
gilberte
gildas
gilde
gildet
gilgamesch
gilles
gillespie
gillie
gilt
giltet
gime
gimnaasium
gimnasium
ginea
ging
gion
gional
giorgio
giornico
giovanni
gipfel
gipfeldra
gips
giraffe
girl
girls
giro
gis
gisch
gische
gisela
git
gitarre
gitarrischt
gitarrist
gits
gitt
gitter
gitts
giubiasco
giulio
giuseppe
giz
gjagt
gje
gl
gla
glaas
glabt
glacier
gladbach
glaischtet
glait
glaitet
glandet
glange
glangt
glanz
glaris
glarner
glarnerland
glarus
glas
glaser
glasgow
glashu
glass
glatt
glatte
glatti
glau
glaub
glaube
glauben
glaubens
glaubt
gle
glea
gleage
glebt
glech
gleert
gleerte
gleerti
glege
glegen
glegt
glehrt
glehrte
glehrti
glei
gleich
gleicha
gleiche
gleichen
gleichnamig
gleichnamiga
gleichnamige
gleichnamigen
gleine
gleini
gleis
gleisaalaage
gleischtet
gleisfa
gleistet
gleit
gleitet
gler
glernt
glet
gletscher
gli
glich
gliche
glicherwiis
glicherwys
glichet
glichi
glichkeit
glichkeite
glichkeiten
glichnamige
glichscht
glichst
glicht
glichzitig
glichzittig
glick
glideret
gliderig
gliebte
gliebti
glifere
gliferet
glig
glige
gligerwiis
gligi
gligka
gligst
glii
gliich
gliicha
gliichbera
gliiche
gliichgsetzt
gliichgstellt
gliichgwicht
gliichha
gliichi
gliichig
gliichige
gliichma
gliichnamige
gliicht
gliichziitig
gliichzitig
gliichzitigka
gliichzittig
gliideret
gliiderig
gliiferet
glijssi
glingt
glion
glis
glise
glitte
glo
global
globale
globali
globalisierig
globalisierung
globe
globt
glocke
glockenblume
gloffe
glogge
gloo
gloost
gloria
glory
glossaire
glossar
glosse
gloube
glp
glu
glueget
gluegt
glunga
glunge
glungen
glupft
glutz
gly
glych
glyche
glycher
glychi
glychma
glychnamig
glychnamige
glychzitig
glychzytig
glyych
glyyche
glyychzytig
gma
gmaand
gmachd
gmachet
gmacht
gmaendena
gmai
gmaiflechi
gmaigliderig
gmaigliederig
gmain
gmaind
gmainda
gmainde
gmaindsflechi
gmaindsgliiderung
gmaindspresida
gmaine
gmainsam
gmainsame
gmainsami
gmainschaft
gmaint
gmairot
gmaiverband
gmaiverwaltigsverband
gmarkig
gmarkong
gmarkung
gmbh
gme
gmei
gmeie
gmein
gmeina
gmeind
gmeinda
gmeindbann
gmeinde
gmeindegebiet
gmeindereform
gmeindgebiet
gmeindgra
gmeindiversammlig
gmeindrat
gmeindrot
gmeindsbann
gmeindsfla
gmeindsflechi
gmeindsgebiet
gmeindsornig
gmeindspra
gmeindspresida
gmeine
gmeiner
gmeini
gmeinjohr
gmeinnu
gmeinsam
gmeinsame
gmeinsami
gmeinsamkeite
gmeinschaft
gmeint
gmeirot
gmelin
gmend
gmerkt
gmesse
gmiin
gmiine
gmiinflechi
gmisch
gmischda
gmischt
gmischte
gmischti
gmo
gmoand
gmoanda
gmoandsdail
gmoe
gmoed
gmoede
gmoedsgliderong
gmoedsglidrong
gmoedverwaltongsverband
gmoende
gmoendsgliderong
gmoene
gmoeverwaltongsverband
gmoid
gmoidrot
gmoind
gmolet
gmolt
gmond
gmoolt
gmu
gmuand
gmuandsgbiet
gna
gnade
gnamsed
gnamset
gnannt
gnannte
gnau
gnaue
gnauer
gnaui
gnauso
gne
gneigt
gnennt
gnennte
gner
gnet
gni
gnis
gniss
gno
gnoh
gnomma
gnoo
gnosse
gnosseschaft
gnu
gnuag
gnue
gnueg
gnumma
gnumme
gnussmittel
gnutzt
gnutzte
gnuu
go
goal
goali
god
gods
goes
goethe
goethes
goetz
goetzmann
gog
gogh
goh
goht
gohts
goire
goisern
golanho
gold
golda
goldach
goldau
golden
goldene
goldenen
goldig
goldige
goldigi
goldigs
goldmann
goldschmidt
gole
golf
goll
gollum
golte
goms
gondor
gondwana
gone
gonnec
goo
good
goodall
goodman
google
gool
goossau
goot
goote
gopferet
gorbatschow
gordnet
gordon
gorilla
gosch
gossau
gosse
got
gote
gotha
gothic
gotik
gotisch
gotische
gotischi
gott
gottes
gottesdienscht
gottesdienst
gotteshuus
gottfried
gottha
gotthait
gotthaite
gotthard
gotthardbaan
gotthardbahn
gotthardmassiv
gottheite
gotthelf
gotthia
gotthilf
gotthold
gottlieb
gottlob
gouesnou
gouges
gouverneur
gov
government
goya
gp
gps
gr
gra
graab
graabe
graabsta
graad
graade
graadi
graaf
grab
grabbe
grabe
graben
grabs
grad
grade
graes
graf
grafa
grafe
grafen
grafenau
grafenhausen
grafik
grafike
grafiker
grafische
grafischi
grafschaft
graham
graist
gramatik
gramm
grammaire
grammar
grammatik
grammatike
grammatiken
grammatische
grammatischi
grammy
gran
granada
grand
grande
grandes
grands
grandson
grandval
grange
granges
granit
grant
granz
granzt
gras
grass
grasshopper
grat
gratis
grau
graubt
graubu
graue
grauß
graußa
grauße
grave
gravitation
gray
graz
gre
great
greatest
greber
grechnet
greco
gredet
gredt
greeber
greece
greedet
greeglet
greek
green
greenwich
greenwood
greeschde
greescht
greeschta
greeschte
greeßer
gregiert
gregle
greglet
gregor
gregorianisch
gregorianische
gregorius
gregory
greifswald
greiner
greis
greist
gremie
gremium
grendet
grenoble
grenz
grenzach
grenze
grenzen
grenzga
grenzt
grenzu
greschonei
greschoney
grescht
greschte
greschti
gressoney
gretler
grettet
greyerz
greyerzer
greyerzerland
greßer
greßere
greßeri
greßi
gri
gria
griagt
grichdet
grichisch
grichische
gricht
grichtet
grichtsbarkeit
grichtshof
gridcolor
grie
griech
grieche
griecheland
griechen
griechenland
griechisch
griechische
griechischen
griechischer
griechischi
griegt
grien
griene
grienen
grieni
gries
griesbach
grieshaber
griff
griffel
griifesee
grimm
grimme
grimmelshausen
grimmelshofen
grimmelzofe
grimmelzofer
grimoald
grind
grinde
grinded
grindelwald
grinder
grindet
grindete
grindig
grindigsmitglid
gring
gringe
gringem
gringer
gringere
gringi
gris
grischun
grisse
gro
grob
grof
grofe
grofschaft
grond
groof
groofe
groofschaft
groos
groosa
groose
groosi
grooss
groossa
groossbritannie
groossdeil
groosse
groossen
groosser
groosses
groossi
groossko
groossmo
groossroot
groossstadt
groosswesir
groote
grooße
gropius
groppe
gros
gross
grossa
grossbritannie
grossdeil
grosse
grossem
grossen
grosser
grosses
grossherzog
grossherzogtum
grossi
grossma
grossmo
grosso
grossstadt
grossteil
grossvater
grote
groth
grotte
group
groß
großa
großbritannie
großbritannien
großdail
großdeil
große
großem
großen
großer
großes
großherzog
großherzogdum
großherzoglich
großherzogtum
großi
großmacht
großstadt
großvater
gru
grubbe
gruber
grue
gruefe
gruess
gruft
grund
grundbegriffe
grundbsitz
grunddo
grunder
grundet
grundflechi
grundgsetz
grundherr
grundherrschaft
grundlaag
grundlaage
grundlag
grundlage
grundlagen
grundlegend
grundlegende
grundlegendi
grundlegung
grundmasse
grundra
grundriss
grundsa
grundsatz
grundschuel
grundsta
grundstu
grundwasser
grundzu
gruner
grupp
gruppa
gruppe
gruppen
gruppierige
gruye
gruyter
gryff
gryft
gs
gsa
gsagt
gsah
gsait
gsajt
gsamlet
gsammlet
gsamt
gsamtbevelkerig
gsamtbevo
gsamte
gsamtflechi
gsamtheit
gsamti
gsamtklassema
gsamtla
gsamtschuel
gsamtwa
gsandte
gsandti
gsang
gscha
gschaffa
gschaffe
gschaffed
gschaffene
gschaffet
gschafft
gschaft
gschbiilt
gschdorbe
gschecht
gschenkt
gschetzt
gschi
gschichd
gschichda
gschicht
gschichte
gschichten
gschichtleche
gschichtli
gschichtligi
gschichtschryber
gschichtsschriiber
gschichtsschriibig
gschichtswa
gschichtswu
gschickt
gschide
gschiggt
gschiichd
gschiicht
gschiiteret
gschiteret
gschitzt
gschla
gschlaa
gschlaage
gschlage
gschlecht
gschli
gschlisse
gschlossa
gschlosse
gschlossene
gschlosseni
gschmack
gschmu
gschna
gschnitte
gschosse
gschpi
gschpillt
gschpilt
gschproche
gschrebe
gschri
gschriba
gschribbe
gschribe
gschrieba
gschriebe
gschriiba
gschriibe
gschste
gscht
gschta
gschtaltet
gschtande
gschte
gschtell
gschtellt
gschtgschwindigkeit
gschti
gschtiftet
gschtimmt
gschtoorwa
gschtorba
gschtorbe
gschtu
gschtudiart
gschu
gschwa
gschwecht
gschwend
gschwindigka
gschwindigkait
gschwindigkeit
gschwindigkeite
gschwindika
gschwischter
gschwu
gschyteret
gse
gsee
gseeglet
gseen
gseet
gsegnet
gseh
gseht
gseilbrugg
gseit
gsel
gsellschaft
gsellschafte
gsellschaftlig
gsellschaftlige
gsellschaftligi
gselschaft
gsetz
gsetzga
gsetzlig
gsetzlige
gsetzt
gsi
gsichere
gsicheret
gsicht
gsidlet
gsie
gsii
gsin
gsk
gslet
gsonga
gsorgt
gspa
gspalte
gsperrt
gspiilt
gspillt
gspilt
gspra
gspro
gsproche
gspu
gsta
gstai
gstalt
gstalte
gstaltet
gstaltig
gstammt
gstande
gstanden
gstartet
gsteckt
gstei
gstellt
gsterkt
gsti
gstiftet
gstige
gstiige
gstimmt
gstirzt
gsto
gstoorbe
gstoorben
gstoosse
gstoppt
gstorbe
gstorben
gstorwa
gstosse
gstoße
gstriche
gstritte
gstu
gstudiert
gsu
gsuech
gsuecht
gsund
gsunde
gsundha
gsundhait
gsundheit
gsunga
gsunge
gsunke
gsy
gsyy
gszit
gt
gte
gti
gu
gua
guad
guada
guade
guadeloupe
guardian
guat
guatemala
guayana
gubler
guck
gudrun
gue
guebwiller
gued
guerre
guet
guete
guetem
gueti
guetich
guets
gugga
gugge
guggebu
guggenbu
guggenheim
gugger
guida
guide
guido
guillaume
guinea
guinness
guisan
gujan
gulde
guldi
guldine
gulte
gundelfinge
gung
gunne
gunschte
gunste
gunter
gunther
guntram
gupta
gurin
guriner
gurion
gurs
gus
guss
gustaf
gustav
gustave
gut
gutach
gute
guten
gutenberg
guter
gutes
gutte
guttenberg
guverneer
guy
guyana
gv
gwa
gwachse
gwaggse
gwaigeret
gwalt
gwaltige
gwaltsam
gwaltsame
gwanderet
gwann
gwarnt
gwartet
gwe
gwea
gweacha
gwechslet
gweckt
gweelt
gweert
gwehlt
gwehlte
gwehrt
gweigeret
gweiht
gweit
gwesa
gwi
gwicht
gwidmet
gwinn
gwinne
gwinner
gwinnt
gwirkt
gwisse
gwissi
gwisst
gwitter
gwo
gwohnt
gwont
gwoont
gworfe
gwu
gwune
gwunna
gwunne
gy
gymnasie
gymnasium
gyo
gypte
gypten
gypter
gyptisch
gyptische
gyptischi
gysling
h
ha
haa
haaber
haafe
haag
haage
haalbrunn
haalde
haale
haalte
haar
haarmann
haas
hab
habe
habeck
haben
haber
habermas
habilitiert
habitat
habre
habsburg
habsburger
habsburgisch
habsburgische
hachberg
had
hades
hadid
hadrian
haemmerli
hafa
hafe
hafen
hafestadt
haffe
hafner
haft
hagana
hagar
hagen
hagenbach
hagia
hagnau
haguenau
hahn
hahnenfuß
hai
haid
haidelberch
haider
haifa
haig
haige
haiku
haile
hailiecher
hailig
hailiga
hailige
hailigi
hailigtum
haim
haimet
haimetautor
haimetdichter
haimetforscher
haimetstadt
haimisch
hain
haisst
haiti
haiß
haiße
haißt
hajo
halb
halbband
halbbrueder
halbe
halbem
halber
halbfinal
halbfinale
halbi
halbinsel
halbinsle
halbla
halbleiter
halbmond
halbs
halbschatte
halbschranke
halde
haldon
hale
hall
hallau
hallauer
halle
haller
halloween
hallwilersee
hallyday
halm
hals
halt
halte
halten
haltepu
haltepungt
haltepunkt
halter
halteschtell
haltet
haltig
ham
hamas
hamburg
hamburger
hamburgs
hamilton
hamlet
hamm
hammer
hammerstein
hampf
han
hanau
hanauer
hancock
hand
handball
handbook
handbu
handbuch
handbuech
handel
handelet
handeln
handels
handelt
handke
handle
handlet
handlig
handlige
handlong
handschin
handschrift
handschrifte
handschriften
handwa
handwerk
handwo
hanf
hang
hange
hangt
hann
hanna
hannah
hannelore
hannes
hannibal
hannover
hanns
hans
hansen
hanser
hansestadt
hansi
hansjo
hansmartin
hanspeter
hao
hap
happy
har
harald
hard
hardt
hardware
hardy
hare
harem
harfe
harmattan
harmonie
harold
harper
harrassowitz
harris
harrison
harry
hart
harte
hartmann
hartmanns
hartmut
hartung
harvard
harvey
harz
has
hase
hasel
haslach
hasle
hasler
hasli
hass
hassan
hast
hat
hatha
hatje
hatt
hatte
hatten
hattinge
hau
haue
hauefels
hauenstein
hauezollersche
hauezollre
haufa
hauff
haug
hauiptort
haupt
hauptardikel
hauptartikel
hauptbaan
hauptbaane
hauptbaanhof
hauptbahnhof
hauptdarsteller
hauptgu
hauptinsle
hauptma
hauptmann
hauptort
hauptquartier
hauptroll
hauptrolla
hauptrolle
hauptsa
hauptsach
hauptschdadt
hauptschtadt
hauptschuel
hauptsignaal
hauptsitz
hauptspraach
hauptsproch
hauptsprooch
hauptstadt
hauptstrooss
hauptstross
hauptwa
haus
hausa
hausach
hause
hausen
hauser
hauses
haussig
haut
haute
hauterive
hautes
hauteville
hauts
have
havel
haven
hawaii
hawking
haydn
hb
hbf
hc
hd
he
head
health
heart
heat
heaven
heavy
heb
hebdo
hebe
hebel
hebelbund
hebels
hebi
hebid
hebig
hebr
hebra
hebron
hebt
heche
hecheburg
hecher
hechere
hecheri
hechi
hecht
heck
hecke
hecker
hed
hedd
heds
hedwig
heeb
heebe
heegi
heer
heera
heere
heerfu
heerschaft
heerspiil
heert
hef
hefe
heft
hefte
heftig
heftige
heftigi
heftli
heg
hegau
hege
hegel
hegels
hegemonii
heggschtalemannisch
hegi
hegschdalemanische
hegscht
hegschte
hegschtpunkt
hei
heiberg
heid
heide
heidegger
heidelba
heidelberg
heidelberger
heiden
heidi
heidiga
heig
heige
height
heigi
heike
heiko
heil
heilbronn
heiler
heilig
heilige
heiligen
heiliger
heiligi
heiligs
heim
heimat
heimatbuch
heimatgeschichte
heimatkunde
heimatland
heimatpflege
heimatschutz
heime
heimet
heimetmuseum
hein
heine
heinemann
heiner
heinrich
heint
heinz
heinze
heinzeberg
heinzenberg
heiri
heise
heiser
heiss
heisse
heisst
heissts
heit
heitere
heitersche
heitzodag
heizmann
heiß
heiße
heißt
heißts
hektaare
hektar
hektare
hel
helbing
held
helde
helden
heldesaag
helen
helena
helene
helfe
helfer
helfti
helga
helge
helikopter
helin
helios
helium
hell
helle
hellenismus
hellenistische
heller
helli
helligkait
helligkeit
hellmut
hellmuth
helm
helmholtz
helmut
helmuth
helote
help
helsinki
helt
helvetia
helvetica
helvetie
helvetier
helvetik
helvetisch
helvetische
helvetischi
hemd
hemingway
hemispha
hen
hend
henderson
hendrher
hendrik
hends
henman
henn
henne
hennig
henning
henri
henriette
henrik
henry
henschel
hent
henzen
hepunkt
her
hera
herakleios
herakles
heraldik
herausforderung
herausgeber
herausgegeben
herbert
herbscht
herbst
hercules
herder
here
heren
herero
hergiswil
hergstellt
heribert
herisau
heritage
herkunft
herli
herman
hermann
hermes
hermine
hermione
herner
herodes
herodot
heron
herr
herra
herre
herren
herrin
herrischried
herrmann
herrn
herrschaft
herrschafte
herrschaftsgebiet
herrsche
herrschende
herrscher
herrscherdynastii
herrscht
herschaft
herschel
hersteller
herstellig
hert
herta
herte
herter
herti
hertz
herum
herusga
herwegh
herz
herze
herzeg
herzegowina
herzen
herzens
herzfeld
herzl
herzo
herzog
herzogdum
herzogin
herzogtum
hesch
hesiod
hess
hesse
hessen
hessisch
hessische
hesso
het
hethiter
hethitisch
hethitische
hethitischi
hets
hett
hette
hetti
hetts
heu
heuberg
heufti
heuss
heut
heute
heutige
heutigen
hex
hexa
hexe
hey
heydrich
heydt
heyer
heyne
hfg
hg
hgeschichte
hgg
hi
hia
hid
hie
hier
hieroglyphe
hieron
hieronymus
hiersemann
hifinge
hig
hige
high
higher
highlands
highway
higi
higka
higkait
higkeit
higkeite
hii
hiigrichdet
hiigrichtet
hiiser
hiisicht
hiiwiis
hilbert
hildegard
hildesheim
hilf
hilfe
hilfsmittel
hilfsverb
hilfswa
hilft
hill
hillary
hillel
hiller
hills
hilty
himalaya
himmel
himmelfahrt
himmelsko
himmlische
hin
hind
hinde
hindenburg
hinder
hindere
hindergrund
hinderi
hinderloo
hindernis
hinderrhy
hindi
hindu
hinduismus
hinga
hingeege
hingege
hinne
hinte
hinter
hintere
hintergru
hintergrund
hinteri
hinterland
hinterloo
hinterrhy
hinterzarte
hinterzarten
hintschinge
hinwil
hip
hiphop
hirmer
hirn
hirni
hirsau
hirsch
hirt
hirte
hirzel
his
hischtoorisch
hischtoriker
hischtorisch
hischtorische
hispaniola
hist
histoire
historia
historiae
historic
historica
historical
historie
historien
histories
historiker
historique
historisch
historischa
historische
historischen
historischer
historisches
historischi
historischs
historismus
history
hit
hitchcock
hite
hitig
hitige
hitler
hitlers
hitparade
hits
hitt
hitte
hittige
hitz
hitzfeld
hitzkirch
hiv
hiwiis
hjer
hl
hla
hlacker
hlau
hlbach
hlbezirk
hle
hlen
hlene
hler
hlga
hlhausen
hli
hlich
hlig
hlige
hling
hlingen
hlings
hlkrais
hlmann
hlmeier
hlriicha
hls
hlshaber
hlt
hlte
hlten
hlung
hlungen
hm
hma
hme
hmen
hmer
hmermann
hms
hmt
hmte
hn
hna
hnd
hne
hnen
hner
hnhof
hni
hnig
hnle
hnlech
hnli
hnlich
hnliche
hnlichi
hnlig
hnlige
hnligi
hnt
hnte
hnti
hnung
ho
hobbes
hobbit
hobby
hoch
hocha
hochalemannisch
hochalemannische
hochaltar
hochboudepartema
hochburg
hochdeitsch
hochdeutsch
hochdeutsche
hochditsch
hochditsche
hochdorf
hochdu
hochdytsch
hochdytsche
hoche
hochebeni
hocher
hochetenge
hochfla
hochgebirg
hochgebirge
hochi
hochkant
hochland
hochmittelalter
hochrhein
hochrhy
hochrhybaan
hochschuel
hochschuele
hochschuellehrer
hochschule
hochschulschriften
hochschwarzwald
hochstift
hochtu
hochwa
hochwald
hochwasse
hochwasser
hochzeit
hochzit
hochzyt
hocke
hockt
hod
hode
hodler
hods
hoe
hoedna
hof
hofe
hofer
hoffe
hoffmann
hoffmanns
hoffnig
hoffnung
hofft
hofheinz
hofmann
hofsgrund
hofstetten
hogarth
hoger
hogwarts
hoha
hohe
hoheit
hohen
hohenems
hohenheim
hohentwiel
hohenzollern
hoher
hohezollere
hohler
hoi
hoidna
hoimet
hoimetstadt
hoißt
hola
holba
holbein
hold
holder
holding
hole
holger
holiday
holla
holland
hollande
hollender
hollywood
holmes
holocaust
holoza
holstei
holstein
holt
holy
holz
holza
holzblo
holzbrugg
holzer
holzschlag
holzschnitt
homba
homberg
homburg
home
homepage
homer
hommage
homme
hommes
homo
homosexualita
hon
hond
honda
honduras
honegger
hong
hongkong
honig
honneur
honolulu
honore
honorius
hont
hontes
hooch
hoochdiitsch
hoochdu
hooche
hoochi
hoochschuel
hoochschuele
hoochtu
hoochwasser
hoof
hoor
hoorn
hop
hope
hopfen
hopkins
hoptort
hoptstadt
horb
horbe
horburg
horde
horge
horgen
horizont
horizontal
horkheimer
hormon
horn
hornba
hornberg
hornig
hornisgrinde
hornung
hornusse
horre
horse
horst
horstmann
hort
horus
hose
hosea
hospital
hoss
hosst
hot
hota
hotel
hots
hotz
hotze
hotzeko
hotzenko
hotzenwald
hotzewald
hou
houphoue
houptort
houptsa
houptsprach
houptstadt
hous
housa
house
housen
houston
houz
how
howard
howe
hp
hr
hra
hrdet
hre
hred
hrem
hren
hrend
hrende
hrene
hrer
hrhondert
hri
hrig
hriga
hrige
hrigen
hriger
hrigi
hrigs
hring
hringe
hringen
hringer
hrlich
hrliche
hrlichi
hrlig
hrligi
hrr
hrsg
hrt
hrte
hrung
hrungen
hs
hsg
ht
hte
htm
html
http
https
hu
huang
hubacher
hubble
huber
hubert
hubertus
huckleberry
hudson
hueber
huet
hufe
huffe
hug
hugenotte
hugh
hugo
hui
huit
huldrych
human
humanischt
humanismus
humanist
humanistische
humanita
humbert
humblot
humboldt
hummel
humor
hund
hundert
hunderti
hung
hunger
hungersnot
hunne
hunsru
hunt
hunter
hunziker
hurrikan
hus
hushovd
husorgle
hussein
hut
hutu
huufe
huuffe
huus
huusa
huusarra
huuse
huushalt
huusmeier
huut
huygens
hwv
hy
hya
hybrid
hymne
hyperion
hypothese
hytte
hywys
hyyser
hz
i
ia
ian
iar
iasie
iau
ib
iba
ibaasel
ibach
ibau
ibber
iber
iberal
iberall
iberblick
iberchuu
iberdrait
iberga
ibergang
ibergange
ibergangsbiet
ibergangsregierig
ibergee
iberhaupt
iberische
iberischi
iberla
iberliferet
iberlinge
ibernahm
ibernimmt
ibernumme
ibernuu
iberschwa
ibersetzer
ibersetzig
ibersetzige
ibersetzt
ibersicht
iberwigend
ibige
ibk
ibm
ibn
ibor
ibr
ibrahim
ibrhaupt
ibrig
ibrige
ibrsetzt
ibsen
ibu
ibuech
ibuechautor
ic
ice
ich
icha
iche
ichne
ichner
ichnet
ichnig
ichnige
ichnis
icht
ics
id
ida
idalia
idalie
idalieenisch
ide
idea
ideal
ideale
idealismus
idee
ideen
idelba
iden
idend
identida
identifiziere
identifiziert
identisch
identita
identitet
identity
ideologie
ideologii
ider
idet
idg
idgeno
idgenosse
idgenosseschaft
idi
idig
idige
idigt
idigung
idiom
idiotikon
idonu
idruck
idu
ie
ieburg
ieburger
ieburgersee
ier
iere
ieri
iez
if
ifa
ifach
ifache
ifacher
ifachi
ife
ifer
iflu
ifluss
ift
ifu
ig
iga
ige
igedum
igel
igene
igeni
igentlig
igentlige
igeret
igeschaft
igeschafte
igesta
iget
igetli
igetlig
igfu
igmeindet
igmeindig
igmeindige
ignaz
ignet
ignige
ignigs
ignis
igniss
igor
igrichtet
igsetzt
igstellt
igstrahlte
igt
igu
ih
iha
ihm
ihn
ihne
ihnen
ihr
ihra
ihre
ihrem
ihren
ihrene
ihrer
ihrere
ihres
ihri
ihringe
ihringen
ihrini
ihrn
ihrne
iht
ihu
ihundert
ii
iibaut
iibe
iiber
iiberchuu
iibrocht
iibu
iida
iideilig
iideilt
iidra
iidruck
iidrunge
iifa
iiflu
iifluss
iiflussriiche
iiflussriichste
iifu
iiga
iigang
iigange
iigene
iigfalle
iigfu
iigholt
iigla
iiglaade
iiglade
iigmeindet
iigmischt
iignoh
iignoo
iigrichdet
iigrichtet
iigriff
iigriffe
iigschlosse
iigschra
iigsetzt
iigsperrt
iigstellt
iigwanderet
iigweiht
iigweit
iiha
iihaimische
iiheimische
iii
iikomme
iila
iim
iimarsch
iimarschiert
iimarschiirt
iin
iine
iir
iire
iirem
iirer
iirere
iires
iiri
iirichdig
iirichdige
iirichtige
iirisch
iirische
iirne
iis
iisa
iisatz
iischra
iise
iisebahn
iisetze
iitrag
iitrage
iiwa
iiwanderer
iiwanderig
iiwohner
iiwohnergmein
iiwohnergmeind
iiwohnerzahl
iiwoner
iiwoohner
iiwooner
iizfu
iizoge
iizooge
iizugsgebiet
ij
ija
ije
ijeburg
ijer
ijere
iji
ijt
ik
ikea
ikone
ikrk
il
ila
ilanz
ilbaan
ildefons
ile
ilge
ilgebiet
ili
iliamt
ilias
ilig
ilige
iligi
iljitsch
ill
ille
illegal
illegale
illegali
iller
illinois
illusion
illustrated
illustration
illustrationen
illustrator
illustrazioone
illustriert
illustrierte
ils
ilse
ilsfeld
ilt
ilwiis
im
ima
image
images
imagesize
imagina
imbros
imdb
ime
imene
imer
imet
imfeld
img
imier
imische
imma
immanuel
immateriels
imme
immendinge
immer
immerhin
immerwa
immobilie
imol
impact
imperativ
imperator
imperfekt
imperial
imperialismus
imperii
imperium
import
impressionismus
impuls
in
ina
inbedrybnaam
inc
increment
ind
inda
inde
indem
independence
independent
inder
inderlache
indet
index
india
indian
indiana
indianer
indie
indien
indiens
indigene
indira
indirekt
indisch
indische
indischen
indischi
individue
individuell
individuum
indo
indoeuropa
indogermanische
indogermanischi
indonesie
indra
indspresida
indus
induschtri
induschtria
induschtrialisierig
induschtrie
induschtrii
induschtry
industri
industrial
industrialisierig
industrie
industrielle
industrielli
industrii
industry
ine
ineichen
inen
iner
inere
inerhoof
inerzialsu
ines
inewa
inf
infektion
infinitiv
inflation
info
infolg
informa
informatik
informatiker
information
informatione
informationen
informations
informazione
informazioon
informazioone
informiere
informiert
infos
infraschtruktur
infrastruktur
ing
inga
inge
ingeborg
ingenieur
ingenio
ingericht
ingmeindet
ingo
ingolstadt
ingres
ingricht
ingrid
inha
inhaber
inhaftiert
inhalt
inhaltsverzaichnis
inhaltsverzeichnis
ini
inig
inige
inigt
inigte
inigung
inisch
initiativ
initiative
initiiert
iniziative
inka
inkl
inklusiv
inklusive
inkwisizioon
inland
inn
inna
inne
innehof
innehoof
inneminischter
innen
innenaasicht
inner
innere
inneren
innerhalb
inneri
inneroode
innerrhode
innerschwiiz
innerschwiizer
innerschwiz
innert
innestadt
innovation
innozenz
innsbruck
innu
inoffizielle
inoffizielli
inquisition
ins
insa
insam
insame
insami
insbesondere
inschaft
inschafte
inschrift
inschrifte
inschtallyrt
inschtitut
inschtitutione
inschtruma
inschtrume
inschtrument
insee
insekte
insel
inselgruppe
inseln
inselstaat
insgesamt
insgsamt
inside
insla
insle
inspiriert
inst
installiert
instidut
institut
institute
institution
institutione
instituts
instituzioon
instituzioone
instruma
instrument
instrumente
inszeniert
int
inta
inte
integrale
integration
integrazioon
integriere
integriert
integrierte
integryrt
integryrte
intel
intellektuelle
intelliga
intelligence
intelligenz
intensiv
intensive
intensivi
inter
intera
intercity
interdisziplina
interessant
interesse
interessiert
interlake
interlaken
interna
internat
international
internationale
internationalen
internationaler
internationales
internationali
internationals
internazionaal
internazionaale
internazionaali
internazional
internazionale
internazionali
interne
internet
internetpra
internetseite
internetsite
internetsyte
internetufftritt
internetuftritt
interniert
interpretation
interpretationen
interpretazioon
interpretiere
interpretiert
interreg
interregio
intervention
interview
interviews
intifada
into
intonation
intra
intressant
intresse
intressiert
introduction
inu
inva
invasion
inventar
inwa
inwohner
inzelne
inzelni
inzig
inzige
inzigi
inzwische
inzwu
io
ioc
ione
ionische
iowa
ip
ipa
iptling
iptort
iptspraach
ir
ira
irak
iran
iranische
irdische
ire
ireland
irem
iren
irene
irer
irere
ires
irgend
irgendwo
irgun
iri
irian
iris
irisch
irische
irish
irkutsk
irland
irmgard
irne
iro
iron
ironman
iropa
iropama
iry
is
isa
isaac
isaak
isabel
isabella
isabelle
isatz
isbn
isch
ischa
ischd
ische
ischeme
ischen
ischer
isches
ischi
ischs
ischt
ischte
ischter
ise
iseela
iseeland
isele
iseli
iselin
iser
isidle
isidor
isis
isla
islam
islamic
islamisch
islamische
islamischen
islamischi
islamismus
island
islands
isle
ismael
ismail
ismailia
isny
iso
isoglosse
isolation
isolde
isoliert
isolierte
isolierti
israel
israeli
israelis
israelisch
israelische
israelischi
israelite
israelitische
israels
iss
issa
isse
issime
issische
issn
isst
issue
ist
istanbul
iste
istei
isteiner
istens
ister
isterschaft
isterschafte
istet
isti
istig
istige
istituto
istlige
istligi
istva
it
ita
itaalie
ital
italia
italian
italiana
italiano
italie
italien
italiener
italienisch
italienische
italienischen
italienischi
italienisierigsbolitik
italienisiert
italy
ite
itelia
iten
iter
itere
itet
iteti
itgro
ithome
iti
itig
itige
itli
itlig
itra
its
itschrieg
itschu
itz
iu
iucn
iuflaag
iulius
iusgoob
iv
ivan
ivemaacher
ivo
ivoire
iwan
iwark
iwein
iwer
iwf
iwohner
iwohnerzahl
iwoner
iwonru
iwrije
ix
iz
iza
ize
izit
ißt
j
ja
jaar
jaarespricht
jaarhundert
jaberg
jaccoud
jack
jackson
jacob
jacobi
jacobs
jacqueline
jacques
jae
jaeggi
jaffa
jagd
jagst
jagt
jahn
jahr
jahrbu
jahrbuch
jahre
jahren
jahres
jahresbericht
jahresheft
jahrgang
jahrhundert
jahrhunderte
jahrhunderten
jahrhunderts
jahrhunna
jahrtausend
jahrza
jahrzehnt
jake
jakob
jakobiner
jakobus
jam
jamaika
james
jan
jana
jane
janeiro
janet
janitschare
janner
jansen
januar
janus
jap
japan
japaner
japanisch
japanische
japanischi
jardin
jarhundert
jauch
jaun
jaur
jauslin
java
jawlensky
jay
jaya
jazz
jazzmusiker
je
jean
jeanne
jeda
jedde
jeddem
jeddi
jede
jedem
jeden
jeder
jedere
jedes
jedi
jedoch
jeds
jee
jeede
jeedem
jeedes
jeedi
jefferson
jeffrey
jeger
jehrig
jehrige
jehuda
jelinek
jemen
jena
jenissei
jenna
jenner
jennifer
jenny
jens
jenseits
jensits
jerandru
jeremias
jeremy
jericho
jersey
jerusalem
jerusalemer
jesaja
jeschtette
jessica
jestette
jesu
jesuit
jesuite
jesus
jet
jetz
jetzige
jetzt
jeune
jeweils
jewiilige
jewiils
jewilige
jewils
jewish
jewitt
jews
jewylige
jewyls
jg
jh
ji
jiddisch
jidisch
jidische
jidischi
jim
jimmy
jin
jinger
jingere
jingscht
jingschte
jinismus
jitzchak
jm
jo
joa
joachim
joan
joanne
jobs
joch
jochen
joe
joel
joggeli
joh
joha
johan
johann
johanna
johannes
johannesburg
johannisbeere
johanniter
john
johnny
johns
johnson
johnston
johr
johra
johrdo
johrduusig
johre
johreszyte
johrgang
johrhondert
johrhu
johrhundat
johrhundert
johrhunderte
johrza
johrzehnt
johrzehnte
jom
jon
jona
jonas
jonathan
jones
jong
jonga
jonge
jonschwil
joo
joohr
joohra
joohrhundert
joor
joorduusig
joore
joorhu
joorhundert
joorhunderte
joorza
jorat
jordan
jordanie
jorge
jorhundert
jos
jose
josef
joseph
josephine
josephus
joshua
josias
jost
josua
joule
jour
journal
journalischt
journalischti
journalismus
journalist
journey
jours
joux
joy
joyce
jpeg
jpg
jr
jt
ju
juan
jubila
jud
juda
judaica
judas
jude
judedum
juden
judenfrage
judentum
judetum
judikative
judith
judy
juged
jugend
jugendliche
jugendlichi
jugendlige
jugendliteratur
jugendstil
jugoslawie
jul
jules
juli
julia
julian
juliane
julianisch
julianische
julie
julien
juliette
julisch
julius
jun
june
jung
junga
junge
jungen
junger
jungfrau
jungi
jungle
jungs
juni
junior
juniore
junius
junker
juno
jupiter
jupitermo
jupitermond
jura
jurasu
jure
jurischt
jurist
juristisch
juristische
juristischi
jury
juschtiz
juso
jusos
just
justice
justin
justinian
justinus
justiz
justus
jutta
juud
juude
juudedum
juuli
k
ka
kaa
kaal
kaalte
kabarett
kabarettischt
kabbala
kabbl
kabel
kabinett
kabut
kabutt
kader
kadolisch
kadolische
kadolischi
kaffee
kaffi
kafi
kafka
kageneck
kahl
kahn
kai
kain
kainere
kaini
kairo
kaiser
kaiseraugst
kaiserin
kaiserliche
kaiserlige
kaiserligi
kaiserreich
kaiserriich
kaisers
kaiserslautern
kaiserstia
kaiserstu
kaiserstuehl
kaiserstuel
kaiserstuhl
kakao
kala
kale
kalender
kaliber
kalif
kalifat
kalifornie
kalifornien
kalkutta
kallisto
kallsruh
kalt
kalte
kam
kambodscha
kambrium
kamel
kamen
kamera
kamerun
kamil
kamm
kammer
kammere
kammermuusig
kammerspiele
kampagne
kampanie
kampf
kamtschatka
kan
kana
kanaal
kanaalbau
kanaan
kanada
kanadische
kanadischi
kanal
kandel
kandidat
kandidate
kandidati
kandidatur
kandidiere
kandidiert
kandinsky
kann
kanon
kanone
kanonische
kant
kantate
kante
kanti
kanto
kanton
kantonalbank
kantonale
kantonali
kantonalpolitiker
kantone
kantons
kantonsgra
kantonshauptort
kantonsraatswaale
kantonsregierig
kantonsschuel
kantonsverfassig
kantoo
kantoon
kantor
kants
kantuu
kanzle
kanzlei
kanzler
kap
kapa
kapazida
kapazita
kape
kapell
kapelle
kapita
kapital
kapitalismus
kapitel
kapitol
kapitulation
kapituliert
kaplan
kappel
kappeler
kappler
kapstadt
kara
karakter
karakteristisch
karbon
karde
kardina
kardinal
karel
karen
kari
karibik
karibische
karikatur
karikature
karin
karkamis
karl
karle
karlheinz
karlmann
karls
karlsrue
karlsrueh
karlsruhe
karlsruher
karma
karneval
karoline
karolinger
karolingische
karpate
karpatenukraine
karrenbauer
karriere
karsten
kart
karta
kartause
karte
karten
karthago
karton
kartusche
kasa
kasachstan
kaschte
kaschtell
kaschtilie
kaserne
kasimir
kaspar
kasper
kaspische
kasse
kassel
kastell
kastilie
kasus
kat
katalanisch
katalanische
katalog
katalonie
katar
kataschtrophe
katastralgmai
katastralgmeind
katastroofe
katastrophe
katechismus
kategori
kategorie
kategorii
kategory
kath
katharina
kathedrale
katherine
katholik
katholike
katholisch
katholische
katholischen
katholischer
katholischi
katholischs
katholizismus
kathrin
kathrine
katja
katniss
katolika
katolisch
katolische
katrin
katz
katze
kauf
kaufbeire
kauffmann
kauflu
kaufma
kaufmaa
kaufmann
kauft
kaukasus
kaum
kaysersberg
kb
kc
kch
kde
ke
keck
keel
keenich
keenig
keerdunnel
kehl
kehrt
kei
keie
keil
keim
kein
keine
keiner
keinere
keini
keis
keiser
keit
keith
kel
keller
kelly
kelte
kelten
kelterborn
keltisch
keltische
keltischen
keltischi
kelvin
kemal
kempf
kempte
kempten
ken
kend
kender
kendheit
kendr
kenia
kenianische
kenig
kenna
kenne
kennedy
kennegleert
kenneglehrt
kennet
kenneth
kenni
kennt
kenntnis
kenntniss
kennza
kennzahlen
kennzeiche
kennzeichen
kennzeichne
kennzeichnet
kent
kentucky
kenya
kenyatta
kenzingen
kepler
ker
keramik
kerle
kerman
kern
kerne
kerner
kernstadt
kerstin
kes
kesse
kessel
kessler
kette
kevin
key
keyboard
keynes
keyser
kfz
kg
kgaa
kha
khan
kho
khoo
khu
khuur
ki
kibbuz
kicker
kid
kids
kiefer
kiel
kiepenheuer
kierch
kiesinger
kiew
kiewer
kiirche
kikuyu
kilche
kilian
kilikie
kilimandscharo
kill
kilo
kilogramm
kilomeeter
kilomete
kilometer
kim
kimche
kind
kinder
kinderga
kindergarten
kindern
kindes
kindheit
kindle
kindler
kinetischi
king
kingdom
kings
kingston
kinne
kino
kinofilm
kinos
kinschtler
kinshasa
kinzig
kinzigtal
kiosk
kippur
kirch
kircha
kirchamusik
kirchberg
kirchdorf
kirche
kirchen
kirchengeschichte
kirchenmusik
kirchheim
kirchhof
kirchliche
kirchner
kirchzarte
kirich
kirsch
kirsten
kischta
kischte
kiss
kita
kj
kl
kla
klaar
klage
klagenfurt
klaina
klang
klappe
klar
klara
klare
klari
klarinette
klasing
klass
klasse
klassema
klassifikation
klassifizierig
klassifiziert
klassik
klassiker
klassisch
klassische
klassischen
klassischer
klassischi
klassizismus
klassizistische
klassizistischi
klaus
klause
klausmann
klavier
klavierkonzert
klavierstu
klaviertrio
klaviir
klavyr
kle
klee
klei
kleiber
kleider
klein
kleine
kleinen
kleiner
kleinere
kleines
kleis
kleist
kleopatra
kleriker
klerus
klett
klettgau
kleyna
klierf
klima
klimadiagramm
klimakumfera
klimatische
klimawandel
klimazone
klimt
klinge
klingedaal
klingt
klinik
klitoris
klo
kloake
kloi
kloina
kloine
klooster
klopstock
kloschte
kloschter
kloster
klosterkirche
klostermann
klosters
klotz
klu
klub
kluge
klus
km
knabenkraut
knapp
knappe
knaur
knaurs
knecht
knesset
knie
kno
knopf
knote
know
knowledge
knowles
knu
knut
ko
koalition
koalitionschrieg
koalitionspartner
koalizion
kobald
kobla
koblenz
koch
kocha
kochba
koche
kocher
kocht
kodex
koechlin
koene
koenere
kohl
kohle
kohler
kohlhammer
koi
koin
koine
kolb
kolbe
kolle
kolleg
kollege
kollegium
koller
kollision
kolmer
kologie
kologische
kologischi
koloni
kolonial
koloniale
kolonialherre
kolonialherrschaft
kolonialisierig
kolonialismus
kolonialma
kolonialmacht
kolonialverwaltig
kolonialzyt
kolonie
kolonien
kolonii
kolony
kolumban
kolumbianische
kolumbie
kolumbus
kolumne
kolumnen
koma
kombination
kombinatione
kombinazioon
kombiniert
komboniirt
kombonischda
kombonischt
komeede
komet
komete
komfera
komflikt
komi
komiker
komitat
komitatssitz
komitee
komm
komma
kommandant
kommando
kommd
komme
kommen
kommende
kommentar
kommentare
kommentiert
kommentierte
kommerzielle
kommet
kommissar
kommissarisch
kommission
kommissionen
kommt
kommu
kommunalbolitiker
kommunale
kommunallanddag
kommunalverband
kommunalwahl
kommunalwahle
kommune
kommunikation
kommunismus
kommuniste
kommunistische
kommunistischi
komnenos
komo
komore
kompakt
kompanii
kompany
kompendium
kompeta
kompilatione
kompiuter
kompla
komple
komplett
komplette
kompletti
komplex
komplexe
komplexi
kompliziert
kompona
komponente
komponiere
komponiert
komponischt
komponischte
komponist
komponiste
komponisten
komposition
kompositione
komposizioon
komposizioone
kompromiss
kon
kondom
konfera
konferenz
konfession
konfessione
konfessionell
konfessionelli
konflikt
konfo
kong
kongo
kongra
kongrass
kongress
konj
konjugation
konjunktiv
konklave
konkret
konkrete
konkreti
konkurra
konkurrenz
konkurs
konn
konnte
konom
konomie
konomische
konomischi
konrad
konradin
konschdanz
konschdanzer
konschtanz
konschtanzer
konschtruktion
konschtruktione
konschtruyrt
konsequa
konservativ
konservative
konservativi
konservatorium
konserwative
konsonant
konsonante
konstans
konstant
konstante
konstantin
konstantinopel
konstanz
konstanzer
konstruiert
konstrukteur
konstruktion
konstrukzioon
konsul
konsum
konta
kontakt
kontext
kontina
kontine
kontinent
kontinentale
kontinga
kontinuita
kontra
kontrabass
kontrast
kontroll
kontrolle
kontrolliere
kontrolliert
kontrova
kontroverse
konva
konvent
konvention
konvertiert
konza
konze
konzentration
konzentrationslager
konzentriere
konzentriert
konzept
konzepte
konzeption
konzert
konzession
konzil
konzipiert
koo
kooperation
koordinate
koordiniert
kopehaage
kopenhagen
kopernikus
kopf
kopie
kopiert
kopii
kopp
koptische
koralleriff
koran
korb
korea
koreanisch
koreanische
korinth
korn
kornhuus
kornweschte
korona
korps
korpus
korra
korrekt
korrektur
korresponda
korruption
korsika
korsisch
kos
koschte
koschtet
kosmos
kosovo
kostet
kostu
kottelat
kovac
kpd
kpdsu
kr
kra
kracht
kraft
kraftwa
kraftwerk
kraichgau
krais
kraisdag
krakau
kramer
kramp
krank
kranke
krankheit
kranz
krater
kraus
krause
krauss
kraut
krayer
krebs
kredit
kreete
krefeld
kreis
kreisen
kreises
kreisler
kreisstadt
kreole
kreta
kretschmann
kreutzer
kreuz
kreuzlingen
kriag
kriaga
kriagt
kridik
krie
krieg
kriege
krieger
krieges
kriegt
kriej
krim
krimgote
krimi
kriminalroman
krischna
krise
krishna
kristol
kriterie
kriterium
kritik
kritiker
kritisch
kritische
kritischen
kritischer
kritischi
kritisiert
kritzung
kro
kroate
kroatie
kroatisch
kroatische
kroazie
kroeber
kroell
kroes
krois
krokodil
kromer
krone
kronos
kru
krug
krumbach
krumm
krumme
krupp
krypta
ks
ksa
ksc
ksi
kt
ktautor
ktdichter
ktdichteri
kte
kter
kteri
ktforscher
ktgruppe
kti
ktion
ktmandat
ktolog
ktology
ktoloog
ktor
ktorium
ktrum
kttransischto
ktu
ktur
ktwettbewa
ku
kuba
kubanische
kubikmeter
kubin
kubismus
kublai
kubrick
kuen
kueny
kuh
kuhn
kularisation
kuldur
kulinarischs
kulisse
kulm
kulmbach
kult
kultur
kultura
kulture
kulturell
kulturelle
kulturellen
kulturelli
kulturen
kulturerb
kulturgeschichte
kulturgschicht
kulturgu
kulturguet
kulturkampf
kulturlandschaft
kulturzentrum
kultus
kultuur
kultuure
kum
kumenische
kumfera
kumma
kumme
kummet
kummt
kumpenischt
kumuniezh
kun
kunde
kundert
kunigunde
kunnt
kuno
kunscht
kunschtgschicht
kunst
kunstdenkma
kunstfu
kunstgeschichte
kunstgschicht
kunstgwa
kunsthalle
kunsthistoriker
kunsthuus
kunstmuseum
kunststoff
kunstverein
kunstverlag
kunstwa
kuntroll
kunz
kunza
kunze
kupfer
kuppel
kuppene
kupple
kur
kuratorium
kurfirscht
kurfu
kurie
kurier
kurort
kurpfalz
kurrus
kurs
kurt
kurve
kurz
kurza
kurze
kurzer
kurzfilm
kurzi
kurzzitnumme
kuschiter
kuss
kuum
kuur
kuwait
kv
kw
kwa
kwadratkilometer
kwalida
kwantemechanik
kwardier
kwark
kwartier
kwelle
ky
kyburg
kyburger
kyi
kyklade
kyo
kyoto
kyros
kz
kzioon
l
la
laa
laaber
laadig
laadige
laag
laage
laager
laat
laawa
laax
lab
label
labor
laboratory
labour
labt
labyrinth
lac
lach
lache
lachen
lachs
lacus
lada
lade
laden
ladin
lady
laemmle
lag
lage
lager
lago
lagos
lagrange
lagune
lah
laharpe
lahn
lahr
lahrer
lai
laichzitt
laie
lait
laiter
laiteri
laitet
laitig
lajos
lake
lakonie
lama
lambda
lambert
lamm
lampe
lan
lancaster
lance
land
landamma
landau
landbevo
landcharte
landchrais
landchreis
landdaag
landdaagswaal
landdag
landdagsfraktion
landdagswahl
landdagswahla
landdagswahle
lande
landeck
lander
landerneau
landeron
landes
landesamt
landesarchiv
landesarchivdirektion
landesbarteidag
landesbibliothek
landeschile
landesdail
landesdeil
landesflechi
landesgeschichte
landesgra
landeshauptstadt
landesherr
landesherre
landesherrschaft
landesinnere
landeskommissa
landeskunde
landeslischt
landeslischte
landesmuseum
landesregierig
landesregierung
landestheater
landesuusschuss
landesverband
landesversammlig
landesvorsitzende
landesvorsitzer
landesvorstand
landeszentrale
landet
landflechi
landfride
landfriide
landgraes
landgrafschaft
landgricht
landgro
landguet
landhuus
landig
landkrais
landkreis
landkreises
landkroes
landkrois
landmasse
landolt
landquart
landratsamt
landrot
landrut
landsberg
landschaft
landschafte
landschaften
landschaftsbild
landschtro
landsitz
landsta
landstrich
landtag
landtagswahl
landvo
landvogt
landvogtei
landwertschaft
landwirbeldier
landwirt
landwirtschaft
landwirtschaftlechi
landwirtschaftlich
landwirtschaftliche
landwirtschaftlicher
landwirtschaftlichi
landwirtschaftlig
landwirtschaftlige
landwirtschaftligi
landwirtschaftsfla
landwirtschaftsfleche
landwirtschaftsflechi
landwu
lane
lang
langa
lange
langebrugg
langem
langen
langenau
langendorf
langer
langes
langesee
langete
langfrischtig
langhuus
langi
langja
langjo
langnau
langobarde
langs
langsam
langsame
langsamer
langsami
langstrumpf
language
languages
langue
languedoc
langues
langvokal
langwirtschaftlecher
langwirtschaftlichi
lanka
lann
laos
lar
lara
large
larry
lars
larve
las
laschet
lascht
laschte
laschtwa
laschtwage
laskaris
lasker
lass
lassa
lassen
lassung
lassungsbezirk
lassungsschtell
last
lat
lata
late
lateinisch
later
laterne
latiin
latiinamerika
latiinisch
latiinische
latiinischi
latin
latina
latinisch
latinische
latinischer
latinischi
latinisiert
latium
latyn
latynisch
latynische
lau
laub
laube
lauber
lauch
lauchringe
lauf
laufbahn
laufe
laufeburg
laufedaal
laufen
laufenburg
laufende
lauffe
lauffeburg
lauffen
lauft
launch
laura
lauren
laurence
laurent
laurentius
lausanne
lause
laut
laute
lauter
lautlehre
lava
lavater
lavaux
law
lawa
lawine
lawrence
layer
lb
lba
lbe
lber
lbschdlud
lbscht
lbschta
lbschtsta
lbsta
lbstbordret
lbststa
lbum
lc
lch
lche
lcher
lcherig
ld
lda
ldba
lde
lden
lder
lderlin
ldet
ldi
ldig
ldner
ldots
ldu
ldung
ldzu
ldzug
ldzuug
le
lea
leaba
leabt
league
learning
leba
lebe
leben
lebenden
lebendige
lebens
lebensbild
lebensgeschichte
lebenslauf
lebenswerk
lebeswiis
lebet
lebt
lecchese
lech
lechqua
lechtaler
led
leda
lediglich
ledschda
ledschde
lee
leeb
leeche
leen
leepzisch
leer
leeramt
leerbuech
leere
leerer
leerstuel
left
lega
legacy
legal
legat
lege
legend
legenda
legende
legenden
legion
legiona
legioon
legislative
legislaturperiod
legislaturperiode
legitimation
lego
legt
legyrig
lehe
lehmann
lehner
lehnt
lehnwo
lehr
lehra
lehramt
lehrbuch
lehrbuech
lehre
lehren
lehrer
lehreri
lehrerin
lehrerseminar
lehrmittel
lehrstuel
lehrt
lei
leibeige
leibniz
leicht
leid
leiden
leidenschaft
leider
leidong
leik
leikirch
leimbach
lein
leinfelden
leipzig
leipziger
leis
leischte
leischtig
leischtige
leischtigsfa
leischtung
leischtungsfa
leiser
leiste
leit
leite
leiter
leitere
leitet
leitig
leitung
lek
lektor
lektu
lem
lema
lemba
lembach
lemberg
lemke
lemma
lemmy
lemnos
lemy
len
lena
lenau
lenchon
lende
lender
lene
lenger
lengere
lengeri
lengi
lengnau
lengscht
lengschte
lenin
leninismus
lenis
lennon
lens
lenz
lenzburg
lenzkirch
leo
leodegar
leon
leonard
leonardo
leone
leonhard
leonhardt
leonore
leoparde
leopold
leopoldina
ler
lerch
lerna
lerne
lernen
lernt
leroy
lerrach
les
lese
lesebuch
lesen
leser
lesig
leslie
lesotho
lessing
lest
lesung
let
letschde
letscht
letschta
letschte
letschter
letschtere
letschteri
letschti
letschts
letter
letters
lettland
lettner
lettres
letzt
letzte
letzten
letzter
letzti
leu
leuenberger
leuk
leut
leute
leuthard
levante
level
leventina
levi
levy
lew
lewis
lex
lexicon
lexikograaf
lexikograf
lexikographie
lexikon
leyman
lez
lf
lfe
lfer
lfi
lft
lfte
lfti
lg
lga
lhu
lhuus
lhuuse
li
lia
liachtaschta
liachtaschtaa
liachtaschtaanische
liachtasta
liad
liader
liadr
liard
liba
libanon
libe
liber
libera
liberaale
liberal
liberale
liberali
liberalismus
liberia
liberte
libido
library
libre
libreddo
libretto
libri
libro
libye
libysche
lich
lichdastoi
licht
lichte
lichtenau
lichtenberg
lichtenhahn
lichtenstein
lichter
lichtruumbrofyl
lichtsignaal
lichtzeiche
lid
liddratuur
lidradur
lie
lieb
liebe
lieben
lieber
liebes
liebeslieder
liebhaber
liebi
liebig
liebrich
liebt
liecht
liechtenstein
liechtensteiner
liechtesta
liechtestaa
liechtestai
liechtestei
liechtgschwindigka
liechtgschwindigkeit
lied
lieder
liederbu
liederbuch
liederbuech
liederhandschrift
liedermacher
liedli
liege
liegt
lienert
lienz
lieschtel
lieschtler
liest
liestal
liestel
lieu
lieux
life
lifere
liferet
liferig
lift
lig
liga
ligatur
lige
liged
ligen
ligende
ligendi
liget
ligge
ligged
liggt
light
lightgrey
ligi
ligt
ligurie
liib
liibli
liiche
liicht
liichte
liichter
liid
liide
liiert
liiferet
liige
liigeschaft
liinwand
liist
liit
lijt
like
likt
likud
lil
lilie
lilium
lille
lily
lima
limburg
limes
limet
limit
limmat
lin
lina
lincoln
linda
lindau
linde
linden
lindenberg
linder
lindgren
lindner
lindou
line
linear
lineare
lineari
linegrey
ling
linga
lingala
linge
linger
lingg
lingge
linggi
linggs
lingua
linguistic
linguistica
linguistics
linguistik
linguistique
linguistiques
linia
linie
link
linke
linki
links
linn
linnaeus
linne
linnie
linse
linsmayer
linth
linus
linux
linz
linzgau
lion
lionel
lipferdinge
lippe
lis
lisa
lisch
lischde
lische
lischt
lischta
lischte
lise
liselotte
lissabon
list
liste
liszt
lit
litaue
litauisch
lite
liter
litera
literadur
literarisch
literarische
literarischen
literarischer
literarisches
literarischi
literarischs
literary
literatu
literatur
literaturbryys
literature
literaturen
literaturgeschichte
literaturwissenschaft
literaturwu
literaturzeitung
literatuur
litradur
litratur
litratuur
litt
litte
little
litu
liturgie
liturgische
liu
live
liver
liverpool
lives
living
livingstone
livius
livre
lix
liza
lizenz
lker
lkerbund
lkerig
lkerigsdichti
lkerigsentwicklig
lkermord
lkerra
lkerrecht
lkerung
lkerungsentwicklung
lkerwanderig
lkrig
lkw
ll
lla
lle
llebach
lled
llem
llemols
llen
llene
lleplatz
ller
llera
llere
llerland
lles
llet
llewa
llewell
llfluss
llg
llheim
lli
llig
llige
lligi
llma
llne
llner
lloyd
llpla
lls
llscha
llschpi
llt
llte
llung
lm
lma
lmaischterscha
lmu
ln
lner
lo
lob
loc
local
locarno
loch
locher
lochmu
locke
locle
locmaria
loco
loggi
logic
logik
logisch
logischi
logischtik
logo
loh
lohmar
lohn
lohr
lohrer
loi
loir
loire
lok
loka
lokaale
lokal
lokale
lokaler
lokali
lokfu
loki
lokomotive
lokomotyv
lokomotyve
loks
lola
lombardei
lombardisch
lombardische
lon
london
londoner
lonely
long
lonza
loo
look
loon
loos
loosa
loose
loosli
loot
lorca
lorch
lord
lordi
lore
lorentz
lorenz
lorenzo
lorient
lorrain
lorraine
lorscher
los
losann
lose
losse
losst
lost
lot
lothar
lothr
lothri
lothringe
lothringen
lothringer
lothringisch
lothringische
loti
lotse
lotta
lotte
lou
louft
louis
louise
louisiana
loupe
louvre
love
lovis
low
lower
loza
lp
lplerfescht
lps
lrot
ls
lsa
lsass
lsch
lschberg
lsche
lschschwiiz
lschschwiizer
lschta
lse
lsg
lshaaber
lso
lt
lta
ltbank
ltbild
ltcharte
ltchrie
ltchrieg
ltco
ltcup
ltd
lte
lten
ltene
ltener
lteni
lter
lterb
lterchinde
lterchinder
ltere
lteren
lteri
lteschte
lteschti
lteste
ltesten
ltet
ltgria
lti
ltig
ltige
ltigi
ltigkeit
ltigt
ltigung
ltischte
ltiste
ltisti
ltki
ltkrieg
ltkulturerb
ltlich
ltlige
ltligi
ltma
ltmaischter
ltmaischterschaft
ltmaischterschafte
ltmeischter
ltmeischterschaft
ltmeisterschaft
ltnaturerb
ltnis
ltnisma
ltniss
ltnisse
ltra
ltre
ltschutz
ltu
ltung
ltwiit
ltwirtschaftsforum
ltwit
ltwuche
ltwyt
lu
lua
luanda
luard
luc
luca
lucas
lucens
luchterhand
lucia
lucie
lucien
lucius
lucke
lucy
ludisburg
ludwig
ludwigs
ludwigsburg
ludwigshafe
ludwigshaffe
lue
lueg
luege
lueget
lueginsland
luegt
luft
luftaagriff
luftbild
luftfahrt
luftfychtigkait
lufthansa
luftlinie
luftwaffe
luganersee
lugano
lugge
lui
luigi
luis
luise
lukas
luke
lully
lumengo
luna
lunar
lune
lunge
lupfe
lupfig
luscht
lust
lustig
lustige
lustspiel
lut
lute
lutet
luther
lutherische
lutschta
lutter
lutz
luussa
luut
luute
luutet
luutsischteem
luutwandel
luutwert
luwier
luwisch
luwische
luwischi
lux
luxe
luxeburg
luxeburger
luxeburgisch
luxeburgische
luxembourg
luxemburg
luza
luze
luzern
luzerner
luzius
lverba
lversa
lwa
ly
lycht
lychte
lychter
lyd
lydia
lyon
lyrik
lyriker
lyrische
lys
lyse
lyss
lyt
lyyb
lz
lze
lzel
lzer
lzerwald
lzisch
lzische
lzli
m
ma
maa
maag
maage
maal
maas
maass
maassga
maassnaame
maaß
mac
macdonald
macedonia
mach
macha
machd
mache
mached
machen
machet
machiavelli
machine
macht
machtberiich
machthaber
machtka
machtkampf
machtu
machu
mack
macke
macmillan
macron
mad
madagascar
madagaskar
madame
madang
made
madeleine
madison
madonna
madrid
mae
mafia
mag
magazin
magazine
magd
magdalena
magdeburg
mage
magellan
magganaa
maggi
maggia
maggiore
maghreb
magic
magie
magische
magister
magna
magnetfa
magnetfeld
magnetische
magnetischi
magnetpol
magnus
magyar
magyare
mahatma
mahdi
mahler
mahmud
mahndag
mahnt
mai
maidla
maidli
maie
maier
mail
maila
mailand
main
maindal
maine
mainig
maint
mainufer
mainz
mainzer
maire
mairie
mais
maischde
maischt
maischta
maischte
maischtens
maischter
maischterscha
maison
maist
maiste
maistens
maitli
maizie
maja
major
majorzwahl
makanaa
make
makedonie
makedonier
makedonische
makedonischi
making
mal
malans
malaria
malawi
malawisee
malaysia
malcantone
malcolm
male
maler
malerei
malewitsch
mali
malik
malmaison
malo
maloja
malsch
malta
malte
maltese
malus
malvaglia
mama
mammals
mammut
man
management
manager
mancha
manche
manchester
manchmal
manchmo
manchmol
mandaat
mandach
mandarin
mandat
mandatsnoofolger
mandela
mandli
mandragora
mane
manesse
manet
manfred
mang
manga
mange
mangel
mangi
mangmool
mangold
mangup
manhattan
mani
manifest
mann
manna
manne
mannem
manner
mannes
mannheim
mannschaft
mannschafte
mano
manoir
mans
mant
mantel
mantswa
mantua
manu
manual
manuel
manuela
manus
manuskript
many
manz
mao
map
mappus
mar
marathon
marazzi
marbach
marburg
marburger
marc
marcel
marcellinus
marcello
marcellus
march
marche
marco
marcus
marcuse
marduk
mare
margaret
margarete
margaretha
margarethe
margherita
margot
margret
margrit
marguerite
mari
maria
marianne
marie
marietta
marignano
marilyn
marin
marina
marine
marino
mario
marion
maris
maritime
marius
mark
markant
markante
markanti
markdorf
marke
marketing
markgra
markgraf
markgrafe
markgrafschaft
markgro
markgrof
markgrofe
markgrofschaft
markgroof
markiert
markomanne
markt
marktplatz
marktwirtschaft
markus
markyrt
marlene
marley
marly
marmor
marne
marokko
marquardt
marquis
mars
marsch
marschall
marschiert
marseillaise
marseille
marshall
martel
martell
martha
marthaler
marti
martigny
martin
martina
martinach
martini
martino
martinoli
marx
marxer
marxismus
marxistische
mary
maryland
mas
masaryk
maschine
maschinebo
maschinne
maschte
maske
mason
mass
massa
massachusetts
massaker
masse
massga
massgeblich
massimo
massiv
massive
massivi
massnahme
masson
massyv
mast
master
masters
mat
match
mater
materiaal
material
materialie
materialien
materie
materielle
mathbb
mathbf
mathematical
mathematics
mathematik
mathematiker
mathematisch
mathematische
mathematischi
mathias
mathieu
mathilde
mathis
mathrm
matisse
matriaal
matrial
matrix
matsch
matt
matte
matteo
matter
matterhorn
mattes
mattha
mattheson
matthew
matthias
matthys
matur
matura
matuur
matzen
mau
mauch
mauer
mauerlaeufer
maul
maulbronn
maure
maurer
mauretanie
maurice
maurikios
mauritius
mauro
maurus
maus
mausoleum
max
maxi
maximaal
maximal
maximale
maximali
maximilian
maximilians
maximum
maximus
maxwell
may
maya
mayer
mayor
mayotte
mayr
mazarin
mazedonie
maß
maßnaame
maßnahme
mb
mba
mbe
mber
mbh
mbol
mbool
mbox
mc
mcallister
mcp
mcr
md
mdc
mde
mdi
mdl
mdschi
mdwo
me
mechanik
mechanisch
mechanische
mechanischi
mechanismus
mecho
mechthild
meckel
meckleburg
mecklenburg
med
medaille
medal
medallie
meder
media
mediathek
mediation
mediationsakte
medical
medici
medicine
medie
mediechunscht
medien
medienkunst
medieval
medikama
medina
medio
meditation
medium
medizin
mediziner
medizinisch
medizinische
medizinischi
mee
meedie
meefach
meeh
meehait
meer
meera
meere
meerere
meereri
meeresspiegel
meeresspiejel
meerha
meersburg
meerschburg
meerz
meerzaal
meerze
meeschte
meeter
meeting
megfasst
megge
megli
meglig
meglige
megligi
megligkait
megschafft
megschlosse
megsetzt
megstellt
megstelt
meh
mehang
mehl
mehli
mehmed
mehmet
mehr
mehrera
mehrere
mehreri
mehrfach
mehrhait
mehrheit
mehrheitlich
mehrmols
mehrzahl
mei
meie
meieba
meienberg
meier
meile
meilen
mein
meine
meinem
meinen
meiner
meines
meinig
meinige
meinrad
meint
meinung
meir
meiringe
meischde
meischdens
meischt
meischta
meischte
meischtens
meischter
meischterschaft
meisele
meist
meiste
meisten
meistens
meister
meisterschaft
meitli
mekka
mel
mela
melanchthon
melanie
melbourne
melcher
melchior
meldung
melissa
mellige
melodie
melodien
melodii
melody
mels
memento
memmenga
memmenge
memminge
memmingen
memoiren
memorial
memoriam
memory
memphis
men
menaarbet
menachem
menarbet
mench
mende
mendel
mendelejew
mendelssohn
mendrisio
mene
menelik
menge
mengi
mengisch
mengs
menhir
mensch
menscha
mensche
menschen
menschenrechte
menschenversand
menschera
menschha
menschheit
menschliche
menschlichen
menschlige
menschligi
mensur
ment
mentha
mentsch
mentsche
menze
mer
mercedes
merchmool
merckx
mercurius
mercury
mercy
merere
meret
mergentheim
meriaa
merian
merika
merike
meriri
merischwand
merkel
merki
merkmal
merkmo
merkmol
merkt
merkur
merkwu
merowinger
merowingische
merry
mers
merstadt
mertens
mertu
merz
merze
merzit
merzitt
merzyt
mes
meschluss
mesetzig
mesopotamie
mesozoikum
mess
messa
messe
messene
messenie
messenier
messenische
messenischi
messer
messiah
messias
messig
messige
messina
messing
messt
met
meta
metafu
metal
metall
metaphysik
metau
mete
metem
meteorite
meter
methan
method
methode
methoden
methodik
metoo
metr
metrisch
metrische
metro
metropole
metropolitan
metropolregion
metrum
mettma
mettmadal
metz
metzger
metzler
meuron
meurthe
mexico
mexikanische
mexiko
meyer
meyers
mez
mezger
mezlando
mezzosopran
meßkirch
mf
mfa
mfer
mfersee
mft
mfte
mftig
mftige
mftigi
mg
mgangssprooch
mgarte
mhd
mhz
mi
mia
miami
miaßa
mich
micha
michael
michaela
michail
miche
michel
michelangelo
michelbach
michele
micheline
michelle
michigan
micky
micombero
microsoft
mid
midd
midde
middel
middelalder
middelalter
middelalterlige
middelalterligi
middelhoochdu
middelland
middelmeer
middelmeerruum
middelo
middelpunkt
middi
middle
middler
middlere
middleri
midi
mie
mieeminister
mieg
mien
miersch
mies
miesch
miesse
miessmer
mieße
mig
mige
migne
migrante
migration
migros
miguel
mihlacker
mike
mikrobiologie
mikroelegtronik
mikronesie
mikroorganisme
milano
milch
milchwirtschaft
mild
milde
mile
milenge
miles
milet
milhu
milhuuse
milida
milieu
milione
milita
military
militer
militerisch
militerische
militerischi
militerregierig
militum
miliz
milize
mill
mille
millennium
miller
milliarde
milliarden
millimeter
million
milliona
millione
millionen
millionestadt
millioona
millioone
milton
mim
min
mina
minaj
minas
mincha
minche
minchner
mind
minde
minder
minderha
minderhait
minderhaite
minderheit
minderheite
minderjo
mindeschtens
mindestens
mindet
mindig
mindischtens
mindistens
mine
mineral
mineralie
minerva
mines
ming
minh
mini
miniatur
minimal
minimum
minischter
minischterbresida
minischteri
minischterium
minischterpresida
minister
ministerbresida
ministerium
ministerpra
minkowski
minne
minnesa
minnesang
minnesota
minor
minschter
minschterdal
minu
minus
minuskel
minuta
minute
minuten
minze
mio
mioza
mir
mira
miriam
miro
mis
misch
mischa
mische
mischen
mischer
mischi
mischig
mischna
mischs
mise
misox
miss
missa
missdro
mission
missiona
missionar
missione
mississippi
missouri
misssta
misst
missversta
mit
mitaarbet
mitanni
mitarba
mitarbaiter
mitarbaiteri
mitarbeit
mitarbeiter
mitbegru
mitbrocht
mitchell
mite
mitem
miteme
mitenand
mitenander
mitere
mitgfu
mitghulfe
mitglid
mitglider
mitglied
mitglieder
mitgliid
mitgliider
mitglyd
mitgmacht
mitgrinder
mitgru
mitgschafft
mitgschbiilt
mitgspiilt
mitgwirkt
mithilf
mitkaiser
mitm
mitmache
mitnand
mitnander
mitnandr
mitra
mitsamt
mitt
mittag
mitte
mitteilig
mitteilungen
mittel
mittela
mittelaalter
mittelalemannisch
mittelalter
mittelalterliche
mittelalterlichen
mittelalterlichi
mittelalterlige
mittelalters
mittelamerika
mittelbaanschteig
mittelbaden
mittelberg
mittelberyych
mitteleuropa
mitteleuropas
mittelfa
mittelgebirge
mittelhochdu
mittelhoochtu
mittelland
mittellauf
mittelma
mittelmeer
mittelmeerruum
mittelpunkt
mittels
mittelschwa
mittelschwoba
mittelwa
mittelza
mitternacht
mitti
mittlalta
mittler
mittlere
mittleren
mittlerer
mittleri
mittlerwyl
mittlerwyli
mittlerwyyli
mittuland
mittwoch
mittwuch
mitunter
mitwu
mitzmache
mix
mixed
mixtape
mjaft
ml
mle
mlech
mli
mlich
mliche
mlig
mlige
mligen
mlud
mm
mma
mme
mmearbet
mmebroche
mmebruch
mmed
mmedinge
mmedra
mmefassig
mmefluss
mmegfasst
mmegschafft
mmegschlosse
mmegsetzt
mmegstellt
mmeha
mmehang
mmel
mmela
mmen
mmenarbet
mmend
mmende
mmer
mmere
mmeret
mmerig
mmert
mmerung
mmeschluss
mmesetzig
mmet
mmetrii
mmetrisch
mmi
mmig
mmige
mmitau
mmle
mmli
mmlung
mmt
mnasium
mne
mo
mobile
mobilita
mocratique
moda
mode
model
modell
modelle
modena
moder
moderator
moderatori
moderiart
moderiert
modern
moderna
moderne
modernen
moderner
moderni
modernisierig
modi
modul
modus
moe
moehring
moesa
mog
mogadischu
mohammed
mohawk
mohn
mohr
moi
moint
moire
mol
moldau
moldawie
mole
molecular
molekil
moleku
molekulare
moler
molerei
moleri
molie
moll
mollens
molse
molt
moma
moment
momentan
mon
mona
monaco
monarch
monarche
monarchi
monarchie
monarchii
monarchy
monat
monatsblatt
monatshefte
monatsschrift
mond
monde
mondkrater
mondschein
mone
monet
money
mongole
mongolei
mongolische
monica
monika
monique
monne
mono
monografie
monographie
monographien
monophthong
monopol
monroe
monrose
mons
monsieur
monster
monsun
mont
montafon
montagne
montagny
montana
montbe
monte
montenegro
monteverdi
montfort
monthey
monti
montpellier
montre
montreal
montreux
monts
montserrat
montyrt
monuma
monument
monumenta
monumenti
monza
moo
mool
moole
mooler
moolerei
moon
moonet
moonlight
moor
moore
moos
mooswald
mor
mora
moral
moralische
morbihan
mord
mordor
more
morea
moreau
moresby
morf
morga
morgan
morge
morgen
morges
morgestraich
moritz
morlaix
morphologie
morphology
morris
morrison
morstadt
mort
morte
morts
morus
mos
mosaik
mosambik
mosbach
mosche
moschee
mose
mosel
moselfra
moselfrankisch
moselle
moser
moses
moshoeshoe
moskau
moskauer
mossi
mossmann
most
mother
motiiv
motion
motiv
moto
motor
motore
motta
motte
motto
motu
motyv
mou
moudon
moulin
moulins
moulton
mount
mountain
mountains
moustoir
moutier
mouton
mouvement
movement
movie
moyen
mozart
mozilla
mp
mpa
mpe
mpel
mpelba
mpelgard
mper
mperatur
mperature
mpf
mpfa
mpfe
mpfer
mpfig
mpfli
mpft
mpi
mpin
mpliz
mpratur
mpratuur
mr
mrd
mrs
ms
mse
mst
mt
mte
mter
mtliche
mtlichi
mtszitt
mtv
mu
mua
muadr
muass
muaß
much
mue
mueder
mueller
mues
muesch
muess
muet
mueter
mueterland
muetersproch
muetersprooch
muetter
muettergottes
muettersproch
muettersprooch
mueß
mugge
muhammad
mulde
mulhouse
muller
multimedia
muluzi
muna
munch
mund
mundaart
mundaarte
mundart
mundartautor
mundartdichter
mundartdichtung
mundarte
mundarten
mundartforschung
mundartgedicht
mundartkultur
mundartliterarische
mundartliteratur
mundartsa
mundartschriftsteller
mundartwettbewerb
mundartwo
mundi
mundruum
mundschtugg
mung
muni
munizipalgmeind
munster
munzach
munzinger
mur
mura
murad
muralt
murbach
murder
mure
murg
muri
murmeldier
murmeli
murnau
murphy
murr
murray
murre
murte
murten
mus
musa
muschdersa
muschg
muschle
muschter
muse
musea
musee
museen
museeum
museo
museom
museu
museum
museums
museumsbaan
museumsbahn
music
musica
musical
musig
musiger
musigwa
musik
musikalisch
musikalischa
musikalische
musikalischen
musikalischi
musikalischs
musiker
musikeri
musikhochschuel
musikpa
musikpedagog
musikstil
musiktheater
musikwissenschaft
musique
muskle
muskulatur
muslim
muslime
muslimisch
muslimische
muslimischi
muss
mussolini
mustafa
muster
mut
mutharika
muttenz
mutter
muttez
muuche
muul
muur
muure
muurer
muurra
muus
muusig
muusiginstruma
muusigtheoretiker
muusigwu
muusiker
muß
mw
my
mya
myanmar
mykenische
mykenischi
mysterie
mystik
myth
mythe
mythen
mythische
mythologi
mythologie
mythologii
mythos
n
na
naa
naachfolger
naame
naarig
nabu
nac
nach
nachane
nachanen
nachbargmeinde
nachbergmeinde
nachburgmeinde
nachda
nachdem
nachdr
nachdruck
nachem
nacher
nachf
nachfolger
nachha
nachkomme
nachlass
nachpuurgmiine
nachrichten
nachruf
nacht
nachts
nachw
nachwort
nacional
nadal
nadph
nadu
nadur
nadurschutzgebie
naef
nagel
nager
nagld
nagold
nagooge
nagy
nagzehn
nah
nahe
nahles
nahor
nahrig
nahrigsmittel
nai
naigig
nairobi
nakumma
nam
nama
namaal
name
namen
namenbuch
namens
names
namesa
namibia
namik
namische
namma
namme
nan
nancy
nand
nander
nantes
napf
napole
napoleon
napoleonische
narcissus
narr
narrative
narre
narrezumft
narro
narzissmus
nas
nasa
nasal
nasale
nasalvokal
nascht
nase
nash
nass
nassau
nasser
nast
nastii
nat
nathalie
nathan
nati
nation
national
nationalbibliothek
nationale
nationalen
nationaler
nationalhymne
nationali
nationalismus
nationalita
nationalliga
nationalmannschaft
nationalmuseum
nationalo
nationalpark
nationalrat
nationalroot
nationalrootswaale
nationalrootswahle
nationalrot
nationalrots
nationalrotswahle
nationalsozialischte
nationalsozialismus
nationalsozialiste
nationalsozialistische
nationalstaat
nationalversammlig
nationauraatswahle
natione
nationen
nations
nato
natu
natur
natura
natural
naturalis
naturalismus
naturda
nature
naturel
naturf
naturforschenden
naturforscher
naturpark
naturschutz
naturschutzbiet
naturschutzgebiet
naturschutzpiet
naturwissenschaften
naturwissenschaftliche
naturwu
natuur
nau
nauders
naumann
naupaktos
naus
navarra
navigation
navy
nazareth
nazgu
nazi
nazionaale
nazionaali
nazionaalroot
nazional
nazionale
nazionaler
nazionali
nazionalpark
nazionalroot
nazionalsozialismus
nazioone
nazis
nb
nberg
nborn
nch
nche
nchen
nchener
nchesta
nchner
nchweier
ncia
nd
nda
ndart
ndarte
ndbaanhof
nde
nded
ndel
ndels
ndelt
ndelwange
ndemer
nden
nder
nderaadail
nderaadoel
nderaata
nderaatail
nderaateel
nderaateil
nderat
ndere
ndereck
ndereie
nderer
nderet
nderete
ndergenge
nderig
nderige
nderinformatione
nderland
ndern
nderoot
nderot
nderotswahle
nders
ndert
nderte
nderter
nderung
nderunge
nderungen
ndet
ndete
ndeti
ndez
ndgiltig
ndgu
ndi
ndida
ndig
ndige
ndigen
ndiger
ndiget
ndigi
ndigka
ndigkait
ndigkeit
ndigs
ndigsmitgliid
ndigt
ndigung
ndin
ndinge
ndisch
ndische
ndischen
ndischer
ndisches
ndischi
ndium
ndla
ndle
ndlech
ndler
ndli
ndlich
ndliche
ndlichen
ndlicher
ndlichi
ndlig
ndlige
ndligi
ndner
ndnerland
ndnis
ndniss
ndpunkt
ndr
ndra
ndre
ndrem
ndret
ndrige
ndringen
nds
ndscha
ndschaft
ndt
ndti
ndu
ndum
ndung
ndut
ne
nea
neaba
neabaher
neanderdaaler
neapel
near
neba
nebbe
nebe
nebed
nebel
neben
neberg
nebet
nebst
nebukadnezar
neburg
neche
necher
nechi
neckar
neckarsulm
necker
ned
nedsadressa
nee
neechi
need
neeser
neff
neffe
negativ
negative
negativi
neggar
negger
neggste
negro
negschte
neh
nehmen
nei
neia
neibo
neibritannie
neiburg
neie
neige
neigig
neiginea
neii
neiirland
neij
neije
neiji
neil
nein
neiornig
neis
neistadt
neiwahle
nej
nejbo
neje
neji
nel
nelke
nell
nella
nelly
nelson
nem
nemann
nemark
nemlich
nemma
nemme
nemmt
nen
nenberg
nenga
nenge
nenne
nennt
neo
neogen
neogotisch
neohethitische
neolithikum
nepal
nepomuk
neptun
ner
nera
neral
nerdli
nerdlich
nerdlig
nerdlige
nere
neret
neri
nero
nert
nerva
nes
nessans
nesslau
nest
nestle
nestor
net
netanjahu
netscape
network
netz
netzwa
netzwerk
neu
neuauflage
neuausgabe
neubau
neubaute
neuburg
neucha
neudorf
neudruck
neue
neueburg
neuem
neuen
neuenburg
neuer
neuere
neueren
neueri
neues
neueste
neuf
neuguinea
neuhaus
neuhausen
neuhuuse
neui
neujahrsbla
neujahrsblatt
neuji
neukirchen
neumann
neumarkt
neumu
neun
neus
neuschtadt
neuseeland
neuss
neustadt
neustrie
neutral
neutrale
neutralita
neutralitet
neutrum
neuveville
neuweier
neuweiler
neuwied
neuzeit
neuziit
neuzit
nevada
never
new
newa
newcomer
news
newton
next
ney
nez
nf
nft
nfte
nftig
nftige
nfzig
ng
nga
nge
ngebrugg
ngel
ngelba
ngelse
ngen
ngende
ngene
nger
ngere
ngerer
ngeret
ngeri
ngerig
ngerin
ngerscha
ngert
ngerung
ngg
ngge
nggel
nggi
nggisch
nggmol
nggmolgschu
nggmolschutz
nggt
ngi
ngig
ngige
ngigi
ngigka
ngigkait
ngigkeit
ngigkeitstag
ngigs
ngika
ngikeit
ngine
ngisch
ngl
ngla
ngland
ngle
nglech
ngler
ngli
nglich
ngliche
nglichi
nglichkeit
nglig
nglige
ngligi
ngling
nglisch
nglische
nglischi
ngmo
ngmol
ngn
ngnau
ngnis
ngo
ngr
ngs
ngscht
ngschte
ngschti
ngst
ngste
ngsti
ngt
ngte
nha
nheit
nhn
ni
nia
nica
nicaragua
niccolo
nice
nicholas
nicht
nichts
nick
nickel
nicki
nico
nicola
nicolai
nicolas
nicolaus
nicole
nicotiana
nid
nidau
nidderung
nider
nideralemannisch
niderdytsch
nidere
nidergang
niderglait
nidergloo
nidergschlaa
nidergschlage
niderla
niderlag
niderland
niderlande
niderloo
nidero
nidersa
nidersachse
niderschlag
niderschlagsma
niderschleg
niderwenige
nidorf
nidou
nidrige
nidriger
nidwalde
nidwalden
nidwaldens
nidwaldner
nidwaude
nie
nied
nieder
niedergang
niederla
niederlande
niedersa
niels
nielsen
niemals
niemer
niemert
niemeyer
nien
niene
nietzsche
nig
nige
niger
nigeria
nigg
night
nigi
nigin
niglich
nigliche
niglichi
nigra
nigreich
nigriich
nigrych
nigs
nigsberg
nigsfa
nigshausen
nigshuus
nigstein
nigung
nii
niideralemannisch
niideralemannische
niidere
niidergang
niiderglo
niidergloo
niidergschlage
niiderla
niiderlaag
niiderlag
niiderland
niiderlande
niidrige
nika
nikaia
nike
nikephoros
niki
niklas
niklaus
nikolai
nikolaus
nil
nildelta
nils
nimi
nimm
nimme
nimmi
nimmt
nimt
nin
nina
nine
ning
ninge
ningen
ninger
ningh
ninnt
nino
nintendo
nio
nir
nis
nisch
nischa
nische
nischen
nischer
nischi
nit
nita
nitt
niveau
niwa
nix
nixon
niz
nizier
nizische
nizza
nj
nk
nka
nkdag
nke
nkeba
nkel
nken
nker
nki
nkig
nkige
nkisch
nkische
nkischen
nkischi
nkler
nkmaal
nkmo
nkmol
nkmool
nkra
nkri
nkrich
nkriich
nkrumah
nks
nkt
nkte
nkti
nkung
nl
nla
nland
nle
nlech
nli
nlich
nliche
nlichi
nlichkeit
nlichkeite
nlichkeiten
nlig
nlige
nligi
nligka
nligs
nm
nn
nna
nnd
nne
nned
nnedorf
nneglehrt
nnen
nnenge
nner
nnera
nnerchor
nnet
nnfahrer
nnfahreri
nni
nnig
nnige
nniger
nnigi
nnigsbryys
nnisch
nnische
nnischi
nnle
nnli
nnlich
nnliche
nnlichi
nnlig
nnlige
nnligi
nns
nnscha
nnt
nnta
nnte
nnti
nntnis
nnu
nnung
nnzaichnet
no
noah
noam
nob
nobel
nobelbriis
nobelbryys
nobelpriis
noch
nocha
nochamol
nochbargmeinde
nochbere
nochbergmainde
nochbergmaine
nochbergmeind
nochbergmeinde
nochbergmeine
nochbergmoede
nochberla
nochberland
nochberort
nochberschaft
nochberstaate
nochburgmuanda
nochda
nochdem
noche
nochem
nocheme
nochenander
nochere
nochfolger
nochha
nochkomme
nochlass
nochricht
nochrichte
noda
nodinoo
nodisno
noe
nofretete
noh
nohdam
noi
noie
noieburg
noiehof
noihaide
noii
noije
noiji
noir
nois
noizitt
nollinge
nom
nomade
nomal
nome
nomen
nomenclature
nomene
nomenklatur
nominativ
nominiart
nominierig
nominierige
nominiert
nomo
nomol
nomos
noms
non
nonig
nonne
nonu
noo
nooch
noochbere
noochda
noochdem
noochdruck
nooche
noochem
noochfolger
noochgwiise
noochkomme
noochuu
noochwiise
noochwort
noodleba
noofahre
noofolg
noofolger
noofolgeri
noogruggt
noogwise
noohfolger
nooloss
noorde
nooruef
noot
noote
noowiis
nor
nora
norbert
nord
norda
nordafrika
nordamerika
nordamerikanische
nordbade
norddu
norde
norden
norderstedt
nordeschtlich
nordeuropa
nordgra
nordhalbchugle
nordhang
nordirland
nordische
nordischi
norditalie
nordkischte
nordkorea
nordo
nordoscht
nordoschta
nordoschte
nordoste
nordpol
nordpolarmeer
nordrand
nordrhein
nordrhii
nordrhy
nordryy
nordschwarzwald
nordsee
nordsite
nordsyte
nordufer
nordvogese
nordwa
nordwescht
nordweschte
nordweschtli
nordweschtlich
nordweschtschwiiz
nordweschtschwyzerdu
nordweste
nordwestlig
norm
norma
normal
normale
normalerwiis
normalerwis
normalerwys
normalfall
normali
normalnull
normalschpur
norman
normandi
normandie
normandii
normandy
normanne
norme
norschige
north
northern
norton
norwa
norweege
norwege
norwegische
nos
not
notaar
notar
notariaat
notation
note
noten
notes
noth
notiert
notize
notizen
notker
notoc
notre
notschrei
notwa
notwe
notwendig
notwendigi
notyrt
nou
nous
nouveau
nouvelle
nouvelles
nov
nova
novak
novalis
novamber
novara
novelle
novellen
novembe
november
novembr
novi
novum
now
nowa
nowamber
nowiis
nr
nrw
ns
nsch
nschder
nsche
nschen
nschera
nschliche
nschlige
nscht
nschta
nschte
nschter
nschti
nschtig
nschtige
nschtiger
nschtigi
nschtitu
nschtleiter
nschtler
nschtlera
nschtlich
nschtliche
nsdap
nsel
nser
nsgsa
nsige
nsionierig
nsische
nst
nste
nsten
nster
nsterblatz
nsterhu
nstertal
nstig
nstler
nstlerin
nstlerisch
nstlerische
nstlerischi
nstlers
nstliche
nt
nta
ntaar
ntahu
ntal
ntarische
ntarischi
nte
ntel
nten
nter
nterschid
nterschide
nther
nti
ntia
ntiere
ntiert
ntig
ntimeter
ntin
ntis
ntisch
ntische
ntli
ntlibuech
ntlich
ntliche
ntlichi
ntner
nton
ntpinkt
ntra
ntral
ntralafrika
ntrale
ntrali
ntrazion
ntre
ntriert
ntrum
nts
ntsch
ntscha
ntschaft
ntschaftswahl
ntschaftswahle
ntsche
ntswahle
ntwa
ntwi
ntzer
nu
nubie
nuch
nuclear
nue
nuf
nui
nuia
nuie
null
num
numa
number
nume
numen
numeno
numma
numme
nummer
nummere
nummerierig
nun
nung
nuova
nur
nus
nuss
nutze
nutzer
nutzig
nutzt
nutzung
nw
nwa
ny
nyi
nymphe
nyon
nyt
nyyn
nz
nza
nzalisch
nzbrg
nzburg
nzd
nze
nzech
nzeesch
nzeescha
nzeesche
nzeescher
nzel
nzelsau
nzen
nzende
nzer
nzeri
nzesch
nzesche
nzesisch
nzg
nzgebiet
nzi
nzig
nzige
nzinge
nzkirch
nzle
nzlebaan
nzlebahn
nzler
nzli
nzoosa
nzt
nzte
nzti
nzu
nzung
nzz
o
oa
oase
ob
oba
obama
obbe
obber
obberdo
obbere
obberfla
obberhalb
obberlauchringe
obberlauf
obberwange
obberwise
obe
obedra
obelisk
oben
obenabe
ober
obera
oberaargau
oberaargou
oberallga
oberallgai
oberamt
oberbayern
oberbefa
oberbu
oberburg
oberburgermaischter
obercho
oberdorf
oberdu
obere
oberegg
oberelsass
oberen
oberengadin
oberes
oberfla
oberflechi
obergermanie
obergfo
oberhalb
oberhalbstein
oberhasli
oberhaupt
oberhausen
oberhof
oberhofen
oberhoheit
oberholzer
oberi
oberitalie
oberkirch
oberla
oberland
oberlauchringe
oberlauf
oberlin
obermu
oberndorf
obero
oberon
oberozwil
oberpfalz
oberrhein
oberrheinische
oberrheins
oberrhii
oberrhy
oberried
oberriet
obersa
obersaxe
oberschicht
oberscht
oberschte
oberschwa
oberschwaben
oberschwobe
obersee
oberst
oberste
oberstzumftma
obersulm
oberwallis
oberwalliser
oberwil
oberza
obfige
obfiger
obja
objekt
objekte
oblast
obligatorisch
obmaa
oboe
obote
obrecht
obrigka
obrigkeit
obrika
obs
obschd
obscht
observations
observatorium
obst
obwalda
obwalde
obwaldner
obwohl
obwoll
oc
ocean
och
ochs
ochse
ochsenbein
od
oda
odd
odder
ode
oden
odenwald
odeon
oder
odessa
odewald
odin
odoaker
odr
odyssee
odysseus
odyssey
oe
oekolampad
oesch
oetinger
oettingen
oettinger
of
ofa
ofe
ofem
ofen
off
offa
offe
offebar
offeburg
offen
offenbach
offenburg
offene
offenen
offener
offeni
offensive
offesichtlich
offesichtlig
office
official
officinale
officinalis
offizia
offizie
offiziell
offiziella
offizielle
offizieller
offizielli
offiziells
offizier
offizin
offnige
ofiziell
oft
oftringe
og
ogfa
ogg
ogi
ogoz
oh
ohio
ohna
ohne
ohni
ohr
ohra
ohre
oi
oier
oifach
oigena
oigene
oil
oim
oimo
oimol
oin
oina
oine
oiner
oinzlne
ois
oise
ok
okdobr
okres
oktave
oktobe
oktober
oktobr
oktoober
oktoower
oktower
okzitanisch
okzitanische
ol
olaf
olbers
olca
old
oldenbourg
oldenburg
ole
oleracea
olga
olithikum
olive
oliver
olivier
olma
olmert
olms
olog
ologe
ologie
ologii
ologisch
ologische
ologischen
ologischi
olte
olten
olympe
olympia
olympiasiiger
olympische
olympischi
om
oman
omar
omega
omer
omnibus
oms
on
onard
once
ond
onder
onderallgai
ondr
ondre
ondrem
ondri
one
oni
onkel
onla
online
only
ono
ons
onsernone
ontario
oo
oobe
oobela
oobere
ooberi
ool
oole
ooni
oopere
oort
oorte
ooschterfinge
op
ope
opel
open
oper
opera
operation
operazioon
opere
operedda
operedde
operehuus
operesa
operette
operiert
opern
opernfu
opernhaus
opfer
opfere
opfingen
opfinger
opladen
oppenau
oppenheim
oppermann
oppidum
opposition
oppositiona
oppositionsfierer
opposizion
opr
opra
optik
option
optisch
optische
optischi
opus
or
orakel
oral
orale
orange
oranje
oratorie
oratorium
orbe
orbis
orbit
orcheschter
orchester
orchesterwa
orchestra
ord
orda
orde
orden
order
ordne
ordnet
ordnig
ordnung
ordovizium
ordre
oregon
orell
orelli
orf
org
orga
orgaan
organ
organisation
organisatione
organisationen
organisazion
organisazione
organisazioon
organisazioone
organische
organischi
organischt
organisiere
organisiert
organisierte
organisierti
organisme
organismus
organist
organization
orgasmus
orgel
orgele
orgl
orgle
oria
orie
orient
oriental
orientalische
orientation
orientiere
orientierig
orientiert
orientierte
origin
originaal
originaalditel
original
originalausgabe
originale
originaltitel
origine
origins
orinoco
ork
orkeschtr
orlando
orle
orleans
ornavasso
orne
ornig
oro
oromo
oron
orpheus
orso
ort
orte
ortenau
ortenaugrais
ortenaukreis
orth
orthal
orthodox
orthodoxe
orthodoxi
ortler
orts
ortscha
ortschaft
ortschafte
ortschaftsrot
ortsda
ortsdail
ortsdeil
ortsdeile
ortsdeiler
ortsdoal
ortsdoel
ortsdoil
ortsna
ortsname
ortsnamen
ortsnamme
ortstail
ortsteil
ortsvorsteher
oryza
os
osb
oscar
oscarpriistra
oschda
oschde
oscht
oschta
oschtafrika
oschtafrikanische
oschtalbkroes
oschtallgai
oschte
oschten
oschtere
oschteuropa
oschtfra
oschtrand
oschtschwa
oschtschwiizer
oschtschwiz
oschtschwizerisch
oschtsee
oschtsyte
oschtufer
osiris
oskar
oslo
osmane
osmanisch
osmanische
osmanischi
osnabru
osseroode
ossola
ost
ostafrika
ostasie
oste
osten
osteuropa
ostfildern
ostfra
ostfrankeriich
ostgote
ostku
osto
ostro
ostrom
ostschwiz
ostsee
oswald
ot
other
othmar
otmar
otmisinge
ott
ottersweier
otti
ottilie
ottinger
otto
ottokar
ottoman
ou
ouagadougou
ouattara
oue
ouest
ouguscht
our
ous
oust
out
oute
ouvertu
over
ovid
owen
owerburgermeischter
owerelsa
owerelsass
owerkirch
owerrhina
owerrhinalemannisch
oxford
ozean
ozeanie
ozoikum
p
pa
paapscht
paar
pablo
pabst
pacific
pack
packt
paderborn
padua
page
pai
painting
paket
pakistan
pakt
pala
palace
palaiologos
palais
palas
palascht
palast
palatale
palatalisia
palatalisierig
palau
palazzo
pale
palermo
paleschtina
palestina
palestine
palestinenser
palestinensische
palgrave
pali
pall
pallas
palm
palme
palmer
pan
panama
panamakanaal
pandemy
pandora
panem
pankraz
panne
pannonie
panorama
panoramio
pantheon
panzer
paolo
papa
papers
papier
pappos
papscht
papst
papsttum
papua
papyrus
par
para
paracelsus
parade
paradies
paradis
paradise
paradiso
paradox
paraguay
parallel
parallele
parameter
parat
parc
paris
pariser
parita
park
parker
parkinson
parkplatz
parlama
parlament
parlamentarier
parlamentarische
parlamentarischi
parler
parma
paroissiale
parole
pars
part
parta
partei
parteie
parteien
partement
partements
parther
parti
partial
partie
partikel
partitur
partizip
partner
partnergmai
partnerschaft
partnerschafte
partnerstadt
partsch
party
parzival
pas
pascal
pascha
paschalis
pasiphae
paspels
pass
passaasche
passage
passagen
passagier
passagyr
passau
passe
passho
passiert
passion
passiv
passive
passo
passt
past
pasteur
pat
pata
pate
patent
pater
patmos
patois
patoisants
patriarch
patrice
patricia
patrick
patrimoine
patriot
patriote
patriziat
patrizier
patrizierfamilie
patrologia
patron
patrozinium
pattern
paul
paula
pauli
pauline
paulo
paulus
pauly
paus
pausanias
pause
pavia
pavillon
payerne
payot
pays
pazia
pazifik
pazifische
pazifismus
pc
pd
pda
pdf
pds
pe
peace
pearl
pearson
pedagog
pedagogik
pedagogische
pedagoogische
pedal
pedemonte
pedro
peer
peeter
pegel
peggy
peking
peloponnes
peloponnesisch
peloponnesische
peloton
pen
pendant
pendants
pendel
pendo
penguin
penis
pennsylvania
pensionierig
people
peoples
per
perche
pere
peres
perf
perfect
perfekt
performance
pergamon
perihel
perikles
period
periode
perl
perle
perm
permana
perrin
perron
perry
persenlige
perser
perserchrieg
perseus
persie
persisch
persische
persischi
perso
person
persona
personal
personalpronome
personalunion
persone
personen
personena
persoon
persoone
perspectives
perspektive
perspektiven
peru
pescht
pest
pestalozzi
petacchi
pete
peter
peters
petersblatz
petersburg
petersdal
petersdom
petersen
petit
petite
petition
petra
petrarca
petri
petrus
petzold
peu
peuple
pf
pfa
pfaarer
pfad
pfaff
pfaffewiler
pfalz
pfand
pfarer
pfarrchile
pfarrchille
pfarrderfer
pfarrdorf
pfarrei
pfarreie
pfarrer
pfarrhaus
pfarrhuus
pfarrkirch
pfarrkirche
pfe
pfeffer
pfeiffer
pfeil
pfel
pfen
pfennig
pfer
pferd
pfi
pfig
pfige
pfiil
pfiiler
pfirt
pfister
pfl
pfla
pflanze
pflanzen
pflanzena
pflanzenarte
pflaum
pfle
pflege
pflegt
pfleiderer
pfli
pflicht
pflichte
pflu
pflug
pfo
pfond
pforte
pforze
pforzheim
pft
pfu
pfund
pfung
pfyffer
pfyler
ph
pha
phaidon
phane
pharao
pharaone
phase
phi
phil
philadelphia
philharmoniker
philibert
philip
philipp
philippe
philippine
philippsburg
philips
philolog
philologie
philosoph
philosophe
philosophen
philosophi
philosophical
philosophie
philosophii
philosophisch
philosophische
philosophischen
philosophischi
philosophy
pho
phoebe
phoenix
phonation
phone
phonem
phonetik
phonetische
phonologi
phonology
photo
photographie
photone
photos
photosynthes
php
phu
phylogeny
physical
physics
physik
physikalisch
physikalische
physikalischi
physiker
physiologie
pi
pia
piaf
pianischt
pianist
piano
piazza
picardes
picardie
picasso
piccolo
piccolomini
pichot
picswiss
picture
pictures
pidgin
pie
piemont
pier
pierre
pierrot
piet
pieta
pieter
pietismus
pietro
pilatus
pildet
pilger
pilot
pilote
pils
pilz
pina
pinakothek
pink
pinkt
pinot
pins
pinus
pinyin
pio
pionier
piper
pippi
pippin
pirate
pirmin
pis
pisa
pisch
pische
pischi
pischte
pisin
pissarro
piu
pius
piz
pizarro
pizzo
pj
pjotr
pkp
pkw
pl
pla
plaanet
plabennec
place
plage
plaine
plakat
plan
planck
planet
planete
planig
plankton
plant
planta
plantago
plantarum
plants
plasma
plastik
plate
plateau
platin
platon
platoo
platt
plattdu
platte
platter
plattform
platz
play
player
playstation
ple
please
plebs
plessur
pleyben
pli
plibe
plinius
plo
ploe
ploetz
plone
plosiv
plotarea
plotdata
ploue
ploune
plouzane
plu
plume
plural
plus
plusquamperfekt
plutarch
pluto
plz
pm
pmatrix
pmid
png
po
podcast
poe
poems
poesie
poet
poetik
poetische
poetry
pogrom
pogroom
pohl
poincare
point
pointe
points
poitiers
poka
pokal
pol
pole
poleis
polen
polenta
police
policy
polis
politeschi
political
politics
politik
politiker
politikere
politikeri
politikerin
politikwu
politique
politisch
politischa
politische
politischen
politischer
politisches
politischi
politischs
polizei
polizeidepartement
polka
pollock
polnisch
polnische
polnischi
polo
polt
poly
polydor
polynesie
pomatt
pommern
pompeius
pompidou
pont
pontarlier
ponte
pontifikat
pontivy
pontresina
ponts
pool
poole
poor
pop
pope
popolo
poppen
popsa
popula
populaire
popularita
population
populus
por
port
porta
portal
porte
porto
portra
portrait
portraits
portugal
portugiese
portugiesisch
portugiesische
portugiesischi
portugiisisch
portugiisische
portugisisch
poschiavo
poscht
poschte
poschtleitzaal
poschtleitzaale
poseidon
position
positione
positionen
positiv
positive
positivi
posizion
posizioon
posizioone
post
postauto
posthum
postleitzahlen
postum
posuune
potential
potentilla
potenzial
potsdam
potsdamer
potter
poue
pour
poussin
pout
powell
power
poya
pp
ppa
ppe
ppel
ppen
pper
ppinge
ppingen
ppis
ppli
ppschwihr
pr
pra
praacht
pracht
prado
prag
prager
praha
praktike
praktikum
praktisch
praktische
praktischi
praktiziert
pratensis
prato
praxis
praz
pre
prediger
predigt
predigten
preghejo
preis
preiser
preistra
prell
premier
premiere
premierminischter
premierminister
premio
presa
present
presida
president
presley
press
presse
presseinformation
pressemitteilung
presses
prestel
prestige
preusse
preuß
preuße
preußen
preußisch
preußische
preußischen
preußischi
pri
priaschter
pricht
prichtet
pride
prieschter
priester
priis
priise
priistra
prima
primarschuel
primate
prime
primo
primula
primus
prince
princeton
principles
print
printemps
prinz
prinza
prinzessin
prinzip
prior
priorat
pris
priva
privat
privatbsitz
private
privati
privatla
privats
privilegie
prix
prize
pro
probe
probiert
probla
probleem
problem
problematisch
probleme
problems
probst
proceedings
process
production
produkt
produktion
produza
produzent
produziere
produziert
prof
profa
professional
professor
professr
professur
profi
profil
profile
profilsyte
progra
programm
programme
progress
progressive
proja
projakt
project
projekt
projekte
proklamation
proklamiert
prokofjew
prolog
prometheus
promina
promotion
promoviert
promowiert
pronome
pronomina
propaganda
propagiert
prophet
prophete
proporzwahl
propyla
prosa
prota
protein
protektorat
protescht
proteschta
proteschtante
proteschtantische
protest
protestante
protestantisch
protestantische
protestantismus
proto
protokoll
protokolle
proton
protone
prototu
prototyp
protour
proust
provence
province
provinz
provinze
provinzen
provisorisch
provisorische
provisorischi
proza
prozant
prozent
prozess
pru
pruntrut
prunus
pruucht
prys
pryys
ps
psalm
pschlosse
pscht
pschtlige
pseudonym
psichology
psitticher
pso
psp
pst
pste
psu
psuecht
psunders
psyche
psychiater
psychiatrie
psychische
psychoanalyse
psycholog
psychologie
psychologii
psychologische
psychotherapie
pt
pte
pten
pter
ptische
ptischi
ptissi
ptolema
ptolemaios
ptort
ptspraach
ptstadt
pu
puberta
publ
public
publications
publikation
publikatione
publikationen
publikazioon
publikazioone
publikom
publikum
publique
publishers
publishing
publius
publiziert
publizischt
publizist
puccini
puerto
pult
pulver
pumatt
punggt
pungt
punk
punkt
punktklassema
punt
purcell
purpurea
puschkin
puschlav
pustet
pute
putin
putsch
puur
puure
puy
px
pxright
pylos
pyramide
pyre
pyrena
q
qin
qu
qua
quad
quadrat
quadratkilometer
quadratmeter
quadrocopter
quai
qualida
qualifikation
qualifiziert
qualita
qualla
quantum
quardier
quarta
quarte
quartet
quartett
quartier
quasi
quator
quatorebeni
quatre
que
queen
quela
quele
quell
quella
quelle
quellen
quer
quercus
querschnitt
qui
quiberon
quickborn
quier
quimper
quinault
quinto
quirin
r
ra
raab
raabe
raame
raat
raate
rabbi
rabbiner
rabbinische
rabde
rabe
rabin
race
rache
rachel
racht
rachts
rachtsa
racine
rad
radar
radegund
radie
radikal
radikale
radikali
radio
radioaktive
radiosa
radius
radolfzell
radra
radsa
radsport
radwa
raete
raetia
raf
rafael
raff
raffael
rafz
rafzerfa
ragaz
rageete
rahm
rahma
rahme
rahmen
rahmenlos
rahn
rai
raie
rail
railroad
railway
raimund
rain
rainald
rainbow
rainer
raire
rais
raise
raisonne
rakete
ral
rale
ralf
ralph
ram
rama
rame
ramelow
ramme
ramosch
rampe
ramses
ramsta
ran
rand
rande
randogne
random
rang
range
rangyrbaanhof
rangyre
rank
ranunculus
raoul
rap
rapa
raphael
rapp
rappe
rappenau
rapper
rapperin
rapperschwiil
rapperschwil
rapperswil
rappi
rard
rare
raron
ras
rasch
raschdi
rascher
raschi
rascht
raschtatt
raschti
raspberry
rasse
rassemblement
rasser
rassismus
rastatt
rat
rate
ratet
rathaus
rathenau
ration
ratp
ratte
rattus
rau
raub
raubdier
rauch
raum
raupe
raupp
raurica
raus
rausch
rausga
rauskomma
rauteburg
rautweil
ravaschburg
ravel
ravenna
ravensburg
raveschburg
ray
raymond
rb
rba
rbar
rbe
rbel
rben
rber
rbergass
rbi
rbig
rbis
rbs
rbscht
rbschuel
rbt
rbu
rbuch
rc
rch
rcha
rche
rchen
rcher
rcherische
rchfe
rchi
rcho
rchstatt
rcht
rchtet
rchu
rchumft
rchzu
rckel
rd
rda
rdbebe
rdbeebe
rdbidem
rde
rdeba
rded
rden
rdepfel
rder
rderbuech
rdere
rderer
rderet
rderig
rdert
rderung
rderverein
rdet
rdi
rdid
rdig
rdige
rdigka
rdigkeite
rdigkeiten
rdigt
rdigung
rdina
rdinge
rdinger
rdlech
rdleche
rdlef
rdlich
rdliche
rdlicher
rdlichi
rdlichschte
rdlig
rdlige
rdligi
rdlingen
rdo
rdoba
rdoberflechi
re
rea
reacht
reader
reading
reagan
reagiere
reagiert
reaktion
reaktiona
reaktione
reakzion
reakzioon
real
reale
realenzyklopa
realida
realisiert
realismus
realisyrt
realita
reallexikon
realschuel
reba
rebe
rebecca
rebelle
rebellion
reber
rec
rech
rechberg
recher
recherche
recht
rechte
rechts
rechtsgeschichte
reclam
reclams
reconquista
record
recordings
records
rect
red
reda
redakter
redakteur
redaktion
redakzioon
rede
reden
redensarten
redet
redigiert
reding
redinge
redner
redt
reduziere
reduziert
reduzyrt
reed
reede
reeder
reedet
reef
reegelma
reegle
reelle
reemer
reemisch
reemischa
reemische
reese
ref
refels
refera
referanz
referanza
reference
referendum
refermiert
refermierte
refermierti
reflektiert
reflexion
reform
reformation
reformator
reformazioon
reforme
reformiert
reformierte
reformierti
reformiirte
reg
rega
rege
regel
regelfall
regelig
regelma
regelra
regelung
regen
regeneration
regensburg
regent
regenten
regfu
reggae
regia
regiarung
regie
regiere
regierede
regierende
regierig
regierige
regierigsbartei
regierigsbezirk
regierigsbresida
regierigsbresidium
regierigschef
regierigsgscha
regierigspra
regierigsroot
regierigsrot
regierigsschef
regierigsziit
regierigszit
regierigszyt
regiert
regierung
regierungen
regierungsbezirk
regierungspra
regima
regime
regina
regine
regio
region
regiona
regionaale
regional
regionale
regionaler
regionalfranzesisch
regionalgruppe
regionali
regionalkultur
regionalliga
regionalportra
regionalsproch
regionalverband
regione
regionen
regiono
regioon
regioone
regischter
regisseur
register
regla
regle
reglet
regula
regyrig
rei
reich
reiche
reichenau
reichenbach
reichert
reiches
reichs
reichsbahn
reichsstadt
reicht
reid
reidleng
reidlenga
reidlenger
reie
reiff
reigetschwyl
reihe
reihefolg
reimer
reims
rein
reinbek
reine
reiner
reinhard
reinhardt
reinhart
reinhold
reini
reins
reis
reise
reisefu
reisen
reisende
reiter
reitlenga
reitlenger
rekonstruiert
rekonstruktion
rekord
rekrutiert
rektor
rel
relation
relations
relativ
relative
relativi
relativita
relatiwida
relevant
relief
religiese
religio
religion
religione
religionen
religions
religionsfreiheit
religionsgeschichte
religioo
religioon
religioone
religious
relikt
reliquie
relos
rem
rembrandt
reme
remer
remigius
remiremont
remisch
remische
remischi
remix
remmaljertittschu
remmalju
remmele
rems
remseck
ren
renaissance
renan
renata
renate
renato
rence
renchen
rend
rende
rendi
rene
reni
renn
renne
renner
rennes
renoir
renovation
renoviert
renowiert
renreiter
rent
rentsch
renz
repertoire
report
reportage
reporter
reports
repr
repra
represa
represanta
representiert
reprint
reptilie
repu
repubblica
republic
republik
republikaner
republikanische
republikanischi
republike
requiem
rer
rereservat
rerische
rerschtand
rerum
res
reschi
reschii
reschiim
reschiseeri
reschisseer
reschisso
reschpa
rescht
reschtaurant
reschtauriert
reschtliche
reschy
research
reservat
reserve
resetze
resida
residenz
residiert
resistance
resolution
resonanz
resources
resp
ressort
ressource
rest
restaurant
restauration
restaurierig
restauriert
reste
restorant
resultaat
resultat
results
ret
reto
retorumantscha
retour
retrograd
retrospektive
rette
retter
rettig
rettigheim
return
retuur
retuurchuu
reuchlin
reuss
reute
reuter
reutlingen
reutte
reutter
rev
revidiert
review
revision
revolte
revolution
revolutiona
revolutione
revoluziona
revoluzioon
revue
rewidiert
rex
rey
rez
reza
rezension
rezept
rezeption
rezepzioon
rezitativ
rf
rfa
rfe
rfel
rfen
rfer
rfet
rffer
rfig
rfle
rfli
rfnis
rfolg
rft
rfte
rg
rga
rgb
rgbaan
rgbach
rgbau
rgbo
rgchetti
rge
rgen
rgens
rger
rgerchrieg
rgerdum
rgeret
rgergma
rgerkrieg
rgerlich
rgerliche
rgerlichen
rgerlig
rgerlige
rgerligi
rgerma
rgermaischter
rgermeischter
rgermeister
rgermoaschter
rgerpartei
rgerra
rgerschaft
rgertum
rgfrid
rgge
rggipfel
rgha
rghang
rgi
rgisch
rgische
rgischi
rgklassema
rgland
rgle
rgpass
rgschtellt
rgstellt
rgsturz
rgstyger
rgt
rgu
rgwa
rha
rhb
rhe
rhea
rhead
rhein
rheinau
rheinbru
rheinfelden
rheinfelder
rheinische
rheinland
rheintal
rhetorik
rhi
rhii
rhiibrugg
rhiidoor
rhiifa
rhiiland
rhiin
rhiinau
rhiisprung
rhiital
rhiiwald
rhin
rhinai
rhinfrankisch
rhintl
rho
rhodes
rhodos
rhone
rhu
rhy
rhybrugg
rhyfa
rhyfall
rhyizugsgebit
rhyland
rhynau
rhytal
rhythmus
rhyufer
rhywald
ri
ria
rias
ribes
ric
rica
ricarda
rich
richard
richder
richdig
richdige
riche
richelieu
richrieg
richsla
richte
richter
richterswil
richtet
richtig
richtige
richtigi
richtlinie
richtung
rickebach
rickenbach
rico
rid
ridder
riddergass
riddim
riddims
ride
ridu
rie
rieche
ried
riegel
rieger
riehen
riemann
rien
ries
rieur
rieure
rif
riff
rifugio
rig
riga
rigau
rige
rigelhuus
rigen
riggebach
riggenbach
right
rights
rigi
rigkeit
rigs
rii
riich
riichdum
riiche
riichenau
riichi
riichsdaag
riichsstedt
riichste
riichswappe
riinech
riis
riiseslalom
riisig
riisige
riisigi
rijn
rik
rika
rike
riley
rilke
rille
rima
rime
rimella
rimini
rin
rinde
rinder
ring
ringe
ringen
ringer
ringfo
ringier
ringisch
ringmuure
rings
ringzu
ringzug
rinne
rintl
rio
ripiet
rippe
ris
risch
rischa
rische
rischer
rischi
rise
risee
risiko
risorgimento
riss
risse
rit
rita
rite
ritt
ritter
ritterschaft
ritu
ritual
ritus
rium
riva
rivale
river
rivera
riviera
rizvi
rizytig
rk
rka
rke
rkei
rker
rki
rkig
rkige
rkisch
rkische
rkischi
rkla
rkli
rko
rkstatt
rkt
rkumft
rkumpft
rkunft
rkung
rkusgoob
rkzu
rla
rlager
rlamant
rlauch
rle
rlech
rler
rli
rlich
rliche
rlichi
rlig
rlige
rligi
rlike
rlimann
rlin
rliner
rliteratur
rlitratuur
rlitz
rm
rma
rmanischt
rmann
rmba
rme
rmel
rmer
rmi
rmia
rmig
rmige
rmigi
rmli
rmt
rmu
rmuus
rn
rna
rnau
rnba
rnbacher
rnberg
rnberger
rnbiet
rnbild
rnchraftwa
rndli
rndu
rne
rner
rnhard
rni
rnig
rnische
rnland
rnle
rnli
rno
rnooh
rns
rnschatte
rnscht
rnsee
rnseefilm
rnseeseerie
rnseeserie
rnseeserii
rnseh
rnsehfilm
rnsehsa
rnsehserie
rnshu
rnstadt
rnt
rnte
rnten
rnti
rntu
rnu
rnvokeer
ro
road
robert
roberto
roberts
robespierre
robin
robinson
roboter
roc
rocco
roch
roche
rochefort
rochholz
rock
rockband
rockmusiker
rocksa
rode
rodin
roger
rogge
roggeburg
roggen
rohan
rohr
rohrbach
roi
rokoko
roland
role
rolf
roll
rolla
rolland
rolle
rolling
rollmaterial
rom
roma
romaan
romaanische
romagna
romain
roman
romana
romance
romand
romande
romandie
romane
romani
romania
romanica
romanico
romanik
romanisch
romanische
romanischen
romanischi
romanischt
romanischtik
romanistik
romano
romanos
romans
romantik
romantische
romantischi
romanum
romanze
rombach
rome
romeo
rommel
romont
romulus
ron
ronald
rond
ronde
room
roone
roor
roorla
roos
roosakra
roose
roosevelt
root
roote
rootet
roothu
roothus
roothuus
rooti
roots
rootsher
rootsherr
rororo
rorschach
ros
rosa
rosalie
rosch
rose
rosemarie
rosen
rosenberg
rosenheim
rosenthal
ross
rosse
rossini
rostock
rot
rota
rotation
rotationsrichtig
rotba
rote
rotem
roten
roter
rotet
roth
rothaus
rothenbu
rothenburg
rother
rothorn
rothschild
rothu
rothus
rothuus
rothwiil
roti
rotiert
rotte
rotterdam
rottner
rottu
rottweil
rottwyl
rotunde
roubaix
rouen
rouge
rougemont
rousseau
route
routledge
rowling
rowohlt
rowohlts
roy
roya
royal
roß
rp
rpa
rpe
rper
rperligi
rperschaft
rperschafte
rpinkt
rpunkt
rr
rra
rrach
rre
rred
rrenmatt
rrer
rret
rri
rriar
rrschaft
rrscht
rrt
rs
rsa
rsch
rschafd
rschd
rschde
rschi
rschinlich
rscht
rschta
rschtabt
rschtbistum
rschte
rschteller
rschtellig
rschter
rschtetum
rschti
rschtmo
rse
rsi
rsioon
rsita
rsite
rsiteet
rsli
rspiel
rspiil
rst
rsta
rstadt
rstbischo
rstbischof
rstbistum
rste
rstedum
rsteland
rstelle
rsteller
rstellig
rsten
rstenau
rstenberg
rstentum
rstentums
rster
rstetten
rstetum
rstoff
rt
rta
rtblatz
rte
rteba
rtei
rtel
rten
rter
rterbu
rterbuch
rterbuchs
rterbuech
rtern
rtet
rth
rthy
rti
rtig
rtige
rtigen
rtiggschtellt
rtigi
rtigung
rtirer
rtl
rtli
rtlich
rtliche
rtlichi
rtlig
rtner
rtnerscha
rtr
rts
rtscha
rtschaft
rtschaftlich
rtschaftliche
rtte
rtteba
rtteberg
rttebergische
rttemberg
rttembergische
rttembergischen
rttembergisches
rttembergs
rtu
rtvoll
rtvolle
rtvolli
rtyrer
rtzmo
ru
rua
ruah
ruanda
rub
rubel
rubens
rubus
ruck
ruckdritt
rucke
ruckkumma
rucksite
rucktratta
ruckzug
rudi
rudolf
rudolph
rue
ruedi
ruedolf
ruef
rueh
ruestand
ruf
ruffieux
rugby
ruggdritt
rugge
ruhe
ruhr
ruine
ruinen
rule
rules
rum
ruma
rumantsch
rumantscha
rumex
rumpf
run
rund
runda
runde
rundfahrt
rundfunk
rundgang
rundi
rundschau
rune
rung
runge
rungen
ruoff
rupert
ruprecht
rus
rusgeber
russ
russe
russell
russia
russian
russisch
russische
russischen
russischi
russland
rust
rute
ruth
rutherford
ruum
ruumblanig
ruumfahrt
ruumsonde
ruumzit
ruune
ruz
rv
rva
rve
rverlag
rvesu
rwa
rwage
rweer
rwehr
rweiter
rwet
rwil
rworter
rwortet
rwu
ry
rych
ryche
rychenau
rychenou
rychi
rychsbaan
rychsbaanamt
rychsdag
rychsgra
rychsstadt
ryf
rysle
ryy
ryych
ryyland
ryym
rz
rza
rzburch
rzburg
rze
rzel
rzer
rzere
rzeri
rzi
rzig
rzige
rzinge
rzschtugg
rzstelle
rzt
rzte
rzti
rzu
rzung
rə
s
sa
saag
saage
saal
saale
saalwa
saane
saar
saarbru
saarla
saarland
saas
saba
sabbat
sabina
sabine
sac
sach
sacha
sachbu
sache
sachen
sacher
sachliteratur
sachs
sachse
sachsen
sack
sackbaanho
sackbaanhof
sacre
sadat
saderlach
saderlacher
sae
saene
safed
safety
saft
sag
saga
sage
sagen
sagne
sagt
sagte
sah
sahara
sahel
sai
said
saied
saignele
sailer
saint
sainte
saints
saison
saisonniers
sait
saite
sala
saladin
salamanca
salame
salamis
salber
salbscht
sale
salem
salerno
sales
saley
saleytitsch
sali
salier
salins
salis
salix
sallamols
salle
salm
salo
salome
salomo
salomon
salomone
salon
salpeterer
salt
salvador
salvioni
salz
salzburg
salzburger
salzwasser
sam
samaade
samaritaner
samba
sambesi
sambia
same
samedan
sami
samle
samlig
sammelbegriff
sammle
sammler
sammlet
sammlig
sammlige
sammlong
sammlung
sammlungen
samnaun
samoa
samory
samos
samschdig
samschtig
samson
samstag
samt
samuel
samy
san
sancti
sanctus
sand
sander
sanders
sandjerge
sandoz
sandra
sandreuter
sandung
sandy
sang
sangalle
sanger
sangera
sanggale
sanggaler
sanggalle
sanggaller
sanierig
saniert
sanita
sank
sankt
sans
sansibar
sanskrit
sanssouci
sant
santa
santi
santiago
santihanns
santimeter
santo
santorini
sao
sapiens
sar
sara
saragossa
sarah
sarajevo
sarasin
sarazene
sardinie
sarg
sargans
sarganserland
sargon
sarkozy
sarne
sarrazin
sarrebourg
sarreguemines
sarthe
sartre
saruman
sasbach
sascha
saschbe
sassanide
sat
satb
satellit
satellite
satellites
satire
satirische
sativa
sativum
sativus
sattel
saturn
saturnmo
saturnmond
satz
sau
saudi
saue
sauer
sauerla
saul
saules
saulnois
sauma
saur
saurer
sauron
sauschwa
sauter
sauveur
savagnier
savanne
save
savie
savognin
savoie
savoye
savoyen
savoyer
sax
saxe
saxifraga
saxophon
say
sbb
sbg
sc
scalemajor
scarlatti
sch
scha
schaa
schaab
schaade
schabbtai
schach
schache
schachtelhalm
schad
schade
schaf
schaffa
schaffe
schaffed
schaffen
schaffet
schaffhausen
schaffhauser
schaffhuse
schaffhuuse
schaffig
schaffner
schafft
schaffuuse
schaffuuser
schaft
schafte
schafuuse
schah
schale
schaler
schall
schallbecher
schaller
schallplatte
schallsched
schaltchreis
schaltige
schaltjohr
schamlippe
schams
schaner
schanfigg
schanze
scharf
scharfe
scharfi
scharia
scharon
scharte
schatte
schatten
schatz
schau
schaub
schaueburg
schauenburg
schauinsland
schauplatz
schauschbiil
schauschbiiler
schauschbiilere
schauspiel
schauspieler
schauspielhaus
schauspiil
schauspiiler
schauspiilere
schauspiileri
schauspiilhuus
schauspiler
schauspileri
schba
schbanie
schbanisch
schbanische
schbiil
schbiilfilm
schbiilt
schbo
schbro
schbrooch
schbroochatlas
schbrooche
schd
schda
schdaarchi
schdaat
schdaate
schdad
schdadd
schdadt
schdat
schde
schded
schdedt
schder
schdo
schdood
schdu
schduagert
sche
sched
schee
scheebuach
scheena
scheene
scheer
schef
scheff
scheffe
scheffel
scheffredakter
scheide
schel
schell
schem
schema
schematischi
scheme
schemmba
schen
schene
schengen
schenio
schenk
scher
scherer
scherz
schet
schetzige
schetzt
scheurer
scheziit
schi
schia
schialer
schich
schicht
schichte
schicke
schickele
schicksal
schickt
schie
schieler
schienenbus
schiers
schiesse
schiff
schiffahrt
schiffbar
schiffbau
schiffe
schifffaart
schifffahrt
schiffla
schig
schige
schiibe
schiine
schiint
schild
schilder
schilf
schiller
schillerstiftig
schilling
schillinger
schiltach
schimanski
schimberg
schimon
schimpanse
schimpfwort
schin
schina
schinbar
schinbari
schindellegi
schindler
schine
schineverkehr
schinge
schingen
schini
schinne
schint
schinznach
schirm
schirmer
schisma
schitze
schizophrenie
schla
schlaa
schlaat
schlaate
schlaatemer
schlacht
schlachte
schlaf
schlag
schlage
schlager
schlagersa
schlagzu
schlange
schlat
schlatt
schlaufe
schle
schlecht
schlechte
schleck
schlegel
schlemmer
schlesie
schleswig
schlettsta
schlettstadt
schley
schli
schlia
schliaßa
schliaßlich
schliaßt
schlie
schlienge
schlierbach
schliesse
schliessli
schliesslich
schliesslig
schliesst
schließe
schließli
schließlich
schließlig
schließt
schlimm
schlimmer
schlimmste
schlo
schloo
schloot
schloss
schlossberg
schlosser
schlosspark
schloß
schlu
schluchsee
schluchseewa
schlucht
schluchte
schlumpf
schluss
schlussa
schma
schmal
schmale
schmali
schme
schmeller
schmetterling
schmetterlinge
schmid
schmidt
schmied
schmiid
schmitt
schmitz
schmo
schmotzige
schmu
schmuck
schmutz
schna
schnabel
schnabelweid
schne
schnee
schneider
schneidmu
schneie
schneien
schnell
schnelle
schneller
schnewlin
schniide
schnitt
schno
schnu
schnuufe
schnyder
scho
schobinger
schoch
schoeck
schof
schoggi
schokolade
scholl
scholz
schon
schoof
school
schopfe
schopfheim
schorndorf
schorsch
schorta
schott
schotte
schotter
schottisch
schottische
schottland
schpa
schpagetti
schpanie
schpanisch
schpanische
schpeeter
schpi
schpo
schprach
schprache
schpro
schproch
schra
schramberg
schramm
schranke
schreiba
schreiben
schreiber
schreibt
schreibweis
schreiner
schri
schribe
schribt
schrifda
schrifde
schrift
schriftdeutsch
schriftdu
schrifte
schriften
schriftenreihe
schriftlich
schriftliche
schriftlichi
schriftlig
schriftlige
schriftligi
schriftschteller
schriftsprache
schriftsproch
schriftsprooch
schriftsteller
schriftstellere
schriftstelleri
schriftstellerin
schriftzeiche
schriftzug
schriibe
schriiber
schriibig
schriibt
schriibwiis
schritt
schrittwys
schro
schru
schruube
schrybd
schrybe
schryber
schrybig
schrybt
schrybwys
schryybe
schryybig
scht
schta
schtaat
schtaate
schtadt
schtaht
schtai
schtamme
schtammt
schtand
schtarch
schtark
schtatt
schtattgfunde
schtaufe
schte
schteht
schtei
schteig
schtell
schtelle
schtellt
schter
schterriich
schterrych
schterrychische
schtet
schti
schtig
schtigi
schtil
schtlech
schtleche
schtli
schtlich
schtliche
schtlichi
schtlig
schtliga
schtlige
schto
schtoht
schtra
schtrich
schtriich
schtriicher
schtriichische
schtro
schtrooss
schtroossburi
schtrych
schtrychische
schtu
schtumm
schtund
schtung
schu
schua
schual
schub
schubart
schubert
schue
schuel
schuelbildig
schuele
schueler
schuelhu
schuelhuus
schueljoor
schuelsprooch
schuelwa
schuelzyt
schul
schuld
schulde
schuldes
schuldese
schuldig
schule
schulen
schuler
schulin
schuls
schulte
schultes
schultha
schultheiss
schultheiß
schulthess
schulz
schulze
schumacher
schumann
schun
schurnalischt
schurnalischti
schurnalist
schuss
schussenried
schuster
schutt
schutte
schutter
schutz
schutzbiet
schutzgebiet
schutzpatron
schutzwu
schuu
schwa
schwaabe
schwaarz
schwaarzwald
schwab
schwabe
schwaben
schwach
schwache
schwachi
schwalbe
schwamedinge
schwan
schwand
schwanden
schwander
schwanger
schwangerschaft
schwanke
schwankige
schwankt
schwanz
schwarmfisch
schwarte
schwarz
schwarza
schwarzach
schwarze
schwarzeburg
schwarzem
schwarzen
schwarzenbach
schwarzenberg
schwarzer
schwarzes
schwarzi
schwarzkopf
schwarzmaier
schwarzwa
schwarzwald
schwarzwaldbaan
schwarzwaldbahn
schwe
schwebisch
schwebische
schwebischi
schwecher
schwede
schweden
schwedisch
schwedische
schwedischi
schweede
schweer
schweere
schweeri
schweigen
schweinfurt
schweitzer
schweiz
schweizer
schweizerdeutsch
schweizerdeutsche
schweizerdeutschen
schweizerdeutsches
schweizerische
schweizerischen
schweizerischer
schweizerisches
schwelle
schwendi
schwenninge
schwenningen
schwer
schwerchraft
schwere
schwerer
schweri
schwerin
schwerpu
schwerpunkt
schwert
schwerzen
schweschter
schweschtere
schwester
schwestern
schwetzingen
schwi
schwiirig
schwiiriger
schwiiz
schwiizer
schwiizerdu
schwiizergarde
schwiizerisch
schwiizerische
schwiizerischen
schwiizerischi
schwiller
schwimme
schwing
schwinge
schwinger
schwingig
schwirig
schwirige
schwiriger
schwirigkeite
schwiz
schwizer
schwizerdu
schwizerisch
schwizerische
schwizerischi
schwo
schwoba
schwobe
schwobechrieg
schwobeland
schwoobe
schwu
schwung
schwur
schwyyz
schwyz
schwyzer
schwyzerdu
schwyzerisch
schwyzerische
schwyzerischen
schwyzerischi
schwyzerlu
schwyzertu
schybe
schyn
schyns
schynt
schynts
sci
science
sciences
scientific
scilligo
scop
scott
scuol
sd
sda
sdadd
sdr
sds
sduagord
se
sea
sean
search
seattle
sebastian
sebbe
sebbi
sec
secession
sech
sechs
sechsda
sechste
second
secret
secrets
security
sed
sedima
see
seea
seebach
seeberg
seebezirk
seebrugg
seebuck
seebund
seedorf
seee
seefaarer
seefahrer
seegfro
seehafe
seehofer
seeholzer
seeje
seel
seeland
seelbach
seele
seemann
seen
seene
seenswu
seer
seerhy
seeschlacht
seetal
seeufer
seevo
seewald
seewis
sefer
seftige
seg
segi
segid
segs
seh
seha
sehen
sehenswu
sehn
sehnsucht
sehr
sei
seid
seidel
seie
seig
seige
seil
seiler
seille
seim
sein
seine
seinem
seinen
seiner
seines
seira
seisebezirk
seislertu
seit
seite
seiten
seitz
sej
seje
sek
sekreta
sekretariat
sekte
sektion
sektor
sekunda
sekundarschuel
sekunde
sel
selbe
selber
selbr
selbscht
selbschta
selbst
selbsta
selbstverlag
selbstversta
selbstzeugnissen
seldner
seldschuke
selected
self
seli
seligarte
seligmann
selim
sell
sella
selle
sellem
sellen
seller
sellere
selleweg
selli
sellne
sellra
selte
seltene
seltener
seltsame
selvarajan
sem
semantik
semeschter
seminaar
seminar
semitische
semmerenga
sempach
sen
sena
senat
senator
send
sende
sender
sendig
sendlfenga
sendung
sene
seneca
senegal
senga
seni
senior
seniore
senkra
senn
sens
sense
sent
senta
sentation
sentiert
sentlig
sentlige
sentligi
sentyrt
senz
seoul
sep
separat
separate
separati
sepik
sepp
sept
septa
septamber
septembe
september
septembr
ser
serbe
serbie
serbisch
serbische
sere
serenade
serge
sergei
sergej
sergio
sergius
seria
serie
series
serii
server
service
services
ses
seschi
sessa
session
set
seth
setra
setz
setze
setzt
seuil
seven
seventh
severin
severus
sevilla
sex
sexualita
sexuell
sexuelle
sexuelli
sey
seychelle
sf
sfa
sforza
sg
sga
sgab
sge
sgsproche
sh
sha
shakespeare
shakespeares
shanghai
sharani
shaw
she
sheppard
shi
shift
shire
shiva
sho
shop
short
show
shuttle
si
sia
siand
sibbe
sibe
sibebu
sibirie
sibirien
sibirische
sibte
sibylle
sibza
sich
sicher
sichere
sicherha
sicherhait
sicherheit
sicheri
sicherig
sicherung
sichs
sicht
sichtbar
sichtbare
sichtbari
sichuan
sichuanesisch
sichuanesische
sid
sida
sidafrika
sidafrikanische
sidamerika
sidant
sidantscha
sidbade
siddytsche
side
siden
sident
sidente
sidenten
sidentin
sider
siders
sideschtli
sidfra
sidium
sidkoreanische
sidler
sidli
sidlich
sidlig
sidlige
sidligsfla
sidligsflechi
sidligsflechine
sidlongsfleche
sidlung
sidlungsfla
sidlungsfleche
sidlungsflechi
sidoschte
sidpol
sidwescht
sidweschte
sidweschtfunk
sidweschtrundfunk
sie
siebe
siebeck
sieben
siebenbu
sieber
siechehuus
siedler
siedlung
sieg
siegel
siegen
siegfried
siegmund
siehe
sieht
siemens
siena
sierra
sierre
sig
sige
sigel
siger
sigi
sigibert
sigismund
sigma
sigmaringe
sigmaringen
sigmund
sign
signaal
signaalbegriff
signaalsischteem
signal
signalisyrig
signatur
sigrid
sigt
sihl
sihn
siht
sii
siiba
siibe
siide
siidestrooss
siidler
siidlig
siidlige
siidligsgebiet
siidwalser
siig
siige
siigel
siiger
siiht
siim
siin
siina
siine
siiner
siinera
siinere
siini
siis
siit
siita
siite
sik
sika
sikalisch
sikalische
sikalischi
siker
sil
silbe
silber
silberburg
silberdistel
silberne
silbrig
silbrige
silbrigi
silcher
silene
silikatischem
silizium
silja
silke
sils
silur
silva
silvan
silver
silvester
silvia
silvio
silvretta
sim
simbabwe
simek
simeon
simon
simona
simone
simple
simplon
simplonpass
simpson
simpsons
sin
sina
sinai
sinan
sinclair
sind
sindaco
sinds
sine
sinem
sinene
siner
sinera
sinere
sinfonia
sinfonie
sinfonii
sinfonische
sing
singapur
singe
singen
singer
single
singles
singspiil
singstimm
singt
singular
singvo
sini
sinke
sinkt
sinn
sinne
sinnem
sinner
sinnere
sinni
sinnvoll
sinre
sins
sinschtruma
sinsheim
sint
sintax
sinti
sio
sion
sioniert
sippe
sipplinge
sir
sire
sis
sisch
sischa
sische
sischem
sischen
sischer
sischi
sischs
sischsprachige
sischteem
sischtem
sischtematik
sisgau
sissach
sissech
sissle
sistance
sit
sita
sitde
sitdem
site
sitem
siter
sites
sitha
sither
sitlich
sitt
sitta
sitte
sitten
sitter
sittu
situation
situatione
situazioon
sitz
sitzbla
sitze
sitzig
sitzige
sitzpla
sitzt
sitzung
sivananda
sive
six
sixtus
sizilie
sizilien
sizun
sjw
sk
ska
skala
skandal
skanderbeg
skandinavie
skandinavische
skelett
sketch
sketsch
ski
skifahre
skira
skizze
skizzen
sklave
sklavehandel
sklaven
sklaverei
skt
skulptur
skulpture
skumme
sky
sl
sla
slalom
slam
slawe
slawische
slawischi
sle
sler
sli
slm
slowake
slowakei
slowakisch
slowakische
slowenie
slowenisch
sm
sma
small
smith
sms
smusig
sn
snacht
sncf
snow
so
sob
sobald
soc
social
sociale
socie
societa
societad
society
sockel
sodass
soddiche
sofern
sofia
sofort
software
sog
soga
sogaar
sogar
sogenannt
sogenannte
sogenannti
soglio
sogna
sognannte
sognannti
sognennte
sognennti
soh
sohn
soissons
soiusa
soko
sokrates
sol
solang
solange
solanum
solar
solche
solda
soldaate
soldada
soldat
soldate
soldaten
sole
soledurn
soledurner
soledurnische
soleil
soli
solidarita
solischt
soll
solla
solle
sollen
sollet
sollte
solo
solodurn
solomon
solon
solothurn
solothurner
soma
somali
somalia
somaliland
somalische
some
somit
sommaruga
somme
sommer
son
sonate
sonde
sonder
sonderausgabe
sonderbund
sonderbundschrieg
sonderdruck
sonderegger
sonderheft
sondern
sonderstatus
sondrio
sone
song
songs
songwriter
sonige
sonigi
sonja
sonne
sonntag
sons
sonscht
sonschtiche
sonschticher
sonschtige
sonst
sonvico
sony
soo
soome
soon
soonigi
soorsi
sophia
sophie
sophokles
sopra
sopran
sorbonne
sorcheschter
sorg
sorga
sorge
sorgfa
sorgt
sorsi
sorte
sortiert
sott
sotte
sou
soul
sound
sounds
soundtrack
source
sources
sous
south
southern
souvera
sovil
soweit
sowi
sowia
sowie
sowiso
sowit
sowjetisch
sowjetische
sowjetischi
sowjetrepublik
sowjetunion
sowohl
sowoll
soz
sozia
sozial
sozialdemokrat
sozialdemokrate
sozialdemokratie
sozialdemokratische
sozialdemokratischi
soziale
sozialen
sozialer
soziales
sozialgeschichte
soziali
sozialismus
sozialiste
sozialistisch
sozialistische
sozialistischi
sozials
sozialwissenschaften
sozialwu
soziolinguistisch
soziolog
soziologie
soziologii
soziologische
soziology
sp
spa
spaalevorstadt
space
spaghetti
spain
spalte
spaltig
span
spanie
spanien
spanier
spanisch
spanische
spanischen
spanischi
spanish
spannig
spannige
spannungsfeld
spannwiiti
spare
sparta
spartaner
spartanische
spartanischi
sparte
spatz
spazierga
spaziergang
spd
spe
spec
spechbach
specht
special
specialty
species
speck
speer
speeter
spektakula
spektrum
spekulatione
spencer
spescha
spessart
speter
spetere
speyer
speyerer
spezia
spezial
spezialisiert
spezialita
spezie
speziell
spezielle
spezielli
spezifisch
spezifische
spha
sphinx
spi
spiddaal
spiegel
spiel
spiele
spielen
spieler
spielt
spiess
spiez
spiicher
spiil
spiile
spiiler
spiilfilm
spiili
spiilt
spiilzu
spil
spile
spiler
spille
spiller
spillt
spilt
spiltag
spin
spinne
spinnerei
spinoza
spirit
spiritualita
spirituelle
spital
spitteler
spitz
spitze
spitzekandidat
spitzekandidati
spitzname
splu
spo
spohr
spoken
spoleto
spontan
spoot
spootantike
spoote
spootmiddelalter
spore
sport
sportart
sportler
sports
sportveraastaltig
sportverein
spot
spote
spotjohr
spra
spraach
spraachatlas
spraache
spraachwu
sprach
sprachatlas
sprache
sprachen
sprachenkenner
sprachgeschichte
sprachlandschaft
sprachwissenschaft
spre
sprechen
sprecher
spreng
sprich
spricht
sprichwo
spring
springe
springer
sprint
sprinter
spro
sproch
sprocha
sprochadlas
sprochatlas
sproche
sprochfamilie
sprochforscher
sprochgebiet
sprochgruppe
sprochruum
sprochwisseschaft
sprochwisseschaftler
sprochwu
sprooch
sproochatlas
sproochbiet
sprooche
sproochfamilie
sproochforscher
sproochgebiet
sproochgebruuch
sproochgra
sproochgschicht
sproochluut
sproochruum
sproochwu
spru
spruch
sprung
spu
spuler
spur
spure
spuren
spuure
spycher
spyl
spyri
sqrt
square
sr
srf
srg
sri
ss
ssa
ssaberg
ssaburg
ssaga
ssakumma
ssant
ssascha
sse
ssed
ssel
sselblume
sseldorf
sseldorfer
ssem
ssen
ssend
ssene
sser
sserdam
sserditsch
ssere
sseret
sserflechi
sseri
sserig
ssers
sserscht
sserst
sseschaft
sseschafte
sseschafter
sseschaftler
sseschaftlich
sseschaftliche
sseschaftlichi
sseschaftlig
sseschaftlige
sseschaftligi
sset
ssgwa
ssi
ssiert
ssig
ssige
ssigem
ssiger
ssigi
ssigka
ssigkeit
ssigkeite
ssigs
ssigt
ssigte
ssika
ssin
ssisch
ssischa
ssische
ssischen
ssischer
ssisches
ssischi
ssischs
ssla
ssle
ssler
ssli
sslich
ssluut
ssnacht
ssne
ssor
ssp
ssproch
ssr
ssschuss
sst
sstal
sste
ssti
ssu
ssur
sswa
sszaichent
st
sta
staa
staal
staat
staate
staatebund
staaten
staates
staatli
staatlich
staatliche
staatlichi
staatlig
staatlige
staatligi
staats
staatsaawaltschaft
staatsarchiv
staatsbaan
staatsbibliothek
staatsbiet
staatsbresida
staatsbu
staatsexame
staatsform
staatsgebiet
staatsgra
staatskanzlei
staatsmaa
staatsmann
staatsminischter
staatsoberhaupt
staatsoper
staatspra
staatsra
staatsregierig
staatsreligion
staatssekreta
staatsstreich
staatstheater
staatswa
staatsyse
stab
stabil
stabilita
stade
stadie
stadion
stadium
stadler
stadt
stadtarchiv
stadtbezirk
stadtbibliothek
stadtbiet
stadtbild
stadtbuch
stadtcasino
stadtchile
stadtda
stadtdail
stadtdeil
stadtdoel
stadtdoil
stadtdoor
stadtfauna
stadtfu
stadtgebiet
stadtgeschichte
stadtgliderig
stadtgra
stadtgru
stadtgschicht
stadthuus
stadtkirch
stadtkreis
stadtmuseum
stadtmuur
stadtmuure
stadtort
stadtpark
stadtpresida
stadtra
stadtraat
stadtrand
stadtrat
stadtroot
stadtrot
stadtstaat
stadtstaate
stadttail
stadtteil
stadttheater
stadttor
stadtverwaltig
stadtviertel
stadtwa
stadtza
stadtzentrum
staffel
staffelbach
staffle
stahl
staht
stai
stair
stalder
stalin
stalinismus
stall
stamed
stamm
stammbaum
stammburg
stamme
stammed
stammen
stammet
stammsitz
stammt
stammvater
stammvatter
stampa
stand
standard
standardchinesisch
standarddu
standardfranzo
standardmoda
standards
standardsproch
standardsprooch
standardwa
standgwa
standoort
standort
standpunkt
stanford
stang
stange
stanley
stans
stant
stapfle
star
starch
starche
starchi
stark
starke
starki
stars
start
startet
stat
statcube
state
states
statik
station
statione
stationiert
stationyrt
statistics
statistik
statistisch
statistische
statistisches
statistischi
statistischs
stato
statt
stattdesse
stattfinde
stattfindet
stattgfu
stattgfunde
statthalter
statue
status
statut
statute
staub
staudamm
staufe
staufen
staufer
stauffenberg
stauffer
staumue
stauschtue
stauschtufe
stausee
stauweer
stazioniert
ste
steam
steck
stecke
steckt
stedt
stedtebou
stedtebund
stedtisch
stedtische
stedtischi
stedtli
steeg
steem
stefan
stefanie
stefano
steffen
steffi
steg
steger
stehen
stehende
stehendi
stehlin
stehn
steht
stei
steibruch
steidl
steiermark
steiff
steige
steiger
steigt
steil
steile
stein
steina
steinach
steinadal
steinbach
steinbru
steine
steinegg
steinen
steiner
steinhausen
steinmann
steinmeier
steinzeit
steit
stele
stell
stella
stelle
stellen
stellewa
stellig
stellige
stellt
stellung
stellverdra
stellvertra
stellwa
stem
stematisch
sten
stephan
stephanie
stephen
stephenson
steppe
ster
sterben
stercher
stere
sterke
sterker
sterki
sterkschti
sterkste
stern
sternbild
sternbilder
sterne
sternen
sterreich
sterreichische
sterreichischen
sterreichischer
sterreichs
sterrich
sterriich
stet
stets
stette
stetten
stettin
stettler
steve
steven
stevens
stewart
sthetik
sti
stich
stichtag
stichwahl
stichwort
stick
stickelberger
stickstoff
stier
stifdig
stift
stifter
stiftig
stiftung
stig
stigt
stiigt
stiil
stiilrichdig
stil
stilicho
stilistisch
still
stille
stiller
stillglait
stilli
stillla
stimm
stimmba
stimmbera
stimme
stimmen
stimmhaft
stimmhafte
stimmhafti
stimmig
stimmlos
stimmlose
stimmlosi
stimmra
stimmt
stimmung
stina
stipa
stipendium
stirbt
stli
stlich
stliche
stlichen
stlichi
stlig
stlige
stligi
sto
stock
stockach
stocke
stocker
stockholm
stockmeyer
stoff
stoffwa
stoh
stoht
stoiber
stoll
stolle
stolz
stond
stone
stones
stoo
stoot
stop
storch
store
storia
storico
stories
storm
story
stot
stotzig
str
stra
straalig
straass
strabo
strabon
strahlig
stralsund
strand
strang
strasbourg
strass
strassburg
strasse
strategie
strategisch
strategische
strategischi
strategy
stratigraphische
stratospha
straub
strauss
strauß
strawinski
straßburg
straßburger
straße
stre
streck
strecke
strecker
strecki
street
stregge
streggi
streich
streicher
streichquartett
streife
streifzu
streik
streit
streng
stress
strich
stricker
striich
striicher
striichisch
striichische
striichischi
striichkwardett
striichorchester
striit
strit
stritt
stro
strof
stroifa
strom
stroof
stroofe
stroom
stroos
stroosburi
strooss
stroossburg
stroossburger
stroosse
stroossebrugg
strooß
strophe
strosburi
stross
strossburg
strossburi
strosse
stroß
stroßburg
stroßburger
stroßburi
stroßburri
stroße
stru
strube
structure
struktur
strukturdaten
strukture
strukturen
struve
strych
strychische
stryt
stu
stuagert
stuart
stube
stuck
stucki
studa
student
studente
studer
studi
studia
studie
studiega
studiegang
studien
studienausgabe
studiere
studiert
studies
studiira
studiirt
studio
studioalbe
studioalbum
studiom
studios
studium
study
stue
stuefe
stuegert
stuegerter
stueggert
stuel
stufe
stugg
stuggart
stumm
stumpf
stumpfgleis
stund
stunde
stunden
sturm
sturz
stuttgart
stuttgarter
stutz
stuube
stuudiega
stuudium
stygig
stygt
styl
style
styria
styyre
su
sua
suacht
sub
subjekt
subkontinents
subschtantiv
subsp
substantiv
substanz
substanze
suche
sucht
sud
sudan
sue
suebe
sueche
suechi
suecht
sueddeutsche
sues
sueskanaal
suez
suffix
suhn
suhrkamp
sui
suisse
suisses
suite
sujet
sukkot
sul
sully
sultan
sultanat
sulz
sulzbach
sulzburg
sulzer
sum
sumatra
sumer
summa
summe
summer
summerspiil
sumpf
sun
sunday
sunder
sundern
sundga
sundgau
sundgo
sune
sunegott
sung
sunn
sunna
sunndig
sunne
sunnefinsternis
sunnegott
sunneleecht
sunneliecht
sunnesystem
sunnewind
sunnite
sunntig
sunscht
sunschtige
sunschtiger
sunschtigi
sunschtigs
supe
super
superior
superiore
supplement
supra
sur
sura
surdez
sure
suriname
surmeirisch
surre
surrealismus
surrealiste
surrealistische
sursee
surselva
surselvisch
surselvische
surses
survey
surya
sus
susan
susanna
susanne
susch
suscht
suschtigi
sust
sustiger
sustigi
sustigs
suter
sutermeister
sutselvisch
sutselvische
sutter
suttner
sutton
suu
suuger
suur
suurla
suurstoff
suvera
suzanne
sv
sven
svg
svizra
svizzera
svizzeri
svp
sw
swa
swahili
swami
swasiland
sweet
swf
swift
swing
swiss
swissair
swisscom
swissinfo
switzerland
sword
swr
sy
syd
syder
sydney
syg
syl
syllogisma
sylvestris
sylvia
sylvie
sym
symbol
symbole
symbolisiert
symphonie
symphony
symposium
symptom
syn
syna
synagog
synagoge
syndrom
syne
syner
synere
syneren
syni
synod
synode
synonym
syntax
syrakus
syre
syria
syrie
syrische
sys
syschtem
syschtematik
system
systematik
systematisch
systematische
systeme
systems
syt
syte
syter
syterha
syy
syym
syyne
syyni
syyre
sz
sza
sze
szeene
szeenefragma
szeged
szena
szene
szenen
t
ta
taa
taag
taal
taba
tabak
tabelle
tabu
tach
tacitus
taddey
tafaas
tafel
tafle
tag
tagblatt
tage
tagebu
tagebuch
tagen
tages
tagesanzeiger
tagesschau
tagesspiegel
tageswoche
tageszeitung
tagsatzig
tagt
tagung
tahiti
taiga
tail
tailgnoo
tailt
tain
taiwan
take
takt
tal
tala
tale
talent
taler
tales
talheim
talienisch
talk
talmud
tamins
tan
tanach
tang
tanga
tango
tanja
tank
tanner
tansania
tante
tantike
tanz
tanze
tanzen
tanzt
tanztheater
tap
tappolet
tar
tara
tarasp
tarent
tarquinius
taschen
taschenbu
taschenbuch
taschenbuchverlag
tat
tatare
tate
tatort
tatsa
tatsach
tau
tauber
tauberbischofsheim
taucht
tauft
taunus
tausend
tavannes
tavel
taverne
taxa
taxi
taxis
taxon
taylor
taz
tb
tchen
te
tea
team
teams
teatro
teau
tebach
technig
technik
technike
techniker
technisch
technische
technischen
technischi
techno
technologie
technology
teck
tectum
ted
tee
tegernau
teggscht
teggst
tegorii
tegscht
teheran
teil
teilband
teile
teilen
teili
teilig
teilna
teils
teilt
teilwiis
teilwis
teilwys
tekscht
tektonik
tektonische
tektonischi
tel
tele
telefon
telekom
telemann
telepolis
teleskop
teleskope
television
teli
tell
tello
tem
tempel
temperadur
temperatur
temperature
temple
tempo
tempora
temps
ten
tend
tenda
tende
tender
tendi
tends
tendschte
tendste
tendsti
tene
teneriffa
tennessee
tennis
tenor
tenorhorn
teology
ter
tera
tere
teresa
teri
terich
teritum
term
terme
termin
terminal
terminologie
terra
terrasse
terre
terrible
territoire
territoriale
territoriali
territorie
territorium
terror
terrorismus
terry
terschuppe
tersloh
tersloher
tertia
tervokeer
terwa
terzu
tes
tescht
teschtama
teschtament
teschtens
tessin
tessiner
tessub
test
testama
testament
tet
tete
tettnang
teubner
teufel
teuteberg
tex
texa
texas
text
textcolor
texte
texten
textes
texts
textsammlig
tfrac
tg
tgli
tgma
tgv
th
tha
thadda
thailand
thal
thaler
thales
thalheim
thalia
thames
than
thann
that
the
thea
theader
theater
theaterstick
theaterstu
theaterstuck
theatr
theatre
theatrum
theba
thebe
theebe
theema
theeme
theil
their
theiss
theiß
them
thema
thematisch
thematisiert
theme
themen
themene
themse
then
theo
theobald
theoderich
theodor
theodora
theodoro
theodosius
theodul
theolog
theologe
theologi
theologie
theologii
theologisch
theologische
theologischer
theologischi
theology
theoloog
theophanu
theophil
theoretiker
theoretisch
theoretische
theoretischi
theori
theorie
theorien
theorii
theory
ther
thera
therapie
therapii
there
theres
theresa
therese
theresia
thermischi
thermodu
these
thessalie
thessaloniki
theta
theudebald
theudebert
theuderich
they
thi
thielle
thieme
thierry
thiersta
thierstein
thilo
thing
thionville
thiopie
third
this
thmus
tho
thoma
thomas
thommen
thompson
thomson
thoolischa
thor
thorbecke
thorn
thorsten
thought
thrakie
three
thriller
thron
through
thu
thukydides
thumb
thun
thunersee
thur
thurbo
thurgau
thurgauer
thurn
thusis
thuus
ti
tia
tiala
tiberius
tibet
tibetische
tichter
ticinese
ticino
ticket
tie
tief
tiefe
tiela
tielekt
tielschtoorf
tien
tiengen
tienne
tier
tierarten
tiere
tierna
tiers
tiert
tif
tiflis
tig
tiga
tige
tigen
tiger
tiget
tigi
tigka
tigkeit
tigkeite
tigris
tigt
tigung
tika
tikon
til
till
tillon
tilly
tilman
tim
timberlake
timbuktu
time
timeaxis
times
timo
timothy
tin
tina
tinguely
tion
tiona
tipisch
tipografia
tique
tira
tirana
tirke
tirkei
tirkisch
tirkische
tirol
tiroler
tis
tisch
tischa
tische
tischi
tistens
titan
titania
titel
titelblatt
titelroll
titisee
titl
title
titsch
titu
titus
tius
tizian
tle
tlech
tli
tlich
tliche
tlichi
tlig
tlige
tm
tma
tmittelalter
tna
tnant
to
toal
tobel
tobias
tobler
tochter
tod
today
tode
todes
todesstrafe
todestag
todtmoos
todtnau
together
toggeborg
toggeburg
toggeburger
toggenburg
toggenburger
togo
tok
tokio
tokyo
toledo
toleranz
tolkien
tolstoi
tom
toma
tomas
tomate
tome
tomi
tomils
tomkra
tommy
ton
tonga
toni
tonne
tony
too
tood
toor
top
topographie
topographische
toponomastico
toponymique
tor
tora
torah
tore
torelli
torino
toromanisch
toromanische
toromanischen
toromanischi
toronto
torre
torres
torsten
toskana
tot
total
totale
totali
totalita
tote
toten
totentanz
toti
toujours
toulouse
tour
toure
tourischte
tourismus
touriste
tournee
tours
tous
tout
tovar
tower
town
tr
tra
tracht
track
tractatus
trade
tradition
traditiona
traditione
traditionell
traditionelle
traditionelli
traditionen
traditions
tradiziona
tradizionell
tradizionelle
tradizionelli
tradizioon
trage
tragen
trago
train
trainer
training
trait
trajan
tram
tramelan
trans
transcript
transfer
transformation
transischto
transit
transkribiert
transkription
translated
translation
transport
transportiert
transpress
transsib
trapezunt
trasse
trauer
traugott
traum
travers
tre
tree
treffe
treit
trek
trend
trends
trenne
trennig
trennt
trentino
trento
tres
tresa
treu
treue
treverer
trezzini
tri
trianon
trias
tribe
triberg
tribut
tribute
tribwage
tridd
trie
triebzu
trient
trier
triest
trifft
trifolium
triibwa
trikont
trikot
trilogie
trilogii
trin
trinidad
trinite
trinke
trinken
trio
tripp
trisaba
tristan
triticum
tritt
trittin
triumph
tro
troffe
troia
trois
troja
troll
trompe
tropisch
tropische
tropole
trottoir
trotz
trotzda
trotzde
trotzdem
trotzki
troubadours
troyes
tru
truckt
trudpert
true
trukt
trump
trumpf
trun
trunk
truppe
trust
truth
truube
trybfaarzu
trybwa
ts
tsa
tsbibliothek
tsch
tscha
tschad
tschaikowski
tsche
tscheche
tschechie
tschechisch
tschechische
tschechoslowakei
tschechoslowakische
tschechoslowakischi
tschechow
tschem
tschen
tscher
tsches
tschi
tschland
tschlin
tschs
tschschwiiz
tschschwiizer
tschschwiz
tschschwyz
tschsprochige
tschsproochig
tschsproochige
tschsproochigi
tscht
tschta
tschu
tschudi
tschwil
tse
tsel
tsi
tstheorie
tstheorii
tsunami
tsv
tsverlag
tt
tta
tte
tted
ttel
ttela
ttele
tteli
tteln
tten
ttend
ttende
ttendi
ttene
tter
ttere
tteret
tteri
ttersee
ttet
tti
ttich
ttig
ttiga
ttigau
ttigauer
ttige
ttigi
ttimann
ttin
ttine
tting
ttinge
ttingen
ttinger
ttla
ttle
ttler
ttli
ttliche
ttlige
ttligi
ttner
ttrige
ttriger
tts
ttsch
ttsche
ttung
tu
tua
tuareg
tuba
tube
tuberkulose
tude
tudes
tudor
tue
tuet
tulla
tum
tumor
tumulus
tun
tuna
tundra
tunell
tunesie
tung
tuniberg
tunis
tunnel
tupfe
tupolew
turbine
turgi
turicum
turin
turing
turischte
turismus
turkey
turkmenistan
turm
turn
turner
turnier
tus
tusculum
tut
tutsi
tuube
tuur
tuurbetaal
tuurgau
tuurgi
tuusig
tuvalu
tv
twa
twain
twann
twenty
twitter
two
twurscht
ty
tycho
tyler
tymologique
typ
type
typisch
typische
typischi
typus
tyrann
tz
tza
tzchen
tzdaag
tze
tzebuerg
tzed
tzel
tzen
tzenda
tzender
tzer
tzet
tzi
tzig
tzige
tzigi
tzle
tzlech
tzli
tzlich
tzliche
tzlichi
tzlichs
tzlig
tzlige
tzligi
tzpunkt
tzt
tzte
tzti
tzudag
tzudags
tzung
tzunge
tzwark
tə
u
ua
uabha
ub
uba
ubaan
ubahn
uber
ubige
uble
ubs
ubstadt
uch
uche
ucht
uci
ud
ude
udf
udo
udssr
ue
ueber
ueberreuter
ueburg
ueburgerhandel
uefa
uel
ueli
uelzecht
uer
uf
ufa
ufbau
ufbaue
ufbaut
ufbewaart
ufbewahrt
ufblu
ufbo
ufbout
ufcho
ufchoo
ufchuu
ufda
ufdailig
ufdailt
ufdaucht
ufdeilt
ufdoo
ufdra
ufdraag
ufdrag
ufdritt
ufe
ufem
ufeme
ufenander
ufenthalt
ufer
ufere
uferstehig
uff
uffa
uffassig
uffbau
uffbaut
uffcho
uffdraag
uffdre
uffe
uffem
uffga
uffgabe
uffgange
uffgfu
uffgho
uffglo
uffgmacht
uffgno
uffgnumma
uffgnumme
uffgrue
uffgrund
uffgschta
uffgschtellt
uffho
uffig
uffige
uffihrong
ufflaag
ufflag
ufflo
uffm
uffna
uffnaam
uffs
uffsa
uffu
uffwa
uffwand
uffziig
uffzug
ufga
ufgab
ufgabe
ufgange
ufgee
ufgfalle
ufgfasst
ufgfiert
ufgforderet
ufgfu
ufgha
ufghalte
ufghert
ufgho
ufghobe
ufghoobe
ufgleest
ufglest
ufglo
ufgmacht
ufgno
ufgnoh
ufgnoo
ufgnumme
ufgnuu
ufgoob
ufgoobe
ufgriffe
ufgru
ufgruefe
ufgruefen
ufgrund
ufgschribe
ufgschriibe
ufgstellt
ufgstige
ufgstiige
ufgwa
ufgwachse
ufgwachsen
ufgwaggse
ufgwagse
ufhebig
ufho
ufig
ufige
ufkla
ufl
uflaag
uflag
uflage
uflesig
uflo
ufm
ufmerksam
ufmerksamkeit
ufnaam
ufnaame
ufnahm
ufnahme
ufnee
ufra
ufru
ufruef
ufs
ufsa
ufsatz
ufschwung
ufsicht
ufsichtsrot
ufsta
ufstand
ufstelle
ufstig
ufstiig
uft
ufteilt
uftra
uftrag
uftritt
ufwa
ufzbaue
ufzellt
ufzoge
ufzstelle
ug
uganda
uger
ugfa
ugrische
ugrischi
uhland
uhr
uhre
uhrzeigersinn
ui
uia
uic
uif
uifa
uift
uigscht
uija
uim
uiptort
uiptschta
uischpi
uispi
uk
ukerig
ukra
ukraine
ukrainer
ukrainisch
ukrainische
ukw
ul
ule
ulein
ulf
uli
ulla
ullrich
ullstein
ulm
ulmer
ulrich
ulrike
ultimate
ulysses
um
uma
umaischter
umar
umbau
umbaue
umbaut
umbaute
umbedingt
umbekannt
umbekannte
umbenennt
umberto
umbo
umbringe
umbrocht
umbruch
umcho
umchoo
umchraist
umchreist
umd
ume
umen
umer
umfa
umfang
umfangriiche
umfangriichi
umfangryche
umfangrychi
umfasse
umfassend
umfassende
umfassendi
umfasst
umfeld
umga
umgang
umgange
umgangsproch
umgangssproch
umgangssprooch
umgebig
umgebung
umgee
umgna
umgra
umgschtellt
umgsetzt
umgstellt
umgwandlet
umkeert
umkehrt
umkreis
umland
umlauf
umlaufbahn
umligende
umlut
umluut
umm
[...]
