!
"
#
##0
##1
##10
##11
##12
##13
##14
##15
##16
##17
##18
##19
##2
##20
##21
##22
##23
##24
##25
##26
##27
##28
##29
##3
##30
##31
##32
##33
##34
##35
##36
##37
##38
##39
##4
##40
##41
##42
##43
##44
##45
##46
##47
##48
##49
##5
##50
##51
##52
##53
##54
##55
##56
##57
##58
##59
##6
##60
##61
##62
##63
##64
##65
##66
##67
##68
##69
##7
##70
##71
##72
##73
##74
##75
##76
##77
##78
##79
##8
##80
##81
##82
##83
##84
##85
##86
##87
##88
##89
##9
##90
##91
##92
##93
##94
##95
##96
##97
##98
##99
$
%
&
'
(
)
*
+
,
-
.
/
0
00
000
001
002
003
004
005
006
007
008
009
01
010371
011
01471
0174
018
02
020
021
0298
03
030
0307
031
032
033
03336
034
0340
0342
035
03797
038
03823
04
040
043
044
048
05
050
052
058
06
0610
062
06895
07
070
0702
0715
07561
08
080
084
09
1
10
100
1000
10000
1001
1002
1003
1005
1006
1007
1008
1009
101
1010
1011
1012
1015
1016
1017
1018
1019
102
1020
1021
1022
1023
1024
1025
1026
1027
1028
1029
103
1030
1032
1033
1034
1036
1037
1038
1039
104
1040
1044
1045
1046
1048
1049
105
1050
1051
1054
1055
1056
1057
1059
106
1060
1063
1064
1065
1066
1067
1069
107
1070
1071
1072
1073
1074
1075
1076
1077
1078
1079
108
1080
1081
1082
1083
1084
1085
1086
1087
1088
109
1090
1091
1092
1093
1094
1095
1096
1097
1098
1099
11
110
1100
1101
1102
1103
1104
1105
1106
1107
1108
1109
111
1110
1111
1112
1113
1114
1115
1116
1118
112
1120
1121
1122
1123
1124
1125
1126
1127
1128
1129
113
1130
1131
1133
1134
1135
1136
1137
1138
1139
114
1140
1141
1142
1143
1144
1145
1146
1147
1148
1149
115
1150
1151
1152
1153
1154
1155
1156
1157
1158
116
1160
1161
1162
1163
1164
1165
1166
1167
1168
1169
117
1170
1171
1172
1173
1174
1175
1176
1177
1178
1179
118
1180
1181
1182
1183
1184
1185
1186
1187
1188
1189
119
1190
1191
1192
1193
1194
1195
1196
1197
1198
1199
12
120
1200
1201
1202
1203
1204
1205
1206
1207
1208
1209
121
1210
1211
1212
1213
1214
1215
1216
1217
1218
1219
122
1220
1221
1222
1223
1224
1225
1226
1227
1228
1229
123
1230
1231
1232
1233
1234
1235
1236
1237
1238
1239
124
1240
1241
12411
1242
1243
1244
1245
1246
1247
1248
1249
125
1250
1251
1252
1253
1254
1255
1256
1257
1258
1259
126
1260
1261
1262
1263
1264
1265
1266
1267
1268
1269
127
1270
1271
1272
1273
1274
1275
1276
1277
1278
1279
128
1280
1281
1282
1283
1284
1285
1286
1287
1288
1289
129
1290
1291
1292
1293
1294
1295
1296
1297
1298
1299
13
130
1300
1301
1302
1303
1304
1305
1306
1307
1308
1309
131
1310
1311
1312
1313
1314
1315
1316
1317
1318
1319
132
1320
1321
1322
1323
1324
1325
1326
1327
1328
1329
133
1330
1331
1332
1333
1334
1335
1336
1337
1338
1339
134
1340
1341
1342
1343
1344
1345
1346
1347
1348
1349
135
1350
1351
1352
1353
1354
1355
1356
1357
1358
1359
136
1360
1361
1362
1363
1364
1365
1366
1367
1368
1369
137
1370
1371
1372
1373
1374
1375
1376
1377
1378
1379
138
1380
1381
1382
1383
1384
1385
1386
1387
1388
1389
139
1390
1391
1392
1393
1394
1395
1396
1397
1398
1399
14
140
1400
1401
1402
1403
1404
1405
1406
1407
1408
1409
141
1410
1411
1412
1413
1414
1415
1416
1417
1418
1419
142
1420
1421
1422
1423
1424
1425
1426
1427
1428
1429
143
1430
1431
1432
1433
1434
1435
1436
1437
1438
1439
144
1440
1441
1442
1443
1444
1445
1446
1447
1448
1449
145
1450
1451
1452
1453
1454
1455
1456
1457
1458
1459
146
1460
1461
1462
1463
1464
1465
1466
1467
1468
1469
147
1470
1471
1472
1473
1474
1475
1476
1477
1478
1479
148
1480
1481
1482
1483
1484
1485
1486
1487
1488
1489
149
1490
1491
1492
1493
1494
1495
1496
1497
1498
1499
15
150
1500
1501
1502
1503
1504
1505
1506
1507
1508
1509
151
1510
1511
1512
1513
1514
1515
1516
1517
1518
1519
152
1520
1521
1522
1523
1524
1525
1526
1527
1528
1529
153
1530
1531
1532
1533
1534
1535
1536
1537
1538
1539
154
1540
1541
1542
1543
1544
1545
1546
1547
1548
1549
155
1550
1551
1552
1553
1554
1555
1556
1557
1558
1559
156
1560
1561
1562
1563
1564
1565
1566
1567
1568
1569
157
1570
1571
1572
1573
1574
1575
1576
1577
1578
1579
158
1580
1581
1582
1583
1584
1585
1586
1587
1588
1589
159
1590
1591
1592
1593
1594
1595
1596
1597
1598
1599
16
160
1600
1601
1602
1603
1604
1605
1606
1607
1608
1609
161
1610
1611
1612
1613
1614
1615
1616
1617
1618
1619
162
1620
1621
1622
1623
1624
1625
1626
1627
1628
1629
163
1630
1631
1632
1633
1634
1635
1636
1637
1638
1639
164
1640
1641
1642
1643
1644
1645
1646
1647
1648
1649
165
1650
1651
1652
1653
1654
1655
1656
1657
1658
1659
166
1660
1661
1662
1663
1664
1665
1666
1667
1668
1669
167
1670
1671
1672
1673
1674
1675
1676
1677
1678
1679
168
1680
1681
1682
1683
1684
1685
1686
1687
1688
1689
169
1690
1691
1692
1693
1694
1695
1696
1697
1698
1699
17
170
1700
1701
1702
1703
1704
1705
1706
1707
1708
1709
171
1710
1711
1712
1713
1714
1715
1716
1717
1718
1719
172
1720
1721
1722
1723
1724
1725
1726
1727
1728
1729
173
1730
1731
1732
1733
1734
1735
1736
1737
1738
1739
174
1740
1741
1742
1743
1744
1745
1746
1747
1748
1749
175
1750
1751
1752
1753
1754
1755
1756
1757
1758
1759
176
1760
1761
1762
1763
1764
1765
1766
1767
1768
1769
177
1770
1771
1772
1773
1774
1775
1776
1777
1778
1779
178
1780
1781
1782
1783
1784
1785
1786
1787
1788
1789
179
1790
1791
1792
1793
1794
1795
1796
1797
1798
1799
18
180
1800
1801
1802
1803
1804
1805
1806
1807
1808
1809
181
1810
1811
1812
1813
1814
1815
1816
1817
1818
1819
182
1820
1821
1822
1823
1824
1825
1826
1827
1828
1829
183
1830
1831
1832
1833
1834
1835
1836
1837
1838
1839
184
1840
1841
1842
1843
1844
1845
1846
1847
1848
1849
185
1850
1851
1852
1853
1854
1855
1856
1857
1858
1859
186
1860
1861
1862
1863
1864
1865
1866
1867
1868
1869
187
1870
1871
1872
1873
1874
1875
1876
1877
1878
1879
188
1880
1881
1882
1883
1884
1885
1886
1887
1888
1889
189
1890
1891
1892
1893
1894
1895
1896
1897
1898
1899
19
190
1900
1901
1902
1903
1904
1905
1906
1907
1908
1909
191
1910
1911
1912
1913
1914
1915
1916
1917
1918
1919
192
1920
1921
1922
1923
1924
1925
1926
1927
1928
1929
193
1930
1931
1932
1933
1934
1935
1936
1937
1938
1939
194
1940
1941
1942
1943
1944
1945
1946
1947
1948
1949
195
1950
1951
1952
1953
1954
1955
1956
1957
1958
1959
196
1960
1961
1962
1963
1964
1965
1966
1967
1968
1969
197
1970
1971
1972
1973
1974
1975
1976
1977
1978
1979
198
1980
1981
1982
1983
1984
1985
1986
1987
1988
1989
199
1990
1991
1992
1993
1994
1995
1996
1997
1998
1999
2
20
200
2000
2001
2002
2003
2004
2005
2006
2007
2008
2009
201
2010
2011
2012
2013
2014
2015
2016
2017
2018
2019
202
2020
2021
2022
2023
203
204
205
206
207
208
209
21
210
2100
211
212
213
214
215
216
217
218
219
22
220
2200
221
222
223
224
225
226
227
228
229
23
230
231
232
233
234
235
236
237
238
239
24
240
2400
241
242
243
244
245
246
247
248
249
25
250
2500
251
252
253
254
255
256
257
258
259
26
260
2600
261
262
263
264
265
266
267
268
269
27
270
271
272
273
274
275
276
277
278
279
28
280
2800
281
282
283
284
285
286
287
288
289
29
290
291
292
293
294
295
296
297
298
299
3
30
300
3000
301
302
303
304
305
306
307
308
309
31
310
311
312
313
314
315
316
3166
317
318
319
32
320
321
322
323
324
325
326
327
328
329
33
330
331
332
333
334
335
336
337
338
339
34
340
341
342
343
344
345
346
347
348
349
35
350
3500
351
352
353
354
355
356
357
358
359
36
360
361
362
363
364
365
366
367
368
36803
369
37
370
371
372
373
374
375
376
377
378
379
38
380
381
382
383
384
385
386
387
388
389
39
390
391
392
393
394
395
396
397
398
399
4
40
400
4000
401
402
403
404
405
406
407
408
409
41
410
411
412
413
414
415
416
417
418
419
4196
42
420
421
422
423
424
425
426
427
428
429
43
430
431
432
433
434
435
436
437
438
439
44
440
441
442
443
444
445
446
447
448
449
45
450
4500
451
452
453
454
455
456
457
458
459
46
460
461
462
463
464
465
466
46601
467
468
469
47
470
471
472
473
474
475
476
477
478
479
48
480
481
482
483
484
485
486
487
488
489
49
490
491
492
493
494
495
496
497
498
499
5
50
500
5000
501
502
503
504
505
506
507
508
509
51
510
511
512
513
514
515
516
5169
517
518
519
52
520
521
522
523
524
525
526
527
528
529
53
530
531
532
533
534
535
536
537
538
539
54
540
541
542
543
544
545
546
547
548
549
55
550
551
552
553
554
555
556
557
558
559
56
560
561
562
563
564
565
566
567
568
569
57
570
571
572
573
574
575
576
577
578
5789
579
58
580
581
582
583
584
585
586
587
588
589
59
590
591
592
593
594
595
596
597
598
599
6
60
600
6000
601
602
603
604
605
606
607
608
609
61
610
611
612
613
614
615
616
617
618
62
620
621
622
623
624
625
626
627
628
629
63
630
631
632
633
634
635
636
637
638
639
64
640
641
642
643
644
645
647
648
649
65
650
651
652
653
654
655
656
657
658
659
66
660
661
662
663
664
666
667
668
669
67
670
671
672
673
674
675
676
678
679
68
680
681
682
683
684
685
686
687
688
689
69
690
691
692
693
695
696
698
7
70
700
7000
7001
701
702
705
706
707
708
709
71
710
711
712
713
714
715
716
7165
717
718
719
7193
72
720
721
722
723
724
7245
725
726
727
7272
728
7296
73
730
731
732
734
735
736
737
738
739
74
740
741
742
743
744
745
746
7466
747
749
75
750
751
752
753
754
755
756
757
758
759
76
760
7608
761
7618
762
763
7630
764
7643
7646
765
7650
7653
766
767
768
769
77
770
7700
7701
7705
771
772
7720
773
774
775
7757
777
7772
7774
7776
778
779
78
780
781
782
783
785
7857
786
787
7873
788
7884
7887
789
79
790
791
7913
7917
792
793
7930
794
7941
7946
795
7954
7957
796
7965
797
7977
798
799
7995
8
80
800
8000
8001
8012
8018
802
803
8031
804
805
8053
806
8062
8068
807
808
809
81
810
8100
811
812
813
814
815
816
817
818
819
82
820
8204
821
8218
822
8228
823
824
825
8252
8253
8258
826
8260
827
8273
8274
828
8288
8289
829
83
830
8300
8304
831
832
8321
8329
833
8334
834
835
8353
836
837
8376
838
839
8399
84
840
841
842
8425
843
844
845
846
847
848
849
85
850
851
852
853
854
85445
855
856
85616
85637
857
85782
85791
858
85823
85882
859
86
860
861
86142
86150
86153
863
865
866
867
869
87
870
871
872
874
87407
87421
875
87548
876
877
87799
878
879
88
880
882
88255
88309
884
885
88506
8859
886
88680
887
888
889
89
890
89007
891
89104
89244
893
894
89432
895
896
89678
897
89735
898
9
90
900
9000
903
905
906
906131
907
908
908105
909164
909850
91
910
911
912
913
91371
914
915
92
921
924
926
929
93
930
933
933765
934
936
94
940
942
945
946
95
950
951
953
954
955
96
960
961
962
963
965
966
967
968
97
970
972
973
974
975
976
978
979
98
980
981
983
985
987
988
99
990
991
993
994
995
996
997
998
999
:
;
<
=
>
?
@
[
\
]
^
_
`
a
aa
aabach
aabasst
aabau
aabaut
aabe
aabebrennt
aabindig
aabo
aabote
aabotte
aabrocht
aabunde
aach
aache
aachen
aachener
aacho
aachoo
aachumft
aachuu
aada
aadail
aadeil
aadel
aadlige
aadligi
aadra
aadrag
aadryb
aafa
aafang
aafange
aafangs
aafangt
aafierer
aaforderige
aafu
aaga
aagaab
aagaabe
aagabe
aagchindet
aagchlagt
aagchryzlet
aage
aagea
aageblich
aagebot
aagee
aager
aagfange
aagfiert
aagfu
aagga
aagha
aaghaa
aaghalte
aaghert
aagho
aagiga
aagit
aagla
aaglait
aagleit
aaglideret
aaglue
aaglueget
aagluegt
aagma
aagmacht
aagno
aagnoh
aagnoo
aagnuu
aagobe
aagoobe
aagordnet
aagra
aagregt
aagriff
aagriffe
aagsa
aagschlosse
aagsetzt
aagsidlet
aagsiidlet
aagstellt
aagstellte
aagstige
aagstra
aagwa
aagwendet
aagwise
aaha
aahang
aaku
aala
aalaag
aalaage
aalag
aalage
aalass
aalen
aalige
aaloss
aalt
aalte
aalti
aaluege
aaluegt
aan
aanahm
aane
aanee
aaordnig
aapflanzt
aarau
aarauer
aarba
aarbede
aarbet
aarburg
aare
aaregig
aaretal
aarga
aargau
aargauer
aargauerzeitung
aargauische
aargou
aaron
aart
aarte
aarwange
aasa
aasatz
aaschlie
aaschlu
aaschluss
aasee
aasicht
aasichte
aasprich
aaspru
aaspruch
aastalt
aastiig
aastra
aateil
aatra
aawa
aawalt
aawendig
aaza
aazaal
aazahl
aazeige
aazeigt
aazu
ab
aba
abaer
abasst
abau
abaut
abb
abba
abbas
abbau
abbaut
abbaye
abbe
abber
abbey
abbildet
abbildig
abbildige
abbildungen
abbo
abbra
abbrennt
abbroche
abbruch
abc
abcho
abchu
abchuu
abd
abda
abdailig
abdankig
abdankt
abdeh
abdeilig
abdra
abdre
abdruckt
abe
abebrennt
abegg
abel
abem
abend
abendblatt
abendla
abendland
abenteuer
abentu
aber
aberglaube
abert
abessinie
abfa
abfahrt
abfall
abflu
abfluss
abfu
abga
abgabe
abgangeni
abgchu
abgee
abgeordnete
abgeordneten
abgeordnetenwatch
abgerufen
abgfalle
abgfu
abghalte
abgla
abglait
abglaitet
abgleent
abglehnt
abgleit
abgleitet
abglest
abglo
abgloffe
abgmacht
abgoordnete
abgordnete
abgordnetehuus
abgordneteprofil
abgordneti
abgra
abgrenzig
abgrisse
abgru
abgrue
abgruefe
abgruefen
abgrund
abgsa
abgsait
abgschafft
abgschlosse
abgschnitte
abgschtellt
abgsee
abgseh
abgsetzt
abgspalte
abgstammt
abgstimmt
abgstu
abgwa
abgwehrt
abha
abhandlig
abhandlige
abhandlung
abhandlungen
abhang
abi
abidjan
abidur
abies
abitur
abkauft
abkomme
abku
abla
ablagerige
ablauf
ableaba
ableite
ableitig
ablo
ablutchlass
abor
abote
about
abr
abraham
abram
abril
abriss
abru
abruefbar
abruf
abs
absa
absatz
abschaffig
abschied
abschluss
abschnidd
abschnitt
abschrift
abschtand
absetzig
absi
absicht
absolut
absolute
absoluti
absolutismus
absolviert
abspaltig
absta
abstamme
abstammig
abstand
abstimmig
abstimmige
abstract
abstrakte
abstrakti
absturz
abt
abtei
abteilig
abteilung
abtra
abtrukt
abu
abunde
abwa
abwiiche
abzoge
abzooge
abzug
ac
acade
academia
academic
academy
accademia
access
account
ach
acha
achaia
achdorf
ache
acher
achern
achilles
achim
achl
acho
achoo
achre
achse
acht
achtburger
achte
achti
achtung
achza
acker
ackerbau
ackerland
ackermann
act
acta
actes
action
ad
ada
adalbert
adam
adams
adb
ade
adeil
adel
adelba
adelberg
adele
adelheid
adelsfamilie
adelsgeschlecht
adelsgschla
adelsheim
adenauer
ader
adha
adil
adjektiv
adl
adler
adlige
adligi
admin
administration
administrative
admiral
adolf
adolph
adolphe
adoptiert
ador
adorno
adra
adresse
adria
adrian
adriatico
adrien
adrienne
adult
adultdvdtalk
adva
advanced
advent
adventure
adventures
ae
aegidius
aerka
aesch
aewonor
af
afa
afang
afange
afangs
afangt
afar
afd
aff
affa
affaire
affairs
affe
affoltere
affoltern
affrikate
afghanischtan
afghanistan
afo
afoot
afp
africa
african
afrika
afrikaans
afrikaner
afrikanisch
afrikanische
afrikanischi
afrique
after
afu
ag
aga
agabe
again
against
agatha
age
agebot
agee
agency
agentur
ages
agfanga
agfange
agfu
aggee
agglome
agglomeration
agglomerazioon
aggse
agha
agho
agiade
agis
agla
agleit
agloo
aglueget
agluegt
agmacht
agnes
agno
agnoh
agnoo
agnostizismus
agoot
agostino
agr
agra
agricola
agriculture
agriff
agriffe
agsa
agschlosse
agt
ah
aha
ahalt
ahand
ahd
ahlhaus
ahmad
ahmed
ahorn
ahv
ai
aichach
aiche
aid
aidgnessisch
aidgnessische
aidgnosse
aidgnosseschaft
aids
aidu
aier
aifach
aifache
aige
aigene
aigeni
aigeschafte
aigesta
aigetli
aigle
aigne
aigni
aim
aime
aimol
ain
aina
aine
ainem
ainer
ainewa
ainhait
ainhaite
aini
ainiga
ainige
ains
ainu
ainzelne
ainzelni
ainzig
ainzige
aipytos
air
airbus
aircraft
aire
aires
airline
airlines
airolo
airport
ais
aischylos
aise
aisl
aisne
aistimmig
aitrachdalbaan
aiwohner
aix
ajoie
ak
akademi
akademie
akademii
akademische
akademischer
akademischi
akademy
akko
akkon
akkordeon
akkusativ
akropolis
akt
akte
akten
aktie
aktion
aktione
aktiv
aktive
aktivi
aktivita
aktivitete
aktua
aktualisiert
aktualisierte
aktualita
aktue
aktuell
aktuelle
aktuelli
akustische
akustischi
akut
akw
akwitanie
akza
akzent
akzeptiere
akzeptiert
al
ala
alabama
alagna
alain
alamanne
alamannen
alamannische
alan
alarich
alarm
alaska
alb
alba
alban
albaner
albanie
albanisch
albanische
albanischi
albbruck
albdal
albe
albedo
alber
alberich
albert
alberto
albestroff
albgau
albin
albis
albra
albrecht
albstadt
albula
album
ald
alda
alde
alder
aldi
aldstadt
ale
alem
alemane
alemanisch
alemanische
alemanischi
alemanne
alemannen
alemannia
alemannie
alemannisch
alemannischa
alemannische
alemannischen
alemannischer
alemannisches
alemannischi
aleppo
ales
alessandria
alessandro
alewyl
alex
alexander
alexandra
alexandre
alexandria
alexandrie
alexi
alexios
alexis
alfabeet
alfabet
alfons
alfonso
alfred
alfredo
alge
algebra
algebraische
algebraischi
algemein
algerie
algier
algorithmus
ali
alias
alice
alienor
alighieri
alija
alisme
alkibiades
alkier
alkohol
all
alla
allan
allda
alldaag
alldag
alle
allegro
allei
allein
allem
allemand
allemannische
allen
allene
allensbach
aller
allerdings
allerhand
allerheilige
allerheiligen
alles
allga
allgai
allgaier
allgema
allgemein
allgemeine
allgemeinen
allgemeiner
allgemeines
allgemeini
allgmain
allgmaine
allgmaini
allgmein
allgmeine
alli
alliance
allianz
allierte
alliierte
allium
alliwiil
alliwyl
alljohr
allma
allmee
allmeh
allmende
allmusic
allne
allno
alloi
allophon
alls
allschwil
allta
alltag
allwa
allzu
alma
almanach
almens
alne
alois
aloys
alp
alpa
alpe
alpen
alperhy
alperuum
alpes
alpha
alphabet
alphonse
alphorn
alpi
alpin
alpina
alpine
alpini
alpino
alpinum
alpweide
alroune
als
alsace
alsacien
alsacienne
alsaciens
alsatia
alsatiae
also
alt
alta
altalemannisch
altar
altbasel
altdorf
alte
alteburg
alten
altenburg
altenglisch
altenstadt
alter
alterdum
altermatt
alternativ
alternative
alternativi
alters
altertu
altertum
altertumskunde
altertumswissenschaft
altes
altfranzo
altgr
altgriech
altgriechisch
altgriechische
althaus
althochdu
althochtu
althoochtu
alti
altkirch
altnordisch
alto
altr
alts
altsa
altschdadt
altschtadt
altsta
altstadt
altstette
altwa
altwegg
alu
aluege
aluegt
aluminium
alveolare
alveolari
alzheimer
am
ama
amadeus
amalie
amalthea
amann
amateur
amazon
amazonas
amberg
ambrosius
ame
amene
amerbach
america
american
amerika
amerikaner
amerikanisch
amerikanischa
amerikanische
amerikanischen
amerikanischer
amerikanisches
amerikanischi
amerikanischs
amfibie
ami
amiens
amiga
amigs
amin
amis
amma
amman
ammann
amme
ammel
ammianus
amnesty
amo
amol
amor
amos
amour
amours
amphibie
amphitheater
amrikanische
amsterdam
amt
amtes
amtiert
amtl
amtlech
amtli
amtlich
amtliche
amtlichi
amtlig
amts
amtsbezirk
amtsblatt
amtsgricht
amtsperiode
amtssproch
amtssproche
amtssprooch
amtsziit
amtszit
amtszyt
amun
amundsen
amur
amy
an
ana
anaconda
analog
analogi
analu
analyse
analysen
analysis
analytische
ananke
anarchie
anarchismus
anastasius
anatole
anatolia
anatolie
anatolische
anatomie
anatomii
anc
ancien
ancient
ancona
and
anda
andalus
andalusie
andania
ande
andeer
andelfinge
andelfingen
ander
andera
andere
anderem
anderen
anderer
anderersits
anderes
anderi
andermatt
andern
anderne
anders
andersch
anderscht
andersen
anderson
anderthalb
andi
andlau
andorra
andra
andre
andrea
andreas
andreaschru
andrem
andres
andrew
andri
android
andronikos
andschpi
andy
ane
anekdote
anemone
anenand
aner
anercha
anerchennt
anere
anerka
anerkannt
anerkenne
anerkennig
anerkennt
anfa
anfang
angaschiert
ange
angegeben
angeh
angel
angela
angeles
angelika
angelina
angelo
angelos
angelsa
angelsachse
angere
angeri
angers
angewandte
angkor
anglikanische
anglisch
anglischa
anglischtik
anglistik
anglo
angola
angrenzenden
angriff
angscht
angst
anhalt
anhand
anhang
ani
animal
animation
anime
anita
anja
anjou
ankara
anke
anker
anla
anlage
anlass
anleitung
anmerkungen
ann
anna
annalas
annalen
annales
annan
anne
annegret
annektiert
anneliese
annemarie
anneri
annette
annexion
anni
annibale
annie
anno
annual
anonym
anonyme
another
ans
ansa
ansambel
ansbach
anselm
ansgar
ansichten
anstalt
anstatt
ant
antarktika
antarktis
antarktische
ante
anteil
anthologie
anthology
anthony
anthropologie
anthropology
anti
antibiotika
antida
antigone
antiike
antiiki
antiju
antik
antike
antiken
antiki
antille
antiochia
antiochos
antiqua
antiquity
antisemitische
antisemitischi
antisemitismus
antje
anto
antoine
antoinette
anton
antoni
antonia
antonino
antoninus
antonio
antonius
antony
antwa
antwerpen
antwort
antworte
antworten
anwendung
anze
anzeiger
anzig
anzonico
ao
aosta
aostatal
ap
apartheid
apasst
apennin
apeza
apfel
aphareus
aphel
aphorismen
aphrodite
apollo
apollodor
apollon
aposchtel
apostel
apostolische
app
apparat
appel
appenzell
appenzeller
appeza
appezell
appezo
appiza
apple
appleton
applied
approach
approx
approximant
apre
april
aprile
apsis
apt
apud
apulie
aqua
aquae
aquarell
aquila
aquileia
aquino
aquitanie
ar
ara
arab
araber
arabia
arabic
arabie
arabisch
arabische
arabischen
arabischi
arad
arafat
arago
aragon
aragorn
aram
arama
ararat
arba
arbaiter
arbe
arbedo
arbeit
arbeite
arbeiten
arbeiter
arbeiterbewegung
arbeitsgemeinschaft
arbeitsgruppe
arbeitskreis
arbeitstagung
arbet
arbete
arbetschreft
arbetsgruppe
arbetslosigka
arbetslosigkait
arbetslosigkeit
arbetspla
arbetsstell
arbogast
arbon
arbor
arc
arch
archa
archaeological
archaeology
arche
archeologischi
archidekduur
archidekt
archidekte
archidektur
archidektuur
archiiv
archimedes
archipel
archita
architecture
architekt
architekte
architekten
architektur
architekturfu
archiv
archivar
archivdatebank
archive
archives
archiviert
archivierte
archivio
archivlink
archivs
archyv
ard
ardenne
ardikel
ardikl
arduino
are
area
areal
areas
arena
ares
aretha
areuse
arezzo
arg
arge
argentinie
argentinische
argos
argovia
arguma
argument
aria
ariana
arie
ariel
ariola
aristide
aristodemos
aristokratii
aristomenes
aristoteles
arithmetik
arizona
arkadie
arktis
arktische
arlberg
arles
arlese
arlise
arm
armand
armando
arme
armea
armee
armen
armenie
armenier
armenisch
armenische
armi
armin
armorique
armstrong
armuet
armut
army
arndt
arne
arni
arnim
arno
arnold
arnulf
arosa
around
arp
arre
arrimmu
arrondisements
arrondissement
arrondissements
ars
arsenal
arslan
art
artaxerxes
arte
artefakt
artemis
arten
arth
arthur
article
artig
artikel
artikelaafang
artikl
artiku
artikulation
artikulationsort
artikuliert
artillerii
artist
artistici
artists
artium
arts
artur
artus
arve
arx
arzbischoof
arzt
as
asa
asal
asch
ascha
asche
aschendorff
aschluss
aschpa
aschteroid
aschtronom
aschtronome
ascoli
ascona
ase
asean
asen
aserbaidschan
ases
asia
asiatische
asie
asien
asine
asklepios
aso
asp
aspa
aspach
aspects
aspekt
aspekte
aspruch
asptt
ass
assa
assange
assba
assembly
assimilation
assimiliert
assischta
assisi
assista
association
assomption
assur
assyrer
assyrie
assyrisch
assyrische
asta
aster
asterix
asteroid
asteroide
asteroidegu
aston
astrid
astronom
astronome
astronomi
astronomical
astronomie
astronomii
astronomisch
astronomische
astronomischi
asu
asyl
at
ata
atatu
ateliee
atelier
athanasius
athen
athena
athene
athener
athenische
athens
atlante
atlantic
atlantik
atlantique
atlantis
atlantische
atlas
atmosfa
atmospha
atoll
atom
atombombe
atomchraftwa
atomic
atomka
atp
atra
atrice
attack
attenta
attentat
atter
atti
attika
attila
attinger
attische
attribut
atze
au
aua
aube
aubert
aubin
aubom
aubonne
auch
auckland
audio
aue
auer
auerbach
auf
aufbau
aufbruch
aufgabe
aufgaben
aufgrund
aufkla
aufl
auflage
auflo
aufnahmen
aufsa
aufstand
aufstieg
auftrag
auftrage
aufzeichnungen
aufzu
aug
auga
auge
augen
augenblick
augsburg
augsburger
augschburg
augschburger
augscht
augschtdal
augschte
augst
augste
auguscht
august
augusta
augustana
auguste
augustin
augustine
augustinergass
augustinus
augusto
augustus
aui
aujourd
aula
aulne
aung
auray
aure
aurel
aurelius
aurich
aurobindo
aus
ausbau
ausbildong
auschtralie
auschtralische
auschwitz
ausdru
ausdruck
ausfu
ausg
ausgab
ausgabe
ausgaben
ausgewa
ausgezeichnet
ausgrabungen
ausla
ausland
auso
ausstellung
ausstellungskatalog
austin
australia
australian
australie
australien
australische
austrasie
austria
austrian
auswa
auswahl
auswirkungen
auszu
auszug
aut
aute
authority
auti
auto
autobaan
autobahn
autobahne
autobiografie
autobiografii
autobiografische
autobiografy
autobiographie
autobiography
automatisch
automobil
autonom
autonome
autonomi
autonomie
autonomii
autonomiigebiet
autoor
autoore
autor
autora
autore
autoren
autori
autorin
autorinnen
autorita
autos
autres
auvergne
aux
außer
außerdem
av
avalon
avant
avantgarde
avatar
ave
avec
avenches
aventicum
aventure
avenue
aviation
avignon
aviv
avn
avold
avril
avry
aw
awa
award
awards
aware
away
awer
ax
axel
axiom
axpo
ay
ayyubide
az
azahl
azu
azur
aß
b
ba
baa
baabrugg
baachme
baad
baade
baader
baadisch
baadische
baan
baane
baanho
baanhof
baanhoof
baanlinie
baanlinnie
baanschteig
baanschtreggi
baanu
baar
baasel
baaselbieter
baaseldytsch
baasler
bab
babbiir
babst
baby
babylon
babylonie
babylonier
babylonisch
babylonische
bach
bachdal
bache
bachelor
bacher
bachmann
bachs
back
background
backnang
bacon
bacteria
bad
bada
badde
baddische
baddischi
bade
baden
badener
bader
badewyyler
badi
badisch
badische
badischen
badischer
badisches
badischi
baer
baerbock
bag
bagdad
bagene
bagge
bagnat
bagnes
baha
bahai
bahamas
bahn
bahnaigeschafte
bahne
bahnen
bahnexzentrizita
bahnho
bahnhof
bahnhoof
bahnlinie
bahnstation
bahnstrecki
bahnu
bahof
bahr
bahrain
bai
baid
baida
baide
baidi
baier
baihuus
baikal
baikalsee
bailey
baim
bains
bair
bairisch
bairische
baker
bakr
bakterie
bakterien
bakunin
bal
balast
balaton
balche
bald
baldr
balduin
baldung
balenga
balerna
bali
balingen
balkan
balke
balkon
ball
ballade
balle
ballet
ballett
ballettda
balligsruum
bally
balm
balmer
baloise
baltea
balthasar
baltikum
baltimore
baltische
balzer
balzers
bamba
bamberg
bambi
bamp
ban
banane
banat
banater
band
banda
bande
bandle
bands
bang
bangkok
bangladesch
banholzer
bank
banke
bankier
bankrott
banks
bann
banner
bantu
bappe
bapst
baptist
baptiste
bar
baraat
barack
baragiola
barak
barallel
baranya
barat
barbados
barbara
barbarossa
barbe
barber
barbisch
barcelona
bardeer
bardei
bardeie
barfu
barge
bargen
bari
bariis
bariiser
baris
bariton
barlema
barnes
barock
barocke
barocki
baron
barr
barre
barrett
barrier
barry
bart
bartei
barteidag
barteie
barth
barthe
barthold
bartholdi
bartholdy
bartholoma
barto
baruch
bas
baschi
base
based
basel
baselbiet
baselbieter
baseldeutsch
baseldu
baseldytsch
baselitz
baselland
basellandschaftliche
basels
basf
basic
basiere
basiert
basil
basileios
basiliensis
basilika
basilisk
basilius
basis
basistunnel
baskeland
basketball
baskisch
baskische
basler
bass
bassa
basse
bassermann
bassett
bassiere
bassiert
basso
basst
bassyrt
bastei
bastian
bastien
basu
bat
battista
battle
bau
baua
bauart
bauarte
baud
bauda
baudeil
baudelaire
baue
baueleme
bauelima
bauen
bauer
bauern
bauernkrieg
bauet
bauform
bauforme
baugeschichte
bauhaus
bauhin
bauho
bauhuus
bauks
baukultur
baukunst
baum
bauma
baumann
baume
baumeister
baumer
baumgartner
baur
baura
baureie
baureihe
bausch
bausteine
baut
baute
bauten
bauti
bautz
bautzen
bauwa
bauwerk
bauwys
bauzeitung
bauzit
bay
bayer
bayere
bayerisch
bayerische
bayerischen
bayerischer
bayerisches
bayern
bayerns
bayezid
bayre
bayreuth
bayrisch
bayrische
bayrischi
bazin
bb
bba
bbc
bbe
bben
bber
bberbau
bberdra
bberdrait
bberfinge
bberfu
bberga
bbergang
bbergange
bberno
bberquert
bberschpannt
bberwachigssignaal
bberwigend
bberwurscht
bbi
bbis
bbkl
bbq
bbt
bc
bca
bce
bd
bde
bdp
be
bea
beaasprucht
beach
beamte
beamti
bearb
bearba
bearbeitet
bearbeitete
bearbeitung
beardigt
beat
beata
beate
beatles
beatrice
beatrix
beaufort
beautiful
beauvoir
beaux
bebel
beblenga
bebu
bec
bech
becher
becho
bechoo
becht
bechunnt
beck
becke
becker
becki
beckmann
bed
beda
bedarf
bede
bedeckt
bedeidong
bedeiligt
bedeutung
bedi
bedie
bedient
bedingig
bedingige
bedingt
bedong
bedont
bedoont
bedra
bedraa
bedrait
bedrib
bedribbe
bedribe
bedriib
bedriibe
bedroffe
bedrohig
bedroht
bedrohte
bedroot
bedryb
bedrybe
bedrybt
bedu
bedytet
bedytig
beed
beede
beedi
been
beendet
beer
beeri
beethoven
befa
befaare
befahre
befalls
befasst
befehl
befendet
befi
befinde
befindet
befliss
beflu
befluss
befo
befohle
befoole
before
befreie
befreiig
befreijig
befreit
befreiung
befru
befu
befunde
bega
begange
bege
begegnet
begegnung
begegnungen
begge
beggi
begin
beginn
beginnt
begla
begleiter
begleitet
begr
begra
begraabe
begrabe
begrenzt
begriff
begriffe
begriffskla
begrindet
begru
begu
beha
behandelt
behandle
behandlet
behandlig
behaupte
behauptet
beherde
beherrscht
behind
behinderig
behme
beho
bei
beida
beide
beiden
beider
beides
beidi
beidne
beidsitig
beiflusst
beiheft
beihefte
beiiflusse
beiiflusst
beijing
beilage
beilstein
beim
bein
being
beinhaltet
beira
beirut
beischbiel
beischbiil
beispiel
beispiele
beispiil
beitra
beitrag
beka
bekannde
bekannt
bekannte
bekannter
bekannteschte
bekannteste
bekanntheit
bekannti
bekanntischte
bekanntist
bekanntiste
bekannts
bekanntschaft
bekant
bekante
bekanti
bekennt
bekenntnis
bel
bela
belaageret
belaagerig
belagere
belageret
belagerig
belait
belaschtet
belaschtig
belastet
belche
bele
beleeg
beleg
belege
belegt
beleit
belfort
belgia
belgie
belgien
belgier
belgisch
belgischa
belgische
belgischi
belgrad
beli
belie
beliebt
beliebte
beliebti
beliebts
belize
bell
bella
belle
belles
bellevue
bellige
bellingen
bellinzona
bello
belmont
belser
beltz
belu
belz
bem
bemerkenswa
bemerkt
bemerkungen
bemu
ben
bena
benamst
benannt
bend
bende
bender
bendi
bene
benedetto
benedikt
benediktiner
benediktinerabtei
benelux
benennig
benennt
benes
bengale
beni
benin
benito
benjamin
benner
bennett
benno
benny
beno
benochberte
benoi
benrather
benserwartig
bensgschicht
benslauf
bensruum
benswa
benswiis
benteli
benu
benutze
benutzer
benutzig
benutzt
benz
benziger
benzin
benzing
beobachder
beobachte
beobachter
beobachtet
beobachtig
beobachtige
beobachtungen
ber
bera
beraich
berall
berarb
berarba
berarbeitete
berater
berau
berbaut
berber
berblick
berblinger
bercho
berchoo
berchtold
berchunnt
berchunt
berchuu
berdra
bere
berechnet
berei
bereich
bereit
bereits
berem
berend
berengar
berfa
berfall
berfalle
berflu
berfu
berg
berga
bergamo
bergang
bergange
bergbau
berge
bergee
bergell
bergen
berger
bergisch
bergland
bergmann
bergu
berhaupt
berholt
berhopt
beri
berich
bericht
berichte
berichtet
beriemt
beriich
beringe
beringen
beringer
berkeley
berla
berle
berlegungen
berli
berlieferung
berliferet
berliferig
berliiferet
berliiferig
berliin
berlin
berlinale
berliner
berlinge
berlingen
berloo
bern
berna
bernaa
bernaah
bernahm
bername
bernard
bernardino
bernardo
bernau
bernauer
bernd
berne
berneck
bernee
berner
bernhard
bernhardt
bernie
bernimmt
bernina
berno
bernoh
bernoo
bernoulli
bernstein
bernuu
bero
beromu
berong
berooter
beroter
berpru
berquert
berra
berraschend
berrascht
berregional
berri
berry
bers
berschritte
berschwemmige
bersee
berseegebiet
bersetze
bersetzer
bersetzig
bersetzige
bersetzt
bersetzung
bersetzungen
bersicht
bersichten
bert
berta
bertelsmann
bertha
berthold
bertold
bertolt
bertra
bertragen
bertrait
bertrand
bertreit
beru
beruaf
berucksichtigt
berue
beruef
beruefe
beruefig
beruf
berwacht
berwiegend
berwinde
berwunde
berych
beryych
berzchoo
berzu
bes
besa
besanc
besch
bescha
beschda
beschde
besche
beschlo
beschlosse
beschlu
beschluss
beschra
beschreibong
beschreibung
beschribbe
beschribe
beschribt
beschriibe
beschriibig
beschriibige
beschriibt
beschrybe
beschrybig
beschrybt
bescht
beschta
beschtand
beschte
beschti
beschtimmt
beschtimmte
beschto
beschtoht
beschu
beschwa
besenval
besetzt
besidlet
besidlig
besigheim
besigt
besiidlet
besiidlig
besiigt
besitz
besitzt
beslauf
besmittel
besondere
besonderer
besonders
besse
besser
bessere
besseri
best
besta
bestaht
bestand
bestandda
bestanddeil
bestande
bestandsaufnahme
bestandteil
beste
bestehen
bestehende
besteit
besten
bester
besti
bestimme
bestimmen
bestimmig
bestimmige
bestimmt
bestimmte
bestimmti
bestimmung
besto
bestoht
bestoo
bestoot
bestot
bestrooft
besuch
besunders
beswa
bet
beta
bete
beteiliget
beteiligt
beteiligte
beteiligung
beth
bethe
bethlehem
beton
betonig
betont
betra
betrachtet
betrachtung
betrachtungen
betrag
betrait
betreffend
betreit
betreut
betrib
betribbe
betribe
betribt
betrie
betrieb
betrifft
betriib
betriibe
betroffe
betroffene
bett
bette
better
bettige
bettina
bettme
betty
between
beuron
beuys
beva
bevelkerig
bevelkerung
bevo
bevor
bevorzugt
bewa
bewacht
bewaffnet
bewaffnete
bewaffneti
bewahrt
bewaldet
bewaldete
beweege
beweegig
beweegige
bewege
beweggt
bewegig
bewegige
bewegliche
beweglichi
bewegt
bewegte
bewegung
bewegungen
beweis
bewiis
bewiise
bewirkt
bewohner
bewohnt
bewooner
bewoont
beworbe
bewu
bewusst
bewusstsii
bey
beyeler
beyer
beyerle
beyflusst
beyonce
beyond
beza
bezaichnet
bezaichnig
bezeichne
bezeichnet
bezeichnig
bezeichnige
bezeichnung
bezie
beziehig
beziehige
beziehigswiis
bezieht
beziehung
beziehungen
bezieige
beziejig
beziejige
beziejigswiis
bezien
beziet
beziirksamt
bezirk
bezirke
bezirken
bezirks
bezirksamt
bezirksgricht
bezirkshauptort
bezirkshu
bezirksschuel
bezirkswa
bezoge
bezooge
bezu
bezug
bezuug
bezuugssu
bezzel
bf
bfa
bfaarchilche
bfaarer
bfla
bflanze
bfs
bgoordnet
bgoordneta
bh
bha
bhaalte
bhagavadgita
bhalte
bhaltet
bhandlet
bhauptet
bhe
bhf
bho
bi
bia
biacher
bianca
bianchi
biasca
bibel
bibellexikon
biber
biberach
bibere
bibi
bible
bibliografie
bibliografii
bibliografische
bibliographie
bibliographisches
bibliography
bibliomedia
biblioteca
biblioteek
biblioteeke
bibliothe
bibliotheca
bibliothek
bibliothekar
bibliotheke
bibliotheken
biblische
bibra
bichsel
bichwil
bickel
biden
bidra
bidu
bie
biebl
biecher
biechli
bied
biedermann
biedge
biel
bielefeld
bieler
bielersee
biella
bien
biennale
bienne
bienzle
bier
bieri
biermann
biermo
biet
biete
bietenhard
bietet
bieuzy
bifestigt
big
bige
bigi
bigler
bigriff
bigru
bihl
bihne
bihni
bii
biibhalte
biidra
biidritt
biim
biinaame
biiname
biine
biischpiil
biischpiilswiis
biischpil
biispiil
biispil
biitra
bikannt
bikannte
bikannti
bike
bikini
bikumma
bikumme
bilanz
bild
bildband
bilddokumenten
bilde
bilded
bilden
bildende
bildenden
bildendi
bilder
bilderbuch
bildern
bildersturm
bildet
bildete
bildhauer
bildhauerei
bildig
bildigswa
bildle
bildli
bildnis
bildschirm
bildung
bilingue
bill
billboard
billie
billiger
billy
bilz
bim
bimene
bin
bina
binda
binde
binder
bindig
bindnis
binennt
binere
binge
bingen
binger
binne
binnige
binze
bio
bioggio
biografi
biografie
biografii
biografy
biographical
biographie
biographieforschung
biographien
biographii
biographisch
biographische
biographisches
biography
biolog
biologi
biological
biologie
biologii
biologisch
biologische
biologischi
biology
biospha
biotop
bip
bir
bira
birche
bircher
bird
birdlife
birds
birger
birgermaischter
birgermoeschter
birgermoischtr
birgit
birke
birkenau
birkha
birmischtorf
biro
birr
birs
birsegg
birsfa
birsig
birth
birthday
biru
bis
bisch
bischa
bischbil
bische
bischef
bischen
bischer
bisches
bischi
bischo
bischof
bischoff
bischofssitz
bischoof
bischpiil
bischpil
bischribe
bischt
bischtum
bischwiller
bisha
bisher
bisherige
bisidlet
bisigt
bislang
bismarck
bispiil
bispil
bispilswiis
bispyl
bissau
bisse
bissenge
bissingen
bissle
bist
bistande
bistoot
bistum
bit
bitche
bitra
bitrachtet
bitrait
bitsch
bitscher
bitscherland
bitte
bitter
bittet
bitz
bitzeli
bivo
biwegig
biz
bizaichnet
bizaichnig
bizu
bjo
bke
bl
bla
blaan
blaanig
blaant
blaante
black
blackpink
blackwell
blair
blaise
blan
blanc
blanche
blanq
blanquet
blant
blante
blasie
blasien
blasius
blatt
blatte
blatter
blattform
blattner
blatz
blau
blaubeira
blaue
blauem
blauen
blauer
blaui
blauwal
ble
blech
blei
bleiben
bleibt
blenio
bler
bletter
bleu
bleue
bli
blia
blibbe
blibe
bliben
blibt
blich
bliche
blicherwys
blichi
blick
blicke
blieb
bliete
blig
blige
bligg
bliiba
bliibe
bliiben
bliibet
bliibt
blik
blika
blind
blinde
blinge
blitz
bliwe
blo
bloch
blocher
block
blockiert
blog
blommegg
blonay
blood
bloomington
blos
bloss
blotzheim
bloß
bls
blu
bludaz
blue
blueme
blues
bluescht
bluet
bluetig
bluetige
blum
blumberg
blume
blumegg
blumen
blummba
blummberg
blut
blutt
blv
bly
blybe
blybt
blyybe
bmg
bner
bnis
bniss
bnutzt
bo
board
bob
bobo
boca
boccaccio
bochum
bock
bocuse
bod
boda
bodasee
bodde
bode
boden
bodenfla
bodensee
bodenseekreis
bodensees
bodesee
bodeseealemannisch
bodio
bodman
bodmer
bodo
body
boehm
boeing
boesch
boge
bogen
bogner
bohars
bohl
bohnenberger
bohr
boide
boigny
boirischa
bois
boldt
boleyn
boli
bolitik
bolitiker
bolitikeri
bolitikwisseschaft
bolitisch
bolitische
bolitischi
bolitker
bolivie
bolizei
boll
bollschwil
bolo
bologna
bombardiert
bombay
bombe
bomm
bon
bonaduz
bonaparte
bond
bonde
bondo
bondorf
bonfol
bonhoeffer
bonifacius
bonifatius
bonjour
bonn
bonndorf
bonne
bonner
bono
bononcini
boode
boodesee
boodi
booge
book
books
boole
boom
boor
boos
boot
boppard
bora
bord
bordeaux
bordret
borges
borgosesia
boris
bormio
born
borneo
borroma
borst
borussia
bosch
boscht
boschtleitzaale
boschung
bosco
bosnie
boss
bossue
boste
boston
bosuune
bosworth
bot
botanik
botaniker
botanisch
botanische
botany
bote
botschaft
botschafter
botswana
bott
botte
bou
boudevilliers
boudry
boue
bouffier
bougainville
boulageois
boulay
boulevard
boulez
boum
bounty
bourg
bourgogne
bout
bouvier
bouwa
boux
bouzey
bouzonville
bouzonvillois
boveri
bowie
box
boxer
boy
boys
bozen
bp
bpb
br
bra
bracht
bradley
brahma
brahms
braig
brain
brait
braite
braiti
braktisch
branche
brand
brandeburg
brandenburg
brandstetter
brandt
brant
braque
brasilianische
brasilianischi
brasilie
brasilien
brass
brassens
brassica
bratislava
bratsch
bratsche
brattele
brauch
brauchen
braucht
brauchtum
brauerei
brauereie
braun
braunschweig
braut
brav
bravo
braxis
bray
brazzaville
brd
bre
breagaz
breagazer
breagazerwald
breagazerwaldgebirg
break
breasted
brecht
breg
bregaglia
bregenz
bregez
bregt
brehm
breil
breisach
breisgau
breit
breite
breitenbach
breitenstein
breiter
breiti
breitinger
breitkopf
brejcha
breker
brel
breme
bremen
bremer
brenga
brengt
brenner
brennpunkt
brennt
breno
brentano
brenz
bresa
brescia
bresida
bresidium
breslau
brest
bret
bretagne
breton
bretonisch
bretonische
bretonischi
brett
bretten
breuer
brexit
brezhoneg
bri
bria
briaf
brian
brichdet
bricht
brichte
brichtet
bridge
bridges
brie
briec
brieder
brief
briefe
briefen
briefmarke
briefwechsel
briens
brienz
brienzersee
briester
brig
brigach
brige
brigels
brigens
brigitta
brigitte
briilinge
briis
briisach
briisgau
brill
bringe
bringen
bringt
brinz
brinza
brinzip
brione
bris
brisach
brisacher
brisgau
bristol
brit
britain
britannica
britannie
brite
briten
britisch
britischa
britische
britischen
britisches
britischi
britischs
british
britta
britten
brivatbsitz
brivate
brivati
bro
broadway
brobiere
brobiert
brobla
brobleem
broblem
broc
broche
brocht
brock
brockes
brockhaus
brod
brodbeck
brodukt
broduktion
brodukzioon
broduza
broduziere
broduziert
broduzyrt
brofa
brofeet
brofyl
brogramm
broja
broje
brojekt
brombach
bronse
bronze
bronzeziit
bronzezit
bronzezitt
bronzezyt
broocht
brooklyn
broot
bros
broschu
brot
brotescht
brothers
brovinz
browinz
browinze
brown
browser
broye
broza
broze
bru
bruadr
brubeck
bruce
bruch
bruche
bruchsal
bruchstu
brucht
bruck
brucker
bruckmann
bruckner
bruder
brue
brueder
bruederholz
bruef
brugg
brugga
brugge
bruggene
brugger
brun
brune
brunegg
brunichild
brunne
brunnen
brunner
brunno
bruno
brunscht
bruppacher
bruscht
brust
brutal
bruuch
bruuchd
bruuche
bruucht
bruuchte
bruuchtum
bruun
bruune
brysach
brysgau
bryys
bryysdreeger
bryysgau
bs
bsa
bsatzig
bsatzigszone
bsc
bscha
bschaue
bschdanddeil
bsche
bscheftigt
bschließt
bschliss
bschlosse
bschlu
bschluss
bschra
bschribe
bschriibe
bschrybt
bscht
bschta
bschtanddeil
bschtande
bschtellt
bschtimmt
bschtimmte
bschtimmti
bschto
bschtoht
bse
bsetze
bsetzig
bsetzt
bsetzte
bsetzung
bsfa
bsi
bsidlet
bsidlig
bsitz
bsitzer
bsitzige
bsitzt
bsonders
bsondrs
bsorte
bst
bsta
bstand
bstande
bstange
bstehn
bsteht
bsteit
bstellt
bstetigt
bstimmt
bstimmte
bstimmti
bstoht
bstoot
bsu
bsuach
bsue
bsuech
bsueche
bsuecher
bsuecht
bsunder
bsundere
bsunderhait
bsunderheit
bsunderheite
bsunderi
bsunders
bsundersch
bsundrige
bsundrigi
bsundrigs
bt
btailung
bte
btissin
bu
bua
buach
buacha
bucer
buch
buchau
buchberg
buchdruckerei
buchen
bucher
buches
buchgesellschaft
buchhandlung
buchholz
buchner
buchs
buchsgau
bucht
buchte
buchverlag
buck
buckel
bud
buda
budapest
buddha
buddhismus
buddhistische
budget
budrich
bue
bueb
buebe
buebedorf
buech
buechdruck
buechdrucker
bueche
buechha
buechhandel
buechma
buechschtab
buechschtabe
buechstaabe
buechstab
buechstabe
buenos
bug
buganda
buggel
building
buis
bukarest
bulgare
bulgarie
bulgarisch
bulgarische
bulgarischi
bulge
bull
bulle
bulletin
bullinger
bumpventyl
bun
bund
bunde
bundes
bundesamt
bundesarchiv
bundesbaan
bundesbaane
bundesbahn
bundesbresida
bundesbrief
bundeschanzler
bundeschanzleri
bundesdaag
bundesdag
bundesdagsfraktion
bundesdagswahl
bundesebeni
bundesgricht
bundesgsetz
bundeshuus
bundeskanzlei
bundeskanzler
bundesla
bundesland
bundesliga
bundesminischter
bundesminischteri
bundesminischterium
bundesministerium
bundespra
bundespresida
bundesra
bundesrat
bundesregierig
bundesregierung
bundesrepublik
bundesro
bundesroot
bundesrot
bundesschta
bundesschtaat
bundesschtro
bundesstaat
bundesstaate
bundestag
bundestagsfraktion
bundestagswahl
bundesverband
bundesverdienschtchryz
bundesverfassig
bundesverfassigsgricht
bundesversammlig
bundesverwaltig
bundesvorsitzende
bundesvorsitzer
bundesvorstand
bundeswahlleiter
bundeswehr
bundeszentrale
bundi
bung
bunker
bunte
burchard
burckhardt
bure
bureau
burg
burgaalag
burgdorf
burge
burgeland
burgemeischter
burgen
burgeninventar
burger
burgerchrieg
burgermaischter
burgermaischteri
burgermeischter
burgerra
burghof
burgruine
burgstall
burgtheater
burgund
burgunder
burgunderchrieg
burgundisch
burgundische
burgundischi
buri
burkart
burke
burkhalter
burkhard
burkhardt
burkhart
burkina
burns
burte
burton
burundi
bus
busch
buser
bush
business
buske
buslinie
busoni
busse
but
butler
butsch
butter
buuch
buur
buurdlef
buure
buurechrieg
buuredorf
buurehof
buurehuus
buurged
buurt
buut
buxtehude
buxwiller
buzer
bvb
bvo
bw
bwl
by
bydra
bydreg
bym
byron
byrot
byschpel
byschpil
byschpill
byschpillswys
byspiil
byspil
bytra
bytrag
byzantine
byzantiner
byzantinisch
byzantinische
byzantinischen
byzantinischi
byzantium
byzanz
bz
bzite
bzw
c
ca
cabaret
cadalbert
cadenazzo
caesar
caesarea
cafe
cahiers
calais
calanca
calb
calder
california
caligula
call
calmy
calvaire
calvin
calw
cambridge
camenisch
camera
cameron
camille
camp
campagne
campbell
campe
campell
campello
campione
campo
campus
camus
can
canada
canal
canberra
cancellara
cannes
cannstatt
canobbio
canterbury
canton
cantone
cantz
cap
cape
capella
capital
capo
cappella
capriasca
captain
car
caracalla
caracas
carasso
caravaggio
cardinals
cargo
carhaix
caribbean
carigiet
caritas
carl
carla
carlo
carlos
carlsen
carme
carmen
caro
carol
carola
carolina
caroline
carona
carouge
carroll
carsten
carstens
carta
carte
carter
carteret
cartier
carus
cas
casa
casagrande
casanova
case
casimir
casino
caspar
cassini
cast
castel
castello
castione
castle
castor
castro
castrum
cat
catalogo
catalogue
catania
catharina
catharines
cathe
catherine
catholic
cattenom
cavagnago
cavalli
cavendish
cavigelli
cazis
cbs
cc
cd
cdot
cds
cdu
ce
celestino
celio
cell
cello
celsius
cem
census
cent
center
centovalli
central
centrale
centre
centro
centuries
century
ceo
cercle
ceres
ceresio
cern
cernay
cerniat
cernier
cervantes
ces
cesare
ceuta
cev
cevi
cevio
ch
cha
chaa
chaarlsrue
chaarlsruei
chaarte
chablais
chagall
chai
chaim
chair
chaisa
chaiser
chaiserlige
chaiserrych
chaiserstuel
chal
chalch
challenge
chalt
chalte
chalti
chaltzit
cham
chame
chamer
chammer
chammere
chamonix
champ
champagne
champf
champion
champions
championship
champs
chan
chance
chander
chandersta
chanel
chanf
chang
change
chann
channa
channel
chanoux
chanson
chansons
chant
chantal
chante
chanzlerkandidat
chao
chaos
chapel
chapelle
chaplin
chapman
chappe
chappel
chappele
chappelerchrieg
chappeli
chapter
charakter
charakterisiert
charakteristisch
charakteristische
charente
charibert
charles
charlie
charlotte
charlsrue
charly
charmey
charon
charsau
chart
charta
charte
charts
chas
chasare
chasch
chasper
chasseral
chat
chatz
chatze
chaucer
chauf
chaufe
chaufma
chaufmann
chauft
chaumont
chaux
chavannes
chblo
chbo
chchrie
chd
chde
chdeil
chdem
chder
chdet
chdig
chdige
chdigt
che
cheenig
cheer
chees
chef
chefredakteur
chel
chele
cheli
chelsea
chem
chema
cheme
chemi
chemical
chemie
chemii
chemiker
chemin
chemins
chemisch
chemische
chemischi
chemistry
chemme
chems
chemy
chen
chenaux
chend
chende
chendi
chene
chenevie
cheng
chenga
chengdu
chenig
chenigi
chenigrych
chenne
chennen
chennt
cher
cherche
chere
cherei
cheret
cheri
cherig
cherle
chermignon
chern
chers
cheschte
chess
chessel
chesswil
chet
chette
chetti
chez
chf
chfolger
chi
chiasso
chicago
chie
chief
chiem
chien
chienba
chiesa
chig
chiga
chige
chiis
chiisige
chila
chilch
chilche
chilchemusik
chilchhofe
chilchlige
childebert
childerich
children
chile
chilegma
chilegmeind
chilegmeinde
chilen
chilene
chille
chillestaat
chilperich
chin
china
chinas
chind
chinder
chinderbuech
chinderga
chindergarte
chinderschuel
chindha
chindheit
chine
chinenyeze
chinese
chinesisch
chinesische
chinesischen
chinesischi
ching
chinig
chinscht
chinschtler
chinschtleri
chinschtlerisch
chirac
chirch
chirche
chirchlige
chirico
chironico
chirurg
chisch
chische
chischi
chiuche
chiuterf
chla
chlai
chlaider
chlaine
chlainere
chlaineri
chlaini
chlammere
chlaus
chle
chlech
chlee
chleggau
chleggi
chlei
chleider
chleidig
chleigebiet
chlein
chleine
chleinere
chleineri
chleini
chleis
chler
chleschter
chli
chlich
chliche
chlichen
chlichi
chlig
chlii
chliiasie
chliine
chliinen
chliiner
chliinere
chliineri
chliini
chliis
chliises
chlin
chline
chlinge
chlingnau
chlini
chlinne
chlinner
chlinneri
chlises
chlo
chlodwig
chlooschter
chlooster
chloote
chlorophyll
chloschter
chloschterchile
chloster
chlothar
chlotze
chly
chlyne
chlyner
chlynere
chlyneri
chlyni
chlyses
chna
chnapp
chne
chner
chnet
chnig
chnige
chnik
chnisch
chnische
chnischi
chno
chnoche
chnochefisch
chnology
chnote
chnu
cho
choblez
choche
chohle
choice
cholbe
cholera
chologii
chomsky
chonufinge
choo
choor
chopf
chopfwee
chopin
chor
choral
chorb
chorn
chorz
choschtez
chosrau
chr
chra
chraft
chraftwa
chrais
chraisamt
chraisdag
chraisverband
chrank
chranke
chrankehuus
chranket
chrankete
chrankha
chrankheite
chrankhet
chranki
chre
chreft
chreis
chreise
chreisstadt
chri
chria
chrie
chrieg
chrieger
chriegerische
chriegsgfangeschaft
chriegsschiff
chriegsverbra
chris
chrischona
chrischte
chrischtetum
chrischti
chrischtleche
chrischtlechi
chrischtli
chrischtliche
chrischtlige
chrischtus
christ
christa
christe
christedum
christel
christen
christentum
christetum
christi
christian
christiane
christianisierig
christina
christine
christlich
christliche
christlichen
christlicher
christlichi
christlig
christlige
christligi
christmas
christof
christoph
christophe
christopher
christophorus
christus
chro
chromosom
chromosome
chrone
chronicle
chronicon
chronik
chronike
chroniken
chronischt
chronist
chronologie
chronologisch
chronology
chronos
chroone
chrozige
chru
chrummenau
chruschtschow
chrysander
chrysanthemum
chryyde
chryz
chs
chscht
chschtabbe
chschte
chschti
chse
chsel
chselwu
chsilu
chsisch
chsische
chsischen
chsischi
chsle
chslet
chst
chstalemannisch
chste
chsten
chsti
cht
chta
chte
chten
chter
chtere
chtet
chti
chtig
chtiga
chtige
chtigen
chtiger
chtigi
chtigkeit
chtigt
chtigte
chtigti
chtigung
chtler
chtleri
chtli
chtlich
chtliche
chtlichi
chtlig
chtlige
chtligi
chtling
chtlinge
chtma
chtnis
chtold
chts
chtsaawalt
chtschrybig
chtsorgan
chtsverchehr
chtswisseschaft
chtswisseschafte
chtswu
chtung
chu
chuchi
chuck
chue
chueche
chugle
chulm
chum
chumme
chummt
chund
chunde
chung
chunnt
chunnts
chunscht
chunt
chupfer
chupfersta
chur
church
churchill
churer
churra
churz
churzbiografii
churze
churzem
churzer
churzes
churzfilm
churzform
churzgschicht
churzgschichte
churzi
churzla
chuu
chuugele
chuum
chuur
chuurz
chuurzfilm
chza
chzg
chzig
ci
cia
ciba
cicero
cie
cil
cile
cine
cinema
cinq
circa
circle
circolo
circus
cis
cit
cite
cities
citroe
citta
city
civil
civitas
cj
ck
cka
ckblick
ckchen
cke
ckel
ckelt
cken
cker
ckerli
ckert
ckga
ckig
ckige
ckiger
ckinge
ckingen
ckinger
ckkehr
ckla
ckle
ckler
ckli
cklich
cklig
cklin
cklung
ckmu
ckner
cks
cksa
ckschta
cksicht
cksichtigt
cksichtigung
ckt
ckte
cktritt
ckzug
cla
claire
clairvaux
clan
clara
clarendon
clark
clarke
claro
class
classic
classical
classification
classischen
claude
claudia
claudio
claudius
claus
clauss
clav
clavius
clay
cle
clemens
cleopatra
cles
climate
clinton
clique
clos
cloud
clown
club
cluny
cluster
cm
cmp
cnn
cnrs
co
coast
coat
coburg
coca
cockpit
coco
cocteau
cod
code
codes
codex
coelestin
coffrane
cohen
cohn
col
cola
cold
cole
coleman
coles
coli
colin
colla
colle
collected
collection
collectivites
college
collegium
collenberg
collina
collins
collonges
colloquium
colmar
colmarer
colmer
colombier
colonia
colorado
columbia
columbus
com
comasco
combe
combes
come
comedy
comersee
comes
comic
comics
coming
comite
comm
comme
commedia
commentary
commerce
commission
committee
common
commons
commonwealth
communaute
commune
communes
communications
communis
community
como
compagnie
companion
company
comparative
complete
complex
composition
compostela
computer
comte
comtois
comune
comuni
con
concarneau
concepcio
concept
concert
concerto
concise
conde
condita
confe
conference
conflict
confluences
congo
congre
congress
connecticut
conquest
conrad
conradin
conseil
conservation
constant
constantin
constantius
constitution
construction
consulta
contact
contador
conte
contemporary
content
contes
contest
context
conthey
continental
contra
contre
control
convention
cook
cool
coop
cooper
coors
cop
coray
corbie
corbusier
corcelles
cordillera
core
coregonus
corelli
corina
corinne
corinth
cornelia
cornelius
cornell
cornol
cornouaille
cornwall
corona
coronavirus
corporation
corps
corpus
corrodi
corsier
corte
corto
cos
cosmos
cossonay
costa
coteaux
cotentin
cotta
council
countries
country
county
coupe
courage
courcelles
courgenay
cours
course
court
courtelary
cousin
couverte
covent
cover
covid
cox
craig
crailsheim
cramer
cranko
crans
crash
crc
cre
creative
credit
cremona
cressier
crew
crick
crime
criminel
crisis
crite
critical
critique
cro
croce
croci
croix
cross
crozon
cruz
crystal
cs
csa
css
csu
csv
ct
cu
cugnasco
cultura
cultural
culture
cultures
cum
cuneo
cup
cure
curie
current
curt
curtis
cusio
cut
cv
cvp
cycling
cyprien
cyrus
cz
cœur
d
da
daa
daademit
daadezue
daag
daagsatzig
daal
daar
daargstellt
daarstelle
daarstellig
daarstellige
daarstellt
daas
daate
daatsa
daba
dabei
dach
dachau
dachsberg
dachverband
dada
dadaismus
dademit
dado
dadurch
daf
dafele
dafle
dafrika
dafu
dag
dageszytig
dagmar
dagobert
dagog
dagogik
dagogische
dagsatzig
dagt
daguerre
daheim
daher
dai
daift
daig
dail
dailgnuu
dailna
dailt
dailwys
daily
daimler
daitsch
dakota
dal
dalai
dalbaan
dalbe
dalbodde
dalcher
dale
dali
dalla
dallas
dalschperre
dalschperri
dalwange
dam
damalige
damaligi
damals
damaskus
damasus
dame
damerika
damian
damit
damm
damon
dampf
dampflok
dampflokomotyve
dampfloks
dampfmaschine
damrau
dan
dana
danach
dance
dancehall
dani
daniel
daniela
daniele
danielle
dank
danke
dann
danne
dans
dante
danton
danz
danze
danzig
danzt
daoismus
daoulas
daphne
dar
dara
dareios
darf
dargestellt
dargschtellt
dargstellt
darin
dark
darkover
darm
darms
darmsta
darmstadt
darschtellig
darstelle
darsteller
darstellig
darstellige
darstellt
darstellung
darstellungen
daru
darum
darwin
das
dass
dat
data
database
date
datebank
datei
dateie
dateiformat
daten
datenbank
dath
datierig
datiert
dativ
datsa
datum
daucht
dauft
dauphine
dauret
dave
david
davies
davis
davon
davos
davoser
dawn
day
days
dazu
dazua
daß
db
dbadde
dbade
dbaden
dc
dchen
dd
dda
dde
dder
ddere
ddeutsche
ddischland
ddp
ddr
ddu
de
dea
dead
deal
deam
dean
deana
deane
death
debatte
debi
debii
deborah
debrecen
debu
debussy
deby
december
dechtere
dechterle
deck
decke
decker
decki
deckt
decurtins
dee
deene
deep
deere
deert
dees
deet
deete
definiere
definiert
definierte
definition
definitiv
definitive
definizion
definizioon
definyrt
defir
defo
defu
dega
degege
degen
degener
degenhardt
degli
deha
dehei
deheim
dei
deil
deile
deilig
deilna
deilriich
deils
deilt
deilwiis
deilwis
deilwys
deilwyys
dein
deine
deiss
deitsch
deitscha
deitsche
deitscher
deitschland
dekan
dekanat
deklination
dekret
del
delaunay
dele
delegation
delegierte
delhi
deli
delius
dell
della
delle
dello
delphi
delphin
delphine
delta
deluxe
dem
dema
demand
demeter
demit
demm
demo
democracy
democratic
demografiche
demographischen
demokra
demokrat
demokrate
demokratie
demokratii
demokratisch
demokratische
demokratischen
demokratischer
demokratischi
demokraty
demonschtrante
demonschtration
den
dena
dene
denebet
denen
deng
denis
denise
denk
denke
denken
denkens
denker
denkma
denkmal
denkmalpflege
denkmalschutz
denkmo
denkschrift
denkt
denn
denne
dennis
denno
dennoch
dennzumol
deno
denoch
denoo
denswil
dent
departema
departement
department
deplazes
deportation
deportiert
depression
depuis
der
dera
deraliste
deration
derbi
derbii
derby
derbyy
dere
derek
deren
derer
derf
derfe
derfel
derfer
derfir
derfu
derga
dergege
dermit
dermuus
dern
derna
derndinger
dernie
derno
dernoh
dernoo
derre
derry
ders
dert
derte
dertemol
dertemool
dertige
derungs
dervo
dervor
dervu
derwa
derwylscht
derwyyl
derwyylscht
derzit
derzu
derzue
des
descartes
descharnes
deschtlich
description
desertina
deshalb
desiderius
design
desire
desmol
despot
dessau
dessen
dessous
dessus
desto
det
deta
detail
details
dete
detlef
detlev
detroit
dett
deum
deutsch
deutsche
deutschen
deutscher
deutsches
deutschland
deutschlandfunk
deutschlandradio
deutschlands
deutschsprachige
deutschsprachigen
deutschsprachiger
deutung
deux
devant
development
devi
devo
devon
devoo
devor
devu
devuu
dez
deza
dezamber
deze
dezembe
dezember
dezembr
dezu
dezue
dezuegho
dfb
dfg
dfra
dfrankriich
dfrankrych
dfuess
dg
dhang
dhl
dhm
dhof
di
dia
diagnose
diagnostik
diagramm
diakon
diala
diale
dialect
dialecte
dialectes
dialectologie
dialects
dialekt
dialekte
dialektik
dialektologe
dialektologie
dialetti
dialetto
dialog
diamond
dian
diana
diane
diaspora
diaz
dibeng
dibenga
dibenge
dich
dichder
dichdig
dicht
dichte
dichten
dichter
dichtere
dichteri
dichterin
dichters
dichtet
dichti
dichtig
dichtr
dichtung
dichtungen
dick
dicke
dickens
dicki
dictionary
dictionnaire
dicziunari
did
didaktik
didier
die
dieb
diederichs
dief
diefe
diefebeni
diefer
diefi
diefland
diefscht
diefst
diego
diei
diela
dielsdorf
dien
diene
diener
dienet
dienge
dienscht
dienst
dienste
dienstla
dient
dier
dierarte
dierer
dierna
dierwa
dies
diese
diesem
diesen
dieser
dieses
diesse
dieter
dieterich
dieth
diethelm
dietike
dietmar
dietrich
dietz
dieu
dieuze
differa
differenz
dig
dige
diger
digital
digitale
digitali
digitalisaat
digitalisat
digitalisierig
digitalisierte
digitalisierti
digt
digung
diha
dii
diibenga
diibenger
diitsch
diitscha
diitscher
diitschla
dijon
dikat
dikrech
diktator
diktatur
dildo
dille
dillier
dillinga
dillingen
dimension
dimitri
din
dina
dinaschty
dine
diner
ding
dinge
dingen
dinger
dinkelberg
dinn
dinne
dinner
dino
dinosaurier
dio
diodor
diogenes
diokletian
dioklezian
dion
dione
dionysius
dionysos
dioskure
dipartimento
diphthong
dipl
diplom
diplomarbeit
diplomat
diplomate
diplomatisch
diplomatische
diplomatischi
diploom
dir
dira
dirac
dire
direction
director
directory
direkt
direkte
direkter
direkti
direktor
direktorium
diriga
dirigent
dirk
dis
disa
disch
discha
dische
dischen
discher
disches
dischi
dischpetiert
dischtanz
dischtrikt
discogs
discovery
dise
disease
disentis
diskriminierig
diskurs
diskussion
diskussione
diskutiert
disney
displaystyle
diss
dissertation
dissertazioon
distanz
distanze
distel
distretto
distribution
district
distrikt
disziplin
diszipline
dit
ditalie
ditel
dition
ditionell
ditions
dits
ditsch
ditscha
ditsche
ditscher
ditschi
ditschla
ditschland
dittlig
ditzingen
div
diva
diverse
diversi
diversity
divina
divine
division
diziona
dizionario
dizzy
dj
djilali
dkorea
dkurier
dkuryr
dl
dla
dle
dlech
dleche
dler
dli
dlich
dliche
dlichen
dlicher
dlichi
dlig
dliga
dlige
dligi
dling
dm
dmg
dmitri
dn
dna
dnb
dnepr
dnigi
dnp
dnvp
do
doa
doarobiro
dobel
doc
doch
dochder
dochter
doctor
documenta
documenti
documents
dod
dode
dodebi
dodeby
dodefu
dodemit
doderby
doderbyy
doderdur
doderfir
dodermit
doderno
dodervo
dodervu
doderzue
dodesdag
dodevo
dodezue
dodin
dodis
dodmol
dodra
dodrin
dodrmit
dodruf
dodrunter
dodrus
dodrzue
dodtmis
dodur
dodurch
dog
doge
doha
doher
doi
doig
doil
dokter
dokterarbet
doktor
doktr
doku
dokuma
dokument
dokumentarfilm
dokumentation
dokumente
dokumenten
dokumentiert
dold
dolder
dole
dollar
doller
dollfus
dolmen
dom
doma
domain
domaine
domains
domat
dombresson
domenico
domherr
domi
dominanz
domingo
dominic
dominiere
dominiert
dominik
dominikaner
dominique
domino
domit
domitian
domkapitel
domleschg
domodossola
domolig
domolige
domols
domoolige
dompierre
don
donald
donat
donau
donaudalbaan
donaueschinge
donaueschingen
donaueschinger
donauschwa
donauwo
done
donizetti
donna
donne
donner
donnergott
doo
doochter
dood
doodrzue
doon
door
doorf
doorff
doors
doorum
doote
dootedanz
dooti
doozmaal
doozmol
doozmool
doping
doppel
doppelt
doppelte
dopplet
dor
dora
dore
dorf
dorfbach
dorfcha
dorfchile
dorfer
dorfes
dorfrand
dorfza
dorfzentrum
doris
dorische
dorn
dornach
dornbirn
dorneck
dornier
dorothea
dorothee
dorothy
dort
dortmund
dorum
dos
doschte
dossier
dostasie
doste
dosteuropa
dostojewski
dot
dote
doteda
doti
dotiert
dotmis
dotzed
dou
douard
douarnenez
double
doubs
douglas
dover
down
download
doza
dozmol
dozmool
dp
dpa
dpol
dr
dra
draa
draaibuech
drache
dradition
draditiona
draditione
draditionelle
dradizion
dradiziona
dradizionell
dradizionelle
dradizionelli
dradizioon
dradizioone
drage
drago
dragon
drai
drait
drake
drale
dram
drama
dramatiker
dramatische
dramaturg
drame
dramen
drand
dranse
drauf
draum
draus
drbei
drbi
drbii
drby
dre
dream
dreams
dreck
dreger
drehbuach
drehbuch
dreher
dreht
drei
dreieck
dreiegg
dreier
dreila
dreimol
dreisam
dreisee
drej
dren
drennig
drennt
dresda
dresde
dresden
dresdner
drewniok
drey
dreyer
dreyfus
drfir
drfu
drg
drgeege
drgege
drhoim
dri
dribe
driber
dridda
driddel
drifft
drii
driibe
drillt
drin
drinke
drinkwasser
drinn
drissig
drissigja
drissigjo
dritt
dritte
drittel
dritten
dritter
drittgro
dritti
dritts
driza
drmit
drna
drno
drnoch
drnooh
dro
droche
droemer
droffe
droge
droht
droit
drom
dromm
dron
droon
droot
droste
drotz
drotzda
droz
drs
dru
drubbe
druck
drucke
drucker
druckerei
druckezyt
druckschrifte
druckt
druf
drufabe
druff
druffabe
druffhy
drugg
druggt
drum
drumbeete
drumm
drummle
drumume
drunder
drunter
druppe
druppen
drus
druss
drusus
druuf
druus
drvo
drvoo
drvor
drvu
drybfaarzu
drybwa
drybwage
dryden
dryssg
dryssgjehrige
drzu
drzua
drzue
drzuechoo
drzuegho
ds
dscha
dschi
dschibuti
dschingis
dschwarzwald
dsee
dsite
dsyte
dt
dta
dte
dtebuch
dtebundes
dten
dter
dtetages
dtirol
dtiroler
dtische
dtischen
dtischer
dtischi
dtle
dtli
dts
dtv
dtza
du
dua
duad
dual
duat
dub
dubai
dubler
dublin
dubs
duchamp
duck
duden
dudenverlag
due
duell
duene
duet
duett
dufer
dufour
dui
duisburg
dukas
duke
duldet
dum
dumas
dumont
duna
dunant
duncker
dunkel
dunkle
dunkli
dunkt
dunnel
dunschtig
duo
dur
dura
durab
durbach
durch
durchbruch
durchfu
durchga
durchgesehene
durchma
durchmesser
durchquert
durchs
durchschnitt
durchschnittlich
durchschnittlig
durchuus
dure
duregfiert
duregfu
duregsetzt
duresetze
durezsetze
durgfiert
durgsetzt
durich
during
durlach
durm
durma
durmesser
durnier
durre
durs
durschnitt
durschnittli
durschnittlige
durscht
dursetze
dusse
dutch
duttlinga
duttlinge
duube
duume
duur
duure
duuregfu
duuregsetzt
duuresetze
duuret
duurhaft
duurt
duusig
duusigi
dux
dva
dvd
dvp
dwa
dwalser
dwescht
dweschtdu
dweschte
dweschtlech
dweschtlich
dweschtliche
dwest
dwestdeutsche
dwestdeutschen
dwestdeutschland
dweste
dwesten
dwestlig
dy
dydsch
dydschland
dylan
dynamik
dynaschdii
dynaschtii
dynastie
dynastii
dynasty
dyr
dytli
dytlig
dytligi
dytsch
dytsche
dytscher
dytschi
dytschland
dytschsprochige
dz
e
ea
eagle
ean
earl
early
earth
east
eastern
easy
eau
eb
eba
ebba
ebbe
ebbes
ebbis
ebd
ebe
ebefalls
eben
ebene
ebeni
eber
eberhard
eberle
eberler
ebert
ebeso
ebig
ebige
ebis
ebli
ebnet
ebni
ebo
ebola
ebook
ebringe
ebringen
ebringer
ebroin
ebt
ec
ecclesia
ech
echa
echallens
eche
echer
echli
echnaton
echo
echstabe
echt
echte
echter
echterdingen
echti
echtland
eck
eckardt
eckart
ecke
eckert
eckhard
eco
ecole
ecology
econ
economic
economics
economy
ecuador
ed
eda
edd
edda
eddie
eddy
ede
edel
edelweiss
eden
edena
eder
edere
edergwa
ederswiler
edgar
edi
edikt
edinburgh
edison
edit
edith
edition
editions
editor
editore
edizioni
edle
edmond
edmund
edouard
eds
edu
eduard
education
edv
edvard
edward
edwin
ee
eebeni
eemoolige
eender
eener
eer
eere
eeredokter
eeremitgliid
eerscht
eerschte
eerschti
eerschtu
eerstain
eeschtraich
eeschtryych
eewafa
ef
efe
effa
effe
effekt
effentlige
effetli
effetlige
effetligi
effetligkait
effizia
efig
efige
efrige
eft
efta
eg
ega
egal
ege
eger
egg
egge
eggenberger
egger
egginge
eggingen
egho
egig
egino
egk
egli
eglisau
eglise
egloff
egon
egressive
egschnitte
egt
egu
egypt
egypte
egyptian
eh
ehama
ehc
ehe
ehefrau
ehem
ehemalig
ehemalige
ehemaligen
ehemaligi
ehemals
ehemo
ehemolegi
ehemolig
ehemolige
ehemoligi
ehemoligs
ehemols
ehemoolige
ehemooligi
ehepaar
eher
ehere
ehi
ehige
ehinge
ehinger
ehje
ehl
ehlers
ehlig
ehm
ehma
ehmalige
ehmolegi
ehmolig
ehmolige
ehmoligi
ehmt
ehmte
ehn
ehnder
ehne
ehner
ehnere
ehni
ehr
ehra
ehre
ehreburger
ehremitglid
ehren
ehrende
ehrendi
ehrer
ehret
ehri
ehrig
ehrige
ehrlich
ehrt
ehrte
eht
ehud
ei
eich
eichberg
eichborn
eiche
eichendorff
eicher
eichhorn
eichin
eichsta
eid
eidgeno
eidgenosse
eidgenossenschaft
eidgenosseschaft
eidgno
eidgnosse
eidgnosseschaft
eidu
eie
eier
eifach
eifache
eifacher
eifachi
eifachs
eifel
eige
eigeheite
eigena
eigene
eigenen
eigener
eigeni
eigenschaften
eigentlech
eigentlich
eigentliche
eigentlig
eigenverlag
eiger
eiges
eigeschafte
eigesta
eigete
eigeti
eigetli
eigetlich
eigetlig
eigets
eigetu
eigetum
eigne
eignes
eignet
eigni
eiheit
eiheite
eiheitsstaat
eike
eim
eimol
eimool
ein
eina
einblicke
eine
einem
einen
einer
einere
einersits
eines
einewa
einfach
einfluss
einfu
eingeleitet
eingesetzt
einhard
einheit
einheite
einheitlich
einheitliche
einheitlichi
eini
einig
einige
einigen
einiger
einigi
einigung
einisch
einleitung
einmal
eins
einsame
einsatz
einsidle
einsiedeln
einst
einstein
einsteins
eint
einte
eintrag
einwohner
einwohnerzahlen
einzelho
einzeln
einzelne
einzelnen
einzelni
einzelzitfahre
einzig
einzigartig
einzige
einzigi
einzigs
eire
eiropa
eis
eischeme
eischemto
eisen
eisenbahn
eisenbahnen
eisenstein
eisidle
eiszeit
eiwohner
ej
eje
eji
ek
eka
ekd
ekkehard
ekliptik
ekwiwala
el
ela
elai
elb
elba
elbe
ele
eleanor
electric
electronic
elegtrische
elegtrischi
elegtronische
elegtronischi
elei
elektra
elektrisch
elektrische
elektrischi
elektrizita
elektro
elektrodu
elektrodynamik
elektromagnetische
elektromagnetischi
elektron
elektrone
elektronik
elektronisch
elektronische
elektronischi
elektrotechnik
elema
element
elementarda
elementare
elemente
elements
elena
eleonore
eler
elera
elf
elfeba
elfebeikischte
elfi
elfriede
elfte
elgg
eli
elias
elifant
elifante
elig
elima
elinge
eliot
elis
elisa
elisabeth
elisabetta
elise
elite
elizabeth
elke
ell
ella
ellai
elle
ellei
ellen
eller
ellermann
ellesmere
ellington
elliot
ellipse
ellis
ellwa
ellwangen
elmar
eloy
els
elsa
elsaesser
elsass
elsasser
elsassisch
elsassischa
elsassische
elsassischer
elsaß
else
elser
elsevier
elsgau
elsiss
elster
elt
elter
eltere
elteri
eltern
eltischt
eltischte
eltischti
eltist
eltiste
eltisti
elton
eltra
eltre
eltscht
eltschte
elvira
elvis
elz
elzach
elzdal
elze
elztal
em
ema
emaal
emal
emanuel
emanzipation
embrach
embryo
eme
emen
emene
emeritierig
emeritiert
emi
emigration
emigriert
emil
emile
emilia
emilie
emilio
emily
emir
emirat
emission
emli
emm
emma
emmanuel
emme
emmedinge
emmendingen
emmental
emmer
emmr
emmy
emne
emol
emool
emperor
empfa
empfange
empfohle
empfunde
empire
empirische
empo
empore
ems
emt
emte
emti
emtiste
en
ena
enand
enander
enbw
encarta
enceladus
enciclopedia
encyclopaedia
encyclope
encyclopedia
encyclopædia
end
ende
endeavour
endemisch
ender
endet
endgu
endi
endig
endingen
endlich
endo
ends
ene
enem
enenga
ener
enere
energi
energie
energii
energy
eneri
enerige
enfants
eng
engadin
engadiner
engagement
engagiert
engaschiert
engaschma
enge
engel
engelberg
engeler
engelhardt
engelmann
engels
engi
engine
engineering
engl
engla
england
engler
englisch
englische
englischen
englischi
english
engollon
eni
enke
enkel
enklave
enn
enne
enner
enorm
enrico
ens
enseignement
ensemble
enstande
ent
enta
entdecke
entdecken
entdecker
entdeckig
entdeckige
entdeckt
entdeckte
entdeckung
entdeggt
entente
enterprise
entertainment
entfa
entfe
entferne
entfernig
entfernt
entfu
entgege
entha
enthaalte
enthaaltet
enthalte
enthaltet
enthu
entla
entlang
entlebuch
entloo
entmachtet
entre
entremont
entru
entscha
entschaidig
entschdande
entscheid
entscheide
entscheidend
entscheidende
entscheidet
entscheidig
entscheidige
entscheidung
entschide
entschiide
entschlosse
entschpre
entschpricht
entschpringt
entschtande
entschto
entspra
entspre
entsprechend
entsprecht
entspricht
entspringt
entsproche
entsta
entstanda
entstande
entstanden
entstandene
entstehig
entstehn
entsteht
entstehung
entsto
entstoh
entstoht
entstoo
entstoot
entwa
entwedder
entweder
entwi
entwickelt
entwickle
entwickler
entwicklet
entwicklete
entwicklig
entwicklige
entwicklung
entwicklungen
entwiggle
entwigglet
entwigglig
entworfe
entwu
entwurf
entzoge
entzu
environment
environmental
environs
enz
enzchrais
enzian
enzu
enzwischa
enzyklopa
enzym
eo
eos
ep
epfel
ephesos
ephraim
epidemy
epik
epirus
epische
episod
episode
epoche
epochen
epos
eppa
eppe
eppeberg
eppingen
epple
eptige
equatorialginea
er
era
eragon
eraignis
erasmus
erb
erbaut
erbe
erben
erbfolgchrieg
ercha
erchennbar
erchenne
erchennt
erchla
erd
erda
erdbebe
erde
erden
erdma
erdmo
erdo
erdoberfla
ere
erec
ereffnet
ereignis
ereigniss
ereignisse
erem
eren
erende
erendi
erer
eres
eretz
erfaare
erfaarig
erfaarige
erfahre
erfahrig
erfahrige
erfahrt
erfahrung
erfahrungen
erfasst
erfehrt
erfillt
erfinder
erfindig
erfindige
erfindung
erfolg
erfolge
erfolglos
erfolgriich
erfolgriiche
erfolgriichi
erfolgriichste
erfolgrych
erfolgryche
erfolgrychschte
erfolgryych
erfolgt
erforderlich
erforsche
erforschig
erforscht
erforschung
erfu
erfunde
erfurt
erg
erga
ergebnis
ergebniss
ergebnisse
ergee
ergit
ergo
ergolz
ergriffe
erha
erhaalte
erhalde
erhalt
erhalte
erhalten
erhaltene
erhalteni
erhaltig
erhaltung
erhard
erhebig
erhebige
erheblich
erhebt
erho
erhobe
erholt
erhoobe
eri
eric
erich
erig
erige
erik
erika
erinnere
erinneret
erinnerig
erinnerige
erinnern
erinnert
erinnerung
erinnerungen
eritrea
erjeng
erka
erke
erkennbar
erkenne
erkennt
erkenntnis
erkenntniss
erkla
erklert
erla
erlach
erlange
erlangen
erlangt
erlass
erlaube
erlaubnis
erlaubt
erle
erlebach
erlebnisse
erlebt
erlech
erledigt
erlenbach
erlitte
erlo
erloo
erlu
erma
ermatinge
ermittlet
ermo
ermorde
ermordet
ermordig
erna
ernannt
erne
ernehrig
ernennt
ernest
ernesto
erneueret
erneut
erni
erno
ernst
ero
erobere
eroberer
eroberet
eroberig
erobert
eroberung
eroobere
erooberet
erooberig
erosion
erotische
erra
erraicht
erreger
erregt
erreichbar
erreiche
erreicht
errichdet
errichte
errichtet
errichtig
error
ers
ersatz
ersch
erschaffe
erschd
erschda
erschde
erschdi
erscheint
erschiene
erschienen
erschiine
erschiinig
erschiint
erschine
erschint
erschlosse
erscho
erscht
erschta
erschte
erschten
erschter
erschti
erschtmals
erschtmol
erschtmols
erschts
erschtstimme
erschu
erschyne
erschynt
erschyynd
ersetze
ersetzt
erst
erstausgabe
erste
erstein
erstellt
ersten
erster
erstes
ersti
erstmals
erstmols
erstreckt
ersts
ert
erteilt
ertra
erw
erwa
erwachsene
erwachseni
erwaggsene
erwarte
erwartet
erweiterte
erwiiteret
erwin
erwise
erwitere
erwiteret
erwiterig
erworbe
erwyteret
erza
erzbischof
erzbischtum
erzbistum
erzdio
erzherzog
erziehig
erziehung
erziejig
erzu
es
esa
esch
escha
eschach
eschbach
eschbe
esche
eschebach
eschedaal
eschelbronn
eschenbach
escher
eschinge
escht
eschte
eschti
eschtland
eschtli
eschtlich
eschtlig
eschtlige
eschtrich
eschtrych
eschtrychisch
eschtrychische
eschtrychischi
eschtryych
eschtryychische
ese
esel
esinge
eskaliert
eso
esoo
espace
espan
esperanto
esposizione
ess
essa
essai
essay
essays
esse
essen
esser
esserblatz
esserkiirche
essi
essleng
esslenga
esslenge
esslinge
esslingen
esslinger
esst
esswasserfisch
est
estavayer
este
ester
estet
esther
esti
estland
estnisch
et
eta
etabliere
etabliert
etappe
etappera
etappesiig
etc
ete
eter
eterzu
etet
etezit
eth
ethik
ethiopie
ethiopisch
ethiopische
ethische
ethnie
ethnisch
ethnische
ethnischi
ethnologue
eti
etienne
etig
etige
etliberg
etliche
etr
etrusker
etruskische
etruskischi
etsch
ettenheim
etter
ettikon
ettlinge
ettlingen
ettringe
etu
etudes
etwa
etwas
etymologie
etymologisches
etz
etzel
eu
eubo
euch
euge
eugen
eugene
eugenio
eukaryote
euklid
euklidische
eulenspiegel
euler
euphonium
euphorbia
euphrat
eur
eurasie
eure
euripides
euro
eurome
europa
europaea
europamaischterschaft
europarot
europas
europawahl
europe
european
eurovision
euryanthe
eurypontide
eusebius
ev
eva
evakuiert
evaluer
evangelisch
evangelischa
evangelische
evangelischen
evangelischer
evangelischi
evangelium
evans
evard
eve
eveline
even
event
eventuell
ever
everest
every
everything
evidence
evil
evo
evole
evolution
evolutionary
evp
ew
ewa
ewald
ewe
eweg
ewegg
eweng
ewernahn
ewig
ewige
ewigen
ewigkeit
ex
exakt
exakti
exarchat
excel
exchange
executive
exekutive
exemblaar
exemplar
exhibition
exil
exischta
exischtenz
exischtiert
exischtyre
exischtyrt
exista
existenz
existiere
existiert
exklave
exkommuniziert
expa
expansion
expedition
expedizioon
experima
experiment
experimentelle
explizit
explorer
explosion
expo
export
exportiert
exposition
expre
express
expressionismus
externstai
extra
extreem
extrem
extreme
exzentrische
exzentrizita
eyck
eyes
eyth
ez
eß
f
fa
faane
faarbaan
faardie
faare
faart
faarte
faarwa
faarzu
faase
faber
fabian
fabio
fabrigg
fabrigge
fabrik
fabrikant
fabrike
fabrizio
face
facebook
fach
fachgebiet
fachhochschuel
fachhochschule
fachhoochschuel
fachlu
fachwa
fachwu
fact
factbook
facto
facts
faesch
fagott
fahne
fahr
fahre
fahrer
fahrga
fahrrad
fahrt
fahrzu
faido
fair
faire
fait
faksimile
fakte
fakten
faktisch
faktor
faktore
fakulta
fakulteet
fakultet
fakultete
falconi
falk
falke
falkesta
fall
falle
fallen
falls
fallt
falsch
falsche
falschi
falter
fame
famili
familia
familie
familien
familienaame
familiename
familienname
famille
famillie
family
fan
fang
fange
fangt
fankhauser
fanny
fans
fanschter
fantasie
fantasy
fao
faou
faq
far
faraday
farb
farbe
farben
farbige
farbigi
farbstein
fare
farm
farmer
farn
farnsahseria
farnsburg
fasch
faschd
faschismus
faschiste
faschistische
faschistischi
fascht
fasna
fasnacht
fasnachts
fasnet
faso
fassaade
fassade
fasse
fassig
fassige
fassong
fasst
fassung
fast
faszination
fasziniert
fatah
father
fatimide
fatio
faulquemont
fauna
fauscht
faust
favorite
favre
fayard
faz
fazzini
fbp
fc
fca
fcb
fd
fdigt
fdp
fe
fealdkirch
fear
feat
feature
featuring
febber
februar
fechter
federal
federation
federe
federer
federica
federico
fee
feelt
feger
fehde
fehler
fehlt
fehr
feier
feiert
fein
feind
fekt
fektur
fel
feld
feldberg
felder
feldherr
feldis
feldkirch
feli
felice
felipe
felix
fell
fellbach
feller
fellow
fellt
fels
felse
felswa
felswand
female
fembio
femme
femmes
fen
fenach
fend
fenda
fendet
fenf
fenimore
fenin
fenis
fenomeen
fenschter
fenster
fer
ferderbryys
ferderig
ferdich
ferdinand
fere
ferenc
ferie
fermi
fern
ferna
fernand
fernando
ferne
ferner
fernrohr
fernsa
fernseh
fernseha
fernsehen
fernsehfilm
fernsehserie
ferrara
ferrari
ferreira
ferrera
fers
fertig
fertiggstellt
fescht
feschte
feschtghalte
feschtglait
feschtglegt
feschtgleit
feschtgsetzt
feschtgstellt
feschti
feschtig
feschtige
feschtival
feschtland
feschtspiil
feschtung
fest
feste
fester
festgabe
festgla
festglegt
festgleit
festgnoo
festgstellt
festi
festig
festige
festival
festko
festland
festschrift
festspiele
festspiil
fett
feuer
feuerwerk
feuilleton
feyerabend
ff
ffa
ffe
ffel
ffem
ffende
ffentlecht
ffentlich
ffentliche
ffentlichen
ffentlichi
ffentlichkeit
ffentlicht
ffentlichung
ffentlichungen
ffentlig
ffentliga
ffentlige
ffentligi
ffentligka
ffentligt
ffentligung
ffer
ffet
ffi
ffig
ffige
ffiger
ffike
ffikon
ffle
ffler
ffne
ffnet
ffnig
ffnige
ffnung
fft
fgnu
fh
fi
fia
fichte
fiction
fide
fidel
fideris
fiderisch
fiderscher
fidschi
fidula
fie
fieber
fiedler
fiehrt
field
fields
fier
fiere
fierer
fierig
fiert
fietz
fifa
fifth
fig
figaro
fige
figer
figschte
figste
figu
figur
figura
figure
figuren
figuur
figuure
fihrt
fiir
fiirdig
fiire
fiirigange
fiirscht
fiirschteduum
fiirtig
fiktion
fiktive
fil
filbinger
filderstadt
file
files
filiale
filippo
filisur
fille
film
filmbryys
filmda
filme
filmfeschtival
filmfeschtspiil
filmmacher
filmmusik
filmportal
filmpreis
filmpriis
filmregisseur
films
filology
filoloog
filosof
filosofii
filosofische
filosofischi
filosofy
filosoof
filosoofe
fils
filter
fimf
fimft
fimfte
fin
fina
final
finale
finance
financial
finanz
finanze
finanzen
finanzia
finanziell
finanzielle
finanzielli
finanziere
finanzierig
finanziert
finanzminischter
finck
find
finde
finded
finden
findet
findling
findt
fine
finger
finiste
fink
finke
finn
finnisch
finnische
finnland
finno
fir
fire
firefox
firigange
firma
firme
firmene
firs
firscht
firschte
firschteba
firschtedum
firschtetum
first
fis
fisch
fischarte
fischbach
fische
fischer
fischerbach
fischerei
fischinge
fischma
fishbase
fishes
fitzgerald
fiu
five
fix
fl
fla
flach
flache
flachi
flachland
flachs
flagge
flaisch
flamenco
flamm
flammarion
flamme
flandere
flandern
flanke
flash
flavio
flavius
fle
fleche
flechene
flechi
flechine
fleck
flecke
fleet
fleisch
fleischer
fler
flerland
flerlandes
fli
flia
fliche
flichte
flichtling
flie
fliege
fliegen
fliegende
fliegt
fliesse
fliessend
fliesst
fließe
fließt
flige
fligel
fliger
flight
flims
fliss
flo
flora
florence
florenz
florian
florida
florin
flosse
flotte
flowil
flu
fluch
flucht
flue
fluerna
fluername
fluet
flug
flugblatz
fluggsellschaft
flugha
flughaafe
flughafe
flughafen
flughaffe
flugplatz
flugunfa
flugzu
flums
flur
flurna
flurname
flurnamen
fluss
flussbett
flusslauf
flusspfa
fluxus
fluß
fly
fm
fn
fnaame
fo
focus
fokus
folg
folga
folge
folgen
folgenda
folgende
folgendes
folgendi
folget
folgt
folk
folklore
fom
fondation
fonds
fonogrammarchyv
fontaine
fontainemelon
fontaines
fontana
food
foorschig
foot
football
for
fora
forbach
forbes
force
forces
ford
forderet
forderig
forderige
fordert
fore
foreign
forel
forest
forges
form
forma
formal
formale
formali
format
formation
formatione
formazza
forme
formel
formell
formelzeiche
formen
formle
formosus
formsignaal
formulierig
formuliert
forrer
forsche
forscher
forschig
forschige
forschigsproja
forschigsstell
forscht
forschung
forschungen
forst
forster
fort
forte
fortgsetzt
fortis
fortschreibung
fortschritt
fortsetzig
fortsetzung
forum
fossey
fossil
fossilie
fotene
foti
fotis
foto
fotograf
fotografie
fotografien
fotos
fouesnant
foundation
foundations
four
fourier
fourth
fox
fp
fpo
fr
fra
frac
frag
frage
fragen
fragma
fragment
fragmente
frai
fraidestadt
fraktion
fraktione
fraktionsvorsitzer
frakzion
frakzioon
franc
franca
france
francesca
francesco
franche
francia
francis
francisco
franck
francke
franckh
franco
francoprovenc
francorum
frangfurt
frank
franke
frankeko
franken
frankeriich
frankfurt
frankfurter
franklin
frankoprov
frankoprova
frankoprovenzalisch
frankoprovenzalische
frankprovenzalisch
frankreich
frankreichs
frankrich
frankriich
frankrych
frankryych
fransioli
franz
franzeesch
franzeesche
franzeesisch
franzeesischa
franzeesische
franzesisch
franzesische
franzesischi
franziska
franziskaner
franziskus
franzo
franzoose
franzos
franzose
franzosen
frau
fraua
fraue
frauefa
frauefeld
frauen
frauenfeld
frauenmuseum
frauera
frauestimmra
frauke
fraumo
fraumu
fraunhofer
fraxinus
fre
frech
fred
freddie
freddy
fredegar
frederic
frederick
frederik
fredi
fredy
free
freedom
freeman
frei
freia
freiamt
freiba
freiberg
freiburg
freiburger
freid
freie
freiebach
freiem
freien
freier
freiga
freigloo
freigsetzt
freiha
freiheit
freiherr
freiherre
freii
freije
freiji
freind
freis
freischa
freising
freisinnige
freistaat
freitag
freiwillig
freiwillige
freiwilligi
freizyt
freje
freji
frekwa
fremd
fremda
fremde
fremden
fremdi
fremdwo
french
freque
freshwater
freske
fresko
fresst
freud
freude
freudenberg
freund
freunde
freunden
freundschaft
frey
freyja
freyming
freyr
fri
fria
friaul
fribourg
friburg
friburger
frick
frickdaal
fricktal
frida
friday
fride
fridhof
fridhoof
fridolin
fridrich
fridrichshafe
frie
fried
frieda
friedberg
friede
friedel
friedemann
frieden
friedens
friederike
friedhelm
friedhof
friedli
friedrich
friedrichshafen
friedrichshall
frieher
friehjohr
friehner
frieje
friejer
friejere
friejohr
friend
friends
friener
fries
frigch
friher
friiburg
friiburger
friide
friidensverdraag
friidho
friidhof
friidhoof
friili
frikativ
frisch
fritig
fritz
fritzli
fro
froben
frobenius
frodo
frog
froge
frogeboge
frogebuech
frogt
froh
frohburg
from
fromm
fromme
frommi
front
fronte
frontie
froog
frooge
froogebeege
froogeboge
froogebooge
frosch
froschauer
frost
frou
froubrunne
froue
fru
frucht
fruchtbar
fruchtbare
frutige
fry
frybeg
frybu
fryburg
fryburger
frynd
frytig
fryybeg
fryybeger
fryybu
frz
fs
fschaft
fschte
fschti
ft
fta
fte
fter
fters
ftet
fti
ftig
ftige
ftiget
ftigt
ftigung
ftler
ftsfierer
ftsfiereri
ftsfu
ftshuus
ftsmaa
ftstrom
ftswa
ftwark
fu
fuaß
fuchs
fue
fuess
fuessball
fuessballer
fuessballspiiler
fuessga
fuesswa
fueß
fueßball
fueßballer
fueßballspiiler
fueßballspiler
fufza
fufzeh
fufzig
fuge
fuhrmann
fukushima
fulbe
fulda
full
fuller
fun
fund
fundama
fundamentale
fundamentalismus
funde
fundort
fung
fungiert
fungtion
funk
funke
funktion
funktiona
funktione
funktionen
funktioniert
funkzion
funkzione
funkzioniere
funkzioniert
funkzioon
funkzioone
furer
furgler
furrer
furt
furtgsetzt
furtpflanzig
furtwa
furtwange
fusion
fusioniere
fusioniert
fussball
futur
future
futurismus
fuule
fuuse
fuß
fußball
fußballklub
fyr
fyrtig
fyyr
fyyrtig
fza
fzg
g
ga
gaa
gaade
gaar
gaarde
gaas
gaat
gaats
gab
gabe
gabi
gabler
gabor
gabriel
gabriela
gabriele
gabun
gaby
gad
gaddafi
gaetano
gaga
gaggenau
gah
gaht
gai
gaia
gaignet
gais
gaischtlige
gaist
gaius
gal
gala
galater
gale
galerie
galerii
galge
galila
galilei
galileische
galileo
galizie
gall
galla
galle
gallen
galler
gallery
galli
gallia
gallie
gallier
gallimard
gallisch
gallische
gallischi
gallo
galloromanische
gallus
gama
gambarogno
gambia
game
games
gamma
gams
gan
gandalf
gandhi
gang
ganga
gange
gangen
ganges
ganget
gans
ganser
ganter
gantertschwil
ganymed
ganz
ganza
ganze
ganzen
ganzes
ganzhorn
ganzi
gaon
gar
garantiert
garci
garda
gardasee
garde
garden
gare
garga
garibaldi
garland
garmisch
garn
garnison
garonne
garrett
garte
garten
gary
gas
gasastra
gascht
gaschthof
gaschthuus
gasfo
gasparis
gasquet
gass
gasse
gasser
gast
gaston
gat
gate
gates
gattig
gattige
gattung
gau
gauchat
gauche
gauck
gaudenz
gaudi
gauguin
gaulle
gaume
gauss
gauß
gawiller
gay
gaza
gazette
gb
gbar
gc
gcha
gchaa
gchauft
gcheert
gcheerunt
gcho
gchrent
gchro
gchru
gchu
gd
ge
gea
geb
geba
gebauer
gebe
gebei
geben
gebet
gebhard
gebhardt
gebi
gebia
gebiat
gebie
gebiet
gebiete
gebieten
gebietsko
gebietsreform
gebiit
gebildete
gebirg
gebirge
gebirgsgruppe
gebirgszug
gebo
gebora
gebore
geboren
geborene
geboreni
gebot
gebr
gebracht
gebrauch
gebru
gebruch
gebruuch
gebu
geburt
geburtsdaag
geburtsdag
geburtshuus
geburtsort
geburtsstadt
geburtstag
ged
geda
gedanke
gedankeguet
gedanken
gedenken
gedenksta
gedeon
gedi
gedicht
gedichtband
gedichte
gedichten
gedichter
gediicht
gedra
gedruckt
gee
geega
geege
geegesatz
geegesta
geegestand
geegewart
geeh
geel
geen
geert
gefa
gefahr
gefu
gefunden
geg
gega
gege
gegeben
gegen
gegend
gegende
gegenenander
gegeniber
gegeno
gegenu
gegenwa
gegenwart
gegepapscht
gegesa
gegesatz
gegesitig
gegesta
gegestand
gegewa
gegewart
gegezug
gegner
gegnig
gegru
geh
geha
gehaite
gehalten
geheime
geheimnis
geheimnisse
geheit
geheite
gehen
gehn
geho
gehrt
geht
geid
geids
geier
geiger
geignet
geiler
geischt
geiser
geiserich
geisinge
geislingen
geiss
geist
geister
geistes
geistesgeschichte
geisteswissenschaften
geistige
geistliche
geistlige
geit
geits
geiß
geißler
geje
gel
gela
gelb
gelbe
gelberg
geld
gele
gelehrten
gelesen
gelhorn
geli
geliebte
gelig
gelland
gellert
gelt
gelte
geltet
gem
gema
gemacht
gemeind
gemeinde
gemeindefusionen
gemeinden
gemeindenamen
gemeinderat
gemeinderatswahlen
gemeindestatistik
gemeindetages
gemeine
gemeiner
gemeinnu
gemeinsam
gemeinschaft
gemmingen
gemu
gen
genannt
genannte
genannti
genau
genaue
genauer
genaui
genauso
gend
gende
gender
gendes
gene
genealogie
genera
generaal
general
generalisierte
generalsekreta
generalversammlig
generation
generatione
generazioon
generazioone
genere
generell
generoso
genesis
genetik
genetisch
genetische
genetischi
geneveys
genf
genfer
geng
gengenbach
geni
genie
genitiv
genius
genocide
genom
genre
gensburg
genscher
gent
gentiana
gentlig
genu
genua
genug
genus
genzburg
geo
geobot
geobreizh
geoda
geoffrey
geograaf
geograf
geografii
geografisch
geografische
geografischi
geografy
geograph
geographic
geographie
geographisch
geographische
geographischen
geographischi
geography
geolog
geological
geologie
geologii
geologisch
geologische
geologischi
geology
geometrie
geometrii
geometrisch
geometrische
geometrischi
geometry
georg
george
georgen
georges
georgia
georgie
gepa
geppenga
geppenge
gepru
ger
gera
gerade
gerald
gerard
gerbel
gerber
gerbert
gerbt
gerd
gere
gerechtigkeit
geret
gerfa
gerhard
gerhardt
gerhart
geri
gericht
gerig
gerin
gerlach
germ
germaane
germain
german
germane
germanen
germania
germaniae
germanica
germanicus
germanie
germanisch
germanische
germanischen
germanischi
germanischt
germanischtik
germanistik
germanistische
germann
germany
gern
gernot
gernsbach
gero
gerok
gerold
geroldseck
gerra
gersau
gerste
gerster
gerstner
gert
gertrud
gertsch
gervinus
gerwig
ges
gesa
gesagt
gesammelt
gesammelte
gesamtausgabe
gesamte
gesamtregister
gesamtschule
gesang
gesatz
gescha
geschburg
geschicht
geschichte
geschichten
geschichtliche
geschichtlichen
geschichtsverein
geschichtswissenschaft
geschlecht
geschrieben
gescht
gesehen
gesellschaft
gesellschaften
gesellschaftliche
gesetz
gesetze
gesicht
gesichter
gespra
gesprochen
gessler
gessner
gest
gesta
gestalt
gestalten
gestaltung
gestapo
gestern
gestorben
gesunde
gesundheit
get
getra
getreide
gets
geuenich
gewa
gewald
gewalt
gewart
gewesen
gewidmet
gewinne
gewinnt
gewissen
gewo
geworden
gewu
gex
geyer
gezittechra
gezyt
gfa
gfaare
gfahre
gfale
gfalla
gfalle
gfallen
gfallene
gfanga
gfange
gfangegnoo
gfangene
gfangeschaft
gfasst
gfe
gfeerdet
gfehrdet
gfehrdete
gfeller
gfellt
gferderet
gfia
gfiehrt
gfiert
gfihrt
gfiiret
gfiirt
gflichtet
gfloche
gfloge
gflohe
gflosse
gflu
gfo
gfohr
gfolgt
gfonda
gfoor
gforderet
gfordert
gformt
gforschet
gforscht
gfro
gfrogt
gfu
gfunda
gfunde
gfyret
gfyyrt
gg
gga
ggange
ggangen
ggau
ggd
gge
ggee
ggel
gger
ggf
ggg
ggi
ggle
ggli
ggmeind
ggmeindsflechi
ggmeindspresident
ggor
ggredt
ggru
ggs
ggscht
ggschte
ggsdaagchrieg
ggsel
ggselwirkig
ggsi
ggsische
ggsle
ggslet
ggst
ggste
ggsti
ggt
ggu
ggulte
gha
ghaa
ghaalte
ghaerd
ghaered
ghaisse
ghaiße
ghalda
ghalde
ghalt
ghalte
ghana
ghandlet
ghe
ghebt
gheera
gheerd
gheere
gheeret
gheert
gheft
gheie
gheime
gheisse
gheisst
gheit
gheiße
ghere
ghered
gheret
gherrscht
ghert
ghet
ghett
ghetto
ghiiroota
ghil
ghirota
gho
ghobe
ghockt
ghofft
ghoißa
gholfe
gholt
ghu
ghulfe
ghuus
ghyroote
ghyrote
gi
gia
giacobbo
giacometti
giacomo
gian
gianni
gib
gibiet
gibloux
gibraltar
gibt
gibts
gid
gidicht
gids
gie
gier
gieter
gießen
gift
giftig
gig
gige
giger
gigi
giige
giit
giits
gil
gilardoni
gilbert
gilberte
gildas
gilde
gildet
gilgamesch
gili
gilles
gillespie
gillie
gilt
giltet
gime
gimel
gimnaasium
gimnasium
gina
ginea
ging
gion
gional
gions
giordano
giorgio
giornale
giornico
giovanni
gipfel
gipfeldra
gips
giraffe
girl
girls
giro
giromagny
gis
gisch
gische
gisela
gisin
gislatives
giswil
git
gitarre
gitarrischt
gits
gitt
gitter
gitts
giubiasco
giulio
giuseppe
giz
gjagt
gl
gla
glaageret
glaas
glabt
glacier
gladbach
glaischtet
glait
glaita
glaitet
glandet
glange
glangt
glanz
glaris
glarner
glarnerland
glarus
glas
glaser
glasgow
glashu
glass
glatt
glatte
glau
glaub
glaube
glauben
glaubens
glaubt
gle
glea
gleage
glebt
glech
gleert
gleerte
gleerti
glege
glegen
glegt
glehrt
glehrte
glehrti
glei
gleich
gleicha
gleiche
gleichen
gleichnamig
gleichnamiga
gleichnamige
gleichnamigen
gleine
gleis
gleischtet
gleistet
gleit
gleitet
gler
glernt
glet
gletscher
gli
glich
gliche
glichen
glicherwiis
glicherwys
glichi
glichkeit
glichkeite
glichkeiten
glichnamige
glichscht
glichst
glicht
glichzitig
glichzittig
glick
glideret
gliderig
gliebte
gliebti
gliederung
gliederungen
glifere
gliferet
glig
glige
gligerwiis
gligi
gligka
gligst
glii
gliich
gliicha
gliichbera
gliiche
gliichgsetzt
gliichgstellt
gliichgwicht
gliichha
gliichi
gliichig
gliichige
gliichma
gliichnamige
gliicht
gliichziitig
gliichzitig
gliichzittig
gliideret
gliiferet
glika
glingt
glion
glis
glise
glitte
glo
global
globale
globali
globalisierig
globalisierung
globe
globt
globus
glock
glocke
glockedurm
gloffe
glogge
gloo
gloost
gloria
glossaire
glossar
glosse
gloube
glp
glu
glueget
gluegt
glunga
glunge
glungen
glupft
glutz
gly
glych
glyche
glychi
glychma
glychnamig
glychnamige
glychzitig
glychzytig
glyych
glyyche
glyychzytig
gma
gmaand
gmachd
gmachet
gmacht
gmaendena
gmai
gmaiflechi
gmain
gmaind
gmainda
gmainde
gmaindgebiet
gmaindsflechi
gmaindspresida
gmaindsverband
gmaine
gmainsam
gmainsame
gmainsami
gmainschaft
gmaint
gmairoot
gmairot
gmaiverband
gmaiverwaltigsverband
gmarkig
gmarkong
gmarkung
gmbh
gme
gmei
gmeie
gmein
gmeina
gmeind
gmeinda
gmeindbann
gmeinde
gmeindegebiet
gmeindereform
gmeindflechi
gmeindgebiet
gmeindgra
gmeindpiet
gmeindrat
gmeindrot
gmeindsbann
gmeindsfla
gmeindsflechi
gmeindsgebiet
gmeindspra
gmeindspresida
gmeindwappe
gmeine
gmeiner
gmeinfreji
gmeini
gmeinjohr
gmeinnu
gmeinsam
gmeinsame
gmeinsami
gmeinsamkeite
gmeinschaft
gmeint
gmelin
gmend
gmerkt
gmesse
gmiin
gmiine
gmiinflechi
gmisch
gmischda
gmischt
gmischte
gmischti
gmo
gmoand
gmoanda
gmoanddata
gmoe
gmoed
gmoede
gmoedverwaltongsverband
gmoende
gmoene
gmoeverwaltongsverband
gmoid
gmoind
gmolt
gmond
gmoolt
gmu
gmuand
gmuandsgbiet
gna
gnade
gnamsed
gnamset
gnannt
gnannte
gnau
gnaue
gnauer
gnaui
gnauso
gnd
gne
gneigt
gnennt
gnennte
gner
gnet
gni
gnis
gniss
gno
gnoh
gnomma
gnoo
gnosse
gnosseschaft
gnu
gnuag
gnue
gnueg
gnumma
gnumme
gnutzt
gnutzte
gnuu
go
goal
goalie
god
gods
goes
goethe
goethes
goetz
gog
gogh
goh
goht
gohts
going
goire
goisern
gold
golda
goldach
goldast
goldau
goldberg
golden
goldene
goldenen
goldig
goldige
goldigem
goldigi
goldmann
goldmedallie
goldschmidt
goldschmiid
gole
golf
golfe
goll
golte
goms
gondwana
gong
gonnec
goo
good
goodall
goodman
google
gool
goot
goote
gopferet
gorbatschow
gordnet
gordon
gorilla
gosch
gossau
gosse
got
gote
gotha
gothic
gotik
gotisch
gotische
gotischi
gott
gottes
gottesdienscht
gottesdienst
gotteshuus
gottfried
gottha
gotthait
gotthaite
gotthard
gotthardbaan
gotthardbahn
gotthardmassiv
gottheite
gotthelf
gotthilf
gotthold
gottlieb
gottlob
gouesnou
gouges
gourin
gouv
gouvernement
gouverneur
gov
government
govt
goya
gp
gps
gpsr
gr
gra
graab
graabe
graabsta
graad
graade
graaf
grab
grabbe
grabe
graben
grabhu
grabs
grad
grade
graes
graf
grafe
grafen
grafenau
grafenhausen
graffiti
grafik
grafike
grafiker
grafische
grafschaft
graham
graist
gramatik
gramm
grammaire
grammar
grammatik
grammatike
grammatiken
grammatische
grammatischi
grammy
gran
granada
grand
grande
grandes
grands
grandson
grandval
grandvillars
grange
granges
granit
grant
granz
granzt
graosa
gras
grass
grasset
grat
gratis
grau
graubt
graubu
graue
grauß
graußa
grauße
grave
gravitation
gray
graz
graziano
gre
great
greatest
greber
grechnet
greco
gredet
gredt
greeber
greece
greedet
greeglet
greek
green
greenwood
greeschde
greescht
greeschta
greeschte
greg
gregg
gregiert
greglet
gregor
gregorianisch
gregorianische
gregorius
gregory
greifswald
greiner
greis
greist
grek
gremium
grendet
grenoble
grenz
grenzach
grenze
grenzen
grenzga
grenzt
grenzu
greschonei
greschoney
grescht
greschte
gressoney
gretler
grettet
greub
grey
greyerz
greyerzer
greyerzerland
greßer
greßere
greßeri
greßi
gri
gria
griagt
grichdet
grichisch
grichische
gricht
grichtet
grichtsbarkeit
grichtshof
grie
griech
grieche
griecheland
griechen
griechenland
griechisch
griechische
griechischen
griechischi
griegt
grien
griene
grienen
grieni
gries
griesbach
grieshaber
griff
griffel
griffin
griifesee
grimm
grimme
grimmelshausen
grimmelzofe
grimoald
grin
grind
grinde
grinded
grindelwald
grinder
grindet
grindete
grindig
grindigsmitglid
gring
gringe
gringer
gringere
gringi
grippe
gris
grischun
grisse
gro
grob
grof
grofe
grofschaft
grond
grono
groof
groofe
groofschaft
groos
groose
groosi
grooss
groossa
groossbaasler
groossbritannie
groossdeil
groosse
groosser
groosses
groossi
groossko
groossroot
groossstadt
groosswesir
groote
grooße
gropius
groppe
gros
gross
grossa
grossbritannie
grossdeil
grosse
grossem
grossen
grosser
grosses
grossherzog
grossherzogtum
grossi
grossma
grossmo
grosso
grossstadt
grossteil
grossvater
grote
groth
grotte
groucho
group
groupe
grove
groß
großa
großbritannie
großbritannien
großdail
großdeil
große
großem
großen
großer
großes
großherzog
großherzogdum
großherzoglich
großherzogthums
großherzogtum
großherzogtums
großi
großmacht
großstadt
großvater
gru
grubbe
gruber
grue
gruefe
gruess
gruft
grund
grundbegriffe
grundbsitz
grunder
grundet
grundflechi
grundgsetz
grundherr
grundherrschaft
grundlaag
grundlaage
grundlag
grundlage
grundlagen
grundlegend
grundlegende
grundlegendi
grundlegung
grundmasse
grundra
grundriss
grundsa
grundsatz
grundschuel
grundschuele
grundsta
grundstu
grundwasser
grundzu
gruner
grupp
gruppa
gruppe
gruppen
gruppierige
gruye
gruyter
gryff
gryft
gs
gsa
gsait
gsajt
gsamlet
gsammlet
gsamt
gsamtbevelkerig
gsamte
gsamtflechi
gsamtheit
gsamti
gsamtklassema
gsamtla
gsamtschuel
gsamtwa
gsandte
gsang
gscha
gschaffa
gschaffe
gschaffed
gschaffene
gschaffet
gschafft
gschaft
gschbiilt
gschdorba
gschdorbe
gschenkt
gschetzt
gschi
gschicht
gschichte
gschichten
gschichtleche
gschichtli
gschichtschryber
gschichtsschriiber
gschichtsschriibig
gschichtswa
gschichtswu
gschickt
gschide
gschiggt
gschiicht
gschiiteret
gschiteret
gschitzt
gschla
gschlaa
gschlaage
gschlage
gschlecht
gschli
gschlisse
gschlossa
gschlosse
gschlossene
gschlosseni
gschmack
gschmu
gschna
gschnitte
gschosse
gschpi
gschpillt
gschpilt
gschproche
gschrebe
gschri
gschriba
gschribbe
gschribe
gschrieba
gschriebe
gschriiba
gschriibe
gschste
gscht
gschta
gschtaltet
gschtande
gschte
gschtellt
gschtgschwindigkeit
gschti
gschtimmt
gschtoorwa
gschtorba
gschtorbe
gschtorwa
gschtu
gschtudiart
gschu
gschwa
gschwecht
gschwend
gschwindigka
gschwindigkait
gschwindigkeit
gschwindigkeite
gschwindika
gschwischter
gschwischtrig
gschwu
gschyteret
gse
gsee
gseeglet
gseen
gseet
gsegnet
gseh
gseht
gseit
gsel
gsellschaft
gsellschafte
gsellschaftliche
gsellschaftlig
gsellschaftlige
gsellschaftligi
gselschaft
gsetz
gsetzbuech
gsetzga
gsetzlig
gsetzlige
gsetzt
gsi
gsichere
gsicheret
gsicht
gsidlet
gsie
gsii
gsin
gsk
gslet
gsonga
gsorgt
gspa
gspalte
gsperrt
gspi
gspiilt
gspillt
gspilt
gspra
gspro
gsproche
gspu
gsta
gstai
gstalt
gstalte
gstaltet
gstaltig
gstammt
gstande
gstanden
gstartet
gsteckt
gstei
gstellt
gsterkt
gstiftet
gstige
gstiige
gstimmt
gstirzt
gsto
gstoorbe
gstoorben
gstoosse
gstorbe
gstorben
gstorwa
gstosse
gstoße
gstriche
gstritte
gstu
gstudiart
gstudiert
gsu
gsuech
gsuecht
gsund
gsunde
gsundha
gsundhait
gsundheit
gsunga
gsunge
gsunke
gsy
gsyy
gt
gte
gti
gu
gua
guad
guada
guade
guadeloupe
guardian
guat
guatemala
guayana
gubler
guck
gudrun
gue
guebwiller
gued
guer
guerre
guet
guete
gueteba
guetem
gueti
guetich
guets
guevara
gugga
gugge
guggebu
guggenbu
guggenheim
gugger
guida
guide
guidel
guido
guilers
guillaume
guinea
guinness
guisan
gujan
gulde
guldi
guldine
gulte
gundelfinge
gung
gunne
gunschte
gunter
gunther
guntram
gupta
gurin
guriner
gurion
gurs
gurtwyl
gus
guss
gustaf
gustav
gustave
gut
gutach
gute
guten
gutenberg
guter
gutes
gutte
guttenberg
gutzwiller
guverneer
guy
guyana
guyer
gv
gwa
gwachse
gwaggse
gwalt
gwaltige
gwaltsam
gwaltsame
gwand
gwanderet
gwann
gwarnt
gwartet
gwe
gwea
gweacha
gwechslet
gweckt
gweeld
gweelt
gweert
gwehlt
gwehlte
gwehrt
gweigeret
gweiht
gweit
gwesa
gwi
gwicht
gwidmet
gwinn
gwinne
gwinner
gwinnt
gwirkt
gwisse
gwissi
gwisst
gwitter
gwo
gwohnt
gwonne
gwont
gwoont
gworfe
gwu
gwune
gwunna
gwunne
gy
gymnasie
gymnasium
gyo
gypte
gypten
gypter
gyptisch
gyptische
gyptischen
gyptischi
gysling
h
ha
haa
haaber
haafe
haag
haage
haager
haalbrunn
haalde
haalte
haar
haarmann
haas
hab
habe
habeck
haben
haber
habermas
habilitation
habilitationsschrift
habilitiert
habitat
habsburg
habsburger
habsburgisch
habsburgische
hachberg
had
hades
hadid
hadrian
haemmerli
hafa
hafe
hafen
hafestadt
haffe
hafis
hafner
haft
hagana
hagar
hagen
hagenbach
hagia
hagnau
haguenau
hahn
hai
haich
haid
haidelberch
haider
haifa
haig
haige
haiku
haile
hailiecher
hailig
hailiga
hailige
hailigi
hailigtum
haim
haimet
haimetautor
haimetdichter
haimetforscher
haimetstadt
haimisch
hain
haindling
hainrich
haisst
haiti
haiß
haiße
haißt
hajo
halb
halbband
halbbrueder
halbe
halbem
halber
halbfinal
halbi
halbinsel
halbinsle
halbkanto
halbla
halbleiter
halbs
halde
haldon
hale
half
hall
hallau
hallauer
halle
haller
halloween
hallwilersee
hallwyl
hallyday
halm
hals
halt
halte
halten
haltepu
haltepunkt
halter
halteschtell
haltet
haltig
haltstell
haltung
ham
hamann
hamas
hamburg
hamburger
hamilton
hamlet
hamm
hammer
hammerstein
hammond
hampf
hampshire
han
hanau
hancock
hand
handball
handbook
handbu
handbuch
handbuech
handel
handelet
handeln
handels
handelsblatt
handelt
handke
handle
handlet
handlig
handlige
handlong
handschin
handschrift
handschrifte
handschriften
handwa
handwerk
handwo
handy
hanf
hang
hange
hangt
hani
hann
hanna
hannah
hannelore
hannes
hanni
hannibal
hanno
hannover
hanns
hans
hansen
hanser
hansestadt
hansi
hansjo
hansmartin
hanspeter
hansruedi
hant
hao
hap
happy
har
harald
hard
hardt
hardware
hardy
hare
harfe
harmattan
harmonie
harmony
harold
harpe
harper
harpercollins
harrassowitz
harri
harris
harrison
harry
hart
harte
hartmann
hartmanns
hartmut
hartung
harvard
harvey
harz
has
hase
hasel
haslach
hasle
hasler
hasli
hass
hassan
hasse
hast
hat
hatha
hatje
hatt
hatte
hatten
hattinge
hau
haue
hauefels
hauenstein
hauestei
hauezollersche
hauezollre
haufa
hauff
haufler
haug
hauiptort
haupt
hauptardikel
hauptartikel
hauptbaan
hauptbaanhof
hauptbahnhof
hauptdarsteller
hauptgu
hauptinsle
hauptmann
hauptort
hauptquartier
hauptroll
hauptrolla
hauptrolle
hauptsa
hauptsach
hauptschdadt
hauptschtadt
hauptschuel
hauptsignaal
hauptsitz
hauptspraach
hauptsproch
hauptsprooch
hauptstadt
hauptstrooss
hauptstross
hauptwa
haus
hausa
hause
hausen
hauser
hauses
hausmann
haussig
haut
haute
hauterive
hautes
hauteville
hauts
havanna
have
havel
haven
hawaii
hawking
haydn
hb
hbf
hc
hd
hdbg
hdg
he
head
health
heart
heat
heaven
heavy
heb
hebdo
hebe
hebel
hebelbund
hebels
hebelstiftig
hebi
hebid
hebig
hebr
hebra
hebron
hebt
heche
hecheburg
hecher
hechere
hechi
hecht
heck
hecke
hecker
hed
hedd
heds
hedwig
heeb
heebe
heer
heera
heere
heerschaft
heerspiil
heert
hef
hefe
heft
hefte
heftig
heftige
heftigi
heftli
heg
hegau
hege
hegel
hegemonii
heger
heggschtalemannisch
hegi
hegschdalemanische
hegscht
hegschte
hegschtpunkt
hei
heiberg
heid
heide
heidegger
heidelba
heidelberg
heidelberger
heiden
heidenheim
heidenreich
heidi
heidiga
heig
heige
heigi
heike
heiko
heil
heilbronn
heiler
heilig
heilige
heiligen
heiligenlexikon
heiliger
heiligi
heilmann
heim
heimat
heimatbuch
heimatgeschichte
heimatkunde
heimatland
heimatmuseum
heimatpflege
heimatschutz
heimatverein
heime
heimet
heimetort
heimweh
hein
heine
heinemann
heiner
heinrich
heint
heinz
heinze
heinzeberg
heinzenberg
heiri
heise
heisenberg
heiss
heisse
heisst
heissts
heit
heiter
heitere
heiteres
heitich
heitz
heitzodag
heizmann
heiß
heiße
heißt
heißts
hektaare
hektar
hektare
hel
helbing
helbling
held
helde
helden
helen
helena
helene
helfe
helfer
helfti
helga
helge
helikon
helikopter
helios
helium
hell
helle
hellenismus
hellenistische
heller
helli
helligkait
helligkeit
hellmut
hellmuth
helm
helmholtz
helmut
helmuth
helote
help
helsinki
helt
helvetia
helvetiae
helvetica
helveticat
helvetier
helvetik
helvetisch
helvetische
helvetischi
hemberg
hemingway
hemispha
hen
hend
henderson
hendrher
hendrik
hends
henkel
henman
henn
henne
hennig
henning
henri
henriette
henrik
henry
henschel
hent
henzen
hepunkt
her
hera
herakleios
herakles
herald
heraldik
herausforderung
herausgeber
herausgegeben
herbert
herbscht
herbst
hercules
herder
here
heren
hergstellt
heribert
herisau
heritage
herkunft
herman
hermann
hermes
hermione
herna
herner
herodes
herodot
heron
herr
herra
herre
herren
herrgott
herrin
herrischried
herrmann
herrn
herrschaft
herrschafte
herrschaftsgebiet
herrschaftsra
herrsche
herrschende
herrscher
herrscht
herschaft
herschel
hersteller
herstellig
hert
herta
herte
herter
herti
hertz
herum
herung
herusga
herve
hervorgange
hervorragende
herwegh
herz
herzberg
herze
herzeg
herzegowina
herzen
herzfeld
herzl
herzo
herzog
herzogdum
herzogin
herzogtum
hesch
hesiod
hess
hesse
hessen
hessisch
hessische
hesso
het
hethiter
hethitisch
hethitische
hets
hett
hette
hetti
hetts
hetzcho
heu
heuberg
heubi
heufti
heuss
heut
heute
heutige
heutigen
heutte
hexameter
hexe
hexedal
hey
heydrich
heydt
heyer
heyne
hfg
hg
hgeschichte
hgg
hi
hia
hid
hie
hier
hierarchy
hieroglyphe
hieronymus
hiersemann
hifinge
hig
hige
higgs
high
higher
highlands
highway
higi
higka
higkait
higkeit
higkeite
hii
hiigrichdet
hiigrichtet
hiiser
hiisicht
hiiwiis
hilbert
hildebrand
hildegard
hildesheim
hilf
hilfe
hilfsmittel
hilfsverb
hilfswa
hilft
hill
hillary
hillel
hiller
hills
hilty
himalaya
himel
himmel
himmelfahrt
himmels
himmelsko
himmlische
hin
hind
hinde
hindenburg
hinder
hindere
hindergrund
hinderi
hinderloo
hindernis
hinderrhy
hindi
hindu
hinduismus
hinga
hingeege
hingege
hinne
hinrichs
hinte
hinter
hintere
hintergru
hintergrund
hinteri
hinterland
hinterloo
hinterrhy
hinterzarte
hintschinge
hinweis
hinwil
hip
hiphop
hippo
hippokrates
hirmer
hirn
hirni
hirsau
hirsch
hirschberg
hirt
hirte
hirzel
his
hischtoorisch
hischtoriker
hischtorisch
hischtorische
hispaniola
hist
histoire
historia
historiae
historic
historica
historical
historie
historien
historiker
historique
historisch
historischa
historische
historischen
historischer
historisches
historischi
historischs
historismus
history
hit
hitchcock
hite
hitig
hitige
hitler
hitlers
hitparade
hits
hitt
hitte
hittige
hittisau
hitz
hitzkirch
hiv
hiwiis
hjer
hl
hla
hlacker
hlau
hlbach
hlbezirk
hle
hlen
hlene
hler
hlga
hlhausen
hli
hlich
hlig
hlige
hling
hlingen
hlings
hlkrais
hlmann
hlmeier
hlriicha
hls
hlshaber
hlt
hlte
hlten
hlung
hlungen
hm
hma
hme
hmen
hmer
hmermann
hms
hmt
hmte
hn
hna
hnd
hne
hnen
hnenwerke
hner
hnhof
hni
hnig
hnle
hnlech
hnli
hnlich
hnliche
hnlichi
hnlichs
hnlig
hnlige
hnligi
hnt
hnte
hnung
ho
hobbes
hobbit
hobby
hoch
hocha
hochalemannisch
hochalemannische
hochaltar
hochburg
hochdeitsch
hochdeutsch
hochdeutsche
hochditsch
hochditsche
hochdorf
hochdu
hochdytsch
hochdytsche
hoche
hochebeni
hocher
hochetenge
hochfla
hochi
hochland
hochmittelalter
hochrhein
hochrhy
hochrhybaan
hochschuel
hochschuele
hochschuellehrer
hochschule
hochschulen
hochschulschriften
hochschwarzwald
hochstift
hochtu
hochwa
hochwald
hochwasse
hochwasser
hochzeit
hochzit
hochzyt
hocke
hockt
hod
hodler
hods
hoe
hoedna
hof
hofe
hofer
hoffe
hoffmann
hoffmanns
hoffnig
hoffnung
hofft
hofmann
hofstetten
hogarth
hoger
hoha
hohe
hoheit
hohen
hohenems
hohenheim
hohenstaufen
hohentwiel
hohenzollern
hoher
hohler
hoi
hoidna
hoimet
hoimetstadt
hoißt
hokusai
hola
holba
holbein
hold
holder
holding
hole
holenstein
holger
holiday
holla
holland
hollande
hollywood
holmes
holocaust
holoza
holsta
holstei
holstein
holt
holy
holz
holza
holzblo
holzbrugg
holzer
holzschlag
holzschnitt
homba
homberg
homburg
home
homepage
homer
hommage
homme
hommes
homo
homosexualita
hon
hond
honda
honduras
honegger
hong
hongkong
honig
honneur
honolulu
honore
honorius
hont
hontes
hooch
hoochdiitsch
hoochdu
hooche
hoochi
hoochschu
hoochschuel
hoochschuele
hoochtu
hoochwasser
hoof
hoor
hoorn
hop
hope
hopfen
hopkins
hoptort
hoptstadt
horb
horburg
horde
horge
horgen
horizont
horizontal
horkheimer
hormon
horn
hornba
hornberg
hornig
hornisgrinde
hornung
hornusse
horre
horse
horst
horstmann
horus
hose
hosea
hospital
hoss
hot
hota
hotel
hots
hotz
hotze
hotzenko
hotzenwald
hotzewald
houphoue
houptort
houptsa
houptsprach
houptstadt
housa
house
housen
houston
houve
how
howard
howe
hp
hr
hra
hrdet
hrdung
hre
hred
hrem
hren
hrend
hrende
hrene
hrer
hrg
hrhondert
hri
hrig
hriga
hrige
hrigen
hriger
hrigi
hring
hringe
hringen
hringer
hrle
hrlich
hrliche
hrliches
hrlig
hrligi
hrnsen
hrr
hrsg
hrt
hrte
hrung
hrungen
hrungsschichten
hs
hsg
ht
hte
htm
html
http
https
hu
hua
huang
hubacher
hubble
huber
hubert
hubertus
hubschmied
huby
huckleberry
hudson
hue
hueber
huet
hufe
huffe
hug
hugenotte
hugh
hugo
hui
huit
huldrych
human
humanischt
humanismus
humanist
humanistische
humanita
humbert
humblot
humboldt
hummel
humor
hund
hundert
hunderti
hung
hunger
hungersnot
hunne
hunsru
hunt
hunter
hunziker
hurde
hurrikan
hurriter
hus
hushovd
hut
hutter
hutu
huufe
huuffe
huus
huusa
huuse
huushalt
huusmeier
huut
huygens
hwv
hy
hya
hygiene
hymne
hypatia
hyperion
hypothese
hytte
hyyser
hz
i
ia
iabot
ian
iasie
iata
iau
iauc
iba
ibaasel
ibaasler
ibach
ibau
ibber
iber
iberal
iberall
iberblick
iberchuu
iberdrait
ibergang
ibergange
ibergangsbiet
ibergangsregierig
ibergee
iberhaupt
iberische
iberischi
iberla
iberliferet
iberlinge
ibernahm
ibernimmt
ibernumme
ibernuu
iberschwa
ibersetzer
ibersetzig
ibersetzige
ibersetzt
ibersicht
iberwigend
ibige
ibk
ibm
ibn
ibor
ibr
ibrahim
ibrhaupt
ibrig
ibrige
ibsen
ibu
ibuech
ic
ice
ich
iche
ichne
ichner
ichnet
ichnig
ichnige
ichnis
icht
ics
id
ida
idalia
idalie
idalieenisch
ide
idea
ideal
ideale
idealismus
ideas
idee
ideen
idelba
iden
idend
identida
identifiziere
identifiziert
identisch
identita
identity
ideologie
ideologii
ider
idet
idg
idgeno
idgenosse
idgenosseschaft
idgno
idi
idig
idige
idigt
idigung
idiom
idiotikon
idonu
idref
idu
ie
iebu
ieburg
ieburger
ieburgersee
ier
iere
ieri
iez
if
ifa
ifach
ifache
ifacher
ifachi
ife
ifer
ifig
ifluss
ift
ifu
ig
iga
ige
igedum
igel
igene
igeni
igentlig
igentlige
igeret
igeschaft
igeschafte
igesta
iget
igetli
igetlig
igfu
iggy
igmeindet
ignaz
ignet
ignige
ignigs
ignis
igniss
igor
igrichtet
igsetzt
igstellt
igstrahlte
igt
igu
ih
iha
ihm
ihn
ihne
ihnen
ihr
ihra
ihre
ihrem
ihren
ihrene
ihrer
ihrere
ihres
ihri
ihringe
ihringen
ihrini
ihrn
ihrne
iht
ihu
ihundert
ii
iibaut
iibe
iiber
iiberchuu
iibrocht
iibu
iida
iideilt
iidra
iidraag
iidrag
iidruck
iidrunge
iifa
iiflu
iifluss
iiflussriiche
iiflussriichste
iifu
iiga
iigang
iigange
iigene
iigfalle
iigfu
iigla
iiglaade
iiglade
iiglideret
iigmeindet
iigmischt
iignoo
iigreichti
iigrichdet
iigrichtet
iigriff
iigriffe
iigschlosse
iigschra
iigsetzt
iigsperrt
iigstellt
iigwanderet
iigweiht
iigweit
iiha
iihaimische
iiheimische
iii
iikomme
iila
iim
iimarschiert
iimarschiirt
iin
iine
iir
iire
iirem
iirer
iirere
iires
iiri
iirichdig
iirichdige
iirichtige
iirisch
iirische
iirne
iis
iisa
iisatz
iischra
iise
iisebahn
iisetze
iiszit
iitra
iitrag
iitrage
iiwanderer
iiwanderig
iiwohner
iiwohnergmein
iiwohnergmeind
iiwohnerzahl
iiwoner
iiwoohner
iiwooner
iizfu
iizoge
iizooge
iizugsgebiet
ij
ija
ije
ijeburg
ijer
ijere
iji
ijt
ik
ikea
ikone
ikrk
il
ila
ilanz
ilbaan
ile
ilgebiet
ili
iliamt
ilias
ilifu
ilig
iligdum
ilige
iligi
iljitsch
ill
ille
illegal
iller
illi
illinois
illusion
illustrated
illustrationen
illustrations
illustrator
illustrazioone
illustriert
illustrierte
ils
ilse
ilsfeld
ilt
ilwiis
im
ima
image
images
imagina
imbode
imboden
imbros
imdb
ime
imene
imer
imet
imfeld
imhof
imier
imische
imma
immanuel
imme
immendinge
immendorff
immer
immerhin
immerwa
imol
impact
imperator
imperatoribus
imperial
imperialismus
imperii
imperium
import
importiert
impressionismus
impuls
impulse
imu
in
ina
inaktiv
inc
ind
inda
inde
indem
independence
independent
inder
inderlache
indet
index
india
indian
indiana
indianer
indie
indien
indiens
indigene
indira
indisch
indische
indischen
indischi
individue
individuell
individuelle
individuum
indiwidue
indo
indoeuropa
indogerm
indogermanische
indogermanischi
indonesie
indra
indspresida
indus
induschtri
induschtria
induschtrie
induschtrii
induschtry
industri
industrial
industrialisierig
industrie
industriell
industrielle
industrielli
industrii
industry
ine
ineichen
inen
iner
inere
inerhoof
inerzialsu
ines
inewa
inf
inferiore
infinitiv
inflation
info
infobox
infolg
informa
informatik
informatiker
information
informatione
informationen
informations
informazione
informazioon
informazioone
informel
informiere
informiert
infos
infraschtruktur
infrastruktur
ing
inga
inge
ingeborg
ingenieur
ingenio
ingericht
ingmeindet
ingo
ingolstadt
ingricht
ingrid
inha
inhaber
inhaftiert
inhalt
inhaltsverzaichnis
inhaltsverzeichnis
ini
inig
inige
inigt
inigte
inigung
inisch
initiativ
initiative
initiiert
iniziative
inka
inkl
inklusiv
inklusive
inkwisizioon
inland
inn
inna
inne
inneminischter
innen
innenaasicht
inner
innere
inneren
innerhalb
inneri
inneroode
innerrhode
inners
innerschwiiz
innerschwiizer
innert
innestadt
innovation
innozenz
innsbruck
innsbrugg
innu
inoffizielle
inoffizielli
inquisition
ins
insa
insam
insame
insami
insbesondere
inschaft
inschafte
inschrift
inschrifte
inschtitut
inschtitutione
inschtruma
inschtrume
insee
insekte
insel
inselgruppe
inseln
inselstaat
insgesamt
insgsamt
inside
insla
insle
inspiriert
inst
instagram
installiert
instidut
institut
institute
institution
institutione
institutionellen
instituto
instituts
instituzioon
instituzioone
instruma
instrument
instrumente
instruments
inszeniert
int
inta
inte
integration
integrazioon
integriere
integriert
integrierte
integryrt
integryrte
intel
intellektuelle
intelliga
intelligence
intelligenz
intensiv
intensive
inter
intera
intercity
interdisziplina
interessant
interesse
interessen
interessiert
interlake
interlaken
intern
interna
internat
international
internationale
internationalen
internationaler
internationales
internationali
internationals
internazionaal
internazionaale
internazionaali
internazional
internazionale
internazionali
interne
internet
internetpra
internetpresa
internetquelle
internetseite
internetsite
internetsyte
internetufftritt
internetuftritt
interniert
interpretation
interpretationen
interpretazioon
interpretiert
interregio
intervention
interview
interviews
into
intonation
intra
intressant
intresse
intressiere
intressiert
introduction
inu
inva
invalid
invasion
inventar
invention
inwa
inwohner
inzelne
inzelni
inzig
inzige
inzigi
inzwische
inzwu
io
ioc
ione
ionische
iowa
ip
ipa
iptling
iptort
iptspraach
ir
ira
irak
iran
iranica
iranische
irchel
irdische
ire
ireland
irem
iren
irene
irer
irere
ires
irgend
irgendwo
irgun
iri
irian
iris
irisch
irische
irish
irland
irma
irmgard
irne
iro
iron
ironman
iropa
iry
is
isa
isaac
isaak
isabel
isabella
isabelle
isatz
isbn
isbnistformalfalsch
isch
ischa
ischd
ische
ischeme
ischen
ischer
isches
ischi
ischs
ischt
ischte
ischter
ise
iseela
iseeland
isele
iseli
iselin
iser
isfahan
isidle
isidor
isis
isla
islam
islamic
islamisch
islamische
islamischen
islamischi
islamismus
island
islands
isle
ismael
ismail
isny
iso
isoglosse
isolation
isolde
isoliert
israel
israeli
israelisch
israelische
israelischi
israelite
israelitische
israels
iss
issa
isse
issime
issische
issn
isst
issue
ist
istanbul
istat
iste
istei
isteiner
istens
ister
isterschaft
istet
istig
istige
istituto
istlige
istligi
it
ita
itaalie
ital
italia
italian
italiana
italiani
italiano
italie
italien
italiener
italienisch
italienische
italienischen
italienischi
italienisierigsbolitik
italienisiert
italiens
italy
ite
itelia
iten
iter
itere
itet
iteti
itgro
ithaca
ithome
iti
itig
itige
itli
itlig
itlige
its
itschu
itz
iu
iucn
iuflaag
iulius
iupac
iuris
ius
iv
ivan
ivemaacher
ivo
ivoire
iw
iwan
iwein
iwer
iwf
iwiss
iwohner
iwonru
iwrije
ix
iz
iza
ize
izit
ißt
j
ja
jaar
jaarespricht
jaarhundert
jaberg
jaccoud
jack
jackson
jacob
jacobs
jacqueline
jacques
jae
jaeggi
jaffa
jagd
jagscht
jagst
jagt
jahn
jahr
jahrbu
jahrbuch
jahre
jahren
jahres
jahresbericht
jahresergebnisse
jahresheft
jahrgang
jahrhundert
jahrhunderte
jahrhunderten
jahrhunderts
jahrtausend
jahrza
jake
jakob
jakobiner
jakobus
jali
jam
jamaika
james
jan
jana
jane
janeiro
janet
janine
janitschare
janner
jansen
januar
january
janus
jap
japan
japaner
japanese
japanisch
japanische
japanischi
jardin
jarhundert
jason
jaspers
jauch
jaun
jaur
jauslin
java
javascript
javier
jawlensky
jay
jaya
jazz
jazzmusiker
je
jean
jeanne
jeanpierre
jeda
jedde
jeddi
jede
jedem
jeden
jeder
jedere
jedermann
jedes
jedi
jedoch
jeds
jee
jeede
jeedem
jeedes
jeedi
jeff
jefferson
jeffrey
jeger
jehrig
jehrige
jehuda
jelinek
jemen
jena
jener
jenna
jenner
jennifer
jenny
jens
jenseits
jensits
jer
jeremias
jeremy
jersey
jerusalem
jerusalemer
jesaja
jeschtette
jesse
jessica
jesu
jesuit
jesuite
jesus
jet
jetz
jetzige
jetzt
jeu
jeune
jeweils
jewiilige
jewiils
jewilige
jewils
jewish
jewitt
jews
jewylige
jewyls
jg
jh
ji
jia
jiddisch
jidisch
jidische
jidischi
jim
jimmy
jin
jinger
jingere
jingscht
jingschte
jinismus
jitzchak
jo
joa
joachim
joan
joanne
job
jobs
joch
jochen
jodlerfa
joe
joel
joggeli
joh
joha
johan
johann
johanna
johannes
johanniter
john
johnny
johns
johnson
johnston
johr
johra
johrdo
johrduusig
johre
johrelang
johreszahle
johreszyte
johrgang
johrhondert
johrhu
johrhundat
johrhundert
johrhunderte
johrza
johrzehnt
johrzehnte
jolie
jom
jon
jona
jonas
jonathan
jones
jong
jonga
jonge
jonschwil
joo
joohr
joohra
joohrhundert
joor
joorduusig
joore
joorhu
joorhundert
joorhunderte
joorza
jorat
jordan
jordanie
jorge
jorhundert
jos
jose
josef
joseph
josephine
josephus
joshua
josias
jost
josua
joule
jour
journal
journalischt
journalischti
journalismus
journalist
journey
jours
joux
joy
joyce
jr
jt
ju
juan
jubila
jud
juda
judaica
judas
jude
judedum
juden
judenfrage
judentum
judentums
judetum
judikative
judith
judo
judy
juged
jugend
jugendliche
jugendlichi
jugendlige
jugendligi
jugendstil
jugoslawie
jules
juli
julia
julian
juliane
julianisch
julianische
julie
julien
juliette
julius
july
jun
june
jung
junga
junge
jungen
junger
jungfrau
jungi
jungle
jungs
juni
junior
juniore
junius
junker
juno
jupiter
jupitermo
jupitermond
jura
jurafuess
juraho
jurassic
jurassienne
jurasu
jure
juri
jurischt
jurist
juristisch
juristische
juristischi
jury
juschtiz
juschtizminischter
juso
jusos
jusqu
just
justice
justin
justinian
justinus
justiz
justus
jutta
juud
juude
juudedum
k
ka
kaa
kaal
kabarett
kabarettischt
kabbala
kabbl
kabel
kabinett
kabut
kabutt
kachelmann
kader
kadolisch
kadolische
kadolischi
kadoolische
kaffee
kaffi
kafi
kafka
kageneck
kahl
kahn
kai
kain
kainere
kaini
kairo
kaiser
kaiseraugst
kaiserdum
kaiserin
kaiserliche
kaiserlige
kaiserligi
kaiserreich
kaiserriich
kaisers
kaiserslautern
kaiserstia
kaiserstu
kaiserstuehl
kaiserstuel
kaiserstuhl
kaiserzeit
kala
kalabrie
kalash
kalbermatter
kale
kalender
kaliber
kalif
kalifat
kalifornie
kalifornien
kalkutta
kalliope
kallisto
kalt
kalte
kalten
kam
kambodscha
kambrium
kamel
kamen
kamera
kamerun
kamil
kaminski
kamm
kammer
kammere
kampagne
kampanie
kampf
kamtschatka
kan
kana
kanaal
kanaan
kanada
kanadische
kanadischi
kanal
kandel
kandidat
kandidate
kandidati
kandidatur
kandidiere
kandidiert
kandinsky
kann
kanon
kanone
kanonische
kansas
kant
kantate
kante
kanti
kanto
kanton
kantonalbank
kantonale
kantonali
kantone
kantons
kantonsgra
kantonshu
kantonsraatswaale
kantonsregierig
kantonsschuel
kantonsschule
kantonsverfassig
kantoo
kantoon
kantor
kantuu
kanzle
kanzlei
kanzler
kap
kapa
kapazita
kape
kapell
kapelle
kapellen
kapita
kapital
kapitalismus
kapitel
kapitol
kapitulation
kapituliert
kaplan
kappel
kappeler
kappler
kapstadt
kara
karakter
karakteristisch
karate
karbon
karde
kardina
kardinal
karel
karen
kari
karibik
karibische
karikature
karin
karkamis
karl
karle
karlheinz
karlmann
karls
karlsrue
karlsrueh
karlsruhe
karlsruher
karma
karneval
karoline
karolinger
karolingische
karpate
karrenbauer
karriere
karsten
kart
karta
kartause
karte
karten
karthago
karton
kartusche
kasa
kasachstan
kaschtell
kaschtilie
kaserne
kasimir
kaspar
kasper
kaspische
kasse
kassel
kastell
kastilie
kasus
kat
katakombe
katalanisch
katalanische
katalog
katalonie
katar
kataschtrophe
katastralgmai
katastralgmeind
katastrophe
katechismus
kategori
kategorie
kategorii
kategory
kath
katharina
kathedrale
katherine
katholik
katholike
katholisch
katholische
katholischen
katholischer
katholischi
katholizismus
kathrin
katja
katniss
katolisch
katolische
katrin
katz
katze
kauf
kaufbeire
kauffmann
kaufhuus
kauflu
kaufma
kaufmaa
kaufman
kaufmann
kauft
kaukasus
kaum
kay
kaysersberg
kb
kc
kch
kde
ke
keck
keel
keenich
keenig
kehl
kehrt
kei
keie
keil
keim
kein
keine
keinen
keiner
keinere
keini
keis
keiser
keit
keith
kel
keller
kelly
kelte
kelten
kelterborn
keltisch
keltische
keltischen
keltischi
kelvin
kemal
kemmerich
kempf
kempte
kempten
ken
kend
kender
kendr
kenia
kenig
kenna
kenne
kennedy
kennegleert
kenneglehrt
kennen
kennet
kenneth
kenni
kennt
kenntnis
kenntniss
kennza
kennzahlen
kennzeiche
kennzeichen
kennzeichne
kennzeichnet
kent
kentucky
kenya
kenzingen
kepler
ker
keramik
kerber
kerle
kerman
kern
kerne
kernel
kerner
kernstadt
kerr
kerstin
kes
kesse
kessel
kessler
kette
kevin
key
keyboard
keynes
keyser
kfz
kg
kgaa
kha
khan
kho
khoo
khu
khuur
ki
kibbuz
kicker
kid
kids
kiefer
kiel
kiepenheuer
kiesinger
kiew
kiirche
kilche
kilian
kilikie
kilimandscharo
kill
killer
kilo
kilogramm
kilomeeter
kilomete
kilometer
kim
kimche
kind
kinder
kindern
kindes
kindheit
kindle
kindler
kinetischi
king
kingdom
kings
kingston
kinne
kino
kinofilm
kinos
kinschtler
kinshasa
kinzig
kinzigdal
kinzigtal
kiosk
kippenberger
kippur
kirch
kircha
kirchamusik
kirchberg
kirchderfer
kirchdorf
kirche
kirchen
kirchengeschichte
kirchenlexikon
kirchenmusik
kircher
kirchgemeinde
kirchgraber
kirchheim
kirchliche
kirchner
kirchzarte
kirich
kirsch
kirsten
kischta
kischte
kiskun
kiss
kita
kitsch
kj
kk
kl
kla
klaar
klage
klagenfurt
klaina
klang
klappe
klar
klara
klare
klari
klarinette
klartext
klasing
klass
klasse
klassifikation
klassifiziert
klassik
klassiker
klassisch
klassische
klassischen
klassischer
klassischi
klassizismus
klassizistische
klaus
klause
klauser
klausmann
klavier
klavierkonzert
klaviir
klavyr
kle
klee
klei
kleiber
kleider
klein
kleine
kleinen
kleiner
kleinere
kleines
kleinstaaten
kleist
klemm
kleopatra
kleriker
klerus
klett
klettgau
kleyna
klierf
klima
klimakumfera
klimatische
klimawandel
klimazone
klimt
klinge
klingedaal
klingnau
klingt
klinik
klitoris
klo
kloina
kloine
klooster
klopstock
kloschte
kloschter
kloster
klostermann
klosters
klotz
klu
klub
kluftinger
kluge
klus
km
kmu
knapp
knappe
knaur
knaurs
knecht
knesset
knie
kno
knopf
knote
know
knowledge
knowles
known
knu
knut
ko
koalition
koalitionschrieg
kobald
kobla
koblenz
koch
kocha
kochba
koche
kochen
kocher
kochersberg
kocht
kodex
koechlin
koehler
koene
koenen
koenere
kohl
kohle
kohler
kohlhammer
koi
koin
koine
kolb
kolbe
kolle
kolleg
kollege
kollegium
kollektiv
koller
kollision
kolloquium
kolmar
kolmer
kologie
kologisch
kologische
koloni
koloniale
kolonialherrschaft
kolonialismus
kolonialmacht
kolonialverwaltig
kolonialzyt
kolonie
kolonien
kolonii
kolony
kolumban
kolumbianische
kolumbie
kolumbus
kolumne
kolumnen
koma
kombination
kombinatione
kombinazioon
kombiniert
komboniirt
kombonischda
kombonischt
komet
komete
komfera
komflikt
komi
komiker
komitat
komitatssitz
komitee
komm
komma
kommandant
kommando
kommd
komme
kommen
kommentar
kommentare
kommentiert
kommentierte
kommerziell
kommerzielle
kommet
kommissar
kommission
kommissionen
kommt
kommu
kommunalbolitiker
kommunale
kommunallanddag
kommunalverband
kommunalwahl
kommunalwahle
kommune
kommunikation
kommunikazioon
kommunismus
kommuniste
kommunistische
kommunistischi
komnenos
komo
komore
kompakt
kompass
kompendium
kompeta
kompiuter
kompla
komple
komplett
komplette
komplex
komplexe
komplexi
kompliziert
kompona
komponente
komponenten
komponiere
komponiert
komponischt
komponischte
komponist
komponiste
komponisten
komposition
kompositione
komposizioon
komposizioone
kompromiss
kon
kondom
konfera
konferenz
konfession
konfessione
konfessionell
konfessionelle
konflikt
konfo
konfuzius
kong
kongo
kongra
kongrass
kongrasswa
kongress
konj
konjugation
konjunktiv
konklave
konkret
konkrete
konkreti
konkurra
konkurrenz
konkurs
konn
konnte
konom
konomie
konomii
konomische
konomischi
konon
konrad
konschdanz
konschtanz
konschtanzer
konschtruktion
konsequa
konservativ
konservative
konservativi
konservatorium
konserwative
konsonant
konsonante
konstans
konstant
konstante
konstantin
konstantinopel
konstanz
konstanzer
konstruiert
konstruktion
konstrukzioon
konsul
konsum
konta
kontakt
kontext
kontina
kontinent
kontinentale
kontinga
kontinuita
kontra
kontrabass
kontrast
kontroll
kontrolle
kontrolliere
kontrolliert
kontroverse
konva
konvent
konvention
konversations
konza
konze
konzentration
konzentrationslager
konzentriere
konzentriert
konzept
konzepte
konzeption
konzern
konzert
konzession
konzil
konzipiert
koo
kooperation
koordinate
koordinaten
koordiniert
kopehaage
kopenhagen
kopernikus
kopf
kopie
kopiert
kopii
kopilot
kopp
koptisch
koptische
koralleriff
koran
korb
korea
koreanisch
koreanische
korinth
korn
kornhuus
kornweschte
korpus
korra
korrekt
korrektur
korresponda
korruption
korsika
korsisch
kos
kosch
koschte
koschtet
kosmos
kosovo
kostet
kostu
kotte
kottelat
kova
kovac
kpd
kpdsu
kr
kra
kracht
kraft
kraftwa
kraftwerk
krahe
kraichgau
kraichtal
krais
kraisdag
krakau
kramer
kramp
krank
kranke
krankheit
kranz
krater
kraus
krause
krauss
kraut
krayer
krebs
kredit
kreete
krefeld
kreis
kreise
kreisen
kreises
kreisler
kreisstadt
kreole
kresphontes
kreta
kretschmann
kreutzer
kreuz
kreuzlingen
kriag
kriagt
krieg
kriege
krieger
krieges
kriegt
kriej
krim
krimgote
krimi
kriminalroman
krischna
krise
krishna
kristol
kriterie
kriterium
kritik
kritiker
kritisch
kritische
kritischen
kritischer
kritisches
kritischi
kritisiert
kriwanek
kro
kroate
kroatie
kroatisch
kroatische
kroazie
kroeber
kroell
kroes
krois
krokodil
kromer
krone
kronos
kropotkin
kru
krug
krumbach
krumm
krupp
krypta
ks
ksc
ksi
kt
ktautor
ktdichter
ktdichteri
kte
kter
kteri
ktforscher
ktgruppe
kti
ktion
ktliteratur
ktmandat
ktolog
ktology
ktoloog
ktor
ktorium
ktu
ktur
ktwettbewa
ku
kuba
kubanische
kubikmeter
kubin
kubismus
kublai
kubrick
kuen
kueny
kuh
kuhn
kularisation
kulinarische
kulisse
kulm
kulmbach
kult
kultur
kultura
kulture
kulturell
kulturelle
kulturellen
kulturelli
kulturen
kulturgeschichte
kulturgschicht
kulturgu
kulturguet
kulturkampf
kulturlandschaft
kulturpreis
kulturzentrum
kultus
kultuur
kultuure
kum
kumenische
kumfera
kumma
kumme
kummer
kummet
kummt
kumpenischt
kumuniezh
kunde
kundert
kunigunde
kunnt
kuno
kunscht
kunschtgschicht
kunst
kunstdenkma
kunstfu
kunstgeschichte
kunstgschicht
kunstgwa
kunsthalle
kunsthistoriker
kunsthuus
kunstmooler
kunstmuseum
kunstsammlung
kunststoff
kunstverein
kunstverlag
kunstwa
kunz
kunza
kunze
kupfer
kuppene
kupple
kur
kuratorium
kurfirscht
kurfu
kurie
kurier
kurort
kurpfalz
kurrus
kurs
kursiv
kurt
kurve
kurz
kurza
kurze
kurzer
kurzfilm
kurzi
kuum
kuur
kuwait
kv
kw
kwa
kwadratkilometer
kwalida
kwantefu
kwantemechanik
kwardier
kwark
kwartier
kwelle
ky
kyburg
kyburger
kyi
kyo
kyoto
kyros
kz
kzioon
l
la
laa
laaber
laadig
laadige
laag
laage
laager
laarfe
laat
laawa
laax
lab
label
labor
laboratorium
laboratory
labour
labt
labyrinth
lac
lach
lache
lachen
lachs
lacs
lacus
lada
lade
ladefoged
laden
ladin
ladinisch
ladino
lady
laemmle
lag
lage
lager
lago
lagos
lagune
lah
laharpe
lahn
lahr
lahrer
lai
laichzitt
laie
lait
laiter
laiteri
laitet
laitig
lajos
lake
lakonie
lama
lambda
lambert
lamm
lampe
lan
lana
lancaster
lance
land
landa
landamma
landau
landbevo
landcharte
landchrais
landchreis
landdaag
landdaagswaal
landdag
landdagsfraktion
landdagswahl
landdagswahla
landdagswahle
lande
landeck
lander
landerneau
landeron
landes
landesamt
landesamtes
landesanstalt
landesarchiv
landesarchivdirektion
landesbibliothek
landeschile
landesdail
landesdeil
landesgeschichte
landesgra
landeshauptstadt
landesherr
landesherre
landesherrschaft
landesinnere
landeskommissa
landeskunde
landeslischt
landeslischte
landesmuseum
landesregierig
landesregierung
landesring
landestheater
landesuusschuss
landesverband
landesvermessungsamt
landesversammlig
landesvorsitzende
landesvorsitzer
landesvorstand
landeszentrale
landet
landflechi
landfride
landfriide
landgraes
landgraf
landgrafschaft
landgricht
landgro
landguet
landhuus
landi
landig
landivisiau
landkra
landkrais
landkreis
landkreises
landkroes
landkrois
landmasse
landolt
landquart
landratsamt
landroot
landrot
landrut
landsberg
landschaft
landschafte
landschaften
landschaftsbild
landschtro
landsitz
landsta
landstrich
landtag
landtags
landtagswahl
landvo
landvogt
landvogtei
landwasser
landwertschaft
landwirbeldier
landwirt
landwirtschaft
landwirtschaftlechi
landwirtschaftlich
landwirtschaftliche
landwirtschaftlicher
landwirtschaftlichi
landwirtschaftlig
landwirtschaftlige
landwirtschaftligi
landwirtschaftsfla
landwirtschaftsfleche
landwirtschaftsflechi
landwu
lane
lanester
lang
langa
lange
langebrugg
langem
langen
langenao
langenau
langendorf
langenthal
langer
langes
langesee
langete
langfrischtig
langhuus
langi
langja
langjo
langnau
langnou
langobarde
langs
langsam
langsame
langsamer
language
languages
langue
languedoc
langues
langwirtschaftlecher
langwirtschaftlichi
lanka
lann
lanvern
laos
lar
lara
large
largue
larmor
larry
lars
larve
las
laschet
laschtwa
laschtwage
laskaris
lasker
lass
lassa
lasse
lassen
last
lat
late
lateinisch
lateinische
lateinischen
later
latiin
latiinamerika
latiinisch
latiinische
latiinischi
latin
latina
latinisch
latinische
latinischi
latinisiert
latium
latn
latyn
latynisch
latynische
lau
laub
laube
lauber
lauchringe
lauda
laudatio
lauf
laufbahn
laufe
laufeburg
laufen
laufenburg
laufende
lauffe
lauffeburg
lauffen
lauffohr
lauft
launch
laura
lauren
laurence
laurent
laurentius
lausanne
lause
laut
laute
lauter
lautlehre
lava
lavater
lavaux
lavizzara
law
lawa
lawine
lawrence
laws
laz
lb
lba
lbe
lber
lbomm
lbscht
lbschta
lbschtsta
lbsta
lbstbordret
lbststa
lbum
lccn
lch
lche
lcher
lcherig
ld
lda
ldama
ldba
ldchrieg
lde
lden
lder
lderlin
ldet
ldi
ldig
ldli
ldner
ldu
ldung
ldzu
ldzug
ldzuug
le
lea
leaba
leabt
league
learning
leba
lebe
leben
lebenden
lebendige
lebens
lebensbild
lebensbilder
lebensgeschichte
lebenslauf
lebenswerk
lebeslauf
lebet
lebt
lec
lecchese
lech
lechqua
lechtaler
lections
lectures
led
leda
ledig
lediglich
ledschda
ledschde
lee
leeb
leeche
leen
leer
leeramt
leerbuech
leere
leerer
leerstuel
lefebvre
left
lega
legacy
legal
legat
lege
legend
legenda
legende
legenden
legge
legion
legiona
legionslager
legioon
legislative
legislaturperiod
legislaturperiode
legitimation
lego
legt
legyrig
lehe
lehmann
lehner
lehnt
lehnwo
lehr
lehra
lehramt
lehrbuch
lehrbuech
lehre
lehren
lehrer
lehreri
lehrerin
lehrerseminar
lehrmaterialie
lehrmittel
lehrstuel
lehrt
lei
leib
leibniz
leicht
leid
leiden
leidenschaft
leider
leidong
leik
leimbach
lein
leinfelden
leipzig
leipziger
leis
leischte
leischtig
leischtige
leischtung
leischtungsfa
leiser
leiste
leit
leite
leiter
leitere
leitet
leitfaden
leitig
leitung
lek
lektor
lektu
lem
lema
lemba
lembach
lemberg
lemke
lemma
lemmy
lemnos
lemo
lemy
len
lena
lenchon
lende
lender
lendering
lene
lenger
lengere
lengeri
lengi
lengnau
lengscht
lengschte
lenin
leninismus
lenis
lennon
lens
lenz
lenzburg
lenzkirch
leo
leobw
leodegar
leon
leonard
leonardo
leonberg
leone
leonhard
leonhardt
leonhart
leonore
leonz
leopold
leopoldina
leopolstraße
ler
lera
lerch
lern
lerne
lernen
lernt
leroy
lerrach
les
lese
lesebuch
lesen
leser
leske
leslie
lesneven
lesotho
lessing
lest
lestat
let
letschde
letscht
letschta
letschte
letschter
letschtere
letschteri
letschti
letschts
letter
letters
lettland
lettner
lettres
letzi
letzt
letzte
letzten
letzter
letzti
leu
leuenberger
leuk
leukippos
leur
leut
leute
leuthard
levante
level
leventina
levi
leviathan
levy
lew
lewis
lex
lexicon
lexikograaf
lexikographie
lexikon
lexma
ley
leyen
leyman
lez
lf
lfe
lfer
lfi
lft
lfte
lfti
lg
lga
lhausen
lhu
lhuus
lhuuse
li
lia
liachtaschta
liachtaschtaa
liachtaschtaanische
liachtasta
liachtastaa
liad
liader
liadr
lianischa
liard
liba
libanon
libe
liber
libera
liberal
liberale
liberalen
liberali
liberalismus
liberia
liberta
liberte
liberty
libido
library
libre
libreddo
libretto
libri
libro
libye
lich
licht
lichte
lichtenau
lichtenberg
lichtenhahn
lichtenstein
lichter
lichtruumbrofyl
lichtsignaal
lichtzeiche
lid
liddratuur
liddratuuraagoobe
lie
lieb
liebe
lieben
lieber
liebes
liebhaber
liebi
liebig
liebrich
liebt
liecht
liechtenstein
liechtensteiner
liechter
liechteschtei
liechtesta
liechtestaa
liechtestai
liechtestei
liechtgschwindigka
lied
lieder
liederbu
liederbuch
liederbuech
liederhandschrift
liedermacher
liedli
liege
liegt
lienert
lienhard
lienz
lieschtel
lieschtler
liest
liestal
liestel
lieu
lieux
life
lifere
liferet
liferig
lift
lig
liga
ligatur
lige
liged
ligen
ligende
ligendi
liget
ligge
ligged
liggt
light
ligi
ligt
ligurie
liib
liibli
liiche
liicht
liichter
liid
liide
liiert
liiferet
liige
liigeschaft
liinwand
liist
liit
lijt
like
likt
likud
lil
lilian
lilie
lilium
lille
lily
lima
limburg
limes
limet
limited
limmat
limmet
lin
lina
lincoln
linda
lindau
linde
linden
lindenberg
linder
lindgren
lindner
lindou
lindre
line
linear
lineare
lineari
lines
ling
linga
linge
linger
lingg
lingge
linggi
linggs
lingua
linguischtik
linguistic
linguistica
linguistics
linguistik
linguistique
linguistiques
linguistische
linia
linie
link
linke
linken
linki
links
linkspartei
linktext
linn
linnaeus
linne
linnie
linse
linsmayer
linth
linus
linux
linz
linzgau
lion
lionel
lippe
lis
lisa
lisch
lischde
lische
lischen
lischt
lischta
lischte
lise
liselotte
lissabon
list
liste
liszt
lit
litaue
litauisch
liter
literadur
literarisch
literarische
literarischen
literarischer
literarisches
literarischi
literary
literatu
literatur
literaturaagabe
literaturaagaben
literaturarchiv
literaturbryys
literature
literaturen
literaturgeschichte
literaturgschicht
literaturhuus
literaturpryys
literaturwissenschaft
literaturwu
literaturzeitung
literatuur
litografia
litradur
litratur
litratuur
litt
litte
little
litu
liturgie
liturgische
liu
live
liver
liverpool
lives
living
livius
livre
lix
liza
lizenz
lizenzausgabe
lk
lker
lkerbund
lkerig
lkerigsdichti
lkermord
lkerra
lkerrecht
lkerung
lkerungsentwicklung
lkerungsstandes
lkerungsstatistiken
lkerwanderig
lkrig
lkw
ll
lla
lle
llebach
lled
llem
llemols
llen
llene
llentalbahn
ller
llera
llere
llerland
lles
llewa
llewell
llfluss
llg
llheim
lli
llig
llige
lliger
lligi
llimols
llki
llma
llne
llner
lloyd
llpla
lls
llscha
llschpi
llt
llte
llung
lm
lma
lmaischterscha
lmu
ln
lner
lo
lob
loc
local
locales
locarno
loch
locher
lochrist
locke
locle
locmaria
loco
lodrino
log
logements
loggi
logic
logik
logisch
logische
logo
logos
loh
lohmar
lohn
lohr
lohrer
loi
loir
loire
lok
loka
lokaale
lokal
lokale
lokaler
lokali
lokfu
loki
lokomotive
lokomotyv
lokomotyve
loks
lola
lombardei
lombardisch
lombardische
lon
london
londoner
lonely
long
lonza
loo
look
loon
loos
loosa
loose
loosli
loot
lorca
lorch
lord
lordi
lore
lorentz
lorenz
lorenzo
lorient
lorrain
lorraine
lorscher
los
losann
lose
losst
lost
lot
lothar
lothr
lothri
lothringe
lothringen
lothringisch
lothringische
loti
lotse
lotta
lotte
lotti
lou
louf
louft
louis
louise
louisiana
loupe
louvre
love
loveparade
lovis
low
loy
loza
lp
lpb
lplerfescht
lps
lr
lrot
ls
lsa
lsap
lsass
lsch
lschberg
lsche
lschschwiiz
lschschwiizer
lsd
lse
lsg
lshaaber
lso
lstdv
lt
lta
ltbank
ltbild
ltchrie
ltchrieg
ltco
ltcup
ltd
lte
lten
ltene
ltener
lteni
lter
lterb
lterbliste
lterchinde
lterchinder
ltere
lteren
lteri
lteschte
lteschti
lteste
ltesten
ltet
ltgria
lti
ltig
ltige
ltigi
ltigkeit
ltigung
ltischte
ltiste
ltisti
ltki
ltkrieg
ltkulturerb
ltlich
ltlige
ltligi
ltma
ltmaischter
ltmaischterschaft
ltmeischterschaft
ltmeisterschaft
ltnis
ltnisma
ltniss
ltnisse
ltra
ltschta
ltschutz
ltu
ltung
ltwiit
ltwirtschaftsforum
ltwit
ltwuche
ltwyt
ltwyte
lu
luard
lubw
luc
luca
lucas
lucens
luchterhand
lucia
lucian
lucie
lucien
lucius
lucke
lucy
ludger
ludisburg
ludwig
ludwigs
ludwigsburg
ludwigshafe
ludwigshafen
ludwigshaffe
lue
lueg
luege
lueget
lueginsland
luegt
luft
luftaagriff
luftfahrt
lufthansa
luftlinie
luftwaffe
luganersee
lugano
lugge
lui
luigi
luis
luise
lukas
luke
lukian
lully
lumengo
luna
lune
lunge
lupfe
lupfig
lust
lustenau
lustig
lustige
lustspiel
lut
lutet
luther
lutherische
lutter
lutterbach
lutverschiebig
lutz
luussa
luut
luute
luutere
luutet
luutwert
luwier
luwisch
luwische
luwischi
lux
luxeburg
luxeburger
luxeburgisch
luxeburgische
luxeburi
luxembourg
luxemburg
luza
luze
luzern
luzerner
lverba
lversa
lwa
lwer
ly
lyce
lycht
lychte
lychter
lyd
lydia
lynn
lyon
lyrik
lyriker
lyrische
lys
lyse
lyss
lyt
lyyb
lz
lze
lzel
lzer
lzerwald
lzisch
lzische
lzli
lɛ
m
ma
maa
maag
maage
maal
maas
maass
maassga
maassnaame
maaß
mac
macdonald
macedonia
mach
macha
machd
mache
mached
machen
machet
machiavelli
machine
macht
machtberiich
machthaber
machtkampf
machtu
machu
mack
macke
macmillan
macron
mactutor
mad
madagascar
madagaskar
madame
madang
made
madeleine
madison
madonna
madrid
madrigal
mae
mafia
mag
magail
magazin
magazine
magdalena
magdeburg
mage
magellan
magganaa
maggi
maggia
maggiore
maghreb
magic
magie
magische
magister
magna
magnetfa
magnetfeld
magnetische
magnetischi
magnus
magritte
magyar
magyare
mahabharata
mahatma
mahdi
mahler
mahmud
mahndag
mahnt
mai
maidla
maidli
maie
maier
mail
maila
mailand
main
maine
mainig
mainstream
maint
mainz
mainzer
maire
maires
mairie
mais
maischde
maischt
maischta
maischte
maischter
maischterscha
maison
maist
maiste
maistens
maitli
maizie
maja
major
majorzwahl
majuskel
makanaa
make
makedonie
makedonier
makedonische
making
mal
mala
malans
malaria
malawi
malawisee
malaysia
malcantone
malcolm
male
maler
malerei
malewitsch
mali
malik
malo
maloja
malsch
malta
malte
malvaglia
mammal
mammals
mammut
man
management
manager
mancha
manche
manchester
manchmal
manchmo
manchmol
mandaat
mandach
mandarin
mandat
mandatsnoofolger
mandela
mandli
mandragora
mane
manesse
manet
manfred
manga
mange
mangel
mangi
mangmool
mangold
mangup
manhattan
mani
manifest
mann
manna
manne
mannem
manner
mannes
mannheim
mannschaft
mannschafte
mano
manoir
mans
mant
mantel
mantswa
mantua
manu
manual
manuel
manuela
manus
manuskript
many
manz
mao
maori
map
mappus
maps
mar
maranta
marathon
marazzi
marbach
marburg
marburger
marc
marcel
marcellinus
marcello
marcellus
march
marche
marcia
marckolsheim
marco
marcus
marcuse
mare
margaret
margarete
margaretha
margarethe
margherita
margot
margret
margrit
marguerite
mari
maria
mariane
marianne
marie
mariella
marietta
marignano
marilyn
marin
marina
marine
marino
mario
marion
maris
maritime
marius
marix
mark
markant
markante
markanti
markdorf
marke
marketing
markgra
markgraf
markgrafe
markgrafschaft
markgreflerland
markgro
markgrof
markgrofe
markgrofschaft
markgroof
markiert
markomanne
markt
marktgemeinde
marktoberdorf
marktplatz
marktwirtschaft
markus
markyrt
marlene
marley
marlies
marly
marmor
marne
marokko
marquardt
marquis
mars
marsch
marschall
marschiert
marseillaise
marseille
marshall
martel
martell
martha
marthaler
marthe
marti
martial
martigny
martin
martina
martinach
martine
martini
martino
martinoli
martinus
marx
marxer
marxismus
marxistische
mary
maryland
mas
masaryk
maschine
maschinebo
maschinne
maske
mason
maspoli
mass
massa
massachusetts
massacre
massaker
masse
massga
massimo
massiv
massive
massivi
massnahme
masson
massyv
mast
master
masters
matare
match
mater
materiaal
material
materialie
materialien
materie
materielle
matha
mathbb
mathbf
mathematical
mathematics
mathematik
mathematiker
mathematisch
mathematische
mathematischi
mathias
mathieu
mathilde
mathis
mathrm
matin
matisse
matriaal
matrial
matrialie
matrix
matsch
matt
matte
matteo
matter
matterhorn
mattes
mattha
mattheson
matthew
matthias
matthys
matur
matura
maturita
matuur
matzen
mau
mauch
mauer
maul
maulbronn
maur
maure
mauren
maurer
mauretanie
maurice
maurikios
mauritius
maurizio
mauro
maurus
maus
mausoleum
mauters
max
maxi
maximaal
maximal
maximale
maximali
maxime
maximian
maximilian
maximilians
maximum
maximus
maxwell
may
maya
mayer
maynard
mayor
mayotte
mayr
mazarin
mazedonie
maß
maßnahme
mb
mba
mber
mbh
mbol
mbool
mc
mcallister
mcp
mcr
md
mde
mdi
mdl
mdr
mdschi
mdwo
me
mea
mechanik
mechanisch
mechanische
mechanischi
mechanismus
mecho
mechthild
meckel
meckleburg
mecklenburg
med
medaille
medal
medallie
medea
meder
media
mediathek
mediation
mediationsakte
medical
medici
medicine
medie
medien
medieval
medikama
medina
medio
meditation
medium
medizin
mediziner
medizinisch
medizinische
medizinischi
mee
meedie
meefach
meeh
meehait
meer
meere
meerere
meereri
meeresspiegel
meeresspiejel
meerha
meersburg
meerschburg
meerz
meerze
meeschte
meeter
meeting
megfasst
megge
megleit
megli
megliche
meglig
meglige
megligkait
megschafft
megschlosse
megsetzt
megstellt
megstelt
megwachse
meh
meha
mehang
mehl
mehli
mehmed
mehmet
mehr
mehrera
mehrere
mehreri
mehrfach
mehrhait
mehrheit
mehrheitlich
mehrmols
mehrzahl
mei
meie
meieba
meienberg
meier
meile
meilen
meili
mein
meine
meinem
meinen
meiner
meines
meinig
meinige
meinrad
meint
meinung
meir
meiringe
meischde
meischdens
meischt
meischta
meischte
meischtens
meischter
meischterschaft
meisele
meist
meiste
meisten
meistens
meister
meisterschaft
meitli
mekka
mel
mela
melanchthon
melanie
melbourne
melcher
melchior
melissa
mellige
melodie
melodien
melodii
melody
mels
member
members
memento
memmenga
memmenge
memmingen
memoiren
memoirs
memorial
memoriam
memory
memphis
men
menachem
menarbet
mench
mende
mendel
mendelssohn
mendrisio
mene
menge
mengi
mengisch
mengs
menhir
mensch
menscha
mensche
menschen
menschenrechte
menschera
menschha
menschheit
menschliche
menschlichen
menschlige
menschligi
mensur
ment
mentsch
mentsche
menze
mer
meran
mercedes
merchmool
merckx
mercurius
mercury
mercy
merere
meret
mergentheim
meriaa
merian
merika
mering
meriri
merischwand
merkel
merki
merkmal
merkmol
merkt
merkur
merkwu
merlebach
merowech
merowinger
merowingische
merrill
mers
merstadt
mertens
mertu
merz
merze
merzit
merzitt
merzyt
mes
meschluss
mesetzig
mesopotamie
mesozoikum
mess
messe
messene
messenie
messenier
messenische
messenischi
messer
messiah
messias
messig
messige
messin
messina
messing
messt
met
meta
metafu
metal
metall
metallica
metaphysik
mete
metem
meter
methan
method
methode
methoden
methodik
methods
metoo
metr
metrische
metro
metronom
metropol
metropole
metropolitan
metropolregion
metrum
mettler
mettma
mettmadal
metz
metzervisse
metzger
metzler
meuron
meurthe
meuse
meuthen
mexico
mexikanische
mexiko
meyer
meyers
mez
mezger
mezzosopran
meßkirch
mf
mfa
mfer
mfersee
mft
mfte
mftige
mftigi
mg
mgangssprooch
mgarte
mgh
mgr
mhd
mhz
mi
mia
miami
miaßa
mich
micha
michael
michaela
michail
miche
michel
michelangelo
michelbach
michele
micheline
michelle
michelson
michigan
micky
microbiology
microsoft
mid
midd
midde
middel
middelalder
middelalter
middelalterlige
middelalterligi
middelgriech
middelhoochdu
middelland
middelmeer
middelmeerruum
middelo
middelpunkt
middem
middi
middle
middler
middlere
middleri
midi
mie
mieeminister
mieg
mien
miersch
mies
miesch
miesse
miessmer
mieße
mig
mige
migne
migrante
migration
migros
miguel
mihlacker
mika
mike
mikrobiologie
mikronesie
mikroorganisme
mila
milan
milano
milch
milchwirtschaft
mild
milde
mile
milenge
miles
milet
milhu
milhuuse
milida
milieu
milione
milita
militaire
military
militer
militerisch
militerische
militerregierig
militum
miliz
milize
mill
mille
millennium
miller
milliarde
milliarden
millimeter
million
milliona
millione
millionen
millioona
millioone
milly
milton
mim
min
mina
minaj
minas
mincha
minche
minchner
mind
minde
minder
minderha
minderhait
minderhaite
minderheit
minderheite
minderjo
mindeschtens
mindestens
mindet
mindig
mindischtens
mine
mineral
mineralie
minerva
mines
ming
minh
mini
minimal
minischter
minischterbresida
minischteri
minischterium
minischterpra
minischterpresida
minister
ministerbresida
ministerium
ministerpra
minkowski
minne
minnesa
minnesang
minnesota
minor
minschter
minschterdal
minu
minus
minusio
minuskel
minuta
minute
minuten
minutes
minze
mio
mioza
mir
mira
miranda
miriam
miro
mis
misch
mischa
mische
mischen
mischer
mischi
mischig
mischna
mischs
mise
misox
miss
missa
mission
missionar
missione
mississippi
missouri
misssta
misst
missversta
mit
mitaarbet
mitanni
mitarba
mitarbaiter
mitarbaiteri
mitarbeit
mitarbeiter
mitbegru
mitbrocht
mitchell
mite
mitem
miteme
mitenand
mitenander
mitere
mitgfu
mitghulfe
mitglid
mitglider
mitglied
mitglieder
mitgliid
mitgliider
mitgliidschaft
mitgliidstaate
mitglyd
mitglyder
mitgmacht
mitgrinder
mitgru
mitgschaffet
mitgschafft
mitgspiilt
mitgwirkt
mithilf
mitkaiser
mitm
mitmache
mitnand
mitnandr
mitra
mitsamt
mitt
mittag
mitte
mitteilig
mitteilungen
mittel
mittelaalter
mittelalemannisch
mittelalter
mittelalterliche
mittelalterlichen
mittelalterlichi
mittelalterlige
mittelalters
mittelamerika
mittelbaden
mittelberg
mitteleuropa
mitteleuropas
mittelfa
mittelgebirge
mittelhochdu
mittelhoochtu
mittelland
mittelma
mittelmeer
mittelmeerruum
mittelpunkt
mittels
mittelschwa
mittelschwoba
mittelza
mitternacht
mitti
mittlalta
mittler
mittlere
mittleren
mittlerer
mittleri
mittlerwyl
mittlerwyli
mittlerwyyli
mittuland
mittwoch
mittwuch
mitunter
mitwirkung
mitzmache
mix
mixed
mixtape
mjaft
ml
mle
mlech
mli
mlich
mliche
mlig
mlige
mligen
mm
mma
mme
mmearbet
mmebroche
mmebruch
mmed
mmedinge
mmedra
mmefassig
mmefluss
mmegfasst
mmegschafft
mmegschlosse
mmegsetzt
mmegstellt
mmeha
mmehang
mmel
mmela
mmen
mmenarbet
mmer
mmere
mmeret
mmerig
mmerki
mmert
mmerung
mmeschluss
mmesetzig
mmet
mmetrii
mmi
mmig
mmige
mmitau
mmle
mmli
mmlung
mmt
mnasium
mne
mo
mobile
mobilita
moda
mode
model
modell
modelle
modena
moder
moderator
moderatori
moderatorin
moderiert
modern
moderna
moderne
modernen
moderner
moderni
modi
modul
modus
moe
moehring
moesa
mohammed
mohawk
mohn
mohr
moi
moint
moire
moires
mol
moldau
moldawie
mole
molecular
moleku
molekulare
moler
molerei
moleri
molie
moll
mollens
molse
molsheim
molt
moma
moment
momentan
mon
mona
monaco
monarch
monarche
monarchi
monarchie
monarchii
monarchy
monat
monatliche
monatsblatt
monatshefte
monatsschrift
mond
monde
mondkrater
mone
monet
monetary
money
mongole
mongolei
mongolische
monica
monika
monique
monne
mono
monografie
monographie
monographien
monophthong
monopol
monotheletismus
monroe
monrose
mons
monsieur
monster
monsun
mont
montafon
montag
montagne
montagnes
montagny
montana
montbe
monte
montenegro
montesquieu
monteverdi
montfaucon
montfort
monthey
monti
montmollin
montpellier
montre
montreal
montreux
monts
montserrat
monuma
monument
monumenta
monumenti
monuments
monza
moo
mool
moole
mooler
moolere
moolerei
moolereie
moon
moonet
moonlight
moor
moore
moos
mooswald
mor
mora
moral
moralische
morbihan
morbio
morcote
mord
more
morea
moreau
morel
moresby
morf
morga
morgan
morge
morgen
morges
morgestraich
morin
moritz
morlaix
morning
moron
morphologie
morphology
morris
morrison
morstadt
mort
morte
morus
morvan
mos
mosaik
mosambik
mosbach
mosche
moschee
mose
mosel
moselfra
moselfrankisch
mosellan
moselle
moser
moses
moskau
moskauer
mossig
mossmann
most
mother
motiiv
motion
motiv
moto
motor
motore
mots
motta
motte
motto
motu
motyv
mou
moudon
moulin
moulins
moulton
mount
mountain
mountains
moustoir
moutier
mouton
mouvement
movement
movie
moyen
moz
mozart
mozilla
mp
mpe
mpech
mpel
mpelba
mpelgard
mper
mperatur
mperature
mpf
mpfa
mpfe
mpfen
mpfer
mpfig
mpfli
mpft
mpi
mpin
mpliz
mpratur
mpratuur
mpratuure
mr
mrd
mrs
ms
mse
mst
mt
mte
mter
mtliche
mtlichi
mtszitt
mtv
mu
mua
muadr
muass
muaß
much
mue
mueder
mueller
mues
muesch
muess
muet
mueter
mueterland
muetersproch
muetersprooch
muetter
muettergottes
muettersproch
muettersprooch
mueß
mugge
muh
muhammad
mulde
mulhouse
muller
multimedia
multimediadateie
mumbai
muna
munch
mund
mundaart
mundaarte
mundart
mundartautor
mundartdichter
mundartdichterin
mundartdichtung
mundarte
mundarten
mundartforschung
mundartgedicht
mundartliterarische
mundartliteratur
mundartmai
mundartsa
mundartschriftsteller
mundarttage
mundartwettbewerb
mundartwo
mundaun
mundi
mundruum
mundschtugg
mung
muni
munizipalgmeind
munro
munster
munzige
munzinger
mur
mura
murad
muralto
murbach
murder
mure
murg
muri
murmeldier
murmeli
murnau
murphy
murr
murray
murre
murte
murten
murtesee
mus
musa
muschdersa
muschg
muschle
muschter
musculus
muse
musea
musee
museen
museeum
museo
museom
museum
museums
museumsbaan
museumsbahn
music
musica
musical
musicbrainz
musig
musiger
musigwa
musik
musikalisch
musikalischa
musikalische
musikalischen
musikalischi
musiker
musikeri
musikhochschuel
musiklexikon
musikpa
musikpedagog
musiktheater
musikwissenschaft
musikwisseschaftler
musique
muskle
muskulatur
muslim
muslime
muslimisch
muslimische
muslimischi
muss
mussolini
must
mustafa
muster
mut
muttenz
mutter
muttez
mutzig
muuche
muul
muur
muure
muurer
muurra
muus
muusig
muusiginstruma
muusigwu
muusiker
muzillac
muß
mw
my
mya
myanmar
mykenische
myspace
mysterie
mystik
myth
mythe
mythen
mythische
mythologi
mythologie
mythologii
mythology
mythos
mɔ
n
na
naa
naachbergma
naachfolger
naachrueff
naame
naarig
naase
naawa
nabu
nac
nach
nachane
nachanen
nachbargmeinde
nachbarn
nachbergmeinde
nachburgmeinde
nachda
nachdem
nachdr
nachdruck
nachem
nacher
nachf
nachfolger
nachha
nachkomme
nachlass
nachpuurgmiine
nachrichten
nachruf
nacht
nachts
nachw
nachwort
nacional
nad
nadine
nadja
nadu
nadurschutzgebie
naef
nagel
nager
nagld
nagold
nagooge
nagy
nah
nahe
nahles
nahor
nahrig
nahrigsmittel
nai
naigig
nairobi
nakumma
nam
nama
namaal
name
namebuech
namen
namenbuch
namengut
namens
names
namesa
namibia
namik
namische
namma
namme
nan
nancy
nand
nander
nano
nantes
napf
napole
napoleon
napoleonische
narr
narrative
narre
narrezimft
narrezumft
narro
nas
nasa
nasal
nasale
nasalvokal
nase
nass
nassau
nasser
nast
nastii
nat
natalie
nathalie
nathan
nati
nation
national
nationalbank
nationalbibliothek
nationale
nationalen
nationaler
nationalfyrtig
nationalhymne
nationali
nationalismus
nationalita
nationalliga
nationalmannschaft
nationalmannschafte
nationalmuseum
nationalo
nationalpark
nationalrat
nationalroot
nationalrootswaale
nationalrootswahle
nationalrot
nationalrots
nationalrotswahle
nationalsozialischte
nationalsozialismus
nationalsozialiste
nationalsozialistische
nationalsozialistischen
nationalstaat
nationalversammlig
nationauraatswahle
natione
nationen
nations
nato
natu
natur
natura
natural
naturalis
naturalismus
nature
naturel
naturf
naturforschenden
naturforscher
naturgeschichte
naturhistorische
naturpark
naturra
naturschutz
naturschutzbiet
naturschutzgebiet
naturschutzpiet
naturwissenschaften
naturwissenschaftliche
naturwisseschafte
naturwu
natuur
nau
naumann
nauru
naus
navarra
navigation
navy
nazareth
nazi
nazionaale
nazionaali
nazionaalroot
nazional
nazionalbibliothek
nazionale
nazionaler
nazionali
nazionalpark
nazionalroot
nazionalsozialismus
nazione
nazioone
nazis
nb
nba
nberg
nborn
nbrunn
nch
ncha
nche
nchen
nchener
nchesta
nchhausen
nchner
nchweier
nchwiile
ncia
nd
nda
ndart
ndarte
ndb
nde
nded
ndel
ndels
ndelt
ndelwange
ndemer
nden
ndens
nder
nderaadail
nderaadoel
nderaata
nderaatail
nderaateel
nderaateil
nderat
ndere
ndereck
ndereie
nderet
nderete
ndergenge
nderi
nderig
nderige
nderinformatione
nderland
ndermuseum
ndern
nderoot
nderot
nderotswahle
nders
nderspiil
ndert
nderte
nderter
nderung
nderunge
nderungen
ndet
ndete
ndeti
ndez
ndgiltig
ndgu
ndi
ndida
ndig
ndige
ndigen
ndiger
ndiget
ndigi
ndigka
ndigkait
ndigkeit
ndigs
ndigsmitgliid
ndigt
ndigung
ndin
ndinge
ndisch
ndische
ndischen
ndischer
ndisches
ndischi
ndium
ndle
ndlech
ndler
ndli
ndlich
ndliche
ndlichen
ndlicher
ndlichi
ndlig
ndlige
ndligi
ndner
ndnerland
ndnerromanische
ndnis
ndniss
ndr
ndra
ndre
ndrem
ndret
ndrige
ndrundi
nds
ndscha
ndschaft
ndt
ndti
ndu
ndum
ndung
ne
nea
neaba
neabaher
neanderdaaler
neapel
near
neba
nebbe
nebe
nebed
nebefluss
nebel
neben
neberg
nebet
nebst
nebukadnezar
neburg
neche
necher
nechi
neckar
neckarsulm
necker
ned
nee
neechi
need
neeser
neff
neffe
negativ
negative
negativi
neggar
negger
neggste
negro
negschte
neh
nehmen
nei
neia
neibo
neibritannie
neiburg
neidhart
neie
neigig
neiginea
neii
neiirland
neij
neije
neiji
neil
nein
neiornig
neis
neiseela
neistadt
nej
nejbo
neje
neji
nel
neleus
nelke
nell
nella
nelly
nelson
nem
nemann
nemark
nemlich
nemma
nemme
nemmt
nen
nenberg
nenga
nenge
nenne
nennt
neo
neogen
neogotisch
neohethitische
neolithikum
nepal
nepomuk
nepos
neptun
ner
nera
neraal
neral
nerdli
nerdlich
nerdlig
nerdlige
nere
nero
nert
nes
nessans
nesslau
nest
nestle
nestor
net
netscape
network
netz
netzwa
netzwerk
neu
neua
neuauflage
neuausgabe
neubau
neubaute
neuburg
neucha
neudeck
neudorf
neudruck
neue
neueburg
neuem
neuen
neuenburg
neuenstein
neuer
neuere
neueren
neueri
neues
neueste
neuesten
neuf
neuguinea
neuhaus
neuhausen
neuhuuse
neui
neujahrsbla
neujahrsblatt
neuji
neukirchen
neumann
neumarkt
neumu
neun
neunkirchen
neus
neuschtadt
neuseeland
neuss
neustadt
neustrie
neutral
neutrale
neutralita
neutralitet
neutrum
neuve
neuveville
neuweiler
neuwied
neuzeit
neuziit
neuzit
never
neville
new
newa
newald
newcomer
news
newton
next
nez
nf
nft
nfte
nftig
nftige
nfzig
ng
nga
nge
ngel
ngelba
ngelse
ngen
ngende
ngene
nger
ngere
ngerer
ngeret
ngeri
ngerig
ngerin
ngerscha
ngert
ngg
ngge
nggel
nggi
nggisch
nggmol
nggmolgschu
nggmolschutz
nggt
ngi
ngig
ngige
ngigi
ngigka
ngigkait
ngigkeit
ngigkeitstag
ngika
ngikeit
ngisch
ngl
ngla
ngland
ngle
nglech
ngler
ngli
nglich
ngliche
nglichi
nglichkeit
nglig
nglige
ngligi
ngling
nglisch
nglische
nglischi
ngmo
ngmol
ngnau
ngnis
ngo
ngr
ngs
ngscht
ngschte
ngschti
ngst
ngste
ngsti
ngt
ngte
ngwiller
nha
nheit
nhn
ni
nia
nica
nicaragua
niccolo
nice
nicholas
nicht
nichte
nichts
nick
nickel
nicki
nico
nicola
nicolai
nicolas
nicolaus
nicole
nicotiana
nid
nidau
nider
niderdu
niderdytsch
nidere
nidereschtrych
nidergang
niderglait
nidergloo
nidergschlaa
niderla
niderlaag
niderlag
niderland
niderlande
niderloo
nidero
nidersa
nidersachse
niderschlag
niderschlagsma
niderschleg
niderwenige
nidorf
nidou
nidrige
nidwalde
nidwalden
nidwaldens
nidwaldner
nidwauda
nidwaude
nie
nied
nieder
niedergang
niederla
niederlande
niedero
niedersa
niedersachsen
niefenthaler
niels
nielsen
niemals
niemer
niemert
niemeyer
nien
niene
nietzsche
nig
nige
nigelau
nigen
niger
nigeria
nigg
night
nigi
nigin
niglich
nigliche
niglichi
nigra
nigreich
nigreichs
nigriich
nigrych
nigs
nigsberg
nigsfa
nigshausen
nigshuus
nigstein
nigung
niideralemannisch
niideralemannische
niidere
niidergang
niiderglo
niidergloo
niidergschlage
niiderla
niiderlaag
niiderlag
niiderland
niiderlande
niidrige
nika
nikaia
nike
nikephoros
niki
niklas
niklaus
nikolai
nikolaus
nil
nildelta
nils
nimi
nimm
nimme
nimmi
nimmt
nimt
nin
nina
nine
ning
ninge
ningen
ninger
ningh
ninnt
nino
nintendo
nio
nir
nis
nisa
nisch
nischa
nische
nischen
nischer
nischi
nit
nita
nitet
nitt
niue
niveau
niwa
nix
nixon
niz
nizier
nizische
nizza
nj
nk
nka
nkdag
nke
nkeba
nkel
nken
nker
nki
nkig
nkige
nkisch
nkische
nkischen
nkischi
nkler
nkmo
nkmol
nkmool
nkra
nkri
nkrich
nkriich
nks
nkt
nkte
nkti
nl
nla
nland
nlech
nli
nlich
nliche
nlichi
nlichkeit
nlichkeite
nlichkeiten
nlig
nlige
nligi
nligka
nligs
nm
nn
nna
nnd
nndli
nne
nned
nnedorf
nneglehrt
nnen
nnenge
nner
nnera
nnerchor
nnet
nnfahrer
nnfahreri
nni
nnig
nnige
nniger
nnisch
nnische
nnischi
nnle
nnli
nnlich
nnliche
nnlichi
nnlig
nnlige
nnligi
nns
nnscha
nnt
nnta
nnte
nnti
nntnis
nnu
nnung
nnzaichnet
no
noah
noam
nob
nobel
nobelbriis
nobelbryys
nobelpriis
nobelstiftig
noble
noch
nocha
nochamol
nochbargmeinde
nochbere
nochbergmainde
nochbergmaine
nochbergmeind
nochbergmeinde
nochbergmeine
nochbergmoanda
nochbergmoede
nochberla
nochberort
nochberschaft
nochburgmuanda
nochda
nochdem
noche
nochem
nocheme
nochenander
nochere
nochfolger
nochha
nochkomme
nochlass
nochrichte
noda
nodinoo
nodisno
noe
nofa
nofretete
noh
nohdam
noi
noie
noieburg
noiehof
noigriech
noihaide
noii
noije
noiji
noir
nois
nollinge
nom
nomal
nome
nomen
nomenclature
nomene
nomenklatur
nominativ
nominiart
nominierig
nominiert
nomo
nomol
nomos
noms
non
nonig
nonne
nonu
noo
nooch
noochbere
noochda
noochdem
noochdruck
nooche
noochem
noochfolger
noochgwiise
noochkomme
noochwiise
noochwort
noodleba
noofahre
noofolg
noofolger
noofolgeri
noogruggt
noogwise
noohfolger
nooloss
noorde
nooruef
noot
noote
nor
nora
norbert
nord
norda
nordafrika
nordamerika
nordamerikanische
nordbade
norddu
norde
norden
norderstedt
nordeschtlich
nordeuropa
nordgra
nordhalbchugle
nordhang
nordhausen
nordirland
nordische
norditalie
nordkorea
nordmazedonie
nordo
nordoscht
nordoschta
nordoschte
nordoste
nordpol
nordpolarmeer
nordrand
nordrhein
nordrhii
nordrhy
nordryy
nordschwarzwald
nordsee
nordsite
nordsyte
nordufer
nordvogese
nordwa
nordwescht
nordweschte
nordweschtli
nordweschtlich
nordweschtschwiiz
nordweschtschwyzerdu
nordweste
nordwestlig
nordwestschwiz
nore
norm
norma
normal
normale
normalerwiis
normalerwis
normalerwys
normalfall
normali
normalnull
norman
normandi
normandie
normandy
normanne
normdate
norme
north
northern
norton
norwa
norweege
norwege
norwegisch
norwegische
nos
not
notar
notation
note
noten
notes
noth
notiert
notize
notizen
notker
notre
notschrei
notwa
notwendig
notyrt
nous
nouveau
nouvelle
nouvelles
nov
nova
novak
novalis
novamber
novara
novartis
novelle
novellen
novembe
november
novembr
novi
novum
now
nowa
nowak
nowamber
noyal
nozoikum
nr
nrw
ns
nsch
nsche
nschen
nschera
nschliche
nschlige
nscht
nschta
nschte
nschter
nschti
nschtig
nschtige
nschtitu
nschtleiter
nschtler
nschtlera
nschtlerin
nschtlich
nsdap
nse
nsel
nser
nsgsa
nsige
nsingen
nsionierig
nsische
nst
nste
nsten
nster
nsterblatz
nsterhu
nstertal
nstler
nstlerin
nstlerinnen
nstlerisch
nstlerische
nstlerischi
nstlers
nstliche
nt
nta
ntaar
ntahu
ntal
ntarische
nte
ntel
nten
nter
nterschid
ntgen
nther
nti
ntia
ntiere
ntiert
ntig
ntimeter
ntin
ntis
ntisch
ntische
ntli
ntlibuech
ntlich
ntliche
ntner
nton
ntpinkt
ntra
ntral
ntrale
ntre
ntriert
ntrum
nts
ntsch
ntscha
ntschaft
ntschaftswahl
ntschaftswahle
ntsche
ntswahle
ntwa
ntwi
ntzer
nu
nuch
nuclear
nue
nuf
nui
nuia
nuie
null
num
numa
number
numbers
nume
numen
numeno
numma
numme
nummer
nummere
nummerierig
nun
nunavut
nung
nur
nus
nuss
nutze
nutzer
nutzig
nutzt
nutzung
nw
nwa
ny
nyi
nymphe
nyon
nyt
nyyn
nz
nza
nzalische
nzbrg
nzburg
nzd
nze
nzeesch
nzeescha
nzeesche
nzeescher
nzel
nzelsau
nzen
nzende
nzene
nzer
nzeri
nzerin
nzesch
nzesche
nzesisch
nzg
nzgebiet
nzi
nzig
nzige
nzinge
nzkirch
nzle
nzlebaan
nzlebahn
nzler
nzli
nzoosa
nzt
nzte
nzti
nzu
nzung
nzz
o
oa
oase
ob
oba
obama
obbe
obber
obberdo
obbere
obberfla
obberhalb
obberlauchringe
obberlauf
obberwise
obe
obedra
obelisk
oben
obenabe
ober
obera
oberaargau
oberaargou
oberallga
oberallgai
oberamt
oberamts
oberbadische
oberbayern
oberbefa
oberbegriff
oberbu
oberburg
oberburgermaischter
obercho
oberdorf
oberdu
obere
oberegg
oberelsass
oberen
oberengadin
oberes
oberfla
oberflechi
obergermanie
obergfo
oberhalb
oberhalbstein
oberhasli
oberhaupt
oberhausen
oberhof
oberhofen
oberhoheit
oberholzer
oberi
oberitalie
oberkirch
oberla
oberland
oberlauchringe
oberlauf
oberlin
obermu
oberndorf
obero
oberon
oberozwil
oberpfalz
oberrhein
oberrheinische
oberrheins
oberrhii
oberrhy
oberried
oberriet
obersa
obersaxe
oberschicht
oberscht
oberschte
oberschwa
oberschwaben
oberschwobe
obersee
oberst
oberste
obersti
oberstzumftma
oberuzwil
oberwallis
oberwalliser
oberwil
oberza
obfige
obfiger
obja
objekt
objekte
oblast
obligatorisch
oboe
obrecht
obrigka
obrigkeit
obrika
obs
obscht
observations
observatorium
obst
obwalda
obwalde
obwalden
obwaldner
obwohl
obwoll
oc
ocean
och
ochs
ochse
ochsenbein
oclc
october
od
oda
odd
odder
ode
oden
odenwald
odeon
oder
odessa
odewald
odile
odin
odoaker
odr
odyssee
odysseus
odyssey
oe
oekolampad
oerlike
oesch
oesterreich
oetinger
oettingen
oettinger
of
ofa
ofd
ofe
off
offa
offe
offebar
offeburg
offen
offenbach
offenburg
offene
offener
offeni
offensive
offesichtlich
offesichtlig
office
official
officiel
officinalis
offizia
offizie
offiziell
offiziella
offizielle
offizieller
offizielli
offiziells
offizier
offizin
offnige
ofis
ofiziell
oft
oftrige
oftringe
og
ogfa
ogi
ogoz
oh
ohio
ohna
ohne
ohni
ohr
ohra
ohre
oi
oier
oifach
oigena
oigene
oil
oim
oimo
oimol
oin
oina
oine
oiner
oinzlne
ois
oise
ok
okdobr
okres
oktave
oktobe
oktober
oktobr
oktoober
oktoower
oktower
okzitanisch
okzitanische
ol
olaf
olbers
olca
old
oldenbourg
oldenburg
ole
oleracea
olga
oli
olithikum
olive
oliver
olivier
olma
olmert
olms
olog
ologe
ologie
ologii
ologisch
ologische
ologischen
ologischi
olte
olten
olympe
olympia
olympiade
olympische
olympischi
om
oman
omar
omega
omnibus
oms
on
onard
ond
onder
onderallgai
ondr
ondre
ondrem
ondri
one
oni
onkel
onla
online
only
ono
ons
onsernone
ontario
oo
oobe
oobela
oobere
ooberi
ool
oole
ooni
oopere
oort
oorte
ooschterfinge
op
opac
ope
opel
open
oper
opera
operation
operazioon
opere
operedde
operesa
operette
operiert
opern
opernfu
opernhaus
opfer
opfere
opfingen
opfinger
opladen
oppenau
oppenheim
oppermann
oppidum
opposition
opr
optik
option
optisch
optische
optischi
opus
or
orakel
oral
orale
orange
oratorie
oratorien
oratorium
orbe
orbis
orbit
orcheschter
orchester
orchestra
ord
orda
orde
orden
order
ordne
ordnet
ordnig
ordnung
ordovizium
ordre
oregon
orell
orelli
orf
org
orga
orgaan
organ
organisation
organisatione
organisationen
organisazion
organisazione
organisazioon
organisazioone
organische
organischi
organischt
organisiere
organisiert
organisierte
organisierti
organisme
organismus
organist
organization
orgel
orgele
orginal
orgl
orgle
oria
orie
orient
oriental
orientalische
orientiere
orientierig
orientiert
orientierte
orig
origin
originaal
original
originalausgabe
originale
originaltitel
origine
origins
orinoco
orkeschtr
orlando
orle
orleans
ornavasso
orne
ornig
oro
oron
orsie
orso
ort
orte
ortenau
ortenaugrais
ortenaukreis
orth
orthal
orthodox
orthodoxe
orthodoxi
ortler
orts
ortsbu
ortscha
ortschaft
ortschafte
ortschaftsrot
ortsda
ortsdail
ortsdeil
ortsdeile
ortsdeiler
ortsdoal
ortsdoel
ortsdoil
ortsgeschichte
ortsgschicht
ortsiigang
ortsna
ortsname
ortsnamen
ortsnamme
ortstail
ortsteil
ortsvorsteher
oryza
os
osama
osb
osborne
oscar
oschda
oschde
oscht
oschta
oschtafrika
oschtafrikanische
oschtalbkroes
oschtallgai
oschtalpe
oschte
oschten
oschtere
oschteuropa
oschtfra
oschtrand
oschtro
oschtschwa
oschtschwiiz
oschtschwiizer
oschtschwizerisch
oschtsee
oschtsyte
osiris
oskar
oslo
osm
osmane
osmanisch
osmanische
osmanischi
osnabru
ossola
ost
ostafrika
ostasie
oste
osten
ostens
osteuropa
ostfildern
ostfra
ostfrankeriich
ostku
osto
ostro
ostrom
ostschwiz
ostschwizer
ostsee
oswald
ot
otfried
other
othmar
otmar
otmisinge
ott
ottawa
ottebach
ottendorf
ottersweier
otti
ottilie
ottinger
otto
ottokar
ottoman
ou
ouest
ougschte
ouguscht
our
ous
oust
out
oute
outlook
outre
ouvertu
over
ovid
owen
owerelsa
owerelsass
owerkirch
owerrhina
owerrhinalemannisch
own
oxford
ozean
ozeanie
ozoikum
p
pa
paapscht
paar
pablo
pabst
pacific
pacioli
pack
packt
paderborn
padua
page
pages
pai
paix
paket
pakistan
pakt
pala
palace
palaiologos
palais
palas
palascht
palast
palatale
palatalisierd
palatalisierig
palau
palazzo
pale
palermo
paleschtina
palestina
palestine
palestinenser
palestinensische
palestinian
palgrave
pali
pall
pallas
palme
palmer
pan
panama
pandemy
pandora
panem
pange
pankraz
pannonie
panorama
pantaleon
pantheon
panzer
paolo
papa
paper
papers
papi
papier
pappos
papscht
papst
papsttum
papua
papyrus
par
para
paracelsus
parade
paradies
paradis
paradise
paradiso
paradox
paraguay
parallel
parallele
parameter
parameterformat
parameterkonflikt
parat
parc
paris
pariser
paristech
parita
park
parker
parkinson
parlama
parlament
parlamentarische
parler
parma
parole
pars
part
partei
parteie
parteien
partement
partements
parther
parti
partial
partie
partikel
partitur
partizip
partner
partnerschaft
party
parzival
pas
pascal
pascale
pascha
paschalis
pasiphae
paspels
pass
passage
passagen
passagier
passagyr
passau
passe
passeriformes
passho
passiert
passion
passiv
passive
passo
passt
past
pasteur
pastor
pat
pata
patan
pate
patent
pater
patmos
patois
patoisants
patriarch
patrice
patricia
patrick
patrimoine
patriot
patriote
patriziat
patrizier
patrizierfamilie
patrologia
patron
patrozinium
pattern
patton
pau
paul
paula
pauli
pauline
paulo
paulus
pauly
paulys
pausanias
pause
pavia
pavillon
payerne
payot
pays
paz
pazia
pazifik
pazifische
pazifismus
pc
pd
pda
pdf
pds
pe
peace
peak
pearl
pearson
pechelbronn
pedagog
pedagogik
pedagogische
pedagoogische
pedemonte
peder
pedrazzini
pedro
peer
peeter
pegel
peggy
peking
peloponnes
peloponnesische
peloton
pen
pendant
pendel
pendo
penguin
penis
pennsylvania
pensionierig
people
peoples
per
perche
percy
pere
peres
perf
perfekt
performance
pergamon
perihel
perikles
period
periode
periodica
perle
perlentaucher
perm
permana
perrin
perron
perry
persenlige
perser
perseus
persian
persie
persisch
persische
persischi
perso
person
persona
personal
personalpronome
personalunion
persone
personen
personena
personenlexikon
persoon
persoone
perspective
perspectives
perspektive
perspektiven
peru
pescht
pessach
pest
pestalozzi
pete
peter
peters
petersblatz
petersburg
petersdom
petersen
petit
petite
petition
petitionsuusschuss
petr
petra
petrarca
petri
petrus
petry
petzold
peu
peuple
pf
pfa
pfaarer
pfad
pfaff
pfaffenhofen
pfaffewiler
pfalz
pfalzgraf
pfand
pfarer
pfarrchile
pfarrchille
pfarrderfer
pfarrdorf
pfarrei
pfarreie
pfarrer
pfarrhaus
pfarrhuus
pfarrkirch
pfarrkirche
pfe
pfeffer
pfeifer
pfeiffer
pfeil
pfel
pfen
pfennig
pfer
pferd
pfi
pfig
pfige
pfiil
pfiiler
pfirt
pfister
pfla
pflanza
pflanze
pflanzen
pflanzena
pflanzengesellschaften
pflaum
pfle
pflege
pflegt
pfleiderer
pfli
pflicht
pflichte
pflichtparameter
pflu
pflug
pfo
pforte
pforze
pforzheim
pft
pfu
pfund
pfung
pfyffer
pfyler
pfynwald
ph
pha
phaidon
phalsbourg
phane
pharai
pharao
phase
phe
phi
phil
philadelphia
philharmoniker
philibert
philip
philipp
philippe
philippine
philippsburg
philips
phillips
philolog
philologie
philosoph
philosophe
philosophen
philosophi
philosophical
philosophie
philosophii
philosophisch
philosophische
philosophischen
philosophischi
philosophy
pho
phoebe
phoenix
phonation
phone
phonem
phonetic
phonetik
phonetische
phonogramm
phonologie
phonology
photo
photographie
photos
photosynthes
php
phu
phylogeny
physical
physics
physik
physikalisch
physikalische
physikalischi
physiker
physiologie
pi
pia
piaf
pianischt
pianist
piano
piazza
picardes
picardie
picasso
piccolo
piccolomini
pichler
pichot
pictures
pidgin
pie
pieder
piemont
pieper
pier
piero
pierre
pierrehumbert
pierrot
piet
pieter
pietismus
pietro
pikardisch
pilatus
pildet
pilet
pilger
pilot
pilote
pils
pilz
pilzna
pin
pina
pinakothek
pinal
pindar
pink
pinkt
pinot
pins
pinus
pinyin
pio
pionier
piper
pippi
pippin
pirate
pirmin
pis
pisa
pisch
pische
pischi
pischte
pisin
pissarro
pital
pitcairn
piu
pius
piz
pizzo
pjotr
pl
pla
plaanet
plabennec
place
placidus
plaffeie
plage
plaine
plakat
plamboz
plan
planck
plane
planet
planete
planig
plankton
plant
planta
plantarum
plants
plasma
plastik
plateau
platform
platin
plato
platon
platoo
platt
plattdu
platte
platter
plattform
plattner
platz
play
player
ple
plebs
pleistoza
plessur
pleyben
pli
plibe
plinius
plioza
plo
ploe
ploetz
plone
plosiv
ploue
plouguer
plouigneau
ploune
plouzane
plu
plume
plural
plus
plutarch
pluto
pluvigner
plz
pm
pmatrix
pmid
png
po
podcast
poe
poems
poeschel
poesie
poet
poetik
poetische
poetry
pogrom
pogroom
pohl
poincare
point
pointe
points
poitiers
poka
pokal
pol
pole
poleis
polen
polenta
police
policy
polis
politeschi
political
politics
politik
politiker
politikere
politikeri
politikerin
politikwu
politique
politiques
politisch
politischa
politische
politischen
politischer
politisches
politischi
politischs
polizei
polizeidepartement
pollock
polnisch
polnische
polnischi
polo
polt
polydor
polynesie
polytechnique
pomatt
pommern
pompeius
pompidou
pont
pontarlier
ponte
pontificalis
pontifikat
pontivy
pontresina
ponts
pool
poole
pop
pope
popolo
poppen
popsa
popula
populaire
popular
popularita
population
por
port
porta
portal
porte
portes
porto
portra
portrait
portraits
portugal
portugiese
portugiesisch
portugiesische
portugiesischi
portugiisisch
portugiisische
portugisisch
portuguese
porza
porzay
posauna
poschiavo
poscht
poschtauto
poschte
poschtleitzaal
poschtleitzaale
poseidon
position
positione
positionen
positiv
positive
positivi
posizion
posizioon
posizioone
post
postauto
posthum
postum
posuune
potential
potenzial
potsdam
potsdamer
potter
poue
pour
poussin
pout
powell
power
pp
ppa
ppe
ppel
ppen
pper
ppingen
ppis
ppli
ppschwihr
pr
pra
praacht
prado
praesens
prag
prager
praha
praktike
praktikum
praktisch
praktische
praktischi
praktiziert
pratique
prato
praxis
praz
pre
prediger
predigt
predigten
preis
preistra
prell
premie
premier
premiere
premierminischter
premierminister
premio
presa
present
presida
president
presley
press
presse
pressemitteilung
presses
prestel
preusse
preuß
preuße
preußen
preußisch
preußische
preußischen
preußischi
pri
priaschter
price
pricht
prichtet
pride
prieschter
priester
priis
priise
priistra
prima
primarschuel
primate
prime
primo
primula
primus
prince
princeton
principles
print
prinz
prinza
prinzessin
prinzip
prinzipien
prior
pris
priva
privat
privatarchiv
privatbsitz
private
privati
privilegie
prix
prize
pro
probe
probiert
probla
probleem
problem
problematik
probleme
problems
probst
proce
proceedings
process
production
productions
produkt
produktion
produza
produzent
produziere
produziert
prof
profa
professional
professor
professr
professur
profi
profil
profile
profilsyte
progra
program
programm
programme
progress
progressive
proja
projakt
project
projekt
projekte
prokaryote
proklamation
proklamiert
prokofjew
prolog
prometheus
promina
promotion
promoviert
promowiert
pronome
propaganda
propagiert
prophet
prophete
proporzwahl
propyla
prosa
prosieben
prota
protein
protektorat
protescht
proteschta
proteschtante
proteschtantische
protest
protestante
protestantisch
protestantische
protestantismus
proto
protokoll
protokolle
proton
protone
prototu
prototyp
protour
proust
provence
province
provincia
provinz
provinze
provinzen
provisorisch
provisorische
provisorischi
proza
prozant
prozent
prozess
prozesse
pru
pruef
pruntrut
prunus
pruucht
prys
pryys
pryysverleihig
ps
psalm
psalme
pschlosse
pscht
pschtlige
pseudonym
psichology
psitticher
pso
psp
pste
psu
psuecht
psunders
psyche
psychiater
psychiatrie
psychische
psychoanalyse
psycholog
psychologie
psychologische
psychology
psychotherapie
pt
pte
pten
pter
ptische
ptissi
ptolema
ptolemaios
ptort
ptspraach
ptstadt
pu
pub
puberta
publ
public
publica
publication
publications
publikation
publikatione
publikationen
publikazioon
publikazioone
publikom
publikum
publique
publishers
publishing
publius
publiziert
publizischt
publizist
puccini
puerto
pult
pulver
pumatt
punggt
pungt
punk
punkt
punkte
punktklassema
punt
purcell
pure
puschkin
puschlav
pustet
pute
putin
putsch
puur
puure
puuredorf
puy
pylos
pyramide
pyre
pyrena
pythagoras
q
qin
qu
qua
quad
quadrat
quadratkilometer
quadratmeter
quadrocopter
qualida
qualifikation
qualifiziert
qualita
quantum
quantz
quardier
quart
quarta
quartal
quarterly
quartet
quartett
quartier
quasi
quator
quatorebeni
quatre
que
queen
quela
quele
quell
quella
quelle
quellen
quer
querschnitt
questembert
question
qui
quiberon
quier
quijote
quimerch
quimper
quimperle
quinto
quipe
quirin
r
ra
raab
raabe
raame
raat
raate
rabbi
rabbiner
rabbinische
rabe
rabin
rabindranath
rables
race
rache
rachel
racht
rachts
rachtsa
racine
rad
radar
radcliffe
rade
radegund
radiation
radikal
radikale
radikali
radio
radioaktive
radioaktivita
radiosa
radius
radolfzell
radra
radsport
radsportseiten
radwa
raete
raetia
raf
rafael
raff
raffael
rafz
ragaz
rageete
rahm
rahma
rahme
rahmen
rahn
rai
raie
rail
railroad
railway
raimund
rain
rainald
rainer
raire
rais
raise
raisonne
rakete
ral
rale
ralf
ralph
ram
rama
rame
ramelow
ramme
ramosch
rampe
ramseier
ramses
ramsta
ran
rand
rande
random
rang
range
rangyrbaanhof
rank
ranking
ranunculus
raoul
rap
raphae
raphael
rapp
rappe
rappenau
rapper
rapperin
rapperschwiil
rapperschwil
rapperswil
rapport
rard
raron
ras
rasch
raschdi
rascher
raschi
rascht
raschtatt
raschti
raspberry
rasse
rasser
rassismus
rastatt
rat
rate
ratet
rathaus
rathenau
ration
ratp
ratte
rattus
rature
rau
raub
rauch
raum
raumgliederung
raupe
raupp
raurica
raus
rausch
rausga
rauskomma
rauteburg
rautweil
ravel
ravenna
ravensbru
ravensburg
raveschburg
ray
raymond
razionale
rb
rba
rbar
rbe
rbel
rben
rber
rbergass
rbig
rbs
rbscht
rbschuel
rbt
rbu
rbuch
rc
rch
rcha
rche
rchen
rcher
rcherische
rchfe
rchi
rcho
rchstatt
rcht
rchtet
rchumft
rchzu
rckel
rd
rda
rdbebe
rdbeebe
rdbidem
rde
rdeba
rded
rden
rdepartement
rder
rderbuech
rdere
rderer
rderet
rderig
rderpreis
rdert
rderung
rderverein
rdet
rdete
rdi
rdid
rdig
rdige
rdigkeite
rdigkeiten
rdigt
rdigung
rdina
rdinger
rdlech
rdleche
rdlef
rdlich
rdliche
rdlichen
rdlicher
rdlichi
rdlichschte
rdlig
rdlige
rdligi
rdlingen
rdo
rdoba
rdoberflechi
rds
re
rea
reacht
reader
reading
reagan
reagiere
reagiert
reaktion
reaktiona
reaktione
reakzion
reakzioon
real
reale
realencyclopa
realenzyklopa
realida
realisiert
realismus
realisyrt
realita
reallexikon
realschuel
reba
rebe
rebecca
rebelle
rebellion
reber
rec
recensement
rech
rechberg
recher
recherche
recherches
recht
rechte
rechten
rechts
rechtschreibung
rechtsgeschichte
reclam
reclams
reconquista
record
recording
recordings
records
red
reda
redakter
redakteur
redaktion
redakzioon
rede
reden
redensarten
redet
redigiert
reding
redinge
redner
redon
redt
reduziert
reduzyrt
reed
reede
reeder
reedet
reef
reegelma
reegle
reelle
reemer
reemisch
reemischa
reemische
reese
ref
refels
refera
reference
referendariat
referendum
refermiert
refermierte
refermierti
reflekteert
reflektiert
reflexionen
reform
reformation
reformator
reformazioon
reforme
reformiert
reformierte
reformierten
reformierti
reformiirte
reg
rega
rege
regel
regelig
regelma
regeln
regen
regeneration
regensburg
regent
regenten
regfu
reggae
regia
regiarung
regie
regiere
regierede
regierende
regierig
regierige
regierigsbezirk
regierigsbresida
regierigsbresidium
regierigschef
regierigspra
regierigsrat
regierigsroot
regierigsrot
regierigsschef
regierigsziit
regierigszit
regierigszyt
regiert
regierung
regierungen
regierungsbezirk
regierungspra
regima
regime
regina
regine
regio
regiomontanus
region
regiona
regionaale
regional
regionale
regionaler
regionalfranzesisch
regionalgruppe
regionali
regionalkultur
regionalportra
regionalsproch
regionalverband
regione
regionen
regioon
regioone
regischter
regisseur
register
regla
regle
reglet
regula
rehm
rehman
rei
reich
reiche
reichenau
reichenbach
reichert
reiches
reichs
reichsbahn
reichsstadt
reicht
reid
reidleng
reidlenga
reidlenger
reie
reiff
reigetschwyl
reihe
reihefolg
reimer
reims
rein
reinach
reinbek
reine
reiner
reinhard
reinhardt
reinhart
reinhold
reini
reins
reis
reise
reisefu
reisen
reisende
reiter
reitlenga
rekonstruiert
rekonstruktion
rekord
rektor
rel
relation
relations
relativ
relative
relativi
relativita
relativity
relatiwida
release
relevant
relief
religio
religion
religione
religionen
religions
religionsfreiheit
religionsgeschichte
religioo
religioon
religioone
religious
relikt
relikwie
reliquie
relos
rem
rembrandt
reme
remer
remigius
remiremont
remisch
remische
remischi
remix
remmaljertittschu
remmalju
remmele
rems
remseck
remshalden
remungol
remy
ren
renaissance
renan
renata
renate
renato
rence
renchen
rend
rende
rendi
rene
renn
renne
rennes
renoir
renovation
renoviert
renowiert
renreiter
rent
rentsch
renz
renzo
rep
repertoire
repertorium
report
reportage
reporter
reports
repr
repra
represa
represanta
representation
representative
representiert
representing
reprint
reptilie
repu
repubblica
republic
republik
republikaner
republikanische
republikanischi
republike
requiem
rer
rereservat
rerische
rerschtand
rerum
res
reschi
reschii
reschiim
reschiseer
reschiseeri
reschisseer
reschisso
reschpa
rescht
reschtaurant
reschtauriert
reschtliche
reschy
research
reserve
resida
residenz
residiert
resistance
resolution
resonanz
resources
resp
respektiv
response
ressort
ressource
rest
restaurant
restauration
restaurierig
restauriert
reste
restorant
resultaat
resultat
results
ret
reto
retorumantscha
retour
retrograd
retrospektive
rette
retter
rettig
rettigheim
return
retuur
retuurchuu
reuchlin
reuss
reute
reuter
reuters
reutlingen
reutte
reutter
rev
revidiert
revier
review
reviews
revised
revision
revolte
revolution
revolutiona
revolutione
revoluziona
revoluzioon
revoluzzer
revue
rex
rey
rez
reza
rezension
rezensione
rezept
rezepte
rezeption
rezitativ
rf
rfa
rfe
rfed
rfel
rfen
rfer
rfet
rffer
rfle
rfli
rfnis
rfolg
rft
rfte
rfuss
rg
rga
rgbaan
rgbach
rgbau
rgbo
rgchetti
rge
rgen
rgens
rger
rgerchrieg
rgerdum
rgeret
rgergma
rgergmeind
rgerkrieg
rgerlich
rgerliche
rgerlichen
rgerlig
rgerlige
rgerligi
rgerma
rgermaischter
rgermeischter
rgermeister
rgermoaschter
rgerpartei
rgerra
rgerschaft
rgertum
rgfrid
rgg
rgge
rggipfel
rgha
rghang
rgi
rgisch
rgischa
rgische
rgischi
rgklassema
rgland
rgle
rgpass
rgschtellt
rgstellt
rgsturz
rgstyger
rgu
rgwa
rha
rhb
rhe
rhea
rhead
rhein
rheinau
rheinbru
rheinfelden
rheinische
rheinland
rheintal
rhetorik
rhi
rhii
rhiibrugg
rhiidoor
rhiifa
rhiiland
rhiin
rhiinau
rhiisprung
rhiital
rhin
rhinai
rhinau
rhinfrankisch
rhintl
rho
rhodes
rhodos
rhone
rhu
rhy
rhybrugg
rhyfa
rhyfall
rhyland
rhynau
rhythm
rhythmus
rhyufer
rhywald
ri
ria
riada
rias
ribeauville
ribes
ric
rica
ricarda
ricardo
rich
richard
richder
richdig
richdige
riche
richelieu
richrieg
richsla
richte
richter
richterswil
richtet
richtig
richtige
richtigi
richtlinie
richtung
rickebach
rickenbach
rico
rid
ridder
riddergass
riddim
riddims
ridu
rie
rieche
ried
riede
riedel
riegel
rieger
riehen
riemann
rien
ries
rieur
rieure
rieux
rif
riff
rig
riga
rigau
rige
rigelhuus
rigen
riggebach
riggenbach
right
rights
rigi
rigkeit
rigkeitskategorie
rigs
rigveda
rihanna
rii
riich
riichdum
riiche
riichenau
riichi
riichsdaag
riichsstedt
riichste
riinech
riis
riise
riiseslalom
riisige
riisigi
rijn
rik
rike
riley
rilke
rille
rima
rime
rimella
rimini
rin
rinde
rinder
ring
ringe
ringen
ringer
ringier
ringisch
ringmuure
rings
ringsume
ringzug
rinne
rintl
rio
ripiet
rippe
ris
risch
rischa
rische
rischer
rischi
rise
risee
risiko
risorgimento
riss
risse
risshoffe
rit
rita
ritchie
rite
ritt
ritter
ritu
ritual
ritus
rium
riva
rivella
river
rivera
rives
riviera
rizvi
rizytig
rk
rka
rke
rkei
rker
rkheim
rki
rkig
rkige
rkisch
rkische
rkischi
rkla
rkli
rkstatt
rkt
rkumft
rkunft
rkung
rkusgoob
rkzu
rl
rla
rlager
rlamant
rlauch
rle
rlech
rler
rli
rlich
rliche
rlichi
rlig
rlige
rligi
rlike
rlimann
rlin
rliner
rlitz
rlp
rm
rma
rmanischt
rmann
rmba
rme
rmel
rmer
rmi
rmig
rmige
rmigi
rmli
rmt
rmu
rmuus
rn
rna
rnau
rnba
rnbacher
rnberg
rnberger
rnbiet
rnbild
rnchraftwa
rndu
rne
rner
rnhard
rni
rnig
rnische
rnland
rnli
rno
rnooh
rns
rnscht
rnsee
rnseefilm
rnseeseerie
rnseeserie
rnseeserii
rnseh
rnsehfilm
rnsehsa
rnsehserie
rnshu
rnstadt
rnt
rnte
rnten
rntu
rnvokeer
ro
road
robert
robertini
roberto
roberts
robespierre
robin
robinson
roboter
roc
rocco
roch
roche
rochefort
rocher
rochholz
rock
rockband
rockmusiker
rod
rode
roderer
rodin
roger
rogers
rogge
roggeburg
roh
rohan
rohr
rohrbach
rohrdorf
roi
rokoko
roland
role
rolf
roll
rolla
rolland
rolle
rolling
rollmaterial
rollwagen
rom
roma
romaan
romagna
romain
roman
romana
romance
romand
romande
romandie
romane
romanes
romani
romania
romanica
romanico
romanis
romanisch
romanische
romanischen
romanischi
romanischt
romanischtik
romanistik
romano
romanos
romans
romantik
romantische
romantischi
romanum
romanus
romanze
rombach
rombas
rome
romeo
rommel
romney
romont
romulus
ron
ronald
ronco
rond
ronde
roo
room
roone
roor
roos
roose
roosevelt
root
roote
rootet
roothu
roothus
roothuus
rooti
roots
rootsher
rootsherr
rororo
rorschach
ros
rosa
rosalie
rosch
roscher
rose
rosemarie
rosen
rosenau
rosenberg
rosenheim
rosenkranz
rosie
rosmarie
ross
rosse
rossi
rossini
rostock
roswitha
rot
rota
rotation
rotationsrichtig
rotba
rotchru
rote
rotem
roten
roter
rotet
roth
rothaus
rothenbu
rothenburg
rother
rothschild
rothu
rothus
rothuus
rothwiil
roti
rotiert
rotte
rotterdam
rottner
rottu
rottweil
rottwyl
roubaix
rouen
rouge
rougemont
rousseau
roussev
route
routledge
roux
roveredo
rowling
rowohlt
rowohlts
roy
roya
royal
roß
rp
rpa
rpe
rper
rperligi
rperschaft
rperschafte
rpinkt
rpunkt
rr
rra
rrach
rre
rred
rrena
rrenmatt
rrer
rret
rri
rriar
rrschaft
rrt
rs
rsa
rsch
rschafd
rschd
rschde
rschi
rschinlich
rscht
rschta
rschtatum
rschtbistum
rschte
rschteller
rschtellig
rschter
rschtetum
rschti
rschtmo
rschu
rse
rsi
rsioon
rsita
rsite
rsiteet
rspiel
rspiil
rst
rsta
rstbischo
rstbischof
rstbistum
rste
rstedum
rsteland
rstelle
rsteller
rstellig
rsten
rstenau
rstenberg
rstentum
rstentums
rster
rstoff
rt
rta
rtblatz
rte
rteba
rteberg
rtei
rtel
rten
rter
rterbu
rterbuch
rterbuchs
rterbuech
rtern
rtet
rth
rthy
rti
rtig
rtige
rtigen
rtiggschtellt
rtigi
rtingen
rtirer
rtl
rtli
rtlich
rtliche
rtlichi
rtlig
rtner
rtnerscha
rtr
rts
rtscha
rtschaft
rtschaftlich
rtschaftliche
rtschi
rtte
rtteba
rtteberg
rttebergische
rttemberg
rttembergische
rttembergischen
rttembergisches
rttembergs
rtu
rtvoll
rtvolle
rtvolli
rtyrer
rtz
rtzmo
ru
rua
ruah
ruanda
rub
rubel
rubens
rubin
rubrik
ruckdritt
rucke
ruckkumma
rucktratta
ruckzug
rudi
rudolf
rudolph
rue
ruedi
ruedolf
ruef
rueh
ruestand
ruf
ruffieux
ruffy
rugby
ruggdritt
rugge
ruh
ruhe
ruhr
ruhrgebiet
ruine
ruinen
ruit
rule
rum
ruma
rumantsch
rumantscha
rumpf
run
rund
runda
runde
rundfahrt
rundfunk
rundgang
rundi
rundschau
rune
rung
runge
rungen
ruoff
rupert
ruprecht
rural
rus
rusgeber
russ
russe
russel
russell
russia
russian
russisch
russische
russischen
russischi
russland
russlands
rust
rute
ruth
rutherford
ruum
ruumsonde
ruumzit
ruune
ruz
rv
rve
rverlag
rvesu
rwa
rwage
rweer
rwehr
rweiter
rwelze
rwet
rwil
rworter
rwortet
rwu
ry
ryan
rych
ryche
rychenau
rychenou
rychi
rychsbaan
rychsdag
rychsgra
rychsstadt
ryf
rysle
ryy
ryych
ryyland
ryym
rz
rza
rzbischof
rzburch
rzburg
rze
rzel
rzer
rzere
rzeri
rzi
rzig
rzige
rzinge
rzschtugg
rzstelle
rzt
rzte
rzti
rzu
rzung
s
sa
saag
saage
saal
saale
saalwa
saane
saar
saarbru
saarla
saarland
saas
saba
sabbat
sabina
sabine
sac
sach
sacha
sache
sachen
sacher
sachliteratur
sachs
sachse
sachsen
sachsla
sack
sackbaanho
sackbaanhof
sacra
sacre
sadduza
saderlach
saderlacher
sae
saem
saene
safed
safety
saft
sag
saga
sage
sagen
sager
sagne
sagt
sagte
sah
sahara
sahel
sai
said
saied
saignele
sailer
saint
sainte
saints
saison
sait
saite
sala
saladin
salamanca
salame
salamis
salathe
salber
salbscht
sale
salem
salerno
sales
saley
saleytitsch
salgesch
salier
salih
salins
salis
salix
sallamols
salle
salm
salome
salomo
salomon
salomone
salon
salpeterer
salt
salvador
salvioni
salz
salzburg
salzburger
salzhuus
salzwasser
sam
samaade
samaritaner
samba
sambesi
sambia
same
samedan
samle
samlig
sammelband
sammelbegriff
sammle
sammler
sammlet
sammlig
sammlige
sammlong
sammlung
sammlungen
sammy
samnaun
samoa
samos
samschdig
samschtig
samson
samstag
samstig
samt
samuel
samy
san
sanatorium
sancti
sanctus
sand
sander
sanderge
sanders
sandjerge
sandoz
sandra
sandreuter
sandung
sandy
sang
sangalle
sanger
sangera
sanggale
sanggalle
sanggaller
sanierig
saniert
sanita
sankt
sans
sansibar
sanskrit
sant
santa
santi
santiago
santihanns
santimeter
santo
santorini
sao
sapiens
sar
sara
saragossa
sarah
sarajevo
sarasin
sarazene
sardinie
sargans
sarganserland
sargon
sarkozy
sarna
sarralbe
sarrazin
sarre
sarrebourg
sarreguemines
sars
sarthe
sartre
sasbach
sascha
saschbe
sassanide
sat
satellit
satellite
satellites
satire
satiriker
satirische
sativa
sativum
sattel
sattler
saturn
saturnmo
saturnmond
satz
sau
saudi
saue
sauer
sauerla
sauges
saul
saules
saulnois
sauma
saur
saurer
sauschwa
sauter
sauveur
savagnier
savanne
save
saverne
savie
savognin
savoie
savoye
savoyen
savoyer
sax
saxe
saxophon
say
says
sbb
sbg
sc
scala
scarlatti
scene
sch
scha
schaa
schaab
schaade
schabbtai
schach
schache
schad
schade
schaefer
schaeffer
schaf
schaffa
schaffe
schaffed
schaffen
schaffet
schaffhausen
schaffhauser
schaffhuse
schaffhuuse
schaffig
schaffner
schafft
schaffuuse
schaffuuser
schaft
schafte
schafuuse
schah
schale
schaler
schall
schallbecher
schallblatte
schaller
schallplatte
schallsched
schaltchreis
schaltige
schaltjohr
schamlippe
schams
schaner
schanfigg
schanze
scharf
scharfe
scharia
scharon
scharte
schat
schatte
schatten
schatz
schatzka
schau
schaub
schaueburg
schauenburg
schauinsland
schauplatz
schauschbiil
schauschbiiler
schauschbiilere
schauspiel
schauspieler
schauspielerin
schauspielhaus
schauspiil
schauspiiler
schauspiilere
schauspiileri
schauspiilhuus
schauspiler
schauspileri
schba
schbanie
schbanisch
schbanische
schbiilfilm
schbiilt
schbo
schbro
schbrooch
schbroochatlas
schbrooche
schd
schda
schdaat
schdaate
schdad
schdadd
schdadt
schdat
schde
schded
schdedt
schder
schdo
schdu
schduagert
schdudiert
sche
sched
schee
scheebuach
scheena
scheene
scheer
schef
scheff
scheffe
scheffel
scheffredakter
scheide
scheidegg
scheint
schel
schell
schem
schema
schemmba
schen
schene
schengen
schenio
schenk
schenker
scher
scherer
scherrer
scherz
schet
schetzige
schetzt
scheuermeier
scheurer
schi
schia
schialer
schich
schicht
schichte
schicke
schickele
schicksal
schickt
schie
schieffer
schieler
schiers
schiesse
schiff
schiffbar
schifferle
schifffaart
schifffahrt
schiffla
schig
schiibe
schiine
schiint
schild
schilder
schilf
schiller
schillerstiftig
schilling
schillinger
schiltach
schimberg
schimon
schimpanse
schinbar
schinbari
schindellegi
schindler
schine
schinge
schingen
schini
schinne
schint
schinznach
schirmer
schisma
schitze
schizophrenie
schla
schlaa
schlaat
schlaate
schlaatemer
schlacht
schlachte
schlaf
schlafen
schlag
schlage
schlager
schlagzu
schlange
schlat
schlatt
schle
schlecht
schlechte
schleck
schlegel
schlemmer
schlesie
schleswig
schlettsta
schlettstadt
schley
schli
schlia
schliaßlich
schliaßt
schlicht
schlie
schlienge
schlierbach
schliesse
schliessli
schliesslich
schliesslig
schliesst
schließe
schließli
schließlich
schließlig
schließt
schlimm
schlimmer
schlo
schloo
schloot
schloss
schlossba
schlosser
schlosspark
schloß
schlu
schluchsee
schluchseewa
schlucht
schluchte
schlumpf
schluss
schlussa
schma
schmal
schmale
schmali
schme
schmeller
schmetterling
schmetterlinge
schmid
schmidt
schmied
schmiid
schmitt
schmitte
schmitz
schmo
schmotzige
schmu
schmuck
schmutz
schna
schnabel
schnabelweid
schne
schnee
schneider
schneidmu
schneie
schnell
schnelle
schneller
schnewlin
schniide
schnitt
schno
schnu
schnuufe
schnyder
scho
schobinger
schoch
schoeck
schoggi
schokolade
schola
scholl
scholz
schon
schoof
school
schopfe
schopfheim
schopfheimer
schorndorf
schorsch
schorta
schott
schotte
schottisch
schottische
schottland
schp
schpa
schpanie
schpanisch
schpanische
schpeeter
schpi
schpo
schpraach
schprach
schprache
schpro
schproch
schprooch
schra
schramberg
schramm
schranke
schrei
schreiba
schreibd
schreiben
schreiber
schreibt
schreibweise
schreie
schreiner
schri
schribe
schribt
schrift
schriftdu
schrifte
schriften
schriftenreihe
schriftlich
schriftliche
schriftlichi
schriftlig
schriftlige
schriftligi
schriftschteller
schriftsprache
schriftsproch
schriftsprooch
schriftsteller
schriftstellere
schriftstelleri
schriftstellerin
schriftzeiche
schriibe
schriiber
schriibig
schriibt
schriibwiis
schritt
schro
schru
schruube
schrybe
schryber
schrybig
schrybt
schrybwys
schryybe
schryybig
scht
schta
schtaat
schtaate
schtadt
schtaht
schtai
schtamme
schtammt
schtand
schtarch
schtark
schtatt
schtattgfunde
schtaufe
schte
schteht
schtei
schteig
schtell
schtelle
schtellt
schtem
schter
schteriichische
schterium
schterriich
schterrych
schterrychische
schtet
schti
schtig
schtigi
schtil
schtimme
schtlech
schtleche
schtli
schtlich
schtliche
schtlichi
schtlig
schtliga
schtlige
schto
schtoht
schtra
schtrich
schtriich
schtriichische
schtro
schtrooss
schtroossburi
schtrych
schtrychische
schtu
schtudiert
schtumm
schtund
schu
schua
schual
schubart
schubert
schue
schuel
schuele
schueler
schuelhu
schuelhuus
schuelsprooch
schuelwa
schuelzyt
schul
schuld
schulde
schuldes
schuldese
schuldig
schule
schulen
schuler
schulin
schuller
schuls
schulte
schultha
schultheiss
schultheiß
schulthess
schulz
schulze
schum
schumacher
schumann
schun
schuppe
schurnalischt
schurnalischti
schurnalismus
schurnalist
schuss
schuster
schutt
schutter
schutterwald
schutz
schutzbiet
schutzpatron
schuu
schw
schwa
schwaabe
schwaarz
schwaarzwald
schwab
schwabe
schwaben
schwach
schwache
schwachi
schwalbe
schwamedinge
schwan
schwand
schwanden
schwander
schwanger
schwangerschaft
schwanke
schwankt
schwanz
schwartz
schwarz
schwarza
schwarzach
schwarze
schwarzeburg
schwarzem
schwarzen
schwarzenbach
schwarzenberg
schwarzer
schwarzes
schwarzi
schwarzkopf
schwarzmaier
schwarzwa
schwarzwald
schwarzwaldbaan
schwarzwaldbahn
schwarzwaldverain
schwarzwaldverein
schwe
schwebisch
schwebische
schwecher
schwede
schweden
schwedisch
schwedische
schwedischi
schweede
schweer
schweere
schweeri
schweigen
schweitzer
schweiz
schweizer
schweizerdeutsch
schweizerdeutsche
schweizerdeutschen
schweizerdeutsches
schweizerische
schweizerischen
schweizerischer
schweizerisches
schwelle
schwendi
schwenninge
schwenningen
schwer
schwerchraft
schwere
schwerer
schweri
schwerin
schwerpu
schwerpunkt
schwert
schweschter
schweschtere
schwester
schwestern
schwetzingen
schwi
schwiirig
schwiiriger
schwiiz
schwiizer
schwiizerdu
schwiizergarde
schwiizerisch
schwiizerische
schwiizerischen
schwiizerischi
schwiller
schwing
schwinge
schwinger
schwingig
schwirig
schwirige
schwirigkeite
schwiz
schwizer
schwizerdu
schwizerisch
schwizerische
schwizerischi
schwo
schwoba
schwobe
schwobechrieg
schwoobe
schwu
schwung
schwur
schwyyz
schwyyzerischen
schwyz
schwyzer
schwyzerdu
schwyzerisch
schwyzerische
schwyzerischen
schwyzerischi
schwyzerischs
schwyzerlu
schwyzertu
schy
schyn
schyns
schynt
schynts
sci
science
sciences
scientific
scilligo
scop
score
scorff
scott
scuol
sd
sda
sdadd
sdr
sds
sduagord
se
sea
seals
sean
search
seattle
sebastian
sebbe
sebdember
sec
secession
sech
sechs
sechsda
sechste
second
secret
secrets
section
security
sed
sedima
sedisvakanz
see
seea
seebach
seeberg
seebezirk
seebrugg
seebuck
seebund
seedorf
seee
seefaarer
seefahrer
seeger
seegfro
seehofer
seeholzer
seeje
seel
seeland
seelbach
seele
seemann
seemundarte
seen
seene
seer
seerhy
seeschlacht
seetal
seeufer
seevo
seewald
seewis
sefer
seftige
seg
segi
segs
seh
seha
sehen
sehenswu
sehn
sehnsucht
sehr
sei
seid
seidel
seidl
seidler
seie
seifert
seig
seige
seil
seiler
seille
seim
sein
seine
seinem
seinen
seiner
seines
seira
seis
seisebezirk
seislertu
seit
seite
seiten
seitz
sej
seje
sek
sekreta
sekretariat
sekte
sektion
sektor
sekunda
sekundarschuel
sekunde
sekzioon
sel
selbe
selber
selbr
selbscht
selbschta
selbst
selbsta
selbstverlag
selbstversta
selbstzeugnissen
seldschuke
selected
self
seli
selibr
seligarte
seligmann
selim
sell
sella
selle
sellem
sellen
seller
sellere
selli
sellne
sellra
selte
seltener
seltsame
selvarajan
selz
sem
semantik
semeschter
seminaar
seminar
semitische
semmerenga
sempach
sen
sena
senat
senator
send
sender
sendig
sendlfenga
sendung
sene
seneca
senegal
senga
senior
seniore
senkra
senn
sens
sense
sent
sentation
sentiert
sentlig
sentlige
sentligi
sentyrt
senz
seoul
sep
separat
separate
separati
sepik
sepp
sept
septa
septamber
septembe
september
septembr
ser
serbe
serbie
serbien
serbisch
serbische
serbischi
sere
serge
sergei
sergej
sergejewitsch
sergio
sergius
seria
serie
series
serii
serravalle
serse
server
service
services
ses
seschi
sessa
session
set
seth
setra
setz
setze
setzt
seuil
seven
seventh
severin
severus
sevilla
sevogel
sewastopol
sex
sexualita
sexuell
sexuelle
sexuelli
sey
seychelle
sf
sforza
sg
sga
sgab
sge
sh
sha
shakespeare
shakespeares
shanghai
sharani
shaw
she
sheppard
shi
shire
shiva
sho
shop
short
show
shu
shuttle
si
sia
siand
sibbe
sibe
sibebu
sibirie
sibte
sibylla
sibylle
sibza
sic
sich
sicher
sichere
sicherha
sicherhait
sicherheit
sicheri
sicherig
sicherung
sichs
sicht
sichtbar
sichtbare
sichtbari
sichuan
sichuanesisch
sichuanesische
sid
sida
sidafrika
sidafrikanische
sidamerika
sidant
sidbade
siddeitscha
side
siden
sident
sidente
sidenten
sidentin
sider
siders
sidfra
sidium
sidkoreanische
sidler
sidli
sidlich
sidlig
sidlige
sidligsfla
sidligsflechi
sidligsflechine
sidlongsfleche
sidlung
sidlungsfla
sidlungsfleche
sidlungsflechi
sidney
sidoschte
sidpol
sidwescht
sidweschte
sidweschtfunk
sidweschtrundfunk
sie
sieba
siebe
siebeck
sieben
siebenbu
sieber
siechehuus
siedler
siedlung
sieg
siegel
siegen
sieger
siegfried
siegmund
siegrist
siehe
sieht
siemens
siena
sierentz
sierra
sierre
sig
sige
sigel
siger
sigi
sigibert
sigismund
sigma
sigmaringe
sigmaringen
sigmund
signaal
signal
signalisyrig
signatur
sigrid
sigriswil
sigt
sihl
sihn
siht
sii
siiba
siibe
siide
siidebandfabrikant
siidler
siidlig
siidlige
siidligsgebiet
siidwalser
siig
siige
siigel
siiger
siiht
siim
siin
siina
siine
siiner
siinera
siinere
siini
siis
siit
siita
siite
sik
sika
sikalisch
sikalische
sikalischi
sikart
siker
sil
silbe
silber
silberburg
silberdistel
silberne
silbrig
silbrige
silbrigi
silcher
silicium
silikatischem
silizium
silja
silke
sils
silur
silva
silvan
silver
silvester
silvia
silvio
silvretta
sim
simbabwe
simek
simeon
simon
simona
simone
simonett
simonetta
simplon
simplonpass
simpson
simpsons
sin
sina
sinai
sinan
since
sinclair
sind
sindaco
sinds
sine
sinem
sinene
siner
sinera
sinere
sinfonia
sinfonie
sinfonii
sinfonische
sing
singapur
singe
singen
singer
single
singles
singspiil
singstimm
singt
singular
singvo
sini
sinke
sinkt
sinn
sinne
sinnem
sinner
sinnere
sinni
sinnvoll
sinre
sins
sinschtruma
sinsheim
sint
sintax
sinti
sinzheim
sio
sion
sioniert
sippe
sir
sire
sis
sisch
sischa
sische
sischem
sischen
sischer
sisches
sischi
sischs
sischsprachige
sischteem
sischtem
sisgau
sisley
sissach
sissech
sissle
sistance
sistema
sit
sita
sitde
sitdem
site
sitem
siter
sites
sitha
sither
sitlich
sitt
sitta
sitte
sitten
sitter
sittu
situation
situatione
situazioon
sitz
sitzbla
sitze
sitzig
sitzige
sitzpla
sitzt
sitzung
sivananda
sive
six
sixtus
size
sizilie
sizilien
sizun
sjw
sk
ska
skala
skandal
skanderbeg
skandinavie
skandinavische
skelett
sketch
sketsch
skg
ski
skira
skiverband
skizze
skizzen
sklave
sklavehandel
sklaverei
skt
skulptur
skulpture
skumme
sky
sl
sla
slalom
slam
slawe
slawische
slawischi
slayden
sle
sler
sli
slm
slowake
slowakei
slowakisch
slowakische
slowenie
slowenisch
sma
small
smi
smith
sms
smusig
sn
snacht
sncf
snow
snowden
so
sob
sobald
sobrio
soc
social
sociale
socie
societa
societad
society
sockel
sodass
soddiche
sofern
sofia
sofort
software
sog
soga
sogaar
sogar
sogenannt
sogenannte
sogenannti
soglio
sogna
sognannte
sognannti
sognennte
sognennti
soh
sohn
soissons
soiusa
soko
sokrates
sol
solang
solange
solar
solche
solda
soldaate
soldat
soldate
soldaten
sole
soledurn
soledurner
soledurnische
soleil
soli
solidarita
solingen
solischt
soll
solla
solle
sollen
sollet
sollte
solo
solodurn
solomon
solon
solothurn
solothurner
soma
somali
somalia
somaliland
some
somit
sommaruga
somme
sommer
son
sonate
sondage
sonde
sonder
sonderausgabe
sonderbund
sonderbundschrieg
sonderdruck
sonderegger
sonderheft
sondern
sonderstatus
sondrio
sone
song
songs
sonia
sonige
sonigi
sonja
sonne
sonntag
sons
sonscht
sonschtiche
sonschticher
sonschtige
sonst
sont
sonvico
sony
soo
soome
soon
soonigi
soorsi
sophia
sophie
sophokles
sopra
sopran
sopron
sorbonne
sorcheschter
sorg
sorge
sorgfa
sorgt
sorsi
sorte
sortiert
sos
sott
sotte
sou
soul
soultzbach
sound
sounds
soundtrack
source
sources
sous
sousaphon
south
southern
souvera
sovil
soweit
sowi
sowia
sowie
sowiso
sowit
sowjetisch
sowjetische
sowjetischi
sowjetunion
sowohl
sowoll
soz
sozia
sozial
sozialarchiv
sozialdemokrate
sozialdemokratie
sozialdemokratische
sozialdemokratischi
soziale
sozialen
sozialer
soziales
sozialgeschichte
soziali
sozialismus
sozialistisch
sozialistische
sozialistischi
sozials
sozialwissenschaften
sozialwu
soziolinguistisch
soziolog
soziologie
soziologii
soziologische
soziology
sp
spa
spaalevorstadt
space
spaghetti
spain
spalte
spaltig
span
spanie
spanien
spaniens
spanier
spanisch
spanische
spanischen
spanischi
spanish
spannig
spannige
spannungsfeld
spannwiiti
sparta
spartaner
spartanische
spartanischi
sparte
spatz
spazierga
spaziergang
spd
spe
spears
spec
spechbach
specht
special
species
speck
speech
speer
speeter
spektakula
spektrum
spencer
sperber
spescha
spessart
speter
spetere
speyer
speyerer
spezia
spezial
spezialisiert
spezialita
spezie
speziell
spezielle
spezielli
spezifisch
spezifische
spha
sphinx
spi
spiddaal
spiegel
spiel
spielberg
spiele
spielen
spieler
spielfilm
spielt
spiess
spiez
spiicher
spiil
spiile
spiiler
spiilfilm
spiili
spiilt
spiilzu
spil
spile
spiler
spille
spiller
spillt
spilt
spin
spinne
spinnerei
spinoza
spirit
spiritualita
spirituelle
spital
spitteler
spitz
spitze
spitzekandidat
spitzekandidati
spitzer
spitzname
splu
spo
spohr
spoken
spoleto
spontan
spoot
spootantike
spoote
spootmiddelalter
spore
sport
sportler
sports
sportverein
spot
spote
spotjohr
spott
spra
spraach
spraachatlas
spraache
spraachwu
sprach
sprachatlas
sprachcode
sprache
sprachen
sprachenkenner
sprachgeschichte
sprachlandschaft
sprachlandschaften
sprachraum
sprachspiegel
sprachwissenschaft
sprechen
sprecher
spreng
sprich
spricht
sprichwo
spring
springe
springer
sprint
spro
sproch
sprocha
sprochadlas
sprochatlas
sproche
sprochfamilie
sprochforscher
sprochgebiet
sprochruum
sprochwisseschaft
sprochwisseschaftler
sprochwu
sprooch
sproochadlas
sproochatlas
sproochbiet
sprooche
sproochforscher
sproochgebiet
sproochgebruuch
sproochgra
sproochluut
sproochruum
sproochruumagabe
sproochwu
spru
spruch
sprung
spu
spuhler
spuler
spur
spure
spuren
spurensuche
spuure
spycher
spyl
spyri
sql
sqrt
square
sr
srf
srg
sri
ss
ssa
ssaberg
ssaburg
ssaga
ssakumma
ssant
ssascha
sse
ssed
ssel
sseldorf
sseldorfer
ssem
ssen
ssend
ssene
sser
sserdam
sserditsch
ssere
sseret
sserflechi
sseri
sserig
ssers
sserscht
sserst
sseschaft
sseschafte
sseschafter
sseschaftler
sseschaftlich
sseschaftliche
sseschaftlichi
sseschaftlig
sseschaftlige
sseschaftligi
sset
ssgwa
ssi
ssiert
ssig
ssige
ssigi
ssigka
ssigkeit
ssigs
ssigt
ssigte
ssika
ssin
ssisch
ssischa
ssische
ssischen
ssischer
ssisches
ssischi
ssischs
ssla
ssle
ssler
ssli
sslich
sslige
sslin
ssluut
ssnacht
ssne
ssor
ssp
ssproch
ssr
ssschuss
sst
sstal
sste
ssti
ssu
ssur
sswa
sszaichent
st
sta
staal
staat
staate
staatebund
staaten
staates
staatli
staatlich
staatliche
staatlichen
staatlig
staatlige
staatligi
staats
staatsaawaltschaft
staatsangeho
staatsarchiv
staatsbaan
staatsbibliothek
staatsbiet
staatsbresida
staatsbu
staatsexame
staatsform
staatsgebiet
staatsgra
staatskanzlei
staatsmaa
staatsmann
staatsminischter
staatsminischterium
staatsoberhaupt
staatsoper
staatspra
staatsra
staatsregierig
staatsreligion
staatssekreta
staatssekretariat
staatsstreich
staatstheater
staatswa
staatsyse
stab
stabil
stabio
stade
stadie
stadion
stadium
stadler
stadt
stadtarchiv
stadtbezirk
stadtbibliothek
stadtbiet
stadtbild
stadtbuch
stadtcasino
stadtda
stadtdail
stadtdeil
stadtdoel
stadtdoil
stadtdoor
stadtfauna
stadtfu
stadtgebiet
stadtgeschichte
stadtgra
stadtgru
stadtgschicht
stadthuus
stadtkirch
stadtmuseum
stadtmuur
stadtmuure
stadtort
stadtpresida
stadtra
stadtrand
stadtrat
stadtrecht
stadtroot
stadtrot
stadtstaat
stadtstaate
stadttail
stadtteil
stadttheater
stadtverwaltig
stadtviertel
stadtza
stadtzentrum
staehelin
staffel
staffelbach
staffle
stage
stahl
staht
stai
stair
stalder
stalin
stalinismus
stall
stamed
stamm
stammburg
stamme
stammed
stammen
stammet
stammheim
stammsitz
stammt
stammvater
stammvatter
stampa
stan
stand
standard
standardchinesisch
standarddu
standardfranzo
standardmoda
standards
standardsproch
standardsprooch
standardwa
standort
standpunkt
stanford
stang
stange
stanislas
stanislaw
stanley
stans
stant
stapfer
stapfle
star
starch
starche
starchi
starck
stark
starke
starki
stars
start
startet
stat
statcube
state
states
statik
station
statione
stationen
stationiert
stationyrt
statistica
statistical
statistiche
statistics
statistik
statistique
statistisch
statistische
statistisches
statistischi
statistischs
stato
statt
stattdesse
stattfinde
stattfindet
stattgfunde
statthalter
statue
status
statut
statute
staub
staudamm
staufe
staufen
staufer
stauffenberg
stauffer
staumue
stausee
stauweer
stazioniert
ste
steam
steck
stecke
steckt
stedt
stedtebund
stedtisch
stedtische
stedtischi
stedtli
steeg
steem
stefan
stefania
stefanie
stefano
steffen
steffi
steg
steger
stehen
stehende
stehendi
stehlin
stehn
steht
stei
steibruch
steidl
steiermark
steiff
steige
steiger
steigmeier
steigt
steil
steile
stein
steina
steinach
steinadal
steinbach
steinbru
steine
steinegg
steinen
steiner
steinhausen
steinmann
steinmeier
steinzeit
steit
stele
stell
stella
stelle
stellen
stellewa
stellig
stellige
stellt
stellung
stellverdra
stellvertra
stellwa
stem
stematik
stematisch
sten
stephan
stephanie
stephen
stephenson
steppe
ster
sterben
stercher
stere
sterke
sterker
sterki
sterkschti
sterkste
stern
sternbild
sternbilder
sterne
sternen
sterreich
sterreichische
sterreichischen
sterreichischer
sterreichisches
sterreichs
sterrich
sterriich
stet
stets
stette
stetten
stettin
stettler
steve
steven
stevens
stewart
sthetik
sthetische
sti
stich
stichtag
stichwahl
stichwort
stick
stickelberger
stickstoff
stier
stifdig
stift
stifter
stiftig
stiftung
stig
stigt
stiigt
stiil
stil
stilicho
stilistisch
still
stille
stiller
stillglait
stilli
stillla
stimm
stimmba
stimmbera
stimme
stimmen
stimmhaft
stimmhafte
stimmhafti
stimmig
stimmlos
stimmlose
stimmlosi
stimmra
stimmt
stimmvolk
stina
stipa
stipendium
stirbt
stlein
stli
stlich
stliche
stlichen
stlichi
stlig
stlige
stligi
sto
stock
stockach
stocke
stocker
stockholm
stockmeyer
stoff
stoffwa
stoh
stoht
stoiber
stolba
stoll
stolle
stolz
stond
stone
stones
stoo
stoot
stop
storch
store
storia
storico
stories
storm
story
stot
stotzig
str
stra
straalig
straass
strabo
strabon
strada
strahlig
stralsund
strand
strang
strasbourg
strass
strassburg
strasse
strategie
strategii
strategisch
strategische
strategischi
strategy
stratigraphische
straub
strauss
strauß
strawinski
straßburg
straßburger
straße
straßen
stre
streck
strecke
strecker
strecki
street
stregge
streggi
streich
streicher
streife
streifzu
streik
streit
streng
strich
stricker
strictly
striich
striicher
striichisch
striichische
striichischi
striit
strit
stritt
stro
strobel
strobl
strof
stroifa
strom
stroof
stroofe
stroom
stroos
stroosburi
strooss
stroossburg
stroossburger
stroosse
strophe
strosburi
stross
strossburg
strossburi
strosse
stroß
stroßburg
stroßburger
stroßburi
stroßburri
stroße
stru
strub
strube
struck
structurae
structure
struktur
struktura
strukturdaten
strukture
strukturen
struve
strych
strychische
stryt
stu
stuagert
stuart
stube
stuck
stucki
studa
student
studente
studer
studi
studia
studie
studiega
studiegang
studien
studienausgabe
studiere
studierende
studiert
studies
studiira
studiirt
studio
studioalbum
studiom
studios
studium
study
stue
stuefe
stuegert
stuegerter
stueggert
stuel
stufe
stugg
stuggart
stumm
stumpf
stumpfgleis
stund
stunde
stunden
sturm
sturz
stuttgart
stuttgarter
stutz
stuube
stuudiega
stuudium
stygig
stygt
styl
style
styles
styria
styyre
su
sua
suacht
sub
subjekt
subkontina
subkontinents
subschtantiv
subsp
substantiv
substanz
substanze
suchard
suche
sucht
sud
sudan
sudoc
sue
suebe
suech
sueche
suechi
suecht
sueddeutsche
suedkurier
suedostschweiz
sueskanaal
suez
suffix
suhn
suhr
suhrkamp
sui
suis
suisse
suisses
suite
suizid
sujet
sukkot
sul
sulpice
sultan
sultanat
sulz
sulzbach
sulzburg
sulzer
sum
sumatra
sumer
sumerer
summa
summe
summer
summerspiil
sumpf
sun
sunday
sunder
sundern
sundga
sundgau
sundgo
sune
sunegott
sung
sunn
sunna
sunndig
sunne
sunnegott
sunneleecht
sunneliecht
sunnesystem
sunnewind
sunnite
sunntig
sunscht
sunschtige
sunschtiger
sunschtigi
supe
super
superior
superiore
supplement
sur
sura
surdez
sure
suriname
surmeirisch
surre
surrealismus
surrealistische
sursee
surselva
surselvisch
surselvische
surses
sursilvan
survey
surya
sus
susan
susanna
susanne
susch
suscht
suschtigi
sust
sustiger
sustigi
suter
sutermeister
sutselvisch
sutselvische
sutter
suttner
sutton
suu
suun
suur
suure
suurla
suurstoff
suvera
suwera
suzanne
sv
sven
svg
svizra
svizzera
svizzeri
svp
sw
swa
swahili
swami
swasiland
sweet
swf
swift
swing
swiss
swissair
swisscom
swissinfo
swisstopo
switzerland
sword
swr
sy
syd
syder
sydney
syg
syl
syllogisma
sylvain
sylvestris
sylvia
sylvie
sym
symbol
symbole
symbolisiert
symphonie
symphony
symposion
symposium
symptom
syn
syna
synagog
synagoge
syndicat
syndrom
syne
syner
synere
syneren
synergie
syni
synod
synode
synonym
synrer
syntax
syrakus
syre
syria
syrie
syrien
syrische
sys
syschtem
syschtematik
system
systematik
systematisch
systematische
systeme
systems
syt
syte
sytedal
syter
syterha
syy
syym
syyne
syyni
syyre
sz
sza
sze
szeene
szeged
szene
szenen
sɛ
t
ta
taa
taag
taal
tab
taba
tabak
tabea
tabellarische
tabellarischer
tabelle
table
tabu
tach
tacitus
taddey
tadschikistan
tafaas
tafel
tafle
tag
tagblatt
tage
tagebu
tagebuch
tagen
tages
tagesanzeiger
tagesschau
tagesspiegel
tageswoche
tageszeitung
tagfalter
tagi
tagore
tagsatzig
tagt
tagung
tahiti
tai
tail
tailgnoo
tailt
tailwiis
tain
taiwan
take
takt
tal
tala
tale
talent
tales
talheim
talienisch
talk
talmud
talschaften
tamina
tamins
tan
tanach
tang
tanga
tango
tanja
tank
tanne
tanner
tannha
tansania
tante
tantike
tanz
tanzen
tanzt
tanztheater
tap
tappolet
tar
tara
tarasp
tarent
tarquinius
taschen
taschenbu
taschenbuch
taschenbuchverlag
tassilo
tat
tatare
tate
tatort
tatsa
tatsach
tattoo
tau
tauber
tauberbischofsheim
taucht
tauft
taunus
tausend
tavannes
tavel
taverne
tavetsch
taxa
taxi
taxis
taxon
taxonomy
taylor
taz
tb
te
tea
team
teams
teatro
teau
teaulin
teaux
tebach
technical
technig
technik
technike
techniker
technisch
technische
technischen
technischi
techno
technologie
technology
teck
tectum
ted
teddy
tedesco
tee
teggscht
teggst
tegna
tegscht
teheran
teil
teilband
teile
teilen
teili
teilig
teilna
teils
teilt
teilwiis
teilwis
teilwys
tekscht
tel
telard
tele
telefon
telekom
telemann
telepolis
teleskop
teleskope
television
teli
tell
tello
telois
tempel
temperatur
temperature
template
temple
tempo
tempora
temps
ten
tenbach
tend
tenda
tende
tender
tendi
tends
tendschte
tendste
tendsti
tene
teneriffa
tennessee
tennis
tenois
tenor
tenorhorn
ter
tere
teren
teresa
teri
teritum
term
terme
termin
terminal
terminologie
terminus
terra
terrasse
terre
terrible
territoire
territorial
territoriale
territoriali
territorie
territorium
terror
terrorismus
terrors
terry
terschuppe
tersloh
tersloher
tertia
tervokeer
terzu
tes
tescht
teschtama
teschtament
teschtens
tesla
tessin
tessiner
tessub
test
testama
testament
tet
tete
tethys
tettnang
teubner
teufel
teuteberg
tex
texa
texas
text
textarchiv
texte
texten
textes
texts
tf
tfrac
tg
tgli
tgma
tgv
th
tha
thadda
thai
thailand
thal
thaler
thales
thalheim
thalia
thames
than
thann
that
the
thea
theader
theater
theaterlexikon
theaterstu
theaterstuck
theatr
theatre
theatrum
theba
thebe
theebe
theema
theil
their
theiss
theiß
them
thema
thematisch
thematisiert
theme
themen
themene
themse
then
theo
theobald
theoderich
theodor
theodora
theodosius
theodul
theolog
theologe
theologi
theologie
theologii
theologisch
theologische
theologischer
theologischi
theology
theoloog
theophanu
theophil
theoretiker
theoretisch
theoretische
theoretischi
theori
theorie
theorien
theories
theorii
theory
ther
thera
therapie
therapii
there
theres
theresa
therese
theresia
thermischi
thermodu
these
thessalie
thessaloniki
theta
theudebald
theudebert
theuderich
they
thi
thielle
thieme
thierry
thiersta
thierstein
thilo
thing
thionville
thiopie
third
this
thmus
tho
tholische
thologii
thoma
thomas
thomasius
thommen
thompson
thomson
thoolischa
thor
thorbecke
thorn
thorsten
thought
thrakie
three
thrich
thriller
thron
through
thu
thukydides
thun
thunersee
thur
thurgau
thurgauer
thurn
thusis
thuus
ti
tia
tiala
tiberius
tibet
tibetische
tichter
ticinese
ticino
ticket
tie
tief
tiefe
tiela
tielekt
tielschtoorf
tien
tiengen
tienne
tier
tierarten
tiere
tierna
tiers
tiert
tiflis
tig
tiga
tige
tigen
tiger
tiget
tigi
tigka
tigkeit
tigkeite
tigris
tigt
tigung
tika
tikon
til
till
tillon
tilly
tilman
tim
timberlake
timbuktu
time
times
timo
timothy
tin
tina
tinguely
tion
tiona
tipisch
tipo
tipografia
tique
tira
tirana
tirke
tirkei
tirkisch
tirkische
tirol
tiroler
tis
tisch
tischa
tische
tischen
tischi
tistens
titan
titania
titel
titelblatt
titelroll
titisee
titl
title
titsch
titus
tius
tizian
tle
tlech
tli
tlich
tliche
tlichi
tlig
tlige
tm
tma
tmittelalter
tna
tnant
to
toal
tobago
tobel
tobias
tobler
tochter
tod
today
tode
todes
todesstrafe
todestag
todtmoos
todtnau
together
toggeborg
toggeburg
toggeburger
toggenburg
toggenburger
togo
tok
tokio
tokyo
toledo
toleranz
tolkien
tolstoi
tom
toma
tomas
tomaschett
tome
tomi
tomils
tommy
ton
tonga
toni
tonne
tonufnahme
tony
too
tood
toor
tooti
top
topographia
topographie
topographische
toponomastico
toponymique
tor
tora
torah
tore
torelli
torino
[...]
