!
"
#
##0
##1
##10
##11
##12
##13
##14
##15
##16
##17
##18
##19
##2
##20
##21
##22
##23
##24
##25
##26
##27
##28
##29
##3
##30
##31
##32
##33
##34
##35
##36
##37
##38
##39
##4
##40
##41
##42
##43
##44
##45
##46
##47
##48
##49
##5
##50
##51
##52
##53
##54
##55
##56
##57
##58
##59
##6
##60
##61
##62
##63
##64
##65
##66
##67
##68
##69
##7
##70
##71
##72
##73
##74
##75
##76
##77
##78
##79
##8
##80
##81
##82
##83
##84
##85
##86
##87
##88
##89
##9
##90
##91
##92
##93
##94
##95
##96
##97
##98
##99
$
%
&
'
(
)
*
+
,
-
.
/
0
00
000
001
002
003
004
005
006
007
009
01
010
011
012
013
016
02
027
03
030
04
05
06
07
08
09
1
10
100
1000
10000
1001
1002
1007
101
1016
102
1024
103
1038
104
105
1050
106
1066
107
1071
108
1080
109
1097
11
110
1100
111
1111
112
113
114
115
116
117
118
119
12
120
1200
1204
121
1216
122
1220
123
124
125
1250
126
1260
1261
127
128
1280
129
13
130
1300
131
132
1327
133
134
1340
135
1350
136
137
1377
138
1389
139
1390
14
140
1400
1402
141
1410
142
1428
143
144
1440
1444
1447
145
1450
1453
146
1460
1461
1464
147
1470
148
1480
1481
1485
1487
149
1490
1492
1499
15
150
1500
1501
1502
1503
1506
151
1510
1512
1514
1515
1516
1517
1519
152
1520
1521
1522
1525
1526
153
1530
1532
1533
1534
1536
1538
154
1540
1541
1543
155
1550
1551
1552
1553
1554
1555
1556
1557
1558
1559
156
1560
1561
1565
1566
1568
1569
157
1570
1571
1572
1573
1574
1578
158
1580
1582
1585
159
1590
1591
1593
1595
1596
1598
1599
16
160
1600
1603
1604
1605
1606
1609
161
1610
1611
1612
1618
162
1620
1621
1622
1623
1625
1628
1629
163
1630
1631
1632
1633
1634
1635
1637
1638
1639
164
1640
1641
1642
1643
1644
1645
1648
1649
165
1650
1652
1654
1655
1656
1658
1659
166
1660
1661
1664
1665
1666
1667
1669
167
1670
1672
1676
168
1680
1683
1684
1685
1687
1688
1689
169
1690
1694
1695
1696
1699
17
170
1700
1701
1703
1707
1709
171
1710
1711
1713
1714
1715
1717
1718
172
1720
1721
1722
1723
1724
1725
1727
1729
173
1730
1731
1732
1733
1734
1735
1736
1737
1738
1739
174
1740
1741
1742
1743
1744
1745
1746
1747
1748
1749
175
1750
1751
1752
1753
1754
1755
1756
1757
1758
1759
176
1760
1761
1762
1763
1764
1765
1766
1767
1768
1769
177
1770
1771
1772
1773
1774
1775
1776
1777
1778
1779
178
1780
1781
1782
1783
1784
1785
1786
1787
1788
1789
179
1790
1791
1792
1793
1794
1795
1796
1797
1798
1799
18
180
1800
1801
1802
1803
1804
1805
1806
1807
1808
1809
181
1810
1811
1812
1813
1814
1815
1816
1817
1818
1819
182
1820
1821
1822
1823
1824
1825
1826
1827
1828
1829
183
1830
1831
1832
1833
1834
1835
1836
1837
1838
1839
184
1840
1841
1842
1843
1844
1845
1846
1847
1848
1849
185
1850
1851
1852
1853
1854
1855
1856
1857
1858
1859
186
1860
1861
1862
1863
1864
1865
1866
1867
1868
1869
187
1870
1871
1872
1873
1874
1875
1876
1877
1878
1879
188
1880
1881
1882
1883
1884
1885
1886
1887
1888
1889
189
1890
1891
1892
1893
1894
1895
1896
1897
1898
1899
19
190
1900
1901
1902
1903
1904
1905
1906
1907
1908
1909
191
1910
1911
1912
1913
1914
1915
1916
1917
1918
1919
192
1920
1921
1922
1923
1924
1925
1926
1927
1928
1929
193
1930
1931
1932
1933
1934
1935
1936
1937
1938
1939
194
1940
1941
1942
1943
1944
1945
1946
1947
1948
1949
195
1950
1951
1952
1953
1954
1955
1956
1957
1958
1959
196
1960
1961
1962
1963
1964
1965
1966
1967
1968
1969
197
1970
1971
1972
1973
1974
1975
1976
1977
1978
1979
198
1980
1981
1982
1983
1984
1985
1986
1987
1988
1989
199
1990
1991
1992
1993
1994
1995
1996
1997
1998
1999
2
20
200
2000
2001
2002
2003
2004
2005
2006
2007
2008
2009
201
2010
2011
2012
2013
2014
2015
2016
2017
2018
2019
202
2020
2021
2022
2023
2024
203
2030
204
205
206
207
208
209
21
210
2100
211
212
213
214
215
216
217
218
219
22
220
221
222
223
224
225
226
227
228
229
23
230
231
232
233
234
235
236
237
238
239
24
240
241
242
243
244
245
246
247
248
249
25
250
2500
251
252
253
254
255
256
257
258
259
26
260
2600
261
262
263
264
265
266
267
268
269
27
270
271
272
273
274
275
276
277
278
279
28
280
281
282
283
284
285
286
287
288
289
29
290
291
292
293
294
295
296
297
298
299
3
30
300
3000
301
302
303
304
305
306
307
308
309
31
310
311
312
313
314
315
316
3166
317
318
319
32
320
321
322
323
324
325
326
327
328
329
33
330
331
332
333
334
335
336
337
338
339
34
340
341
342
343
344
345
346
347
348
349
35
350
3500
351
352
353
354
355
356
357
358
359
36
360
361
362
363
364
365
366
367
368
369
37
370
371
3713
372
373
374
375
376
377
378
379
38
380
381
382
383
384
385
386
387
388
389
39
390
391
392
393
394
395
396
397
398
399
4
40
400
4000
401
402
403
404
405
406
407
408
409
41
410
411
412
413
414
415
416
417
418
419
42
420
421
422
423
424
425
426
427
428
429
43
430
431
432
433
434
435
436
437
438
439
44
440
441
442
443
444
445
446
447
448
449
45
450
451
452
453
454
455
456
457
458
459
46
460
461
462
463
464
465
466
467
468
469
47
470
471
472
473
474
475
476
477
478
479
48
480
481
482
483
484
485
486
487
488
489
49
490
491
492
493
494
495
496
497
498
499
5
50
500
5000
501
502
503
504
505
506
507
508
509
51
510
511
512
513
514
515
516
517
518
519
52
520
521
522
523
524
525
526
527
528
529
53
530
531
532
533
534
535
536
537
538
539
54
540
541
542
543
544
545
546
547
548
549
55
550
551
552
553
554
555
556
557
558
559
56
560
561
562
563
564
565
566
567
568
569
57
570
571
572
573
574
575
576
577
578
579
58
580
581
582
583
584
585
586
587
588
589
59
590
591
592
593
594
595
596
597
598
599
6
60
600
6000
601
602
603
604
605
606
607
608
609
61
610
611
612
613
614
615
616
617
618
619
62
620
621
622
623
624
625
626
627
628
629
63
630
631
632
633
634
635
636
6360
637
638
639
64
640
641
642
643
644
645
646
647
648
649
65
650
651
652
653
654
655
656
657
658
659
66
660
661
662
663
664
665
666
667
668
669
67
670
671
672
673
674
675
676
677
678
679
68
680
681
682
683
684
685
686
687
688
689
69
690
691
692
693
694
695
696
697
698
699
7
70
700
7000
701
702
703
704
705
706
707
708
709
71
710
711
712
713
714
715
716
717
718
719
72
720
721
722
723
724
725
726
7267
727
728
729
73
730
731
732
733
734
735
736
737
74
740
741
742
743
744
745
746
747
748
749
75
750
751
752
753
754
755
756
757
758
759
76
760
761
762
763
765
766
767
768
769
77
770
771
772
773
774
775
777
778
78
780
781
782
783
784
785
786
787
788
789
79
790
791
792
793
794
795
796
797
799
8
80
800
8000
801
802
803
804
805
806
807
808
809
81
810
811
812
813
814
815
816
817
818
82
820
821
822
823
824
825
826
827
828
829
83
830
832
833
835
836
837
838
84
840
841
842
843
845
846
847
848
85
850
852
853
854
855
857
858
86
860
861
862
863
864
865
866
867
869
87
870
871
873
875
876
877
878
88
880
882
884
885
886
888
89
890
893
895
896
9
90
900
9000
901
903
905
907
908
909
91
910
911
912
913
914
915
918
92
920
921
922
923
925
926
929
93
930
931
935
937
94
940
945
95
950
951
96
960
961
962
963
965
968
969
97
970
975
976
977
978
98
980
981
982
985
99
990
991
9941
995
996
997
998
999
:
;
<
=
>
?
@
\
^
_
`
a
aa
aabat
aachen
aag
aaron
aat
aatı
aatın
aatına
ab
aba
abalar
abaları
abalarına
abalarını
abalarının
abalarıyla
aban
abartılı
abası
abaza
abba
abbas
abbasi
abbasiler
abbeville
abbey
abbott
abc
abd
abdal
abdi
abdu
abdul
abdullah
abdurrahman
abe
abel
aberdeen
abeyi
abgerufen
abhaz
abhazya
abi
abidin
abigail
abileceg
abilecek
abilen
abilir
abilirler
abilmek
abilmektedir
abilmesi
abisi
abla
ablası
ablon
ablonlar
ablonları
ablonu
ablonun
abluka
abone
abonelik
about
above
abraham
abrams
abs
abstract
abu
abucak
abuk
ac
aca
acaba
acade
academia
academic
academy
acag
acak
acaktı
acaktır
acar
acara
acb
access
accessed
according
account
ace
acele
acem
acemi
acer
acid
acidini
acil
aconitum
across
act
acta
action
active
actor
actors
actress
acun
acı
acıbadem
acıg
acık
acıklar
acıkları
acıkların
acımasız
acın
acından
acının
ad
ada
adada
adadaki
adadan
adadı
adadır
adak
adaki
adalar
adalarda
adaları
adaların
adalarında
adalet
adaleti
adaletin
adalı
adam
adama
adamdır
adamla
adamlar
adamları
adamların
adamlarına
adamlarından
adamlarını
adamlarının
adams
adamı
adamıdır
adamın
adamının
adamıs
adan
adana
adanaspor
adanmıs
adanın
adapazarı
adapte
adapto
adası
adasına
adasında
adasındaki
adasını
adasının
aday
adaya
adaylar
adayları
adayların
adaylıg
adaylık
adaylıklar
adaylıkları
adayı
adayın
add
addclass
addison
additional
addır
ade
adedi
adelaide
adele
adem
aden
adet
adeta
adi
adidas
adil
adiye
adla
adlandırdı
adlandırdıg
adlandırma
adlandırmıs
adlandırılan
adlandırıldı
adlandırılmaktadır
adlandırılmıs
adlandırılır
adlandırılırlar
adlar
adlarla
adları
adlarında
adlarını
adlarının
adlarıyla
adler
adli
adliye
adlı
administration
adnan
ado
adobe
adolf
adres
adrese
adresi
adresinde
adresinden
adresine
adresini
adresleri
adrian
adriano
adriatico
adriyatik
adult
advance
advanced
adventure
adventures
adı
adıdır
adıg
adıge
adıkları
adıklarını
adılar
adım
adımlar
adımları
adımı
adımını
adın
adına
adında
adındaki
adından
adını
adının
adır
adıyaman
adıyla
ae
aek
aero
aerodinamik
aes
af
afak
afaka
afc
afet
afetler
affair
affairs
afgan
afganistan
afi
afife
afis
aforoz
africa
african
afrika
afrikalı
afrikan
afrin
afro
afrodit
afs
after
afyon
afyonkarahisar
ag
again
against
agamemnon
agatha
age
agency
agent
ages
agi
agm
agnes
ago
agora
agostini
agresif
agrippina
aguilera
ah
aha
ahamenis
ahan
ahane
ahi
ahin
ahinbey
ahit
ahka
ahl
ahla
ahlak
ahlaki
ahlar
ahlat
ahmad
ahmed
ahmet
ahn
ahs
ahsa
ahsen
ahsi
ahsı
ahsın
ahtapot
ahı
ahın
ahıs
ahıska
ahısla
ahıslar
ahıslara
ahıslardan
ahısların
ai
aid
aida
aids
aik
aile
ailede
aileden
aileler
aileleri
ailelerin
ailelerinden
ailelerine
ailelerinin
ailenin
ailesi
ailesinde
ailesinden
ailesine
ailesini
ailesinin
ailesiyle
aileye
aileyi
aime
ain
air
airbus
aircraft
aires
airi
airin
airler
airleri
airlerin
airlines
airport
airways
ais
aise
ait
aitti
aittir
aj
ajan
ajanlar
ajanları
ajans
ajansı
ajanı
ajax
ajda
ak
aka
akabinde
akad
akademi
akademik
akademisi
akademisinde
akademisyen
akademisyenler
akademisyenleri
akal
akale
akalın
akan
akar
akarsu
akarsular
akaryakıt
akay
akbaba
akbas
akbulut
akc
akcig
akdag
akdeniz
akdog
aker
akgu
akhilleus
akhisar
aki
akif
akir
akira
akka
akkaya
akkoyunlu
akkurt
akla
aklar
aklara
aklarda
akları
akların
aklarının
aklı
aklın
aklına
akmak
akman
ako
akon
akp
akpınar
akraba
akrabaları
akrabalık
akrabası
akran
akrep
aks
aksa
aksaray
aksavar
aksesuar
aksi
aksine
aksiyon
aksoy
aksu
akta
aktan
aktaran
aktardı
aktardıg
aktarma
aktarmıs
aktarılan
aktarıldı
aktarılması
aktarılmıs
aktarılır
aktarım
aktarımı
aktarır
aktas
aktif
aktive
aktivist
aktivisti
aktivistler
aktivistleri
aktivite
aktiviteler
aktiviteleri
aktivitesi
akto
aktris
aktu
aku
akustik
akut
akvaryum
akyazı
akyol
akyu
akı
akıcı
akıl
akılda
akıllı
akım
akımlar
akımları
akımı
akımın
akımına
akımını
akımının
akın
akıncı
akınlar
akınları
akır
akıs
al
ala
alaaddin
alabama
alabileceg
alabilir
alabilirler
alabilmek
alac
alaca
alacag
alacak
alacakaranlık
alacakları
alacaklı
alacaktı
alacaktır
aladag
alaeddin
alain
alakalı
alakası
alalım
alama
alamadı
alamadıg
alamamıs
alamayan
alamaz
alan
alana
alanda
alandaki
alandan
alandı
alandır
alanlar
alanlara
alanlarda
alanlardaki
alanlardan
alanları
alanların
alanlarına
alanlarında
alanlarındaki
alanlarından
alanlarını
alanlarının
alanması
alanmıs
alanya
alanyaspor
alanı
alanıdır
alanın
alanına
alanında
alanındaki
alanından
alanını
alanının
alar
alara
alarak
alardan
alarm
aları
aların
alarına
alarından
alarını
alarının
alas
alaska
alay
alaycı
alayı
alb
alba
albania
albany
albay
albayrak
albert
alberta
alberti
alberto
albion
albirex
albrecht
albu
album
albums
alc
aldershot
aldo
aldı
aldıg
aldık
aldıkları
aldıklarını
aldıktan
aldılar
aldım
aldıran
ale
alec
alejandro
aleksandar
aleksander
aleksandr
aleksandros
aleksey
aleksios
alem
alemdar
alemdarog
alenen
alerjik
alessandro
alet
aleti
aletler
aletleri
aletlerin
aleut
alev
alevi
alex
alexa
alexander
alexandra
alexandre
alexis
aleyhinde
aleyhine
alfa
alfabe
alfabesi
alfabesinde
alfabesini
alfabesinin
alfabetik
alfonso
alfred
alfredo
algaz
algoritma
algoritmalar
algoritmaları
algoritması
algı
algılama
algılanan
algılar
algısı
ali
aliag
alias
aliases
alibeyko
alice
alicia
alien
align
alignbars
alim
alis
alison
alive
aliye
aliyev
alkali
alkan
alkol
alkollu
alkıs
all
alla
allah
allaha
allahın
allan
alle
allegro
allen
allentown
alliance
allison
allmusic
allsvenskan
allı
alma
almadan
almadı
almadıg
almak
almakla
almakta
almaktadır
almaktaydı
almaları
almamıs
alman
almanca
almanlar
almanların
almanya
almanyası
almanın
alması
almasına
almasından
almasını
almasının
almasıyla
almatı
almaya
almayan
almayı
almaz
almeida
almeri
almost
almıs
alone
along
alonso
alopecosa
alp
alparslan
alpaslan
alpay
alper
alpes
alpha
alpler
alpleri
als
alsa
alsancak
also
alt
alta
altan
altarpiece
altay
alter
alternatif
alternative
altfamilyasına
altichiero
altku
altma
altmıs
altnames
alto
altta
alttaki
alttakımına
alttan
altu
altug
altun
altyapı
altyapısı
altyapısına
altyapısında
altı
altın
altına
altıncı
altında
altındadır
altındag
altındaki
altından
altındaydı
altınordu
altıntas
altını
alu
alves
alvin
always
alzheimer
alı
alıcı
alık
alım
alımı
alın
alınabilir
alınacag
alınacak
alınan
alınarak
alınca
alındı
alındıg
alındıktan
alınma
alınmadan
alınmak
alınmaktadır
alınmalıdır
alınmamıs
alınması
alınmasına
alınmasından
alınmasını
alınmasının
alınmasıyla
alınmaya
alınmaz
alınmıs
alıntı
alıntılar
alınıp
alınır
alınırsa
alıp
alır
alırken
alırlar
alıs
alıyor
alıyordu
am
ama
amac
amaca
amacı
amacına
amacını
amacının
amacıyla
amada
amadan
amadeus
amadı
amadıg
amak
amakta
amaktadır
amaktadırlar
amaktaydı
amaları
amalarında
amalı
amamıs
aman
amanda
amanın
amas
amasya
aması
amasına
amasında
amasını
amasının
amato
amaya
amayan
amayı
amaz
amazing
amazon
amba
ambalaj
amber
amblemi
amblyomma
ambrogio
ambrose
ambulans
amc
amca
amcası
amcasının
amd
amda
amdan
ame
amelia
ameliyat
ameliyatı
america
american
amerika
amerikalı
amerikalılar
amerikalıların
amerikan
ames
amfibi
ami
amiga
amil
amin
amino
amir
amiral
amiri
amirlig
amlar
amları
amlarını
amlı
amlıca
amlıhems
amman
amme
amon
among
amonyak
amonyum
amor
amore
amos
amour
amp
ampirik
ampiyon
ampiyona
ampiyonada
ampiyonaları
ampiyonası
ampiyonasına
ampiyonasında
ampiyonasını
ampiyonaya
ampiyonlar
ampiyonları
ampiyonlug
ampiyonluk
ampiyonluklar
ampiyonlukları
ampiyonu
amplifikato
amr
amsal
amsterdam
amt
amur
amy
amı
amın
amına
amında
amını
amının
amıs
an
ana
anabilim
anabilir
anadili
anadolu
anahat
anahtar
anahtari
anahtarları
anahtarı
anak
anakara
anakin
anakkale
anaku
anal
analitik
analiz
analizi
analizler
analizleri
analog
analysis
anam
anamur
anan
anaokulu
anap
anars
anastasia
anası
anatolian
anatomi
anatomik
anatomisi
anatomy
anavatan
anavatanı
anayasa
anayasada
anayasal
anayasanın
anayasası
anayasasının
anayasaya
anayasayı
anc
ancak
anchor
ancient
ancona
ancı
and
anda
andaki
andan
andarlı
anderlecht
anders
andersen
anderson
andersson
andorra
andra
andre
andrea
andreas
andrei
andrew
andrews
andrey
android
andromeda
andronikos
andrzej
andy
andı
andıg
andır
andıran
andıs
anestezi
ang
angay
ange
angel
angela
angeles
angelico
angelina
angelo
angels
anghay
angle
anglikan
anglo
angola
angry
angus
ani
aniden
animal
animals
animasyon
animasyonlu
animasyonu
animated
animation
animato
anime
anita
anka
ankara
ankaragu
ankaraspor
ankaya
anket
ankete
anki
anksiyete
ankırı
anladı
anladıg
anladım
anlam
anlama
anlamak
anlamaya
anlamda
anlamlar
anlamlara
anlamları
anlamlarına
anlamlı
anlamsal
anlamsız
anlamı
anlamına
anlamında
anlamındadır
anlamındaki
anlamını
anlamıs
anlamıyla
anlar
anlara
anlarda
anları
anların
anlarının
anlas
anlatan
anlatmak
anlatmaktadır
anlatmaya
anlatmıs
anlattı
anlattıg
anlatı
anlatıcı
anlatılan
anlatıldıg
anlatılmaktadır
anlatılmıs
anlatılır
anlatım
anlatımı
anlatır
anlatırken
anlatıyor
anlayan
anlayınca
anlayıs
anlı
anlıg
anlık
anlısı
anlıurfa
anlıurfaspor
anma
anmak
anmaktadır
anmıs
ann
anna
annales
anne
anneler
anneleri
annem
annenin
annesi
annesidir
annesine
annesini
annesinin
annesiyle
annette
annie
anniversary
anno
annotated
annual
anomalileri
anonim
anormal
another
ans
ansiklopedi
ansiklopedik
ansiklopedisi
anslı
anso
ansı
ansını
ant
anta
antakya
antalya
antalyaspor
antarktika
antas
antası
ante
anten
antep
anthology
anthonomus
anthony
anthropology
anthurium
anti
antibiyotik
antico
antik
antikomu
antisemitizm
antlas
anto
antoine
antoinette
antolojisi
anton
antonello
antoni
antonia
antonio
antonius
antonov
antony
antrenman
antreno
antropolog
antropoloji
antwerp
anu
anvers
any
anya
anzıman
anı
anıl
anılan
anılar
anıları
anılarında
anılarını
anıldı
anılmaktadır
anılmaya
anılmıs
anılır
anın
anında
anır
anısına
anıt
anıtkabir
anıtlar
anıtları
anıtsal
anıtı
anıtın
ao
aog
ap
apa
apac
apache
apan
apartman
apartmanı
apel
apeli
apertura
api
apka
aplı
apo
apoel
apollo
apollodorus
apollon
apollonius
apostolik
app
apple
application
applications
applied
approach
approx
apraz
april
apsıg
apta
aptal
apı
apında
apındaki
aq
aquila
ar
ara
arab
araba
arabalar
arabaları
arabanın
arabası
arabasını
arabaya
arabayı
arabesk
arabi
arabia
arabic
arabirimi
arabistan
arabuluculuk
arabı
arabın
arac
araca
aracı
aracıdır
aracılıg
aracılık
aracın
aracına
aracını
aracının
arada
aradaki
aradan
aradı
aradıg
aradım
arafat
aragon
arak
araklı
araknolog
aral
aralar
araları
aralarında
aralarındaki
aralarından
aralıg
aralık
aralıklarla
aralıklı
aralıksız
aralıkta
aram
arama
aramada
aramadı
aramak
araması
aramaya
aramice
aramıs
aramızda
aran
aranan
aranjo
aranın
arap
arapc
araplar
arapları
arapların
arar
ararken
aras
arası
arasına
arasında
arasındadır
arasındaki
arasından
arasındaydı
arasını
araya
arayan
arayarak
arayu
arayıp
arayıs
arazi
arazide
araziler
arazilerde
arazileri
arazinin
arazisi
arazisinde
araziye
araziyi
arbor
arc
arcade
arch
archaeology
archer
archie
architect
architectural
architecture
architettura
archive
archived
archives
arctic
arctosa
ard
arda
ardahan
ardanuc
ardes
ardı
ardıc
ardılar
ardılı
ardına
ardında
ardından
ardıs
are
area
areas
arena
arenada
ares
aresiz
aret
areti
aretlenmis
aretler
aretleri
aretli
arezzo
arg
argentina
argo
argos
args
argu
arguments
arhavi
ari
aria
ariana
ariel
aries
arif
aris
aristo
aristokrat
aristoteles
aritmetik
arizona
arj
arjantin
arjantinli
arjantinliler
arjo
ark
arka
arkada
arkadan
arkadas
arkaik
arkansas
arkası
arkasına
arkasında
arkasındaki
arkasından
arkaya
arken
arkeolog
arkeologlar
arkeoloji
arkeolojik
arkeolojisi
arko
arktik
arkı
arkıcı
arkıcıdır
arkıcılar
arkıcıları
arkıcının
arkıcısı
arkıda
arkıdan
arkıdır
arkılar
arkılara
arkılarda
arkılardan
arkıları
arkıların
arkılarına
arkılarında
arkılarından
arkılarını
arkılarının
arkılarıyla
arkın
arkının
arkıs
arkısı
arkısıdır
arkısına
arkısında
arkısından
arkısını
arkısının
arkısıyla
arkıya
arkıyla
arkıyı
arlar
arles
arlington
arlı
arlıg
arlık
arm
arma
armada
armag
armageddon
arman
armand
arması
armenia
armenian
arms
armstrong
armut
army
armıha
armıs
arnavut
arnavutc
arnavutko
arnavutlar
arnavutluk
arnold
arnolfo
aromalı
aromatik
aron
around
arp
arpa
arpan
arpar
arparak
arpma
arpması
arptı
arptırıldı
arpıcı
arpım
arpımı
arpıs
array
arrest
arrondissement
arrondissementi
arrondissementin
arrow
ars
arsa
arsenal
arslan
art
arta
artan
artar
artarak
arte
artemis
arter
arthur
arthurian
article
articles
artist
artisti
artistic
artistik
artists
artlar
artlara
artlarda
artları
artlarına
artlarını
artlarının
artlı
artmaktadır
artması
artmasına
artmasıyla
artmaya
artmıs
arts
artsız
arttı
arttıg
arttıkc
arttır
arttıran
arttırdı
arttırmak
arttırmıs
arttırır
artuklu
artur
arturo
artvin
artı
artık
artıran
artırarak
artırdı
artırma
artırmak
artırmaya
artırmıs
artırılması
artırılmıs
artırır
artıs
artıyla
aru
arundel
arxiv
arya
aryan
arz
arzu
arzusu
arı
arıcılık
arıda
arıdan
arık
arıkan
arılar
arılara
arıları
arılarından
arılarını
arılı
arının
arır
arısı
arısına
arısından
arısını
arısının
arısız
arısızlıg
arısızlık
arısızlıkla
arıtma
arıya
arıyla
arıyor
arıyı
arıza
as
asa
asaf
asal
asamblesi
asanso
asar
asayis
ascochyta
asena
asfalt
asgari
ash
asha
ashgate
ashley
asi
asia
asian
asidi
asidin
asil
asimetrik
asimile
asist
asistan
asistanlıg
asistanı
asistini
asistle
asit
asitler
asitleri
ask
asker
askerden
askere
askeri
askerin
askerini
askerinin
askeriye
askeriyesi
askerle
askerler
askerlerden
askerlere
askerleri
askerlerin
askerlerine
askerlerini
askerlerinin
askerlig
askerlik
askıya
asla
aslan
aslanı
aslen
asli
asliye
aslı
aslında
asma
asp
aspergillus
aspx
asri
ass
assassin
assembly
assisi
associated
association
ast
asta
astana
aster
asteraceae
asteroit
aston
astra
astragalus
astrofizik
astronom
astronomi
astronomical
astronomik
astronomlar
astronomy
astronot
astsubay
asturias
asuka
asuman
asur
asya
asyalı
ası
asıdır
asıl
asılarak
asıllı
asılı
asım
asın
asına
asında
asından
asını
asının
asır
asıydı
asıyla
at
ata
atabask
atabey
atadı
atag
atak
atakan
atako
atal
atalanta
ataları
atalarının
atalay
atalca
atama
ataman
atan
atanan
atandı
atandıg
atanması
atanmıs
atanır
atar
atarak
atari
atarken
atas
ataso
atasoy
atası
atatu
atay
atc
ateist
ateistler
ateizm
ates
atfedilen
atfen
athena
athens
athletic
ati
atik
atilla
atina
atinalı
atkins
atladı
atlak
atlama
atlanta
atlantic
atlantik
atlantis
atlar
atları
atların
atlas
atlası
atlayarak
atlayıs
atle
atlet
atletizm
atletler
atletleri
atlı
atm
atma
atmadan
atmak
atmaları
atmanın
atması
atmasına
atmasını
atmaya
atmayı
atmosfer
atmosfere
atmosferi
atmosferik
atmosferin
atmıs
ato
atom
atomik
atomlar
atomları
atomların
atomu
atomun
atosu
atp
atsız
attack
attika
attila
attr
attı
attıg
attılar
atv
atı
atıcı
atıcılık
atıf
atıfta
atık
atılan
atılarak
atıldı
atıldıg
atılması
atılmıs
atılı
atılım
atılır
atın
atını
atıp
atıs
atısı
au
auckland
audi
audio
audrey
auf
auflage
aug
augsburg
august
augusta
auguste
augustin
augusto
augustus
aurelius
aurora
aus
auschwitz
austen
austin
australia
australian
austria
author
authority
authors
auto
automobile
auvergne
aux
auxerre
av
ava
available
avam
avant
avantaj
avantajları
avantajlı
avantajı
avar
avarlar
avatar
avcı
avcılar
avcıları
avcılıg
avcılık
avcısı
avdar
ave
avec
avengers
avenue
avery
aviation
avignon
avir
aviri
avirlig
avispa
aviv
avlanma
avlu
avm
avn
avni
avrasya
avril
avro
avrupa
avrupalı
avrupalılar
avrupalıların
avrupası
avs
avuc
avukat
avukatlar
avukatları
avukatlık
avukatı
avus
avustralya
avustralyalı
avusturya
avusturyalı
avusturyalılar
avı
award
awards
away
ax
axel
ay
aya
ayag
ayak
ayakkabı
ayaklanma
ayaklanmalar
ayaklanmaları
ayaklanmanın
ayaklanması
ayaklanmaya
ayaklanmayı
ayaklar
ayakları
ayaklı
ayakta
ayan
ayancık
ayanlar
ayanların
ayar
ayarak
ayarladı
ayarlanabilir
ayarlandı
ayarlanmıs
ayarlar
ayarları
ayas
ayasofya
ayaz
ayc
aycuma
ayda
aydan
aydemir
aydin
aydog
aydın
aydıncık
aydınlanma
aydınlar
aydınlatma
aydınlık
aydır
ayeli
ayet
ayetullah
aygu
aygıt
aygıtları
aygıtı
ayhan
ayin
aykara
aykur
aykut
aykırı
ayla
aylag
aylak
aylar
aylarca
aylarda
ayları
aylarında
aylin
aylıg
aylık
ayn
ayna
aynalar
aynalı
aynen
ayni
aynı
aynıdır
ayrı
ayrıca
ayrıcalıklı
ayrık
ayrılabilir
ayrılacag
ayrılan
ayrılarak
ayrıldı
ayrıldıg
ayrıldıktan
ayrıldılar
ayrılma
ayrılmadan
ayrılmak
ayrılmaktadır
ayrılması
ayrılmasına
ayrılmasından
ayrılmasını
ayrılmasının
ayrılmasıyla
ayrılmaya
ayrılmaz
ayrılmıs
ayrılıg
ayrılık
ayrılıkc
ayrılıp
ayrılır
ayrılırken
ayrılırlar
ayrılıs
ayrım
ayrımcılıg
ayrımcılık
ayrımı
ayrıntı
ayrıntılar
ayrıntıları
ayrıntılı
ayrıs
ays
aysel
aytac
aytekin
ayten
ayvacık
ayvalık
ayyıldız
ayı
ayın
ayına
ayında
ayındaki
ayından
ayının
ayıp
ayır
ayıran
ayırarak
ayırdı
ayırdıg
ayırma
ayırmak
ayırmıs
ayırt
ayırıcı
ayırır
ayıs
ayısı
az
aza
azad
azade
azak
azalan
azalar
azaları
azaldı
azaldıg
azalma
azalmaktadır
azalması
azalmasına
azalmaya
azalmıs
azaltan
azaltarak
azaltma
azaltmak
azaltmaya
azalttı
azalttıg
azaltılması
azaltılmıs
azaltır
azalır
azami
azası
azdı
azdır
azer
azerbaijan
azerbaycan
azerbaycanlı
azeri
azerice
azeriler
azi
azic
aziz
azize
azizeleri
aziziye
azizler
azlar
azlıg
azmi
azot
aztek
azul
azı
azından
azınlıg
azınlık
azınlıklar
azınlıkların
azərbaycan
b
ba
baal
baas
baasc
bab
baba
babacan
babadan
babalar
babaları
babalarının
babam
babanın
babası
babasıdır
babasına
babasından
babasını
babasının
babasıydı
babasıyla
babil
babu
baby
babylon
bac
bacag
bacak
bacaklar
bacakları
bach
bachelor
back
background
bacon
bad
badem
baden
bae
bafra
bafta
bag
bagaj
bagrat
baha
bahadır
bahamalar
bahane
bahar
baharat
baharı
baharında
bahc
bahia
bahis
bahr
bahreyn
bahri
bahriye
bahs
bahse
bahseden
bahseder
bahsedildig
bahsedilen
bahsedilir
bahsedilmektedir
bahsedilmis
bahsetmektedir
bahsetmis
bahsetti
bahsettig
bahsi
bahtiyar
bailey
bak
bakalım
bakan
bakanlar
bakanları
bakanlıg
bakanlık
bakanlıkc
bakanlıkları
bakanlıktan
bakanı
bakanın
bakar
bakarak
baker
baki
bakire
bakkal
bakmak
bakteri
bakteriler
bakterilerin
bakteriyel
baktı
baktıg
baku
bakı
bakıldıg
bakılmaksızın
bakım
bakıma
bakımdan
bakımı
bakımından
bakın
bakınız
bakır
bakırko
bakıs
bal
bala
balaban
baladları
balbay
balc
baldini
baldwin
bale
balesi
bali
balina
balinalar
balistik
balkan
balkanlar
ball
ballad
balo
balon
balta
baltimore
baltık
balı
balıg
balık
balıkc
balıkesir
balıkesirspor
balıklar
balıkları
balıkların
bamum
ban
bana
banaz
banco
band
bandı
bandırma
bandırmaspor
bang
bangkok
banglades
bank
banka
bankacılık
bankalar
bankaları
bankanın
bankası
banker
banks
banliyo
banner
bant
banu
banyo
baptist
baptiste
bar
bara
barack
baraj
barajlar
barajı
barajın
barajını
barak
baran
barbados
barbar
barbara
barbaros
barbarossa
barber
barbera
barcelona
barda
bardag
bardak
bardata
barek
bari
bariyer
bariz
barker
barnard
barnes
barney
barnstar
baro
barok
baron
baroque
barosu
barra
barrett
barrow
barry
barselona
bart
bartolomeo
barton
bartın
barut
barzani
barındıran
barındırdıg
barındırmaktadır
barındırır
barınma
barıs
bas
basamag
basamak
basamaklı
basan
basarak
basc
base
based
basel
basic
basil
basileios
basit
basitc
basitles
bask
basket
basketball
basketbol
basketbolcu
basketbolcudur
basketbolcular
basketbolcuları
basketbolu
baskı
baskıcı
baskılar
baskıları
baskın
baskınlar
baskını
baskının
baskısı
baskısında
baskısını
baskısıyla
baskıya
basma
basra
basri
bass
bastia
bastı
bastıg
bastırdı
bastırmak
bastırıldı
bastırılmıs
basılan
basıldı
basılmıs
basılı
basım
basımevi
basımı
basın
basına
basınc
basıncı
basında
basını
basının
basınında
bat
bataklık
batarya
bataryası
bateri
baterist
bates
bath
batista
batlamyus
batman
battal
battista
battle
battlefield
battı
batu
batuhan
batum
batur
batı
batıda
batıdaki
batıdan
batılı
batısı
batısında
batısındaki
batıya
baudouin
bauer
bavyera
bay
bayag
bayan
bayanlar
bayar
bayat
baybars
bayburt
bayer
bayern
bayezid
baykal
baykus
bayley
bayrag
bayrak
bayraklar
bayrakları
bayraklı
bayraktar
bayram
bayrampas
bayramı
baysal
bayt
bayındır
bayındırlık
baz
bazal
bazalt
bazen
bazilika
bazilikası
bazlı
bazı
bazıları
bazılarıdır
bazılarına
bazılarında
bazılarını
bazılarının
bazında
bb
bbc
bbp
bc
bd
bdp
be
beach
bean
bear
beast
beat
beatles
beato
beatrice
beatty
beautiful
beauty
beaux
bebeg
bebek
bebekler
bec
because
beceri
becerileri
becerilerini
becerisi
beck
becker
beckett
bed
bedava
bedel
bedeli
bedelsiz
beden
bedeni
bedenin
bedenini
bedensel
bedevi
bedfordshire
bedir
bedirhan
bedrettin
bedri
bee
been
beer
beethoven
before
beg
begin
beginning
begonia
begu
behavior
behc
behic
behind
behzat
bei
beijing
bein
being
bek
beka
bekar
bekc
beker
bekir
bekledig
bekleme
beklemek
beklemektedir
beklendig
beklenen
beklenir
bekleniyor
bekleniyordu
beklenmedik
beklenmektedir
beklentileri
beklentisi
bekler
beklerken
bekleyen
bekta
bektas
bel
bela
belarus
belc
belde
beldeler
beldenin
beldesi
beldesinde
beldeye
belediye
belediyede
belediyedir
belediyeler
belediyeleri
belediyenin
belediyesi
belediyesinde
belediyesine
belediyesinin
belediyespor
belediyeye
belen
belfast
belge
belgede
belgelenmis
belgeler
belgelerde
belgelere
belgeleri
belgelerin
belgelerinde
belgelerini
belgelerinin
belgenin
belgesel
belgeseli
belgesi
belgesinde
belgesinin
belgeye
belgeyi
belgium
belgrad
beli
believe
beliren
belirgin
belirgindir
belirginles
belirir
belirledi
belirledig
belirleme
belirlemek
belirlemeye
belirlemis
belirlendi
belirlendig
belirlenecek
belirlenen
belirlenir
belirlenmesi
belirlenmesinde
belirlenmis
belirler
belirleyecek
belirleyen
belirleyici
belirli
belirsiz
belirsizdir
belirsizlig
belirsizlik
belirten
belirterek
belirti
belirtildi
belirtildig
belirtilen
belirtiler
belirtileri
belirtilir
belirtilmektedir
belirtilmemis
belirtilmis
belirtir
belirtirken
belirtisi
belirtiyor
belirtmek
belirtmektedir
belirtmis
belirtti
belirttig
belirttiler
belisarius
belize
belki
bell
bella
belle
belleg
bellek
bellekte
belli
bellini
bellmare
bellosi
below
ben
bence
bend
bende
benden
bender
bendi
bendinde
benedict
benekli
benfica
bengal
bengu
beni
benim
benimle
benimsedi
benimsedig
benimsemis
benimsenmis
benimseyen
benin
benito
benjamin
benlig
benlik
bennett
benny
benoit
benozzo
benson
bent
benz
benzedig
benzemektedir
benzer
benzerdir
benzeri
benzerlig
benzerlik
benzerlikler
benzersiz
benzeyen
benzin
benzinli
benziyordu
ber
beraat
beraber
berabere
beraberinde
beraberlig
beraberlik
beraberlikle
berat
berber
berberi
bereket
bereketli
berg
bergama
bergamo
bergen
berger
bergman
beri
berk
berkay
berke
berkeley
berkshire
berku
berlin
berliner
bermuda
bern
berna
bernard
bernardino
bernardo
bernd
bernhard
bernie
bernini
bernoulli
bernstein
berrak
berry
bert
bertaraf
bertolt
bertrand
berya
bes
besi
besim
besin
beslan
besleme
beslenen
beslenir
beslenirler
beslenme
besleyen
besni
best
beste
besteci
besteciler
bestecileri
bestecisi
besteka
besteledi
besteledig
bestelemis
bestelendi
bestelenen
bestelenmis
besteleri
bestesi
bet
beta
betc
beth
betimleyen
betis
beton
betonarme
better
betty
betu
between
beverly
bey
beya
beyan
beyanda
beyanları
beyannamesi
beyanı
beyanında
beyaz
beyazdır
beyazlar
beyazlı
beyazperde
beyazıt
beyde
beye
beygir
beyi
beyin
beyinde
beykent
beykoz
beyler
beylerbeyi
beylerbeylig
beyleri
beylig
beylik
beylikdu
beyni
beynin
beyog
beyonce
beyond
beypazarı
beyr
beyrut
beys
beyt
beytu
beyzbol
bez
bezi
bezleri
bf
bg
bhutan
bi
biat
bibcode
biber
bible
bibliography
bibliyografi
bibliyografya
bic
biden
bieber
bielefeld
bienali
big
biga
bigadic
bik
bikini
bil
bila
bilal
bilanc
bilbao
bild
bildig
bildirdi
bildirdig
bildirdiler
bildiren
bildirgesi
bildiri
bildirildi
bildirildig
bildirilen
bildirilir
bildirilmektedir
bildirilmis
bildirim
bildirimi
bildirir
bildirisi
bildirmek
bildirmis
bile
bilecik
bileg
bilek
bilen
bilerek
biles
bilet
bileti
bilge
bilgelig
bilgelik
bilgi
bilgic
bilgilendirme
bilgiler
bilgilere
bilgileri
bilgilerin
bilgilerini
bilgilerinin
bilgilerle
bilgili
bilgin
bilgini
bilginin
bilginleri
bilgisayar
bilgisayara
bilgisayarda
bilgisayarlar
bilgisayarlarda
bilgisayarları
bilgisayarların
bilgisayarlı
bilgisayarı
bilgisayarın
bilgisi
bilgisine
bilgisini
bilgisinin
bilgiye
bilgiyi
bilhassa
bilim
bilimci
bilimciler
bilimcisi
bilime
bilimi
bilimin
biliminde
biliminin
bilimkurgu
bilimler
bilimleri
bilimsel
bilinc
bilinci
bilindig
bilinen
bilinir
bilinirdi
bilinirler
biliniyor
biliniyordu
bilinmektedir
bilinmekteydi
bilinmemekle
bilinmemektedir
bilinmesi
bilinmeyen
bilinmeyenler
bilinmiyor
bilir
bilirkis
bilis
biliyor
biliyordu
biliyorsun
biliyorsunuz
biliyorum
biliyoruz
bilkent
bill
billboard
billie
billy
bilmedig
bilmek
bilmektedir
bilmem
bilmeyen
bilmez
bilmiyorum
bilo
bin
bina
binada
binalar
binalarda
binaları
binaların
binali
binanın
binası
binasına
binasında
binasını
binasının
binaya
binayı
binbas
binbir
binden
bine
binek
bing
bingen
bingo
bini
binicilik
binlerce
bint
binyıl
bio
biographical
biographie
biography
biological
biology
bipolar
bir
bira
biraz
birbiri
birbirinden
birbirine
birbirini
birbirinin
birbiriyle
birbirleri
birbirlerinden
birbirlerine
birbirlerini
birbirlerinin
birbirleriyle
birc
bird
birde
birden
birdenbire
birds
bire
birebir
birecik
birer
birey
bireyin
bireyler
bireylerde
bireylere
bireyleri
bireylerin
bireysel
birgu
biri
biridir
biriken
birikimi
birileri
birim
birimdir
birimi
birimidir
birimin
biriminde
birimine
birimini
biriminin
birimler
birimleri
birimlerin
birimlerine
birimlerini
birimlerinin
birinci
birincil
birincileri
birincilig
birincilik
birincilikle
birincisi
birinde
birinden
birine
birini
birinin
birisi
birisidir
birisini
birisinin
birisiydi
biriydi
biriyle
birkac
birles
birlig
birlik
birlikc
birlikler
birliklere
birlikleri
birliklerin
birliklerine
birliklerini
birliklerinin
birlikleriyle
birlikte
birliktelig
birliktelik
birmingham
birol
birs
birtakım
birth
birthday
bis
biseksu
bishop
bisiklet
bisikletc
bisikleti
bisku
bismarck
bismil
bissau
bit
bitcoin
biten
biter
biti
bitiminde
bitiminden
bitimine
bitince
bitirdi
bitirdig
bitirdikten
bitiren
bitirerek
bitirip
bitirme
bitirmek
bitirmis
bitis
bitki
bitkidir
bitkiler
bitkilerde
bitkileri
bitkilerin
bitkinin
bitkisel
bitkisi
bitlik
bitlis
bitmemis
bitmesi
bitmis
bitter
bitti
bittig
bittikten
biyo
biyografi
biyografik
biyografisi
biyokimya
biyolog
biyoloji
biyolojik
biyolojisi
biyoteknoloji
biz
bizans
bizanslı
bizanslılar
bizde
bizden
bize
bizi
bizim
bizimle
bizler
bizzat
bjk
bjo
bk
bkz
bl
black
blackberry
blackburn
blackpool
blackwell
blade
blair
blake
blanc
blanche
blanco
blank
blast
blazers
blind
blis
bliss
bloch
block
blog
blok
bloke
bloklar
blokları
bloku
blood
bloom
bloomberg
blu
blue
blues
bluetooth
blum
blunt
bm
bmatrix
bmg
bmw
bn
bnan
bnanlı
bni
bnu
bo
boa
board
boat
bob
bobby
bobin
boca
bochum
bodies
bodrum
body
boeing
boemondo
boer
bog
bogdan
bohemya
bohr
bois
boks
bokso
bol
bolca
bold
boldsymbol
boli
bolivya
bollug
bolluk
bollywood
bologna
bols
bolton
bolu
boluspor
bomb
bomba
bombalama
bombalar
bombaları
bombalı
bombanın
bombardıman
bombardımanı
bombası
bon
bonapart
bonaparte
boncuk
bond
bone
bones
bonn
bonnie
bonservis
bonus
boogie
book
booker
books
boom
boone
boot
booth
bor
bora
boran
borc
borcu
borcunu
bordeaux
border
bordo
borgia
boris
born
borneo
bornova
borough
borsa
borsası
boru
borussia
borusu
bos
bosch
bose
bosna
bosnalı
boss
bostancı
boston
bosworth
bot
botanical
botanik
botanikc
both
botsvana
botticelli
bottom
botu
boucher
boulder
bound
bourbon
bow
bowie
bowl
box
boy
boya
boyabat
boyalı
boyama
boyanmıs
boyd
boydell
boykot
boyları
boylarında
boylarının
boyle
boylu
boynu
boynuz
boynuzlu
boys
boyu
boyun
boyuna
boyunca
boyunda
boyundaki
boyundan
boyunun
boyut
boyuta
boyutlar
boyutlarda
boyutları
boyutlarında
boyutlu
boyutta
boyutu
boyutuna
boyutunda
boyutunu
boyz
boz
bozan
bozcaada
bozdog
bozdu
bozguna
bozkurt
bozkır
bozmak
bozu
bozuk
bozuklug
bozukluk
bozukluklar
bozuklukları
bozulan
bozuldu
bozuldug
bozulma
bozulması
bozulmasına
bozulmaya
bozulmus
bozulur
bp
br
bra
brabant
brad
bradford
bradley
brady
braga
brahim
braille
brain
bram
brancacci
branch
brand
brandenburg
brandon
brani
branice
branko
brans
brasil
bratislava
braun
braunschweig
brave
bravo
brazil
braziller
bre
break
breaking
brecht
breda
brejnev
brek
bremen
brendan
brennan
brent
brepols
brescia
breslau
brest
breton
brett
brewer
brezilya
brezilyalı
brian
bride
bridge
bridges
brief
brien
bright
brighton
brill
bring
brisbane
bristol
brit
britain
britannica
britanya
britanyalı
britanyalılar
british
britney
britt
broadcasting
broadway
brock
broken
bromwich
brons
bronx
bronz
bronze
brook
brooke
brooklyn
brooks
bros
brother
brothers
brown
browning
bru
bruce
bruegel
brugge
brunei
brunelleschi
bruno
brunswick
bryan
bryant
bs
bt
btp
bts
bu
buba
buc
buca
bucag
bucak
bucaktır
bucaspor
buchanan
buck
buckinghamshire
bucks
bucures
buda
budak
budapes
budapest
buddy
budin
budist
budizm
budizmi
budur
buena
buenos
buffalo
buffy
bug
bugu
buhar
buhara
buharlas
buharlı
buhran
build
builder
building
buildings
bul
bulamadı
bulamamıs
bulamayan
bulan
bulancak
bulanık
bularak
bulas
buldan
buldu
buldug
buldukları
buldular
buldum
bulgar
bulgarca
bulgaria
bulgaristan
bulgarlar
bulgarların
bulgu
bulgular
bulguları
bull
bullet
bulletin
bullets
bulls
bulma
bulmaca
bulmak
bulmaktadır
bulması
bulmaya
bulmus
bulunabilir
bulunacag
bulunacak
bulunamadı
bulunamamıs
bulunan
bulunanlar
bulunanların
bulunarak
bulundu
bulundug
bulundukları
bulunduktan
bulundular
bulunduran
bulundurarak
bulundurdug
bulundurmaktadır
bulundurur
bulunma
bulunmadı
bulunmadıg
bulunmak
bulunmakla
bulunmakta
bulunmaktadır
bulunmaktaydı
bulunmamaktadır
bulunmaması
bulunmamıs
bulunması
bulunmasına
bulunmasından
bulunmasını
bulunmaya
bulunmayan
bulunmaz
bulunmus
bulunsa
buluntular
buluntuları
bulunulan
bulunuldu
bulunulmus
bulunup
bulunur
bulunurdu
bulunurken
bulunurlar
bulunuyor
bulunuyordu
bulup
bulur
bulurlar
bulus
bulut
bulutlar
bulutsu
bulutsusu
bulutu
bulvarı
bun
buna
bunda
bundan
bundesliga
bundy
bunlar
bunlara
bunlarda
bunlardan
bunlarla
bunları
bunların
bunny
bunu
bunun
bununla
burada
buradaki
buradan
burak
buralarda
buranın
burası
buraya
burayı
burc
burcu
burda
burdur
bureau
burger
burgonya
burhan
burjuva
burke
burkina
burlington
burma
burn
burnett
burning
burnley
burns
burnu
burs
bursa
bursaspor
bursu
burt
burton
burun
burundi
burunlu
bury
bus
busan
bush
bushido
business
but
butler
butterfly
button
buyrug
buyruk
buz
buzlu
buzul
buzullar
buzulu
bwv
by
bye
byrne
byron
byzantine
byzantium
bı
bıc
bırak
bırakan
bırakarak
bırakma
bırakmak
bırakması
bırakmaya
bırakmıs
bıraktı
bıraktıg
bıraktıktan
bıraktılar
bırakılan
bırakıldı
bırakıldıg
bırakılması
bırakılmasını
bırakılmıs
bırakılır
bırakın
bırakıp
bırakır
bıyıklı
c
ca
cad
cadbury
cadde
caddesi
cadele
cadelede
cadeleler
cadeleleri
cadelenin
cadelesi
cadelesinde
cadelesine
cadelesini
cadelesinin
cadeleye
cadeleyi
cadı
cadılar
caen
caesar
caf
cafe
cafer
cag
cage
cagliari
cahit
cal
calabria
calan
calcio
calendar
cali
calif
california
caligula
call
called
calvin
cam
cambridge
cambridgeshire
camdan
came
cameo
camera
cameron
cami
camidir
camii
camiler
camileri
camille
caminin
camisi
camiye
camp
campaign
campania
campanile
campbell
campeonato
campo
camus
can
canada
canadian
canal
canan
canavar
canavarı
cancer
candan
candy
caner
canik
canlandıran
canlandırdı
canlandırdıg
canlandırma
canlandırmak
canlandırmaktadır
canlandırmıs
canlandırılan
canlandırıldı
canlandırılmıs
canlı
canlılar
canlıları
canlıların
canlının
cannes
cannon
canon
cansız
canterbury
cantini
cantrell
canvas
canyon
canı
canım
canını
cao
cap
cape
capital
capitol
cappella
captain
caption
car
cara
caravaggio
card
cardiff
care
career
carex
carey
cargo
cari
caribbean
carl
carla
carlisle
carlo
carlos
carlton
carmen
carnegie
carol
carolina
caroline
carpenter
carr
carranza
carrie
carrier
carroll
cars
carson
carter
cartoon
cas
casa
case
cases
casey
cash
casino
casper
cass
cassa
cassius
cast
castagno
castello
castillo
castle
castro
casus
casusluk
cat
catalogo
catalogue
catalunya
catarina
catch
category
caterina
cathedral
catherine
catholic
cato
cats
cauchy
cause
cava
cavaliers
cavallini
cave
cavendish
cavit
caz
cazibe
cb
cbc
cbs
cc
ccar
ccarlar
cd
cdot
cdots
cdu
ce
ceara
cebeci
cebel
cebelitarık
cebir
cebirsel
cecchi
ceceli
cecil
cecilia
cedid
cedric
ceg
cehennem
cehenneme
cek
ceket
cekler
cekleri
cel
cela
celal
celaleddin
celer
celil
celile
cell
celta
celtic
celtics
cem
cema
cemaat
cemaati
cemaatin
cemaatinin
cemal
cemil
cemile
cemiyet
cemiyeti
cemiyetin
cena
cenaze
cenazesi
ceneviz
cenevre
cengiz
cenk
cennet
cennete
cenneti
cenova
census
cent
center
central
centre
centro
centuries
century
ceo
cep
cephane
cephe
cephede
cepheden
cephenin
cephesi
cephesinde
cephesindeki
cephesine
cephesinin
cepheye
ceren
ceres
cereyan
cerezo
cermen
cern
cerrah
cerrahi
cerrahisi
cerrahpas
cerro
certain
cesare
cesaret
cesareti
cesaro
cesedi
cesedini
cesena
ceset
cesetleri
cesur
cev
ceva
cevaben
cevabı
cevabını
cevahir
cevap
cevaplar
cevat
cevdet
cevher
cevheri
ceviz
cevizi
ceyhan
ceyhun
ceylan
ceza
cezaevi
cezaevinde
cezaevinden
cezaevine
cezai
cezalandırılması
cezalandırılır
cezalar
cezaları
cezanın
cezası
cezasına
cezasını
cezasının
cezayir
cezayirli
cezayı
cezire
cf
cfg
ch
cha
chad
chain
chains
challenge
challenger
chamber
chamberlain
chambers
champion
championnat
champions
championship
championships
chan
chance
chandler
chang
change
changes
changing
channel
chaos
chapel
chaplin
chapman
chapter
character
characters
charge
charity
charles
charleston
charlie
charlotte
charlton
chart
charter
charts
chase
che
check
cheiracanthium
chelsea
chemical
chemistry
chen
cheney
cher
cherokee
cherry
cheshire
chess
chester
chevrolet
chi
chiara
chiba
chicago
chichester
chief
chiesa
child
children
chile
chin
china
chinese
chirac
chloe
cho
chocolate
choi
choice
chomsky
chong
chopin
chp
chris
christ
christian
christiansen
christie
christina
christine
christmas
christoph
christophe
christopher
chrome
chronicle
chronicles
chrysler
chrysometa
cht
chu
chuck
chun
chung
church
churchill
ci
cia
cibuti
cicero
cichlidae
cid
cidde
ciddi
ciddiye
cide
cig
cihan
cihangir
cihat
cihaz
cihaza
cihazda
cihazlar
cihazlarda
cihazları
cihazların
cihazı
cihazın
cilalı
cildi
cilt
ciltlik
ciltte
cimabue
cin
cinayet
cinayeti
cinayetin
cinayetler
cinayetleri
cinayetten
cincinnati
cindy
cine
cinema
cins
cinsel
cinsellig
cinsellik
cinsi
cinsidir
cinsin
cinsinden
cinsine
cinsinin
cinsiyet
cinsiyetc
cinsiyete
cinsiyeti
cinsler
cinsleri
cinstir
cio
circ
circle
circuit
circus
cirit
cis
cisim
cisimler
cisimleri
cisimlerin
cismi
cismin
citation
cite
cited
cities
citizen
citroe
citta
city
ciudad
civarı
civarına
civarında
civarındadır
civarındaki
civil
civilization
cizre
cizvit
cj
cjk
ck
cken
cl
claims
claire
clara
clare
claredon
clarence
clarendon
clark
clarke
clarkson
clash
class
classic
classical
classics
classification
claude
claudia
claudio
claudius
claus
clausura
clay
clayton
cle
clean
clear
clemens
clement
clermont
cleveland
cliff
clifford
climate
clinical
clint
clinton
clio
clippers
clive
clock
close
closer
cloud
club
clyde
cm
cn
cnn
co
coach
coast
coat
cobain
cobra
coca
code
codex
cody
coffee
cog
cohen
col
cola
cold
coldplay
cole
coleman
coli
colin
collaboration
collected
collection
collections
collectors
college
collezionismo
collezionisti
collins
colo
colombia
colon
color
colorado
colors
columbia
columbus
column
com
combat
combining
come
comedy
comes
comic
comics
coming
command
commander
commentary
commission
commissions
committee
commodore
common
commons
commonwealth
communication
communications
community
como
compact
companion
company
compaq
comparative
compatibility
competition
complete
completo
complex
component
compton
computer
computing
comte
con
conan
concacaf
concat
concept
concert
concerto
conde
conference
conflict
congress
conmebol
conn
connecticut
connection
connor
conquest
conrad
consadole
conservation
constant
constantinople
constitution
construction
contact
contemporary
content
contest
context
continental
continents
control
convention
conway
cook
cool
cooper
cop
copa
coppa
copy
corbin
cordelia
core
corey
corinthians
cornelius
cornell
corner
cornwall
corporation
corps
corpus
corte
cortex
cortinarius
corun
cos
cosimo
costa
could
council
count
countdown
counter
countries
country
county
coupe
course
court
courtney
courts
cov
coventry
cover
covid
cox
cp
cpu
cr
cra
craft
craig
crane
crash
crawford
crazy
cre
cream
create
creation
creative
crede
creed
creek
creighton
creler
crelerde
crelere
creleri
crelerin
crelerinde
crelerinin
creli
crenin
cresel
cresi
cret
creti
cretler
cretleri
cretli
cretsiz
crew
creye
crime
criminal
crimson
crisis
cristiano
cristina
cristo
critical
critics
croce
cromwell
cropped
cross
crossing
crossroads
crow
crown
cruise
cruz
crvena
cry
crystal
cs
csi
cska
css
ct
ctor
cu
cuba
cube
cuda
cudu
cudun
cuduna
cudunda
cudunu
cudunun
cullen
cult
cultura
cultural
culture
cum
cuma
cumali
cumartesi
cumbria
cumhur
cumhurbas
cumhuriyet
cumhuriyetc
cumhuriyeti
cumhuriyetin
cumhuriyetinin
cumhuriyetler
cumhuriyetleri
cuneiform
cunningham
cunta
cup
cupola
cura
curculionidae
cure
curie
current
curry
curtis
custom
cut
cutta
cv
cw
cx
cybaeus
cyclo
cynthia
cyperus
cyprinidae
cyprus
cyril
cyrillic
cyrus
cz
cı
cılar
cılık
cıva
d
da
dabi
dac
dad
daddi
daddy
dadi
dadiani
dadır
dae
dafaa
dafi
dag
daha
dahale
dahalesi
dahası
dahi
dahil
dahildir
dahili
dahilinde
dahiliye
dai
daily
daima
daimi
daimler
dair
daire
daireler
daireleri
dairenin
dairesel
dairesi
dairesinde
dairesine
daisuke
daisy
dakar
daki
dakika
dakikada
dakikadan
dakikalarda
dakikalarında
dakikalık
dakikasında
dakikaya
dakka
dakota
dal
dalda
dale
dalga
dalgalar
dalgaları
dalgaların
dalgalarının
dalgalı
dalganın
dalgası
dalgıc
dali
dalla
dallar
dalları
dallarında
dallas
dalmac
dalton
dalı
dalıdır
dalında
dalıs
dam
damadı
damak
damar
damarlar
damat
dame
damga
damgasını
damien
damla
damon
dan
dana
danca
dance
dancing
danger
dangerous
dani
daniel
daniela
danielle
daniels
danimarka
danimarkalı
danis
danny
dans
dansc
dansları
dansı
dante
danzig
danıs
dar
darbe
darbeler
darbenin
darbesi
darbeye
darbeyi
darbeyle
dare
dareler
daresi
dari
dario
darius
dark
darkgrey
darkness
darling
darlıg
darmstadt
darog
darp
darren
dart
darth
daru
darwin
daryl
das
dash
dat
data
database
datavalue
date
dateformat
dates
daughter
daum
dava
davada
davalar
davalarda
davaları
davanın
davası
davasında
davasını
davasının
davaya
davayı
dave
davet
daveti
david
davidson
davies
davis
davit
davranan
davrandıg
davranır
davranıs
davud
davul
davulcu
davullar
davut
davutog
dawn
dawson
day
dayalı
dayalıdır
dayanag
dayanak
dayanan
dayanarak
dayandıg
dayanmaktadır
dayanıklı
dayanıklıdır
dayanıklılıg
dayanıklılık
dayanılarak
dayanır
dayanıs
dayanıyor
dayanıyordu
dayken
days
dayı
dayısı
db
dc
dd
ddet
ddevle
ddin
ddr
de
dea
dead
deadly
deal
dean
dear
death
debian
deborah
debut
dec
december
decision
decline
dede
dedektif
dedekto
dedesi
dedi
dedig
dedik
dedikleri
dediler
dedim
dedir
dee
deep
def
defa
defalarca
defans
default
defence
defense
define
defne
defnedildi
defnedilenler
defnedilmis
defter
defteri
defterinde
defterine
deg
degli
dehs
dehu
dei
dek
dekan
dekanları
dekanı
deki
dekor
dekoratif
dekore
del
delaware
delege
delhi
deli
delig
delik
delikanlı
delikler
delikli
delil
deliller
dell
della
delle
dello
delphacini
delta
deltası
deluxe
dem
deme
demec
demek
demektedir
demektir
demeler
demeleri
demesi
demet
demeye
demeyi
demi
demir
demirci
demirel
demiro
demirspor
demirtas
demiryolları
demiryolu
demiryolunun
demis
demo
democracy
democratic
demografi
demografik
demokrasi
demokrasinin
demokrasiye
demokrasiyi
demokrat
demokratik
demokratikles
demokratlar
demon
den
dendi
dendig
dene
denecek
denedi
deneg
denek
deneme
denemeler
denemeleri
denemesi
denen
denetc
denetim
denetimi
denetimine
denetleme
denetlemek
deney
deneyi
deneyim
deneyimi
deneyimini
deneyimleri
deneyimlerini
deneyimli
deneyin
deneyler
deneyleri
deneysel
denge
dengeli
dengesi
dengesini
dengesiz
dengeyi
denildi
denilen
denilir
denilmektedir
denilmis
denir
denis
denise
deniz
denizaltı
denizaltısı
denizas
denizci
denizciler
denizcilik
denizde
denizden
denize
denizi
denizin
denizler
denizlerde
denizli
denizlispor
denk
denklem
denklemi
denklemin
denklemler
denklemleri
denktas
denli
denmektedir
denmesi
denmis
dennis
denver
departamento
departmanı
departmanında
department
deplasman
deplasmanda
deplasmanlı
deplasmanında
depo
depolama
depolanan
deportivo
deposu
deprem
depremde
depremi
depremin
depremler
depresif
depresyon
der
derbent
derbi
derby
derbyshire
derdi
dere
derece
derecede
dereceden
derecelendirme
dereceler
dereceleri
dereceli
derecelik
derecesi
derecesine
derecesini
derecesiyle
dereceye
derek
dereko
dereli
deresi
derga
dergi
dergide
dergiler
dergilerde
dergileri
dergilerinde
derginin
dergisi
dergisinde
dergisinden
dergisine
dergisini
dergisinin
derhal
deri
derik
derin
derinden
derinlemesine
derinles
derinlig
derinlik
derinlikte
deris
derisi
derken
derleme
derlemesi
derlenen
derlenmis
derler
derleyen
derneg
dernek
dernekler
dernekleri
derrick
ders
dersi
dersim
dersler
dersleri
derslerine
derslerini
dert
dervis
derya
des
descartes
description
desen
desert
desiderio
design
desire
desmond
destan
destanı
desteg
destek
destekc
destekledi
destekledig
destekleme
desteklemek
desteklemektedir
desteklemeye
desteklemis
desteklendi
desteklenen
desteklenir
desteklenmektedir
desteklenmesi
desteklenmis
destekler
destekleyecek
destekleyen
destekleyici
destekli
destekliyor
destiny
destruction
det
detail
details
detay
detaylar
detayları
detaylı
detective
detroit
deutsch
deutsche
deutschen
deutscher
deutschland
deux
dev
deva
devam
devamlı
devamlılıg
devamı
devamında
devasa
deve
develi
development
devi
devil
devir
devirde
devle
devler
devlet
devletc
devlete
devleti
devletin
devletinde
devletine
devletini
devletinin
devletler
devletlerden
devletlere
devletleri
devletlerin
devletlerinde
devletlerine
devletlerinin
devlette
devletten
devon
devraldı
devralmıs
devre
devredildi
devredilmis
devrek
devreli
devresi
devretmis
devretti
devreye
devri
devrildi
devrim
devrimci
devrimciler
devrimi
devrimin
devriminin
devrimleri
devrin
devrinde
devrinin
devriye
devs
dewey
dexter
deyim
deyip
deyis
deyu
dezavantajları
df
dfb
dgm
dh
dharma
dhkp
di
dia
diamond
diamonds
diana
diane
diaries
diary
diaspora
diaz
dibiase
dibinde
dick
dickinson
dicle
dictionary
did
didem
didi
didier
die
diego
dies
diesel
diet
dieter
dietrich
diferansiyel
different
difu
dig
digimon
digit
digital
digiturk
dijital
dijon
dik
dikdo
diken
dikenli
dikey
dikildi
dikilen
dikili
dikilitas
dikilmis
dikis
dikkat
dikkate
dikkati
dikkatini
dikkatle
dikkatleri
dikkatli
dikmen
diktato
dil
dilber
dilbilgisi
dilbilim
dilbilimci
dilbilimciler
dilde
dilden
dildir
dile
diledi
diledig
dileg
dilek
dilekc
diler
dili
dilidir
dilim
dilimi
diliminde
dilin
dilinde
dilindeki
dilinden
diline
dilini
dilinin
diliyle
diliyorum
dille
diller
dillerde
dillerden
dillere
dilleri
dillerin
dillerinde
dillerinden
dillerine
dillerini
dillerinin
dilli
dilsel
dimitri
dimitrios
din
dinamig
dinamik
dinamo
dinar
dinc
dindar
dinden
dine
dinger
dini
dinin
dinine
dinini
dininin
dink
dinle
dinleme
dinlemek
dinlenen
dinlenme
dinler
dinlere
dinleri
dinlerin
dinleyici
dino
dinozor
dinsel
dinyeper
dio
diodorus
diogenes
dioksit
dion
dionysos
dip
dipinti
diploma
diplomasi
diploması
diplomat
diplomatik
diplomatlar
dipnot
dipnotlar
dir
dirac
direct
direction
director
directory
direg
direk
direksiyon
direkt
direkto
direnc
direnci
direnen
direnis
diri
dirilis
dirk
dirty
dis
disc
disco
discogs
discovery
disease
disiplin
disiplini
disiplinler
disk
diskalifiye
diski
diskin
disko
diskografi
diskografisi
disney
display
distribution
district
ditions
div
diva
divan
divanı
diversity
divine
divisie
divisio
division
divrig
dixon
diyabet
diyafram
diyagramı
diyalektik
diyalog
diyanet
diyarbakır
diyarbakırspor
diyarı
diye
diyen
diyerek
diyet
diyo
diyor
diyordu
diyorlar
diyorum
diyoruz
diz
dizayn
dize
dizel
dizi
dizide
dizideki
diziden
diziler
dizilerde
dizileri
dizilerinde
dizilerinin
dizilis
dizilmis
dizin
dizini
dizinin
dizisi
dizisidir
dizisinde
dizisindeki
dizisinden
dizisine
dizisini
dizisinin
diziye
diziyi
dizu
dj
djvu
dk
dl
dm
dman
dmc
dmitri
dna
dns
do
dobruca
doc
doctor
document
documentary
documents
dodge
does
dog
dogg
dogs
doha
doi
doksan
doktor
doktora
doktorasını
doktorlar
doktorların
doktoru
doktorun
doktrin
doktrini
doku
dokuma
dokunma
dokunmatik
dokunulmazlıg
dokusu
dokuz
dokuzuncu
dolan
dolandırıcılık
dolap
dolar
dolara
dolardan
dolarlık
doları
doların
dolas
dolaylarında
dolaylı
dolayı
dolayısı
dolayısıyla
dolduran
doldurma
doldurmak
doldurmus
doldurulmus
doldurulur
dolgu
doll
dollar
dolls
dolma
dolmabahc
dolması
dolmus
dolores
dolu
doludur
dom
domain
domates
dome
domenico
domestic
dominant
domingo
dominic
dominik
dominique
domuz
domuzu
don
donald
donanma
donanmanın
donanması
donanmasına
donanmasını
donanmasının
donanım
donanımları
donanımlı
donanımı
donatello
donato
donatılmıs
dondurma
done
donetsk
dong
donma
donmus
donna
donne
donovan
doo
doom
door
doors
dopamin
doping
dor
dora
doris
dormen
dorothy
dorset
dortmund
dorug
doruk
dos
dost
dostane
dostlar
dostları
dostlug
dostluk
dostoyevski
dostu
dostum
dosya
dosyada
dosyalar
dosyaları
dosyaların
dosyalarını
dosyanın
dosyası
dosyasında
dosyayı
dot
dots
douard
double
doubleday
doubt
doug
douglas
dover
down
download
doyle
doymus
doz
dp
dq
dr
dracula
draft
drag
dragon
dragons
drake
drakula
dram
drama
draması
dramatik
drassodes
drawings
dre
dream
dreams
drenaj
dresden
drew
dreyfus
dris
drive
driver
drogba
drop
drosera
drug
drum
drums
ds
dsc
dsi
dso
dsp
dt
dtp
du
dua
dual
duası
dub
dubai
dublaj
dublin
dublo
duccio
duck
dudak
dudley
due
duff
dug
duisburg
dukas
duke
dul
dulkadirog
duma
duman
dumanlı
dumas
dumbledore
dumlupınar
duncan
dundee
dunlop
dunn
duo
duomo
dur
durag
durak
duran
durant
durdu
durdug
durdurdu
durdurma
durdurmak
durdurmaya
durdurulan
durduruldu
durdurulması
durdurulmus
durdurur
durgun
durgunluk
durham
during
durma
durmadan
durmak
durmaktadır
durması
durmaz
durmus
dursun
dursunbey
duru
durum
duruma
durumda
durumdadır
durumdaki
durumdan
durumdaydı
durumdur
durumla
durumlar
durumlara
durumlarda
durumları
durumların
durumlarında
durumlarını
durumu
durumudur
durumun
durumuna
durumunda
durumundadır
durumundan
durumunu
durumunun
durur
durus
duruyor
dus
dust
dut
dutch
duty
duvar
duvara
duvarlar
duvarları
duvarların
duvarlarında
duvarlarının
duvarı
duvarın
duvarına
duvarında
duvarının
duyan
duyar
duyarlı
duyarlılıg
duyarlılık
duydu
duydug
duydukları
duygu
duygular
duyguları
duygularını
duygusal
duygusu
duymaya
duymus
duyu
duyulan
duyuldug
duyulur
duyunca
duyurdu
duyurmus
duyuru
duyuruldu
duyurulmus
duyusal
duyuyordu
dv
dvd
dwight
dx
dy
dying
dylan
dynamics
dynamo
dynasty
dyo
dyoda
dyoları
dyolarında
dyosu
dyosunda
dyoya
dyp
dz
dı
dır
dıs
e
ea
each
eagle
earl
early
earth
earthly
east
eastern
eastwood
easy
eat
eb
eba
ebbet
ebbu
ebe
ebedi
ebeke
eberhard
ebert
ebeveyn
ebeveynler
ebeveynleri
ebi
ebileceg
ebilen
ebilir
ebilmektedir
ebinkarahisar
ebnem
ebru
ebu
ec
ece
eceg
ecek
ecekler
ecekleri
ecekti
ecektir
ecevi
ecevit
echo
ecik
eclipse
economic
economics
economist
economy
ecw
eczacı
eczacıbas
eczacılık
ed
eda
eddie
eddin
eddy
ede
edebi
edebileceg
edebilecek
edebilen
edebilir
edebilirler
edebilmek
edebiyat
edebiyata
edebiyatc
edebiyatta
edebiyatı
edebiyatın
edebiyatına
edebiyatında
edebiyatının
edeceg
edecek
edecekti
edecektir
edeki
edelim
edemedi
edemedig
edememis
edemeyeceg
edemez
eden
edene
edenler
edenlere
edenlerin
eder
ederdi
ederek
ederim
ederiz
ederken
ederler
ederse
edessa
edgar
edge
edi
edici
edildi
edildig
edildikten
edildiler
edilebileceg
edilebilecek
edilebilen
edilebilir
edilebilmektedir
edileceg
edilecek
edilecektir
edilemeyen
edilemez
edilen
edilenler
edilerek
edilince
edilip
edilir
edilirdi
edilirken
edilirler
edilirse
edilis
ediliyor
ediliyordu
edilme
edilmeden
edilmedi
edilmedig
edilmek
edilmekte
edilmektedir
edilmekteydi
edilmeleri
edilmelidir
edilmemesi
edilmemis
edilmesi
edilmesidir
edilmesinde
edilmesinden
edilmesine
edilmesini
edilmesinin
edilmesiyle
edilmeye
edilmeyen
edilmez
edilmis
edilse
edin
edinburgh
edince
edindi
edindig
edinen
edinilen
edinilmis
edinir
edinme
edinmek
edinmis
edip
edir
edirne
edirnekapı
edis
edison
edit
edited
edith
edition
editions
edito
editor
editoriale
editors
editrice
ediyor
ediyordu
ediyorlar
ediyorlardı
ediyorum
ediyoruz
edizione
edizioni
edmond
edmund
edna
edo
edouard
edremit
eds
edu
eduard
eduardo
education
edward
edwards
edwin
ee
eee
eerste
ef
efe
efekt
efektler
efektleri
efeler
efendi
efendiler
efendim
efendisi
efes
effaf
effaflık
effect
effects
efi
efik
efl
eflak
efleri
eflig
efsane
efsaneler
efsaneleri
efsanesi
efsanevi
efsaneye
efsun
eftali
eg
ege
egemen
egemenlig
egemenlik
egg
ego
egu
egypt
egyptian
egzersiz
egzotik
egzoz
eh
ehf
ehir
ehircilik
ehirde
ehirdeki
ehirden
ehirdir
ehirler
ehirlerarası
ehirlerde
ehirlerden
ehirlere
ehirleri
ehirlerin
ehirlerinde
ehirlerinden
ehirlerine
ehirlerini
ehirlerinin
ehirles
ehirli
ehirspor
ehit
ehitkamil
ehitler
ehitlig
ehl
ehli
ehov
ehr
ehre
ehri
ehridir
ehrin
ehrinde
ehrindeki
ehrinden
ehrine
ehrini
ehrinin
ehristan
ehristanı
ehristanın
ehzade
ei
eight
eighteenth
ein
eine
einer
einstein
eintracht
eisenhower
ejder
ejderha
ek
ekber
ekc
eken
eker
ekerek
ekeri
ekerken
ekerleme
ekerler
ekerspor
eki
ekibe
ekibi
ekibin
ekibinde
ekibine
ekibini
ekibinin
ekibiyle
ekic
ekici
ekicidir
ekil
ekilde
ekildedir
ekildi
ekildig
ekildiler
ekilebilir
ekilen
ekilenler
ekilerek
ekili
ekilip
ekilir
ekilirken
ekilis
ekiller
ekillerde
ekilleri
ekilli
ekilme
ekilmek
ekilmesi
ekilmesine
ekilmesini
ekilmesinin
ekilmesiyle
ekilmeye
ekilmis
ekim
ekimi
ekiminde
ekiminin
ekimler
ekimleri
ekimsel
ekin
ekinci
ekinde
ekip
ekiple
ekipleri
ekiplerinden
ekipman
ekipmanları
ekipmanı
ekirdeg
ekirdek
ekirdekleri
ekirdekli
ekis
ekiyor
ekku
ekle
ekledi
eklem
ekleme
eklemek
eklemis
eklendi
eklendig
eklenebilir
eklenen
eklenerek
eklenir
eklenmesi
eklenmesiyle
eklenmis
eklenti
ekler
ekleri
eklerin
eklerle
ekles
ekleyerek
ekli
eklidir
eklig
eklik
eklinde
eklindedir
eklindeki
ekline
eklini
eklinin
ekliyle
ekme
ekmece
ekmeg
ekmek
ekmektedir
ekmeleddin
ekmesi
ekmeye
ekmeyi
ekmis
eko
ekoloji
ekolojik
ekolu
ekonomi
ekonomide
ekonomik
ekonominin
ekonomisi
ekonomisinde
ekonomisine
ekonomisini
ekonomisinin
ekonomist
ekonomistler
ekonomiye
ekonomiyi
ekosistem
ekoslovak
ekoslovakya
ekran
ekrana
ekranda
ekranlara
ekranı
ekranın
ekrem
eks
eksen
ekseni
ekseninde
eksenli
eksi
eksik
eksiklig
eksiklik
eksiksiz
ekspres
ekspresi
ekstra
ekstraklasa
ekte
ekten
ekti
ektig
ektir
eku
ekvador
ekvadorlu
ekvator
el
ela
elaine
elale
elalesi
elastik
elazıg
elbette
elbise
elbistan
elc
elde
eldeki
elden
elder
eldiven
ele
eleanor
elebi
electa
electric
electronic
electronics
eledi
elekto
elektra
elektrig
elektrik
elektrikli
elektriksel
elektro
elektrolit
elektromanyetik
elektron
elektronig
elektronik
elektronlar
elektronların
elektronun
elektrostatik
elektrot
eleman
elemanlar
elemanları
elemanlarının
elemanı
eleme
elemeler
elemelerde
elemeleri
elemelerinde
elemeli
element
elementin
elementler
elementleri
elementlerin
elements
elena
elendi
elendiler
elenen
elenerek
elenk
elenmis
eler
elerde
elerden
elere
eleri
elerin
elerinde
elerinden
elerine
elerini
elerinin
eleriyle
elerle
eles
eleven
eleyerek
elf
elfler
eli
elias
elievler
elif
elig
elik
elim
elimination
elimizde
elin
elinde
elindeki
elinden
eline
elini
eliot
eliptik
elis
elisa
elisabeth
elise
elit
elite
eliyle
elizabeth
ell
ella
elle
ellen
eller
ellere
elleri
ellerin
ellerinde
ellerindeki
ellerinden
ellerine
ellerini
elli
ellie
elliot
elliott
ellis
ello
elma
elmalı
elmas
elsa
else
elseif
elsevier
elton
elvan
elveda
elveris
elvis
em
ema
emanet
emanuel
eması
embe
ember
emberi
emberin
emdinli
eme
emedi
emeg
emek
emekc
emekli
emeklilig
emeklilik
emekliye
emel
emerson
emet
emevi
emeviler
emez
emi
emil
emile
emilia
emilio
emily
emin
emine
eminem
emino
emir
emirates
emirdag
emiri
emirler
emirleri
emirlig
emirlikleri
emis
emisyon
emlak
emma
emmanuel
emme
emmy
emniyet
emperor
emperyalist
empire
empty
emr
emrah
emre
emreder
emretmis
emretti
emri
emrinde
emrindeki
emrine
emrini
emriyle
ems
emseddin
emsettin
emsi
emu
en
encu
encyclopaedia
encyclopedia
encyclopædia
end
endeksi
endemik
ender
endig
endis
endonezya
endonezyalı
endu
ene
eneg
enek
enekler
enekleri
enel
enemy
ener
energy
enerji
enerjik
enerjili
enerjinin
enerjisi
enerjisine
enerjisini
enerjisinin
enerjiye
enerjiyi
enes
enfeksiyon
enfeksiyonu
enfekte
enflasyon
enformasyon
eng
engebeli
engel
engeli
engelledi
engelledig
engelleme
engellemek
engellemeye
engellemis
engellendi
engellenmesi
engellenmis
engeller
engelleri
engelleyen
engelli
engelliler
engels
engin
engine
engineering
england
english
engu
eni
enidir
enigma
enildi
enilen
enin
enine
enis
enisini
enistan
enjeksiyon
enjekte
enka
enkaz
enko
enlem
enlemi
enler
enleri
enlerin
enlerinin
enlig
enlik
enmis
enol
enough
enrica
enrico
enrique
ensemble
ensoy
enstitu
enstru
ent
entegrasyon
entegrasyonu
entegre
entelektu
enter
enternasyonal
enterprise
entertainment
enti
entity
entomolog
entre
entropi
entry
entu
envanter
enver
environment
environmental
enzim
enzimi
enzimler
enzo
eo
eosen
ep
epey
epic
epik
epir
episode
epitel
epsilon
epstein
er
era
erasmus
erbaa
erbakan
erbas
erbil
erc
ercan
ercis
erciyes
erciyesspor
ercu
erdal
erde
erdebil
erdek
erdel
erdem
erdemli
erden
erdi
erdig
erdikten
erdinc
erdir
erdirdi
erdog
ere
erebilir
erecek
eredivisie
eref
erefine
ereflikoc
ereg
erek
eren
erener
erenerol
erenko
erenler
erer
ergani
ergen
ergenekon
ergenlik
ergin
ergu
ergun
erh
erhan
eri
eria
eriat
eric
erich
erickson
ericsson
eride
eriden
eridi
erie
erif
erig
erik
erikler
erikleri
erikli
eril
eriler
erim
erime
erimis
erin
erinde
erinden
erine
erini
erinin
erir
eris
erisinde
erisindedir
erisindeki
erisinden
erisine
erit
eritler
eritli
eritre
erivan
eriye
eriyor
eriyordu
erka
erkal
erkan
erkeg
erkek
erkekler
erkeklerde
erkeklerden
erkeklere
erkekleri
erkeklerin
erkeklerle
erken
erkes
erkesler
erkesya
erkez
erkin
erkut
erlendirdi
erlendiren
erlendirildi
erlendirildig
erlendirilen
erlendirilir
erlendirilmektedir
erlendirilmesi
erlendirilmis
erlendirir
erlendirme
erlendirmek
erlendirmeler
erlendirmesi
erlendirmis
erler
erlere
erleri
erlerin
erlerinde
erlerinden
erlerine
erlerini
erlerinin
erleriyle
erli
erlidir
erlik
erlilig
erman
erme
ermektedir
ermekteydi
ermeni
ermenice
ermeniler
ermenileri
ermenilerin
ermenistan
ermesi
ermesinden
ermesinin
ermesiyle
ermeyen
ermez
ermik
ermis
ernest
ernesto
ernobil
ernst
ero
erog
eroin
erol
eros
erotik
erozyon
error
ers
ersan
erse
ersin
ersinde
ersiz
erso
ersoy
ertan
erteki
ertelendi
ertelenmis
ertem
ertesi
erto
ertosu
ertu
ertug
eruygur
erwin
erzak
erzincan
erzurum
erzurumspor
es
esa
esad
esaray
esaret
esas
esasen
esaslar
esaslara
esasları
esaslı
esasına
esat
esc
escape
esen
esenler
esenyurt
eser
eserde
eserdir
esere
eseri
eseridir
eserin
eserinde
eserinden
eserine
eserini
eserinin
eseriyle
eserler
eserlerde
eserlerden
eserlere
eserleri
eserlerin
eserlerinde
eserlerinden
eserlerine
eserlerini
eserlerinin
eserleriyle
esi
esidir
esin
esinde
esindeki
esinden
esine
esini
esinin
esinlenen
esinlenerek
esinlenmis
esir
esiri
esirleri
esiyle
eski
eskiden
eskimo
eskis
eskisi
eskrim
esma
esmer
esnada
esnaf
esnasında
esnek
esneklig
esneklik
esp
espan
espanyol
esperanto
espn
espresso
esra
esrar
esrarengiz
essay
essays
essen
essential
essex
est
este
ester
estetig
estetik
esther
eston
estonya
et
eta
etabı
etanol
etap
etaplar
etapta
etc
ete
eteg
etek
eteklerinde
etenin
eternal
etesi
ethan
ethem
ethernet
ethiopic
ethnic
eti
etig
etik
etiket
etiketi
etiketiyle
etimesgut
etimoloji
etimolojik
etin
etinkaya
etiyopya
etken
etkenler
etki
etkiledi
etkiledig
etkilemektedir
etkilemis
etkilendi
etkilendig
etkilenen
etkilenerek
etkilenir
etkilenmis
etkiler
etkilere
etkileri
etkilerin
etkilerinden
etkilerine
etkilerini
etkilerinin
etkiles
etkileyebilir
etkileyen
etkileyici
etkili
etkilidir
etkin
etkinin
etkinles
etkinlig
etkinlik
etkinlikler
etkinliklerde
etkinliklere
etkinlikleri
etkinlikte
etkisi
etkisinde
etkisinden
etkisine
etkisini
etkisinin
etkisiyle
etkisiz
etkiye
etkiyi
etler
etleri
etli
etme
etmede
etmeden
etmedi
etmedig
etmeg
etmek
etmekle
etmekte
etmektedir
etmektedirler
etmekten
etmekteydi
etmekti
etmektir
etmeleri
etmelerine
etmelerini
etmelidir
etmemesi
etmemis
etmenin
etmesi
etmesinden
etmesine
etmesini
etmesinin
etmesiyle
etmeye
etmeyeceg
etmeyen
etmeyi
etmez
etmis
etnik
etnografya
eto
etrafa
etrafı
etrafına
etrafında
etrafındaki
etrafını
etru
etse
etsin
ett
etti
ettig
ettik
ettikleri
ettiklerini
ettikten
ettiler
ettim
ettirdi
ettirdig
ettiren
ettirerek
ettirildi
ettirilen
ettirilmis
ettirir
ettirmek
ettirmis
etu
eu
eucalyptus
euge
eugen
eugene
euler
eun
euripides
euro
eurobasket
eurocup
euroleague
europa
europe
european
eurovision
ev
eva
evan
evans
evanston
evcil
evcilles
evde
evdeki
evden
eve
evede
evelyn
even
evening
event
events
ever
everest
everett
everton
every
everybody
everything
evesi
evesinde
evet
evi
evic
evidence
evik
evikler
eviklerin
evil
evin
evinde
evindeki
evinden
evine
evini
evinin
evirdi
evirdig
eviren
evirerek
eviri
eviriler
evirileri
evirir
evirisi
evirme
evirmek
evirmen
evirmenler
evirmis
evket
evki
evlat
evlatlık
evlendi
evlendig
evlendikten
evlendiler
evlenen
evlenerek
evlenip
evlenir
evlenme
evlenmek
evlenmesi
evlenmeye
evlenmis
evler
evlerde
evlere
evleri
evlerin
evlerinde
evlerine
evlerini
evlerinin
evli
evlidir
evlilig
evlilik
evlilikler
evlilikleri
evlilikten
evliya
evliydi
evo
evolution
evrak
evre
evrede
evredeki
evreden
evrelenmis
evreler
evrelerde
evreleri
evrelerinde
evreleyen
evren
evrende
evrendeki
evreni
evrenin
evreninde
evrensel
evresel
evresi
evresinde
evresindeki
evresinden
evresine
evresini
evresinin
evreye
evreyi
evrifaessa
evrildi
evrilen
evrilerek
evrili
evrilidir
evrilir
evrilmesi
evrilmis
evrim
evrimi
evrimic
evrimin
evrimles
evrimsel
evsiz
evvel
ex
example
excel
excerpt
exchange
executive
exeter
exhibition
exile
exo
exp
experience
experiment
experimental
explorer
expo
express
extended
extra
extreme
ey
eya
eyalet
eyalete
eyaleti
eyaletin
eyaletinde
eyaletindeki
eyaletinden
eyaletine
eyaletinin
eyaletler
eyaletlerde
eyaletleri
eyaletlerin
eyaletlerinde
eyalette
eyde
eyden
eydir
eye
eyed
eyes
eyh
eyhi
eyhu
eyi
eyin
eyle
eyledi
eylem
eylemde
eyleme
eylemi
eylemin
eylemler
eylemlerde
eylemlere
eylemleri
eylemlerin
eylemlerine
eylemlerini
eylemlerinin
eyler
eylerden
eylere
eyleri
eylerin
eylu
eymu
eyreg
eyrek
eytan
eytani
eytanın
eyu
eyvah
eyyu
eyyubi
eyyubiler
ez
ezeli
ezgi
ezici
ezra
f
fa
faa
faal
faaliyet
faaliyete
faaliyeti
faaliyetine
faaliyetini
faaliyetler
faaliyetlerde
faaliyetlere
faaliyetleri
faaliyetlerin
faaliyetlerinde
faaliyetlerinden
faaliyetlerine
faaliyetlerini
faaliyetlerinin
faaliyette
fabaceae
fabbri
faber
fabian
fabio
fabrika
fabrikada
fabrikalar
fabrikaları
fabrikanın
fabrikası
fabrikasında
fabrikasının
face
facebook
faces
faciası
fact
facto
factor
factory
facts
fade
fahis
fahrettin
fahri
faik
faili
fair
fairfield
fairy
faith
faiz
fakat
fakir
fakto
faku
falan
falcon
falkland
fall
fallen
falling
falls
false
fame
families
family
familya
familyadır
familyası
familyasıdır
familyasına
familyasında
familyasından
familyasının
famous
fan
fantastic
fantastik
fantasy
fantezi
far
farabi
faraday
fare
fareler
faresi
fark
farkla
farklar
farkları
farklı
farklıdır
farklılas
farklılıg
farklılık
farklılıklar
farklılıkları
farklıydı
farkı
farkına
farkında
farkındalıg
farkındalık
farm
farnese
farnham
faroe
fars
farsc
faruk
farz
fas
fashion
faslı
faso
fast
fasulye
fat
fate
father
fatih
fatma
fatsa
fatımi
fatımiler
faul
fauna
faunası
faust
favori
fay
fayard
fayda
faydaları
faydalı
faydası
faysal
faz
fazilet
fazla
fazladan
fazladır
fazlalıg
fazlası
fazlasını
fazlasının
fazlasıyla
fazlı
fazıl
fb
fbi
fc
fd
fda
fe
fear
fearless
feat
feature
features
featuring
feb
february
feda
feden
feder
federal
federasyon
federasyonu
federasyonun
federatif
federation
federe
federer
federico
fedildi
fedilen
fedilmis
feel
feeling
feet
feg
fehmi
fei
fek
fekc
fekler
fekleri
felaket
felaketi
felc
feleg
felek
felemenkc
felipe
felix
felsefe
felsefenin
felsefesi
felsefesinde
felsefesini
felsefesinin
felsefi
female
feminist
feministler
feminizm
femme
fen
fena
fener
fenerbahc
feneri
fenike
fenomen
fenomeni
feodal
fer
feragat
ferah
ferdi
ferdinand
ferenc
fergana
ferguson
ferhan
ferhat
feri
feribot
ferid
feride
feridun
feriko
ferit
ferman
fermanı
fermente
fermi
ferna
fernandes
fernando
ferrara
ferrari
ferreira
ferro
fes
feshedildi
feshedilen
feshedilmis
feshetti
fest
festival
festivalde
festivali
festivalin
festivalinde
festivaller
festivalleri
festuca
fet
feth
fethetti
fethi
fethinden
fethiye
fethullah
fetih
fetis
fetmek
fetmis
feto
fetti
fettig
fettis
fetu
fetva
fever
fevzi
feyenoord
feynman
feyyaz
fezleke
ff
ffa
fi
fia
fiat
fiba
fiber
fiction
fidan
fide
fidel
fidye
field
fields
fifa
fifteenth
fifth
fig
figaro
fight
fighter
fighters
fighting
figu
figure
figures
fiil
fiilen
fiili
fiiller
fiji
fikir
fikirler
fikirleri
fikirlerin
fikirlerini
fikret
fikri
fikrine
fikrini
fikrinin
fikstu
fil
fila
filan
filarmoni
fildis
file
files
fili
filibe
filip
filipin
filipinler
filipinli
filippino
filippo
filistin
filistinli
filiz
filler
film
filmde
filmdeki
filmden
filmdir
filme
filmi
filmidir
filmin
filminde
filmindeki
filminden
filmine
filmini
filminin
filmiyle
filmle
filmler
filmlerde
filmlerden
filmlere
filmleri
filmlerin
filmlerinde
filmlerinden
filmlerini
filmlerinin
filmleriyle
filmografi
filmografisi
films
filo
filogenetik
filoloji
filonun
filosu
filosuna
filosunu
filosunun
filozof
filozoflar
filozofları
filozofu
filtre
filtreleme
fin
final
finalde
finaldeki
finalden
finale
finali
finalin
finalinde
finaline
finalini
finalist
finaliste
finalisti
finalistten
finaller
finallerde
finallere
finalleri
finallerinde
finallerine
financial
finans
finansal
finanse
finansman
finansmanı
fince
find
fine
finlandiya
finn
fiona
fiore
fiorentina
fir
firar
firavun
fire
firefox
firenze
firma
firmalar
firmaları
firmaların
firmanın
firması
firmasının
first
fis
fischer
fish
fisher
fit
fitness
fitzgerald
fivb
five
fiyat
fiyatlar
fiyatları
fiyatı
fizig
fizik
fizikc
fiziki
fiziksel
fizikte
fizyoloji
fizyolojik
fk
fke
fkeli
fl
flag
flair
flaman
flamengo
flanders
flas
flash
flavius
fleet
fleming
flemish
flensburg
fletcher
flickr
flight
flo
floor
flor
flora
floransa
florası
florence
florentine
florenz
flores
florian
florida
flow
flower
flowers
floyd
flu
fly
flying
flynn
fm
fn
fo
foc
focus
fok
fokker
foley
folk
folklor
following
fon
fondazione
fonetik
fonksiyon
fonksiyonel
fonksiyonlar
fonksiyonları
fonksiyonların
fonksiyonu
fonksiyonun
fonksiyonunu
fonksiyonunun
fonları
font
fontaine
fontana
fontsize
fonu
food
foods
fool
foot
football
for
forbes
force
forces
ford
foreign
forest
forever
forli
form
forma
formasyonu
forması
formasını
formasıyla
format
formation
formatı
formatında
formayı
formda
former
formlar
formları
formu
formula
formuna
formunda
formunu
forrest
fort
fortress
fortuna
fortune
forum
forumu
forvet
forward
fosfat
fosfor
fosil
fosiller
fosilleri
foster
foto
fotog
foton
fotosentez
fotovoltaik
foucault
found
foundation
foundations
four
fourier
fourteenth
fourth
fowler
fox
fp
fps
fr
fra
frac
fragman
fragmanı
frame
framework
franc
france
frances
francesca
francesco
franchise
francis
francisco
franco
frank
frankenstein
frankfurt
frankie
franklar
franklin
fransa
fransız
fransızca
fransızcadan
fransızlar
fransızların
franz
fraser
frau
fre
fred
freddie
freddy
frederic
frederick
free
freedom
freeman
freguesia
freguesiaları
freiburg
frekans
frekanslı
frekansı
fren
french
frescoes
fresh
fresk
freud
freze
frezesi
friday
friedman
friedrich
friend
friends
frigya
fritz
from
front
frontal
frontier
frost
fru
fry
fs
fsv
ft
fte
ftesi
ftu
fu
fuad
fuar
fuarı
fuat
fuchs
fuck
fuel
fuhus
fuji
fukuoka
fulham
full
fuller
fulton
fun
function
functions
fund
funda
funk
furkan
fury
fus
fusa
fusion
fusları
fuslu
fusu
fusun
fusuna
fusunu
fusunun
futbol
futbola
futbolcu
futbolcudur
futbolcular
futbolcuları
futbolcuların
futbolculuk
futbolcunun
futbolcusu
futbolda
futbolu
futbolunun
futsal
future
fuz
fuzu
fw
fx
fyodor
fıc
fıkra
fıkrada
fıkraları
fıkrası
fıkrasına
fıkrasında
fıkrasının
fıkıh
fındık
fındıklı
fırat
fırc
fırka
fırkası
fırlatma
fırlatılan
fırlatıldı
fırsat
fırsatı
fırsatını
fırtına
fırtınası
fırın
fırında
fıs
fıstıg
fıstık
g
ga
gabon
gabriel
gabriele
gabrielle
gaga
gagalı
gagarin
gaia
gaius
gal
gala
galaksi
galaksidir
galaksiler
galaksinin
galaktik
galası
galata
galatasaray
galaxy
galci
gale
galeri
galerie
galerisi
gali
galibi
galibiyet
galibiyete
galibiyeti
galibiyetini
galibiyetiyle
galibiyetle
galic
galileo
galinden
galine
galini
galinin
galip
galipleri
galium
galler
gallery
galli
gallo
galya
galyalı
gam
gama
gamba
gambiya
game
gamecube
games
gamma
gan
gana
ganalı
gandhi
gang
gangster
ganimet
gaon
gap
gar
garanti
garci
garcia
gard
garden
gardens
gardner
garfield
garibaldi
garip
garland
garnizon
garnizonu
garrett
garson
gary
garı
gas
gasp
gaston
gate
gates
gati
gauge
gaulle
gauss
gavin
gay
gaye
gayet
gayret
gayri
gayrimenkul
gayrimu
gayriresmi
gaz
gaza
gazete
gazeteci
gazeteciler
gazetecilere
gazetecileri
gazetecilerin
gazetecilig
gazetecilik
gazetede
gazeteler
gazetelerde
gazeteleri
gazetelerinde
gazetenin
gazetesi
gazetesinde
gazetesine
gazetesini
gazetesinin
gazeteye
gazi
gaziantep
gaziantepspor
gaziler
gazimag
gaziosmanpas
gazlar
gazların
gazne
gazze
gazı
gazın
gb
gc
gd
ge
gear
gebe
gebelik
gebze
gec
gece
gecede
geceler
geceleri
gecenin
gecesi
gecesinde
geceyi
gecikme
gedik
gediz
gel
geldi
geldig
geldik
geldikleri
geldiklerinde
geldiklerini
geldikten
geldiler
geldim
geldin
geldiniz
gelebilecek
gelebilir
geleceg
gelecek
gelecekte
gelecekteki
gelecektir
gelen
gelene
geleneg
gelenek
gelenekler
gelenekleri
geleneklerine
geleneklerini
geleneksel
geleni
gelenler
gelenleri
gelenlerin
geler
gelerek
gelgit
gelibolu
gelin
gelince
gelindig
gelini
gelip
gelir
geliri
gelirin
gelirken
gelirler
gelirleri
gelirlerinin
gelirli
gelirse
gelis
geliyor
geliyordu
gelme
gelmeden
gelmedi
gelmedig
gelmek
gelmekte
gelmektedir
gelmekteydi
gelmemis
gelmesi
gelmesinden
gelmesine
gelmesini
gelmesiyle
gelmeye
gelmez
gelmis
gelse
gelsin
gelu
gemi
gemide
gemiden
gemiler
gemilerde
gemilere
gemileri
gemilerin
gemilerine
gemilerini
gemilerinin
gemini
geminin
gemisi
gemisinde
gemisine
gemisini
gemisinin
gemiye
gemiyi
gemiyle
gemlik
gen
genc
gence
gencebay
gencer
gencin
gender
gene
genel
genelde
geneli
genelinde
genelindeki
genelkurmay
genelles
genellikle
general
generali
generaller
generalleri
generation
genesis
genetic
genetics
genetig
genetik
geneva
geni
genin
genis
genital
genius
genler
genlerin
genles
genlig
genoa
genocide
genom
gent
gentile
geo
geoffrey
geographic
geographical
geography
geometri
geometrik
geometrisi
georg
george
georges
georgetown
georgi
georgia
georgian
georgios
ger
gerais
gerald
geralt
gerard
gerc
gerec
gerede
gereg
gerek
gerekc
gerekebilir
gereken
gerekir
gerekirse
gerekiyor
gerekiyordu
gerekli
gereklidir
gereklilig
gerekmektedir
gerekmez
gerekse
gereksinim
gereksinimi
gereksinimleri
gereksinimlerini
gereksiz
gerekti
gerektig
gerektirdig
gerektiren
gerektirir
gerektiriyordu
gerektirmektedir
gergin
gerginlig
gerginlik
gerhard
geri
geride
geriledi
gerileme
gerilig
gerilim
gerilimi
gerilla
gerisinde
geriye
germain
german
germany
germen
gert
geschichte
gesellschaft
gestapo
get
getirdi
getirdig
getirdikleri
getirdiler
getireceg
getirecek
getiren
getirerek
getirildi
getirildig
getirilen
getirilerek
getirilir
getirilmesi
getirilmesini
getirilmis
getirip
getirir
getirirken
getirirler
getiriyor
getirme
getirmek
getirmektedir
getirmesi
getirmeye
getirmeyi
getirmis
gets
getting
getty
gevs
gey
geyig
geyik
geyve
gezdi
gezegen
gezegene
gezegeni
gezegenimsi
gezegenin
gezegenler
gezegenlerin
gezen
gezer
gezgin
gezi
gezici
gezileri
gezisi
gezmis
gheorghe
ghirlandaio
ghost
ghosts
ghz
gi
giacomo
gian
giant
gibbs
gibi
gibidir
gibiydi
gibson
gideceg
gidecek
gidelim
giden
gidenler
gider
giderek
giderilmesi
giderir
giderken
giderler
giderleri
gidermek
gidildi
gidip
gidis
gidiyor
gidiyorum
gif
gift
gifu
gil
gilan
gilbert
giles
gill
gilles
gilman
gilmour
gina
gine
ginesi
gion
giorgi
giorgio
giotto
giovanna
giovanni
gir
giray
girdi
girdig
girdikten
girdiler
girebilir
gireceg
girecek
giremedi
giren
girer
girerek
girerken
girerler
giresun
giresunspor
girilen
girilmis
girince
girip
giris
girit
girl
girls
girme
girmeden
girmek
girmektedir
girmesi
girmesinden
girmesine
girmesini
girmesiyle
girmeye
girmeyi
girmis
girne
giro
girolamo
gis
git
gitar
gitarda
gitarist
gitaristi
gitaristler
gitaristleri
gitarlar
gitgide
gitme
gitmeden
gitmek
gitmektedir
gitmesi
gitmesine
gitmesini
gitmeye
gitmeyi
gitmis
gitti
gittig
gittikc
gittikleri
gittiler
gittim
giulia
giuliano
giulio
giunti
giuseppe
giustiniani
give
given
giydi
giydig
giydikten
giyemedi
giyen
giyer
giyerek
giyilen
giyim
giyip
giyme
giymektedir
giymeye
giymis
giysi
giysiler
giysileri
gizem
gizemli
gizlemek
gizlenmis
gizli
gizlice
gizlilig
gizlilik
gk
gl
glasgow
glass
glee
glen
glenn
gli
glikoz
global
globe
gloria
glory
gloucester
gloucestershire
glover
glu
glukoz
gm
gmail
gmbh
gnome
gnu
go
goal
gobiidae
goc
god
goddard
godfrey
gods
goebbels
goes
goethe
goetz
goffen
gogh
goia
going
gol
golan
golcu
gold
goldberg
golden
goldman
goldstein
goldwyn
gole
golf
golfc
golle
goller
golleri
golleriyle
gollerle
gollu
golu
gomez
gondor
gone
gong
gonna
gonza
gonzaga
good
goodbye
goodman
google
gor
goran
gorbac
gordon
gore
gorki
gospel
got
gotha
gothic
gotico
gotik
gottfried
gould
gov
government
goya
gozzoli
gp
gps
gpu
gr
gra
grace
graf
grafig
grafik
grafikler
grafikleri
grafiksel
graham
gram
gramer
grammar
grammy
grampus
gran
granada
grand
grande
granit
grant
granu
grave
graves
gravity
gravu
gray
graz
gre
great
greater
greatest
greco
greece
greek
green
greene
greenwich
greenwood
greg
gregor
gregorius
gregory
grek
grekc
greko
grekoromen
grenada
grenoble
grev
grevi
grevillea
grey
gri
grid
gridcolor
griffin
griffith
grimm
grip
grizzlies
gro
groningen
groove
gross
grosso
ground
group
groups
grove
growth
gru
gruba
grubu
grubudur
grubun
grubuna
grubunda
grubundaki
grubundan
grubunu
grubunun
grubuyla
grunge
grup
grupla
gruplar
gruplara
gruplarda
gruplardan
gruplardandır
gruplarla
grupları
grupların
gruplarına
gruplarında
gruplarından
gruplarını
gruplarının
gruppo
grupta
gruptaki
gruptan
gruptur
gs
gsk
gsm
gsub
gsyi
gt
gta
gu
guadalajara
guangdong
guangzhou
guard
guardian
guatemala
guberniyası
gucci
guderian
gue
guerra
guerrero
guevara
guez
guggenheim
gui
guide
guido
guild
guillaume
guillermo
guin
guinness
guitar
gul
gulf
gun
gundam
gunn
guns
gurbet
gurbetc
guria
guru
gurur
gus
gustaf
gustav
gustave
gustavo
gutenberg
guy
guyana
gwen
gymnasium
gyo
gıda
gılgamıs
gıyaseddin
h
ha
haas
hababam
habenaria
haber
haberal
haberci
habercisi
haberdar
haberde
haberi
haberin
haberini
haberinin
haberler
haberlere
haberleri
haberlerin
haberles
habersiz
habertu
habes
habib
habitat
habsburg
hac
hacer
hacettepe
hacim
hacimli
hacmi
hacı
hacılar
had
hadep
hades
hadi
hadis
hadise
hadrianus
hadım
haemaphysalis
hafif
hafifc
hafik
hafta
haftada
haftadan
haftalar
haftalarda
haftalık
haftanın
haftasonu
haftası
haftasında
haftaya
hafız
hafıza
hagen
hagi
hague
haham
hahn
hai
hain
hair
haiti
haiz
hak
hakan
hakaret
hakem
hakemi
hakemler
hakemleri
hakemlik
haki
hakikat
hakiki
hakim
hakimdir
hakimi
hakimiyet
hakimiyeti
hakimiyetine
hakimiyetini
hakimler
hakk
hakka
hakkari
hakkı
hakkın
hakkına
hakkında
hakkındadır
hakkındaki
hakkından
hakkını
hakkının
haklar
haklara
hakları
hakların
haklarına
haklarında
haklarından
haklarını
haklarının
haklı
haksız
hal
hala
halbuki
halde
haldeki
haldun
hale
halefi
halen
halep
half
hali
halic
halid
halide
halidir
halife
halifelig
halifelik
halifesi
halihazırda
halil
halim
halinde
halindedir
halindeki
haline
halini
halinin
halis
halit
haliyle
halk
halka
halkalı
halkası
halkc
halkevi
halkevleri
halkla
halklar
halklardan
halkları
halkların
halklarının
halktan
halkı
halkın
halkına
halkından
halkını
halkının
hall
halle
haller
hallerde
halleri
halo
halter
halterci
haltercileri
halu
haluk
halvas
halı
ham
hama
hamam
hamamı
hamas
hamasaki
hamburg
hamburger
hamdi
hami
hamid
hamidiye
hamile
hamilelik
hamilton
hamit
hamle
hamlet
hammadde
hammer
hammond
hampshire
hampton
hamur
hamza
hamzaog
han
hana
hanc
hancock
hand
handan
handball
handbook
hande
handel
hands
hane
hanedan
hanedanları
hanedanlıg
hanedanı
hanedanın
hanedanına
hanedanından
hanedanının
hanede
hanedir
hanefi
haneli
hangi
hangul
hani
hank
hanlar
hanlıg
hanna
hannah
hannibal
hannover
hans
hansa
hansen
hanı
hanım
hanımı
hanımın
hap
hapis
hapishane
hapishanede
hapishaneden
hapishanesi
hapishaneye
hapiste
hapisten
hapoel
happy
hapse
hapsedildi
hara
harabe
harac
harald
haram
harap
harb
harbi
harbiye
harbor
harc
harcadı
harcama
harcamaları
hard
hardcore
hardy
hare
hareka
harekat
harekatı
hareket
harekete
hareketi
hareketin
hareketinde
hareketinden
hareketine
hareketini
hareketinin
hareketiyle
hareketle
hareketler
hareketleri
hareketlerin
hareketlerine
hareketlerini
hareketlerinin
hareketli
hareketlilig
hareketlilik
hareketsiz
harem
harezm
harezms
harf
harfi
harfinin
harfler
harfleri
harflerin
harfleriyle
harflerle
haric
harici
haricinde
hariciye
harika
harikalar
harita
haritada
haritalar
haritaları
haritanın
haritası
haritasında
haritasını
harkov
harlem
harman
harmonik
harmony
harold
harp
harpactorini
harper
harput
harran
harriet
harris
harrison
harry
hart
hartford
hartmann
harun
harvard
harvey
has
hasan
hasar
hasara
hasarlı
hasarı
hasat
hasko
hasret
hassa
hassan
hassas
hassasiyet
hasta
hastalar
hastalara
hastalarda
hastaları
hastaların
hastalarının
hastalıg
hastalık
hastalıklar
hastalıklara
hastalıkları
hastalıkların
hastalıktan
hastalıktır
hastane
hastanede
hastaneler
hastaneleri
hastanesi
hastanesinde
hastanesine
hastaneye
hastanın
hastası
hastaya
hastings
hasılat
hat
hata
hatalar
hataları
hatalı
hatası
hatay
hatayspor
hatchback
hate
hatice
hatip
hatlar
hatları
hatlarına
hatlarını
hatlarının
hatta
hattus
hattı
hattın
hattına
hattında
hattından
hattını
hattının
hatun
hatıra
hatırladıg
hatırlamadıg
hatırı
haute
hauts
hava
havaalanları
havaalanı
havaalanına
havacılık
havada
havadan
havai
havalandırma
havale
havalimanları
havalimanı
havalimanıdır
havalimanına
havalimanının
havalı
havan
havana
havanın
havası
havaya
havayolları
havayolu
havayı
have
haven
havre
havuz
havuzu
havva
havza
havzası
havzasında
hawaii
hawk
hawking
hawkins
hawks
hay
haya
hayal
hayalet
hayali
hayat
hayata
hayati
hayatları
hayatlarını
hayatta
hayattaki
hayattan
hayatı
hayatın
hayatına
hayatında
hayatındaki
hayatından
hayatını
hayatının
haydar
haydarpas
hayden
haydi
haydut
hayes
hayfa
hayli
haymana
hayran
hayranlar
hayranları
hayranlıg
hayranlık
hayranı
hayreddin
hayrettin
hayri
hayrullah
hayvan
hayvanat
hayvancılıg
hayvancılık
hayvanlar
hayvanlara
hayvanlarda
hayvanlardan
hayvanlarla
hayvanları
hayvanların
hayvansal
hayvanı
hayvanın
hayır
hayırlı
hayırsever
haz
hazar
hazarlar
hazine
hazinesi
haziran
hazret
hazretleri
hazır
hazırladı
hazırladıg
hazırlama
hazırlamak
hazırlamıs
hazırlanan
hazırlandı
hazırlandıg
hazırlanması
hazırlanmasında
hazırlanmıs
hazırlanır
hazırlanırken
hazırlar
hazırlayan
hazırlayıp
hazırlıg
hazırlık
hazırlıklar
hazırlıkları
hazırlıklarına
hbar
hbo
hc
hd
hdp
he
head
header
health
heart
hearts
heat
heath
heather
heaven
heavy
heavyweight
hebrew
hece
hector
hed
hedef
hedefe
hedefi
hedefin
hedefine
hedefini
hedeflenen
hedefler
hedeflere
hedefleri
hedeflerine
hedeflerini
hedefleyen
hediye
hediyeler
hediyesi
hee
hegel
heidelberg
heidi
height
heights
heinemann
heinrich
heinz
hekim
hekimi
hekimler
hekimleri
hekimlig
hekimog
hektar
hektarlık
hela
helal
held
hele
helen
helena
helenistik
helikopter
helikopteri
helikopterler
heliophanus
hell
hellas
hello
helmut
help
helsinki
helyum
hem
hemen
hems
hendek
henderson
hendis
hendisi
hendisler
hendisleri
hendislig
hendislik
henley
hennessy
henri
henrik
henry
hentbol
hentbolcular
hentbolcuları
henu
hep
hepatit
hepburn
hepimiz
hepsi
hepsinde
hepsine
hepsini
hepsinin
her
hera
herakleios
herakles
herald
herat
herbert
hercules
here
herhalde
herhangi
heritage
herkes
herkese
herkesi
herkesin
herku
herman
hermann
hermes
hermione
herna
hero
herodot
heroes
herpetolog
hers
herschel
hersek
hertfordshire
hertha
hertz
herzog
hes
hesaba
hesabı
hesabına
hesabında
hesabından
hesabını
hesap
hesaplama
hesaplamak
hesaplamalar
hesaplamalı
hesaplanabilir
hesaplanan
hesaplanması
hesaplanmıs
hesaplanır
hesaplar
hesapları
hesaplas
hess
hesse
hessen
het
heteroseksu
hey
heyecan
heyecanlı
heyet
heyeti
heyetin
heyetinin
heykel
heykeli
heykelin
heykeller
heykelleri
heykeltıras
heyl
hg
hh
hi
hibe
hibrit
hic
hicaz
hiciv
hicri
hidayet
hidden
hide
hidroelektrik
hidrojen
hidrolik
hieroglyph
higgins
higgs
high
higher
highway
hijyen
hika
hikaye
hikayeler
hikayeleri
hikayesi
hikayesini
hikmet
hil
hila
hilal
hilary
hilbert
hile
hill
hillary
hilliard
hills
hilmi
hilton
him
himaye
himayesi
himayesinde
himayesine
himmat
himmet
himmler
hindi
hindistan
hindu
hinduizm
hint
hintc
hip
hiperbolik
hipertansiyon
hipotez
hipotezi
hir
hiroki
hiros
hiroshi
hiroshima
hiroyuki
his
hisar
hisi
hisse
hisseder
hisselerini
hissesini
hissetti
hissettig
hissi
histoire
historia
historic
historical
history
hit
hitaben
hitap
hitchcock
hitit
hititler
hitler
hits
hiung
hiv
hiyerars
hizan
hizat
hizbullah
hizmet
hizmetc
hizmete
hizmeti
hizmetin
hizmetinde
hizmetine
hizmetini
hizmetinin
hizmetler
hizmetleri
hizmetlerin
hizmetlerinde
hizmetlerinden
hizmetlerine
hizmetlerini
hizmetlerinin
hizmette
hizmetten
hk
hkp
hl
hm
hms
hne
ho
hobbes
hobi
hoca
hocalı
hocam
hocası
hoffenheim
hoffman
hoffmann
hogan
hogwarts
hokey
hokeyi
hokkaido
hold
holden
holding
hole
holiday
holland
hollanda
hollandaca
hollandalı
hollandalılar
hollow
holly
hollywood
holmes
holocaust
holokost
holstein
holt
holy
home
homepage
homer
homeros
homme
homo
homojen
honda
honduras
honey
hong
honneur
honor
honour
hood
hook
hoon
hop
hopa
hoparlo
hope
hopkins
hopper
hor
horace
horasan
horizon
horizontal
hormon
horn
hornet
hornets
horowitz
horoz
horror
horse
horst
horus
hos
hospital
host
hot
hotel
hotspur
houghton
hour
hours
house
houses
houston
how
howard
howarth
hp
hr
hrant
hrer
hret
hristiyan
hristiyanlar
hristiyanlara
hristiyanların
hristiyanlıg
hristiyanlık
hrsg
hru
hs
hsan
hsanog
ht
hta
htc
htisas
htm
html
http
https
hu
huang
huawei
hub
hubble
huber
hubert
hudson
hudut
hugh
hughes
hugo
hui
hukuk
hukuka
hukukc
hukuken
hukuki
hukuksal
hukuku
hukukun
hukukuna
hukukunda
hukukunun
hul
hulk
hull
hulusi
huma
human
humanism
humboldt
hume
humeyni
humphrey
humus
hun
hundred
hungarian
hungary
hunlar
hunt
hunter
huntington
hur
hurdur
hurma
hurriyet
hurs
hurt
huru
hus
husus
hususi
hususlar
hususta
hususunda
hutchinson
huygens
huylu
huzur
huzursuzluk
huzuruna
huzurunda
hwang
hyde
hydra
hye
hyo
hyun
hyundai
hz
hı
hında
hınıs
hırc
hıristiyan
hırslı
hırsız
hırsızlık
hırvat
hırvatc
hırvatistan
hız
hıza
hızda
hızla
hızlarda
hızları
hızlı
hızlıca
hızı
hızına
hızında
hızını
hızının
hızır
i
ia
iaaf
iade
ian
ias
iata
ib
iba
ibadet
ibadete
ibareli
ibaresi
ibaresinden
ibaret
ibarettir
iblis
ibm
ibn
ibrahim
ic
icadı
icao
icat
icatları
ice
ich
ici
icin
icloud
icon
icra
id
ida
idaho
idam
idama
idare
idaresi
idaresinde
idaresine
idaresini
idaresinin
idareye
idari
iddet
iddete
iddeti
iddetin
iddetle
iddetli
iddia
iddialar
iddialara
iddiaları
iddiaların
iddialarına
iddialarını
iddialı
iddianame
iddianamede
iddiası
iddiasına
iddiasında
iddiasını
iddiasıyla
iddiaya
iddiayı
ide
idea
ideal
ideas
iden
identity
ideograph
ideology
ideoloji
ideolojik
ideolojisi
idi
ididir
idiler
idin
idir
idol
idrar
idu
ie
ieee
if
ifa
ifade
ifadeler
ifadeleri
ifadelerin
ifadelerinde
ifadelerine
ifadelerini
ifadenin
ifadesi
ifadesinde
ifadesine
ifadesini
ifadesinin
ifadesiyle
ifadeyle
ifalı
ifi
iflas
ifler
ifleri
ifre
ifreleme
ifreli
ifs
ift
iftc
ifte
ifti
iftin
iftinin
iftira
iftler
iftlerde
iftles
iftlig
iftlik
ig
iglesias
ign
igor
ihale
ihanet
ihbar
ihlal
ihlali
ihlalleri
ihmal
ihrac
ihracat
ihracatı
ihtila
ihtimal
ihtimali
ihtimalini
ihtimalle
ihtis
ihtisas
ihtiva
ihtiyac
ihtiyacı
ihtiyacını
ihtiyacının
ihtiyar
ii
iii
iir
iirde
iiri
iirin
iirinde
iirini
iirinin
iirler
iirleri
iirlerinde
iirlerini
iirlerinin
iirsel
ij
ik
ika
ikago
ikalı
ikamet
ikametga
ikayet
ikayetc
ike
iken
iki
ikili
ikilinin
ikilisi
ikinci
ikincil
ikincilig
ikincilik
ikincisi
ikis
ikisi
ikisinde
ikisine
ikisini
ikisinin
ikiye
ikiz
ikler
ikleri
iklerin
iklig
iklik
iklikler
ikliklere
iklikleri
ikliklerin
ikliklerle
iklim
iklime
iklimi
iklimin
ikmal
ikna
ikolata
iktas
iktidar
iktidara
iktidarda
iktidardaki
iktidardan
iktidarı
iktidarın
iktidarını
iktidarının
iktir
iktisadi
iktisat
iktisatc
il
ila
ilac
ilacı
ilacın
ilahi
ilahiyat
ilahiyatc
ilan
ilanı
ilanından
ilave
ilaveten
ilc
ilde
ildi
ildig
ildikten
ildir
ildirler
ile
ilebilir
ilecek
ilek
ilen
ilenler
iler
ilerce
ilerde
ilerden
ilerdir
ilere
ilerek
ileri
ilerici
ileride
ileriki
ilerin
ilerinden
ilerine
ilerini
ilerinin
ileriye
ilerle
ilerledi
ilerledig
ilerledikc
ilerleme
ilerlemeler
ilerlemesi
ilerlemesini
ilerlemeye
ilerlemis
ilerler
ilerlerken
ilerleyen
ilerleyerek
ilerleyis
iles
ileti
iletilen
iletim
iletimi
iletir
iletis
iletken
iletkenlig
iletmek
iletti
ilgaz
ilgi
ilgilendi
ilgilendig
ilgilendiren
ilgilenen
ilgilenir
ilgilenmeye
ilgilenmis
ilgili
ilgilidir
ilgiliydi
ilginc
ilgisi
ilgisini
ilgisinin
ilgiyi
ilhak
ilham
ili
ilig
ilik
ilikler
ilikleri
ilili
ilim
ilimi
iliminde
ilimindedir
ilimler
ilimleri
ilimli
ilin
ilinde
ilindeki
ilinden
iline
ilinin
ilir
ilis
iliz
ilk
ilkbahar
ilkbaharında
ilke
ilkel
ilkeler
ilkelere
ilkeleri
ilkelerine
ilkelerini
ilkesi
ilkesine
ilkesini
ilkesinin
ilki
ilko
ilkokul
ill
illegal
iller
illerde
illerdir
illeri
illerinde
illerinden
illinois
illu
illustrated
ilme
ilmesi
ilmesini
ilmez
ilmi
ilmis
ilova
ilse
iltica
ilu
ilyurt
ilıca
im
ima
image
images
imagesize
imaj
imajı
imajını
imal
imalat
imalatı
imam
iman
imar
imax
imci
imciler
imcilik
imdb
imde
imdeki
imden
imdi
imdiki
imdilerde
imdilik
imdir
imdiye
ime
imen
imento
imet
imf
img
imha
imi
imidir
imin
iminde
imindeki
iminden
imine
imini
iminin
imis
imiyle
imiz
imizde
imize
imizi
imka
imkan
imkansız
imkanı
imle
imler
imlerde
imlerden
imlere
imleri
imlerin
imlerinde
imlerinden
imlerine
imlerini
imlerinin
imleriyle
imlerle
imli
immu
imp
impact
imparator
imparatoric
imparatorları
imparatorlug
imparatorluk
imparatoru
imparatorun
imperial
impossible
ims
imsel
imtiyaz
imza
imzaladı
imzaladıg
imzaladılar
imzalamıs
imzalanan
imzalandı
imzalanmıs
imzalayan
imzalayarak
imzalı
imzası
imzasını
in
ina
inanan
inanc
inanca
inancı
inancına
inancında
inancını
inancının
inandıg
inanmaktadır
inanmıs
inanılan
inanılmaktadır
inanılmaz
inanılır
inanılıyor
inanır
inanırlar
inanıs
inanıyor
inanıyordu
inanıyorum
inasi
inatc
inc
ince
inceledi
inceledig
inceleme
incelemede
incelemek
incelemeler
incelemelerde
incelemeleri
incelemesi
incelemesinde
incelemeye
incelemis
incelendig
incelenen
incelenir
incelenmesi
incelenmis
inceler
inceleyen
inceleyerek
inch
inci
incir
include
includes
including
increment
inde
indedir
indeki
inden
independence
independent
independiente
index
indeydi
indi
india
indian
indiana
indianapolis
indians
indie
indig
indir
indirdi
indirildi
indirilebilir
indirilen
indirilmesi
indirilmis
indirme
indirmek
indu
industrial
industries
industry
ine
inek
inen
iner
inerek
infaz
infinite
infinity
influence
info
infobox
information
infty
ing
ingene
ingilizce
ingrid
inhibe
inhibito
ini
inin
inis
initial
iniz
inizi
inka
inkar
inko
inli
inliler
inme
inmis
inn
inner
innsbruck
inorganik
input
ins
insan
insana
insanda
insandan
insandır
insani
insanlar
insanlara
insanlarda
insanlardan
insanlarla
insanları
insanların
insanlarının
insanlı
insanlıg
insanlık
insanog
insansı
insansız
insanı
insanın
insanının
inse
insert
inside
instagram
institut
institute
institution
insu
int
integral
integrali
intel
intellectual
intelligence
inter
interactive
interaktif
interior
internacional
internal
international
internationale
internazionale
internet
internete
internette
interpretation
interscope
intertoto
interview
intihar
intikal
intikam
intikamını
into
intro
introduction
invasion
invention
investigation
invisible
io
ioannes
ioc
iog
ion
ios
iowa
ip
ipa
ipad
ipairs
ipek
iphone
ipi
iplig
iplik
ipod
ipswich
iptal
iptali
ipuc
ipucu
ipv
iq
ir
ira
irade
iradesi
irak
iraklı
iran
iranian
iraq
iraz
irdi
irdig
irdikleri
irdikten
irdiler
irdir
ire
ireland
irelik
iren
irene
irerek
iret
ireti
iretleri
irgenlig
iri
irildi
irildig
irilen
irilerek
irilir
irilmesi
irilmis
irin
irina
irip
irir
irirler
iris
irish
irk
irkc
irken
irket
irkete
irketi
irketidir
irketin
irketinde
irketinden
irketine
irketini
irketinin
irketiyle
irketler
irketlerde
irketlere
irketleri
irketlerin
irketlerinden
irketlerine
irketlerinin
irkette
irketten
irkettir
irkin
irler
irmag
irmak
irme
irmek
irmen
irmeni
irmesi
irmeye
irmeyi
irmez
irmis
iron
irsa
irse
irtibat
irtica
irtifa
irvan
irvans
irving
is
isa
isaac
isabel
isabella
isabelle
isabet
isbn
ise
isel
iselles
ishal
isi
isidir
isim
isimdir
isimle
isimlendirilen
isimlendirilir
isimlendirilmis
isimler
isimlerden
isimleri
isimlerin
isimlerinden
isimlerini
isimlerinin
isimleriyle
isimlerle
isimli
isimsiz
isine
isini
isinin
isis
iska
iskan
iskele
iskelet
iskeleti
isla
islam
islamic
island
islands
isle
isme
ismi
ismidir
ismin
isminde
ismindeki
isminden
ismine
ismini
isminin
ismiyle
iso
isoname
isonames
isparta
ispat
israel
israeli
iss
issn
issue
issues
ist
istan
istanbul
istasyon
istasyona
istasyonları
istasyonu
istasyonudur
istasyonun
istasyonuna
istasyonunda
istasyonundan
istasyonunun
istat
istatistig
istatistik
istatistikler
istatistikleri
istatistiksel
istedi
istedig
istedikleri
istediklerini
istediler
istedim
isteg
istek
istekleri
isteklerine
isteklerini
istekli
istemci
isteme
istemedig
istemek
istemektedir
istemesi
istemeyen
istemez
istemi
istemis
istemiyorum
istendi
istendig
istenen
istenilen
istenir
istenmeyen
istenmis
ister
isterim
isterken
isterler
isterse
istese
isteyebilir
isteyen
isteyenler
isteyerek
istifa
istifade
istifası
istifasını
istihbarat
istihbaratı
istihdam
istikrar
istikrarlı
istikrarı
istila
istilası
istinaden
istismar
istisna
istisnai
istisnalar
istituto
istiyor
istiyordu
istiyorum
istiyoruz
istler
istva
isu
isyan
isyana
isyancı
isyancılar
isyancıların
isyanlar
isyanları
isyanı
isyanın
isı
it
ita
itaat
italia
italian
italiana
italic
italy
item
iten
itfaiye
ithaca
ithaf
ithafen
ithal
ithalat
itham
iti
itibar
itibaren
itibari
itibariyle
itibarı
itibarını
itibarıyla
itici
itilmis
itim
itimci
itimciler
itimde
itimden
itime
itimi
itimin
itiminde
itimine
itimini
itiminin
itimler
itimleri
itimli
itiraf
itiraz
itis
itki
itler
itleri
itli
itlig
itlik
itlilig
itlilik
itme
itmek
itmen
itmeni
ito
its
itsel
itsizlig
itsizlik
itt
itti
ittifak
ittifakı
ittir
itunes
itv
iu
iucn
ius
iv
iva
ivan
ivi
ivlendi
ivleri
ivme
ivy
iwata
ix
ixodes
iydi
iye
iyi
iyice
iyidir
iyiles
iyilig
iyilik
iyisi
iyle
iyon
iyonları
iyonlas
iyor
iyordu
iz
iza
izah
izci
izdi
izdig
izelgesi
izen
izer
izgi
izgide
izgiler
izgileri
izgili
izginin
izgisi
izgisini
izgisinin
izi
izilen
izilmis
izim
izimi
izimler
izimleri
izin
izini
izinsiz
izle
izledi
izledig
izleme
izlemek
izlemeye
izlemis
izlendi
izlenebilir
izlenen
izlenimi
izlenir
izlenme
izlenmesi
izler
izleri
izlerini
izleyen
izleyerek
izleyici
izleyiciler
izleyiciye
izm
izme
izmi
izmis
izni
izniyle
izofreni
izole
j
ja
jack
jackie
jackson
jacob
jacobs
jacopo
jacqueline
jacques
jae
jaguar
jaime
jake
jakob
jale
jam
jamaika
jamaikalı
james
jamie
jan
jandarma
jane
janeiro
janet
jang
january
japan
japanese
japon
japonca
japonlar
japonların
japonya
jared
jason
jasper
java
javascript
javier
jay
jazeera
jazz
jc
jdat
jde
je
jean
jeanne
jedi
jef
jeff
jefferson
jeffrey
jel
jena
jenerato
jenerik
jenkins
jennifer
jennings
jenny
jens
jensen
jeofizik
jeolog
jeoloji
jeolojik
jeong
jeopolitik
jeotermal
jeremy
jericho
jerome
jerry
jersey
jerusalem
jerzy
jesse
jessica
jessie
jesu
jesus
jet
jewish
jews
jg
ji
jill
jim
jimmy
jimnastik
jimnastikc
jin
jk
jo
joa
joachim
joan
joanna
job
jobs
joe
joel
joey
johan
johann
johanna
johannes
johansson
john
johnny
johns
johnson
johnston
joint
joker
jolie
jon
jonas
jonathan
jones
jong
joo
joon
jordan
jorge
jose
josef
joseon
joseph
josephus
josh
joshua
joss
journal
journey
jovi
joy
joyce
jp
jpeg
jpg
jr
js
jstor
ju
juan
judith
judo
judy
jukov
jules
julia
julian
julie
julien
juliet
julio
julius
july
jump
jun
june
jung
jungle
junior
juniors
juno
jura
jure
just
justice
justify
justin
justinianus
juventus
jyp
k
ka
kaan
kaba
kabaca
kabak
kabare
kabartma
kabat
kabatas
kabe
kabil
kabile
kabileler
kabileleri
kabilelerin
kabilelerinin
kabilenin
kabilesi
kabilesinden
kabilesinin
kabiliyeti
kabiliyetine
kabin
kabine
kabinesi
kabinesinde
kablo
kablolu
kablosuz
kabri
kabug
kabuk
kabuklu
kabul
kabulu
kac
kada
kadadır
kadalar
kadar
kadardır
kadarki
kadarı
kadarıyla
kadastro
kaddafi
kademe
kademeli
kader
kaderi
kaderini
kadim
kadir
kadirli
kadri
kadro
kadroda
kadrolar
kadroları
kadrolarında
kadrolas
kadrosu
kadrosuna
kadrosunda
kadrosunu
kadrosunun
kadroya
kadı
kadıko
kadın
kadına
kadından
kadındır
kadınla
kadınlar
kadınlara
kadınlarda
kadınlardan
kadınlarla
kadınları
kadınların
kadını
kadının
kadırga
kafa
kafası
kafasına
kafasında
kafasını
kafatası
kafatasının
kafe
kafes
kafka
kafkas
kafkasya
kag
kaheti
kahire
kahn
kahraman
kahramanlar
kahramanları
kahramanların
kahramanlık
kahramanmaras
kahramanı
kahramanın
kahvaltı
kahve
kahverengi
kahverengidir
kahvesi
kai
kaide
kaiser
kaiserslautern
kakan
kakao
kaktu
kal
kala
kalabalıg
kalabalık
kalabilir
kalacag
kalacak
kalacaktır
kalan
kalanlar
kalanların
kalanı
kalanında
kalanını
kalarak
kaları
kalarına
kalarının
kalas
kalay
kalbe
kalbi
kalbim
kalbin
kalc
kaldı
kaldıg
kaldıkları
kaldıktan
kaldılar
kaldım
kaldıran
kaldırarak
kaldırdı
kaldırma
kaldırmak
kaldırmaya
kaldırmıs
kaldırılan
kaldırılarak
kaldırıldı
kaldırıldıg
kaldırılması
kaldırılmasına
kaldırılmasını
kaldırılmıs
kaldırılır
kaldırıp
kaldırır
kaldırıs
kale
kaleci
kalecik
kalecisi
kalede
kaleden
kaleler
kaleleri
kalem
kaleme
kalemi
kalenin
kalesi
kalesinde
kalesine
kalesini
kalesinin
kaleye
kaleyi
kalibre
kaliforniya
kalite
kalitede
kaliteli
kalitesi
kalitesini
kalitesinin
kalkan
kalkanı
kalkar
kalkmıs
kalkolitik
kalktı
kalktıg
kalku
kalkınma
kalkıs
kalma
kalmadan
kalmadı
kalmadıg
kalmak
kalmaktadır
kalmamıs
kalması
kalmasına
kalmasını
kalmaya
kalmayı
kalmayıp
kalmaz
kalmıs
kalp
kalsa
kalsiyum
kalsın
kalıcı
kalıg
kalın
kalınca
kalınlas
kalınlıg
kalıntı
kalıntılar
kalıntıları
kalıntılarını
kalıntılarının
kalıntısı
kalıp
kalır
kalırken
kalırlar
kalıtsal
kalıyor
kalıyordu
kam
kama
kaman
kamarası
kamboc
kamc
kamera
kameralar
kameranın
kamerası
kamerun
kamerunlu
kamil
kamp
kampa
kampanya
kampanyaları
kampanyası
kampanyasının
kampları
kamplarına
kamplarında
kampta
kampu
kampı
kampına
kampında
kamu
kamulas
kamuoyu
kamuoyuna
kamuoyunda
kamuoyunun
kamusal
kamuya
kamyon
kamıs
kan
kana
kanaat
kanada
kanadalı
kanadalılar
kanadı
kanadını
kanagawa
kanal
kanala
kanalda
kanaldan
kanalizasyon
kanallar
kanalları
kanallarında
kanallarının
kanalı
kanalıdır
kanalın
kanalına
kanalında
kanalının
kanama
kanaması
kanarya
kanat
kanatlar
kanatları
kanatlı
kanatta
kanda
kandil
kandiye
kandıra
kane
kang
kangal
kani
kanlar
kanları
kanlarının
kanlı
kanlıg
kanlık
kanlıkları
kannesi
kano
kansas
kanser
kanserden
kanseri
kanserinden
kansu
kant
kanter
kanton
kantonu
kanun
kanuna
kanunda
kanuni
kanunla
kanunlar
kanunlara
kanunları
kanunların
kanunlarına
kanunu
kanunun
kanununa
kanununda
kanununun
kanvekili
kanvekilleri
kanye
kanyon
kanyonu
kanı
kanıdır
kanım
kanın
kanına
kanını
kanının
kanıt
kanıtladı
kanıtlamak
kanıtlamıs
kanıtlanmıs
kanıtlar
kanıtları
kanıtı
kanıydı
kaos
kap
kapadokya
kapag
kapak
kapakları
kapaklı
kapalı
kapalıdır
kapanan
kapandı
kapanmıs
kapanır
kapanıs
kapasite
kapasiteli
kapasitelidir
kapasitesi
kapasitesine
kapasitesini
kapasitesinin
kapasiteye
kapasito
kapatan
kapatma
kapatmak
kapatmıs
kapattı
kapatılan
kapatıldı
kapatıldıg
kapatılması
kapatılmıs
kapitalist
kapitalizm
kapitalizmin
kaplama
kaplamaktadır
kaplan
kaplanmıs
kaplar
kaplayan
kaplumbag
kaplı
kaplıca
kaplıdır
kappa
kapsadıg
kapsam
kapsamaktadır
kapsamda
kapsamlı
kapsamı
kapsamına
kapsamında
kapsamındaki
kapsar
kapsayacak
kapsayan
kapsu
kapsıyordu
kaptan
kaptanlıg
kaptanlık
kaptanı
kaptırdı
kapı
kapıdan
kapılar
kapıları
kapılarını
kapılı
kapının
kapısı
kapısına
kapısında
kapısından
kapısını
kapısının
kapıya
kapıyı
kar
kara
karaag
karabag
karabekir
karabu
karabulut
karaburun
karac
karaca
karacaahmet
karacabey
karacaog
karacig
karada
karadag
karadan
karadeniz
karago
karagu
karahan
karahanlı
karakas
karakaya
karako
karakoc
karakol
karakolu
karakoyunlu
karakter
karakterdir
karaktere
karakteri
karakteridir
karakterin
karakterine
karakterini
karakterinin
karakteristig
karakteristik
karakteriyle
karakterize
karakterler
karakterlerden
karakterlere
karakterleri
karakterlerin
karakterlerinden
karakterlerini
karakterlerinin
karakurt
karaman
karamanog
karamu
karan
karanfil
karanlıg
karanlık
karanlıkta
karantina
karaog
karapınar
karar
karara
kararda
kararga
karargah
karargahı
kararla
kararlar
kararları
kararların
kararlarına
kararlarını
kararlarının
kararlas
kararlı
kararlılıg
kararlılık
kararname
kararnamesi
kararsız
kararı
kararın
kararına
kararında
kararından
kararını
kararının
kararıyla
karasal
karasu
karatas
karatay
karate
karaya
karayip
karayipler
karayolları
karayolu
karbon
karbonat
karbondioksit
karbonhidrat
kardemir
kardes
kardinal
kardiyovasku
kare
karel
karen
karesi
karga
kargas
kargo
kargı
kari
karikatu
karin
kariyer
kariyeri
kariyerinde
kariyerindeki
kariyerine
kariyerini
kariyerinin
karl
karlsruhe
karlı
karma
karmas
karolina
kars
kart
kartaca
kartal
kartalspor
kartalı
kartezyen
kartlar
kartları
kartli
karton
kartı
karya
karı
karın
karınca
karıs
karısı
karısına
karısını
karısının
kas
kasa
kasaba
kasabada
kasabadır
kasabalar
kasabaları
kasabanın
kasabası
kasabasına
kasabasında
kasabasının
kasabaya
kasabayı
kasap
kaset
kashima
kashiwa
kaslar
kasları
kast
kastamonu
kastedilmis
kasten
kastilya
kası
kasım
kasımpas
kasına
kasının
kasırga
kasıtlı
kat
kata
katalan
katalanca
katalizo
katalog
katalonya
katan
katar
katarak
kate
katedral
katedrali
katedralin
kategori
kategoride
kategoriler
kategorileri
kategorilerinde
kategorisi
kategorisinde
kategorisine
kategoriye
kategorize
katerina
katherine
kathleen
katie
katigorias
katil
katili
katilin
katiller
katip
katkı
katkıda
katkılar
katkılarda
katkıları
katkılarından
katkılarıyla
katkısı
katları
katliam
katliamlar
katliamı
katlı
katma
katman
katmanları
katmanlı
katmanı
katmıs
kato
katolik
katolikleri
katoliklig
katrina
katsayı
katsayıları
katsayısı
katta
kattı
katy
katz
katı
katıdır
katılacag
katılacak
katılamadı
katılan
katılanlar
katılanların
katılarak
katılas
katıldı
katıldıg
katıldıkları
katıldıktan
katıldılar
katılma
katılmadan
katılmadı
katılmadıg
katılmak
katılmaktadır
katılmamıs
katılması
katılmasına
katılmasını
katılmasıyla
katılmaya
katılmayan
katılmayı
katılmıs
katılım
katılımcı
katılımcılar
katılımcıları
katılımcıların
katılımcısı
katılımı
katılımını
katılımıyla
katılıp
katılır
katılırlar
katına
katında
katından
kauc
kaufman
kaunas
kautsky
kavak
kaval
kavala
kavalalı
kavga
kavgası
kavisli
kavram
kavrama
kavramdır
kavramlar
kavramları
kavramların
kavramsal
kavramı
kavramın
kavramına
kavramını
kavramının
kavs
kavus
kawasaki
kay
kaya
kayac
kayak
kayakc
kayalar
kayaların
kayalık
kayan
kayanın
kaybeden
kaybedenler
kaybedenlerin
kaybeder
kaybederek
kaybedilen
kaybetme
kaybetmesi
kaybetmesine
kaybetmeye
kaybetmis
kaybetti
kaybettig
kaybettikleri
kaybettikten
kaybettiler
kaybolan
kayboldu
kayboldug
kaybolması
kaybolmus
kaybolur
kaybı
kaybına
kaybını
kayda
kaydeden
kaydeder
kaydederek
kaydedildi
kaydedildig
kaydedilen
kaydedilir
kaydedilmis
kaydetmek
kaydetmis
kaydetti
kaydettig
kaydoldu
kaydı
kaydını
kaydının
kaydırma
kaydıyla
kaygı
kayma
kaymakam
kaymakamlıg
kaymakamlık
kaymakamı
kayması
kaynag
kaynak
kaynakc
kaynaklanan
kaynaklandıg
kaynaklanmaktadır
kaynaklanır
kaynaklar
kaynaklara
kaynaklarda
kaynaklardan
kaynakları
kaynakların
kaynaklarına
kaynaklarında
kaynaklarından
kaynaklarını
kaynaklarının
kaynaklı
kaynakta
kaynaktan
kaynama
kaynarca
kaynas
kayseri
kayserispor
kayyım
kayı
kayın
kayınbiraderi
kayıp
kayıplar
kayıplara
kayıpları
kayıs
kayısı
kayıt
kayıtlar
kayıtlara
kayıtlarda
kayıtları
kayıtların
kayıtlarına
kayıtlarında
kayıtlarını
kayıtlarının
kayıtlı
kayıtsız
kaz
kaza
kazada
kazadan
kazak
kazakc
kazakistan
kazaklar
kazalar
kazaları
kazan
kazanacag
kazanacak
kazanamadı
kazanamamıs
kazanan
kazananlar
kazananları
kazananı
kazanarak
kazanc
kazancı
kazandı
kazandıg
kazandıkları
kazandıktan
kazandılar
kazandıran
kazandırdı
kazandırmak
kazandırmıs
kazanma
kazanmak
kazanması
kazanmasına
kazanmasını
kazanmaya
kazanmayı
kazanmıs
kazanılan
kazanıldı
kazanılmıs
kazanın
kazanıp
kazanır
kazanırken
kazası
kazasına
kazasında
kazasının
kazaya
kazı
kazık
kazılar
kazılarda
kazıları
kazım
kb
kbabası
kbas
kbilimci
kbs
kc
kck
kd
kde
kdelenler
kdere
ke
kebabı
kebir
kec
kedi
kediler
kedilerin
kedisi
keep
kehanet
kei
keith
kek
kel
kela
kelc
kelebek
kelepc
keles
kelime
kelimedir
kelimeler
kelimeleri
kelimelerin
kelimelerinden
kelimelerinin
kelimenin
kelimesi
kelimesinden
kelimesini
kelimesinin
kelkit
keller
kelley
kelly
kelog
kelt
kelvin
kemah
kemal
kemalist
kemaliye
kemalpas
keman
kemancı
kemenc
kemer
kemeri
kemerin
kemerini
kemerler
kemerleri
kemerlerini
kemerli
kemig
kemik
kemikler
kemikleri
kemmel
kemmellik
ken
kenan
kenar
kenara
kenarları
kenarlarında
kenarlı
kenarı
kenarına
kenarında
kenarındadır
kenarındaki
kence
kendi
kendileri
kendilerince
kendilerinden
kendilerine
kendilerini
kendilerinin
kendilig
kendim
kendimi
kendinden
kendine
kendini
kendinin
kendir
kendisi
kendisinde
kendisinden
kendisine
kendisini
kendisinin
kendisiyle
kendrick
kene
kenevir
keni
kenin
kenini
keninin
kenji
kenler
kenleri
kenli
kenlidir
kenlik
kenmis
kennedy
kenneth
kenny
kent
kente
kenti
kentidir
kentin
kentinde
kentindeki
kentinden
kentine
kentini
kentinin
kentler
kentlerde
kentleri
kentlerinde
kentles
kentsel
kentte
kentteki
kentten
kenttir
kentucky
kenya
kepez
kepler
ker
kerbela
kere
kerek
kerem
keresinde
kereste
keri
kerim
kerku
kern
kerpic
kerr
kerry
kertenkele
kervan
kes
kese
kesen
keser
keserek
kesesi
kesi
kesici
kesik
kesildi
kesildig
kesilen
kesilerek
kesilir
kesilmesi
kesilmis
kesim
kesimde
kesimi
kesimin
kesiminde
kesimindeki
kesimini
kesimlerde
kesimleri
kesimlerinde
kesin
kesindir
kesinles
kesinlik
kesinlikle
kesintisiz
kesintiye
kesip
kesis
kesit
keskin
kesme
kesmek
kesmis
kestane
kesti
kestig
keten
kethu
ketici
ketilen
ketilir
ketim
ketimi
kevin
key
keyfi
keyhu
keyif
keykubad
keynes
keys
kez
keza
kf
kg
kgb
khan
khk
ki
kia
kibar
kick
kid
kidd
kide
kiden
kids
kiel
kierkegaard
kiev
kif
kil
kila
kilat
kilatı
kilatının
kilendirilen
kilendirilir
kilendirilmis
kiler
kilerde
kilerden
kilere
kileri
kilerin
kilerinde
kilerine
kilerini
kilerinin
kili
kilidi
kilidir
kilikya
kilis
kilise
kilisede
kiliseler
kiliseleri
kilisenin
kilisesi
kilisesinde
kilisesine
kilisesinin
kiliseye
kiliseyi
kilit
kilitli
kill
killed
killer
killing
kilo
kiloda
kilogram
kilometre
kilometrekare
kilometrekarelik
kilometrelik
kim
kimdir
kime
kimi
kimileri
kimin
kimiyet
kimiyeti
kimler
kimlerin
kimlig
kimlik
kimlikleri
kimliklerini
kimse
kimseler
kimselerin
kimsenin
kimseye
kimseyi
kimya
kimyacı
kimyager
kimyagerler
kimyasal
kimyasallar
kimyası
kin
kinci
kincil
kincilik
kincisi
kind
kinetik
king
kingdom
kings
kingston
kinin
kinler
kinlerde
kinlerin
kipi
kir
kira
kiralama
kiralandı
kiralanmıs
kiralık
kiraz
kirby
kirec
kiril
kiris
kirk
kirli
kirlilig
kirlilik
kirman
kirpi
kis
kisel
kisi
kisine
kisini
kisinin
kiss
kit
kita
kitab
kitaba
kitabevi
kitabı
kitabıdır
kitabın
kitabına
kitabında
kitabından
kitabını
kitabının
kitabıyla
kitap
kitapc
kitaplar
kitaplarda
kitaplardan
kitapları
kitapların
kitaplarında
kitaplarından
kitaplarını
kitaplarının
kitaplıg
kitapta
kitaptaki
kitaptan
kitaptır
kitchen
kitle
kitleler
kitlelere
kitlesel
kitlesi
kitlesine
kiye
kiyi
kiz
kk
kka
kken
kko
kktc
kkus
kl
kla
klan
klarceti
klarnet
klasig
klasik
klasikleri
klasman
klasmanı
klaso
klaus
klavye
klavyeler
kle
kledi
kledig
kleer
kleik
klein
kleme
klemek
klendi
klenen
klenir
klenme
klenmis
kleopatra
kler
klerde
klerden
klere
kleri
klerin
klerinde
klerinden
klerine
klerini
klerinin
klerle
kleyici
klibi
klibin
klibinde
klibini
klid
klim
klima
klinig
klinik
klip
klipler
klipleri
klipte
klis
kloru
klu
km
kme
kmektedir
kmen
kmesi
kmu
kn
knesset
knezlig
knicks
knight
knights
knot
know
knowledge
knowles
known
knox
ko
koalisyon
koalisyonu
kobani
kobayashi
kobe
koc
koca
kocaeli
kocaelispor
kocaman
kocası
kocasını
kocasının
kocatepe
koch
kod
koda
kodlama
kodlar
kodları
kodlu
kodra
kodu
kodunu
kofi
kofu
kog
koji
kokain
koku
kokulu
kokusu
kol
kola
kolay
kolayca
kolaydır
kolaylas
kolaylıg
kolaylık
kolaylıkla
kolc
kolej
koleji
kolejinde
koleksiyon
koleksiyonları
koleksiyonu
koleksiyonunda
koleksiyonunu
kolektif
kolera
kolesterol
kolhis
kollar
kolları
kollarında
kollarından
kollu
kolluk
kolomb
kolombiya
kolombiyalı
kolon
koloni
koloniler
kolonileri
koloniles
kolonisi
kolordu
kolordusu
koltug
koltuk
koltuklu
kolu
koludur
kolumbiyası
koluna
kolunda
kolundan
kolunu
kolunun
koma
komando
kombat
kombinasyon
kombinasyonu
kombine
komedi
komedisi
komedyen
komedyenler
komik
komintern
komiser
komiseri
komiserlig
komisyon
komisyonu
komisyonun
komite
komitenin
komitesi
komitesinin
komnenos
kompakt
kompleks
kompleksi
kompleksinin
komplikasyonlar
komplo
kompozisyon
kompozit
kompreso
koms
komu
komut
komuta
komutan
komutanlar
komutanları
komutanlarından
komutanlıg
komutanlık
komutanı
komutanım
komutanın
komutası
komutasında
komutasındaki
komutasını
komutu
kon
konag
konak
konaklama
konan
konc
kondansato
kondu
konfederasyon
konfederasyonlar
konfederasyonu
konferans
konferansa
konferanslar
konferansta
konferansı
konferansında
konfigu
konfu
kong
kongo
kongolu
kongre
kongrede
kongresi
kongresinde
kongreye
koni
konik
konjenital
konmus
konrad
konsantrasyonu
konsantre
konsept
konsepti
konser
konserde
konseri
konserin
konserinde
konserini
konserler
konserlerde
konserleri
konserlerinde
konservatuvar
konservatuvarı
konservatuvarında
konserve
konsey
konseyi
konseyin
konseyine
konseyinin
konsili
konsol
konsolları
konsoloslug
konsolosluk
konsolosu
konsolu
konstantin
konstantinopolis
konstantinos
konsu
kont
konteyner
kontlug
kontluk
kontrat
kontrol
kontrolleri
kontrollu
kontrolo
kontrolsu
kontrolu
kontu
konu
konuda
konudaki
konudur
konug
konuk
konulan
konular
konulara
konularak
konularda
konulardan
konularla
konuları
konuların
konularına
konularında
konularını
konularının
konuldu
konuldug
konulması
konulmus
konulu
konulur
konum
konuma
konumda
konumdadır
konumlandırılmıs
konumlanmıs
konumları
konumlarını
konumu
konumuna
konumunda
konumundadır
konumundaki
konumunu
konunun
konur
konus
konusu
konusudur
konusuna
konusunda
konusundaki
konusunu
konusunun
konut
konuya
konuyla
konuyu
konvansiyonel
konya
konyaspor
kooperatif
koordinasyon
koordinasyonu
koordinat
koordinatlar
koordinatları
koordinato
koordine
kopan
kopenhag
kopernik
kopya
kopyaları
kopyası
kopyasını
kor
koray
kore
korea
korean
korece
korelasyon
koreli
koreograf
koreografi
korfu
korgeneral
korhan
koridor
koridoru
korint
korkan
korkmaz
korktug
korku
korkunc
korkusu
korkusuz
korkut
korkuteli
korkutucu
koro
koronaviru
korosu
korsan
korsanlar
korsanları
korsanlık
korsika
korteks
koru
korudu
korudug
koruma
korumak
korumakla
korumaktadır
korumalı
koruması
korumaya
korumayı
korumus
korunaklı
korunan
korundug
korunma
korunmak
korunmaktadır
korunması
korunmasına
korunmasını
korunmus
korunumu
korunur
korur
korurken
koruyan
koruyarak
koruyucu
koruyucusu
kos
kosova
kosovalı
kosta
kostu
kota
kotunda
kov
kova
kovalent
kovuldu
kovus
koy
koyan
koyar
koyarak
koydu
koydug
koydular
koyma
koymak
koymaktadır
koymaya
koymus
koyu
koyuldu
koyulur
koyun
koyup
koz
koza
kozan
kozmetik
kozmik
kozmolojik
kp
kr
kraft
krako
kral
krala
kralic
kraliyet
krallar
kralları
kralların
krallarının
krallıg
krallık
krallıkları
kralı
kralın
kralının
kramer
kran
krasnodar
krater
krayı
kredi
krem
krema
kremlin
kres
kresim
kretase
kriket
kripto
kriptografik
kris
kristal
kristalles
kristen
kriterler
kriterleri
kritik
kriz
krize
krizi
krizin
krizinden
krom
kromozom
kronik
kronoloji
kronolojik
kronolojisi
kru
krus
kruvazo
ks
ksal
kse
ksek
kseklig
kseklik
kseklikte
kseklikteki
kseko
ksekokul
ksekokulu
ksekova
ksekte
ksektir
ksel
kseldi
kseldig
kselemedi
kselen
kselerek
kselir
kselirken
kselis
kselme
kselmek
kselmesi
kselmesine
kselmeye
kselmeyi
kselmis
kseltildi
kseltilmis
kseltme
kseltmek
kseltti
ksemburg
ksiyon
ksiyonu
kspor
ksu
ksun
kt
ktas
kte
kteki
kten
ktidar
ktisadi
ktisat
kto
ktu
ku
kuala
kuantum
kuark
kuba
kuban
kubbe
kubbeli
kubbesi
kubilay
kuc
kucag
kudava
kudret
kudu
kug
kukla
kul
kula
kulag
kulak
kulakları
kulaklık
kule
kuleler
kuleleri
kuleli
kulenin
kulesi
kullanabileceg
kullanabilir
kullanacag
kullanacak
kullanan
kullanarak
kullandı
kullandıg
kullandıkları
kullandılar
kullanma
kullanmadan
kullanmak
kullanmakta
kullanmaktadır
kullanmaktan
kullanması
kullanmasına
kullanmasını
kullanmaya
kullanmayı
kullanmıs
kullanıcı
kullanıcılar
kullanıcılara
kullanıcıları
kullanıcıların
kullanıcılarının
kullanıcının
kullanıcısı
kullanıcıya
kullanılabileceg
kullanılabilecek
kullanılabilen
kullanılabilir
kullanılabilmektedir
kullanılacag
kullanılacak
kullanılamaz
kullanılan
kullanılarak
kullanıldı
kullanıldıg
kullanılmadıg
kullanılmak
kullanılmakta
kullanılmaktadır
kullanılmaktaydı
kullanılmalıdır
kullanılmamıs
kullanılması
kullanılmasına
kullanılmasını
kullanılmasının
kullanılmasıyla
kullanılmaya
kullanılmayan
kullanılmaz
kullanılmıs
kullanılır
kullanılırdı
kullanılırken
kullanılırlar
kullanılıyor
kullanılıyordu
kullanım
kullanıma
kullanımda
kullanımdan
kullanımlar
kullanımları
kullanımı
kullanımına
kullanımında
kullanımından
kullanımını
kullanımının
kullanımıyla
kullanın
kullanıp
kullanır
kullanırken
kullanırlar
kullanıs
kullanıyor
kullanıyordu
kulu
kuluc
kulvar
kum
kumamoto
kumanda
kumandan
kumandanlıg
kumandanı
kumar
kumas
kumlu
kumtas
kun
kundag
kung
kupa
kupada
kupaları
kupalarına
kupalarında
kupanın
kupası
kupasında
kupasını
kupaya
kupayı
kur
kura
kuracag
kurak
kuraklık
kural
kurallar
kurallara
kuralları
kuralların
kurallarına
kurallarını
kurallarının
kuralı
kuram
kuramsal
kuramı
kuramının
kuran
kurar
kurarak
kurarlar
kurbag
kurban
kurbanlar
kurbanları
kurbanların
kurbanı
kurbanın
kurdistan
kurdu
kurdug
kurdukları
kurdular
kureys
kurgu
kurguda
kurgusal
kurgusu
kurma
kurmaca
kurmak
kurmanci
kurması
kurmay
kurmaya
kurmayı
kurmus
kurnaz
kurs
kursk
kursları
kursu
kurt
kurtalan
kurtaran
kurtardı
kurtardıg
kurtarma
kurtarmak
kurtarmaya
kurtarmıs
kurtarıcı
kurtarıldı
kurtarılmıs
kurtarır
kurtc
kurtlar
kurtulan
kurtuldu
kurtulmak
kurtulmus
kurtulur
kurtulus
kuru
kuruc
kurucu
kurucular
kurucuları
kurucularından
kurucusu
kurucusudur
kurul
kurula
kurulabilir
kurulacak
kurulan
kurularak
kurulda
kuruldu
kuruldug
kurulduktan
kurulları
kurulması
kurulmasına
kurulmasında
kurulmasından
kurulmasını
kurulmasının
kurulmasıyla
kurulmus
kurultay
kurultayı
kurulu
kuruludur
kurulum
kurulumu
kurulun
kuruluna
kurulunca
kurulunda
kurulunun
kurulup
kurulur
kurulus
kurum
kuruma
kurumda
kurumlar
kurumlara
kurumlarda
kurumları
kurumların
kurumlarına
kurumlarında
kurumlarından
kurumlarının
kurumsal
kurumu
kurumudur
kurumun
kurumuna
kurumunun
kurup
kurus
kurutma
kurutulmus
kus
kusma
kusur
kusurlu
kusursuz
kusuz
kut
kutaisi
kutbu
kutladı
kutlama
kutlamak
kutlamaları
kutlanan
kutlanır
kutlu
kutsal
kutu
kutuları
kutup
kutuplas
kutusu
kuva
kuvars
kuvayı
kuveyt
kuvvet
kuvvete
kuvveti
kuvvetin
kuvvetini
kuvvetinin
kuvvetle
kuvvetler
kuvvetlere
kuvvetleri
kuvvetlerin
kuvvetlerinde
kuvvetlerinden
kuvvetlerine
kuvvetlerini
kuvvetlerinin
kuvvetleriyle
kuvvetli
kuyrug
kuyruk
kuyruklu
kuyu
kuzeni
kuzey
kuzeybatı
kuzeybatısında
kuzeyde
kuzeydeki
kuzeyden
kuzeydog
kuzeye
kuzeyi
kuzeyinde
kuzeyindeki
kuzeyinden
kuzeyine
kuzu
kv
kw
kwon
kyiv
kyle
kylie
kyo
kyoto
kyu
kyung
kı
kıbrıs
kıbrıslı
kıc
kıdemli
kıl
kılan
kılar
kılavuz
kılavuzu
kıldı
kıldıg
kılmak
kılmıs
kılıc
kılıcı
kılıg
kılınan
kılınmıs
kım
kın
kına
kınadı
kını
kınık
kıpc
kır
kırac
kıran
kırarak
kırbac
kırca
kırdı
kırgız
kırgızistan
kırk
kırklareli
kırkpınar
kırma
kırmak
kırmıs
kırmızı
kırmızımsı
kırmızıya
kırs
kırsal
kırık
kırıkkale
kırıklıg
kırıldı
kırılgan
kırılma
kırılması
kırılmıs
kırım
kırımı
kırınım
kıs
kısa
kısaca
kısacası
kısadır
kısaltma
kısaltması
kısaltılmıs
kıskanc
kısma
kısmen
kısmi
kısmı
kısmıdır
kısmın
kısmına
kısmında
kısmındaki
kısmından
kısmını
kısmının
kısım
kısımda
kısımdan
kısımlar
kısımları
kısımlarında
kısımlarını
kısımlarının
kısıtlama
kısıtlamalar
kısıtlamaları
kısıtlı
kıt
kıta
kıtalararası
kıtanın
kıtasal
kıtası
kıtasında
kıtasının
kıtlıg
kıtlık
kıvanc
kıvrımlı
kıvılcım
kıya
kıyafet
kıyafeti
kıyafetler
kıyafetleri
kıyamet
kıyasla
kıyaslandıg
kıymetler
kıymetli
kıyı
kıyıları
kıyılarına
kıyılarında
kıyılarındaki
kıyılarını
kıyısı
kıyısına
kıyısında
kıyısındaki
kıyıya
kız
kıza
kızak
kızarmıs
kızdır
kızgın
kızkardes
kızla
kızlar
kızları
kızların
kızı
kızıdır
kızıl
kızılay
kızılbas
kızılcahamam
kızıldeniz
kızılderili
kızılderililer
kızılderilileri
kızılhac
kızılo
kızıltepe
kızılırmak
kızım
kızın
kızına
kızını
kızının
kızıyla
l
la
lab
label
laboratory
laboratuvar
laboratuvarda
laboratuvarı
laboratuvarında
lac
lacivert
lacivertli
lada
ladies
ladik
ladin
lady
ladı
ladıg
ladıkları
ladıktan
ladılar
ladım
laf
lag
laga
lagos
lagrange
lagu
laguna
lahana
lahey
lahi
lahiyat
lai
laik
laiklig
laiklik
lak
lakabı
lakabını
lakabıyla
lakaplı
lake
lakers
lakin
lala
lale
lam
lama
lamadan
lamak
lamakla
lamakta
lamaktadır
lamaktır
lamalar
lamaları
lamanın
lamar
laması
lamasına
lamasından
lamasını
lamasının
lamasıyla
lamaya
lamayı
lamaz
lamb
lamba
lambda
lambert
lamda
lamlas
lamında
lamıs
lan
lana
lanabilir
lanacag
lanacak
lanacaktır
lanan
lanarak
lancashire
lancaster
lance
land
landau
landscape
landı
landıg
landırma
lane
lanet
laneti
lang
lange
language
languages
langıc
langıcı
langıcına
langıcında
langıcından
langıcını
lanham
lanka
lanma
lanmak
lanmaktadır
lanması
lanmasına
lanmasını
lanmıs
lannister
lanse
lantı
lantılar
lantıları
lantılarını
lantılı
lantılıdır
lantısı
lantısını
lantıyı
lanıp
lanır
lanıyor
lanıyordu
lao
laos
laplace
lapseki
lar
lara
larda
lardaki
lardan
lardı
lardır
large
laritesi
larken
larla
larlar
larry
lars
larsa
larva
ları
larıdır
larım
larımız
larımızın
ların
larına
larında
larındaki
larından
larını
larının
larıyla
las
lasa
laser
last
lastik
lasyon
lasyonlar
lasyonları
lasyonu
lasyonun
lası
lat
latan
late
later
lateral
latif
latin
latince
latma
latmak
latmıs
lato
lattı
lattıg
lattılar
latılan
latıldı
latılmıs
latır
laura
lauren
laurence
laurent
laurie
lav
lavigne
law
lawler
lawrence
laws
lawson
lay
layabilir
layacag
layacak
layacaktır
layamadı
layan
layarak
layer
layıcı
layıcısı
layık
layınca
layıp
laz
lazar
lazca
lazer
lazika
lazio
lazistan
laziz
lazkiye
lazım
lb
lbas
lbf
lbu
lc
lcd
lcu
ld
lde
ldeki
lden
ldi
ldots
ldp
ldu
le
lea
lead
leader
league
lear
learning
leary
leave
leben
lebileceg
lebilecek
lebilen
lebilir
lebilirlik
lebilmektedir
leburgaz
lec
leceg
lecek
lecektir
lecture
lectures
led
leden
ledger
ledi
ledig
ledikleri
lee
leeds
lefkos
left
leg
legacy
legal
legend
legends
legion
lego
leh
lehc
lehine
lehistan
leibniz
leicester
leicestershire
leiden
leigh
leipzig
lejyon
lejyonu
lek
leke
leler
leleri
lelerin
leles
lelig
lelik
lem
leman
lemci
lemciler
lemcileri
lemcisi
lemde
leme
lemek
lemeli
lemenin
lemesi
lemesine
lemesini
lemesinin
lemeye
lemeyen
lemeyi
lemez
lemi
lemidir
lemin
leminde
lemine
lemini
leminin
lemis
lemler
lemleri
lemlerin
lemlerinde
lemlerini
lemlerinin
len
lena
lence
lenceli
lendi
lendig
lendirdi
lendirilmesi
lendirilmis
lendirme
lendirmek
lene
lenen
lenf
length
leni
lenin
leningrad
leninist
lenir
lenler
lenlerin
lenme
lenmesi
lenmis
lennon
lenny
lens
lent
leo
leon
leonard
leonardo
leone
leonid
leopard
leopold
ler
lerbirlig
lerde
lerdeki
lerden
lerdi
lerdir
lere
lerek
leri
lerici
lerim
lerin
lerinde
lerindeki
lerinden
lerine
lerini
lerinin
leriyle
lerle
lerleme
lerles
lerleyen
lerlig
lerlik
les
lesbian
lesi
leslie
lesnar
lesotho
less
lester
let
leten
leti
letildi
letilen
letilmektedir
letilmesi
letilmis
letim
letis
letme
letmecilig
letmek
letmeler
letmeleri
letmelerin
letmenin
letmesi
letmeye
letmis
leton
letonya
letter
lettere
letters
letti
lettig
lettres
leucauge
leuven
lev
levant
level
levent
leverkusen
levha
levhası
levi
levin
levine
levini
levler
levleri
levlerini
levon
levsel
levsellig
levy
lewandowski
lewis
lex
lexington
leydi
leyen
leyerek
leyici
leyis
leyla
leyman
leymaniye
lez
lezbiyen
lezzet
lfat
lfu
lg
lga
lgbt
lge
lgede
lgedeki
lgeden
lgedir
lgeler
lgelerde
lgelerdeki
lgelerden
lgelere
lgeleri
lgelerin
lgelerinde
lgelerindeki
lgelerinden
lgelerine
lgelerini
lgelerinin
lgen
lgenin
lgesel
lgesi
lgesidir
lgesinde
lgesindeki
lgesinden
lgesine
lgesini
lgesinin
lgeye
lgeyi
lgi
lgili
lginc
lgu
lhak
lham
lhamid
lhamit
lhan
lhane
lhanlı
lhanlılar
li
lia
liam
lib
liberal
liberalizm
liberaller
libero
libertadores
liberty
liberya
library
libre
libreria
libretto
libya
lic
lice
lider
lideri
lideridir
liderin
liderler
liderleri
liderlerin
liderlerinden
liderlerinin
liderlig
liderlik
lidir
lidya
lie
liebe
lies
lif
life
lifler
lig
liga
ligası
ligature
ligde
ligdeki
ligden
lige
light
lightgrey
lightning
lights
ligi
ligin
liginde
ligine
liginin
liglerde
ligleri
liglerinde
ligue
liha
lihtens
lik
like
liko
likspor
likte
likya
lil
liler
lilian
lille
lily
lim
lima
liman
limana
limanlar
limanları
limanı
limanına
limit
limited
limiti
limits
limler
limon
lin
linc
lincoln
lincolnshire
linda
linde
linden
lindsay
line
linear
lineer
lines
ling
lini
linin
link
linkin
links
linnaeus
linus
linux
linyitspor
linyphiidae
linz
lio
lion
lionel
lions
lipa
lippi
lira
lirası
liraya
lirik
lis
lisa
lisan
lisans
lisanslı
lisansu
lisansı
lisansını
lise
lisede
liseden
liseler
liseleri
lisesi
lisesinde
liseyi
lisi
lislam
list
listan
liste
listede
listedeki
listelenen
listelenmis
listeler
listelerde
listelere
listeleri
listelerinde
listelerine
listenin
listesi
listesidir
listesinde
listesinden
listesine
listesini
listesinin
listeye
lit
lite
literary
literatu
literature
litre
litrelik
little
litvan
litvanya
litvanyalı
lityum
liu
liv
live
liverpool
lives
living
livorno
lix
liyakat
liz
lizbon
lizzie
ljubljana
lk
lkadir
lkbahar
lke
lkede
lkedeki
lkeden
lkedir
lkeler
lkelerde
lkelerdeki
lkelerden
lkelere
lkeleri
lkelerin
lkelerinde
lkelerindeki
lkelerinden
lkelerine
lkelerini
lkelerinin
lkelerle
lkemizde
lkemizin
lkenin
lker
lkerim
lkesi
lkesinde
lkesinden
lkesine
lkesini
lkesinin
lkeye
lkeyi
lki
lkiye
lkiyede
lkiyet
lkiyeti
lko
lkokul
lkokulu
lku
ll
lla
llc
lle
llendirildi
llendirilmis
ller
llerde
llerden
llere
lleri
llerin
llerinde
llerinden
llerine
llerini
llerinin
lli
lliyesi
lloyd
llu
lm
lme
lmecid
lmeden
lmedi
lmedig
lmek
lmekte
lmektedir
lmekteydi
lmeleri
lmemis
lmesi
lmesinde
lmesinden
lmesine
lmesini
lmesinin
lmesiyle
lmeye
lmeyen
lmeyi
lmez
lmi
lmu
ln
lo
lob
lobi
loc
local
location
lock
locke
lockheed
log
logan
logic
logo
logos
logosu
loire
lois
lojistik
lokal
loki
lokomotif
lokomotiv
lola
lombard
lombardiya
london
londra
lonely
long
look
looking
loop
lopez
lor
lord
lordlar
lordu
loren
lorentz
lorenz
lorenzetti
lorenzo
lori
lorraine
los
lost
lot
lotus
lou
loud
louis
louisa
louise
louisiana
louvre
love
lover
lovers
loves
loving
low
lowe
lower
loz
lozan
lp
lr
ls
lse
lsever
lsu
lt
ltd
lte
lteci
lteciler
ltecilerin
ltede
ltekin
lteler
lteleri
lten
lteni
ltenin
ltepe
ltesi
ltesinde
ltesinden
ltesine
ltimatom
ltu
lu
lubiyet
lubiyetle
luc
luca
lucas
lucca
luchinat
lucia
luciana
luciano
lucien
lucius
luck
lucky
lucy
ludur
ludwig
luftwaffe
lug
lui
luigi
luis
luiz
luk
luka
lukas
luke
luklar
lukları
lular
lum
lumia
lumpur
luna
lunar
lunu
lunun
lup
luther
luydu
lviv
ly
lya
lyada
lyas
lydia
lye
lyesi
lyesinde
lynch
lynn
lyon
lyonnais
lyus
lı
lıca
lıdır
lıg
lık
lıkla
lıklar
lıkları
lıklı
lıkta
lıktan
lılar
lılara
lıların
lılıg
lılık
lıydı
lıyken
lıyor
lıyordu
m
ma
maalesef
maarif
maas
mabel
mac
macar
macarca
macaristan
macarlar
macbeth
maccabi
macdonald
macera
maceraları
macerası
mach
machiavelli
machine
macintosh
mack
mackenzie
mackolik
macmillan
macos
macron
macı
macılar
macıları
mad
mada
madagaskar
madaki
madalya
madalyalar
madalyalı
madalyanın
madalyası
madalyasını
madalyayı
madam
madame
madan
madde
maddede
maddeden
maddedir
maddeler
maddelerde
maddelerden
maddelere
maddeleri
maddelerin
maddelerinde
maddelerinin
maddenin
maddesi
maddesinde
maddesine
maddesinin
maddesiyle
maddeye
maddeyi
maddi
made
madeleine
maden
madencilig
madencilik
madeni
madenleri
madison
madness
madonna
madrid
madı
madıg
madır
mae
maesta
mafia
mafya
mag
magazin
magazine
magda
magdeburg
maggie
maggiore
magi
magic
magister
magma
magmatik
magna
magnezyum
magnificent
magnolia
magnum
magnus
mah
mahal
mahalle
mahallede
mahalleden
mahalledir
mahalleler
mahalleleri
mahallenin
mahallesi
mahallesidir
mahallesinde
mahallesine
mahallesinin
mahalleye
mahalli
mahir
mahkeme
mahkemece
mahkemede
mahkemeler
mahkemelerde
mahkemeleri
mahkemelerin
mahkemenin
mahkemesi
mahkemesinde
mahkemesine
mahkemesinin
mahkemeye
mahku
mahkum
mahmud
mahmut
mahrum
mahs
mahsur
mahsus
mai
maia
maiden
mail
main
maine
mainz
majo
major
mak
makale
makalede
makaleler
makaleleri
makalenin
makalesi
makalesinde
makam
makama
makamlar
makamları
makamı
makamına
makamında
makamının
makao
makarna
make
makedon
makedonca
makedonya
maker
makes
maki
makina
makine
makineler
makineleri
makineli
makinenin
makinesi
making
makkabi
makla
makoto
makro
maksadıyla
maksim
maksimum
makta
maktadır
maktadırlar
maktan
maktaydı
makul
makyaj
mal
mala
malakka
malar
malara
malarda
malardan
malarla
maları
maların
malarına
malarında
malarından
malarını
malarının
malarıyla
malatestiano
malatya
malatyaspor
malavi
malay
malaya
malazgirt
malcolm
male
malerei
malezya
mali
malik
maliki
maliye
maliyet
maliyeti
maliyetleri
maliyetli
malkara
mall
mallar
malları
malların
mallarını
mallarının
mallorca
mallory
malmo
malone
malt
malta
maltepe
malu
malvarlıg
malzeme
malzemeden
malzemeler
malzemelerden
malzemeleri
malzemelerin
malzemenin
malzemesi
malzemeyi
malı
malıdır
malın
mam
mama
mamak
maması
mamia
mamog
mamıs
man
mana
management
manager
manas
manastır
manastıra
manastırı
manastırın
manasına
manavgat
manc
manca
manchester
mancini
manda
mandası
manet
manevi
manevra
manfred
manga
mangaları
mango
manhattan
mani
manifesto
manila
manipu
manisa
manisaspor
manist
manitoba
manken
manlar
manlara
manlardan
manlarla
manları
manların
manlarına
manlarından
manlarını
manlarının
manlıg
manlık
mann
mannerism
mannheim
mannini
mans
mansiyon
manson
manstein
mansur
mantal
mantar
mantarlar
mantasyon
mantegna
manto
mantua
mantıg
mantık
mantıklı
mantıksal
manual
manuel
manuil
many
manyas
manyetik
manzara
manzaraları
manzarası
manı
manın
mao
map
maps
mar
mara
maradona
maranha
maras
maraton
maratonu
marc
marcel
marcello
marcelo
march
marche
marco
marconi
marcos
marcus
mardin
mare
marek
mares
margaret
marge
margin
marguerite
mari
maria
mariah
marian
mariana
marianne
marie
marilyn
marin
marina
marine
marino
marinos
mario
marion
maritime
mariupol
marius
mariya
marjinal
mark
marka
markalar
markaları
markalı
markanın
markası
markasıdır
markasını
markasının
market
marko
markos
marks
marksist
marksizm
markus
marmara
marmaray
marmaris
marne
marquis
marriage
married
mars
marsden
marseille
marsh
marshall
marsilio
marsilya
mart
marta
marth
martha
marti
martin
martina
martinez
martini
marty
martı
maruz
marvel
marvin
marx
mary
maryland
mas
masa
masaccio
masal
masalları
masalı
masanın
masası
masau
masaya
maschietto
mask
maske
maskeli
maskesi
maso
masolino
mason
masrafları
masraflarını
mass
massa
massachusetts
massacre
massimo
master
mastering
masterpiece
masterpieces
masters
masum
ması
masıdır
masına
masında
masından
masını
masının
masıyla
masız
mat
mata
matbaa
matbaacılık
matbaası
match
mate
matematig
matematik
matematikc
matematiksel
matematikte
mater
material
materials
materyal
materyali
materyalin
materyaller
materyalleri
math
mathbb
mathbf
mathcal
mathematical
mathematics
mathieu
mathrm
matilda
mato
matris
matrisi
matrix
matsumoto
matt
matta
matteo
matter
matthew
matthews
matthias
maurice
mauritius
maurizio
mauro
mavericks
mavi
mavisi
max
maxi
maxim
maximilian
maximum
maximus
maxwell
may
maya
mayalar
mayan
mayer
mayla
maymun
maymunlar
mayo
mayun
mayı
mayın
mayınları
mayını
mayıs
maz
mazda
mazhar
mazlum
mazlıg
mazlık
mazlıklar
mazlıkları
mb
mba
mbc
mbox
mbu
mc
mccarthy
mccartney
mcdonald
mcek
mcekler
mcgill
mcgraw
mclaren
mcmahon
mcu
md
mdar
mdarlar
mdarları
mdarlıg
mdarlık
mdarı
mdarın
mde
mdeki
mden
mdi
mdu
me
mean
meaning
means
meb
meblag
mebu
mebusan
mebusanı
mebusu
mec
mecbur
mecburi
mechanics
mecidiye
mecidiyeko
meclis
meclise
meclisi
meclisin
meclisinde
meclisine
meclisinin
meclisleri
meclisli
mecliste
mecmuası
mecnun
med
medal
mede
medea
meden
medeni
medeniyet
medeniyeti
medi
media
mediawiki
medical
medici
medicine
medieval
medig
medikal
medine
medir
meditasyon
medium
medrese
medresesi
medvedev
medya
medyada
medyanın
medyası
medyaya
meet
meeting
meg
mega
megadeth
megan
megapiksel
megrelya
mehdi
mehmed
mehmet
meiji
mein
mek
meka
mekan
mekanda
mekanig
mekanik
mekanize
mekanizma
mekanizmalar
mekanizmaları
mekanizması
mekanlar
mekanlarda
mekansal
mekanı
mekig
mekke
mekle
meksika
meksikalı
meksiko
mekte
mekteb
mektebi
mektedir
mekten
mekteydi
mektubu
mektubun
mektubunda
mektup
mektuplar
mektupları
mektupta
mel
mela
melanie
melbourne
meleg
melek
melekler
meler
melerde
melerden
melere
meleri
melerin
melerinde
melerinden
melerine
melerini
melerinin
melerle
melez
meli
melih
melik
meliks
melis
melissa
mellon
melo
melodi
melodifestivalen
melodik
melody
melozzo
meltem
mem
member
members
membran
memduh
meme
memek
memeli
memeliler
memelileri
memelilerin
memesi
memet
memis
memleket
memleketi
memleketin
memlu
memluk
memluklu
memnun
memnuniyetle
memoirs
memorial
memories
memory
memphis
memur
memurlar
memurları
memurlarının
memurlug
memuru
men
mena
menajer
menajeri
menajerlik
mend
menderes
mendes
mendoza
mene
meneks
menemen
meni
menik
menin
menkul
menler
menleri
menlerin
menlik
mens
mensubu
mensup
mensupları
mensuplarının
mensuptur
ment
mental
mentes
menu
menzil
menzili
menzilli
mer
mera
merak
meraklı
meral
mercan
mercedes
merceg
mercek
mercekli
merceksi
mercer
mercimek
merckx
mercury
mercy
merdiven
mereti
merhaba
merhamet
merhum
meri
meric
meridyeni
merkel
merkez
merkezde
merkezdeki
merkezden
merkeze
merkezi
merkezidir
merkezin
merkezinde
merkezindeki
merkezinden
merkezine
merkezini
merkezinin
merkeziydi
merkezleri
merkezlerinde
merkezlerinden
merkezlerine
merkezlerinin
merkezli
merku
merle
merlin
mermer
mermi
mermisi
merry
mersin
mert
mervan
merve
meryem
merzifon
mes
mesa
mesafe
mesafede
mesafededir
mesafeden
mesafeli
mesafesi
mesafeyi
mesai
mesaj
mesajda
mesajlar
mesajları
mesajlas
mesajı
mesajın
mesajını
mescid
mescidi
mescit
mesela
mesele
meseleler
meseleleri
meselesi
mesi
mesidir
mesih
mesinde
mesinden
mesine
mesini
mesinin
mesire
mesiyle
mesleg
meslek
mesleki
meslekleri
meslektas
meslekten
mesnevi
message
messenger
messi
messier
messina
mesud
mesudiye
mesut
met
meta
metabolik
metabolizma
metacritic
metafizik
metal
metalik
metalin
metaller
metallerin
metallica
metalurji
metan
mete
meteor
meteoroloji
method
methods
meti
metil
metin
metinde
metinden
metine
metini
metinin
metinler
metinlerde
metinleri
metinlerin
metinlerinde
metis
metler
metleri
metlerin
metne
metni
metnin
metodu
metot
metraj
metrajlı
metre
metrede
metreden
metredir
metrekare
metrekarelik
metreku
metrelik
metresi
metreye
metreyi
metrik
metro
metrobu
metropol
metropolitan
metropoliten
metrosu
mette
metten
metz
mevcudu
mevcut
mevcuttu
mevcuttur
mevki
mevkide
mevkii
mevkiinde
mevla
mevlana
mevlevi
mevlu
mevsim
mevsimi
mevsiminde
mevsimsel
mevzu
mevzuat
mexico
mey
meydan
meydana
meydanda
meydanı
meydanında
meye
meyeceg
meyen
meyer
meyi
meyle
meyve
meyveler
meyveleri
meyvesi
mez
mezar
mezara
mezarlar
mezarları
mezarlıg
mezarlık
mezarı
mezarın
mezarının
mezbu
mezhebi
mezhebine
mezhep
mezhepler
mezhepleri
mezku
mezopotamya
mezra
mezralar
mezun
mezuniyet
mezunlar
mezunları
mezunu
mezunudur
mf
mg
mge
mgeneral
mgk
mgm
mh
mhp
mhz
mi
mia
miami
mich
michael
michaels
michel
michelangelo
michele
michelle
michelozzo
michigan
mick
mickey
micro
microsd
microsoft
micrurus
mid
midas
middle
middlesbrough
middlesex
mide
midi
midilli
midir
midnight
midyat
mie
mig
mighty
miguel
mihail
mihrap
mihver
mika
mikail
mike
miken
mikhail
miklo
mikro
mikrobiyoloji
mikrodalga
mikrofon
mikrois
mikroskobik
mikroskop
miksaj
miktar
miktarda
miktarlarda
miktarı
miktarına
miktarını
miktarının
mil
miladi
milan
milano
milas
milattan
mile
miles
milet
mili
milimetre
milis
militan
military
milk
mill
millard
millennium
miller
millet
millete
milleti
milletin
milletinin
milletler
milletlerarası
milletlerin
milletvekili
milletvekilidir
milletvekilinin
milletvekilleri
milletvekillerinin
milletvekillig
milli
million
milliye
milliyet
milliyetc
mills
milne
milo
milos
milton
milwaukee
milyar
milyon
milyona
milyondan
milyonlarca
milyonluk
milyonu
milyonun
mimar
mimari
mimarisi
mimarisinde
mimarisinin
mimarlar
mimarları
mimarlıg
mimarlık
mimarı
mimi
min
mina
minaj
minare
minaresi
minas
mind
mindat
mine
mineral
mineraller
mineralleri
minerva
ming
mini
minibu
minik
minimum
minister
ministry
minneapolis
minnesota
mino
minogue
minor
minsk
minute
minutes
minyatu
minyum
mio
mir
mira
miracle
miralay
miranda
miras
mirasc
mirasları
mirası
mirasın
mirasını
mirror
mirza
mis
misafir
misilleme
misin
misiniz
misket
miss
missing
mission
mississippi
missouri
mistik
misty
misyon
misyoner
misyonerlik
misyonu
mit
mitchell
mithat
miting
mitingi
mito
mitoloji
mitolojik
mitolojisi
mitolojisinde
mitolojisindeki
mitrovic
mitsubishi
mix
mixtape
miyer
miyeri
miyerini
miyet
miyosen
miz
mizah
mizahi
mk
mke
mku
ml
mlar
mle
mleg
mlek
mlekc
mleler
mleme
mler
mlerde
mlerden
mlere
mleri
mlerin
mlerinde
mlerinden
mlerine
mlerini
mlerinin
mleriyle
mlerle
mles
mlesi
mls
mlu
mm
mme
mms
mmu
mn
mnet
mo
mobil
mobile
mobilya
mod
moda
modası
modda
mode
model
modelde
modeldir
modele
modeli
modelidir
modelin
modelinde
modeline
modelini
modelinin
modelleme
modeller
modellerde
modelleri
modellerin
modellerinde
modellerini
modellerinin
modellik
models
modena
modern
modernist
modernize
modernles
modifiye
modları
modu
module
modunda
mog
mohamed
mohammed
moi
mol
mola
moldova
molecular
moleku
molla
molly
moloz
moment
momentum
mon
mona
monaco
monako
monars
monde
mondo
mondros
monet
money
moni
monica
monika
monito
monkey
mono
monroe
monster
monsters
mont
montagu
montaj
montana
monte
monterrey
montevideo
montgomery
month
monthly
montpellier
montreal
monument
monuments
monza
moody
moon
moore
mor
mora
moral
morales
moravya
more
moreno
morfoloji
morfolojik
morgan
mori
moritanya
morning
moro
morris
morrison
morse
mort
mortal
morton
mos
moscow
moses
moskova
moskva
mosque
moss
mossad
most
mother
motif
motifleri
motion
motivasyon
motive
moto
motor
motora
motorize
motorlar
motorları
motorların
motorlu
motorola
motors
motoru
motorun
motorunu
motorunun
motosiklet
motta
mount
mountain
mountains
mouse
mouth
move
movement
movie
movies
mozaig
mozaik
mozambik
mozart
mozilla
mp
mparator
mparatoric
mparatorlug
mparatorluk
mparatoru
mparatorun
mph
mr
mralı
mran
mraniye
mranlı
mre
mrna
mrs
mru
ms
msc
msf
msg
msn
msp
msu
msword
msz
mt
mtaz
mtv
mu
muaf
muallim
muamele
muammer
muaviye
muayene
muazzam
muazzez
much
mucibince
mucidi
mucit
mucitler
mucize
mudanya
mufassal
mug
muha
muhabbet
muhabir
muhabiri
muhafaza
muhafazaka
muhafazakar
muhafız
muhafızlar
muhafızları
muhafızı
muhakkak
muhalefet
muhalefeti
muhalefetin
muhalif
muhalifler
muhalifleri
muhammad
muhammed
muhammet
muharebe
muharebede
muharebeler
muharebeleri
muharebenin
muharebesi
muharebesinde
muharebeye
muharrem
muhasebe
muhasebeci
muhittin
muhrip
muhsin
muhtac
muhtar
muhtelif
muhtemel
muhtemeldir
muhtemelen
muhterem
muhtes
muir
mukaddes
mukavelesi
mukavemet
multi
multimedya
multiple
mum
mumbai
mumcu
mun
mundo
munich
mur
mura
murad
muradiye
murat
murcia
murder
murdoch
murphy
murray
muru
mus
musa
muse
musei
museo
museum
musevi
music
musical
musiki
musikisi
muslim
mussolini
must
mustafa
mustafakemalpas
mustaine
musul
musun
musunuz
mut
mutabakat
mutant
mutasyon
mutfag
mutfak
mutlak
mutlaka
mutlu
mutlulug
mutluluk
mutsuz
muvaffak
muz
muzaffer
muzdarip
mv
mvp
mw
mx
my
myanmar
myers
myk
myo
myrmarachne
myspace
mysterio
mystery
myth
mythology
mza
mı
mıdır
mıs
mısın
mısır
mısırlı
mısırlılar
mızrag
mızrak
n
na
naas
nabi
nabla
nac
nach
nacht
naci
nacional
nad
nadal
nadi
nadia
nadir
nadirdir
nadiren
nag
nagasaki
nagoya
nah
nahc
nahiye
nahiyesi
nahiyesine
nahiyesinin
nai
naibi
nail
naim
naip
nak
nakamura
nakc
naked
nakil
nakit
naklar
nakledildi
nakli
nakliye
naks
nakıs
nal
nalan
nallıhan
nam
namag
namaz
namazı
name
named
names
namespace
namibya
namlu
namlulu
namus
namık
nan
nana
nanc
nancy
nane
nano
nanog
nanoteknoloji
nantes
naoki
naomi
naples
napoleon
napoli
napolyon
nar
nara
narin
narman
narrative
naruto
nas
nasa
nash
nashville
nasip
nasr
nasreddin
nassau
nasyonal
nasıl
nasır
nat
natalia
natalie
natalya
natasha
nate
nathan
nathaniel
nation
national
nationale
nationaux
nations
native
nato
natu
natural
nature
naval
navarro
navigasyon
navy
nay
nayak
naydın
naylon
naz
nazan
nazar
nazaran
nazarbayev
nazi
nazik
naziler
nazilerin
nazilli
nazionale
nazlı
nazmi
nazım
nazırlıg
nazırı
nb
nba
nbc
nbelleg
nc
nca
ncaa
nce
nceden
nceki
ncel
nceleme
ncelenmemis
nceler
nceleri
ncelerin
ncelerini
nceli
ncelig
ncelik
ncelikle
ncelikli
ncelleme
ncellemesi
ncellenmis
ncelles
ncenin
ncesi
ncesinde
ncesindeki
ncesinden
ncesine
ncesini
ncesinin
ncesiyle
nceye
nceyi
nchen
nchengladbach
nchez
nci
ncil
ncili
ncu
ncı
nd
nda
ndaki
ndan
ndar
nde
ndedir
ndeki
ndelik
ndem
ndeme
ndemi
ndemine
nden
nder
nderdi
nderdig
nderdiler
nderen
ndererek
nderi
nderildi
nderildig
nderilen
nderilir
nderilmesi
nderilmis
nderip
nderir
nderlig
nderlik
nderme
ndermek
ndermeler
ndermeye
ndermis
ndeydi
ndeyken
ndez
ndog
ndu
ne
neal
near
nebilir
nebolu
nebraska
nebula
nec
necati
necdet
neceg
necek
necip
necmettin
necmi
ned
neden
nedenden
nedeni
nedenidir
nedenini
nedeninin
nedeniyle
nedenle
nedenler
nedenlerden
nedenleri
nedenlerinden
nedenlerle
nedensellik
nedim
nedir
need
nef
nefer
nefes
nefret
neftc
negatif
nego
negra
negro
nehir
nehirdir
nehirler
nehirleri
nehirlerinin
nehre
nehri
nehrin
nehrine
nehrini
nehrinin
neil
neill
nejat
nek
nel
neldi
nelen
neler
neli
nelik
neliktir
nelim
nelimli
nell
nella
nelle
nelly
nelmis
nelson
neltti
nem
nemde
nemdeki
nemden
nemdir
neme
nemi
nemin
neminde
nemindeki
neminden
nemine
nemini
neminin
nemki
nemle
nemler
nemlerde
nemlere
nemleri
nemlerinde
nemlerine
nemli
nemlidir
nemlileri
nemlisi
nemliydi
nemsiz
nemzeti
nen
nene
neo
neoklasik
neolitik
neon
nepal
nepenthes
neptu
ner
nerde
nerdi
nerdig
nerede
nereden
neredeyse
nerek
neren
nereye
nerge
nergesi
neri
nerildi
nerilen
neriler
nerileri
nerilir
nerilmis
neriman
nerir
nerisi
nerisini
nerken
nerler
nerme
nermektedir
nermin
nermis
nero
nes
nesans
nesi
nesil
nesiller
nesin
nesir
nesli
nesne
nesnel
nesneler
nesneleri
nesnelerin
nesnenin
nesnesi
nesneye
nesneyi
nesrin
nesticus
nestle
nestor
net
netanyahu
neten
netflix
netherlandish
netherlands
neti
neticede
neticesi
neticesinde
netici
neticiler
neticileri
neticilerin
neticilerinin
neticilig
neticilik
neticisi
netildi
netilen
netilir
netiliyordu
netilmektedir
netilmis
netim
netimde
netime
netimi
netimin
netiminde
netimindeki
netiminden
netimine
netimini
netiminin
netimler
netimleri
netir
netles
netme
netmek
netmelig
netmelik
netmelikle
netmelikte
netmen
netmeni
netmenin
netmenler
netmenleri
netmenlig
netmenlik
netmeye
netmis
nets
netscape
netti
nettig
network
networks
neue
neumann
nev
neva
nevada
never
nevi
neville
nevin
nevis
nevruz
nevs
nevzat
new
newcastle
newfoundland
newman
newport
news
newton
next
nexus
ney
neybatı
neybatıda
neybatısında
neyd
neyde
neydeki
neyden
neydog
neye
neyi
neyin
neyinde
neyindeki
neyinden
neyine
neyse
neyt
nez
nezareti
nezdinde
nf
nfaz
nfl
ng
nga
ngc
nge
ngede
ngel
ngen
ngenler
nger
ngerbob
ngesel
ngesi
ngesinde
ngesine
ngeye
ngiliz
ngilizce
ngilizcede
ngilizcesi
ngilizceye
ngilizler
ngilizlere
ngilizlerin
ngiltere
ngo
ngu
ngus
nh
nhasır
ni
nia
niagara
nic
nica
niccolo
nice
nicel
nicholas
nichols
nicholson
nicht
nick
nickelodeon
nicki
nico
nicola
nicolas
nicole
nie
niels
nielsen
nietzsche
niforma
nig
nigar
nigel
night
nightmare
nights
nih
niha
nihai
nihal
nihat
nihayet
nihayetinde
niigata
nijer
nijerya
nijeryalı
nik
nika
nikaragua
nikasyon
nike
nikel
nikiforos
nikita
nikki
niko
nikola
nikolai
nikolaos
nikolay
nikoloz
nikon
nikos
niksar
nil
nilgu
nilu
nimet
nin
nina
nine
ninja
nino
nintendo
nio
nippon
nir
nirvana
nis
nisa
nisan
nispeten
nispi
nissan
nist
nistler
nistlerin
nite
nitekim
nitelendirdi
nitelendirilen
nitelig
nitelik
nitelikleri
nitelikli
nitelikte
niteliktedir
nitelikteki
niter
nitesi
nitrat
nitrik
niversite
niversitede
niversiteden
niversiteler
niversitelerde
niversiteleri
niversitelerin
niversitelerinde
niversitenin
niversitesi
niversitesidir
niversitesinde
niversitesinden
niversitesine
niversitesinin
niversiteye
niversiteyi
nixon
niyazi
niye
niyet
niyeti
niyetini
niyetli
niza
nizam
nizami
nizip
nizm
nizmin
nj
nk
nka
nku
nkvd
nkılap
nl
nland
nlar
nları
nle
nlem
nleme
nlemek
nlemeye
nlemler
nlemleri
nlemlerin
nlendi
nlendiren
nlendirme
nlendirmek
nlenmesi
nlenmis
nler
nlerce
nlerde
nlerden
nlere
nleri
nlerin
nlerinde
nlerinden
nlerine
nlerini
nlerinin
nleriyle
nlerle
nles
nleyici
nlu
nm
nme
nmeden
nmedi
nmedig
nmek
nmekte
nmektedir
nmeleri
nmenin
nmesi
nmesinden
nmesine
nmesini
nmesinin
nmesiyle
nmeye
nmeyen
nmeyi
nmez
nmu
nn
nnehir
nnet
nni
no
noah
nobel
noble
nobody
noe
noel
nogay
nohut
noir
noise
nokia
nokta
noktada
noktadan
noktaladı
noktalar
noktalarda
noktaları
noktalarına
noktalarında
noktalarından
noktalarını
noktalarının
noktalı
noktanın
noktası
noktasıdır
noktasına
noktasında
noktasından
noktasını
noktasının
noktaya
noktayı
nolan
nolu
nominal
non
none
nor
nora
nord
nordic
norfolk
norm
norma
normal
normalde
normale
normalles
norman
normandiya
normanlar
norris
norte
north
northamptonshire
northern
northwest
northwestern
norton
norvec
norway
norwich
nos
not
nota
notaları
note
noter
notes
nothing
notlar
notları
notların
notre
nottingham
nottinghamshire
notu
nous
nouveau
nouvelle
nov
nova
novak
novara
novel
novella
november
novgorod
novi
novo
now
noyan
np
nr
ns
nsal
nsan
nsani
nsanlar
nsanlarda
nsanları
nsanların
nsanlıg
nsanlık
nsanın
nsdap
nse
nsel
nso
nster
nsu
nsız
nsızdır
nt
ntem
ntemde
ntemdir
ntemi
ntemidir
ntemin
ntemine
ntemini
nteminin
ntemiyle
ntemle
ntemler
ntemleri
ntemlerin
ntemlerini
ntemlerinin
ntemlerle
nter
nternet
nther
ntihar
ntikam
ntu
ntv
nu
nuclear
nufus
nuggets
nuh
nuit
nuitc
num
numan
numara
numarada
numaradan
numaralandırılan
numaralandırılmıs
numaraları
numaralı
numarası
numarasını
numaraya
numarayı
number
numbers
numeric
numune
nun
nuova
nur
nureddin
nurettin
nuri
nursi
nurullah
nusaybin
nusret
nussbaum
nut
nutuk
nwa
nxt
ny
nya
nyaca
nyada
nyadaki
nyadan
nyalar
nyanın
nyası
nyasına
nyasında
nyasındaki
nyasından
nyasını
nyasının
nyaya
nyayı
nye
nyesi
nyesinde
nyesindeki
nyesine
nyevi
nyu
nı
nın
nına
nında
nını
o
oak
oakland
oannis
obama
oban
obi
obituary
object
objektif
oblast
oblastı
obrist
observer
obu
oc
ocag
ocak
ocakları
ocean
och
oclc
oct
octavia
octavo
october
ocug
ocuk
ocukken
ocuklar
ocuklara
ocuklarda
ocuklarla
ocukları
ocukların
ocuklarına
ocuklarını
ocuklarının
ocuklu
ocuklug
ocukluk
od
oda
odabas
odada
odadan
odag
odak
odaklanan
odaklandı
odaklanmaktadır
odaklanmıs
odaklanır
odaklı
odalar
odaları
odalı
odanın
odası
odasına
odasında
odasının
odatv
odaya
odd
odeon
oder
odessa
odin
odtu
odun
odur
odysseus
odyssey
oecd
of
ofc
off
office
official
ofis
ofisi
ofisinde
ofisleri
ofo
og
ogg
oh
ohio
ohri
oil
ois
oise
ok
oka
okan
okay
okayama
okc
okinawa
oklahoma
okları
oklu
oklug
okrug
oksijen
oksit
oktan
oktay
oktur
oku
okudu
okudug
okuduktan
okul
okula
okulda
okuldaki
okuldan
okullar
okullara
okullarda
okulları
okulların
okullarında
okulu
okulun
okuluna
okulunda
okulundan
okulunu
okulunun
okuma
okumak
okumaya
okumayı
okumus
okunan
okundu
okunması
okunup
okunur
okunus
okur
okurken
okuyan
okuyarak
okuyucu
okuyup
okyanus
okyanusu
okyanusya
ol
ola
olabildig
olabileceg
olabilecek
olabilen
olabilir
olabilirdi
olabilirler
olabilmek
olabilmektedir
olabilmesi
olacag
olacak
olacaktı
olacaktır
olag
olak
olakog
olamadı
olamamıs
olamayacag
olamayan
olamaz
olan
olana
olanag
olanak
olanakları
olanlar
olanlara
olanlardan
olanları
olanların
olanı
olanıdır
olanın
olarak
olası
olasıdır
olasılıg
olasılık
olasılıkla
olay
olaya
olayda
olaydan
olayla
olaylar
olaylara
olaylarda
olaylardan
olaylarla
olayları
olayların
olaylarına
olaylarından
olaylarını
olaylarının
olayı
olayın
olayına
olayında
olayından
olayını
olayının
olca
olcay
old
oldu
oldug
olduk
oldukc
oldukları
olduklarına
olduklarından
olduklarını
olduktan
oldular
oldum
oldı
ole
oleg
olga
olgu
olgular
olgun
olgunlas
olgunlug
olimpia
olimpiakos
olimpik
olimpiyat
olimpiyatlar
olimpiyatlarda
olimpiyatları
olimpiyatlarında
olistan
oliveira
oliver
olivia
olivier
ollar
olların
olma
olmadan
olmadı
olmadıg
olmadıkc
olmadıkları
olmadıklarını
olmag
olmak
olmakla
olmaksızın
olmakta
olmaktadır
olmaktan
olmaktır
olmaları
olmalarına
olmalarını
olmalı
olmalıdır
olmalıydı
olmamak
olmamakla
olmaması
olmamasına
olmamıs
olmanın
olmasa
olmasaydı
olması
olmasıdır
olmasın
olmasına
olmasında
olmasından
olmasını
olmasının
olmasıydı
olmasıyla
olmaya
olmayabilir
olmayacag
olmayacak
olmayacaktır
olmayan
olmayanlar
olmayı
olmayıp
olmaz
olmazsa
olmus
olsa
olsalar
olsaydı
olschki
olsen
olsun
oltu
olub
oluk
olumlu
olumsuz
olun
olunacak
olunacaktır
olunan
olunca
olundu
olundug
olunması
olunmus
olunur
olup
olur
olurdu
olurken
olurlar
olursa
olursak
olus
oluyor
oluyordu
olympia
olympic
olympique
om
omar
omega
omurga
omurilik
omuz
on
ona
onarım
onarımı
onat
onay
onayladı
onaylamıs
onaylanan
onaylandı
onaylanması
onaylanmıs
onaylı
onayı
onayını
onbas
onbes
once
onda
ondalık
ondan
one
ones
oniki
onlar
onlara
onlarca
onlardan
onlarla
onları
onların
online
only
ono
ons
ontario
onu
onun
onuncu
onunla
onur
onurlandırıldı
onurlu
onursal
onuruna
op
opel
open
opera
operalar
operaları
operasyon
operasyona
operasyonda
operasyonel
operasyonlar
operasyonlarda
operasyonları
operasyonlarını
operasyonu
operasyonun
operası
operation
operations
operato
operatorname
oppo
optik
optimize
option
options
opus
or
ora
oracle
orada
oradaki
oradan
orak
oral
oran
oranda
orange
oranla
oranlarda
oranları
oranlarına
oranlarında
oranlarını
oranlarının
oranlı
orantılı
orantılıdır
oranı
oranın
oranına
oranında
oranını
oranının
oranıyla
oray
oraya
orayı
orba
orbası
orc
orchestra
orda
order
ordu
orduda
ordudan
ordular
orduları
ordularına
ordularını
ordularının
ordunun
orduspor
ordusu
ordusuna
ordusunda
ordusundan
ordusunu
ordusunun
ordusuyla
orduya
orduyla
orduyu
ore
oregon
org
organ
organik
organizasyon
organizasyonda
organizasyonlar
organizasyonları
organizasyonu
organizasyonudur
organizasyonun
organization
organizato
organize
organizma
organizmalar
organizmaların
organizmanın
organlar
organları
organların
organlarında
organlarını
organlarının
organı
organıdır
organının
orgeneral
orhan
orhangazi
orhun
ori
oricon
orient
oriental
orientation
oriente
origin
original
origini
origins
orijinal
orijinali
orion
orionis
orkestra
orkestrası
orlando
orleans
orlu
orman
ormana
ormancılık
ormanda
ormanlar
ormanlarda
ormanları
ormanların
ormanlarında
ormanlık
ormanı
ormanın
ornella
ornithodoros
ornitolog
oro
orobanche
ort
orta
ortac
ortada
ortadaki
ortadan
ortadog
ortag
ortak
ortaklar
ortakları
ortaklas
ortaklıg
ortaklık
ortako
ortalama
ortalamaları
ortalamalarıyla
ortalaması
ortalarına
ortalarında
ortalarından
ortam
ortama
ortamda
ortamdaki
ortamdan
ortamlarda
ortamları
ortamı
ortamın
ortamına
ortamında
ortamının
ortao
ortaokul
ortaokulu
ortası
ortasına
ortasında
ortasındaki
ortasından
ortaya
ortodoks
orton
oruc
oruh
orum
oryantalist
os
osaka
oscar
osetya
osiris
oskar
oslo
osman
osmancık
osmangazi
osmani
osmaniye
osmanlı
osmanlıca
osmanlılar
osmanlılara
osmanlıların
osmanog
ost
ostrogotlar
oswald
ot
ota
otc
otel
otelde
otele
oteli
otelin
oteller
othello
other
others
otis
otlar
oto
otobiyografi
otobiyografik
otobu
otomasyon
otomatik
otomobil
otomobili
otomobilin
otomobiller
otomobilleri
otomotiv
otonom
otopark
otopsi
otorite
otoriter
otoritesi
otoritesine
otoritesini
otoyol
otoyolu
otsu
ottawa
otto
ottoman
otu
oturan
oturdu
oturdug
oturma
oturmus
oturum
oturup
oturur
otuz
ou
our
out
outlook
output
outside
ov
ova
ovacık
oval
ovalar
ovası
ovda
over
overline
overview
ovları
ovu
ovun
ovunda
owen
owens
own
oxford
oxfordshire
oxyopes
oy
oya
oybirlig
oyla
oylama
oylamada
oylaması
oylamasında
oyları
oyların
oylarını
oyma
oymag
oymak
oynadı
oynadıg
oynadıkları
oynadıktan
oynadılar
oynama
oynamak
oynamaktadır
oynaması
oynamaya
oynamayı
oynamıs
oynanabilir
oynanacak
oynanan
oynandı
oynandıg
oynanmıs
oynanır
oynanıs
oynar
oynarken
oynarlar
oynayacag
oynayan
oynayarak
oynayıp
oynuyor
oysa
oyu
oyulmus
oyun
oyuna
oyuncak
oyuncaklar
oyuncu
oyuncudur
oyuncular
oyunculara
oyunculardan
oyuncularla
oyuncuları
oyuncuların
oyuncularından
oyuncularının
oyunculu
oyunculug
oyunculuk
oyuncunun
oyuncusu
oyuncusudur
oyuncuya
oyuncuyu
oyunda
oyundaki
oyundan
oyundur
oyunla
oyunlar
oyunlara
oyunlarda
oyunları
oyunların
oyunlarına
oyunlarında
oyunlarından
oyunlarını
oyunlarının
oyunu
oyunudur
oyunun
oyununa
oyununda
oyunundan
oyununu
oyununun
oyunuyla
oz
ozan
ozon
p
pa
pablo
pac
pace
pacers
pacific
pacini
pack
padding
padis
padova
padua
paf
pag
pagan
page
pages
pahalı
pahasına
pai
paige
pain
painter
painters
painting
paintings
pair
pairs
pak
paket
paketi
paketler
paketleri
pakistan
pakistanlı
paktı
pal
pala
palace
palais
palazzo
paleolitik
paleologos
paleontolog
palermo
palestine
palgrave
palladio
palm
palma
palmer
palmiye
palu
palyac
pamela
pamir
pamuk
pamukkale
pan
panama
panamerikan
panathinaikos
panda
pandemi
pandemisi
pandemisinden
pandora
panel
paneli
panicum
panig
panik
pankreas
panorama
panoramik
panoramio
panter
panther
pantolon
panzer
paok
paola
paolo
papa
papag
papalıg
papalık
papaz
paper
paperback
papers
papiru
papua
par
para
parade
paradise
paraguay
paraguaylı
parai
paralar
paraları
paraların
paralel
paralimpik
paralı
param
parameter
parameters
parametre
parametreler
parametreleri
parametresi
paramiliter
paramount
params
parana
paranormal
parantez
paranın
paras
parasal
parası
parasını
parasız
paraya
parayla
parayı
parazit
parc
pardosa
pardus
parfu
paris
parish
parishler
park
parker
parkinson
parklar
parkları
parks
parkta
parkı
parkın
parlak
parlaklıg
parlaklık
parlamenter
parlamenterler
parlamento
parlamentoda
parlamentonun
parlamentosu
parlamentoya
parlayan
parliament
parma
parmag
parmak
parola
pars
parsons
part
parti
partial
partide
partiden
partidir
partiku
partiler
partilere
partileri
partilerin
partili
partinin
partisi
partisinden
partisine
partisini
partisinin
partiye
partiyi
partizan
partner
partneri
partners
parts
party
pas
pasaport
pasaportlar
pasaportu
pascal
pasif
pasifik
pasinler
paskalya
paslanmaz
paso
pasquale
pass
passion
past
pasta
pat
patates
patenci
patencileri
pateni
patent
patenti
patentini
path
patinaj
patladı
patlak
patlama
patlamadan
patlamalar
patlamanın
patlaması
patlayan
patlayıcı
patlıcan
patnos
patoloji
patricia
patrick
patrig
patrik
patrikhanesi
patron
patronage
patrons
patronu
pattern
patterns
patterson
patton
pau
paul
paula
pauli
pauline
paulista
paulo
paulus
pausanias
pav
pavel
pavia
pavlus
pay
paydas
paylas
payne
pays
payı
payını
paz
pazar
pazara
pazarcık
pazarda
pazarlama
pazarlanan
pazarlık
pazartesi
pazarı
pazarına
pazarında
pb
pbs
pc
pcr
pdf
pe
peace
pearl
pearson
pec
pedagoji
pedro
peer
peg
pegasus
peggy
pehlevi
pehlivan
pek
pekc
peker
peki
pekin
pekis
pekkan
pekler
pekleri
peklerin
pelin
pembe
pen
penaltı
penaltıdan
penaltılarla
penc
pencap
pencere
pencereden
pencereler
penceresi
pendik
penelope
penguin
penis
penn
pennsylvania
penny
pensilvanya
pentagon
pentium
people
peoples
pepe
pepper
pepsi
per
pera
perakende
perc
percy
perde
perdelik
pereira
perez
perfect
performance
performans
performansa
performansla
performanslar
performansları
performanslarını
performanslı
performansı
performansını
performansının
performansıyla
pergamon
peri
perihan
perinc
period
peris
periyodik
periyodu
perkins
perku
pernambuco
pernova
perry
pers
perseus
persian
persler
person
personal
personel
personele
personeli
personelin
personelinin
perspective
perspectives
perspektif
perth
peru
perugia
perugino
perulu
pervane
pes
pet
pete
peter
peterburg
peters
petersburg
peterson
petit
petra
petro
petrograd
petrol
petrolu
petrov
petrovic
petrus
peugeot
peyami
peygamber
peygamberi
peygamberin
peygamberler
peynir
peyniri
peyzaj
pez
pf
pfk
pg
pgc
ph
phaidon
phane
phaneler
phaneleri
phanenin
phanesi
phanesinde
phantom
pharrell
phase
phe
pheli
pheliler
phelilerin
phelinin
phesiz
phi
phil
philadelphia
philip
philipp
philippe
philips
phillip
phillips
philodromus
philosopher
philosophical
philosophy
phoenix
pholcus
phone
photo
photos
php
physical
physics
pi
pia
piano
piaui
piazza
pic
picasso
picture
pictures
pie
piece
pier
pierce
pierluigi
piero
pierre
pieter
pietro
pik
pike
piknik
piksel
pil
pilav
piller
pilot
pilotlar
pilotları
pilotu
pilotun
pilsen
pin
pine
ping
pink
pinto
pinus
pinyin
pioneer
piotr
piper
pir
piramidi
piramit
pirates
pire
piri
pirinc
pis
pisa
pisagor
pisanello
pisano
piskopos
piskoposlar
piskoposları
piskoposlug
piskoposluk
piskoposu
pist
pisti
pistin
piston
pistons
pit
piter
pitt
pittore
pittsburgh
pittura
piu
pius
pivot
pixel
piyade
piyadeleri
piyanist
piyanistler
piyano
piyasa
piyasada
piyasası
piyasaya
piyemonte
pizza
pk
pkk
pl
pla
place
places
plag
plain
plaj
plajı
plak
plaka
plakası
plan
plana
planck
planda
plane
planet
planladı
planladıg
planlama
planlaması
planlamıs
planlanan
planlandı
planlandıg
planlanmaktadır
planlanmıs
planlanıyor
planlar
planları
planlarını
planlarının
planlı
planning
plano
plant
plants
planı
planın
planına
planında
planını
planının
plastik
plata
plate
platform
platformda
platformlar
platformlarda
platformları
platformu
platformunda
platin
platinum
plato
platon
platosu
play
player
players
playing
playoff
playofflar
playstation
plaza
plazma
ple
please
pleistosen
pler
pleri
plerin
plerinde
plerinden
plerinin
plevne
plinius
plotarea
plotdata
plu
plus
plutarch
plymouth
pm
pmatrix
pmc
pmid
png
pno
po
poaceae
pocket
podcast
poe
poems
poetry
poincare
point
points
pokal
poke
pol
poland
polar
polarizasyon
polarize
polat
polatlı
pole
poli
police
policy
polimer
polimeraz
polinom
polis
polise
polish
polisi
polisin
polisiye
polisler
polistampa
politbu
politeknik
political
politics
politik
politika
politikacı
politikacılar
politikada
politikalar
politikaları
politikaların
politikalarına
politikalarını
politikalarının
politikanın
politikası
politikasına
politikasını
politikasının
politikaya
politiques
poll
pollaiuolo
polo
polonya
polonyalı
polonyalılar
poly
pompa
pompası
pompey
pons
pont
ponte
pontus
pony
pool
pop
pope
popu
popular
population
por
porno
pornografi
pornografik
porsche
porselen
porsuk
port
porta
portable
portaj
portajda
portajlar
portajı
portajında
portakal
portal
portalı
portekiz
portekizce
portekizli
portekizliler
porter
portfo
portland
porto
portrait
portraits
portre
portreler
portreleri
portresi
portsmouth
portugal
pos
poseidon
position
posof
possible
post
posta
postası
postmodern
postu
potansiyel
potansiyeli
potansiyeline
potansiyelini
potasyum
potsdam
potter
pound
pour
powell
power
powers
poyraz
poz
pozisyon
pozisyonda
pozisyonları
pozisyonlarında
pozisyonu
pozisyonuna
pozisyonunda
pozisyonunu
pozitif
poznan
pp
pr
practice
prado
prag
praha
pratig
pratik
pratikte
prato
pratt
pravda
prayer
pre
prefekto
prefix
premier
premio
premium
premyer
prens
prenses
prensesi
prensi
prensibi
prensip
prensipleri
prensler
prensleri
prenslig
prentice
pres
present
presents
president
presley
press
pressure
prestel
prestij
prestijli
preston
pretty
pri
price
pride
priest
prima
primavera
prime
primeira
primer
primera
primetime
primo
prince
princely
princess
princeton
principles
print
pris
prison
private
prix
prize
prizren
pro
problem
problemi
problemin
problemler
problemleri
problems
proceedings
process
produ
producer
production
productions
products
prof
profeso
professional
professor
profesyonel
profesyonellig
profil
profile
profili
program
programa
programcısı
programda
programlama
programlanmıs
programlar
programları
programların
programlarına
programlarında
programlarını
programlarının
programı
programıdır
programın
programına
programında
programından
programını
programının
progresif
progress
proje
project
projects
projede
projeler
projelerde
projeleri
projelerin
projelerinde
projelerini
projelerinin
projenin
projesi
projesinde
projesine
projesini
projesinin
projeye
projeyi
prometheus
promo
promosyon
prop
propaganda
propagandası
properties
property
prosedu
proses
prostat
protection
protein
proteini
proteinin
proteinler
proteinleri
proteinlerin
protestan
protestanlar
protesto
protestocular
protestolar
protestoları
proto
protocol
protokol
protokolleri
protokolu
proton
prototip
prototipi
prova
provalarda
provence
providence
province
provincie
pru
prusya
prva
ps
psi
psikanaliz
psikiyatri
psikiyatrik
psikolog
psikologlar
psikoloji
psikolojik
psikolojisi
psis
psultan
psv
psychological
psychology
pt
ptal
pte
pten
ptolemaios
ptolemy
ptt
ptu
pu
puan
puana
puanla
puanlama
puanlar
puanları
puanı
pub
public
publication
publications
published
publisher
publishers
publishing
publius
puebla
puerto
pul
pulitzer
pullar
pulları
pulmoner
pulse
pulu
punch
punk
pure
purple
pus
push
pusu
pusula
pusuya
put
putin
pwi
px
pyongyang
pyotr
pyrausta
python
pıhtılas
pınar
pınarbas
q
qa
qi
qid
qin
qing
qquad
qu
quad
qualcomm
quality
quantum
quarterly
quartet
quattrocento
que
quebec
queen
queens
queensland
quentin
quercia
quercus
quest
question
questions
qui
quincy
quinn
r
ra
rab
rabat
rabbi
rabin
racaat
race
rachel
racing
rad
rada
radar
radcliffe
radical
radikal
radio
radyal
radyasyon
radyasyonu
radyo
radyoaktif
radyoda
radyolarda
radyosu
radı
radıg
rae
raf
rafa
rafael
rafc
rafet
raffaello
rafi
rafik
rafine
raflar
rafları
rafların
raflarını
rafta
rafya
rafyacı
rafyada
rafyası
rafı
rafın
rafını
rag
ragbi
rage
ragıp
rahat
rahatc
rahatlıkla
rahatsız
rahatsızlıg
rahatsızlık
rahibe
rahibi
rahim
rahip
rahipler
rahman
rahmet
rahmi
rai
raid
raif
rail
railway
rain
rainbow
rainer
raja
rak
rakam
rakamlar
rakamları
rakamı
rakibi
rakibin
rakibine
rakibini
rakibinin
rakip
rakipleri
rakiplerine
rakiplerini
rakka
raks
rakım
rakımlı
rakımı
ral
ralli
ralph
ram
rama
raması
ramazan
rami
ramo
ramon
ramos
ramsay
ramses
ramsey
ramıs
ran
rana
rand
randall
randevu
randolph
random
randy
range
ranger
rangers
rangle
rani
rank
ranlı
ranlılar
raoul
rap
rapc
raphael
rapid
rapids
rapor
rapora
raporda
raporlama
raporlar
raporları
raporto
raporu
raporun
raporuna
raporunda
raporunu
raptors
rar
rard
ras
rasim
rassal
rastgele
rastlanan
rastlanmaktadır
rastlanmıs
rastlanır
rasyonel
rat
rate
ratio
ration
ratle
rato
rattı
rau
rauf
raven
ravenna
raw
ray
rayan
rayarak
raylı
raymond
rayon
rayonu
rayonunun
razı
rb
rban
rbe
rbenin
rbesi
rbin
rbini
rbu
rc
rca
rcan
rcd
rce
rcistan
rcu
rd
rda
rde
rdek
rdeki
rden
rder
rdes
rdi
rdistan
rdoba
rdu
re
read
reader
reading
ready
reagan
reaksiyon
reaksiyona
reaksiyonlar
reaksiyonları
reaksiyonu
reaktif
reaktion
reakto
real
reality
really
reason
rebecca
rebel
rebileceg
rebilir
rebilmek
rec
recai
rece
receg
recek
recektir
receli
recent
recep
reci
recin
recinde
recinden
recine
recini
recinin
record
recording
recordings
records
rect
red
redd
reddeden
reddeder
reddederek
reddedildi
reddedilmis
reddetmesi
reddetmis
reddetti
reddettig
reddi
rede
redeki
reden
redif
redig
redir
redmi
reed
reel
reeves
ref
refah
refahiye
refahı
refakat
referandum
referandumu
referans
referanslar
reference
refet
refik
reflections
reform
reformlar
reformları
reformu
reg
regal
regelen
reggae
reggio
regina
region
regional
regionalliga
regions
register
registration
regu
reha
rehabilitasyon
rehber
rehberi
rehberlig
rehberlik
rehin
rehine
rei
reich
reichstag
reid
reign
reigns
reilly
reims
reinhard
reis
reisi
reislig
reiss
rejim
rejimi
rejimin
rejimine
rejiminin
rek
rekabet
rekabetc
rekabete
rekabeti
rekabetin
rekc
rekkep
reklam
reklamcılık
reklamlar
reklamı
rekli
reklilig
reklilik
rekonstru
rekor
rekorlar
rekorları
rekoru
rekorunu
rekto
rel
related
relation
relations
rele
release
released
reler
relerde
relere
releri
reli
relief
relig
religion
religious
relilig
relilik
rem
rembrandt
reme
remember
remiks
remis
remix
remo
remove
remzi
ren
renaissance
renato
renault
renc
renci
renciler
rencilere
rencileri
rencilerin
rencilerinden
rencilerine
rencilerinin
rencilik
rencinin
rencisi
renciye
rende
rendi
rendig
rendikten
rene
renen
renge
rengeyig
rengi
rengin
renginde
rengini
reni
renim
renimi
renimine
renimini
renin
renince
reninde
renine
renir
renk
renkler
renklerde
renklere
renkleri
renklerin
renkli
renklidir
renksiz
renkte
renktedir
renle
renler
renleri
renlerinde
renme
renmek
renmeye
renmis
rennes
renoir
rensel
repesaj
report
reporter
reports
representation
reprint
reprinted
republic
requiem
require
required
rer
rerek
rerken
rerler
res
rescue
research
resel
reselles
resepto
reserve
resi
resim
resimde
resimler
resimleri
resimlerin
resimlerinde
resimlerini
resimlerinin
resimli
resince
resinde
resinden
resine
resini
resinin
resistance
resiz
resme
resmedilmis
resmen
resmi
resmin
resmini
resminin
resolution
resource
resources
response
ressam
ressamlar
ressamları
ressamı
ressamın
rest
restauro
restoran
restoranlar
restorasyon
restorasyonu
restoration
restore
resu
resul
result
results
ret
reten
reterek
reti
retici
reticiler
reticileri
reticisi
reticisidir
retildi
retildig
retilebilir
retilen
retileri
retilir
retilmektedir
retilmesi
retilmeye
retilmis
retim
retimde
retime
retimi
retimin
retiminde
retimine
retimini
retiminin
retina
retir
retken
retme
retmek
retmektedir
retmen
retmeni
retmenin
retmenler
retmenleri
retmenlerin
retmenlig
retmenlik
retmeye
retmis
retorik
retrieved
rettebat
rettebatı
rettebatın
retti
rettig
rettikleri
return
returns
reuters
rev
revan
revde
revdeki
revden
reve
revenge
revi
revidir
review
reviews
revin
revinde
revinden
revine
revini
revinin
revised
revival
revize
revlendirdi
revlendirildi
revlendirilen
revlendirilmis
revlendirme
revler
revlerde
revlere
revleri
revlerin
revlerinde
revlerinden
revlerine
revlerini
revlerinin
revli
revlidir
revliler
revlileri
revlilerinin
revlisi
revolution
revolutionary
revue
rex
rey
reya
reye
reyen
reyes
reyhan
reyhanlı
reyi
reyle
reynolds
reyting
reyya
rez
rezerv
rezervi
rezervleri
rezonans
rf
rfan
rfc
rfez
rfezi
rg
rgb
rge
rgen
rgesi
rgu
rhein
rho
rhode
rhodes
rhythm
ri
ria
riaa
ribaund
ribaunt
riboz
ric
rica
ricardo
riccardo
rice
rich
richard
richards
richardson
richelieu
richie
richmond
richter
rick
ricky
rico
rida
riddle
ride
riden
rider
ridge
riding
rie
riemann
rif
rifat
riga
right
rightarrow
rights
rih
rihanna
rik
rika
riko
riler
rileri
riley
rim
rimini
rin
rinascimento
ring
ringe
rini
rinin
rio
riot
rip
ris
risale
rise
risi
rising
risk
riske
riski
riskini
riskler
riskleri
riskli
risparmio
rist
ristler
rita
ritim
ritmik
ritter
ritu
ritual
riva
rivayet
rivayete
river
rivera
rivers
riverside
riya
riyad
rize
rizespor
rizm
rizzo
rizzoli
rk
rkan
rkc
rkemli
rken
rker
rkes
rki
rkistan
rkiye
rkler
rklere
rkleri
rklerin
rklerinin
rklu
rkmen
rkmenistan
rkmenler
rkmenleri
rko
rkog
rkoloji
rksat
rku
rlanda
rlandalı
rlar
rları
rle
rler
rlerde
rlerden
rlerdir
rlere
rleri
rleridir
rlerin
rlerinde
rlerinden
rlerine
rlerini
rlerinin
rleriyle
rlerle
rles
rlu
rlık
rm
rma
rme
rmeden
rmedi
rmedig
rmek
rmekle
rmekte
rmektedir
rmektedirler
rmekten
rmekteydi
rmeleri
rmeli
rmemis
rmene
rmenin
rmesi
rmesine
rmesini
rmeye
rmeyen
rmeyi
rmez
rmezden
rmu
rn
rna
rnberg
rneg
rnek
rneklem
rnekleme
rnekler
rnekleri
rneklerinden
rneklerini
rnekte
rnektir
ro
road
rob
robbia
robbie
robbins
robert
roberto
roberts
robertson
robin
robinson
robot
robotik
robotlar
roc
roche
rochester
rock
rockefeller
rocket
rockets
rockstar
rocky
rococo
rod
rodney
rodolfo
rodos
rodri
rodrigo
rodrigues
rodriguez
rog
roger
rogers
roh
rohan
roi
roket
roketi
roketler
rokrat
rokratik
rokratlar
rol
roland
rolde
role
rolf
roll
roller
rollerde
rolleri
rollerinde
rollerini
rolleriyle
rolling
rollins
rolls
roloji
rolojik
rolu
rom
roma
romagna
romalı
romalılar
romalılara
romalıları
romalıların
roman
romana
romance
romancı
romancılar
romanda
romandan
romanlar
romanları
romanlarında
romanlarından
romano
romanos
romans
romantik
romantizm
romanya
romanı
romanıdır
romanın
romanında
romanından
romanını
romanının
rome
romen
romeo
romero
rommel
ron
rona
ronald
ronaldo
ronde
ronnie
room
rooney
roosevelt
root
roots
rory
ros
rosa
rosario
rose
rosen
rosenberg
rosenthal
roses
ross
rossi
rossini
rossiyskaya
rostov
rosu
rot
rota
rotası
roth
rothen
rothschild
rotor
rotten
rotterdam
roubaix
rouen
rouge
round
rousseau
route
routledge
roux
rover
rovers
row
rowan
roy
royal
royale
royce
rp
rpm
rpriz
rpınar
rr
rre
rrem
rriyet
rs
rsc
rse
rsel
rseller
rselles
rses
rsoy
rsssf
rsu
rt
rtaj
rtc
rte
rten
rtgen
rth
rtler
rtleri
rtlerin
rtlu
rtme
rts
rtte
rttemberg
rttu
rtu
ru
ruanda
rubens
rubin
ruby
rudan
rudolf
rudolph
rudur
rudy
rue
rufus
rugby
ruh
ruhani
ruhban
ruhi
ruhlar
ruhları
ruhsal
ruhsat
ruhu
ruhun
ruhunu
ruhunun
ruiz
rul
ruladı
rulama
rulamak
rulandı
rulanmıs
rular
rulas
rule
rules
rultuda
rultusunda
rulug
ruluk
rum
rumble
rumca
rumeli
rumen
rumence
rumi
rumlar
rumları
rumların
run
runa
runner
running
rupert
rus
rusal
rusc
rush
ruslar
ruslara
rusların
russell
russia
russian
russo
rusu
rusya
rusyası
ruth
rutherford
rutin
rutiyet
ruya
rv
ry
ryan
ryani
ryanice
ryder
ryo
ryu
rz
rzburg
rzi
rı
rıda
rıdvan
rıfat
rıfkı
rılan
rıları
rıldı
rılmıs
rılır
rın
rıs
rısı
rısında
rıza
rızası
s
sa
saab
saade
saadet
saakios
saat
saatc
saate
saati
saatin
saatle
saatler
saatlerde
saatleri
saatlerinde
saatlik
saatte
saatten
saba
sabah
sabaha
sabahattin
sabahı
sabaka
sabakalar
sabakalarda
sabakaları
sabakalarında
sabakası
sabakasında
sabancı
sabbath
sabiha
sabina
sabit
sabiti
sabittir
sabotaj
sabri
sabrina
sabun
sac
sachs
sacramento
sacred
sad
sada
sadakat
saddam
saddle
sade
sadece
sadeles
sadettin
sadi
sadr
sadrazam
sadrazamlıg
sadrazamlık
sadri
sadık
saf
safa
safari
safety
safevi
saffet
safi
safiye
saflarında
saflas
safra
safranbolu
sag
saga
sagan
sage
saha
sahabe
sahada
sahadan
sahalara
sahalardan
sahaları
sahanın
sahası
sahasına
sahasında
sahasının
sahaya
sahibi
sahibidir
sahibine
sahibini
sahibinin
sahibiydi
sahih
sahil
sahilde
sahile
sahili
sahilinde
sahillerinde
sahilli
sahip
sahipken
sahipleri
sahiplerine
sahiplerini
sahiplerinin
sahiplig
sahipti
sahiptir
sahiptirler
sahne
sahnede
sahneden
sahnelendi
sahnelenen
sahnelenmis
sahneler
sahnelerde
sahneleri
sahnenin
sahnesi
sahnesinde
sahnesine
sahneye
sahneyi
sahra
sahte
sai
said
saim
saint
sainte
saints
sair
sait
saitama
saka
sakal
sakallı
sakarya
sakaryaspor
sakat
sakatlandı
sakatlıg
sakatlık
sakin
sakinleri
sakinlerinin
sakinles
sakladıg
saklama
saklamak
saklanan
saklandıg
saklanır
saklı
saklıdır
sakson
saksonya
sakura
sakın
sakız
sal
sala
salah
salamis
salar
salazar
salc
saldıran
saldırarak
saldırdı
saldırdıg
saldırdılar
saldırgan
saldırganın
saldırmak
saldırması
saldırmaya
saldırmıs
saldırı
saldırıda
saldırıdan
saldırılar
saldırılara
saldırılarda
saldırıları
saldırıların
saldırılarına
saldırılarından
saldırılarını
saldırılarının
saldırının
saldırır
saldırısı
saldırısına
saldırısında
saldırısından
saldırısını
saldırısının
saldırıya
saldırıyı
sale
salem
salerno
salgın
salgını
salgının
sali
salih
salihli
salim
salinger
salisbury
sally
salma
salman
salnamesi
salon
salonda
salonları
salonu
salonun
salonuna
salonunda
salt
saltanat
saltanatı
saltanatının
salticidae
salvador
salvatore
salzburg
salı
salınan
sam
saman
samantha
samanyolu
samara
same
samet
samettin
sami
samimi
samir
sammy
samoa
sampdoria
sample
samson
samsun
samsung
samsunspor
samtshe
samuel
samurai
samuray
san
sana
sanal
sanat
sanata
sanatc
sanatlar
sanatları
sanatsal
sanatta
sanatı
sanatın
sanatına
sanatında
sanatını
sanatının
sanayi
sanayici
sanayii
sanayiles
sanayinin
sanayisi
sancag
sancak
sand
sandal
sandalye
sandbox
sanders
sandra
sandro
sands
sandvic
sandy
sandıg
sandık
sandıklı
sanfrecce
sang
sanga
saniye
saniyede
saniyelik
sanki
sankt
sanremo
sans
sansa
sanskritc
sansu
sant
santa
santana
santander
santiago
santimetre
santo
santos
santral
santrali
santralleri
sanıg
sanık
sanıklar
sanıkların
sanılan
sanılmaktadır
sao
sap
sapanca
sapma
sapporo
saptanan
saptanmıs
saptanır
sapı
sar
sara
sarac
sarah
sarajevo
saral
saran
saray
saraya
saraybosna
sarayda
saraylar
sarayı
sarayın
sarayına
sarayında
sarayının
sardinya
sarf
sarhos
sarmal
sarmas
sarnıc
sarp
sars
sartre
saruhan
sarı
sarıc
sarıkamıs
sarıkaya
sarılmıs
sarımsak
sarımsı
sarıog
sarıs
sarısı
sarıyer
sas
sasani
sasaniler
sasha
saskatchewan
sason
sassetta
sassetti
sat
satan
satanlar
satarak
satellite
satmak
satmaya
satmıs
sato
satoshi
satranc
sattı
sattıg
satu
saturday
saturn
satıcı
satıcısı
satılan
satıldı
satıldıg
satılmaktadır
satılmıs
satılır
satın
satır
satırı
satıs
saudi
saul
saunders
sauron
sav
sava
savage
savas
savat
savcı
savcılar
savcılıg
savcılık
savcının
savcısı
save
savoy
savunan
savunarak
savundu
savundug
savunma
savunmada
savunmak
savunmaktadır
savunmanın
savunması
savunmasına
savunmasında
savunmasını
savunmasız
savunmaya
savunmus
savunucuları
savunucusu
savunur
savunuyor
saw
sawyer
say
sayac
sayan
sayar
saydam
sayede
sayesinde
sayfa
sayfada
sayfadan
sayfalar
sayfaları
sayfalarında
sayfalık
sayfanın
sayfası
sayfasına
sayfasında
sayfasından
sayfasının
sayfaya
sayfayı
saygı
saygılı
saygın
saygınlıg
sayin
says
sayı
sayıca
sayıda
sayıdaki
sayıdır
sayılabilecek
sayılabilir
sayılan
sayılar
sayıları
sayıların
sayılarının
sayıldı
sayılmaktadır
sayılmıs
sayılı
sayılık
sayılır
sayım
sayımlarına
sayımı
sayımına
sayımında
sayımından
sayın
sayının
sayıs
sayısal
sayısı
sayısına
sayısında
sayısından
sayısını
sayısının
sayısız
sayıya
sayıyla
sayıyı
saz
sb
sbc
sbs
sc
scala
scale
scalemajor
scaleminor
scene
schalke
schengen
schiller
schindler
schleswig
schmidt
schmitt
schneider
scho
school
schro
schu
schultz
schulz
schumacher
schuon
schuster
schwartz
schwarz
sci
science
sciences
scientific
scipio
scooby
score
scotland
scott
scottish
scream
screen
script
scriptstyle
scrovegni
sculptor
sculpture
scytodes
sd
sdg
se
sea
seal
sean
search
season
seasons
seat
seattle
sebastia
sebastian
sebebi
sebebini
sebebinin
sebebiyet
sebebiyle
sebep
sebeple
sebepler
sebeplerden
sebepleri
sebeplerle
sebepten
sebze
sebzeler
sec
secolo
second
seconds
secret
secrets
section
security
seda
sedan
sedat
sedef
seden
seds
see
seen
sefa
sefarad
sefer
seferber
seferberlik
seferde
sefere
seferi
seferin
seferinde
seferine
seferini
seferler
seferleri
sega
segment
segunda
seher
sei
seicento
seine
sejm
sek
seki
sekiz
sekizinci
sekreter
sekreteri
sekreterleri
sekreterlig
sekreterlik
seks
seksen
seksi
sekto
seku
sel
sela
selahaddin
selahattin
selam
selamet
selami
selanik
selc
select
selected
selection
selefi
selena
seleukos
self
selim
selimiye
selin
sellers
selma
selman
selu
sem
sema
semantik
sembol
sembolik
sembolize
semboller
sembolleri
sembolu
semerkant
semi
semih
seminer
sempati
sempatik
sempozyumu
semptomlar
semptomları
semt
semti
semtin
semtinde
semtindeki
semtleri
sen
sena
senarist
senaristi
senaristler
senaristlig
senaryo
senaryonun
senaryosu
senaryosunu
senaryoya
senaryoyu
senato
senatosu
sencer
sendai
sende
senden
sendika
sendikalar
sendikaları
sendikası
sendrom
sendromlar
sendromu
sene
seneca
senecio
senede
senedi
senegal
senegalli
senelik
senenin
senesi
senesinde
senet
seneye
senfoni
senfonik
seni
senin
seninle
senior
senkronize
senna
sense
sensin
sensiz
senso
sentetik
sentez
sentezi
seo
seoul
sep
separator
september
sequence
ser
sera
seramik
serap
serbest
serbestc
serbestlik
serc
serdar
serebral
serena
serge
sergei
sergen
sergey
sergi
sergiledi
sergiledig
sergilemis
sergilendi
sergilendig
sergilenen
sergilenmektedir
sergilenmis
sergiler
sergileri
sergileyen
sergio
sergisi
sergisini
serhan
serhat
seri
seribas
seride
serideki
serie
series
serif
serik
seriler
serileri
serin
serinin
serisi
serisidir
serisinde
serisindeki
serisinden
serisine
serisini
serisinin
seriye
seriyi
serkan
sermaye
sermayenin
sermayesi
serotonin
serpil
serra
serseri
sert
sertab
sertifika
sertifikalar
sertifikası
sertles
sertlig
sertlik
seru
serum
server
servet
serveti
service
services
servikal
servis
servisi
servisleri
ses
sese
sesi
sesin
sesine
sesini
sesinin
sesiyle
sesle
seslendirdi
seslendirdig
seslendiren
seslendirildi
seslendirilen
seslendirilmis
seslendirme
seslendirmis
sesler
sesleri
seslerini
sesli
sessions
sessiz
sessizce
sessizlig
sessizlik
set
seth
seti
setleri
setlerle
sette
setting
seul
seung
sev
sevda
sevdig
sevdim
seven
seventeenth
seventh
sever
severus
sevgi
sevgili
sevgilim
sevgilisi
sevgisi
sevgisini
sevil
sevilen
sevilla
sevim
sevimli
sevinc
sevinci
sevis
seviye
seviyede
seviyedeki
seviyelerde
seviyeleri
seviyelerine
seviyelerini
seviyeli
seviyesi
seviyesinde
seviyesindeki
seviyesinden
seviyesine
seviyesini
seviyesinin
seviyeye
seviyorum
sevk
sevmedig
sevmek
sevr
sex
sexual
seyahat
seyahati
seyfettin
seyfi
seyhan
seyin
seyir
seyirci
seyirciler
seyircinin
seyit
seymour
seyni
seyrek
seyri
seyru
seyyar
seyyid
sezai
sezar
sezen
sezer
sezgin
sezon
sezona
sezonda
sezondaki
sezondan
sezonlar
sezonlarda
sezonları
sezonlarında
sezonlug
sezonluk
sezonu
sezonudur
sezonun
sezonuna
sezonunda
sezonundaki
sezonundan
sezonunu
sezonunun
sf
sfahan
sfondo
sforza
sg
sh
sha
shadow
shadows
shah
shak
shake
shakespeare
shakira
shall
shane
shang
shanghai
shannon
sharon
sharp
sharpe
shası
shaw
shawn
she
sheamus
sheen
sheffield
sheldon
shell
shelley
shepard
shepherd
sheridan
sherlock
sherman
shi
shield
shift
shimizu
shin
shine
ship
shirley
shizuoka
sho
shock
shonan
shoot
shop
shore
short
shot
should
show
shows
shp
shropshire
shu
si
sia
sibel
siber
sibirya
sic
sica
sicil
sicilya
sicim
sid
side
sidney
sie
siege
siegfried
siemens
siena
sierra
sig
sigara
sigma
sigmund
sign
signal
signwriting
sigorta
sigortası
sihir
sihirli
siirt
sik
sikke
sikkeler
siklet
sil
sila
silah
silahla
silahlanma
silahlar
silahlara
silahlarla
silahları
silahların
silahlarını
silahlı
silahsız
silahı
silahın
silahını
silence
silene
silent
silezya
silifke
silikon
silindir
silindirik
silindirli
silinmis
silistre
silisyum
silivri
silk
sillabe
silme
silopi
silu
silva
silvan
silvana
silver
silvia
sim
sima
simav
simavi
simeon
simetri
simetrik
simge
simgeler
simgeleyen
simgesi
simmons
simon
simone
simons
simple
simpson
simpsonlar
simpsons
sims
simu
simulator
sin
sina
sinagog
sinagogu
sinan
sinatra
sincan
since
sinclair
sind
sinde
sinden
sindirim
sine
sinek
sinema
sinemada
sinemalar
sinemalarda
sinemanın
sineması
sinemasının
sinematik
sinematografi
sinematu
sinemaya
sing
singapore
singapur
singer
singh
single
singlelar
singles
sini
sinin
sinir
sinop
sint
sinu
sinyal
sinyali
sinyaller
sinyalleri
sion
sipahi
siparis
siper
sir
sira
siraku
sirius
sirk
sirke
sirkeci
sis
sismik
sistem
sistematik
sistemde
sistemdeki
sistemden
sistemdir
sisteme
sistemi
sistemidir
sistemik
sistemin
sisteminde
sistemindeki
sisteminden
sistemine
sistemini
sisteminin
sistemiyle
sistemle
sistemler
sistemlerde
sistemlere
sistemleri
sistemlerin
sistemlerinde
sistemlerine
sistemlerini
sistemlerinin
sistemli
sister
sisters
sit
site
sitede
siteler
siteleri
sitelerin
sitelerinde
sitelerinin
sitenin
sites
sitesi
sitesinde
sitesindeki
sitesinden
sitesine
sitesinin
siteye
sith
sitler
sivas
sivasspor
sivastopol
siverek
sivil
sivilin
siviller
sivillere
sivillerin
sivri
sivrihisar
six
sixteenth
siya
siyah
siyahi
siyasal
siyaset
siyasetc
siyasete
siyaseti
siyasetin
siyasetinde
siyasette
siyasetten
siyasi
siyonist
siyonizm
siz
sizden
size
sizi
sizin
sizinle
sizler
sizlere
sizlik
sk
ska
skaler
skandal
skandalı
skandinav
skandinavya
skec
skele
skelesi
skender
skenderiye
skenderiyeli
skenderun
ski
skilip
skin
skinner
skira
skit
skoc
skor
skorer
skorla
skoru
sku
sky
skype
skywalker
sl
sla
slalom
slam
slamcı
slami
slamiyet
slater
slav
slave
slayer
sle
sleep
sleme
slemeler
slenmis
sler
sleri
slerin
slim
slogan
sloganı
slovak
slovakya
sloven
slovenya
slow
slu
slup
sm
sma
smac
smackdown
smail
small
smart
smet
smi
smile
smini
smith
smithsonian
smoke
smolensk
sms
sn
snake
snapdragon
sneijder
snooker
snoop
snow
snu
snyder
so
soc
soccer
sochaux
social
socie
sociedad
societa
society
socket
soda
sodep
sodyum
sofia
soft
software
sofya
sog
sohbet
sokag
sokak
sokaklar
sokaklarda
sokakları
sokaklarında
sokakta
sokmus
sokrates
soktu
sol
sola
solanum
solar
solaris
solcu
solda
soldaki
soldan
soldier
sole
solid
solist
solisti
solo
solomon
solu
solucan
soluk
solunda
solunum
som
soma
somali
some
somerset
something
somut
son
sona
sonat
sonbahar
sonbaharda
sonbaharında
sonda
sondaj
sondan
soner
song
songs
sonia
sonic
sonlandırdı
sonlandırmıs
sonları
sonlarına
sonlarında
sonlarından
sonlu
sonny
sonra
sonradan
sonraki
sonraları
sonrası
sonrasına
sonrasında
sonrasındaki
sons
sonsuz
sonsuza
sonsuzluk
sonu
sonuc
sonuca
sonucu
sonucudur
sonucun
sonucuna
sonucunda
sonucunu
sonuna
sonuncu
sonuncusu
sonunda
sonundaki
sonundan
sonunu
sony
soo
soon
sopa
sophia
sophie
soprano
sor
sorar
sorbonne
sordu
sordug
sorgu
sorgulama
sorgun
sorguya
soru
sorulan
sorular
sorulara
soruları
soruldug
sorumlu
sorumludur
sorumlulug
sorumluluk
sorumlulukları
sorumlusu
sorumluydu
sorun
soruna
sorunlar
sorunlara
sorunlardan
sorunlarla
sorunları
sorunların
sorunlarına
sorunlarını
sorunlarının
sorunlu
sorunsuz
sorunu
sorunun
sorununa
sorununu
sorununun
sorus
sorusu
sorusuna
soruya
sos
sosu
sosyal
sosyaldemokrat
sosyalist
sosyalistler
sosyalizm
sosyalizmi
sosyalizmin
sosyo
sosyolog
sosyoloji
sosyolojik
sosyolojisi
soul
sound
sounds
soundtrack
source
sources
sous
south
southampton
southern
souza
soviet
sovyet
sovyeti
sovyetler
sovyetlerin
soy
soya
soyadları
soyadı
soyadını
soyag
soydan
soygun
soykırım
soykırımı
soylu
soylular
soyluların
soysal
soyu
soyundan
soyunun
soyut
soyuz
sp
spa
space
spaces
spacex
spain
span
spanish
spansiyon
spanya
spanyol
spanyolca
spanyollar
sparta
spartak
spd
speak
spears
special
species
specified
spectrum
speech
speed
speer
spektral
spektrum
speku
spencer
sperm
spesifik
spider
spiegel
spielberg
spike
spin
spir
spiral
spirit
spiritu
split
sponsor
sponsorlug
sponsorluk
sponsoru
spor
spora
sporcu
sporcular
sporcuları
sporcuların
sporcunun
sporcusu
sporlar
sporları
sport
sportif
sporting
sports
sporu
sposi
spot
spotify
spring
springer
springfield
springs
sprint
spurs
sputnik
spy
sq
sql
sqrt
squad
square
sr
srail
srailli
srailog
srev
sri
ss
ssc
sscb
sse
sseldorf
ssk
ssl
ssr
ssu
st
sta
stabilize
stad
stade
stadium
stadt
stadyum
stadyumda
stadyumlar
stadyumları
stadyumu
stadyumun
stadyumunda
stadı
stadın
staff
stage
stahkem
staj
stajyer
stakil
staley
stalin
stalingrad
stallone
stan
stanbul
stanbulspor
stand
standard
standardı
standart
standartlar
standartlara
standartları
standartlarına
standartlarını
standartlas
standing
stanford
stanley
star
stargate
stark
starr
stars
start
stasyon
stasyonu
stat
state
statement
states
statik
station
statistica
statistical
statistics
statistik
statistiki
statistikler
statistikleri
stato
statu
status
stay
ste
steam
steel
steen
stefan
stefani
stefano
steg
stehcen
stein
steiner
stel
stelik
stella
stem
stemi
sten
step
stephan
stephanie
stephen
ster
sterdi
sterdig
sterdikleri
sterdiler
sterebilir
stereceg
sterecek
steren
stereo
stererek
sterge
stergesi
stergesidir
steri
sterici
steride
sterildi
sterildig
sterilebilir
sterilen
steriler
sterilerek
sterileri
sterilir
sterilmektedir
sterilmesi
sterilmis
sterim
sterimde
sterime
sterimi
sterinin
sterip
sterir
sterirken
sterirler
steris
sterisi
sterisinde
sterisini
steriyor
steriyordu
sterlin
sterling
sterme
stermek
stermekte
stermektedir
stermesi
stermeye
stermis
stern
sterse
stes
stesinden
steve
steven
stevens
stevenson
stevie
stewart
stfamilyasına
sti
stig
stihbarat
stihdam
stikla
stiklal
stil
stilde
stili
stilize
still
stiller
sting
stirling
stk
stlendi
stlendig
stlenen
stlenir
stlenmis
stlu
sto
stock
stockholm
stok
stoke
stokes
stone
stones
stop
stoper
store
storia
stories
storm
story
str
strabon
straight
strand
strange
stranger
strasbourg
strateji
stratejik
stratejiler
stratejileri
stratejisi
strauss
strazburg
street
streets
stres
stri
strike
string
strip
strisi
strisinde
strisine
strisinin
striyel
strojen
stroke
strong
strowman
structure
struggle
sts
stte
stteki
stten
stu
stuart
student
studi
studies
studio
studios
study
stuff
stuttgart
style
styles
su
sua
sualtı
suat
sub
subas
subay
subaylar
subayları
subayların
subayı
subject
subsp
subtropikal
suc
success
such
sud
suda
sudamericana
sudan
sue
suetonius
suffolk
sufi
sugar
suhoy
sui
suicide
suikast
suikastc
suikastı
suisse
suit
suite
suk
sul
sulak
sulama
sular
sularda
suları
suların
sularında
sularının
sulh
sulla
sullivan
sulta
sultan
sultanahmet
sultanlar
sultanları
sultanlıg
sultanı
sultanın
sulu
sum
sumatra
summary
summer
summers
summerslam
summit
sun
suna
sunag
sunak
sunal
sunan
sunar
sunarak
sundance
sunday
sunderland
sundu
sundug
sung
sungur
sungurlu
suni
sunmak
sunmaktadır
sunmaya
sunmus
sunnydale
suns
sunset
sunshine
sunucu
sunucular
sunucuları
sunuculug
sunuculuk
sunucusu
sunulan
sunuldu
sunuldug
sunulmaktadır
sunulması
sunulmus
sunulur
sunum
sunumu
sunuyor
suo
supe
super
supercopa
superior
superliga
superman
supersonics
superstar
suphi
supplement
support
supreme
sur
sure
suresi
sureti
suretiyle
suretle
surette
surface
surinam
suriye
suriyeli
surlar
surları
surların
surlarının
surp
surrey
suruc
survey
survival
survivor
sus
susam
susan
suse
sussex
susurluk
susuz
sutherland
sutopu
sutton
suud
suudi
suv
suya
suyla
suyu
suyun
suyunu
suyunun
suz
suzan
suzanne
suzuki
sv
svec
sven
svetlana
svg
svic
sw
swan
swansea
sweden
swedish
sweet
swift
swing
swiss
switch
switzerland
sword
sy
syan
syanı
sydney
syf
syllabics
syllable
sylvester
sylvia
symbian
symbol
symbols
symphony
symposium
syndrome
synthesizer
syon
syracuse
syria
system
systems
sz
szlo
sı
sıc
sıcak
sıcaklıg
sıcaklık
sıcaklıklar
sıcaklıklarda
sıcaklıkta
sıfat
sıfatı
sıfatıyla
sıfır
sıfıra
sıfırdan
sıg
sık
sıkc
sıklet
sıklıg
sıklıkla
sıkı
sıkıca
sıkıcı
sıkıntı
sıkıntılar
sıkıntılı
sıkıntısı
sıkıs
sıkıyo
sıl
sıla
sın
sına
sınav
sınava
sınavı
sınavını
sında
sındırgı
sını
sınıf
sınıfa
sınıflandırma
sınıflandırması
sınıflandırılan
sınıflandırılması
sınıflandırılmıs
sınıflandırılır
sınıflar
sınıflara
sınıfları
sınıfların
sınıfta
sınıftan
sınıfı
sınıfın
sınıfına
sınıfında
sınıfından
sınıfının
sının
sınır
sınırlama
sınırlamalar
sınırlandırılmıs
sınırlar
sınırları
sınırların
sınırlarına
sınırlarında
sınırlarını
sınırlarının
sınırlı
sınırlıdır
sınırlıydı
sınırsız
sınırı
sınırın
sınırına
sınırında
sınırındaki
sınırından
sınırını
sınırının
sır
sıra
sırada
sıradadır
sıradag
sıradaki
sıradan
sıralama
sıralamada
sıralamalar
sıralamaları
sıralaması
sıralamasına
sıralamasında
sıralanabilir
sıralanmıs
sıralar
sıralarda
sıralarında
sıralı
sırası
sırasına
sırasında
sırasındaki
sırasıyla
sıraya
sırayla
sırayı
sırbistan
sırf
sırlar
sırları
sırp
sırpc
sırplar
sırpların
sırrı
sırt
sırtı
sırtında
sıtkı
sıtma
sıvı
sıvının
sıvısı
sız
sızma
t
ta
taahhu
taarruz
taarruza
taarruzu
tab
tabak
tabaka
tabakalar
tabakaları
tabakası
tabakasının
taban
tabanca
tabanlı
tabanı
tabanına
tabanında
tabi
tabiat
tabiatı
tabidir
tabii
tabip
tabir
tabiri
table
tables
tablet
tablo
tabloda
tablolar
tabloları
tablonun
tablosu
tablosuna
tablosunda
tabloya
tabloyu
tabur
taburu
tac
tacikistan
tacitus
taciz
tacı
tacını
tada
tadı
tadını
tae
tag
taha
tahammu
tahir
tahkim
tahkimat
tahliye
tahmasb
tahmin
tahminen
tahmini
tahminler
tahminleri
tahran
tahrik
tahrip
tahrir
tahririnde
tahsil
tahsin
tahsis
taht
tahta
tahtası
tahtta
tahttan
tahtı
tahtın
tahtına
tahtını
tahya
tahıl
tai
tail
taipei
tak
takahashi
takas
takashi
takdim
takdir
takdirde
take
takeover
takes
taki
takiben
takibi
takip
takipc
taklit
takma
takmıs
taksi
taksim
takson
taksonlar
taksonları
taksonomi
taktig
taktik
taktikleri
takuya
takvim
takvimi
takviye
takı
takılan
takıldı
takılmıs
takılır
takım
takıma
takımda
takımdaki
takımdan
takımdır
takımla
takımlar
takımlara
takımlarda
takımlardan
takımları
takımların
takımlarına
takımlarında
takımlarından
takımlarını
takımlarının
takımlı
takımyıldızı
takımı
takımıdır
takımın
takımına
takımında
takımından
takımını
takımının
takımıyla
tal
talan
talas
talat
tale
talebe
talebi
talebinde
talebini
talebiyle
talep
talepleri
taleplerini
tales
tali
talib
taliban
talihsiz
talim
talimat
talimatlar
talimatları
talimatı
talimatıyla
talip
talk
talking
tallinn
talmud
talya
talyan
talyanca
talyanlar
tam
tama
tamam
tamamen
tamamiyle
tamamladı
tamamladıg
tamamladıktan
tamamlamak
tamamlamıs
tamamlanan
tamamlandı
tamamlandıg
tamamlandıktan
tamamlanmamıs
tamamlanması
tamamlanmıs
tamamlanır
tamamlar
tamamlayan
tamamlayarak
tamamlayıcı
tamamlayıp
tamamı
tamamına
tamamında
tamamını
tamamının
tamamıyla
tamar
tamara
tamer
tamil
tamir
tampa
tampon
tan
tanah
tanaka
tane
taneleri
taneli
taner
tanesi
tanesidir
tanesini
tanesinin
tang
tango
tangut
tanju
tank
tanklar
tankları
tankların
tanksavar
tankı
tankın
tanner
tanrı
tanrıc
tanrılar
tanrılara
tanrıları
tanrıların
tanrının
tanrısal
tanrısı
tanrıya
tansiyon
tansu
tanzanya
tanzim
tanzimat
tanı
tanıdı
tanıdıg
tanıdık
tanıg
tanık
tanıklıg
tanıklık
tanım
tanıma
tanımadıg
tanımak
tanımayan
tanımladı
tanımladıg
tanımlama
tanımlamak
tanımlamaktadır
tanımlaması
tanımlamıs
tanımlanabilir
tanımlanan
tanımlandı
tanımlandıg
tanımlanmaktadır
tanımlanması
tanımlanmıs
tanımlanır
tanımlar
tanımları
tanımlayan
tanımlayıcı
tanımlı
tanımı
tanımına
tanımını
tanımıs
tanınan
tanındı
tanınmaktadır
tanınması
tanınmasını
tanınmaya
tanınmayan
tanınmıs
tanınır
tanır
tanıs
tanısı
tanıtan
tanıtma
tanıtmak
tanıtmıs
tanıttı
tanıtılan
tanıtıldı
tanıtılmıs
tanıtım
tanıtımları
tanıtımı
tanıyan
tao
tape
tapu
tapınag
tapınak
tapınaklar
tapınakları
tar
tara
taraf
tarafa
taraflar
tarafları
tarafların
taraflı
tarafsız
tarafsızlıg
tarafsızlık
tarafta
taraftaki
taraftan
taraftar
taraftarlar
taraftarları
taraftarlarının
taraftarı
tarafı
tarafın
tarafına
tarafında
tarafındaki
tarafından
tarafını
tarafının
tarama
tarayıcı
tarayıcısı
tarc
tardis
tareke
tarekesi
taret
target
tarhan
tari
tarif
tarifeli
tarifi
tarih
tarihc
tarihe
tarihi
tarihin
tarihinde
tarihindeki
tarihinden
tarihine
tarihini
tarihinin
tarihlenen
tarihlenmektedir
tarihler
tarihlerde
tarihleri
tarihlerinde
tarihlerini
tarihli
tarihsel
tarihte
tarihteki
tarihten
tarika
tarikat
tarikatı
tarkan
tarla
taro
tarsus
tartu
tartıs
tarz
tarzan
tarzda
tarzları
tarzı
tarzına
tarzında
tarzındaki
tarzını
tarzının
tarzıyla
tarık
tarım
tarıma
tarımda
tarımsal
tarımı
tarımın
tas
tasarladı
tasarladıg
tasarlamıs
tasarlanan
tasarlandı
tasarlanmıs
tasarruf
tasarrufu
tasarı
tasarım
tasarıma
tasarımcı
tasarımcıları
tasarımcısı
tasarımlar
tasarımları
tasarımı
tasarımın
tasarımına
tasarımında
tasarımını
tasarımının
tasarısı
tasavvuf
tasavvufi
tasdik
tasfiye
taslag
taslak
taslakları
tasvir
tasviri
tasvirler
tat
tatar
tatarca
tataristan
tatarlar
tatarları
tatbik
tate
tatil
tatili
tatiller
tatlı
tatlılar
tatlıses
tatlısı
tatmin
tatort
tatsuya
tatvan
tau
tauris
taurus
tavan
tavanı
tavrı
tavs
tavsiye
tavsiyesi
tavuk
tavır
tay
tayf
tayfun
tayfur
tayin
tayini
taylan
tayland
taylor
tayn
tayvan
tayyip
taze
tazminat
tazminatı
tb
tbe
tbeli
tbesi
tbesine
tbesiyle
tbilisi
tbl
tblstat
tbmm
tbol
tc
tcdd
tcg
tck
tcp
td
tdk
tdv
te
tea
teacher
teakip
teallik
team
teams
tears
teatro
teau
teblig
teborg
tebrik
tebriz
tec
tecavu
tech
technical
technique
technologies
technology
tecrit
tecru
ted
tedarik
tedarikc
tedavi
tedavinin
tedavisi
tedavisinde
tedaviye
tedavu
tedbir
tedbirler
tedbirleri
teddy
teen
teenage
tefrika
tefsir
teftis
teg
tehcir
tehdidi
tehdit
tehditler
tehditleri
tehlike
tehlikede
tehlikeli
tehlikesi
tehlikeye
tek
tekabu
tekdu
teke
tekel
tekeli
teker
tekerleg
tekerlek
tekerlekli
tekerlekten
teki
tekil
tekin
tekirdag
tekke
tekkesi
tekler
tekli
teklif
teklifi
teklifinde
teklifini
teklifler
teklifleri
tekliler
teklileri
teklisi
teklisidir
tekne
teknesi
teknig
teknik
teknikler
teknikleri
tekniklerini
teknoloji
teknolojik
teknolojiler
teknolojileri
teknolojinin
teknolojisi
teknolojisini
teknolojisinin
teknolojiyi
tekrar
tekrarlanan
tekrarlayan
teksas
tekstil
tektonik
tekvando
tel
telaffuz
telafi
telas
tele
telefon
telefonda
telefonla
telefonlar
telefonları
telefonu
telefonun
telegraph
telekom
telekomu
teleskobu
teleskop
teleskopla
television
televizyon
televizyona
televizyonda
televizyonu
televizyonunda
telgraf
teli
telif
tell
teller
telli
telsiz
tem
tema
temalar
temaları
temalı
temas
temasa
teması
temasını
tematik
tembel
temel
temelde
temeli
temelinde
temelini
temelleri
temellerini
temelli
temi
temin
teminat
temini
temiz
temizleme
temizlemek
temizlig
temizlik
temmuz
tempio
template
templates
temple
tempo
temporal
temps
temsil
temsilci
temsilciler
temsilcileri
temsilcilerinden
temsilcilerinin
temsilcilig
temsilcisi
temsilcisini
temsilen
temsili
temyiz
ten
tenerife
tenis
tenisc
tenisi
tennessee
tennis
tenor
tenso
tenten
teoloji
teolojik
teoman
teorem
teoremi
teori
teoride
teorik
teoriler
teorileri
teorinin
teorisi
teorisinde
teorisine
teorisini
teorisinin
teorisyeni
teorisyenleri
teoriye
teoriyi
tepe
tepebas
tepede
tepeden
tepeler
tepeleri
tepeli
tepenin
tepesi
tepesinde
tepesine
tepeye
tephritidae
tepki
tepkiler
tepkileri
tepkime
tepkisi
tepkisini
ter
terakki
terapi
terapisi
teras
terbiye
tercan
tercera
tercih
tercihi
tercu
tereddu
terek
terence
teresa
tereyag
terfi
terhis
teri
teriler
terileri
terilerin
terim
terimdir
terimi
terimin
terimini
teriminin
terimler
terimleri
terinin
terk
term
termal
terme
termik
terminal
terminali
terminoloji
terminolojisi
termodinamik
terms
tero
terra
terre
terror
terry
ters
tersane
tersi
tersine
tertip
terzi
tes
tesadu
tesbit
tescil
tescili
tescillenmis
tescilli
teselli
teselya
tesi
tesinde
tesine
tesir
tesis
tesisi
tesisin
tesisler
tesisleri
tesislerin
tesislerinde
tesislerinin
tesla
teslim
teslimat
tespit
tespiti
tespitinde
test
testament
testere
testi
testinin
testler
testleri
tetikc
tetkik
tetragnatha
teva
tevazı
tevdi
tevelli
tevfik
tevhid
tevrat
tex
texas
text
textcolor
texts
teye
teyit
teyzesi
tez
tezahu
tezga
tezi
tezini
tezli
tezsiz
tf
tfen
tff
tfi
tfu
tgrt
th
tha
thai
thales
thames
than
that
thatcher
the
theater
theatre
theft
their
them
thema
theme
then
theo
theodor
theodora
theodore
theodoros
theodosius
theories
theory
there
theresa
theridion
these
theta
they
thierry
thing
things
think
third
this
thomas
thompson
thomson
thor
thornton
those
thought
thousand
thrash
three
thriller
through
thu
thumb
thumbnail
thunder
thy
thymus
ti
tiberius
tibet
ticaret
ticarete
ticareti
ticaretin
ticaretine
ticaretini
ticaretinin
ticaretle
ticarette
ticari
tico
tie
tienne
tiffany
tiflis
tig
tiger
tigin
tik
tikc
tikleri
tikten
til
tilaf
tilbe
tiler
tilki
till
tim
timbaland
timberlake
timberwolves
time
timeaxis
times
timor
timothy
timsah
timur
tin
tina
tine
tingini
tip
tipi
tipidir
tipik
tipinde
tipine
tipleri
tipte
tir
tirak
tiran
tirdi
tirdig
tirdikleri
tirdiler
tire
tirebilir
tirebolu
tireceg
tirecek
tirel
tiren
tirerek
tiri
tirici
tiriciler
tiricileri
tiricilig
tiricisi
tirildi
tirildig
tirilebilir
tirileceg
tirilecek
tirilen
tiriler
tirilere
tirilerek
tirileri
tirilip
tirilir
tirilme
tirilmekte
tirilmektedir
tirilmesi
tirilmesinde
tirilmesinden
tirilmesine
tirilmesini
tirilmesinin
tirilmesiyle
tirilmeye
tirilmis
tirip
tirir
tirirken
tirirler
tirisi
tiriyor
tirme
tirmede
tirmeden
tirmek
tirmektedir
tirmektir
tirmeler
tirmeleri
tirmen
tirmeni
tirmenin
tirmenler
tirmenlerden
tirmenleri
tirmenlerin
tirmenlerinden
tirmesi
tirmesine
tirmesini
tirmeye
tirmeyi
tirmis
tiroid
tirol
tis
titan
titanic
titanyum
titian
titiz
title
tito
titres
titus
tiyatro
tiyatroda
tiyatrolar
tiyatroları
tiyatronun
tiyatrosu
tiyatrosunda
tiyatroya
tiziano
tki
tkp
tl
tlar
tlc
tle
tlec
tleleri
tleli
tlenin
tlenme
tlenmesi
tler
tleri
tlerin
tlerine
tlerinin
tlesi
tlesinin
tleye
tlu
tm
tme
tmek
tmektedir
tmeye
tmeyen
tmsf
tmu
tna
tnt
to
tobago
tobb
tobias
toby
tod
today
todd
tofas
together
togo
tohum
tohumlar
tohumları
tohumu
tok
tokat
toki
toksik
tokugawa
tokus
tokyo
toledo
tolga
tolkien
tolon
tolstoy
tom
toma
tomas
tomatoes
tomb
tome
tommy
tomorrow
ton
tone
tong
tonga
toni
tonight
tonluk
tonu
tonumber
tony
too
tool
top
topa
topal
topc
tophane
topkapı
topla
topladı
topladıg
toplam
toplama
toplamak
toplamaya
toplamda
toplamı
toplamının
toplamıs
toplanan
toplanarak
toplandı
toplandıg
toplanma
toplanması
toplanmasını
toplanmıs
toplantı
toplantıda
toplantılar
toplantılara
toplantılarda
toplantıları
toplantılarına
toplantılarında
toplantının
toplantısı
toplantısına
toplantısında
toplantıya
toplanıp
toplanır
toplar
topları
topların
toplayan
toplayarak
toplayıcı
toplayıp
toplu
topluca
toplulug
topluluk
topluluklar
toplulukları
toplulukların
topluluklarının
toplum
topluma
toplumda
toplumdaki
toplumdan
toplumlar
toplumlarda
toplumların
toplumsal
toplumu
toplumun
toplumunda
toplumunun
topog
topoloji
topolojik
toprag
toprak
topraklar
topraklara
topraklarda
topraklardan
toprakları
toprakların
topraklarına
topraklarında
topraklarındaki
topraklarından
topraklarını
topraklarının
toprakta
topraktan
toptan
topu
topun
tor
tora
torba
torbalı
torino
tork
toro
toronto
toros
toroslar
torpido
torre
torres
tortu
tortul
tortum
torun
torunları
torunu
torunudur
toscana
toskana
tostring
tosu
tosun
tosya
total
totaliter
toto
tottenham
touch
touchwiz
toulon
toulouse
tour
tournament
tours
towards
tower
town
township
toy
toyota
toz
tozu
tp
tr
tra
trablus
trablusgarp
trabzon
trabzonspor
track
tracks
tracy
trade
tradition
traditional
trafig
trafik
trail
train
trajedi
trajik
trakto
trakya
tramvay
tramvayı
trans
transdinyester
transfer
transferi
transferler
transfermarkt
transilvanya
transisto
transit
transkafkasya
transkripsiyon
translated
translation
translator
transport
transseksu
trap
trastevere
travel
travis
travma
travmatik
tre
treasure
treasures
treatment
trecento
trechus
tree
trek
tren
trend
treni
trenin
trenler
trenleri
trent
tres
treviso
trevor
tri
trial
triangle
tribe
tribu
tribune
tribute
trick
trier
trieste
trigonometrik
trilyon
trim
trinidad
trinita
trinity
trino
trio
trip
triple
tristan
triumph
troc
trofeo
trois
trompet
tron
trophy
tropik
tropikal
trouble
troy
troya
trt
tru
true
truman
trump
trust
truth
truva
try
ts
tsa
tsel
tsi
tsk
tso
tsu
tsunami
tt
tta
tte
ttefik
ttefiki
ttefikler
ttefikleri
ttefiklerin
tten
ttifak
ttifakı
ttihat
ttingen
ttu
tu
tuba
tucker
tudes
tudor
tufan
tug
tugay
tugayı
tuhaf
tuk
tukları
tuktan
tulum
tum
tun
tuna
tunc
tunca
tuncay
tuncel
tunceli
tuncer
tungsten
tunlar
tunu
tunus
tunuslu
tupolev
tur
tura
turabilir
turacak
turan
turarak
turbo
turda
turdan
turdu
turdug
turdukları
turdular
turgay
turgut
turgutlu
turhal
turhan
turin
turing
turist
turistik
turistler
turistlerin
turizm
turizmi
turk
turkcell
turkey
turkish
turks
turlar
turları
turma
turmada
turmak
turmaktadır
turmaktaydı
turmanın
turması
turmasına
turmaya
turmayı
turmus
turn
turna
turne
turneleri
turnenin
turner
turnesi
turnesine
turneye
turnhout
turnuva
turnuvada
turnuvadan
turnuvalar
turnuvalarda
turnuvaları
turnuvanın
turnuvası
turnuvasıdır
turnuvasına
turnuvasında
turnuvaya
turnuvayı
turs
turu
turucu
turulabilir
turulan
turuldu
turuldug
turulması
turulmasına
turulmasını
turulmus
turulur
turun
turuna
turuncu
turunda
turunu
turup
turur
tururken
tururlar
turuyor
turuyordu
tus
tut
tutan
tutanag
tutanak
tutar
tutarak
tutarken
tutarlı
tutarında
tutku
tutkusu
tutma
tutmak
tutmaktadır
tutması
tutmaya
tutmayı
tutmus
tutsak
tuttu
tuttug
tutucu
tutuklama
tutuklanan
tutuklanarak
tutuklandı
tutuklandıg
tutuklanması
tutuklanmıs
tutuklu
tutuklular
tutulan
tutularak
tutuldu
tutuldug
tutulma
tutulmaktadır
tutulması
tutulmus
tutulur
tutum
tutumu
tutumunu
tutup
tutus
tutuyor
tuva
tuval
tuvalet
tuz
tuzag
tuzak
tuzla
tuzlu
tuzu
tv
tweet
twentieth
twenty
twilight
twin
twitter
two
tx
txt
ty
tyler
type
types
tyrion
tyson
tz
tı
tıbbi
tıbbiye
tıbbı
tıg
tık
tıkc
tıkları
tıklarında
tıklarını
tıktan
tılar
tım
tımi
tın
tına
tıni
tını
tıp
tıpkı
tıpta
tır
tırabilir
tıracak
tıran
tırarak
tıras
tırdı
tırdıg
tırma
tırmacı
tırmacılar
tırmacıları
tırmacıların
tırmacısı
tırmada
tırmak
tırmaktadır
tırmalar
tırmalara
tırmalarda
tırmaları
tırmaların
tırmalarına
tırmalarında
tırmalarını
tırmalarının
tırmalı
tırmanma
tırmanın
tırmanıs
tırması
tırmasına
tırmasını
tırmaya
tırmayı
tırmıs
tırnak
tırıcı
tırılabilir
tırılan
tırılarak
tırıldı
tırıldıg
tırılmaktadır
tırılmamalıdır
tırılması
tırılmasına
tırılmasını
tırılmıs
tırılır
tırıp
tırır
tırırken
tırıyor
tıva
u
ua
uan
ub
ubat
ubayazıt
ube
ubeleri
ubesi
ubesinin
ubisoft
ubug
ubuk
ubuklu
ubuntu
uc
uca
uccello
uci
ucu
ucuları
ucuna
ucunda
ucundaki
ucundan
ucuz
ud
uda
udaki
udan
uday
udine
udinese
udur
uefa
ufa
ufak
ufc
uffizi
ufo
ufuk
ug
uganda
ui
uk
ukc
uklu
uklular
ukluları
ukraine
ukrainian
ukrayna
ukraynaca
ukraynalı
ukur
ukurova
ukuru
ul
ula
ulan
ular
ularak
uları
ulas
uldu
uldug
ule
ulema
ullar
ullara
ullarda
ulları
ulların
ullarına
ullarında
ullarından
ullarını
ullarının
ullu
ulmaktadır
ulmus
ulrich
ultimate
ultra
ultraviyole
ulu
ulubey
uluc
uludag
ulug
uluk
ulur
ulus
ulusal
uluslar
uluslararası
ulusların
uluslu
ulusoy
ulusu
ulusun
ulusunun
uluyla
ulvi
um
uma
umberto
umda
umdan
umdug
umlar
umları
umlu
umludur
umlular
umman
ump
umu
umuduyla
umum
umumi
umumiye
umun
umuna
umunda
umundan
umunu
umunun
umur
umut
umutsuz
umuz
umuzu
un
una
unca
uncu
und
unda
undadır
undaki
undan
under
underground
understanding
undertaker
une
unesco
unicef
unicode
unilever
union
unit
united
units
unity
univ
universal
universe
universidad
universita
university
unix
unknown
unlar
unlardan
unlardır
unları
unlas
unlu
unlug
unluk
unlukla
unluklu
unlukta
unspecified
unsur
unsurlar
unsurları
unsurların
unsurlarını
unsurlarının
unsuru
until
unu
unun
unutma
unutulmaz
unutulmus
unuz
unvan
unvandır
unvanlar
unvanları
unvanlarını
unvanı
unvanına
unvanını
unvanının
unvanıyla
up
uparrow
update
updated
upload
upon
upper
uppsala
upright
ur
ura
ural
uran
uranu
uranyum
urartu
urası
urban
urdu
urdug
urfa
urganlık
uri
urken
url
urla
urlar
urlu
urma
urmus
ursula
urt
uruguay
uruguaylı
uruk
urum
urur
uruz
urya
us
usa
usaf
usb
usd
use
used
user
uses
usher
using
uslu
uss
usta
ustaları
ustası
ustos
ustring
usu
usudur
usul
usulu
usuna
usunda
usundaki
usundan
ut
utah
utanc
utc
utku
utma
utmalı
uto
utrecht
utricularia
utucu
utype
uv
uvas
uww
ux
uy
uya
uyan
uyandıran
uyandırdı
uyanık
uyanır
uyanıs
uyar
uyarak
uyaran
uyardı
uyarlama
uyarlamaları
uyarlaması
uyarlanan
uyarlandı
uyarlanmıs
uyarı
uyarıcı
uyarınca
uyarır
uydu
uydular
uyduları
uydurma
uydusu
uygarlıg
uygarlık
uyguladı
uyguladıg
uygulama
uygulamada
uygulamak
uygulamalar
uygulamalara
uygulamalarda
uygulamaları
uygulamaların
uygulamalarına
uygulamalarında
uygulamalarını
uygulamalarının
uygulamalı
uygulamanın
uygulaması
uygulamasıdır
uygulamasına
uygulamasında
uygulamasını
uygulamasının
uygulamaya
uygulamayı
uygulamıs
uygulanabilir
uygulanacak
uygulanan
uygulandı
uygulandıg
uygulanmaktadır
uygulanması
uygulanmasına
uygulanmasında
uygulanmasını
uygulanmaya
uygulanmaz
uygulanmıs
uygulanır
uygular
uygulayan
uygulayarak
uygun
uygundur
uygunlug
uygunluk
uygunsuz
uygur
uygurca
uygurlar
uyku
uykuya
uyla
uymadıg
uymak
uymayan
uyor
uyordu
uyruklu
uysal
uyum
uyumlu
uyumludur
uyumlulug
uyumluluk
uyumsuz
uyumu
uyus
uyuyan
uz
uzag
uzak
uzaklas
uzaklıg
uzaklık
uzaklıkta
uzaklıktadır
uzaklıktaki
uzakta
uzaktaki
uzaktan
uzamsal
uzan
uzanan
uzanmaktadır
uzantıları
uzantısı
uzanır
uzatma
uzatmalarda
uzattı
uzatıldı
uzatılmıs
uzay
uzaya
uzayda
uzaydaki
uzaylı
uzayı
uzayın
uzhan
uzlar
uzlas
uzman
uzmanlar
uzmanları
uzmanlas
uzmanlıg
uzmanlık
uzmanı
uzun
uzunc
uzunca
uzundur
uzunko
uzunlug
uzunluk
uzunlukları
uzunlukta
v
va
vaaz
vadede
vadeden
vadeli
vader
vadi
vadiler
vadinin
vadisi
vadisinde
vaftiz
vagon
vahiy
vahs
vai
vajinal
vaka
vakalar
vakaları
vakaların
vakası
vakfı
vakfın
vakit
vakti
vakum
vakıf
vakıfbank
vakıflar
val
vala
vale
valencia
valenciennes
valensiya
valentin
valentina
valentine
valerie
vali
valid
valide
valiler
valileri
valilig
valilik
valinin
valisi
valla
valladolid
valle
valley
value
values
valve
valye
valyeler
valyeleri
valyesi
vampir
vampire
van
vancouver
vanessa
vans
vapur
var
varan
vardar
vardı
vardıg
vardılar
vardır
varepsilon
vargas
vari
variety
varil
varileri
various
varis
varisi
varken
varlıg
varlık
varlıklar
varlıkları
varlıkların
varlıklarını
varlıklı
varmıs
varna
varol
varolus
varos
varphi
vars
varsa
varsayılan
varsayılır
varsayım
varsayımsal
varsayımı
varto
varyantı
varyete
varılmıs
varır
varıs
vas
vasco
vasi
vasili
vasiyet
vasiyeti
vasku
vasıtası
vasıtasıyla
vatan
vatana
vatandas
vatansever
vatanseverlik
vatanı
vatican
vatikan
vaughan
vay
vaz
vazgec
vazife
vaziyette
vb
vbe
vd
vde
vdeli
vdenin
vdesi
vdeye
vdu
ve
veba
vec
vecchi
veda
vedat
vefa
vefat
vefatı
vefatından
vega
vegas
vehbi
veka
vekalet
vekaleten
vekaleti
vekil
vekili
vekilleri
vekillig
vekto
vel
vela
veli
veliaht
velid
velvet
ven
venc
vence
vencesi
vende
vendig
venedik
venedikli
venedikliler
venetian
veneto
venezia
veneziano
venezuela
venezuelalı
vengeance
veni
venice
venilir
venilirlig
venilirlik
venini
venli
venlig
venlik
venom
vensizlik
ventforet
ventriku
venu
venus
ver
vera
veraset
vercin
verde
verdi
verdig
verdik
verdikleri
verdiklerini
verdikten
verdiler
verdim
verebileceg
verebilir
vereceg
verecek
verecektir
verem
veren
verenler
vererek
vergi
vergilendirme
vergiler
vergileri
vergilerin
vergisi
veri
verici
verildi
verildig
verilebilir
verileceg
verilecek
verilecektir
verilen
veriler
verilere
verilerek
verileri
verilerin
verilerine
verilerini
verilerinin
verilir
verilirdi
verilirken
verilmedi
verilmedig
verilmek
verilmektedir
verilmemis
verilmesi
verilmesine
verilmesini
verilmeye
verilmez
verilmis
verim
verimi
verimli
verimlilig
verimlilik
verin
verinin
verip
verir
verirken
verirler
veris
verisi
veritabanı
veriyi
veriyor
veriyordu
veriyorum
veriyoruz
verlag
verme
vermeden
vermedi
vermedig
vermeer
vermek
vermekle
vermekte
vermektedir
vermekten
vermeleri
vermemesi
vermemis
vermesi
vermesine
vermesini
vermesiyle
vermeye
vermeyeceg
vermeyen
vermeyi
vermez
vermis
vermont
verne
vernon
verona
veronica
verrocchio
versailles
versay
verse
version
versiyon
versiyonda
versiyonlar
versiyonları
versiyonu
versiyonudur
versiyonuna
versiyonunda
versiyonunu
versiyonunun
vertical
very
vesayet
vesile
vesilesiyle
vestfalya
vet
veteriner
[...]
