!
"
#
##0
##1
##10
##11
##12
##13
##14
##15
##16
##17
##18
##19
##2
##20
##21
##22
##23
##24
##25
##26
##27
##28
##29
##3
##30
##31
##32
##33
##34
##35
##36
##37
##38
##39
##4
##40
##41
##42
##43
##44
##45
##46
##47
##48
##49
##5
##50
##51
##52
##53
##54
##55
##56
##57
##58
##59
##6
##60
##61
##62
##63
##64
##65
##66
##67
##68
##69
##7
##70
##71
##72
##73
##74
##75
##76
##77
##78
##79
##8
##80
##81
##82
##83
##84
##85
##86
##87
##88
##89
##9
##90
##91
##92
##93
##94
##95
##96
##97
##98
##99
$
%
&
'
(
)
*
+
,
-
.
/
0
00
000
0002
0004
0006
001
002
0022
0024
003
004
005
006
007
009
01
010
011
0128
013
0195373851
0198742425
0199604517
02
03
0362
04
05
06
07
08
0810811782
09
1
10
100
1000
1001
1002
1006
1007
101
1016
1017
102
1021
1029
103
1037
1038
104
105
1050
1051
106
1063
1066
107
1071
1073
108
1080
1086
1088
109
1093
1095
1096
1097
1098
1099
11
110
1100
1101
1103
1109
111
1111
1119607410
112
1126
1128
113
1136
114
1146
115
116
117
1177
118
1186
119
12
120
1200
1204
121
122
123
12385
124
125
1250
126
1260
1261
127
128
1280
129
13
130
1300
1308
131
132
133
134
135
1350
136
1365
137
1371
1377
138
1385
1389
139
14
140
1400
1402
141
1410
142
143
144
145
1450
1453
146
1460
1461
1467
1469
147
1470
1471
1475
148
1485
1487
149
1492
15
150
1500
1501
1502
1506
151
1510
1512
1514
1515
1516
1517
152
1520
1521
1522
1523
1525
1526
153
1530
1533
1534
1536
1538
1538102534
154
1540
1541
1543
155
1550
1552
1553
1555
1556
1557
1558
1559
156
1560
1561
1565
1566
1569
157
1570
1571
1572
1573
1574
1578
158
1580
1585
159
1590
1591
1595
1598
16
160
1600
1603
1604
1605
1606
1609
161
1610
1612
1618
162
1620
1623
1625
1629
163
1630
1632
1633
1635
1638
1639
164
1640
1642
1643
1644
1645
1648
1649
165
1650
1655
1656
1659
166
1660
1661
1664
1665
1666
1667
167
1670
1672
1674
1676
168
1680
1683
1685
1687
1688
1689
169
1690
1694
1699
17
170
1700
1703
1707
171
1710
1711
1714
1715
1718
172
1720
1721
1723
1724
1725
1727
1729
173
1730
1732
1733
1735
1736
1737
1739
174
1740
1741
1742
1743
1744
1745
1746
1747
1748
1749
175
1750
1751
1752
1753
1754
1755
1756
1757
1758
1759
176
1760
1761
1762
1763
1764
1765
1766
1767
1768
1769
177
1770
1771
1772
1773
1774
1775
1776
1777
1778
1779
178
1780
1781
1782
1783
1784
1785
1786
1787
1788
1789
179
1790
1791
1792
1793
1794
1795
1796
1797
1798
1799
18
180
1800
1801
1802
1803
1804
1805
1806
1807
1808
1809
181
1810
1811
1812
1813
1814
1815
1816
1817
1818
1819
182
1820
1821
1822
1823
1824
1825
1826
1827
1828
1829
183
1830
1831
1832
1833
1834
1835
1836
1837
1838
1839
184
1840
1841
1842
1843
1844
1845
1846
1847
1848
1849
185
1850
1851
1852
1853
1854
1855
1856
1857
1858
1859
186
1860
1861
1862
1863
1864
1865
1866
1867
1868
1869
187
1870
1871
1872
1873
1874
1875
1876
1877
1878
1879
188
1880
1881
1882
1883
1884
1885
1886
1887
1888
1889
189
1890
1891
1892
1893
1894
1895
1896
1897
1898
1899
19
190
1900
1901
1902
1903
1904
1905
1906
1907
1908
1909
191
1910
1911
1912
1913
1914
1915
1916
1917
1918
1919
192
1920
1921
1922
1923
1924
1925
1926
1927
1928
1929
193
1930
1931
1932
1933
1934
1935
1936
1937
1938
1939
194
1940
1941
1942
1943
1944
1945
1946
1947
1948
1949
195
1950
1951
1952
1953
1954
1955
1956
1957
1958
1959
196
1960
1961
1962
1963
1964
1965
1966
1967
1968
1969
197
1970
1971
1972
1973
1974
1975
1976
1977
1978
1979
198
1980
1981
1982
1983
1984
1985
1986
1987
1988
1989
199
1990
1991
1992
1993
1994
1995
1996
1997
1998
1999
2
20
200
2000
2001
2002
2003
2004
2005
2006
2007
2008
2009
201
2010
2011
2012
2013
2014
2015
2016
2017
2018
2019
202
2020
2021
2022
2023
2024
203
2030
204
205
206
207
208
209
21
210
211
212
213
214
215
216
217
218
219
22
220
221
222
223
224
225
226
227
228
229
23
230
2305
2307
231
232
233
234
235
236
237
238
239
24
240
241
242
243
244
245
246
247
248
249
25
250
2500
251
252
253
254
255
256
257
258
259
26
260
261
262
263
264
265
266
267
268
269
27
270
271
272
273
274
275
276
277
278
279
28
280
281
282
283
284
285
286
287
288
289
29
290
291
292
293
294
295
296
297
298
299
3
30
300
3000
301
302
303
304
305
306
307
308
309
31
310
311
312
313
314
315
316
3166
317
318
319
32
320
321
322
323
324
325
326
327
328
329
33
330
331
332
333
334
335
336
337
338
339
34
340
341
342
343
344
345
346
347
348
349
35
350
3500
351
352
353
354
355
356
357
358
359
36
360
361
362
363
364
3644
365
366
367
368
369
37
370
371
3713
372
373
374
375
376
377
378
379
38
380
381
382
383
384
385
386
387
388
389
39
390
391
392
393
394
395
396
397
398
399
4
40
400
4000
401
402
403
404
405
406
407
4074
408
409
41
410
411
412
413
414
415
416
417
418
419
42
420
421
422
423
424
425
426
427
428
429
43
430
431
432
433
4331
434
435
436
437
438
439
44
440
441
442
443
444
445
446
447
448
449
45
450
451
452
453
454
455
456
457
458
459
46
460
461
462
463
464
465
466
467
468
469
47
470
471
472
473
474
475
476
477
478
479
48
480
481
482
483
484
485
486
487
488
489
49
490
491
492
493
494
495
496
497
498
499
5
50
500
5000
501
502
503
504
505
506
507
508
509
51
510
511
512
513
514
515
516
517
518
519
52
520
521
522
523
524
525
526
527
528
529
53
530
531
532
533
534
535
536
537
538
539
54
540
541
542
543
544
545
546
547
548
549
55
550
551
552
553
554
555
557
559
56
560
561
562
563
565
567
568
569
57
570
571
573
575
576
578
579
58
580
581
582
583
584
585
586
588
589
59
590
591
593
595
597
6
60
600
6000
601
602
603
604
605
606
607
609
61
610
612
613
615
616
617
618
62
620
621
622
624
625
626
627
628
629
63
630
631
632
633
634
635
636
6360
6361
637
638
639
64
640
641
642
643
645
646
65
650
653
656
657
66
660
661
666
667
668
67
670
671
674
679
68
680
681
684
685
69
690
691
695
7
70
700
7000
701
705
707
708
71
710
711
715
717
72
720
7267
727
73
730
731
737
74
740
741
745
747
75
750
751
753
759
76
760
765
767
768
77
770
777
78
780
787
79
790
8
80
800
8000
802
808
81
810
82
820
828
83
830
835
84
840
843
845
85
850
86
860
864
867
87
870
873
88
880
89
9
90
900
91
911
912
92
920
93
930
937
94
95
950
951
96
960
963
965
97
970
975
977
978
98
980
981
99
9941
9944
997
998
999
:
;
<
=
>
?
@
[
\
]
^
_
`
a
aa
aabat
aag
aaron
aat
aatı
aatına
ab
aba
abalar
abaları
abalarına
abalarını
aban
abartılı
abası
abasıyanık
abaza
abba
abbas
abbasi
abbasiler
abbeville
abbey
abbott
abc
abd
abdal
abdest
abdi
abdu
abdul
abdulkadir
abdullah
abdurrahman
abe
abel
abell
abeyi
abgerufen
abhaz
abhazya
abi
abidin
abileceg
abilecek
abilen
abilir
abilirler
abilirsiniz
abilmek
abilmektedir
abisi
abla
ablası
ablon
ablonu
abone
abonelik
about
above
abraham
abrams
abs
abstract
abu
abucak
abuk
ac
aca
acaba
acad
acade
academia
academic
academy
acag
acak
acaktır
acar
acara
acb
access
accessed
accident
according
account
accreditations
ace
acele
acem
acemi
acer
achievement
acid
acikerisim
acil
acm
aconitum
acquire
acquired
acquires
across
act
acta
acting
action
active
activities
activity
actor
actors
actress
acts
acun
acunn
acute
acı
acıbadem
acıg
acık
acıklar
acıkları
acıkların
acılar
acımasız
acın
acından
acının
ad
ada
adada
adadaki
adadan
adadı
adadır
adag
adak
adaki
adalar
adaları
adaların
adalarında
adalet
adaleti
adaletin
adalı
adam
adama
adamdır
adamla
adamlar
adamları
adamlarına
adamlarından
adamlarını
adamlarının
adams
adamı
adamıdır
adamın
adamıs
adan
adana
adanaspor
adanmıs
adanın
adapazarı
adaptation
adapte
adası
adasına
adasında
adasındaki
adasının
aday
adaya
adaylar
adayları
adayların
adaylıg
adaylık
adayı
add
added
addison
additional
address
adds
addır
ade
adedi
adela
adelaide
adele
adem
aden
adet
adeta
adi
adidas
adil
adiye
adjusted
adla
adlandırdı
adlandırdıg
adlandırma
adlandırılan
adlandırıldı
adlandırılmaktadır
adlandırılmıs
adlandırılır
adlar
adları
adlarında
adlarını
adlarının
adlarıyla
adler
adli
adliye
adlı
administration
administrative
adnan
adobe
adolf
adres
adrese
adresi
adresinde
adresinden
adresini
adrian
adriyatik
adult
adults
advance
advanced
advances
adventure
adventures
adı
adıdır
adıg
adıkları
adıklarını
adılar
adım
adımlar
adımları
adımı
adımını
adın
adına
adında
adındaki
adından
adını
adının
adır
adıvar
adıyaman
adıyla
ae
aek
aero
aerodinamik
aerospace
aew
af
afak
afaka
afc
afet
affair
affairs
afgan
afganistan
afghan
afghanistan
afi
afife
afis
afp
africa
african
afrika
afrikalı
afrikan
afrin
afro
afs
after
afyon
afyonkarahisar
ag
aga
again
against
agatha
age
aged
agency
agent
agents
ages
agi
agnes
ago
agos
agreement
agresif
agricultural
agriculture
aguilera
ah
aha
ahabeddin
ahamenis
ahane
ahead
ahi
ahin
ahinbey
ahit
ahka
ahla
ahlak
ahlaki
ahlar
ahlat
ahmad
ahmed
ahmet
ahn
ahs
ahsa
ahsen
ahsi
ahsı
ahsın
ahu
ahva
ahı
ahın
ahıs
ahıska
ahısla
ahıslar
ahıslara
ahısların
ai
aid
aids
aile
ailede
aileden
aileler
aileleri
ailelerin
ailelerinden
ailelerine
ailelerinin
ailenin
ailesi
ailesinde
ailesinden
ailesine
ailesini
ailesinin
ailesiyle
aileye
aim
aime
ain
air
airbus
aircraft
aires
airi
airin
airler
airleri
airlines
airplay
airport
airways
ais
aise
ait
aitti
aittir
aj
ajan
ajanlar
ajanları
ajans
ajansı
ajanı
ajax
ajda
ak
aka
akabinde
akad
akademi
akademie
akademik
akademisi
akademisyen
akademisyenler
akal
akalın
akan
akar
akarsu
akay
akbaba
akbas
akbulut
akc
akcig
akdag
akdeniz
akdog
aker
akgu
akhisar
aki
akif
akir
akira
akit
akka
akkaya
akkoyunlu
akkurt
akla
aklar
aklara
akları
akların
aklarının
aklı
aklın
aklına
aklını
akmak
akman
ako
akoca
akon
akp
akpınar
akraba
akrabaları
akrabalık
akrabası
akrep
aks
aksa
aksaray
aksavar
akseki
aksi
aksine
aksiyon
aksoy
aksu
akta
aktan
aktaran
aktardıg
aktarma
aktarmak
aktarılan
aktarıldı
aktarılmıs
aktarılır
aktarım
aktarımı
aktarır
aktas
aktif
aktive
aktivist
aktivisti
aktivite
aktiviteleri
akto
aktris
aktu
aku
akustik
akut
akyazı
akyol
akyu
akı
akıcı
akıl
akıllı
akım
akımlar
akımları
akımı
akımın
akımının
akın
akıncı
akıncılar
akır
akıs
al
ala
alaaddin
alabama
alabileceg
alabilir
alabilirler
alabilmek
alac
alaca
alacag
alacak
alacakaranlık
alacaktır
aladag
alaeddin
alain
alakalı
alakası
alalım
alamadı
alan
alana
alanda
alandaki
alandan
alandır
alanlar
alanlara
alanlarda
alanlardaki
alanlardan
alanları
alanların
alanlarına
alanlarında
alanlarından
alanlarını
alanlarının
alanmıs
alanya
alanyaspor
alanı
alanıdır
alanın
alanına
alanında
alanındaki
alanından
alanını
alanının
alar
alara
alarak
alardan
alarm
aları
aların
alarına
alarından
alarını
alarının
alas
alaska
alay
alaycı
alayı
alba
albania
albanian
albany
albay
albayrak
albert
alberta
alberti
alberto
albion
albrecht
albu
album
albums
alc
aldershot
aldo
aldı
aldıg
aldık
aldıkları
aldıklarını
aldıktan
aldılar
aldım
aldıran
ale
alec
alejandro
aleksandar
aleksander
aleksandr
aleksandros
aleksey
aleksios
alem
alemdar
alemdarog
alenen
alessandro
alet
aleti
aletler
aletleri
alev
alevi
alex
alexa
alexander
alexandra
alexandre
alexandria
alexis
aleyhinde
aleyhine
alf
alfa
alfabe
alfabesi
alfabesinde
alfabesinin
alfabetik
alfonso
alfred
alfredo
algaz
algoritma
algoritması
algı
algılama
algılanan
algılar
algısı
ali
aliag
alice
alicia
alien
aligned
alim
alis
alison
alive
aliye
aliyev
aljazeera
alkali
alkan
alkol
alkollu
alkıs
all
alla
allah
allaha
allahın
allan
alle
allen
alliance
allison
allium
allmovie
allmusic
allrovi
allı
alma
almadan
almadı
almadıg
almak
almakla
almakta
almaktadır
almaktaydı
almaları
almamıs
alman
almanac
almanca
almanlar
almanların
almanya
almanyası
almanın
alması
almasına
almasından
almasını
almasının
almasıyla
almatı
almaya
almayan
almayı
almaz
almeida
almeri
almost
almıs
alo
alone
along
alonso
alopecosa
alp
alparslan
alpaslan
alpay
alper
alpes
alpha
already
als
alsa
alsancak
also
alt
alta
altan
altay
alter
alternatif
alternative
altfamilyasına
altma
altmıs
alto
altta
alttaki
alttakımına
alttan
altu
altug
altun
altyapı
altyapısı
altyapısına
altyapısında
altı
altın
altına
altıncı
altında
altındadır
altındag
altındaki
altından
altındaydı
altınordu
altıntas
altını
alu
alucra
alves
alvin
always
alzheimer
alı
alıcı
alık
alım
alımı
alın
alınabilir
alınacak
alınan
alınarak
alınca
alındı
alındıg
alındıktan
alınmak
alınmaktadır
alınmalıdır
alınmamıs
alınması
alınmasına
alınmasından
alınmasını
alınmasının
alınmasıyla
alınmaya
alınmıs
alıntı
alıntılar
alınıp
alınır
alıp
alır
alırken
alırlar
alıs
alıyor
alıyordu
am
ama
amac
amaca
amacı
amacına
amacını
amacının
amacıyla
amada
amadan
amadı
amadıg
amak
amakta
amaktadır
amaktaydı
amaları
amalarında
amalı
amamıs
aman
amanda
amanın
amar
amas
amasya
aması
amasına
amasında
amasını
amato
amaya
amayan
amayı
amaz
amazing
amazon
amba
ambassador
amber
amblemi
amblyomma
ambrogio
ambrose
amc
amca
amcası
amcasının
amd
amda
amdan
ame
amelia
ameliyat
ameliyatı
america
american
americana
americans
amerika
amerikalı
amerikalılar
amerikalıların
amerikan
ames
ami
amid
amil
amin
amino
amir
amiral
amiri
amirlig
amlar
amları
amlarını
amlı
amlıca
amlıhems
amma
amman
amme
amon
among
amonyum
amor
amore
amos
amour
amp
ampas
ampiyon
ampiyona
ampiyonada
ampiyonası
ampiyonasına
ampiyonasında
ampiyonasını
ampiyonaya
ampiyonlar
ampiyonları
ampiyonlug
ampiyonluk
ampiyonu
amr
amsterdam
amt
amur
amy
amı
amın
amına
amında
amını
amının
amıs
an
ana
anabilim
anadili
anadolu
anahtar
anahtarı
anak
anakin
anakkale
anal
analitik
analiz
analizi
analizler
analizleri
analog
analysis
anam
anamur
anan
anaokulu
anap
anar
anars
anas
anası
anatolia
anatolicus
anatomi
anatomik
anatomisi
anatomy
anavatan
anayasa
anayasal
anayasanın
anayasası
anayasasının
anayasaya
anayasayı
anc
ancak
ancient
ancona
ancı
and
anda
andan
anderlecht
anders
andersen
anderson
andersson
andorra
andras
andre
andrea
andreas
andreeva
andrei
andrew
andrews
andrey
android
andromeda
andronikos
andrzej
andy
andı
andıg
andır
andıran
andıs
ang
ange
angel
angela
angeles
angelico
angelina
angelo
angels
anghay
angiller
angiosperm
angle
anglikan
anglo
angola
angry
angus
ani
aniden
animal
animals
animasyon
animated
animation
animato
anime
anita
anka
ankara
ankaragu
ankaraspor
ankaya
anket
anki
anksiyete
ankırı
anladı
anladıg
anladım
anlam
anlama
anlamak
anlamaya
anlamda
anlamlar
anlamlara
anlamları
anlamlarına
anlamlı
anlamsız
anlamı
anlamına
anlamında
anlamındadır
anlamındaki
anlamını
anlamıs
anlamıyla
anlar
anlara
anları
anların
anlarının
anlas
anlatan
anlatmak
anlatmaktadır
anlatmaya
anlatmıs
anlattı
anlattıg
anlatı
anlatıcı
anlatılan
anlatıldıg
anlatılmaktadır
anlatılmıs
anlatılır
anlatım
anlatımı
anlatır
anlatırken
anlatıyor
anlayan
anlayıs
anlı
anlıg
anlık
anlısı
anlıurfa
anma
anmak
anmıs
ann
anna
annales
annals
anne
anneler
anneleri
annem
annenin
annesi
annesidir
annesine
annesini
annesinin
annesiyle
annette
annie
anniversary
anno
annotated
announce
announced
announcement
announces
annual
anonim
anormal
another
ans
ansiklopedi
ansiklopedik
ansiklopedisi
ansiklopedisinde
anslı
anso
answers
ansı
ansını
ant
anta
antakya
antalya
antalyaspor
antarctic
antarktika
antas
antası
ante
anten
antep
anthem
anthology
anthonomus
anthony
anthropology
anthurium
anti
antibiyotik
antik
antiquity
antlas
anto
antoine
antoinette
antoloji
antolojisi
anton
antonello
antoni
antonia
antonio
antonius
antonov
antony
antrenman
antreno
antropolog
antropoloji
antwerp
anu
anvers
any
anya
anyan
anything
anzıman
anı
anıl
anılan
anılar
anıları
anılarını
anıldı
anılmaktadır
anılmaya
anılmıs
anılır
anın
anında
anır
anısına
anıt
anıtkabir
anıtlar
anıtları
anıtsal
anıtı
anıtın
ao
aog
aol
ap
apa
apac
apache
apan
apartman
apartmanı
apel
apeli
apg
api
apj
apka
aplı
apo
apoel
apollo
apollon
apollonius
app
appendix
apple
appleton
application
applications
applied
appointed
approach
approaches
approx
apps
apr
apraz
april
apsıg
apta
aptal
apı
apında
apındaki
aq
ar
ara
arab
araba
arabalar
arabaları
arabanın
arabası
arabaya
arabayı
arabesk
arabi
arabia
arabic
arabistan
arabuluculuk
arabı
arabın
arac
araca
aracı
aracıdır
aracılıg
aracılık
aracın
aracını
aracının
arada
aradaki
aradan
aradı
aradıg
aradım
arafat
aragon
arak
araklı
araknolog
aral
aralar
araları
aralarında
aralarındaki
aralıg
aralık
aralıklarla
aralıklı
aralıksız
aram
arama
aramada
aramadı
aramak
aramaya
aramıs
aramızda
aran
aranan
aranjo
aranın
arap
arapc
araplar
arapları
arapların
arar
ararken
aras
arası
arasına
arasında
arasındadır
arasındaki
arasından
arasındaydı
arasını
aratın
araya
arayan
arayarak
arayu
arayıp
arayıs
arazi
arazide
araziler
arazileri
arazinin
arazisi
araziye
araziyi
arbor
arc
arcade
arch
archaeological
archaeology
archer
archie
architect
architectural
architecture
architettura
archive
archived
archives
arctic
arctosa
ard
arda
ardahan
ardanuc
ardes
ardı
ardıc
ardılar
ardılı
ardına
ardında
ardından
ardıs
are
area
areas
arena
arenada
ares
aresiz
aret
areti
aretler
aretleri
argentina
argo
argos
argu
arhavi
ari
aria
ariadna
ariana
ariel
arif
aris
aristo
aristokrat
aristoteles
aritmetik
arizona
arj
arjantin
arjantinli
arjo
ark
arka
arkada
arkadan
arkadas
arkaik
arkansas
arkası
arkasına
arkasında
arkasındaki
arkasından
arkaya
arken
arkeolog
arkeoloji
arkeolojik
arktik
arkı
arkıcı
arkıcıdır
arkıcılar
arkıcının
arkıcısı
arkıda
arkıdan
arkıdır
arkılar
arkılara
arkılardan
arkıları
arkıların
arkılarına
arkılarından
arkılarını
arkılarının
arkın
arkının
arkıs
arkısı
arkısıdır
arkısına
arkısında
arkısından
arkısını
arkısının
arkısıyla
arkıya
arkıyla
arkıyı
arlar
arlı
arlıg
arlık
arm
arma
armag
arman
armand
arması
arme
armed
armenia
armenian
armenians
arms
armstrong
armut
army
armıha
armıs
arnavut
arnavutc
arnavutko
arnavutlar
arnavutluk
arnold
arnolfo
aromalı
aromatik
aron
around
arp
arpa
arpac
arpan
arpar
arparak
arpma
arpması
arptı
arptırıldı
arpıcı
arpım
arpımı
arpıs
array
arrest
arrondissement
arrondissementi
arrondissementin
arrow
ars
arsa
arsenal
arslan
art
arta
artan
artar
artarak
arte
artemis
arter
arthrobacter
arthur
arthurian
article
articles
artificial
artist
artistic
artistik
artists
artlar
artlara
artlarda
artları
artlarına
artlarını
artlı
artmaktadır
artması
artmasına
artmasıyla
artmaya
artmıs
arts
arttı
arttıg
arttıkc
arttır
arttırdı
arttırmak
arttırır
artur
arturo
artvin
artı
artık
artıran
artırdı
artırma
artırmak
artırılması
artırır
artıs
artıyla
aru
arxiv
arya
aryan
arz
arzu
arzusu
arı
arıcılık
arıda
arıdan
arık
arıkan
arılar
arıları
arılarından
arılarını
arılı
arının
arır
arısı
arısından
arısını
arısının
arısız
arısızlıg
arısızlık
arısızlıkla
arıtma
arıya
arıyla
arıyor
arıyı
arıza
as
asa
asaf
asal
asanso
asar
asayis
ascochyta
asena
asfalt
asgari
ash
asha
ashgate
ashley
ashton
asi
asia
asian
asidi
asil
asimetrik
asimile
asist
asistan
asistanlıg
asistanı
asit
asitler
ask
asked
asker
askerden
askere
askeri
askerin
askerini
askerinin
askeriye
askerler
askerlerden
askerlere
askerleri
askerlerin
askerlerine
askerlerini
askerlerinin
askerlig
askerlik
askıya
asla
aslan
aslanı
aslen
asli
asliye
aslı
aslında
asma
asp
aspects
aspergillus
aspx
ass
assassin
assault
assembly
assessment
assisi
associated
associates
association
associations
ast
asta
astana
aster
asteraceae
asteroid
asteroit
aston
astra
astragalus
astro
astrofoto
astronautica
astronom
astronomi
astronomical
astronomik
astronomy
astronot
astrophysical
astrophysics
astsubay
asturias
asuka
asuman
asur
asya
asyalı
ası
asıdır
asıl
asıllı
asılı
asım
asın
asına
asında
asından
asını
asının
asır
asıydı
asıyla
at
ata
atacanov
atadı
atag
atak
atakan
atako
atal
ataları
atalarının
atalay
atalca
atama
ataman
atan
atanan
atandı
atandıg
atanması
atanmıs
atanır
atar
atarak
atari
atarken
atas
ataso
atasoy
atası
atatu
atay
atayca
atc
ateist
ates
atfedilen
atfen
atheist
athena
athens
athletes
athletic
athletics
ati
atik
atilla
atina
atkins
atladı
atlama
atlanta
atlantic
atlantik
atlantis
atlar
atları
atlas
atlası
atlayıs
atle
atlet
atletizm
atlı
atm
atma
atmaca
atmadan
atmak
atmanın
atması
atmaya
atmayı
atmosfer
atmosfere
atmosferi
atmosferik
atmıs
ato
atom
atomic
atomik
atomlar
atomların
atomu
atosu
atp
atsız
attack
attacks
attention
attila
attı
attıg
attılar
atv
atı
atıcı
atıf
atıfta
atık
atılan
atıldı
atıldıg
atılması
atılmıs
atılı
atılım
atılır
atın
atıp
atıs
atısı
au
auckland
audi
audio
audrey
auf
auflage
aug
augsburg
august
augusta
auguste
augustin
augusto
augustus
aurelius
aurora
aus
auschwitz
austen
austin
australia
australian
austria
austrian
austriancharts
author
authorities
authority
authors
auto
autobiography
automobile
auvergne
aux
av
ava
available
avam
avant
avantaj
avantajı
avar
avarız
avatar
avcı
avcılar
avcıları
avcılıg
avcılık
avcısı
avdar
ave
avec
avengers
avenue
averaj
avery
avi
aviation
avignon
aviri
avirlig
aviv
avlanma
avlu
avm
avn
avni
avrasya
avril
avro
avrupa
avrupalı
avrupalılar
avs
avuc
avukat
avukatlık
avukatı
avus
avustralya
avustralyalı
avusturya
avusturyalı
avı
aw
award
awarded
awards
away
ax
axel
ay
aya
ayag
ayak
ayakkabı
ayaklanma
ayaklanmalar
ayaklanmanın
ayaklanması
ayaklanmaya
ayaklanmayı
ayaklar
ayakları
ayaklı
ayakta
ayan
ayancık
ayanlar
ayanların
ayar
ayarak
ayarlanmıs
ayas
ayasofya
ayaz
ayc
aycuma
ayda
aydan
aydemir
aydin
aydog
aydın
aydıncık
aydınlanma
aydınlar
aydınlatma
aydınlık
aydır
ayeli
ayet
ayetullah
aygu
aygıt
aygıtı
ayhan
ayin
aykur
aykut
aykırı
ayla
aylag
aylak
aylar
aylarca
aylarda
ayları
aylarında
aylin
aylıg
aylık
ayn
ayna
aynalı
aynen
ayni
aynı
aynıdır
ayrı
ayrıca
ayrıcalıklı
ayrık
ayrılabilir
ayrılan
ayrılarak
ayrıldı
ayrıldıg
ayrıldıktan
ayrıldılar
ayrılma
ayrılmadan
ayrılmak
ayrılmaktadır
ayrılması
ayrılmasına
ayrılmasından
ayrılmasını
ayrılmasıyla
ayrılmaya
ayrılmaz
ayrılmıs
ayrılıg
ayrılık
ayrılıkc
ayrılıp
ayrılır
ayrılırken
ayrılırlar
ayrılıs
ayrım
ayrımcılıg
ayrımcılık
ayrımı
ayrıntı
ayrıntılar
ayrıntıları
ayrıntılı
ayrıs
ays
aysel
aytac
ayten
ayvacık
ayvalık
ayyıldız
ayı
ayın
ayına
ayında
ayından
ayının
ayıp
ayır
ayıran
ayırdı
ayırlı
ayırma
ayırmak
ayırmıs
ayırt
ayırı
ayırıcı
ayırır
ayıs
ayısı
az
aza
azad
azade
azak
azalan
azaldı
azaldıg
azalma
azalması
azalmasına
azalmaya
azalmıs
azaltan
azaltarak
azaltma
azaltmak
azaltılması
azaltılmıs
azaltır
azalır
azami
azar
azası
azdır
azerbaijan
azerbaijani
azerbaycan
azerbaycanlı
azeri
azerice
azi
azic
aziz
azize
aziziye
azlar
azlıg
azot
aztek
azı
azından
azınlıg
azınlık
azınlıklar
azərbaycan
b
ba
baas
bab
baba
babacan
babadan
babalar
babaları
babam
babamın
babanın
babası
babasıdır
babasına
babasından
babasını
babasının
babasıydı
babasıyla
babil
babu
baby
babylon
bac
bacag
bacak
bacakları
bach
back
background
bacon
bad
badem
baden
bae
bafra
bafta
bag
bagrat
baha
bahadır
bahamalar
bahane
bahar
baharat
baharatlar
baharı
baharında
bahc
bahia
bahis
bahrain
bahreyn
bahri
bahriye
bahs
bahse
bahseden
bahseder
bahsedildig
bahsedilen
bahsedilir
bahsedilmektedir
bahsedilmis
bahsetmektedir
bahsetmis
bahsetti
bahsettig
bahsi
bahtiyar
bailey
bak
bakalım
bakan
bakanlar
bakanları
bakanlıg
bakanlık
bakanı
bakanın
bakar
bakarak
baker
baki
bakire
bakkal
baklagiller
bakma
bakmak
bakteri
bakteriler
bakterilerin
bakteriyel
baktı
baktıg
baktım
baku
bakı
bakıldıg
bakılmaksızın
bakılır
bakım
bakıma
bakımdan
bakımı
bakımından
bakın
bakınız
bakır
bakırko
bakıs
bal
bala
balaban
balance
balbay
balc
baldwin
bale
balesi
bali
balina
balinalar
balistik
balkan
balkanlar
balkans
balkarca
ball
ballad
balon
balta
baltic
baltimore
baltık
balı
balıg
balık
balıkc
balıkesir
balıkesirspor
balıklar
balıkları
ban
bana
banaz
banco
band
bandı
bandırma
bang
bangkok
banglades
bangladesh
bank
banka
bankacılık
bankalar
bankanın
bankası
banker
banks
banliyo
bant
banu
banyo
baptist
baptiste
bar
bara
barack
baraj
barajı
barajın
barak
baran
barbados
barbar
barbara
barbaros
barbarossa
barber
barbera
barc
barcelona
barda
bardag
bardak
barek
bari
bariz
barker
barlas
barnard
barnes
barnett
barney
barok
baron
baroque
barosu
barrett
barrow
barry
barselona
bart
bartlett
bartolomeo
barton
bartın
barut
barzani
barındıran
barındırdıg
barındırmaktadır
barındırır
barıs
bas
basamag
basamak
basamaklı
basan
basarak
basc
base
baseball
based
basel
bash
basic
basil
basileios
basin
basis
basit
basitc
basitles
bask
basket
basketball
basketbol
basketbolcu
basketbolcudur
baskı
baskıcı
baskılar
baskıları
baskın
baskını
baskının
baskısı
baskıya
basma
basmak
basra
bass
bastia
bastı
bastıg
bastırdı
bastırmak
bastırıldı
bastırılmıs
basılan
basıldı
basılmıs
basılı
basım
basımevi
basımı
basın
basına
basınc
basıncı
basında
basını
bat
bataklık
batarya
bateri
baterist
bates
bath
batista
batlamyus
batman
battal
battista
battle
battlefield
battles
battı
batum
batur
batı
batıda
batıdaki
batıdan
batılı
batısı
batısında
batısındaki
batıya
baudouin
bauer
bavyera
bay
bayag
bayan
bayanlar
bayar
bayat
baybars
bayburt
bayer
bayern
bayezid
baykal
baykus
bayley
bayrag
bayrak
bayrakları
bayraktar
bayram
bayramic
bayrampas
bayramı
bayındır
bayındırlık
baz
bazal
bazen
bazilikası
bazlı
bazı
bazıları
bazılarıdır
bazılarına
bazılarında
bazılarını
bazılarının
bazında
bb
bbc
bc
bd
bdfutbol
bdp
be
beach
bean
bear
beast
beat
beatles
beatrice
beats
beautiful
beauty
beaux
bebeg
bebek
bec
became
because
beceri
becerileri
becerilerini
becerisi
beck
becker
beckett
becky
become
becomes
becoming
bed
bedava
bedel
bedeli
beden
bedeni
bedenin
bedensel
bedford
bedir
bedirhan
bedrettin
bedri
bee
been
beer
beethoven
before
beg
begin
beginning
begins
begonia
begu
behavior
behavioral
behc
behic
behind
behzat
bei
beijing
bein
being
bek
beka
bekar
bekc
bekir
bekledig
bekleme
beklemek
beklemektedir
beklenen
beklenir
bekleniyor
bekleniyordu
beklenmedik
beklenmektedir
bekler
beklerken
bekleyen
bekliyor
bektas
bel
bela
belarus
belc
belde
beldeler
beldenin
beldesi
beldeye
belediye
belediyede
belediyedir
belediyeler
belediyeleri
belediyenin
belediyesi
belediyesinde
belediyesine
belediyesinin
belediyespor
belediyeye
belen
belfast
belge
belgede
belgelenmis
belgeler
belgelerde
belgelere
belgeleri
belgelerin
belgelerinde
belgenin
belgesel
belgeseli
belgesi
belgeyi
belgian
belgium
belgrad
belgrade
beli
believe
beliren
belirgin
belirgindir
belirginles
belirir
belirledi
belirledig
belirleme
belirlemek
belirlemis
belirlendi
belirlendig
belirlenecek
belirlenen
belirlenir
belirlenmesi
belirlenmis
belirler
belirleyecek
belirleyen
belirleyici
belirli
belirsiz
belirsizdir
belirsizlig
belirsizlik
belirten
belirterek
belirti
belirtildi
belirtildig
belirtilen
belirtiler
belirtileri
belirtilir
belirtilmektedir
belirtilmeli
belirtilmemis
belirtilmis
belirtir
belirtisi
belirtiyor
belirtme
belirtmek
belirtmektedir
belirtmis
belirtti
belirttig
belize
belki
bell
bella
belle
belleg
bellek
bellekte
belli
bellini
belo
belt
ben
bence
bend
bende
benden
bender
benedict
benekli
benfica
bengal
bengu
beni
benim
benimle
benimsedi
benimsemis
benimsenmis
benimseyen
benin
benito
benjamin
benlig
benlik
bennett
benny
benozzo
benson
bent
bentley
benz
benzedig
benzemektedir
benzer
benzerdir
benzeri
benzerlig
benzerlik
benzerlikler
benzersiz
benzes
benzeyen
benzin
benzinli
ber
beraat
beraber
berabere
beraberinde
beraberlig
beraberlik
berat
berber
berberi
bereket
bereketli
berg
bergama
bergamo
bergen
berger
bergman
beri
berk
berkeley
berkshire
berku
berlin
berliner
bermuda
bern
bernard
bernardo
bernd
bernhard
bernie
bernstein
berrak
berry
bert
bertaraf
bertolt
bertrand
berya
bes
besi
besim
besin
besleme
beslenen
beslenir
beslenirler
beslenme
besleyen
besni
best
beste
besteci
besteciler
bestecisi
besteka
besteledi
besteledig
bestelemis
bestelendi
bestelenen
bestelenmis
besteleri
bestesi
bet
beta
betc
beth
beton
betonarme
better
betty
betu
between
beverly
bey
beya
beyan
beyanı
beyanında
beyaz
beyazdır
beyazlı
beyazperde
beyazıt
beye
beygir
beyi
beyin
beykoz
beyler
beylerbeyi
beyleri
beylig
beylik
beylikdu
beyni
beynin
beyog
beyonce
beyond
beypazarı
beyrut
beys
beyt
beytu
beyzbol
bez
bezi
bf
bg
bh
bhutan
bi
bianca
bianet
bibcode
bibel
biber
bible
biblical
bibliography
bic
bid
bide
biden
bieber
bienali
big
biga
bigadic
biggest
bik
bil
bila
bilal
bilanc
bilbao
bildig
bildirdi
bildirdig
bildiren
bildirgesi
bildiri
bildirildi
bildirildig
bildirilen
bildirilir
bildirilmis
bildirim
bildirir
bildirisi
bildirme
bildirmek
bildirmis
bile
bilecik
bileg
bilek
bilen
bilerek
biles
bilet
bilge
bilgelig
bilgelik
bilgi
bilgic
bilgilendirme
bilgiler
bilgilere
bilgileri
bilgilerin
bilgilerini
bilgilerinin
bilgilerle
bilgili
bilgin
bilgini
bilginin
bilgisayar
bilgisayara
bilgisayarda
bilgisayarlar
bilgisayarlarda
bilgisayarların
bilgisayarlı
bilgisayarı
bilgisayarın
bilgisi
bilgisine
bilgisini
bilgisinin
bilgiye
bilgiyi
bilhassa
bilim
bilimci
bilimcisi
bilime
bilimi
bilimin
biliminde
biliminin
bilimkurgu
bilimler
bilimleri
bilimsel
bilinc
bilinci
bilindig
bilinen
bilinir
bilinirdi
bilinirler
biliniyor
biliniyordu
bilinmektedir
bilinmekteydi
bilinmemekle
bilinmemektedir
bilinmeyen
bilinmiyor
bilir
bilirkis
bilis
biliyor
biliyordu
biliyorsun
biliyorsunuz
biliyorum
biliyoruz
bilkent
bill
billboard
billie
billion
billy
bilmedig
bilmek
bilmektedir
bilmem
bilmeyen
bilmez
bilmiyorum
bin
bina
binada
binalar
binaları
binaların
binali
binanın
binası
binasına
binasında
binasının
binaya
binayı
binbas
binden
bine
binek
bing
bingen
bingo
bini
binicilik
binlerce
bint
bio
biodiversity
biographical
biographie
biography
biol
biological
biology
bipolar
bir
bira
biraz
birbiri
birbirinden
birbirine
birbirini
birbirinin
birbiriyle
birbirleri
birbirlerinden
birbirlerine
birbirlerini
birbirlerinin
birbirleriyle
birc
bird
birde
birden
birdenbire
birdlife
birds
bire
birebir
birer
birey
bireyin
bireyler
bireylere
bireyleri
bireylerin
bireysel
birgu
biri
biridir
biriken
birikimi
birileri
birim
birimdir
birimi
birimidir
birimin
biriminde
birimine
biriminin
birimler
birimleri
birimlerin
birimlerine
birimlerinin
birinci
birincil
birincilig
birincilik
birincilikle
birincisi
birinde
birinden
birine
birini
birinin
birisi
birisidir
birisini
birisinin
birisiydi
biriydi
biriyle
birkac
birles
birlig
birlik
birlikc
birlikler
birliklere
birlikleri
birliklerin
birliklerine
birliklerini
birliklerinin
birlikte
birliktelig
birliktelik
birmingham
birol
birs
birsel
birsen
birtakım
birth
birthday
bis
biseksu
bishop
bisiklet
bisikletc
bisikleti
bisku
bismarck
bismil
bissau
bit
bitcoin
biten
biter
biti
bitiminde
bitiminden
bitimine
bitince
bitirdi
bitirdig
bitirdikten
bitiren
bitirerek
bitirip
bitirmek
bitirmis
bitis
bitki
bitkidir
bitkiler
bitkilerde
bitkileri
bitkilerin
bitkinin
bitkisel
bitkisi
bitlik
bitlis
bitmis
bitter
bitti
bittig
bittikten
biyografi
biyografik
biyografisi
biyokimya
biyolog
biyoloji
biyolojik
biz
bizans
bizanslı
bizanslılar
bizde
bizden
bize
bizi
bizim
bizimle
bizler
bizzat
bjk
bjo
bk
bkz
bl
blabbermouth
black
blackburn
blackpink
blackwell
blade
blair
blake
blanc
blanche
blanco
blast
blazers
blender
blind
bliss
bloch
block
blog
blogspot
blok
blokları
bloku
blood
bloody
bloom
bloomberg
bloomington
bloomsbury
blow
blu
blue
blues
bluetooth
blum
blunt
bm
bmatrix
bmc
bmw
bn
bnan
bni
bnu
bo
boa
board
boat
bob
bobby
boca
bochum
bodies
bodrum
body
boeing
boemondo
boer
bog
bohemya
bohr
bois
boiss
boj
boks
bokso
bol
bolca
bold
boldsymbol
bolivya
bolluk
bollywood
bologna
bols
bolton
bolu
boluspor
bom
bomb
bomba
bombalama
bombalar
bombaları
bombalı
bombardıman
bombardımanı
bombası
bon
bonapart
bonaparte
boncuk
bond
bone
bones
bonn
bonnie
bonservis
bonus
book
booker
books
boom
boot
booth
bor
bora
boran
borc
borcu
borcunu
bordeaux
border
borders
bordo
boris
born
borneo
bornova
borough
borsa
borsası
boru
borussia
borusu
bos
bosch
bose
bosna
bosnalı
bosnia
boss
bostancı
boston
bosworth
bot
botanical
botanik
botanikc
botany
both
botsvana
botticelli
bottom
boucher
boulder
bound
boundary
bow
bowie
bowl
box
boy
boya
boyabat
boyalı
boyama
boyanmıs
boyd
boyer
boykot
boyları
boyle
boylu
boynu
boynuz
boynuzlu
boynuzlugiller
boys
boyu
boyun
boyuna
boyunca
boyunda
boyundaki
boyundan
boyunun
boyut
boyuta
boyutlarda
boyutları
boyutlarında
boyutlu
boyutta
boyutu
boyutuna
boyutunda
boyutunu
boyz
boz
bozan
bozdog
bozdu
bozguna
bozkurt
bozkır
bozmak
bozu
bozuk
bozuklug
bozukluk
bozukluklar
bozuklukları
bozuldu
bozulma
bozulması
bozulmus
bozulur
bp
br
bra
brad
bradford
bradley
brady
braga
brahim
brain
brancacci
branch
brand
brandenburg
brandon
brani
branice
brans
brasil
bratislava
braun
braunschweig
brave
bravo
bray
brazil
brazilian
braziller
bre
break
breaking
breaks
brecht
brejnev
brek
bremen
brenda
brendan
brennan
brent
brescia
brest
breton
brett
brewer
brezilya
brezilyalı
brian
bride
bridge
bridges
brief
brien
bright
brighton
brigitte
brill
bring
brings
bristol
brit
britain
britannica
britanya
britanyalı
british
britney
broadcast
broadcasting
broadway
brock
broken
bromwich
brons
bronz
bronze
brook
brooke
brooklyn
brooks
bros
brother
brothers
brown
browning
browser
bru
bruce
brugge
brunei
brunelleschi
bruno
brunswick
bryan
bryant
bryce
bs
bt
bts
bu
buba
bubbling
buc
buca
bucag
bucak
bucaklara
bucaktır
bucaspor
buchanan
buck
buckingham
buckinghamshire
bucks
bucures
buda
budak
budapes
budapest
buddy
budget
budin
budist
budizm
budur
buenos
buffalo
buffy
bug
bugu
buhar
buhara
buharlas
buharlı
build
building
buildings
built
bul
bulabilirsiniz
bulamadı
bulamamıs
bulamayan
bulan
bulancak
bulanık
bularak
bulas
buldu
buldug
buldular
buldum
bulgar
bulgarca
bulgaria
bulgarian
bulgaristan
bulgarlar
bulgu
bulgular
bulguları
bull
bullet
bulletin
bulls
bulma
bulmak
bulmaktadır
bulması
bulmaya
bulmus
bulunabilir
bulunacag
bulunacak
bulunamadı
bulunamamıs
bulunan
bulunanlar
bulunarak
bulundu
bulundug
bulundukları
bulunduktan
bulundular
bulunduran
bulundurarak
bulundurdug
bulundurmaktadır
bulunma
bulunmadıg
bulunmak
bulunmakla
bulunmakta
bulunmaktadır
bulunmaktaydı
bulunmamaktadır
bulunmaması
bulunması
bulunmasına
bulunmasını
bulunmaya
bulunmayan
bulunmaz
bulunmus
buluntular
bulunulan
bulunuldu
bulunulmus
bulunup
bulunur
bulunurdu
bulunurken
bulunurlar
bulunuyor
bulunuyordu
bulup
bulur
bulurlar
bulus
bulut
bulutlar
bulutsu
bulutsusu
bulutu
bulvarı
bun
buna
bunca
bunda
bundan
bundesliga
bundy
bunlar
bunlara
bunlardan
bunlarla
bunları
bunların
bunny
bunu
bunun
bununla
burada
buradaki
buradan
burak
buralarda
buranın
burası
buraya
burayı
burc
burcu
burda
burdur
bureau
burger
burgess
burhan
burjuva
burke
burkina
burlington
burma
burn
burning
burnley
burns
burnu
burs
bursa
bursaspor
bursu
burt
burton
burun
burundi
burunlu
bury
bus
bush
business
but
butler
butterfly
button
buy
buyrug
buyruk
buz
buzul
buzulu
buzz
by
bye
byrne
byron
byzantine
byzantium
bı
bıc
bırak
bırakan
bırakarak
bırakma
bırakmak
bırakması
bırakmaya
bırakmıs
bıraktı
bıraktıg
bıraktıktan
bırakılan
bırakıldı
bırakıldıg
bırakılması
bırakılmıs
bırakılır
bırakın
bırakıp
bırakır
bıyıklı
c
ca
cabinet
cable
cad
cadde
caddesi
cadele
cadelede
cadeleleri
cadelenin
cadelesi
cadelesinde
cadelesine
cadelesini
cadeleye
cadeleyi
cadı
cadılar
caen
caesar
caf
cafe
cafer
cag
cage
cahil
cahit
cairo
cal
calabria
calan
calcio
caldwell
calendar
calif
california
caligula
call
called
calling
calls
calvin
cam
cambridge
cambridgeshire
camdan
came
cameo
camera
cameron
cami
camidir
camii
camiler
camille
caminin
camisi
camiye
camp
campaign
campania
campbell
campo
can
cana
canada
canadian
canal
canan
canavar
canavarı
cancer
candan
candidate
candy
caner
canik
canlandıran
canlandırdı
canlandırdıg
canlandırmak
canlandırmaktadır
canlandırmıs
canlandırılan
canlandırıldı
canlandırılmıs
canlı
canlılar
canlıların
canlının
cannes
cannon
canon
cansız
canterbury
cantrell
canyon
canı
canım
canını
cao
cap
cape
capital
capitol
capo
cappella
captain
capture
car
cara
carbon
card
cardi
cardiff
care
career
carex
carey
cargo
cari
caribbean
carl
carla
carlisle
carlo
carlos
carlton
carmen
carnegie
carol
carolina
caroline
carolyn
carpenter
carr
carrie
carrier
carroll
carry
cars
carson
carter
cartoon
carvalho
cas
casa
case
cases
casey
cash
casino
cass
cassa
cassius
cast
castagno
castillo
castle
castro
casus
casusluk
cat
catalog
catalogo
catalogue
catalunya
catarina
catch
category
cathedral
catherine
catholic
cato
cats
caucasus
cauchy
caulfield
cause
causes
cava
cavaliers
cavallini
cave
cavendish
cavit
caz
cazibe
cb
cbc
cbs
cc
ccar
ccarlar
cccp
cd
cdc
cdot
cdots
ce
cebeci
cebel
cebelitarık
cebir
cebirsel
cecil
cecilia
cedid
cedric
ceg
cehennem
cehenneme
cek
ceket
cekler
cekleri
cel
cela
celal
celaleddin
celebration
celebrity
celer
cell
cells
celtic
celtics
cem
cema
cemaat
cemaati
cemaatin
cemal
cemil
cemiyet
cemiyeti
cemiyetin
cena
cenab
cenaze
cenazesi
ceneviz
cenevre
cengiz
cenk
cennet
cennete
cenneti
cenova
census
cent
center
central
centre
centro
centuries
century
ceo
cep
cephane
cephe
cephede
cephenin
cephesi
cephesinde
cepheye
ceremony
ceren
ceres
cereyan
cermen
cerrah
cerrahi
cerrahisi
cerrahpas
certain
certification
certifications
cesare
cesaret
cesareti
cesaro
cesedi
cesedini
ceset
cesetleri
cesur
cev
ceva
cevaben
cevabı
cevabını
cevap
cevaplar
cevat
cevdet
cevher
cevheri
ceviz
cevizi
ceyhan
ceyhun
ceylan
ceza
cezaevi
cezaevinde
cezaevinden
cezaevine
cezai
cezalandırılması
cezalandırılır
cezalar
cezaları
cezanın
cezası
cezasına
cezasını
cezasının
cezayir
cezayirli
cezayı
cezire
cf
cgi
ch
cha
chad
chain
chains
chainsmokers
challenge
challenger
challenges
chamber
chamberlain
chambers
champion
champions
championship
championships
chan
chance
chandler
chang
change
changed
changes
changing
channel
chaos
chapel
chaplin
chapman
chapter
character
characteristics
characters
charge
charity
charles
charleston
charlie
charlotte
charlton
chart
charter
charts
chase
chat
che
check
checklist
chef
cheiracanthium
chelsea
chem
chemical
chemistry
chen
cheng
cher
cherry
cheshire
chess
chester
chevrolet
chi
chiara
chiba
chicago
chicken
chief
chiesa
child
childhood
children
chile
china
chinese
chip
chirac
chisholm
chloe
cho
chocolate
choi
choice
chomsky
chong
chosun
chp
chris
christ
christian
christianity
christie
christina
christine
christmas
christoph
christophe
christopher
chrome
chronic
chronicle
chronicles
chronology
chrysler
chrysometa
chu
chuck
chun
chung
church
churchill
ci
cia
cibuti
cicero
cid
ciddi
ciddiye
cide
cig
ciha
cihan
cihangir
cihat
cihaz
cihazda
cihazlar
cihazlarda
cihazları
cihazların
cihazı
cihazın
cikia
cilalı
cildi
cilt
ciltlik
cin
cinayet
cinayeti
cinayetler
cinayetleri
cincinnati
cindy
cine
cinema
cins
cinsel
cinsellig
cinsellik
cinsi
cinsidir
cinsin
cinsinden
cinsine
cinsinin
cinsiyet
cinsiyete
cinsler
cinstir
cio
circle
circuit
circus
cirit
cisim
cisimler
cisimleri
cisimlerin
cismi
cismin
citation
cite
cited
cities
citizen
citizens
citroe
citta
city
ciudad
civar
civarı
civarına
civarında
civarındadır
civarındaki
civil
civilization
cizre
cizvit
cj
ck
cl
claim
claims
claire
clara
clare
clarence
clarendon
clark
clarke
clarkson
clash
class
classic
classical
classics
classification
claude
claudia
claudio
claudius
claus
clay
clayton
cle
clean
clear
clemens
clement
cleveland
click
client
cliff
clifford
climate
clin
clinical
clint
clinton
clio
clive
clock
close
closer
cloud
club
cluster
clusters
clyde
cm
cn
cnbc
cnet
cnn
cnnturk
co
coach
coast
cobain
cobra
coca
cochrane
code
codex
cody
coffee
cog
cognitive
cohen
col
cola
cold
coldplay
cole
coleman
coli
colin
collaboration
collected
collection
collections
collective
collectors
college
collider
collins
colo
colombia
colonial
color
colorado
columbia
columbus
com
combat
combined
come
comeback
comedy
comes
comet
comic
comics
coming
command
commander
commentary
commerce
commercial
commission
committee
common
commons
commonwealth
communication
communications
communism
communist
communities
community
como
compact
companies
companion
company
comparative
comparison
competition
compilation
complete
completo
complex
composer
composition
comprehensive
compton
computer
computing
comte
con
conan
concacaf
concept
concepts
concert
concise
conde
conditions
conference
confessions
confirmed
confirms
conflict
congo
congress
congressional
conn
connect
connecticut
connection
connor
conquest
conrad
consequence
consequences
conservation
console
conspiracy
constant
constantine
constantinople
constitution
construction
consumer
contact
contemporary
content
contest
context
continental
continues
continuum
contra
contract
contribution
contributions
control
convention
conversation
conway
cook
cooke
cool
cooper
cooperation
cop
copa
copenhagen
coppa
copy
corbin
core
corey
cornelius
cornell
corner
cornwall
corona
coronavirus
corp
corporate
corporation
corps
corpus
corte
cortex
cortinarius
corun
cos
cosimo
cosmic
cosmos
cost
costa
cotton
could
council
count
countdown
counter
counties
countries
country
county
coup
coupe
courier
course
court
courtney
courts
cov
coventry
cover
coverage
covid
cox
cp
cpu
cr
cra
craft
craig
crane
crash
crawford
crazy
crc
cre
cream
create
created
creation
creative
creator
credits
creed
creek
creler
creleri
crelerin
crelerinde
crelerinin
creli
crenin
cresel
cresi
cret
cretaceous
creti
cretli
cretsiz
crew
crime
crimes
criminal
crisis
cristiano
cristina
cristo
critic
critical
criticism
critics
critique
croatia
cromwell
crosby
cross
crossing
crossroads
crow
crown
cruise
crusades
cruz
cry
crystal
cs
csi
cska
ct
ctor
cu
cuba
cube
cuda
cudu
cudun
cudunda
cudunu
cudunun
cullen
cult
cultura
cultural
culture
cultures
cum
cuma
cumalı
cumartesi
cumbria
cumhur
cumhurbas
cumhuriyet
cumhuriyetc
cumhuriyete
cumhuriyeti
cumhuriyetin
cumhuriyetinin
cunningham
cup
cupola
curate
cure
curie
curlie
current
curry
curtis
curzon
cut
cutta
cv
cw
cx
cybaeus
cycle
cycling
cyclingnews
cynthia
cyperus
cyprus
cyril
cyrus
cz
czech
cı
cık
cılar
cılık
cıva
d
da
dabi
dac
dad
daday
daddy
dadi
dadiani
dadır
dafaa
dag
daha
dahale
dahalesi
dahası
dahi
dahil
dahildir
dahili
dahilinde
dahiliye
dahl
dai
daily
daima
daimi
dair
daire
dairenin
dairesel
dairesi
dairesinde
dairesine
daisuke
daisy
daki
dakika
dakikada
dakikalık
dakikasında
dakota
dal
dalda
dale
dalga
dalgalar
dalgaları
dalgaların
dalgalı
dalganın
dalgası
dalgıc
dali
dalla
dallar
dalları
dallarında
dallas
dalmac
dalton
dalı
dalıdır
dalında
dalıs
dam
dama
damadı
damak
damar
damat
dame
damga
damgasını
damien
damla
damon
dan
dana
danca
dance
dancing
danger
dangerous
dani
daniel
daniela
danielle
daniels
danimarka
danimarkalı
danis
danish
danny
dans
dansc
dansı
dante
danıs
dar
darbe
darbenin
darbesi
darbeye
darbeyi
dare
dareler
daresi
dari
dario
darius
dark
darkness
darling
darlıg
darmstadt
darog
darren
darth
daru
darwin
daryl
das
dat
data
database
date
dates
dato
daughter
dava
davada
davalar
davaları
davanın
davası
davasında
davasının
davaya
davayı
dave
davet
daveti
david
davidson
davies
davis
davit
davranan
davrandıg
davranmak
davranır
davranıs
davud
davul
davulcu
davut
davutog
dawkins
dawn
dawson
day
dayak
dayalı
dayalıdır
dayanag
dayanak
dayanan
dayanarak
dayandıg
dayanmaktadır
dayanıklı
dayanıklılıg
dayanıklılık
dayanılarak
dayanır
dayanıs
dayanıyor
dayanıyordu
dayken
days
dayı
dayısı
db
dc
dd
ddet
ddevle
ddin
de
dea
dead
deadline
deadly
deal
dean
dear
death
deaths
debate
debian
deborah
debut
debuts
dec
decade
december
decision
decline
dede
dedektif
dedekto
dedesi
dedi
dedig
dedik
dedikleri
dediler
dedim
dedir
dee
deep
def
defa
defalarca
defans
default
defeat
defence
defense
define
definition
definitive
defne
defnedildi
defnedilmis
defter
defteri
defterinde
defterine
deg
degli
dehs
dehu
dei
dek
dekan
dekanı
deki
dekor
dekoratif
del
delaware
delege
delhi
deli
delice
delig
delik
delikanlı
delikler
delikli
delil
deliller
delivery
dell
della
delle
dello
delta
deltası
deluxe
dem
demand
deme
demec
demek
demektedir
demektir
demesi
demet
demeye
demeyi
demi
demir
demirci
demirel
demiro
demirspor
demirtas
demiryolları
demiryolu
demis
demo
democracy
democratic
demografik
demographic
demokrasi
demokrasinin
demokrasiye
demokrasiyi
demokrat
demokratik
demokratikles
demokratlar
demon
den
dene
denecek
denedi
denek
deneme
denemeler
denemeleri
denemesi
denen
denetc
denetim
denetimi
denetimine
denetleme
denetlemek
deney
deneyi
deneyim
deneyimi
deneyimini
deneyimleri
deneyimlerini
deneyimli
deneyler
deneyleri
deneysel
denge
dengeli
dengesi
dengesini
denildi
denilen
denilir
denilmektedir
denilmis
denir
denis
denise
deniz
denizaltı
denizaltısı
denizas
denizci
denizciler
denizcilik
denizde
denizden
denize
denizi
denizin
denizler
denizlerde
denizli
denizlispor
denk
denklem
denklemi
denklemler
denklemleri
denktas
denli
denmark
denmektedir
denmesi
denmis
dennis
density
denver
departamento
departmanı
departmanında
department
deplasman
deplasmanda
deplasmanlı
depo
depolama
deportivo
deposu
deprem
depremde
depremi
depremin
depremler
depresif
depression
depresyon
der
derbent
derby
derbyshire
derdi
dere
derece
derecede
dereceden
dereceleri
dereceli
derecelik
derecesi
derecesine
derecesini
derecesiyle
dereceye
derek
dereko
dereli
deresi
derga
dergi
dergide
dergiler
dergilerde
dergileri
dergilerinde
derginin
dergipark
dergisi
dergisinde
dergisine
dergisini
dergisinin
derhal
deri
derik
derin
derinden
derinlemesine
derinles
derinlig
derinlik
derisi
derken
derleme
derlemesi
derlenen
derlenmis
derler
derleyen
derneg
dernek
dernekler
dernekleri
ders
dersi
dersim
dersler
dersleri
derslerine
derslerini
dert
dervis
derya
des
descartes
description
desen
desert
design
desire
desmond
despite
destan
destanı
desteg
destek
destekc
destekledi
destekledig
destekleme
desteklemek
desteklemektedir
desteklemeye
desteklemis
desteklendi
desteklenen
desteklenir
desteklenmektedir
desteklenmesi
desteklenmis
destekler
destekleyen
destekleyici
destekli
destekliyor
destination
destiny
destruction
det
detail
detailed
details
detay
detayları
detaylı
detection
detective
detroit
deutsch
deutsche
deutschen
deutscher
deutschland
deux
dev
deva
devam
devamlı
devamı
devamında
devasa
deve
develi
developer
developers
development
devi
device
devices
devil
devin
devir
devirde
devlet
devletc
devlete
devleti
devletin
devletinde
devletine
devletini
devletinin
devletler
devletlere
devletleri
devletlerin
devletlerinde
devletlerine
devletlerinin
devletten
devon
devraldı
devralındı
devre
devredildi
devredilmis
devrek
devreli
devresi
devretmis
devretti
devreye
devri
devrim
devrimci
devrimi
devrimin
devriminin
devrin
devrinde
devriye
devs
dewey
dexter
deyim
deyimler
deyip
deyis
deyu
dfb
dgm
dh
dha
dharma
di
dia
diabetes
diagnosis
diamond
diamonds
diana
diane
diaries
diario
diary
diaspora
diaz
dibi
dibinde
dick
dickinson
dicle
dictionaries
dictionary
did
didem
didier
didn
die
died
diego
dies
diesel
diet
dieter
dietrich
diferansiyel
difference
different
difu
dig
digest
digimon
digital
digiturk
dijital
dijon
dik
dikdo
diken
dikenli
dikey
dikilen
dikili
dikilitas
dikilmis
dikis
dikkat
dikkate
dikkati
dikkatini
dikkatle
dikkatleri
dikkatli
dikmen
diktato
dil
dilber
dilbilgisi
dilbilim
dilbilimci
dilde
dilden
dildir
dile
diledi
diledig
dileg
dilek
dilekc
diler
dili
dilidir
dilim
dilimi
diliminde
dilin
dilinde
dilindeki
dilinden
diline
dilini
dilinin
diliyle
diliyorum
dille
diller
dillerde
dillere
dilleri
dillerin
dillerinde
dillerinden
dillerine
dillerini
dillerinin
dilli
dilsel
dimitri
dimitrios
din
dinamig
dinamik
dinamo
dinar
dinc
dindar
dinden
dine
dinger
dini
dinin
dinine
dinini
dininin
dink
dinle
dinleme
dinlemek
dinlenen
dinlenme
dinler
dinlerin
dinleyici
dino
dinosaur
dinosaurs
dinozor
dinsel
dinyeper
dio
dioksit
dionysos
dip
diploma
diplomasi
diploması
diplomat
diplomatic
diplomatik
dir
dirac
direct
direction
director
directors
directory
direg
direk
direksiyon
direkt
direkto
direnc
direnci
direnis
diri
dirilis
dirk
dirty
dis
disaster
disc
disco
discography
discogs
discovered
discovery
discussion
disease
diseases
disiplin
disiplini
disk
diskalifiye
diski
disko
diskografisi
disney
disorder
disorders
display
displaystyle
distance
distribution
district
districts
dition
ditions
diva
divan
divanı
diversity
divine
divisio
division
divrig
dixon
diyabet
diyadin
diyafram
diyalog
diyaloglar
diyanet
diyarbakır
diyarbakırspor
diyarı
diye
diyen
diyerek
diyet
diyo
diyor
diyordu
diyorlar
diyorum
diyoruz
diz
dizayn
dize
dizel
dizi
dizide
dizideki
diziden
diziler
dizilerde
dizileri
dizilerinde
dizilis
dizilmis
dizin
dizini
dizinin
dizisi
dizisidir
dizisinde
dizisindeki
dizisinden
dizisine
dizisini
dizisinin
diziye
diziyi
dizu
dj
dk
dl
dm
dman
dmc
dmitri
dmoz
dna
dns
do
doc
docs
doctor
doctors
document
documentary
documents
does
doesn
dog
dogg
dogs
doha
doi
doing
doja
doksan
doktor
doktora
doktorasını
doktorlar
doktoru
doktrini
doku
dokuma
dokunma
dokunmatik
dokunulmazlıg
dokusu
dokuz
dokuzuncu
dolan
dolap
dolar
dolara
dolardan
dolarlık
doları
doların
dolas
dolaylarında
dolaylı
dolayı
dolayısı
dolayısıyla
doldurmak
doldurmus
doldurulmus
dolgu
doll
dollar
dolmabahc
dolması
dolmus
dolores
dolu
doludur
dom
domain
domates
dome
domenico
domestic
dominant
domingo
dominic
dominik
dominique
domuz
domuzu
don
donald
donanma
donanmanın
donanması
donanmasına
donanmasının
donanım
donanımlı
donanımı
donatello
donatılmıs
dondurma
done
donetsk
dong
donmus
donna
donne
donovan
doo
doom
door
doors
doping
dora
doraemon
doris
dormen
dorothy
dorset
dortmund
dorug
doruk
dos
dost
dostlar
dostları
dostlug
dostluk
dostoyevski
dostu
dostum
dosya
dosyada
dosyalar
dosyaları
dosyalarını
dosyanın
dosyası
dosyasında
dosyaya
dosyayı
dot
dots
douard
double
doubleday
doubt
doug
douglas
dover
down
download
doyle
doymus
doz
dp
dq
dr
dracula
draft
drag
dragon
dragons
drake
drakula
dram
drama
draması
dramatik
drassodes
drassyllus
draw
dre
dream
dreams
drenaj
dresden
drew
dreyfus
dris
drive
driver
drop
drops
drug
drugs
ds
dsi
dso
dsp
dss
dt
dtp
du
dua
dual
dubai
dublaj
dublin
dublo
duccio
duck
dudak
dudley
due
duff
dug
dukas
duke
dul
duma
duman
dumanlı
dumbarton
dumbledore
dumlupınar
duncan
dunlop
dunn
duo
dur
durag
durak
duran
durant
durdu
durdug
durdurdu
durdurma
durdurmak
durdurmaya
durduruldu
durdurulması
durdurulmus
durgun
durham
during
durma
durmadan
durmak
durmaktadır
durması
durmaz
durmus
dursun
dursunbey
duru
durum
duruma
durumda
durumdadır
durumdaki
durumdan
durumdaydı
durumdur
durumlar
durumlara
durumlarda
durumları
durumların
durumlarını
durumu
durumudur
durumun
durumuna
durumunda
durumundadır
durumundan
durumunu
durumunun
durup
durur
durus
duruyor
dus
dust
dut
dutch
dutchcharts
duty
duvar
duvara
duvarlar
duvarları
duvarların
duvarlarının
duvarı
duvarın
duvarının
duyan
duyar
duyarlı
duyarlılıg
duyarlılık
duydu
duydug
duydukları
duydum
duygu
duygular
duyguları
duygularını
duygusal
duygusu
duymak
duymaya
duymus
duyu
duyulan
duyulur
duyunca
duyurdu
duyurmus
duyuru
duyuruldu
duyurulmus
duyurusu
duyusal
dvd
dw
dwight
dx
dying
dylan
dynamic
dynamics
dynamo
dynasty
dyo
dyoda
dyoları
dyolarında
dyosu
dyosunda
dyoya
dyp
dz
dı
dır
dıs
e
ea
each
eagle
earl
earliest
early
earth
earthquake
east
eastern
eastwood
easy
eat
eb
eba
ebbet
ebbu
ebe
ebedi
ebeke
eberhard
ebert
ebeveyn
ebeveynleri
ebi
ebileceg
ebilen
ebilir
ebinkarahisar
ebnem
ebola
ebru
ebu
ec
ece
eceg
ecek
ecekler
ecektir
ecevit
echo
ecik
eclipse
ecology
economic
economics
economist
economy
ecw
eczacı
eczacıbas
eczacılık
ed
eda
eddie
eddin
eddy
ede
edebi
edebileceg
edebilecek
edebilen
edebilir
edebilirler
edebilmek
edebiyat
edebiyata
edebiyatc
edebiyatta
edebiyatı
edebiyatına
edebiyatında
edebiyatının
edeceg
edecek
edecekti
edecektir
edeki
edelim
edemedi
edemedig
edemeyeceg
edemez
eden
edenler
edenlere
edenlerin
eder
ederdi
ederek
ederim
ederiz
ederken
ederler
ederse
edgar
edge
edi
edici
edil
edildi
edildig
edildikten
edildiler
edilebileceg
edilebilecek
edilebilen
edilebilir
edileceg
edilecek
edilecektir
edilemeyen
edilemez
edilen
edilerek
edilince
edilip
edilir
edilirdi
edilirken
edilirler
edilirse
ediliyor
ediliyordu
edilme
edilmeden
edilmedi
edilmedig
edilmek
edilmekte
edilmektedir
edilmekteydi
edilmelidir
edilmemis
edilmesi
edilmesinde
edilmesinden
edilmesine
edilmesini
edilmesinin
edilmesiyle
edilmeye
edilmeyen
edilmez
edilmis
edilse
edin
edinburgh
edince
edindi
edindig
edinen
edinilmis
edinir
edinme
edinmek
edinmis
edip
edir
edirne
edis
edison
edit
edited
edith
edition
editions
edito
editor
editorial
editoriale
editors
editrice
ediyor
ediyordu
ediyorlar
ediyorlardı
ediyorum
ediyoruz
edizioni
edmond
edmund
edna
edo
edouard
edremit
eds
edu
eduard
eduardo
education
educational
edward
edwards
edwin
ee
eee
eesti
ef
efe
efekt
efektler
efeler
efendi
efendiler
efendim
efendisi
efes
effaf
effect
effects
efi
efik
efka
efkat
efl
eflak
eflani
eflig
efsane
efsaneleri
efsanesi
efsanevi
efsaneye
eftali
eg
ege
egemen
egemenlig
egemenlik
egg
ego
egu
egypt
egyptian
egzersiz
egzotik
egzoz
eh
ehf
ehi
ehir
ehircilik
ehirde
ehirdeki
ehirden
ehirdir
ehirler
ehirlerde
ehirlerden
ehirlere
ehirleri
ehirlerin
ehirlerinde
ehirlerinden
ehirlerine
ehirlerini
ehirlerinin
ehirspor
ehit
ehitler
ehitlig
ehl
ehli
ehov
ehr
ehre
ehri
ehridir
ehrin
ehrinde
ehrindeki
ehrinden
ehrine
ehrini
ehrinin
ehristanı
ehristanın
ehzade
ei
eight
eighteenth
ein
eine
einer
einstein
eintracht
ejder
ejderha
ek
ekber
ekc
eken
eker
ekerek
ekeri
ekerler
ekerspor
eki
ekibe
ekibi
ekibin
ekibinde
ekibine
ekibinin
ekic
ekici
ekicidir
ekil
ekilde
ekildedir
ekildi
ekildig
ekildiler
ekilen
ekilerek
ekilip
ekilir
ekilirken
ekiller
ekillerde
ekilleri
ekilli
ekilme
ekilmek
ekilmesi
ekilmesini
ekilmesinin
ekilmesiyle
ekilmeye
ekilmis
ekim
ekimi
ekimler
ekimleri
ekimsel
ekin
ekinci
ekinde
ekip
ekipleri
ekiplerinden
ekipman
ekipmanları
ekipmanı
ekirdeg
ekirdek
ekirdekli
ekis
ekiyor
ekku
ekle
ekledi
eklem
ekleme
eklemek
eklemis
eklendi
eklendig
eklenebilir
eklenen
eklenerek
eklenir
eklenmesi
eklenmesinde
eklenmesiyle
eklenmis
eklenti
ekler
ekleri
eklerin
ekles
ekleyerek
ekli
eklidir
eklig
eklik
eklinde
eklindedir
eklindeki
ekline
eklini
eklinin
ekliyle
ekme
ekmece
ekmeg
ekmek
ekmektedir
ekmesi
ekmeye
ekmeyi
ekmis
eko
ekoloji
ekolojik
ekolu
ekonomi
ekonomide
ekonomik
ekonominin
ekonomisi
ekonomisine
ekonomisini
ekonomisinin
ekonomist
ekonomiye
ekonomiyi
ekoslovak
ekoslovakya
ekran
ekrana
ekranda
ekranlara
ekranı
ekranın
ekrem
eks
eksen
ekseni
ekseninde
eksi
eksik
eksiklig
eksiksiz
ekspres
ekspresi
ekstra
ekte
ekten
ekti
ektig
ektir
eku
ekvador
ekvator
el
ela
elaine
elalesi
elazıg
elbette
elbise
elbistan
elc
elde
eldeki
elden
elder
ele
eleanor
elebi
electa
elected
election
elections
electric
electron
electronic
electronics
elektrig
elektrik
elektrikli
elektriksel
elektro
elektromanyetik
elektron
elektronik
elektronlar
elektronların
elektronun
elektrot
eleman
elemanlar
elemanları
elemanlarının
elemanı
eleme
elemeleri
elemelerinde
element
elementary
elementler
elementlerin
elements
elena
elendi
elenen
elenmis
eler
elerde
elerden
elere
eleri
elerin
elerinde
elerinden
elerine
elerini
elerinin
elerle
eles
eleven
elf
eli
elias
elievler
elif
elig
elik
elim
elimination
elimizde
elin
elinde
elindeki
elinden
eline
elini
eliot
eliptik
elis
elisa
elisabeth
elise
elit
elite
eliyle
elizabeth
ell
ella
elle
ellen
eller
ellere
elleri
ellerin
ellerinde
ellerinden
ellerine
ellerini
elli
ellie
elliot
elliott
ellis
ello
elma
elmalı
elmas
elsa
else
elsevier
elton
elvan
elveda
elveris
elvis
em
ema
emanet
emanuel
eması
embassy
embe
ember
emberi
emberin
emdinli
eme
emedi
emeg
emek
emekc
emekli
emeklilig
emeklilik
emekliye
emel
emergency
emerging
emerson
emet
emevi
emez
emi
emil
emile
emilia
emilio
emily
emin
emine
eminem
emino
emir
emirates
emirdag
emiri
emirler
emirleri
emirlig
emirlikleri
emis
emisyon
emlak
emlakbank
emma
emmanuel
emme
emmy
emniyet
emperor
emperyalist
empire
empires
emporis
emr
emrah
emre
emreder
emretti
emri
emrinde
emrindeki
emrine
emrini
emriyle
ems
emseddin
emsi
emu
en
ena
encu
encyclopaedia
encyclopedia
encyclopædia
end
endeksi
endemik
ender
endig
ending
endis
endonezya
ends
endu
ene
eneg
enek
enekler
enekleri
enel
enemy
ener
energy
enerji
enerjili
enerjinin
enerjisi
enerjisini
enerjisinin
enerjiye
enerjiyi
enes
enfeksiyon
enfeksiyonu
enfekte
enflasyon
enformasyon
eng
engebeli
engel
engeli
engelledi
engelleme
engellemek
engellemeye
engellendi
engellenmesi
engeller
engelleri
engelleyen
engelli
engelliler
engels
engin
engine
engineering
engineers
england
english
engu
eni
enidir
enigma
enilen
enin
enine
enis
enistan
enix
enjeksiyon
enjekte
enka
enkaya
enkaz
enko
enlem
enlemi
enler
enleri
enlerin
enlig
enlik
enmis
enol
enough
enrico
enrique
ensemble
enstitu
enstru
ent
entegrasyon
entegrasyonu
entegre
entelektu
enter
enternasyonal
enterprise
entertainment
enti
entomolog
entre
entry
entu
envanteri
enver
environment
environmental
enzim
enzimler
enzo
eosen
ep
epey
epic
epik
epir
episode
episodes
epitel
epsilon
epstein
equipment
er
era
erasmus
erbaa
erbakan
erbas
erbil
erc
ercan
ercis
erciyes
erciyesspor
ercu
erdal
erde
erdel
erdem
erdemli
erden
erdi
erdig
erdir
erdog
ere
erebilir
erecek
eredivisie
eref
erefine
ereflikoc
ereg
erek
eren
erener
erenerol
erenko
erenler
erer
ergani
ergen
ergenekon
ergenlik
ergin
ergu
ergun
erh
erhan
eri
eria
eriat
eric
erich
erickson
ericsson
eride
eridi
erif
erig
erik
erikler
erikleri
erikli
erikte
eril
eriler
erim
erime
erimis
erin
erinde
erinden
erine
erini
erinin
erir
eris
erisinde
erisindedir
erisindeki
erisinden
erisine
erit
eritli
eritre
erivan
eriye
eriyor
eriyordu
erk
erka
erkal
erkan
erkeg
erkek
erkekler
erkeklerde
erkeklerden
erkeklere
erkekleri
erkeklerin
erken
erkes
erkesler
erkez
erkin
erkut
erlendirdi
erlendirildig
erlendirilen
erlendirilir
erlendirilmektedir
erlendirilmesi
erlendirilmis
erlendirme
erlendirmek
erlendirmeler
erlendirmesi
erler
erlere
erleri
erlerin
erlerinden
erlerine
erlerini
erlerinin
erli
erlidir
erlik
erlilig
erman
erme
ermektedir
ermemekte
ermeni
ermenice
ermenicesi
ermeniler
ermenileri
ermenilerin
ermenistan
ermesi
ermesinden
ermeyen
ermez
ermik
ermis
ernest
ernesto
ernst
ero
erog
eroin
erol
eros
erotik
erozyon
ers
ersan
erse
ersin
ersinde
ersiz
erso
ersoy
ertan
erteki
ertelendi
ertem
ertesi
erto
ertosu
ertu
ertug
eruh
eruygur
erwin
erzak
erzincan
erzurum
erzurumspor
es
esa
esad
esaret
esas
esasen
esaslar
esasları
esaslı
esasına
esat
esc
escape
esctoday
esen
esenler
eser
eserde
eserdir
esere
eseri
eseridir
eserin
eserinde
eserinden
eserine
eserini
eserinin
eseriyle
eserler
eserlerde
eserlerden
eserleri
eserlerin
eserlerinde
eserlerinden
eserlerine
eserlerini
eserlerinin
eserleriyle
esi
esidir
esin
esinde
esindeki
esinden
esine
esini
esinin
esinlenerek
esinlenmis
esir
esiri
esiyle
eski
eskiden
eskimis
eskimo
eskis
eskisi
eskrim
esma
esmer
esnada
esnaf
esnasında
esnek
espan
espanyol
esperanto
espn
esports
espresso
esra
esrar
esrarengiz
essay
essays
essen
essential
essex
est
esta
estate
este
ester
estetig
estetik
esther
estimaciones
estimates
estonca
estonia
estonya
et
eta
etabı
etap
etaplar
etapta
etc
ete
eteg
etek
eteklerinde
eternal
etesi
ethan
ethem
ethernet
ethics
ethnic
ethnographique
ethnologue
eti
etig
etik
etiket
etiketi
etiketiyle
etimolojik
etin
etinkaya
etiyopya
etken
etkenler
etki
etkiledi
etkiledig
etkilemis
etkilendi
etkilendig
etkilenen
etkilenerek
etkilenir
etkilenmis
etkiler
etkilere
etkileri
etkilerini
etkilerinin
etkiles
etkileyen
etkileyici
etkili
etkilidir
etkin
etkinles
etkinlig
etkinlik
etkinlikler
etkinliklerde
etkinliklere
etkinlikleri
etkinlikte
etkisi
etkisinde
etkisinden
etkisine
etkisini
etkisinin
etkisiyle
etkisiz
etkiye
etkiyi
etler
etli
etme
etmede
etmeden
etmedi
etmedig
etmek
etmekle
etmekte
etmektedir
etmektedirler
etmekten
etmekteydi
etmektir
etmeleri
etmelerine
etmelerini
etmemek
etmemesi
etmemis
etmenin
etmesi
etmesinden
etmesine
etmesini
etmesinin
etmesiyle
etmeye
etmeyeceg
etmeyen
etmeyi
etmez
etmis
etnik
etnografya
eto
etrafı
etrafına
etrafında
etrafındaki
etrafını
etru
etse
etsin
ett
etti
ettig
ettik
ettikleri
ettiklerini
ettikten
ettiler
ettim
ettirdi
ettirdig
ettiren
ettirildi
ettirilmis
ettirmek
ettirmis
etu
etymological
eu
eucalyptus
euge
eugen
eugene
euler
eun
euophrys
eur
euro
eurobasket
eurocup
eurogamer
euroleague
euronews
europa
europe
european
eurosport
eurovision
eurovoix
ev
eva
evaluation
evan
evanescence
evans
evanston
evcil
evcilles
evde
evdeki
evden
eve
evede
evelyn
even
evening
event
events
ever
everest
everett
everton
every
everybody
everyone
everything
evesi
evesinde
evet
evi
evic
evidence
evik
evikler
eviklerin
evil
evin
evinde
evinden
evine
evini
evinin
evirdi
evirdig
eviren
evirerek
eviri
eviriler
evirileri
evirir
evirisi
evirme
evirmek
evirmen
evirmis
evket
evki
evla
evlat
evlatlık
evlendi
evlendig
evlendikten
evlendiler
evlenen
evlenir
evlenme
evlenmek
evlenmis
evler
evlerde
evleri
evlerin
evlerinde
evlerine
evlerini
evlerinin
evli
evlidir
evlilig
evlilik
evlilikleri
evlilikten
evliya
evliydi
evo
evolution
evolutionary
evrak
evre
evrede
evredeki
evrelenmis
evreler
evreleri
evrelerinde
evreleyen
evren
evrende
evrendeki
evreni
evrenin
evreninde
evrensel
evresel
evresi
evresinde
evresindeki
evresinden
evresine
evresini
evresinin
evreye
evreyi
evrildi
evrilen
evrili
evrilidir
evrilir
evrilmis
evrim
evrimi
evrimic
evrimles
evrimsel
evvel
evvela
ew
ex
example
excel
exchange
exclusive
executive
exeter
exhibition
exile
exo
exp
expansion
experience
experiment
experimental
expert
exploration
explorer
expo
express
expression
extended
extension
extra
extragalactic
extreme
ey
eya
eyalet
eyaleti
eyaletin
eyaletinde
eyaletindeki
eyaletinden
eyaletine
eyaletinin
eyaletler
eyaletleri
eyaletlerinde
eyalette
eyde
eyden
eydir
eydu
eye
eyed
eyes
eyh
eyhi
eyhu
eyi
eyin
eyle
eyledi
eylem
eyleme
eylemi
eylemin
eyleminin
eylemler
eylemlere
eylemleri
eylemlerin
eylemlerine
eylemlerini
eylemlerinin
eyler
eylerden
eylere
eyleri
eylerin
eylu
eymu
eyreg
eyrek
eytan
eytani
eytanın
eyu
eyvah
eyyu
eyyubi
eyyubiler
ez
ezeli
ezgi
ezici
ezine
eziyet
ezra
f
fa
faa
faal
faaliyet
faaliyete
faaliyeti
faaliyetler
faaliyetlerde
faaliyetlere
faaliyetleri
faaliyetlerin
faaliyetlerinde
faaliyetlerinden
faaliyetlerine
faaliyetlerini
faaliyetlerinin
faaliyette
faber
fabian
fabio
fabrika
fabrikada
fabrikaları
fabrikası
fabrikasında
face
facebook
faces
fact
factbook
factfinder
facto
factor
factors
factory
facts
faculty
fade
fahis
fahrettin
fahri
faik
fail
faili
failure
fair
fairy
faith
faiz
fakat
fakir
fakto
faku
falan
falco
falcon
falkland
fall
fallen
falling
fallingrain
falls
false
fame
families
family
familya
familyadır
familyası
familyasıdır
familyasına
familyasından
familyasının
famous
fan
fanatik
fans
fantastic
fantastik
fantasy
fantezi
faq
far
farabi
faraday
fare
faresi
farewell
fark
farkla
farklar
farkları
farklı
farklıdır
farklılas
farklılıg
farklılık
farklılıklar
farklılıkları
farkı
farkına
farkında
farkındalıg
farkındalık
farm
farnham
faroe
fars
farsc
faruk
farz
fas
fashion
faslı
faso
fast
fasulye
fat
fatal
fate
father
fatih
fatma
fatsa
faul
fauna
faust
favori
favorite
fay
fayda
faydalı
faydası
faysal
faz
fazilet
fazla
fazladan
fazladır
fazlası
fazlasını
fazlasıyla
fazıl
fbi
fc
fda
fe
fear
feat
feature
features
featuring
feb
february
feda
fedaka
feden
feder
federal
federasyon
federasyonu
federatif
federation
federer
federico
fedildi
fedilen
fedilmis
feel
feeling
feet
feg
fehmi
fek
fekc
fela
felaket
felaketi
felc
feleg
felek
felemenkc
felipe
felix
fellows
felsefe
felsefenin
felsefesi
felsefesini
felsefesinin
felsefi
female
feminist
feminizm
femme
fen
fena
fener
fenerbahc
fenerbahce
feneri
fenike
fenomen
fenomeni
feodal
fer
feragat
ferah
ferdi
ferdinand
ferenc
ferguson
ferhat
feri
feribot
ferid
feride
feridun
ferit
ferma
ferman
fermanı
fermi
ferna
fernandes
fernandez
fernando
ferrara
ferrari
ferreira
fes
feshedildi
feshedilmis
fest
festival
festivalde
festivali
festivalin
festivalinde
festuca
fet
feth
fethetti
fethi
fethinden
fethiye
fethullah
fetih
fetmek
fetmis
feto
fetti
fettig
fettis
fetva
fever
fevzi
few
feyenoord
feynman
fezleke
ff
ffa
fi
fia
fiat
fiba
fiber
fiction
fidan
fide
fidel
fidye
field
fields
fifa
fifteenth
fifth
fifty
fig
figaro
fight
fighter
fighters
fighting
figu
figure
figures
fiil
fiilen
fiili
fiilinin
fiiller
fiji
fikir
fikirler
fikirleri
fikirlerin
fikirlerini
fikret
fikri
fikrine
fikrini
fikrinin
fikstu
fil
fila
filan
filarmoni
fildis
file
files
filip
filipin
filipinler
filippino
filippo
filistin
filistinli
filiz
film
filmde
filmdeki
filmden
filmdir
filme
filmi
filmidir
filmin
filminde
filmindeki
filminden
filmine
filming
filmini
filminin
filmiyle
filmle
filmler
filmlerde
filmlerden
filmlere
filmleri
filmlerin
filmlerinde
filmlerinden
filmlerini
filmlerinin
filmleriyle
films
filo
filogenetik
filoloji
filosu
filosunun
filozof
filozoflar
filozofu
filtre
fin
final
finalde
finaldeki
finalden
finale
finali
finalin
finalinde
finaline
finalist
finaliste
finalisti
finalistten
finaller
finallerde
finallere
finalleri
finally
finals
finance
financial
finans
finansal
finanse
finansman
fince
find
finding
finds
fine
finland
finlandiya
finn
finnish
fiona
fiore
fiorentina
fir
firar
firavun
fire
firefox
firenze
firma
firmalar
firmaları
firmanın
firması
firmasının
first
fis
fischer
fish
fisher
fit
fitness
fitzgerald
fivb
five
fiyat
fiyatları
fiyatı
fizig
fizik
fizikc
fiziki
fiziksel
fizikte
fizyoloji
fizyolojik
fk
fke
fkeli
fl
fla
flag
flair
flaman
flanders
flas
flash
flavius
fleet
fleming
fletcher
flight
flo
floor
flora
floransa
florence
flores
florian
florida
flow
flower
flowering
flowers
floyd
flu
fly
flying
flynn
fm
fo
foc
focus
foley
folk
folklor
follow
following
fon
fonetik
fonksiyon
fonksiyonel
fonksiyonlar
fonksiyonları
fonksiyonların
fonksiyonu
fonksiyonun
fonksiyonunun
fontaine
fontana
fonu
food
foods
foot
football
for
forbes
force
forces
ford
foreign
forest
forever
forget
forgotten
forli
form
forma
forması
formasını
formasıyla
format
formation
formatı
formatında
formayı
formda
former
formları
forms
formu
formula
formunda
forrest
fort
fortress
fortuna
fortune
forum
forumu
forvet
forward
fosfat
fosfor
fosil
fosilleri
fossil
foster
foto
fotog
foton
foucault
found
foundation
foundations
founder
four
fourier
fourth
fowler
fox
fr
fra
frac
fragman
fragmanı
frame
framework
franc
france
frances
francesca
francesco
franchise
francis
francisco
franco
frank
frankenstein
frankfurt
frankie
franklin
fransa
fransız
fransızca
fransızlar
fransızların
franz
fraser
fre
fred
freddie
freddy
frederic
frederick
free
freedom
freeman
freguesia
freiburg
frekans
frekansı
fren
french
frescoes
fresh
freud
frezesi
friday
friedman
friedrich
friend
friends
friendship
fritz
from
front
frontier
frontiers
frost
frozen
frs
fru
fruit
fry
fs
ft
fte
ftu
fu
fuad
fuar
fuarı
fuat
fuchs
fuel
fuhus
fuji
fukuoka
fulham
full
fuller
fulton
fun
function
functional
functions
fund
funda
funeral
funk
funny
furkan
further
fury
fus
fusa
fusion
fusları
fuslu
fussballdaten
fusu
fusun
fusuna
fusunu
fusunun
futbol
futbola
futbolcu
futbolcudur
futbolcular
futbolculuk
futbolcusu
futbolu
futbolunun
future
fuz
fuzu
fx
fyodor
fıc
fıkra
fıkrada
fıkrası
fıkrasında
fıkıh
fındık
fındıklı
fırat
fırc
fırka
fırkası
fırlatma
fırsat
fırsatı
fırsatını
fırtına
fırtınası
fırın
fıs
fıstıg
fıstık
g
ga
gabon
gabriel
gabriele
gabrielle
gaflar
gaga
gagalı
gagarin
gaia
gaius
gal
gala
galaksi
galaksidir
galaktik
galası
galata
galatasaray
galaxies
galaxy
galci
gale
galeri
galerie
galerisi
galex
gali
galiba
galibi
galibiyet
galibiyeti
galibiyetle
galic
galileo
galinden
galine
galip
galipleri
galium
gallagher
galler
gallery
galli
gallo
galya
gam
gama
gambiya
game
gamer
games
gamespot
gaming
gamma
gamze
gan
gana
gandhi
gang
gangster
ganimet
gaon
gap
gar
garanti
garci
garcia
gard
garden
gardens
gardiner
gardner
gareth
garfield
garibaldi
garip
garland
garnizon
garrett
garry
garson
gary
garı
gas
gasp
gaston
gat
gate
gates
gati
gaulle
gauss
gavin
gay
gaye
gayet
gayr
gayret
gayri
gayrimenkul
gayrimu
gayriresmi
gaz
gaza
gazel
gazeta
gazete
gazeteci
gazeteciler
gazetecileri
gazetecilig
gazetecilik
gazetede
gazeteler
gazetelerde
gazeteleri
gazetelerinde
gazetenin
gazetesi
gazetesinde
gazetesine
gazetesini
gazetesinin
gazette
gazetteer
gazi
gaziantep
gaziantepspor
gaziler
gaziosmanpas
gazlar
gazların
gazze
gazı
gazın
gb
gbif
gc
ge
gear
gebe
gebelik
gebze
gec
gece
gecede
geceler
geceleri
gecenin
gecesi
gecesinde
geceyi
gecikme
gedik
gediz
gel
geldi
geldig
geldik
geldikleri
geldiklerinde
geldiklerini
geldikten
geldiler
geldim
geldin
gelebilecek
gelebilir
geleceg
gelecek
gelecekte
gelecekteki
gelecektir
gelen
gelene
geleneg
gelenek
gelenekleri
geleneklerine
geleneklerini
geleneksel
geleni
gelenler
gelenleri
gelenlerin
gelerek
gelgit
geli
gelibolu
gelin
gelince
gelindig
gelini
gelip
gelir
geliri
gelirken
gelirler
gelirleri
gelirse
gelis
geliyor
geliyordu
geliyorum
gelme
gelmeden
gelmedi
gelmedig
gelmek
gelmekte
gelmektedir
gelmekteydi
gelmemis
gelmesi
gelmesinden
gelmesine
gelmesini
gelmesiyle
gelmeye
gelmez
gelmis
gelse
gelsin
gelu
gemi
gemide
gemiden
gemiler
gemilere
gemileri
gemilerin
gemilerine
gemilerini
gemilerinin
gemini
geminin
gemisi
gemisine
gemisini
gemisinin
gemiye
gemiyi
gemlik
gen
genc
gence
gencer
gencin
gender
gene
genealogy
genel
genelde
geneli
genelinde
genelindeki
genelkurmay
genelles
genellikle
general
generali
generation
genes
genesis
genetic
genetics
genetig
genetik
geneva
geni
genin
genis
genital
genius
genler
genlerin
genoa
genocide
genom
genome
gent
genuki
genus
geo
geoff
geoffrey
geografi
geographic
geographical
geography
geohive
geological
geology
geometri
geometrik
geometry
georg
george
georges
georgi
georgia
georgian
georgios
ger
gerais
gerald
gerard
gerc
gercu
gerec
gerede
gereg
gerek
gerekc
gerekebilir
gereken
gerekir
gerekirse
gerekiyor
gerekiyordu
gerekli
gereklidir
gereklilig
gerekmektedir
gerekmez
gerekse
gereksinim
gereksinimi
gereksinimleri
gereksiz
gerektig
gerektirdig
gerektiren
gerektirir
gerger
gergin
gerginlig
gerginlik
gerhard
geri
geride
gerileme
gerilim
gerilimi
gerilla
gerisinde
geriye
germain
german
germany
germen
geschichte
gesellschaft
gestapo
get
getir
getirdi
getirdig
getirdikleri
getirdiler
getireceg
getirecek
getiren
getirerek
getirildi
getirildig
getirilen
getirilerek
getirilir
getirilmesi
getirilmesini
getirilmis
getirip
getirir
getirirler
getiriyor
getirme
getirmek
getirmektedir
getirmesi
getirmeye
getirmeyi
getirmis
gets
getting
getty
getu
gevs
gey
geyig
geyik
geyve
gezegen
gezegeni
gezegenin
gezegenler
gezegenlerin
gezek
gezen
gezer
gezgin
gezi
gezici
gezisi
gezmis
gfk
gg
ghirlandaio
ghost
ghosts
ghz
gi
giacomo
gian
giant
giants
gibbs
gibi
gibidir
gibiydi
gibson
gideceg
gidecek
gidelim
giden
gider
giderek
giderir
giderken
giderler
giderleri
gidermek
gidin
gidip
gidis
gidiyor
gidiyorum
gift
gil
gilbert
giles
gill
giller
gilles
gilmour
gina
gine
ginesi
gion
giorgi
giorgio
giotto
giovanna
giovanni
gir
giray
girdi
girdig
girdikten
girdiler
gireceg
girecek
giremedi
giren
girer
girerek
girerken
girerler
giresun
giresunspor
girilmis
girin
girip
giris
girit
giriyor
girl
girlfriend
girls
girme
girmeden
girmek
girmesi
girmesinden
girmesine
girmesini
girmesiyle
girmeye
girmeyi
girmis
girne
giro
gis
git
gitar
gitarda
gitarist
gitaristi
gitgide
github
gitme
gitmeden
gitmek
gitmektedir
gitmesi
gitmesine
gitmesini
gitmeye
gitmeyi
gitmis
gitti
gittig
gittikc
gittikleri
gittiler
gittim
giulia
giuliano
giulio
giunti
giuseppe
give
given
gives
giydi
giydig
giydikten
giyen
giyer
giyerek
giyilen
giyim
giyip
giyme
giymektedir
giymeye
giymis
giysi
giysiler
gizem
gizemli
gizlemek
gizlenmis
gizli
gizlice
gizlilig
gizlilik
gk
gl
glasgow
glass
glee
glen
glenn
gli
global
globe
gloria
glory
glossary
gloucester
gloucestershire
glover
glu
glukoz
gm
gmail
gmbh
gnome
gnu
go
goal
goals
goc
god
godfrey
gods
goebbels
goes
goethe
gogh
goia
going
gol
golcu
gold
goldberg
golden
goldman
goldstein
gole
golf
golle
golu
gomez
gonca
gone
gong
gonna
gonza
gonzaga
gonzalez
good
goodbye
goodman
google
gor
goran
gorbac
gordon
gore
gorki
gorman
gospel
got
gotik
gottfried
gould
gov
government
governor
goya
gozzoli
gp
gps
gpu
gr
gra
grace
graf
grafig
grafik
graham
gram
gramer
grammar
grammy
gran
granada
grand
grande
granger
granit
grant
granu
graphic
grass
grave
graves
gravity
gravu
gray
graz
gre
great
greater
greatest
greco
greece
greek
green
greene
greenwich
greenwood
greg
gregg
gregor
gregory
grek
grekc
grekoromen
grenada
grev
grevi
grevillea
grey
gri
griffin
griffith
grip
gro
gross
grosso
ground
group
groups
grove
growing
growth
gru
gruba
grubu
grubudur
grubun
grubuna
grubunda
grubundan
grubunu
grubunun
grubuyla
grup
grupla
gruplar
gruplara
gruplarda
gruplardan
gruplardandır
gruplarla
grupları
grupların
gruplarına
gruplarında
gruplarından
gruplarını
gruplarının
gruppo
grupta
gruptaki
gruptan
gruptur
gruyter
gs
gsm
gsmarena
gsyi
gt
gta
gu
guadalajara
guangdong
guangzhou
guard
guardian
guatemala
gucci
gue
guerra
guerrero
guest
guetta
guevara
guez
guggenheim
gui
guide
guidelines
guides
guido
guild
guillaume
guillermo
guilty
guinea
guinness
guitar
gul
gulf
gun
gunn
guns
gurbet
guria
guru
gurur
gus
gustaf
gustav
gustave
gustavo
gut
gutenberg
guy
guyana
gwen
gy
gyo
gıda
gılgamıs
h
ha
haaretz
haas
hababam
habenaria
haber
haberal
haberci
haberdar
haberi
haberin
haberine
haberini
haberler
haberleri
haberles
habersiz
habertu
haberturk
habes
habib
habitat
habsburg
hac
hacer
hacettepe
hacim
hacimli
hacmi
hacı
hacıko
hacılar
had
hades
hadi
hadis
hadise
hadrianus
hadım
hae
haemaphysalis
hafif
hafifc
hafik
hafta
haftada
haftadan
haftalarda
haftalık
haftanın
haftası
haftasında
haftaya
hafız
hafıza
hagen
hague
haham
hahn
hai
hain
hair
haiti
haiz
hak
hakan
hakaret
hakem
hakemi
hakemlik
haki
hakikat
hakiki
hakim
hakimdir
hakimi
hakimiyet
hakimiyeti
hakimiyetine
hakimiyetini
hakk
hakka
hakkari
hakkı
hakkımızda
hakkın
hakkına
hakkında
hakkındadır
hakkındaki
hakkını
hakkının
haklar
haklara
hakları
hakların
haklarına
haklarında
haklarından
haklarını
haklarının
haklı
haksız
hal
hala
halbuki
halde
haldun
hale
halefi
halen
halep
half
hali
halic
halid
halide
halidir
halife
halifelig
halifesi
halihazırda
halil
halim
halinde
halindedir
halindeki
haline
halini
halis
halit
haliyle
halk
halka
halkalı
halkası
halkc
halkla
halklar
halklardan
halkları
halkların
halklarının
halktan
halkı
halkın
halkına
halkından
halkını
halkının
hall
halle
haller
hallerde
halleri
halloween
halo
halter
halterci
halton
halu
haluk
halvas
halı
ham
hama
hamam
hamamı
hamas
hamburg
hamburger
hamdi
hami
hamid
hamidiye
hamile
hamilelik
hamilton
hamit
hamle
hamlet
hammadde
hammer
hammond
hampshire
hampton
hamur
hamza
han
hana
hanc
hancinema
hancock
hand
handan
handball
handbook
hande
handel
hands
hane
hanedan
hanedanlıg
hanedanı
hanedanın
hanedanının
hanede
hanedir
hanefi
hangi
hanglemezkiado
hani
hank
hanlıg
hanna
hannah
hannibal
hannover
hans
hansen
hanı
hanım
hanımı
hapis
hapishane
hapishanede
hapishanesi
hapiste
hapisten
happened
happiness
happy
hapse
hapsedildi
haqqında
har
hara
harabe
harac
harald
haram
harap
harb
harbi
harbiye
harbor
harc
harcama
harcamaları
hard
hardcore
harding
hardy
hare
hareka
harekat
harekatı
hareket
harekete
hareketi
hareketin
hareketine
hareketini
hareketinin
hareketiyle
hareketle
hareketler
hareketleri
hareketlerin
hareketlerine
hareketlerini
hareketlerinin
hareketli
hareketlilik
hareketsiz
harem
harezm
harezms
harf
harfi
harfidir
harfinin
harfler
harfleri
harflerin
harflerle
haric
harici
haricinde
hariciye
harika
harita
haritalar
haritaları
haritası
harkov
harlem
harman
harmondsworth
harmonik
harmony
harold
harp
harper
harpercollins
harput
harran
harriet
harris
harrison
harry
hart
hartmann
haruhi
harun
harvard
harvey
has
hasan
hasar
hasara
hasarlı
hasarı
hasat
hasko
hasret
hassa
hassan
hassas
hasta
hastalar
hastalara
hastalarda
hastaları
hastaların
hastalıg
hastalık
hastalıklar
hastalıklara
hastalıkları
hastalıkların
hastalıktan
hastalıktır
hastane
hastanede
hastaneler
hastaneleri
hastanesi
hastanesinde
hastanesine
hastaneye
hastanın
hastası
hastings
hasılat
hat
hata
hatalar
hataları
hatalı
hatası
hatay
hatayspor
hate
hatice
hatip
hatlar
hatları
hatlarını
hatlarının
hatta
hattus
hattı
hattın
hattına
hattında
hattını
hattının
hatun
hatıra
hatırladıg
hatırlamadıg
hatırı
haute
hava
havaalanı
havacılık
havada
havadan
havai
havalimanı
havalimanıdır
havalı
havan
havana
havanın
havası
havaya
havayolları
havayolu
havayı
have
haven
havuc
havuz
havuzu
havva
havza
havzası
havzasında
hawaii
hawk
hawking
hawkins
hawks
hay
haya
hayal
hayalet
hayali
hayat
hayata
hayati
hayatları
hayatlarını
hayatta
hayattaki
hayattan
hayatı
hayatım
hayatın
hayatına
hayatında
hayatından
hayatını
hayatının
haydar
haydarpas
hayden
haydi
haydut
hayes
hayfa
hayli
haymana
hayran
hayranları
hayranlık
hayranı
hayreddin
hayret
hayrettin
hayri
hayvan
hayvanat
hayvancılıg
hayvancılık
hayvanlar
hayvanlara
hayvanlarda
hayvanlardan
hayvanları
hayvanların
hayvansal
hayvanı
hayvanın
hayır
hayırlı
hayırsever
haz
hazar
hazine
hazinesi
haziran
hazret
hazretleri
hazretlerine
hazır
hazırladı
hazırladıg
hazırlama
hazırlamak
hazırlamıs
hazırlanan
hazırlandı
hazırlandıg
hazırlanması
hazırlanmıs
hazırlanır
hazırlanırken
hazırlar
hazırlayan
hazırlayıp
hazırlıg
hazırlık
hazırlıkları
hbar
hbo
hc
hd
hdi
hdl
hdp
he
head
heads
health
hear
heard
heart
hearts
heat
heath
heather
heaven
heavy
heavyweight
hebrew
hece
heceleme
hector
hedef
hedefe
hedefi
hedefine
hedefler
hedeflere
hedefleri
hedeflerine
hedeflerini
hedefleyen
hediye
hediyeler
hee
hegel
heidelberg
heidi
heights
heinemann
heinrich
heinz
hekim
hekimi
hekimlig
hekimog
hektar
hektarlık
hela
helal
held
hele
helen
helena
helenistik
helicopter
helikopter
helikopteri
heliophanus
hell
hellenic
hello
helmut
help
helsinki
helyum
hem
hemen
hems
hen
hendek
henderson
hendis
hendisi
hendisler
hendisleri
hendislig
hendislik
henley
henri
henrik
henry
hentbol
henu
hep
hepatit
hepburn
hepimiz
hepimizin
hepsi
hepsinde
hepsine
hepsini
hepsinin
her
hera
herakleios
herakles
herald
herat
herbert
here
herefordshire
herhalde
herhangi
heritage
herkes
herkese
herkesi
herkesin
herkesten
herku
herman
hermann
hermes
hermione
herna
hero
herodot
heroes
herpetolog
hers
herschel
hersek
hertfordshire
hertha
hes
hesaba
hesabı
hesabına
hesabından
hesabını
hesap
hesaplama
hesaplamak
hesaplanabilir
hesaplanan
hesaplanmıs
hesaplanır
hesaplar
hesapları
hesaplas
hess
hesse
hessen
het
heteroseksu
hey
heyecan
heyecanlı
heyet
heyeti
heyetinin
heykel
heykeli
heykelin
heykeller
heykelleri
heykeltıras
hfpa
hg
hi
hibe
hibrit
hic
hicaz
hiciv
hicri
hidayet
hidden
hidroelektrik
hidrojen
hidrolik
higgins
high
higher
highest
highlights
highway
hijyen
hika
hikaye
hikayeleri
hikayesi
hikmet
hil
hila
hilal
hilary
hile
hill
hillary
hills
hilmi
hilton
him
himaye
himayesi
himayesinde
himmat
himmet
himmler
himself
hindi
hindistan
hindu
hinduizm
hint
hintc
hip
hipertansiyon
hipotez
hipotezi
hipparcos
hir
hire
hiros
hiroshi
his
hisar
hisi
hispanic
hisse
hissettig
hissi
histo
histoire
historia
historic
historical
histories
history
hit
hitaben
hitap
hitchcock
hitit
hititler
hitler
hitpara
hitparade
hits
hiung
hiv
hiyerars
hizan
hizat
hizbullah
hizmet
hizmetc
hizmete
hizmeti
hizmetin
hizmetinde
hizmetine
hizmetini
hizmetler
hizmetleri
hizmetlerin
hizmetlerinden
hizmetlerine
hizmetlerini
hizmetlerinin
hk
hl
hlas
hm
hms
hne
ho
hoca
hocam
hocası
hockey
hoffman
hoffmann
hogan
hogwarts
hokey
hokeyi
hokkaido
hold
holden
holding
holdings
holds
hole
holiday
holland
hollanda
hollandalı
holly
hollywood
holmes
holocaust
holokost
holstein
holt
holy
home
homepage
homer
homeros
homme
homo
homojen
honda
honduras
honey
hong
hongroise
honneur
honolulu
honor
honour
hood
hook
hoon
hoover
hop
hopa
hoparlo
hope
hopkins
hopper
hor
horace
horasan
horizon
horizons
hormon
horn
horowitz
horoz
horror
horse
horst
hos
hospital
host
hot
hotel
hotspur
houghton
hour
hours
house
houses
housewives
housing
houston
how
howard
howe
however
hoy
hp
hr
hrant
hrer
hret
hristiyan
hristiyanlar
hristiyanların
hristiyanlıg
hristiyanlık
hrsg
hru
hs
hsan
ht
hta
htc
htisas
htm
html
http
https
hu
hua
huang
huawei
hub
hubble
huber
hubert
huda
hudson
hudut
huffington
hugh
hughes
hugo
hui
hukuk
hukuka
hukukc
hukuken
hukuki
hukuksal
hukuku
hukukun
hukukuna
hukukunda
hukukunun
hul
hulk
hull
hulu
hulusi
huma
human
humanities
humans
humboldt
hume
humeyni
humphrey
humus
hun
hundred
hung
hungarian
hungary
hunger
hunlar
hunt
hunter
huntington
hur
hurdur
hurma
hurricane
hurriyet
hurs
hurt
hus
husband
husus
hususi
hususlar
hususta
hususunda
hutchinson
huygens
huylu
huzur
huzursuzluk
huzuruna
huzurunda
hwang
hybrid
hyde
hydra
hye
hyo
hype
hyun
hyundai
hz
hı
hınıs
hıristiyan
hırslı
hırsız
hırsızlık
hırvat
hırvatc
hırvatistan
hız
hıza
hızda
hızla
hızlarda
hızları
hızlı
hızlıca
hızı
hızına
hızında
hızını
hızının
hızır
i
ia
iaaf
iade
ian
ias
iata
iau
ib
iba
ibadet
ibadete
ibareli
ibaresi
ibaret
ibarettir
ibdb
ibge
iblis
ibm
ibn
ibrahim
ic
ica
icao
icarus
icat
ice
iceland
ich
ici
icin
icon
icra
id
ida
idaho
idam
idama
idare
idaresi
idaresinde
idaresine
idaresini
idaresinin
idari
iddet
iddete
iddeti
iddetin
iddetle
iddetli
iddia
iddialar
iddiaları
iddiaların
iddialarını
iddialı
iddianame
iddianamede
iddianamesi
iddiası
iddiasını
iddiasıyla
iddiaya
ide
idea
ideal
ideas
iden
identification
identity
ideology
ideoloji
ideolojik
idi
ididir
idiler
idin
idir
idol
idrar
idu
ie
ieee
if
ifa
ifade
ifadeler
ifadeleri
ifadelerin
ifadelerini
ifadesi
ifadesinde
ifadesine
ifadesini
ifadesinin
ifadeyle
iflas
ifler
ifpi
ifre
ifreleme
ifreli
ifs
ift
iftc
ifte
ifti
iftin
iftinin
iftira
iftler
iftles
iftlig
iftlik
ig
ign
ignaz
igor
ihale
ihanet
ihbar
ihlal
ihlali
ihmal
ihrac
ihracat
ihracatı
ihtila
ihtimal
ihtimali
ihtimalle
ihtis
ihtiva
ihtiyac
ihtiyacı
ihtiyacını
ihtiyar
ii
iii
iir
iiri
iirin
iirinde
iirini
iirinin
iirler
iirleri
iirlerinde
iirlerini
iirsel
ik
ika
ikago
ikalı
ikamet
ikayet
ike
iken
iki
ikili
ikilinin
ikilisi
ikinci
ikincil
ikincilig
ikincilik
ikincisi
ikis
ikisi
ikisinde
ikisini
ikisinin
ikiye
ikiz
ikler
ikleri
iklerin
iklig
iklik
iklikler
ikliklere
iklikleri
ikliklerin
ikliklerle
iklim
iklime
iklimi
ikmal
ikna
ikolata
iktas
iktidar
iktidara
iktidarda
iktidarı
iktidarın
iktir
iktisadi
iktisat
iktisatc
il
ila
ilac
ilacı
ilahi
ilahiyatc
ilan
ilanı
ilanından
ilave
ilaveten
ilbo
ilc
ilde
ildi
ildig
ildir
ildirler
ile
ilebilir
ilecek
ilek
ilen
iler
ilerce
ilerde
ilerden
ilerdir
ilere
ilerek
ileri
ilerici
ileride
ilerin
ilerinden
ilerine
ilerini
ilerinin
ileriye
ilerle
ilerledi
ilerledig
ilerledikc
ilerleme
ilerlemesi
ilerlemesini
ilerlemeye
ilerlemis
ilerler
ilerlerken
ilerleyen
ilerleyerek
ilerleyis
iles
iletim
iletis
iletken
ilgaz
ilgi
ilgilendi
ilgilendig
ilgilendiren
ilgilenen
ilgilenir
ilgilenmeye
ilgilenmis
ilgili
ilgilidir
ilginc
ilgisi
ilgisini
ilgisinin
ilgiyi
ilhak
ilham
ili
ilig
ilik
ilikler
ilili
ilim
ilimi
iliminde
ilimindedir
ilimler
ilimleri
ilimli
ilin
ilinde
ilindeki
ilinden
iline
ilinin
ilir
ilis
iliz
ilk
ilkbahar
ilke
ilkel
ilkeler
ilkeleri
ilkelerine
ilkelerini
ilkesi
ilkesine
ilkesini
ilki
ilko
ilkokul
ill
illegal
iller
illerde
illerdir
illeri
illerinde
illerinden
illinois
illu
illustrated
ilme
ilmek
ilmesi
ilmez
ilmi
ilmis
ilova
ilse
iltica
ilyurt
ilıca
im
ima
image
images
imaging
imal
imalat
imam
iman
imar
imax
imci
imciler
imcilik
imdb
imde
imdeki
imden
imdi
imdiden
imdiki
imdilik
imdir
imdiye
ime
imen
imento
imf
imha
imi
imidir
imin
iminde
imindeki
iminden
imine
imini
iminin
imis
imiyle
imiz
imizde
imize
imizi
imka
imkan
imkansız
imkanı
imle
imler
imlerde
imlerden
imlere
imleri
imlerin
imlerinde
imlerinden
imlerine
imlerini
imlerinin
imleriyle
imlerle
imli
immu
impact
imparator
imparatoric
imparatorlug
imparatorluk
imparatoru
imparatorun
imperial
implications
important
impossible
ims
imsel
imtarihi
imtiyaz
imza
imzaladı
imzaladıg
imzalamıs
imzalanan
imzalandı
imzalanmıs
imzalayan
imzalayarak
imzalı
imzası
imzasını
in
ina
inanan
inanc
inancı
inancına
inancını
inandıg
inanmak
inanmaktadır
inanmıs
inanılan
inanılmaktadır
inanılmaz
inanılır
inanır
inanırlar
inanıs
inanıyor
inanıyordu
inanıyorum
inasi
inatc
inc
ince
inceledi
inceleme
incelemede
incelemek
incelemeler
incelemelerde
incelemesi
incelemesinde
incelemeye
incelemis
incelendig
incelenen
incelenir
incelenmesi
incelenmis
inceler
inceleyen
inceleyerek
inch
inci
incir
include
includes
including
incorporated
inde
indec
indedir
indeki
inden
independence
independent
index
indeydi
indi
india
indian
indiana
indianapolis
indians
indie
indiewire
indig
indir
indirdi
indirildi
indirilebilir
indirilen
indirilmis
indirme
indirmek
individual
indo
indonesia
indu
industrial
industries
industry
ine
inek
inen
iner
infaz
infection
infectious
infilak
infinite
infinity
influence
info
information
infrared
infty
ing
ingene
ingilizce
ingrid
inhibito
ini
inin
inis
initial
initiative
iniz
inizi
injury
inka
inkar
inko
inli
inliler
inme
inmek
inmis
inn
inner
innovation
inorganik
inquiry
ins
insan
insana
insanda
insandan
insandır
insani
insanlar
insanlara
insanlarda
insanlardan
insanlarla
insanları
insanların
insanlarının
insanlı
insanlıg
insanlık
insanog
insansı
insansız
insanı
insanın
inse
insee
inside
insider
insight
inspired
instagram
institut
institute
institution
institutions
instituto
instruments
insu
int
integral
integrated
integration
intel
intellectual
intelligence
inter
interactive
intercontinental
interest
interface
interior
internacional
internal
international
internationale
internazionale
internet
internete
internette
interpretation
interscope
intertoto
interview
interviews
intihar
intikal
intikam
intikamını
into
introducing
introduction
invasion
invention
investigation
investment
invisible
io
ioc
iog
ion
ios
iowa
ip
ipa
ipac
ipad
ipek
iphone
ipi
iplig
iplik
ipod
ipswich
iptal
ipuc
ipv
iq
ir
ira
irade
irak
iraklı
iran
iranian
iranica
iraq
iraqi
iras
iraz
irdi
irdig
irdikleri
irdikten
irdiler
irdir
ire
ireland
irelik
iren
irene
irerek
iret
ireti
iri
irildi
irildig
irilen
irilerek
irilir
irilmesi
irilmis
irin
irina
irip
irir
irirler
iris
irish
irk
irken
irket
irkete
irketi
irketidir
irketin
irketinde
irketinden
irketine
irketini
irketinin
irketler
irketlere
irketleri
irketlerin
irketlerinden
irketlerinin
irkette
irketten
irkin
irler
irma
irmag
irmak
irme
irmek
irmen
irmeni
irmesi
irmeye
irmeyi
irmez
irmis
iron
irtibat
irtibatlı
irtifa
irvan
irving
irwin
is
isa
isaac
isabel
isabella
isabelle
isabet
isbn
ise
isel
ishal
isi
isidir
isim
isimdir
isimle
isimlendirilmis
isimler
isimlerden
isimleri
isimlerin
isimlerinden
isimlerini
isimlerinin
isimleriyle
isimlerle
isimli
isimsiz
isini
isinin
isis
iska
iskan
iskele
iskelet
isla
islam
islamic
island
islands
isle
isme
ismi
ismidir
ismin
isminde
ismindeki
isminden
ismine
ismini
isminin
ismiyle
isn
iso
isparta
ispat
ispatlayacak
israel
israeli
issn
issue
issues
ist
istanbul
istasyon
istasyonları
istasyonu
istasyonudur
istasyonun
istasyonuna
istasyonunda
istasyonunun
istat
istatistik
istatistikleri
istatistiksel
istedi
istedig
istedikleri
istediklerini
istediler
istedim
isteg
istek
istekleri
isteklerini
istekli
istemci
istemedig
istemek
istemektedir
istemesi
istemeyen
istemez
istemis
istemiyorum
istendi
istendig
istenen
istenilen
istenir
istenmeyen
istenmis
ister
isterim
isterken
isterler
isterse
isteyebilir
isteyen
isteyenler
isteyerek
istifa
istifade
istifası
istifasını
istihbarat
istihdam
istikla
istikrar
istikrarlı
istila
istilası
istinaden
istismar
istisna
istisnai
istituto
istiyor
istiyordu
istiyorlar
istiyorum
istiyoruz
istva
isu
isyan
isyana
isyancı
isyancılar
isyanları
isyanı
isyanın
isı
it
ita
itaat
italia
italian
italiana
italy
iten
itfaiye
ithaca
ithaf
ithafen
ithal
ithalat
itham
iti
itibar
itibaren
itibari
itibariyle
itibarı
itibarıyla
itici
itilmis
itim
itimci
itimde
itimden
itime
itimi
itimin
itiminde
itimine
itimini
itiminin
itimleri
itimli
itiraf
itiraz
itis
itler
itleri
itli
itlig
itlik
itlilig
itlilik
itme
itmek
itmen
itmeni
ito
its
itsel
itsizlig
itti
ittifak
ittifakı
ittir
itu
itunes
itv
iu
iucn
ius
iv
iva
ivan
ivi
ivlendi
ivlenmesi
ivlenmis
ivleri
ivme
ivril
ix
ixodes
iydi
iye
iyelik
iyi
iyice
iyidir
iyiles
iyilig
iyilik
iyisi
iyle
iyon
iyor
iyordu
iz
iza
izah
izdi
izdig
izelgesi
izer
izgi
izgiler
izgileri
izgili
izgisi
izi
izilen
izilmis
izim
izimi
izimler
izimleri
izin
izini
izinsiz
izle
izledi
izledig
izleme
izlemek
izlemeye
izlemis
izlenebilir
izlenen
izlenimi
izlenme
izler
izleri
izlerini
izleyen
izleyerek
izleyici
izleyiciler
izm
izme
izni
izofreni
izole
j
ja
jack
jackie
jackson
jacob
jacobs
jacopo
jacqueline
jacques
jae
jaguar
jaime
jake
jakob
jale
jam
jama
jamaika
james
jamie
jan
jandarma
jane
janeiro
janet
jang
january
japan
japanese
japon
japonca
japonlar
japonya
jared
jason
jasper
java
javascript
javier
jay
jazeera
jazz
jc
jdat
jde
je
jean
jeanne
jedi
jeff
jefferson
jeffrey
jel
jena
jenerato
jenerik
jenkins
jenna
jennifer
jennings
jenny
jens
jensen
jeofizik
jeolog
jeoloji
jeolojik
jeong
jeremy
jericho
jerome
jerry
jersey
jerusalem
jerzy
jesse
jessica
jessie
jesu
jesus
jet
jewish
jews
jg
ji
jia
jill
jim
jimmy
jimnastik
jin
jir
jk
jm
jo
joa
joachim
joan
joanna
joanne
job
jobs
joe
joel
joey
johan
johann
johanna
johannes
johansson
john
johnny
johns
johnson
johnston
join
joins
joint
joker
jolie
jon
jonas
jonathan
jones
jong
joo
joon
joongang
jordan
jorge
jose
josef
joseph
josephus
josh
joshua
joss
journal
journalist
journey
jovi
joy
joyce
jp
jpg
jpl
jr
js
jstor
ju
juan
judaism
judge
judith
judo
judy
jul
jules
julia
julian
julie
julien
juliet
julio
julius
july
jump
jun
june
jung
jungle
junior
juniors
juno
jupiter
jura
jurassic
jure
jury
just
justice
justin
justinianus
juventus
jyp
k
ka
kaan
kaba
kabaca
kabak
kabare
kabartma
kabatas
kabil
kabile
kabileler
kabileleri
kabilesi
kabilesinin
kabiliyeti
kabin
kabine
kabinesi
kabinesinde
kablo
kablolu
kablosuz
kabri
kabug
kabuk
kabuklu
kabul
kabulu
kac
kada
kadadır
kadalar
kadar
kadardır
kadarki
kadarı
kadarıyla
kadastro
kaddafi
kademe
kademeli
kader
kaderi
kaderini
kadim
kadir
kadirli
kadri
kadro
kadroda
kadroları
kadrosu
kadrosuna
kadrosunda
kadroya
kadı
kadıko
kadın
kadına
kadından
kadındır
kadınla
kadınlar
kadınlara
kadınlarda
kadınlardan
kadınlarla
kadınları
kadınların
kadını
kadının
kafa
kafası
kafasına
kafasını
kafatası
kafe
kafes
kafiye
kafka
kafkas
kafkasya
kag
kaheti
kahire
kahn
kahraman
kahramanlar
kahramanları
kahramanlık
kahramanmaras
kahramanı
kahramanın
kahvaltı
kahve
kahverengi
kahverengidir
kahvesi
kai
kaide
kaiser
kakan
kakao
kaktu
kal
kala
kalabalıg
kalabalık
kalacag
kalacak
kalacaktır
kalan
kalanlar
kalanı
kalanında
kalanını
kalarak
kaları
kalarına
kalarının
kalas
kalay
kalbi
kalbim
kalbin
kalbini
kalc
kaldı
kaldıg
kaldıkları
kaldıktan
kaldılar
kaldım
kaldıran
kaldırarak
kaldırdı
kaldırma
kaldırmak
kaldırmaya
kaldırmıs
kaldırılan
kaldırılarak
kaldırıldı
kaldırıldıg
kaldırılması
kaldırılmasına
kaldırılmasını
kaldırılmıs
kaldırım
kaldırır
kale
kaleci
kalecik
kalecisi
kalede
kaleden
kaleler
kaleleri
kalem
kaleme
kalemi
kalenin
kalesi
kalesinde
kalesine
kalesini
kalesinin
kaleye
kaleyi
kali
kalibre
kaliforniya
kalite
kalitede
kaliteli
kalitesi
kalitesini
kalkan
kalkanı
kalkar
kalkmıs
kalkolitik
kalktı
kalktıg
kalku
kalkınma
kalkıp
kalkıs
kalma
kalmadan
kalmadı
kalmadıg
kalmak
kalmaktadır
kalmamıs
kalması
kalmasına
kalmasını
kalmaya
kalmayı
kalmayıp
kalmaz
kalmıs
kalp
kalsiyum
kalsın
kalıcı
kalıg
kalın
kalınca
kalınlas
kalınlıg
kalıntı
kalıntılar
kalıntıları
kalıntılarını
kalıntılarının
kalıntısı
kalıp
kalır
kalırken
kalırlar
kalıtsal
kalıyor
kam
kama
kaman
kamarası
kamboc
kamc
kamera
kameralar
kamerası
kamerun
kamil
kamp
kampa
kampanya
kampanyası
kamplarına
kampta
kampu
kampı
kampına
kampında
kamu
kamudan
kamulas
kamuoyu
kamuoyuna
kamuoyunda
kamuoyunun
kamusal
kamuya
kamyon
kamıs
kan
kana
kanaat
kanada
kanadalı
kanadı
kanal
kanala
kanalda
kanaldan
kanalizasyon
kanallar
kanalları
kanallarında
kanalı
kanalıdır
kanalın
kanalında
kanalının
kanama
kanaması
kanarya
kanat
kanatlar
kanatları
kanatlı
kanda
kandil
kandiye
kandıra
kane
kang
kangal
kani
kanlar
kanları
kanlarının
kanlı
kanlıg
kanlık
kanlıkları
kannesi
kano
kansas
kanser
kanserden
kanseri
kansu
kant
kanton
kanun
kanuna
kanunda
kanuni
kanunla
kanunlar
kanunları
kanunların
kanunu
kanunun
kanununa
kanununun
kanvekili
kanye
kanyon
kanyonu
kanı
kanıdır
kanık
kanım
kanın
kanına
kanını
kanının
kanıt
kanıtladı
kanıtlamak
kanıtlamıs
kanıtlanmıs
kanıtlar
kanıtları
kanıtı
kanıydı
kaos
kap
kapadokya
kapag
kapak
kapaklı
kapalı
kapandı
kapanmıs
kapanıs
kapasite
kapasiteli
kapasitelidir
kapasitesi
kapasitesine
kapasitesini
kapasiteye
kapatma
kapatmak
kapatmıs
kapattı
kapatılacak
kapatılan
kapatıldı
kapatılması
kapatılmıs
kapitalist
kapitalizm
kapitalizmin
kaplama
kaplamaktadır
kaplan
kaplanmıs
kaplar
kaplayan
kaplumbag
kaplı
kaplıdır
kappa
kapsadıg
kapsamaktadır
kapsamda
kapsamlı
kapsamı
kapsamına
kapsamında
kapsamındaki
kapsar
kapsayacak
kapsayan
kapsu
kapsıyordu
kaptan
kaptanlıg
kaptanı
kapı
kapıdan
kapılar
kapıları
kapılarını
kapılı
kapının
kapısı
kapısına
kapısında
kapısını
kapısının
kapıya
kapıyı
kar
kara
karaag
karabag
karabakh
karabekir
karabiber
karabu
karabudun
karabulut
karac
karaca
karacabey
karacao
karacaog
karacig
karada
karadag
karadan
karadeniz
karago
karagu
karahan
karakas
karakaya
karako
karakoc
karakol
karakolu
karakoyunlu
karakter
karakterdir
karaktere
karakteri
karakteridir
karakterin
karakterine
karakterini
karakterinin
karakteristik
karakteriyle
karakterize
karakterler
karakterlerden
karakterleri
karakterlerin
karakterlerinden
karakterlerini
karakterlerinin
karakurt
karaman
karamanog
karamu
karan
karanfil
karanlıg
karanlık
karanlıkta
karantina
karaog
karaosmanog
karapınar
karar
karara
kararga
karargahı
kararla
kararlar
kararları
kararların
kararlarına
kararlarını
kararlarının
kararlas
kararlı
kararlılıg
kararname
kararnameler
kararnamelerde
kararnamesi
kararsız
kararı
kararın
kararına
kararında
kararını
kararının
kararıyla
karasal
karasu
karatas
karatay
karate
karay
karaya
karayip
karayipler
karayolları
karayolu
karbon
karbonat
karbondioksit
kardemir
kardes
kardinal
kare
karel
karen
karesi
karga
kargas
kargo
kargı
kari
karikatu
karin
kariyer
kariyeri
kariyerinde
kariyerindeki
kariyerine
kariyerini
kariyerinin
karl
karlı
karma
karmas
karolina
karpuz
kars
kart
kartaca
kartal
kartalspor
kartalı
kartlar
kartları
kartli
karton
kartı
karı
karın
karınca
karıs
karısı
karısını
karısının
kas
kasa
kasaba
kasabada
kasabadır
kasabanın
kasabası
kasabasına
kasabasında
kasabasının
kasabaya
kasap
kaset
kast
kastamonu
kastedilmis
kasten
kastilya
kası
kasım
kasımpas
kasına
kasının
kasırga
kasıtlı
kat
kata
katalan
katalanca
katalizo
katalog
katalonya
katar
kate
katedral
katedrali
kategori
kategoride
kategoriler
kategorilerinde
kategorisi
kategorisinde
kategorisine
kategoriye
katerina
katherine
kathleen
kathryn
kathy
katie
katil
katili
katip
katkı
katkıda
katkılar
katkılarda
katkıları
katkılarından
katkılarıyla
katkısı
katliam
katliamı
katlı
katma
katmak
katman
katmanlı
katmanı
katmıs
kato
katolik
katsayısı
katta
kattı
katy
katz
katı
katılacag
katılacak
katılamadı
katılan
katılarak
katılas
katıldı
katıldıg
katıldıkları
katıldılar
katılma
katılmadan
katılmadı
katılmak
katılmaktadır
katılmamıs
katılması
katılmasına
katılmasını
katılmasıyla
katılmaya
katılmayı
katılmıs
katılım
katılımcı
katılımcılar
katılımcıların
katılımı
katılımını
katılımıyla
katılıp
katılır
katına
katında
kauc
kaufman
kautsky
kavak
kaval
kavala
kavga
kavgası
kavram
kavrama
kavramdır
kavramlar
kavramları
kavramların
kavramsal
kavramı
kavramın
kavramına
kavramını
kavramının
kavs
kavus
kawasaki
kay
kaya
kayabas
kayac
kayak
kayalar
kayalık
kayan
kaybeden
kaybedenlerin
kaybeder
kaybederek
kaybedilen
kaybetmesi
kaybetmesine
kaybetmis
kaybetti
kaybettig
kaybettikleri
kaybettikten
kaybettiler
kaybolan
kayboldu
kayboldug
kaybolmus
kaybolur
kaybı
kaybına
kayda
kaydeden
kaydedildi
kaydedildig
kaydedilen
kaydedilmis
kaydetmek
kaydetmis
kaydetti
kaydettig
kaydoldu
kaydı
kaydını
kaydıyla
kaygı
kayma
kaymak
kaymakam
kaymakamlıg
kaymakamlık
kaymakamı
kayması
kaynag
kaynak
kaynakc
kaynaklanan
kaynaklandıg
kaynaklanmaktadır
kaynaklanır
kaynaklar
kaynaklara
kaynaklarda
kaynaklardan
kaynakları
kaynakların
kaynaklarına
kaynaklarında
kaynaklarından
kaynaklarını
kaynaklarının
kaynaklı
kaynakta
kaynaktan
kaynarca
kaynas
kayseri
kayserispor
kayı
kayın
kayıp
kayıplar
kayıplara
kayıpları
kayıs
kayısı
kayıt
kayıtlar
kayıtlara
kayıtlarda
kayıtları
kayıtların
kayıtlarına
kayıtlarında
kayıtlarını
kayıtlarının
kayıtlı
kayıtsız
kaz
kaza
kazada
kazadan
kazak
kazakc
kazakhstan
kazakistan
kazaklar
kazalar
kazaları
kazan
kazanamadı
kazanamamıs
kazanan
kazananlar
kazananları
kazananı
kazanarak
kazanc
kazancı
kazandı
kazandıg
kazandıkları
kazandıktan
kazandılar
kazandıran
kazandırdı
kazandırmak
kazandırmıs
kazanma
kazanmak
kazanması
kazanmasına
kazanmasını
kazanmaya
kazanmayı
kazanmıs
kazanılan
kazanılmıs
kazanın
kazanıp
kazanır
kazanırken
kazası
kazasına
kazasında
kazasının
kazaya
kazhdan
kazı
kazık
kazılar
kazılarda
kazım
kb
kbabası
kbas
kbilimci
kbs
kc
kck
kd
kde
kdere
ke
kebabı
kec
kedi
kediler
kedisi
keep
kehanet
kei
keith
kek
kel
kela
kelc
kelebek
kelepc
keles
kelime
kelimeler
kelimeleri
kelimelerin
kelimelerinden
kelimelerinin
kelimenin
kelimesi
kelimesinden
kelimesini
kelimesinin
kelkit
keller
kelley
kelly
kelt
kema
kemah
kemal
kemalist
kemaliye
kemalpas
keman
kemancı
kemenc
kemer
kemeri
kemerin
kemerini
kemerleri
kemerlerini
kemerli
kemig
kemik
kemikler
kemikleri
kemmel
ken
kenan
kenar
kenara
kenarları
kenarlarında
kenarı
kenarına
kenarında
kenarındadır
kenarındaki
kence
kendall
kendi
kendileri
kendilerince
kendilerinden
kendilerine
kendilerini
kendilerinin
kendilig
kendim
kendime
kendimi
kendimizi
kendinden
kendine
kendini
kendinin
kendisi
kendisinde
kendisinden
kendisine
kendisini
kendisinin
kendisiyle
kendrick
kene
kenevir
keni
kenin
kenini
keninin
kenler
kenleri
kenli
kenlidir
kenlik
kenmis
kennedy
kenneth
kenny
kent
kente
kenti
kentidir
kentin
kentinde
kentindeki
kentinden
kentine
kentini
kentinin
kentler
kentleri
kentlerinde
kentles
kentsel
kentte
kentteki
kenttir
kentucky
kenya
kepc
kepler
ker
kerbela
kere
kerek
kerem
kereste
keri
kerim
kerku
kerpic
kerr
kerry
kershaw
kertenkele
kervan
kes
kese
kesen
keser
keserek
kesesi
kesi
kesici
kesik
kesildi
kesilen
kesilerek
kesilir
kesilmesi
kesilmis
kesim
kesimde
kesimi
kesiminde
kesimleri
kesimlerinde
kesin
kesinles
kesinlikle
kesintisiz
kesintiye
kesip
kesis
kesit
keskin
kesme
kesmek
kestane
kesti
keten
kethu
ketici
ketilen
ketilir
ketim
ketimi
kevin
kew
key
keyfi
keyif
keynes
keys
kez
keza
kg
kgb
khaled
khan
khet
khk
ki
kia
kibar
kic
kick
kicker
kid
kidd
kide
kids
kiel
kiev
kil
kila
kilat
kilatı
kilatının
kilendirilen
kilendirilmis
kiler
kilerde
kilere
kileri
kilerin
kilerinde
kilerine
kilerini
kilerinin
kili
kilidir
kilikya
kilis
kilise
kilisede
kiliseler
kiliseleri
kilisenin
kilisesi
kilisesinin
kiliseye
kilit
kill
killed
killer
killing
kills
kilo
kiloda
kilogram
kilometre
kilometrekare
kilometrekarelik
kilometrelik
kim
kimberly
kimdir
kime
kimi
kimileri
kimin
kimiyet
kimler
kimlig
kimlik
kimse
kimseler
kimselerin
kimsenin
kimseye
kimseyi
kimya
kimyager
kimyasal
kin
kinci
kincilik
kincisi
kind
kinetik
king
kingdom
kings
kingston
kinin
kinler
kinlerin
kipi
kir
kira
kiralama
kiralandı
kiralanmıs
kiralık
kiraz
kirby
kirec
kiril
kiris
kirk
kirli
kirlilig
kirpi
kirt
kis
kisi
kisine
kisini
kisinin
kiss
kit
kita
kitab
kitaba
kitabevi
kitabı
kitabıdır
kitabın
kitabına
kitabında
kitabından
kitabını
kitabının
kitabıyla
kitap
kitapc
kitaplar
kitaplarda
kitapları
kitapların
kitaplarında
kitaplarını
kitaplarının
kitaplıg
kitapta
kitaptan
kitaptır
kitchen
kitle
kitlelere
kitlesel
kitlesi
kiye
kiyi
kiz
kk
kka
kken
kko
kktc
kkus
kl
kla
klan
klarceti
klarnet
klasik
klasikleri
klasman
klasmanı
klaso
klaus
klavye
kle
kleer
kleik
klein
kleme
klemek
klendi
klenen
klenmis
kleopatra
kler
klerde
klerden
klere
kleri
klerin
klerinde
klerinden
klerine
klerini
klerinin
klerle
klibi
klibin
klibinde
klibini
klid
klim
klinig
klinik
klip
klipte
klis
kloru
klu
km
kme
kmek
kmen
kmesi
kmu
kn
knesset
knicks
knight
knights
knopf
knot
know
knowledge
knowles
known
knox
knut
ko
koalisyon
koalisyonu
kobani
kobayashi
kobe
koc
koca
kocaeli
kocaelispor
kocaman
kocası
kocasını
kocasının
kocatepe
koch
kod
koda
kodansha
kodlama
kodlar
kodları
kodlu
kodra
kodu
kofi
kog
koji
kokain
koku
kokulu
kokusu
kol
kola
kolay
kolayca
kolaydır
kolaylas
kolaylıg
kolaylık
kolaylıkla
kolc
kolej
koleji
kolejliler
koleksiyon
koleksiyonu
kolektif
kolera
kolhis
kolik
kollar
kolları
kollu
kolluk
kolomb
kolombiya
kolombiyalı
kolon
koloni
koloniler
kolonileri
kolonisi
kolordu
kolordusu
koltug
koltuk
koltuklu
kolu
koludur
kolumbiyası
koluna
kolunda
kolundan
kolunu
kolunun
koma
komando
kombat
kombinasyonu
kombine
komedi
komedisi
komedyen
komik
komiser
komiseri
komiserlig
komisyon
komisyonu
komisyonun
komite
komitesi
komitesinin
komnenos
kompakt
kompleks
kompleksi
komplo
kompozisyon
kompozit
kompreso
koms
komu
komut
komuta
komutan
komutanlar
komutanları
komutanlarından
komutanlıg
komutanlık
komutanı
komutanım
komutası
komutasında
komutasındaki
komutu
kon
konag
konak
konaklama
konan
konc
kondansato
kondolojy
kondu
konfederasyon
konfederasyonlar
konfederasyonu
konferans
konferanslar
konferansta
konferansı
konferansında
konfigu
konfu
kong
kongo
kongre
kongrede
kongresi
kongresinde
koni
konik
konmus
konrad
konsantre
konsept
konsepti
konser
konserde
konseri
konserinde
konserler
konserlerde
konserleri
konservatuvar
konservatuvarı
konsey
konseyi
konseyine
konseyinin
konsili
konsol
konsoloslug
konsolosluk
konsolosu
konsolu
konstantin
konstantinopolis
konstantinos
konsu
kont
kontlug
kontluk
kontrat
kontrol
kontrolleri
kontrollu
kontrolo
kontrolu
kontu
konu
konuda
konudaki
konug
konuk
konulan
konular
konulara
konularda
konulardan
konularla
konuları
konuların
konularına
konularında
konularını
konuldu
konuldug
konulması
konulmus
konulu
konulur
konum
konuma
konumda
konumdadır
konumlanmıs
konumları
konumu
konumuna
konumunda
konumundadır
konumunu
konunun
konur
konus
konusu
konusudur
konusuna
konusunda
konusundaki
konusunu
konusunun
konut
konuya
konuyla
konuyu
konvansiyonel
konya
konyaspor
kooperatif
koordinasyon
koordinat
koordinatlar
koordinato
koordine
kopan
kopenhag
kopya
kopyası
kopyasını
kor
koray
kore
korea
korean
korece
koreli
koreograf
korgeneral
korhan
korint
korkak
korkan
korkar
korkma
korkmaz
korktug
korku
korkunc
korkusu
korkusuz
korkut
koro
koronaviru
korosu
korsan
korsanları
koru
korudu
korudug
koruma
korumak
korumakla
korumaktadır
korumalı
koruması
korumaya
korumayı
korumus
korunaklı
korunan
korunma
korunmak
korunmaktadır
korunması
korunmasına
korunmasını
korunmus
korur
koruyan
koruyarak
koruyucu
koruyucusu
kos
kosova
kosovo
kosta
kostu
kot
kota
kotunda
kova
kovancılar
kovuldu
kovus
koy
koyan
koyar
koyarak
koydu
koydug
koyma
koymak
koymaktadır
koymaya
koymus
koyu
koyulhisar
koyulur
koyun
koyup
koz
koza
kozan
kozluk
kozmetik
kozmik
kp
kr
kra
kraft
krako
kral
krala
kralic
kraliyet
krallar
kralları
kralların
krallıg
krallık
kralı
kralın
kralının
kramer
kran
krasnodar
krater
krayı
kredi
krem
kremlin
kres
kretase
kriket
kripto
kris
kristal
kristen
kriterleri
kritik
kriz
krizi
krizin
krizinden
krom
kromozom
kronik
kronolojik
kronolojisi
kru
krus
kruvazo
ks
ksal
kse
ksek
kseklig
kseklik
kseklikte
kseklikteki
kseko
ksekokulu
ksekova
ksekte
ksektir
ksel
kseldi
kseldig
kselen
kselerek
kselir
kselis
kselme
kselmek
kselmesi
kselmeyi
kselmis
kseltildi
kseltilmis
kseltme
kseltmek
ksemburg
ksiyon
ksiyonu
kspor
ksu
ksun
kt
ktas
kte
kteki
kten
ktidar
ktisadi
ktisat
kto
ktu
ku
kuantum
kuark
kuba
kuban
kubbe
kubbeli
kubbesi
kubilay
kuc
kucag
kudava
kudret
kudu
kug
kuhn
kukla
kul
kula
kulag
kulak
kulakları
kulaklık
kule
kuleleri
kulenin
kulesi
kullanabileceg
kullanabilir
kullanacag
kullanan
kullanarak
kullandı
kullandıg
kullandıkları
kullandılar
kullanma
kullanmadan
kullanmadıg
kullanmak
kullanmaktadır
kullanması
kullanmasına
kullanmaya
kullanmayı
kullanmıs
kullanıcı
kullanıcılar
kullanıcılara
kullanıcıları
kullanıcıların
kullanıcının
kullanıcısı
kullanıcıya
kullanılabileceg
kullanılabilecek
kullanılabilen
kullanılabilir
kullanılabilmektedir
kullanılacag
kullanılacak
kullanılamaz
kullanılan
kullanılarak
kullanıldı
kullanıldıg
kullanılmadıg
kullanılmak
kullanılmakta
kullanılmaktadır
kullanılmaktaydı
kullanılmamıs
kullanılması
kullanılmasına
kullanılmasını
kullanılmasının
kullanılmaya
kullanılmayan
kullanılmaz
kullanılmıs
kullanılmıyor
kullanılır
kullanılırdı
kullanılırken
kullanılırlar
kullanılıyor
kullanılıyordu
kullanım
kullanıma
kullanımda
kullanımdan
kullanımları
kullanımı
kullanımına
kullanımında
kullanımını
kullanımının
kullanımıyla
kullanıp
kullanır
kullanırken
kullanırlar
kullanıs
kullanıyor
kullanıyordu
kultur
kulu
kuluc
kum
kumanda
kumandan
kumandanlıg
kumandanı
kumar
kumas
kumlu
kumtas
kun
kung
kunst
kupa
kupada
kupalarında
kupanın
kupası
kupasında
kupasını
kupaya
kupayı
kur
kura
kurak
kuraklık
kural
kurallar
kurallara
kuralları
kurallarına
kurallarını
kurallarının
kuralı
kuram
kuramsal
kuramı
kuramının
kuran
kurar
kurarak
kurbag
kurban
kurbanları
kurbanı
kurdish
kurdistan
kurds
kurdu
kurdug
kurdukları
kurdular
kureys
kurgu
kurgusal
kurma
kurmak
kurmanci
kurması
kurmay
kurmaya
kurmayı
kurmus
kurnaz
kurs
kursk
kursu
kurt
kurtalan
kurtaran
kurtardı
kurtardıg
kurtarma
kurtarmak
kurtarmaya
kurtarmıs
kurtarıcı
kurtarıldı
kurtarır
kurtc
kurtlar
kurtulan
kurtuldu
kurtulmak
kurtulmus
kurtulur
kurtulus
kuru
kuruc
kurucu
kurucuları
kurucularından
kurucusu
kurucusudur
kurul
kurula
kurulacak
kurulan
kurularak
kuruldu
kuruldug
kurulduktan
kurulması
kurulmasına
kurulmasında
kurulmasından
kurulmasını
kurulmasının
kurulmasıyla
kurulmus
kurultay
kurultayı
kurulu
kuruludur
kurulum
kurulumu
kurulun
kuruluna
kurulunca
kurulunda
kurulunun
kurulur
kurulus
kurum
kuruma
kurumda
kurumlar
kurumlara
kurumlarda
kurumları
kurumların
kurumlarına
kurumlarında
kurumlarının
kurumsal
kurumu
kurumudur
kurumun
kurumuna
kurumunun
kurup
kurus
kurutulmus
kus
kusma
kusur
kusurlu
kusursuz
kusuz
kut
kutalmıs
kutbu
kutlama
kutlamak
kutlamaları
kutlanan
kutlu
kutsal
kutu
kutup
kutuphane
kutuplas
kutusu
kuva
kuvars
kuvayı
kuveyt
kuvvet
kuvveti
kuvvetin
kuvvetini
kuvvetinin
kuvvetle
kuvvetler
kuvvetleri
kuvvetlerin
kuvvetlerinde
kuvvetlerine
kuvvetlerini
kuvvetlerinin
kuvvetleriyle
kuvvetli
kuyrug
kuyruk
kuyruklu
kuyu
kuzeni
kuzey
kuzeybatı
kuzeybatısında
kuzeyde
kuzeydeki
kuzeyden
kuzeydog
kuzeye
kuzeyi
kuzeyinde
kuzeyindeki
kuzeyinden
kuzeyine
kuzgun
kuzu
kv
kw
kwon
kyiv
kyle
kylie
kyo
kyon
kyoto
kyu
kyung
kz
kı
kıbrıs
kıbrıslı
kıc
kıdemli
kıl
kılan
kılar
kılavuz
kılavuzu
kıldı
kıldıg
kılmak
kılmıs
kılıc
kılıcı
kılıg
kılınan
kılınmıs
kım
kın
kına
kınadı
kını
kınık
kıpc
kır
kırac
kıran
kırarak
kıratlı
kırbac
kırca
kırdı
kırgız
kırgızca
kırgızistan
kırk
kırklareli
kırkpınar
kırlangıc
kırma
kırmak
kırmıs
kırmızı
kırmızıya
kırs
kırsal
kırık
kırıkkale
kırıklıg
kırıldı
kırılgan
kırılma
kırılması
kırılmıs
kırım
kırımı
kıs
kısa
kısaca
kısacası
kısadır
kısaku
kısaltma
kısaltması
kısaltılmıs
kıskanc
kısma
kısmen
kısmi
kısmı
kısmın
kısmına
kısmında
kısmındaki
kısmından
kısmını
kısmının
kısım
kısımda
kısımdan
kısımlar
kısımları
kısımlarında
kısımlarını
kısıtlama
kısıtlamalar
kısıtlamaları
kısıtlandıg
kısıtlı
kıt
kıta
kıtalar
kıtalararası
kıtanın
kıtasal
kıtası
kıtasında
kıtasının
kıtlıg
kıtlık
kıvanc
kıvılcım
kıya
kıyafet
kıyafeti
kıyafetler
kıyafetleri
kıyamet
kıyasla
kıymetler
kıymetli
kıyı
kıyıları
kıyılarına
kıyılarında
kıyısı
kıyısına
kıyısında
kıyısındaki
kıyıya
kız
kıza
kızgın
kızkardes
kızlar
kızları
kızların
kızı
kızıdır
kızıl
kızılay
kızılbas
kızılcahamam
kızıldeniz
kızılderili
kızılderilileri
kızılo
kızıltepe
kızılırmak
kızım
kızın
kızına
kızını
kızının
kızıyla
l
la
lab
label
labor
laboratory
laboratuvar
laboratuvarı
labour
lac
lacivert
lacivertli
laden
ladies
ladik
ladin
lady
ladı
ladıg
ladıkları
ladıktan
ladılar
ladım
laf
lag
laga
lagrange
lagu
laguna
lahana
lahey
lahi
lahiyat
lai
laik
laiklik
lak
lakabı
lakabını
lakabıyla
lakaplı
lake
lakers
lakin
lala
lale
lam
lama
lamadan
lamak
lamakta
lamaktadır
lamaktır
lamalar
lamaları
lamanın
lamar
laması
lamasına
lamasından
lamasını
lamasının
lamasıyla
lamaya
lamayı
lamaz
lamb
lamba
lambda
lambert
lamda
lamlas
lamında
lamıs
lan
lana
lanabilir
lanacag
lanacak
lanan
lanarak
lancashire
lancaster
lance
lancet
land
landau
landing
lands
landscape
landı
landıg
landırma
lane
lanet
lang
lange
language
languages
langıc
langıcı
langıcında
langıcından
langıcını
lanham
lanka
lanma
lanmadı
lanmak
lanmaktadır
lanması
lanmasına
lanmasını
lanmıs
lannister
lantı
lantılar
lantıları
lantılı
lantılıdır
lantısı
lantısını
lantıya
lantıyı
lanıp
lanır
lanıyor
laos
lapseki
lar
lara
larda
lardaki
lardan
lardı
lardır
large
largest
laritesi
larken
larla
larlar
larousse
larry
lars
larsson
ları
larıdır
larım
larımız
larımızın
ların
larına
larında
larındaki
larından
larını
larının
larıyla
las
lasa
laser
last
lastik
lasyon
lasyonlar
lasyonları
lasyonu
lası
lat
latan
late
later
latest
latif
latin
latince
latino
latma
latmak
latmıs
lato
lattı
lattıg
lattılar
latılan
latıldı
latılmıs
latır
launch
launches
laura
lauren
laurence
laurent
laurie
lav
law
lawrence
laws
lawson
lay
layabilir
layacag
layacak
layacaktır
layan
layarak
layıcı
layık
layınca
layıp
laz
lazca
lazer
lazika
lazio
laziz
lazım
laɾ
lb
lbas
lbu
lc
lcd
lcu
ld
lde
ldeki
lden
ldi
ldu
le
lea
lead
leader
leaders
leadership
leading
leads
league
learn
learning
leary
least
leave
leaves
leaving
lebanon
leben
lebileceg
lebilen
lebilir
lebilmektedir
leburgaz
lec
leceg
lecek
lecektir
lecture
lectures
led
leden
ledger
ledi
ledig
ledikleri
lee
leeds
lefkos
left
leg
legacy
legal
legend
legendary
legends
legion
lego
leh
lehc
lehine
lehistan
leibniz
leicester
leicestershire
leiden
leigh
leighley
leipzig
lejyon
lejyonu
lek
leke
leler
lelerin
lelig
lelik
lem
leman
lemci
lemciler
lemcisi
lemde
leme
lemek
lemeli
lemenin
lemesi
lemeye
lemez
lemi
lemidir
lemin
leminde
lemine
lemini
leminin
lemis
lemler
lemleri
lemlerin
lemlerini
lemlerinin
len
lena
lence
lenceli
lendi
lendig
lendirdi
lendirilmesi
lendirilmis
lendirme
lendirmek
lene
lenen
lenf
length
leni
lenin
leningrad
leninist
lenir
lenler
lenlerin
lenme
lenmek
lenmesi
lenmis
lennon
lens
lent
leo
leon
leonard
leonardo
leone
leonid
leopard
leopold
leq
ler
lerbirlig
lerde
lerdeki
lerden
lerdi
lerdir
lere
lerek
leri
lerici
lerim
lerin
lerinde
lerindeki
lerinden
lerine
lerini
lerinin
leriyle
lerle
lerles
lerleyen
lerlig
lerlik
leryu
les
lesbian
lescharts
lesi
leslie
lesnar
lesotho
less
lessons
lester
let
leten
leti
letildi
letilen
letilmektedir
letilmesi
letilmis
letim
letis
letme
letmecilig
letmek
letmeler
letmeleri
letmelerin
letmenin
letmesi
letmeye
letmis
letonya
letter
letters
letti
leucauge
lev
levant
level
levent
leverkusen
levha
levhası
levi
levin
levine
levini
levleri
levlerini
levon
levsel
levsellig
levy
lewis
lex
lexicon
lexikon
lexington
leydi
leyen
leyerek
leyici
leyis
leyla
leyli
leyman
leymaniye
lez
lezbiyen
lezzet
leɾ
lfat
lfp
lfu
lg
lga
lgbt
lge
lgede
lgedeki
lgeden
lgedir
lgeler
lgelerde
lgelerdeki
lgelerden
lgelere
lgeleri
lgelerin
lgelerinde
lgelerindeki
lgelerinden
lgelerine
lgelerini
lgelerinin
lgen
lgenin
lgesel
lgesi
lgesidir
lgesinde
lgesindeki
lgesinden
lgesine
lgesini
lgesinin
lgeye
lgeyi
lgi
lgili
lgiller
lgu
lhak
lham
lhamid
lhamit
lhan
lhanlı
li
lia
liam
lib
liberal
liberalizm
liberation
libertadores
liberty
liberya
libraries
library
libre
libretto
libya
lic
lice
license
lide
lider
lideri
lideridir
liderler
liderleri
liderlerinden
liderlerinin
liderlig
liderlik
lidir
lidya
lie
liebe
lies
lif
life
lifetime
lig
liga
ligde
ligdeki
ligden
lige
light
lightning
lights
ligi
ligin
liginde
ligine
liglerde
liglerinde
ligue
lihtens
lik
like
liko
likspor
likya
lil
liler
lille
lily
lim
lima
liman
limana
limanı
limanına
limit
limited
limits
limler
limon
lin
linc
lincoln
lincolnshire
linda
linde
linden
lindsay
lindsey
line
linear
lineer
liner
lines
ling
linguistic
linguistics
lini
linin
link
linkin
links
linnaeus
linnean
linus
linux
linyphiidae
lio
lion
lionel
lions
lipa
lippi
liquid
lira
lirası
lirik
lis
lisa
lisan
lisans
lisanslı
lisansu
lisansı
lisansını
lise
lisede
liseden
lisesi
lisesinde
liseyi
lisi
lislam
list
lista
liste
listede
listedeki
listelenen
listelenmis
listeler
listelerde
listelere
listeleri
listelerinde
listelerine
listen
listenin
listesi
listesidir
listesinde
listesinden
listesine
listesini
listesinin
listeye
listing
listings
lists
lit
lite
literary
literatu
literature
lithuania
litre
little
littlefield
litvanca
litvanya
lityum
liu
liv
live
liverpool
lives
living
livorno
lix
liyakat
liz
lizbon
ljubljana
lk
lkadir
lkbahar
lke
lkede
lkedeki
lkeden
lkedir
lkeler
lkelerde
lkelerdeki
lkelerden
lkelere
lkeleri
lkelerin
lkelerinde
lkelerinden
lkelerine
lkelerini
lkelerinin
lkelerle
lkemizde
lkemizin
lkenin
lker
lkerim
lkesi
lkesinde
lkesinden
lkesine
lkesini
lkesinin
lkeye
lkeyi
lki
lkiye
lkiyede
lkiyet
lkiyeti
lko
lkokul
lkokulu
lku
ll
lla
llc
lle
llendirildi
llendirilmis
ller
llerde
llerden
llere
lleri
llerin
llerinde
llerinden
llerine
llerini
llerinin
lli
lliyesi
lloyd
llu
lm
lme
lmecid
lmeden
lmedi
lmedig
lmek
lmekte
lmektedir
lmemis
lmesi
lmesinde
lmesinden
lmesine
lmesini
lmesinin
lmesiyle
lmeye
lmeyen
lmeyi
lmez
lmi
lmu
ln
lo
loan
lobi
loc
local
location
lock
locke
lockheed
log
logan
logic
logo
logos
logosu
loire
lois
lojistik
lokal
loki
lokomotif
lokomotiv
lola
lombardiya
london
londra
lonely
long
longer
longman
look
looking
looks
loop
lopez
lord
lordu
loren
lorentz
lorenz
lorenzetti
lorenzo
lori
lorraine
los
lose
loss
lost
lot
lotus
lou
loud
louis
louisa
louise
louisiana
louvre
love
lover
lovers
loves
loving
low
lowe
lower
loz
lozan
lp
ls
lse
lsever
lsu
lt
ltd
lte
lteci
lteciler
ltekin
lten
lteni
ltepe
ltesi
ltesinde
ltesinden
ltesine
ltu
lu
lubiyet
luc
luca
lucas
lucca
lucia
luciano
lucien
lucius
luck
lucky
lucy
ludur
ludwig
luftwaffe
lug
lui
luigi
luis
luiz
luk
luka
lukas
luke
luklar
lular
lum
luma
lumia
luna
lunar
lunu
lunun
lup
luther
lutz
luxembourg
luydu
lviv
ly
lya
lyas
lycium
lydia
lye
lyesi
lyesinde
lynch
lynn
lynx
lyon
lyrics
lı
lıca
lıdır
lıg
lık
lıkla
lıklar
lıkları
lıklı
lıktan
lılar
lıların
lılıg
lılık
lıydı
lıyken
lıyor
lıyordu
m
ma
maa
maalesef
maarif
maas
mabel
mac
macar
macarca
macaristan
macarlar
macbeth
maccabi
macdonald
macedonia
macera
maceraları
macerası
mach
machine
macintosh
mack
mackenzie
mackolik
macmillan
macos
macı
macılar
mad
mada
madagaskar
madalya
madalyanın
madalyası
madalyasını
madalyayı
madam
madame
madan
madde
maddede
maddeden
maddeler
maddelerden
maddelere
maddeleri
maddelerin
maddelerinin
maddenin
maddesi
maddesinde
maddesine
maddesinin
maddesiyle
maddeye
maddeyi
maddi
made
madeleine
maden
madencilig
madencilik
madeni
madison
madness
madonna
madrid
madı
madıg
madır
mae
mafia
mafya
mag
magazin
magazine
maggie
magic
magma
magna
magnetic
magnezyum
magnificent
magnum
magnus
magyar
mah
mahal
mahalle
mahallede
mahalleden
mahalledir
mahalleleri
mahallenin
mahallesi
mahallesidir
mahallesinde
mahallesine
mahallesinin
mahalleye
mahalli
mahasz
mahir
mahkeme
mahkemece
mahkemede
mahkemeler
mahkemeleri
mahkemenin
mahkemesi
mahkemesinde
mahkemesine
mahkemesinin
mahkemeye
mahku
mahkum
mahmud
mahmut
mahrum
mahs
mahsur
mahsus
mai
maia
maiden
mail
main
maine
mainstream
mainz
majo
major
mak
makale
makalede
makaleler
makaleleri
makalenin
makalesi
makalesinde
makam
makama
makamları
makamı
makamına
makamında
makao
make
makedon
makedonca
makedonya
maker
makes
maki
makina
makine
makineler
makineleri
makineli
makinesi
making
makla
makoto
makro
maksadıyla
maksim
maksimum
makta
maktadır
maktadırlar
maktan
maktaydı
makul
makyaj
mal
mala
malar
malara
malarda
malardan
malarla
maları
maların
malarına
malarında
malarından
malarını
malarının
malarıyla
malatya
malatyaspor
malavi
malay
malaya
malaysia
malazgirt
malcolm
male
malezya
mali
malik
maliye
maliyet
maliyeti
maliyetleri
maliyetli
malkara
mall
mallar
malları
malların
mallarını
mallorca
mallory
malmo
malone
malta
maltepe
malu
malzeme
malzemeden
malzemeler
malzemelerden
malzemeleri
malzemelerin
malzemenin
malzemesi
malı
malıdır
malın
mam
mama
mamak
maması
mamia
mammal
mammals
mamog
mamıs
man
mana
management
manager
manas
manastır
manastıra
manastırı
manastırın
manasına
manavgat
manc
manca
manchester
mancini
manda
mandarin
mandası
manet
manevi
manevra
manfred
manga
mango
manhattan
mani
mania
manifesto
manila
manipu
manisa
manisaspor
manist
manken
manlar
manlara
manlardan
manları
manların
manlarını
manlarının
manlıg
manlık
mann
mannheim
mano
mans
mansiyon
manson
mansur
mantal
mantar
mantegna
manto
mantua
mantıg
mantık
mantıklı
mantıksal
manual
manuel
manufacturing
manuil
many
manyetik
manzara
manzarası
manı
manın
mao
map
maps
mar
mara
maras
maraton
marc
marcel
marcello
marcelo
march
marche
marco
marcos
marcus
mardin
mare
marek
mares
margaret
marge
marguerite
mari
maria
mariah
marian
mariana
marianne
marie
marilyn
marin
marina
marine
marino
mario
marion
maritime
mariupol
marius
mariya
marjinal
mark
marka
markalar
markaları
markalı
markanın
markası
markasıdır
market
marketing
markets
marko
marks
marksist
marksizm
markus
marmara
marmaray
marmaris
marne
maroon
marriage
married
mars
marseille
marsh
marshall
marsilya
mart
marta
marth
martha
marti
martin
martina
martindale
martinez
martini
marty
martı
maruz
marvel
marvin
marx
mary
maryland
mas
masa
masaccio
masal
masalları
masalı
masası
masau
masaya
mask
maske
maskeli
maskesi
masolino
mason
masrafları
mass
massachusetts
massacre
massimo
massive
master
mastering
masterpieces
masters
masum
ması
masıdır
masına
masında
masından
masını
masının
masıyla
masız
mat
mata
matbaa
matbaacılık
matbaası
match
matches
mate
matematig
matematik
matematikc
matematiksel
matematikte
material
materials
materyal
materyaller
math
mathbb
mathbf
mathcal
mathematical
mathematics
mathieu
mathrm
matilda
mato
matris
matrix
matt
matta
matteo
matter
matters
matthew
matthews
matthias
maurice
mauritius
mavericks
mavi
mavisi
max
maxi
maxim
maximilian
maximum
maximus
maxwell
may
maya
mayan
mayer
mayla
maymun
maymunlar
mayo
mayor
mayun
mayı
mayın
mayıs
maz
mazda
mazgirt
mazhar
mazlum
mazlıg
mazlık
mazlıklar
mazlıkları
mb
mbc
mbox
mbu
mc
mccarthy
mccartney
mcdonald
mcek
mcfarland
mcgill
mcgraw
mcintyre
mclaren
mcmahon
mcu
md
mdar
mdarları
mdarlıg
mdarlık
mdarı
mdarın
mde
mdeki
mden
mdi
mdu
me
mean
meaning
means
meat
meb
mebu
mebusan
mebusu
mec
mecaz
mecbur
mecburi
mechanics
mechanisms
mecidiye
mecidiyeko
mecli
meclis
meclise
meclisi
meclisin
meclisinde
meclisine
meclisinin
mecliste
mecmuası
mecnun
med
medal
mede
medea
meden
medeni
medeniyet
medeniyeti
medi
media
medianet
medical
medici
medicine
medien
medieval
medig
medikal
medina
medine
medir
meditasyon
mediterranean
medium
medrese
medresesi
medvedev
medya
medyada
medyanın
medyası
medyaya
meet
meeting
meets
meg
mega
megadeth
megan
mehdi
mehmed
mehmet
mei
meiji
mein
mek
meka
mekan
mekanda
mekanig
mekanik
mekanize
mekanizma
mekanizmaları
mekanizması
mekanı
mekig
mekke
mekle
meksika
meksikalı
meksiko
mekte
mekteb
mektebi
mektedir
mekten
mektubu
mektubun
mektubunda
mektup
mektuplar
mektupları
mektupta
mel
mela
melanie
melbourne
meleg
melek
melekler
meler
melerde
melerden
melere
meleri
melerin
melerinde
melerinden
melerine
melerini
melerinin
melerle
melez
meli
melih
melik
meliks
melis
melissa
melo
melodi
melodifestivalen
melodik
melody
meltem
mem
member
members
membran
memduh
meme
memek
memeli
memeliler
memesi
memis
memleket
memleketi
memleketin
memlu
memnun
memnuniyetle
memoir
memoirs
memorial
memories
memory
memphis
memur
memurlar
memurları
memurlug
memuru
men
mena
menajer
menajeri
mend
menderes
mendes
mendoza
mene
meneks
menemen
menfaat
mengen
meni
menik
menin
menkul
menler
menlerden
menlere
menleri
menlerin
mens
mensubu
mensup
mensupları
mensuplarının
mensuptur
ment
mental
mentes
mento
menu
menutti
menzil
menzili
menzilli
mer
mera
merak
meraklı
meral
mercan
mercedes
merceg
mercek
mercekli
merceksi
mercer
mercury
mercy
merdiven
mere
meredith
mereti
merhaba
merhamet
merhum
meri
meric
meridyeni
merkel
merkez
merkezde
merkezden
merkeze
merkezi
merkezidir
merkezin
merkezinde
merkezindeki
merkezinden
merkezine
merkezini
merkezinin
merkeziydi
merkezleri
merkezlerinde
merkezlerinden
merkezli
merku
merli
merlin
mermer
mermi
mermisi
merr
merriam
merry
mersin
mert
merve
meryem
merzifon
mes
mesa
mesafe
mesafede
mesafededir
mesafeden
mesafeli
mesafesi
mesaj
mesajda
mesajlar
mesajları
mesajlas
mesajı
mescid
mescidi
mescit
mesela
mesele
meseleleri
meselesi
mesi
mesidir
mesih
mesinde
mesinden
mesine
mesini
mesinin
mesiyle
mesleg
meslek
mesleki
meslekler
meslektas
mesnevi
message
messenger
messi
messier
messina
mesud
mesudiye
mesut
met
meta
metabolik
metacritic
metafizik
metal
metalik
metalin
metaller
metallica
metalurji
metan
mete
meteor
meteoroloji
method
methods
meti
metil
metin
metinde
metinden
metine
metini
metinin
metinler
metinlerde
metinleri
metinlerin
metis
metler
metleri
metne
metni
metnin
metodu
metot
metraj
metrajlı
metre
metrede
metreden
metredir
metrekare
metrekarelik
metrelik
metres
metresi
metreye
metreyi
metrik
metro
metrobu
metropol
metropolitan
metropoliten
metrosu
mette
metten
metuchen
metz
mevcut
mevcuttu
mevcuttur
mevki
mevkii
mevkiinde
mevla
mevlana
mevlevi
mevlu
mevsim
mevsimi
mevsiminde
mevsimler
mevzu
mevzuat
mexican
mexico
mey
meydan
meydana
meydanda
meydanı
meydanında
meye
meyeceg
meyen
meyer
meyi
meyle
meyve
meyveler
meyveleri
meyvesi
mez
mezar
mezara
mezarlar
mezarları
mezarlıg
mezarlık
mezarı
mezarın
mezarının
mezbu
mezhebi
mezhep
mezku
mezopotamya
mezra
mezun
mezuniyet
mezunları
mezunu
mezunudur
mfa
mg
mge
mgeneral
mgm
mh
mhp
mhz
mi
mia
miami
micaria
mich
michael
michaels
michel
michelangelo
michele
michelle
michelozzo
michigan
mick
mickey
micro
microbiology
microsoft
mid
middle
middlesbrough
mide
midi
midilli
midir
midnight
midyat
mie
mifflin
mig
might
mighty
migration
miguel
mihail
mihver
mika
mike
mikhail
mikro
mikrodalga
mikrofon
mikrois
miktar
miktarda
miktarlarda
miktarı
miktarını
miktarının
mil
miladi
milan
milano
milas
milattan
mile
miles
miley
mili
milimetre
milis
militan
military
milk
mill
millennium
miller
millet
millete
milleti
milletimizin
milletin
milletinin
milletler
milletlerarası
milletlerin
milletvekili
milletvekilidir
milletvekilinin
milletvekilleri
milletvekillerinin
milletvekillig
milli
million
milliye
milliyet
milliyetc
mills
milne
milo
milos
milton
milwaukee
milyar
milyon
milyona
milyondan
milyonlarca
milyonluk
milyonu
milyonun
mimar
mimari
mimarisi
mimarisinde
mimarisinin
mimarlar
mimarlıg
mimarlık
mimarı
min
mina
minaj
minare
minaresi
minas
mind
mindat
minds
mine
minecraft
mineral
mineraller
ming
mini
minibu
minik
minimum
minister
ministry
minneapolis
minnesota
mino
minogue
minor
minority
minsk
minute
minutes
minyatu
minyum
mio
mir
mira
miracle
miranda
miras
mirasc
mirasları
mirası
miriam
mirror
mirza
mis
misafir
misilleme
misin
misiniz
miss
missile
missing
mission
mississippi
missouri
mistik
misyon
misyoner
misyonu
mit
mitch
mitchell
mithat
miting
mitingi
mitoloji
mitolojik
mitolojisi
mitolojisinde
mitolojisindeki
mitsubishi
mix
mixed
mixtape
miy
miydi
miyer
miyeri
miyerini
miyosen
miz
mizah
mizahi
mj
mk
mke
mku
ml
mle
mleg
mlek
mlekc
mleler
mleme
mler
mlerde
mlerden
mlere
mleri
mlerin
mlerinde
mlerinden
mlerine
mlerini
mlerinin
mleriyle
mlesi
mls
mlu
mm
mme
mmu
mn
mnet
mo
mobil
mobile
mobilya
mod
moda
mode
model
modelde
modeldir
modeli
modelidir
modelin
modelinde
modeline
modelini
modelinin
modelleme
modeller
modellerde
modelleri
modellerin
modellerinde
modellerinin
modellik
models
modena
modern
modernist
modernize
modernles
modifiye
modu
modunda
mog
mohamed
mohammad
mohammed
moi
mojo
mol
mola
moldova
molecular
moleku
molina
molla
molly
mom
moment
moments
momentum
mon
mona
monaco
monako
monars
monday
monde
mondo
mondros
money
monica
monito
monitor
monkey
mono
monroe
monster
monsters
mont
montaj
montana
monte
montenegro
montevideo
montgomery
month
monthly
months
montpellier
montreal
monument
monuments
monza
moody
moon
moore
mor
mora
moral
morales
moran
more
moreno
morfolojik
morgan
mori
moritanya
moritz
morning
moro
morris
morrison
morse
mort
mortal
morton
mos
moscow
moses
moskova
moskva
mosque
moss
most
mother
motif
motion
motive
moto
motor
motora
motorlar
motorları
motorlu
motorola
motors
motorsport
motoru
motorun
motorunun
motosiklet
motta
mount
mountain
mountains
mouse
move
movement
movements
moves
movie
movies
moving
mozaik
mozambik
mozart
mozilla
mp
mparator
mparatoric
mparatorlug
mparatorluk
mparatoru
mpc
mpeg
mph
mr
mralı
mran
mraniye
mranlı
mre
mrna
mrs
mru
ms
msn
msu
msword
mt
mtaz
mtv
mu
mua
muaf
muallim
muamele
muammer
muaviye
muayene
muazzam
much
mucidi
mucit
mucize
mudanya
mudurnu
mufassal
mug
muha
muhabbet
muhabere
muhabir
muhabiri
muhafaza
muhafazaka
muhafazakar
muhafız
muhafızlar
muhafızları
muhafızı
muhakkak
muhalefet
muhalefeti
muhalefetin
muhalif
muhammad
muhammed
muhammet
muharebe
muharebede
muharebenin
muharebesi
muharebesinde
muharebeye
muharrem
muhasebe
muhittin
muhsin
muhtac
muhtar
muhtelif
muhtemel
muhtemeldir
muhtemelen
muhterem
muhtes
mukaddes
mukavelesi
mukavemet
multi
multiple
mum
mumbai
mumcu
mun
mundo
munich
municipal
municipalities
municipality
mur
mura
murad
muradiye
murat
murcia
murder
murdoch
murphy
murray
muru
mus
musa
muse
museo
museum
musevi
music
musical
musicians
musicline
musictoptr
musik
musiki
musk
muslim
muslims
mussolini
must
mustafa
mustafakemalpas
musul
musun
musunuz
mut
mutabakat
mutant
mutfag
mutfak
mutki
mutlak
mutlaka
mutlu
mutlulug
mutluluk
mutsuz
muvaffak
muvahhid
muyor
muz
muzaffer
muzdarip
mv
mvp
mw
mx
my
myanmar
mycomicshop
myers
mynet
myo
myrmarachne
myspace
mysterious
mystery
myth
mythology
myths
mza
mı
mıdır
mıs
mısın
mısınız
mısır
mısırlı
mısırlılar
mızrak
n
na
naas
nabla
nac
nach
naci
nacional
nad
nadi
nadia
nadir
nadirdir
nadiren
nag
nagorno
nagoya
nah
nahc
nahiye
nahiyeler
nahiyesi
nahiyesine
nahiyesinin
nai
naibi
nail
naim
nak
nakamura
nakc
naked
nakil
nakit
nakledildi
nakli
nakliyat
nakliye
naks
nakıs
nal
nalan
nalcık
nallıhan
nam
namaz
namazı
name
named
names
namibya
namlu
namus
namık
namına
nan
nana
nanc
nancy
nane
nano
nantes
naomi
naples
napoleon
napoli
napolyon
nar
nara
narin
narman
narrative
naruto
nas
nasa
nash
nashville
nasip
nasr
nasreddin
nassau
nasyonal
nasıl
nasır
nat
natalia
natalie
natalya
natasha
nate
nathan
nathaniel
nation
national
nationale
nationalism
nations
native
nato
natu
natur
natural
nature
nauru
naval
navarro
naver
navigasyon
navy
nay
nayak
naydın
naylon
naz
nazan
nazar
nazaran
nazarbayev
nazi
nazif
nazik
naziler
nazilerin
nazilli
nazionale
nazlı
nazmi
nazım
nazırlıg
nazırı
nba
nbc
nc
nca
ncaa
ncbi
nce
nceden
nceki
ncel
nceleme
nceler
nceleri
ncelerini
ncelig
ncelik
ncelikle
ncelikli
ncelleme
ncellemesi
ncellenmis
ncelles
ncenin
ncesi
ncesinde
ncesinden
ncesine
ncesini
ncesinin
ncesiyle
nceye
nceyi
nchen
nchengladbach
nchez
nci
ncil
ncili
ncu
ncı
nd
nda
ndaki
ndan
ndar
nde
ndedir
ndeki
ndelik
ndem
ndeme
ndemi
nden
nder
nderdi
nderdig
nderen
ndererek
nderi
nderildi
nderildig
nderilen
nderilir
nderilmesi
nderilmis
nderir
nderlig
nderlik
nderme
ndermek
ndermeye
ndermis
ndeydi
ndez
ndog
ndu
ne
neal
near
nearly
nebilir
nebolu
nebraska
nebula
nec
necati
necdet
neceg
necek
necessary
necip
necmettin
necmi
ned
neden
nedenden
nedeni
nedenini
nedeninin
nedeniyle
nedenle
nedenler
nedenlerden
nedenleri
nedenlerinden
nedenlerle
nederlandse
nedim
nedir
need
needs
nefer
nefes
nefret
negatif
nego
negro
nehir
nehirdir
nehirler
nehirleri
nehirlerinin
nehri
nehrin
nehrine
nehrinin
neil
neill
nejat
nek
nel
neldi
nelen
neler
neli
nelik
nelim
nelimli
nell
nella
nellie
nelly
nelme
nelmis
nelson
nem
nemde
nemdeki
nemden
nemdir
neme
nemi
nemin
neminde
nemindeki
neminden
nemine
nemini
neminin
nemki
nemler
nemlerde
nemlere
nemleri
nemlerinde
nemli
nemlidir
nemlisi
nemliydi
nemsiz
nen
nene
neo
neoklasik
neolitik
neon
nepal
neptu
ner
nerde
nerdi
nerdig
nerede
nereden
neredeyse
nerek
nereye
neri
nerildi
nerilen
neriler
nerileri
nerilir
nerilmis
neriman
nerir
nerisi
nerken
nerler
nermin
nermis
nero
nes
nesans
nesi
nesil
nesiller
nesin
nesir
nesli
nesne
nesnel
nesneler
nesneleri
nesnelerin
nesnenin
nesnesi
nesneyi
nesrin
nesticus
nestle
nestor
net
netanyahu
neten
netflix
netherlandish
netherlands
netice
neticesi
neticesinde
netici
neticiler
neticileri
neticilerin
neticilerinin
neticilig
neticilik
neticisi
netildi
netilen
netilir
netilmektedir
netilmis
netim
netimde
netime
netimi
netimin
netiminde
netimindeki
netiminden
netimine
netimini
netiminin
netimler
netir
netles
netme
netmek
netmelig
netmelik
netmen
netmeni
netmenin
netmenler
netmenleri
netmenlig
netmenlik
netmeye
netmis
nets
netti
nettig
network
networks
neue
neumann
neuroscience
nev
neva
nevada
never
nevi
neville
nevin
nevruz
nevs
nevzat
new
newcastle
newman
newport
news
newsletter
newspaper
newspapers
newsweek
newton
next
nexus
ney
neybatı
neybatıda
neybatısında
neyde
neydeki
neyden
neydi
neydog
neye
neyi
neyin
neyinde
neyindeki
neyinden
neyine
neyse
neyt
nez
nezareti
nezdinde
nf
nfaz
nfl
ng
nga
ngc
nge
ngede
ngel
ngen
ngenler
nger
ngesi
ngesinde
ngeye
ngiliz
ngilizce
ngilizcede
ngilizcesi
ngilizceye
ngilizler
ngilizlerin
ngiltere
ngo
ngu
ngus
nh
ni
nia
nic
nica
niccolo
nice
nicholas
nichols
nicholson
nicht
nick
nickelodeon
nicki
nico
nicola
nicolas
nicole
nie
niels
nielsen
nietzsche
nig
nigel
nigeria
night
nightmare
nights
nih
niha
nihai
nihal
nihat
nihayet
nihayetinde
nijer
nijerya
nijeryalı
nijman
nik
nika
nikaragua
nikasyon
nike
nikel
nikiforos
nikita
nikki
niko
nikola
nikolai
nikolay
nikoloz
nikos
niksar
nil
nilgu
nilsson
nilu
nimet
nin
nina
nine
nineteenth
ninja
nino
nintendo
nio
nippon
nir
nirvana
nis
nisa
nisan
nisanyanmap
nispeten
nissan
nist
nistler
nite
nitekim
nitelendirdi
nitelendirilen
nitelig
nitelik
nitelikleri
nitelikli
nitelikte
niter
nitesi
nitrat
niversite
niversitede
niversiteden
niversiteler
niversitelerde
niversiteleri
niversitelerin
niversitelerinde
niversitenin
niversitesi
niversitesidir
niversitesinde
niversitesinden
niversitesine
niversitesinin
niversiteye
niversiteyi
nixon
niyazi
niye
niyet
niyeti
niyetli
niza
nizam
nizip
nizm
nj
njpw
nk
nka
nku
nkvd
nkıla
nkılap
nl
nland
nlar
nları
nle
nlem
nleme
nlemek
nlemeye
nlemler
nlemleri
nlendi
nlendirme
nlendirmek
nlenmesi
nlenmis
nler
nlerde
nlerden
nlere
nleri
nlerin
nlerinde
nlerinden
nlerine
nlerini
nlerinin
nleriyle
nlerle
nles
nleyici
nlu
nm
nme
nmeden
nmek
nmektedir
nmesi
nmesine
nmesini
nmesiyle
nmeye
nmeyen
nmeyi
nmez
nmu
nnet
nni
no
noah
nobel
nobelprize
nobita
noble
nobody
noe
noel
nohut
noir
noise
nokia
nokta
noktada
noktadan
noktalar
noktaları
noktalarından
noktalı
noktanın
noktası
noktasıdır
noktasına
noktasında
noktasından
noktasını
noktasının
noktaya
noktayı
nolan
nolu
nomenclature
nominal
nominations
nominees
non
nonstandard
nor
nora
nord
nordic
norfolk
norm
normal
normalde
normale
normalles
norman
normandiya
norris
norte
north
northamptonshire
northern
northwest
northwestern
norton
norvec
norway
norwegian
norwich
nos
not
nota
note
notes
nothing
notice
notices
notlar
notları
notre
nottingham
nottinghamshire
notu
nous
nouveau
nouvelle
nov
nova
novel
november
novgorod
novi
novo
novosti
now
noyan
npr
nr
ns
nsa
nsal
nsan
nsani
nsanlar
nsanları
nsanların
nsanlıg
nsanlık
nsanı
nsanın
nsdap
nse
nsel
nso
nster
nsu
nsız
nt
ntekin
ntem
ntemdir
ntemi
ntemidir
ntemin
ntemini
ntemiyle
ntemle
ntemler
ntemleri
ntemlerin
ntemlerini
ntemlerle
nter
nternet
nther
ntikam
ntu
ntv
ntvmsnbc
ntvspor
nu
nuclear
nuevo
nufusu
nufusune
nuh
nuit
num
numan
numara
numarada
numaradan
numaralandırılan
numaralandırılmıs
numaraları
numaralı
numarası
numarasını
numaraya
numarayı
number
numbers
numune
nun
nuova
nur
nureddin
nurettin
nuri
nursi
nurullah
nusaybin
nusret
nussbaum
nut
nutrition
nutuk
nwa
nxt
ny
nya
nyaca
nyada
nyadaki
nyadan
nyalar
nyanın
nyası
nyasına
nyasında
nyasındaki
nyasını
nyasının
nyaya
nyayı
nye
nyesinde
nyesindeki
nyesine
nyevi
nytimes
nyu
nz
nı
nın
nına
nında
nını
o
oak
oakland
oaks
oannis
ob
oba
obama
oban
obi
obituary
object
objects
objektif
oblast
oblastı
observations
observatory
observer
obsolete
obu
oc
oca
ocag
ocak
ocakları
occupancy
occupation
ocean
och
oclc
oct
octavo
october
ocug
ocuk
ocukken
ocuklar
ocuklara
ocuklarda
ocukları
ocukların
ocuklarına
ocuklarını
ocuklarının
ocuklu
ocuklug
ocukluk
od
oda
odabas
odada
odag
odak
odaklanan
odaklandı
odaklanmaktadır
odaklanmıs
odaklanır
odaklı
odalar
odaları
odanın
odası
odasına
odasında
odatv
odaya
oder
odessa
odin
odtu
odun
odur
odyssey
oecd
of
off
offensive
office
officer
official
officially
officials
oficia
ofis
ofisi
ofisinde
ofisleri
ofo
og
oh
ohio
oil
ois
oise
ok
oka
okan
okay
okc
oklahoma
okları
oklu
oklug
okluk
okrug
oks
oksijen
oksit
oktan
oktay
oku
okudu
okudug
okuduktan
okul
okula
okulda
okuldaki
okuldan
okullar
okullara
okullarda
okulları
okulların
okullarında
okulu
okulun
okuluna
okulunda
okulundan
okulunu
okulunun
okuma
okumak
okumaya
okumayı
okumus
okunan
okunması
okunup
okunur
okunus
okur
okurken
okuyan
okuyarak
okuyucu
okuyup
okyanus
okyanusu
okyanusya
ol
ola
olabildig
olabileceg
olabilecek
olabilen
olabilir
olabilirdi
olabilirler
olabilmek
olabilmektedir
olabilmesi
olacag
olacak
olacaktı
olacaktır
olag
olak
olakog
olamadı
olamamıs
olamayacag
olamaz
olan
olana
olanag
olanak
olanakları
olanlar
olanlara
olanlardan
olanları
olanların
olanı
olanıdır
olanın
olarak
olası
olasıdır
olasılıg
olasılık
olasılıkla
olay
olaya
olayda
olaydan
olayla
olaylar
olaylara
olaylarda
olaylardan
olaylarla
olayları
olayların
olaylarını
olaylarının
olayı
olayın
olayına
olayını
olayının
olca
olcay
old
oldest
oldu
oldug
olduk
oldukc
oldukları
olduklarına
olduklarından
olduklarını
olduktan
oldular
oldum
oldı
ole
oleg
olga
olgu
olgun
olgunlas
olgunlug
olimpik
olimpiyat
olimpiyatlarda
olimpiyatları
olimpiyatlarında
olistan
oliveira
oliver
olivia
olivier
ollar
olların
olma
olmadan
olmadı
olmadıg
olmadıkc
olmadıkları
olmadıklarını
olmag
olmak
olmakla
olmaksızın
olmakta
olmaktadır
olmaktan
olmaktır
olmaları
olmalarına
olmalarını
olmalı
olmalıdır
olmama
olmamak
olmamakla
olmaması
olmamasına
olmamıs
olmanın
olmasa
olmasaydı
olması
olmasıdır
olmasın
olmasına
olmasında
olmasından
olmasını
olmasının
olmasıydı
olmasıyla
olmaya
olmayabilir
olmayacag
olmayacak
olmayacaktır
olmayan
olmayanlar
olmayı
olmayıp
olmaz
olmazsa
olmus
olmuyor
olsa
olsalar
olsam
olsaydı
olschki
olsen
olsun
oltu
olub
oluk
olumlu
olumsuz
olun
olunan
olunca
olundu
olundug
olunması
olunmus
olunur
olup
olur
olurdu
olurken
olurlar
olursa
olursak
olus
oluyor
oluyordu
olympia
olympic
olympics
olympique
om
omar
omega
omuz
on
ona
onarım
onat
onay
onayladı
onaylamıs
onaylanan
onaylandı
onaylanmıs
onayı
onbas
onbes
once
onda
ondalık
ondan
one
ones
ongoing
oniki
onlar
onlara
onlarca
onlardan
onlarla
onları
onların
online
only
ono
ons
ontario
onu
onun
onuncu
onunla
onur
onurlu
onursal
onuruna
op
opel
open
opening
opens
opera
operasyon
operasyonda
operasyonel
operasyonlar
operasyonları
operasyonu
operasyonun
operası
operation
operations
operato
operatorname
opinion
oppo
opposition
optical
optik
optimize
opus
or
ora
oracle
orada
oradaki
oradan
orak
oral
oran
oranda
orange
oranla
oranları
orantılı
orantılıdır
oranı
oranın
oranına
oranında
oranını
oranının
oranıyla
oray
oraya
orayı
orba
orbası
orbit
orbital
orc
orchestra
ord
orda
order
orders
ordu
orduda
ordudan
ordular
orduları
ordularını
ordularının
ordunun
orduspor
ordusu
ordusuna
ordusunda
ordusundan
ordusunu
ordusunun
ordusuyla
orduya
orduyla
orduyu
ore
oregon
org
organ
organic
organik
organisation
organizasyon
organizasyonda
organizasyonlar
organizasyonu
organizasyonudur
organizasyonun
organization
organizato
organize
organizma
organizmalar
organizmaların
organizmanın
organlar
organları
organların
organlarının
organı
organıdır
orgeneral
orhan
orhun
ori
oricon
orient
oriental
orientale
orientation
origin
original
originally
originals
origins
orijinal
orijinali
orion
orkestra
orkestrası
orlando
orleans
orlu
orman
ormana
ormanda
ormanlar
ormanlarda
ormanları
ormanların
ormanlık
ormanı
ormanın
ornithodoros
ornitolog
oro
ort
orta
ortac
ortada
ortadaki
ortadan
ortadog
ortag
ortak
ortakları
ortaklas
ortaklıg
ortaklık
ortako
ortalama
ortalamaları
ortalamalarıyla
ortalaması
ortalarına
ortalarında
ortalarından
ortam
ortama
ortamda
ortamlarda
ortamı
ortamın
ortamına
ortamında
ortamının
ortao
ortaokul
ortaokulu
ortası
ortasına
ortasında
ortasındaki
ortasından
ortaya
orthodox
ortiz
ortodoks
orton
oruc
oruh
orum
os
osaka
osborne
oscar
oscars
osetya
oskar
oslo
osman
osmancık
osmangazi
osmani
osmaniye
osmanlı
osmanlıca
osmanlılar
osmanlılara
osmanlıların
osprey
ost
oswald
ot
ota
otel
otelde
otele
oteli
otelin
other
others
otis
otlar
oto
otobiyografik
otobu
otomatik
otomobil
otomobili
otomobilin
otomobiller
otomotiv
otonom
otopark
otorite
otoriter
otoritesi
otoritesine
otoritesini
otoyol
otoyolu
otsu
ottawa
otto
ottoman
otu
oturan
oturdu
oturdug
oturma
oturmak
oturmus
oturum
oturup
oturur
otuz
ou
our
out
outbreak
outlook
outside
outstanding
ov
ova
ovacık
oval
ovası
over
overline
overview
ovu
ovunda
owen
owens
own
oxford
oxfordshire
oxyopes
oy
oya
oybirlig
oyla
oylama
oylamada
oylaması
oyları
oyların
oyma
oymag
oymak
oynadı
oynadıg
oynadıkları
oynadıktan
oynadılar
oynama
oynamak
oynamaktadır
oynaması
oynamaya
oynamayı
oynamıs
oynanabilir
oynanacak
oynanan
oynandı
oynanmıs
oynanır
oynanıs
oynar
oynarken
oynayacag
oynayan
oynayarak
oynayıp
oynuyor
oysa
oyu
oyulmus
oyun
oyuna
oyuncak
oyuncu
oyuncudur
oyuncular
oyunculara
oyunculardan
oyuncularla
oyuncuları
oyuncuların
oyuncularından
oyunculu
oyunculug
oyunculuk
oyuncunun
oyuncusu
oyuncusudur
oyuncuya
oyuncuyu
oyunda
oyundaki
oyundan
oyundur
oyunlar
oyunlara
oyunlarda
oyunları
oyunların
oyunlarına
oyunlarında
oyunlarından
oyunlarını
oyunlarının
oyunu
oyunudur
oyunun
oyununa
oyununda
oyunundan
oyununu
oyununun
oz
ozan
ozon
p
pa
pablo
pac
pace
pacific
pack
padis
padova
padua
pag
pagan
page
pages
pahalı
pahasına
pai
pain
painter
painting
paintings
pair
pak
paket
paketi
paketleri
pakistan
pakistanlı
paktı
pal
pala
palace
palazzo
paleobiodb
paleolitik
paleontolog
paleontology
palermo
palestine
palestinian
palgrave
palladio
palm
palma
palmer
palmiye
palu
palyac
pamela
pamuk
pamukkale
pan
panama
panathinaikos
panda
pandemi
pandemic
pandemisi
pandora
panel
paneli
panicum
panik
pankreas
panorama
panther
panthera
pantolon
panzer
paolo
papa
papag
papalık
papaz
paper
paperback
papers
papiru
papua
par
para
parade
paradise
paraguay
paralar
paraları
paralel
paralimpik
paralı
parameters
parametre
parametreleri
parametresini
paramount
parana
paranormal
parantez
paranın
paras
parasal
parası
parasını
parasız
paraya
parayla
parayı
parazit
parc
pardosa
pardus
parents
parfu
paris
parish
parishes
park
parker
parkinson
parklar
parks
parkta
parkı
parkın
parlak
parlaklıg
parlaklık
parlamenter
parlamento
parlamentoda
parlamentonun
parlamentosu
parlamentoya
parlayan
parliament
parliamentary
parma
parmag
parmak
pars
parsons
part
parti
partial
participation
particle
partide
partiden
partidir
parties
partiku
partiler
partilere
partileri
partilerin
partili
partinin
partisan
partisi
partisinden
partisine
partisinin
partiye
partiyi
partizan
partner
partneri
partners
partnership
parts
party
pas
pasaport
pasaportu
pascal
pasif
pasifik
pasinler
paskalya
paso
pass
passage
passes
passion
past
pasta
pat
patates
paten
patenci
pateni
patent
path
pathology
patient
patients
patinaj
patladı
patlak
patlama
patlamanın
patlaması
patlayıcı
patlıcan
patnos
patoloji
patricia
patrick
patrig
patrik
patrikhanesi
patron
patronage
patrons
patronu
patterns
patterson
patton
paul
paula
pauli
pauline
paulo
paulus
pausanias
pav
pavel
pavlus
pay
paydas
paylas
payne
pays
payı
paz
pazar
pazara
pazarcık
pazarlama
pazarlık
pazartesi
pazarı
pazarına
pazarında
pb
pbs
pc
pcr
pdf
pe
peace
peak
pearce
pearl
pearson
peas
pec
pedagoji
peder
pedro
peer
peg
pegasus
peggy
pehlevi
pehlivan
pek
pekc
peker
pekgiller
peki
pekin
pekis
pekkan
pekler
pekleri
pelikan
pelin
pembe
pen
penaltı
penaltılarla
penc
pencere
pencereden
pencereler
pendik
penelope
penguin
penis
penn
pennsylvania
penny
pensilvanya
pentagon
people
peoples
pepe
pepper
pepsi
per
pera
perakende
perc
perception
percy
perde
perdelik
pereira
perez
perfect
perform
performance
performans
performansla
performansları
performansı
performansını
performansıyla
pergamon
peri
perihan
perinc
period
peris
periyodik
perkins
perku
permanent
pernova
perry
pers
perseus
persia
persian
persler
person
personal
personality
personel
personeli
personelin
personelinin
perspective
perspectives
perspektif
pertek
perth
peru
perugia
perugino
pervane
pes
pet
pete
peter
peterburg
peters
petersburg
peterson
petit
petr
petra
petro
petrol
petrolu
petrov
petrus
peugeot
peyami
peygamber
peygamberi
peygamberin
peynir
peyniri
peyzaj
pez
pg
pgc
ph
phaidon
phane
phaneler
phanesi
phanesinde
phantom
pharrell
phase
phd
phe
pheli
pheliler
phelilerin
phelinin
phesiz
phi
phil
philadelphia
philip
philipp
philippe
philippines
philips
phillip
phillips
philodromus
philosopher
philosophical
philosophy
phoebe
phoenix
pholcus
phone
phonographic
phonographique
photo
photography
photos
php
phylogenetic
phylogeny
phys
physical
physics
physiology
pi
pia
piano
piazza
pic
picasso
pick
picks
picture
pictures
pie
piece
pier
pierce
pierluigi
piero
pierre
pieter
pietro
pike
piknik
piksel
pil
pilav
pilot
pilotlar
pilotu
pilsen
pin
pine
ping
pink
pinto
pinyin
pioneer
piotr
piper
pir
piramit
pirates
pire
piri
pirinc
pis
pisa
pisagor
pisano
piskopos
piskoposlug
piskoposluk
piskoposu
pist
pisti
pistons
pit
pitchfork
piter
pitt
pittsburgh
pittura
piu
pius
pivot
pixel
piyade
piyadeleri
piyanist
piyano
piyasa
piyasada
piyasası
piyasaya
piyemonte
pizza
pkk
pl
pla
place
places
plag
plague
plaj
plajı
plak
plaka
plan
plana
planck
planda
plane
planet
planetary
planets
planladı
planladıg
planlama
planlaması
planlamıs
planlanan
planlandı
planlandıg
planlanmaktadır
planlanmıs
planlanıyor
planlar
planları
planlarını
planlı
planning
plano
plans
plant
plants
planı
planın
planına
planında
planını
planının
plastic
plastik
plata
plate
platform
platformda
platformlar
platformlarda
platformları
platformu
platformunda
platin
platinum
plato
platon
platosu
play
playboy
played
player
players
playing
playoff
plays
playstation
plaza
plazma
plc
please
pleistosen
pler
pleri
plerin
plerinde
plerinden
plerinin
plinius
plos
plu
plus
plutarch
pluto
plymouth
pm
pmc
pmid
pnas
png
pno
po
poaceae
poblacio
pocket
podcast
poe
poems
poetry
poincare
point
points
pokal
poke
poker
pol
poland
polar
polat
polatlı
pole
poli
police
policy
polimer
polis
polise
polish
polisi
polisin
polisiye
polisler
politbu
politeknik
political
politics
politik
politika
politikacı
politikalar
politikaları
politikalarına
politikalarını
politikalarının
politikası
politikasına
politikasını
politikasının
poll
polo
polonya
polonyalı
polygon
pompa
pompey
pons
ponte
pontus
pony
poor
pop
pope
popolazione
popu
popular
population
populations
por
porn
porno
pornografi
pornografik
porsche
porsuk
port
porta
portable
portaj
portajda
portajlar
portajı
portajında
portakal
portal
portalı
portalına
portekiz
portekizce
portekizli
porter
portfo
portland
porto
portrait
portre
portresi
portsmouth
portugal
pos
poseidon
position
positions
positive
posof
possible
post
posta
postal
postası
poster
postmodern
potansiyel
potansiyeli
potasyum
potential
potsdam
potter
pound
pour
powell
power
powerful
powers
powertu
poyraz
poz
pozisyon
pozisyonda
pozisyonu
pozisyonunda
pozisyonunu
pozitif
pp
ppv
pr
practical
practice
practices
praeger
prag
prague
pratig
pratik
pratikte
prato
pratt
pravda
prayer
pre
predator
prefekto
prehistoric
preliminary
premier
premiere
premio
premium
premyer
prens
prenses
prensesi
prensi
prensibi
prensip
prenslig
prentice
pres
present
presentation
presented
presents
president
presidential
press
presse
pressure
prestel
prestij
prestijli
preston
pretty
prevention
preview
pri
price
pride
priest
prima
primary
primatlar
primavera
prime
primeira
primer
primera
primetime
prince
princess
princeton
principles
print
printing
pris
prison
private
prix
prize
prizren
pro
problem
problemi
problemler
problemleri
problems
proc
proceedings
process
processes
processing
procyclingstats
produ
produced
producer
producers
product
production
productions
products
prof
profeso
professional
professor
profesyonel
profesyonellig
profil
profile
profiles
profili
program
programa
programcısı
programda
programlama
programlar
programları
programların
programlarına
programlarında
programlarını
programlarının
programme
programming
programs
programı
programıdır
programın
programına
programında
programını
programının
progress
progressive
proje
project
projects
projede
projeler
projeleri
projenin
projesi
projesinde
projesine
projesini
projesinin
projeye
projeyi
prometheus
promise
promo
promosyon
promotion
proof
propaganda
propagandası
properties
property
prophet
prosedu
protected
protection
protein
proteini
proteinin
proteinler
proteinleri
proteinlerin
protest
protestan
protesto
protestolar
protestoları
protests
proto
protocol
protokol
protokolu
proton
prototip
provence
providence
province
provinces
pru
prusya
ps
pseudo
psg
psi
psikiyatri
psikolog
psikoloji
psikolojik
psikolojisi
psis
psultan
psv
psychiatry
psychological
psychology
pt
pte
pten
ptolemaios
ptolemy
ptt
ptu
pu
puan
puana
puanla
puanlar
puanları
puanı
pub
public
publication
publications
published
publisher
publishers
publishing
puerto
pul
pulitzer
pullar
pulları
pulmoner
pulse
pulu
punch
punk
pure
purple
pus
push
pusu
pusula
pusuya
put
putin
putnam
pwi
pwinsider
pyd
pyotr
pyrausta
python
pınar
pınarbas
pınarı
q
qanun
qatar
qi
qin
qing
qt
qu
quad
qualcomm
qualifying
quality
quantum
quarter
quarterly
que
quebec
queen
queens
queensland
queer
quentin
quercus
quest
question
questions
qui
quick
quickfacts
quiet
quinn
qur
r
ra
rab
rabbi
rabbit
racaat
race
rachel
racing
rad
rada
radar
radiation
radical
radikal
radio
radyal
radyasyon
radyo
radyoaktif
radyoda
radyosu
radı
radıg
rae
raf
rafa
rafael
rafc
rafet
rafi
rafik
raflar
rafları
raflarını
rafya
rafyacı
rafyada
rafyası
rafı
rafın
rafını
rag
ragbi
rage
ragıp
rahat
rahatc
rahatlıkla
rahatsız
rahatsızlıg
rahatsızlık
rahibe
rahibi
rahim
rahip
rahipler
rahman
rahmet
rahmi
rai
raid
raider
raif
rail
railway
rain
rainbow
rainer
rajki
rak
rakam
rakamlar
rakamları
rakamı
rakibi
rakibin
rakibine
rakibini
rakip
rakipleri
rakiplerini
rakım
rakımlı
rakımı
ral
ralli
rally
ralph
ram
rama
raması
ramaz
ramazan
rambo
rami
ramo
ramos
ramsay
ramıs
ran
rana
rand
randall
randevu
randolph
random
randy
range
ranger
rangers
rangle
rani
ranking
rankings
ranlı
rant
ranunculus
raoul
rap
rapc
raphael
rapid
rapids
rapor
raporda
raporlar
raporları
raporto
raporu
raporun
raporuna
raporunda
raporunu
rapper
rar
rard
rare
ras
rasim
rasmussen
rassal
rast
rastgele
rastlanan
rastlanmaktadır
rastlanmıs
rastlanır
rasyonel
rat
rate
rating
ratings
ration
ratle
rato
rattı
rau
rauf
raven
ravenna
raw
ray
rayan
rayarak
raylı
raymond
rayon
rayonu
rayonunun
razı
rb
rban
rbe
rbesi
rbin
rbu
rc
rca
rce
rcistan
rcu
rd
rda
rde
rdek
rdeki
rden
rder
rdes
rdi
rdistan
rdoba
rdu
re
reach
reaction
read
reader
reading
ready
reagan
reaksiyon
reaksiyona
reaksiyonu
reaktif
reakto
real
reality
really
realms
reason
reasons
rebecca
rebel
rebels
rebileceg
rebilir
rec
rece
receg
recek
recektir
receli
recent
recep
receptor
reci
recin
recinde
recinden
recine
recini
recinin
recognition
record
recorded
recording
recordings
records
red
redd
reddeden
reddeder
reddederek
reddedildi
reddedilmis
reddetmis
reddetti
reddettig
reddi
rede
redeki
reden
redif
redir
redistricting
redmi
reed
reel
reeves
ref
refah
refahiye
refahı
referandum
referandumu
referans
reference
references
refet
refik
reflections
refler
reform
reformlar
reformları
reformu
refugees
reg
regarding
regelen
reggae
regime
regina
region
regional
regions
register
registration
registry
regu
regular
regulation
regulations
reha
rehabilitasyon
rehber
rehberi
rehberlig
rehberlik
rehin
rehine
rei
reich
reichstag
reid
reign
reigns
reilly
reims
reinhard
reis
reisi
reislig
rejim
rejimi
rejimin
rejimine
rejiminin
rek
rekabet
rekabetc
rekabete
rekabeti
rekc
rekkep
reklam
reklamı
rekli
reklilig
reklilik
rekor
rekorlar
rekorları
rekoru
rekorunu
rekto
rel
related
relation
relations
relationship
relationships
rele
release
released
releases
reler
relerde
releri
reli
relig
religion
religions
religious
relilik
rem
remains
rembrandt
reme
remember
remiks
remis
remix
remixes
remote
remzi
ren
renaissance
renato
renault
renc
renci
renciler
rencilere
rencileri
rencilerin
rencilerinden
rencilerine
rencilerinin
rencilik
rencinin
rencisi
renciye
rende
rendi
rendig
rene
renen
renge
rengi
rengin
renginde
rengini
reni
renilen
renim
renimi
renimine
renimini
renin
renince
reninde
renine
renir
renk
renkler
renklerde
renkleri
renklerin
renkli
renklidir
renksiz
renkte
renktedir
renle
renler
renleri
renme
renmek
renmeye
renmis
rennes
renoir
rensel
rep
repesaj
replace
report
reported
reporter
reports
represent
representation
reprint
reprinted
repubblica
republic
rer
rerek
rerken
res
rescue
research
resel
reselles
resepto
reserve
resi
resident
residente
resim
resimde
resimler
resimleri
resimlerin
resimlerini
resimlerinin
resimli
resince
resinde
resine
resini
resinin
resistance
resiz
resmen
resmi
resmigazete
resmin
resmini
resolution
resource
resources
response
respublikası
ressam
ressamlar
ressamı
ressamın
rest
restaurant
restoran
restorasyon
restorasyonu
restoration
restore
resul
result
results
ret
reten
reti
retici
reticiler
reticileri
reticisi
reticisidir
retildi
retildig
retilen
retilir
retilmektedir
retilmesi
retilmeye
retilmis
retim
retimde
retime
retimi
retimin
retiminde
retimine
retimini
retiminin
retina
retir
retken
retme
retmek
retmektedir
retmen
retmeni
retmenin
retmenler
retmenleri
retmenlerin
retmenlig
retmenlik
retmeye
retmis
retorik
retrieved
retro
rettebat
rettebatı
retti
rettig
return
returns
reunion
reuters
rev
reva
revan
revde
revdeki
revden
reve
reveal
revealed
reveals
revenge
revi
review
reviews
revin
revinde
revinden
revine
revini
revinin
revised
revisited
revival
revize
revlendirdi
revlendirildi
revlendirilen
revlendirilmis
revlendirme
revler
revlerde
revlere
revleri
revlerin
revlerinde
revlerinden
revlerine
revlerini
revlerinin
revli
revlidir
revliler
revlileri
revlilerinin
revlisi
revolution
revolutionary
revue
rex
rey
reya
reye
reyen
reyes
reyhan
reyi
reyle
reynolds
reyting
reyya
rez
rezerv
rezervi
rezonans
rf
rfan
rfc
rfez
rfezi
rg
rge
rgen
rgu
rhipicephalus
rho
rhode
rhodes
rhythm
ri
ria
riaa
ribaund
ribaunt
riboz
ric
rica
ricardo
riccardo
rice
rich
richard
richards
richardson
richie
richmond
richter
rick
ricky
rico
rida
ride
rider
ridge
riding
rie
riemann
rif
rifat
riga
right
rightarrow
rights
rih
rihanna
rik
rika
riko
riler
riley
rim
rimini
rin
rinascimento
ring
ringe
rings
rini
rio
riot
rip
ris
risale
rise
risi
rising
risk
riski
riskini
riskli
rist
rita
ritchie
ritim
ritter
ritu
rivayet
rivayete
river
rivera
rivers
riverside
riya
riyad
riyat
rize
rizespor
rizm
rizzoli
rj
rk
rkan
rkc
rkemli
rken
rker
rkes
rki
rkistan
rkiyat
rkiye
rkler
rklere
rkleri
rklerin
rklerinin
rklu
rkmen
rkmence
rkmendolu
rkmenistan
rkmenler
rkmenleri
rko
rkog
rkoloji
rksat
rku
rl
rlanda
rlandalı
rlar
rları
rle
rler
rlerde
rlerden
rlerdir
rlere
rleri
rlerin
rlerinde
rlerinden
rlerine
rlerini
rlerinin
rleriyle
rlerle
rles
rli
rlts
rlu
rlık
rm
rma
rme
rmeden
rmedi
rmedig
rmek
rmekle
rmekte
rmektedir
rmekten
rmekteydi
rmeleri
rmeli
rmemis
rmene
rmenin
rmesi
rmesine
rmesini
rmet
rmeye
rmeyen
rmeyi
rmez
rmezden
rmu
rn
rna
rnberg
rneg
rnek
rneklem
rnekler
rnekleri
rneklerinden
rneklerini
rnekte
rnektir
ro
road
rob
robbia
robbie
robbins
robert
roberto
roberts
robertson
robin
robinson
robot
robotik
robson
roc
roche
rochester
rock
rockefeller
rocket
rockets
rocks
rockstar
rocky
rococo
rod
rodney
rodolfo
rodos
rodri
rodrigo
rodrigues
rodriguez
rog
roger
rogers
roh
roi
roket
roketi
rokrat
rol
roland
rolde
role
rolf
roll
roller
rollerde
rolleri
rollerinde
rollerini
rolleriyle
rolling
rollins
rolls
roloji
rolojik
rolu
rom
roma
romagna
romalı
romalılar
romalıların
roman
romana
romance
romancı
romanda
romandan
romania
romanian
romanize
romanlar
romanları
romanlarında
romano
romanos
romans
romantik
romantizm
romanya
romanı
romanıdır
romanın
romanında
romanından
romanını
romanının
rome
romen
romeo
romero
rommel
ron
rona
ronald
ronaldo
ronnie
room
rooney
roosevelt
root
roots
rory
ros
rosa
rosario
rose
rosen
rosenberg
rosenthal
roses
ross
rossi
rossini
roster
rostov
rosu
rot
rota
roth
rothschild
rotor
rotten
rotterdam
rouge
rough
round
rousseau
route
routledge
roux
rover
rovers
rovi
row
rowan
rowland
rowman
roy
royal
royale
royce
rp
rpg
rpm
rpriz
rpınar
rr
rre
rrem
rriyet
rs
rsc
rse
rsel
rselles
rses
rsoy
rsssf
rsu
rt
rtaj
rtc
rte
rten
rtgen
rtler
rtleri
rtlerin
rtlu
rtme
rtmek
rtte
rttemberg
rttu
rtu
ru
ruanda
rubens
rubin
ruby
rudan
rudolf
rudolph
rudur
rue
rufus
rugby
ruh
ruhani
ruhban
ruhi
ruhlar
ruhları
ruhsal
ruhu
ruhun
ruhunu
ruhunun
ruiz
rul
ruladı
rulama
rulandı
rulanmıs
rule
rules
rultuda
rultusunda
rulug
ruluk
rum
rumble
rumca
rumcası
rumeli
rumen
rumence
rumi
rumlar
rumların
run
runa
runciman
runner
running
rupert
rural
rus
rusal
rusc
rush
ruslar
ruslara
rusların
russell
russia
russian
russo
rusu
rusya
ruth
rutherford
rutin
rutiyet
ruya
rv
ry
ryan
ryani
ryanice
ryder
ryo
ryu
rz
rzi
rı
rıda
rıdvan
rıfat
rıfkı
rılan
rıları
rıldı
rın
rıs
rısı
rısında
rız
rıza
s
sa
saade
saadet
saat
saatc
saate
saati
saatle
saatler
saatlerde
saatleri
saatlerinde
saatlik
saatte
saatten
saba
sabah
sabaha
sabahattin
sabahı
sabaka
sabakalar
sabakalarda
sabakaları
sabakalarında
sabakası
sabancı
sabiha
sabit
sabiti
sabri
sabrina
sabun
sabır
sac
sacramento
sacred
sad
sada
sadakat
saddam
saddle
sade
sadece
sadeles
sadettin
sadi
sadie
sadr
sadrazam
sadrazamlık
sadri
sadık
saf
safa
safari
safe
safety
safevi
safi
safiye
safra
safranbolu
sag
saga
sagan
sage
saha
sahada
sahanın
sahası
sahasında
sahaya
sahibi
sahibidir
sahibine
sahibini
sahibinin
sahibiydi
sahih
sahil
sahile
sahili
sahilinde
sahip
sahipken
sahipleri
sahiplerine
sahiplerini
sahiplerinin
sahiplig
sahipti
sahiptir
sahiptirler
sahne
sahnede
sahnelendi
sahnelenen
sahnelenmis
sahneler
sahneleri
sahnenin
sahnesi
sahnesinde
sahneye
sahneyi
sahra
sahte
sai
said
saint
sainte
saints
sait
sak
saka
sakal
sakallı
sakaog
sakarya
sakaryaspor
sakat
sakatlıg
sakatlık
sakin
sakinleri
sakinlerinin
sakinles
sakladıg
saklama
saklamak
saklanan
saklandıg
saklanır
saklı
sakson
saksonya
sakura
sakın
sakız
sal
sala
salah
salar
salazar
salc
saldıran
saldırarak
saldırdı
saldırdıg
saldırdılar
saldırgan
saldırmak
saldırmaya
saldırmıs
saldırı
saldırıda
saldırıdan
saldırılar
saldırılara
saldırılarda
saldırıları
saldırıların
saldırılarına
saldırılarından
saldırılarını
saldırılarının
saldırının
saldırır
saldırısı
saldırısına
saldırısında
saldırısından
saldırısını
saldırısının
saldırıya
saldırıyı
sale
salem
sales
salgın
salgını
sali
salih
salihli
salim
salinger
salisbury
salkım
sally
salma
salman
salon
salonda
salonları
salonu
salonunda
salt
saltanat
saltanatı
saltanatının
salticidae
salvador
salvatore
salvia
salzburg
salı
sam
saman
samantha
samanyolu
same
samet
samettin
sami
samimi
sammy
samoa
sample
samsun
samsung
samsunspor
samtshe
samuel
samurai
san
sana
sanal
sanat
sanata
sanatc
sanatlar
sanatları
sanatsal
sanatta
sanatı
sanatın
sanatına
sanatında
sanatını
sanatının
sanayi
sanayici
sanayii
sanayiles
sancag
sancak
sanchez
sand
sandal
sandalye
sanders
sandra
sandro
sandvic
sandy
sandıg
sandık
sandıklı
sandıkta
sang
saniye
saniyede
saniyelik
sanjay
sanki
sankt
sanremo
sans
sanskritc
sansu
sant
santa
santana
santiago
santimetre
santo
santos
santral
santrali
sanıg
sanık
sanıklar
sanılan
sanılmaktadır
sanırım
sao
sap
sapma
saptanmıs
saptanır
sapı
sar
sara
sarac
sarah
sarajevo
saran
saray
saraya
saraybosna
sarayda
sarayı
sarayın
sarayına
sarayında
sarayının
sardinya
sarf
sarhos
sarmal
sarmas
sarnıc
sarp
sars
sartre
saruhan
sarı
sarıc
sarıkamıs
sarıkaya
sarılmıs
sarımsak
sarımsı
sarıs
sarısı
sarıyer
sas
sasani
sasha
sason
sat
satan
satanlar
satarak
satellite
satmak
satmaya
satmıs
sato
satranc
sattı
sattıg
satu
saturday
saturn
satıcı
satıcısı
satılan
satıldı
satıldıg
satılmaktadır
satılmıs
satılır
satın
satır
satırı
satıs
saudi
saul
saunders
sauron
sav
sava
savage
savas
savcı
savcılar
savcılıg
savcılık
savcısı
save
savunan
savundu
savundug
savunma
savunmak
savunmaktadır
savunması
savunmasını
savunmasız
savunmaya
savunmus
savunucuları
savunucusu
savunur
savunuyor
saw
sawyer
say
sayac
sayan
sayar
saydam
sayede
sayesinde
sayfa
sayfada
sayfadan
sayfalar
sayfaları
sayfalarında
sayfalık
sayfanın
sayfası
sayfasına
sayfasında
saygı
saygılı
saygın
saygınlıg
sayi
sayin
sayma
says
sayı
sayıca
sayıda
sayıdaki
sayılabilecek
sayılabilir
sayılan
sayılar
sayıları
sayıların
sayılarının
sayıldı
sayılmaktadır
sayılmıs
sayılı
sayılır
sayım
sayımlarına
sayımı
sayımına
sayımında
sayımından
sayın
sayının
sayıs
sayısal
sayısı
sayısına
sayısında
sayısından
sayısını
sayısının
sayısız
sayıya
sayıyı
saz
sb
sbc
sbs
sc
scala
scale
scandal
scandinavian
scarecrow
sceloporus
scene
scenes
schalke
schedule
schengen
schiller
schindler
schleswig
schmidt
schmitt
schneider
scho
scholar
scholars
school
schools
schopenhauer
schro
schu
schultz
schumacher
schuster
schwartz
schwarz
schweizer
sci
science
sciences
scientific
scientist
scientists
scooby
score
scores
scotland
scott
scottish
scream
screen
scribner
script
sculpture
scytodes
sd
sdss
se
sea
seal
sean
search
season
seasons
seat
seattle
sebastia
sebastian
sebebi
sebebini
sebebinin
sebebiyet
sebebiyle
sebep
sebeple
sebepler
sebeplerden
sebepleri
sebeplerle
sebepten
sebze
sebzeler
sec
second
seconds
secret
secretary
secrets
section
sector
secure
security
seda
sedan
sedat
sedef
seds
see
seed
seen
sefa
sefarad
sefer
seferberlik
seferde
sefere
seferi
seferin
seferinde
seferine
seferler
seferleri
sega
segment
seher
sehirhafizasi
sei
seidman
sein
seine
sejm
sek
seki
sekiz
sekizinci
sekreter
sekreteri
sekreterlig
sekreterlik
seks
seksen
seksi
sekto
seku
sel
sela
selahaddin
selahattin
selam
selami
selanik
selc
select
selected
selection
selefi
selena
seleukos
self
seli
selim
selimiye
selin
sellers
selling
selma
selman
selu
sem
sema
sembol
sembolik
sembolize
semboller
sembolleri
sembolu
semerkant
semi
semih
seminer
sempati
sempozyumu
semptomlar
semptomları
semt
semti
semtin
semtinde
sen
sena
senarist
senaristlig
senaryo
senaryosu
senaryosunu
senaryoyu
senate
senato
senatosu
sencer
sende
senden
sendika
sendikalar
sendikası
sendrom
sendromu
sene
senecio
senede
senedi
senegal
senelik
senesinde
senfoni
senfonik
seni
senin
seninle
senior
senkronize
senna
sense
sensin
sensiz
senso
sent
sentetik
sentez
sentezi
sentinel
seo
seoul
sep
september
sequel
sequence
ser
sera
seramik
serap
serbest
serbestc
serbia
serbian
serc
serda
serdar
serebral
serena
serge
sergei
sergey
sergi
sergiledi
sergiledig
sergilemis
sergilendi
sergilendig
sergilenen
sergilenmektedir
sergiler
sergileyen
sergio
sergisi
serhan
serhat
seri
serial
seribas
seride
serie
series
serik
serileri
serin
serinin
serisi
serisidir
serisinde
serisindeki
serisinden
serisine
serisini
serisinin
seriyi
serkan
sermaye
sermayesi
serotonin
serpil
serra
serseri
sert
sertab
sertifika
sertifikası
sertles
sertlig
seru
serum
server
servet
service
services
servis
servisi
servisleri
servlet
ses
sesi
sesin
sesine
sesini
sesinin
sesiyle
sesle
seslendirdi
seslendirdig
seslendiren
seslendirildi
seslendirilen
seslendirilmis
seslendirme
seslendirmis
sesler
sesleri
seslerini
sesli
session
sessions
sessiz
sessizce
sessizlig
sessizlik
set
seth
seti
setlerle
sets
settlement
seul
seung
sev
sevan
sevda
sevdig
sevdim
seven
seventeenth
seventh
sever
several
severus
sevgi
sevgili
sevgilim
sevgilisi
sevgisi
sevgisini
sevi
sevil
sevilen
sevilla
sevim
sevimli
sevinc
sevinci
sevis
seviye
seviyede
seviyeleri
seviyeli
seviyesi
seviyesinde
seviyesinden
seviyesine
seviyesini
seviyesinin
seviyeye
seviyor
seviyorum
sevk
sevmek
sevr
sex
sexual
sexy
seyahat
seyahati
seyfettin
seyfi
seyhan
seyin
seyir
seyirci
seyirciler
seyit
seymour
seyrek
seyru
seyyar
seyyid
sezai
sezar
sezen
sezer
sezgin
sezon
sezona
sezonda
sezondaki
sezondan
sezonlarında
sezonu
sezonudur
sezonun
sezonuna
sezonunda
sezonundaki
sezonundan
sezonunu
sezonunun
sf
sfahan
sg
sh
sha
shadow
shadows
shah
shak
shake
shakespeare
shakira
shall
shane
shanghai
shannon
shape
share
shares
sharon
sharp
sharpe
shaun
shaw
shawn
she
sheamus
sheen
sheeran
sheet
sheffield
sheila
sheldon
shell
shelley
shen
shepard
shepherd
sheridan
sherlock
sherman
shi
shield
shift
shin
shine
ship
ships
shirley
sho
shock
shoot
shooting
shop
shore
short
shot
should
show
shows
shp
shropshire
shu
si
sia
sibel
siber
sibirya
sic
sica
sich
sicil
sicilya
sicim
sid
side
sidney
sie
siege
siegfried
siemens
siena
sierra
sig
sigara
sigma
sigmund
sign
signal
signs
sigorta
sigortası
sihir
sihirli
siirt
sik
sikke
siklet
sil
sila
silah
silahla
silahlar
silahlarla
silahları
silahların
silahlarını
silahlı
silahsız
silahı
silahın
silahını
silence
silene
silent
silezya
silifke
silikon
silindi
silindir
silindirik
silindirli
silinmelidir
silinmis
silivri
silk
silme
silopi
silva
silvan
silvana
silver
silverman
silvia
silvio
sim
sima
simav
simavi
simbad
simeon
simetri
simetrik
simge
simgeler
simgeleyen
simgesi
simler
simmons
simon
simone
simons
simple
simpson
simpsonlar
simpsons
sims
simu
sin
sina
sinagog
sinagogu
sinan
sinanog
sinatra
sincan
since
sinclair
sind
sinde
sinden
sindirim
sine
sinek
sinem
sinema
sinemada
sinemalar
sinemalarda
sineması
sinemasının
sinematik
sinematu
sinematurk
sinemaya
sing
singapore
singapur
singer
singh
single
singlerpt
singles
sini
sinin
sinir
siniz
sinop
sinu
sinyal
sinyali
sinyalleri
sipahi
siparis
sir
sirius
sirk
sirke
sirkeci
sis
sistem
sistematik
sistemde
sistemdir
sisteme
sistemi
sistemidir
sistemik
sistemin
sisteminde
sistemindeki
sisteminden
sistemine
sistemini
sisteminin
sistemiyle
sistemle
sistemler
sistemlerde
sistemlere
sistemleri
sistemlerin
sistemlerinde
sistemlerine
sistemlerini
sistemlerinin
sistemli
sister
sisters
sit
site
sitede
siteler
siteleri
sitelerinde
sitenin
sites
sitesi
sitesinde
sitesindeki
sitesinden
sitesine
sitesinin
situation
sivas
sivasspor
sivastopol
siverek
sivil
sivillere
sivillerin
sivri
sivrice
sivrihisar
six
sixteenth
sixth
siya
siyah
siyahi
siyasal
siyaset
siyasetc
siyasete
siyaseti
siyasetin
siyasette
siyasi
siyonist
siz
sizden
size
sizi
sizin
sizinle
sizler
sizlere
sizlik
sk
ska
skandal
skandalı
skandinav
skandinavya
skating
skec
skelesi
skender
skenderiye
skenderun
ski
skilip
skin
skinner
skira
skoc
skor
skorer
skorla
skoru
sku
skull
sky
skyscraperpage
sl
sla
slalom
slam
slamcı
slami
slamiyet
slate
slater
slav
slave
slavery
slayer
sle
sleep
sleme
slenmis
sler
sleri
slerin
slim
slogan
sloganlar
sloganı
slovak
slovakc
slovakya
sloven
slovence
slovenia
slovenya
slow
slu
slup
sm
sma
smac
smackdown
smail
small
smart
smash
smet
smi
smile
smini
smith
smithsonian
smoke
sms
sn
snake
snapdragon
snooker
snoop
snow
sns
snu
snyder
so
soap
soc
soccer
soccerbase
soccerway
social
socialist
socie
sociedad
societies
society
sociology
socket
soda
sodyum
sofia
soft
software
sofya
sog
sohbet
sokag
sokak
sokaklar
sokaklarda
sokaklarında
sokakta
sokmak
sokrates
soktu
sol
sola
solanum
solar
solcu
sold
solda
soldan
soldier
soldiers
sole
solid
solist
solisti
solo
solomon
solu
solucan
soluk
solunda
solunum
solution
solutions
som
soma
somali
some
somerset
something
sometimes
somut
son
sona
sonbahar
sonbaharda
sonbaharında
sonda
sondaj
soner
song
songs
sonia
sonic
sonlandırdı
sonlandırmıs
sonları
sonlarına
sonlarında
sonlarından
sonlu
sonny
sonra
sonradan
sonraki
sonraları
sonrası
sonrasına
sonrasında
sonrasındaki
sons
sonsuz
sonsuza
sonsuzluk
sonu
sonuc
sonuca
sonucu
sonucudur
sonucun
sonucuna
sonucunda
sonucunu
sonuna
sonuncu
sonuncusu
sonunda
sonundaki
sonundan
sonunu
sony
soo
soon
sopa
sophia
sophie
soprano
sor
sorar
sorbonne
sordu
sordug
sorgu
sorgulama
sorgun
sormak
sorry
soru
sorulan
sorular
sorulara
soruları
soruldug
sorumlu
sorumludur
sorumlulug
sorumluluk
sorumlulukları
sorumlusu
sorumluydu
sorun
sorunlar
sorunlara
sorunlarla
sorunları
sorunların
sorunlarına
sorunlarını
sorunlarının
sorunlu
sorunsuz
sorunu
sorunun
sorununu
sorununun
sorus
sorusu
sorusuna
soruya
sos
sosu
sosyal
sosyalist
sosyalizm
sosyalizmin
sosyo
sosyolog
sosyoloji
sosyolojik
sosyolojisi
soul
souls
sound
sounds
soundtrack
source
sources
sous
south
southampton
southeast
southern
souza
soviet
sovyet
sovyeti
sovyetler
sovyetlerin
soy
soya
soyadı
soyadını
soydan
soygun
soykırım
soykırımı
soylu
soylular
soysal
soyu
soyundan
soyunun
soyut
soyuz
sozcu
sp
spa
space
spacex
spain
span
spanish
spansiyon
spanya
spanyol
spanyolca
spanyollar
sparks
sparta
spartak
spd
speak
spears
special
species
specific
specifications
spectrum
speech
speed
speer
spektral
speku
spencer
sperm
spesifik
spider
spiegel
spielberg
spike
spin
spir
spiral
spirit
split
spongebob
sponsor
sponsorlug
sponsorluk
sponsoru
spor
sporcu
sporcular
sporcunun
sporcusu
sporları
sport
sportif
sporting
sports
sporu
sporx
spot
spotify
spotlight
spring
springer
springfield
springs
sprint
spurs
sputnik
spy
sq
sql
sqrt
squad
square
sr
srail
srailli
srailog
srev
sri
ss
ssc
sscb
sse
sseldorf
ssk
ssr
ssu
st
sta
stable
stad
stade
stadium
stadt
stadyum
stadyumda
stadyumu
stadyumun
stadyumunda
stadı
staff
staffordshire
stage
stahkem
staj
stakil
staley
stalin
stalingrad
stallone
stan
stanbul
stanbulspor
stand
standard
standards
standardı
standart
standartlar
standartları
standartlarına
standartlarını
standartlas
standing
stanford
stanley
star
stargate
stark
starr
starring
stars
start
started
starts
stasyon
stasyonu
stat
state
statement
states
static
statik
station
statistica
statistical
statistics
statistik
statistiki
statistikleri
stats
statu
status
stay
ste
steam
steatoda
steel
steele
stefan
stefani
stefano
steffen
steg
stein
steiner
stel
stelik
stella
stellar
stem
stemi
sten
step
stephan
stephanie
stephen
stephens
steps
ster
sterdi
sterdig
sterdikleri
sterdiler
sterebilir
stereceg
sterecek
steren
stereo
stererek
sterge
stergesi
stergesidir
steri
sterici
sterildi
sterildig
sterilebilir
sterilen
steriler
sterilerek
sterileri
sterilir
sterilmektedir
sterilmesi
sterilmis
sterim
sterimde
sterime
sterimi
sterinin
sterip
sterir
sterirken
sterirler
steris
sterisi
steriyor
steriyordu
sterlin
sterling
sterme
stermek
stermektedir
stermesi
stermeye
stermis
stern
sterse
stes
stesi
stesinden
steve
steven
stevens
stevenson
stevie
stewart
stfamilyasına
sti
stig
stihbarat
stikla
stiklal
stil
stilde
stili
still
sting
stirling
stk
stlendi
stlendig
stlenen
stlenmis
stlu
sto
stock
stockholm
stok
stoke
stokes
stone
stones
stop
store
storia
stories
storm
story
strabon
straight
straits
strand
strange
stranger
strasbourg
strategic
strategy
strateji
stratejik
stratejisi
strauss
stream
streaming
street
streets
stres
stress
stretfordend
stri
strike
strikes
string
strip
strisi
strisinde
strisine
strisinin
striyel
strong
strowman
structural
structure
structures
struggle
sts
stte
stteki
stten
stu
stuart
student
students
studi
studies
studio
studios
study
stuff
stuttgart
style
styles
su
sua
sualtı
suat
sub
subas
subay
subaylar
subayları
subayların
subayı
subject
subsp
suc
success
such
sud
suda
sudan
sue
suetonius
suffolk
sufi
sugar
sui
suicide
suikast
suikastc
suikastı
suisse
suit
suite
suk
sul
sulak
sulama
sular
sularda
suları
suların
sularında
sularının
sulh
sullivan
sulta
sultan
sultanahmet
sultanlar
sultanları
sultanlıg
sultanı
sulu
sum
sumatra
summary
summer
summerslam
summit
sun
suna
sunak
sunal
sunan
sunar
sunarak
sundance
sunday
sunderland
sundu
sundug
sung
sungur
sungurlu
suni
sunmak
sunmaktadır
sunmaya
sunmus
suns
sunset
sunshine
sunucu
sunucular
sunucuları
sunuculug
sunuculuk
sunucusu
sunulan
sunuldu
sunuldug
sunulmaktadır
sunulmus
sunulur
sunum
sunumu
sunuyor
suny
super
superior
superman
supernatural
superstar
suphi
suppl
supplement
support
supreme
sur
sure
suresi
suretiyle
suretle
surette
surface
surgery
surinam
suriye
suriyeli
surlar
surları
surp
surprise
surrey
suruc
survey
survival
survivor
sus
susam
susan
suse
sussex
sustainable
susurluk
susuz
sutherland
sutton
suud
suudi
suv
suya
suyla
suyu
suyun
suyunu
suyunun
suz
suzan
suzanne
suzuki
sv
svec
sven
sveriges
sverigetopplistan
svic
swan
swansea
sweden
swedish
swedishcharts
sweet
swift
swing
swiss
swisscharts
switch
switzerland
sword
sy
syan
syanı
sydney
syf
sylvester
sylvia
symbian
symbol
symbols
symphony
symposium
syndicat
syndrome
synthesis
synthesizer
syon
syracuse
syria
syrian
system
systematic
systematics
systems
syzygium
sz
szlo
szo
sı
sıc
sıcak
sıcaklıg
sıcaklık
sıcaklıklar
sıcaklıklarda
sıcaklıkta
sıfat
sıfatı
sıfatıyla
sıfır
sıfıra
sıfırdan
sıg
sık
sıkc
sıklet
sıklıg
sıklıkla
sıkı
sıkıcı
sıkıntı
sıkıntılar
sıkıntılı
sıkıntısı
sıkıs
sıkıyo
sıl
sıla
sın
sına
sınav
sınavı
sınavını
sında
sındırgı
sını
sınıf
sınıfa
sınıflandırma
sınıflandırması
sınıflandırılan
sınıflandırılması
sınıflandırılmıs
sınıflandırılır
sınıflar
sınıfları
sınıfta
sınıftan
sınıfı
sınıfın
sınıfına
sınıfında
sınıfından
sınıfının
sının
sınır
sınırlama
sınırlandırılmıs
sınırlar
sınırları
sınırlarına
sınırlarında
sınırlarını
sınırlarının
sınırlı
sınırlıdır
sınırsız
sınırı
sınırın
sınırına
sınırında
sınırındaki
sınırını
sınırının
sınız
sır
sıra
sırada
sıradadır
sıradag
sıradaki
sıradan
sıralama
sıralamada
sıralaması
sıralamasında
sıralanabilir
sıralanmıs
sıralar
sıralarda
sıralarında
sıralı
sırası
sırasına
sırasında
sırasındaki
sırasıyla
sıraya
sırayla
sırayı
sırbistan
sırf
sırlar
sırp
sırpc
sırplar
sırrı
sırt
sırtı
sırtında
sıtkı
sıtma
sıvı
sıvının
sız
t
ta
taahhu
taarruz
taarruza
taarruzu
tab
tabak
tabaka
tabakası
taban
tabanca
tabanlı
tabanı
tabanına
tabanında
tabi
tabiat
tabiatı
tabidir
tabii
tabip
tabir
tabiri
table
tables
tablet
tablo
tabloda
tablolar
tabloları
tablonun
tablosu
tablosuna
tabur
taburu
tac
tacikistan
tacitus
taciz
tactical
tacı
tacını
tadı
tadını
tae
tag
taha
tahammu
tahir
tahkim
tahliye
tahmin
tahminen
tahmini
tahminler
tahminleri
tahran
tahrik
tahrip
tahrir
tahririnde
tahsil
tahsin
tahsis
taht
tahta
tahtası
tahtta
tahttan
tahtı
tahtına
tahtını
tahya
tahıl
tai
tail
taipei
taiwan
tak
takahashi
takas
takashi
takdim
takdir
takdirde
take
taken
takeover
takes
taki
takiben
takibi
taking
takip
takipc
taklit
takma
takmıs
taksi
taksim
taksonomik
taktig
taktik
takvim
takvime
takvimi
takviye
takılan
takıldı
takılmıs
takım
takıma
takımda
takımdaki
takımdan
takımdır
takımla
takımlar
takımlara
takımlarda
takımları
takımların
takımlarında
takımlarından
takımlarının
takımlı
takımyıldızı
takımı
takımıdır
takımın
takımına
takımında
takımından
takımını
takımının
takımıyla
tal
talan
talas
talat
tale
talebe
talebi
talebinde
talebini
talent
talep
talepleri
taleplerini
tales
tali
talib
taliban
talihsiz
talimat
talimatları
talimatı
talip
talk
talking
talks
tallinn
talmud
talya
talyan
talyanca
talyanlar
tam
tama
tamam
tamamen
tamamladı
tamamladıg
tamamladıktan
tamamlamak
tamamlamıs
tamamlanan
tamamlandı
tamamlandıg
tamamlandıktan
tamamlanmamıs
tamamlanması
tamamlanmıs
tamamlanır
tamamlar
tamamlayan
tamamlayarak
tamamlayıcı
tamamlayıp
tamamı
tamamına
tamamında
tamamını
tamamının
tamamıyla
tamar
tamara
tamer
tamim
tamir
tamlayan
tampa
tampon
tan
tanah
tanaka
tane
taneli
taner
tanesi
tanesidir
tanesini
tanesinin
tang
tango
tanju
tank
tanklar
tankları
tanksavar
tankı
tankın
tanner
tanrı
tanrıc
tanrılar
tanrılara
tanrıları
tanrıların
tanrının
tanrısal
tanrısı
tanrıya
tansu
tanzanya
tanzim
tanzimat
tanı
tanıdı
tanıdıg
tanıdık
tanıg
tanık
tanıklık
tanım
tanıma
tanımadıg
tanımak
tanımayan
tanımladı
tanımladıg
tanımlama
tanımlamak
tanımlamaktadır
tanımlamıs
tanımlanabilir
tanımlanamayan
tanımlanan
tanımlandı
tanımlandıg
tanımlanmaktadır
tanımlanması
tanımlanmıs
tanımlanır
tanımlar
tanımlayan
tanımlı
tanımı
tanımını
tanımıs
tanınan
tanındı
tanınmaktadır
tanınması
tanınmasını
tanınmaya
tanınmıs
tanınır
tanır
tanıs
tanısı
tanıtan
tanıtmak
tanıttı
tanıtılan
tanıtıldı
tanıtılmıs
tanıtım
tanıtımı
tanıyan
tao
tap
tape
tapu
tapınag
tapınak
tar
tara
taraf
tarafa
taraflar
tarafları
tarafların
taraflı
tarafsız
tarafta
taraftaki
taraftan
taraftar
taraftarlar
taraftarları
taraftarı
tarafı
tarafın
tarafına
tarafında
tarafındaki
tarafından
tarafını
tarafının
tarama
tarayıcı
tarayıcısı
tarc
tardis
tareke
target
tarhan
tari
tarif
tarifeli
tarifi
tarih
tarihc
tarihe
tarihi
tarihin
tarihinde
tarihindeki
tarihinden
tarihine
tarihini
tarihinin
tarihlenen
tarihler
tarihlerde
tarihleri
tarihlerinde
tarihlerini
tarihli
tarihsel
tarihte
tarihteki
tarihten
tarikat
tarikatı
tarkan
tarla
tarsus
tartıs
tarz
tarzan
tarzda
tarzları
tarzı
tarzına
tarzında
tarzındaki
tarzını
tarzının
tarık
tarım
tarıma
tarımda
tarımsal
tarımı
tas
tasarladı
tasarladıg
tasarlamıs
tasarlanan
tasarlandı
tasarlanmıs
tasarruf
tasarrufu
tasarı
tasarım
tasarıma
tasarımcı
tasarımcısı
tasarımlar
tasarımları
tasarımı
tasarımına
tasarımında
tasarımını
tasarısı
tasavvuf
tasavvufi
tasdik
tasfiye
task
taslag
taslak
taste
tasvir
tasviri
tat
tatar
tatarca
tataristan
tatarlar
tatarları
tatbik
tate
tatil
tatili
tatlı
tatlıses
tatlısı
tatmin
tatort
tatvan
tau
tauris
tavan
tavrı
tavs
tavsiye
tavsiyesi
tavug
tavuk
tavır
tax
taxonomic
taxonomy
tay
tayca
tayf
tayfun
tayfur
tayin
tayini
taylan
tayland
taylor
tayn
tayvan
tayyip
taze
tazminat
tb
tbe
tbeli
tbesi
tbesine
tbesiyle
tbf
tbilisi
tblstat
tbmm
tc
tcdd
tcg
tck
tcm
tcp
tdk
tdv
te
tea
teacher
teaching
teakip
team
teams
tears
teaser
teatro
teau
teb
teblig
teborg
tebrik
tebriz
tec
tecavu
tech
techcrunch
technical
technique
techniques
technologies
technology
tecru
ted
teda
tedarik
tedarikc
tedavi
tedavisi
tedavisinde
tedaviye
tedbir
tedbirler
tedbirleri
teddy
teen
teenage
tefrika
tefsir
teftis
teg
tehcir
tehdidi
tehdit
tehlike
tehlikede
tehlikeli
tehlikesi
tehlikeye
tek
teka
tekabu
tekdu
teke
tekel
tekeli
teker
tekerleg
tekerlek
tekerlekli
teki
tekil
tekin
tekirdag
tekke
tekkeko
tekkesi
tekler
tekli
teklif
teklifi
teklifini
teklik
teklisi
teklisidir
tekne
teknig
teknik
teknikler
teknikleri
tekniklerini
teknisyeni
teknoloji
teknolojik
teknolojiler
teknolojileri
teknolojinin
teknolojisi
teknolojisini
teknolojisinin
tekrar
tekrarlanan
tekrarlayan
teksas
tekstil
tektonik
tekvando
tel
tela
telaffuz
telafi
telas
tele
telefon
telefonda
telefonla
telefonlar
telefonları
telefonu
telefonun
telegraph
telekom
telekomu
telescope
teleskobu
teleskop
teleskopla
television
televizyon
televizyona
televizyonda
televizyonu
televizyonunda
telgraf
teli
telif
tell
teller
telli
telsiz
tem
tema
temalar
temaları
temalı
temas
temasa
teması
temasını
tembel
temel
temelde
temeli
temelinde
temelini
temelleri
temellerini
temelli
temi
temin
teminat
temini
temiz
temizleme
temizlemek
temizlig
temizlik
temmuz
temperature
temple
tempo
temporal
temps
temsil
temsilci
temsilciler
temsilcileri
temsilcilerinden
temsilcilig
temsilcisi
temsilcisini
temsilen
temsili
temsiliye
temyiz
ten
tenerife
tenis
tenisc
tenisi
tennessee
tennis
tenor
tenso
tenten
teoloji
teolojik
teoman
teoremi
teori
teorik
teoriler
teorileri
teorinin
teorisi
teorisinde
teorisine
teorisini
teorisinin
teoriye
tepe
tepebas
tepede
tepeden
tepeler
tepeleri
tepeli
tepenin
tepesi
tepesinde
tepesine
tepeye
tephritidae
tepki
tepkiler
tepkime
tepkisi
tepkisini
ter
terakki
terapi
terbiye
tercan
tercih
tercu
tereddu
terek
terence
teresa
tereyag
terfi
terhis
teri
terileri
terim
terimdir
terimi
terimin
terimini
teriminin
terimler
terimleri
terk
term
termal
terme
termik
terminal
terminali
termodinamik
terms
tero
terra
terre
territory
terror
terrorism
terrorist
terry
ters
tersane
tersi
tersine
tertip
terzi
tes
tesadu
tesbit
tescil
tescillenmis
tescilli
teselli
tesi
tesinde
tesine
tesir
tesis
tesisi
tesisler
tesisleri
tesislerinde
tesislerinin
tesla
teslim
tespit
tespiti
test
testament
testere
testi
testing
testler
testleri
tests
tetikc
tetkik
tetragnatha
teva
tevazı
tevdi
tevelli
tevfik
tevrat
texas
text
texts
teye
teyit
teyze
teyzesi
tez
tezahu
tezga
tezi
tezini
tf
tfen
tff
tfi
tfu
tgrt
th
tha
thai
thailand
thales
thames
than
thanatus
thank
that
thatcher
the
theater
theatre
theft
their
them
theme
then
theo
theodor
theodora
theodore
theodoros
theodosius
theorem
theoretical
theories
theory
therapy
there
theresa
theridion
these
thesis
theta
they
thierry
thing
things
think
thinking
third
thirty
this
thomas
thompson
thomson
thor
thornton
thorpe
those
thought
thousand
threat
threatened
three
thriller
thrones
through
thunder
thursday
thy
thymus
ti
tibarile
tiberius
tibet
tic
tica
ticaret
ticarete
ticareti
ticaretin
ticaretini
ticaretinin
ticari
tico
tie
tienne
ties
tiffany
tiflis
tig
tiger
tigin
tik
tikc
tikleri
tikten
til
tila
tilaf
tilbe
tiler
tilki
till
tim
timatic
timbaland
timberlake
time
timeline
times
timor
timothy
timsah
timur
tin
tina
tine
tip
tipi
tipik
tipleri
tipte
tir
tirak
tiran
tirdi
tirdig
tirdikleri
tirdiler
tire
tirebilir
tirebolu
tireceg
tirecek
tirel
tiren
tirerek
tiri
tirici
tiriciler
tiricileri
tiricilig
tiricisi
tirildi
tirildig
tirilebilir
tirilecek
tirilen
tiriler
tirilere
tirilerek
tirileri
tirilip
tirilir
tirilmek
tirilmektedir
tirilmesi
tirilmesinde
tirilmesinden
tirilmesine
tirilmesini
tirilmesiyle
tirilmeye
tirilmis
tirip
tirir
tirirken
tirirler
tirisi
tiriyor
tirme
tirmede
tirmeden
tirmek
tirmektedir
tirmeler
tirmeleri
tirmen
tirmeni
tirmenin
tirmenler
tirmenlerden
tirmenleri
tirmenlerin
tirmesi
tirmesine
tirmesini
tirmeye
tirmeyi
tirmis
tirol
tis
titan
titanic
titian
titiz
title
titles
tito
titres
titsingh
titus
tiyatro
tiyatroda
tiyatrolar
tiyatroları
tiyatronun
tiyatrosu
tiyatrosunda
tiyatroya
tkp
tl
tlc
tle
tlec
tleg
tleleri
tleli
tlenin
tlenme
tlenmesi
tler
tleri
tlerin
tlerinin
tlesi
tlesinin
tleye
tlu
tm
tme
tmek
tmektedir
tmeye
tmeyen
tmk
tmu
tna
tnt
to
tobago
tobias
toby
tod
today
todd
tofas
together
togo
tohum
tohumlar
tohumları
tohumu
tok
tokat
toki
toksik
tokus
tokyo
told
toledo
tolga
tolkien
toll
tolon
tolstoy
tom
toma
tomas
tomatoes
tomb
tome
tommy
tomorrow
ton
tong
tonga
toni
tonight
tonluk
tonu
tony
too
took
tool
tools
top
topa
topal
topc
tophane
topic
topkapı
topla
topladı
topladıg
toplam
toplama
toplamak
toplamaya
toplamda
toplamı
toplamıs
toplanan
toplanarak
toplandı
toplandıg
toplanma
toplanması
toplanmıs
toplantı
toplantıda
toplantılar
toplantılara
toplantılarda
toplantıları
toplantılarına
toplantının
toplantısı
toplantısına
toplantısında
toplantıya
toplanıp
toplanır
toplar
topları
toplayan
toplayarak
toplayıcı
toplayıp
toplu
topluca
toplulug
topluluk
topluluklar
toplulukları
toplulukların
topluluklarının
toplum
topluma
toplumda
toplumdaki
toplumlar
toplumlarda
toplumların
toplumsal
toplumu
toplumun
toplumunda
toplumunun
topog
topoloji
topolojik
toprag
toprak
topraklar
topraklara
topraklarda
toprakları
toprakların
topraklarına
topraklarında
topraklarındaki
topraklarından
topraklarını
topraklarının
toprakta
topraktan
tops
toptan
topu
topun
tor
tora
torba
torbalı
torch
torino
tork
toro
toronto
toros
toroslar
torpido
torre
torres
tortu
tortul
tortum
torul
torun
torunları
torunu
torunudur
toscana
toskana
tosun
tosya
total
toto
tottenham
touch
toulouse
tour
tourism
tourist
tournament
tours
toward
towards
tower
town
towns
township
toy
toyota
toz
tozu
tr
tra
trablus
trablusgarp
trabzon
trabzonspor
track
tracks
tracy
trade
tradition
traditional
traffic
trafig
trafik
tragedy
trail
trailer
train
training
trains
trajik
trakto
trakya
tramvay
trans
transactions
transfer
transferi
transfermarkt
transformation
transgender
transisto
transit
transition
transkafkasya
transkripsiyon
translated
translation
transmission
transport
transportation
transseksu
trap
travel
travis
travma
tre
treadgold
treasure
treasures
treatment
treaty
trechus
tree
trees
trek
tren
trend
trends
treni
trenler
trenleri
trent
tres
trevor
tri
trial
trials
triangle
tribe
tribu
tribune
tribute
trick
trier
trieste
trilyon
trinidad
trinita
trinity
trio
trionfo
trip
triple
tristan
triumph
troc
trofeo
trompet
tron
troops
trophy
tropical
tropik
tropikal
trouble
troy
troya
trt
tru
true
truman
trump
trust
truth
truva
try
ts
tsa
tse
tsel
tsk
tsn
tsu
tsunami
tt
tta
tte
ttefik
ttefiki
ttefikler
ttefikleri
ttefiklerin
tten
ttifak
ttifakı
ttihat
ttingen
ttu
tu
tuba
tucker
tudes
tudor
tuesday
tufan
tug
tugay
tugayı
tuhaf
tuik
tuk
tukları
tulum
tum
tun
tuna
tunc
tuncay
tuncel
tunceli
tuncer
tunisia
tunlar
tunu
tunus
tunuslu
tur
tura
turabilir
turacak
turan
turanlı
turarak
turbo
turda
turdan
turdu
turdug
turdukları
turdular
turgay
turgut
turgutlu
turhal
turhan
turin
turing
turist
turistik
turistler
turistlerin
turizm
turizmi
turk
turkcell
turkey
turkic
turkish
turkiye
turkmenistan
turks
turları
turma
turmada
turmak
turmaktadır
turmanın
turması
turmaya
turmayı
turmus
turn
turna
turne
turner
turnesi
turnesine
turneye
turns
turnuva
turnuvada
turnuvadan
turnuvanın
turnuvası
turnuvasıdır
turnuvasında
turnuvaya
turnuvayı
turs
turu
turucu
turulabilir
turulan
turuldu
turuldug
turulması
turulmasına
turulmus
turulur
turun
turuna
turunc
turuncu
turunda
turunu
turup
turur
tururken
tururlar
turuyor
turuyordu
tus
tut
tutak
tutan
tutanag
tutanak
tutar
tutarak
tutarlı
tutku
tutkusu
tutma
tutmak
tutmaktadır
tutmaya
tutmayı
tutmus
tutsak
tuttu
tuttug
tutucu
tutuklama
tutuklanan
tutuklandı
tutuklandıg
tutuklanması
tutuklanmıs
tutuklu
tutulan
tutularak
tutuldu
tutuldug
tutulması
tutulmus
tutulur
tutum
tutumu
tutup
tutus
tutuyor
tuva
tuval
tuvalet
tuz
tuzag
tuzak
tuzla
tuzlu
tuzluca
tuzu
tv
tweet
twentieth
twenty
twice
twilight
twin
twins
twist
twitch
twitter
two
txt
ty
tyler
type
types
tyrion
tyson
tz
tı
tıbbi
tıg
tık
tıkc
tıkları
tıklarında
tıklarını
tıktan
tılar
tım
tımi
tın
tına
tıni
tını
tıp
tıpkı
tıpta
tır
tıracak
tıran
tırarak
tıras
tırdı
tırdıg
tırma
tırmacı
tırmacılar
tırmacıların
tırmacısı
tırmada
tırmak
tırmaktadır
tırmalar
tırmalara
tırmalarda
tırmaları
tırmaların
tırmalarına
tırmalarında
tırmalarını
tırmalı
tırmanma
tırmanın
tırmanıs
tırması
tırmasını
tırmaya
tırmayı
tırmıs
tırnak
tırıcı
tırılabilir
tırılan
tırılarak
tırıldı
tırıldıg
tırılmak
tırılmamalıdır
tırılması
tırılmasına
tırılmasını
tırılmıs
tırılır
tırıp
tırır
tırıyor
tıva
u
ua
uae
uan
ub
ubat
ubayazıt
ube
ubesi
ubisoft
ubug
ubuk
ubuklu
ubuntu
uc
uca
ucankus
uccello
uci
ucla
ucu
ucuna
ucunda
ucundaki
ucundan
ucuz
ud
uda
udaki
udan
udine
udur
uefa
ufa
ufak
ufc
ufo
ufuk
ug
uganda
ugiller
ui
uk
uklu
uklular
ukraine
ukrainian
ukrayna
ukraynaca
ukraynalı
ukur
ukurca
ukurova
ukuru
ul
ula
ulan
ular
uları
ulas
uldu
uldug
ule
ulema
ullar
ullara
ullarda
ulları
ulların
ullarına
ullarında
ullarından
ullarını
ullarının
ullu
ulmaktadır
ulmus
ulrich
ultimate
ultra
ultratop
ulu
ulubey
uluc
uludag
ulug
uluk
ulukıs
ulur
ulus
ulusal
uluslar
uluslararası
ulusların
uluslu
ulusoy
ulusu
ulusun
ulusunun
uluyla
ulvi
um
uma
umberto
umda
umdan
umlar
umları
umlu
umludur
umman
ump
umu
umuduyla
umum
umumi
umumiye
umun
umuna
umunda
umundan
umunu
umunun
umur
umut
umutsuz
umuz
umuzu
un
una
unca
uncu
und
unda
undadır
undaki
undan
under
underground
understanding
undertaker
une
unesco
uni
unicef
unicode
union
unit
united
units
unity
univ
universal
universe
universidad
universita
universite
universities
university
unix
unknown
unlar
unlardır
unları
unlas
unlu
unlug
unluk
unlukla
unluklu
unlukta
uno
unsur
unsurlar
unsurları
unsurların
unsurlarını
unsuru
unter
until
unu
unun
unutma
unutulmaz
unutulmus
unuz
unvan
unvandır
unvanı
unvanına
unvanını
unvanıyla
unveils
up
uparrow
update
updated
updates
upon
upper
uppsala
ups
ur
ura
ural
uran
uranu
uranyum
urartu
urası
urban
urdu
urduca
urfa
uri
urken
url
urla
urlar
urlu
urma
urmus
ursula
urt
uruguay
uruguaylı
uruk
urum
urur
uruz
urya
us
usa
usb
usd
use
used
user
users
uses
usgs
usher
using
uslu
uss
ussr
usta
ustası
ustos
usu
usudur
usul
usulu
usuna
usunda
usundaki
usundan
ut
utah
utanc
utc
utku
utma
utrecht
uv
uvas
uww
uy
uya
uyan
uyandıran
uyandırdı
uyanık
uyanır
uyanıs
uyar
uyarak
uyardı
uyarlama
uyarlaması
uyarlanan
uyarlandı
uyarlanmıs
uyarı
uyarıcı
uyarınca
uyarır
uydu
uyduları
uydurma
uydusu
uygarlıg
uygarlık
uyguladı
uyguladıg
uygulama
uygulamada
uygulamak
uygulamalar
uygulamalara
uygulamalarda
uygulamaları
uygulamaların
uygulamalarına
uygulamalarında
uygulamalarını
uygulamalarının
uygulamalı
uygulamanın
uygulaması
uygulamasıdır
uygulamasına
uygulamasını
uygulamasının
uygulamaya
uygulamayı
uygulamıs
uygulanabilir
uygulanacak
uygulanan
uygulandı
uygulandıg
uygulanmaktadır
uygulanması
uygulanmasına
uygulanmasını
uygulanmaya
uygulanmıs
uygulanır
uygular
uygulayan
uygulayarak
uygun
uygundur
uygunlug
uygunluk
uygunsuz
uygur
uygurca
uygurlar
uyku
uyla
uymak
uymayan
uyor
uyordu
uyruklu
uysal
uyum
uyumlu
uyumludur
uyumluluk
uyumu
uyus
uyuyan
uz
uzag
uzak
uzaklas
uzaklıg
uzaklık
uzaklıkta
uzaklıktadır
uzaklıktaki
uzakta
uzaktaki
uzaktan
uzanan
uzanmaktadır
uzantısı
uzanır
uzatma
uzattı
uzatılmıs
uzay
uzaya
uzayda
uzaydan
uzaylı
uzayı
uzayın
uzbekistan
uzhan
uzlar
uzlas
uzman
uzmanlar
uzmanları
uzmanlas
uzmanlıg
uzmanlık
uzmanı
uzun
uzunc
uzunca
uzundur
uzunko
uzunlug
uzunluk
uzunlukta
v
va
vaaz
vaccine
vadede
vadeli
vader
vadi
vadisi
vadisinde
vaftiz
vagon
vahdet
vahiy
vahs
vajinal
vaka
vakaların
vakası
vakfı
vakfın
vakit
vakti
vakum
vakıf
vakıfbank
vakıflar
val
vala
vale
valelly
valencia
valentin
valentina
valentine
valerie
vali
valide
valiler
valilig
valilik
valisi
valla
valladolid
vallahi
valle
valley
value
values
valve
valye
valyeleri
vampir
vampire
van
vancouver
vanessa
vanity
vans
vapur
var
varan
vardar
vardı
vardıg
vardır
vargas
vari
variable
variety
various
varis
varisi
varken
varlıg
varlık
varlıklar
varlıkları
varlıkların
varlıklarını
varlıklı
varmak
varmıs
varna
varolus
varos
varphi
vars
varsa
varsayılan
varsayım
varsayımı
varto
varyantı
varılmıs
varır
varıs
vas
vasili
vasiyet
vasiyeti
vasıtası
vasıtasıyla
vatan
vatana
vatandas
vatansever
vatanseverlik
vatanı
vatican
vatikan
vaughan
vay
vaz
vazgec
vazife
vaziyet
vaziyette
vb
vbe
vd
vde
vdeli
vdesi
vdu
ve
veba
vec
veda
vedat
vefa
vefat
vefatından
vega
vegas
vehbi
vehicle
vehicles
veka
vekaleti
vekil
vekili
vekillig
vekto
vel
vela
veli
veliaht
velid
velvet
ven
venc
vence
vende
vendig
venedik
venedikli
venedikliler
veneto
venezia
veneziano
venezuela
veni
venice
venilir
venilirlig
venini
venli
venlig
venlik
venom
ventriku
venu
venus
ver
vera
veraset
vercin
verde
verdi
verdig
verdik
verdikleri
verdikten
verdiler
verdim
verebilir
vereceg
verecek
verecektir
veren
verenler
vererek
verge
vergi
vergiler
vergileri
vergisi
veri
verici
verildi
verildig
verilebilir
verileceg
verilecek
verilecektir
verilen
veriler
verilere
verilerek
verileri
verilerin
verilerine
verilerini
verilir
verilirken
verilmedi
verilmedig
verilmek
verilmektedir
verilmemis
verilmesi
verilmesine
verilmesini
verilmeye
verilmez
verilmis
verim
verimi
verimli
verimlilig
verimlilik
verin
verinin
verip
verir
verirken
verirler
veris
veritabanı
veriye
veriyi
veriyor
veriyordu
veriyorum
veriyoruz
verlag
verme
vermeden
vermedi
vermedig
vermek
vermekle
vermekte
vermektedir
vermemek
vermemis
vermesi
vermesine
vermesini
vermesiyle
vermeye
vermeyeceg
vermeyen
vermeyi
vermez
vermis
vermont
vernon
verona
veronica
verrocchio
versailles
versay
verse
version
versiyon
versiyonları
versiyonu
versiyonudur
versiyonunda
versiyonunu
versiyonunun
versus
very
ves
vesika
vesile
vesilesiyle
vestfalya
vet
veteran
veterinary
veteriner
veto
vetse
vettel
vey
veya
veyahut
veys
veysel
vez
vezir
veziri
vezirko
vfb
vfl
vg
vgu
vh
vhs
vi
via
viacom
vic
vicdan
vice
vicente
vichy
vickers
victims
victor
victoria
victory
vida
video
videoda
videolar
videoları
videonun
videos
videosu
vie
vienna
vietnam
view
views
vigo
vii
viii
vik
viki
vikikitap
viking
vikipedi
vikiso
vikitu
viktor
vila
vilayet
vilayeti
vilayetin
vilayetinin
vili
villa
village
villarreal
ville
vilnius
vin
vinc
vince
vincent
vincenzo
vinci
vintage
viola
violence
vip
viral
virgin
virginia
virtu
virtual
viru
virus
vis
visa
vision
visit
vista
visual
vita
vitamin
vitamini
vites
vito
vittorio
viva
vivo
viyana
viyolonsel
viz
vize
vizesiz
vizyon
vizyona
vlad
vladimir
vme
vmek
vo
vodafone
vogue
voice
voices
void
vokal
vokalist
vokalisti
vokaller
vokalleri
vol
voldemort
voleybol
voleybolcu
volga
volkan
volkanik
volkswagen
vols
volt
volta
voltaj
volume
volumes
volvo
vom
von
vor
vote
voting
vox
voyage
voyager
voyvodalıg
vpn
vr
vs
vt
vu
vuc
vuelta
vuku
vulture
vur
vural
vuran
vurarak
vurdu
vurdug
vurgu
vurguladı
vurgulamak
vurgular
vurgulayan
vurma
vurmak
vurmus
vuru
vurucu
vurucunun
vuruda
vurulan
vurularak
vuruları
vuruldu
vuruldug
vurulmus
vurur
vurus
vurusu
vy
və
w
wa
wade
waffen
wagner
wagon
wait
waiting
wake
wales
walk
walker
walking
wall
wallace
wallis
walsh
walt
walter
walther
walton
wan
wanda
wanderers
wang
wanna
want
wanted
wants
war
ward
warfare
warner
warning
warren
warrior
warriors
wars
warwick
was
washington
wasp
watch
water
waterloo
waters
watson
watt
watts
wave
waves
way
wayback
wayne
ways
wb
wcw
we
weapon
weapons
wear
weather
weaver
web
webb
weber
website
websitesi
websitesinde
webster
wedding
wednesday
week
weekend
weekly
weeknd
weeks
wehrmacht
wei
weight
weimar
weiss
welch
welcome
well
welle
wellington
wells
welsh
welt
wembley
wen
wendy
went
werder
were
werner
wes
wesley
west
western
westminster
weston
westport
what
whedon
wheeler
when
where
which
while
white
whitney
who
whole
whose
why
wi
wide
wie
wien
wiener
wiesbaden
wife
wigan
wii
wiki
wikileaks
wikimedia
wikipedia
wikisky
wild
wilde
wilder
wildlife
wiley
wilhelm
wilkins
wilkinson
will
willem
william
williams
williamson
willie
willis
willow
willy
wilson
wiltshire
wimbledon
win
winchester
wind
window
windows
windsor
wine
wing
wings
winner
winners
winning
wins
winston
winter
wir
wire
wired
wireless
wisconsin
wisdom
wise
wish
witch
witcher
with
within
without
witness
wittgenstein
wives
wiwibloggs
wm
wo
wolf
wolfe
wolff
wolfgang
wolfram
wolfsburg
wolverhampton
wolves
woman
women
won
wonder
wonderland
wong
woo
wood
woods
woody
word
wordpress
words
work
workers
working
works
workshop
world
worlds
worldwide
worms
worst
worth
would
wow
wrestlemania
wrestleview
wrestling
wright
write
writeline
writer
writers
writing
writings
written
wrong
wrote
wta
wu
wwe
wwf
www
wyatt
wyoming
x
xander
xavier
xbox
xi
xia
xiaomi
xico
xii
xiii
xinjiang
xiv
xix
xl
xls
xml
xp
xperia
xu
xv
xvi
xvii
xviii
xx
xxi
xxii
xxiii
xxx
y
ya
yaban
yabancı
yabancılar
yabancılas
yabani
yad
yada
yag
yahoo
yahs
yahudi
yahudiler
yahudilere
yahudileri
yahudilerin
yahudilig
yahudilik
yahudisi
yahut
yahya
yak
yaka
yakaladı
yakaladıg
yakalama
yakalamak
yakalamıs
yakalanan
yakalanarak
yakalandı
yakalandıg
yakalanması
yakalanmıs
yakalanıp
yakalanır
yakalar
yakalayan
yakar
yakası
yakasında
yaklas
yakma
yaktı
yakub
yakup
yakut
yakıldı
yakın
yakında
yakındaki
yakından
yakındır
yakınlardaki
yakınları
yakınlarına
yakınlarında
yakınlarındaki
yakınlas
yakınlıg
yakınlık
yakını
yakınında
yakınındaki
yakıp
yakıs
yakıt
yakıtı
yalan
yalancı
yalar
yaları
yaların
yalc
yale
yalman
yalnız
yalnızca
yalnızlıg
yalnızlık
yalova
yalvac
yalı
yalın
yama
yamac
yamamoto
yaman
yan
yana
yanal
yanan
yanar
yanardag
yanas
yanda
yandan
yandas
yandı
yandım
yang
yangın
yangında
yangını
yangının
yani
yankı
yanlarına
yanlarında
yanlıs
yanlısı
yanma
yanmıs
yansıma
yansıması
yansıtan
yansıtmaktadır
yansıttıg
yansıtır
yansıyan
yanya
yanı
yanık
yanıma
yanımda
yanın
yanına
yanında
yanındaki
yanından
yanıt
yanıtı
yap
yapabileceg
yapabilen
yapabilir
yapabilirler
yapabilmek
yapacag
yapacak
yapacakları
yapacaktır
yapalım
yapamaz
yapan
yapanlar
yapar
yaparak
yaparken
yaparlar
yapay
yapma
yapmadan
yapmadı
yapmadıg
yapmak
yapmakla
yapmakta
yapmaktadır
yapmaktan
yapmaktaydı
yapmaları
yapmamıs
yapmanın
yapması
yapmasına
yapmasını
yapmasıyla
yapmaya
yapmayı
yapmaz
yapmıs
yaprag
yaprak
yapraklar
yaprakları
yapraklı
yaptı
yaptıg
yaptık
yaptıkları
yaptıklarını
yaptıktan
yaptılar
yaptım
yaptırdı
yaptırdıg
yaptırmak
yaptırmıs
yaptırılan
yaptırılmıs
yaptırım
yapı
yapıcı
yapıda
yapıdır
yapılabilir
yapılabilmektedir
yapılacag
yapılacak
yapılacaktır
yapılamaz
yapılan
yapılandırma
yapılandırılmıs
yapılanma
yapılanması
yapılar
yapılara
yapılarak
yapılarda
yapılardan
yapıları
yapıların
yapılarını
yapılarının
yapıldı
yapıldıg
yapıldıktan
yapılma
yapılmadan
yapılmadı
yapılmadıg
yapılmak
yapılmakta
yapılmaktadır
yapılmalıdır
yapılmamıs
yapılması
yapılmasına
yapılmasını
yapılmaya
yapılmıs
yapılı
yapılıp
yapılır
yapılırdı
yapılırken
yapılıs
yapılıyor
yapım
yapımcı
yapımcılar
yapımcıları
yapımcılıg
yapımcısı
yapımda
yapımlar
yapımlarda
yapımı
yapımına
yapımında
yapımını
yapın
yapının
yapıp
yapıs
yapısal
yapısı
yapısına
yapısında
yapısını
yapısının
yapıt
yapıtları
yapıtı
yapıya
yapıyor
yapıyordu
yapıyorlar
yapıyoruz
yapıyı
yar
yara
yaralanan
yaralandı
yaralandıg
yaralanma
yaralanmıs
yaralar
yaralı
yaramaz
yarar
yararlanan
yararlanarak
yararlanmak
yararlı
yararı
yararına
yaras
yarasa
yarası
yaratan
yaratma
yaratmak
yaratmaya
yaratmıs
yarattı
yarattıg
yaratıcı
yaratıcısı
yaratıg
yaratık
yaratıklar
yaratılan
yaratıldı
yaratılmıs
yaratılıs
yaratır
yarayan
yarbay
yard
yardım
yardıma
yardımcı
yardımcıları
yardımcılıg
yardımcısı
yardımda
yardımları
yardımlas
yardımı
yardımına
yardımıyla
yargı
yargıc
yargıcı
yargılama
yargılanan
yargılandı
yargıtay
yarim
yarı
yarıc
yarıda
yarık
yarım
yarımada
yarımadası
yarımku
yarın
yarıs
yarısı
yarısına
yarısında
yarısından
yarısını
yarısının
yarıya
yas
yasa
yasadıs
yasag
yasak
yasakladı
yasaklandı
yasaklanması
yasaklanmıs
yasaklayan
yasaktır
yasal
yasalar
yasalara
yasaları
yasaların
yasalarına
yasallas
yasama
yasanın
yasası
yasasına
yasasını
yasasının
yasaya
yasayı
yasemin
yasin
yassı
yası
yasında
yat
yatag
yatak
yatakları
yatan
yatar
yatay
yattıg
yatılı
yatırım
yatırımlar
yatırımları
yatıs
yav
yavas
yavru
yavrular
yavrum
yavrusu
yavuz
yay
yaya
yayan
yaygın
yaygındı
yaygındır
yaygınlas
yayla
yayladır
yaylası
yaylı
yayma
yaymak
yayı
yayılan
yayıldı
yayıldıg
yayılma
yayılması
yayılmasına
yayılmasını
yayılmaya
yayılmıs
yayılım
yayılır
yayılıs
yayım
yayımcı
yayımladı
yayımladıg
yayımlamıs
yayımlanan
yayımlandı
yayımlandıg
yayımlanma
yayımlanması
yayımlanmaya
yayımlanmıs
yayımlayan
yayımı
yayın
yayına
yayıncı
yayıncılıg
yayıncılık
yayıncısı
yayında
yayından
yayınevi
yayınladı
yayınladıg
yayınladılar
yayınlamaya
yayınlamıs
yayınlanacag
yayınlanacak
yayınlanan
yayınlandı
yayınlandıg
yayınlandıktan
yayınlanma
yayınlanmaktadır
yayınlanmamıs
yayınlanması
yayınlanmasından
yayınlanmaya
yayınlanmıs
yayınlanır
yayınlar
yayınlarda
yayınları
yayınların
yayınlayan
yayınlayarak
yayını
yayınına
yaz
yazan
yazar
yazarak
yazardır
yazarken
yazarlar
yazarları
yazarların
yazarlarından
yazarlarının
yazarlıg
yazarlık
yazarı
yazarıdır
yazarın
yazdı
yazdıg
yazdıkları
yazdım
yazları
yazlık
yazma
yazmak
yazmaktadır
yazmaları
yazması
yazmaya
yazmayı
yazmıs
yazı
yazıcı
yazıcıog
yazıda
yazık
yazılabilir
yazılan
yazılar
yazıları
yazıların
yazılarında
yazılarını
yazıldı
yazıldıg
yazılmamıs
yazılması
yazılmıs
yazılı
yazılıdır
yazılım
yazılımlar
yazılımları
yazılımı
yazılımın
yazılıp
yazılır
yazılıs
yazım
yazımı
yazın
yazında
yazının
yazıp
yazıs
yazısı
yazısında
yazıt
yazıtları
yazıtı
yazıya
yazıyor
yazıyı
yde
ydeki
yden
ydi
ydu
ydı
ye
year
yearbook
years
yede
yedek
yeden
yedi
yedig
yedinci
yedir
yeditepe
yeg
yehova
yehuda
yekta
yel
yeler
yelerden
yeleri
yelerin
yelerinden
yelerine
yelerini
yelerinin
yeleriyle
yeli
yelig
yelik
yelken
yelkenli
yellow
yeltsin
yem
yeme
yemeg
yemek
yemekler
yemekleri
yemen
yemi
yemin
yemini
yemis
yen
yendi
yendig
yendikleri
yenen
yener
yenerek
yengec
yeni
yenic
yenice
yeniden
yenidog
yenik
yenikapı
yeniko
yenildi
yenileme
yenilen
yenilendi
yenilenebilir
yenilenen
yenilenmesi
yenilenmis
yenilerek
yenilgi
yenilgisi
yenilgiye
yenilik
yenilikc
yenilikler
yenilmis
yenimahalle
yenin
yenip
yenir
yenis
yenisey
yenmek
yenmis
yeon
yepyeni
yer
yeraltı
yerc
yerde
yerdeki
yerden
yerdir
yere
yerek
yerel
yerelnet
yeri
yeridir
yerin
yerinde
yerinden
yerine
yerini
yerinin
yerko
yerku
yerle
yerler
yerlerde
yerlerden
yerlere
yerleri
yerlerin
yerlerinde
yerlerinden
yerlerine
yerlerini
yerlerinin
yerles
yerli
yerlileri
yerlisi
yerus
yeryu
yes
yesevi
yesi
yesidir
yesinden
yesine
yesini
yesinin
yesiydi
yet
yetecek
yeteneg
yetenek
yetenekleri
yeteneklerini
yetenekli
yeter
yeteri
yeterince
yeterli
yeterlidir
yeterlilik
yetersiz
yetersizlig
yeti
yetim
yetis
yetki
yetkileri
yetkilerini
yetkili
yetkililer
yetkilileri
yetkililerin
yetkililerinin
yetkilisi
yetkin
yetkisi
yetkisine
yetkisini
yetler
yetmezlig
yetmis
yevm
yeye
yeyi
yezid
yg
yi
yidis
yig
yildirim
yildiz
yiles
yilmaz
yin
yine
yir
yirmi
yirminci
yitirdi
yitiren
yitirmis
yiyeceg
yiyecek
yiyecekler
yiyen
yku
yky
yla
yle
ylece
yledi
yledig
yledikleri
ylediler
yledim
yledir
ylelikle
ylem
yleme
ylemek
ylemektedir
ylemesi
ylemeye
ylemez
ylemis
ylence
ylendi
ylendig
ylenebilir
ylenen
ylenir
yleniyor
ylenmektedir
ylenmis
ylentiler
yler
ylerde
ylerden
ylere
yleri
ylerimiz
ylerimizin
ylerin
ylerinde
ylerinden
ylerine
ylerini
ylerinin
ylerken
ylerler
yles
ylesi
ylesine
yleyeceg
yleyen
yleyerek
yleyeyim
yleyip
yleyse
ylu
ynu
yo
yog
yoga
yok
yoklug
yokmus
yokohama
yoksa
yoksul
yoksullug
yoksulluk
yoksun
yoktu
yoktur
yokus
yol
yola
yolcu
yolcular
yolcuları
yolcuların
yolculug
yolculuk
yolda
yoldan
yoldas
yoldur
yolla
yolladı
yollar
yollara
yollarda
yollardan
yollarla
yolları
yolların
yollarına
yollarını
yollarının
yolsuzluk
yolu
yoludur
yolun
yoluna
yolunda
yolundaki
yolundan
yolunu
yolunun
yoluyla
yon
yonca
yong
yoo
yoon
yor
yordu
yorgun
yorgunluk
york
yorker
yorkshire
yorlar
yorlardı
yorsun
yorsunuz
yorum
yorumcu
yorumcusu
yorumladı
yorumlanmıs
yorumlar
yorumları
yorumu
yorumunu
yoruz
yoshida
yosun
you
young
your
yourself
youth
youtube
yozgat
yozlas
ypg
yrd
yse
ysk
yspor
ysu
yu
yuan
yugoslav
yugoslavia
yugoslavya
yuhanna
yukarı
yukarıda
yukarıdaki
yukarıdan
yukarıya
yuki
yukon
yumruk
yumurta
yumurtalık
yumus
yun
yunan
yunanca
yunanistan
yunanlar
yunanların
yunus
yurda
yurdakul
yurdu
yuri
yurt
yurtdıs
yurtic
yurtkuran
yurtsever
yurttas
yusuf
yusufeli
yuva
yuvarlak
yuvası
yves
yy
yyar
yye
yı
yıg
yık
yıkama
yıkmak
yıkıcı
yıkılan
yıkıldı
yıkılması
yıkılmıs
yıkılıs
yıkım
yıkıma
yıl
yıla
yılan
yılbas
yılda
yıldan
yıldo
yıldır
yıldırım
yıldız
yıldızdır
yıldızeli
yıldızlar
yıldızlararası
yıldızları
yıldızların
yıldızlı
yıldızı
yıldızın
yıllar
yıllara
yıllarca
yıllarda
yıllardaki
yıllardan
yıllardır
yılları
yılların
yıllarına
yıllarında
yıllarındaki
yıllarından
yıllarını
yıllıg
yıllık
yılmaz
yılı
yılıdır
yılın
yılına
yılında
yılındaki
yılından
yılını
yılının
yırtıcı
z
za
zach
zack
zafer
zafere
zaferi
zaferin
zaferini
zaferiyle
zaferle
zag
zagreb
zahir
zakere
zakereler
zal
zalim
zalp
zaltı
zaltına
zaltında
zam
zaman
zamana
zamanda
zamandan
zamandır
zamanki
zamanla
zamanlar
zamanlarda
zamanların
zamanlarında
zamanlı
zamanı
zamanın
zamanına
zamanında
zamanından
zamanını
zamanının
zambiya
zan
zap
zar
zara
zaragoza
zarar
zarara
zararlı
zararı
zarf
zarfında
zarif
zarı
zat
zaten
zatu
zavallı
zayiat
zayn
zayıf
zayıflıg
zaza
zazaca
zbas
zbay
zbek
zbekc
zbekistan
zc
zcan
zce
zci
zcu
zdag
zde
zdeki
zdemir
zden
zdes
zdesi
zdu
ze
zealand
zede
zedir
zehir
zehirli
zehra
zeit
zeitschrift
zeitung
zeka
zekeriya
zeki
zel
zelanda
zelandalı
zeldir
zeler
zeleri
zeli
zeller
zelles
zellig
zellik
zellikle
zellikler
zelliklere
zellikleri
zelliklerin
zelliklerinden
zelliklerine
zelliklerini
zelliklerinin
zellikleriyle
zellikli
zelotes
zelti
zeltme
zeltmek
zelyurt
zemin
zeminde
zemine
zemini
zen
zenci
zene
zeneg
zenek
zengi
zengin
zengindir
zenginles
zenginlig
zenginlik
zeni
zenin
zenine
zenini
zeninin
zenit
zenle
zenledi
zenledig
zenleme
zenlemek
zenlemektedir
zenlemeler
zenlemeleri
zenlemesi
zenlemeye
zenlemis
zenlendi
zenlendig
zenlenecek
zenlenen
zenlenir
zenlenmektedir
zenlenmesi
zenlenmis
zenler
zenleyen
zenleyerek
zenleyici
zenli
zeno
zensiz
zeppelin
zer
zerdu
zere
zereyken
zerga
zeri
zerinde
zerindedir
zerindeki
zerinden
zerine
zerk
zerklig
zerklik
zerlerine
zero
zerrin
zesi
zesidir
zesinde
zesine
zet
zeta
zeti
zetim
zetiminde
zetle
zetleme
zeus
zevk
zey
zeybek
zeyd
zeyde
zeydeki
zeye
zeyi
zeyin
zeyinde
zeyindeki
zeyinden
zeyine
zeyini
zeyinin
zeyleri
zeynel
zeynep
zeysel
zeytin
zeytinburnu
zeytinyag
zga
zgar
zgarı
zge
zgec
zgu
zhan
zhang
zhao
zhou
zhu
zi
zic
zig
ziggler
zihin
zihinsel
zihni
zik
zikal
zikali
zikle
zikler
zikleri
ziklerini
zikte
zil
zile
zimbabve
zin
zina
zincir
zinciri
zincirlikuyu
zine
zira
ziraat
zirve
zirvede
zirvesi
zirvesinde
zirvesine
zirveye
zisyen
zisyeni
zisyenler
ziya
ziyade
ziyaret
ziyaretc
ziyarete
ziyareti
zkan
zko
zlanda
zlandaca
zle
zlem
zlemci
zlemde
zleme
zlemevi
zlemi
zlemlenebilir
zlemlenen
zlemlenmis
zlemler
zlemleri
zlemsel
zlenen
zlenmis
zler
zlerce
zlerden
zlere
zleri
zlerin
zlerinde
zlerinden
zlerine
zlerini
zlerinin
zleriyle
zlerle
zles
zli
zlu
zme
zmek
zmeye
zmir
zmirspor
zmit
zne
znel
znik
zo
zoe
zog
zombie
zona
zone
zonguldak
zoo
zoolog
zooloji
zoom
zor
zordur
zorla
zorladı
zorlandı
zorlar
zorlas
zorlu
zorlug
zorluk
zorluklar
zorlukları
zorunda
zorundadır
zorundadırlar
zorundaydı
zorunlu
zorunludur
zorunlulug
zorunluluk
zsu
ztepe
ztu
zu
zuhal
zulmu
zulu
zum
zur
zurab
zvezda
zyas
zyon
zyıl
zyıla
zyılda
zyıldaki
zyıldan
zyıllar
zyıllarda
zyılın
zzet
zı
zıg
zım
zına
zında
zından
zını
zırh
zırhlı
zırhı
zıt
{
|
}
~


¡
£
¤
¥
§
¨
©
ª
«
¬
­
®
¯
°
±
²
³
´
µ
·
¹
º
»
½
¿
×
ß
æ
ð
÷
ø
ħ
ı
ıc
ıcı
ıda
ıdadır
ıdaki
ıdakiler
ıdan
ıdı
ıdıg
ıdır
ıg
ık
ıkabilir
ıkacag
ıkacak
ıkan
ıkar
ıkaracag
ıkarak
ıkaran
ıkararak
ıkardı
ıkardıg
ıkardıkları
ıkardılar
ıkarken
ıkarlar
ıkarları
ıkarlarını
ıkarma
ıkarmak
ıkarması
ıkarmaya
ıkarmayı
ıkarmıs
ıkarsa
ıkartma
ıkartmıs
ıkarttı
ıkarttıg
ıkartılan
ıkartıldı
ıkartılmıs
ıkarılabilir
ıkarılan
ıkarıldı
ıkarıldıg
ıkarılması
ıkarılmıs
ıkarılır
ıkarıp
ıkarır
ıkc
ıkladı
ıkladıg
ıkladılar
ıklama
ıklamada
ıklamak
ıklamalar
ıklamaları
ıklaması
ıklamasına
ıklamasında
ıklamasını
ıklamaya
ıklamayı
ıklamıs
ıklanan
ıklandı
ıklandıg
ıklanmıs
ıklanır
ıklar
ıkları
ıklarında
ıklayan
ıklı
ıklıg
ıklık
ıklıklar
ıkma
ıkmadan
ıkmadı
ıkmadıg
ıkmak
ıkmaktadır
ıkması
ıkmasına
ıkmasından
ıkmasını
ıkmasıyla
ıkmaya
ıkmayı
ıkmaz
ıkmıs
ıksa
ıkta
ıktan
ıktı
ıktıg
ıktıkları
ıktıktan
ıktılar
ıktım
ıktır
ıktısı
ıkınca
ıkıntı
ıkıp
ıkıs
ıkıyor
ıl
ılabilir
ılacag
ılacak
ıladı
ılama
ılamak
ılan
ılandı
ılanması
ılanmıs
ılar
ılara
ılarak
ılardan
ılarla
ıları
ıların
ılarına
ılarından
ılarını
ılarının
ılas
ılayan
ılayıcı
ıldı
ıldıg
ıldıktan
ıldır
ılgın
ılma
ılmadık
ılmak
ılmaktadır
ılmamıs
ılması
ılmasına
ılmasından
ılmasını
ılmasının
ılmasıyla
ılmaya
ılmaz
ılmıs
ılı
ılıg
ılık
ılıklı
ılım
ılıman
ılımlı
ılımı
ılımının
ılıp
ılır
ılıs
ılıyor
ım
ıma
ımacılıg
ımacılık
ımak
ımaktadır
ıması
ımaya
ımda
ımdan
ımdır
ımla
ımlar
ımları
ımlı
ımlılıg
[...]
