!
"
#
##a
##aa
##ab
##ac
##ad
##ae
##af
##ag
##ah
##ai
##aj
##ak
##al
##am
##an
##ao
##ap
##aq
##ar
##as
##at
##au
##av
##aw
##ax
##ay
##az
##b
##ba
##bb
##bc
##bd
##be
##bf
##bg
##bh
##bi
##bj
##bk
##bl
##bm
##bn
##bo
##bp
##bq
##br
##bs
##bt
##bu
##bv
##bw
##bx
##by
##bz
##c
##ca
##cb
##cc
##cd
##ce
##cf
##cg
##ch
##ci
##cj
##ck
##cl
##cm
##cn
##co
##cp
##cq
##cr
##cs
##ct
##cu
##cv
##cw
##cx
##cy
##cz
##d
##da
##db
##dc
##dd
##de
##df
##dg
##dh
##di
##dj
##dk
##dl
##dm
##dn
##do
##dp
##dq
##dr
##ds
##dt
##du
##dv
##dw
##dx
##dy
##dz
##e
##ea
##eb
##ec
##ed
##ee
##ef
##eg
##eh
##ei
##ej
##ek
##el
##em
##en
##eo
##ep
##eq
##er
##es
##et
##eu
##ev
##ew
##ex
##ey
##ez
##f
##fa
##fb
##fc
##fd
##fe
##ff
##fg
##fh
##fi
##fj
##fk
##fl
##fm
##fn
##fo
##fp
##fq
##fr
##fs
##ft
##fu
##fv
##fw
##fx
##fy
##fz
##g
##ga
##gb
##gc
##gd
##ge
##gf
##gg
##gh
##gi
##gj
##gk
##gl
##gm
##gn
##go
##gp
##gq
##gr
##gs
##gt
##gu
##gv
##gw
##gx
##gy
##gz
##h
##ha
##hb
##hc
##hd
##he
##hf
##hg
##hh
##hi
##hj
##hk
##hl
##hm
##hn
##ho
##hp
##hq
##hr
##hs
##ht
##hu
##hv
##hw
##hx
##hy
##hz
##i
##ia
##ib
##ic
##id
##ie
##if
##ig
##ih
##ii
##ij
##ik
##il
##im
##in
##io
##ip
##iq
##ir
##is
##it
##iu
##iv
##iw
##ix
##iy
##iz
##j
##ja
##jb
##jc
##jd
##je
##jf
##jg
##jh
##ji
##jj
##jk
##jl
##jm
##jn
##jo
##jp
##jq
##jr
##js
##jt
##ju
##jv
##jw
##jx
##jy
##jz
##k
##ka
##kb
##kc
##kd
##ke
##kf
##kg
##kh
##ki
##kj
##kk
##kl
##km
##kn
##ko
##kp
##kq
##kr
##ks
##kt
##ku
##kv
##kw
##kx
##ky
##kz
##l
##la
##lb
##lc
##ld
##le
##lf
##lg
##lh
##li
##lj
##lk
##ll
##lm
##ln
##lo
##lp
##lq
##lr
##ls
##lt
##lu
##lv
##lw
##lx
##ly
##lz
##m
##ma
##mb
##mc
##md
##me
##mf
##mg
##mh
##mi
##mj
##mk
##ml
##mm
##mn
##mo
##mp
##mq
##mr
##ms
##mt
##mu
##mv
##mw
##mx
##my
##mz
##n
##na
##nb
##nc
##nd
##ne
##nf
##ng
##nh
##ni
##nj
##nk
##nl
##nm
##nn
##no
##np
##nq
##nr
##ns
##nt
##nu
##nv
##nw
##nx
##ny
##nz
##o
##oa
##ob
##oc
##od
##oe
##of
##og
##oh
##oi
##oj
##ok
##ol
##om
##on
##oo
##op
##oq
##or
##os
##ot
##ou
##ov
##ow
##ox
##oy
##oz
##p
##pa
##pb
##pc
##pd
##pe
##pf
##pg
##ph
##pi
##pj
##pk
##pl
##pm
##pn
##po
##pp
##pq
##pr
##ps
##pt
##pu
##pv
##pw
##px
##py
##pz
##q
##qa
##qb
##qc
##qd
##qe
##qf
##qg
##qh
##qi
##qj
##qk
##ql
##qm
##qn
##qo
##qp
##qq
##qr
##qs
##qt
##qu
##qv
##qw
##qx
##qy
##qz
##r
##ra
##rb
##rc
##rd
##re
##rf
##rg
##rh
##ri
##rj
##rk
##rl
##rm
##rn
##ro
##rp
##rq
##rr
##rs
##rt
##ru
##rv
##rw
##rx
##ry
##rz
##s
##sa
##sb
##sc
##sd
##se
##sf
##sg
##sh
##si
##sj
##sk
##sl
##sm
##sn
##so
##sp
##sq
##sr
##ss
##st
##su
##sv
##sw
##sx
##sy
##sz
##t
##ta
##tb
##tc
##td
##te
##tf
##tg
##th
##ti
##tj
##tk
##tl
##tm
##tn
##to
##tp
##tq
##tr
##ts
##tt
##tu
##tv
##tw
##tx
##ty
##tz
##u
##ua
##ub
##uc
##ud
##ue
##uf
##ug
##uh
##ui
##uj
##uk
##ul
##um
##un
##uo
##up
##uq
##ur
##us
##ut
##uu
##uv
##uw
##ux
##uy
##uz
##v
##va
##vb
##vc
##vd
##ve
##vf
##vg
##vh
##vi
##vj
##vk
##vl
##vm
##vn
##vo
##vp
##vq
##vr
##vs
##vt
##vu
##vv
##vw
##vx
##vy
##vz
##w
##wa
##wb
##wc
##wd
##we
##wf
##wg
##wh
##wi
##wj
##wk
##wl
##wm
##wn
##wo
##wp
##wq
##wr
##ws
##wt
##wu
##wv
##ww
##wx
##wy
##wz
##x
##xa
##xb
##xc
##xd
##xe
##xf
##xg
##xh
##xi
##xj
##xk
##xl
##xm
##xn
##xo
##xp
##xq
##xr
##xs
##xt
##xu
##xv
##xw
##xx
##xy
##xz
##y
##ya
##yb
##yc
##yd
##ye
##yf
##yg
##yh
##yi
##yj
##yk
##yl
##ym
##yn
##yo
##yp
##yq
##yr
##ys
##yt
##yu
##yv
##yw
##yx
##yy
##yz
##z
##za
##zb
##zc
##zd
##ze
##zf
##zg
##zh
##zi
##zj
##zk
##zl
##zm
##zn
##zo
##zp
##zq
##zr
##zs
##zt
##zu
##zv
##zw
##zx
##zy
##zz
$
%
&
'
(
)
*
+
,
-
.
/
0
00
000
0002
0004
0006
001
002
0022
0024
003
004
005
006
007
008
009
01
010
011
012
0128
013
0195373851
0198742425
0199604517
02
03
0362
04
05
06
07
08
0810811782
09
0a
0b
0c
0d
0e
0f
0g
0h
0i
0j
0k
0l
0m
0n
0o
0p
0q
0r
0s
0t
0u
0v
0w
0x
0y
0z
1
10
100
1000
1001
1002
1006
1007
101
1016
1017
102
1021
1024
1025
1029
103
1037
1038
104
105
1050
1051
1056
106
1063
107
1071
1073
108
1080
1081
1086
1088
109
1093
1095
1096
1097
1098
1099
11
110
1100
1101
1103
1109
111
1111
1119607410
112
1126
1128
113
1130
1136
114
1146
115
116
117
1177
118
1186
119
12
120
1200
1204
121
122
123
12385
124
125
1250
126
1260
1261
127
128
1280
129
13
130
1300
1302
1308
131
132
133
134
135
1350
136
1364
1365
137
1371
1377
138
1385
1389
139
14
140
1400
1402
141
1410
142
143
144
1440
145
1450
1453
146
1460
1461
1464
1467
1469
147
1470
1471
1475
148
1480
1481
1485
1487
149
1490
1492
15
150
1500
1501
1502
1503
1506
151
1510
1512
1514
1515
1516
1517
1518
1519
152
1520
1521
1522
1523
1524
1525
1526
153
1530
1533
1534
1536
1538
1538102534
154
1540
1541
1543
155
1550
1551
1552
1553
1555
1556
1557
1558
1559
156
1560
1561
1565
1566
1569
157
1570
1571
1572
1573
1574
1578
158
1580
1582
1585
159
1590
1591
1595
1596
1598
16
160
1600
1603
1604
1605
1606
1609
161
1610
1611
1612
1616
1618
162
1620
1621
1622
1623
1625
1628
1629
163
1630
1632
1633
1638
1639
164
1640
1642
1643
1644
1645
1648
1649
165
1650
1654
1655
1656
1659
166
1660
1661
1664
1665
1666
1667
167
1670
1672
1674
1676
168
1680
1683
1685
1687
1688
1689
169
1690
1691
1694
1695
1696
1699
17
170
1700
1701
1703
1707
1709
171
1710
1711
1713
1714
1715
1718
172
1720
1721
1722
1723
1724
1725
1727
1729
173
1730
1731
1732
1733
1735
1736
1737
1739
174
1740
1741
1742
1743
1744
1745
1746
1747
1748
1749
175
1750
1751
1752
1753
1754
1755
1756
1757
1758
1759
176
1760
1761
1762
1763
1764
1765
1766
1767
1768
1769
177
1770
1771
1772
1773
1774
1775
1776
1777
1778
1779
178
1780
1781
1782
1783
1784
1785
1786
1787
1788
1789
179
1790
1791
1792
1793
1794
1795
1796
1797
1798
1799
18
180
1800
1801
1802
1803
1804
1805
1806
1807
1808
1809
181
1810
1811
1812
1813
1814
1815
1816
1817
1818
1819
182
1820
1821
1822
1823
1824
1825
1826
1827
1828
1829
183
1830
1831
1832
1833
1834
1835
1836
1837
1838
1839
184
1840
1841
1842
1843
1844
1845
1846
1847
1848
1849
185
1850
1851
1852
1853
1854
1855
1856
1857
1858
1859
186
1860
1861
1862
1863
1864
1865
1866
1867
1868
1869
187
1870
1871
1872
1873
1874
1875
1876
1877
1878
1879
188
1880
1881
1882
1883
1884
1885
1886
1887
1888
1889
189
1890
1891
1892
1893
1894
1895
1896
1897
1898
1899
19
190
1900
1901
1902
1903
1904
1905
1906
1907
1908
1909
191
1910
1911
1912
1913
1914
1915
1916
1917
1918
1919
192
1920
1921
1922
1923
1924
1925
1926
1927
1928
1929
193
1930
1931
1932
1933
1934
1935
1936
1937
1938
1939
194
1940
1941
1942
1943
1944
1945
1946
1947
1948
1949
195
1950
1951
1952
1953
1954
1955
1956
1957
1958
1959
196
1960
1961
1962
1963
1964
1965
1966
1967
1968
1969
197
1970
1971
1972
1973
1974
1975
1976
1977
1978
1979
198
1980
1981
1982
1983
1984
1985
1986
1987
1988
1989
199
1990
1991
1992
1993
1994
1995
1996
1997
1998
1999
1a
1b
1c
1d
1e
1f
1g
1h
1i
1j
1k
1l
1m
1n
1o
1p
1q
1r
1s
1t
1u
1v
1w
1x
1y
1z
2
20
200
2000
2001
2002
2003
2004
2005
2006
2007
2008
2009
201
2010
2011
2012
2013
2014
2015
2016
2017
2018
2019
202
2020
2021
2022
2023
2024
203
2030
204
205
206
207
208
209
21
210
2100
211
212
213
214
215
216
217
218
219
22
220
221
222
223
224
225
226
227
228
229
23
230
2305
2307
231
232
233
234
235
236
237
238
239
24
240
241
242
243
244
245
246
247
248
249
25
250
2500
251
252
253
254
255
256
257
258
259
26
260
2600
261
262
263
264
265
266
267
268
269
27
270
271
272
273
274
275
276
277
278
279
28
280
281
282
283
284
285
286
287
288
289
29
290
291
292
293
294
295
296
297
298
299
2a
2b
2c
2d
2e
2f
2g
2h
2i
2j
2k
2l
2m
2n
2o
2p
2q
2r
2s
2t
2u
2v
2w
2x
2y
2z
3
30
300
3000
301
302
303
304
305
306
307
308
309
31
310
311
312
313
314
315
316
3166
317
318
319
32
320
321
322
323
324
325
326
327
328
329
33
330
331
332
333
334
335
336
337
338
339
34
340
341
342
343
344
345
346
347
348
349
35
350
3500
351
352
353
354
355
356
357
358
359
36
360
361
362
363
364
3644
365
366
367
368
369
37
370
371
3713
372
373
374
375
376
377
378
379
38
380
381
382
383
384
385
386
387
388
389
39
390
391
392
393
394
395
396
397
398
399
3a
3b
3c
3d
3e
3f
3g
3h
3i
3j
3k
3l
3m
3n
3o
3p
3q
3r
3s
3t
3u
3v
3w
3x
3y
3z
4
40
400
4000
401
402
403
404
405
406
407
4074
408
409
41
410
411
412
413
414
415
416
417
418
419
42
420
421
422
423
424
425
426
427
428
429
43
430
431
432
433
4331
434
435
436
437
438
439
44
440
441
442
443
444
445
446
447
448
449
45
450
451
452
453
454
455
456
457
458
459
46
460
461
462
463
464
465
466
467
468
469
47
470
471
472
473
474
475
476
477
478
479
48
480
481
482
483
484
485
486
487
488
489
49
490
491
492
493
494
495
496
497
498
499
4a
4b
4c
4d
4e
4f
4g
4h
4i
4j
4k
4l
4m
4n
4o
4p
4q
4r
4s
4t
4u
4v
4w
4x
4y
4z
5
50
500
5000
501
502
503
504
505
506
507
508
509
51
510
511
512
513
514
515
516
517
518
519
52
520
521
522
523
524
525
526
527
528
529
53
530
531
532
533
534
535
536
537
538
539
54
540
541
542
543
544
545
546
547
548
549
55
550
551
552
553
554
555
556
557
558
559
56
560
561
562
563
565
567
568
569
57
570
571
572
573
574
575
576
578
579
58
580
581
582
583
584
585
586
587
588
589
59
590
591
593
595
596
597
598
5a
5b
5c
5d
5e
5f
5g
5h
5i
5j
5k
5l
5m
5n
5o
5p
5q
5r
5s
5t
5u
5v
5w
5x
5y
5z
6
60
600
6000
601
602
603
604
605
606
607
609
61
610
612
613
614
615
616
617
618
619
62
620
621
622
623
624
625
626
627
628
629
63
630
631
632
633
634
635
636
6360
6361
637
638
639
64
640
641
642
643
644
645
646
65
650
651
652
653
655
656
657
66
660
661
663
664
666
667
668
67
670
671
672
674
675
679
68
680
681
683
684
685
69
690
691
695
6a
6b
6c
6d
6e
6f
6g
6h
6i
6j
6k
6l
6m
6n
6o
6p
6q
6r
6s
6t
6u
6v
6w
6x
6y
6z
7
70
700
7000
701
705
707
708
71
710
711
715
717
718
72
720
724
727
72808185
73
730
731
737
74
740
741
745
747
75
750
7503868
751
753
757
76
760
765
767
768
77
770
775
777
78
780
787
79
790
7a
7b
7c
7d
7e
7f
7g
7h
7i
7j
7k
7l
7m
7n
7o
7p
7q
7r
7s
7t
7u
7v
7w
7x
7y
7z
8
80
800
8000
8018
802
808
81
810
813
815
82
820
83
830
835
84
840
842
843
845
85
850
8520003915
857
86
860
864
867
87
870
873
88
880
89
8a
8b
8c
8d
8e
8f
8g
8h
8i
8j
8k
8l
8m
8n
8o
8p
8q
8r
8s
8t
8u
8v
8w
8x
8y
8z
9
90
900
91
910
911
912
92
920
93
930
937
94
940
95
950
951
96
960
963
969
97
970
975
976
977
978
9788571105430
9788580573978
9798573263083
98
980
981
99
990
9941
9944
997
998
999
9a
9b
9c
9d
9e
9f
9g
9h
9i
9j
9k
9l
9m
9n
9o
9p
9q
9r
9s
9t
9u
9v
9w
9x
9y
9z
:
;
<
=
>
?
@
[
[CLS]
[MASK]
[PAD]
[SEP]
[UNK]
\
]
^
_
`
a
a0
a1
a2
a3
a4
a5
a6
a7
a8
a9
aa
aaa
aachen
aaron
ab
aba
abad
abartılı
abasıyanık
abaza
abba
abbas
abbasi
abbasiler
abbeville
abbey
abbott
abc
abd
abdal
abdest
abdi
abdul
abdulaziz
abdulhamid
abdulhamit
abdulkadir
abdulkerim
abdullah
abdulmecid
abdurrahman
abe
abel
abell
abgerufen
abhaz
abhazya
abi
abidin
abigail
abisi
abla
ablası
abluka
abone
abonelik
about
above
abraham
abrams
abruzzo
abs
abstract
abu
ac
acaba
acabilir
acacak
acad
academia
academic
academie
academy
acan
acar
acara
acarak
acayip
acb
access
accessed
accident
according
account
accreditations
ace
acele
acem
acemi
acer
achievement
acid
acidini
acikerisim
acil
aciz
aclık
aclıktan
acm
acma
acmak
acmaktadır
acması
acmaya
acmıs
acmıstır
aconitum
acquire
acquired
acquires
across
act
acta
acting
action
active
activities
activity
actor
actors
actress
acts
actı
actıgı
actıgını
actılar
acun
acunn
acute
acı
acıbadem
acıdan
acıga
acıgı
acık
acıkca
acıkladı
acıkladıgı
acıkladılar
acıklama
acıklamada
acıklamak
acıklamaktadır
acıklamalar
acıklamalarda
acıklamaları
acıklaması
acıklamasına
acıklamasında
acıklamasını
acıklamaya
acıklamayı
acıklamıs
acıklamıstır
acıklanabilir
acıklanan
acıklandı
acıklanması
acıklanmıstır
acıklanır
acıklar
acıklarında
acıklayan
acıklayıcı
acıklıgı
acıklık
acıkta
acıktır
acılacak
acılan
acılar
acılarak
acılardan
acıları
acıldı
acıldıgı
acıldıgında
acılması
acılmasına
acılmasını
acılmıs
acılmıstır
acılı
acılımı
acılıp
acılır
acılıs
acılısı
acılısında
acılısını
acılıyor
acımasız
acıp
acısal
acısı
acısına
acısından
acısını
acısıyla
acıyı
ad
ada
adada
adadaki
adadan
adadı
adadır
adak
adalar
adaları
adaların
adalarında
adalet
adaleti
adaletin
adalı
adam
adama
adamdır
adamla
adamlar
adamları
adamların
adamlarına
adamlarından
adamlarını
adamlarının
adams
adamı
adamıdır
adamın
adamının
adana
adanaspor
adanmıs
adanın
adapazarı
adaptation
adapte
adası
adasına
adasında
adasındaki
adasının
aday
adaya
adaylar
adayları
adayların
adaylıgı
adaylıgını
adaylık
adayı
add
added
addison
additional
address
adds
addır
adedi
adela
adelaide
adele
adem
aden
adet
adeta
adi
adidas
adil
adjusted
adla
adlandırdı
adlandırdıgı
adlandırma
adlandırılan
adlandırıldı
adlandırılmaktadır
adlandırılmıs
adlandırılmıstır
adlandırılır
adlar
adları
adlarında
adlarını
adlarının
adlarıyla
adler
adli
adliye
adlı
administration
administrative
adnan
adobe
adolf
adres
adrese
adresi
adresinde
adresinden
adresini
adrian
adriatico
adriyatik
adult
adults
advance
advanced
advances
adventure
adventures
adı
adıdır
adıge
adım
adımlar
adımları
adımı
adımını
adın
adına
adında
adındaki
adından
adını
adının
adıvar
adıyaman
adıyla
ae
aek
aero
aerodinamik
aerospace
aew
af
afc
afet
affair
affairs
afgan
afganistan
afghan
afghanistan
afi
afife
afis
afp
africa
african
afrika
afrikalı
afrikan
afrin
afro
afsar
afsin
after
afyon
afyonkarahisar
ag
aga
agabeyi
agac
agaca
agackakan
agaclar
agacları
agacların
agactan
agacı
agacın
agacından
agacının
agah
again
against
agaoglu
agar
agası
agatha
agdam
age
aged
agency
agent
agents
ages
agi
aglama
aglar
agları
aglayan
agnes
ago
agos
agreement
agresif
agricultural
agriculture
agrı
agrısı
aguilera
agustos
agzı
agzına
agzında
agzından
agzını
agı
agın
agına
agının
agır
agırlıga
agırlıgı
agırlıgında
agırlıgındadır
agırlıgını
agırlık
agırlıkları
agırlıklı
agıt
agız
agızdan
agızları
ah
ahali
ahead
ahi
ahit
ahkam
ahlak
ahlaki
ahlakı
ahlat
ahmad
ahmed
ahmet
ahn
ahsap
ahu
ahıska
ai
aid
aida
aids
aile
ailede
aileden
aileler
aileleri
ailelerin
ailelerinden
ailelerine
ailelerinin
ailenin
ailesi
ailesinde
ailesinden
ailesine
ailesini
ailesinin
ailesiyle
aileye
aim
ain
air
airbus
aircraft
aires
airline
airlines
airplay
airport
airways
ait
aitti
aittir
aj
ajan
ajanlar
ajanları
ajans
ajansı
ajanı
ajax
ajda
ak
aka
akabinde
akad
akademi
akademie
akademik
akademisi
akademisyen
akademisyenler
akalın
akan
akar
akarsu
akarsular
akaryakıt
akay
akbaba
akbas
akbulut
akca
akcaabat
akcakoca
akcay
akce
akciger
akcıl
akdag
akdagmadeni
akdeniz
aker
akgun
akhilleus
akhisar
akif
akira
akit
akka
akkaya
akkoyunlu
akkurt
akkus
akla
aklı
aklın
aklına
aklını
akman
akon
akp
akpınar
akraba
akrabaları
akrabalık
akrabası
akrep
aks
aksa
aksam
aksama
aksamları
aksamı
aksaray
aksehir
akseki
aksi
aksine
aksiyon
aksoy
aksu
aktaran
aktarma
aktarmak
aktarılan
aktarıldı
aktarılmıstır
aktarılır
aktarım
aktarımı
aktarır
aktas
aktif
aktive
aktivist
aktivisti
aktivite
aktiviteleri
aktivitesi
aktor
aktris
aktuel
akustik
akut
akyazı
akyol
akı
akıcı
akıl
akıllı
akım
akımlar
akımları
akımı
akımın
akımına
akımını
akımının
akın
akıncı
akıncılar
akıs
akıskan
akısı
akısına
akısını
akısının
al
ala
alaaddin
alabama
alabilir
alabilirler
alabilmek
alaca
alacagı
alacagını
alacak
alacakaranlık
alacaklı
alacaktır
alacam
alaeddin
alain
alakalı
alakası
alalım
alamadı
alamayan
alan
alana
aland
alanda
alandaki
alandan
alandır
alanlar
alanlara
alanlarda
alanlardaki
alanlardan
alanları
alanların
alanlarına
alanlarında
alanlarındaki
alanlarından
alanlarını
alanlarının
alanya
alanyaspor
alanı
alanıdır
alanın
alanına
alanında
alanındaki
alanından
alanını
alanının
alarak
alarm
alasehir
alaska
alat
alay
alaycı
alayı
alba
albania
albanian
albany
albay
albayrak
albert
alberta
alberti
alberto
albion
albrecht
album
albumde
albumdeki
albumden
albumdur
albume
albumle
albumler
albumleri
albumlerinde
albumlerinden
albumlerini
albumlerinin
albums
albumu
albumudur
albumun
albumunde
albumundeki
albumunden
albumune
albumunu
albumunun
albumuyle
alcak
alcı
aldershot
aldo
aldı
aldıgı
aldıgında
aldıgını
aldık
aldıkları
aldıklarını
aldıktan
aldılar
aldım
ale
alec
alejandro
aleksandar
aleksander
aleksandr
aleksandros
aleksey
aleksios
alem
alemdar
alemdaroglu
alemi
alemin
alenen
alert
alessandro
alet
aleti
aletler
aletleri
alev
alevi
alex
alexa
alexander
alexandra
alexandre
alexandria
alexis
aleyhinde
aleyhine
alf
alfa
alfabe
alfabesi
alfabesinde
alfabesinin
alfabetik
alfonso
alfred
alfredo
algoritma
algoritması
algı
algılama
algılanan
algısı
ali
aliaga
alice
alicia
alien
aligned
alim
alimi
alison
alive
aliye
aliyev
aljazeera
alkali
alkan
alkol
alkollu
alkıs
all
alla
allah
allaha
allahın
allan
alle
allegro
allen
alliance
allison
allium
allmovie
allmusic
allrovi
alma
almadan
almadı
almadıgı
almak
almakla
almakta
almaktadır
almaktaydı
almaları
almamıstır
alman
almanac
almanca
almanlar
almanların
almanya
almanyası
alması
almasına
almasından
almasını
almasının
almasıyla
almatı
almaya
almayan
almayı
almaz
almeida
almeria
almost
almıs
almıslardır
almıstı
almıstır
alo
alone
along
alonso
alp
alparslan
alpaslan
alpay
alper
alpes
alpha
alpleri
already
als
alsa
alsancak
also
alt
alta
altan
altay
alter
alternatif
alternative
altfamilyasına
altichiero
altmıs
alto
altta
alttaki
alttakımına
alttan
altug
altun
altyapı
altyapısı
altyapısına
altyapısında
altı
altın
altına
altıncı
altında
altındadır
altındag
altındaki
altından
altındaydı
altınordu
altıntas
altını
alucra
alueittain
aluminyum
alvarez
alvaro
alvin
always
alzheimer
alıcı
alım
alımı
alın
alınabilir
alınacak
alınan
alınarak
alınca
alındı
alındıgı
alındıgında
alındıgını
alındıktan
alınmak
alınmaktadır
alınmalıdır
alınması
alınmasına
alınmasından
alınmasını
alınmasının
alınmasıyla
alınmıs
alınmıstı
alınmıstır
alıntı
alıntılar
alınıp
alınır
alıp
alır
alırken
alırlar
alıs
alısveris
alısverisi
alısık
alısılmadık
alıyor
alıyordu
am
ama
amac
amaca
amacla
amaclamaktadır
amaclar
amaclarla
amacları
amaclarına
amaclayan
amaclı
amacı
amacına
amacını
amacının
amacıyla
amadeus
aman
amanda
amar
amasya
amator
amazing
amazon
ambalaj
ambassador
amber
amblemi
ambrogio
ambrose
ambulans
amc
amca
amcası
amcasının
amd
amel
amelia
ameliyat
ameliyatı
america
american
americana
americans
americas
amerika
amerikalı
amerikalılar
amerikalıların
amerikan
ames
amfibi
ami
amid
amin
amino
amir
amiral
amiri
amirligi
amma
amman
amme
amon
among
amonyum
amor
amore
amos
amour
amp
ampas
amr
amsterdam
amt
amy
an
ana
anabilim
anadili
anadolu
anahtar
anahtarı
anakin
anal
analitik
analiz
analizi
analizler
analizleri
analog
analysis
anam
anamur
anaokulu
anap
anar
anarsist
anastasia
anası
anatolia
anatolicus
anatomi
anatomik
anatomisi
anatomy
anavatan
anavatanı
anayasa
anayasal
anayasanın
anayasası
anayasasının
anayasaya
anayasayı
ancak
ancient
ancona
and
anda
andaki
andan
anderlecht
anders
andersen
anderson
andersson
andorra
andras
andre
andrea
andreas
andreeva
andrei
andres
andrew
andrews
andrey
android
andromeda
andronikos
andrzej
andy
andıran
andırın
ang
angel
angela
angeles
angelico
angelina
angelo
angels
angiosperm
angle
anglikan
anglo
angola
angry
angus
ani
aniden
animal
animals
animasyon
animated
animation
animator
anime
anita
anka
ankara
ankaragucu
ankaraspor
anket
anketi
anki
anksiyete
anladı
anladım
anladın
anlam
anlama
anlamak
anlamaya
anlamda
anlamlar
anlamlara
anlamları
anlamlarına
anlamlı
anlamsız
anlamı
anlamına
anlamında
anlamındadır
anlamındaki
anlamını
anlamıyla
anlar
anlasarak
anlasma
anlasmalar
anlasmaları
anlasmanın
anlasması
anlasmasını
anlasmasının
anlasmaya
anlasmayı
anlasmazlık
anlasmazlıklar
anlasmıstır
anlastı
anlasılabilir
anlasılacagı
anlasılan
anlasıldı
anlasıldıgı
anlasılmaktadır
anlasılması
anlasılmıs
anlasılmıstır
anlasılır
anlatan
anlatmak
anlatmaktadır
anlatmaya
anlatmıstır
anlattı
anlattıgı
anlattıgını
anlatı
anlatıcı
anlatılan
anlatıldıgı
anlatılmaktadır
anlatılmıstır
anlatılır
anlatım
anlatımı
anlatır
anlatırken
anlatıyor
anlayan
anlayıs
anlayısla
anlayısı
anlayısına
anlayısını
anlayısının
anlık
anma
anmak
ann
anna
annales
annals
anne
anneler
anneleri
annem
annenin
annesi
annesidir
annesine
annesini
annesinin
annesiyle
annette
annie
anniversary
anno
annotated
announce
announced
announcement
announces
annual
ano
anonim
anormal
anos
another
ans
ansiklopedi
ansiklopedik
ansiklopedisi
ansiklopedisinde
answers
ant
antakya
antalya
antalyaspor
antarctic
antarktika
ante
anten
antep
anthem
anthology
anthonomus
anthony
anthropology
anthurium
anti
antibiyotik
antigua
antik
antiquity
antlasma
antlasmanın
antlasması
antoine
antoinette
antoloji
antolojisi
anton
antonello
antonia
antonio
antonius
antonov
antony
antrenman
antrenor
antrenorluk
antrenoru
antropolog
antropoloji
antwerp
anuario
anvers
any
anya
anything
anı
anıl
anılan
anılar
anıları
anılarını
anıldı
anılmaktadır
anılmaya
anılmıstır
anılır
anın
anında
anısına
anıt
anıtkabir
anıtlar
anıtları
anıtsal
anıtı
anıtın
ao
aol
ap
apa
apache
apartman
apartmanı
apg
api
apj
apo
apoel
apollo
apollodorus
apollon
apollonius
app
appendix
apple
application
applications
applied
appointed
approach
approaches
approx
apps
apr
april
aptal
aq
aquila
ar
ara
arab
araba
arabalar
arabaları
arabanın
arabası
arabaya
arabayı
arabesk
arabi
arabia
arabic
arabistan
arabuluculuk
arac
araca
aracla
araclar
araclara
araclarda
araclarla
aracları
aracların
araclarını
araclarının
aracta
aractır
aracı
aracıdır
aracılıgı
aracılıgıyla
aracılık
aracın
aracını
aracının
arada
aradaki
aradan
aradı
aradıgı
aradıgını
aradım
arafat
aragon
araklı
araknolog
aral
aralarında
aralarındaki
aralıgı
aralıgında
aralık
aralıklarla
aralıklı
aralıksız
aralıkta
aram
arama
aramada
aramak
aramaya
aramice
aramızda
aranan
araneae
aranjor
arap
arapca
araplar
arapların
arar
ararken
aras
arastıran
arastırma
arastırmacı
arastırmacılar
arastırmacıların
arastırmacısı
arastırmada
arastırmak
arastırmalar
arastırmalara
arastırmalarda
arastırmaları
arastırmaların
arastırmalarına
arastırmalarında
arastırmalarını
arastırmanın
arastırması
arastırmaya
arastırılması
arası
arasına
arasında
arasındadır
arasındaki
arasından
arasındaydı
arasını
aratın
araya
arayan
arayarak
arayuz
arayuzu
arayıp
arayısı
araz
arazi
arazide
araziler
arazileri
arazinin
arazisi
araziye
araziyi
arbor
arc
arcade
arcelik
arch
archaeological
archaeology
archer
archie
architect
architectural
architecture
architettura
archive
archived
archives
arctic
ard
arda
ardahan
ardanuc
ardesen
ardı
ardıc
ardılı
ardına
ardında
ardından
ardısık
are
area
areas
arena
arenada
ares
argentina
argo
argos
arguman
arhavi
ari
aria
ariana
ariel
arif
aris
aristo
aristokrat
aristoteles
aritmetik
arizona
arjantin
arjantinli
ark
arka
arkada
arkadan
arkadas
arkadaslar
arkadasları
arkadaslarım
arkadaslarına
arkadaslarından
arkadaslarını
arkadaslarının
arkadaslarıyla
arkadaslık
arkadası
arkadasıdır
arkadasım
arkadasına
arkadasını
arkadasının
arkadasıyla
arkaik
arkansas
arkası
arkasına
arkasında
arkasındaki
arkasından
arkaya
arkeolog
arkeologlar
arkeoloji
arkeolojik
arktik
arkın
arlington
arm
arma
armagan
armaganı
arman
armand
arması
armed
armenia
armenian
armenians
arms
armstrong
armut
army
arnavut
arnavutca
arnavutkoy
arnavutlar
arnavutluk
arne
arnold
arnolfo
aromalı
aromatik
around
arp
arpa
arpacay
array
arrest
arrested
arrondissement
arrow
ars
arsa
arsenal
arsiv
arsivi
arsivlendi
arsivlenmesi
arsivlenmis
arsivleri
arslan
art
arta
artan
artar
artarak
arte
artemis
artemisia
arter
arthrobacter
arthur
arthurian
article
articles
artificial
artist
artistic
artistik
artists
artmaktadır
artması
artmasına
artmasıyla
artmaya
artmıs
artmıstır
arts
arttı
arttıgı
arttıkca
arttırdı
arttırmak
arttırır
artur
arturo
artvin
artı
artık
artıran
artırarak
artırdı
artırma
artırmak
artırmaya
artırılması
artırır
artıs
artısı
arxiv
arya
aryan
arz
arzu
arzusu
arı
arıcılık
arık
arıkan
arıtma
arıyor
arıza
as
asa
asaf
asagı
asagıda
asagıdadır
asagıdaki
asagıdakiler
asagılayıcı
asagıya
asal
asama
asamada
asamadan
asamaları
asamalarında
asamalı
asaması
asamasına
asamasında
asan
asansor
asar
asarak
asayis
ascochyta
asena
asfalt
asgari
ash
ashgate
ashley
ashton
asi
asia
asian
asidi
asil
asimetrik
asimile
asina
asiret
asireti
asist
asistan
asistanı
asit
asitler
ask
aska
askale
asked
asker
askerden
askere
askeri
askerin
askerini
askerinin
askeriye
askerler
askerlerden
askerlere
askerleri
askerlerin
askerlerine
askerlerini
askerlerinin
askerlik
askı
askım
askın
askına
askını
askıya
asla
aslan
aslanı
aslen
asli
asliye
aslı
aslında
asma
asmak
asp
aspects
aspergillus
aspx
ass
assassin
assault
assembly
assessment
assisi
associated
associates
association
associations
ast
astana
aster
asteraceae
asteroid
asteroit
aston
astra
astragalus
astro
astrofoto
astronautica
astronom
astronomi
astronomical
astronomik
astronomy
astronot
astrophysical
astrophysics
astsubay
asturias
astı
asuka
asuman
asur
asya
asyalı
ası
asık
asıklar
asıktır
asıl
asıllı
asılı
asım
asır
asırı
asısı
at
ata
atacanov
atadı
atak
atakan
atakoy
atalanta
ataları
atalarının
atalay
atama
ataman
atan
atanan
atandı
atandıgı
atanması
atanmıs
atanmıstır
atanır
atar
atarak
atari
atarken
atasehir
atasoy
atasozleri
atası
ataturk
ataturkcu
atay
ateist
ates
atese
atesi
atesin
ateskes
atesle
atesleme
atesli
atesten
atfedilen
atfen
atheist
athena
athens
athletes
athletic
athletics
ati
atik
atilla
atina
atinalı
atkins
atladı
atlama
atlanta
atlantic
atlantik
atlantis
atlar
atları
atların
atlas
atlası
atlayarak
atlet
atletico
atletizm
atlı
atm
atma
atmaca
atmacagiller
atmak
atmaya
atmayı
atmosfer
atmosfere
atmosferi
atmosferik
atmıs
atmıstır
atolye
atolyesi
atolyesinde
atom
atomic
atomik
atomlar
atomların
atomu
atomun
atp
atsız
attack
attacks
attention
attika
attila
attı
attıgı
attılar
atv
atı
atıcı
atıf
atıfta
atık
atılan
atıldı
atıldıgı
atılması
atılmıs
atılmıstır
atılım
atılır
atın
atıp
atıs
atısları
atısı
au
auckland
audi
audio
audrey
auf
auflage
aug
augsburg
august
augusta
auguste
augustin
augusto
augustus
aurelius
aurora
aus
auschwitz
austen
austin
australia
australian
austria
austrian
austriancharts
author
authorities
authority
authors
auto
autobiography
automobile
autumn
auvergne
aux
av
ava
available
avam
avant
avantaj
avantajı
avar
avarız
avatar
avcı
avcılar
avcıları
avcılık
avcısı
ave
avec
avengers
avenue
averaj
avery
aves
avi
aviation
avignon
aviv
avlanma
avlu
avm
avn
avni
avrasya
avril
avro
avrupa
avrupalı
avrupalılar
avsar
avuc
avukat
avukatlık
avukatı
avustralya
avustralyalı
avusturya
avusturyalı
avı
aw
award
awarded
awards
away
ax
axel
ay
aya
ayaga
ayagı
ayagına
ayagında
ayagını
ayak
ayakkabı
ayaklanma
ayaklanmalar
ayaklanmanın
ayaklanması
ayaklanmaya
ayaklanmayı
ayaklar
ayakları
ayaklı
ayakta
ayan
ayancık
ayar
ayarlar
ayas
ayasofya
ayaz
ayca
ayda
aydan
aydemir
aydin
aydogan
aydın
aydıncık
aydınlanma
aydınlar
aydınlatma
aydınlık
aydır
ayet
ayetullah
aygun
aygıt
aygıtı
ayhan
ayin
aykut
aykırı
ayla
aylar
aylarca
aylarda
ayları
aylarında
aylin
aylık
ayn
ayna
aynalı
aynen
ayni
aynur
aynı
aynıdır
ayrı
ayrıca
ayrıcalıklı
ayrık
ayrılabilir
ayrılan
ayrılarak
ayrıldı
ayrıldıgı
ayrıldıgını
ayrıldıktan
ayrıldılar
ayrılma
ayrılmadan
ayrılmak
ayrılmaktadır
ayrılması
ayrılmasına
ayrılmasından
ayrılmasını
ayrılmasıyla
ayrılmaya
ayrılmaz
ayrılmıs
ayrılmıstı
ayrılmıstır
ayrılıgı
ayrılık
ayrılıkcı
ayrılıp
ayrılır
ayrılırken
ayrılırlar
ayrım
ayrımcılık
ayrımı
ayrıntı
ayrıntılar
ayrıntıları
ayrıntılı
ayrısma
ayse
aysegul
aysel
aytac
ayten
ayvacık
ayvalık
ayyıldız
ayı
ayın
ayına
ayında
ayından
ayının
ayıp
ayıran
ayırdı
ayırma
ayırmak
ayırt
ayırıcı
ayırır
ayısı
az
aza
azad
azak
azalan
azaldı
azalma
azalması
azalmasına
azalmaya
azalmıs
azalmıstır
azaltan
azaltarak
azaltma
azaltmak
azaltılması
azaltır
azalır
azami
azar
azdır
azerbaijan
azerbaijani
azerbaycan
azerbaycanlı
azeri
azerice
azim
aziz
azize
aziziye
azmi
azot
aztek
azur
azı
azından
azınlık
azınlıklar
azərbaycan
b
b0
b1
b2
b3
b4
b5
b6
b7
b8
b9
ba
baas
bab
baba
babacan
babadan
babaeski
babalar
babaları
babalarının
babam
babamın
babanın
babası
babasıdır
babasına
babasından
babasını
babasının
babasıydı
babasıyla
babil
babur
baby
babylon
bac
bacak
bacaklar
bacakları
bach
back
background
backlash
bacon
bad
badem
baden
bae
bafra
bafta
bag
bagcılar
bagdadi
bagdat
bagladı
baglama
baglamak
baglamda
baglamında
baglanan
baglanarak
baglandı
baglandıgı
baglanma
baglanması
baglanmıs
baglanmıstır
baglantı
baglantılar
baglantıları
baglantılı
baglantılıdır
baglantısı
baglantısını
baglantıya
baglantıyı
baglanır
baglar
bagları
baglarını
baglayan
baglayıcı
baglı
baglıdır
baglılıgı
baglılıgını
baglılıgının
baglılık
baglıydı
baglıyken
bagrat
bagı
bagıl
bagımlı
bagımlılıgı
bagımlılık
bagımsız
bagımsızlıgı
bagımsızlıgına
bagımsızlıgını
bagımsızlık
bagımsızlıklarını
bagırsak
bagıs
bagısladı
bagısıklık
baha
bahadır
bahamalar
bahane
bahar
baharat
baharatlar
baharı
baharında
bahce
bahcede
bahceleri
bahceli
bahcelievler
bahcesaray
bahcesehir
bahcesi
bahcesinde
bahcesine
bahia
bahis
bahr
bahrain
bahreyn
bahri
bahriye
bahs
bahse
bahseden
bahseder
bahsederken
bahsedildigi
bahsedilen
bahsedilir
bahsedilmektedir
bahsedilmistir
bahsetmektedir
bahsetmistir
bahsetti
bahsettigi
bahsi
bahsı
bahsın
bahtiyar
bailey
bak
bakacak
bakalım
bakan
bakanlar
bakanları
bakanlıgı
bakanlıgın
bakanlıgına
bakanlıgınca
bakanlıgında
bakanlıgının
bakanlık
bakanı
bakar
bakarak
baker
baki
bakire
bakkal
baklagiller
bakma
bakmak
bakteri
bakteriler
bakterilerin
bakteriyel
baktı
baktım
baku
bakı
bakıldıgında
bakılmaksızın
bakılır
bakım
bakıma
bakımdan
bakımı
bakımından
bakın
bakınız
bakır
bakırkoy
bakıs
bal
bala
balaban
balance
balbay
baldwin
bale
balesi
bali
balina
balinalar
balistik
balkan
balkanlar
balkans
balkarca
ball
ballad
balon
balor
balta
baltic
baltimore
baltık
balıgı
balık
balıkcı
balıkcılık
balıkesir
balıkesirspor
balıklar
balıkları
balıkların
ban
bana
banaz
banco
band
bandı
bandırma
bang
bangkok
banglades
bangladesh
bank
banka
bankacılık
bankalar
bankanın
bankası
banker
banks
banksia
banliyo
bant
banu
banyo
baptist
baptiste
bar
barack
baraj
barajı
barajın
barajını
barak
baran
barbados
barbar
barbara
barbaros
barbarossa
barber
barbera
barca
barcelona
barclays
barda
bardak
bari
bariz
barker
barlas
barnes
barnett
barney
barok
baron
baroque
barosu
barrett
barrow
barry
barselona
bart
bartlett
bartolomeo
barton
bartın
barut
barzani
barındıran
barındırdıgı
barındırmaktadır
barındırır
barınma
barıs
barısa
barıscıl
barısı
barısın
bas
basa
basak
basaksehir
basamak
basamaklı
basan
basar
basarak
basaramadı
basaran
basardı
basardılar
basarmıs
basarmıstır
basarı
basarılar
basarıları
basarılarından
basarılarını
basarılı
basarının
basarır
basarısı
basarısından
basarısını
basarısının
basarısız
basarısızlıga
basarısızlık
basarısızlıkla
basarıya
basarıyla
basarıyı
basbakan
basbakanlıgı
basbakanlık
basbakanı
basbakanın
bascı
base
baseball
based
basel
bash
basic
basil
basileios
basin
basis
basit
basitce
basitlestirilmis
bask
baska
baskaları
baskalarına
baskalarının
baskale
baskan
baskanları
baskanlarının
baskanlıga
baskanlıgı
baskanlıgına
baskanlıgında
baskanlıgındaki
baskanlıgından
baskanlıgını
baskanlıgının
baskanlık
baskanvekili
baskanı
baskanıdır
baskanım
baskanın
baskanına
baskanını
baskanının
baskanıydı
baskası
baskasına
baskasının
baskent
baskenti
baskentidir
basket
basketball
basketbol
basketbolcu
basketbolcudur
baskil
baskomutanı
baskonsoloslugu
baskonsolosu
baskoy
baskurdistan
baskurt
baskı
baskıcı
baskılar
baskıları
baskın
baskını
baskının
baskısı
baskıya
basladı
basladıgı
basladıgında
basladıgını
basladıktan
basladılar
basladım
baslama
baslamadan
baslamak
baslamaktadır
baslaması
baslamasına
baslamasından
baslamasıyla
baslamıs
baslamıslardır
baslamıstı
baslamıstır
baslanan
baslandı
baslangıc
baslangıcta
baslangıcı
baslangıcında
baslangıcından
baslangıcını
baslanmıs
baslanmıstır
baslanır
baslar
baslarda
baslarken
baslarlar
basları
baslarına
baslarında
baslarındaki
baslarından
baslatan
baslatma
baslatmak
baslatmıstır
baslattı
baslattıgı
baslattılar
baslatılan
baslatıldı
baslatılmıstır
baslatır
baslayacak
baslayan
baslayarak
baslayınca
baslayıp
baslı
baslıca
baslıgı
baslıgıyla
baslık
baslıklar
baslıkları
baslıklı
baslıyor
basma
basmak
basortusu
baspiskoposu
basra
basrol
basrolde
basrollerde
basrollerinde
basrollerini
basrolu
basrolunde
basrolunu
bass
bassaglıgı
bassavcı
bassavcılıgı
bassavcısı
basta
bastan
bastia
bastı
bastırdı
bastırmak
bastırıldı
basvurdu
basvuru
basvurucu
basvurucunun
basvuruda
basvuruları
basvurusu
bası
basılan
basıldı
basılmıs
basılmıstır
basılı
basım
basıma
basımevi
basımı
basın
basına
basınc
basınclı
basıncı
basında
basındaki
basından
basını
basının
basınında
bat
bataklık
batarya
bateri
baterist
bates
bath
batista
batlamyus
batman
battal
battista
battle
battlefield
battles
battı
batu
batum
batur
batı
batıda
batıdaki
batıdan
batıl
batılı
batısı
batısında
batısındaki
batıya
baudouin
bauer
bavyera
bay
bayagı
bayan
bayanlar
bayar
bayat
baybars
bayburt
bayer
bayern
bayezid
baykal
baykus
bayley
bayragı
bayragın
bayragını
bayrak
bayrakları
bayraklı
bayraktar
bayram
bayramic
bayrampasa
bayramı
bayt
bayındır
bayındırlık
baz
bazal
bazen
bazilikası
bazlı
bazı
bazıları
bazılarıdır
bazılarına
bazılarında
bazılarını
bazılarının
bazında
bb
bbc
bc
bd
bdfutbol
bdp
be
bea
beach
bean
bear
beast
beat
beatles
beatrice
beats
beautiful
beauty
beaux
bebegi
bebegin
bebek
became
because
beceri
becerileri
becerilerini
becerisi
beck
becker
beckett
becky
become
becomes
becoming
bed
bedava
bedel
bedeli
beden
bedeni
bedenin
bedensel
bedford
bedfordshire
bedir
bedirhan
bedrettin
bedri
bee
been
beer
beethoven
before
beg
begeni
begenilen
begenisini
begin
beginning
begins
begonia
begum
behavior
behavioral
behaviour
behcet
behic
behind
behram
behzat
bei
beijing
bein
being
bek
bekar
bekci
bekir
bekledigi
bekleme
beklemek
beklemektedir
beklenen
beklenir
bekleniyor
bekleniyordu
beklenmedik
beklenmektedir
beklentileri
bekler
beklerken
bekleyen
bekliyor
bekliyorum
bektas
bektasi
bel
bela
belarus
belcika
belcikalı
belde
beldeler
beldenin
beldesi
beldesinde
beldeye
belediye
belediyede
belediyeden
belediyedir
belediyeler
belediyeleri
belediyenin
belediyesi
belediyesinde
belediyesine
belediyesinin
belediyespor
belediyeye
belen
belfast
belge
belgede
belgeler
belgelerde
belgelere
belgeleri
belgelerin
belgelerinde
belgelerini
belgenin
belgesel
belgeseli
belgesi
belgesinin
belgeyi
belgian
belgium
belgrad
belgrade
believe
beliren
belirgin
belirgindir
belirir
belirledi
belirledigi
belirleme
belirlemek
belirlemistir
belirlendi
belirlendigi
belirlenecek
belirlenen
belirlenir
belirlenmesi
belirlenmesinde
belirlenmis
belirlenmistir
belirler
belirleyecek
belirleyen
belirleyici
belirli
belirsiz
belirsizdir
belirsizlik
belirten
belirterek
belirti
belirtildi
belirtildigi
belirtilen
belirtiler
belirtileri
belirtilir
belirtilmektedir
belirtilmeli
belirtilmemis
belirtilmis
belirtilmistir
belirtir
belirtisi
belirtiyor
belirtme
belirtmek
belirtmektedir
belirtmis
belirtmistir
belirtti
belirttigi
belirttiler
belize
belki
bell
bella
belle
bellegi
bellek
bellekte
belli
bellini
belt
ben
bence
bend
bende
benden
bender
benedict
benekli
benfica
bengal
bengu
beni
benigno
benim
benimle
benimsedi
benimsemis
benimsemistir
benimseyen
benin
benito
benjamin
benlik
bennett
benny
benoit
benozzo
benson
bent
bentley
bentspor
benz
benzemektedir
benzer
benzerdir
benzeri
benzerligi
benzerlik
benzerlikler
benzersiz
benzeyen
benzin
benzinli
ber
beraat
beraber
berabere
beraberinde
beraberlik
beraberlikle
berat
berber
berberi
bereket
bereketli
berg
bergama
bergamo
bergen
berger
bergman
beri
beridze
berk
berkay
berke
berkeley
berkshire
berlin
berlinale
berliner
bermuda
bern
berna
bernard
bernardo
bernd
bernhard
bernstein
berrak
berry
bert
bertaraf
bertolt
bertrand
berya
bes
bese
beser
beseri
besi
besik
besiktas
besim
besin
besinci
besir
besleme
beslenen
beslenir
beslenirler
beslenme
besler
besleyen
besni
best
beste
besteci
besteciler
bestecisi
bestekar
besteledi
besteledigi
bestelemistir
bestelendi
bestelenen
bestelenmis
bestelenmistir
besteleri
bestesi
bet
beta
beth
beton
betonarme
better
betty
betul
between
beverly
bey
beyan
beyanda
beyanları
beyanı
beyanında
beyaz
beyazdır
beyazlı
beyazperde
beyazıt
beyefendi
beygir
beyi
beyin
beykoz
beyler
beylerbeyi
beyleri
beyligi
beylik
beylikduzu
beyni
beynin
beyoglu
beyonce
beyond
beypazarı
beyrut
beysehir
beyt
beyzbol
bez
bezelye
bezi
bf
bg
bh
bhutan
bi
bianca
bianet
biat
bibcode
bibel
biber
bible
biblical
bibliography
bibliotheca
bicim
bicimde
bicimi
bicimidir
biciminde
bicimindeki
bicimine
bicimini
bicimlerde
bicimleri
bicimlerini
bicimli
bicimsel
bid
bide
biden
bieber
bienali
big
biga
bigadic
biggest
bil
bila
bilal
bilbao
bildigi
bildigimiz
bildigini
bildirdi
bildiren
bildirgesi
bildiri
bildirildi
bildirilen
bildirileri
bildirilir
bildirilmistir
bildirim
bildirir
bildirisi
bildirme
bildirmek
bildirmistir
bile
bilecik
bilek
bilen
bilerek
bilesen
bileseni
bilesenler
bilesenleri
bilesik
bilesikler
bilesikleri
bilesiklerin
bilesimi
bilet
bilge
bilgelik
bilgi
bilgic
bilgilendirme
bilgiler
bilgilere
bilgileri
bilgilerin
bilgilerini
bilgilerinin
bilgilerle
bilgili
bilgin
bilgini
bilginin
bilgisayar
bilgisayara
bilgisayarda
bilgisayarlar
bilgisayarlarda
bilgisayarların
bilgisayarlı
bilgisayarı
bilgisayarın
bilgisi
bilgisine
bilgisini
bilgisinin
bilgiye
bilgiyi
bilhassa
bilim
bilimci
bilimciler
bilimcisi
bilime
bilimi
bilimin
biliminde
biliminin
bilimkurgu
bilimler
bilimleri
bilimsel
bilinc
bilinci
bilincli
bilindigi
bilinen
bilinir
bilinirdi
bilinirler
biliniyor
biliniyordu
bilinmektedir
bilinmekteydi
bilinmemekle
bilinmemektedir
bilinmesi
bilinmeyen
bilinmiyor
bilir
bilirkisi
bilisim
bilissel
biliyor
biliyordu
biliyorsun
biliyorsunuz
biliyorum
biliyoruz
bilkent
bill
billboard
billie
billion
billy
bilmeden
bilmedigi
bilmedigini
bilmek
bilmektedir
bilmem
bilmeyen
bilmez
bilmiyor
bilmiyorum
bin
bina
binada
binalar
binalarda
binaları
binaların
binali
binanın
binası
binasına
binasında
binasının
binaya
binayı
binbası
binden
bine
binek
bing
bingol
bini
binicilik
binlerce
bint
bio
biodiversity
biographical
biographie
biography
biol
biological
biology
bipolar
bir
bira
biraz
birbiri
birbirinden
birbirine
birbirini
birbirinin
birbiriyle
birbirleri
birbirlerinden
birbirlerine
birbirlerini
birbirlerinin
birbirleriyle
bircogu
bircok
bird
birde
birden
birdenbire
birdlife
birds
bire
birebir
birer
birey
bireyin
bireyler
bireylere
bireyleri
bireylerin
bireysel
birgun
biri
biridir
biriken
birikim
birikimi
birileri
birim
birimdir
birimi
birimidir
birimin
biriminde
birimine
biriminin
birimler
birimleri
birimlerin
birimlerine
birimlerinin
birinci
birincil
birinciligi
birincilik
birincilikle
birincisi
birinde
birinden
birine
birini
birinin
birisi
birisidir
birisine
birisini
birisinin
birisiydi
biriydi
biriyle
birkac
birkacı
birlesen
birleserek
birlesik
birlesimi
birlesiminden
birlesir
birlesme
birlesmesi
birlesmesinden
birlesmesiyle
birlesmis
birlesti
birlestigi
birlestirdi
birlestiren
birlestirerek
birlestirildi
birlestirilerek
birlestirilmesi
birlestirilmesiyle
birlestirilmis
birlestirir
birlestirme
birlestirmek
birlige
birligi
birligin
birligine
birligini
birliginin
birligiyle
birlik
birlikler
birliklere
birlikleri
birliklerin
birliklerine
birliklerini
birliklerinin
birlikte
birliktelik
birmingham
birol
birsel
birsey
birtakım
birth
birthday
biruni
bis
biseksuel
bisey
bishop
bisiklet
bisikletci
bisikleti
biskuvi
bismarck
bismil
bissau
bit
bitcoin
biten
biter
biti
bitiminde
bitiminden
bitimine
bitince
bitirdi
bitirdikten
bitiren
bitirerek
bitirip
bitirme
bitirmek
bitirmis
bitirmistir
bitis
bitisik
bitki
bitkidir
bitkiler
bitkilerde
bitkileri
bitkilerin
bitkinin
bitkisel
bitkisi
bitlik
bitlis
bitmis
bitmistir
bitter
bitti
bittigi
bittiginde
bittikten
biyografi
biyografik
biyografisi
biyokimya
biyolog
biyoloji
biyolojik
biyoteknoloji
biz
bizans
bizanslı
bizanslılar
bizde
bizden
bize
bizi
bizim
bizimle
bizler
bizzat
bj
bjk
bjork
bjorn
bk
bkz
bl
blabbermouth
black
blackberry
blackburn
blackpink
blackwell
blade
blair
blake
blanc
blanche
blanco
blast
blazers
blender
blind
bliss
bloch
block
blog
blogspot
blogu
blok
blokları
bloku
blood
bloody
bloom
bloomberg
bloomington
bloomsbury
blow
blu
blue
blues
bluetooth
blum
blunt
bm
bmatrix
bmc
bmw
bn
bni
bnu
bo
boa
board
boat
bob
bobby
bobrek
boca
bocegi
bocek
bocekler
bocekleri
bochum
bodies
bodrum
body
boeing
boemondo
boer
boga
bogac
bogaz
bogazici
bogazlar
bogazı
bogdan
bohemya
bohr
bois
boiss
boj
boks
boksor
bol
bolca
bold
boldsymbol
bolge
bolgede
bolgedeki
bolgeden
bolgedir
bolgeler
bolgelerde
bolgelerdeki
bolgelerden
bolgelere
bolgeleri
bolgelerin
bolgelerinde
bolgelerindeki
bolgelerinden
bolgelerine
bolgelerini
bolgelerinin
bolgenin
bolgesel
bolgesi
bolgesidir
bolgesinde
bolgesindeki
bolgesinden
bolgesine
bolgesini
bolgesinin
bolgeye
bolgeyi
bolivya
bolluk
bollywood
bolme
bologna
bolsevik
bolsevikler
bolseviklerin
bolton
bolu
bolucu
bolugu
boluk
bolum
bolumde
bolumden
bolumdur
bolume
bolumler
bolumlerde
bolumlere
bolumleri
bolumlerin
bolumlerinde
bolumlerinden
bolumlerine
bolumlerini
bolumlerinin
bolumluk
bolumu
bolumudur
bolumun
bolumunde
bolumundeki
bolumunden
bolumune
bolumunu
bolumunun
bolumuyle
bolundu
bolunme
bolunmesi
bolunmus
bolunmustur
bolunur
bolunus
boluspor
bom
bomb
bomba
bombalama
bombalar
bombaları
bombalı
bombanın
bombardıman
bombardımanı
bombası
bombay
bon
bonapart
bonaparte
boncuk
bond
bone
bones
bong
bonn
bonnie
bono
bonservis
bonus
book
booker
books
boom
boone
boot
booth
bor
bora
boran
borc
borcka
borcları
borclarını
borclu
borcu
borcunu
bordeaux
border
borders
bordo
boregi
boris
born
borneo
bornova
borough
borsa
borsası
boru
borussia
borusu
bos
bosa
bosalan
bosandı
bosanma
bosch
bose
boslugu
bosluk
bosna
bosnak
bosnakca
bosnalı
bosnia
boss
bostancı
boston
bosuna
bosworth
bot
botanical
botanik
botanikci
botany
both
botsvana
botticelli
bottom
boucher
boulder
bound
boundary
bow
bowie
bowl
box
boy
boya
boyabat
boyalı
boyama
boyanmıs
boyd
boydell
boyer
boykot
boyları
boyle
boylece
boylelikle
boylesi
boylesine
boylu
boynu
boynuz
boynuzlu
boynuzlugiller
boys
boyu
boyun
boyuna
boyunca
boyunda
boyundadır
boyundaki
boyundan
boyunun
boyut
boyuta
boyutlarda
boyutları
boyutlarında
boyutlu
boyutta
boyutu
boyutuna
boyutunda
boyutunu
boyz
boz
bozan
bozar
bozdogan
bozdu
bozguna
bozkurt
bozkır
bozmak
bozuk
bozuklugu
bozukluk
bozukluklar
bozuklukları
bozulan
bozuldu
bozulma
bozulması
bozulmus
bozulur
bozuyuk
bp
bq
br
brad
bradford
bradley
brady
braga
brahim
brain
brancacci
branch
brand
brandenburg
brandon
brands
brani
branice
brasil
brasileira
brasileiro
bratislava
braun
braunschweig
brave
bravo
bray
brazil
brazilian
braziller
break
breaking
breaks
brecht
brejnev
bremen
brenda
brendan
brennan
brent
brescia
brest
breton
brett
brewer
brezilya
brezilyalı
brian
bride
bridge
bridges
brief
brien
bright
brighton
brigitte
brill
bring
brings
brisbane
bristol
brit
britain
britannica
britanya
britanyalı
british
britney
brittany
broadcast
broadcasting
broadway
brock
broken
bromwich
bronx
bronz
bronze
brook
brooke
brooklyn
brooks
bros
brother
brothers
brown
browning
browser
bruce
brugge
bruksel
brunei
brunelleschi
bruno
brunswick
brussels
brut
bryan
bryant
bryce
bs
bsk
bt
bts
bu
buba
bubbling
buca
bucak
bucaklara
bucaktır
bucaspor
buchanan
buck
buckingham
buckinghamshire
bucks
bucuk
bucuresti
bud
buda
budak
budapest
budapeste
buddy
budget
budin
budist
budizm
budur
buenos
buffalo
buffy
bug
bugday
bugra
bugun
bugune
bugunku
bugunun
buhar
buhara
buhari
buharlı
build
building
buildings
built
bukres
bul
bulabilirsiniz
bulamadı
bulamayan
bulan
bulancak
bulanık
bularak
bulasıcı
bulbul
buldan
buldu
buldugu
buldugunu
buldukları
buldular
buldum
bulent
bulgar
bulgarca
bulgaria
bulgarian
bulgaristan
bulgarlar
bulgu
bulgular
bulguları
bull
bullet
bulletin
bullets
bulls
bulma
bulmak
bulmaktadır
bulması
bulmaya
bulmus
bulmustur
bulteni
bulunabilir
bulunacak
bulunamadı
bulunan
bulunanlar
bulunarak
bulundu
bulundugu
bulunduguna
bulundugundan
bulundugunu
bulundukları
bulunduktan
bulundular
bulunduran
bulundurarak
bulundurmak
bulundurmaktadır
bulunma
bulunmadıgı
bulunmadıgını
bulunmak
bulunmakla
bulunmakta
bulunmaktadır
bulunmaktaydı
bulunmamaktadır
bulunmaması
bulunması
bulunmasına
bulunmasını
bulunmaya
bulunmayan
bulunmaz
bulunmus
bulunmuslardır
bulunmustur
buluntular
bulunulan
bulunuldu
bulunup
bulunur
bulunurdu
bulunurken
bulunurlar
bulunuyor
bulunuyordu
bulup
bulur
bulurlar
bulusma
bulusması
bulustu
bulut
bulutlar
bulutsu
bulutsusu
bulutu
bulvarı
buna
bunca
bunda
bundan
bundesliga
bundy
bunlar
bunlara
bunlarda
bunlardan
bunlarla
bunları
bunların
bunny
bunu
bunun
bununla
bunyesinde
bunyesindeki
bunyesine
burada
buradaki
buradan
burak
buralarda
buranın
burası
buraya
burayı
burc
burcu
burda
burdur
bureau
burger
burhan
burjuva
burke
burkina
burlington
burma
burn
burning
burnley
burns
burnu
buro
burokrat
burosu
burs
bursa
bursaspor
bursu
burt
burton
burun
burundi
burunlu
bury
bus
bush
business
but
butce
butceli
butcesi
butler
butterfly
button
butun
butunlugu
butunlugunu
butunluk
butunu
butunuyle
buy
buyruk
buyu
buyucu
buyudu
buyudugu
buyugu
buyuk
buyukannesi
buyukbabası
buyukbas
buyukcekmece
buyukcelebi
buyukelci
buyukelciligi
buyukelcilik
buyukelcisi
buyukler
buyuklugu
buyuklugunde
buyuklugundeki
buyuklugune
buyukluk
buyuklukte
buyuksehir
buyuktu
buyuktur
buyulu
buyume
buyumesi
buyumesini
buyumeye
buyumus
buyumustur
buyur
buyurdu
buyuyen
buz
buzlu
buzul
buzulu
buzz
bv
bw
bx
by
bye
byrne
byron
byte
byzantine
byzantium
bz
bıcagı
bıcak
bırak
bırakan
bırakarak
bırakma
bırakmak
bırakması
bırakmaya
bırakmıs
bırakmıstır
bıraktı
bıraktıgı
bıraktıgını
bıraktıktan
bırakılan
bırakıldı
bırakılması
bırakılmıs
bırakılmıstır
bırakılır
bırakın
bırakıp
bırakır
bıyıklı
c
c0
c1
c2
c3
c4
c5
c6
c7
c8
c9
ca
caba
cabalar
cabaları
cabalarına
cabalarını
cabalarıyla
cabası
cabinet
cable
cabucak
cabuk
cad
cadde
caddesi
cadiz
cadı
cadılar
cadır
caen
caesar
caf
cafe
cafer
cag
cagatay
cagatayca
cagda
cagdas
cage
cagematch
caglar
caglarda
caglardan
caglayan
cagrı
cagrıda
cagrılan
cagrıldı
cagrısı
cagrısında
cagı
cagın
cagına
cagında
cagının
cagıran
cagırdı
cagırır
cahil
cahit
cairo
cakal
cakmak
cakıl
cakır
cal
calabria
calan
calar
calarak
calcio
caldwell
caldı
caldıgı
caldıran
calendar
calgı
calgılar
calif
california
caligula
call
called
calling
calls
calma
calmak
calmaya
calmayı
calmıstır
calvin
calı
calınan
calındı
calısabilir
calısacak
calısan
calısanlar
calısanları
calısanların
calısanlarının
calısanı
calısarak
calıskan
calısma
calısmada
calısmak
calısmakta
calısmaktadır
calısmalar
calısmalara
calısmalarda
calısmalardan
calısmalarla
calısmaları
calısmaların
calısmalarına
calısmalarında
calısmalarından
calısmalarını
calısmalarının
calısmalarıyla
calısmanın
calısması
calısmasıdır
calısmasına
calısmasında
calısmasını
calısmasının
calısmasıyla
calısmaya
calısmayı
calısmıs
calısmıstır
calıssa
calıstı
calıstıgı
calıstıgını
calıstıkları
calıstıktan
calıstılar
calıstıran
calıstırdı
calıstırdıgı
calıstırmak
calısılan
calısılmıstır
calısıp
calısır
calısırken
calısırlar
calısıyor
calısıyordu
calısıyorlar
cam
camasır
cambridge
cambridgeshire
camdan
came
cameo
camera
cameron
cami
camidir
camii
camiler
camille
caminin
camisi
camiye
camlıca
camlıhemsin
camp
campaign
campania
campbell
campo
camur
camı
can
cana
canada
canadian
canak
canakkale
canal
canan
canavar
canavarı
cancer
candan
candidate
candy
caner
canik
cankaya
cankırı
canlandıran
canlandırdı
canlandırdıgı
canlandırmak
canlandırmaktadır
canlandırmıstır
canlandırılan
canlandırıldı
canlandırılmıs
canlandırılmıstır
canlı
canlılar
canlıların
canlının
cannes
cannon
canoe
canon
cansu
cansız
canta
cantası
canterbury
cantini
cantrell
canyon
canı
canım
canını
cao
cap
capa
capan
cape
capital
capitol
caplı
capo
cappella
capraz
capta
captain
capture
capı
capında
capındaki
car
cara
carbon
card
cardi
cardiff
care
career
caresiz
carex
carey
cargo
cari
caribbean
carl
carla
carlisle
carlo
carlos
carlton
carlık
carmen
carmıha
carnegie
carol
carole
carolina
caroline
carolyn
carpan
carpar
carparak
carpenter
carpma
carpması
carptı
carptırıldı
carpıcı
carpım
carpımı
carpısma
carpısmalar
carr
carrie
carrier
carroll
carry
cars
carsamba
carson
carsı
carsısı
carta
carter
cartoon
carvalho
carı
cas
casa
case
cases
casey
cash
casino
casper
cass
cassa
cassius
cast
castagno
castillo
castle
castro
casus
casusluk
cat
catak
catal
catalca
catalog
catalogo
catalogue
catalunya
catarina
catch
category
cathedral
catherine
catholic
catlı
cats
catı
catısma
catısmada
catısmalar
catısmalara
catısmalarda
catısmaları
catısmaların
catısmanın
catısması
catısmaya
catısı
caucasus
cauchy
caulfield
cause
causes
cava
cavaliers
cavallini
cavdar
cave
cavendish
cavit
cavus
cavusoglu
cay
caycuma
cayeli
caykara
caykur
caylak
cayı
cayır
cayırlı
caz
cazibe
cb
cbc
cbs
cc
cccp
cd
cdc
cdot
cdots
cdu
ce
cebeci
cebel
cebelitarık
cebir
cebirsel
cebrail
ceceli
cecen
cecenistan
cecil
cecilia
cedid
cedric
cehennem
cehenneme
cehov
cek
cekce
ceken
ceker
cekerek
cekerken
ceket
cekic
cekici
cekicidir
cekildi
cekildigi
cekildigini
cekildiler
cekilen
cekilerek
cekilip
cekilir
cekilirken
cekilme
cekilmek
cekilmesi
cekilmesini
cekilmesiyle
cekilmeye
cekilmis
cekilmistir
cekim
cekimi
cekimler
cekimleri
cekip
cekirdegi
cekirdegin
cekirdegini
cekirdek
cekirdekli
cekisme
cekiyor
cekme
cekmek
cekmektedir
cekmesi
cekmeye
cekmeyi
cekmis
cekmistir
cekoslovak
cekoslovakya
cekti
cektigi
cektigini
cel
celal
celaleddin
celebi
celebration
celebrity
celi
celik
celil
celine
celiskili
cell
cello
cells
celtic
celtics
cem
cemaat
cemaati
cemaatin
cemal
cember
cemberi
cemberin
cemil
cemile
cemisgezek
cemiyet
cemiyeti
cemiyetin
cena
cenab
cenaze
cenazesi
cene
ceneviz
cenevre
cengiz
cenk
cennet
cennete
cenneti
cenova
census
cent
center
central
centre
centro
centuries
century
ceo
cep
cephane
cephe
cephede
cephenin
cephesi
cephesinde
cephesine
cepheye
cerceve
cercevede
cercevesi
cercevesinde
ceremony
ceren
cereyan
cerik
cerkes
cerkesler
cerkez
cermen
cermik
cerrah
cerrahi
cerrahisi
cerrahpasa
certain
certification
certifications
cesar
cesare
cesaret
cesareti
cesaro
cesedi
cesedini
ceset
cesetleri
cesidi
cesididir
cesit
cesitleri
cesitli
cesitliligi
cesitlilik
cesme
cesmesi
cesur
cete
cetesi
cetin
cetinkaya
cev
cevaben
cevabı
cevabını
cevahir
cevap
cevaplar
cevat
cevdet
cevher
cevheri
cevik
cevirdi
cevirdigi
ceviren
cevirerek
ceviri
ceviriler
cevirileri
cevirir
cevirisi
cevirme
cevirmek
cevirmen
cevirmistir
ceviz
cevizi
cevre
cevrede
cevredeki
cevreler
cevrelerinde
cevreleyen
cevrenin
cevresel
cevresi
cevresinde
cevresindeki
cevresinden
cevresine
cevresini
cevresinin
cevreye
cevreyi
cevrildi
cevrilen
cevrili
cevrilidir
cevrilir
cevrilmis
cevrilmistir
cevrim
cevrimici
ceyhan
ceyhun
ceylan
ceyreginde
ceyrek
ceza
cezaevi
cezaevinde
cezaevinden
cezaevine
cezai
cezalandırılması
cezalandırılır
cezalar
cezaları
cezanın
cezası
cezasına
cezasını
cezasının
cezayir
cezayirli
cezayı
cezire
cf
cg
cgi
ch
cha
chad
chain
chains
chainsmokers
chairman
challenge
challenger
challenges
chamber
chamberlain
chambers
champion
champions
championship
championships
chan
chance
chandler
chang
change
changed
changes
changing
channel
chaos
chapel
chaplin
chapman
chapter
character
characteristics
characters
charge
charity
charles
charleston
charlie
charlotte
charlton
chart
charter
charts
chase
chat
chateau
chavez
che
check
checklist
chef
chelsea
chem
chemical
chemistry
chen
cheng
cher
cherry
cheshire
chess
chester
chevrolet
chi
chiara
chiba
chicago
chicken
chief
chiesa
child
childhood
children
chile
china
chinese
chip
chirac
chisholm
chloe
cho
chocolate
choi
choice
chomsky
chong
chosun
chp
chris
christ
christian
christianity
christie
christina
christine
christmas
christoph
christophe
christopher
chrome
chronic
chronicle
chronicles
chronology
chrysler
chu
chuck
chun
chung
church
churchill
ci
cia
cibuti
cicegi
cicek
cicekler
cicekleri
cicekli
cicero
cid
ciddi
ciddiye
cide
cift
ciftci
ciftciler
ciftcilik
cifte
cifti
ciftin
ciftinin
ciftler
ciftlesme
ciftligi
ciftlik
cig
cigdem
cihad
cihan
cihangir
cihat
cihaz
cihazda
cihazlar
cihazlarda
cihazları
cihazların
cihazı
cihazın
cikolata
cilalı
cildi
cilek
ciller
cilt
ciltlik
ciltte
cim
cimen
cimento
cin
cinayet
cinayeti
cinayetler
cinayetleri
cince
cincinnati
cinde
cindy
cine
cinema
cing
cingene
cini
cinko
cinli
cinliler
cins
cinsel
cinsellik
cinsi
cinsidir
cinsin
cinsinden
cinsine
cinsinin
cinsiyet
cinssiz
cinstir
cip
circle
circuit
circus
cirit
cirkin
cis
cisim
cisimler
cisimleri
cisimlerin
cisleri
cismi
cismin
cit
citation
cite
cited
cities
citizen
citizens
citroen
citta
city
ciudad
civar
civarı
civarına
civarında
civarındadır
civarındaki
civi
civil
civilization
civril
cizdi
cizdigi
cizelgesi
cizer
cizgi
cizgide
cizgiler
cizgileri
cizgili
cizgisi
cizgisini
cizilen
cizilmis
cizim
cizimi
cizimler
cizimleri
cizre
cizvit
cj
ck
cl
claim
claims
claire
clara
clare
clarence
clarendon
clark
clarke
clarkson
clash
class
classement
classic
classical
classics
classification
claude
claudia
claudio
claudius
claus
clay
clayton
clean
clear
clemens
clement
cleveland
click
client
cliff
clifford
climate
clin
clinical
clint
clinton
clio
clive
clock
close
closer
cloud
club
clubs
cluster
clusters
clyde
cm
cn
cnbc
cnet
cnn
cnnturk
cns
co
coach
coalition
coast
cobain
coban
cobra
coca
cochrane
coco
cocuga
cocugu
cocugudur
cocugun
cocugundan
cocugunu
cocugunun
cocuk
cocukken
cocuklar
cocuklara
cocuklarda
cocuklarla
cocukları
cocukların
cocuklarına
cocuklarını
cocuklarının
cocuklu
cocuklugu
cocuklugunda
cocuklugundan
cocuklugunu
cocukluk
code
codex
cody
coffee
cognitive
cografi
cografya
cografyacı
cografyada
cografyası
cogu
cogul
cogulu
cogunda
cogunlugu
cogunlugun
cogunlugunu
cogunlugunun
cogunluk
cogunlukla
cogunlukta
cogunu
cogunun
cohen
cok
cokca
coker
coklu
coklugu
cokluk
coktan
coktu
coktur
cokus
cokusu
col
cola
colak
colakoglu
cold
colde
coldplay
cole
coleman
coli
colin
collaboration
collected
collection
collections
collectors
college
collider
collins
colo
colombia
colon
colonial
color
colorado
colu
columbia
columbus
com
combat
combined
come
comeback
comedy
comert
comes
comet
comez
comic
comics
coming
comlek
command
commander
commentary
commerce
commercial
commission
committee
common
commons
commonwealth
communication
communications
communism
communist
communities
community
como
compact
companies
companion
company
comparada
comparative
comparison
competition
compilation
complete
completo
complex
composer
composition
comprehensive
compton
computer
computing
comte
con
conan
concacaf
concept
concepts
concert
concise
conde
conditions
condor
conference
confessions
confirmed
confirms
conflict
congo
congress
congressional
conn
connect
connecticut
connection
connor
conquest
conrad
consequence
consequences
conservation
console
conspiracy
constant
constantine
constantinople
constitution
construction
consumer
contact
contemporary
content
contest
context
continental
continues
continuum
contra
contract
contribution
contributions
control
convention
conversation
conway
cook
cool
cooper
cooperation
cop
copa
cope
copenhagen
coppa
copy
cor
corak
corap
corba
corbası
corbin
cordelia
cordoba
core
corey
corlu
cornelius
cornell
corner
cornwall
corona
coronavirus
corp
corporate
corporation
corps
corpus
corte
cortex
cortinarius
coruh
corum
coruna
cos
cosimo
coskulu
coskun
cosmic
cosmos
cost
costa
cote
cotton
could
council
count
countdown
counter
counties
countries
country
county
coup
coupe
courier
course
court
courtney
courts
couto
cov
coventry
cover
coverage
covid
cox
cozelti
cozme
cozmek
cozmeye
cozucu
cozulmesi
cozum
cozume
cozumleme
cozumler
cozumleri
cozumu
cozunurlugu
cozunurluk
cozunurluklu
cp
cpu
cq
cr
cra
craft
craig
crane
crash
crawford
crazy
crc
cream
create
created
creation
creative
creator
credit
credits
creed
creek
cretaceous
crew
crime
crimes
criminal
crimson
crisis
cristiano
cristina
critic
critical
criticism
critics
critique
croatia
cromwell
cross
crossing
crossroads
crow
crown
cruise
crusades
cruz
cry
crystal
cs
csi
cska
ct
cu
cuba
cube
cubugu
cubuk
cubuklu
cuce
cuceler
cuk
cukur
cukurca
cukurova
cukuru
cullen
cult
cultura
cultural
culture
cultures
cum
cuma
cumalı
cumartesi
cumbria
cumhur
cumhurbaskanlıgı
cumhurbaskanı
cumhurbaskanının
cumhuriyet
cumhuriyetci
cumhuriyete
cumhuriyeti
cumhuriyetin
cumhuriyetinin
cumhuriyetler
cumhuriyetleri
cumle
cumleler
cumlenin
cumlesi
cun
cuneyt
cunku
cunningham
cunta
cup
cupola
curate
cure
curie
curlie
current
curry
curse
curtis
curuk
curzon
cut
cuz
cv
cw
cx
cy
cybaeus
cycle
cycling
cyclingnews
cycliste
cyclops
cynthia
cyprus
cyril
cyrus
cz
czech
cı
cıg
cıglık
cıgır
cık
cıkabilir
cıkacagı
cıkacagını
cıkacak
cıkan
cıkar
cıkarak
cıkaran
cıkararak
cıkardı
cıkardıgı
cıkardıkları
cıkardılar
cıkarken
cıkarlar
cıkarları
cıkarlarına
cıkarlarını
cıkarma
cıkarmak
cıkarması
cıkarmaya
cıkarmayı
cıkarmıs
cıkarmıstır
cıkarsa
cıkartma
cıkartmak
cıkarttı
cıkarttıgı
cıkartılan
cıkartıldı
cıkartılmıstır
cıkarılabilir
cıkarılan
cıkarıldı
cıkarıldıgı
cıkarılması
cıkarılmıs
cıkarılmıstır
cıkarılır
cıkarıp
cıkarır
cıkma
cıkmadan
cıkmadı
cıkmadıgı
cıkmak
cıkmaktadır
cıkması
cıkmasına
cıkmasından
cıkmasını
cıkmasıyla
cıkmaya
cıkmayı
cıkmaz
cıkmıs
cıkmıstı
cıkmıstır
cıksa
cıktı
cıktıgı
cıktıgında
cıktıgını
cıktıkları
cıktıktan
cıktılar
cıktım
cıktısı
cıkınca
cıkıntı
cıkıp
cıkıs
cıkıslı
cıkısı
cıkısında
cıkısından
cıkısını
cıkıyor
cıkıyordu
cıldır
cılgın
cınar
cıplak
cırak
cıva
d
d0
d1
d2
d3
d4
d5
d6
d7
d8
d9
da
dabi
dad
daddy
dadiani
dadır
dag
daga
dagda
daglar
daglara
daglarda
dagları
dagların
daglarında
daglarının
daglık
dagı
dagılan
dagıldı
dagılma
dagılması
dagılmasından
dagılmıs
dagılmıstır
dagılım
dagılımı
dagılımının
dagın
dagınık
dagıstan
dagıtmak
dagıttı
dagıtılan
dagıtıldı
dagıtılmıs
dagıtılır
dagıtım
dagıtımı
dagıtımını
daha
dahası
dahi
dahil
dahildir
dahili
dahilinde
dahiliye
dai
daily
daim
daima
daimi
daimler
dair
daire
dairenin
dairesel
dairesi
dairesinde
dairesine
daisuke
daisy
daki
dakika
dakikada
dakikalık
dakikasında
dakka
dakota
dal
dalda
dale
dalga
dalgalar
dalgaları
dalgaların
dalgalı
dalganın
dalgası
dalgıc
dali
dalla
dallar
dalları
dallarında
dallas
dalmacya
dalton
dalı
dalıdır
dalında
dalıs
dam
dama
damadı
damage
damak
damar
damat
dame
damga
damgasını
damian
damien
damla
damon
dan
dana
danca
dance
dancing
dane
danger
dangerous
dani
daniel
daniela
danielle
daniels
danimarka
danimarkalı
danish
danismend
danny
dans
danscı
dansı
dante
danısma
danısman
danısmanlıgı
danısmanlık
danısmanı
danıstay
dar
dara
darbe
darbenin
darbesi
darbeye
darbeyi
dare
dareler
daresi
dari
dario
darius
dark
darkness
darling
darmstadt
darren
dart
darth
darulfunun
darussafaka
darwin
daryl
das
dash
data
database
date
dates
dating
dato
daughter
dava
davada
davalar
davaları
davanın
davası
davasında
davasını
davasının
davaya
davayı
dave
davet
daveti
david
davidson
davies
davis
davit
davranan
davranmak
davranır
davranıs
davranıslar
davranısları
davranıslarını
davranıssal
davranısı
davranısını
davud
davul
davulcu
davut
davutoglu
dawkins
dawn
dawson
day
dayak
dayalı
dayalıdır
dayanak
dayanan
dayanarak
dayandıgı
dayanmaktadır
dayanıklı
dayanıklılık
dayanılarak
dayanır
dayanısma
dayanıyor
dayanıyordu
dayken
days
dayı
dayısı
db
dc
dd
ddr
de
dead
deadline
deadly
deal
dean
dear
death
deaths
debate
debian
deborah
debut
debuts
dec
decade
december
decision
declaration
decline
dede
dedektif
dedesi
dedi
dedigi
dedigim
dedigimiz
dedigini
dedik
dedikleri
dediler
dedim
dedir
dee
deep
def
defa
defalarca
defans
default
defeat
defence
defense
define
definition
definitive
defne
defnedildi
defnedilmistir
defter
defteri
defterinde
defterine
deger
degerdir
degere
degeri
degerin
degerinde
degerine
degerini
degerinin
degerlendirdi
degerlendiren
degerlendirildi
degerlendirilen
degerlendirilir
degerlendirilmektedir
degerlendirilmesi
degerlendirilmistir
degerlendirme
degerlendirmek
degerlendirmeler
degerlendirmesi
degerler
degerlere
degerleri
degerlerin
degerlerine
degerlerini
degerlerinin
degerli
degersiz
degi
degil
degildi
degildir
degildirler
degilim
degiliz
degillerdir
degilse
degin
degirmen
degirmendere
degirmeni
degis
degisebilir
degisen
degisik
degisiklige
degisikligi
degisikligin
degisikliginden
degisikligine
degisikliginin
degisiklik
degisiklikler
degisikliklere
degisiklikleri
degisikliklerin
degisikliklerle
degisim
degisime
degisimi
degisimin
degisimler
degisimleri
degisir
degisken
degiskenler
degiskenlik
degisme
degismektedir
degismesi
degismeyen
degismez
degismis
degismistir
degisti
degistigi
degistirdi
degistirebilir
degistiren
degistirerek
degistirildi
degistirilebilir
degistirilen
degistirilerek
degistirilir
degistirilmesi
degistirilmis
degistirilmistir
degistirip
degistirir
degistirme
degistirmek
degistirmesi
degistirmeye
degistirmis
degistirmistir
degli
dehset
dehu
dei
dek
dekan
dekanı
deki
dekor
dekoratif
del
delaware
delege
delhi
deli
delice
deligi
delik
delikanlı
delikler
delikli
delil
deliller
delivery
dell
della
delle
dello
delta
deltası
deluxe
dem
demand
demek
demektedir
demektir
demesi
demet
demi
demir
demirci
demirel
demirspor
demirtas
demiryolları
demiryolu
demis
demisti
demistir
demo
democracy
democratic
demografik
demographic
demokrasi
demokrasinin
demokrasiye
demokrasiyi
demokrat
demokratik
demokratlar
demon
den
dene
denedi
deneme
denemeler
denemeleri
denemesi
denen
denetim
denetimi
denetimine
denetleme
denetlemek
deney
deneyi
deneyim
deneyimi
deneyimini
deneyimleri
deneyimlerini
deneyimli
deneyler
deneyleri
deneysel
denge
dengeli
dengesi
dengesini
denildi
denilen
denilir
denilmektedir
denir
denis
denise
deniz
denizaltı
denizaltısı
denizasırı
denizci
denizciler
denizcilik
denizde
denizden
denize
denizi
denizin
denizler
denizlerde
denizli
denizlispor
denk
denklem
denklemi
denklemler
denklemleri
denktas
denli
denmark
denmektedir
dennis
density
denver
departamento
departmanı
department
deplasman
deplasmanda
deplasmanlı
depo
depolama
deportivo
deposu
depp
deprem
depremde
depremi
depremin
depremler
depresif
depression
depresyon
der
derbent
derby
derbyshire
derde
derdi
dere
derece
derecede
dereceden
derecelendirme
dereceleri
dereceli
derecelik
derecesi
derecesine
derecesini
derecesiyle
dereceye
derek
derekoy
dereli
deresi
dergah
dergi
dergide
dergiler
dergilerde
dergileri
dergilerinde
derginin
dergipark
dergisi
dergisinde
dergisinden
dergisine
dergisini
dergisinin
derhal
deri
derik
derin
derinden
derinlemesine
derinligi
derinlik
derisi
derken
derleme
derlemesi
derlenen
derler
derleyen
derman
dernege
dernegi
dernegin
derneginin
dernek
dernekler
dernekleri
ders
dersi
dersim
dersler
dersleri
derslerine
derslerini
dert
dervis
derya
des
descartes
description
desen
desert
desifre
design
designer
desire
desmond
despite
dest
destan
destanı
destegi
destegine
destegini
destegiyle
destek
destekcileri
destekcisi
destekledi
destekledigi
destekleme
desteklemek
desteklemektedir
desteklemeye
desteklemistir
desteklendi
desteklenen
desteklenir
desteklenmektedir
desteklenmesi
destekler
destekleyen
destekleyici
destekli
destekliyor
destination
destiny
destruction
det
detail
detailed
details
detay
detaylar
detayları
detaylı
detection
detective
detroit
deutsch
deutsche
deutschen
deutscher
deutschland
deux
dev
deva
devam
devamlı
devamı
devamında
devasa
deve
develi
developer
developers
development
developmental
devi
device
devices
devil
devin
devir
devirde
devirmek
devlet
devlete
devleti
devletin
devletinde
devletine
devletini
devletinin
devletler
devletlere
devletleri
devletlerin
devletlerinde
devletlerine
devletlerinin
devlette
devletten
devon
devraldı
devralındı
devre
devredildi
devrek
devreli
devresi
devretti
devreye
devri
devrim
devrimci
devrimi
devrimin
devriminin
devrin
devrinde
devriye
dewey
dexter
deyim
deyimi
deyimler
deyip
deyisle
deyu
df
dfb
dg
dgm
dh
dha
dharma
dhkp
di
dia
diabetes
diagnosis
dialect
dialogue
diamond
diamonds
diana
diane
diaries
diario
diary
diaspora
diaz
dibinde
dibine
dick
dickinson
dicle
dictionaries
dictionary
did
didem
didier
didn
die
died
diego
dies
diesel
diet
dieter
dietrich
diferansiyel
difference
different
diger
digeri
digerine
digerinin
digerleri
digerlerinden
digerlerine
digerlerini
digerlerinin
digest
digimon
digital
digiturk
dijital
dijon
dik
dikdortgen
diken
dikenli
dikey
dikilen
dikili
dikis
dikkat
dikkate
dikkati
dikkatini
dikkatle
dikkatleri
dikkatli
dikmen
diktator
diktatorluk
dil
dilber
dilbilgisi
dilbilim
dilbilimci
dilde
dilden
dildir
dile
diledi
dilek
dilekce
diler
dili
dilidir
dilim
dilimi
diliminde
dilin
dilinde
dilindeki
dilinden
diline
dilini
dilinin
diliyle
diliyorum
dille
diller
dillerde
dillerden
dillere
dilleri
dillerin
dillerinde
dillerinden
dillerine
dillerini
dillerinin
dilli
dilsel
dimitri
dimitrios
din
dinamik
dinamo
dinar
dinc
dincer
dindar
dinden
dine
dini
dinin
dinine
dinini
dininin
dink
dinle
dinleme
dinlemek
dinlenen
dinlenme
dinler
dinlerin
dinleyici
dino
dinosaur
dinosaurs
dinozor
dinsel
dinyeper
dio
diodorus
dioksit
dion
dionysos
dip
diploma
diplomasi
diploması
diplomat
diplomatic
diplomatik
dir
dirac
direct
directed
direction
director
directors
directory
direk
direksiyon
direkt
direktor
direktordur
direktorlugu
direktorlugune
direktorlugunu
direktorluk
direktoru
direnc
direnci
direncli
direnis
direnisi
diri
dirilis
dirk
dirty
dis
disaster
disc
disco
discography
discogs
discovered
discovery
discussion
disease
diseases
disi
disil
disiler
disiplin
disiplini
disk
diskalifiye
diski
disko
diskografisi
disler
disleri
dislerin
disli
disney
disorder
disorders
display
displaystyle
distance
distribution
district
districts
diva
divan
divanu
divanı
diversity
divine
division
divrigi
dixon
diyabet
diyadin
diyafram
diyagramı
diyalektik
diyalog
diyaloglar
diyanet
diyar
diyarbakır
diyarbakırspor
diyarı
diye
diyecek
diyelim
diyen
diyerek
diyet
diyo
diyor
diyordu
diyorlar
diyorum
diyoruz
diz
dizayn
dize
dizel
dizi
dizide
dizideki
diziden
diziler
dizilerde
dizileri
dizilerinde
dizin
dizini
dizinin
dizisi
dizisidir
dizisinde
dizisindeki
dizisinden
dizisine
dizisini
dizisinin
diziye
diziyi
dizustu
dj
dk
dl
dm
dman
dmc
dmitri
dmitry
dmoz
dn
dna
dns
do
doc
doce
docent
docs
doctor
doctors
document
documentary
documents
dodge
does
doesn
dog
doga
dogaclama
dogada
dogal
dogalgaz
dogan
doganın
dogar
dogası
dogasını
dogaustu
dogaya
dogayı
dogdu
dogdugu
dogg
dogma
dogmus
dogmustur
dogru
dogrudan
dogrudur
dogruladı
dogrulama
dogrulandı
dogrular
dogrultuda
dogrultusunda
dogrulugu
dogrulugunu
dogruluk
dogrusal
dogrusu
dogruya
dogs
dogu
dogubayazıt
doguda
dogudaki
dogudan
dogulu
dogum
dogumdan
dogumlu
dogumludur
dogumu
dogumundan
dogup
doguran
dogurdu
dogurur
dogus
dogustan
dogusu
dogusuna
dogusunda
dogusundaki
doguya
doha
doi
doing
doken
dokme
doksan
doktor
doktora
doktorası
doktorasını
doktorlar
doktoru
doktrini
doku
dokulen
dokulur
dokum
dokuma
dokuman
dokumanda
dokumanlar
dokumanın
dokumu
dokunma
dokunmatik
dokusu
dokuz
dokuzuncu
dol
dolan
dolap
dolar
dolara
dolardan
dolarlık
doları
doların
dolasan
dolasarak
dolasım
dolaylarında
dolaylı
dolayı
dolayısı
dolayısıyla
dolduran
doldurmak
doldurulmus
dolgu
doll
dollar
dolls
dolmabahce
dolması
dolores
dolph
dolu
doludur
dom
domain
domanic
domates
dome
domenico
domestic
dominant
domingo
dominic
dominik
dominique
domuz
domuzu
don
dona
donald
donanma
donanmanın
donanması
donanmasına
donanmasının
donanım
donanımlı
donanımı
donatello
donatılmıs
donatılmıstır
dondu
dondugu
dondugunde
dondugunu
dondukten
donduler
dondurma
dondurur
done
donem
donemde
donemdeki
donemden
donemdir
doneme
donemi
donemin
doneminde
donemindeki
doneminden
donemine
donemini
doneminin
donemki
donemler
donemlerde
donemlere
donemleri
donemlerinde
donen
doner
donerek
donerken
donerler
donetsk
dong
dongu
dongusu
donme
donmek
donmesi
donmesine
donmesini
donmeye
donmeyi
donmez
donmus
donmustur
donna
donovan
donuk
donum
donumu
donunce
donup
donus
donusen
donusmesi
donusmus
donusmustur
donustu
donusturdu
donusturen
donusturme
donusturmek
donusturuldu
donusturulmesi
donusturulmus
donusturulmustur
donusturulur
donusturur
donusu
donusum
donusumlu
donusumu
donusunde
donusunu
donusur
donuyor
doo
doom
door
doors
doping
dora
dordu
dorduncu
dorduncusu
doris
dormen
dorothy
dorset
dort
dortgen
dortlu
dortmund
dortte
doruk
dos
doseme
dost
dostlar
dostları
dostluk
dostoyevski
dostu
dostum
dosya
dosyada
dosyalar
dosyaları
dosyalarını
dosyanın
dosyası
dosyasında
dosyasının
dosyaya
dosyayı
dot
dots
double
doubleday
doubt
doug
douglas
dover
doviz
dovme
dovus
down
download
doyle
doymus
doz
dp
dq
dr
dracula
draft
drag
dragon
dragons
drake
drakula
dram
drama
draması
dramatik
draw
drawings
dre
dream
dreams
drenaj
dresden
drew
dreyfus
dris
drive
driver
drop
drops
drosera
drug
drugs
drum
dry
ds
dsi
dso
dsp
dss
dt
dtp
du
dua
dual
duası
dubai
dublaj
dublin
duccio
duck
dudak
dudley
due
duello
duet
dueti
duff
dugme
dugmesi
dugum
dugumu
dugun
dugunu
duisburg
duk
dukalıgı
dukas
duke
dukkan
dukkanı
duku
dul
duma
duman
dumanlı
dumas
dumbarton
dumbledore
dumlupınar
dun
duncan
dundar
dunden
dune
dunlop
dunn
dunya
dunyaca
dunyada
dunyadaki
dunyadan
dunyanın
dunyası
dunyasına
dunyasında
dunyasındaki
dunyasını
dunyasının
dunyaya
dunyayı
dunyevi
duo
duomo
dur
duragan
duragı
durak
duran
durant
durdu
durdugu
durdurdu
durdurma
durdurmak
durdurmaya
durduruldu
durdurulması
durgun
durham
during
durma
durmadan
durmak
durmaktadır
durması
durmaz
durmus
dursun
dursunbey
duru
durum
duruma
durumda
durumdadır
durumdaki
durumdan
durumdaydı
durumdur
durumlar
durumlara
durumlarda
durumları
durumların
durumlarında
durumlarını
durumu
durumudur
durumun
durumuna
durumunda
durumundadır
durumundan
durumunu
durumunun
durup
durur
durus
durusma
durusmada
durust
durusu
duruyor
dus
dusan
dusen
duser
duserek
dusesi
duskun
dusman
dusmana
dusmanca
dusmanları
dusmanlıgı
dusmanlık
dusmanı
dusmanın
dusme
dusmek
dusmektedir
dusmesi
dusmesine
dusmus
dusmustur
dusseldorf
dust
dustu
dustugu
dustugunu
dusuk
dusuktur
dusun
dusunce
dusunceler
dusunceleri
dusuncelerin
dusuncelerini
dusuncenin
dusuncesi
dusuncesini
dusuncesinin
dusuncesiyle
dusunceye
dusunceyi
dusundu
dusundugu
dusundugunu
dusundum
dusunen
dusunerek
dusunme
dusunmek
dusunmektedir
dusunmeye
dusunsel
dusunuldu
dusunulebilir
dusunulen
dusunulmektedir
dusunulmustur
dusunulur
dusunuluyor
dusunuluyordu
dusunun
dusunur
dusunurler
dusunuyor
dusunuyordu
dusunuyorum
dusup
dusurdu
dusurmek
dusuruldu
dusurur
dusus
dususe
dususu
dut
dutch
dutchcharts
duty
duvar
duvara
duvarlar
duvarları
duvarların
duvarlarının
duvarı
duvarın
duvarına
duvarının
duvel
duyan
duyar
duyarlı
duyarlılık
duydu
duydugu
duydugunu
duydukları
duydum
duygu
duygular
duyguları
duygularını
duygusal
duygusu
duymak
duymaya
duyu
duyulan
duyulur
duyunca
duyurdu
duyurmustur
duyuru
duyuruldu
duyurulmustur
duyurusu
duyusal
duz
duzce
duzeltme
duzeltmek
duzen
duzene
duzeni
duzenin
duzenine
duzenini
duzeninin
duzenledi
duzenledigi
duzenlediler
duzenleme
duzenlemek
duzenlemektedir
duzenlemeler
duzenlemeleri
duzenlemesi
duzenlemeye
duzenlemis
duzenlemistir
duzenlendi
duzenlendigi
duzenlenecek
duzenlenen
duzenlenir
duzenlenmektedir
duzenlenmesi
duzenlenmis
duzenlenmistir
duzenler
duzenleyen
duzenleyerek
duzenleyici
duzenli
duzensiz
duzey
duzeyde
duzeye
duzeyi
duzeyinde
duzeyine
duzgun
duzici
duzlem
duzlemde
dv
dvd
dw
dwarf
dwight
dx
dy
dying
dylan
dynamic
dynamics
dynamo
dynasty
dyp
dz
dı
dır
dıs
dısa
dısarı
dısarıda
dısarıdan
dısarıya
dısisleri
dıstan
dısı
dısına
dısında
dısındaki
dısından
e
e0
e1
e2
e3
e4
e5
e6
e7
e8
e9
ea
each
eagle
earl
earliest
early
earth
earthquake
east
eastern
eastwood
easy
eat
eb
ebedi
eberhard
ebert
ebeveyn
ebeveynleri
ebola
ebru
ebu
ec
ece
ecevit
echo
eclipse
eco
ecole
ecology
economic
economics
economist
economy
ecw
eczacı
eczacıbası
eczacılık
ed
eda
eddie
eddy
edebi
edebilecegi
edebilecek
edebilen
edebilir
edebilirler
edebilmek
edebiyat
edebiyata
edebiyatta
edebiyatı
edebiyatın
edebiyatına
edebiyatında
edebiyatının
edecegi
edecegim
edecegini
edecegiz
edecek
edecekti
edecektir
edelim
edemedi
edemez
eden
edenler
edenlere
edenlerin
eder
ederdi
ederek
ederim
ederiz
ederken
ederler
ederse
edgar
edge
edi
edici
edil
edildi
edildigi
edildiginde
edildiginden
edildigine
edildigini
edildikten
edildiler
edilebilecek
edilebilen
edilebilir
edilebilmektedir
edilecegi
edilecegini
edilecek
edilecektir
edilemeyen
edilemez
edilen
edilerek
edilince
edilip
edilir
edilirdi
edilirken
edilirler
edilirse
ediliyor
ediliyordu
edilme
edilmeden
edilmedi
edilmek
edilmekte
edilmektedir
edilmekteydi
edilmelidir
edilmemesi
edilmemis
edilmemistir
edilmesi
edilmesidir
edilmesinde
edilmesinden
edilmesine
edilmesini
edilmesinin
edilmesiyle
edilmeye
edilmeyen
edilmez
edilmis
edilmislerdir
edilmisti
edilmistir
edilməsi
edilse
edin
edinburgh
edince
edindi
edindigi
edinen
edinir
edinme
edinmek
edinmistir
edip
edirne
edison
edit
edited
edith
edition
editions
editor
editora
editorial
editoriale
editorler
editorlugunu
editors
editoru
editrice
ediyor
ediyordu
ediyorlar
ediyorlardı
ediyorum
ediyoruz
edizioni
edl
edmond
edmund
edna
edo
edouard
edremit
eds
edu
eduard
eduardo
education
educational
edward
edwards
edwin
ee
eee
eesti
ef
efe
efekt
efektler
efektleri
efeler
efendi
efendiler
efendim
efendisi
efes
effect
effects
efkar
efl
eflak
eflani
efsane
efsaneler
efsaneleri
efsanesi
efsanevi
efsaneye
eg
ege
egemen
egemenligi
egemenliginde
egemenligine
egemenligini
egemenlik
eger
egg
egik
egilim
egilimi
egiliminde
egilimindedir
egilimleri
egilimli
egim
egimli
egirdir
egitim
egitimci
egitimde
egitimden
egitime
egitimi
egitimin
egitiminde
egitimine
egitimini
egitiminin
egitimleri
egitimli
egitmek
egitmen
egitmeni
eglence
eglenceli
ego
egri
egrisi
egypt
egyptian
egzersiz
egzotik
egzoz
eh
ehf
ehl
ehli
ei
eight
eighteenth
ein
eine
einer
einstein
eintracht
eisenhower
ej
ejder
ejderha
ek
ekber
eken
eki
ekibe
ekibi
ekibin
ekibinde
ekibine
ekibinin
ekibiyle
ekim
ekin
ekinci
ekinde
ekip
ekipleri
ekiplerinden
ekipman
ekipmanları
ekipmanı
ekledi
eklem
ekleme
eklemek
eklemistir
eklendi
eklenebilir
eklenen
eklenerek
eklenir
eklenmesi
eklenmesinde
eklenmesiyle
eklenmis
eklenmistir
eklenti
ekler
ekleri
ekleyerek
ekli
ekmegi
ekmek
eko
ekoloji
ekolojik
ekonomi
ekonomide
ekonomik
ekonominin
ekonomisi
ekonomisine
ekonomisini
ekonomisinin
ekonomist
ekonomiye
ekonomiyi
ekran
ekrana
ekranda
ekranlara
ekranı
ekranın
ekrem
eksen
ekseni
ekseninde
eksi
eksik
eksikligi
eksiksiz
eksioglu
ekspres
ekspresi
ekstra
ekumenik
ekvador
ekvator
el
ela
elaine
elastik
elazıg
elazıgspor
elbette
elbise
elbistan
elci
elciler
elcilerin
elciligi
elcilik
elcisi
elde
eldeki
elden
elder
ele
eleanor
electa
elected
election
elections
electric
electron
electronic
electronics
elektrik
elektrikli
elektriksel
elektro
elektromanyetik
elektron
elektronik
elektronlar
elektronların
elektronun
elektrot
eleman
elemanlar
elemanları
elemanlarının
elemanı
eleme
elemeleri
elemelerinde
element
elementary
elementler
elementleri
elementlerin
elements
elena
elendi
elenen
elenmistir
elephant
eleskirt
elestirdi
elestirel
elestiren
elestiri
elestirildi
elestiriler
elestirilere
elestirileri
elestirilmistir
elestirisi
elestirmen
elestirmeni
elestirmenler
elestirmenlerden
elestirmenleri
elestirmenlerin
elestirmenlerinden
eleven
eleyerek
elf
eli
elias
elif
elimination
elimizde
elin
elinde
elindeki
elinden
eline
elini
elio
eliot
eliptik
elisa
elisabeth
elise
elit
elite
eliyle
elizabeth
ell
ella
elle
ellen
eller
elleri
ellerinde
ellerinden
ellerine
ellerini
elli
ellie
elliot
elliott
ellis
elma
elmalı
elmas
elsa
else
elsevier
elton
elvan
elveda
elverisli
elvis
em
ema
emanet
emanuel
embassy
emegi
emek
emekli
emeklilik
emekliye
emel
emergency
emerging
emerson
emet
emevi
emeviler
emi
emil
emile
emilia
emilio
emily
emin
emine
eminem
eminonu
emir
emirates
emirdag
emiri
emirler
emirleri
emirligi
emirlikleri
emisyon
emlak
emlakbank
emma
emmanuel
emme
emmy
emniyet
emperor
emperyalist
empire
empires
emporis
emr
emrah
emre
emreder
emretti
emri
emrinde
emrindeki
emrine
emrini
emriyle
en
enciclopedia
encumeni
encyclopaedia
encyclopedia
encyclopædia
end
endeksi
endemik
ender
enderun
ending
endise
endonezya
ends
endulus
endustri
endustrisi
endustrisinde
endustrisine
endustrisinin
endustriyel
enemy
energy
enerji
enerjik
enerjili
enerjinin
enerjisi
enerjisini
enerjisinin
enerjiye
enerjiyi
enes
enfeksiyon
enfeksiyonu
enfekte
enflasyon
enformasyon
eng
engebeli
engel
engeli
engelledi
engelleme
engellemek
engellemeye
engellendi
engellenmesi
engeller
engelleri
engelleyen
engelli
engelliler
engels
engin
engine
engineering
engineers
england
english
enigma
enine
enis
enix
enjeksiyon
enjekte
enka
enkaz
enlem
enlemi
enough
enrico
enrique
ensaio
ensemble
enstitu
enstituleri
enstitusu
enstitusunde
enstruman
enstrumantal
entegrasyon
entegrasyonu
entegre
entelektuel
enter
enternasyonal
enterprise
entertainment
entomolog
entre
entropi
entry
envanteri
enver
environment
environmental
enzim
enzimler
enzo
eo
eosen
ep
epey
epic
epik
epir
episode
episodes
epitel
epsilon
epstein
eq
equipe
equipment
er
era
erasmus
erbaa
erbakan
erbas
erbil
ercan
ercetin
ercis
erciyes
erciyesspor
ercument
erdal
erdel
erdem
erdemli
erden
erdi
erdigi
erdinc
erdogan
eredivisie
eregli
eren
erener
erenerol
erenkoy
erenler
erer
ergani
ergen
ergenekon
ergenlik
ergin
ergun
erhan
eri
eric
erich
erickson
ericsson
erie
erik
erika
eril
erime
erimis
erin
eris
erisildi
erisilebilir
erisilmistir
erisim
erisimi
erisimin
erisimtarihi
eriskin
erisme
erismek
eritre
erivan
erk
erkal
erkan
erkege
erkegi
erkegin
erkek
erkekler
erkeklerde
erkeklerden
erkeklere
erkekleri
erkeklerin
erken
erkin
erkut
erman
erme
ermeni
ermenice
ermenicesi
ermeniler
ermenileri
ermenilerin
ermenistan
ermesi
ermesinden
ermis
ermistir
ernest
ernesto
ernst
eroglu
eroin
erol
eros
erotik
erozyon
ers
ersan
ersin
ersoy
ersoz
ertan
erteki
ertelendi
ertem
ertesi
ertugrul
eruh
eruygur
erwin
erzak
erzincan
erzurum
erzurumspor
es
esa
esad
esaret
esas
esasen
esaslar
esasları
esaslı
esası
esasına
esat
esc
escape
escinsel
escinsellik
esctoday
esdeger
esek
esen
esenler
eser
eserde
eserdir
esere
eseri
eseridir
eserin
eserinde
eserinden
eserine
eserini
eserinin
eseriyle
eserler
eserlerde
eserlerden
eserlere
eserleri
eserlerin
eserlerinde
eserlerinden
eserlerine
eserlerini
eserlerinin
eserleriyle
esi
esidir
esik
esin
esinden
esine
esini
esinin
esinlenen
esinlenerek
esir
esiri
esit
esitligi
esitlik
esitsizligi
esittir
esiyle
eski
eskiden
eskimis
eskimo
eskisehir
eskisehirspor
eskisi
eskrim
eskıya
esleri
eslesen
eslesti
esliginde
eslik
esma
esme
esmer
esnada
esnaf
esnasında
esnek
espana
espanol
espanyol
esperanto
espiye
espn
esports
espresso
esra
esrar
esrarengiz
esref
essay
essays
essen
essential
essex
essiz
est
estadio
estate
estatistica
estatistico
este
ester
estetik
esther
estimaciones
estimates
estonca
estonia
estonya
esya
esyalar
esyaları
esyası
eszamanlı
et
eta
etabı
etap
etaplar
etapta
etc
etek
eteklerinde
eternal
eternity
ethan
ethem
ethernet
ethics
ethnic
ethnographique
ethnologue
eti
etienne
etik
etiket
etiketi
etiketiyle
etimesgut
etimolojik
etiyopya
etken
etkenler
etki
etkiledi
etkiledigi
etkilemis
etkilemistir
etkilendi
etkilendigi
etkilenen
etkilenerek
etkilenir
etkilenmis
etkilenmistir
etkiler
etkilere
etkileri
etkilerine
etkilerini
etkilerinin
etkilesim
etkilesime
etkilesimi
etkilesimleri
etkilesimli
etkileyen
etkileyici
etkili
etkilidir
etkin
etkinin
etkinlige
etkinligi
etkinligin
etkinliginde
etkinligini
etkinlik
etkinlikler
etkinliklerde
etkinliklere
etkinlikleri
etkinlikte
etkisi
etkisinde
etkisinden
etkisine
etkisini
etkisinin
etkisiyle
etkisiz
etkiye
etkiyi
etli
etme
etmede
etmeden
etmedi
etmedigi
etmedigini
etmek
etmekle
etmekte
etmektedir
etmektedirler
etmekten
etmekteydi
etmektir
etmeleri
etmelerine
etmelerini
etmelidir
etmemek
etmemesi
etmemis
etmemistir
etmenin
etmesi
etmesinden
etmesine
etmesini
etmesinin
etmesiyle
etmeye
etmeyen
etmeyi
etmez
etmis
etmisler
etmislerdi
etmislerdir
etmisti
etmistir
etnik
etnografik
etnografya
etrafı
etrafına
etrafında
etrafındaki
etrafını
etrusk
etse
etsin
ett
etti
ettigi
ettigim
ettigimiz
ettiginde
ettiginden
ettigine
ettigini
ettik
ettikleri
ettiklerini
ettikten
ettiler
ettim
ettirdi
ettirdigi
ettiren
ettirildi
ettirilmistir
ettirmek
ettirmistir
etudes
etymological
eu
eucalyptus
eugen
eugene
euler
eun
eur
euripides
euro
eurobasket
eurocup
eurogamer
euroleague
euronews
europa
europe
european
eurosport
eurovision
eurovoix
ev
eva
evaluation
evan
evanescence
evans
evanston
evcil
evde
evdeki
evden
eve
evelyn
even
evening
event
events
ever
everest
everett
everton
every
everybody
everyone
everything
evet
evi
evidence
evil
evin
evinde
evinden
evine
evini
evinin
evkaf
evlat
evlatlık
evlendi
evlendigi
evlendikten
evlendiler
evlenen
evlenip
evlenir
evlenme
evlenmek
evlenmesi
evlenmis
evlenmistir
evler
evlerde
evlere
evleri
evlerin
evlerinde
evlerine
evlerini
evlerinin
evli
evlidir
evliligi
evliligin
evliliginden
evliligini
evlilik
evlilikleri
evlilikten
evliya
evliydi
evolution
evolutionary
evrak
evre
evren
evrende
evrendeki
evreni
evrenin
evreninde
evrensel
evresi
evrim
evrimi
evrimsel
evsiz
evvel
evvela
ew
ex
example
excel
exchange
exclusive
executive
exeter
exhibition
exile
exo
exodus
exp
expansion
expedition
experience
experiment
experimental
expert
exploration
explorer
expo
express
expression
extended
extension
extra
extragalactic
extreme
ey
eyalet
eyaleti
eyaletin
eyaletinde
eyaletindeki
eyaletinden
eyaletine
eyaletinin
eyaletler
eyaletleri
eyaletlerinde
eyalette
eydur
eye
eyed
eyes
eyle
eyledi
eylem
eyleme
eylemi
eylemin
eyleminin
eylemler
eylemlere
eylemleri
eylemlerin
eylemlerine
eylemlerini
eylemlerinin
eyler
eylul
eymur
eyuboglu
eyup
eyupsultan
eyvah
eyyubi
eyyubiler
ez
ezel
ezeli
ezgi
ezici
ezine
eziyet
ezra
f
f0
f1
f2
f3
f4
f5
f6
f7
f8
f9
fa
faal
faaliyet
faaliyete
faaliyeti
faaliyetine
faaliyetler
faaliyetlerde
faaliyetlere
faaliyetleri
faaliyetlerin
faaliyetlerinde
faaliyetlerinden
faaliyetlerine
faaliyetlerini
faaliyetlerinin
faaliyette
faber
fabian
fabio
fabrika
fabrikada
fabrikalar
fabrikaları
fabrikası
fabrikasında
face
facebook
faces
fact
factbook
factfinder
facto
factor
factors
factory
facts
faculty
fade
fahrettin
fahri
faik
fail
faili
failure
fair
fairy
faith
faiz
fakat
fakir
faktor
faktorler
faktorleri
faktorlerin
faktoru
fakulte
fakultede
fakultesi
fakultesinde
fakultesinden
fakultesine
falan
falco
falcon
falkland
fall
fallen
falling
fallingrain
falls
false
fame
families
family
familya
familyadır
familyası
familyasıdır
familyasına
familyasında
familyasından
familyasının
famous
fan
fanatik
fanny
fans
fantastic
fantastik
fantasy
fantezi
faq
far
farabi
faraday
fare
faresi
farewell
fark
farkla
farklar
farkları
farklı
farklıdır
farklılık
farklılıklar
farklılıkları
farkı
farkına
farkında
farkındalık
farm
farnham
faroe
farrell
fars
farsca
faruk
farz
fas
fashion
fasist
fasizm
faslı
faso
fast
fasulye
fat
fatal
fate
father
fatih
fatma
fatsa
fatımi
fatımiler
faul
fauna
faust
fausto
favori
favorite
fay
fayda
faydalı
faydası
faysal
faz
fazilet
fazla
fazladan
fazladır
fazlası
fazlasını
fazlasıyla
fazlı
fazıl
fb
fbi
fc
fd
fda
fe
fear
feat
feature
features
featuring
feb
february
feda
federal
federasyon
federasyonu
federatif
federation
federer
federico
feed
feel
feeling
feet
fehmi
felaket
felaketi
felc
felek
felemenkce
felipe
felix
fellows
felsefe
felsefenin
felsefesi
felsefesini
felsefesinin
felsefi
female
feminist
feminizm
femme
fen
fena
fener
fenerbahce
feneri
fenike
fenomen
fenomeni
feodal
fer
feragat
ferah
ferdi
ferdinand
ferenc
ferguson
ferhan
ferhat
feri
feribot
ferid
feride
feridun
ferit
ferman
fermanı
fermi
fernandez
fernando
ferrara
ferrari
ferreira
fes
feshedildi
fest
festival
festivalde
festivali
festivalin
festivalinde
feth
fethetti
fethi
fethinden
fethiye
fethullah
fetih
feto
fetva
fever
fevkalade
fevzi
few
feyenoord
feynman
feyyaz
fezleke
ff
fg
fh
fi
fia
fiat
fiba
fiber
fiction
fidan
fide
fidel
fidye
field
fields
fifa
fifteenth
fifth
fifty
fig
figaro
figen
fight
fighter
fighters
fighting
figur
figure
figures
figurler
figurleri
figuru
fiil
fiilen
fiili
fiilinin
fiiller
fiji
fikir
fikirler
fikirleri
fikirlerin
fikirlerini
fikret
fikri
fikrine
fikrini
fikrinin
fil
filan
filarmoni
fildisi
file
files
filibe
filip
filipin
filipinler
filippino
filippo
filistin
filistinli
filiz
filler
film
filmde
filmdeki
filmden
filmdir
filme
filmi
filmidir
filmin
filminde
filmindeki
filminden
filmine
filming
filmini
filminin
filmiyle
filmle
filmler
filmlerde
filmlerden
filmlere
filmleri
filmlerin
filmlerinde
filmlerinden
filmlerini
filmlerinin
filmleriyle
films
filo
filogenetik
filoloji
filosu
filosunun
filozof
filozoflar
filozofu
filtre
fin
final
finalde
finaldeki
finalden
finale
finali
finalin
finalinde
finaline
finalist
finalisti
finaller
finallerde
finallere
finalleri
finally
finals
finance
financial
finans
finansal
finanse
finansman
finansmanı
fince
find
finding
finds
fine
finland
finlandiya
finn
finnish
fiona
fiore
fiorentina
firar
firavun
fire
firefox
firenze
firma
firmalar
firmaları
firmanın
firması
firmasının
first
fis
fischer
fisek
fish
fishbase
fisher
fit
fitness
fitzgerald
fivb
five
fiyat
fiyatları
fiyatı
fizigi
fizigin
fizik
fizikci
fizikciler
fiziki
fiziksel
fizikte
fizyoloji
fizyolojik
fj
fk
fl
flag
flair
flaman
flame
flanders
flas
flash
flavius
fleet
fleming
fletcher
flight
flo
floor
flor
flora
floransa
florence
florentine
flores
florian
florida
flort
flow
flower
flowering
flowers
floyd
flut
fly
flying
flynn
fm
fn
fo
foca
focus
fok
foley
folk
folklor
folklore
follow
following
fon
fondazione
fonetik
fonksiyon
fonksiyonel
fonksiyonlar
fonksiyonları
fonksiyonların
fonksiyonu
fonksiyonun
fonksiyonunun
fontaine
fontana
fonu
food
foods
fool
foot
football
for
forbes
force
forces
ford
foreign
forest
forever
forget
forgotten
forli
form
forma
formasyonu
forması
formasını
formasıyla
format
formation
formatı
formatında
formayı
formda
former
formları
forms
formu
formul
formula
formule
formulu
formunda
forrest
forster
fort
fortress
fortuna
fortune
forum
forumu
forvet
forward
forza
fosfat
fosfor
fosil
fosilleri
fossil
foster
foto
fotograf
fotografcı
fotografcılık
fotograflar
fotografları
fotograflarını
fotografı
fotografını
foton
foucault
found
foundation
foundations
founder
four
fourier
fourth
fowler
fox
fp
fq
fr
fra
frac
fragman
fragmanı
frame
framework
fran
francais
francaise
france
frances
francesca
francesco
franchise
francis
francisco
franco
francois
francoise
frank
frankenstein
frankfurt
frankie
franklin
fransa
fransız
fransızca
fransızlar
fransızların
franz
fraser
frau
fred
freddie
freddy
frederic
frederick
free
freedom
freeman
freguesia
freiburg
frekans
frekansı
fren
french
frescoes
fresh
fresk
freud
friday
friedman
friedrich
friend
friends
friendship
fritz
from
front
frontier
frontiers
frost
frozen
frs
fruit
fs
ft
ftp
fu
fuad
fuar
fuarı
fuat
fuchs
fuel
fuhrer
fuji
fukuoka
fulham
full
fuller
fulton
fun
function
functional
functions
fund
funda
fundacao
funeral
funk
funny
funun
fur
furkan
further
fury
fusion
fussballdaten
fusun
futbol
futbola
futbolcu
futbolcudur
futbolcular
futbolcuları
futbolculuk
futbolcusu
futbolda
futbolu
futbolun
futbolunun
future
fuze
fuzesi
fuzuli
fuzyon
fv
fw
fx
fy
fyodor
fz
fıkra
fıkrada
fıkrası
fıkrasında
fıkrasının
fıkıh
fındık
fındıklı
fırat
fırca
fırka
fırkası
fırlatma
fırlatıldı
fırsat
fırsatı
fırsatını
fırtına
fırtınası
fırın
fırında
fıstıgı
fıstık
g
g0
g1
g2
g3
g4
g5
g6
g7
g8
g9
ga
gabon
gabor
gabriel
gabriele
gabrielle
gaflar
gaga
gagalı
gagarin
gaia
gaius
gal
gala
galaksi
galaksidir
galaktik
galası
galata
galatasaray
galaxies
galaxy
gale
galeri
galerie
galerisi
galex
galiba
galibi
galibiyet
galibiyeti
galibiyetle
galicya
galileo
galip
galipleri
galium
gallagher
galler
gallery
galli
gallo
galya
gam
gama
gambiya
game
gamer
games
gamespot
gaming
gamma
gamze
gan
gana
gandalf
gandhi
gang
gangster
ganimet
gaon
gap
gar
garanti
garcia
gard
garden
gardens
gardiner
gardner
gareth
garfield
garibaldi
garip
garland
garnizon
garrett
garry
garson
gary
garı
gas
gasp
gaspari
gaston
gate
gates
gaulle
gauss
gavin
gay
gaye
gayet
gayr
gayret
gayri
gayrimenkul
gayrimuslim
gayriresmi
gayrı
gaz
gaza
gazel
gazeta
gazete
gazeteci
gazeteciler
gazetecileri
gazetecilik
gazetede
gazeteler
gazetelerde
gazeteleri
gazetelerinde
gazetenin
gazetesi
gazetesinde
gazetesine
gazetesini
gazetesinin
gazeteye
gazette
gazetteer
gazi
gaziantep
gaziantepspor
gaziler
gaziosmanpasa
gazlar
gazların
gazze
gazı
gazın
gb
gbif
gc
gd
ge
gear
gebe
gebelik
gebze
gec
gece
gececek
gecede
geceler
geceleri
gecemedi
gecen
gecenin
gecer
gecerek
gecerken
gecerler
gecerli
gecerlidir
gecerliligini
gecersiz
gecesi
gecesinde
geceyi
gecici
gecidi
gecikme
gecildi
gecilmesi
gecim
gecimini
gecince
gecip
gecirdi
gecirdigi
gecirdigini
gecirdikleri
gecirdikten
gecirdiler
geciren
gecirerek
gecirildi
gecirilen
gecirilerek
gecirilir
gecirilmesi
gecirilmis
gecirilmistir
gecirin
gecirip
gecirir
gecirirler
gecirme
gecirmek
gecirmesi
gecirmeye
gecirmeyi
gecirmis
gecirmistir
gecis
gecisi
gecisini
gecisli
gecit
geciyor
gecme
gecmeden
gecmek
gecmekte
gecmektedir
gecmesi
gecmesine
gecmesini
gecmesiyle
gecmeye
gecmeyi
gecmez
gecmis
gecmise
gecmisi
gecmisin
gecmisini
gecmiste
gecmisteki
gecmisten
gecmisti
gecmistir
gecti
gectigi
gectigimiz
gectiginde
gectiginden
gectigini
gectikce
gectikten
gectiler
gedik
gediz
gel
geldi
geldigi
geldiginde
geldigine
geldigini
geldik
geldikleri
geldiklerinde
geldiklerini
geldikten
geldiler
geldim
geldin
gelebilecek
gelebilir
gelecege
gelecegi
gelecegin
gelecegini
gelecek
gelecekte
gelecekteki
gelecektir
gelen
gelene
gelenege
gelenegi
geleneginde
gelenegine
gelenegini
geleneginin
gelenek
gelenekler
gelenekleri
geleneklerine
geleneklerini
geleneksel
geleni
gelenler
gelenleri
gelenlerin
gelerek
gelgit
geli
gelibolu
gelin
gelince
gelindiginde
gelini
gelip
gelir
geliri
gelirken
gelirler
gelirleri
gelirse
gelis
gelisen
gelisi
gelisim
gelisimi
gelisiminde
gelisimine
gelisimini
gelisiminin
gelisir
gelisme
gelismekte
gelismeler
gelismelere
gelismeleri
gelismelerin
gelismesi
gelismesinde
gelismesine
gelismesini
gelismeye
gelismis
gelismistir
gelisti
gelistigi
gelistirdi
gelistirdigi
gelistirdiler
gelistiren
gelistirerek
gelistirici
gelistiriciler
gelistiricisi
gelistirildi
gelistirilen
gelistirilmesi
gelistirilmesinde
gelistirilmesine
gelistirilmis
gelistirilmistir
gelistirir
gelistirme
gelistirmek
gelistirmeye
gelistirmeyi
gelistirmis
gelistirmistir
geliyor
geliyordu
geliyorum
gelme
gelmeden
gelmedi
gelmek
gelmekte
gelmektedir
gelmekteydi
gelmesi
gelmesinden
gelmesine
gelmesini
gelmesiyle
gelmeye
gelmez
gelmis
gelmislerdir
gelmisti
gelmistir
gelse
gelsin
gelub
gemi
gemide
gemiden
gemiler
gemilere
gemileri
gemilerin
gemilerine
gemilerini
gemilerinin
geminin
gemisi
gemisine
gemisini
gemisinin
gemiye
gemiyi
gemlik
gen
genc
gence
gencer
gencin
gencler
genclerbirligi
genclere
gencleri
genclerin
gencligi
gencliginde
genclik
genclikspor
gender
gene
genealogy
genel
genelde
geneli
genelinde
genelindeki
genelkurmay
genellestirilmis
genellikle
general
generali
generation
genes
genesis
genetic
genetics
genetik
geneva
geni
genin
genis
genisledi
genisleme
genislemesi
genisletildi
genisletilmis
genisletme
genisletmek
genisletti
genisleyen
genisligi
genisliginde
genisligindedir
genislik
genistir
genital
genius
genler
genlerin
genoa
genocide
genom
genome
gent
gentile
genuki
genus
geo
geoff
geoffrey
geografia
geographic
geographical
geography
geohive
geological
geology
geometri
geometrik
geometrisi
geometry
georg
george
georges
georgi
georgia
georgian
georgios
ger
gerais
gerald
gerard
gercege
gercegi
gercegin
gercegini
gercek
gercekci
gercekcilik
gercekler
gercekleri
gerceklesecek
gerceklesen
gerceklesir
gerceklesmedi
gerceklesmektedir
gerceklesmesi
gerceklesmis
gerceklesmistir
gerceklesti
gerceklestigi
gerceklestigini
gerceklestirdi
gerceklestirdigi
gerceklestiren
gerceklestirildi
gerceklestirildigi
gerceklestirilecek
gerceklestirilen
gerceklestirilir
gerceklestirilmektedir
gerceklestirilmesi
gerceklestirilmis
gerceklestirilmistir
gerceklestirir
gerceklestirmek
gerceklestirmis
gerceklestirmistir
gercekligi
gerceklik
gercekte
gercekten
gercektir
gercel
gerci
gercus
gerede
geregi
geregince
geregini
gerek
gerekce
gerekcesi
gerekcesiyle
gerekebilir
gereken
gerekir
gerekirse
gerekiyor
gerekiyordu
gerekli
gereklidir
gerekliligi
gerekmektedir
gerekmez
gerekse
gereksinim
gereksinimi
gereksinimleri
gereksiz
gerektigi
gerektiginde
gerektigine
gerektigini
gerektirdigi
gerektiren
gerektirir
gerektirmektedir
gerger
gergin
gerginlik
gerhard
geri
geride
gerileme
gerilim
gerilimi
gerilla
gerisinde
geriye
germain
german
germany
germen
gerze
geschichte
gesellschaft
gestapo
get
getir
getirdi
getirdigi
getirdigini
getirdikleri
getirdiler
getirecek
getiren
getirerek
getirildi
getirildigi
getirilen
getirilerek
getirilir
getirilmesi
getirilmesini
getirilmis
getirilmistir
getirip
getirir
getirirler
getiriyor
getirme
getirmek
getirmektedir
getirmesi
getirmeye
getirmeyi
getirmis
getirmisti
getirmistir
gets
getting
getty
gevsek
gey
geyigi
geyik
geyve
gezegen
gezegeni
gezegenin
gezegenler
gezegenlerin
gezen
gezer
gezgin
gezi
gezici
gezileri
gezisi
gezmis
gf
gfk
gg
gh
ghirlandaio
ghost
ghosts
ghz
gi
giacomo
gian
giant
giants
gibbs
gibi
gibidir
gibiydi
gibson
gidecek
gidelim
giden
gider
giderek
giderilmesi
giderir
giderken
giderler
giderleri
gidermek
gidin
gidip
gidis
gidiyor
gidiyorum
gift
gil
gilbert
giles
gill
gilles
gilmour
gina
gine
ginesi
giorgi
giorgio
giotto
giovanna
giovanni
giray
girdi
girdigi
girdiginde
girdigini
girdikten
girdiler
girecek
giremedi
giren
girer
girerek
girerken
girerler
giresun
giresunspor
girin
girince
girip
giris
girisi
girisim
girisimci
girisimcilik
girisimde
girisimi
girisiminde
girisimini
girisiminin
girisimiyle
girisimler
girisimlerde
girisimleri
girisinde
girisine
girisini
giriste
giristi
giristigi
girit
giriyor
girl
girlfriend
girls
girme
girmeden
girmek
girmesi
girmesinden
girmesine
girmesini
girmesiyle
girmeye
girmeyi
girmis
girmisti
girmistir
girne
giro
gise
gisede
git
gitar
gitarda
gitarist
gitaristi
gitgide
github
gitme
gitmeden
gitmek
gitmektedir
gitmesi
gitmesine
gitmesini
gitmeye
gitmeyi
gitmis
gitmistir
gitti
gittigi
gittiginde
gittigini
gittik
gittikce
gittikleri
gittiklerini
gittiler
gittim
giulia
giuliano
giulio
giunti
giuseppe
give
given
gives
giydi
giydigi
giydikten
giyen
giyer
giyerek
giyilen
giyim
giyip
giyme
giymektedir
giymeye
giymis
giymistir
giysi
giysiler
gizem
gizemli
gizlemek
gizli
gizlice
gizlilik
gj
gk
gl
glasgow
glass
glee
glen
glenn
gli
global
globe
globes
gloria
glory
glossary
gloucester
gloucestershire
glover
gluck
glukoz
gm
gmail
gmbh
gn
gnome
gnu
go
goal
goals
gobek
goc
goca
gocebe
gocer
gocler
gocmen
gocmeni
gocmenler
gocmenlerin
gocu
god
goddard
godfrey
gods
goebbels
goes
goethe
goetz
goge
gogh
gogus
goias
going
gok
gokada
gokadadır
gokadalar
gokalp
gokbilimci
gokce
gokcek
gokcen
gokhan
gokkusagı
goksel
goksu
goksun
goktas
gokten
gokturk
gokyuzu
gokyuzunde
gol
golbası
golcu
golcuk
gold
goldberg
golde
golden
goldenglobes
goldman
goldstein
goldur
gole
golf
golge
golgeler
golgesi
golgesinde
golle
goller
golleri
golpazarı
golu
golun
golune
golunu
golunun
goluyle
gomez
gomlek
gomuldu
gomulmustur
gomulu
gonca
gonderdi
gonderdigi
gonderdigini
gonderen
gondererek
gonderildi
gonderildigi
gonderilen
gonderilir
gonderilmesi
gonderilmis
gonderilmistir
gonderir
gonderme
gondermek
gondermeye
gondermis
gondermistir
gone
gonen
gong
gonlum
gonna
gonul
gonullu
gonulluler
gonulluleri
gonzaga
gonzalez
good
goodbye
goodman
google
gor
gora
goran
gorbacov
gordes
gordon
gordu
gordugu
gordugum
gordugumuz
gordugunu
gorduk
gordukleri
gorduklerini
gordukten
gorduler
gordum
gore
gorebilir
gorece
goreceli
goredir
gorele
goreli
gorelilik
goren
gorerek
gorev
gorevde
gorevdeki
gorevden
goreve
gorevi
gorevin
gorevinde
gorevinden
gorevine
gorevini
gorevinin
gorevlendirdi
gorevlendirildi
gorevlendirilen
gorevlendirilmistir
gorevlendirme
gorevler
gorevlerde
gorevlere
gorevleri
gorevlerin
gorevlerinde
gorevlerinden
gorevlerine
gorevlerini
gorevlerinin
gorevli
gorevlidir
gorevliler
gorevlileri
gorevlilerinin
gorevlisi
gorgu
goring
gorkemli
gorki
gorman
gorme
gormeden
gormedi
gormedigini
gormek
gormektedir
gormesi
gormeye
gormez
gormezden
gormus
gormustur
gorsel
goruldu
goruldugu
gorulebilen
gorulebilir
gorulebilmektedir
gorulen
gorulmektedir
gorulmemis
gorulmesi
gorulmeye
gorulmez
gorulmus
gorulmustur
gorulur
goruluyor
goruluyordu
gorum
gorunce
gorundu
gorundugu
gorunen
gorunmek
gorunmektedir
gorunmeyen
gorunmez
gorunmustur
gorunse
goruntu
goruntuleme
goruntuler
goruntuleri
goruntulerin
goruntulerini
goruntunun
goruntusu
gorunum
gorunume
gorunumlu
gorunumu
gorunumunu
gorunur
gorunus
gorunuse
gorunuste
gorunusu
gorunuyor
gorunuyordu
gorup
gorur
gorurler
gorus
goruse
gorusler
goruslere
gorusleri
goruslerine
goruslerini
goruslu
gorusme
gorusmede
gorusmek
gorusmeler
gorusmelerde
gorusmelere
gorusmeleri
gorusmelerin
gorusmelerinde
gorusmelerinin
gorusmenin
gorusmesi
gorusmesinde
gorusmeye
gorusmeyi
gorustu
gorustugu
gorustugunu
gorustuklerini
gorustum
gorusu
gorusune
gorusunu
gorusuruz
goruyor
goruyordu
goruyorum
goruyoruz
gospel
gosterdi
gosterdigi
gosterdigini
gosterdikleri
gosterdiler
gosterebilir
gosterecek
gosteren
gostererek
gosterge
gostergesi
gostergesidir
gosteri
gosterici
gosterildi
gosterildigi
gosterilebilir
gosterilen
gosteriler
gosterilerek
gosterileri
gosterilir
gosterilmektedir
gosterilmesi
gosterilmis
gosterilmistir
gosterim
gosterimde
gosterime
gosterimi
gosterinin
gosterip
gosterir
gosterirken
gosterirler
gosterisi
gosterisli
gosteriyor
gosteriyordu
gosterme
gostermek
gostermektedir
gostermesi
gostermeye
gostermis
gostermistir
got
goteborg
gotik
gottfried
gottingen
goturdu
goturen
goturmek
goturuldu
goturur
gould
gov
govde
govdeli
govdesi
govdeye
government
governor
goya
goynuk
goz
gozaltı
gozaltına
gozaltında
gozde
gozden
goze
gozetim
gozetimi
gozetiminde
gozetleme
gozle
gozlem
gozlemci
gozlemevi
gozlemlenebilir
gozlemlenen
gozlemlenmistir
gozlemler
gozlemleri
gozlenen
gozlenir
gozlenmistir
gozler
gozleri
gozlerin
gozlerini
gozlerinin
gozlu
gozluk
goztepe
gozu
gozum
gozun
gozunde
gozunden
gozune
gozunu
gozuyle
gozyasları
gozyası
gozzoli
gp
gps
gpu
gq
gr
grace
grade
graduate
graf
grafigi
grafik
grafikleri
graham
gram
gramer
grammar
grammy
gran
granada
grand
grande
granger
granit
grant
grass
grave
graves
gravity
gray
graz
great
greater
greatest
greco
greece
greek
green
greene
greenwich
greenwood
greg
gregg
gregor
gregory
grek
grekce
grekoromen
grenada
greta
grev
grevi
grevillea
grey
gri
griffin
griffith
grimm
grip
groening
gronland
gross
grosso
ground
group
groups
grove
grow
growing
growth
gruba
grubu
grubudur
grubun
grubuna
grubunda
grubundan
grubunu
grubunun
grubuyla
grup
grupla
gruplar
gruplara
gruplarda
gruplardan
gruplardandır
gruplarla
grupları
grupların
gruplarına
gruplarında
gruplarından
gruplarını
gruplarının
gruppo
grupta
gruptaki
gruptan
gruptur
gruyter
gs
gsm
gsmarena
gsyi
gt
gta
gu
guadalajara
guam
guangdong
guangzhou
guard
guardian
guatemala
gubre
guc
gucci
guce
gucle
guclendirdi
guclendirilmesi
guclendirilmis
guclendirmek
gucler
guclere
gucleri
guclerin
guclerine
guclerini
guclerinin
gucleriyle
guclu
gucludur
gucluk
gucsuz
guctur
gucu
gucun
gucunde
gucunden
gucune
gucunu
gucunun
gucuyle
gudumlu
guerra
guerrero
guest
guetta
guevara
guggenheim
guide
guidelines
guides
guido
guild
guillaume
guillermo
guilty
guinea
guinness
guitar
gul
gulaltay
gulben
gule
gulen
guler
guleryuz
gulf
gulgiller
gulistan
guller
gullu
gulsen
gultekin
gulu
gulum
gulunc
gumruk
gumus
gumushane
gun
gunah
gunay
gunaydın
guncel
guncelleme
guncellemesi
guncellenmis
guncellenmistir
gunde
gundelik
gundem
gundeme
gundemi
gunden
gundogdu
gundur
gunduz
gune
guner
gunes
gunese
gunesi
gunesin
gunesli
guney
guneybatı
guneybatıda
guneybatısında
guneyde
guneydeki
guneyden
guneydogu
guneydoguda
guneydogusunda
guneye
guneyi
guneyinde
guneyindeki
guneyinden
guneyine
gungor
gungoren
gunku
gunler
gunlerce
gunlerde
gunleri
gunlerinde
gunlerini
gunlugu
gunluk
gunlukleri
gunn
guns
guntekin
gunter
gunther
gunu
gunudur
gunumuz
gunumuzde
gunumuzdeki
gunumuzden
gunumuze
gunumuzun
gunun
gununde
gununden
gunune
gununu
gununun
gur
gurbet
gurbuz
gurcistan
gurcu
gurcuce
gurculer
gurel
gures
guresci
guresciler
guresleri
gurgen
guria
gurkan
gurpınar
gursel
gurses
gursoy
guru
gurultu
gurultulu
gurun
gurur
guruz
gus
gustaf
gustav
gustave
gustavo
gut
gutenberg
gutierrez
gutmeyen
guven
guvenc
guvence
guvencesi
guveni
guvenilir
guvenini
guvenli
guvenligi
guvenligini
guvenlik
guvercin
guy
guya
guyana
guz
guzel
guzeli
guzelligi
guzellik
guzelyurt
guzergahı
gv
gw
gwen
gx
gy
gymnastics
gz
gı
gıda
gılgamıs
gıyaseddin
h
h0
h1
h2
h3
h4
h5
h6
h7
h8
h9
ha
haaretz
haas
hababam
habenaria
haber
haberal
haberci
habercisi
haberdar
haberi
haberin
haberine
haberini
haberler
haberleri
haberlesme
habersiz
haberturk
habib
habitat
habsburg
hac
hacer
hacettepe
hacim
hacimli
haclı
haclılar
haclıların
hacmi
hacı
hacılar
had
hades
hadi
hadis
hadise
hadrianus
hadım
hae
hafif
hafifce
hafik
hafta
haftada
haftadan
haftalarda
haftalık
haftanın
haftası
haftasında
haftaya
hafız
hafıza
hagen
hague
haham
hahn
hai
hain
hair
haiti
haiz
hak
hakan
hakaret
hakem
hakemi
hakikat
hakikaten
hakiki
hakim
hakimdir
hakimi
hakimiyet
hakimiyeti
hakimiyetine
hakimiyetini
hakimler
hakimligi
hakk
hakka
hakkari
hakkinda
hakkı
hakkımızda
hakkın
hakkına
hakkında
hakkındadır
hakkındaki
hakkından
hakkını
hakkının
haklar
haklara
hakları
hakların
haklarına
haklarında
haklarından
haklarını
haklarının
haklı
haksız
hal
hala
halat
halbuki
halde
haldeki
haldun
hale
halefi
halen
halep
half
hali
halic
halid
halide
halidir
halife
halifeligi
halifelik
halifesi
halihazırda
halil
halim
halinde
halindedir
halindeki
haline
halini
halinin
halis
halit
haliyle
halk
halka
halkalı
halkası
halkcı
halkla
halklar
halklardan
halkları
halkların
halklarının
halktan
halkı
halkın
halkına
halkından
halkını
halkının
hall
halle
haller
hallerde
halleri
halloween
halo
halter
halterci
halton
haluk
halı
ham
hama
hamam
hamamı
hamas
hamasaki
hamburg
hamburger
hamdi
hami
hamid
hamidiye
hamile
hamilelik
hamilton
hamit
hamle
hamlet
hammadde
hammer
hammond
hampshire
hampton
hamur
hamza
han
hana
hancinema
hancock
hand
handan
handball
handbook
hande
handel
hands
hane
hanedan
hanedanlıgı
hanedanı
hanedanın
hanedanının
hanede
hanedir
hanefi
hangi
hanglemezkiadok
hani
hank
hanlıgı
hanna
hannah
hannibal
hannover
hans
hansen
hanı
hanım
hanımı
hanımın
hapis
hapishane
hapishanede
hapishaneden
hapishanesi
hapishaneye
hapiste
hapisten
happened
happiness
happy
hapse
hapsedildi
haqqında
har
hara
harabe
harac
harald
haram
harap
harb
harbi
harbiye
harbor
harc
harcama
harcamaları
hard
hardcore
harding
hardy
hare
harekat
harekata
harekatı
harekatın
hareket
harekete
hareketi
hareketin
hareketinde
hareketinden
hareketine
hareketini
hareketinin
hareketiyle
hareketle
hareketler
hareketleri
hareketlerin
hareketlerine
hareketlerini
hareketlerinin
hareketli
hareketlilik
hareketsiz
harem
harezm
harf
harfi
harfidir
harfinin
harfler
harfleri
harflerin
harflerle
haric
harici
haricinde
hariciye
harika
harikalar
harita
haritada
haritalar
haritaları
haritası
harkov
harlem
harman
harmondsworth
harmonik
harmony
harold
harp
harper
harpercollins
harput
harran
harriet
harris
harrison
harry
hart
hartford
hartmann
haruhi
harun
harvard
harvey
has
hasan
hasar
hasara
hasarlı
hasarı
hasat
hasim
haskoy
hasret
hassa
hassan
hassas
hasta
hastalar
hastalara
hastalarda
hastaları
hastaların
hastalıga
hastalıgı
hastalıgın
hastalıgına
hastalıgından
hastalıgının
hastalık
hastalıklar
hastalıklara
hastalıkları
hastalıkların
hastalıktan
hastalıktır
hastane
hastanede
hastaneler
hastaneleri
hastanesi
hastanesinde
hastanesine
hastaneye
hastanın
hastası
hastaya
hastings
hasıl
hasılat
hat
hata
hatalar
hataları
hatalı
hatası
hatay
hatayspor
hate
hatice
hatip
hatlar
hatları
hatlarına
hatlarını
hatlarının
hatta
hattı
hattın
hattına
hattında
hattını
hattının
hatun
hatıra
hatırlamadıgını
hatırı
haute
hava
havaalanı
havacılık
havada
havadan
havai
havalandırma
havale
havalimanı
havalimanıdır
havalı
havan
havana
havanın
havası
havaya
havayolları
havayolu
havayı
have
haven
havre
havuc
havuz
havuzu
havva
havza
havzası
havzasında
hawaii
hawk
hawking
hawkins
hawks
hay
hayal
hayalet
hayali
hayat
hayata
hayati
hayatları
hayatlarını
hayatta
hayattaki
hayattan
hayatı
hayatım
hayatın
hayatına
hayatında
hayatındaki
hayatından
hayatını
hayatının
haydar
haydarpasa
hayden
haydi
haydut
hayes
hayfa
hayli
haymana
hayran
hayranları
hayranlık
hayranı
hayreddin
hayret
hayrettin
hayri
hayvan
hayvanat
hayvancılık
hayvanlar
hayvanlara
hayvanlarda
hayvanlardan
hayvanları
hayvanların
hayvansal
hayvanı
hayvanın
hayır
hayırlı
hayırsever
haz
hazar
hazine
hazinesi
haziran
hazret
hazretleri
hazretlerine
hazretlerinin
hazır
hazırladı
hazırladıgı
hazırlama
hazırlamak
hazırlamıs
hazırlamıstır
hazırlanan
hazırlandı
hazırlandıgı
hazırlanması
hazırlanmıs
hazırlanmıstır
hazırlanır
hazırlanırken
hazırlar
hazırlayan
hazırlayıp
hazırlıgı
hazırlık
hazırlıklar
hazırlıkları
hazırlıklarına
hb
hbar
hbo
hc
hd
hdi
hdl
hdp
he
head
heads
health
hear
heard
heart
hearts
heat
heath
heather
heaven
heavy
heavyweight
hebrew
hece
heceleme
hector
hedef
hedefe
hedefi
hedefin
hedefine
hedefler
hedeflere
hedefleri
hedeflerine
hedeflerini
hedefleyen
hediye
hediyeler
hee
hegel
heidelberg
heidi
heights
heinemann
heinrich
heinz
hekim
hekimi
hekimligi
hekimoglu
hektar
hektarlık
helak
helal
held
hele
helen
helena
helene
helenistik
helicopter
helikopter
helikopteri
hell
hellenic
hello
helmut
help
helsinki
helyum
hem
hemen
hemsire
hemsirelik
hendek
henderson
henley
henri
henrik
henry
hentbol
henuz
hep
hepatit
hepburn
hepimiz
hepimizin
hepsi
hepsinde
hepsine
hepsini
hepsinin
her
hera
herakleios
herakles
herald
herat
herbert
hercules
here
herefordshire
herhalde
herhangi
heritage
herkes
herkese
herkesi
herkesin
herkesten
herkul
herman
hermann
hermes
hermione
hernandez
hero
herodot
heroes
herpetolog
herschel
hersek
hertfordshire
hertha
herzog
hesaba
hesabı
hesabına
hesabında
hesabından
hesabını
hesap
hesaplama
hesaplamak
hesaplanabilir
hesaplanan
hesaplanır
hesaplar
hesapları
hess
hesse
hessen
het
heteroseksuel
hey
heyecan
heyecanlı
heyet
heyeti
heyetinin
heykel
heykeli
heykelin
heykeller
heykelleri
heykeltıras
hf
hfpa
hg
hh
hi
hibe
hibrit
hic
hicaz
hicbir
hicbiri
hiciv
hicks
hicri
hidayet
hidden
hidroelektrik
hidrojen
hidrolik
higgins
high
higher
highest
highlights
highway
hijyen
hikaye
hikayede
hikayeler
hikayeleri
hikayelerini
hikayenin
hikayesi
hikayesinde
hikayesini
hikayesinin
hikayeye
hikayeyi
hikmet
hil
hilafet
hilal
hilary
hile
hill
hillary
hills
hilmi
hilton
him
himalaya
himaye
himayesi
himayesinde
himmet
himmler
himself
hindi
hindistan
hindu
hinduizm
hint
hintce
hip
hipertansiyon
hiphopdx
hipotez
hipotezi
hipparcos
hiroshi
hirosima
his
hisar
hispanic
hisse
hissi
histoire
historia
historic
historical
histories
history
hit
hitaben
hitap
hitchcock
hitit
hititler
hitler
hitparada
hitparade
hits
hiung
hiv
hiyerarsik
hizan
hizbullah
hizmet
hizmetci
hizmete
hizmeti
hizmetin
hizmetinde
hizmetine
hizmetini
hizmetler
hizmetleri
hizmetlerin
hizmetlerinden
hizmetlerine
hizmetlerini
hizmetlerinin
hj
hk
hl
hlas
hm
hms
hn
ho
hobbit
hobi
hoca
hocam
hocası
hockey
hoffman
hoffmann
hogan
hogwarts
hokey
hokeyi
hokkaido
hold
holden
holding
holdings
holds
hole
holiday
holland
hollanda
hollandalı
hollow
holly
hollywood
holmes
holocaust
holokost
holstein
holt
holy
home
homepage
homer
homeros
homme
homo
homojen
honda
honduras
honey
hong
hongroise
honneur
honolulu
honor
honour
hood
hook
hoon
hoover
hop
hopa
hoparlor
hope
hopkins
hopper
hor
horace
horasan
horizon
horizons
hormon
horn
horowitz
horoz
horror
horse
horst
horus
hos
hosgoru
hospital
host
hostan
hot
hotel
hotspur
houghton
hour
hours
house
houses
housewives
housing
houston
how
howard
howe
however
hoy
hoyugu
hoyuk
hp
hq
hr
hrant
hristiyan
hristiyanlar
hristiyanların
hristiyanlıga
hristiyanlıgı
hristiyanlıgın
hristiyanlık
hrsg
hs
hsan
ht
htc
htisas
htm
html
http
https
hu
huang
huawei
hub
hubble
huber
hubert
hucre
hucreler
hucrelerde
hucreleri
hucrelerin
hucrelerinde
hucrelerinin
hucreli
hucrenin
hucresel
hucresi
hucum
hucuma
huda
hudson
hudut
huffington
hugh
hughes
hugo
hui
hukmen
hukmu
hukmunde
hukuk
hukuka
hukukcu
hukukcular
hukuken
hukuki
hukuksal
hukuku
hukukun
hukukuna
hukukunda
hukukunun
hukum
hukumdar
hukumdarları
hukumdarlıgı
hukumdarlık
hukumdarı
hukumdarın
hukumet
hukumete
hukumeti
hukumetin
hukumetinde
hukumetine
hukumetini
hukumetinin
hukumetler
hukumetleri
hukumette
hukumetten
hukumler
hukumleri
hukumlerine
hukumlerini
hukumlu
hulk
hulki
hull
hulusi
hulya
human
humanism
humanist
humanities
humans
humayun
humboldt
hume
humeyni
humphrey
humus
hun
hundred
hung
hungarian
hungary
hunger
hunlar
hunt
hunter
huntington
hur
hurma
hurmet
hurmuz
hurrem
hurricane
hurriyet
hurriyeti
hursit
hurt
hus
husamettin
husband
huseyin
husn
husnu
husrev
husus
hususi
hususlar
hususta
hususunda
hutchinson
huygens
huylu
huzun
huzunlu
huzur
huzursuzluk
huzuruna
huzurunda
hv
hw
hwang
hx
hy
hybrid
hyde
hydra
hye
hyginus
hype
hyun
hyundai
hz
hı
hınıs
hırslı
hırsız
hırsızlık
hırvat
hırvatca
hırvatistan
hız
hıza
hızda
hızla
hızlarda
hızları
hızlı
hızlıca
hızı
hızına
hızında
hızını
hızının
hızır
i
i0
i1
i2
i3
i4
i5
i6
i7
i8
i9
ia
iaaf
iade
ian
iata
ib
ibadet
ibadete
ibareli
ibaresi
ibaret
ibarettir
ibdb
ibge
iblis
ibm
ibn
ibrahim
ic
icao
icap
icarus
icat
ice
icecek
icecekler
iceland
icerdigi
icerdigini
icerebilir
icerecek
iceren
iceri
iceride
icerige
icerigi
icerigin
iceriginde
icerigine
icerigini
iceriginin
icerik
icerikler
icerikleri
icerikli
icerikte
icerir
icerisinde
icerisindedir
icerisindeki
icerisinden
icerisine
iceriye
iceriyor
iceriyordu
icermektedir
icermemekte
icermeyen
icermez
icersinde
ich
ici
icin
icinde
icindedir
icindeki
icinden
icindeydi
icindir
icine
icini
icinse
icisleri
icki
iclerinde
iclerine
icme
icmek
icon
icra
icsel
icten
icun
id
ida
idaho
idam
idama
idare
idaresi
idaresinde
idaresine
idaresini
idaresinin
idari
iddia
iddialar
iddiaları
iddiaların
iddialarını
iddialı
iddianame
iddianamede
iddianamesi
iddiası
iddiasını
iddiasıyla
iddiaya
ide
idea
ideal
ideas
identification
identity
ideology
ideoloji
ideolojik
idi
idiler
idol
idrak
idrar
idub
ie
ieee
if
ifa
ifade
ifadeler
ifadeleri
ifadelerin
ifadelerine
ifadelerini
ifadenin
ifadesi
ifadesinde
ifadesine
ifadesini
ifadesinin
ifadeyle
iflas
ifpi
ifsa
iftira
ig
igdır
iglesias
ign
ignaz
igne
igor
igrenc
ih
ihale
ihanet
ihbar
ihlal
ihlali
ihmal
ihrac
ihracat
ihracatı
ihsan
ihtilal
ihtimal
ihtimali
ihtimalle
ihtiva
ihtiyac
ihtiyacları
ihtiyaclarına
ihtiyaclarını
ihtiyacı
ihtiyacını
ihtiyacının
ihtiyar
ii
iii
ij
ik
ikamet
ikametgahı
iken
iki
ikili
ikilinin
ikilisi
ikinci
ikincil
ikinciligi
ikincilik
ikincisi
ikiser
ikisi
ikisinde
ikisine
ikisini
ikisinin
ikiye
ikiz
iklim
iklime
iklimi
ikmal
ikna
ikram
iktidar
iktidara
iktidarda
iktidarı
iktidarın
iktidarını
iktisadi
iktisat
il
ila
ilac
ilaclar
ilacları
ilacların
ilacı
ilacın
ilahi
ilahiyat
ilan
ilanı
ilanından
ilave
ilaveten
ilbo
ilce
ilcede
ilceden
ilcedir
ilceler
ilceleri
ilcelerinde
ilcenin
ilcesi
ilcesidir
ilcesinde
ilcesindeki
ilcesinden
ilcesine
ilcesinin
ilceye
ilde
ildir
ile
ileri
ilerici
ileride
ileriki
ileriye
ilerledi
ilerledikce
ilerleme
ilerlemesi
ilerlemesini
ilerlemeye
ilerler
ilerlerken
ilerleyen
ilerleyerek
iletim
iletimi
iletisim
iletisime
iletisimi
iletken
ilgaz
ilgi
ilgilendi
ilgilendiren
ilgilenen
ilgilenir
ilgilenmeye
ilgili
ilgilidir
ilginc
ilgisi
ilgisini
ilgisinin
ilgiyi
ilhak
ilham
ili
ilim
ilin
ilinde
ilindeki
ilinden
iline
ilinin
iliski
iliskilendirilen
iliskiler
iliskilerde
iliskilere
iliskileri
iliskilerin
iliskilerinde
iliskilerini
iliskilerinin
iliskili
iliskilidir
iliskin
iliskinin
iliskisi
iliskisini
iliskisinin
iliskiye
iliskiyi
ilk
ilkbahar
ilkbaharında
ilke
ilkel
ilkeler
ilkeleri
ilkelerine
ilkelerini
ilkesi
ilkesine
ilkesini
ilkesinin
ilki
ilkogretim
ilkokul
ill
illegal
iller
illerde
illeri
illerinde
illerinden
illinois
illustrated
ilmi
iltica
ilıca
im
ima
image
images
imagine
imaging
imal
imalat
imam
iman
imar
imax
imdb
imf
imha
imis
imkan
imkanları
imkansız
imkansızdır
imkanı
impact
imparator
imparatorlugu
imparatorlugun
imparatorluk
imparatoru
imparatorun
imperial
implications
important
impossible
imtiyaz
imza
imzaladı
imzaladıgı
imzalamıstır
imzalanan
imzalandı
imzalanmıs
imzalanmıstır
imzalayan
imzalayarak
imzalı
imzası
imzasını
in
inanan
inanc
inancları
inancı
inancına
inancını
inandıgı
inanmak
inanmaktadır
inanılan
inanılmaktadır
inanılmaz
inanılır
inanır
inanırlar
inanıyor
inanıyordu
inanıyorum
inc
ince
inceledi
inceleme
incelemede
incelemek
incelemeler
incelemelerde
incelemeleri
incelemesi
incelemesinde
incelemeye
incelendiginde
incelenen
incelenir
incelenmesi
incelenmistir
inceler
inceleyen
inceleyerek
inch
inci
incir
inclik
include
includes
including
incorporated
incredible
inde
indec
inden
independence
independent
index
indi
india
indian
indiana
indianapolis
indians
indie
indiewire
indirdi
indirildi
indirilebilir
indirilen
indirme
indirmek
individual
indo
indonesia
induced
industrial
industries
industry
ine
inek
inen
iner
infaz
infection
infectious
infilak
infinite
infinity
influence
influenza
info
information
infty
ing
ingilizce
ingrid
ini
inin
inis
initial
initiative
injury
inkar
inme
inn
inner
innovation
inorganik
inquiry
ins
insa
insaat
insaatı
insaatına
insallah
insan
insana
insanda
insandan
insandır
insani
insanlar
insanlara
insanlarda
insanlardan
insanlarla
insanları
insanların
insanlarının
insanlı
insanlıga
insanlıgın
insanlık
insansı
insansız
insanı
insanın
insası
insasına
insee
inside
insider
insight
inspired
instagram
institut
institute
institution
institutions
instituto
instruments
insulin
int
integral
integrated
integration
intel
intellectual
intelligence
inter
interactive
interaktif
intercontinental
interest
interface
interior
internacional
internal
international
internationale
internazionale
internet
internete
internette
interpretation
interscope
intertoto
interview
interviews
intihar
intikal
intikam
intikamını
into
intro
introducing
introduction
invasion
invention
investigation
investment
invisible
io
ioc
ion
ios
iowa
ip
ipa
ipac
ipad
ipek
iphone
iplik
ipod
ipswich
iptal
iptali
ipucları
ipv
iq
ir
ira
irade
iradesi
irak
iraklı
iran
iranian
iranica
iraq
iraqi
iras
ireland
irene
iri
irina
iris
irish
irk
irma
irmagı
irmak
iron
irtibat
irtibatlı
irtifa
irving
irwin
is
isa
isaac
isabel
isabella
isabelle
isabet
isaret
isareti
isaretler
isaretleri
isbirligi
isbirligine
isbirligini
isbn
isbu
isci
isciler
iscileri
iscilerin
isciligi
iscinin
iscisi
ise
isgal
isgali
isgalinden
isgaline
isgalinin
isgucu
ishal
isi
isim
isimdir
isimle
isimler
isimlerden
isimleri
isimlerin
isimlerinden
isimlerini
isimlerinin
isimleriyle
isimlerle
isimli
isimsiz
isin
isinde
isinden
isine
isini
isinin
isis
isitme
isitsel
iskan
iskele
iskelet
iskence
islam
islamic
island
islands
isle
isledigi
isledikleri
islem
islemci
islemcisi
isleme
islemek
islemi
islemidir
islemin
islemine
islemini
isleminin
islemis
islemler
islemleri
islemlerin
islemlerini
islemlerinin
islendigi
islenen
islenir
islenmesi
islenmis
islenmistir
isler
islerde
islerden
islere
isleri
islerin
islerinde
islerinden
islerine
islerini
islerinin
isleriyle
islerle
isleten
isletilen
isletilmektedir
isletim
isletme
isletmeler
isletmelerin
isletmenin
isletmeye
islev
islevi
islevini
islevleri
islevlerini
islevsel
isleyen
isleyisi
ismail
ismi
ismidir
ismin
isminde
ismindeki
isminden
ismine
ismini
isminin
ismiyle
isn
iso
isparta
ispat
ispatlayacak
israel
israeli
issiz
issizlik
issn
issue
issues
ist
istanbul
istasyon
istasyonları
istasyonu
istasyonudur
istasyonun
istasyonuna
istasyonunda
istasyonunun
istat
istatistik
istatistikler
istatistikleri
istatistiksel
iste
istedi
istedigi
istedigim
istedigini
istediginiz
istedikleri
istediklerini
istediler
istedim
istege
istegi
istegini
istegiyle
istek
istekleri
isteklerini
istekli
istemci
istemedigi
istemedigini
istemek
istemektedir
istemesi
istemeyen
istemez
istemi
istemis
istemisti
istemistir
istemiyorum
isten
istendi
istenen
istenilen
istenir
istenmeyen
istenmistir
ister
isterim
isterken
isterler
isterse
isteyebilir
isteyen
isteyenler
isteyerek
istifa
istifade
istifası
istifasını
istihbarat
istihbari
istihdam
istiklal
istikrar
istikrarlı
istila
istilası
istinaden
istirak
istismar
istisna
istisnai
istituto
istiyor
istiyordu
istiyorlar
istiyorum
istiyoruz
istvan
isu
isveren
isyan
isyana
isyancı
isyancılar
isyanları
isyanı
isyanın
isyeri
isı
isık
isıklar
isıklı
isıl
isın
it
ita
itaat
italia
italian
italiana
italy
itfaiye
ithaca
ithaf
ithafen
ithal
ithalat
itham
itibar
itibaren
itibari
itibariyle
itibarı
itibarıyla
itici
itiraf
itiraz
itis
itme
ito
its
itt
ittifak
ittifakı
itu
itunes
itv
iu
iucn
iv
ivan
ivme
iw
ix
ixodidae
iy
iyelik
iyi
iyice
iyidir
iyilesme
iyilestirilmesi
iyilestirme
iyilestirmek
iyilik
iyisi
iyon
iyye
iz
izah
izi
izin
izini
izinsiz
izle
izledi
izledigi
izleme
izlemek
izlemeye
izlemistir
izlendi
izlenebilir
izlenen
izlenimi
izlenir
izlenme
izler
izleri
izlerini
izleyen
izleyerek
izleyici
izleyiciler
izni
izole
j
j0
j1
j2
j3
j4
j5
j6
j7
j8
j9
ja
jack
jackie
jackson
jacob
jacobs
jacopo
jacqueline
jacques
jae
jaguar
jaime
jake
jakob
jale
jam
jamaika
james
jamie
jan
jandarma
jane
janeiro
janet
jang
janos
january
japan
japanese
japon
japonca
japonlar
japonya
jared
jason
jasper
java
javascript
javier
jay
jazeera
jazz
jb
jc
jd
je
jean
jeanne
jedi
jeff
jefferson
jeffrey
jel
jena
jenerik
jenkins
jenna
jennifer
jennings
jenny
jens
jensen
jeofizik
jeolog
jeoloji
jeolojik
jeong
jeremy
jericho
jerome
jerry
jersey
jerusalem
jerzy
jesse
jessica
jessie
jesus
jet
jewish
jews
jf
jg
jh
ji
jill
jim
jimmy
jimnastik
jin
jiri
jj
jk
jl
jm
jn
jo
joachim
joan
joanna
joanne
joao
joaquin
job
jobs
jocelyn
joe
joel
joey
johan
johann
johanna
johannes
johansson
john
johnny
johns
johnson
johnston
join
joins
joint
joker
jolie
jon
jonas
jonathan
jones
jong
joo
joon
joongang
jordan
jorge
jose
josef
joseon
joseph
josephine
josephus
josh
joshua
joss
journal
journalist
journey
jovi
joy
joyce
jozef
jp
jpg
jpl
jq
jr
js
jstor
jt
ju
juan
jubile
judaism
judge
judith
judo
judy
jul
jules
julia
julian
julie
julien
juliet
julio
julius
july
jump
jun
june
jung
jungle
junior
juniors
juno
jupiter
jura
jurassic
jure
jurgen
juri
juriler
jury
just
justice
justin
justinianus
juventus
jv
jw
jx
jy
jyp
jz
k
k0
k1
k2
k3
k4
k5
k6
k7
k8
k9
ka
kaan
kaba
kabaca
kabak
kabare
kabartma
kabatas
kabe
kabil
kabile
kabileler
kabileleri
kabilesi
kabilesinin
kabiliyeti
kabin
kabine
kabinesi
kabinesinde
kablo
kablolu
kablosuz
kabri
kabugu
kabuk
kabuklu
kabul
kabulu
kabus
kac
kacak
kacakcılıgı
kacan
kacar
kacarak
kacarken
kacarlar
kacma
kacmak
kacmaya
kacmayı
kacmıs
kacmıstır
kactı
kacınmak
kacınılmaz
kacıp
kacırdı
kacırma
kacırılan
kacırır
kacıs
kadar
kadardır
kadarki
kadarı
kadarıyla
kadastro
kaddafi
kademe
kademeli
kader
kaderi
kaderini
kadife
kadim
kadir
kadirli
kadri
kadro
kadroda
kadroları
kadrosu
kadrosuna
kadrosunda
kadrosunun
kadroya
kadı
kadıkoy
kadın
kadına
kadından
kadındır
kadınla
kadınlar
kadınlara
kadınlarda
kadınlardan
kadınlarla
kadınları
kadınların
kadını
kadının
kaf
kafa
kafası
kafasına
kafasında
kafasını
kafatası
kafe
kafes
kafir
kafiye
kafiyeler
kafka
kafkas
kafkasya
kagan
kaganlıgı
kagıda
kagıdı
kagıt
kagıthane
kagızman
kah
kaheti
kahin
kahire
kahn
kahraman
kahramanlar
kahramanları
kahramanlık
kahramanmaras
kahramanı
kahramanın
kahta
kahvaltı
kahve
kahverengi
kahverengidir
kahvesi
kai
kaide
kainat
kaiser
kajmer
kakao
kal
kala
kalabalıgın
kalabalık
kalabilir
kalacagı
kalacagını
kalacak
kalacaktır
kalan
kalanlar
kalanı
kalanında
kalanını
kalarak
kalay
kalbe
kalbi
kalbim
kalbin
kalbini
kalca
kaldı
kaldıgı
kaldıgını
kaldıkları
kaldıktan
kaldılar
kaldım
kaldıran
kaldırarak
kaldırdı
kaldırma
kaldırmak
kaldırmaya
kaldırılan
kaldırılarak
kaldırıldı
kaldırıldıgı
kaldırılması
kaldırılmasına
kaldırılmasını
kaldırılmıs
kaldırılmıstır
kaldırım
kaldırıp
kaldırır
kale
kaleci
kalecik
kalecisi
kalede
kaleden
kaledonya
kaleler
kaleleri
kalem
kaleme
kalemi
kalenin
kalesi
kalesinde
kalesine
kalesini
kalesinin
kaleye
kaleyi
kalibre
kaliforniya
kalite
kalitede
kaliteli
kalitesi
kalitesini
kalkan
kalkanı
kalkar
kalkmıs
kalkolitik
kalktı
kalkınma
kalkıp
kalkıs
kalma
kalmadan
kalmadı
kalmak
kalmaktadır
kalmamıs
kalmamıstır
kalması
kalmasına
kalmasını
kalmaya
kalmayı
kalmayıp
kalmaz
kalmıs
kalmıslardır
kalmıstı
kalmıstır
kalp
kalsiyum
kalsın
kalıcı
kalın
kalınca
kalınlıgı
kalınlıgında
kalıntı
kalıntılar
kalıntıları
kalıntılarını
kalıntılarının
kalıntısı
kalıp
kalır
kalırken
kalırlar
kalıtsal
kalıyor
kam
kama
kaman
kamarası
kambocya
kamera
kameralar
kamerası
kamerun
kamil
kamp
kampa
kampanya
kampanyası
kamplarına
kamplarında
kampta
kampus
kampusu
kampı
kampına
kampında
kamu
kamudan
kamuoyu
kamuoyuna
kamuoyunda
kamuoyunun
kamuran
kamusal
kamuya
kamyon
kan
kana
kanaat
kanada
kanadalı
kanadı
kanal
kanala
kanalda
kanaldan
kanalizasyon
kanallar
kanalları
kanallarında
kanalı
kanalıdır
kanalın
kanalında
kanalının
kanama
kanaması
kanarya
kanat
kanatlar
kanatları
kanatlı
kanatlılar
kanda
kandil
kandilli
kandiye
kandıra
kane
kang
kangal
kanlı
kano
kansas
kanser
kanserden
kanseri
kansu
kant
kanton
kantonu
kanun
kanuna
kanunda
kanuni
kanunla
kanunlar
kanunlara
kanunları
kanunların
kanunu
kanunun
kanununa
kanununun
kanye
kanyon
kanyonu
kanı
kanık
kanın
kanıt
kanıtladı
kanıtlamak
kanıtlar
kanıtları
kanıtı
kaos
kap
kapadokya
kapagı
kapagında
kapak
kapakları
kapaklı
kapalı
kapandı
kapanmıstır
kapanıs
kapasite
kapasiteli
kapasitelidir
kapasitesi
kapasitesine
kapasitesini
kapasiteye
kapatma
kapatmak
kapattı
kapatılacak
kapatılan
kapatıldı
kapatılması
kapatılmıs
kapatılmıstır
kapitalist
kapitalizm
kapitalizmin
kaplama
kaplamaktadır
kaplan
kaplanmıs
kaplar
kaplayan
kaplumbaga
kaplı
kaplıca
kaplıdır
kappa
kapsamaktadır
kapsamda
kapsamlı
kapsamı
kapsamına
kapsamında
kapsamındaki
kapsar
kapsayacak
kapsayan
kapsıyordu
kaptan
kaptanı
kapı
kapıdan
kapılar
kapıları
kapılarını
kapılı
kapının
kapısı
kapısına
kapısında
kapısından
kapısını
kapısının
kapıya
kapıyı
kar
kara
karaagac
karabag
karabakh
karabekir
karabiber
karabudun
karabuk
karabukspor
karabulut
karaburun
karaca
karacabey
karacaoglan
karacaoren
karacay
karaciger
karada
karadag
karadan
karadeniz
karagoz
karagumruk
karahan
karahanlı
karakas
karakaya
karakocan
karakol
karakolu
karakoy
karakoyunlu
karakter
karakterdir
karaktere
karakteri
karakteridir
karakterin
karakterine
karakterini
karakterinin
karakteristik
karakteriyle
karakterize
karakterler
karakterlerden
karakterleri
karakterlerin
karakterlerinden
karakterlerini
karakterlerinin
karakurt
karaman
karamursel
karan
karanfil
karanlık
karanlıkta
karantina
karaosmanoglu
karapınar
karar
karara
kararda
karargah
karargahı
kararla
kararlar
kararları
kararların
kararlarına
kararlarını
kararlarının
kararlastırıldı
kararlastırılmıstır
kararlı
kararlılık
kararname
kararnameler
kararnamelerde
kararnamesi
kararsız
kararı
kararın
kararına
kararında
kararını
kararının
kararıyla
karasal
karasu
karatas
karatay
karate
karay
karaya
karayazı
karayip
karayipler
karayolları
karayolu
karbon
karbonat
karbondioksit
kardemir
kardes
kardesi
kardesidir
kardesim
kardesin
kardesine
kardesini
kardesinin
kardesiyle
kardesler
kardesleri
kardeslerim
kardeslerin
kardesligi
kardeslik
kardinal
kare
karel
karen
karesi
karga
kargasa
kargo
kargı
kari
karikatur
karikaturist
karim
karin
kariyer
kariyeri
kariyerinde
kariyerindeki
kariyerine
kariyerini
kariyerinin
karl
karlı
karma
karmasık
karolina
karpuz
kars
karsı
karsıladı
karsılama
karsılamak
karsılandı
karsılanması
karsılar
karsılasan
karsılasma
karsılasmada
karsılasmalar
karsılasmaları
karsılasması
karsılasmasına
karsılasmasında
karsılasmayı
karsılastı
karsılastıgı
karsılastıkları
karsılastılar
karsılastırma
karsılastırmalı
karsılastırılabilir
karsılastırıldıgında
karsılastırılması
karsılasılan
karsılasır
karsılasırlar
karsılayacak
karsılayan
karsılıgı
karsılıgında
karsılık
karsılıklı
karsılıksız
karsımıza
karsın
karsısına
karsısında
karsısındaki
karsıt
karsıtlıgı
karsıtı
karsıya
karsıyaka
kart
kartaca
kartal
kartalspor
kartalı
kartlar
kartları
kartli
karton
kartı
karı
karın
karınca
karısan
karısmıs
karıstı
karıstıgı
karıstırılmamalıdır
karıstırılır
karısı
karısık
karısıklıgı
karısıklık
karısım
karısımı
karısına
karısını
karısının
karısır
kas
kasa
kasaba
kasabada
kasabadır
kasabanın
kasabası
kasabasına
kasabasında
kasabasının
kasabaya
kasap
kase
kaset
kasgar
kasif
kasim
kaslar
kasları
kast
kastamonu
kastedilmis
kasten
kastilya
kası
kasık
kasım
kasımpasa
kasırga
kasıtlı
kat
kata
katalan
katalanca
katalog
katalogu
katalonya
katar
kate
katedral
katedrali
kategori
kategoride
kategoriler
kategorileri
kategorilerinde
kategorisi
kategorisinde
kategorisine
kategoriye
katerina
katherine
kathleen
kathryn
kathy
katibi
katie
katil
katili
katilin
katip
katipligi
katkı
katkıda
katkılar
katkılarda
katkıları
katkılarından
katkılarıyla
katkısı
katliam
katliamlar
katliamı
katlı
katma
katmak
katman
katmanları
katmanlı
katmanı
kato
katolik
katsayısı
katta
kattı
katy
katz
katı
katılacagı
katılacak
katılamadı
katılan
katılarak
katıldı
katıldıgı
katıldıgını
katıldıkları
katıldılar
katılma
katılmadan
katılmadı
katılmak
katılmaktadır
katılması
katılmasına
katılmasını
katılmasıyla
katılmaya
katılmayı
katılmıs
katılmıstır
katılım
katılımcı
katılımcılar
katılımcıların
katılımı
katılımını
katılımıyla
katılıp
katılır
katına
katında
kaucuk
kaufman
kautsky
kavak
kaval
kavala
kavalalı
kavga
kavgası
kavram
kavrama
kavramdır
kavramlar
kavramları
kavramların
kavramsal
kavramı
kavramın
kavramına
kavramını
kavramının
kavsagı
kavsak
kavun
kavusmustur
kavustu
kawasaki
kay
kaya
kayac
kayaclar
kayak
kayalar
kayaların
kayalık
kayan
kayanın
kaybeden
kaybeder
kaybederek
kaybedilen
kaybetmek
kaybetmesi
kaybetmesine
kaybetmis
kaybetmistir
kaybetti
kaybettigi
kaybettigini
kaybettik
kaybettikleri
kaybettikten
kaybettiler
kaybolan
kayboldu
kaybolmus
kaybolmustur
kaybolur
kaybı
kaybına
kayda
kaydeden
kaydedildi
kaydedildigi
kaydedilen
kaydedilmis
kaydedilmistir
kaydetmek
kaydetmistir
kaydetti
kaydettigi
kaydoldu
kaydı
kaydını
kaydıyla
kaygı
kayma
kaymak
kaymakam
kaymakamlıgı
kaymakamlık
kaymakamlıkları
kaymakamı
kayması
kaynaga
kaynagı
kaynagıdır
kaynagın
kaynagına
kaynagından
kaynagını
kaynagının
kaynak
kaynakca
kaynaklanan
kaynaklandıgı
kaynaklandıgını
kaynaklanmaktadır
kaynaklanır
kaynaklar
kaynaklara
kaynaklarda
kaynaklardan
kaynakları
kaynakların
kaynaklarına
kaynaklarında
kaynaklarından
kaynaklarını
kaynaklarının
kaynaklı
kaynakta
kaynaktan
kaynar
kaynarca
kayseri
kayserispor
kayı
kayık
kayın
kayıp
kayıplar
kayıplara
kayıpları
kayısı
kayıt
kayıtlar
kayıtlara
kayıtlarda
kayıtları
kayıtların
kayıtlarına
kayıtlarında
kayıtlarını
kayıtlarının
kayıtlı
kayıtsız
kaz
kaza
kazada
kazadan
kazak
kazakca
kazakhstan
kazakistan
kazaklar
kazalar
kazaları
kazan
kazanamadı
kazanan
kazananlar
kazananları
kazananı
kazanarak
kazanc
kazancı
kazandı
kazandıgı
kazandıkları
kazandıktan
kazandılar
kazandıran
kazandırdı
kazandırmak
kazandırmıstır
kazanma
kazanmak
kazanması
kazanmasına
kazanmasını
kazanmaya
kazanmayı
kazanmıs
kazanmıslardır
kazanmıstı
kazanmıstır
kazanılan
kazanılmıs
kazanın
kazanıp
kazanır
kazanırken
kazası
kazasına
kazasında
kazasının
kazaya
kazhdan
kazı
kazık
kazılar
kazılarda
kazım
kb
kbs
kc
kck
kd
kde
ke
kebabı
keban
kebir
keci
kecioren
kecisi
kedi
kedigiller
kediler
kedisi
keep
kehanet
kei
keith
kek
keklik
kel
kelam
kelebek
keles
kelime
kelimedir
kelimeler
kelimeleri
kelimelerin
kelimelerinden
kelimelerinin
kelimenin
kelimesi
kelimesinden
kelimesini
kelimesinin
kelkit
keller
kelley
kelly
kelt
kelvin
kemah
kemal
kemalist
kemaliye
kemalpasa
keman
kemancı
kemer
kemeri
kemerin
kemerini
kemerleri
kemerlerini
kemerli
kemigi
kemik
kemikler
kemikleri
ken
kenan
kenar
kenara
kenarları
kenarlarında
kenarlı
kenarı
kenarına
kenarında
kenarındadır
kenarındaki
kendall
kendi
kendileri
kendilerince
kendilerinden
kendilerine
kendilerini
kendilerinin
kendiliginden
kendim
kendime
kendimi
kendimizi
kendinden
kendine
kendini
kendinin
kendisi
kendisinde
kendisinden
kendisine
kendisini
kendisinin
kendisiyle
kendrick
kene
kenevir
kenji
kennedy
kenneth
kenny
kent
kente
kenti
kentidir
kentin
kentinde
kentindeki
kentinden
kentine
kentini
kentinin
kentler
kentleri
kentlerinde
kentsel
kentte
kentteki
kenttir
kentucky
kenya
kepler
kerbela
kere
kerem
kereste
keri
kerim
kerkuk
kerpic
kerr
kerry
kershaw
kertenkele
kervan
kes
kesan
kesap
keseli
kesen
keser
keserek
kesesi
kesfeden
kesfeder
kesfedildi
kesfedilen
kesfedilmis
kesfedilmistir
kesfetmek
kesfetti
kesfi
kesi
kesici
kesif
kesifler
kesik
kesildi
kesilen
kesilerek
kesilir
kesilmesi
kesilmis
kesim
kesimde
kesimi
kesimin
kesiminde
kesimlerde
kesimleri
kesimlerinde
kesin
kesinlesmis
kesinlestigi
kesinlik
kesinlikle
kesintisiz
kesintiye
kesip
kesis
kesistigi
kesit
keske
keskin
kesme
kesmek
kestane
kesti
keten
kevin
kew
key
keyfi
keyif
keynes
keys
kez
keza
kf
kg
kgb
kh
khaled
khan
khk
ki
kia
kibar
kick
kicker
kid
kidd
kids
kiel
kiev
kil
kili
kilikya
kilis
kilise
kilisede
kiliseler
kiliseleri
kilisenin
kilisesi
kilisesinin
kiliseye
kilit
kilitli
kill
killed
killer
killers
killing
kills
kilo
kiloda
kilogram
kilometre
kilometrekare
kilometrekarelik
kilometrelik
kim
kimberly
kimdir
kime
kimi
kimileri
kimin
kimler
kimligi
kimligini
kimliginin
kimlik
kimliklerini
kimse
kimseler
kimselerin
kimsenin
kimseye
kimseyi
kimya
kimyacı
kimyager
kimyasal
kimyası
kin
kinci
kincilik
kincisi
kind
kinetik
king
kingdom
kings
kingston
kipi
kir
kira
kiralama
kiralandı
kiralık
kiraz
kirby
kirec
kirectası
kiril
kiris
kirk
kirli
kirliligi
kirlilik
kirpi
kirsten
kisi
kiside
kisiden
kisidir
kisiler
kisilerde
kisilerden
kisilerdir
kisilere
kisileri
kisilerin
kisilerle
kisiligi
kisilik
kisinin
kisisel
kisisi
kisiydi
kisiye
kisiyi
kisiyle
kiss
kit
kitab
kitaba
kitabe
kitabevi
kitabu
kitabı
kitabıdır
kitabın
kitabına
kitabında
kitabından
kitabını
kitabının
kitabıyla
kitap
kitapcıgı
kitaplar
kitaplarda
kitapları
kitapların
kitaplarında
kitaplarından
kitaplarını
kitaplarının
kitaplıgı
kitaplık
kitapta
kitaptaki
kitaptan
kitaptır
kitchen
kitle
kitleler
kitlelere
kitlesel
kitlesi
kitlesine
kitty
kiz
kizdere
kj
kk
kktc
kl
klan
klarceti
klarnet
klasik
klasikleri
klasman
klasmanı
klasor
klaus
klavye
klein
kleopatra
klibi
klibin
klibinde
klibini
klim
klima
klinik
klip
klipte
klorur
km
kn
knesset
knicks
knight
knights
knopf
knot
know
knowledge
knowles
known
knox
knut
ko
koalisyon
koalisyonu
kobani
kobayashi
kobe
koc
koca
kocaeli
kocaelispor
kocak
kocaman
kocası
kocasını
kocasının
kocatepe
koch
kocu
kod
kodansha
kodlama
kodlar
kodları
kodlu
kodu
kofi
kofte
koji
kok
kokain
koken
kokeni
kokenini
kokenleri
kokenli
kokenlidir
kokleri
koklu
koksal
kokten
koku
kokulu
kokunden
kokusu
kol
kola
kolay
kolayca
kolaydır
kolaylastırmak
kolaylıgı
kolaylık
kolaylıkla
kolcak
kole
kolej
koleji
kolejliler
koleksiyon
koleksiyonu
kolektif
koleler
kolelerin
kolelik
kolera
kolesterol
kolhis
kollar
kolları
kollarında
kollu
kolluk
koln
kolomb
kolombiya
kolombiyalı
kolon
koloni
koloniler
kolonileri
kolonisi
kolordu
kolordusu
koltuguna
koltugunda
koltuk
koltuklu
kolu
koludur
kolumbiyası
koluna
kolunda
kolundan
kolunu
kolunun
koma
komando
kombat
kombinasyonu
kombine
komedi
komedisi
komedyen
komik
komiser
komiseri
komiserligi
komisyon
komisyonu
komisyonun
komite
komitesi
komitesinin
komnenos
kompakt
kompleks
kompleksi
komplo
kompozisyon
kompozit
komsu
komsudur
komsuları
komsusu
komsusudur
komun
komundur
komunist
komunistler
komunizm
komunlerle
komunu
komunun
komur
komurcu
komuru
komut
komuta
komutan
komutanlar
komutanları
komutanlarından
komutanlıgı
komutanlıgına
komutanlıgında
komutanlık
komutanı
komutanım
komutası
komutasında
komutasındaki
komutu
kon
konagı
konak
konaklama
konami
konan
koncerto
koncertosu
kondolojy
kondu
konfederasyon
konfederasyonlar
konfederasyonu
konferans
konferansa
konferanslar
konferansta
konferansı
konferansında
kong
kongo
kongre
kongrede
kongresi
kongresinde
koni
konik
konmus
konmustur
konrad
konsantrasyonu
konsantre
konsept
konsepti
konser
konserde
konseri
konserinde
konserini
konserler
konserlerde
konserleri
konserlerinde
konservatuvar
konservatuvarı
konsey
konseyi
konseyine
konseyinin
konsili
konsol
konsolosluk
konsolu
konstantin
konstantinopolis
konstantinos
konsul
kont
kontlugu
kontlugunda
kontluk
kontrat
kontrol
kontrolleri
kontrollu
kontrolu
kontrolunde
kontrolundeki
kontrolune
kontrolunu
kontu
konu
konuda
konudaki
konudur
konuk
konulan
konular
konulara
konularak
konularda
konulardan
konularla
konuları
konuların
konularına
konularında
konularını
konuldu
konulması
konulmus
konulmustur
konulu
konulur
konum
konuma
konumda
konumdadır
konumlanmıs
konumlanmıstır
konumları
konumu
konumuna
konumunda
konumundadır
konumunu
konunun
konur
konus
konusan
konusma
konusmacı
konusmada
konusmak
konusmalar
konusmaları
konusmanın
konusması
konusmasında
konusmasını
konusmaya
konusmayı
konustu
konustugu
konustuk
konustukları
konustum
konusu
konusudur
konusulan
konusulmaktadır
konusulur
konusuna
konusunda
konusundaki
konusunu
konusunun
konusur
konusurken
konusurlar
konusuruz
konusuyor
konut
konuya
konuyla
konuyu
konvansiyonel
konya
konyaspor
kooperatif
koordinasyon
koordinat
koordinatlar
koordinatları
koordinatoru
koordine
kopan
kopegi
kopegin
kopek
kopekgiller
kopekler
kopekleri
kopenhag
kopru
koprubası
kopruler
koprulu
koprunun
koprusu
kopruyu
kopuk
kopya
kopyası
kopyasını
kor
koray
kore
korea
korean
korece
korelasyon
koreli
koreograf
korfez
korfezi
korgeneral
korint
korkak
korkan
korkar
korkma
korkmaz
korku
korkunc
korkusu
korkusuz
korkut
korkuteli
korkutucu
koro
koroglu
koronavirus
korosu
korsan
korsanları
korsika
koru
korudu
koruma
korumak
korumakla
korumaktadır
korumalı
koruması
korumaya
korumayı
korumustur
korunaklı
korunan
korunma
korunmak
korunmaktadır
korunması
korunmasına
korunmasını
korunmus
korunmustur
korunur
korur
koruyan
koruyarak
koruyucu
koruyucusu
kos
kosan
kosar
kosarak
kose
kosede
koseli
kosem
kosesi
kosesinde
koseye
kosk
kosku
kosova
kosovo
kosta
kostum
kosu
kosul
kosullar
kosullara
kosullarda
kosulları
kosulların
kosullarına
kosullarında
kosullarını
kosullarının
kosulu
kosuluyla
kot
kota
kotu
kotuluk
kotunda
kotuye
kovalent
kovancılar
kovuldu
koy
koyan
koyar
koyarak
koyde
koydeki
koyden
koydu
koydugu
koydur
koye
koyler
koylerde
koylerden
koylere
koyleri
koylerimiz
koylerimizin
koylerin
koylerinde
koylerinden
koylerinin
koylu
koyluler
koylulerin
koyma
koymak
koymaktadır
koymaya
koymus
koymustur
koyu
koyudur
koyuldu
koyulur
koyun
koyunde
koyundeki
koyunden
koyune
koyunu
koyunun
koyup
koyyar
koz
koza
kozan
kozmetik
kozmik
kozmolojik
kp
kq
kr
kraft
krakow
kral
krala
kralice
kralicesi
kraliyet
krallar
kralları
kralların
krallarının
krallıgı
krallıgın
krallıgını
krallıgının
krallık
kralı
kralın
kralının
kramer
krasnodar
krater
krayı
kredi
krem
krema
kremlin
kretase
kriket
kripto
kristal
kristen
kriterleri
kritik
kriz
krizi
krizin
krizinden
krom
kromozom
kronik
kronolojik
kronolojisi
kruger
kruscev
kruvazor
ks
kt
ktidar
ktisadi
ktisat
ku
kuala
kuantum
kuark
kuba
kubalı
kuban
kubbe
kubbeli
kubbesi
kubik
kubilay
kucuk
kucukcekmece
kucukken
kucuktur
kudava
kudret
kudus
kufe
kuffar
kufur
kugu
kuhn
kukla
kukurt
kul
kula
kulaga
kulak
kulakları
kulaklık
kule
kuleleri
kuleli
kulenin
kulesi
kullanabilir
kullanan
kullanarak
kullandı
kullandıgı
kullandıgını
kullandıkları
kullandılar
kullanma
kullanmadan
kullanmadıgı
kullanmak
kullanmakta
kullanmaktadır
kullanması
kullanmasına
kullanmaya
kullanmayı
kullanmıs
kullanmıslardır
kullanmıstır
kullanıcı
kullanıcılar
kullanıcılara
kullanıcıları
kullanıcıların
kullanıcılarının
kullanıcının
kullanıcısı
kullanıcıya
kullanılabilecek
kullanılabilen
kullanılabilir
kullanılabilmektedir
kullanılacak
kullanılamaz
kullanılan
kullanılarak
kullanıldı
kullanıldıgı
kullanıldıgında
kullanıldıgını
kullanılmak
kullanılmakta
kullanılmaktadır
kullanılmaktaydı
kullanılmamalı
kullanılması
kullanılmasına
kullanılmasını
kullanılmasının
kullanılmaya
kullanılmayan
kullanılmaz
kullanılmıs
kullanılmıstır
kullanılmıyor
kullanılır
kullanılırdı
kullanılırken
kullanılırlar
kullanılıyor
kullanılıyordu
kullanım
kullanıma
kullanımda
kullanımdan
kullanımları
kullanımı
kullanımına
kullanımında
kullanımını
kullanımının
kullanımıyla
kullanıp
kullanır
kullanırken
kullanırlar
kullanıslı
kullanıyor
kullanıyordu
kulliyesi
kulp
kult
kultur
kulturde
kulture
kulturel
kulturler
kulturleri
kulturu
kulturun
kulturunde
kulturune
kulturunu
kulturunun
kulu
kulube
kulubu
kulubudur
kulubun
kulubunde
kulubune
kulubunun
kulucka
kulup
kulupler
kulupleri
kuluplerin
kuluplerinde
kuluplerinden
kulupte
kulupten
kum
kumanda
kumandan
kumandanlıgı
kumandanı
kumar
kumas
kume
kumeler
kumeleri
kumes
kumesi
kumesidir
kumesinin
kumlu
kun
kung
kunos
kunst
kunt
kup
kupa
kupada
kupaları
kupalarına
kupalarında
kupanın
kupası
kupasında
kupasını
kupaya
kupayı
kur
kura
kurak
kuraklık
kural
kurallar
kurallara
kuralları
kuralların
kurallarına
kurallarını
kurallarının
kuralı
kuram
kuramsal
kuramı
kuramının
kuran
kurar
kurarak
kurbaga
kurban
kurbanları
kurbanların
kurbanı
kurdi
kurdish
kurdistan
kurds
kurdu
kurdugu
kurdugunu
kurdukları
kurdular
kure
kurek
kurenin
kuresel
kuresellesme
kurgu
kurgusal
kurk
kurma
kurmak
kurmanci
kurması
kurmay
kurmaya
kurmayı
kurmus
kurmuslardır
kurmustur
kurnaz
kurs
kursat
kursk
kursu
kursun
kursuna
kursunlu
kursusu
kurt
kurtaj
kurtalan
kurtaran
kurtardı
kurtarma
kurtarmak
kurtarmaya
kurtarıcı
kurtarıldı
kurtarır
kurtce
kurtlar
kurtler
kurtleri
kurtlerin
kurtulan
kurtuldu
kurtulmak
kurtulmus
kurtulur
kurtulus
kurtulusu
kurtun
kuru
kurucu
kurucuları
kurucularından
kurucusu
kurucusudur
kurul
kurula
kurulacak
kurulan
kurularak
kurulda
kuruldu
kuruldugu
kuruldugunda
kuruldugunu
kurulduktan
kurulları
kurulması
kurulmasına
kurulmasında
kurulmasından
kurulmasını
kurulmasının
kurulmasıyla
kurulmus
kurulmustu
kurulmustur
kurultay
kurultayı
kurulu
kuruludur
kurulum
kurulumu
kurulun
kuruluna
kurulunca
kurulunda
kurulunun
kurulup
kurulur
kurulus
kuruluslar
kuruluslara
kurulusları
kurulusların
kuruluslarına
kuruluslarında
kuruluslarının
kurulustur
kurulusu
kurulusudur
kurulusun
kurulusuna
kurulusunda
kurulusundan
kurulusunu
kurulusunun
kurum
kuruma
kurumda
kurumlar
kurumlara
kurumlarda
kurumları
kurumların
kurumlarına
kurumlarında
kurumlarının
kurumsal
kurumu
kurumudur
kurumun
kurumuna
kurumunun
kurup
kurus
kurutulmus
kus
kusadası
kusagı
kusagında
kusak
kusatan
kusatma
kusatmanın
kusatması
kusatmaya
kusatmayı
kusattı
kusku
kuskusuz
kuslar
kusları
kusların
kusma
kusu
kusugiller
kusun
kusur
kusurlu
kusursuz
kut
kutahya
kutalmıs
kutbu
kutladı
kutlama
kutlamak
kutlamaları
kutlanan
kutlanır
kutle
kutlecekim
kutlecekimsel
kutleleri
kutleli
kutlenin
kutlesi
kutlesinin
kutleye
kutlu
kutsal
kutu
kutup
kutuphane
kutuphaneler
kutuphaneleri
kutuphanesi
kutuphanesinde
kutusu
kuva
kuvars
kuvayı
kuveyt
kuvvet
kuvveti
kuvvetin
kuvvetini
kuvvetinin
kuvvetle
kuvvetler
kuvvetlere
kuvvetleri
kuvvetlerin
kuvvetlerinde
kuvvetlerine
kuvvetlerini
kuvvetlerinin
kuvvetleriyle
kuvvetli
kuyrugu
kuyruk
kuyruklu
kuyu
kuzeni
kuzey
kuzeybatı
kuzeybatıda
kuzeybatısında
kuzeyde
kuzeydeki
kuzeyden
kuzeydogu
kuzeydoguda
kuzeydogusunda
kuzeye
kuzeyi
kuzeyinde
kuzeyindeki
kuzeyinden
kuzeyine
kuzgun
kuzu
kv
kw
kwon
kx
ky
kyiv
kyle
kylie
kyon
kyoto
kyung
kz
kıbrıs
kıbrıslı
kıdemli
kıl
kılan
kılar
kılavuz
kılavuzu
kıldı
kılmak
kılıc
kılıcdaroglu
kılıcı
kılıgına
kılınan
kınadı
kınalı
kınık
kıpcak
kır
kırac
kıran
kırarak
kıratlı
kırca
kırdı
kırgız
kırgızca
kırgızistan
kırk
kırklareli
kırkpınar
kırma
kırmak
kırmıstır
kırmızı
kırmızımsı
kırmızıya
kırsal
kırsehir
kırıcı
kırık
kırıkkale
kırıklıgı
kırıklıgına
kırıldı
kırılgan
kırılma
kırılması
kırım
kırımı
kıs
kısa
kısaca
kısacası
kısadır
kısakurek
kısaltma
kısaltması
kısaltılmıs
kısla
kıslar
kısları
kısma
kısmen
kısmi
kısmı
kısmın
kısmına
kısmında
kısmındaki
kısmından
kısmını
kısmının
kısı
kısım
kısımda
kısımdan
kısımlar
kısımları
kısımlarında
kısımlarını
kısın
kısıtlama
kısıtlamalar
kısıtlamaları
kısıtlandıgı
kısıtlı
kıt
kıta
kıtalar
kıtalararası
kıtanın
kıtasal
kıtası
kıtasında
kıtasının
kıtlık
kıvanc
kıvılcım
kıyafet
kıyafeti
kıyafetler
kıyafetleri
kıyamet
kıyasla
kıymet
kıymetler
kıymetli
kıyı
kıyıları
kıyılarına
kıyılarında
kıyısı
kıyısına
kıyısında
kıyısındaki
kıyıya
kız
kıza
kızarmıs
kızgın
kızkardesi
kızla
kızlar
kızları
kızların
kızı
kızıdır
kızıl
kızılay
kızılcahamam
kızıldeniz
kızılderili
kızılderilileri
kızılotesi
kızıltepe
kızılırmak
kızım
kızın
kızına
kızını
kızının
kızıyla
l
l0
l1
l2
l3
l4
l5
l6
l7
l8
l9
la
lab
label
labor
laboratory
laboratuvar
laboratuvarı
laboratuvarında
lac
lacivert
lacivertli
laden
ladies
ladik
ladin
lady
laf
lagrange
laguna
lagım
lah
lahana
lahey
lahi
lahiyat
laik
laiklik
lakabı
lakabını
lakabıyla
lakaplı
lake
lakers
lakes
lakin
lala
lale
lam
lama
lamar
lamb
lamba
lambda
lambert
lan
lana
lancashire
lancaster
lance
lancet
land
landau
landing
lands
landscape
lane
lanet
lang
lange
langensiepen
language
languages
lanham
lanka
lannister
laos
lapseki
lar
lara
larda
lardaki
lardan
large
largest
larousse
larry
lars
larsson
larva
ları
ların
las
laser
last
lastik
laszlo
lat
late
later
lateral
latest
latif
latin
latina
latince
latino
latvia
launch
launches
laura
lauren
laurence
laurent
laurie
lav
law
lawrence
laws
lawson
lay
layık
laz
lazar
lazca
lazer
lazika
lazio
lazım
lazımdır
laɾ
lb
lc
lcd
lce
lcede
lcenin
lcesi
ld
lde
le
lea
lead
leader
leaders
leadership
leading
leads
league
lear
learn
learning
leary
least
leave
leaves
leaving
lebanon
leben
lecture
lectures
led
ledger
lee
leeds
lefkosa
left
leg
legacy
legal
legend
legendary
legends
legion
lego
leh
lehce
lehceleri
lehcesi
lehine
lehistan
leibniz
leicester
leicestershire
leiden
leigh
leighley
leipzig
lejyon
lejyonu
leke
leman
len
lena
lenf
length
lenin
leningrad
leninist
lennon
lenny
lens
leo
leon
leonard
leonardo
leone
leonid
leopard
leopold
leq
ler
lerde
lerdeki
lerden
lere
leri
lerici
lerin
lerleyen
les
lesbian
lescharts
leslie
lesnar
lesotho
less
lessons
lester
let
letisim
letonca
letonya
letter
letters
lev
levant
level
levent
leverkusen
levha
levhası
levi
levin
levine
levon
levy
lewis
lex
lexicon
lexikon
lexington
leydi
leyla
leylek
leyli
lezbiyen
lezzet
lezzetli
leɾ
lf
lfp
lg
lgbt
lgi
lgili
lh
lham
lhan
lhanlı
li
liam
liberal
liberalizm
liberation
libero
libertadores
liberty
liberya
library
libre
libretto
libya
lic
lice
license
lider
lideri
lideridir
liderler
liderleri
liderlerinden
liderlerinin
liderligi
liderliginde
liderligindeki
liderligini
liderlik
lidya
lie
liebe
liege
lies
lietuvos
lif
life
lifetime
lig
liga
ligde
ligdeki
ligden
lige
light
lightning
lights
ligi
ligin
liginde
ligine
liginin
liglerde
liglerinde
ligue
lihtenstayn
lik
like
likya
lil
lilian
lille
lily
lim
lima
liman
limana
limanı
limanına
limit
limited
limits
limler
limon
lin
linc
lincoln
lincolnshire
linda
lindsay
lindsey
line
linear
lineer
liner
lines
linguistic
linguistics
link
linked
linkin
links
linnaeus
linnean
linus
linux
lion
lionel
lions
lipa
lippi
liquid
lira
lirası
liraya
lirik
lisa
lisan
lisans
lisanslı
lisansustu
lisansı
lisansını
lisbon
lise
lisede
liseden
lisesi
lisesinde
liseyi
liskiler
liskileri
liskin
list
lista
liste
listede
listedeki
listelenen
listelenmistir
listeler
listelerde
listelere
listeleri
listelerinde
listelerine
listen
listenin
listesi
listesidir
listesinde
listesinden
listesine
listesini
listesinin
listeye
listing
listings
lists
lit
lite
literary
literatur
literaturde
literature
lithuania
litre
litrelik
little
littlefield
litvanca
litvanya
lityum
liu
liv
live
liverpool
lives
living
livius
livorno
livro
liyakat
liz
lizbon
lj
ljubljana
lk
lkbahar
lkeleri
lker
lki
lkogretim
lkokul
lkokulu
ll
llc
ller
lli
lloyd
lm
lmi
ln
lo
loan
lobi
loc
local
location
lock
locke
lockheed
loeb
log
logan
logic
logo
logos
logosu
loire
lois
lojistik
lokal
loki
lokomotif
lokomotiv
lola
lombard
lombardiya
london
londra
lonely
long
longer
longman
look
looking
looks
loop
lopez
lord
lorde
lordu
loren
lorentz
lorenz
lorenzetti
lorenzo
lori
lorraine
los
lose
loss
lost
lot
lotus
lou
loud
louis
louisa
louise
louisiana
louvre
lovato
love
lover
lovers
loves
loving
low
lowe
lower
lozan
lp
lq
lr
ls
lsever
lt
ltd
lu
lubnan
luc
luca
lucas
lucca
luchinat
lucia
luciana
luciano
lucien
lucius
luck
lucky
lucy
ludwig
luftwaffe
lugat
lugati
luigi
luis
luisa
luiz
luk
luka
lukas
lukasenko
luke
luks
luksemburg
luleburgaz
lulu
lumia
luna
lunar
lund
lung
lust
lutfen
lutfi
lutfu
luther
lutz
luxembourg
luzum
lv
lviv
lw
lx
ly
lyada
lyas
lycium
lydia
lynch
lynn
lynx
lyon
lyrics
lz
lı
lık
m
m0
m1
m2
m3
m4
m5
m6
m7
m8
m9
ma
maalesef
maarif
maas
mabel
mac
maca
macar
macarca
macaristan
macarlar
macbeth
maccabi
macdonald
macedonia
macera
maceraları
macerası
mach
machiavelli
machine
macintosh
mack
macka
mackenzie
mackolik
macla
maclar
maclara
maclarda
macları
macların
maclarına
maclarında
maclarını
maclarının
maclı
macmillan
macos
macta
mactan
macı
macın
macına
macında
macından
macını
macının
macıyla
mad
madagaskar
madalya
madalyanın
madalyası
madalyasını
madalyayı
madam
madame
madde
maddede
maddeden
maddedir
maddeler
maddelerden
maddelere
maddeleri
maddelerin
maddelerinin
maddenin
maddesi
maddesinde
maddesine
maddesinin
maddesiyle
maddeye
maddeyi
maddi
made
madeleine
maden
madenciligi
madencilik
madeni
madison
madness
madonna
madrid
mae
mafia
mafya
mag
magara
magarada
magaraları
magaranın
magarası
magaza
magazası
magazin
magazine
magdalena
magdur
maggie
maggio
magi
magic
maglubiyet
maglup
magma
magna
magnetic
magnezyum
magnificent
magnum
magnus
magusa
magyar
mah
mahal
mahalle
mahallede
mahalleden
mahalledir
mahalleleri
mahallenin
mahallesi
mahallesidir
mahallesinde
mahallesine
mahallesinin
mahalleye
mahalli
mahasz
mahir
mahkeme
mahkemece
mahkemede
mahkemeler
mahkemeleri
mahkemelerin
mahkemenin
mahkemesi
mahkemesinde
mahkemesine
mahkemesinin
mahkemeye
mahkum
mahkumlar
mahmud
mahmut
mahrum
mahsur
mahsus
mai
maia
maiden
mail
main
maine
mainstream
mainz
major
mak
makale
makalede
makaleler
makaleleri
makalenin
makalesi
makalesinde
makam
makama
makamları
makamı
makamına
makamında
makao
make
makedon
makedonca
makedonya
maker
makes
maki
makina
makine
makineler
makineleri
makineli
makinesi
making
makoto
makro
maksadıyla
maksim
maksimum
makul
makyaj
mal
mala
malaga
malatya
malatyaspor
malavi
malay
malaya
malaysia
malazgirt
malcolm
male
malezya
mali
malik
maliki
maliye
maliyet
maliyeti
maliyetleri
maliyetli
malkara
mall
mallar
malları
malların
mallarını
mallorca
mallory
malmo
malone
malta
maltepe
malum
malumat
malzeme
malzemeden
malzemeler
malzemelerden
malzemeleri
malzemelerin
malzemenin
malzemesi
malı
malın
mam
mama
mamak
mamia
mammal
mammalia
mammals
mamoglu
man
mana
management
manager
manas
manastır
manastıra
manastırı
manastırın
manası
manasına
manavgat
manchester
mancini
manco
mancurya
manda
mandarin
mandası
manet
manevi
manevra
manfred
manga
mango
manhattan
mani
mania
manifesto
manila
manipule
manisa
manisaspor
manken
mann
mannheim
mano
mans
mansiyon
manson
manstein
mansur
mantar
mantarlar
mantegna
manto
mantua
mantıgı
mantık
mantıklı
mantıksal
manual
manuel
manufacturing
manuil
many
manyas
manyetik
manzara
manzarası
manzum
mao
map
maps
mar
mara
maras
marathon
maraton
maratonu
marc
marcel
marcello
marcelo
march
marche
marco
marcos
marcus
mardin
mare
marek
maresal
margaret
marge
marguerite
mari
maria
mariah
marian
mariana
marianne
marie
marilyn
marin
marina
marine
marino
mario
marion
maritime
mariupol
marius
mariya
marjinal
mark
marka
markalar
markaları
markalı
markanın
markası
markasıdır
markasının
market
marketing
markets
marko
marks
marksist
marksizm
markus
marley
marmara
marmaris
marne
maroon
marriage
married
mars
marsden
marseille
marsh
marshal
marshall
marsilya
marsı
mart
marta
marth
martha
martin
martina
martindale
martinez
martini
marty
martı
maruz
marvel
marvin
marx
mary
maryland
mas
masa
masaccio
masal
masalları
masalı
masanın
masası
masaustu
masaya
mask
maske
maskeli
maskesi
masolino
mason
masrafları
masraflarını
mass
massa
massachusetts
massacre
massimo
massive
master
mastering
masterpiece
masterpieces
masters
masum
mat
matbaa
matbaacılık
matbaası
match
matches
mate
matematigin
matematik
matematikci
matematikciler
matematiksel
matematikte
material
materials
materyal
materyaller
math
mathbb
mathbf
mathcal
mathematical
mathematics
mathieu
mathrm
matilda
mato
matris
matrix
matt
matta
matteo
matter
matters
matthew
matthews
matthias
maureen
maurice
mauritius
mauro
mavericks
mavi
mavisi
max
maxi
maxim
maximilian
maximum
maximus
maxwell
may
maya
mayer
maymun
maymunlar
mayo
mayor
mayın
mayıs
mazda
mazgirt
mazhar
mazlum
mb
mbc
mbox
mc
mccarthy
mccartney
mcdonald
mcfarland
mcgill
mcgraw
mcintyre
mclaren
mcmahon
md
mdi
me
mean
meaning
means
meat
meb
mebusan
mebusu
mecaz
mecbur
mecburi
mechanics
mechanisms
mechul
mecidiye
mecidiyekoy
mecitozu
meclis
meclise
meclisi
meclisin
meclisinde
meclisine
meclisinin
meclisleri
mecliste
mecmuası
mecnun
med
medal
medea
medeni
medeniyet
medeniyeti
media
medianet
medical
medici
medicine
medien
medieval
medikal
medina
medine
meditasyon
mediterranean
medium
medrese
medresesi
medvedev
medya
medyada
medyanın
medyası
medyaya
meet
meeting
meets
meg
mega
megadeth
megan
megapiksel
meger
megrelya
mehdi
mehmed
mehmet
meiji
mein
mek
mekan
mekanda
mekanigi
mekanik
mekanize
mekanizma
mekanizmaları
mekanizması
mekanlar
mekanlarda
mekansal
mekanı
mekanın
mekigi
mekke
meksika
meksikalı
meksiko
mekteb
mektebi
mektep
mektubu
mektubun
mektubunda
mektup
mektuplar
mektupları
mektupta
mel
melanie
melbourne
melek
melekler
melez
melih
melik
melike
meliksah
melis
melissa
melo
melodi
melodifestivalen
melodik
melody
meltem
melton
member
members
membran
memduh
meme
memeli
memeliler
memleket
memleketi
memleketin
memlekette
memluk
memluklu
memnun
memnuniyetle
memoir
memoirs
memorial
memories
memory
memphis
memur
memurlar
memurları
memurlugu
memuru
men
menajer
menajeri
menajerlik
menderes
mendes
mendil
mendoza
menekse
menemen
menfaat
mengen
meni
menkul
mensubu
mensup
mensupları
mensuplarının
mensuptur
mental
mentese
menu
menutti
menzil
menzili
menzilli
mer
mera
merak
meraklı
meral
meram
mercan
mercedes
mercek
mercekli
merceksi
mercer
mercimek
mercury
mercy
merdan
merdiven
mere
meredith
mereti
merhaba
merhamet
merhum
meri
meric
meridyeni
merkel
merkez
merkezde
merkezden
merkeze
merkezi
merkezidir
merkezin
merkezinde
merkezindeki
merkezinden
merkezine
merkezini
merkezinin
merkeziydi
merkezleri
merkezlerinde
merkezlerinden
merkezlerine
merkezli
merkur
merlin
mermer
mermi
mermisi
merr
merriam
merry
mersin
mert
mervan
merve
meryem
merzifon
mes
mesa
mesafe
mesafede
mesafededir
mesafeden
mesafeli
mesafesi
mesafeyi
mesai
mesaj
mesajda
mesajlar
mesajları
mesajlasma
mesajı
mescid
mescidi
mescit
mese
mesela
mesele
meseleleri
meselesi
mesgul
meshur
meshurdur
mesih
meslege
meslegi
meslegini
meslek
mesleki
meslekler
meslektasları
meslektası
mesnevi
mesru
mesrutiyet
message
messenger
messi
messier
messina
mesud
mesudiye
mesut
met
meta
metabolik
metacritic
metafizik
metal
metalik
metalin
metaller
metallica
metalurji
metan
metcalf
mete
meteor
meteoroloji
method
methods
metil
metin
metinde
metinler
metinlerde
metinleri
metinlerin
metis
metne
metni
metnin
metodu
metot
metraj
metrajlı
metre
metrede
metreden
metredir
metrekare
metrekarelik
metrelik
metres
metresi
metreye
metreyi
metrik
metro
metrobus
metropol
metropolitan
metropoliten
metrosu
metuchen
metz
mevcut
mevcuttu
mevcuttur
mevki
mevkide
mevkii
mevkiinde
mevlana
mevlut
mevsim
mevsimi
mevsiminde
mevsimler
mevsimsel
mevzu
mevzuat
mexican
mexico
meydan
meydana
meydanda
meydanı
meydanında
meyer
meyers
meyve
meyveler
meyveleri
meyvesi
mezar
mezara
mezarlar
mezarları
mezarlıgı
mezarlıgına
mezarlık
mezarı
mezarın
mezarının
mezhebi
mezhebine
mezhep
mezkur
mezopotamya
mezra
mezun
mezuniyet
mezunları
mezunu
mezunudur
mf
mfa
mg
mge
mgk
mgm
mh
mhp
mhz
mi
mia
miami
mich
michael
michaels
michel
michelangelo
michele
michelle
michelozzo
michigan
mick
mickey
micro
microbiology
microsd
microsoft
mid
middle
middlesbrough
mide
midi
midilli
midir
midnight
midyat
mifflin
mig
might
mighty
migration
miguel
mihail
mihrap
mihver
mika
mikail
mike
mikhail
mikro
mikrodalga
mikrofon
mikroskop
miksaj
miktar
miktarda
miktarlarda
miktarı
miktarını
miktarının
mil
miladi
milan
milano
milas
milattan
mile
miles
miley
mili
milimetre
milionesimo
milis
militan
military
milk
mill
millennium
miller
millet
millete
milleti
milletimizin
milletin
milletinin
milletler
milletlerarası
milletlerin
milletvekili
milletvekilidir
milletvekilinin
milletvekilleri
milletvekillerinin
milletvekilligi
milli
million
milliye
milliyet
milliyetci
milliyetciligi
milliyetcilik
mills
milo
milos
milton
milwaukee
milyar
milyon
milyona
milyondan
milyonlarca
milyonluk
milyonu
milyonun
mim
mimar
mimari
mimarisi
mimarisinde
mimarisinin
mimarlar
mimarlık
mimarı
mimi
min
mina
minaj
minare
minaresi
minas
mind
mindat
minds
mine
mineral
mineraller
ming
mini
minik
minimum
minister
ministry
minneapolis
minnesota
minogue
minor
minority
minsk
minute
minutes
minyatur
mio
mir
mira
miracle
miralay
miranda
miras
mirasları
mirası
miriam
mirror
mirza
mis
misafir
misilleme
misin
misiniz
misket
misli
miss
missile
missing
mission
mississippi
missouri
missy
mister
mistik
misyon
misyoner
misyonu
mit
mitch
mitchell
mithat
miting
mitingi
mitoloji
mitolojik
mitolojisi
mitolojisinde
mitolojisindeki
mitsubishi
mix
mixed
mixtape
miy
miydi
miyim
miyosen
miz
mizah
mizahi
mj
mk
mke
mku
ml
mls
mm
mn
mnet
mo
mobil
mobile
mobilya
mod
moda
modası
mode
model
modelde
modeldir
modele
modeli
modelidir
modelin
modelinde
modeline
modelini
modelinin
modelleme
modeller
modellerde
modelleri
modellerin
modellerinde
modellerinin
modellik
models
modena
modern
modernist
modernize
modifiye
modu
modul
module
moduler
modulu
modunda
mogol
mogolca
mogolistan
mogollar
mogolların
mohamed
mohammad
mohammed
moi
mojo
mol
mola
moldova
molecular
molekul
molekuler
molekuller
molekulleri
molekullerin
molekulu
moliere
molina
molla
molly
mom
moment
moments
momentum
mon
mona
monaco
monako
monarsi
monchengladbach
monday
monde
mondo
mondros
monet
money
monica
monika
monitor
monitoring
monkey
mono
monroe
monster
monsters
mont
montaj
montana
monte
montenegro
montevideo
montgomery
month
monthly
months
montpellier
montreal
monument
monuments
moody
moon
moore
mor
mora
moral
morales
moran
more
moreno
morfolojik
morgan
mori
moritanya
moritz
morning
morris
morrison
morse
mort
mortal
morton
moscow
moses
moskova
moskva
mosque
moss
most
mother
motif
motion
motive
motor
motora
motorlar
motorları
motorlu
motorola
motors
motorsport
motoru
motorun
motorunun
motosiklet
motta
mount
mountain
mountains
mouse
mouth
move
movement
movements
moves
movie
movies
moving
mozaik
mozambik
mozart
mozilla
mp
mparator
mparatorice
mparatorlugu
mparatorlugun
mparatorlugunun
mparatorluk
mparatoru
mpc
mpeg
mph
mq
mr
mralı
mranlı
mrna
mrs
ms
msn
msword
mt
mtv
mu
muaf
muallim
muamele
muammer
muaviye
muayene
muazzam
muazzez
mubarek
mucadele
mucadelede
mucadeleleri
mucadelenin
mucadelesi
mucadelesinde
mucadelesine
mucadelesini
mucadelesinin
mucadeleye
mucadeleyi
mucevher
much
mucidi
mucit
mucize
mudafaa
mudafi
mudahale
mudahalesi
mudanya
muddet
mudur
mudurlugu
mudurlugunde
mudurlugune
mudurlugunu
mudurlugunun
mudurluk
mudurnu
muduru
muebbet
mufassal
mufettis
mufettisi
mufettisligi
mufit
mufrezesi
muge
mugla
muhabbet
muhabere
muhabir
muhabiri
muhafaza
muhafazakar
muhafız
muhafızlar
muhafızları
muhafızı
muhakkak
muhalefet
muhalefeti
muhalefetin
muhalif
muhammad
muhammed
muhammet
muharebe
muharebede
muharebenin
muharebesi
muharebesinde
muharebeye
muharrem
muhasebe
muhendis
muhendisi
muhendisler
muhendisleri
muhendisligi
muhendislik
muhim
muhimmat
muhittin
muhsin
muhtac
muhtar
muhtelif
muhtemel
muhtemeldir
muhtemelen
muhterem
muhtesem
muhur
mujdat
mujde
mukaddes
mukavelesi
mukavemet
mukemmel
mulga
mulk
mulki
mulkiye
mulkiyede
mulkiyet
mulkiyeti
mulku
mulkun
muller
multeci
multeciler
multi
multimedya
multiple
mum
mumbai
mumcu
mumkun
mumkundur
mumtaz
mun
munchen
mundo
munich
municipal
municipalities
municipality
munih
munir
munster
muracaat
murad
muradiye
murat
murcia
murder
murdoch
murekkep
murettebat
murettebatı
murphy
murray
mus
musa
musaade
musabaka
musabakalar
musabakalarda
musabakaları
musabakalarında
musabakası
musait
musaviri
musavirligi
muse
musee
musees
museo
museum
museums
musevi
music
musica
musical
musicians
musicline
musictoptr
musik
musiki
musikisi
musk
muslim
muslims
muslum
musluman
muslumanlar
muslumanlara
muslumanları
muslumanların
mussolini
must
mustafa
mustafakemalpasa
mustahkem
mustaine
mustakil
musterek
musteri
musteriler
musterileri
musterilerin
mustesar
mustesarlıgı
mustesarı
musul
musun
musunuz
mut
mutabakat
mutant
mutareke
mutasyon
muteakip
mutevazı
mutevelli
mutfagı
mutfagında
mutfak
muthis
mutki
mutlak
mutlaka
mutlu
mutlulugu
mutluluk
mutsuz
muttefik
muttefiki
muttefikler
muttefikleri
muttefiklerin
muvaffak
muvahhid
muz
muzaffer
muzakere
muzakereler
muzdarip
muze
muzede
muzeler
muzeleri
muzenin
muzesi
muzesinde
muzesine
muzeye
muzige
muzigi
muzigin
muziginde
muzigine
muzigini
muziginin
muzik
muzikal
muzikali
muzikle
muzikler
muzikleri
muziklerini
muzikte
muzisyen
muzisyeni
muzisyenler
mv
mvp
mw
mx
my
myanmar
mycomicshop
myers
mynet
myspace
mysterio
mysterious
mystery
myth
mythology
myths
mz
mza
mı
mıdır
mısın
mısınız
mısır
mısırlı
mısırlılar
mıyız
mızrak
n
n0
n1
n2
n3
n4
n5
n6
n7
n8
n9
na
naası
nabi
nabla
nach
naci
nacional
nad
nadal
nadi
nadia
nadir
nadirdir
nadiren
nagorno
nagoya
nahcıvan
nahiye
nahiyesi
nahiyesine
nahiyesinin
naibi
nail
nails
naim
nakamura
nakarat
naked
nakil
nakit
nakledildi
nakli
nakliyat
nakliye
nakıs
nal
nalcık
nallıhan
nam
namaz
namazı
name
named
names
namibya
namlu
namus
namık
namına
nan
nana
nanc
nancy
nane
nano
nantes
naomi
naples
napoleon
napoli
napolyon
nar
nara
narin
narman
narrative
naruto
nas
nasa
nash
nashville
nasr
nasreddin
nassau
nasyonal
nasıl
nasır
nat
natalia
natalie
natalya
natasha
nate
nathan
nathaniel
nation
national
nationale
nationalism
nations
native
nato
natur
natural
naturalist
nature
naughty
naval
navarro
naver
navigasyon
navy
naylon
naz
nazan
nazar
nazaran
nazarbayev
nazi
nazif
nazik
naziler
nazilerin
nazilli
nazionale
nazlı
nazmi
nazım
nazırlıgı
nazırı
nb
nba
nbc
nc
nca
ncaa
ncbi
nce
ncek
nceleme
nci
ncil
ncili
ncsi
ncu
ncı
nd
nda
ndaki
ndan
nde
ndeki
nden
ne
neal
near
nearly
nebolu
nebraska
nebula
nec
necati
necdet
necessary
necip
neck
necmettin
necmi
ned
neden
nedenden
nedeni
nedenini
nedeninin
nedeniyle
nedenle
nedenler
nedenlerden
nedenleri
nedenlerinden
nedenlerle
nederlandse
nedim
nedir
need
needs
nefer
nefes
nefret
negatif
negol
negro
nehir
nehirdir
nehirler
nehirleri
nehirlerinin
nehri
nehrin
nehrine
nehrinin
neil
neill
nejat
nel
neler
nell
nella
nellie
nelly
nelson
nem
nemli
nenni
neo
neolitik
neon
nepal
neptun
nerde
nerede
nereden
neredeyse
nereye
neri
neriman
nermin
nero
nes
nese
neseli
neset
nesil
nesiller
nesin
nesir
nesli
nesne
nesnel
nesneler
nesneleri
nesnelerin
nesnenin
nesnesi
nesneyi
nesrin
nesriyat
nestle
nestor
net
netanyahu
netflix
netherlandish
netherlands
netice
neticede
neticesi
neticesinde
nets
network
networks
neue
neumann
neuroscience
nev
nevada
never
nevi
neville
nevin
nevis
nevruz
nevsehir
nevzat
new
newcastle
newman
newport
news
newsletter
newspaper
newspapers
newsweek
newton
next
nexus
ney
neydi
neye
neyi
neyin
neyse
nezareti
nezdinde
nf
nfaz
nfl
ng
ngc
ngiliz
ngilizce
ngilizcede
ngilizcesi
ngilizceye
ngilizler
ngilizlere
ngilizlerin
ngiltere
nguyen
nh
nhk
ni
niccolo
nice
nicholas
nichols
nicholson
nicht
nicin
nick
nickelodeon
nicki
nico
nicola
nicolas
nicolau
nicole
nie
niels
nielsen
nietzsche
nigde
nigel
nigeria
night
nightmare
nights
nih
nihai
nihal
nihat
nihayet
nihayetinde
nijer
nijerya
nijeryalı
nijman
nikah
nikaragua
nike
nikel
nikiforos
nikita
nikki
niko
nikola
nikolai
nikolaos
nikolay
nikoloz
nikos
niksar
nil
nilgun
nilsson
nilufer
nimet
nin
nina
nine
nineteenth
ninja
nino
nintendo
nippon
nirvana
nis
nisa
nisan
nisancı
nisanlısı
nisanyan
nisanyanmap
nisanı
nispeten
nispi
nissan
nitekim
nitelendirdi
nitelendirilen
niteligi
niteliginde
niteligindedir
niteligindeki
niteligini
nitelik
nitelikleri
nitelikli
nitelikte
nitrat
nixon
niyazi
niye
niyet
niyeti
niyetli
nizam
nizami
nizip
nj
njpw
nk
nka
nkvd
nkılap
nl
nm
nme
nn
no
noah
nobel
nobelprize
nobet
nobetci
noble
nobody
noel
nohut
noir
noise
nokia
nokta
noktada
noktadan
noktalar
noktalarda
noktaları
noktalarına
noktalarında
noktalarından
noktalı
noktanın
noktası
noktasıdır
noktasına
noktasında
noktasından
noktasını
noktasının
noktaya
noktayı
nolan
nolu
nomenclature
nominal
nominations
nominees
non
nonstandard
nonu
nor
nora
norberto
nord
nordic
norfolk
norm
norma
normal
normalde
normale
norman
normandiya
norolojik
norris
norte
north
northamptonshire
northern
northwest
northwestern
norton
norvec
norvecce
norvecli
norway
norwegian
norwich
nos
not
nota
notaları
note
notes
nothing
notice
notices
notlar
notları
notr
notre
notrino
notron
nottingham
nottinghamshire
notu
nous
nouveau
nouvelle
nov
nova
novak
novel
november
novgorod
novi
novo
novosti
now
noyan
np
npr
nq
nr
ns
nsa
nsaat
nsallah
nsan
nsani
nsanlar
nsanları
nsanların
nsanlık
nsanı
nsanın
nsdap
nt
nternet
ntikam
ntv
ntvmsnbc
ntvspor
nu
nuclear
nuevo
nufus
nufusa
nufusları
nufuslu
nufusu
nufusun
nufusuna
nufusune
nufusunu
nufusunun
nufuz
nuh
nuit
nukhet
nukleer
nukleik
numan
numara
numarada
numaradan
numaralandırılan
numaralandırılmıs
numaraları
numaralı
numarası
numarasını
numaraya
numarayı
number
numbers
numune
nun
nuova
nur
nureddin
nurettin
nuri
nurnberg
nursi
nurullah
nusaybin
nusha
nusret
nussbaum
nutrition
nutuk
nv
nw
nwa
nx
nxt
ny
nytimes
nz
nı
nın
o
o0
o1
o2
o3
o4
o5
o6
o7
o8
o9
oa
oak
oakland
oaks
oannis
ob
obama
obi
obituary
object
objects
objektif
oblast
oblastı
observations
observatory
observer
obsolete
obur
obus
oc
ocagı
ocak
ocakları
ocalan
occupancy
occupation
ocean
och
oclc
oct
octavo
october
od
oda
odada
odadan
odagı
odak
odaklanan
odaklandı
odaklanmaktadır
odaklanmıstır
odaklanır
odaklı
odalar
odaları
odanın
odası
odasına
odasında
odasının
odatv
odaya
ode
odeme
odemek
odemesi
odemeyi
odemis
odenek
odenen
odenir
odenmesi
oder
odessa
odin
odtu
odul
oduldur
odule
odullendirildi
odullendirilmistir
oduller
odulleri
odullerinde
odullerine
odullerini
odullu
odulu
odulun
odulune
odulunu
odulunun
odun
odunc
odur
odysseus
odyssey
oe
oecd
of
ofc
off
offensive
offer
office
officer
official
officially
officials
ofis
ofisi
ofisinde
ofisleri
ofke
ofkeli
og
oge
ogeler
ogeleri
ogelerin
ogesi
oglak
oglan
ogle
ogleden
oglu
ogludur
oglum
ogluna
oglunu
oglunun
ogluydu
ogrenci
ogrenciler
ogrencilere
ogrencileri
ogrencilerin
ogrencilerinden
ogrencilerine
ogrencilerinin
ogrencilik
ogrencinin
ogrencisi
ogrenciye
ogrendi
ogrendigi
ogrendigini
ogrenen
ogrenilen
ogrenim
ogrenimi
ogrenimine
ogrenimini
ogrenince
ogrenir
ogrenme
ogrenmek
ogrenmeye
ogrenmis
ogrenmistir
ogreti
ogretim
ogretime
ogretimi
ogretmek
ogretmen
ogretmeni
ogretmenin
ogretmenler
ogretmenleri
ogretmenlerin
ogretmenligi
ogretmenlik
ogul
ogulları
ogullarından
ogullarının
ogun
ogut
oguz
oguzeli
oguzhan
oguzlar
oh
ohio
oi
oil
oj
ok
okan
okay
okcu
okculuk
okinawa
oklahoma
oklid
okrug
oksijen
oksit
oksuz
oktay
oku
okudu
okudugu
okuduktan
okul
okula
okulda
okuldaki
okuldan
okullar
okullara
okullarda
okulları
okulların
okullarında
okulu
okulun
okuluna
okulunda
okulundan
okulunu
okulunun
okuma
okumak
okumaya
okumayı
okumus
okumustur
okunan
okunması
okunup
okunur
okunusu
okur
okurken
okuyan
okuyarak
okuyucu
okuyup
okuz
okyanus
okyanusu
okyanusya
ol
ola
olabildigince
olabilecegi
olabilecegine
olabilecegini
olabilecek
olabilen
olabilir
olabilirdi
olabilirler
olabilmek
olabilmektedir
olabilmesi
olacagı
olacagına
olacagını
olacagız
olacak
olacaktı
olacaktır
olagan
olagandısı
olaganustu
olamadı
olamamıstır
olamayacagını
olamaz
olan
olana
olanagı
olanak
olanakları
olanlar
olanlara
olanlardan
olanları
olanların
olanı
olanıdır
olanın
olarak
olası
olasıdır
olasılıgı
olasılıgını
olasılık
olasılıkla
olay
olaya
olayda
olaydan
olayla
olaylar
olaylara
olaylarda
olaylardan
olaylarla
olayları
olayların
olaylarına
olaylarından
olaylarını
olaylarının
olayı
olayın
olayına
olayında
olayını
olayının
olcay
olcegi
olcek
olcekli
olcekte
olcer
olcme
olcmek
olcu
olcude
olculebilir
olculen
olculeri
olculur
olcum
olcumler
olcumleri
olcumu
olcusu
old
oldest
oldu
oldugu
oldugudur
oldugum
oldugumu
oldugumuz
oldugumuzu
olduguna
oldugunca
oldugunda
oldugundan
oldugunde
oldugunu
oldugunun
olduk
oldukca
oldukları
olduklarına
olduklarından
olduklarını
olduktan
oldukten
oldular
oldum
oldurdu
oldurdugu
oldurdugunu
oldurduler
olduren
oldurerek
oldurme
oldurmek
oldurmesi
oldurmeye
oldurmeyi
oldurmus
oldurmustur
oldurucu
olduruldu
olduruldugu
olduruldugunu
oldurulen
oldurulmesi
oldurulmesinden
oldurulmus
oldurulmustur
oldurulur
oldurup
oldurur
oldı
ole
oleg
olen
olene
olenlerin
olga
olgu
olguların
olgun
olimpia
olimpik
olimpiyat
olimpiyatlar
olimpiyatlarda
olimpiyatları
olimpiyatlarında
oliveira
oliver
olivia
olivier
olma
olmadan
olmadı
olmadıgı
olmadıgına
olmadıgından
olmadıgını
olmadıgının
olmadıkca
olmadıkları
olmadıklarını
olmak
olmakla
olmaksızın
olmakta
olmaktadır
olmaktan
olmaktır
olmaları
olmalarına
olmalarını
olmalı
olmalıdır
olmama
olmamak
olmamakla
olmaması
olmamasına
olmamıs
olmamıstır
olmanın
olmasa
olmasaydı
olması
olmasıdır
olmasın
olmasına
olmasında
olmasından
olmasını
olmasının
olmasıydı
olmasıyla
olmaya
olmayabilir
olmayacagı
olmayacagını
olmayacak
olmayacaktır
olmayan
olmayanlar
olmayı
olmayıp
olmaz
olmazsa
olmeden
olmek
olmesi
olmez
olmus
olmuslardır
olmustu
olmustur
olmuyor
olsa
olsalar
olsam
olsaydı
olschki
olsen
olsun
oltu
olu
olub
oluler
olulerin
olum
olumcul
olumden
olume
olumle
olumler
olumlu
olumsuz
olumsuzluk
olumu
olumun
olumunden
olumune
olumunu
olumunun
olumuyle
olun
olunan
olunca
olunce
olundu
olunması
olunmustur
olunur
olup
olur
olurdu
olurken
olurlar
olursa
olursak
olurum
oluruz
olus
olusabilir
olusacak
olusan
olusmakta
olusmaktadır
olusmaktaydı
olusması
olusmasına
olusmasını
olusmaya
olusmus
olusmustur
olustu
olustugu
olustugunu
olusturabilir
olusturacak
olusturan
olusturarak
olusturdu
olusturdugu
olusturdugunu
olusturdukları
olusturdular
olusturma
olusturmak
olusturmaktadır
olusturması
olusturmaya
olusturmayı
olusturmus
olusturmustur
olusturulabilir
olusturulan
olusturuldu
olusturuldugu
olusturulması
olusturulmasına
olusturulmus
olusturulmustur
olusturulur
olusturur
olustururken
olustururlar
olusturuyor
olusturuyordu
olusu
olusum
olusumu
olusumuna
olusumunda
olusumunu
olusur
olusuyor
olusuyordu
oluyor
oluyordu
olympia
olympic
olympics
olympique
om
omar
omega
omer
omru
omrunu
omrunun
omur
omurilik
omurlu
omuz
on
ona
onal
onarım
onat
onay
onayak
onayladı
onaylamıstır
onaylanan
onaylandı
onaylanmıs
onaylanmıstır
onaylı
onayı
onbası
onbes
once
onceden
onceki
onceleri
oncelik
oncelikle
oncelikli
oncesi
oncesinde
oncesinden
oncesine
oncu
onculerinden
onculugunde
onculuk
oncusu
onda
ondalık
ondan
onde
onden
onder
onderi
onderliginde
onderligindeki
onderlik
one
onem
oneme
onemi
onemini
onemli
onemlidir
onemlisi
onemliydi
onemsiz
oneplus
oner
onerdi
onerdigi
oneri
onerildi
onerilen
oneriler
onerileri
onerilir
onerilmistir
onerir
onerisi
onerme
onermistir
ones
ongoing
ongordugu
ongoren
ongorulen
oniki
onlar
onlara
onlarca
onlarda
onlardan
onlarla
onları
onların
onlem
onleme
onlemek
onlemeye
onlemler
onlemleri
onlenmesi
onler
onlerine
onleyici
online
only
ono
onsoz
ontario
onu
onumuzdeki
onun
onuncu
onunde
onundeki
onunden
onune
onunla
onunu
onur
onurlu
onursal
onuruna
oo
op
opel
open
opening
opens
opera
operasyon
operasyonda
operasyonel
operasyonlar
operasyonları
operasyonu
operasyonun
operası
operation
operations
operator
operatorname
operatoru
opinion
oppo
opposition
optical
optik
optimize
opus
oq
or
ora
oracle
orada
oradaki
oradan
orak
oral
oran
oranda
orange
oranla
oranlarda
oranları
oranlarında
orantılı
orantılıdır
oranı
oranın
oranına
oranında
oranını
oranının
oranıyla
oraya
orayı
orbit
orbital
orchestra
ord
orda
ordan
ordek
ordekgiller
order
orders
ordu
orduda
ordudan
ordular
orduları
ordularını
ordularının
ordunun
orduspor
ordusu
ordusuna
ordusunda
ordusundan
ordusunu
ordusunun
ordusuyla
orduya
orduyla
orduyu
ore
oregon
oren
orf
org
organ
organic
organik
organisation
organizasyon
organizasyonda
organizasyonlar
organizasyonu
organizasyonudur
organizasyonun
organization
organize
organizma
organizmalar
organizmaların
organizmanın
organlar
organları
organların
organlarında
organlarının
organı
organıdır
orgeneral
orgu
orgut
orgute
orgutlenme
orgutlenmesi
orgutler
orgutleri
orgutlerin
orgutlerinin
orgutlu
orgutsel
orgutu
orgutun
orgutune
orgutunun
orhan
orhaneli
orhun
ori
oricon
orient
oriental
orientale
orientation
origin
original
originally
originals
origins
orijinal
orijinali
orion
orionis
orkestra
orkestrası
orlando
orleans
orman
ormana
ormancılık
ormanda
ormanlar
ormanlarda
ormanları
ormanların
ormanlarında
ormanlık
ormanı
ormanın
orn
ornegi
ornegidir
ornegin
orneginde
ornegini
ornek
orneklem
ornekleme
ornekler
ornekleri
orneklerinden
orneklerini
ornekte
ornektir
ornitolog
oro
ort
orta
ortac
ortacag
ortacgil
ortada
ortadaki
ortadan
ortadogu
ortagı
ortak
ortaklar
ortakları
ortaklasa
ortaklıgı
ortaklık
ortakoy
ortalama
ortalamaları
ortalamalarıyla
ortalaması
ortalarına
ortalarında
ortalarından
ortam
ortama
ortamda
ortamlarda
ortamı
ortamın
ortamına
ortamında
ortamının
ortaogretim
ortaokul
ortaokulu
ortası
ortasına
ortasında
ortasındaki
ortasından
ortaya
orten
orthodox
ortiz
ortodoks
orton
ortu
ortulu
ortusu
oruc
orumcek
os
osaka
osborne
oscar
oscars
osetya
osiris
oskar
oslo
osman
osmancık
osmangazi
osmani
osmaniye
osmanlı
osmanlıca
osmanlılar
osmanlılara
osmanlıların
osprey
ost
oswald
ot
ote
oteki
otel
otelde
otele
oteli
otelin
oteller
otesi
otesinde
otesine
oteye
other
others
otis
otlar
oto
otobiyografik
otobus
otobusu
otomatik
otomobil
otomobili
otomobilin
otomobiller
otomotiv
otonom
otopark
otopsi
otorite
otoriter
otoritesi
otoritesine
otoritesini
otoyol
otoyolu
otsu
ottawa
otto
ottoman
otu
otucu
otuken
oturan
oturdu
oturdugu
oturma
oturmak
oturmus
oturu
oturum
oturup
oturur
otuz
ou
our
out
outbreak
outer
outlook
outside
outstanding
ov
ova
ovacık
oval
ovası
ovdu
over
overline
overview
ovgu
ow
owen
owens
own
ox
oxford
oxfordshire
oy
oya
oyku
oykuler
oykuleri
oykunun
oykusu
oykusunu
oyla
oylama
oylamada
oylaması
oyları
oyların
oyle
oylesine
oyleyse
oyma
oymagına
oymak
oynadı
oynadıgı
oynadıkları
oynadıktan
oynadılar
oynama
oynamak
oynamaktadır
oynaması
oynamaya
oynamayı
oynamıs
oynamıslardır
oynamıstır
oynanabilir
oynanacak
oynanacaktır
oynanan
oynandı
oynanmıstır
oynanır
oynar
oynarken
oynarlar
oynayacagı
oynayan
oynayarak
oynayıp
oynuyor
oysa
oyu
oyulmus
oyun
oyuna
oyuncak
oyuncu
oyuncudur
oyuncular
oyunculara
oyunculardan
oyuncularla
oyuncuları
oyuncuların
oyuncularından
oyuncularının
oyunculu
oyunculuga
oyunculugu
oyunculuk
oyuncunun
oyuncusu
oyuncusudur
oyuncuya
oyuncuyu
oyunda
oyundaki
oyundan
oyundur
oyunla
oyunlar
oyunlara
oyunlarda
oyunları
oyunların
oyunlarına
oyunlarında
oyunlarından
oyunlarını
oyunlarının
oyunu
oyunudur
oyunun
oyununa
oyununda
oyunundan
oyununu
oyununun
oyunuyla
oz
ozal
ozalp
ozan
ozbay
ozbek
ozbekce
ozbekistan
ozcan
ozdemir
ozdemiroglu
ozden
ozdes
ozel
ozellestirme
ozellige
ozelligi
ozelligidir
ozelligine
ozelligini
ozellik
ozellikle
ozellikler
ozelliklere
ozellikleri
ozelliklerin
ozelliklerinden
ozelliklerine
ozelliklerini
ozelliklerinin
ozellikleriyle
ozellikli
ozen
ozenle
ozer
ozerk
ozerklik
ozet
ozeti
ozetle
ozge
ozgecmisi
ozgu
ozgudur
ozgul
ozgun
ozgur
ozgurce
ozgurlugu
ozgurlugun
ozgurlugune
ozgurlugunu
ozgurlugunun
ozgurluk
ozgurlukcu
ozgurlukler
ozhan
ozkan
ozkok
ozlem
ozlu
ozne
oznel
ozoglu
ozon
ozturk
ozu
ozunde
ozur
p
p0
p1
p2
p3
p4
p5
p6
p7
p8
p9
pa
pablo
pac
pace
pacific
pack
padisah
padisaha
padisahı
padisahın
padova
padua
paf
pagan
page
pages
pahalı
pahasına
paige
pain
painter
painting
paintings
pair
pais
pak
paket
paketi
paketleri
pakistan
pakistanlı
paktı
pal
pala
palace
palais
palau
palazzo
paleobiodb
paleolitik
paleologos
paleontolog
paleontology
palermo
palestine
palestinian
palgrave
palladio
palm
palma
palmer
palmiye
palu
pamela
pamuk
pamukkale
pan
panama
panathinaikos
panda
pandemi
pandemic
pandemisi
pandora
panel
paneli
panicum
panik
pankreas
panorama
pantheon
panther
panthera
pantolon
panzer
paolo
papa
papagan
papalık
papaz
paper
paperback
papers
papirus
papua
par
para
parade
paradise
paraguay
paralar
paraları
paralel
paralimpik
paralı
parameters
parametre
parametreleri
parametresi
parametresini
paramount
parana
paranormal
parantez
paranın
parasal
parasut
parası
parasını
parasız
paraya
parayla
parayı
parazit
parca
parcacıgın
parcacık
parcacıklar
parcacıkları
parcacıkların
parcada
parcadan
parcalanması
parcalanmıs
parcalar
parcalara
parcalardan
parcaları
parcaların
parcalarından
parcalarını
parcalarının
parcalı
parcanın
parcası
parcasıdır
parcasına
parcasında
parcasını
parcasının
parcasıydı
parcaya
parcayı
pardus
pare
parents
paris
parish
parishes
paristir
park
parker
parkinson
parklar
parks
parkta
parkı
parkın
parlak
parlaklıgı
parlaklık
parlamenter
parlamento
parlamentoda
parlamentonun
parlamentosu
parlamentoya
parlayan
parliament
parliamentary
parma
parmagı
parmak
pars
parsons
part
parti
partial
participation
particle
partide
partiden
partidir
parties
partiler
partilere
partileri
partilerin
partili
partinin
partisan
partisi
partisinden
partisine
partisini
partisinin
partiye
partiyi
partizan
partner
partneri
partners
partnership
parts
party
pas
pasa
pasam
pasanın
pasaport
pasaportu
pascal
pasif
pasifik
pasinler
paskalya
pass
passage
passes
passion
past
pasta
pat
patates
paten
patenci
pateni
patent
path
pathology
patient
patients
patinaj
patladı
patlak
patlama
patlamanın
patlaması
patlayıcı
patlıcan
patnos
patoloji
patricia
patrick
patrigi
patrik
patrikhanesi
patron
patronage
patrons
patronu
patterns
patterson
patton
pau
paul
paula
pauli
pauline
paulo
paulus
pausanias
pav
pavel
pavlus
pay
paylasan
paylasmak
paylasmaktadır
paylasmıstır
paylastı
paylastıgı
paylasılan
paylasım
paylasımı
paylasır
payne
pays
payı
paz
pazar
pazara
pazarcık
pazarda
pazarlama
pazarlanan
pazarlık
pazartesi
pazarı
pazarına
pazarında
pb
pbs
pc
pci
pcr
pd
pdf
pe
peace
peak
pearce
pearl
pearson
peas
peculiar
pedagoji
peder
pedro
peer
pegasus
peggy
pehlevi
pehlivan
pek
pekci
peker
peki
pekin
pekkan
pelikan
pelin
pembe
pen
pena
penaltı
penaltılarla
pence
pencere
pencereden
pencereler
penceresi
pendik
penelope
penguen
penguin
penis
penn
pennsylvania
penny
pensilvanya
pentagon
people
peoples
pepe
pepper
pepsi
per
pera
perakende
perception
percy
perde
perdelik
perdeye
pere
pereira
perez
perfect
perform
performance
performans
performansla
performansları
performanslarını
performansı
performansını
performansıyla
pergamon
peri
perihan
perincek
period
perisan
periyodik
perkins
perkusyon
permanent
peron
perrin
perry
pers
persembe
perseus
persia
persian
persler
person
personal
personality
personel
personeli
personelin
personelinin
perspective
perspectives
perspektif
pertek
perth
peru
perugia
perugino
pervane
pes
pesin
pesinde
pesinden
pesine
pet
pete
peter
peterburg
peters
petersburg
peterson
petit
petr
petra
petro
petrol
petrov
petrus
peugeot
peyami
peygamber
peygamberi
peygamberin
peynir
peyniri
peyzaj
pf
pg
pgc
ph
phaidon
phantom
pharrell
phase
phd
phi
phil
philadelphia
philip
philipp
philippe
philippine
philippines
philips
phillip
phillips
philosopher
philosophical
philosophy
phoebe
phoenix
phone
phonographic
phonographique
photo
photography
photos
php
phylogenetic
phylogeny
phys
physical
physics
physiology
pi
pia
piano
piazza
pic
picasso
pick
picks
picture
pictures
pie
piece
pieces
pier
pierce
pierluigi
piero
pierre
pieter
pietro
pike
piknik
piksel
pil
pilav
pilot
pilotlar
pilots
pilotu
pilsen
pin
pine
ping
pink
pinto
pinyin
pioneer
piotr
piper
pir
piramit
pirate
pirates
pire
piri
pirinc
pis
pisa
pisagor
pisano
pisirilir
pisirme
piskopos
piskoposluk
piskoposu
pisman
pismanlık
pismis
pist
pisti
pistons
pit
pitchfork
pitt
pittsburgh
pittura
piu
pius
pivot
piyade
piyadeleri
piyanist
piyano
piyasa
piyasada
piyasası
piyasaya
piyemonte
pizza
pj
pk
pkk
pl
place
places
plague
plaj
plajı
plak
plaka
plan
plana
planck
planda
plane
planet
planetary
planets
planladı
planladıgı
planlama
planlaması
planlanan
planlandı
planlanmaktadır
planlanmıs
planlanmıstı
planlanmıstır
planlanıyor
planlar
planları
planlarını
planlı
planning
plans
plant
plants
planı
planın
planına
planında
planını
planının
plastic
plastik
plata
plate
platform
platformda
platformlar
platformlarda
platformları
platformu
platformunda
platin
platinum
platnick
plato
platon
platosu
play
playboy
played
player
players
playing
playoff
plays
playstation
plaza
plazma
plc
please
pleistosen
plinius
plos
plus
plutarch
pluto
pluton
plymouth
pm
pmc
pmid
pn
pnas
png
po
poaceae
poblacion
pocket
podcast
podlech
poe
poems
poet
poetry
poincare
point
points
pokal
pokemon
poker
pol
poland
polar
polarize
polat
polatlı
pole
poli
police
policy
polimer
polimeraz
polis
polise
polish
polisi
polisin
polisiye
polisler
politburo
politeknik
political
politics
politik
politika
politikacı
politikacılar
politikalar
politikaları
politikalarına
politikalarını
politikalarının
politikası
politikasına
politikasını
politikasının
politikaya
poll
pollaiuolo
polo
polonya
polonyalı
polygon
pompa
pompey
pon
pons
ponte
pontus
pony
pool
poor
pop
pope
popolazione
popular
popularitesi
populasyon
population
populations
populer
populerdir
populerlik
por
porn
porno
pornografi
pornografik
porsche
porselen
porsuk
port
porta
portable
portakal
portal
portali
portalı
portalına
portekiz
portekizce
portekizli
porter
portland
porto
portrait
portre
portresi
portsmouth
portugal
portuguesa
portuguese
poseidon
position
positions
positive
posof
possible
post
posta
postal
postası
poster
postmodern
pot
potansiyel
potansiyeli
potasyum
potential
potsdam
potter
pound
pour
powell
power
powerful
powers
powerturk
poyraz
poz
pozisyon
pozisyonda
pozisyonu
pozisyonunda
pozisyonunu
pozitif
pp
ppv
pq
pr
practical
practice
practices
praeger
prag
prague
pratik
pratikte
prato
pratt
pravda
prayer
pre
predator
prefektorlugu
prefektorlugunde
prehistoric
preliminary
premier
premiere
premio
premium
premyer
prens
prenses
prensesi
prensi
prensibi
prensip
prensipleri
prensligi
prentice
present
presentation
presented
presents
preservation
president
presidential
presley
press
presse
pressure
prestel
prestij
prestijli
preston
pretty
prevention
preview
price
pride
priest
prima
primary
primatlar
primavera
prime
primeira
primer
primera
primetime
prince
princess
princeton
principe
principle
principles
print
printing
prison
pristine
private
prix
prize
prizren
pro
problem
problemi
problemler
problemleri
problems
proc
proceedings
process
processes
processing
procyclingstats
produced
producer
producers
product
production
productions
products
produksiyon
produksiyonu
produktor
produktorlugunu
produktoru
prof
profesor
profesorluk
profesoru
professional
professor
profesyonel
profesyonellige
profil
profile
profiles
profili
program
programa
programcısı
programda
programlama
programlar
programları
programların
programlarına
programlarında
programlarını
programlarının
programme
programming
programs
programı
programıdır
programın
programına
programında
programını
programının
progresif
progress
progressive
proje
project
projects
projede
projeler
projeleri
projelerin
projelerinde
projelerini
projelerinin
projenin
projesi
projesinde
projesine
projesini
projesinin
projeye
projeyi
prometheus
promise
promiyer
promiyeri
promiyerini
promo
promosyon
promotion
proof
propaganda
propagandası
properties
property
prophet
protected
protection
protein
proteini
proteinin
proteinler
proteinleri
proteinlerin
protest
protestan
protesto
protestolar
protestoları
protests
proto
protocol
protokol
protokolu
proton
prototip
prototipi
provence
providence
province
provinces
prusya
ps
pseudo
psg
psi
psikiyatri
psikolog
psikoloji
psikolojik
psikolojisi
psv
psychiatry
psychological
psychology
pt
ptal
ptolemaios
ptolemy
ptt
pu
puan
puana
puanla
puanlama
puanlar
puanları
puanı
pub
public
publicacioes
publication
publications
published
publisher
publishers
publishing
publius
puerto
pul
pulitzer
pullar
pulları
pulmoner
pulse
pulu
pulumur
puma
punch
punk
pur
pure
purple
puruzsuz
push
puskin
pusu
pusula
pusuya
put
putin
putnam
pv
pw
pwi
pwinsider
px
py
pyd
pyotr
pyrausta
python
pz
pınar
pınarbası
pınarı
q
q0
q1
q2
q3
q4
q5
q6
q7
q8
q9
qa
qaeda
qanun
qatar
qb
qc
qd
qe
qf
qg
qh
qi
qin
qing
qj
qk
ql
qm
qn
qo
qp
qq
qquad
qr
qs
qt
qu
quad
qualcomm
qualifying
quality
quantum
quarter
quarterly
quartet
que
quebec
queen
queens
queensland
queer
quentin
quercia
quest
question
questions
qui
quick
quickfacts
quiet
quinn
qur
qv
qw
qx
qy
qz
r
r0
r1
r2
r3
r4
r5
r6
r7
r8
r9
ra
rab
rabat
rabbi
rabbit
race
rachel
racing
rad
radar
radiation
radical
radikal
radio
radyal
radyasyon
radyo
radyoaktif
radyoda
radyolarda
radyosu
rae
raf
rafael
rafet
ragbet
ragbi
rage
ragmen
ragıp
rahat
rahatca
rahatlıkla
rahatsız
rahatsızlıgı
rahatsızlık
rahibe
rahibi
rahim
rahip
rahipler
rahman
rahmet
rahmi
rai
raid
raider
raif
rail
railway
rain
rainbow
rainer
rajki
rakam
rakamlar
rakamları
rakamı
rakibi
rakibin
rakibine
rakibini
rakip
rakipleri
rakiplerini
rakım
rakımlı
rakımı
ralli
rally
ralph
ram
rama
ramazan
rambo
ramirez
ramon
ramos
ramsay
ramsey
ran
rana
rand
randall
randevu
randolph
random
randy
range
ranger
rangers
rangle
rani
ranking
rankings
ranlı
rant
raoul
rap
rapci
raphael
rapid
rapids
rapor
rapora
raporda
raporlar
raporları
raporu
raporun
raporuna
raporunda
raporunu
rapper
rare
ras
rasim
rasmussen
rassal
rast
rastgele
rastlanan
rastlanmaktadır
rastlanmıstır
rastlanır
rasyonel
rat
rate
rating
ratings
rauf
raul
raven
ravenna
raw
ray
raylı
raymond
rayon
rayonu
rayonunun
razı
rb
rc
rca
rd
re
reach
reaction
read
reader
reading
ready
reagan
reaksiyon
reaksiyona
reaksiyonu
reaktif
reaktor
real
reality
really
realms
reason
reasons
rebecca
rebel
rebels
rec
receive
recent
recep
receptor
recognition
record
recorded
recording
recordings
records
recovery
red
redd
reddeden
reddeder
reddederek
reddedildi
reddetmistir
reddetti
reddi
redemption
redif
redistricting
redmi
reed
reel
reese
reeves
ref
refah
refahiye
refahı
referandum
referandumu
referans
reference
references
refet
refik
reflections
refler
reform
reformlar
reformları
reformu
regarding
reggae
reggio
regime
regina
region
regional
regions
register
registration
registry
regular
regulation
regulations
reha
rehabilitasyon
rehber
rehberi
rehberlik
rehin
rehine
reich
reichstag
reid
reign
reigns
reilly
reims
reinhard
reis
reisi
rejim
rejimi
rejimin
rejimine
rejiminin
rekabet
rekabetci
rekabete
rekabeti
reklam
reklamı
rekor
rekorlar
rekorları
rekoru
rekorunu
rektor
rektorluk
rektoru
related
relation
relations
relationship
relationships
release
released
releases
religion
religions
religious
rem
remains
rembrandt
remember
remiks
remix
remixes
remo
remote
remy
remzi
ren
renaissance
renault
rene
renee
renge
rengi
rengin
renginde
rengini
renk
renkler
renklerde
renkleri
renklerin
renkli
renklidir
renksiz
renkte
renktedir
rennes
reno
renoir
replace
report
reported
reporter
reports
represent
representation
reprint
reprinted
repubblica
republic
republica
requiem
res
resadiye
resat
rescue
research
reseptor
reserve
resid
resident
residente
resim
resimde
resimler
resimleri
resimlerin
resimlerini
resimlerinin
resimli
resistance
resit
resme
resmen
resmi
resmigazete
resmin
resmini
resolution
resource
resources
response
respublikası
ressam
ressamlar
ressamı
ressamın
rest
restaurant
restoran
restorasyon
restorasyonu
restoration
restore
resul
result
results
ret
retina
retorik
retrieved
retro
return
returns
reunion
reuters
rev
revan
reveal
revealed
reveals
revenge
review
reviews
revised
revision
revisited
revival
revize
revolution
revolutionary
revue
rex
rey
reyes
reyhanlı
reynolds
reyting
rezerv
rezervi
rezonans
rf
rfan
rfc
rg
rh
rhein
rho
rhode
rhodes
rhone
rhythm
ri
ria
riaa
ribaund
ribaunt
rica
ricardo
riccardo
rice
rich
richard
richards
richardson
richie
richmond
richter
rick
ricky
rico
ride
rider
ridge
riding
riemann
rifat
riga
right
rightarrow
rights
rihanna
rika
riko
riley
rim
rimini
rin
rinascimento
ring
ringe
rings
rini
rio
riot
rip
risale
rise
rising
risk
riski
riskini
riskli
risparmio
rita
ritchie
ritim
ritter
ritual
rituel
rivayet
rivayete
river
rivera
rivers
riverside
riyad
rize
rizespor
rizzoli
rj
rk
rl
rlanda
rlandaca
rlandalı
rli
rlts
rm
rma
rn
rna
ro
road
rob
robbia
robbie
robbins
robert
roberto
roberts
robertson
robin
robinson
robot
robotik
robson
roc
roche
rochester
rock
rockefeller
rocket
rockets
rocks
rockstar
rocky
rococo
rod
rodney
rodolfo
rodos
rodrigo
rodrigues
rodriguez
roger
rogers
rogue
roh
rohan
roi
roket
roketi
rol
roland
rolde
role
rolf
roll
roller
rollerde
rolleri
rollerinde
rollerini
rolleriyle
rolling
rollins
rolls
rolu
rolunde
rolune
rolunu
roluyle
rom
roma
romagna
romalı
romalılar
romalılara
romalıların
roman
romana
romance
romancı
romanda
romandan
romania
romanian
romanize
romanlar
romanları
romanlarında
romano
romanos
romantik
romantizm
romanya
romanı
romanıdır
romanın
romanında
romanından
romanını
romanının
rome
romen
romeo
romero
rommel
ron
rona
ronald
ronaldo
ronesans
ronnie
room
rooney
roosevelt
root
roots
roportaj
roportajda
roportajlar
roportajı
roportajında
rory
rosa
rosario
rose
rosen
rosenberg
rosenthal
roses
ross
rossi
rossini
roster
rostov
rota
rotası
roth
rothschild
rotor
rotten
rotterdam
rouge
rough
round
rousseau
route
routledge
roux
rovans
rover
rovers
rovi
row
rowan
rowland
rowman
roxburgh
roy
royal
royale
royce
rp
rpg
rpm
rq
rr
rs
rsc
rsssf
rt
rte
rtuk
ru
ruanda
ruben
rubens
rubin
ruby
rudolf
rudolph
rue
rufus
rugby
ruh
ruhani
ruhban
ruhi
ruhlar
ruhları
ruhsal
ruhu
ruhun
ruhunu
ruhunun
ruiz
rule
rules
rum
rumble
rumca
rumcası
rumeli
rumen
rumence
rumi
rumlar
rumların
run
runciman
runner
running
rupert
rural
rus
rusca
rusen
rush
ruslar
ruslara
rusların
russell
russia
russian
russo
rustem
rustu
rusvet
rusya
rusyası
rutbe
rutbeli
rutbesi
rutbesine
rutbesiyle
ruth
rutherford
rutin
ruya
ruyası
ruzgar
ruzgarlar
ruzgarı
ruzgarın
rv
rw
rx
ry
ryan
ryder
ryu
rz
rı
rıdvan
rıfat
rıfkı
rıza
rızası
s
s0
s1
s2
s3
s4
s5
s6
s7
s8
s9
sa
saab
saadet
saakios
saat
saate
saati
saatin
saatle
saatler
saatlerde
saatleri
saatlerinde
saatlik
saatte
saatten
saba
sabah
sabaha
sabahattin
sabahı
saban
sabancı
sabbath
sabiha
sabit
sabiti
sabittir
sablon
sablonu
sabri
sabrina
sabun
sabır
sac
sacan
sacları
saclarını
saclı
sacma
sacramento
sacred
sacı
sad
sadakat
saddam
saddle
sade
sadece
sadettin
sadi
sadie
sadr
sadrazam
sadrazamlık
sadri
sadık
saf
safa
safak
safari
safe
safety
safevi
safeviler
saffet
safi
safiye
safra
safranbolu
sag
saga
sagan
sagcı
sagda
sagdaki
sagdan
sagduyu
sage
sagladı
sagladıgı
sagladıgını
saglam
saglama
saglamak
saglamaktadır
saglamaktır
saglaması
saglamaya
saglamayı
saglamıs
saglamıstır
saglanabilir
saglanan
saglandı
saglandıgı
saglanmadı
saglanmaktadır
saglanması
saglanmıs
saglanmıstır
saglanır
saglar
saglarlar
saglayabilir
saglayacak
saglayacaktır
saglayan
saglayarak
saglıgı
saglıgına
saglıgını
saglık
saglıklı
saglıyor
saglıyordu
sagopa
sagında
sagır
sah
saha
sahada
sahane
sahanın
sahası
sahasında
sahaya
sahi
sahib
sahibi
sahibidir
sahibine
sahibini
sahibinin
sahibiydi
sahife
sahih
sahil
sahilde
sahile
sahili
sahilinde
sahin
sahinbey
sahip
sahipken
sahipleri
sahiplerine
sahiplerini
sahiplerinin
sahipligi
sahipti
sahiptir
sahiptirler
sahit
sahne
sahnede
sahnelendi
sahnelenen
sahnelenmistir
sahneler
sahneleri
sahnenin
sahnesi
sahnesinde
sahnesine
sahneye
sahneyi
sahra
sahsa
sahsen
sahsi
sahsı
sahsın
sahte
sahı
sahıs
sahısla
sahıslar
sahıslara
sahıslardan
sahıslarla
sahısların
sai
said
saim
saint
sainte
saints
sair
sairi
sairin
sairler
sairleri
sait
sak
saka
sakal
sakallı
sakaoglu
sakarya
sakaryaspor
sakat
sakatlıgı
sakatlık
saki
sakin
sakinleri
sakinlerinin
sakir
saklama
saklamak
saklanan
saklandıgı
saklanır
saklı
sakson
saksonya
sakura
sakın
sakız
sal
salah
salazar
saldıran
saldırarak
saldırdı
saldırdılar
saldırgan
saldırmak
saldırmaya
saldırı
saldırıda
saldırıdan
saldırılar
saldırılara
saldırılarda
saldırıları
saldırıların
saldırılarına
saldırılarından
saldırılarını
saldırılarının
saldırının
saldırır
saldırısı
saldırısına
saldırısında
saldırısından
saldırısını
saldırısının
saldırıya
saldırıyı
sale
salem
sales
salgın
salgını
sali
salih
salihli
salim
salinger
salisbury
salkım
sally
salma
salman
salnamesi
salom
salon
salonda
salonları
salonu
salonunda
salt
saltanat
saltanatı
saltanatının
salticidae
salvador
salvatore
salvia
salzburg
salı
sam
saman
samantha
samanyolu
samara
same
samet
sami
samil
samimi
samir
sammy
samoa
sampiyon
sampiyona
sampiyonada
sampiyonaları
sampiyonası
sampiyonasına
sampiyonasında
sampiyonasını
sampiyonaya
sampiyonlar
sampiyonları
sampiyonluga
sampiyonlugu
sampiyonluguna
sampiyonlugunu
sampiyonluk
sampiyonu
sample
samson
samsun
samsung
samsunspor
samtshe
samuel
samurai
samuray
san
sana
sanal
sanat
sanata
sanatcı
sanatcılar
sanatcılara
sanatcılarla
sanatcıları
sanatcıların
sanatcının
sanatcısı
sanatcısıdır
sanatcıya
sanatlar
sanatları
sanatsal
sanatta
sanatı
sanatın
sanatına
sanatında
sanatını
sanatının
sanayi
sanayici
sanayii
sanayisi
sancagı
sancagına
sancagının
sancak
sanchez
sand
sandal
sandalye
sander
sanders
sandler
sandra
sandro
sands
sandy
sandıgı
sandıgın
sandık
sandıklı
sandıkta
sang
sanghay
sani
saniye
saniyede
saniyelik
sanjay
sanki
sankt
sanlı
sanlıurfa
sanlıurfaspor
sanremo
sans
sansa
sanskritce
sanslı
sansolye
sansolyesi
sansur
sansı
sansını
sant
santa
santana
santiago
santimetre
santo
santos
santral
santrali
sanzıman
sanıgın
sanık
sanıklar
sanılan
sanılmaktadır
sanırım
sao
sap
sapanca
sapel
sapeli
sapiens
sapka
sapma
saptanmıstır
saptanır
sapı
sar
sara
sarabı
sarabın
saracoglu
sarah
sarajevo
saran
sarap
saray
saraya
saraybosna
sarayda
sarayı
sarayın
sarayına
sarayında
sarayının
sardinya
saret
sarf
sarhos
sarj
sark
sarkı
sarkıcı
sarkıcıdır
sarkıcılar
sarkıcının
sarkıcısı
sarkıda
sarkıdan
sarkıdır
sarkılar
sarkılara
sarkılardan
sarkıları
sarkıların
sarkılarına
sarkılarından
sarkılarını
sarkılarının
sarkılarıyla
sarkının
sarkısla
sarkısı
sarkısıdır
sarkısına
sarkısında
sarkısından
sarkısını
sarkısının
sarkısıyla
sarkıya
sarkıyla
sarkıyı
sarmal
sarp
sars
sart
sartlar
sartlara
sartlarda
sartları
sartlarına
sartlarını
sartlı
sartre
sarttır
sartı
sartıyla
saruhan
sarı
sarıkamıs
sarıkaya
sarılmıs
sarımsak
sarımsı
sarısı
sarısın
sarıyer
sas
sasani
sasaniler
sasha
saskın
sasırtıcı
sat
satan
satanlar
satarak
satellite
satmak
satmaya
satmıstır
sato
satosu
satranc
sattı
saturday
saturn
satıcı
satıcısı
satılan
satıldı
satılmaktadır
satılmıstır
satılır
satın
satır
satırı
satıs
satısa
satısları
satısı
satısını
saudi
saul
saunders
sauron
sav
sava
savage
savas
savasa
savasan
savascı
savascılar
savascıları
savascısı
savaslar
savaslara
savaslarda
savasları
savasların
savaslarında
savasmak
savasmaya
savasta
savastan
savastı
savastır
savası
savasın
savasına
savasında
savasından
savasını
savasının
savasır
savasırken
savcı
savcılar
savcılıgı
savcılık
savcısı
save
savsat
savunan
savundu
savundugu
savunma
savunmak
savunmaktadır
savunması
savunmasını
savunmasız
savunmaya
savunmustur
savunucuları
savunucusu
savunur
savunuyor
saw
sawyer
say
saya
sayan
sayar
saydam
sayede
sayesinde
sayet
sayfa
sayfada
sayfadan
sayfalar
sayfaları
sayfalarında
sayfalık
sayfanın
sayfası
sayfasına
sayfasında
saygı
saygılı
saygın
saygıyla
sayi
sayin
sayma
saymak
says
sayı
sayıca
sayıda
sayıdaki
sayıdır
sayılabilecek
sayılabilir
sayılan
sayılar
sayıları
sayıların
sayılarının
sayıldı
sayılmaktadır
sayılmıstır
sayılı
sayılır
sayım
sayımlarına
sayımı
sayımına
sayımında
sayımından
sayın
sayının
sayısal
sayıstay
sayısı
sayısına
sayısında
sayısından
sayısını
sayısının
sayısız
sayıya
sayıyı
saz
sb
sbc
sbirligi
sbs
sbu
sc
scala
scale
scandal
scandinavian
scarecrow
scene
scenes
schalke
schedule
schengen
schiller
schindler
schleswig
schmidt
schmitt
schneider
scholar
scholars
school
schools
schopenhauer
schrodinger
schultz
schulz
schumacher
schuster
schwartz
schwarz
schwarzenegger
schweizer
sci
science
sciences
scientific
scientist
scientists
scipio
scooby
score
scores
scotland
scott
scottish
scream
screen
scribner
script
sculpture
sd
sdss
se
sea
seal
sean
search
season
seasons
seat
seattle
seb
sebastian
sebebi
sebebini
sebebinin
sebebiyet
sebebiyle
sebeke
sebekesi
sebep
sebeple
sebepler
sebeplerden
sebepleri
sebeplerle
sebepten
sebinkarahisar
sebnem
sebze
sebzeler
sec
secen
secenegi
secenek
secenekleri
secer
secerek
secici
secildi
secildigi
secilen
secilerek
secilim
secilir
secilme
secilmesi
secilmis
secilmistir
secim
secimde
secimden
secime
secimi
secimin
seciminde
secimini
secimle
secimler
secimlerde
secimlerden
secimlere
secimleri
secimlerin
secimlerinde
secimlerinden
secimlerine
secimlerini
secimlerinin
seckin
secme
secmek
secmeler
secmeleri
secmen
secmenin
secmenler
secmenlerden
secmenlerin
secmistir
second
seconds
secret
secretary
secrets
secti
sectigi
section
sector
secure
security
seda
sedan
sedat
sedef
seds
see
seed
seen
sef
sefa
sefarad
sefer
seferberlik
seferde
sefere
seferi
seferin
seferinde
seferine
seferini
seferler
seferleri
seffaf
sefi
sefik
sefkat
sefligi
seftali
sega
segment
seher
sehir
sehircilik
sehirde
sehirdeki
sehirden
sehirdir
sehirhafizasi
sehirler
sehirlerde
sehirlerden
sehirlere
sehirleri
sehirlerin
sehirlerinde
sehirlerinden
sehirlerine
sehirlerini
sehirlerinin
sehit
sehitkamil
sehitler
sehr
sehre
sehri
sehridir
sehrin
sehrinde
sehrindeki
sehrinden
sehrine
sehrini
sehrinin
sehristanı
sehristanın
sehzade
seidman
sein
seine
sejm
sek
seker
sekeri
sekerspor
seki
sekil
sekilde
sekildedir
sekiller
sekillerde
sekilleri
sekilli
sekip
sekiz
sekizinci
sekle
sekli
seklidir
seklinde
seklindedir
seklindeki
sekline
seklini
seklinin
sekliyle
sekreter
sekreteri
sekreterligi
sekreterlik
seks
seksen
seksi
sektor
sektorde
sektore
sektoru
sektorunde
sektorune
sektorunun
sekuler
sel
selahaddin
selahattin
selale
selalesi
selam
selamet
selami
selanik
selcuk
selcuklu
selcuklular
selda
select
selected
selection
selefi
selena
seleukos
self
seligman
selim
selimiye
selin
sellers
selling
selma
selman
selvi
sem
sema
seması
sembol
sembolik
sembolize
semboller
sembolleri
sembolu
semdinli
semerkant
semi
semih
seminer
sempati
sempozyumu
semptomlar
semptomları
semseddin
semt
semti
semtin
semtinde
sen
sena
senarist
senaristi
senaristligini
senaryo
senaryosu
senaryosunu
senaryoyu
senate
senato
senator
senatoru
senatosu
sencer
sende
senden
sendika
sendikalar
sendikaları
sendikası
sendrom
sendromu
sene
senecio
senede
senedi
senegal
senel
senelik
sener
senesinde
senet
senfoni
senfonik
seni
senin
seninle
senior
senkaya
senkronize
senligi
senlik
senna
senol
sense
sensin
sensiz
sensor
sensoru
sensoy
sent
sentetik
sentez
sentezi
sentinel
seo
seoul
sep
september
sequel
sequence
ser
sera
seramik
serap
serbest
serbestce
serbestlik
serbia
serbian
serce
serdar
serebral
seref
serefine
sereflikochisar
seren
serena
serge
sergei
sergen
sergey
sergi
sergiledi
sergiledigi
sergilemistir
sergilendi
sergilendigi
sergilenen
sergilenmektedir
sergiler
sergileri
sergileyen
sergio
sergisi
sergisini
serh
serhan
serhat
seri
seria
serial
seriat
seribası
seride
seridi
serie
series
serif
serik
serileri
serin
serinin
serisi
serisidir
serisinde
serisindeki
serisinden
serisine
serisini
serisinin
serit
seritli
seriye
seriyi
serkan
sermaye
sermayesi
serpil
serra
serseri
sert
sertab
sertifika
sertifikası
serum
server
servet
service
services
servis
servisi
servisleri
servlet
ses
sese
sesi
sesin
sesine
sesini
sesinin
sesiyle
sesle
seslendirdi
seslendirdigi
seslendiren
seslendirildi
seslendirilen
seslendirilmistir
seslendirme
seslendirmistir
sesler
sesleri
seslerini
sesli
session
sessions
sessiz
sessizce
sessizlik
set
seth
seti
setlerle
sets
setting
settlement
seul
seung
sev
sevan
sevcenko
sevda
sevdigi
sevdigim
sevdigini
sevdim
seven
seventeenth
seventh
sever
several
severus
sevgi
sevgili
sevgilim
sevgilisi
sevgisi
sevgisini
sevil
sevilen
sevilla
sevim
sevimli
sevinc
sevinci
seviye
seviyede
seviyedeki
seviyelerde
seviyeleri
seviyeli
seviyesi
seviyesinde
seviyesinden
seviyesine
seviyesini
seviyesinin
seviyeye
seviyor
seviyorum
sevk
sevket
sevki
sevmek
sevr
sex
sexual
sexy
sey
seyahat
seyahati
seyde
seyden
seydi
seydir
seye
seyfettin
seyfi
seyh
seyhan
seyhi
seyhulislam
seyi
seyin
seyir
seyirci
seyirciler
seyit
seyle
seyler
seylerden
seylere
seyleri
seylerin
seymour
seyrek
seytan
seytani
seytanın
seyyar
seyyid
sezai
sezar
sezen
sezer
sezgin
sezon
sezona
sezonda
sezondaki
sezondan
sezonlarında
sezonu
sezonudur
sezonun
sezonuna
sezonunda
sezonundaki
sezonundan
sezonunu
sezonunun
sf
sfahan
sg
sgal
sh
sha
shadow
shadows
shah
shak
shake
shakespeare
shakira
shall
shane
shang
shanghai
shannon
shape
share
shares
sharon
sharp
sharpe
shaun
shaw
shawn
she
sheamus
sheen
sheeran
sheet
sheffield
sheila
sheldon
shell
shelley
shepard
shepherd
sheridan
sherlock
sherman
shi
shield
shift
shin
shine
ship
ships
shirley
shock
shonen
shoot
shooting
shop
shore
short
shot
should
show
shows
shp
shropshire
shu
shueisha
si
sia
sibel
siber
sibirya
sic
sich
sicil
sicilya
sicim
siculus
sid
siddet
siddete
siddeti
siddetin
siddetle
siddetli
side
sidney
sie
siecle
siege
siegel
siegfried
siemens
siena
sierra
sifa
sifre
sifreleme
sifreli
sigara
sigma
sigmund
sign
signal
signs
sigorta
sigortası
sihir
sihirli
sii
siir
siirde
siiri
siirin
siirinde
siirini
siirinin
siirler
siirleri
siirlerinde
siirlerini
siirsel
siirt
sikago
sikayet
sike
sikke
siklet
sil
silah
silahla
silahlar
silahlarla
silahları
silahların
silahlarını
silahlı
silahsız
silahı
silahın
silahını
sile
silence
silene
silent
silezya
sili
silifke
silikon
silili
silindi
silindir
silindirik
silindirli
silinmelidir
silivri
silk
silme
silopi
silva
silvan
silvana
silver
silverman
silvia
silvio
sim
simav
simavi
simbad
simdi
simdiden
simdiki
simdilerde
simdilik
simdiye
simeon
simetri
simetrik
simge
simgeler
simgeleyen
simgesi
simler
simmons
simon
simone
simons
simple
simpson
simpsonlar
simpsons
sims
simsek
simulasyon
simulator
sin
sina
sinagog
sinagogu
sinan
sinanoglu
sinasi
sinatra
sincan
since
sinclair
sind
sinde
sinden
sindirim
sine
sinek
sinem
sinema
sinemada
sinemalar
sinemalarda
sinemanın
sineması
sinemasında
sinemasının
sinematik
sinematurk
sinemaya
sing
singapore
singapur
singer
singh
singing
single
singlerpt
singles
sini
sinin
sinir
sinop
sinus
sinyal
sinyali
sinyaller
sinyalleri
sipahi
siparis
siparisi
siper
sir
siran
siraz
sirin
sirius
sirk
sirke
sirkeci
sirket
sirkete
sirketi
sirketidir
sirketin
sirketinde
sirketinden
sirketine
sirketini
sirketinin
sirketiyle
sirketler
sirketlere
sirketleri
sirketlerin
sirketlerinden
sirketlerinin
sirkette
sirketten
sirkettir
sirvan
sis
sise
sisli
sisman
sistem
sistematik
sistemde
sistemdir
sisteme
sistemi
sistemidir
sistemik
sistemin
sisteminde
sistemindeki
sisteminden
sistemine
sistemini
sisteminin
sistemiyle
sistemle
sistemler
sistemlerde
sistemlere
sistemleri
sistemlerin
sistemlerinde
sistemlerine
sistemlerini
sistemlerinin
sistemli
sister
sisters
sit
site
sitede
siteler
siteleri
sitelerinde
sitenin
sites
sitesi
sitesinde
sitesindeki
sitesinden
sitesine
sitesinin
siteye
situation
sivas
sivasspor
sivastopol
siverek
sivil
sivillere
sivillerin
sivri
sivrice
sivrihisar
six
sixteenth
sixth
siyah
siyahi
siyasal
siyaset
siyasetci
siyasetcidir
siyasete
siyaseti
siyasetin
siyasette
siyasetten
siyasi
siyonist
siz
sizden
size
sizi
sizin
sizinle
sizler
sizlere
sizofreni
sizsiniz
sj
sk
skan
skandal
skandalı
skandinav
skandinavya
skating
skele
skelesi
skender
skenderiye
skenderun
ski
skilip
skin
skinner
skira
skoc
skocya
skoda
skodra
skor
skorer
skorla
skoru
skull
sky
skype
skyscraperpage
sl
slahiye
slalom
slam
slamcı
slami
slamiyet
slate
slater
slav
slave
slavery
slayer
sleep
slem
sler
sleri
sletim
sletme
sletmeleri
sletmesi
slogan
sloganlar
sloganı
slovak
slovakca
slovakya
sloven
slovence
slovenia
slovenya
slow
sm
smackdown
smail
small
smart
smash
smet
smi
smile
smini
smith
smithsonian
smoke
sms
sn
snake
snapdragon
snooker
snoop
snow
sns
snyder
so
soap
soc
soccer
soccerbase
soccerway
soci
social
socialist
sociedad
societe
societies
society
sociology
socket
soda
sodyum
sofia
sofor
soforu
soft
software
sofya
sogan
soguk
sogut
sogutlu
sogutma
sogutmalı
sohbet
sohret
sok
sokaga
sokagı
sokak
sokaklar
sokaklarda
sokaklarında
sokakta
soke
sokmak
sokrates
soktu
sol
sola
solanum
solar
solcu
sold
solda
soldan
soldier
soldiers
sole
solid
solist
solisti
solo
solomon
solu
solucan
soluk
solunda
solunum
solution
solutions
som
soma
somali
some
somebody
someone
somerset
something
sometimes
somurge
somut
son
sona
sonbahar
sonbaharda
sonbaharında
sonda
sondaj
soner
song
songs
sonia
sonic
sonlandırdı
sonları
sonlarına
sonlarında
sonlarından
sonlu
sonmez
sonny
sonra
sonradan
sonraki
sonraları
sonrası
sonrasına
sonrasında
sonrasındaki
sons
sonsuz
sonsuza
sonsuzluk
sonu
sonuc
sonuca
sonucla
sonuclanan
sonuclandı
sonuclanmıstır
sonuclanır
sonuclar
sonuclara
sonucları
sonucların
sonuclarına
sonuclarını
sonuclarının
sonucsuz
sonucta
sonucu
sonucudur
sonucun
sonucuna
sonucunda
sonucunu
sonuna
sonuncu
sonuncusu
sonunda
sonundaki
sonundan
sonunu
sony
soo
soon
sopa
sophia
sophie
soprano
sor
sorar
soray
sorbonne
sordu
sordugu
sordugunu
sorgu
sorgulama
sorgun
sormak
sorry
sort
soru
sorulan
sorular
sorulara
soruları
soruldugunda
sorumlu
sorumludur
sorumlulugu
sorumlulugunu
sorumluluk
sorumlulukları
sorumlusu
sorumluydu
sorun
sorunlar
sorunlara
sorunlardan
sorunlarla
sorunları
sorunların
sorunlarına
sorunlarını
sorunlarının
sorunlu
sorunsuz
sorunu
sorunun
sorununa
sorununu
sorununun
sorusturma
sorusturmanın
sorusturması
sorusu
sorusuna
soruya
sos
sosu
sosyal
sosyalist
sosyalizm
sosyalizmin
sosyo
sosyolog
sosyoloji
sosyolojik
sosyolojisi
sota
soul
souls
sound
sounds
soundtrack
source
sources
sous
south
southampton
southeast
southern
souza
sov
sovalye
sovalyeleri
soviet
sovu
sovun
sovunda
sovyet
sovyeti
sovyetler
sovyetlerin
soy
soya
soyadı
soyadını
soydan
soygun
soykırım
soykırımı
soyle
soyledi
soyledigi
[...]
