!
"
#
##a
##aa
##ab
##ac
##ad
##ae
##af
##ag
##ah
##ai
##aj
##ak
##al
##am
##an
##ao
##ap
##aq
##ar
##as
##at
##au
##av
##aw
##ax
##ay
##az
##b
##ba
##bb
##bc
##bd
##be
##bf
##bg
##bh
##bi
##bj
##bk
##bl
##bm
##bn
##bo
##bp
##bq
##br
##bs
##bt
##bu
##bv
##bw
##bx
##by
##bz
##c
##ca
##cb
##cc
##cd
##ce
##cf
##cg
##ch
##ci
##cj
##ck
##cl
##cm
##cn
##co
##cp
##cq
##cr
##cs
##ct
##cu
##cv
##cw
##cx
##cy
##cz
##d
##da
##db
##dc
##dd
##de
##df
##dg
##dh
##di
##dj
##dk
##dl
##dm
##dn
##do
##dp
##dq
##dr
##ds
##dt
##du
##dv
##dw
##dx
##dy
##dz
##e
##ea
##eb
##ec
##ed
##ee
##ef
##eg
##eh
##ei
##ej
##ek
##el
##em
##en
##eo
##ep
##eq
##er
##es
##et
##eu
##ev
##ew
##ex
##ey
##ez
##f
##fa
##fb
##fc
##fd
##fe
##ff
##fg
##fh
##fi
##fj
##fk
##fl
##fm
##fn
##fo
##fp
##fq
##fr
##fs
##ft
##fu
##fv
##fw
##fx
##fy
##fz
##g
##ga
##gb
##gc
##gd
##ge
##gf
##gg
##gh
##gi
##gj
##gk
##gl
##gm
##gn
##go
##gp
##gq
##gr
##gs
##gt
##gu
##gv
##gw
##gx
##gy
##gz
##h
##ha
##hb
##hc
##hd
##he
##hf
##hg
##hh
##hi
##hj
##hk
##hl
##hm
##hn
##ho
##hp
##hq
##hr
##hs
##ht
##hu
##hv
##hw
##hx
##hy
##hz
##i
##ia
##ib
##ic
##id
##ie
##if
##ig
##ih
##ii
##ij
##ik
##il
##im
##in
##io
##ip
##iq
##ir
##is
##it
##iu
##iv
##iw
##ix
##iy
##iz
##j
##ja
##jb
##jc
##jd
##je
##jf
##jg
##jh
##ji
##jj
##jk
##jl
##jm
##jn
##jo
##jp
##jq
##jr
##js
##jt
##ju
##jv
##jw
##jx
##jy
##jz
##k
##ka
##kb
##kc
##kd
##ke
##kf
##kg
##kh
##ki
##kj
##kk
##kl
##km
##kn
##ko
##kp
##kq
##kr
##ks
##kt
##ku
##kv
##kw
##kx
##ky
##kz
##l
##la
##lb
##lc
##ld
##le
##lf
##lg
##lh
##li
##lj
##lk
##ll
##lm
##ln
##lo
##lp
##lq
##lr
##ls
##lt
##lu
##lv
##lw
##lx
##ly
##lz
##m
##ma
##mb
##mc
##md
##me
##mf
##mg
##mh
##mi
##mj
##mk
##ml
##mm
##mn
##mo
##mp
##mq
##mr
##ms
##mt
##mu
##mv
##mw
##mx
##my
##mz
##n
##na
##nb
##nc
##nd
##ne
##nf
##ng
##nh
##ni
##nj
##nk
##nl
##nm
##nn
##no
##np
##nq
##nr
##ns
##nt
##nu
##nv
##nw
##nx
##ny
##nz
##o
##oa
##ob
##oc
##od
##oe
##of
##og
##oh
##oi
##oj
##ok
##ol
##om
##on
##oo
##op
##oq
##or
##os
##ot
##ou
##ov
##ow
##ox
##oy
##oz
##p
##pa
##pb
##pc
##pd
##pe
##pf
##pg
##ph
##pi
##pj
##pk
##pl
##pm
##pn
##po
##pp
##pq
##pr
##ps
##pt
##pu
##pv
##pw
##px
##py
##pz
##q
##qa
##qb
##qc
##qd
##qe
##qf
##qg
##qh
##qi
##qj
##qk
##ql
##qm
##qn
##qo
##qp
##qq
##qr
##qs
##qt
##qu
##qv
##qw
##qx
##qy
##qz
##r
##ra
##rb
##rc
##rd
##re
##rf
##rg
##rh
##ri
##rj
##rk
##rl
##rm
##rn
##ro
##rp
##rq
##rr
##rs
##rt
##ru
##rv
##rw
##rx
##ry
##rz
##s
##sa
##sb
##sc
##sd
##se
##sf
##sg
##sh
##si
##sj
##sk
##sl
##sm
##sn
##so
##sp
##sq
##sr
##ss
##st
##su
##sv
##sw
##sx
##sy
##sz
##t
##ta
##tb
##tc
##td
##te
##tf
##tg
##th
##ti
##tj
##tk
##tl
##tm
##tn
##to
##tp
##tq
##tr
##ts
##tt
##tu
##tv
##tw
##tx
##ty
##tz
##u
##ua
##ub
##uc
##ud
##ue
##uf
##ug
##uh
##ui
##uj
##uk
##ul
##um
##un
##uo
##up
##uq
##ur
##us
##ut
##uu
##uv
##uw
##ux
##uy
##uz
##v
##va
##vb
##vc
##vd
##ve
##vf
##vg
##vh
##vi
##vj
##vk
##vl
##vm
##vn
##vo
##vp
##vq
##vr
##vs
##vt
##vu
##vv
##vw
##vx
##vy
##vz
##w
##wa
##wb
##wc
##wd
##we
##wf
##wg
##wh
##wi
##wj
##wk
##wl
##wm
##wn
##wo
##wp
##wq
##wr
##ws
##wt
##wu
##wv
##ww
##wx
##wy
##wz
##x
##xa
##xb
##xc
##xd
##xe
##xf
##xg
##xh
##xi
##xj
##xk
##xl
##xm
##xn
##xo
##xp
##xq
##xr
##xs
##xt
##xu
##xv
##xw
##xx
##xy
##xz
##y
##ya
##yb
##yc
##yd
##ye
##yf
##yg
##yh
##yi
##yj
##yk
##yl
##ym
##yn
##yo
##yp
##yq
##yr
##ys
##yt
##yu
##yv
##yw
##yx
##yy
##yz
##z
##za
##zb
##zc
##zd
##ze
##zf
##zg
##zh
##zi
##zj
##zk
##zl
##zm
##zn
##zo
##zp
##zq
##zr
##zs
##zt
##zu
##zv
##zw
##zx
##zy
##zz
$
%
&
'
(
)
*
+
,
-
.
/
0
00
000
001
002
003
004
005
006
007
008
009
01
010
011
012
013
014
016
017
018
019
02
020
021
022
023
024
025
026
0268
027
028
029
03
030
031
032
033
034
035
036
037
038
039
04
040
041
042
043
044
045
046
047
048
049
05
050
051
052
053
054
055
056
057
058
059
06
060
061
062
063
064
065
066
067
068
069
07
070
071
072
073
074
075
076
078
079
08
080
081
082
083
084
085
086
087
088
089
09
090
092
093
094
095
096
097
098
099
0a
0b
0c
0d
0e
0f
0g
0h
0i
0j
0k
0l
0m
0n
0o
0p
0q
0r
0s
0t
0u
0v
0w
0x
0y
0z
1
10
100
1000
1001
101
102
103
104
105
106
107
108
109
11
110
111
112
1124
113
114
115
116
117
118
119
12
120
121
122
123
124
125
126
127
128
129
13
130
131
132
1325
133
134
1346
135
1356
136
137
138
139
14
140
141
142
143
144
145
146
1466
147
148
1480
149
15
150
1503
151
1510
1512
1513
1516
1517
1519
152
1520
1521
1522
1524
1525
1527
153
1532
1534
1535
1536
1537
1538
1539
154
1540
1541
1543
155
1550
1551
1552
1556
156
1561
1562
1564
157
1571
1572
1574
1577
1579
158
1580
1585
1586
1587
159
1591
1593
1594
1595
1599
16
160
1600
1601
1602
1603
1605
1606
1607
1608
1609
161
1610
1611
1612
1613
1614
1615
1616
1617
1618
1619
162
1620
1621
1622
1623
1624
1625
1626
1627
1628
1629
163
1630
1631
1632
1633
1634
1635
1636
1637
1638
1639
164
1640
1641
1642
1643
1644
1645
1648
1649
165
1650
1651
1652
1653
1655
1656
1657
1658
1659
166
1660
1661
1662
1664
1665
1666
1668
1669
167
1670
1671
1672
1673
1674
1676
1677
1678
1679
168
1680
1681
1682
1683
1684
1685
1688
1689
169
1691
1694
1695
17
170
171
1711
1712
1713
1717
1719
172
1727
173
1732
1737
1738
174
1740
1741
1743
1745
1746
174755630
1749
175
1750
1751
1753
1755
1756
1759
176
1762
1763
1764
1765
1767
1768
1769
177
1770
1771
1773
1774
1775
1777
1778
1779
178
1780
1781
1782
1783
1784
1785
1786
1787
1788
1789
179
1790
1791
1792
1793
1794
1795
1796
1797
1798
1799
18
180
1800
1801
1802
1803
1804
1805
1806
1807
1808
1809
181
1810
1811
1812
1813
1814
1815
1816
1817
1818
1819
182
1820
1821
1822
1823
1824
1825
1826
1827
1828
1829
183
1830
1831
1832
1833
1834
1835
1836
1837
1838
1839
184
1840
1841
1842
1843
1844
1845
1846
1847
1848
1849
185
1850
1851
1852
1853
1854
1855
1856
1857
1858
1859
186
1860
1861
1862
1863
1864
1865
1866
1867
1868
1869
187
1870
1871
1872
1873
1874
1875
1876
1877
1878
1879
188
1880
1881
1882
1883
1884
1885
1886
1887
1888
1889
189
1890
1891
1892
1893
1894
1895
1896
1897
1898
1899
19
190
1900
1901
1902
1903
1904
1905
1906
1907
1908
1909
191
1910
1911
1912
1913
1914
1915
1916
1917
1918
1919
192
1920
1921
1922
1923
1924
1925
1926
1927
1928
1929
193
1930
1931
1932
1933
1934
1935
1936
1937
1938
1939
194
1940
1941
1942
1943
1944
1945
1946
1947
1948
1949
195
1950
1951
1952
1953
1954
1955
1956
1957
1958
1959
196
1960
1961
1962
1963
1964
1965
1966
1967
1968
1969
197
1970
1971
1972
1973
1974
1975
1976
1977
1978
1979
198
1980
1981
1982
1983
1984
1985
1986
1987
1988
1989
199
1990
1991
1992
1993
1994
1995
1996
1997
1998
1999
1a
1b
1c
1d
1e
1f
1g
1h
1i
1j
1k
1l
1m
1n
1o
1p
1q
1r
1s
1t
1u
1v
1w
1x
1y
1z
2
20
200
2000
2001
2002
2003
2004
2005
2006
2007
2008
2009
201
2010
2011
2012
2013
2014
2015
2016
2017
2018
2019
202
2020
2021
2022
203
204
205
206
207
208
209
21
210
211
212
213
214
215
216
217
218
219
22
220
221
222
223
224
225
226
227
228
229
23
230
231
232
233
234
235
236
237
238
239
24
240
241
242
243
244
245
246
247
248
249
25
250
251
252
253
254
255
256
257
258
259
26
260
261
2618
262
263
264
265
266
267
268
269
27
270
271
272
273
274
275
276
277
278
279
28
280
281
282
283
284
286
287
288
289
29
290
2908
291
292
293
294
295
296
297
298
299
2a
2b
2c
2d
2e
2f
2g
2h
2i
2j
2k
2l
2m
2n
2o
2p
2q
2r
2s
2t
2u
2v
2w
2x
2y
2z
3
30
300
301
302
303
304
305
306
307
308
309
31
310
311
312
313
314
315
316
317
318
319
32
320
321
322
323
324
325
326
327
328
329
33
330
331
332
333
334
335
336
337
338
339
34
340
341
342
343
344
345
346
347
348
349
35
350
351
352
353
354
355
356
357
358
359
36
360
361
362
363
364
365
366
367
368
369
37
370
371
372
373
374
375
376
377
378
379
38
380
381
382
383
384
385
386
387
389
39
390
391
392
393
394
395
396
397
398
399
3a
3b
3c
3d
3e
3f
3g
3h
3i
3j
3k
3l
3m
3n
3o
3p
3q
3r
3s
3t
3u
3v
3w
3x
3y
3z
4
40
400
401
402
403
404
405
406
407
408
409
41
410
411
412
413
414
415
416
417
418
419
42
420
421
422
423
424
425
426
427
428
429
43
430
431
432
433
434
435
436
437
438
439
44
440
441
442
443
444
445
446
447
448
449
45
450
451
452
454
455
456
457
458
459
46
460
461
462
463
464
465
466
467
469
47
470
471
472
473
474
475
476
477
478
479
48
480
481
4818
482
484
485
486
487
488
489
49
490
492
493
494
495
496
497
498
499
4a
4b
4c
4d
4e
4f
4g
4h
4i
4j
4k
4l
4m
4n
4o
4p
4q
4r
4s
4t
4u
4v
4w
4x
4y
4z
5
50
500
5000
501
502
5026
503
504
505
506
507
508
509
51
510
511
512
513
514
515
516
517
518
519
52
520
521
5214
522
523
524
5243320
525
526
527
528
529
53
530
531
532
533
534
535
536
537
538
539
54
540
541
542
543
544
545
546
547
548
549
55
550
551
552
553
555
556
557
558
559
56
560
561
562
563
5633
564
565
566
567
568
569
57
570
571
572
573
574
575
576
577
578
579
58
580
581
582
583
584
585
586
587
588
589
59
590
591
592
593
594
595
596
597
598
599
5a
5b
5c
5d
5e
5f
5g
5h
5i
5j
5k
5l
5m
5n
5o
5p
5q
5r
5s
5t
5u
5v
5w
5x
5y
5z
6
60
600
602
603
604
605
606
607
608
609
61
610
611
612
613
614
615
616
617
618
619
62
620
621
622
623
624
625
626
627
628
629
63
630
631
632
633
634
635
636
637
638
639
64
640
641
642
643
644
645
646
647
648
649
65
650
651
652
654
655
656
657
658
66
660
662
663
664
665
666
667
668
669
67
670
671
672
673
674
675
676
677
678
679
68
680
681
682
683
684
685
686
687
688
689
69
690
691
692
693
694
695
696
697
698
699
6a
6b
6c
6d
6e
6f
6g
6h
6i
6j
6k
6l
6m
6n
6o
6p
6q
6r
6s
6t
6u
6v
6w
6x
6y
6z
7
70
700
701
702
704
705
706
707
708
709
71
710
711
712
713
714
715
716
717
718
719
72
720
721
722
723
724
725
726
727
729
73
730
731
732
733
734
735
736
737
738
739
74
740
741
742
743
744
745
746
747
748
749
7490
75
750
751
7517
752
753
754
755
756
757
758
759
76
760
761
762
763
764
765
766
767
768
77
770
771
772
773
774
775
776
777
778
779
78
780
781
782
783
784
7844
785
786
787
789
79
790
791
792
793
794
795
796
797
798
799
7a
7b
7c
7d
7e
7f
7g
7h
7i
7j
7k
7l
7m
7n
7o
7p
7q
7r
7s
7t
7u
7v
7w
7x
7y
7z
8
80
800
801
802
803
804
805
806
807
808
809
81
810
8109
811
812
813
814
815
816
817
818
819
82
820
822
823
824
825
826
827
828
829
83
830
8300
831
832
833
834
835
836
837
838
839
84
840
841
842
843
844
845
846
847
848
849
8493463425
85
850
851
852
853
854
855
856
857
858
859
86
860
861
862
863
864
865
866
867
868
869
87
870
871
872
873
874
875
876
877
878
87816
879
88
880
881
882
883
884
885
886
887
888
889
89
890
892
893
894
895
896
897
898
899
8a
8b
8c
8d
8e
8f
8g
8h
8i
8j
8k
8l
8m
8n
8o
8p
8q
8r
8s
8t
8u
8v
8w
8x
8y
8z
9
90
900
901
902
903
904
905
906
907
908
909
91
910
911
912
913
914
915
916
917
918
919
92
920
921
922
923
924
925
926
927
928
929
93
930
931
932
933
934
935
936
936060
937
938
939
94
940
941
942
943
944
945
946
947
948
95
950
951
952
953
954
956
957
958
959
96
961
962
963
964
965
966
967
968
969
97
970
971
972
973
974
975
976
978
979
98
980
981
982
983
984
985
986
987
988
989
99
990
991
993
994
995
996
997
9972
998
999
9a
9b
9c
9d
9e
9f
9g
9h
9i
9j
9k
9l
9m
9n
9o
9p
9q
9r
9s
9t
9u
9v
9w
9x
9y
9z
:
;
<
=
>
?
@
[
[CLS]
[MASK]
[PAD]
[SEP]
[UNK]
\
]
^
_
`
a
a0
a1
a2
a3
a4
a5
a6
a7
a8
a9
aa
aage
ab
abad
abadesa
abadia
abajo
abancay
abandono
abanico
abanto
abarca
abaroa
abasolo
abba
abbaba
abbey
abbott
abboud
abbreviata
abbronzato
abbrunzatu
abc
abdallah
abdel
abdoangusta
abdoaurantiaca
abdofuscata
abdolonginqua
abdomininigra
abdon
abdonigella
abdopallescens
abdul
abdullah
abeille
abeja
abel
abelardo
abelo
abensur
abenzur
aberdeen
aberrans
abierta
abierto
abigail
abisacc
abisiniya
abismo
ablepharus
abnego
abner
abnormis
aboard
abogado
abolicion
about
abraham
abrahan
abram
abrazado
abre
abregu
abril
abrio
absalom
absalon
abscondita
absidata
absoluta
absona
abstracta
abu
abuela
abuelo
abuna
abundans
aburridos
aburto
abuya
abya
ac
aca
academia
academico
academy
acadie
acantilado
acapulco
acari
acaro
acas
acaso
acceder
acceso
accessdate
acchila
accidentales
accion
acciones
accionistas
ace
acento
acepto
aceraglans
acerca
acercamiento
acero
aceroglans
aceromata
acesteia
acevedo
aceves
acha
achacachi
achachi
achachil
achachilanak
achachilanakana
achachilanakaru
achachilanakasan
achachilanakasax
achachilanakataki
achachilanakatpachwa
achachilanakax
achachilanakaxa
achachilanaxa
achachilinakan
achahui
achak
achaku
achat
achaya
achi
achichi
achikana
achikt
achille
achix
achka
achkiti
acho
achoma
acht
achu
achuma
achun
achunak
achunaka
achunakampi
achunakampiw
achunakana
achunakapa
achunakapax
achunakas
achunakaw
achunakawa
achunakax
achupa
achupaskati
achupax
achupaxa
achuq
achuqa
achuqalla
achuqallu
achuqawinaka
achuqi
achuqiri
achuraki
achurakispa
achutxa
achuxa
achuyapki
achuyapxaraki
achuyapxi
achuyiri
achuyirin
achxat
acisclo
ackroyd
aco
acobamba
acomayo
acompano
acos
acosta
acostumbraste
acqua
acre
acreditada
across
act
acta
action
actividad
actividades
activist
acto
actor
actores
actos
actriz
acts
actual
actuales
actualidad
actualizada
actualmente
acuaticos
acuerdo
aculeus
acuna
acurio
acustico
ad
ada
adalberto
adam
adama
adams
adan
adaptacion
addis
addition
addumannari
adecuado
adela
adelante
adelina
adelmo
ademas
ademir
adenauer
adentro
adiacente
adieu
adios
adioses
adiposa
adivina
adj
adjectif
adjective
adjetivo
adjetivos
adjitivu
adler
administradores
administration
administrativo
admiral
adn
adobe
adolescente
adolf
adolfo
adonais
adonde
adoptado
adoracion
adrede
adrian
adriana
adriano
adrien
adusta
adventure
adventures
adversary
advertise
advincula
ae
aedo
aemula
aenigmatica
aerea
aeroginosa
aeropuerto
aerosur
aethriobasis
af
afectos
affair
affaires
affairs
affiliate
affiliates
affinidorsalis
affinis
afgan
afganistan
afi
afines
afirmacion
afonso
afraid
africa
after
afternoon
ag
again
against
agallpampa
agapito
agatha
age
agencia
agente
ages
aggettivo
aggittivu
agnes
agonia
agora
agostini
agostino
agosto
agravio
agreda
agricultura
agripino
agro
agrupacion
agua
aguacero
aguas
aguascalientes
aguayo
aguaytiya
agudo
agueda
aguero
aguila
aguilar
aguilas
aguilera
aguinaga
aguirre
agurto
agustin
agustina
agustino
agustinos
agusto
ah
ahaan
ahead
ahi
ahmad
ahnentafel
ahora
ahorcado
ahuac
ahuanari
ahumada
ahustinu
ai
aida
aija
aimara
aine
air
aire
aires
airplane
aithogaster
aitor
aix
aj
aja
ajaccio
ajacopa
ajan
ajanuna
ajanupa
ajarankhu
ajay
ajedrez
ajeno
ajenos
aji
ajllintakix
ajllit
ajlliwinakan
ajusa
ak
aka
akama
akamakiw
akampi
akampix
akan
akana
akanak
akanaka
akanakaru
akanakawa
akanakax
akanakaxa
akani
akaniwa
akanx
akanxa
akapachanx
akar
akari
akasti
akat
akatakix
akatjama
akatjamat
akatjamata
akatuqit
akawa
akax
akaxa
akbar
akha
akham
akhama
akhampi
akhanaka
akhanakapaxa
akhanakaxa
akhaniwa
aki
akipuniw
akira
akirakiw
akirakiwa
akiri
akirinakawa
akisa
akiti
akiw
akiwa
akjam
akjamanak
akjamanakat
akjamanakaw
akjan
akjarux
akkiri
akkirinakarakiwa
akkirinakat
akkirix
akniri
aknirinakawa
akpach
aksa
aksar
aksaru
aksat
akten
aku
akwid
akx
akya
al
ala
alabama
aladino
alagoas
alain
alajjpach
alajjpachajj
alajjpachan
alamo
alampeta
alan
alanatakisa
alapxarakiritanawa
alarco
alarcon
alas
alasina
alasit
alaska
alava
alaxa
alaxanki
alaxanx
alaxpach
alaxpacha
alaxpachankiri
alaxpachat
alaxpachnama
alay
alaya
alayarux
alayat
alayo
alayza
alba
albana
albania
albano
albany
albarracin
albert
alberti
alberto
albino
albistrigata
albites
albo
alborada
albornoz
albrecht
albujar
album
albumnaka
alcala
alcalde
alcaldia
alcancia
alcantara
alcatraz
alcayaga
alcedo
alcibiades
alcide
alcides
alcott
alcover
aldama
aldave
aldeano
aldeas
alderete
aldo
aldrin
ale
alec
aledo
alegoria
alegre
alegria
aleixandre
alejandra
alejandria
alejandrino
alejandro
alejo
alejos
aleksandr
alem
aleman
alemana
alemanes
alemania
alembert
alen
aleph
alessandria
alessandro
alessio
aleta
alex
alexander
alexandra
alexandre
alexis
alfa
alfabetico
alfabeto
alfaguar
alfaguara
alfarero
alfaro
alferez
alfio
alfold
alfonsin
alfonsina
alfonso
alfred
alfredo
algarrobal
algo
algodon
alguien
algun
alguna
algunas
algunos
alhir
alhirya
ali
aliaga
alianza
alias
alibi
alicante
alice
alicia
aliento
alighieri
aliman
alimana
alimanana
alimanaxa
alimanya
alimento
alimentos
alin
alina
alinakan
alinakana
alinakas
alinakaxa
aline
alipazaga
alipio
aliq
aliqa
aliqak
aliqakiw
aliqat
aliqt
aliri
alis
alive
aliwa
alix
alizee
aljanatak
aljanataki
aljantak
aljapxi
aljasirinakax
all
alla
allahabad
allalla
allallax
allamp
allampa
allan
allax
allegret
allemand
allen
allende
alli
alliluyeva
allin
allison
allmusic
allows
allpachu
allpachunakasti
allpachusti
allpahuayo
allpapampa
allpaqana
allpi
allpix
allqa
allqamari
allqamarix
allqamayu
allqaminka
allqancht
allsuna
allta
allu
allwoodi
allxtayanaka
alma
almanza
almanzor
almas
almazan
almeida
almenara
almirante
almost
almudena
alomia
alondra
alone
alonso
alpaca
alpaga
alpes
alpha
alphabet
alphawa
alphonse
alphonso
alquimista
alrededor
als
alsace
alsina
also
alt
alta
altafini
altagracia
altamirano
altar
alte
altepetl
alternativa
alternativo
altiplano
altivo
alto
altona
altos
altu
altus
altusan
alucinante
alva
alvan
alvarado
alvarez
alvaro
alveolo
alverca
alves
alvino
alvites
alvizuri
alw
alwana
alwaw
always
alyxiae
alza
alzamora
am
ama
amaban
amable
amada
amadeo
amadeus
amado
amador
amalia
amamp
amampi
aman
amanchana
amanchawinaka
amanchiri
amanchirinakaniwa
amanchiriniwa
amanchiriwa
amancht
amancio
amanda
amanecer
amaniwa
amantani
amante
amantes
amao
amapa
amapawa
amar
amara
amaral
amarambalensis
amarante
amare
amargo
amargura
amarilis
amarillento
amarillo
amaro
amaru
amarujawira
amashca
amasuna
amasunu
amat
amaury
amauta
amaw
amawa
amawt
amaya
amazon
amazona
amazonas
amazonense
amazonia
amazonica
amazonicas
ambassadors
amberley
ambientado
ambiental
ambiente
ambigua
ambito
ambo
ambos
ambrogio
ambrose
ambrosio
ame
amedeo
amelia
amelie
amelita
amen
america
americalee
american
americana
americanas
americano
americanos
americas
americo
amerigo
amerika
amerikanischen
amerindias
amezquita
amhariku
ami
amic
amicarelli
amiens
amigas
amigo
amigos
amilcar
aminaqa
amintore
amistad
amka
amnistia
amo
amoenus
amon
among
amor
amores
amoretti
amorin
amornchat
amorosa
amotape
amour
amoureux
amours
amp
ampachanatakikiti
ampar
ampara
amparamp
amparampi
amparapamp
amparapasti
amparar
amparo
ampata
ampatu
ampi
ampin
ampinaka
ampinakampi
ampinakana
ampinakaw
ampis
ampisa
ampit
ampla
amplexa
amplexiseta
ampliada
amplio
ampu
ampuero
amstan
amstanki
amsterdam
amsuri
amt
amta
amtachinu
amtanakampi
amtapxatayna
amtawi
amtawinak
amtawinaka
amtawinakamp
amtawinakapax
amtawinakaxa
amtax
amtonio
amtt
amunategui
amusco
amuy
amuyapjje
amuyapxi
amuyaraki
amuyasi
amuyasipxana
amuyaskarakiti
amuyatax
amuyi
amuykipt
amuyt
amuyu
amuyukwinaka
amuyump
amuyumpi
amuyumpiw
amuyuna
amuyunak
amuyunakapax
amuyunakax
amuyunarakiw
amuyuniwa
amuyuparjam
amuyupawa
amuyupxanapuniw
amuyusti
amxarux
amy
an
ana
anacario
anade
anagrafe
anak
anaka
anakakiwa
anakampi
anakanx
anakapaxa
anakarakiwa
anakarux
anakaw
anakawa
anakax
anakaxa
anakipxiri
anakithiri
anakithirii
anakkiw
anakwa
anal
anales
analisis
analiticas
analogo
analysis
anama
anana
ananaka
ananea
anani
ananias
ananiwa
ananiya
anapataki
anapia
anara
anarquia
anarquismo
anaru
anas
anasco
anaskunakaw
anaskunakax
anaskux
anastasia
anat
anata
anatak
anatakaman
anataki
anatakiw
anatakiwa
anatakix
anatakixa
anatan
anatana
anatanari
anatanaxa
anatanaxari
anatidae
anatiri
anatolio
anatomia
anatuya
anatxayas
anaw
anawa
anax
anaxa
anaya
ancash
ancashina
anch
ancha
anchak
anchanta
anchar
anchayan
anchila
anchitrichota
ancho
anchunqa
anchuqaya
anciano
ancient
anco
ancon
ancud
and
anda
andahuaylas
andajes
andalgala
andalucia
andalusiya
andaluz
andamanensis
andamarca
andar
andean
anders
anderson
andersson
andes
andia
andina
andinizacion
andino
andinos
andoas
andorra
andrada
andrade
andre
andrea
andreas
andrej
andres
andrew
andris
andromeda
andurra
andy
ane
anecdotario
aneuvittata
anez
anfitrion
anfracta
angamos
angaraes
angel
angela
angeles
angelica
angelina
angelitos
angelo
angelou
angels
angelus
anger
anggun
angol
angola
anguia
angula
angulo
angustia
angusticostata
angustifasciata
angustifinis
anhalt
anhelo
ani
anibal
aniceto
anillo
animacion
animal
animales
animals
animanaka
animas
anime
aninapatakiw
anita
aniversario
aniw
aniwa
ank
ankalli
ankara
ankashu
ankata
ankawasi
ankha
ankhata
ankhax
ankiriw
ann
anna
anne
annee
anni
annie
anno
announced
ano
anoche
anochecer
anomala
anonimo
anormal
anos
another
anqa
anqar
anqara
anqaru
anqasmarka
anqax
anqu
anra
ans
ansa
ansas
anselmo
ansichten
ansjta
ansprache
ant
anta
antabamba
antakix
antamarka
antapampa
antaparqu
antarapa
antaray
antartida
antartika
antashuay
antauta
antawa
antawaylla
antawayllaca
antayhua
ante
antecedente
antelo
antenanakax
antenas
antenogenes
antenor
anteparra
antequera
anterior
antero
antes
antezana
anthology
anthon
anthony
anthracina
anti
anticona
antigone
antigua
antiguas
antiguo
antiguos
antioquia
antiriwa
antis
antisa
antisas
antisins
antiukiya
antiwa
anto
antoine
antolin
antologia
anton
antoni
antonia
antonieta
antonino
antonio
antonioni
antoniu
antoon
antropologia
antun
antunes
antunez
antuniu
antwerpen
anu
anuladas
anunciacion
anuthaya
anwapax
anwar
anx
any
anyaipoma
anys
anzoategui
ao
aonde
ap
apa
apac
apaninasa
apanipxi
apapxana
apapxi
aparapipinatayna
aparece
aparecida
aparecido
aparicio
aparicion
aparte
apartheid
apasa
apasi
apasinapaw
apasionada
apasipkakpachati
apasiraki
apata
apawa
apax
apaxa
apaxco
apaza
ape
apenas
apep
apertura
aphin
aphini
aphrika
aphrikapi
apicalis
apicofuscans
apiconigroscutella
apilla
apiri
apita
apjiri
apki
apkiti
aplaw
aplicacion
aplicada
apnaqan
apnaqana
apnaqanasa
apnaqanatakiwa
apnaqapxana
apnaqapxi
apnaqasi
apnaqata
apnaqerinakaru
apocrifas
apolinar
apolinario
apollo
apolo
apolonio
aponte
apostol
apostoles
apostolico
apostolon
apoteosis
app
appointment
apps
apra
aprende
aprender
aprendizaje
apres
aprestad
april
aprismo
aprista
apropiado
aprox
aproximacion
apst
apsun
apsuna
apsunataki
apsuri
apsuta
apt
aptas
apthapi
apthapin
apthapina
apthapipxi
apthapita
apthapxana
apu
apuesta
apumayta
apunqu
apunte
apuntes
apure
apurimac
apurimaq
apustul
apxakirakiwa
apxana
apxapxi
apxaraki
apxarakina
apxi
apxirikiti
apxiritana
apxiritayna
apxiwa
aq
aqa
aqanaka
aqanakaru
aqawa
aqcha
aqhuyani
aqi
aqirinakxa
aqirinkaru
aqirixa
aqiskasina
aqrakiya
aqsu
aqu
aquchaka
aquel
aquella
aquellas
aquellos
aqui
aquijes
aquila
aquiles
aquilino
aquilonis
aquino
aquise
aquitaine
aqulla
aqumarka
aqumayu
aqupampa
aqupampilla
aqupiya
aquqru
aqus
aqustampu
aquyra
aqway
ar
ara
arab
arabe
arabes
arabia
arabiya
arabya
aracayo
aracne
arado
aragon
araignee
arakaki
araki
arakina
arakinani
arakiw
arakiwa
aramango
arambula
aramburu
aramiyu
arampampa
aran
arana
aranakax
arancia
aranciu
aranda
araneo
arango
arani
aranibar
arankay
arantes
aranwa
aranway
arany
araoz
arapa
arara
ararakispa
aras
arauca
arauco
araujo
arawa
araway
arawayxarakitayna
arawi
arawikuna
araxa
arbelaez
arbenz
arbildo
arbol
arboles
arbulu
arc
arca
arcadia
arcadio
arcangel
arcas
arce
arcenio
arch
archaeological
archibald
archipielago
archive
archives
archivo
archivos
arcilla
arciniega
arco
arcos
arde
ardenne
ardiente
ardiles
ardoin
are
area
arecae
arellano
arena
arenal
arenales
arenas
areolata
arequipa
arequipena
arevalo
arezzo
argelia
argentatus
argentina
argentinisima
argentino
argote
arguedas
arhintina
arhui
ari
arias
arica
aricchia
ariel
arika
ariola
ariqipa
ariqipajisk
arisanica
arista
arizaga
arizola
arizona
arjhatatanapaw
arjona
arkan
arkanhil
arkansas
arkapxiritayna
arkhi
arki
arkimpiwa
arknaqasiri
arkump
arkunakamp
arles
arlington
arma
armada
armadans
armadas
armaguedon
armand
armando
armario
armas
armendariz
armenia
armeno
armenteros
armenya
armillata
arminda
armino
arminya
armonioso
arms
armstrong
armt
arnal
arnaldo
arnold
arnulfo
arocha
arojj
aron
arones
arpa
arpaca
arqque
arqueologia
arqueologica
arqueologico
arquitectura
arquitektu
arrabal
arrascue
arraya
arredondo
arriaga
arriba
arriola
arrival
arrobas
arroyo
arroyos
ars
arsenio
arst
arsuna
arsunani
arsur
arsuraki
arsuri
arsusina
arsuta
arsutapunirakiwa
arsuyana
art
artagnan
artcyclopedia
arte
arteaga
artehistoria
artemio
artes
arteta
arthur
article
articles
articolo
articulo
articulos
articulu
artidoro
artigas
artilleria
artist
artista
artistas
artistica
arts
artur
arturo
aru
aruchiri
aruist
aruma
arumana
arumanaka
arumanakaw
arumanthi
arumax
arumaxa
arumirjat
arumita
arump
arumpi
arumt
arun
aruna
arunacapa
arunak
arunaka
arunakamp
arunakampi
arunakanx
arunakas
arunakaw
arunakax
arunkirinakax
arunta
arunx
arunxa
arupa
arupawa
arupax
arupi
aruptayiri
arur
arusa
arusata
arusiminee
aruskasiwins
aruskipanatak
aruskipapxi
aruskipiri
aruskipt
arust
arusti
arut
aruta
arutak
aruw
aruwa
arux
aruxa
arw
arwa
arwapax
arwaxa
arxatiri
arxatt
arxayatayna
arxayt
arxintina
arxintinaxa
arzobispo
arzuuwispu
arzuwispu
arı
as
asa
asalto
asamblea
asani
asankaru
asanqaru
asar
asaw
asawa
asax
asaxa
asbaje
ascarza
ascencio
ascension
ascensiun
ascensyon
ascensyun
ascita
ascope
asencios
asesinado
asesinato
asesino
asesores
asfixia
ashes
ashgabat
asi
asia
asillu
asilo
asimov
asin
asina
asinani
asinataki
asinatakiwa
asinatakix
asinawa
asinaxa
asinitayna
asino
asintakiw
asinu
asipxana
asipxanani
asipxaraki
asipxaspa
asipxi
asipxiritayna
asipxiwa
asir
asiraki
asirakitayna
asirbayjan
asiri
asirinakaru
asiriwa
asirix
asiru
asis
asisa
asit
asita
asitawa
asitayna
asitaynax
asiwa
asiwayatayna
asiwayi
ask
aski
askikiniwa
askikiti
askinapatakix
askinjam
askinjama
askinjamaw
askipata
askipiniwa
askipunitaynawa
askipuniw
askipuniwa
askiw
askiwa
askpach
askpachapinix
aslla
asno
asnu
asociacion
asombrosa
asp
aspajo
aspecto
aspectos
aspiazu
aspilcueta
aspisapa
aspx
asqupi
assamensis
assassin
assassination
assis
assisi
assita
associate
association
assort
astaire
astengo
astete
astigarraga
astillero
astley
astor
astro
astronomia
asturias
asu
asukut
asume
asuncion
asunsyun
asunta
asunto
asuntos
aswan
asxarkay
asya
asyana
asyapi
at
ata
atachagua
atahualpa
ataki
atakiwa
atalaya
atampi
atana
atanak
atanaka
atanapawa
atani
atapa
atapki
atapunitaynawa
atapuniwa
atapxarakiwa
atapxiwa
ataqiru
ataraki
atarakinwa
atarakiw
atarakiwa
atardecer
ataru
atasa
atat
atata
atatayna
atataynawa
atauchi
ataulluco
atauqui
atavillos
ataw
atawa
atawallpa
atawra
atax
ataxa
atayna
ataynax
atb
atc
ate
atelico
atenas
ateneo
aterrima
athapi
athenaise
athina
atico
atiku
atinina
atininaptayiri
atipjasina
atipt
atipxi
atiquipa
atirikiti
atjam
atk
atlanta
atlantic
atlantico
atlantida
atlantiku
atlantique
atlas
atoccza
atoche
atomico
atomismo
atomo
atpach
atra
atrabifasciata
atras
atributos
atrichus
atrifacies
atrifemur
atriliniellata
atrisetosa
attack
attacks
attaque
attila
attlee
atu
atuan
atun
atunakax
atur
atux
atxamakixiwa
atypica
au
aube
aubert
auberto
aubry
auburn
audiencia
audio
audivis
audrey
auf
aufsatze
auge
augsburg
august
augusta
auguste
augusto
augustus
augusty
aumentada
aun
aunque
aunt
aura
aurantiaca
aurantiventer
aurea
aurelia
aureliano
aurelio
auricchia
auris
auropa
aurora
aus
ausencia
ausente
austen
austerlitz
austin
austral
australia
australiana
australla
austria
austriya
aute
autentico
author
authoritative
autipacha
auto
autobiografia
autobiografica
autobiografico
autobiography
autobus
autogobierno
automaticos
automovil
automovilismo
autonoma
autor
autora
autores
autoria
autoridad
autoridades
autorretrato
autour
autry
auvergne
aux
auxiliadora
auxiliadura
auxiliares
auxiliary
av
ava
avalos
avancemos
avanza
avanzando
avaro
ave
avelina
avelino
avellaneda
avendano
avenger
aventura
aventuras
aventurera
aventureros
aves
aviador
avila
aviles
avion
avisos
aviv
avogadro
avon
avray
aw
awa
awajun
awana
awankay
awapxiritayna
awaq
award
awasi
awasir
awatina
awatirinakax
away
awayapxi
awayapxtana
awaycha
awayi
awayu
awi
awich
awicha
awichanakax
awila
awin
awina
awinak
awinaka
awinakamp
awinakapax
awinakas
awinakasampi
awinakast
awinakaw
awinakax
awinakaxa
awinxa
awipaxa
awirakiwa
awisajj
awisanakaxa
awit
awiwa
awix
awixa
awjanakan
awk
awki
awkikura
awkinakast
awkinakasti
awkir
awkisa
awkist
awkixa
awn
awna
awnanak
awnanaka
awnanakapax
awnantan
awnantapxi
awnanti
awnapa
awnapax
awnapaxa
awnapxi
awni
awnwa
awqallama
awqara
awqayaku
awra
awrampi
awrani
awrawa
awti
awtipachax
awtjat
awtu
awtuna
awtuq
awtut
awullawip
awya
awyayala
awyunaxa
ax
axa
axanthinus
axla
axltas
axs
axsarana
axura
axuxa
axwawinak
ay
ayabaca
ayacucho
ayala
ayamra
ayan
ayana
ayanani
ayanatak
ayanataki
ayanatakiw
ayanawa
ayane
ayapata
ayapxana
ayapxi
ayapxiritana
ayaquchu
ayaraki
ayasa
ayasi
ayasipxi
ayasiwayi
ayat
ayata
ayatana
ayatarakiwa
ayatas
ayatawa
ayatayna
ayaviri
ayawaka
ayawanku
ayawi
ayawiri
ayawqa
ayaya
aycha
aychanak
aychapa
aychapaxa
aychapxa
aychas
aydee
ayer
ayerbe
ayerve
ayesta
ayha
ayi
ayir
ayiri
ayllon
ayllu
ayllumpi
ayllun
aylluna
ayllunakanx
ayllunakast
ayllunakax
ayllunkirinakax
ayllunx
ayllutx
aylluw
ayllux
ayma
aymar
aymara
aymaran
aymaranaka
aymaranakan
aymaranakana
aymaranakatakix
aymaranakax
aymaranakaxa
aymaras
aymarat
aymarax
ayna
aynach
aynacha
aynacharusti
aynacharux
aynacht
aynax
aynayanque
ayni
aynjasipxi
ayo
ayon
ayquipa
ayra
ayrani
ayras
ayriwanka
ayriway
ayrton
ayru
ayt
ayti
ayu
ayuda
ayui
ayulo
ayuntamiento
ayuque
ayuyani
aywiri
ayı
az
azabache
azana
azangaro
azar
azcona
azcueta
azeri
aziz
aznaran
aznavour
azparrent
azparret
aztec
azucar
azul
azules
azur
azurduy
azzolu
azzurro
azərbaycan
b
b0
b1
b2
b3
b4
b5
b6
b7
b8
b9
ba
baahinta
baba
babar
babe
babel
babes
babilonia
baby
babylon
baca
bacall
bacalla
bach
bachata
bacigalupi
back
backed
baco
bacon
bacteria
bacteriana
bacterias
bactrocera
bad
baden
baella
baggio
baghdad
bagua
baha
bahamas
bahasa
bahia
bahrayn
baila
bailar
bailarina
bailarinas
baile
bailen
bailes
baines
baja
bajo
bajos
baker
bakeri
baku
bal
balada
baladas
balance
balart
balbuena
balcazar
balcones
balda
baldemar
baldeon
baldera
baldi
baldio
baldivieso
baldomero
baldwin
ball
ballena
ballesteros
ballet
ballivian
ballo
ballon
balsa
balsas
balta
baltar
baltasar
baltazar
baltimore
baluarte
balvin
balzac
bambamarca
bambino
bambu
ban
banco
bancroftii
band
banda
bandar
bandaranaike
bandera
banderas
bandida
bandidos
bandoneon
bandurria
bang
bangguo
bangkok
banglades
banista
banja
banks
banladish
banneri
bano
banomyong
banos
bao
baptista
baptiste
baquerizo
baquero
baquijano
bar
barabbas
barack
barato
barba
barbados
barbara
barbaras
barbaros
barbero
barbosa
barboza
barbra
barbuda
barca
barcelona
barcha
barco
bardales
bardalez
bardo
bardot
bareto
bari
barinas
bariona
bark
barnes
baron
barquisimeto
barra
barragan
barral
barranca
barranco
barranquilla
barranquita
barrantes
barre
barreda
barrendero
barrenechea
barrera
barreto
barretto
barrientos
barrier
barriga
barringtoniae
barrio
barrionuevo
barrios
barro
barroco
barron
barros
barroso
barrow
barry
barth
barthelemy
bartolina
bartolo
bartolome
bartra
bartulumi
basada
basado
basadre
base
based
basel
bases
basho
basicas
basicos
basile
basilia
basilica
basilio
baskin
basoalto
basque
basse
basshunter
basta
bastar
basten
bastidas
bastos
batalla
batallas
batan
bateau
batemani
batistuta
batman
baton
bator
batres
battista
battle
batvinik
bau
baudelaire
bautismo
bautista
bawtista
bay
bayamo
bayern
bayou
bayqus
bazan
bb
bbc
bc
bd
be
beach
bear
bearbeiter
beast
beat
beatles
beatrice
beatriz
beau
beaumont
beautiful
beauvoir
bebe
beber
bebimos
bebo
because
becerra
beckenbauer
beckerae
becket
beckett
becquer
bed
bedoya
bee
beecher
been
beethoven
beg
begawan
begazo
beginning
behind
bei
beijing
beim
being
bejar
bejarano
beker
bel
bela
belarus
belaunde
belem
belen
beleta
belette
beleza
belgrado
belico
belinda
belisario
belito
bell
bella
bellas
bellavista
belle
bellelli
bellevue
belleza
belli
bellido
bello
belo
beloved
beltran
beltroy
belushi
belzu
ben
benancio
benavente
benavides
benazir
bence
bend
bendezu
benedetti
benedetto
benedicto
benedictus
beni
benicio
benigno
benin
benincasa
benita
benites
benitez
benito
benjamin
benny
bentley
beny
beramendi
beraun
bereber
berenice
berger
bergman
bergoglio
bergomi
berkeley
berlin
berling
berman
bermudez
bernabe
bernadette
bernal
bernales
bernard
bernarda
bernardes
bernardez
bernardino
bernardo
bernedo
bernice
berrios
berro
berrospi
berry
bersuit
berta
bertha
berthold
bertolt
bertonio
bertram
bertrand
besancon
beseech
beso
bess
bessie
best
bestia
betancourt
beth
bethania
beto
betsabe
bette
betty
between
bewegten
beyle
beyond
bezzi
bezzuoli
bf
bg
bh
bhutto
bi
bianco
biancu
biao
biarcuata
biavo
bibiana
bible
biblia
biblian
bibliat
bibliaxa
biblico
bibliografia
bibliografica
bibliografico
bibliographisches
bibliography
biblioteca
bibliotecas
bicentenario
bichos
bicicleta
biddottula
bidentata
bieber
bielorrusia
bien
bienal
bienes
bienvenido
bifasciata
biffi
bifurcan
big
biggar
bigote
biguttata
biguttula
bilarus
bilbao
bilingue
bilinguismo
bilkiya
bill
billinghurst
billy
bimaculata
bin
bing
bingali
binidiktu
binin
binitu
binoyi
bio
biobio
biografia
biografias
biografiasyvidas
biografica
biografico
biography
biolib
biologia
biologica
biosstars
bipustulata
bird
birds
birmingham
birotteau
bis
bismarck
bistrita
bisutti
bitacora
bitcoin
bivittata
bizarro
bj
bjorn
bk
bl
black
blades
blair
blaise
blanc
blanca
blancas
blanche
blanco
blanda
blanes
blank
blas
blasco
blasko
blason
blasones
bleed
bleu
blier
blind
blistene
blockbuster
blog
blogging
blogs
blogspot
blokhin
blonde
blondie
blood
bloom
bloomington
bloque
blow
blowing
bloy
blu
blue
bluebeard
blues
bluff
blume
blythe
bm
bmg
bn
bo
board
boat
bob
bobby
bobo
boca
bocanegra
bocas
bocelli
boda
bodas
bodegon
body
bogarin
bogart
bogorensis
bogota
bohemia
bohn
bohr
bois
boise
boisrond
bojaxhiu
bola
bolanos
bolchevismo
bolero
boleros
boletin
bolivar
bolivia
bolivian
boliviana
bolivianas
boliviano
bolivianos
bolivio
bolivision
bologna
bolognesi
bolonia
bolsa
bolsonaro
boluarte
bom
bombay
bomber
bombero
bombon
bompiani
bon
bonaparte
bondy
bone
bonet
bongara
bongo
bonifacia
bonifacio
bonilla
boniperti
bonita
bonito
bonn
bonus
book
booket
books
boom
boomerang
bootleg
boots
boquete
borassus
borba
borda
borde
bordeaux
bordo
borg
borges
borgo
borgono
boris
borisovna
borja
bornemisza
borsalino
borsani
bosch
boschi
bosco
bose
bosmediano
bosna
bosnia
bosque
bosquejo
bosques
bossa
boston
botanica
botas
botella
botev
both
botsuana
botswana
bottetano
boulevard
boulogne
boumediene
bounty
bouret
bourg
bourgeois
bourgogne
bousono
bouza
boveda
bow
bowen
box
boy
boyd
boys
boza
bp
bpj
bq
br
bracamonte
bracho
brachus
brachycera
bragagnini
brahez
brahms
branco
brand
brandenburg
brando
branquias
brant
bras
brasil
brasileira
brasileiro
brasilia
brasiliera
braulio
brava
brave
bravo
bravos
brazil
brazos
brea
bread
breakfast
breaks
breast
brebis
brecht
breda
breinigerberg
bremen
bremerhaven
brena
brenno
brent
brest
bretagne
bretana
breton
breve
brevemente
breves
breviaculeus
brevistriata
brezhnev
brezhneva
brian
briceno
bride
bridge
bridges
bridgetown
bridon
brief
briefe
brigadas
bright
brigitte
brignole
brill
brillante
briones
brisas
brisceno
britana
britanica
britanico
britannica
britischen
british
brito
broadcast
broadway
brodie
broken
broncano
bronce
bronze
brookings
bros
brother
brothers
brought
brown
bruce
bruguera
brujo
brujula
brulees
bruniy
brunnea
brunneola
bruno
bruselas
brussel
bruxelles
bryce
bryoniae
bs
bso
bt
bu
buarque
bucarest
buccaneer
buch
buchelli
buck
bucuresti
budapest
buddleja
buen
buena
buenas
buenaventura
buendia
bueno
buenos
buffa
buffalo
bufon
buho
buinensis
bujanda
bukuresti
buldibuyo
buleje
bulerias
bulganin
bulgaria
bulgariya
bulkariya
bull
bullata
bullets
bullifera
bullock
bullon
buloloensis
bumachar
bumgarner
bundesliga
bunge
bunny
buonarroti
buque
buren
burga
burger
burgos
burgues
burgus
burinkin
burke
burla
burlador
burlington
burning
burocrata
burro
burt
burton
burundi
busca
buscador
buscala
buscan
buscando
buscar
busch
bush
business
businesses
busna
busqueda
busquets
bustamante
bustillo
bustinza
bustios
busto
but
butan
butanika
butler
butros
butswana
butter
butterfly
bv
bw
bx
by
bybys
byrne
byron
bystander
bz
c
c0
c1
c2
c3
c4
c5
c6
c7
c8
c9
ca
caballe
caballero
caballeros
caballito
caballo
caballococha
caballos
cabana
cabanillas
cabaut
cabello
cabero
cabeza
cabezas
cabin
cable
cabo
cabral
cabralidades
cabrejos
cabrera
cabrero
caceda
caceres
cachay
cachicadan
cachique
cachivaches
cacho
cacique
caco
cactus
cada
cadena
cadenas
cadernos
cadillo
cadiz
caen
caer
caetano
cafe
caffe
cafrune
cage
cagney
cahuacho
cahuana
caida
cain
caipo
caitro
caja
cajabamba
cajahuaringa
cajamarca
cajas
cajatambo
cal
calagua
calais
calama
calamin
calana
calavera
calca
calcio
calculo
caldas
caldera
calderon
calderoniano
caleb
calendario
calendariona
calera
calero
caleta
cali
caliente
california
caligrafia
caligula
calisaya
calixto
calizaya
call
calla
callaghan
callamarca
callao
callar
callas
callata
callayuc
calle
called
calleria
calles
callupe
calm
calma
calnek
calor
calpe
calpulli
calpullis
calvario
calvin
calvo
calwaryu
calzada
cama
camac
camacho
camaguey
camana
camano
camara
camaras
camarena
camarera
camarero
camargo
cambia
cambiado
cambio
cambios
cambridge
came
cameo
cameroon
camerun
camilla
camille
camilo
caminaca
caminando
caminar
camino
caminos
caminu
cammino
camoes
camp
campaign
campana
campanas
campanilla
campeche
campeon
campeonato
campesina
campesino
campesinos
campina
campinas
campins
campo
campodonico
camporredondo
campos
campoverde
campoy
camus
can
cana
canaan
canada
canaima
canal
canales
canalla
canaria
canas
canaveral
cancachu
cancan
cancer
cancho
canchumani
cancilleria
cancion
cancionero
canciones
cancun
candamo
candarave
candia
candida
candidato
candido
candilarya
candy
cane
canel
canela
canelo
canete
cangallo
cangrejera
cangri
cani
caniggia
canillita
cannery
cannizzaro
cano
canoas
canon
canones
canqui
cansado
canseco
canta
cantado
cantal
cantan
cantando
cantante
cantar
cantare
cantares
cantari
cantautor
canteen
cantico
cantidad
cantinflas
canto
cantones
cantor
cantora
cantoral
cantos
cantudo
canzoniere
cao
cap
capa
capac
capak
capaya
capcha
capelletti
capello
capiddu
capilla
capillas
capitaine
capital
capitalapax
capitalismo
capitan
capitanes
capitol
capitulo
capote
cappillo
capricho
captain
capucho
cara
carabaya
carabayllo
caracarai
caracas
carachi
caracol
caracter
carandini
caras
caravaggio
caravan
caravans
caraveli
caraz
carbajal
carbajo
carbon
carboneda
carbonera
carcamo
carcel
carcelen
card
cardenal
cardenas
cardich
cardo
cardoso
cardozo
cards
care
carey
cargo
carhuallanqui
carhuapoma
carhuaz
cari
caribbean
caribe
caridad
carino
carita
caritas
caritatis
carl
carla
carles
carlo
carlomagno
carlos
carlota
carlsberg
carmela
carmelino
carmelo
carmen
carmin
carmona
carnaval
carne
carnero
carnets
caro
carol
carola
carolina
caroline
carolyn
carpenter
carpenters
carpentier
carpio
carranza
carrasco
carreno
carrera
carreras
carretera
carrillo
carrington
carrion
carrizo
carro
carrusel
carrying
carson
carta
cartagena
cartas
cartel
carter
cartero
cartes
cartier
carumas
caruso
carvajal
carvalho
carvallo
casa
casablanca
casachagua
casado
casafranca
casal
casanova
casas
casaverde
casavilca
casazola
cascabel
cascara
cascia
case
caselle
caserios
cases
casete
cash
casi
casia
casilla
casimiro
casino
casitas
casma
caso
casona
casos
caspar
caspio
casquino
cassandra
cassius
casta
castagnino
castalia
castaneda
castanon
castanuelas
castellana
castellanas
castellano
castellanos
castelli
castigo
castill
castilla
castillaumalliq
castillo
castle
castrejon
castresana
castro
castrovirreyna
castulo
cat
catacaos
catacora
catala
catalan
catalao
catalina
catalogo
cataluna
catamarca
catamarka
catania
cataratas
catarina
catecismo
catedra
catedral
categoria
categorias
category
caterina
catherine
catholic
catillo
catolica
catolicos
catorce
catro
cattone
caucaso
caudal
caudaloso
caudillo
caudillos
caujul
causa
causana
causas
cautiva
cautivo
cautivos
cavalier
cavalleria
caverna
cavero
cavour
caxias
cayalti
cayetano
cayllahua
caylloma
cayma
caynarachi
cayo
caza
cazador
cb
cbs
cc
ccahuana
ccala
ccallme
ccallo
ccanto
ccapa
cccp
ccoicca
ccomunicate
ccopa
ccorimanya
ccoyllo
ccpr
cd
cdu
ce
cea
ceara
cebada
cebolla
cebollitas
cebreros
cecil
cecilia
cecilio
cecinio
cedano
cedella
ceder
cedron
ceferino
cefet
ceguera
cei
ceja
celebracion
celebres
celedonio
celendin
celeste
celestes
celestino
celia
celis
celle
cello
celos
celso
celui
celulas
cementerio
cena
cendoya
cenepa
cenepo
cenerentola
ceniza
cenizas
cenobia
censi
censos
census
centenario
centeno
center
centrado
central
centrales
centralismo
centre
centro
centros
centru
centuries
centurion
century
cep
cepeda
ceramica
cerati
cerca
cercado
cercano
cerco
cerda
cerdan
cerdo
cereales
cerebro
cereijo
ceremonias
cerezo
cerna
cernuda
cerrada
cerrado
cerraron
cerro
cerron
cerruto
certain
cervantes
cervantinos
cerveza
cesar
cesario
ceso
cespedes
cetera
cetro
cette
cevallos
cezanne
cf
cg
ch
cha
chaban
chabuca
chac
chacas
chacha
chachacoma
chachajja
chachakuma
chachan
chachanakaru
chachanakax
chachani
chachapoyas
chachapuyas
chachaq
chachas
chachaw
chaclacayo
chaco
chacon
chad
chadin
chagas
chagua
chagwa
chaillot
chained
chair
chairo
chajtadu
chaka
chakana
chakapalpa
chakapampa
chakaraymi
chakas
chakayan
chaki
chakitilla
chakrapampa
chaku
chala
chalaco
chalamarka
chalan
chalco
chalhuanca
challapampa
challas
challco
challw
challwa
challwana
challwanak
challwanaka
challwanakana
challwanakasti
challwanakawa
challwanakaxa
challwanka
challwasti
challwawa
challwawachu
challwaxa
chalpun
chalqus
chamaqa
chamberlain
chambi
chambre
chameleons
chamorro
champagnat
champagne
champara
champhayna
champi
championship
chan
chana
chancay
chance
chanchamayo
chanchamayu
chanchari
chandrika
chanfle
chang
change
changes
changing
changuillo
chani
chaninch
chaninchaw
chaniniwa
chanka
chankay
chankaybanos
chant
chanta
chao
chaos
chapar
chapare
chaparra
chapi
chapimarka
chaplin
chappell
chapulin
chapultepec
chaqaltaya
chaqan
chaqat
chaqchu
chaqlla
chaqna
chaqt
chaquchi
chara
characato
characters
charanakamp
charanga
charanguitux
charangux
charapasti
charasani
charat
charcana
charcas
charente
charentes
charka
charkana
charkas
charles
charleston
charleth
charley
charlie
charlotte
charlottesville
charlton
charly
charqui
charrier
charrito
charro
chase
chaskirqan
chasuta
chat
chata
chateau
chato
chatu
chauca
chaucer
chaupis
chava
chavarri
chavarria
chavarry
chavela
chavero
chavez
chavin
chavo
chaw
chawin
chawina
chawinillu
chawisa
chawlan
chawlla
chawpi
chawpimarka
chay
chayanta
chaymanta
chayqa
chayru
chazal
che
checa
check
chekhov
chelsea
chemical
chemin
chemins
chen
cheng
chenopodium
cheo
chepe
chepen
cheqa
cheqas
chequia
cher
cherre
chespirito
cheto
chetumal
cheveu
chexya
cheyenne
chhaqhawixa
chhaqhayasisas
chhichhillanka
chhichhillankha
chhiijchhiw
chhijchhi
chhijchhimp
chhijchhis
chhijchhix
chhijuniwa
chhiqani
chhiqha
chhiqhan
chhiqhanakaniwa
chhiqhanakapaxa
chhiqhanakaxa
chhiqhaxa
chhitsut
chhiwchhi
chhiwli
chhiwlinaka
chhiy
chhuchhulli
chhull
chhullunkhaya
chhuqhax
chhuru
chhurunapax
chhuruni
chhurupaxa
chhuxlla
chhuxu
chhuyu
chi
chiang
chiapas
chiappe
chiara
chiaro
chiaru
chica
chicago
chicche
chichas
chichipas
chichu
chiclayo
chiclayu
chico
chicos
chidda
chiddu
chief
chien
chiesa
chiguayante
chiguirip
chihuahua
chik
chika
chikama
chikanchasi
chikancht
chikat
chikataniruw
chikaw
chikawjanx
chikchi
chikla
chiklayu
chikmu
chikt
chikyan
chilca
chilcas
child
childhood
children
chile
chilena
chili
chiliquin
chiliti
chillan
chillcce
chilli
chillka
chillkayuq
chillun
chillya
chilpancingo
chilquillo
chim
chimban
chimbote
chimpt
chimpu
chimpumpi
chimpuri
chimputi
chimu
chimuch
chin
china
chinapas
chinatown
chincha
chinchana
chinchaw
chinchay
chinchaypukyu
chinchero
chincheros
chinchiru
chinchiwasi
chinchu
chinese
ching
chinja
chinkalpu
chinkas
chino
chinu
chinuntata
chinuq
chinuqa
chinutanaka
chipana
chipin
chipurana
chiqa
chiqakiwa
chiqakupi
chiqan
chiqanakan
chiqanakaruw
chiqanakax
chiqans
chiqansa
chiqanx
chiqanxa
chiqapa
chiqapawa
chiqaru
chiqaw
chiqawjanakan
chiqax
chiqllan
chiqpach
chiqpachan
chiqpachans
chiqra
chiqt
chiquian
chiquintirca
chiquiri
chiquito
chira
chirac
chirat
chirhuana
chirimoto
chirinos
chiriwata
chiroque
chiruki
chisquilla
chista
chistu
chitilla
chitre
chivay
chivigorri
chiwalaki
chiway
chiwchi
chiyara
chloropus
choc
chocano
chocolate
cholan
chongos
chongoyape
chopin
choque
choquehuanca
chorrera
chorrillos
chorus
chosica
chota
christi
christian
christiani
christie
christina
christine
christmas
christoph
christopher
chroicocephalus
chrome
chronicle
chu
chubut
chuca
chuchi
chucho
chuchon
chuchupi
chuck
chuco
chucuito
chugay
chugur
chui
chuka
chukatamani
chukis
chukiyaw
chukiyawu
chukiyawut
chuku
chukuwitu
chulla
chulli
chullo
chullpa
chullt
chullu
chulluchina
chulukanas
chulumani
chulun
chumbe
chumbiauca
chumbivilcas
chumpi
chumpitaz
chumpiwillka
chumuch
chunan
chuncho
chunga
chunki
chunkuyapi
chuntali
chuntapampa
chupa
chupaca
chupaka
chupamarka
chupan
chupika
chuqhata
chuqi
chuqipampa
chuqipampilla
chuqisaka
chuqiwanka
chuqiyapu
chuqlluqucha
chuqu
chuquibamba
chuquispuma
chuquizuta
chuqupi
chuqurwus
chuqus
chura
churana
churanaw
churapkiti
churapxana
churapxi
churapxita
churas
churasirakiwa
churayirinaka
churcampa
churchill
churi
churin
churinkuna
churirinakawa
chuririwa
churkampa
churu
churuja
churupampa
churus
chuschi
chuta
chuwa
chuwax
chuwi
chuym
chuyma
chuymacht
chuyman
chuymani
chuymar
chuymaru
chuymata
ci
cia
ciclo
cid
cidade
cidob
ciego
ciegos
cielo
cien
ciencia
cienciajj
ciencias
cieneguilla
cientifica
cientificas
cientifico
cientificonakajj
cientificonakan
cientificos
cierto
ciertos
cieza
cifra
cigarra
cilindro
cilloniz
cima
cina
cincinnati
cinco
cine
cinematografia
cinematografica
cinformare
cinq
cinque
cinta
ciprian
cipriano
circa
circle
circo
circulares
circulatorio
circulo
circunstancias
circus
ciriaco
cirilo
ciro
ciseaux
cisma
cisne
cisneros
cita
citati
cite
cities
citta
city
ciudad
ciudadano
ciudadela
ciudades
ciudamuerta
ciuriri
civica
civico
civil
civiles
cj
ck
cl
clair
claire
clamor
clan
clandestino
clara
clarel
clarence
claribel
claridad
clarin
clarinete
clarissa
clark
clarke
claro
claros
clase
clases
clasica
clasicos
clasificacion
class
classics
claude
claudel
claudia
claudio
claus
clave
clavero
clavillazo
clay
clear
cleber
clement
clemente
clementina
clementine
cleopatra
clermont
cleto
cleveland
click
clima
climaco
climbers
climent
climinti
clinica
clint
clinton
clipper
clodomiro
clorinda
close
clotilde
clouds
clovis
club
clube
cm
cmi
cms
cn
co
coagulos
coahuila
coaquira
coarita
coarite
coautoria
coayla
cobian
coca
cochabamba
cochamal
cocharcas
cochas
cocidos
cocina
cockeyed
cocle
code
codesido
codigo
codo
codorniz
coe
coelho
coello
coffee
cohana
cohen
coimbra
coipa
coipasa
cojuangco
col
cola
colaboracion
colaborar
colaboro
colan
colca
colcabamba
colcamar
cold
coleccion
colecciones
colectivo
colegio
colera
colette
colima
colin
colina
coll
collado
collage
collantes
collao
collar
collas
collatio
collazos
collected
collection
college
collina
colline
collins
colmenares
colo
colombia
colombo
colon
colonia
coloniaje
colonial
colonialisme
colonizacion
colonos
color
colorado
colore
colores
colors
colos
colour
colquepata
columbia
columbus
column
columna
com
comadreja
comandante
comas
combate
combates
combatiendo
combats
combinacion
combo
combustibles
combustion
come
comeca
comedia
comedians
comediante
comedias
comedy
comendador
comentarios
comenzaba
comenzada
comenzo
comercial
comerciante
comercio
comes
cometa
comic
comico
comida
comiendo
comienza
comienzo
comin
coming
comisario
comision
comite
command
comme
commedia
commercial
commercio
common
commons
community
como
comodoro
compact
compadre
compadres
compagno
compagnon
companera
companero
companhia
compania
companies
company
comparada
compartidas
compartido
compartirian
compendio
compensable
compilacion
compiten
complejo
complemento
complementos
completa
completamente
completas
complete
completo
completos
complutense
composicion
composiciones
compositor
compostela
compra
comprobar
compromiso
compuesta
compuesto
comrade
comte
comtesse
comun
comunal
comune
comunes
comunicacio
comunicacion
comunidad
comunidades
comunista
con
conan
conatos
concedida
concejo
concepcion
concepto
concert
concertacion
concha
conchan
conche
conciencia
concierto
concise
concord
concordancias
concorde
concordia
concurso
concytec
conde
condecoracion
condemayta
condemor
condena
condenada
condenado
condepa
condesa
condesuyos
condezo
condicion
condicional
condo
condor
condorcanqui
condores
condori
conduccion
conducido
conducta
conduriri
conejo
confederacion
conferencia
conferencias
confesion
confesiones
confeso
confession
confianza
confidencia
conflicto
conflictos
confucius
cong
congo
congrains
congreso
coniglio
conila
conislla
conjugacion
conjugaciones
conjugan
conjunto
conmigo
conn
connecticut
connery
cono
conoce
conocen
conocer
conocida
conocido
conocidos
conocimiento
conquest
conquista
conquistador
conquistadores
conrad
conredes
conroy
consagrado
consecuencia
consecuencias
conseguido
consejo
conserje
conservacion
conservador
conservan
conservemos
considera
consideraciones
considerado
considerados
consort
consta
constance
constanta
constante
constantino
constitucion
constitucional
constituicoes
constituido
construccion
constructions
constructora
construyendo
consuelo
consul
consultado
consumers
contadas
contagem
contamana
contando
contar
conte
contemplacion
contemporanea
contemporaneas
contemporaneo
contemporaneos
contenido
content
contexto
contextos
contiene
contigo
continent
continental
continente
continua
continuacion
continue
contos
contra
contrabando
contralmirante
contrario
contraste
contreras
contribucion
contribuciones
contribuir
control
contumaza
convenciana
convencion
convention
convento
convergencia
conversacion
conversaciones
convertida
convertirse
convicto
convidado
convirtio
convivencia
convoca
convocado
conyugal
cook
coolidge
cooper
cooperacion
coord
coordinadora
copa
copacabana
copallin
copenhagen
copenhague
copernico
copia
coporaque
coproduccion
copulativos
coquimbo
coracora
corahua
coraje
coral
coran
corazon
corazones
corbacho
corbera
corbin
corcuera
cordano
cordero
cordillera
cordoba
cordova
cordura
corea
coreano
cori
coria
corina
coriolano
coris
coritiba
cornejo
cornelia
cornelio
corner
coro
corona
coronacion
coronada
coronado
coronel
corongo
corono
corosha
corot
corpo
corporacion
corporate
corporation
corporativo
corps
corpu
corpus
corral
corrales
correa
corregida
corregirlo
correo
correspondance
correspondence
correspondencia
correspondiente
correze
corrientes
corsarios
corse
corswarem
corta
cortada
cortas
cortazar
corte
cortegana
cortejo
cortes
cortez
cortezias
corto
cortometraje
corzo
cosa
cosas
cose
cosiendo
cosima
cosme
cosmologos
cosmos
cossio
costa
costilla
costs
costumbres
costumbrista
cotabambas
cotan
cote
cotidiana
cotrina
coturnix
couderc
could
couleur
countess
country
county
courbet
court
courtship
cousins
covarrubias
covid
cow
cowboys
cox
cp
cq
cr
crack
crapaud
craveiro
crawford
crazy
crc
crd
crea
creacion
creaciones
creado
creados
creagrus
cream
crear
creation
creative
creatures
crecen
creditos
creek
creo
crepusculo
crespo
cresson
creta
creuse
criacao
criado
cricket
crime
crimen
crimenes
criolla
criollita
criollo
criollos
crisanto
crisis
crislogo
crisologo
crisostomo
crispin
crispulo
cristal
cristian
cristiana
cristianismo
cristiano
cristianos
cristianu
cristina
cristo
cristobal
cristoforo
cristubal
critica
criticas
criticism
critico
criticos
critique
crl
crna
croacia
cromosomas
cronica
cronicas
cronistas
cronologia
crooked
crosby
cross
crossing
crowd
crown
crpl
cruce
crucero
cruces
crucificado
crucifixion
cruel
crueles
cruijff
crus
crusnaka
cruz
cruzada
cruzadas
cruzado
cruzando
cry
crypto
cryptocurrencies
cryptocurrency
crystal
cs
cso
cssr
cstatistici
csutcb
ct
cu
cuadernillo
cuaderno
cuadernos
cuadra
cuadrado
cuadro
cuadros
cual
cuales
cualquier
cualquiera
cuando
cuarenta
cuaresma
cuarta
cuarto
cuatia
cuatro
cuauhnahuac
cuba
cuban
cubana
cubano
cubas
cubilla
cubillas
cucho
cuchumbaya
cuckoo
cucuta
cuellar
cuello
cuenca
cuenta
cuentas
cuento
cuentos
cuernavaca
cuerpo
cuerpos
cuervo
cuervos
cuesta
cuestion
cuestiones
cueto
cueva
cuevas
cui
cuicapuza
cuidado
cuispes
cujillo
cukic
cukor
culebra
culiacan
cullanco
cullina
culpa
culqui
culquicondor
culquimboz
cultura
cultural
culturales
culturas
culture
culuri
cumana
cumbaza
cumbia
cumbre
cumbres
cumpa
cumpagnu
cumple
cumpleanos
cumplir
cuna
cunigghiu
cunigliu
cuntinenti
cuntu
cunumbuqui
cuore
cup
cupe
cupertino
cupi
cuprinde
cura
curacion
curbstone
curgos
curi
curia
curie
curious
curitiba
curitomay
curo
curotto
currency
curriculum
curse
curso
cursos
curtis
curtiz
curtu
curuzu
curva
cusano
cusco
cusi
cusihuaman
custodio
cutervo
cutipa
cutipe
cuy
cuya
cuyo
cuyos
cuzco
cuzquenas
cv
cvc
cw
cx
cy
cyanide
cyclopedia
cylinder
cymraeg
cynthia
cypress
cyril
cz
czas
cœur
d
d0
d1
d2
d3
d4
d5
d6
d7
d8
d9
da
daayay
daba
daddy
dado
dafnes
daga
dagoberto
daguas
daguerre
daher
dahua
daily
dakota
dal
dalglish
dali
dallas
dalloway
dalmasya
dama
damacen
damas
damaso
dame
dames
damian
dammert
dan
dance
dancing
dando
dandy
dane
dangerous
daniel
daniela
danielovitch
danilo
danmark
danny
dano
dans
danse
danseuse
danseuses
dante
danuta
danza
danzad
danzar
danzas
danzig
dar
dara
darien
dario
dark
darkness
darmstadt
darte
dartnell
darwin
daryl
das
data
database
date
datem
datos
dattlikon
daughter
davalos
david
davila
davis
davor
dawlat
dawn
day
days
daza
db
dc
dd
de
dead
deakin
dealings
dean
death
debate
debe
deben
deber
deberia
deberian
debido
deborah
debra
debre
debrecen
debussy
decades
decano
decay
decca
december
decide
decides
decir
decision
decisiones
declaracion
decreto
dedicada
dedicado
dedo
deep
defectivos
defendiendo
defensa
deferre
deferred
definido
definition
definitiva
definitivamente
degas
degli
degradantes
dei
deja
dejame
del
delano
delaware
delden
delerue
delfim
delfin
delfina
delfor
delgado
delhi
delia
delinquir
delitos
dell
della
delle
delmas
delmer
delon
delta
dem
demas
demasiado
demetrio
demille
democracia
democracy
democratica
democratico
demografia
demokratie
demonio
den
denegri
deng
denis
deniz
denny
denominacion
denominan
dentro
denver
deodoro
departamento
departement
dependiendo
deportes
deportiva
deportivo
deposito
deprecar
der
deray
derba
derecho
derechos
deriva
derrota
derrotero
derrumben
des
desa
desaguadero
desalmada
desambiguacion
desamparados
desaparecido
desaparicion
desapariciones
desarrollado
desarrollo
descalza
descanso
descargas
descendientes
descentralista
descolonizacion
desconocida
desconocido
desconocidos
descotte
described
descripcion
descubren
descubrimiento
descubrimos
desde
desdicha
deseas
desengano
desenganos
deseo
desert
desfile
desgracia
deshonra
desiderio
desiderius
desierto
desire
desiree
desnuda
desnudo
desolacion
desolato
desolatrix
desorden
despertar
despierta
despues
destacado
destacan
destierro
destino
destinos
destiny
destruccion
desventuras
detalle
detection
detective
deten
detencion
detergente
determina
detras
detroit
dett
deudas
deus
deutch
deutsch
deutsche
deutschen
deutschendorf
deutsches
deutschland
deux
development
devil
devocion
dexter
deyna
dezvoltare
df
dg
dh
dhabi
dhaka
dhexe
di
dia
diabetes
diable
diablo
diablos
dialectal
dialogo
dialogos
dialogue
dials
diamante
diamond
diana
diane
diario
diarios
diariosur
diary
dias
diatesis
diaz
diber
dibujo
dibujos
diccionario
diccionarios
dicen
dicha
dicho
dichos
dichtung
diciembre
diciendo
dickens
dickory
dictado
dictador
dictadura
dictionary
dictionnaire
did
didactica
diderot
didi
didn
die
dieciseis
died
diego
dieguez
dientes
dies
dieser
diestra
dieterich
dietrich
dieu
diez
diferencia
diferencias
diferente
diferentes
difunto
digestivo
digital
digna
digo
dijon
diles
dilfrido
dilhi
dilthey
dimas
dime
dimokratiku
dimukratiku
din
dina
dinamarca
dinamarka
dinastia
diner
dinero
dingo
dinner
dino
dio
diogenes
diomedes
dionicio
dionisio
dios
diosa
diosajj
diosan
dioses
dipartimento
dipartimentu
diplomatica
diplumatiqu
diptera
dipterorum
diputacion
dir
dirac
dire
direccion
directa
directo
director
directores
directory
direito
dirigida
dirigido
dirty
dis
discapacidad
discmedi
disco
discografia
discos
discoteca
discriminacion
discurso
discursos
discusion
diseno
dish
disney
displaystyle
dispone
dissertation
distance
distancehistory
distancesfrom
distinction
distinguidos
distinta
distintas
distintos
district
distrital
distrito
distritu
diuturnum
diva
divan
diversidad
diversos
divide
dividido
divina
divine
divino
divinos
division
divisor
divorce
divorcio
dix
dixon
dj
djalma
djuna
dk
dl
dm
dn
do
doblan
doble
dobleguen
dobrila
doce
dock
docteur
doctor
doctorado
doctoral
doctores
doctrina
documental
documentales
documentary
documente
documentos
dodge
does
dog
dogs
dois
doktor
dolar
dolce
doll
dollar
dolly
dolor
dolores
dolorier
dom
domador
domanovic
domenech
domenico
domestico
domesticos
domicilio
dominga
domingo
domingos
domingu
dominguez
domini
dominica
dominicana
dominicos
dominio
dominique
don
dona
donald
donato
donayre
doncella
donde
done
dones
dong
dongo
donkey
donna
donne
donnola
donoso
doodle
doom
door
doors
dora
dorada
dorado
dorchester
dore
doria
dorian
doris
dormir
dormire
dormiri
dornelles
dorodogne
doroteo
dorothea
dorothy
dorregaray
dorsal
dos
dosantos
dossier
doua
douat
double
doubt
doud
douglas
doutor
douze
dover
dovlət
dovsan
down
download
downs
doyle
dp
dq
dr
draco
dracula
drago
dragon
dragun
drama
dramatica
dramaticas
draper
drawings
dream
dreams
dred
dresde
dresden
drew
drive
drucker
drummond
dry
ds
dt
du
duardos
duarte
dubai
dublin
dubois
dubrovski
duca
duci
duck
duda
dudas
due
duele
duelo
duena
duenas
duende
duerme
duetos
duhalde
dui
duke
dulanto
dulce
dulces
dumas
dumb
dumet
dumingu
duminika
duminikana
dunantul
duncan
dunlop
duo
dupa
duplicado
dupont
duque
duquesa
dura
duracion
duran
durand
durango
durante
durazno
durcal
durch
durer
durham
durman
durmiente
dusambe
dusseldorf
dust
dustin
duvivier
dv
dvd
dw
dwight
dwor
dx
dy
dyck
dylan
dynamite
dz
dzhugashvili
dɑ
dʒanuari
e
e0
e1
e2
e3
e4
e5
e6
e7
e8
e9
ea
each
eagle
ean
ear
earhart
earl
earlier
early
earth
earthsea
east
eastwick
eastwood
easy
eat
eau
eb
ebadi
eber
eberth
ebi
ec
eca
ecatepec
ecclesiae
echada
eche
echegaray
echenique
echevarria
echeverria
eco
ecole
economia
economic
economica
economicos
ecos
ecuador
ecuatoriana
ecuestre
ed
edad
eddie
eddy
edelmann
edelmira
eden
eder
edgar
edgard
edgardo
edge
edgware
edhasa
edic
edicion
ediciones
edicions
edigsa
edilberto
ediles
edimburgo
edinburgh
edinson
edirne
edison
edit
editada
editado
editar
edited
edith
edition
editions
edito
editor
editora
editores
editorial
editors
edmond
edmund
edmundo
ednita
edouard
eds
edson
edu
eduard
eduardo
educa
educacao
educacion
edwar
edward
edwards
edwin
edy
ee
eesti
ef
efectivamente
efecto
effective
efigenio
efrain
eg
egipto
egloga
ego
egrem
eguiguren
eguren
egusquiza
eh
ei
eib
eielson
eight
eighty
ein
einaudi
eine
einem
einer
eines
einstein
eisenhower
ej
ejecutivo
ejecutivos
ejemplares
ejemplo
ejemplos
ejercicios
ejercito
ek
ekka
el
eladio
elaine
elamidiana
elard
elba
elder
eleanor
eleazar
elecciones
electas
electoral
electric
electrischen
elefante
elegi
elegia
elegias
elegie
elejias
elementales
elementary
elementos
elena
elenas
elephants
elera
eleuterio
elfer
elgar
elguera
eli
elias
elide
eliminacion
eliniki
elio
eliodoro
eliot
elisa
elisabeth
elisabetha
elisban
eliseo
elite
eliza
elizabeth
ella
ellas
elle
ellen
elliott
ellis
ello
ellos
elmer
elogio
eloisa
eloy
elsa
else
elva
elver
elvira
elvis
em
emancipacion
embajador
embargo
embil
embrujo
emece
emergencia
emerito
emerson
emeterio
emi
emigdio
emil
emile
emilia
emiliano
emilio
emily
emir
emirates
emision
emite
emitido
emma
emmanuel
emmeline
emociones
empapad
empenos
emperador
emperatriz
emperor
empezar
empezo
empieza
empire
empleados
empresa
en
enamorada
enamorado
enamorados
encalada
encanada
encantada
encanto
encargada
encarnacion
enchanted
enciclica
enciclopedia
enciclopedico
encinas
enciso
encontraba
encore
encrucijada
encuentra
encuentran
encuentro
encuentros
encyclopedia
end
endearment
endless
endroit
enedina
enemecio
enemigo
enemy
energia
enero
enfants
enfer
enfermedad
enfermera
enfermeria
enfermo
enfermos
enfoque
enfrente
eng
engels
engine
engineering
england
engle
englische
english
engranajes
enilo
enlace
enlaces
enlai
enredo
enrico
enrique
enriqueta
enriquez
ensaio
ensayistas
ensayo
ensayos
ensena
ensename
entel
entender
entero
enterprise
enterrados
entertainment
entidad
entierro
entonces
entrada
entradas
entrara
entre
entree
entrega
entremes
entrena
entrevista
entrevistas
enumera
enzo
eo
ep
epdlp
epico
epidemia
epifanio
epilogo
episode
episodio
episodios
episodiu
episodiukuna
epistola
epistolario
epistole
epitacio
epitome
epoca
epopeya
epoque
epstein
eq
equilibrio
equipaje
equiparable
equipo
equitativa
equivalente
er
era
eran
erase
erasmo
erasmus
erazo
ercilla
erendira
eres
erfurt
eriberto
eric
erico
erigiendo
erik
erika
eris
eritrea
ernan
ernest
ernestina
ernestine
ernesto
erno
ernst
errante
errol
error
errores
erscheinungen
erwin
es
esa
esas
escafandra
escajadillo
escala
escalada
escalante
escalas
escalerillas
escallonia
escandalo
escapada
escape
escate
escena
escenas
esclava
esclavitud
esclavo
esclavos
escoba
escobar
escocia
escogidas
escogidos
escolar
escolares
escoma
escondida
escondido
escorial
escremento
escriba
escribe
escribio
escribir
escrita
escritas
escrito
escritor
escritoras
escritores
escritos
escritura
escuadra
escucha
escuchar
escudero
escudo
escuela
escuelas
ese
esencial
esfinge
esfuerzo
esgoto
eslabon
eslovenia
esmeralda
esmo
esolutions
esopo
esos
espacio
espada
espadas
espagnol
espalda
espaldas
espana
espanol
espanola
espanolas
espanoles
espanul
esparta
espasa
especial
especiales
especialmente
especies
espejo
espejos
espera
esperame
esperanto
esperanza
esperpento
espia
espinal
espinel
espino
espinosa
espinoza
espirito
espiritu
espiritual
espirituales
esplendor
esposa
espumas
esqui
esquina
esquivel
essay
essays
essen
essential
essex
est
esta
estaba
estacion
estaciones
estadistica
estadisticas
estado
estados
estadounidense
estaing
estampa
estampas
estampe
estan
estanque
estar
estas
estatal
estativos
estatua
este
esteban
estela
estelar
estelle
estenos
estensoro
estenssoro
estereotipia
esternon
estero
estetica
estevanes
esther
estilo
estimativa
estio
estique
estirpe
esto
estomago
estonia
estos
estoy
estrada
estrategia
estrechamente
estrecho
estrella
estrellas
estremadoyro
estrena
estrenada
estrenado
estrofa
estrofas
estructura
estruendo
estuardo
estudiante
estudiantes
estudio
estudios
esuatini
eswatini
eszak
et
etait
etc
etcheverry
ete
eten
eterna
eternidad
eternidades
eterno
ethel
ethics
etica
etienne
etiopia
etiqueta
etoile
etsi
etxebarria
eu
eua
eudes
eudocia
eugen
eugene
eugenia
eugenie
eugenio
eulalia
eulogia
eulogio
eure
europa
europe
europea
eusebio
euskal
eustaquio
eutimio
ev
eva
evangelio
evangelista
evans
evaristo
evcil
eve
eveling
evelio
evenhuis
evening
eventos
ever
everest
evert
every
everybody
everyone
everything
evil
evo
evocacion
evolucion
ew
ex
exaltacion
exaltaciun
exaltasyun
examen
excelencia
excelsior
excepciones
excl
excrement
excremento
executive
exhalar
exigen
exil
exile
exilio
existan
existe
existen
existencia
existencialismo
exit
exito
exitos
exodo
exoticos
expected
expedicion
expediente
experanza
experience
experiencia
experimentacion
experimental
explicado
expolio
exposicion
exposition
expresa
expresan
expresar
expresion
expresiones
expreso
express
expulsion
extasis
extensa
extension
extent
exterior
exteriores
extorsionado
extra
extracto
extrana
extranjero
extrano
extraordinary
extremely
exupery
ey
eye
eyes
eyuskara
eyzaguirre
ez
ezequiel
ezio
ezra
f
f0
f1
f2
f3
f4
f5
f6
f7
f8
f9
fa
fabian
fabiana
fabien
fabio
fabla
fabricante
fabula
fabulas
fabulosos
facchetti
face
facebook
faces
fachelli
facil
facilmente
facio
fact
factbook
facto
facultativo
facundo
faique
fairbanks
fajardo
falcon
falcone
faldas
falerina
fall
falla
fallece
fallecimiento
falls
falso
fama
fame
familia
familiar
familiares
famille
family
famous
fan
fandango
fanfani
fangio
fania
fanning
fanny
fans
fantasia
fantasma
fantasmas
fantastic
fantoni
fao
farandula
faraona
farces
farewell
farfan
farias
farina
faro
farro
farrow
farrugia
farsa
farsas
fasabi
fasanando
fashion
fashioned
fatal
father
fatima
fats
faulkner
faustino
fausto
faustus
fava
favarone
favio
favor
favorita
favorite
faz
fb
fc
fd
fe
featuring
febrero
fecha
fechaacceso
fechas
federacion
federal
federation
federer
federico
fedia
fee
feeling
feijoo
feira
fejuve
felice
felices
feliciano
felicidad
felimon
felipe
felix
feliz
femenina
feminismo
femme
femmes
fenomeno
fenomenologia
fenomenologica
fer
ferdinan
ferdinand
ferenc
feria
ferlosio
fermin
fernan
fernandez
fernandini
fernando
ferramonti
ferrand
ferrari
ferreira
ferrenafe
ferrer
ferretti
ferreyros
ferri
ferro
ferrocarril
ferry
festejos
festival
feu
feuille
feuilles
fever
few
fez
ff
fg
fh
fi
fiallos
fiat
ficcion
ficha
fiddler
fidel
fidencio
fides
fidex
fiebre
fiel
fiera
fieras
fierro
fiesta
fiestas
fifa
fifth
fifty
figghia
fight
fighting
figlia
figueras
figueroa
figuerola
figura
figuras
fil
filadelfia
fileno
files
filho
filiberto
filin
filinto
filipi
filipinanaka
fille
film
filmada
filmografia
filmoteca
films
filo
filomena
filosofia
filosofica
filosofico
filotea
fim
fimmina
fin
fina
final
finalista
finalmente
financial
financiera
finch
find
finds
fine
fineza
finger
finland
finn
fino
fintech
fiore
fiorire
fire
firenze
firma
firme
firmeza
first
fiscal
fischer
fisher
fisherman
fisica
fisicos
fisika
fito
fitzcarrald
fitzgerald
five
fj
fjeldsa
fk
fl
flabellifer
flaco
flags
flakoll
flamenco
flappers
flash
flauta
flavio
fleurir
flew
flexivas
flic
flickr
flies
flight
flint
flood
floor
flor
flora
floreano
florecer
florence
florencia
florencio
florentino
flores
florez
florian
floriano
florianopolis
florida
florinda
floro
flower
flowers
floyd
flush
flynn
fm
fmi
fn
fntc
fo
focu
fogghia
foglia
fogo
foix
fokker
folch
folie
folios
folklore
folklorica
folks
folkwang
folleto
folletos
follow
folly
fonavistas
fondo
fonologica
fonseca
fontaine
fontana
fools
foot
football
footlight
for
forastero
forbici
forbidden
force
ford
forest
forever
forfici
forficia
forget
forgotten
forja
forjadores
forma
formacion
formalmente
formas
formato
forme
formosa
formula
forrest
forsberg
forschung
forsythe
fort
fortaleza
fortuna
fortunata
fortunato
fortune
forum
fosforo
fotografias
fotografica
fotografo
fotos
found
founded
fountainhead
fouquet
four
fox
foxes
foyer
fp
fq
fr
frac
fracaso
fradique
fraga
fragmento
fragmentos
frailejon
franca
francais
francaise
france
frances
francesa
francesca
francesco
franceses
franche
francia
francis
francisca
francisco
franciscu
franciscus
francisku
franciszek
franco
francois
francoise
frank
frankfurt
frankie
franklin
franz
frases
fratello
frati
frau
fray
frecuencia
fred
freddie
freddy
fredemo
frederic
frederick
frederihs
fredesvindo
fredy
free
freedom
freelang
freire
freistaat
freking
frenata
french
frente
frepap
frere
fresco
freud
freyre
fria
frias
frid
frida
frieda
friedemann
friedenreich
friedman
friedrich
friend
friesian
fritz
froilan
from
frondizi
front
frontera
fructuoso
fruto
frutos
frutti
fryderyk
fs
fsln
ft
fu
fue
fuego
fuegos
fuente
fuentes
fuera
fueron
fuerte
fuertes
fuerza
fuerzas
fuga
fuganu
fugaz
fugitiva
fugitivos
fuji
fujimori
fulgencio
fulgor
full
fumagalli
fumec
fun
funcion
fundacion
fundado
fundador
fundamentales
fundamentos
fundo
funeral
funerales
funes
fuoco
fur
furan
furia
furias
fury
fuscaldo
futbol
futbolista
futura
future
futuro
fv
fw
fx
fy
fz
g
g0
g1
g2
g3
g4
g5
g6
g7
g8
g9
ga
gaban
gabino
gable
gabriel
gabriela
gabun
gaburr
gaburri
gaddina
gadea
gaetano
gafotas
gaga
gagan
gagarin
gago
gainsborough
gaite
gal
gala
galan
galante
galapagos
galardonado
galarreta
galarza
galas
galatea
galatopoulos
galaxia
galbusera
galdamez
galdos
galeano
galecio
galeria
galicia
galilei
galileo
galindo
gallac
gallaga
gallardo
gallega
gallego
gallegos
gallery
galli
gallimard
gallina
gallinazo
gallinula
gallito
gallo
gallop
gallorum
galo
galvan
galvarriato
galvez
gamal
gamarra
gambia
gambini
gambling
gamboa
gambya
game
gamero
games
gamez
gamonal
gan
gana
ganado
ganador
ganadora
ganas
gandhi
gangster
garabombo
garate
garay
garayar
garaycoa
garbo
garces
garcia
garcilaso
gardel
garden
gardes
gardiner
gardner
garfias
garfield
garibaldi
gariza
garland
garmendia
garner
garnier
garonne
garrapata
garreaud
garrido
garrincha
garro
gary
gas
gasa
gasco
gaslight
gasnier
gaspar
gasparri
gasperi
gasset
gassion
gassman
gastanodi
gastelo
gastelu
gaston
gates
gatico
gato
gatos
gatto
gattu
gaudin
gauguin
gaulle
gautama
gavaldon
gave
gavidia
gavilan
gavilano
gavino
gaviota
gaytan
gazeta
gb
gc
gd
ge
gedichte
geese
gehalten
gelacio
gelassen
gelatina
geldres
gemma
genaro
gender
gene
genealogico
genei
generacion
general
generales
generated
generation
genero
generosa
genesis
genet
geneve
genio
genios
genius
gennaio
genova
genoveva
gente
geoffrey
geografia
geografias
geographical
geographie
geography
geometria
georg
george
georges
georgia
georgios
gerais
geral
gerald
gerard
gerardo
gerd
gerhard
germain
germaine
german
germanico
germany
geronimo
gertrudis
gerundio
gervasio
geschichte
geschichten
gesi
gesta
geste
get
gets
getulio
gf
gg
gh
ghali
ghana
ghetsimani
ghiaccio
ghiacciu
ghiazzu
ghiraldo
ghost
ghosts
gi
giacinto
giacomo
giampiero
gianni
gibaja
gieco
gif
gigantes
gigolo
gil
gilber
gilbert
gilberto
gilder
giles
gilles
gilmer
gimenez
gimio
gina
gines
gini
gino
gioacchino
gioachino
gioconda
giografia
giomar
giorgio
giorno
giovani
giovanna
giovanni
gira
giraldo
girard
girl
girls
giron
gironde
gisbert
giscard
gitanas
gitano
giulia
giuliano
giulio
giura
giuseppe
giussepina
give
gj
gk
gl
glace
gladys
glama
glandula
glasgow
glass
glenn
glicerio
global
globo
glodoaldo
gloria
glorias
glorioso
glory
glosas
gluck
glypotek
gm
gn
go
gob
gobernador
gobierno
god
goddess
godfather
godfrey
godofredo
godos
godot
godoy
gods
godunov
goes
goethe
goffredo
gogh
goiania
goias
gold
golda
golden
golfo
golondrina
golondrinas
golpe
gomel
gomes
gomez
gonas
goncalo
gone
gongora
gonzaga
gonzales
gonzalez
gonzalo
good
goodnight
goodrich
google
gora
gorbachov
gordillo
gordon
gorgor
gorki
gorozabel
gorriti
gos
gosta
got
goulart
goulding
gov
goya
goyeneche
goyo
goytacazes
gozar
gp
gps
gq
gr
grabacion
grabaciones
grabado
grabados
grabar
graca
grace
gracia
gracian
graciano
gracias
graciela
grado
grados
graduation
graf
graffiti
grafica
grafico
graficos
graham
gramatica
gramatical
gramsci
gran
granada
granadas
granados
grand
granda
grande
grandes
grandez
grandfather
grandi
granges
granier
granni
grant
grapes
grasa
grass
grasyua
grata
gratuita
grau
gravedad
graves
graz
gre
great
greater
greatest
grecia
greco
gredos
greek
green
greene
greensboro
gregoria
gregoriano
gregorio
gregorius
gregory
grenada
grenadinak
grenoble
greta
grey
griciu
griego
grigio
griguryu
grijalbo
grimaldi
grimaldo
gripe
gris
grisya
grito
grocio
grohmann
gross
grossa
grosso
group
grove
grover
grow
große
grudy
grundel
grundy
grupo
gs
gt
gtz
gu
gua
guadalajara
guadalcanal
guadalupe
guadalupito
guaira
guaitecas
gualamita
gualberto
gualeguay
gualeguaychu
guaman
guanaco
guanajuato
guanare
guanicoe
guano
guapo
guaracha
guaranda
guarani
guarany
guarapari
guardar
guardate
guardia
guardian
guatemala
guaviare
guayaba
guayaquil
guayasamin
gubbio
gubernamental
gudberto
guedes
guedez
gueiler
guemes
gueorgui
guerena
guerin
guerra
guerre
guerrero
guerrilleros
guest
guevara
gufo
guglielmo
guia
guide
guidino
guido
guijarro
guilin
guillen
guillermo
guillot
guin
guinea
guion
guionista
guirnalda
guirnaldas
guitarra
guitarrista
guivin
guizado
gulfnews
gumercindo
gumm
gun
gunter
guofeng
gurgurillu
gusman
gusta
gustav
gustave
gustavo
gusto
gustos
gutarra
gutemberg
gutenberg
gutierrez
guud
guy
guyane
guys
guz
guzman
gv
gw
gx
gy
gyor
gyorgy
gypsy
gz
głowny
h
h0
h1
h2
h3
h4
h5
h6
h7
h8
h9
ha
hab
habana
haber
habia
habian
habitantes
habla
hablada
hablar
hablemos
habria
hace
hacer
hacerse
hacha
hachcha
hachchayaya
hacia
hacienda
haciendo
hacklab
hackman
had
hado
hagman
hague
hair
haiti
hakas
haki
hakira
halcon
haldimann
haley
half
halire
hall
halle
hallie
hallka
hamad
hamalka
hambre
hambrientos
hamburg
hamilton
hamlet
hammersmith
hampshire
han
hanan
hanaqchan
hanari
hancco
hancock
hand
handbuch
handel
hannah
hannover
hanoi
hans
hansberry
happened
happening
happy
hara
harada
harawi
hard
hardcore
harding
hardy
hardys
harina
harlem
harley
harlow
haro
harold
harpia
harpy
harriet
harris
harrison
harry
hartford
hartum
haruki
harvard
harzreise
has
hassan
hasta
hathaway
hatun
hatunqulla
haug
haunted
haute
hautes
hauts
havana
have
havel
haven
havilland
having
hawa
hawai
hawaii
hawk
hawks
hay
haya
haydee
haydn
haydns
hayre
hayvan
hb
hc
hd
he
head
heads
health
heart
hearts
heat
heath
heather
heaven
heavy
heavyweight
hebert
hebreo
hechizo
hecho
hechos
hector
hedges
heeren
heidegger
heights
heine
heinrich
heinz
heisenberg
heladeria
helado
helarf
helen
helena
helene
heli
hell
hello
hellwig
helmer
helmut
help
helps
helsingfors
helsinki
hembra
hemingway
hen
henares
henderson
hendrik
hendrix
heng
henri
henriette
henrik
henriquez
henry
hepburn
her
heraclides
heraclio
heraclito
heras
heraud
herausgeber
herbert
hercegovina
hercilio
hercule
herdy
here
heredia
herencia
heriberto
hering
herman
hermana
hermanas
hermann
hermano
hermanos
hermelinda
hermenegilda
hermenegildo
hermes
hermilio
herminia
herminio
hermogenes
hermosa
hermosillo
hermosura
hermoza
hernan
hernandez
hernando
hernani
heroe
heroes
heroico
heroinas
herr
herrada
herrera
herron
hertz
herzegovina
hesse
hessen
het
heure
heureuse
heute
hf
hg
hh
hi
hiascaran
hibou
hibriyu
hichaja
hickory
hicks
hidalga
hidalgo
hidden
hide
hielo
hierarchy
hierba
hierro
higado
higgins
high
highest
highlights
higinio
higuchi
hija
hijas
hijo
hijos
hilandera
hilario
hilarion
hilbeck
hilda
hildebrando
hildebrandt
hilder
hill
hillary
hills
hilton
him
himni
himno
himnos
himself
hinchazon
hindalicio
hindi
hines
hiniral
hinojosa
hinostroza
hiperion
hipocrita
hipolito
hiqitipiqi
hirkan
hirsikuwina
hirunimu
his
hispanica
hispano
hispanoamerica
hispanoamericana
hispanoamericanas
hispanoamericanos
hispanohablantes
histoire
histon
historia
historiador
historial
historias
historica
historical
historicas
historico
historicos
history
histrion
hisus
hit
hitchcock
hitler
hits
hiver
hiwya
hizo
hj
hk
hl
hm
hn
ho
hoa
hoffa
hoffman
hogar
hohberg
hoi
hoja
hojas
hoje
hola
holanda
holandes
hold
holden
holding
holguin
holiday
holland
hollow
hollywood
holmes
holocausto
holstein
holt
holy
hombre
hombres
hombro
home
homem
homenaje
homero
hommage
homme
hommes
homo
homologo
honda
hondo
honduras
honeymoon
hong
hongos
honolulu
honor
honorable
honorario
honorato
honore
honores
honoria
honorifico
honorio
honoris
honour
honra
honradez
hoover
hope
hora
horacio
horadnia
horario
horas
horca
horizon
horizontal
horizonte
horizontes
hormiga
horna
horne
horrible
horrido
horrisonos
horror
horroroso
horse
horses
hortencia
hortensia
horumcək
hosomichi
hospital
hostelero
hot
hotel
houari
houghton
hound
hour
hours
house
houses
houston
how
howard
hoy
hoyos
hoz
hp
hq
hr
hrvatska
hs
hsi
ht
htm
html
http
https
hu
hua
huaca
huacarpana
huacaybamba
huachaca
huacho
huachocolpa
huachos
huacullani
huahua
huaira
huaita
huakachina
hualgayoc
huallaga
huallanca
huallaqui
huallpa
hualpen
hualqui
huamala
huamali
huaman
huamancaja
huamanculi
huamanga
huamani
huamanrimachi
huambo
huan
huanaco
huanca
huancabamba
huancahuari
huancane
huancapi
huancas
huancavelica
huancayo
huanchaco
huanchi
huanec
huang
huanta
huantar
huanuco
huanuhuanu
huanza
huapaya
huarac
huaraca
huaracina
huaral
huarancca
huarango
huaraz
huarca
huarcaya
huari
huaringa
huaripampa
huarizueca
huarmey
huaroc
huarochirana
huarochiri
huarza
huashuayo
huasta
huata
huaura
huauya
huay
huayama
huaycan
huayhua
huaylas
huayllabamba
huayllani
huayllay
huayna
huaynacari
huaynacotas
huaynapata
huaynate
huayno
huaynuy
huayta
huaytara
huber
hubert
hubiera
hubo
huch
huchusuma
huckleberry
hucksters
hudson
huelga
huellas
huerga
huerta
huertas
huerto
huesca
hueso
huesped
huevo
hueypoxtla
hugh
hughes
hugo
huilber
huillca
huillka
huit
huk
hukkunapas
hulkan
hullaqa
hullika
humala
human
humana
humanidad
humanidades
humanismo
humanista
humano
humanos
humareda
humay
humberto
humboldt
humillada
humo
humphrey
hundo
hung
hungaros
hungria
hunin
hunkariya
hunt
hunter
hunters
hunu
hunun
huqarin
huracan
hurdanya
hurin
hurtado
husiy
hussein
huston
husy
hut
huver
huwan
hv
hw
hx
hy
hyde
hydrocoloeus
hz
i
i0
i1
i2
i3
i4
i5
i6
i7
i8
i9
ia
ib
ibague
iban
ibanez
ibarra
ibdb
iberia
iberica
ibericos
iberoamericana
iberoamericano
ibidem
ibrahim
ic
ica
icaco
icaic
icaro
icaza
ice
ich
icha
ichana
icharati
ichata
ichhupampa
ichi
ichiru
ichit
ichu
ichukan
ichuna
iconografia
id
ida
idaho
idea
ideas
idelfonso
idem
identidad
ideologia
idilio
idioma
idiomas
idiot
ido
idoeta
idolo
idrogo
idu
ie
iempsa
if
ifba
ifigenia
ig
iglesia
iglesias
ignacia
ignacio
ignaciu
igual
iguana
ih
ii
iii
ij
ijitaki
ijma
ijuqa
ik
ika
ikanan
ikcha
ikhituqita
ikin
ikina
ikinax
ikjana
ikrasqan
ikt
ikunumista
ikwadur
il
ila
ilan
ilave
ilawaya
ildefonso
ile
ilfov
ili
ilia
ilich
ilik
ilina
illa
illampu
illawi
illescas
illia
illima
illimani
illimu
illinois
illiw
illiwata
illka
illkaymarka
illkha
illkhax
illu
illud
illump
illumpit
illuru
illuwa
illuyu
ilo
ilona
ilu
ilusiones
ilust
ilustraciones
ilustrada
ilustrado
ilustrados
ilustre
ilustres
iluunu
ilya
im
imagen
imagenes
images
imaginacion
imaginaire
imaginario
imana
imanani
imanataki
imanatakikipacha
imanatakiwa
imanawjawa
imanax
imantasipxi
imasina
imasipxaraki
imat
imaza
imbecil
imdb
imfb
imi
imilla
imillakiritakix
imir
immanuel
imp
impact
imperativo
imperfecto
imperial
imperialismo
imperio
impersonales
impi
implorar
implorare
implore
implorer
importa
importancia
importante
importantes
imposible
impotente
impr
imprenta
impresiones
impreso
impresos
impropios
imre
in
ina
inacabada
inak
inakana
inakarakiw
inakawa
inakax
inaki
inalmam
inalmamax
inamayakiti
inamayaspawa
inamayaw
inamp
inampari
inas
inasyu
inatak
inaugural
inawaya
inay
inc
inca
incaica
incana
incas
incendio
inchupalla
incident
incienso
incierta
inclan
incluida
incluido
incluir
incluso
incluye
incluyen
incluyendo
incluyo
incompleta
inconclusa
inconcluso
inconnue
increible
ind
indep
indepa
independence
independencia
independentistas
independiente
independientes
indepeniente
index
india
indiana
indianapolis
indians
indias
indican
indicativo
indice
indies
indigena
indigenas
indio
indios
indipindinsya
indira
indoeuropeas
indole
indonesia
indre
indunisya
industria
industrial
industries
industry
indya
ine
inedita
ineditas
inedito
ineditos
inei
inermes
ines
inessa
infancia
infanta
infantas
infante
infantil
infantiles
infanzona
infeccion
infierno
infiltrados
infinitivo
infinito
inflamacion
influencers
influencia
info
infogob
infopesa
informacion
informatica
information
informativa
informe
inga
ingavi
ingenio
ingenioso
inglaterra
ingles
inglesa
inglish
inglisuyu
ingmar
ingres
ingrid
inguilpata
inhiniru
inhiniuru
inhumanos
ini
inicialmente
inicio
inigo
iniguez
injamawa
ink
inka
inkanakaw
inkanakax
inkanakaxa
inkat
inkawasi
inkawi
inkax
inkh
inkha
inklis
inlatirra
inlatirraxa
inlis
inlish
inlisiya
inlisya
inmaculada
inmakulada
inmortal
inmortales
innocence
innocents
innovacion
innovation
innsbruck
inocencia
inocencio
inocente
inocentes
inofuente
inolvidables
inoqat
inquietud
inquisicion
inquisiciones
inquisidor
inqwisiwi
ins
insecta
insecto
insegna
insight
insiklikakuna
insiklikanaka
inspector
inspirada
inspirado
insse
instantaneo
instante
instituciones
institut
institute
institution
instituto
institutos
instruccion
instrumental
instrumento
instrumentos
instrumentux
insula
insulae
inta
intawi
intawiri
integ
integracion
integracionista
integrado
integrando
integro
intelectual
intelectuales
intente
inter
interactive
interactivo
interamericano
intercontinental
intercultural
intereses
interior
interlingue
intermezzo
intermitencias
internacional
international
internet
interpreta
interpretacion
interpretado
interpretando
interpretation
interprete
interview
intestino
inti
intima
intimas
intimate
intime
intimidad
intimo
intina
intiurqu
intix
into
intocables
intransitivo
intransitivos
intrepidos
intro
introduccion
introducing
introduction
introductorias
intrusa
intruso
inuma
inuwit
invasion
invencible
invencion
inventario
inventos
invernadero
investigacion
investigaciones
investigates
invierno
invisible
involuntaria
inxa
io
ioannes
iosif
iowa
ip
ipa
ipac
ipariya
iparraguirre
ipenza
ipi
ippona
iprage
ipt
ipti
iptv
ipxarusipxi
iq
iqa
iqar
iqi
iqimp
iqinchiri
iqinchirinakax
iqini
iqinkiri
iqipax
iqipaxa
iqiptu
iqiqtu
iqir
iqisqa
iqita
iqitus
iqt
iqueno
iqui
iquique
iquitos
iqut
ir
ira
iraido
irakere
irama
iraman
iramana
iran
iraq
irasola
iray
ircash
ireland
irene
iri
iriarte
irigoyen
irina
irinak
irinaka
irinakan
irinakax
irineo
iris
irish
iritriya
iriwa
irlanda
irlandiya
irma
irnaqan
irnaqana
irnaqata
irnaqawi
irnaqir
irnaqiri
irnaqt
irpapxi
irpiri
irpirin
irpirinak
irpirinaka
irpirinakan
irpirinakax
irpiriw
irpirix
irptiripa
irptirixa
irpxarutayna
irregular
irregulares
irt
iru
irurita
is
isaac
isabel
isabella
isadora
isaias
isana
isaq
isaqa
isaqanakasti
isaqanakaxa
isaqaru
isaqax
isasi
isau
isauro
isbn
isca
isch
isi
isidora
isidoro
isidro
isidru
isimira
isinak
isinaka
isinakapax
isinakax
isinaksa
isinakx
isipa
isiri
isixa
isk
iskandariya
iskasin
iskay
isktas
iskuchaka
iskultur
iskus
iskusiya
iskusiyaxa
iskusstvo
isla
island
islandiya
islas
islay
isle
islli
isluwaqiya
isluwina
ismael
ismaele
ismaelillo
iso
isoisa
isola
isolde
ispana
ispanapa
ispanul
ispi
ispina
ispirantu
isqi
israel
israyil
israyilpa
issn
ist
istadu
istadunaka
istadus
istani
istarus
isthapht
isthapisina
isthapt
istiki
istoria
istrilla
istuna
it
ita
itaki
italaki
italaque
italia
italiana
italiano
italianos
italiya
italiyaxa
italo
italya
itapallux
itata
iti
itikilla
itinerario
itiwpiya
its
itt
itunes
iturbide
iturralde
iturrizaga
ituwata
itxa
iu
iua
iv
ivan
ivana
ivanov
ivanovich
ivo
ivy
iw
iwa
iwari
iwax
iwayin
iwcha
iwi
iwij
iwija
iwijanakawa
iwijanakaxa
iwijat
iwijaxa
iwinakap
iwis
iwisa
iwrukupa
iwrupa
iwrupana
iwrupapi
iwxt
ix
ixa
ixi
ixinakaniwa
ixit
ixuq
ixut
ixuta
iy
iya
iyada
iyan
iyana
iyanaka
iyani
iyar
iyara
iyarampi
iyarampit
iyararakiwa
iyarawa
iyaritawa
iyart
iyawsawinaka
iyawsirinakax
iyo
iz
izaga
izaguirre
izalco
izarra
izq
izquierda
izquierdo
j
j0
j1
j2
j3
j4
j5
j6
j7
j8
j9
ja
jacaras
jacas
jach
jacha
jachakarakiti
jachapxi
jachapxixa
jachha
jachi
jachiri
jacinta
jacinto
jacintu
jack
jackson
jacob
jacobo
jacobus
jacqueline
jacques
jade
jae
jaen
jagger
jaguar
jahrhundert
jaime
jaimes
jair
jairzinho
jak
jakan
jakana
jakanani
jakanapataki
jakanataki
jakanaxa
jakantak
jakapkiti
jakapxanapataki
jakapxaspa
jakapxi
jakapxiwa
jakarta
jakasi
jakasina
jakasipxi
jakasir
jakasiri
jakasirinakax
jakasiriwa
jakaspawa
jakawi
jakawiniwa
jakawipa
jakawipana
jakawipax
jakawipaxa
jakawisa
jakawiwa
jakawix
jakhthapinataki
jakhu
jakhuna
jakhunaka
jakhupa
jakhur
jakhuri
jaki
jakir
jakiri
jakirinaka
jakirinakaxa
jakiriwa
jakiwa
jakkiri
jakkiti
jakob
jakt
jakxapxi
jalanaqapjixa
jalanaqaskiri
jalanta
jalantarusti
jalantarux
jalaqaniri
jalca
jalil
jaliri
jalisco
jaljata
jaljatataynawa
jaljatawa
jaljayana
jalkiptawaxi
jall
jalla
jallpa
jallu
jalluk
jallump
jallumpiki
jalluntan
jallupacha
jallupachan
jallupachanx
jallupachaw
jallupachax
jallus
jalluw
jallux
jalnaqt
jalsu
jalsun
jalsurux
jaltas
jaltenco
jam
jama
jamach
jamaica
jamak
jamanaxa
jamannama
jamarakiw
jamas
jamch
james
jamhuri
jamp
jamuqan
jamuqanak
jamuqax
jan
jana
janampa
janchi
janchimpi
janchina
janchini
janchipa
janchipanxa
janchipaxa
janchiru
janchiruxa
janchitaki
janchixa
jancu
jane
janeiro
janes
janet
jangas
jani
janicha
janikiw
janikiwa
janipuniw
janir
janira
janirakis
janirakiw
janirakiwa
janiraw
janirkuch
janis
janit
janiw
janiwa
janjamakiw
jank
jankhar
janne
janos
janq
janqu
jansen
jant
januar
januari
january
janvier
jap
japanese
japon
japones
japonesa
japonica
japxi
jaq
jaqaru
jaqaypi
jaqe
jaqejh
jaqejj
jaqen
jaqenaka
jaqha
jaqhatatawa
jaqhi
jaqi
jaqichasin
jaqichasina
jaqimp
jaqimpi
jaqin
jaqina
jaqinak
jaqinaka
jaqinakampi
jaqinakan
jaqinakana
jaqinakapax
jaqinakar
jaqinakaru
jaqinakaruw
jaqinakarux
jaqinakaruxa
jaqinakas
jaqinakata
jaqinakataki
jaqinakatakixa
jaqinakaw
jaqinakawa
jaqinakax
jaqinakaxa
jaqinawa
jaqinsa
jaqipax
jaqiq
jaqir
jaqiru
jaqiruw
jaqis
jaqisa
jaqitaki
jaqitakis
jaqitakix
jaqiw
jaqix
jaqixa
jaqt
jaque
jaqui
jaqukipan
jaqukipanataki
jaqukipata
jaquntat
jaquntata
jara
jaramillo
jarana
jarani
jarapi
jararankh
jararankhunakkiw
jararankhunaks
jararankhux
jarawi
jarawiri
jardin
jardines
jardins
jarisin
jarisipxiritayna
jariyan
jark
jarkiri
jarpa
jaruchir
jasa
jasak
jasaki
jasi
jason
jat
jatha
jathi
jathiri
jattu
jatun
jauja
jauregui
javier
jawaharlal
jawari
jawas
jawasa
jawasana
jawi
jawillt
jawir
jawira
jawiranaka
jawiranakaru
jawirawa
jawirax
jawiri
jawq
jawsan
jawsana
jaxcha
jaxu
jay
jaya
jayakipan
jayan
jayanak
jayanca
jayankxanapataki
jaychjas
jaychjasisa
jayllinak
jaylliphust
jaylliri
jayllt
jayo
jayp
jaypach
jayriyan
jayriyanakiti
jayriyanapuw
jaysawinkamapxiwa
jayskataynati
jaytaniwapxiritayna
jaytapxistati
jayu
jayuk
jayun
jazan
jazyky
jazz
jb
jc
jd
je
jean
jeanette
jeanine
jeanne
jeberos
jefe
jeff
jefferson
jehova
jeiner
jempe
jenaro
jenna
jenny
jepelacio
jeremias
jerewan
jeronima
jeronimo
jerry
jersey
jerusalem
jerusalen
jesse
jessua
jesucristo
jesuitas
jesus
jeta
jeu
jeune
jf
jg
jh
jhenny
jhilmar
jhoni
jhonny
ji
jiabao
jiang
jich
jicha
jichh
jichha
jichhak
jichhakamasa
jichhakamax
jichhakamaxa
jichhapach
jichhasti
jichhaw
jichhax
jichhaxa
jichhu
jichhump
jichhurunakanjja
jichhurunakanx
jichhurunakanxa
jichhurunakax
jichhurunakkamasa
jichhurunakkamax
jichhurunxa
jichhurux
jijon
jik
jikhan
jikhani
jikisipxana
jikjatasini
jikjatasiwa
jikt
jikxatapxi
jikxatasi
jikxatasipxi
jil
jila
jilakiwa
jilanak
jilapxi
jilaqata
jilaqatamp
jilaqataw
jilat
jilata
jilatanak
jilatanaka
jilatax
jilaw
jilawa
jilax
jilguero
jilili
jilir
jiliri
jilpach
jilpacha
jilpachapinix
jilpachax
jilpachaxa
jilpachx
jilt
jim
jimena
jimenez
jimeno
jimi
jimmy
jin
jinchu
jinchuni
jinchupaxa
jinete
jinetes
jinnaru
jinping
jinq
jintao
jiphilla
jiphillampi
jiphillampixa
jiq
jiqjatasiwa
jiqxatasi
jirafa
jiruta
jisa
jisk
jiska
jiskt
jisktan
jisnaw
jisnawa
jist
jisucristu
jiwa
jiwakiwa
jiwan
jiwana
jiwanan
jiwanapkama
jiwasa
jiwasan
jiwasana
jiwasanakan
jiwasanakarux
jiwasanakax
jiwasax
jiwasaxa
jiwat
jiwata
jiwayiri
jiwq
jiwra
jiwt
jiwxi
jj
jk
jl
jm
jn
jne
jo
joan
joao
joaquim
joaquin
joaquina
job
joe
joel
jogo
johan
johann
johanna
johannes
john
johnny
johnson
joinville
joliet
jon
jonas
jonathan
jonava
jones
joplin
jorda
jordan
jordania
jorge
jornada
jornadas
jornal
jornu
jose
josef
josefa
josefina
joselito
josep
joseph
josephine
josias
josue
jour
journal
journals
journey
jovane
joven
jovenes
jovito
joya
joyce
jozef
jp
jpg
jq
jr
jristo
jrushchov
jrushchova
js
jt
ju
juajui
juan
juana
juaneco
juanjui
juarez
juazeiro
jubilar
juch
juchacharinakaw
juchachasir
judas
judenaka
judete
judetele
judge
judias
judicial
judit
judith
judy
juego
juegos
jueves
juez
jugada
juguete
juguetes
juicio
juipa
jujuy
juk
juka
jukka
juku
jukumari
julca
julcan
jules
juli
julia
juliaca
julian
juliana
julie
julien
julieta
julio
julius
julon
julve
july
jumanakataki
jumanakax
jumaxa
jumbilla
jump
jun
junction
june
juneau
jung
jungla
jungle
junin
junio
junk
junt
junta
junto
juntos
jupa
jupajj
jupamp
jupan
jupanakakiw
jupanakampix
jupanakan
jupanakar
jupanakarakiw
jupanakarux
jupanakast
jupanakasti
jupanakat
jupanakatak
jupanakatakix
jupanakaw
jupanakawa
jupanakax
jupanakaxa
jupanakpachax
jupankiri
juparuw
juparux
jupasti
jupaw
jupax
jupaxa
jupha
juphamp
juq
juqhu
jurado
juraj
juramento
juran
jure
juremos
jurgens
juridica
juridico
jurma
juro
jury
juscelino
jusiy
jusiya
just
justa
justice
justicia
justin
justina
justiniano
justino
justo
justupakiw
justuruw
justus
jutan
jutananxa
jutanayri
jutani
jutapxatayna
jutapxi
jutapxiri
jutatayna
juti
jutir
jutiri
jutirinakarux
jutiritayna
jutiriwa
jutixa
jutki
juvenal
juvenil
juveniles
juventud
juwao
juwri
juyakiwa
juyphi
juyphimp
juyphin
juyphis
juyphix
juyphu
juypi
juyra
juyramp
juyranak
juyranaka
juyranakaw
juyranakax
juyrawa
jv
jw
jx
jy
jz
k
k0
k1
k2
k3
k4
k5
k6
k7
k8
k9
ka
kabwe
kachi
kachimayu
kachka
kachura
kafka
kahaya
kahlo
kahn
kai
kaiserslautern
kaja
kajamp
kajun
kala
kalanku
kalba
kalinovka
kalita
kallachi
kallao
kallawaya
kallkis
kallpa
kalmo
kaltu
kam
kamachaspa
kamachi
kamachinak
kamachiq
kamala
kamalich
kaman
kamana
kamanana
kamananxa
kamani
kamanit
kamanix
kamanti
kamasqa
kamayuq
kamayuqnin
kambuya
kamilaqa
kamin
kaminker
kamirun
kamisaki
kamisatix
kampala
kampfer
kamri
kan
kanada
kanamarka
kananchik
kanaris
kanarya
kanchapampa
kanchaqi
kanchayllu
kandilarya
kanis
kaniti
kanitipi
kanka
kankallu
kankanamax
kansas
kansillir
kant
kanta
kantarawi
kantuyux
kapac
kapachika
kapchiy
kaphiy
kaphiyax
kapill
kapilla
kapillar
kapillas
kapilu
kapinuta
kaplina
kappelhoff
karachi
karakas
karanawi
karangas
karen
karenina
karin
karirqa
karkin
karl
karloff
karlos
karmin
karnawalnaka
karol
karqa
karqan
kartulsuyu
kartun
karu
kashamarka
kashamarkilla
kashapampa
kasharuru
kasi
kaskapara
kaskas
kasma
kaspar
kassel
kast
kasta
kastanaka
kastanakax
kastaw
kastawa
kastaxa
kastill
kastilla
kastillanu
kastillanump
kastillanut
katalina
kataluna
katari
kate
katharine
katherine
kathuliku
katia
katidral
katjana
kato
katt
katu
katunani
katunatakix
katuqapxatayna
katuqapxi
katuqi
katuqirinaka
katuri
katusipxarakiwa
katusipxi
katusiri
katxasiri
katz
kaul
kautivu
kawallu
kawalluqucha
kawapanas
kawkhans
kawkhanti
kawkhantix
kawkharus
kawkikamas
kawkins
kawkintixa
kawkiriti
kawkirus
kawkjanti
kawknir
kawksa
kawnas
kawri
kawsachkanku
kawsay
kay
kaya
kaykay
kaylluma
kayran
kayrani
kayu
kayump
kayunakani
kayunakapax
kayunakapaxa
kayunapana
kayuni
kayupasti
kayupax
kayuta
kazimierz
kb
kc
kd
ke
kean
kecua
kediaman
keep
keighley
keiko
kekule
kellkata
kelly
kenia
kenji
kennedy
kenneth
kenny
kentucky
kenya
kermit
kern
kersch
kertesz
key
keynes
keyserling
kf
kg
kh
kha
khalid
khalifa
khallka
khamar
khan
khanat
khari
khatatirinakawa
khaya
khaysa
khichwa
khillaypampa
khirkhi
khisturi
khith
khithiti
khiti
khitirus
khitis
khitisa
khitiy
khituta
khiwina
khiwt
khiwtas
khuchhi
khuchhix
khuchuna
khullu
khulluna
khullunaka
khullunakana
khullunakaxa
khumuri
khunu
khunus
khunux
khusawa
khuskat
khusu
khuyapayiri
khuyay
khuysar
ki
kichis
kichwa
kid
kidaynay
kiel
kieler
kierling
kikacha
kikihana
kikipa
kiko
kikongo
kikpa
kilawani
kilimanjaro
kill
killapampa
killapi
killaqullu
killer
killing
killu
kilmana
kilogramo
kilumitru
kim
kimika
kimsa
kimsan
kimsani
kimsaniw
kimsantin
kimsaqal
kimsaqallq
kimsaqallqu
kimsaqallquni
kimsaqalq
kimsaqalqu
kimsar
kimsarakiwa
kimsatunka
kimsiri
kinchis
kind
kinder
kinderhook
king
kingdom
kiniping
kinistakilla
kinks
kinsa
kinto
kinuqay
kinuta
kinwa
kinwapampa
kinya
kinyarwanda
kipka
kipkakiwa
kipkarakiwa
kipqapurapkiti
kira
kirawara
kirche
kirchner
kirdzhali
kiripati
kirk
kirundi
kis
kiskachay
kiskaniwa
kiski
kiss
kisu
kisump
kisus
kisuwa
kiswar
kiswara
kitara
kitarovic
kitjata
kitu
kitula
kiyaqa
kiyorxiya
kj
kk
kl
klasisismu
klaypida
klein
kleine
klose
klub
km
kn
knight
knights
knockout
knoff
knopf
know
known
knox
ko
kobayashi
kobenhavn
koch
kocsis
kodama
kohl
kolinda
kollao
koln
kommentare
konex
kong
kongo
konigsberg
konrad
konskowola
kopa
korpern
kosnipata
kotapata
kouri
kozep
kozmic
kp
kq
kr
kragujevac
kramer
kraus
krause
kristen
kristina
kristobal
kristu
kristuwal
kroger
krolewski
krull
krupa
krus
krusiru
krusnaka
kruwatiya
kruz
kruznaka
ks
kt
ku
kuba
kubitschek
kubrick
kucha
kucharkas
kuchawampa
kucma
kuhnel
kuk
kuka
kukachakra
kukapampa
kukaxa
kulasay
kulcha
kulka
kullaka
kullakanaka
kullakanakaw
kullakanakax
kullakanax
kulta
kulumbu
kulunya
kuluranakat
kuluwya
kumaratunga
kumbinsyun
kumpa
kumunista
kun
kuna
kunalaykutix
kunalaykutixa
kunanaka
kunanakas
kunanakati
kunanaks
kunapachas
kunapachati
kunapachatix
kunapachatixa
kunapxarakiriwa
kunapxarakiwa
kunaraki
kunarakiw
kunarakiwa
kunarus
kunas
kunasa
kunat
kunata
kunatakisa
kunati
kunatix
kunatixa
kunats
kunatti
kunaw
kunawrasatix
kunawsati
kunawsatix
kunawsatixa
kunayman
kunaymana
kunaymanat
kunaymanaw
kunaymani
kunchuku
kundadu
kungu
kuniklo
kunio
kunjam
kunjama
kunjamakitix
kunjamas
kunjamasa
kunjamati
kunjamatix
kunjams
kunjamsa
kunjamti
kunka
kunkankiwa
kunkar
kunkata
kunrak
kuns
kunsa
kunshan
kunsipsyun
kunsthistorisches
kuntamana
kunti
kuntininti
kuntisuyus
kuntix
kuntur
kunturiri
kunturirix
kunturkanki
kunturmarka
kunturuma
kunxatsa
kuo
kupa
kupi
kupisniki
kuraka
kurakan
kuraqwasi
kurasku
kurimana
kuritiwa
kuriya
kurkulla
kurmin
kurosawa
kurt
kuru
kurunku
kururu
kusa
kusakiti
kusi
kusikancha
kusikusi
kusipata
kusisit
kuska
kust
kustarika
kustarikapa
kut
kutawaita
kutawasi
kuti
kutimurqayku
kutis
kutiw
kutiwa
kutix
kutt
kuwait
kuwixa
kuyaypa
kuysmanku
kuyu
kv
kw
kwame
kwei
kx
ky
kyoto
kz
københavn
l
l0
l1
l2
l3
l4
l5
l6
l7
l8
l9
la
labarta
laberinto
labor
labrador
labruna
lacagaha
lacagta
lachaqui
lacrima
lactea
lacteos
ladera
ladies
ladimir
ladislao
lado
ladrillo
ladron
ladrones
lady
lagarto
lago
lagos
lagrima
lagrimas
laguardia
laguna
lagunas
lahitte
laime
laines
laisnay
laja
lajas
lajos
lak
laka
lakan
lakanakan
lakanakanx
lakanakaru
lakapa
lakar
lakaru
lakata
lakaxa
lake
lakiri
lakit
lakita
lakitax
lakxatxa
lalanakas
lalaquiz
lama
lamanax
lamar
lamara
lamarqota
lamarque
lamas
lamay
lambayeque
lambert
lamento
laminas
lampa
lampalliqi
lampara
lampiyan
lamrama
lamud
lan
lana
lanceros
lanchipa
lancones
land
landa
landazuri
landers
landes
landeshauptstadt
landi
landing
lang
langer
langston
language
languages
langue
languedoc
lani
lanka
lankhu
lanki
lansing
lant
lanti
lantix
lanzado
lanzarote
lanzo
lao
laos
laozi
lap
lapa
lapak
lapaka
laphi
laphinaka
laphinakani
laphinakar
lapin
lapisa
lapiz
laq
laqakirakiw
laqampu
laqapampa
laqunaka
laquxa
lara
laram
larama
laramanaka
laramarka
laramate
laramati
laran
laraos
laraw
larceny
larco
larecaja
laredo
larekaja
lares
larga
large
largo
largometraje
lari
laris
larme
larqay
larrea
larrieu
larriva
larry
lars
larus
larya
las
lasai
laso
laspra
lassie
lasso
last
lastenia
lasu
laszlo
lat
lata
latajamach
latata
later
latin
latina
latino
latinoamerica
latinoamericana
latinoamericano
latinu
lattes
lau
laughing
laughter
laulhe
laura
laure
laureano
laurel
laureles
lauren
laurence
laurent
lauriano
lauricocha
laurido
lautner
lavado
lavalle
lavalleja
lavarello
lavinia
lavoe
lavoisier
law
lawa
lawan
lawanakamp
lawanakat
lawar
lawat
lawata
lawaytampu
lawrence
lawriqucha
laws
laxra
laxrampi
lay
laya
layal
layanakanxa
laykuw
layme
layu
lazaro
lazo
lb
lc
ld
le
lead
leader
leaf
league
leal
lealtad
leandro
learn
learning
leave
leaves
lebah
leben
lebu
lecca
leccion
lecciones
lech
leche
lector
lectores
lectura
lecturas
lectures
led
leda
ledesma
lee
leer
leerner
legacy
legal
legales
legend
legende
legends
legge
legion
legionarios
legislativo
legua
leguia
leh
lehrbuch
leibniz
leiden
leila
leipzig
leite
leiva
lejana
lejanos
lejos
lelis
lema
lemus
lena
lengua
lenguaje
lenguandina
lenguas
lenin
lennon
lennox
lenox
leo
leocadio
leon
leonard
leonardo
leoncio
leone
leonela
leoni
leonid
leonidas
leonor
leonora
leontiev
leopard
leopold
leopoldo
lepic
lepoldo
lerche
lerdo
lerma
lermo
leroy
les
lescano
lescaut
leslie
let
leteo
leticia
letonia
letra
letras
letrilla
letter
letteratura
letters
lettres
letzte
leucocitos
leucophaeus
lev
levano
levantado
levantamientos
levanto
leveau
levi
levis
lewis
lexema
lexico
lexus
ley
leyenda
leyendas
leyendo
leymepampa
leyva
lezama
lezameta
lezcano
lf
lg
lh
li
liang
libano
libanu
liberace
liberacion
liberadur
liberal
liberalismo
libertad
libertador
libertadur
liberto
libia
libido
libiya
libor
libr
libra
library
libre
libreria
libres
libreto
libri
libro
libros
libya
licet
lichi
licitacion
licoes
licupis
lid
lidia
lidiar
liebre
liechtenstein
lieder
liedes
lienzo
lietuvos
liextinstin
life
ligature
ligera
liggi
light
ligia
lihon
lik
like
lila
lilacs
lilas
lilia
lilian
liliana
lille
lillian
lily
lima
limache
limachi
limapampa
limaq
limatampu
limber
limena
limenas
limeno
limite
limited
limites
limoges
limousin
limpani
limpias
limpuw
lin
lina
linares
lince
lincha
lincoln
linda
lindas
linder
lindley
lindo
lindstrom
line
linea
lineas
linera
lines
ling
lingala
lingan
lingua
linguistico
linguisticos
lingvo
linistit
link
links
lino
linq
linus
linux
linz
lio
lion
lionel
lions
lip
lipa
lipis
liq
liqi
liqiliqixa
liqix
liquidacion
lira
lirica
liricas
lirico
lirio
lirqay
lisa
lisboa
lisieux
lisle
lisson
list
lista
listado
listaref
liszt
literal
literaria
literarias
literario
literarios
literatura
literaturas
literature
litografia
litoral
litterature
littiratura
little
littlegreen
lituana
lituani
lituania
lituaniya
lituna
liu
liudmila
liv
live
liverpool
lives
livia
living
livre
livro
liwi
liwitaka
liwru
liyun
liz
liza
lizana
lizano
lizardo
lizarraga
lizarralde
lizarzaburu
lj
lk
ll
llacsahuanga
llallagua
llalli
llama
llamada
llamadas
llamado
llamados
llaman
llamaq
llamas
llamay
llamayu
llamillin
llamo
llamosas
llamp
llampu
llamyu
llancari
llank
llano
llanos
llanto
llanura
llapa
llapan
llapanchik
llapu
llaqanura
llaqllin
llaqta
llaqtam
llaqtap
llaqtapi
llaqtayuq
llata
llatunk
llatunka
llauta
llaves
llawta
llaxtaman
llaylla
llega
llegan
llegaste
llego
llenar
lleno
lleras
llerena
lleva
llevan
llevando
llevar
llevo
llibres
llica
llicuar
lliju
llika
llimphiri
llimphiy
llimphiyri
llimphyri
llink
llinmphiy
llipa
llipata
lliphi
lliuya
lloc
llona
llopis
llora
lloran
llorar
llore
llores
llosa
llover
lloyd
lluch
lluchiqa
llueve
llulluy
llumpa
llumpaqa
llunkumarka
llupht
lluq
lluqllapampa
lluqu
lluque
lluquxa
llusk
lluskhuri
llust
lluta
lluvia
lluxma
lm
ln
lo
loa
loaiza
loarte
loaysa
loayza
lobitos
lobo
lobos
loca
local
locales
location
loci
loco
locos
locuitori
locura
logica
logico
loi
loiber
loir
loire
loja
lola
loli
lollobrigida
lolo
lomas
lombard
lombardi
lomonossov
london
londra
londres
lone
lonely
lonesome
long
longar
longest
longinote
longotea
longuita
lonya
loo
look
looking
looz
lope
lopecancha
lopes
lopez
lora
lorca
lord
lordi
lordly
loren
lorentz
lorenza
lorenzo
lores
loretana
loreto
loretona
loro
lorraine
los
losada
losey
lossio
lost
lot
lota
loteria
lothar
lotti
louie
louis
louisa
louise
louisiana
louisville
lounge
lourdes
louse
loustau
louvre
love
loved
lovers
low
lowell
lower
loyola
loyseth
loza
lozada
lozano
lp
lq
lr
ls
lse
lt
lu
lua
luanda
luar
lubeck
lubre
luca
lucana
lucanas
lucas
lucca
lucero
luces
lucha
luche
luchemos
luchino
lucia
luciani
luciano
lucidez
lucien
lucientes
lucila
lucille
lucinda
lucio
lucky
lucma
lucre
lucrecia
luctuoso
lucy
ludecino
ludena
ludgerio
ludmilia
ludovico
ludwig
ludwigshafen
ludwigskirche
luego
luft
lugar
lugares
lugger
lugo
lugosi
lui
luigi
luis
luisa
lujan
luk
luka
lukana
lukanamarka
lukma
lukri
lukruqa
lukumpa
lullaby
lulu
lumas
lumen
lumiere
luna
lunar
lunawana
lune
lunes
lunthat
lup
lupa
lupaca
lupe
luperio
lupi
lupimp
lupimpi
luqa
luqanakxankarakiwa
luqmapampa
luque
luran
lurana
lurananaka
luranani
luranapinitaynawa
luranataki
luranatakix
luranatakixa
luranaw
luranawa
luranaxa
luranxama
lurapxana
lurapxaraki
lurapxi
lurapxiritana
lurapxiritayna
lurapxiwa
lurasi
lurasipki
lurasipxi
lurasirakispawa
lurasiski
lurasispa
lurasiw
lurasiwa
lurat
lurata
luratanakax
luratapax
luratataynawa
lurataw
luratawa
lurawin
lurawinak
lurawinaka
lurawinakap
lurawinakaw
lurawinakax
lurayiri
luri
lurigancho
lurin
lurinzu
luriqucha
luriri
luritu
lurt
lurtana
lusaka
lusinchi
lusiya
lutero
luther
luto
luva
luxemburg
luxemburgo
luximbur
luya
luyantu
luyo
luz
luzmila
luzuriaga
lv
lw
lx
ly
lydia
lydnevi
lynch
lynchs
lyndon
lyngstad
lyon
lys
lyun
lz
m
m0
m1
m2
m3
m4
m5
m6
m7
m8
m9
ma
maarten
maas
mabel
mabovitch
maca
macaamilada
macae
macapa
macapagal
macario
macavilca
macazana
macbeth
macdonald
maceda
macedo
macedonio
mach
machaca
machado
machala
machaq
machaqa
machaqway
machel
machi
machiavelli
machine
machk
macho
machos
machu
machuca
macias
maciste
maclean
macmillan
macondo
macri
maculipennis
macusani
mad
madama
madame
made
madeleine
mademoiselle
madera
madia
madingou
madison
madiyan
madonna
madre
madres
madrid
madrigal
madrina
madriz
madryn
mae
maestra
maestro
maestros
mafaldo
magalhaes
magallanes
magaly
magazine
magda
magdalena
magdeburg
maggie
magia
magic
magica
magico
magisteriales
magna
magnani
magnesio
magni
magnificent
magno
mago
magos
maguina
maguncia
magyarorszag
mahatma
mahler
mahoma
mai
main
maine
maino
mainz
maior
maison
maisons
maitres
maiz
maja
majayk
majestad
major
mak
make
maker
makers
maki
makiduna
making
makirakiw
makiw
maksim
makusani
mal
mala
malabrigo
malaga
malam
malasya
malayu
malca
malcolm
maldini
maldita
maldito
maldiwanaka
maldonado
male
malecon
malfatti
malferit
malgre
malherbe
malku
mallk
mallku
mallkuw
mallkux
malloch
mallorca
mallory
mallq
mallqui
malmo
malo
malory
malos
malpartida
malquerida
malqui
malta
maltis
malvas
malwas
mama
mamacha
mamajan
mamajax
mamalilluxa
maman
mamani
mamanin
mamanixa
mamara
mamat
mamax
mambo
mami
mamifero
mamuraya
man
mana
management
managing
managua
manama
manana
manantay
manantial
manas
manasu
manawa
manawiki
mancha
manchar
manchego
manchester
manco
mancora
mandarin
mandarte
mande
mandela
mandinga
mando
mandura
manera
manet
manfredi
manfredo
mango
manhattan
mani
manifestacion
manifiesto
manila
manilow
manipulacion
manizales
mankas
manku
mankuq
mann
mano
manolito
manolo
manon
manos
manq
manqa
manqana
manqaphi
manqasippxiwa
manqha
manqhan
manqhana
manqhanakan
manqhanakaruw
manqhancha
manqhankiri
manqhankiwa
manqhanxa
manqhar
manqharu
manqhat
manqhata
manqhi
manqi
manrique
mansa
mansanaris
manserichi
mansfield
mansion
manso
manta
mantanawa
mantapas
mantari
mantaru
mantasaxa
mantasina
mantasir
mantecon
mantes
manti
mantienen
mantilamp
mantilla
manu
manual
manuei
manuel
manuela
manuelcha
manuelita
manuelo
manuscrito
many
manyavilca
manzana
manzanares
manzanilla
mao
maori
map
mapa
mapas
maplandia
mapping
mapuchi
maputo
maq
maqa
maqari
maqati
maqhis
maquera
maquia
maquiavelo
maquina
maquinanakapas
mar
mara
maracaibo
maradona
marakay
marakaywu
maramanta
maramba
maran
marana
maranaka
maranakan
maranakana
maranakanwa
maranakanx
maranakanxa
maranakata
maranakaw
maranakawa
maranakax
maranakxarux
maranatakiwa
maranhao
maranicha
maraniti
maraniw
marankani
maranon
maranun
maranura
maranw
maranwa
maranx
maranxa
marapi
marapis
maras
marat
marata
maratak
maravi
maravilla
maravillas
maravillosa
maraw
marax
maraxa
marc
marca
marcabal
marcador
marcas
marcel
marcela
marcelina
marcelino
marcellin
marcello
marcellus
marcelo
marcet
march
marcha
marchena
marcia
marcial
marciano
marco
marcona
marconi
marcos
marden
mardonio
mare
marea
mares
margaret
margaretha
margarida
margarita
margen
margot
margrethe
mari
maria
mariachi
mariage
mariana
marianela
marianna
marianne
mariano
marias
mariategui
marido
maridos
marie
marillac
marilyn
marin
marina
marinas
marino
marinos
mario
mariposa
mariposas
maris
marisa
mariscal
mariscala
marisol
maritime
maritza
marius
mariya
mariyas
marjorie
mark
marka
markachiri
markachirinakar
markachirinakata
markachirinakax
markachirinakaxa
markachiriw
markaja
markam
markampiw
markan
markana
markanak
markanaka
markanakajh
markanakan
markanakana
markanakans
markanakanwa
markanakanx
markanakanxa
markanakapax
markanakaruw
markanakat
markanakaw
markanakaxa
markani
markanja
markankirinakax
markankiwa
markanmi
markanx
markanxa
markap
markapampa
markapata
markapataynawa
markapi
markapumaqucha
markaq
markaqillqiri
markar
markara
markaru
markaruw
markarux
markas
markasana
markasatx
markat
markata
markataynawa
markatpach
markatx
markawa
markawillka
markax
markaxa
market
marketers
marketing
markii
markjam
marku
markus
markx
marlene
marley
marlon
marmol
marmontel
marmut
marne
maron
marpachaw
marple
marques
marquesado
marquez
marquina
marquise
marquna
marqus
marrakech
marreros
marriage
marron
marroquin
marruecos
mars
marseillaise
marseille
marsella
marsellesa
marshall
marsı
marta
martel
martha
marti
marticorena
martin
martina
martinelli
martinez
martino
martins
martir
martires
martirio
maru
maruku
maruri
marvelli
marx
marxisme
marxismo
marxista
mary
maryatana
maryland
marzo
mas
masa
masacre
masamari
masan
masas
masatepe
mascara
mascaras
maschera
mascheroni
mascota
masculina
masculino
masegkai
masi
masias
masimpi
masin
masinakana
masinakataki
masinakax
masisaru
masisea
masit
masjt
mask
maskarani
masma
mason
maspoli
masques
massachusetts
mast
mastai
master
mastitis
mastroianni
mat
mata
matalaqi
matan
matancera
matanza
matanzas
matapalu
mataqutu
matar
matara
matawasi
mate
mateca
matematica
matematicas
maten
mateo
mateos
mater
materia
material
materialismo
math
mathapit
mathematica
mathematics
mathematik
mathematiques
matias
matilde
matimatica
matin
matina
matinal
mato
matorras
matos
matrimonio
matrimonios
matsuo
matta
matteucci
matthaus
matthews
matthias
mattino
matto
mattos
matu
matucana
matukana
maturana
maturin
matus
mau
maucci
maude
maupassant
maureen
maurice
mauricio
maurino
mauro
mautino
mauvais
mavi
mawri
max
maxima
maximas
maximiliano
maximo
maxwell
may
maya
mayachat
mayachata
mayacht
mayak
mayamp
mayan
mayanakjam
mayani
mayari
mayasti
mayata
mayaw
mayax
mayaxa
mayer
mayerling
mayfield
mayir
mayiri
mayiristi
mayirix
mayirixa
mayj
mayja
mayjakiptataxiwa
mayjam
mayjanak
mayjarakiwa
mayjatarakiw
mayjaw
mayjawa
mayjt
mayn
maynard
maynas
mayni
maynikam
maynikamax
maynin
mayninakax
mayninakaxa
maynirinakasti
maynirinakax
maynit
mayniw
maynix
mayo
mayor
mayorga
mayoria
mayotte
maysa
maysar
maysaru
maysat
maysata
maysatax
maysatsti
maysatuqit
maysatuqitx
maysatx
maysatxa
maystra
mayt
mayta
mayu
mayukuna
mayunaka
mayuq
mayuruxa
mayutata
maza
mazawike
mazeikiai
mazo
mazzola
mb
mc
mccartney
mccj
mcginty
mcgovern
mckinley
mclaurin
mcqueen
md
me
meazza
meca
mecklenburg
medal
medalla
medecin
medel
medellin
media
medianoche
mediante
mediasinfo
medicina
medicis
medico
medida
medina
medio
mediodia
medios
meditacion
meditaciones
mediterraneo
medrano
meets
meg
megamix
mego
megyek
mehta
meiggs
meijere
meinem
meir
mej
mejia
mejias
mejico
mejor
mejores
melancolia
melania
melanio
melauchlan
melbourne
melcher
melchiorre
melchor
melchora
melchorita
melecio
melendez
melgar
melgarejo
meliton
melo
melodia
melodrama
melon
melquiades
melquiadez
melville
memoirs
memorandum
memoria
memorial
memoriam
memorias
memorioso
memory
memphis
men
mena
menachem
menacho
mendelssohn
mendes
mendez
mendigo
mendivil
mendizabal
mendocilla
mendoza
menem
menendez
meneses
menor
menores
menos
menotti
mensaje
mensajes
menta
mente
mentira
mentiras
menuet
mer
mera
mercaderes
mercado
mercatali
merced
mercedes
merchandise
merchandising
mercure
mercurio
mercury
merda
mere
merea
merello
merida
meridional
merino
merisi
merito
merkel
merlo
merma
merrill
mery
meryl
mes
mesa
mese
mesero
meses
mesia
mesias
mesoamerica
mesones
mesopotamia
messina
mestanza
mestizaje
mestre
meta
metafisica
metal
metalibri
metamorfosis
metaphor
metaplantilla
meteorologicos
metiendo
metodo
metodos
metralla
metro
metropolitan
metropolitana
metropolitano
metros
mette
metz
meu
mexican
mexicana
mexicano
mexicanos
mexico
mexihco
meyer
meyzan
meza
mf
mg
mh
mi
mia
miami
micaela
mice
mich
micha
michael
michel
michelangelo
michelle
michels
michigan
michoacan
mick
mickey
middle
mide
midi
midiku
midnight
midsummer
miedo
miedos
miel
miembro
mientras
miercoles
mierda
mifune
miguel
miguelito
mihaly
mijiku
mikaela
mike
mikhail
mikko
miklos
mil
milagre
milagro
milagros
milan
milanes
milano
milder
mildred
milecio
miles
milestone
militar
militares
militarregierung
military
milk
milko
milky
milla
millar
millard
mille
miller
millk
millki
millon
millonario
millones
millos
millun
milluna
milluni
milner
milos
milpuc
milton
milwaukee
mimi
mimul
mimulax
min
mina
minas
minaya
mind
mindernickel
minedu
mineira
minera
minerales
minero
minh
mini
miniserie
ministerio
ministro
ministru
miniwusat
mink
minna
minneapolis
minnelli
minnesota
minotauro
minsk
minuto
minutos
mio
mir
mira
miracle
miracosta
mirada
mirador
miraflores
mirage
miranda
mirantapxaraki
mirantapxi
miraval
mirbeau
mircidis
mireya
mirgas
miriam
miro
miroslav
mirra
mirror
mirrors
mirta
mirtha
mis
misa
misael
miscelanea
miscelaneas
miserias
misericordia
misfits
mishana
mishiku
misi
misiku
mision
misioneronakax
misiones
misk
miskolc
misma
mismo
miss
missa
missing
mississippi
missouri
misterio
misterios
misteriosa
misterioso
misti
mistica
mistjapxi
mistral
mistsu
mistsun
mistsuna
mistsuni
mistsupxi
mistu
mistuna
mistuni
mistupxi
mit
mita
mitad
mitala
mitaparjam
mitati
mitchell
mito
mitologico
mitos
mitre
mitterrand
mitu
miur
mix
mixer
mixikali
mixiku
miyasawa
mizoguchi
mj
mk
ml
mm
mn
mnr
mo
moarte
mocambique
mocedad
moche
mochica
mocomoco
moctezuma
modelo
modelos
modern
moderna
moderno
modesto
modi
modificar
modo
modos
modugno
module
mogambo
mogollon
mogrovejo
mohamed
mohammed
mohandas
moho
moi
moines
mois
moises
moitie
mojiganga
molajoli
moldavia
moldova
moliere
molina
molinari
moline
molinopampa
molinos
mollebamba
molleda
mollendo
mollepata
mollo
mollohuanca
mom
momento
momentos
mona
monaco
monaguillo
monarquia
monasterio
moncada
moncermin
moncloa
mondadori
monde
mondo
mondragon
moneda
monet
money
monge
monica
monico
monika
monja
monje
monk
monnet
mono
monologo
monos
monroe
monrroy
mons
monsalve
monsefu
monsenor
monsieur
monson
monster
monstruo
montagne
montalban
montalvan
montalvo
montana
montanas
montand
montanez
montanha
montano
monte
monteagudo
montealegre
montecristo
montehermoso
montenegro
montero
monterrey
montes
montesinos
monteverde
montevideo
monteza
montgomery
month
montiel
montilla
montini
montoya
montreal
montserrat
montuno
monumento
monumentos
monzon
moods
mool
moon
moonlight
moore
moquegua
moqwegwa
mora
moradas
moraima
morais
moral
morales
moran
more
moreano
moreau
moreira
morelia
morelos
morena
moreno
moretti
moreyra
morfemas
mori
morillo
morir
morning
moro
morocco
morochucos
morococha
morona
morosoli
morre
morris
morrison
morropon
morros
mort
morte
mortiz
mory
mosca
moscol
moscoso
moscu
moselle
moses
mosku
mosquera
mosqueteros
mossa
most
mostajo
mostejo
mostrar
mot
motecuhzoma
mother
motin
motivo
motivos
motor
motorhead
motricidad
motta
motupe
motupi
mougins
mount
mountain
mountains
mouse
mousetrap
mouton
mov
movie
moviemiento
movil
movimiento
moving
moya
moyano
moyobamba
mozambique
mozart
mozo
mp
mphu
mpi
mpis
mpiw
mpix
mq
mr
mrs
ms
msc
msnm
mt
mtv
mu
mucca
much
mucha
muchacha
muchachas
muchacho
muchachos
muchas
mucho
muchos
muchumi
muda
mudo
muelle
muere
mueren
muerta
muerte
muertes
muerto
muertos
muestra
muevete
muhammad
muhu
mujer
mujercitas
mujeres
mujica
mujinapax
mujlli
muju
muki
mukiwa
mukiyawyu
mulanpi
mulata
mulduwa
mule
mulinu
mulinus
muller
mulli
mullintu
mullipampa
mullipata
mulliwaya
multa
multimedia
multiterritorial
munaku
munana
munanamasti
munananakaparxamakiw
munanaparjam
munani
munapkti
munapxana
munapxaraki
munapxi
munapxiti
munarakina
munasi
munasina
munata
munatawa
munayco
munayman
munchen
muncin
mundaca
mundi
mundial
mundiales
mundo
mundocine
mundos
mundu
mundy
munecas
munguia
mungul
muni
munich
municipal
municipales
municipalidad
municipio
municipios
munisipiyunaka
munisipyu
munisipyuxa
munive
muniw
muniwa
munkanti
munki
munkiri
munktanti
munnu
munos
munoz
munsun
muntan
muntana
muntanwa
muntiniru
muntividew
munupampa
munus
munxapxasmachi
muqiwa
muqu
mur
mura
murakami
murales
muralla
murat
murcielago
murder
murders
murdoch
murga
murgia
muriendo
murieron
murillo
murio
murmunan
muro
murqulla
murrupi
murrupun
muru
muruchuku
muruq
muruqt
muruqucha
musambiki
museo
museos
museu
museum
museveni
mushqa
music
musica
musical
musicales
musicos
musika
musin
musinu
musiyu
musq
mustela
musuq
musuqllaqta
mut
muti
mutiny
mutual
mutupi
mutuwi
muxsa
muxsawa
muy
muya
muytasa
muyu
muyuntapxatayna
muyupampa
mv
mw
mx
my
myanmar
myspace
mysteries
mysterious
mystery
mz
n
n0
n1
n2
n3
n4
n5
n6
n7
n8
n9
na
nabucco
nac
nacari
nacer
nach
nacimiento
nacion
nacional
nacionales
nacionalismo
nacionalista
naciones
nada
nadal
nadezhda
nadia
nadie
nadine
naess
nagay
nahuatl
naiza
najarro
nak
naka
nakat
nakataki
naked
nakhiri
nam
nama
namakis
namballe
name
named
names
namura
nan
nana
nanakan
nanakar
nanakax
nanay
nanchuq
nanci
nancy
nang
nannu
nanqha
nanqhanakata
nantes
nao
napaico
naples
napoleon
napoles
napoli
napu
naqa
nar
naranja
naranjo
naranjos
narciso
narcizo
narendra
narino
nariz
narraciones
narradora
narrativa
narrative
narrator
narro
nas
nasa
nasani
nasapaxa
nasau
nasaud
nasazzi
nasca
nascimento
nashap
nashville
naska
naso
nassau
nasser
nasu
nasyunal
nat
natacha
natal
natalia
natalicio
natalie
natalija
natasha
national
nationale
nativa
natividad
natiwidad
natiwydad
natura
natural
naturales
naturaleza
nature
naufragos
nausea
nauta
navaja
navarone
navarra
navarrete
navarro
navaxu
nave
navegacion
navegantes
naves
navia
navidad
navideno
navy
nawa
nawan
nawatl
nawidad
nawikaruy
nawinpukyu
nawpaq
nawta
naxu
naya
nayarit
nayasti
nayaw
nayax
nayluna
nayr
nayra
nayrakat
nayrampi
nayranakanikirakiwa
nayranakaniwa
nayranakapax
nayranakapaxa
nayrani
nayrapach
nayrapacha
nayrapachanakatpach
nayrapachanakatpacha
nayrapachanakatpachsa
nayrapachanakatpachwa
nayrapachanakax
nayrapachanx
nayrapachax
nayrapaxa
nayraqat
nayraqata
nayraqatarux
nayraqatasti
nayraqatax
nayraqatpachxa
nayrar
nayraru
nayratpach
nayraw
nayrax
nayraxa
nayraxaru
nayri
nayrir
nayriri
nayririx
nayrj
nayrja
nayrjam
nayrxam
nazarenas
nazareno
nazarenu
nazareth
nazaria
nazarinu
nazario
nazca
nb
nc
nd
ne
neal
near
nebraska
nebst
nebula
necesario
necesidad
neder
nee
need
neeskens
negocio
negocios
negra
negrete
negro
negroes
negron
negros
nehru
neige
neighbors
neil
neira
nejedly
nelfa
nelly
nelson
nemecio
nemesio
nemesis
nemo
neo
nepena
nepomuceno
neptuno
neri
nernst
nero
neruda
nervioso
nery
nest
nestor
net
network
neue
neuen
neues
neuf
neuilly
neuquen
nevada
nevado
nevar
neve
never
neves
nevezis
neville
new
newark
newman
news
newton
next
nextlalpan
ney
neyra
nez
nf
ng
nguyen
nh
nha
nhoa
ni
niagara
nicanor
nicaragua
nicaraguense
niccolo
nice
nicholas
nicholson
nicola
nicolas
nicomedes
nicu
niculas
nido
niebes
niebla
niedersachsen
niels
niepos
nieto
nietzsche
nieva
nieve
nievenaka
nieves
niger
nigeria
nighiru
night
nightingale
nights
nigru
niguru
nihongo
nihun
nik
nikarwa
nikasyu
nikita
nikola
nikolai
nile
niler
nilo
nils
nilser
nilton
nina
ninamp
ninampi
ninanya
ninapampa
ninaqaqa
ninasuyu
nine
ninez
ninguna
nini
nino
ninon
ninos
ninu
nipal
nipina
niptunu
niq
niqin
niqir
niqirya
niqit
niquen
nirlandis
niro
niru
nisqa
nisqaqa
niteroi
niuru
nivalis
nivardo
nivel
niveles
nivi
nivuru
nixon
niy
niya
niyak
niyas
niyaw
niza
nizamade
nj
nk
nkrumah
nl
nm
nn
no
nobel
nobis
noble
noblecilla
noboa
noces
noche
noches
nocion
nociones
nocturna
nocturno
nocturnos
noe
noel
noemi
noi
noir
noire
noite
nokto
nolasco
nolberto
nom
nombre
nombres
nome
nomen
nomi
nominacion
nominado
nominalizador
nomine
nomu
non
nonato
none
nonno
noon
nor
nora
norberto
nord
nordrhein
noriega
norma
normal
normalmente
norman
normandie
noroeste
noronha
norsk
norte
norteamerica
north
northampton
northanger
northern
norveli
norway
nos
nose
nosotras
nosotros
nossa
nosso
nostalgia
nostra
nostrum
not
nota
notas
notes
nothing
nothomb
noticia
noticias
noticieros
notre
notting
noun
nous
nouvelle
nov
nova
novak
novara
novecientos
novel
novela
novelas
november
noveno
novia
noviembre
novio
novios
novo
novoa
novola
novos
novum
now
nowiki
nowy
np
nq
nr
ns
nt
ntra
nu
nube
nubes
nuble
nuclear
nucleo
nuestra
nuestras
nuestro
nuestros
nueva
nuevamente
nuevas
nueve
nuevo
nuevos
nuez
nuflo
nugkuag
nuiautri
nuit
nuiwa
nukkua
nukt
nuku
nulin
numa
number
numero
numeros
numerosas
numerosos
nummiru
nun
nunca
nunez
nuno
nunoa
nunu
nunupaxa
nunur
nunura
nunuri
nunuwa
nunuxa
nuova
nuqa
nuqayku
nur
nuremberg
nurse
nurueka
nurweka
nut
nutans
nuwhurud
nv
nw
nx
ny
nyabarongo
nyanza
nyerere
nz
nørlund
nœf
o
o0
o1
o2
o3
o4
o5
o6
o7
o8
o9
oa
oar
oaxaca
ob
obaldia
obama
obando
obas
obdulio
obispo
obispos
objeto
objetos
obligo
oblitas
obra
obras
obregon
obrenovic
obrera
obrero
observaciones
observations
oc
oca
ocalli
ocampo
ocana
ocasionales
ocaso
occhiena
occhio
occhiu
occidental
occidentalis
occidente
occitanie
ocean
oceano
ochenta
ocho
ochoa
oclc
ocllo
ocobamba
ocopa
ocros
ocsa
octava
octave
octavio
octeto
october
octubre
ocucaje
oculto
ocumal
od
oda
odas
oder
odiaga
odilon
odio
odisea
odon
odria
odrista
oe
oea
oereda
oeste
of
ofelia
off
offenbach
office
official
officiel
officio
oficial
oficiales
oficialmente
oficina
oficios
ofm
ofrece
ofrenda
often
og
oh
ohio
oi
oido
oise
oj
ojeda
ojo
ojos
ok
oklahoma
oktober
oku
okulo
ol
ola
olano
olaortua
olas
olaya
olazabal
olcay
old
oldrich
oleg
oleo
olga
olho
olimpia
olimpicos
olimpo
oliva
olivares
olivas
oliveira
oliver
olivera
olivia
olivier
olivos
ollanta
ollantay
ollaraya
olleros
olly
olmedo
olmo
olvidado
olvidados
olvidar
olvidarme
olvido
olympe
olympia
om
omaha
omar
omara
omia
omiste
omnibus
omu
on
once
one
onetti
ongon
onkel
online
only
ono
onofre
onofrio
ontere
onton
onu
oo
op
open
opera
operas
operation
operator
operculo
opinion
opiniones
oporto
opresion
optimization
optischen
opusculos
oq
oquendo
or
oracao
oracion
oracionales
oraciones
orales
orange
orangerie
oratorio
orbegoso
orbgoso
orbis
orchestra
orchid
orchids
orco
ordeal
orden
order
ordones
ordonez
ore
oreamuno
orecchia
oregon
oreille
oreja
orellana
orestes
orfeo
orfilio
org
organismos
organizacion
organizadas
organizados
organization
organo
organos
orgullo
oribe
oricchia
orient
oriente
origen
origenes
original
originales
originally
originalmente
originaria
orihuela
orilla
orillas
oriol
orizaba
orlandini
orlando
orleans
ormachea
ormeno
orneta
oro
oroche
oropesa
orosco
oroya
orozco
orquesta
orquestas
orquideas
orr
orrego
orsay
orsi
orso
ortecho
ortega
ortegal
ortigueira
ortiz
ortografia
ortuno
oru
oruro
os
osa
osare
osasco
osascuw
oscar
oscos
oscura
oscuras
oscuridad
oscuro
oscuros
osiris
oskar
oslo
osma
oso
osores
osorio
osornio
ospina
osterreich
osvaldo
oswaldo
ot
otarola
otazu
otero
other
others
otoniel
otono
otorgada
otorgado
otoya
otra
otras
otro
otros
ottawa
otto
otuzco
ou
oui
our
ours
out
outlaw
outro
ov
oveja
over
oversleep
ovidio
oviedo
ow
owens
owl
own
ox
oxapampa
oxford
oxfordshire
oxigeno
oy
oyague
oyarce
oyo
oyon
oz
ozu
p
p0
p1
p2
p3
p4
p5
p6
p7
p8
p9
pa
pabla
pablo
pacaipampa
pacanga
pacase
pacasmayo
pacaya
paccha
pacco
pacelli
paceno
pach
pacha
pachacamac
pachacutec
pachakamaq
pachakamilla
pachakiwa
pachakunas
pachakuteq
pachakutiq
pachamam
pachamama
pachamaman
pachamamar
pachamamaru
pachamamaruw
pachamamax
pachamarka
pachan
pachana
pachanaka
pachanakanx
pachanakax
pachanga
pachangara
pachantin
pachanwa
pachanx
pachanxa
pachapa
pachaprakiw
pachar
pacharchiw
pachari
pacharu
pacharuw
pacharux
pachas
pachasisaw
pachasti
pachat
pachata
pachatix
pachatpach
pachatuqita
pachaw
pachawa
pachax
pachaxa
pachaykamay
pacheco
pachitiya
pachiya
pachiza
pachjata
pachjiri
pachnama
pacho
pachp
pachpa
pachpacha
pachpakiti
pachpan
pachparak
pachparaki
pachparakiwa
pachuca
pacific
pacifico
pacino
paco
pacobamba
pacocha
pacoricona
pacto
paddington
padilla
padin
pado
padre
padres
padrino
padron
padua
padwa
paese
paez
pag
paga
pagar
page
pages
pagina
paginas
pagophila
pags
paico
paijan
paimas
paine
paino
painted
painting
paintings
pais
paisaje
paisajes
paises
paisi
paita
paitan
paitena
paiva
paja
pajarillo
pajaro
pajaros
pajuelo
paka
pakachun
pakapawsa
pakaran
pakaraw
pakasmayu
pakax
pakaxis
pakayqasa
pakistan
pal
pala
palabra
palabras
palace
palacio
palacios
palas
palca
pale
palenque
paleontologia
palermo
paleta
palito
palkasu
palla
pallalla
pallan
pallanchakra
pallapallanakax
pallaqi
pallasca
pallasqa
pallay
pallaytam
pallaytas
pallpata
pallqa
pallqu
palm
palma
palmas
palmeras
palmieri
palo
paloma
palomino
palora
palos
palpa
palpakachi
palpala
palpiti
palti
palza
pamela
pampa
pampachackra
pampachiri
pampacucho
pampamarca
pampamarka
pampan
pampana
pampanakan
pampanakana
pampanakanx
pampanakanxa
pampaqullqa
pamparumas
pampas
pampata
pampill
pamplona
pan
panaifo
panama
panamana
panamapa
panaw
pancha
panchito
pancho
pando
pandora
pandu
panduro
panez
panfilo
pani
paniagua
panichasina
panico
paninis
paniniw
panipuniw
panka
pankan
pankanaka
pankapa
pankar
pankhurst
panorama
panpachan
panq
panqara
panqaranaka
panqaranakata
panqaranakax
panqarani
panqart
panquwa
pantaleon
pantalunani
pantano
panther
pantoja
pantomima
panuera
panza
pao
paola
paoli
paolo
pap
papa
papandreou
papaplaya
papaya
papayal
pape
papel
papeles
papers
papias
papin
papua
paqallqu
paqalq
paqalqu
paqalqun
paqariqtampu
paqarisqa
paqcha
paqchu
paqllun
paqu
paqucha
paquete
paquita
paqupampa
paqura
par
para
parade
paradigmas
paradise
parado
paradoja
paraguay
paraiba
paraiso
paralisis
paramaribo
paramonga
paramore
paramount
parana
paranday
parao
paraqas
pararin
pararka
paratya
parawayi
parawayixa
parco
parcona
pardave
pardo
pardon
pare
parece
parecen
parecer
pared
paredes
pareja
parents
parete
pareti
pari
paria
pariachi
pariacuri
pariahuanca
pariasca
paricahua
parientes
pariguana
parina
parinacochas
parinari
parinas
parinax
pariona
paris
pariti
pariwanaqucha
parjat
park
parker
parlamento
parlan
parlanani
parlaniwayapxiritayna
parlasipxi
parli
parliri
parnaso
parola
parole
parqu
parque
parques
parquy
parra
parraga
parral
parroco
parroquia
parruqia
parruqu
parsifal
part
parte
partes
participacion
participante
participio
particular
particulas
partida
partido
partidos
partidu
partidupi
partir
partitura
partituras
partners
party
parupampa
paruro
paruru
paryaqutu
paryarqa
paryawanka
pas
pasa
pasadena
pasado
pasaje
pasajeros
pasanapataki
pasapera
pasaporte
pascal
pasco
pascua
pascual
pascuala
paseo
paseos
pasi
pasillos
pasion
pasiones
pasir
pasiva
paskasp
paso
pasolini
pasqu
pasqua
passage
passing
passion
pastasa
pastor
pastora
pastorales
pastoralis
pastores
pastorita
pastrana
pastunaka
pastunakas
pasus
pat
pata
patak
pataka
patakachjata
patakat
patakatxa
patamarkax
patampuku
patan
patana
patanakan
patankirinakax
patanx
patapampan
patapampanakan
patapi
patapu
patar
patarux
patas
patat
patata
patatuqin
pataypampa
pataz
paterson
path
patino
patio
patiwillka
pato
patri
patria
patrice
patricia
patricio
patrick
patrimonio
patrios
patriota
patron
patronato
patrones
patrun
patrunan
patrunanakan
patrunar
patrunatak
patrunax
pattacaldo
pattie
patuju
patxa
patxankiri
patxar
paucar
paucarpata
paucartambo
paucca
paul
paula
paulet
paulette
paulina
pauline
pauling
paulinia
paulino
paulista
paulo
paulus
pauluw
paume
pauper
pausa
pauza
pavarotti
pavel
pavon
pawlu
pawqar
pawqara
pawqaray
pawqarpampa
pawqarpata
pawqarqulla
pawqartampu
pawqas
pawsa
paxsi
pay
paya
payak
payan
payani
payar
payaruw
payaso
paye
payhan
paying
payir
payiri
payirix
paykutiw
paylla
paypach
paypacha
payqu
pays
paytan
paz
pazo
pazos
pb
pbro
pc
pd
pdf
pe
peace
pearl
pearls
peas
peau
pebas
peca
pecado
pecador
pecadora
pecanha
pecci
peceros
peche
pecho
pechos
peck
pecora
pecura
pedagogia
pedagogico
pedernera
pedra
pedrarias
pedraza
pedro
peisa
peixes
peixoto
pekin
peking
pelaez
pelagio
pelayo
pele
pelicula
peliculas
peligro
pelissier
pelo
pena
penadillo
penaherrera
penal
penaloza
penas
penco
pendon
pendones
pendulo
pene
peng
peninsula
penitenciaria
penn
pennsylvania
penon
penonome
pensado
pensadores
pensamiento
pensamientos
pensando
pension
pentecostes
people
peor
pepa
pepe
pequena
pequenas
pequeno
pequenos
per
pera
perales
peralta
perca
percy
perdicion
perdida
perdidas
perdido
perdidos
perdix
perdon
perdona
perdoname
pere
perea
peregrinaciones
peregrino
peregrinos
pereira
pereyra
perez
perfect
perfecta
perfecto
perfil
perfiles
performance
performed
perfumo
pergamino
periche
perico
perifrasis
peril
period
periodico
periodismo
periodista
periodistas
periodistica
periodisticos
periodo
perkins
perla
pernambuco
pero
peron
perou
perpetuo
perpignan
perricholi
perro
perros
perseguidor
perseo
perske
person
persona
personajes
personal
personales
personalidad
personas
personne
persons
perspectiva
perspectivas
persuasion
peru
peruana
peruanao
peruanas
peruanidad
peruano
peruanos
perueduca
perunao
pes
pesantes
pesar
pesca
pescado
pescador
pesce
peseque
peso
pesque
pessoa
pestalozzi
peste
pet
pete
peter
petit
petite
petra
petrarca
petrificado
petroleo
petronila
petroperu
petropolis
petrovich
petto
pettorossi
pettoruti
pettu
pey
peyson
pezet
pezo
pf
pfalz
pg
ph
phan
phanchiri
phaqalliru
phaqcha
phara
phaseolus
phasxi
phat
phatanka
phatankaru
phaxi
phaxin
phaxs
phaxsi
phaxsikama
phaxsin
phaxsina
phaxsinaka
phaxsinapuniw
phaxsiniwa
phaxsinta
phaxsinwa
phaxsipa
phaxsit
phaxsita
phaxsiw
phaxsiwa
phaxsix
phaxsixa
phaxskamaw
phayana
phayanataki
phayapxi
phayasin
phayasinatakix
phayatawa
phichhitankax
philadelphia
philip
philippe
philips
philosophers
philosophy
phinanakax
phini
phinis
phinlandya
phisi
phisinakax
phisir
phisiti
phisitux
phisix
phisq
phisqa
phisqani
phisqha
phisqhan
phisqhir
phisqir
pho
phoebe
phoenix
photo
photographs
php
phransis
phransiya
phransiyana
phransiyaxa
phransya
phuch
phucha
phujiyataki
phuju
phukh
phukhu
phukhur
phuku
phukunaka
phullu
phullunaka
phulluni
phunchawi
phunchawinakan
phunchawix
phunchhaw
phunchhawinakans
phunchhawipa
phunchhawix
phuqana
phuqhak
phuqhapxirityanaxa
phuqhasiwa
phuqhat
phuqhata
phuqhayapxiritana
phuqht
phusa
phusan
phusananak
phusanawa
phusart
phust
phuthi
phuti
phutina
phutti
phutwul
phuyu
phuyun
phuyunakapanx
phuyunakapax
phuyunakapaxa
phuyuni
physics
physik
physikalische
pi
piaf
piaget
piamonte
pianista
piano
pianosonatas
pias
piaui
piazza
piazzolla
pib
pica
picaflor
picara
picardie
picasso
picchu
picciriddu
piccolo
picha
pichakani
pichana
pichanaki
pichardo
pichari
pichigua
pichihua
pichirwa
pichiwa
pickwick
pico
picon
picota
picture
pictures
pide
pidocchio
pidocchiu
pidru
pie
piece
pieces
piedad
piedades
piedra
piedras
piel
piensa
pienso
pier
piero
pierola
pierre
pies
pieta
pieter
pietra
pietro
pieza
piezas
pigs
pijiriya
pijirriy
pikchu
piksi
piku
pikuta
pilar
pilares
pilas
pilco
pilcuyo
pilikula
pilipinanaka
pilkumayu
pillaca
pillao
pillchaka
pillihuaman
pillku
pillkumarka
pillpichaka
pillpintu
pillwana
piloto
pilpintu
pimentel
pimintil
pimpingos
pina
pinacoteca
pinakothek
pinares
pinchi
pineda
pinedo
pineiro
pineki
pinglo
pingo
pinheiro
pinilla
pinillos
pink
pinkill
pinkillu
pinkillump
pinkillux
pinneberg
pino
pinra
pintada
pintado
pinticustis
pinto
pintor
pintores
pintura
pinturas
pinyin
pio
piojo
piola
pion
pioneer
pionero
piorno
piotr
pipa
piq
piqata
piqi
piqsuna
piquillo
piqusina
pir
pira
piracicaba
piramide
pirandello
pirata
pirias
pirini
pirinsipi
piriudysta
pirot
pirpitu
pirqa
pirqan
pirqani
pirqapax
pirqar
pirqax
pirsa
pirsuna
piru
pirudysta
pirue
piruw
piruwa
piruwana
piruwano
piruwanu
piruwna
piruwpa
piruwpas
piruwpi
piruwxa
pirwa
pirwana
pirwano
pirwapast
piryudista
pisa
pisaq
pisaquma
pischa
piscina
pisco
piscobamba
pisi
pisisun
pisku
pisqupampa
pisquyaku
pist
pistolas
pisuquia
pita
pitagoras
pitipu
pitirwurhu
pittsburgh
pitumarka
piula
piura
pius
piwra
piyampiya
piychillimu
piyu
pizango
pizarnik
pizarro
pj
pk
pl
pla
place
placenta
placer
placeres
placido
plainsman
planck
planet
planeta
planicie
plano
planos
planta
plantacion
plantas
plantilla
plasencia
plastic
plasticas
plastico
plata
platano
plateado
platense
platero
platini
platiriya
plato
platon
play
playa
playas
player
plays
plaza
plazuela
please
plegaria
plejanov
pleno
plon
pluie
pluma
plummer
plural
plus
pluscuamperfecto
plutu
pm
pn
png
pnp
po
poblacion
pobre
pobres
pocket
poco
pocos
podcast
podemos
poder
poderes
podran
podrian
poe
poem
poema
poemario
poemas
poemillas
poems
poesia
poesias
poeta
poetas
poetica
poeticas
poetry
poganuc
poher
point
poirot
poitiers
poitou
poitrine
polaco
polar
polgar
poliana
policarpo
police
policia
policiaca
policial
policias
polifemo
polilectal
politica
political
politico
politicos
politics
politische
politischen
polka
polla
pollensa
pollito
pollo
polo
polonia
polska
polski
poltava
polvo
polvora
polydor
polygram
polylepis
poma
pomabamba
pomacaja
pomachari
pomacocha
pomacusi
pomareda
pomata
pomeriggio
pompeyo
pompidou
pompilio
ponasa
ponce
ponciano
ponta
ponte
ponti
pontificia
pop
popayan
pope
populacao
popular
populares
populatia
population
populibros
poquelin
por
porco
porfirio
pornichet
poroto
porque
porras
porres
port
porta
portada
portal
porte
portero
portilla
portillo
portland
porto
portocarrero
portrait
portsmouth
portugal
portugues
portuguesa
portuguesas
portuguese
portuondo
porvenir
posada
posadas
poseen
posesion
posibilidad
posible
posic
positivo
post
postal
postales
posteriores
posteriormente
postigo
postman
postuma
postumamente
postumo
postumos
pot
potables
potasio
potoprens
potosi
potsdam
potter
pou
poule
pound
pour
pourceaugnac
poussin
povo
power
pozo
pozuzo
pozzo
pp
ppc
pq
pr
practica
practice
practices
prada
pradera
prado
prados
praha
prat
pratt
praxedes
prayu
prb
prbo
pre
preb
precedido
preciado
precio
precursora
predicacion
predicado
predicadores
predicativos
predilecto
pregare
preguntas
prelado
prelatura
preliminar
prelude
preludes
preludio
premiada
premiado
premio
premios
prensa
presa
presb
presencia
present
presenta
presentacion
presentado
presente
presents
preservation
presidencia
presidencial
president
presidente
presidio
presley
presov
press
pretensiones
preterito
pri
priale
price
pricking
pride
pridi
prier
priest
prieto
prijari
prima
primaria
primavera
primer
primera
primeras
primero
primeros
primitivos
primo
primos
prince
princesa
princesita
princess
princeton
principado
principal
principales
principalmente
principe
principia
principio
principios
principles
prinsipinaka
print
priscilla
prisidenti
prisidinti
prisidintinin
prisidintipa
prision
prisionera
private
prize
prizzi
probablemente
problem
problema
problemas
probleme
problemes
problems
proceso
procesos
prodigio
prodigiosa
prodigioso
prodigo
produccion
producer
producida
producido
product
productora
productos
products
produjo
proeib
profanar
profanas
profesional
profesionales
profesor
profession
profeta
profile
profit
profundidad
profundo
programa
programas
programs
progresa
progresista
progreso
progress
prohibido
prohibidos
project
projimo
prologado
prologo
promesa
prometeo
promocion
promotions
pronom
pronombre
pronombri
pronome
pronoun
pronunciacion
pronunciada
pronunciadas
pronuncio
propaganda
propia
propicio
propiedad
propio
propios
propone
proposito
propuesta
propuso
prosa
prosas
prosecution
prospero
prostitucion
protagonista
proteccion
protector
proteinas
proteo
protest
protesta
protocolo
proust
prov
proveedor
provence
providence
providencia
provides
province
provincia
provincial
provincias
provinciax
proxima
proximo
proy
proyeccion
proyecciones
proyectado
proyecto
proyectos
prudencio
prudente
prueba
pruebas
prugrisu
prunomi
prunomu
pruwinsyal
ps
psicologia
psicopedagogia
psn
psp
psuv
psyche
pt
pu
pub
public
publica
publicacion
publicaciones
publicada
publicadas
publicado
publicados
publicara
publicaron
publicidad
publicitario
publico
published
publishers
publishing
pucara
pucarani
pucarina
puccini
puch
pucp
pucusana
pucyura
pudd
pudding
pudiera
puebla
pueblo
pueblos
puedas
puede
pueden
puedes
puedo
puelles
puente
puentes
puerta
puertas
puerto
pues
puestas
puesto
pueyo
puga
pugachov
pugliese
pugna
puig
puirredon
pujrawi
pukaj
pukala
pukallpa
pukaqaqa
pukara
pukaran
pukarani
pukina
pukllaq
pukllaykuna
pukupuku
pukupukux
pukus
pukyu
pukyura
pula
pulan
pulitiku
pulitzer
pulla
pullira
pullirani
pullitzer
pullu
pulsar
pulso
pultumarka
puluna
puluni
puluwaya
pum
puma
pumacahua
pumakancha
pumallqa
pumapampa
pumaqanchi
pumaqhawa
pumaqucha
pumarejo
pumata
pumawaka
pumiriggiu
pun
puna
punch
punchana
punchaw
punchawnin
punchunaka
punchuni
puneno
punk
punku
puno
punta
punto
puntu
punu
punus
pupuja
puqsi
puquio
puqullay
puquta
puquwanka
pura
purak
puraka
purapat
purapaxa
puras
purgatorio
puri
purin
purinatakix
purini
purinipxatayna
purinipxi
purinpxanwa
purintawixa
puriri
purisax
purisima
purisin
purisina
purisinx
puriski
puriskiritayna
purispa
purit
puritat
puritayna
purixa
puriy
puriyanataki
purizaga
purki
purkiti
puro
puros
purple
purpura
purt
purtan
purtugal
purtuguis
purtuwal
purtuyis
puruma
purumamarkat
purumamarkax
purus
purutu
puruy
pusaq
puscan
pushkin
pusi
pusible
pusin
pusini
pusir
pusiri
pusiru
pusiwa
puskas
pususu
put
puta
putaqa
putas
putin
putina
putinsa
putuku
putumayo
putumayu
putuni
putusi
pututux
puwpu
puya
puyka
puynawa
puyusqa
pv
pw
px
pxaxsina
py
pyanirichiw
pyanu
pyne
pyrenees
pz
q
q0
q1
q2
q3
q4
q5
q6
q7
q8
q9
qa
qaab
qach
qacha
qachu
qachump
qachunakaxa
qachuxa
qahira
qahyra
qajamarka
qala
qalakayu
qalamark
qalamarka
qalamarkan
qalamp
qalana
qalanakampi
qalapuha
qalat
qalata
qalax
qallalli
qallanmarka
qallawanka
qallqta
qallt
qallta
qalltan
qalltana
qalltanatakix
qalltani
qalltantakix
qalltanxa
qalltapxatayna
qalltaraki
qalltasina
qalltasipkiritana
qalltat
qalltatat
qalltawi
qalltawix
qalltawixa
qalltiwa
qalltix
qalltuwa
qallu
qaman
qamana
qamananakax
qamanax
qamapxaraki
qamapxi
qamaqi
qamaqin
qamaqinakawa
qamaqipun
qamaqix
qamasa
qamasani
qamasi
qamasina
qamasipxi
qamawi
qana
qanawa
qanchi
qaniwa
qanlli
qanqata
qanqayllu
qapasu
qapaya
qapi
qapu
qapuna
qapunx
qapux
qaqa
qaqaqay
qaqatachi
qaqatampu
qaqaw
qaqawa
qaqay
qaqra
qarachi
qarampuma
qaranya
qarapampa
qarapu
qaraq
qaraqutu
qaras
qarawili
qarqa
qarwa
qarwakallanka
qarwamayu
qarwanka
qarwapampa
qarwaqayan
qarwas
qarwat
qarwax
qarwayu
qasaq
qasaw
qasawi
qashapampa
qashashi
qasikaypi
qasqapampa
qatachi
qatachilla
qatamarka
qataq
qatar
qatawasi
qatilluq
qatqa
qatun
qatuqayiw
qaw
qawachu
qawana
qawaq
qawaya
qawqha
qawra
qawrana
qay
qayallti
qayara
qayarani
qayma
qayna
qayrapampa
qayti
qaytix
qb
qc
qd
qe
qf
qg
qh
qhach
qhachwax
qhana
qhanachu
qhananchakiwa
qhananchapxarakiwa
qhananchapxiwa
qhanancharakiwa
qhananchawi
qhananchi
qhananchir
qhananchirinakapan
qhananchirinakapaxa
qhananchirinkax
qhananchiwa
qhananchstuwa
qhanancht
qhanapaku
qhaniri
qhanqha
qhapaq
qhapaqampi
qhapaqaxa
qhapaqmarka
qhapax
qharuru
qhat
qhathi
qhathiyat
qhathur
qhathux
qhatita
qhawa
qhawan
qhawana
qhawanakunti
qhawanilla
qhawanillas
qhawantatawa
qhawqh
qhawqha
qhawqhanitapa
qheswa
qhi
qhich
qhichhwa
qhichwa
qhichway
qhilla
qhip
qhipa
qhiparux
qhipata
qhipaxa
qhipaxanakar
qhipaxapa
qhipha
qhiphaqtan
qhiphaqtxapxana
qhiphar
qhipharux
qhiphiri
qhipu
qhiri
qhirit
qhirwa
qhisphiyataw
qhispiyatawa
qhispiyiri
qhiwi
qhiya
qhuchuntin
qhulu
qhunata
qhuntisuyu
qhuru
qhusqhu
qhusqhuri
qhuthan
qhuya
qi
qian
qichuwalla
qichwachaw
qillaya
qillqa
qillqan
qillqana
qillqanataki
qillqanatakiwa
qillqapunku
qillqaq
qillqas
qillqasqan
qillqat
qillqata
qillqatanaka
qillqatapa
qillqatata
qillqax
qillqiri
qillqiriq
qillqt
qillt
qillu
qillwa
qillwanakax
qillwax
qilqt
qimwiri
qin
qina
qinaqina
qinaya
qinayata
qinti
qinu
qinwa
qiqi
qiqina
qirqu
qiru
qirupallqa
qirupampa
qiruqutu
qiruwillka
qisi
qispi
qispiqanchi
qispiyta
qiwilla
qiwlla
qj
qk
ql
qm
qn
qo
qollana
qollqe
qosqo
qp
qq
qr
qs
qt
qu
quae
quam
quand
quantita
quantitati
quantite
quantity
quarto
quase
quatre
quattro
quattru
qucha
quchakuna
quchamarka
quchan
quchapampa
quchaptiq
quchaqasa
qucharqa
quchas
quchurqu
que
quebrada
quechua
queda
quedo
queen
queens
queensland
queiros
quel
quella
quello
quemada
quemar
quena
quendam
quenta
quentin
quequena
queratina
querecotillo
querer
queretaro
querevalu
querida
querido
queriendo
quero
querobamba
querocotillo
quesada
queso
quesquen
quest
questa
questo
quetzalcoatl
quevedo
qui
quichua
quien
quienes
quieras
quiere
quiereme
quieren
quiero
quigley
quijandria
quijano
quijarro
quijote
quilca
quillabamba
quille
quimera
quimica
quimper
quin
quince
quincho
quincy
quinjalca
quinn
quino
quinoa
quinones
quinonez
quinota
quinta
quintana
quintanilla
quintero
quinteros
quinteto
quintin
quintina
quinto
quinze
quipaqayana
quirhuayo
quiroga
quiros
quiroz
quisbert
quishuar
quisiera
quispe
quispitupac
quita
quiterio
quito
quives
quizas
quizpez
qulcha
qulla
qullan
qullana
qullanataki
qullanawa
qullapuniwa
qullari
qullasin
qullasina
qullasinataki
qullasinawa
qullasinaxa
qullasiwi
qullasuy
qullasuyu
qullasuyun
qullaw
qullawa
qullpas
qullq
qullqa
qullqamarka
qullqapampa
qullqi
qullqimarka
qullqipata
qullqiyuq
qullu
qullukama
qulluna
qullunaka
qullunakan
qullunakana
qullunakat
qullunkiritaynaxa
qullunkkasp
qullupatankkiti
qullur
qullurupiniw
qulluruw
qulluwa
qullux
qulluxa
qullwas
qulqi
qulunakawa
qumas
qumpapata
qunayqa
qunchamarka
qunima
qunqalla
qunqas
qunquri
qunt
quntipampa
quntumasa
quod
qupa
qupakawana
qupani
qupaqhawanap
qupuraki
quqa
quqanak
quqanaka
quqanakana
quqata
quqaxa
qura
quranak
quranaka
qurani
qurawa
quri
quriqaqa
quris
quriwaya
qurpa
qurpanki
qurpasi
qurpawasi
qurqa
qurtuwa
qurumata
qusan
qusanaka
qusannaka
qusmi
quspan
qusqu
qut
quta
qutan
qutana
qutanaka
qutanjam
qutapampa
qutaparaqu
qutar
qutaru
qutarusi
qutata
qutawa
qutax
qutirris
qutu
quturapi
quwalaqi
quwasa
quwata
quwayllu
quwinqa
quwiphasa
quwiriyalli
quya
quyllariskisqa
quyllur
quyllurqi
quyshqu
quytu
quyus
qv
qw
qx
qy
qz
r
r0
r1
r2
r3
r4
r5
r6
r7
r8
r9
ra
rabanal
rabbit
rabia
rabin
racconto
race
races
rachel
racial
racine
racing
racismo
rada
radcliffe
radiacion
radical
radio
rado
radoje
rafael
rafaela
rafaile
raffaello
rage
raghu
raging
ragno
ragnu
ragtime
rahat
raices
raid
raimondi
raimundo
rain
raisin
raison
raiz
rajan
rajapaksa
rakonik
raldes
raleigh
rallidae
ralph
ralvis
rama
ramada
ramires
ramirez
ramiro
ramon
ramona
ramos
rampling
ramrahirka
ramsay
rana
rancas
ranchera
rancho
randolph
raniero
ranrakancha
ransiya
ransya
raoul
rapayan
raphael
rapids
rappard
rapray
rapsodia
rapto
raqash
raquel
rasgos
rasmus
rasuri
rat
rathaus
rato
raton
ratones
ratti
ratto
ratwatte
ratzinger
raul
raval
ravel
ravelo
ravenna
ravichagua
rawakayku
rawapampa
rawson
ray
raya
raygada
raymi
raymond
raymondi
raymunda
raymundo
rayo
rayun
rayus
rayuw
raza
razon
razones
razuri
rb
rc
rca
rd
re
ready
reagan
real
reales
realidad
realista
reality
realiza
realizada
realizado
realizando
realizaron
reategui
rebano
rebatta
rebautizado
rebaza
rebecca
rebel
rebelde
rebelion
recensamant
recibe
recibir
recien
recife
recitados
recital
recitations
reckless
recobrado
recodo
recoge
recogidos
recoletos
recollections
recompensa
reconcavo
reconocimiento
reconquista
reconstruccion
reconstruyamos
recopa
recopilacion
recopilatorio
record
recordando
recordar
recording
recordings
records
recorriendo
recreacion
recreo
recta
rector
rectorado
recuay
recuerda
recuerdo
recuerdos
recuperar
recursos
red
redaccion
rede
redemptoris
reden
redencion
redford
redondas
reducida
reed
reedicion
reeditada
reeditado
reeve
reeves
ref
reference
references
referencia
referencias
reflections
reflexion
reflexiones
reflist
reforma
refugio
reg
regalado
regenta
reggae
reggaeton
reghi
regimen
regina
region
regional
regionales
regionalista
regione
regiones
regions
regiune
regiunii
regla
reglas
regner
regresa
regreso
regular
regulares
regulo
rehder
reichenberger
reidora
reimpr
reimpresion
reims
reina
reinaldo
reinas
reine
reiner
reinhardt
reino
reinos
reinoso
reis
relacion
relaciones
relampago
relatividad
relativitatsprinzip
relativo
relato
relatos
relayza
relevante
religion
religioso
religiosos
reliquia
reloj
remberto
rembrandt
remedios
remembered
remigio
remixes
renace
renacimiento
renan
renata
renato
rencor
rendon
rendsburg
rene
renee
rengifo
rennes
reno
renoir
renol
renovacion
rensenbrink
renteria
renuncia
renzi
rep
reparto
repente
repetira
report
reportaje
represas
representa
representacion
representado
representativo
representativos
reprezentand
reproduccion
reproducir
reptiles
repubblica
repubilika
republic
republica
republicana
republicano
republik
republika
republique
repulles
requejo
requena
requerido
requiem
requiere
requieren
rerum
research
resena
resentidos
reserva
residencia
resistencia
respectivamente
respell
respiratorio
responsabilidad
respublika
respublikasının
respuesta
restauracion
restaurado
resto
restrepo
resuenen
result
results
resumen
resurreccion
retablo
retamozo
retiemble
retirada
retiro
reto
retorno
retrato
retratos
retrieved
return
reune
reunida
reunion
reveille
revenge
reves
review
revilla
revisada
revised
revision
revisited
revista
revistas
revolucion
revolucionaria
revoluciones
revolution
revolver
revuelta
rey
reyes
reykjavik
reymundo
reyna
reynaldo
reynoso
rez
rf
rg
rh
rhein
rheinland
rhin
rhode
rhodostethia
rhone
rhythm
rhythms
ri
ria
rial
ribas
ribeiro
ribera
ribeyro
rica
ricalde
ricardo
ricci
rich
richard
richardson
richie
richmond
richter
ricketts
rico
ride
ridibundus
ridiculiza
ridsdale
rieguen
rifa
rifle
rift
riggiuni
right
rights
riipac
rijn
rikch
rikcha
rikina
rikran
rikuway
rimac
rimachi
rimaq
rimaqnaka
rimas
rimay
rimbaud
rincon
rinconada
rinehart
ring
ringo
rinus
rio
riobamba
riofrio
rioja
rios
ripan
ripeblik
ripublika
riqi
riqisha
riqsisqaykichu
riquezas
rirqayku
risco
rise
rises
risk
rispachapxirina
rispachayatas
rispachaykasax
rispampa
rissa
rit
rita
ritchle
ritmo
ritratto
riva
rivadavia
rivadeneira
rivadeneyra
rival
rivas
rivelino
river
rivera
rivero
riveros
riy
riynaka
riynu
rj
rk
rl
rm
rmx
rn
rne
ro
roa
road
roaring
rob
robards
robbins
robe
rober
robert
roberth
roberto
roberts
robi
robin
robinson
roble
robledo
robles
robot
robots
robson
robur
roca
rocafuerte
rocannon
rocca
rocco
roces
roch
rocha
rochester
rocio
rock
rocky
roda
rodado
rodas
rodil
rodilla
rodin
rodny
rodo
rodolfo
rodrigo
rodrigues
rodriguez
roel
roena
rogaciano
rogar
rogelio
roger
rogers
roi
roja
rojas
rojo
rojos
roland
rolando
roldan
roll
rolling
rolls
roly
roma
romaina
roman
romana
romance
romancero
romances
romanche
romani
romania
romaniei
romanisasyun
romanizacion
romano
romantic
romantica
romanticas
romanticos
romantische
romel
romeo
romer
romeralo
romero
romilio
romo
romper
romualdo
romulo
ronald
ronaldo
roncal
roncalli
roncin
rond
ronda
ronde
rondon
rondonia
rongji
roni
ronny
rontgen
rony
roo
room
rooney
roosevelt
roots
ropa
ropero
roque
roraima
rori
rosa
rosada
rosado
rosal
rosales
rosali
rosalia
rosalie
rosalind
rosalino
rosario
rosas
rosay
rose
roseau
rosen
rosendo
rosenthal
roses
rosita
rospo
ross
rossellini
rossi
rossini
rosso
rostro
rostros
rostworowski
roswell
roswitha
rota
rouen
rouge
rouget
round
rousseau
roussillon
route
rovira
rowan
roxana
roxbury
roy
royal
royce
rp
rq
rr
rs
rt
rtve
ru
rua
ruan
ruanda
ruben
rubens
rubia
rubianes
rubina
rubino
rubio
rubrogenys
ruby
ruccaru
rudecindo
rudesindo
rudno
rudolf
rudy
rue
rueda
ruesta
ruffner
rufina
rufino
rufo
rugir
ruhig
rui
ruina
ruinas
ruisenor
ruiz
rujel
ruletero
rulfo
ruman
rumantisismu
rumanya
rumba
rumbero
rumberos
rumbo
rumbos
rumi
rumisapa
rummenigge
run
runa
runaqa
runasimi
rune
runtukan
runtus
runtuy
rupa
rupay
ruperto
ruqchaq
rural
rurales
rusa
rusaryu
rusas
rusaspata
rusi
rusia
rusita
rusiya
rusiyaxa
ruskin
ruslan
ruso
russell
russian
russu
rusticana
rusu
rusya
ruta
ruth
rutherford
ruw
ruwataki
ruz
rv
rw
rwanda
rwynerio
rx
ry
ryan
ryder
rye
rz
s
s0
s1
s2
s3
s4
s5
s6
s7
s8
s9
sa
saa
saantia
saarbrucken
saarland
saavedra
sabado
sabados
sabah
sabandia
sabastiano
sabato
sabaynu
sabe
saber
saberes
sabes
sabina
sabinas
sabino
sabogal
sabor
sabroso
saby
sacanche
sacerdote
sach
sachsen
sacramental
sacramento
sacred
sacrificio
sacro
sacsayhuaman
sad
sadat
sade
saenz
safo
saga
sagra
sagrada
sagrado
sagrario
sahagun
sahara
sahuaraura
saico
said
sailor
saint
sainte
saints
saisa
sakartvelo
sakiw
saksamarka
sakuni
sakura
sal
salaj
salamanca
salamandra
salamanka
salas
salaverry
salazar
salcedo
saldana
saldarriaga
saldias
saldivar
sale
salem
sales
salgado
salgan
salida
salieri
salinas
salisbury
salitral
salitre
salla
sallat
salle
salliqi
sallqa
sallqapampa
sallqawasi
sally
salman
salmon
salome
salomon
salon
salpu
salqantay
salsa
salsaton
salt
salta
saltillo
salto
salud
saludo
salvador
salvadur
salvaje
salvajes
salvatierra
salvemos
salvo
salzburg
salzburgo
sam
sama
samagua
samame
saman
samana
samanchana
samanco
samanez
samaniego
samart
samawa
sambya
same
sami
samichana
samin
saminakampi
saminakana
saminakaniw
saminakaniwa
saminakapax
saminakaw
saminchana
saminirakiwa
saminiwa
samipasti
samipax
samipaxa
samiri
samiwa
samkayayku
sammy
samora
sampled
sampras
samt
samuel
samuelson
samugari
samuxiti
samuxitya
san
sana
sanani
sanaquran
sanayqa
sanchez
sanchis
sancho
sancos
sancti
sancu
sand
sandeau
sandia
sandinista
sandino
sanditon
sandor
sandoval
sandra
sandro
sang
sangre
sangrienta
sangrientos
sangu
sangue
sanjinez
sanjurjo
sank
sankallaya
sankarara
sanku
sanmartiniano
sano
sanojo
sanrak
sans
sansibar
sant
santa
santacruz
santamaria
santana
santander
santarem
santarsiero
santi
santiago
santiagu
santiani
santibanez
santillan
santillana
santisima
santisimo
santisteban
santo
santolalla
santos
santoyo
santu
santuario
santunaka
santusa
santwariu
sanu
sanuta
sanzio
sao
saone
sapa
sapak
sapakiw
sapallanga
sapallanka
sapaqat
sapax
saphi
sapillica
sapjje
sapo
saporito
saposoa
sapsi
sapur
sapuritu
sapuru
sapxana
sapxanwa
sapxarakiwa
sapxi
sapxiri
sapxiwa
saqapani
saqaqa
saqu
saquena
sara
sarabande
sarah
saraki
sarakirikataynati
sarakitayna
sarakiwa
saraksnawa
saramago
saran
sarana
saranankiwa
sarananw
sarandi
sarani
sarantapxi
saraparxamapiniw
sarapura
sarapxana
sarapxaraki
sarapxatayna
sarapxi
sarapxirita
sarapxixa
sarapxta
saraqataru
saraqataruw
saraqataruxa
saraqatat
saraqi
saraqkipanx
sarasara
saratoga
saravia
saraw
sarawayxarakitayna
sarawi
sarawinak
sarawinaka
sarawinakaparjam
sarawinakar
sarawinakarjamaw
sarawinakata
sarawinakax
sarawini
sarawinipxiwa
sarawinxa
sarawipa
sarawiparjama
sarawisti
sarawiwa
sarawix
sarayacu
sarayaku
sarayirinakax
sardina
sargento
sari
sarin
sariri
saririnaka
sarjapxi
sarkozy
sarmiento
sarna
sarnakawi
sarnaqan
sarnaqana
sarnaqapxana
sarnaqapxi
sarnaqapxiritayna
sarnaqawi
sarnaqawiq
sarnaqi
sarnaqir
sarnaqiri
sarnaqiriwa
sarnawawi
sarta
sartan
sartanataki
sartayanataki
sartayiriwa
sartipampa
sarto
sartoris
sartre
sarumilla
sarumino
sarunchasqan
sarwa
sarxan
sarxana
sarxapxarakina
sas
sasa
sasaw
sasawa
sasax
sasin
sasina
sasinaw
sasinwa
sasispawa
saskayatanxa
sastre
sat
sata
sataki
satakis
satan
satana
satanawa
satanax
satantakix
satanwa
satapachanx
sataraki
satarakiwa
satatat
satawa
satawi
sataxa
satayna
sataynaw
sataynax
satch
satchmo
satelital
satelitales
satelite
satelites
satellitecitymaps
satipo
satipu
satirica
saturnino
sauce
saucedo
saudade
saude
saul
savage
savia
savile
savoie
savoureux
saw
sawarawra
sawi
sawrama
sawsa
sawsi
sawsipampa
sawt
sawud
sawuna
sawurani
sawut
sawuta
sawyer
saxo
saxra
say
saya
sayan
sayapa
sayapullu
sayers
sayla
saylla
saysa
sayt
saywitu
saywtu
sayı
sb
sc
scala
scapin
scarafoni
scarlet
sceccu
scene
schiaffino
schiller
schleswig
schloss
schmidt
school
schopenhauer
schreiber
schroder
schrodinger
schubert
schultz
schuman
schumann
schuster
schweiz
schwerin
scicolone
science
scientific
scienza
scissors
sco
scoop
scorza
scotland
scott
scotto
scotty
screen
scribners
sd
sdb
se
sea
sean
search
seas
seattle
sebastian
sebastiao
secada
seccion
secciones
sechura
seco
second
secret
secreta
secretaria
secretario
secretary
secreto
secretor
secretos
secta
secuencia
secuestro
secundaria
secundarias
secundario
sed
seda
seddon
sede
see
seeler
segeberg
segovia
seguimiento
seguimos
seguir
segun
segunda
segundo
segura
seguridad
seguro
segurola
seijas
sein
seine
seis
seix
sekundarliteratur
seleccion
selecta
selectas
selected
selena
selling
sello
selva
sem
semana
semanario
semanas
semanticamente
sembello
semblanza
semi
semilla
seminario
semiramis
sen
sena
senal
senante
senas
sencilla
sencillos
sencuam
senda
senderos
senecio
senegal
senigallia
senna
seno
senor
senora
senoras
senores
senorita
senos
senovio
sense
sensejat
sensibilidad
sensible
sensorial
sentido
sentidos
sentimental
sentimiento
seo
separo
sepas
sept
september
septiembre
sepulcro
sepultura
sepulture
sequeiros
sequel
sequia
ser
sera
serafin
serafino
serapio
seras
serbia
serena
serenade
seres
serge
sergeant
sergei
sergeyevich
sergio
sergipe
serguei
seri
seria
serial
serie
series
sermon
serna
sernaque
serpe
serpent
serpente
serpento
serpi
serpiente
serrador
serraller
serrano
serrat
serrato
sertzen
serv
servan
service
services
servicio
servicios
servil
servir
servulo
sessions
sesto
set
setenta
seu
seudonimo
seven
sevens
several
severo
sevilla
sevres
sex
sexto
sexuales
sexy
sf
sg
sh
shacaime
shadow
shaila
shakespeare
shakhsiyadeed
shall
shampuyaku
shanao
shanghai
shangkun
shaoqi
shapaja
shaping
sharif
shatoja
shaw
shawllay
she
sheep
sheer
shek
sherlock
sherman
sherry
shevardnadze
shi
shih
shilcayo
shilla
shimabukuro
shimi
shinawatra
ship
shipaspampa
shiqshipampa
shiraki
shirin
shirorinti
shit
shoes
shop
shopping
shore
short
shot
should
show
showest
showing
shows
shqiperi
shu
shucushuyacu
shunki
shunti
shupluy
shuwaru
si
siany
siauliai
sibastian
sibina
sic
sica
sicchez
sich
sichura
sicilia
siciliano
sicilianu
sicilya
sicovul
sicuani
sicut
sida
siddhartha
side
sidii
sidney
sido
siegfried
siehe
siembra
siempre
siena
siendo
sienes
sierra
siervo
siete
sifuentes
sigifredo
siglo
siglos
sigmund
sign
signature
significa
significado
significativa
signior
signo
signoret
signos
sigo
siguas
siguen
siguenas
siguiente
siguientes
sihuas
sihuasino
sii
sikaya
sike
sikritaryu
siku
sikundunanka
sikuwa
sikuwani
silbando
silbato
silbio
silencio
silent
siles
silfo
sillapata
sillp
sillq
sillu
silluninaka
silly
silos
silva
silver
silverio
silvestre
silvia
silvina
silvio
sima
simana
simbad
simbal
simbolicas
simbolo
simbolos
simeon
simi
simikuna
similar
simion
simipi
simoes
simon
simone
simple
simplemente
simples
simplificado
simuna
sin
sina
sinaloa
sinatra
sinbad
sinch
sindaco
sindelar
sindical
sindulfo
sinfonia
sinfonica
sinfonico
sing
singa
singapore
singapur
singer
single
singles
sings
sini
siniestro
sinigal
sink
sinkus
sinner
sino
sinqa
sinsikap
sint
sintactico
sintesis
sinti
sintipin
sintipuniw
siodmak
sioux
sipan
sipansa
sipanxa
sipawa
sipita
siprage
siqi
siqintata
siqiru
siqlla
siqsi
sir
sirena
sirenas
siri
siria
sirimavo
sirista
sirka
sirkadu
sirpenti
siruela
sirwiya
sirwiyana
sirya
siryi
sisa
sisapampa
sisnawa
sist
sistema
sistemas
sister
sisters
sitajara
sitapampa
sitaqucha
site
sites
sitio
sitios
sitixa
sito
sittaford
situacion
situaciones
situwa
siul
sivori
siw
siwa
siwar
siwara
siwaraki
siwarax
siwas
siwayu
siwi
siwiq
siwsawiwa
siwsawxa
siwya
six
sixa
sixto
siy
siya
sj
sk
skazka
sketches
skofic
sky
sl
slam
slave
sleep
sleeping
slovenija
slovensko
slumberland
sm
small
smart
smith
smoke
sn
snake
snow
snowbird
so
soares
soberano
soberon
soborno
sobre
sobrevivientes
sobrino
social
socialdemocracia
sociales
socialismo
socialist
socialista
socialistas
sociedad
sociedades
societe
society
sociologia
sociologicos
socola
socorro
socrates
sodas
sodio
sofia
sofonias
software
soga
soir
soiree
sois
soisar
soixante
sol
sola
solamente
solano
solar
solares
solas
soldado
soldados
soldan
soldevilla
soldier
soldiers
sole
soledad
soledades
soleil
solemne
soler
soles
solidaria
solidaridad
solidas
solidum
solis
solitaria
solitario
solo
soloco
sologuren
sololiteratura
solomon
solorzano
solos
soltera
solucion
soluciones
somalia
somaticas
sombra
sombras
some
somebody
something
somogy
somos
somoza
son
sonata
sonatas
soncco
sonche
sondondo
sondor
sondorillo
soneto
sonetos
song
songs
sonia
sonido
sonora
sonoro
sonoros
sonrisa
sons
sont
sony
soo
soon
soong
sophia
sophie
sophy
sopla
soplin
soplo
sopra
sor
sorata
sorcio
sordo
sorella
soria
soriano
soritor
sorpresas
soru
sosa
sostantivo
sostenible
sotelo
soto
sotomayor
sotto
soul
souls
sound
sounds
source
sources
sous
sousa
south
souza
sovietica
soy
sp
space
spain
spanish
sparkling
spd
specimen
spell
spence
spencer
spider
spiel
spinetta
spor
sport
sporting
spottorno
spouse
spring
springer
springfield
springs
spy
sq
square
sr
srbija
sri
srpska
ss
st
stabile
stadt
stage
stalin
stallion
stan
stanca
standard
stanford
stanislao
stanley
stannard
star
starkey
starlift
starr
stars
start
started
state
states
stats
statystyczny
stay
stearns
stefan
stefano
steinbeck
stelios
stella
stendhal
step
stephan
stephen
steps
steve
steven
stevens
stevenson
stewart
stidda
still
stockholm
stoke
stone
stones
stonewall
stop
storia
stories
storitz
storm
storni
story
stowe
stradonitz
strange
stranger
strasbourg
stratford
stratovolcano
streep
street
streisand
strigo
strike
strogoff
structure
studenti
studi
studien
studies
studio
studium
study
stuff
stunde
stunned
sturzo
stuttgart
style
styles
su
sua
suajili
suarez
suasi
suasisuiu
suasti
sub
subclinica
subdesarrollo
subdireccion
subject
subjuntivo
sublime
substantif
subtanjalla
sucacahua
sucari
sucede
sucedido
sucedio
sucesion
sucesivamente
sucesivas
such
sucias
suclla
sucre
sucu
sud
sudamerica
sudamericana
sudamericano
sudan
suecia
suelo
sueno
suenos
suero
suerte
sufijo
sufrimiento
suggestions
sui
suicide
suicidio
suisse
suit
suite
suiza
sujeto
sujtir
suka
sukat
sukay
sukcha
sukchapampa
suker
sukri
sukucha
sukurru
sukuta
sul
sulca
suli
sullana
sullca
sulli
sullk
sullka
sullsu
sullu
sullunakamp
sultan
sultaru
sum
suma
sumac
sumachiri
sumak
sumakaniti
sumakiskaniwa
sumakiskarakiwa
sumalya
suman
sumapuniw
sumapuniwa
sumaq
sumaraki
sumarakiwa
sumari
sumate
sumatra
sumaw
sumawa
summer
sumpach
sumpilka
sumpin
sumpini
sumpuniw
sumus
sun
sunampi
sunay
sunday
sundsvall
sung
suni
sunina
sunituqina
sunkhan
sunset
suntur
sunturkuna
suo
suomi
supaya
supe
super
superior
superman
superstar
suplemento
suplicar
suplin
supo
supplicare
supplicari
supplier
suprafata
supremo
supyumpirakiw
suq
suqawaya
suqus
sur
suranani
suras
suraya
surci
surco
surcos
surge
surgi
suri
surici
suriname
surit
surku
surkupampa
surmirunakani
surquillo
surrealista
suruchuku
surunapax
sus
susan
susana
susanna
susapaya
susina
susiyalisti
suspiros
sussex
sussoni
sustantivo
sustantivu
susyalista
sut
suta
sutawa
sutherland
suti
sutichana
sutichapjje
sutichayata
suticht
sutil
sutimax
sutimp
sutimpi
sutimpirakiw
sutimpiw
sutin
sutinaka
sutinakamp
sutinakampi
sutinakax
sutinchata
sutincht
sutini
sutininaka
sutinitaynawa
sutiniwa
sutipa
sutipax
sutipaxa
sutit
sutix
sutiyapxiritayna
sutiyiri
sutiyuq
sutjeska
sutnyang
suwit
suxta
suxtan
suxtani
suxu
suyk
suyo
suysa
suysiya
suysu
suyt
suytukancha
suyu
suyumpiw
suyun
suyuna
suyunaka
suyunakanwa
suyunkiriwa
suyunx
suyunxa
suyupi
suyur
suyuru
suyuta
suyuwa
suyux
suyuxa
sv
svg
svizra
svizzera
sw
swahili
swamp
swann
swasisuyu
sweet
swing
swisiya
swisya
switsira
swysu
sx
sy
sybila
sydney
sylvia
symphony
system
systema
sz
szabo
szeged
szekesfehervar
szolnok
szombathely
sztemon
szyszlo
sœur
sɛt
t
t0
t1
t2
t3
t4
t5
t6
t7
t8
t9
ta
tabaco
tabaconas
tabalosos
tabare
tabasco
tabla
tablas
table
taboada
tacabamba
taciano
tacna
taco
tacoma
tacto
tacuabe
tadeo
taft
tafur
taganrog
tagebuch
tagle
taipe
taita
tajo
tak
take
taken
takes
taki
takin
takina
taking
takipayanaku
takiri
takkini
taksuta
takt
takya
tal
tala
talara
talavera
talawira
talcahuano
tale
talento
tales
talia
talk
talkawanu
tall
tallan
talledo
taller
talleres
tallo
talon
tam
tama
tamacht
tamak
tamanakan
tamanakaw
tamanakawa
tamanpun
tamanxa
tamar
tamarindo
tamariz
tamaulipas
tamaw
tamax
tamayo
tambien
tambillo
tambo
tambor
tambores
tambourines
tamil
tampu
tampupampa
tampurqu
tamshiyaku
tan
tancon
tandil
tang
tanganika
tanger
tango
tangoa
tangos
tania
tanka
tansaniya
tansanya
tanta
tantachasipxi
tantachawinak
tantachawinakanwa
tantachawix
tantalean
tantamayu
tantara
tantaranchi
tantarico
tantarika
tanti
tantiy
tantiyukiw
tantiyunakakirakiwa
tanto
tantos
tanzania
tao
taoismo
tapa
tapachapxarakiwa
tapachapxi
tapachasi
tapachasin
tapantaraki
tapapax
tapapaxa
tapapx
tapaqucha
tapara
tapay
tapayriwa
tapia
tapichi
taps
tapu
tapuq
taq
taqe
taqi
taqichaqan
taqikast
taqikasta
taqikun
taqikuna
taqikunas
taqikunat
taqikunaw
taqin
taqinis
taqinitak
taqiniw
taqit
taqiwjanakana
taqna
taqpach
taqpacha
taquire
tara
tarantos
tarantula
tarapaca
tarapaka
taraputu
taraqu
tarasov
tarata
taray
tarazona
tarcisio
tarde
tarii
tarija
tarika
tarixa
tarku
tarma
tarn
tarpuy
tarqa
tarrillo
tarso
tarujani
tarukachi
tarukani
tarwi
tarzan
tas
tasani
tasayco
taskent
tasks
tasmania
tasso
tasty
tata
tatalillu
tatan
tatanakaru
tatasti
tataw
tatax
tataxa
tate
tati
tatitu
tatitur
tau
tauride
tauro
taurus
tavara
tavera
tawantinsuyu
tawanya
tawaq
tawaqu
tawaqunaka
tawaqunakax
tawqa
tawriha
tawripampa
tawriya
taxi
tay
tayapampa
tayaqaqa
tayik
tayikistan
tayk
tayka
taykana
taykanak
tayki
taylandya
taylor
taype
tayphi
taypi
taypin
taypina
taypinakan
taypinki
taypinkiwa
taypinx
taypinxa
taypipa
taypita
tayta
taytakura
taza
tb
tbilisi
tc
td
te
tea
teacher
team
tear
teatral
teatro
technical
technology
teclados
tecnica
tecnico
tecnologia
tecnologica
tegucigalpa
tehanu
teheran
teil
tejada
tejido
tel
tela
tele
telefono
telenovela
telenovelas
telesforo
televisao
television
telgte
telico
tell
tello
telmo
tem
tema
temainaak
temas
tematica
temerario
temido
temistocles
tempera
tempestad
templo
templos
temporal
temprana
tempranas
temptation
ten
tenang
tenebrosa
tenemos
tener
tengo
tenia
teniente
tennessee
tenochtitlan
tenor
tenorio
tentacion
teobaldo
teodocio
teodolfo
teodomiro
teodora
teodorico
teodoro
teodosio
teodulo
teofilo
teoria
tepic
teques
tequixquiac
teran
tercer
tercera
tercero
terciopelo
terence
teresa
teresina
teresita
terig
teritoriul
termas
termina
terminaciones
terminan
termino
terms
ternero
ternura
terr
terra
terramar
terrazas
terre
terremoto
terreros
territorial
territorio
territory
terrones
terror
terrorismo
terry
teruel
tesis
tesla
tesoro
testamento
testigjama
testigo
testimonio
testimonios
teubner
teves
texas
texcoco
texto
textos
tf
tg
th
thai
thais
thakhi
thakhin
thakhinakax
thakhiniwa
thakhinjam
thakhir
thakhiwa
thakhix
thaki
thaksin
than
thanh
thank
thap
thapay
thaqana
thaqhapxi
thaqhasipxi
that
thatcher
thaxa
thaxpach
thay
thaya
thayana
thayapachana
thayapti
thayas
thayata
thayaw
thayawa
thayaxa
thayjata
thayktam
the
their
them
then
theodor
theodore
theoretische
theorie
theory
theotocopuli
theotokopoulos
there
therese
thesaurus
these
they
thief
thiet
thimpo
things
third
thirteen
this
thixni
thiy
thiya
thiyana
thiyanakan
thiyanakana
thiyanakar
thiyat
thomas
thomaz
thompson
thomson
thorns
thorpe
three
through
thubault
thujru
thujsa
thumb
thumbs
thunder
thuqht
thuqhtas
thuqhun
thuqhunatakix
thuqhupxana
thuqhupxi
thuqhurana
thuqhuskiti
thuqhuw
thuqhux
thuqhxapxi
thuqt
thuquna
thuringen
thursday
thurt
thuru
thurunakawa
thurunchiri
thuruwa
thyssen
ti
tia
tibillo
tic
ticket
ticlla
ticona
ticse
tiempo
tiempos
tiene
tienen
tienes
tierra
tierras
tiffany
tiflis
tiger
tigo
tigre
tigres
tigrinya
tijeras
tijri
tik
tika
tikaku
tikapampa
tikillaqa
tikitiki
tikllakayan
tikllus
tikrapu
tilali
tilcara
tiliphunu
tiliwisyun
timbu
time
times
timias
timisoara
timon
timoteo
tin
tina
tinc
tincopa
tingo
tinguina
tini
tinikachi
tinku
tinkuy
tinoco
tinogasta
tinqu
tinta
tintay
tintoretto
tinyawarku
tio
tip
tipan
tipica
tipicamente
tipo
tipografia
tipos
tiqllas
tiqri
tirado
tirana
tirano
tirapata
tiriwu
tirso
tisicos
tisiku
tisku
tita
titi
titicaca
titikaka
titiqaqa
tito
titulaba
titulada
titulado
titulo
titulos
tiwanaku
tiwul
tiwula
tiwularux
tiwulasti
tiwulax
tiyawaya
tiza
tiziano
tj
tk
tl
tlatelolco
tlaxcala
tm
tn
to
toad
toay
tobias
tocache
tocantins
tocmoche
toda
todas
todavia
today
todd
todo
todos
together
toi
tokio
toko
tokyo
tola
told
toled
toledo
tolentino
tolintinu
tollkeeper
tolls
tolstoi
tolstoy
toluca
tom
toman
tomas
tomasa
tomay
tome
tomentosa
tommy
tomo
tomorrow
tomos
ton
tonanitla
tone
tony
too
took
top
topa
topeka
toqet
tor
torbellino
torbisco
tord
torero
torga
toribio
torices
torino
tormenta
tormes
tormo
torneo
tornero
torno
toro
toronto
toros
torre
torrechayoc
torrejon
torrente
torrentera
torres
torrico
torrida
torrijos
tortola
tortura
tos
tosca
toscana
toscano
toshiro
tostao
total
totala
totalmente
totocayo
totora
touch
toulouse
tour
tournavista
tours
tous
toussaint
touzet
tovar
toward
towards
town
towsend
toxinas
toy
tp
tq
tr
trabajadores
trabajan
trabajando
trabajemos
trabajo
trabajos
track
trad
trade
tradiciion
tradicion
tradicional
tradicionalistas
tradiciones
traduccion
traducciones
traduce
traducida
traducido
traducidos
traduciendo
traducir
traductor
traductores
traffic
traficoperu
tragedia
tragedy
tragico
traicion
traicionera
traidor
trailer
train
traje
tramp
trampa
trang
trankvila
tranquil
tranquille
tranquillo
tranquillu
tranquilo
tranquilos
transdanuwyu
transicion
transitivo
transitivos
transito
translate
translated
transmisiones
tranvia
trapecio
tras
trasladar
trata
tratado
tratamiento
tratos
trauco
travel
traverso
traves
travesi
traveso
travessia
trayectoria
tre
trece
tree
tregua
treinta
trejo
trelew
trelles
tren
trent
trenton
trepadora
tres
treseburg
tresierra
tresor
trevejo
trevino
tri
triangulo
tribu
tribuna
tribunas
tributo
trigo
trigos
trigoso
trilce
trillo
trilogia
trinidad
trio
triple
tripping
triptico
tristan
triste
tristes
tristeza
trita
triumph
triunfante
triunfo
triunfos
troilo
trois
troje
trompeta
trompeteros
troncoso
trono
tropeles
tropelias
tropical
tropico
trotsky
trouble
trova
trovadores
troveros
troya
trucha
trudeau
true
truenen
trueno
truhillu
trujillano
trujillo
truman
trunca
trunk
truong
truro
truth
tryon
ts
tsarievnie
tse
tseng
tsuruta
tt
ttito
tu
tua
tubagu
tuberculosis
tubman
tubo
tucci
tucson
tucupita
tuda
tueros
tuerto
tuesta
tuiro
tujtuka
tukachi
tukinakanx
tukjir
tukt
tuku
tukuman
tukumi
tukunkam
tukuqankam
tukut
tukutat
tukutatx
tukutayna
tukuwipa
tukuwipawa
tukuya
tukuyana
tukuyanawa
tukuyanxa
tukuyasina
tukuyatayna
tukuyi
tukxapxi
tula
tulio
tulipan
tullu
tuman
tumas
tumay
tumaywaraka
tumba
tumbaden
tumbas
tumbes
tumbesina
tume
tumipampa
tumpir
tumpis
tun
tuna
tunan
tunche
tunel
tung
tungasuca
tungsteno
tunk
tunka
tunkan
tunkani
tunkawa
tunqu
tunqui
tunqur
tunqurimpi
tunta
tuntax
tunu
tupac
tupak
tupaq
tupayachi
tupi
tupiqucha
tupisa
tupiza
tuppence
tupu
tupuna
tupuwa
tuqi
tuqin
tuqina
tuqinakan
tuqinkir
tuqinkiri
tuqinsa
tuqinx
tuqinxa
tuqiri
tuqiru
tuqiruwa
tuqirux
tuqiruxa
tuqit
tuqita
tuqitx
tuqitxa
tuqiw
tuqiwjana
tuqix
tuqixa
turandot
turata
turaya
turco
turin
turismo
turista
turistica
turistico
turisticos
turkiya
turkiyi
turkmin
turned
turner
turpay
turpo
turpu
turquia
turu
turucha
tus
tusi
tusquets
tuta
tuti
tutti
tutu
tutuka
tutur
tutura
tuum
tuvo
tux
tuxtla
tuxu
tuya
tuyo
tv
tvb
tvi
tw
twain
twenty
twitter
two
tx
txaikovski
ty
tyapu
tycoon
tyler
typographia
tyrone
tz
tzu
u
u0
u1
u2
u3
u4
u5
u6
u7
u8
u9
ua
ub
ubaldo
uber
ubicacion
ubicado
ubinas
ubuntu
uc
uca
ucayali
ucb
uceanu
uch
ucha
uchana
uchaniwapxiritayna
uchasara
uchasipxiri
uchata
uchik
uchisa
ucht
uchu
uchumarka
uchumayu
uchun
uchuna
uchuni
uchupampa
uchuru
uchusuma
uchux
uci
ucrania
ucuncha
ud
ue
uefa
uefs
ues
uetersen
uf
ufba
ufficiale
ufg
uficial
uficialmente
ufisyal
ufmg
ufrb
ug
uganda
ugarte
ugarteche
ugaz
ugly
ugo
ugu
uh
ui
uj
ujka
ujru
ujti
uju
uk
uka
ukajj
ukak
ukakikiti
ukakiw
ukakrak
ukalaykutaw
ukamapins
ukamarak
ukamaraki
ukamp
ukampi
ukampins
ukampinsa
ukampirus
ukampirusa
ukampis
ukampisa
ukampiw
ukampix
ukan
ukana
ukanak
ukanaka
ukanakajj
ukanakajja
ukanakampi
ukanakampix
ukanakan
ukanakana
ukanakar
ukanakarakiw
ukanakarojj
ukanakaru
ukanakasa
ukanakasti
ukanakat
ukanakatjja
ukanakatpi
ukanakaw
ukanakawa
ukanakax
ukanakaxa
ukanakx
ukaniwa
ukankamax
ukankapxirikataynati
ukansti
ukanx
ukanxa
ukapachanx
ukapachanxa
ukapachax
ukapachparakikiw
ukapachparakiw
ukapaxa
ukar
ukarak
ukaraki
ukaru
ukarusti
ukaruw
ukaruwa
ukarux
ukaruxa
ukas
ukasa
ukast
ukasti
ukat
ukata
ukatak
ukatakix
ukataw
ukatpi
ukatsti
ukatuqit
ukatuqita
ukatuqitanakata
ukatwa
ukatx
ukatxa
ukaw
ukawa
ukawjan
ukawjarux
ukawjax
ukax
ukaxa
ukayali
ukch
ukha
ukhajja
ukham
ukhama
ukhamakipanwa
ukhaman
ukhamana
ukhamanakawa
ukhamapan
ukhamarak
ukhamaraki
ukhamarakiw
ukhamarakiwa
ukhamarus
ukhamarusa
ukhamarux
ukhamasti
ukhamat
ukhamata
ukhamatix
ukhamatwa
ukhamaw
ukhamawa
ukhamaxa
ukhamipanxa
ukhampacha
ukhampirusa
ukhamraki
ukhanakaru
ukhar
ukharak
ukhaskti
ukhasti
ukhat
ukhatpach
ukhatsti
ukhaw
ukhawa
ukhax
ukhaxa
ukhuna
ukhupampa
ukipana
ukipxiritayna
ukipxwa
ukiw
ukj
ukja
ukjakiw
ukjam
ukjamak
ukjamakiti
ukjamakiw
ukjaman
ukjamar
ukjamarak
ukjamaraki
ukjamarakiw
ukjamarakiwa
ukjamarakkiw
ukjamarjamaw
ukjamarus
ukjamarusa
ukjamas
ukjamat
ukjamata
ukjamatwa
ukjamaw
ukjamawa
ukjamax
ukjamaxasp
ukjamaxiti
ukjamipan
ukjamipansa
ukjamipansti
ukjamipanx
ukjamrak
ukjan
ukjana
ukjanakan
ukjanakaw
ukjanakax
ukjar
ukjaru
ukjaruw
ukjarux
ukjat
ukjaw
ukjax
ukjaxa
ukjmakiw
ukkhax
ukkhaxa
ukkirinakax
uknamawa
ukraine
ukraniya
ukraniyap
ukraniyaxa
ukranya
uksa
uksana
uksanakan
uksanakana
uksanjama
uksankiwa
uksanx
uksaru
uksaruw
uksarux
uksat
uksatuqina
uksatuqinakaya
uku
ukupa
ukurux
ukutaki
ukx
ukxa
ukxarusti
ukxaruw
ukxarux
ukxaruxa
ul
ula
ulan
ulaqa
ulaqaxa
ulf
ulianov
ulimpiku
ulis
ulises
ulla
ullachiya
ullan
ullantay
ullantaytampu
ullaraya
ulli
ullilen
ulliru
ullk
ullmann
ulloa
ullqumayu
ullu
ulluku
ullus
ulluta
ulmus
ultima
ultimas
ultimo
ultimos
um
uma
umacha
umachiri
umalliq
umamp
umampi
umampix
uman
umana
umantana
umapacha
umar
umara
umari
umas
umasuyu
umat
umati
umaw
umawa
umax
umaxa
umberto
umbrales
umillk
uminak
umjama
ump
umphi
umphiwa
umpi
umpit
umpita
umpitawa
umsa
umt
umu
umuchisqa
umuwa
un
una
unacht
unak
unaka
unakana
unakata
unakawa
unakax
unakaxa
unakipanataki
unakipt
unaks
unakxata
unam
unamuno
unanak
unancha
unanchasa
unanue
unapa
unas
unasiri
unay
uncertain
unch
unchupaico
uncia
uncle
und
under
undp
une
unesco
unexpected
unfinished
uni
unibol
unica
unicachi
unicht
unico
unida
unidad
unidade
unidades
unidas
unido
unidos
unidus
unidusna
unificado
unikachi
union
unir
united
unitel
univ
universal
universidad
universidade
universidades
universita
universitaria
universitario
universitas
universitat
university
universo
unjana
unjanani
unjanawa
unjapxi
unjasa
unjasax
unjasaxa
unjasi
unjasiraki
unjasirakispa
unjasispa
unjasiw
unjaskiti
unjatawa
unjatayna
unjawaytwa
unjiri
unjkatasmati
unjt
unjxanti
unkatataxa
unknown
unmsm
unnaqa
uno
unos
unplugged
unquy
unriya
unsiya
unst
unstani
unstanipxi
unstatana
unstatayna
unstawayi
unstayapxatayna
unstayat
unsti
unstir
unstiri
unstiritayna
unstixa
unsuluarte
unsuna
unt
untan
untana
untapax
untaphatayna
untasakiw
untasiri
untasita
untata
untatarakiwa
untataw
untatawa
untayana
untimely
untsumak
unturis
untxapxi
unu
unuchan
unump
unun
unuqt
unuta
unutakiw
unuwir
unux
unvanquished
unxatapxarakima
unxatir
unxatt
unyun
unzaga
uo
uomo
up
upawachu
upea
uploads
upon
upp
uq
uqana
uqatawa
uqi
uqimpi
uqinakar
uqinakax
uqini
uqir
uqis
uqitx
uqiwa
uqix
uqiyapu
uqru
uqrus
uqsatuqita
uqshamarka
uqshapampa
uqu
uqunqati
uqupampa
uquru
uqururu
uquwiri
uquyu
ur
ura
uraca
uraka
urakiwa
uralan
uranmarka
uranu
uraq
uraqi
uraqin
uraqina
uraqinaka
uraqinakan
uraqinakana
uraqinakax
uraqini
uraqinkiri
uraqinkiwa
uraqinxa
uraqipa
uraqipax
uraqir
uraqiru
uraqis
uraqisana
uraqita
uraqiwa
uraqix
uraqixa
uraqpachan
uraqpachanxa
uraqpachar
urarinas
urasax
uraski
urasuyu
urata
urawa
uraxa
urbano
urbina
urcia
urcos
urdaneta
urdu
urena
ureta
urgel
uri
uria
uriarte
uribe
uriburu
uriel
urin
urinuqa
urkhu
urku
url
urnitirrinkuxa
urpay
urqu
urqukuna
urqunaka
urqunakaxa
urqupampa
urqus
urqutuna
urquxa
urrutia
urso
urss
ursu
ursula
urteaga
uru
urubamba
uruguay
uruguayo
urukama
urukipan
uruna
urunak
urunaka
urunakan
urunakatwa
urunakaw
urunakax
urunakkiw
urundi
uruni
uruniwa
urunx
urupampa
urupisa
ururillu
ururin
ururu
urut
uruta
urutjamaw
uruw
uruwayi
uruwayixa
uruwayupi
urux
uruxa
uruya
urzad
us
usa
usado
usados
usar
usat
usawa
usbik
use
useful
ushinahua
usikayus
usiyanya
uskil
uskt
uskusinataki
usnipata
uso
usp
uspas
uspi
usted
ustedes
usti
usu
usuario
usuchjanati
usuchjasi
usuchjasit
usunaka
usut
usuta
usutak
usutaki
usutakisa
usutakixa
usutatawi
usutatawixa
usuxa
uswa
ut
uta
utachxatat
utah
utampi
utampu
utan
utana
utanak
utanaka
utanakan
utanakapan
utanakapax
utanakat
utanakata
utanakaw
utanakax
utanapuniw
utani
utanitaynawa
utanx
utapa
utapan
utapax
utapaxa
utar
utaru
utaruw
utarux
utas
utata
utaw
utawa
utax
uthjarakiwa
utiles
utilizada
utiqyaku
utj
utjakirakiwa
utjakiritaynawa
utjan
utjana
utjanapataki
utjanapatakiw
utjani
utjapuniritaynawa
utjapunitayna
utjapuniwa
utjapxakiwa
utjapxaraki
utjapxi
utjaraki
utjarakitaynawa
utjarakiwa
utjasiri
utjaskakiwa
utjaski
utjaspa
utjaspawa
utjatap
utjatapa
utjatayna
utjawayi
utjawi
utji
utjipan
utjipana
utjir
utjiri
utjirikataynati
utjirikiti
utjirinaka
utjiritayna
utjistu
utjiti
utjiwa
utjix
utjixa
utjkan
utjkana
utjkanati
utjkanti
utjki
utjkit
utjkiti
utjxi
utjxiti
utki
utku
utkupampa
utopia
utrecht
utt
utu
utuqa
utuqirux
utuqu
utuquni
utusku
utxarakiwa
utxi
uu
uv
uvas
uw
uwa
uwatana
uwaw
uwax
uwe
uwij
uwija
uwijax
uwipu
uwispo
uwispu
uwisu
uwisunakana
uwisunakanxa
uwisunakaxa
uwisux
uwisuxa
ux
uxa
uxi
uxllumpi
uxllumpixa
uxna
uxnawa
uxt
uxu
uy
uypan
uyu
uyulu
uyun
uyuni
uyutun
uyw
uywa
uywakiritakisti
uywampiw
uywan
uywana
uywanak
uywanaka
uywanakamp
uywanakan
uywanakana
uywanakap
uywanakar
uywanakaru
uywanakat
uywanakata
uywanakatak
uywanakaw
uywanakawa
uywanakax
uywanakaxa
uywanakw
uywansa
uywanxa
uywapxi
uywarakiwa
uywas
uywasa
uywasipxi
uywasiraki
uywaskaki
uywat
uywata
uywatakiti
uywatawa
uywaw
uywawa
uywax
uywaxa
uz
uzategui
v
v0
v1
v2
v3
v4
v5
v6
v7
v8
v9
va
vaca
vacaciones
vacas
vacca
vache
vacios
vaclav
vagabundo
vagina
val
valadez
valcarcel
valcazar
valdelomar
valderrama
valdes
valdez
valdi
valdivia
valdivieso
valdizan
vale
valencia
valentim
valentin
valentina
valentino
valenzuela
valer
valera
valeriano
valerie
valerio
valery
valga
valida
valientes
valinsiya
valladares
valladolid
vallarta
valle
vallecas
vallejo
vallejos
vallenas
valles
valletta
valley
valmont
valor
valores
valparaiso
valqui
vals
valseando
valses
values
valverde
vamos
van
vancouver
vanessa
vanguardia
vapor
vaquero
varayoc
varela
vargas
varia
variable
variacion
variaciones
varias
variety
varios
varo
varon
varona
varsovia
vas
vasco
vaso
vasquez
vasto
vatican
vaugirard
vaya
vayas
vaz
vazquez
vb
vc
vd
vda
ve
vease
vecchiardo
veces
vecinal
vecino
vecinos
vega
vegas
veil
veinte
veintemilla
veinticinco
veintiuno
veizaga
vejez
vejiga
vela
velarde
velas
velasco
velasquez
velayarce
velazquez
velez
velezmoro
velha
velho
veliz
vella
velo
veloso
ven
venadito
venado
venancio
vencedores
vencer
venceslau
vencida
vencidos
vendee
vender
vendler
vendra
venecia
venegas
veneno
veneros
venezia
venezolana
venezolano
venezuela
venezuelatuya
venganza
vengo
venice
vent
venta
ventana
ventanilla
vento
ventrales
ventura
venus
veo
ver
vera
veracruz
veraguas
verano
veras
verastegui
verb
verbal
verbales
verbe
verbo
verbos
verbu
verdad
verdaderas
verdadero
verde
verdes
verdi
vereau
vergara
vergarabat
vergaray
verguenza
verlag
vermont
vernacular
vernal
verne
verneuil
vernon
veronica
verordnung
versailles
version
versiones
verso
versos
versuch
vert
vertebrados
vertebral
vertebras
vertes
vertigo
verve
vervo
very
vespucci
vest
vestido
veszprem
vete
veuve
vez
vf
vg
vh
vhf
vi
via
viagem
viaggio
viajante
viaje
viajero
viajeros
viajes
viana
vicarage
vicario
vicchiareddu
vice
vicenta
vicente
vicepresidente
vichayal
vici
victimization
victor
victoria
victoriano
victorine
victorino
victorio
victory
vicuna
vida
vidal
vidarte
vidas
video
videoclips
videojuego
videos
vides
vidyu
vie
vieil
vieillard
vieira
vieja
viejito
viejo
viejos
viena
viendo
viene
vienna
vienne
viento
vientos
vieques
vier
viera
viernes
viet
vietnam
view
vigesimo
vigil
vigilada
vigilado
vigilante
vigilar
vigilia
vigo
vigogna
vigogne
vihuela
vii
viii
vila
vilanova
vilca
vilcabamba
vilcas
vilchez
vilela
villa
villacorta
villafuerte
village
villaggio
villaggiu
villagomez
villagra
villagran
villahermosa
villalobos
villalva
villana
villancicos
villani
villano
villanueva
villar
villaran
villares
villaroel
villarreal
villarrobledo
villarroel
villasante
villasenor
villaverde
villavicencio
villazana
villazon
ville
villegas
villena
villoslada
vilnius
vilque
vina
vinagrito
vinas
vincent
vincenzo
vinchos
vinci
vinculados
vingt
vino
vint
viola
violante
violencia
violentos
violet
violeta
violin
virdi
virgen
virgenes
virgilio
virginia
viridi
virrey
virtual
virtud
viru
viruela
visconti
visible
vision
visiones
visit
visita
visitacion
visor
vista
vistas
visto
visual
vita
vitacura
vital
vite
vitebsk
vitier
vitonera
vitor
vitoria
vittoria
vittorio
viuda
viudo
viva
vivaldi
vivamos
vivanco
vivas
vive
vivian
viviana
vivido
viviente
vivimos
vivio
vivir
vivo
vizcardo
vizcarra
vizconde
vj
vk
vl
vladimir
vladimiro
vm
vn
vo
vocabulario
vocal
voces
voice
voices
voight
vojnogeografski
vol
volador
volando
volante
volar
volcanes
volcano
volga
volodimir
vols
volumen
volumenes
voluntad
volunteers
volver
volvere
vom
von
voodoo
vorivia
vorlesungen
vorpommern
vortrage
vosotros
votado
voto
votos
vous
voyage
voz
vozeler
vp
vq
vr
vrancu
vs
vt
vu
vuela
vuelo
vuelta
vuelva
vuelve
vuelven
vuelvo
vung
vv
vw
vx
vy
vz
w
w0
w1
w2
w3
w4
w5
w6
w7
w8
w9
wa
waa
waals
wabal
wachaq
wachis
wachu
wachun
wachupampa
wachuqullpa
wachus
wade
wagner
wahrheit
waiting
waja
wajata
wajax
wajcha
wak
waka
wakachi
wakan
wakana
wakanaka
wakanakaxa
wakapampa
wakar
wakarakiwa
wakarpana
wakaschuqi
wakaxa
wakchis
wake
waki
wakichana
wakichanataki
wakichasiwa
wakichata
wakichaw
wakichawi
wakichawinak
wakichawinakampi
wakichawix
wakicht
wakilla
wakinaka
wakirka
wakisi
wakisir
wakisiri
wakisiwa
wakisixa
wakisk
wakiskir
wakiskiri
wakiskiriwa
wakiskiti
wakiyapxi
wakt
wakthapiwapxiritayna
wakwas
wal
walat
waldir
waldo
walentin
wali
walikisktat
walikiti
walikiw
walinaka
walinakaw
waliniti
walinkanapataki
walipun
walipuni
walipuniw
waliw
waliwa
walixa
walj
walja
waljan
waljaninakaw
waljatuqinakawa
waljaw
waljawa
walk
walker
walkure
wall
walla
wallace
wallaga
wallanka
wallaqa
wallaqitaw
wallaqix
wallaqt
wallata
wallatax
wallenstein
walli
wallirandi
wallj
wallpa
wallpana
wallq
wallqa
wallqanqa
wallqayuq
wallqi
walls
walltay
wallu
walmay
walpin
walpun
walpuniw
walpunrak
walrak
walsh
walt
walter
walther
walwas
walxa
wamachuku
wamali
waman
wamankikya
wamankilla
wamanqa
wamanqamanta
wamanqaqa
wamantanga
wamatampu
wamp
wampalpa
wampara
wampu
wampus
wan
wana
wanaku
wanchaku
wanchaq
wanchay
wang
wanipaqa
waniq
wank
wanka
wankan
wankani
wankanu
wankapampa
wankapi
wankapun
wankarama
wankarani
wankaray
wankaraylla
wankarki
wankas
wankasanku
wankaskar
wankaspata
wankawillka
wankax
wankaya
wankayri
wankayu
wankayuq
wanki
wankuyu
wansa
want
wanta
wantan
wantar
wanted
wantu
wantuwal
wanu
wanuara
wanukiti
wanuku
wanusqa
wanuwanu
waq
waqachiq
waqana
waqar
waqaypampa
waqllan
waqra
waqrachuku
waqrapukyu
waqullani
war
wara
waral
waranchal
warani
waraniyi
warankh
waranq
waranqa
waranqh
waranqha
waranqhan
waranqu
waranta
waraqu
waraqux
wararqix
waras
waratatana
warawara
waray
ward
warhol
warhola
wari
waripampa
wariqullqa
warlock
warm
warma
warmaka
warmi
warmina
warminaka
warminakakiristi
warminakaw
warminakax
warminakaxa
warmipamp
warmiru
warmiw
warmix
warmiy
warner
waros
warren
warriors
warsaw
warszawa
warthon
waru
waruchiri
warukuntu
warus
waryaqa
was
wasawasi
washington
wasi
wasikancha
wasikuna
wasitat
wasmin
wasser
wasta
wasu
wat
wata
watam
watamanta
watapi
watch
water
waterfront
waterloo
waters
watimala
watson
watt
waves
waw
wawa
wawan
wawanak
wawanaka
wawanakamp
wawanakampi
wawanakan
wawanakana
wawanakanxa
wawanakaparux
wawanakar
wawanakaru
wawanakaruw
wawanakarux
wawanakasarux
wawanakast
wawanakasti
wawanakataki
wawanakatakixa
wawanakaw
wawanakax
wawanakaxa
wawapa
wawar
wawat
wawatakxamaw
wawati
wawax
wawku
wawra
waxasi
waxasiwip
waxay
waxt
waxtawimp
way
waya
wayakil
wayakuntu
wayan
wayana
wayaqa
wayaqax
wayaqaxa
wayback
waych
waychu
waychux
wayit
wayk
waykawachu
waykina
waykinax
waylas
wayles
waylillas
wayllakayan
wayllan
wayllapampa
wayllati
wayllawara
wayllax
wayllay
wayllu
wayn
wayna
waynakuta
waynanak
waynanaka
waynanakan
waynawirinakax
wayne
wayra
wayrapata
wayrunq
ways
wayt
waytara
wayu
wayukachi
wayupata
wałesa
wb
wc
wcd
wd
we
wea
weasel
web
website
websites
wedding
wednesday
week
weg
wei
weimar
weinstein
weissmuller
welcome
well
wells
wen
wenceslao
weninger
went
weores
were
werner
werther
west
western
westfalen
westminster
westmoreland
westphalen
wf
wg
wh
what
whatsapp
wheel
when
whenever
where
wherefore
which
while
white
whitehouse
whitman
whitney
who
whole
whom
why
wi
wich
wichhinkhapax
wichhu
wichiqucha
wide
widyum
wieck
wien
wiesbaden
wiesse
wife
wigner
wikcionario
wiki
wikichawina
wikilist
wikipedia
wikipedias
wikipidiya
wikis
wikisource
wiktionary
wiku
wikunku
wila
wilamp
wilanaka
wilanta
wilapa
wilawa
wilber
wilbert
wilbur
wilcox
wild
wilde
wilder
wilding
wildor
wilfredo
wilhelm
wililli
wilindoro
wilisi
wilkins
will
willakuy
willakuykuna
willasun
william
williams
willian
willie
willk
willka
willkachasqa
willkan
willkanchu
willkanota
willkanuta
willkapampa
willkawaman
wills
willtayapxiritayna
willy
wilman
wilmer
wilmupan
wilnus
wilson
win
winaq
winay
winaya
winayman
winaypacha
winaypaq
winchu
wind
windows
winehouse
winger
wini
winixwila
winner
winnie
winning
winpayuq
winsent
winston
winter
winterthur
wintu
wiphala
wiphalampi
wiqita
wiqu
wir
wiraku
wiraquchax
wirpakancha
wirriy
wiru
wiruntu
wischunku
wisconsin
wisk
wiskha
wiskhalla
wiskhallawa
wiskhu
wiskhun
wiskhuni
wislla
wista
witansu
with
within
without
witis
witness
wituq
wiyacha
wj
wk
wl
wm
wn
wo
wojewoda
wojtyła
wolf
wolfgang
woll
wollstonecraft
woman
women
won
wonder
wonderland
wong
wood
woodard
woodrow
woodstock
woolf
word
words
work
working
works
world
worlds
worth
wow
wp
wq
wr
wrasil
wrasilxa
wrasilya
wrath
wreak
wresilen
writers
writings
written
wrote
ws
wt
wu
wuile
wukuta
wuliwar
wuliwqar
wuliwya
wuliwyana
wuliwyaxa
wurttemberg
wv
ww
www
wx
wy
wyilikiu
wyman
wyoming
wz
władysław
x
x0
x1
x2
x3
x4
x5
x6
x7
x8
x9
xa
xakamaynta
xalapa
xamayka
xammar
xarux
xatat
xatata
xauxa
xavier
xb
xc
xd
xe
xema
xeramanu
xf
xg
xh
xi
xianfan
xiannian
xiaobo
xiaoping
xicohtencatl
xii
xiii
xilografia
xilografias
ximena
xines
xiomara
xiv
xix
xj
xk
xl
xm
xn
xo
xocoyotzin
xog
xp
xq
xr
xs
xt
xu
xun
xv
xvi
xvii
xviii
xw
xx
xxi
xxiii
xy
xz
y
y0
y1
y2
y3
y4
y5
y6
y7
y8
y9
ya
yabar
yachachijg
yachaq
yachaqsi
yachay
yachaywasi
yacila
yactayo
yacth
yaguas
yahoo
yaipen
yajo
yak
yakarta
yakayakax
yakha
yakirana
yakovlevich
yala
yalana
yale
yallin
yalta
yamakis
yamango
yamas
yamashiro
yambrasbamba
yamel
yamon
yampara
yamwraspampa
yan
yana
yanacancha
yanahuanca
yanak
yanaka
yanakana
yanakancha
yanakap
yanakapax
yanakata
yanaksa
yanama
yanaoca
yanapa
yanapan
yanapt
yanaq
yanaqa
yanaqancha
yanaqiwa
yanas
yanatili
yanavilca
yanawanka
yanawara
yanawaya
yanawka
yanawqa
yanez
yanfranco
yang
yangali
yankee
yanpt
yanpunakat
yanqha
yanqi
yanque
yanqui
yant
yantalu
yap
yapa
yapap
yapar
yapari
yaparjam
yapo
yapt
yapu
yapuchana
yapuchanataki
yapuchanatakiw
yapuchasa
yapuchata
yapuchawi
yapuchawip
yapuchura
yapump
yapunak
yapunakax
yapunaks
yapusa
yaq
yaqa
yaqaan
yaqh
yaqha
yaqhanakamp
yaqhanakampi
yaqhanakampir
yaqhanakampix
yaqhanakarakiw
yaqhapanakax
yaqhapxiti
yaqharaki
yaqhep
yaqhepanakajj
yaqhip
yaqhipa
yaqhipanakasti
yaqhipanakax
yaqhipanakaxa
yaqhipawjanakanx
yaqhiph
yaqhiphanakkiw
yaqhippachanakax
yaqhippachax
yaqus
yarada
yaranga
yarapampa
yarasca
yarawi
yarayma
yareta
yarinaquta
yarumayu
yarusyaqan
yaruwillka
yashin
yasujiro
yat
yati
yatich
yatichan
yatichana
yatichapxi
yatichaw
yatichawinak
yatichawinakampi
yatichawini
yatichiri
yatichirinak
yatichirinakar
yatichiritayna
yaticht
yatin
yatina
yatinanaka
yatinapa
yatinataki
yatinchawinakampinakax
yatintan
yatintanax
yatintapxi
yatipkanti
yatipkiritaynati
yatipkiti
yatipxana
yatipxanpaw
yatipxaraki
yatipxatayna
yatipxi
yatipxiri
yatipxiritayna
yatiq
yatiqan
yatiqana
yatiqananaka
yatiqanapa
yatiqanatak
yatiqanax
yatiqapxayatana
yatiqaw
yatiqawi
yatiqawinakax
yatiqawix
yatiqawixa
yatiqir
yatiqiri
yatiqirinaka
yatiqtan
yatiraki
yatiri
yatirinakax
yatiripxiritayna
yatiriruw
yatisax
yatiskapati
yatiskiti
yatita
yatitayna
yatiwi
yatiwinaka
yatiya
yatiyapxi
yatiyarakiwa
yatiyaw
yatiyawinak
yatiyawinaka
yatiyi
yatiyir
yatiyistu
yatiyiw
yatjjatanatakejj
yatjjatasipkakiwa
yatjjataskaniti
yatjjatatanakajja
yatjjatirjamakiti
yatjjatt
yatkiti
yatksnati
yatxapxanawa
yatxapxiti
yatxatan
yatxatat
yatxatata
yatxatatanakax
yatxatawi
yatxatawiri
yatxiwa
yauca
yauli
yauri
yauyos
yawa
yawar
yawari
yawir
yawka
yawli
yawri
yawrisqi
yawtan
yawya
yawyu
yawyukan
yaya
yb
yban
ybarhuen
yc
yd
ye
year
years
yego
yegros
yekaterina
yellow
yeltsin
yeltsina
yepes
yerba
yerovi
yes
yeso
yesterday
yf
yg
yglesias
yh
yi
yingluck
yiri
yitzhak
yitzjak
yj
yk
yl
ym
yma
yn
ynsfran
yo
yogur
yolanda
yone
yoni
york
yorongos
yoruba
you
young
your
youtube
yoweri
yp
yq
yr
yrigoyen
ys
ysaias
ysrael
yt
yu
yuan
yucatan
yucaytrek
yucra
yugo
yugoslavia
yuji
yukanaka
yukay
yuku
yumani
yumhuriyyat
yunan
yungas
yungay
yunguyo
yunka
yunkay
yunkuyu
yunta
yuntax
yupa
yupan
yupanqui
yupaychan
yupaychana
yupaychawi
yupaychawit
yuq
yuqa
yuqallach
yuqallatakxam
yuqanaka
yuqanaqa
yura
yuraqmarka
yuraqyaku
yurgen
yuri
yurimaguas
yurimawas
yurina
yurita
yuritaina
yuritaya
yuritayna
yuriwi
yuru
yurua
yuyapichis
yuyayk
yv
yvan
yves
yvonne
yw
yx
yy
yz
z
z0
z1
z2
z3
z4
z5
z6
z7
z8
z9
za
zabaleta
zacarias
zacatecas
zafiro
zafra
zag
zahir
zalamea
zalgiris
zamalloa
zambeze
zambia
zambrano
zamora
zamperini
zampona
zamudio
zana
zanabria
zapana
zapata
zapater
zapatero
zar
zaragoza
zarate
zarumilla
zarzuela
zavadivker
zavala
zavaleta
zayas
zb
zc
zd
ze
zea
zedong
zeeman
zegarra
zehnder
zeit
zela
zelada
zelandia
zelenski
zemin
zena
zeno
zenobia
zenobio
zenon
zeppelin
zero
zevallos
zf
zg
zh
zhang
zhao
zheng
zhou
zhu
zhuang
zi
zichy
zico
zidane
zig
ziggy
zinedine
zip
ziyang
zizinho
zj
zk
zl
zm
zn
zo
zoff
zoila
zoilo
zola
zoltan
zomeli
zona
zone
zongo
zoo
zool
zoraida
zorba
zorra
zorrila
zorrilla
zorritos
zorro
zp
zq
zr
zs
zt
zu
zuasnabar
zuazo
zubarry
zubiaga
zubin
zulema
zulu
zulueta
zum
zumaeta
zumpango
zuniga
zunz
zur
zurbaran
zurich
zurita
zuta
zuzunaga
zv
zw
zwei
zwickau
zx
zy
zz
{
|
}
~
¡
£
¨
ª
«
®
°
²
´
·
º
»
¿
×
ß
æ
ð
ø
đ
đa
đokovic
ı
ł
łobez
ŋ
œ
œil
ŧ
ǃ
ɐ
ɑ
ɒ
ɔ
ɘ
ə
ɛ
ɜ
ɡ
ɥ
ɦ
ɪ
ɲ
ʁ
ʃ
ʊ
ʌ
ʒ
ʔ
ʕ
ʦ
ʨ
ʲ
ʹ
ʼ
ʿ
ˇ
ˈ
ː
˘
˛
α
γ
δ
ε
η
ησυχος
θ
ι
κ
λ
μ
ν
ο
π
ρ
ς
σ
τ
υ
φ
χ
а
александр
алексе
б
беларусь
боливия
българия
в
г
глаз
д
давидович
детство
е
евич
ж
жизнь
з
затишье
и
ильич
к
кечуа
л
лев
м
михаил
мов
москва
н
никола
николаевич
ночь
о
олег
п
песня
пчела
р
република
русскии
с
сергеевич
спокоиныи
србија
т
у
ф
х
ц
ч
ш
щ
ъ
ы
ь
э
ю
я
язык
і
ј
ҷ
ա
աչք
զ
ի
կ
հ
ղ
յ
ն
շ
ո
չ
վ
ր
ւ
ք
א
ב
ג
ד
ה
הראשון
ו
ח
י
ל
מ
ן
ס
ע
צ
ק
ר
רגוריוס
ש
،
ا
ب
بطرس
ة
ت
ج
جانواري
جمهورية
ح
د
ذ
ر
س
ش
ص
ط
ظ
ع
عبود
غ
ف
ق
ك
ل
ليال
ليبيا
م
ن
ه
و
ى
ي
ٹ
پ
ک
ڬ
ھ
ی
ܐ
ܘ
ܚ
ܝ
ܡ
ܥ
ܫ
इ
ग
ज
त
द
ध
न
प
म
य
र
ल
व
श
ह
ক
খ
গ
চ
জ
ট
ঢ
ণ
ত
দ
ন
প
ব
ম
য
র
ল
শ
স
হ
ખ
ફ
બ
ર
લ
સ
க
கப
கர
ங
ச
ட
ண
த
ந
ப
பச
ம
ய
ர
ல
லம
ක
ග
ච
ඩ
ත
ද
න
බ
ම
ය
ර
ก
กร
ค
ง
ช
ณ
ต
ท
น
พ
ม
ย
ร
ล
ว
ษ
ห
า
เ
ა
ბ
დ
ე
ვ
თ
ი
ლ
ნ
ო
რ
ს
საქართველო
ტ
უ
ქ
შ
ძ
ᄀ
ᄉ
성
ᄋ
ᄌ
ᅢ
ᅥ
ᅵ
ᆯ
ᆷ
ᆼ
ት
ኢ
ያ
ዮ
ጵ
ᐃ
ᑎ
ᑐ
ᑦ
ᒃ
ᓄ
–
—
‘
’
“
”
„
†
•
…
‰
′
″
‿
→
↔
↷
③
④
⑦
☉
☽
☾
♀
♁
♂
♅
♆
♇
♦
⛢
⯉
⯓
⯕
⯰
⯱
ⴰ
ⴳ
ⴷ
ⴽ
ⵉ
ⵍ
ⵎ
ⵏ
ⵓ
ⵔ
ⵛ
ⵜ
⺀
⺄
⺆
⺈
⺊
⺌
⺕
⺝
⺸
⺼
⿰
⿱
⿲
⿳
⿴
⿵
⿶
⿷
⿸
⿹
⿺
⿻
。
〢
あ
い
え
お
か
き
く
け
さ
し
す
た
つ
に
ひ
ま
む
ゆ
ろ
ん
コ
ユ
㇁
㇂
㇄
㇇
㇈
㇉
㇓
㐁
㐄
㐅
㐌
㐫
㐬
㐭
㐮
㐱
㑒
㒵
㒸
㒼
㓁
㓞
㔾
㕛
㕣
㖾
㘝
㚅
㚇
㚔
㚘
㝉
㝡
㝴
㝵
㞋
㞢
㞷
㠩
㠭
㠯
㡀
㡭
㡿
㢲
㢴
㣇
㣺
㥯
㪅
㫄
㫐
㫒
㫺
㬅
㬎
㬥
㬰
㲋
㳄
㷠
㸒
㸚
㸦
㼌
㼲
㽞
㿟
䀠
䂞
䍃
䏍
䒑
䖍
䖒
䖝
䖵
䙴
䚻
䜌
䝿
䡛
䧹
䪞
一
丁
丂
七
丄
丅
丆
万
丈
三
上
下
丌
不
与
丏
丐
丑
专
且
丕
世
丘
丙
业
东
丞
丢
丣
两
严
並
丨
丩
个
丫
丬
中
丮
丰
丱
串
丵
丶
丷
丸
丹
为
主
丽
丿
乀
乂
乃
久
乆
乇
么
义
之
乌
乍
乎
乏
乐
乑
乔
乖
乗
乘
乙
乚
乛
乜
九
乞
也
习
乡
乳
乾
亀
亅
了
亇
予
争
事
二
亍
于
亏
亐
云
互
亓
五
井
亘
亚
些
亜
亞
亟
亠
亡
亢
交
亥
亦
产
亨
亩
享
京
亭
亮
亯
亰
亲
亳
亶
亷
人
亻
亼
亾
仁
今
介
仌
从
仐
仑
仒
仓
仕
他
付
仝
代
令
以
们
任
企
伊
伏
伐
休
会
传
伯
但
位
何
佘
余
作
佥
使
來
侈
侌
侖
侯
侵
便
保
俞
信
修
倉
倍
候
倠
健
備
傳
僉
僕
儿
兀
允
兂
元
兄
充
兆
兇
先
光
兊
克
兌
免
兑
兒
兓
兔
党
兜
兟
入
全
兩
兪
八
公
六
兮
兰
共
关
兵
其
具
典
兹
兼
冀
冂
冃
冄
内
冈
冉
冊
冋
册
再
冎
冏
冐
冒
冓
冖
冗
冘
军
农
冝
冡
冥
冫
冬
冷
几
凡
凢
凵
凶
凷
凸
凹
出
函
凾
刀
刁
刂
刃
刄
刅
分
切
刍
刑
刕
刖
列
刘
则
初
別
利
别
到
制
刺
則
削
剌
前
剡
剽
劉
力
办
功
加
劦
助
劫
劳
劵
勃
勇
勉
勒
動
務
勞
勤
勹
勺
勻
勾
勿
匀
匂
包
匆
匈
匊
匋
匍
匕
化
北
匚
匝
匡
匪
匱
匸
匹
区
医
匽
匿
區
十
卂
千
卄
卅
卆
升
午
卉
半
卌
华
卑
卒
卓
单
卖
南
卜
卝
卞
占
卡
卢
卣
卤
卦
卩
卪
卬
卯
印
危
即
却
卵
卷
卸
卻
厂
厃
厄
历
厈
厉
厌
厓
厘
厚
原
厤
厥
厨
厭
厲
厶
厷
厸
去
厼
厽
叀
参
參
叅
又
叉
及
友
双
反
叐
发
叒
叔
叕
取
受
叚
叜
叟
口
古
句
另
叩
只
召
可
台
叱
史
右
叵
号
司
叹
吂
各
吅
合
吉
吊
吋
同
名
后
吏
向
吕
君
吝
吞
否
吧
含
启
吳
吴
吹
吾
呂
呆
呈
告
员
呙
周
命
咅
和
咎
咖
咠
咢
咨
咸
咼
哀
品
哉
員
哥
哲
唉
唐
商
啇
問
啚
啡
啬
啻
善
喇
喜
喬
單
喿
嗇
噢
噩
嚴
囊
囗
囘
囙
囚
四
回
囟
因
囧
囬
园
困
囱
囷
固
国
圂
圅
國
圍
圓
土
圡
圣
圥
在
圭
地
圶
圼
坐
坒
坚
坴
垂
垔
垚
埀
埋
埶
執
基
堂
堅
堆
堇
堯
塞
墨
壘
士
壬
壯
声
壳
壴
壹
壺
壽
夂
处
夅
夆
备
夊
夋
夌
复
夏
夒
夕
外
夗
夘
多
夜
夢
大
夨
天
太
夫
夬
夭
央
失
夲
头
夷
夸
夹
夻
夾
奂
奄
奇
奈
奉
奎
奏
奐
契
奓
奔
奚
奞
奠
奢
奥
奭
女
奴
她
奻
好
如
妄
妙
妟
妥
妻
妾
始
姑
委
姜
威
娄
娜
婁
婚
婴
嬰
嬴
子
孑
孔
孕
孖
字
存
孚
孛
孝
孟
季
孤
学
孫
孱
學
宀
宁
宂
它
宅
宇
守
安
宋
完
宏
宓
宗
官
定
宛
宜
宝
客
宣
室
宮
宰
害
家
容
宾
宿
寄
寅
密
富
寒
察
寧
審
寫
寬
寮
寸
对
寺
寻
寽
対
寿
封
尃
射
将
將
專
尉
尊
尋
尌
對
小
少
尒
尓
尔
尖
尗
尚
尞
尢
尣
尤
尧
尨
尭
就
尸
尹
尺
尻
尼
尽
尾
尿
局
居
屈
屋
屎
屏
屑
展
屖
屚
属
屠
屡
屬
屮
屯
屰
山
屵
屾
岁
岂
岑
岡
岩
岳
岸
峯
島
崇
崑
崔
崖
崙
崩
嵬
嶲
巂
巛
川
州
巟
巠
巢
巤
工
左
巧
巨
巩
巫
差
己
已
巳
巴
巷
巸
巽
巾
巿
帀
市
布
希
帚
帛
帝
带
師
席
帶
常
干
平
年
幵
并
幷
幸
幺
幻
幼
幽
幾
广
広
庄
庆
床
底
店
庚
府
度
庫
庭
庶
康
庸
廉
廌
廛
廣
廩
廴
延
廷
建
廾
廿
开
弁
弃
弄
弇
弋
式
弓
弔
引
弗
弘
弜
弟
张
弥
弦
弱
張
強
强
彊
彌
彎
彐
彑
当
彔
录
彖
彗
彡
形
彥
彦
彧
彭
彳
彷
役
彼
往
待
很
律
徒
得
徙
從
徨
復
微
徵
德
心
忄
必
忌
忍
志
忙
忝
忠
忩
快
念
忽
忿
思
怠
急
怱
恆
恋
恒
恩
恭
息
悉
患
悤
悲
悶
惠
惡
惢
想
愁
愈
意
愛
感
慈
慧
慮
慶
憂
憲
應
戀
戈
戉
戊
戋
戌
戍
戎
成
我
戒
戔
或
戚
戠
戢
截
戲
戶
户
戹
戼
戾
房
所
扁
扇
手
扌
才
打
托
执
承
折
拉
拜
拿
振
掌
推
提
搙
摩
支
攴
攵
收
攸
改
放
政
敄
敏
敕
敖
敗
敝
敞
敢
散
敦
敫
敬
数
敷
數
斂
文
斉
斊
斗
斤
斥
斩
斬
斯
新
方
於
施
斿
旁
旋
族
无
旡
既
旣
日
旦
旧
旨
早
旬
旱
旲
时
旾
昆
昇
昌
昍
明
昏
易
昔
昗
昜
星
春
昬
是
昱
昴
昷
時
晃
晋
晏
晓
普
景
晶
智
暑
暴
曇
曩
曰
曲
曳
更
曷
書
曹
曼
曾
替
最
朁
會
月
有
朋
服
朔
朕
朗
望
朝
木
朩
未
末
本
札
朮
术
朱
朵
朶
机
朿
杀
李
杏
村
杜
束
条
来
杨
東
杲
杳
松
析
林
枚
果
枝
枲
枼
某
柔
查
柬
柰
柴
栗
校
桀
桂
桑
桼
梁
條
梟
梨
棘
棠
棥
森
楚
業
楽
榮
樂
樊
樹
欠
次
欣
欮
欲
欶
欽
款
歆
歇
歛
止
正
此
步
武
歨
歪
歮
歯
歰
歲
歴
歷
歸
歹
歺
死
殳
段
殷
殸
殹
殺
殻
殿
毋
毌
母
每
毒
比
毕
毚
毛
毳
氏
氐
民
气
氣
水
氵
氶
氷
永
氺
氾
求
汝
汞
江
沃
沓
沙
沝
没
泉
法
波
泣
泥
泰
泽
洛
洪
活
派
流
浦
浪
浮
海
淡
淮
清
渚
渠
温
港
游
湯
溝
滿
漸
澤
濟
濤
火
灬
灭
灰
灵
灷
炅
炎
炏
炗
炙
炭
点
為
烈
烏
烝
焉
無
焦
焱
然
煞
熊
熏
燕
營
燮
爪
爫
爭
爯
爰
爱
爲
爵
父
爻
爽
爾
爿
片
牙
牚
牛
牜
牟
牢
牧
物
牪
牽
犀
犬
犭
犮
狂
狄
狊
独
狺
猋
猒
猪
献
獻
玄
率
玉
王
玟
玨
玩
现
珎
班
琴
瑜
瑟
瑩
璠
瓜
瓦
甘
甚
生
産
用
甫
甬
田
由
甲
申
电
甶
男
甸
甹
画
甾
畀
界
畏
畐
留
畜
畟
畢
略
畧
畨
番
畫
異
畱
當
畺
畾
疊
疋
疌
疑
疒
疾
癶
癸
癹
登
發
白
百
皀
皃
的
皆
皇
皋
皐
皕
皮
皷
皿
盃
盆
盇
盈
益
盍
盎
监
盒
盖
盛
盡
監
盤
盧
目
直
相
盾
省
眇
眉
看
眔
眞
真
眷
眼
眾
着
睘
睪
睿
瞏
瞢
瞿
矍
矛
矞
矢
矣
知
矦
短
石
破
碎
磊
磨
示
礻
礼
祟
票
祭
禀
禁
禸
禹
禺
离
禽
禾
禿
秀
秃
秉
秋
科
秝
秦
移
稟
穀
穌
穴
究
穹
空
穿
突
窄
窒
立
竒
竜
竝
竟
章
童
竹
笑
笠
筆
等
答
箕
算
箴
節
篤
篭
米
粉
粛
粟
粤
粦
粲
糞
糸
糹
系
約
納
素
索
紧
紫
累
細
絜
絫
絲
維
綿
縣
繇
纍
纟
结
缶
网
罒
罔
罕
罗
罙
罡
罢
罪
署
罷
羅
羊
羌
羍
美
羔
羕
羗
羞
羡
羣
群
義
羲
羸
羽
翁
翏
習
翕
翟
翠
翼
老
耂
考
者
耆
而
耎
耑
耒
耳
耴
耶
耷
聂
聊
聖
聚
聶
聿
肀
肃
肅
肉
肖
肙
肥
肩
肯
育
肴
胃
背
胡
胥
能
脊
脩
膚
臣
臤
臧
自
臬
臭
臯
臱
至
致
臺
臼
臽
臾
臿
舀
舂
舄
與
興
舉
舌
舍
舛
舜
舞
舟
般
船
艮
良
色
艸
艹
艾
芒
芔
芬
芮
花
芳
芺
芻
苔
苗
苟
若
苦
英
茶
茸
荅
草
荒
荣
荼
莆
莎
莧
莫
莽
菆
菊
菐
華
萬
落
葉
著
葛
董
葵
蒙
蒦
蒼
蓋
蓬
蓺
蔑
蔡
蔣
蕉
蕭
薄
薛
薦
薰
藍
藏
藥
藩
蘭
虍
虎
虐
虒
虔
處
虖
虗
虘
虚
虛
虜
虞
虫
虽
蚤
蚩
蜀
蜜
蟲
蠡
血
行
衍
衛
衡
衣
衤
表
衮
衰
袁
袞
褭
褱
襄
襾
西
覀
要
覃
見
規
覓
覧
親
覽
见
角
解
言
訁
訇
計
記
詹
語
誩
說
諸
讠
记
说
谷
豆
豈
豊
豐
豕
豖
豙
象
豦
豩
豪
豸
貇
貝
貞
貟
負
貢
貧
貪
貫
責
貳
貴
買
費
賁
資
賈
賏
賓
賔
賛
賞
賢
賣
質
賴
贊
贝
贡
责
贯
贲
贵
赖
赞
赤
赦
走
赵
起
越
足
跟
路
蹇
身
躬
車
軍
軎
軟
輦
车
辛
辜
辟
辥
辰
辱
農
辵
辶
边
达
迅
过
近
连
迷
追
退
送
逆
逐
通
速
造
逢
連
逮
進
遀
遂
過
道
達
遣
適
遷
遺
邊
邑
邓
邕
那
邦
邪
郎
部
郭
都
鄉
酉
酋
配
酓
釆
采
里
重
野
量
金
釒
錢
錦
钅
锋
镕
長
镸
长
門
閃
閉
開
閏
閑
閒
間
閔
閵
閻
闌
门
间
闷
阑
阜
阝
阳
阿
降
院
陳
隆
隊
隋
隡
隨
隱
隶
隹
隺
隻
隼
隽
难
雀
雁
集
雈
雋
雍
雐
雔
雙
雚
雜
雝
離
難
雨
雩
雪
雲
零
雷
需
霍
霜
霝
霞
霸
靈
靑
青
静
非
靡
面
靣
革
韋
韦
韭
韯
韱
音
頁
頃
項
須
頗
頡
頻
顛
页
風
风
飛
飞
食
飠
養
饣
馆
首
香
馬
馮
駦
马
骨
高
髟
鬥
鬯
鬲
鬼
魚
魯
鮮
鱼
鲁
鳥
鳳
鸟
鹵
鹿
麃
麗
麥
麦
麻
黃
黄
黍
黎
黑
黒
黨
黹
黽
黾
鼎
鼓
鼠
鼻
齊
齋
齐
齒
齡
齿
龄
龍
龙
龜
龟
龠
龰
龱
龴
龵
龶
龷
龸
龹
ꭹ
ꮃ
ꮳ
者
艹
ﬁ
？
🜨
𠀁
𠀃
𠀆
𠀉
𠀎
𠀐
𠁁
𠁣
𠂆
𠂇
𠂈
𠂉
𠂊
𠂋
𠂎
𠂒
𠂔
𠂛
𠂡
𠂢
𠂤
𠂬
𠂭
𠂹
𠃊
𠃋
𠃌
𠃍
𠃎
𠃑
𠃓
𠃔
𠃜
𠄌
𠄎
𠄠
𠄢
𠆢
𠆥
𠇍
𠈌
𠌵
𠓜
𠔉
𠔥
𠔼
𠔽
𠔿
𠕀
𠕁
𠕋
𠘧
𠘨
𠙻
𠙼
𠚏
𠚒
𠚤
𠚪
𠣏
𠤎
𠤕
𠥓
𠦄
𠦑
𠦝
𠧒
𠧗
𠧪
𠩺
𠪚
𠫓
𠫔
𠫤
𠬛
𠬝
𠬞
𠬢
𠬤
𠬶
𠮛
𠮦
𠮷
𠯑
𠱠
𠳮
𠷎
𡈼
𡉀
𡉵
𡌥
𡍮
𡏳
𡕒
𡕩
𡕰
𡖅
𡗗
𡗜
𡘆
𡘤
𡧱
𡨄
𡩧
𡬠
𡭽
𡰣
𡰥
𡰪
𡰯
𡰱
𡷈
𡸁
𡿨
𡿩
𡿪
𡿺
𢀖
𢀛
𢀩
𢁙
𢆉
𢆰
𢆶
𢇁
𢇇
𢉖
𢌬
𢌿
𢏚
𢑑
𢑚
𢖻
𢙣
𢛳
𢦏
𢦒
𢧵
𢼄
𢾕
𣁋
𣄼
𣅀
𣅽
𣍘
𣎳
𣎵
𣏋
𣏼
𣗥
𣥂
𣥖
𣦵
𣦼
𣧄
𣪊
𣪠
𣬉
𣳾
𣶒
𤇾
𤊽
𤐫
𤓰
𤔔
𤕨
𤣩
𤰇
𤰔
𤰞
𤴓
𤴔
𤽄
𥁑
𥁕
𥃦
𥃩
𥃭
𥇡
𥑟
𥘅
𥘈
𥝢
𥫗
𥱡
𦈢
𦉪
𦉬
𦉼
𦍌
𦍒
𦎧
𦐇
𦓔
𦔮
𦘒
𦙃
𦚏
𦣝
𦣞
𦣻
𦥑
𦥔
𦥯
𦨉
𦭝
𦰩
𧆞
𧈧
𧘇
𧰨
𧴪
𧴮
𧵩
𧾷
𨸏
𨾴
𩙿
𩠐
𩫏
𩵋
𪉷
𪜀
𪟽
𪠲
𪩲
𫇦
𫔭
𫜸
𫝀
𫠣
𫠩
𫢉
𫥞
𫩏
𫩠
𫪡
𫲽
𫶧
𬀷
𬐘
𬗌
𬙙
𬛸
𬜯
𬟩
𬯁
𬴘
𬺻
𬼉
𬼖
𭀰
𭁈
𭁨
𭅰
𭑈
𭕄
𭗼
𭤨
𭥫
𭻾
𮅕
𮊿
𮍌
𮍏
𮓗
𮥼
𮧮
廾
𰀁
𰀄
𰀈
𰀉
𰀕
𰀠
𰀡
𰀢
𰀪
𰁜
𰃮
𰆊
𰆘
𰋙
𰕎
𰢴
𰧭
𰯲
0--
048--
1--
102--
2--
3--
4--
5--
6--
7--
8--
849--
9--
933--
978849--
aa--
ab--
aben--
abra--
abu--
ac--
aca--
acco--
ace--
acha--
achh--
achi--
achun--
achx--
aco--
acomp--
acuare--
ad--
ada--
administ--
adop--
ae--
aero--
af--
afi--
afro--
ag--
agos--
agra--
agre--
agri--
ah--
ai--
aj--
ajll--
ajllsun--
ak--
aka--
akadem--
akha--
aki--
al--
ala--
alaki--
albe--
alco--
ale--
alego--
aleks--
alha--
aljana--
alkalt--
all--
allan--
allxt--
almo--
alpa--
alph--
alta--
altu--
alum--
alw--
am--
ama--
amacha--
aman--
amancha--
ambici--
ame--
amp--
amta--
amuy--
amuyask--
amuyt--
an--
ana--
anas--
anca--
and--
anda--
anfi--
anglosa--
ani--
anipx--
ank--
ano--
ans--
ant--
anta--
antask--
ante--
anu--
anx--
ao--
ap--
apa--
apani--
apanx--
apaya--
apna--
apnaqiri--
apoca--
apol--
app--
apre--
apsu--
apsx--
apt--
apu--
apxa--
aq--
aqa--
aqi--
aqisipx--
aqu--
aqui--
ar--
ara--
arawj--
are--
arge--
argu--
ari--
arkiri--
arkt--
aroz--
arra--
arre--
arri--
ars--
arsus--
arsuw--
art--
aru--
arupt--
arusk--
aruskipa--
arwa--
arxi--
arzobis--
as--
asi--
asipk--
asipx--
asiwin--
ask--
aski--
asp--
aste--
astu--
asuka--
asxa--
at--
ata--
atapx--
atat--
atip--
atipa--
atipasina--
atiz--
atk--
atra--
atre--
atri--
atun--
au--
audi--
auto--
av--
avia--
aw--
awa--
awapx--
awatiri--
away--
awi--
awki--
awna--
awqa--
awst--
awti--
awtj--
ax--
axs--
axsus--
axwana--
axwir--
ay--
ayah--
ayask--
ayasxapx--
ayra--
ayu--
ayws--
az--
ba--
baci--
bad--
bajchis--
bakh--
bal--
ban--
bar--
basker--
bata--
batt--
bau--
be--
bed--
bel--
ben--
benef--
berg--
bern--
betr--
bi--
bibi--
biel--
bien--
bio--
biograp--
bis--
bl--
bo--
bohe--
bom--
bon--
borr--
bott--
bow--
boy--
br--
brig--
brit--
broa--
bron--
bt--
bu--
buly--
buri--
but--
by--
ca--
cabe--
cabr--
cacahu--
caja--
cal--
calla--
can--
cap--
carh--
carhua--
cari--
carn--
carp--
carr--
cart--
casc--
cast--
cat--
cayr--
cc--
ccah--
ce--
cele--
celebr--
celes--
celu--
cent--
cere--
cerr--
cerv--
ch--
cha--
chac--
chall--
charl--
che--
chha--
chhaqant--
chhaqh--
chhaqt--
chhaxk--
chhaxw--
chhi--
chhijl--
chhijnuq--
chhujt--
chi--
chilq--
chon--
chri--
chu--
chuki--
chump--
chura--
ci--
cicl--
cine--
cinemato--
cint--
circun--
ciri--
cita--
cl--
clemen--
co--
cocha--
cogn--
col--
coll--
com--
computa--
con--
conce--
confe--
confi--
conme--
consp--
const--
cord--
corr--
corv--
cosm--
cost--
cota--
coti--
cott--
cr--
cree--
cres--
crey--
crono--
crow--
cs--
cu--
cucu--
cui--
cult--
cump--
cuna--
cunc--
curi--
cusi--
cust--
cy--
cycl--
cz--
d--
da--
dal--
dan--
de--
debi--
dece--
dedi--
defi--
dego--
del--
dem--
democ--
den--
denom--
depart--
depo--
der--
des--
desen--
determ--
devo--
dh--
di--
dia--
diabl--
diabo--
dict--
dieci--
diff--
dige--
diji--
dilu--
dio--
dis--
divi--
do--
docu--
doli--
dom--
dorm--
doro--
dos--
dr--
du--
dy--
ea--
eb--
ec--
eco--
ed--
edel--
edif--
ef--
effe--
eg--
egip--
egui--
egyp--
ei--
ek--
el--
electromag--
eleg--
elem--
eleo--
eli--
em--
empl--
en--
encend--
enco--
encu--
end--
eng--
enti--
eo--
ep--
epig--
eq--
equi--
er--
erza--
es--
esce--
esci--
esco--
escr--
escu--
espan--
espe--
est--
et--
eu--
eusk--
eust--
eva--
evang--
eve--
ew--
ex--
exce--
exha--
exot--
expect--
expl--
exten--
extra--
extre--
ey--
ez--
fa--
fabr--
falt--
fan--
fasc--
fast--
fati--
fe--
feli--
fer--
fi--
fin--
fire--
firiy--
fitz--
fl--
flah--
flum--
fo--
folklo--
font--
for--
foto--
fr--
frag--
frei--
fres--
frey--
frie--
frig--
frij--
fu--
fulg--
fun--
funda--
ga--
gal--
gara--
garc--
gas--
gato--
gaud--
gavi--
gavr--
gd--
ge--
gent--
gentil--
geog--
gero--
get--
gh--
gi--
giapp--
gil--
gl--
glau--
go--
god--
gonc--
gong--
got--
gr--
grav--
gre--
gril--
grin--
gron--
gu--
gua--
guang--
guel--
guer--
guil--
guis--
gw--
ha--
hab--
hamm--
han--
hanni--
harl--
harm--
hart--
has--
hay--
he--
heid--
hels--
her--
hi--
hidr--
hier--
high--
hild--
hinc--
hind--
hipo--
hiri--
his--
hispa--
hit--
hm--
ho--
hoch--
hoog--
horm--
horr--
hort--
hortel--
host--
how--
hr--
hs--
hu--
hua--
huacc--
huacr--
huahua--
huan--
huanca--
huari--
huay--
hy--
ia--
ib--
ichi--
id--
iden--
ideo--
ie--
if--
ig--
ih--
ii--
ij--
ik--
ikhi--
ikhinp--
ikip--
il--
ila--
ilde--
ili--
illi--
illu--
ilu--
im--
imag--
imma--
imp--
imper--
in--
ina--
inak--
inc--
inca--
ind--
indiv--
ines--
infl--
info--
inge--
ini--
inka--
inmen--
inreg--
ins--
inter--
inti--
intr--
intu--
invi--
invo--
io--
ip--
ipa--
iphi--
ipi--
ipt--
ipxaruw--
iq--
iqa--
iqi--
iqincha--
iqint--
ir--
ira--
iran--
iri--
irnaqa--
iron--
irpan--
irpj--
irpt--
irre--
is--
isk--
ist--
istha--
it--
ita--
iu--
iv--
iw--
iwa--
iwkalip--
ix--
ixi--
ixit--
iy--
iya--
iyaws--
iz--
ja--
jach--
jak--
jaken--
jakhx--
jaki--
jalanuq--
jalaq--
jalj--
jaljtawin--
jaljtay--
jallunt--
jaln--
jalnaqapx--
jalt--
jan--
jap--
jaq--
jaqicha--
jaqkatt--
jaqtha--
jaquk--
jaraph--
jari--
jarint--
jarsus--
jaru--
jaws--
jay--
jaya--
jayll--
jayriy--
jaytan--
jayth--
jaytx--
je--
jh--
ji--
jicc--
jich--
jik--
jikha--
jikjh--
jikjj--
jikjjata--
jikthapt--
jikxa--
jikxatapx--
jikxatt--
jil--
jila--
jilt--
jilxa--
jiqha--
jisk--
jitt--
jiwa--
jiwakina--
jiwayat--
jiwx--
jo--
ju--
jubi--
julca--
jun--
jupa--
juriy--
juyp--
ka--
kai--
kala--
kall--
kam--
kamacha--
kan--
kapita--
kaps--
kara--
karakt--
kart--
kaskad--
kath--
katj--
katu--
katuqa--
katx--
kawk--
kayu--
ke--
kh--
kha--
khan--
kharint--
khip--
khiti--
khulan--
khum--
khun--
khuy--
ki--
kim--
kis--
kitt--
kitunt--
kk--
kl--
kn--
ko--
kore--
kort--
kr--
krei--
ku--
kull--
kun--
kuna--
kurm--
kurp--
kusi--
kut--
kuwa--
ky--
kı--
la--
labr--
ladr--
lak--
lamb--
lamm--
lan--
laq--
larr--
las--
lat--
lau--
lavan--
lay--
layqa--
le--
leo--
les--
lev--
li--
libe--
libre--
lice--
limo--
lite--
litt--
lixw--
ll--
llaki--
llapan--
llaqa--
llaw--
llika--
llix--
llup--
lluthirat--
lo--
love--
lu--
luk--
lumas--
luqt--
lura--
lurask--
lurawi--
lusi--
luxs--
ly--
ma--
mace--
machu--
mad--
magi--
mahu--
mai--
maje--
mak--
makhi--
maki--
mal--
mamo--
man--
manqant--
mantarant--
mantk--
mantx--
mar--
mara--
marca--
mark--
mas--
masin--
mat--
mata--
mau--
mawj--
max--
may--
mayu--
mazz--
mc--
me--
medi--
meg--
melan--
mele--
melo--
men--
mer--
mes--
mi--
micr--
mil--
mir--
mira--
mirant--
mis--
mistunx--
mistx--
mit--
mm--
mo--
moll--
mong--
mono--
mont--
monte--
monu--
morm--
mosq--
mot--
mov--
moza--
mu--
mugu--
mukh--
mult--
muna--
munar--
muni--
munk--
munt--
mur--
musiku--
musp--
mut--
muy--
muytan--
muytapx--
muyunt--
my--
na--
nak--
nakhan--
nan--
nanaka--
nar--
nas--
nat--
nayra--
nd--
ne--
nece--
necesi--
nept--
ng--
ni--
nick--
nik--
nink--
nk--
no--
nor--
nos--
now--
nu--
numer--
nunu--
ny--
nyct--
oa--
ob--
ober--
obje--
obse--
oc--
octa--
ocup--
od--
of--
ofer--
og--
oj--
ok--
ol--
om--
on--
oo--
op--
opti--
opues--
or--
orac--
oraq--
orco--
org--
orig--
orni--
orto--
os--
ot--
ou--
out--
ov--
over--
ow--
ox--
oy--
pa--
pach--
pacha--
pachjt--
paci--
paja--
pal--
palla--
pamp--
pan--
panicha--
paqa--
paqu--
par--
para--
pari--
park--
parla--
parlas--
parlk--
pas--
pat--
pata--
pavl--
pay--
pe--
peje--
pell--
pens--
per--
perfu--
peru--
pes--
pet--
ph--
phich--
phil--
phul--
phuq--
phuqhan--
phuqhapx--
phus--
pi--
piad--
picc--
pie--
pill--
pint--
pipi--
piq--
pir--
pitu--
pl--
pla--
planc--
play--
pleb--
plen--
po--
pobl--
pole--
poli--
poll--
pong--
pop--
por--
portal--
porto--
possib--
post--
pr--
prag--
pre--
presc--
prest--
pri--
princ--
probab--
proc--
prod--
prof--
profis--
prog--
proi--
prom--
prop--
pros--
prot--
pruw--
ps--
pu--
puch--
puchtu--
puli--
puma--
pun--
purapp--
purc--
puri--
purin--
puripx--
puriy--
puruma--
pusi--
put--
px--
py--
qa--
qall--
qallu--
qamir--
qanq--
qapu--
qaqi--
qarx--
qatu--
qaw--
qay--
qell--
qh--
qhanstay--
qhara--
qhat--
qhathu--
qhi--
qhisp--
qhup--
qi--
qill--
qilq--
qo--
qorp--
qs--
qu--
qual--
que--
qui--
quimi--
quisp--
quispitiatangua--
qull--
qulliri--
qunu--
quri--
qut--
quta--
ra--
raff--
ranc--
rand--
rapi--
rat--
ratif--
re--
rece--
recep--
reci--
recl--
recopi--
red--
reem--
ref--
reg--
religi--
reme--
rend--
rep--
resp--
respec--
rest--
revol--
rey--
rh--
ri--
ridi--
ridicu--
rigo--
ro--
rob--
rock--
rose--
ru--
rugg--
runa--
ry--
s--
sa--
sabr--
sal--
salva--
sam--
sama--
samin--
samsun--
san--
sana--
sang--
sapa--
sapj--
sapx--
sara--
saran--
sarantay--
sark--
sarnaqapx--
sarx--
sarxapxa--
sas--
sat--
satis--
saw--
say--
sayan--
saykata--
sc--
sche--
schu--
schw--
scri--
se--
seba--
secr--
see--
sem--
semi--
sen--
sepu--
ser--
sh--
shao--
shaq--
she--
si--
sic--
sien--
sigism--
siku--
silb--
silu--
silv--
simb--
simp--
simu--
sin--
sindi--
sisx--
situa--
siwsawi--
six--
sk--
skel--
skłod--
sl--
slav--
slov--
sm--
smith--
sn--
snow--
so--
sol--
solic--
somb--
son--
sor--
sost--
sound--
sp--
spag--
spea--
spec--
spin--
sq--
sr--
st--
ster--
stoc--
stra--
stre--
stud--
su--
sub--
subsi--
sud--
sui--
sul--
sum--
sun--
suni--
super--
supl--
supp--
sur--
suri--
sus--
sustj--
suti--
sv--
sw--
sy--
sz--
ta--
tak--
tal--
tam--
tama--
tamank--
tan--
tanta--
tapa--
taq--
taqi--
tari--
tart--
taru--
tarw--
tas--
tau--
tay--
te--
tea--
tech--
tele--
tem--
ten--
teol--
term--
test--
th--
thalara--
thalt--
thaq--
thaqha--
thas--
the--
thor--
thou--
thuq--
thuqhu--
thuqhupx--
thuqupx--
thuquri--
ti--
tibe--
tic--
tik--
timo--
tin--
tip--
titu--
tl--
to--
tom--
ton--
tor--
tr--
trab--
trag--
trans--
tre--
tri--
ts--
tu--
tucu--
tukj--
tuku--
tukuyk--
tukx--
tun--
tunka--
tuqi--
turb--
turk--
turn--
turu--
tus--
tuyt--
tw--
twen--
tx--
ty--
tʁ--
ub--
uc--
uch--
ucha--
uchirt--
uchu--
ud--
ue--
ug--
uh--
uj--
uk--
uka--
ukak--
ukan--
ukar--
ukat--
ukha--
ukj--
ukjam--
ukkiri--
uku--
ul--
um--
uma--
umaw--
un--
una--
unant--
unatata--
uni--
unisi--
unjask--
unjat--
unjk--
unka--
unst--
unstay--
unt--
untan--
unun--
unuqr--
unxt--
up--
uptay--
uq--
uqha--
uqi--
ur--
ura--
uraq--
uri--
urni--
urqu--
uru--
us--
usa--
usillu--
usu--
usuch--
usuchjat--
usunt--
ut--
uta--
utacha--
utachasipx--
utili--
utj--
utjnuqa--
utu--
utxa--
uw--
uwank--
ux--
uy--
uyun--
uyw--
uywapx--
uz--
uzbekis--
va--
vaci--
vaga--
val--
van--
vari--
vas--
ve--
veinti--
ven--
ver--
vi--
via--
vice--
virg--
virt--
visc--
visp--
vizc--
vl--
vo--
voca--
vol--
vr--
vu--
vulg--
wa--
wak--
waka--
waki--
wal--
wali--
waljapt--
wallxt--
wan--
wana--
wanu--
waq--
war--
wara--
waru--
was--
wat--
wawa--
waxr--
way--
wayn--
wayt--
wayu--
we--
wen--
west--
wh--
wi--
wijw--
wiki--
wila--
willjt--
win--
wir--
wirax--
wo--
wr--
wu--
wy--
xa--
xapx--
xi--
xiao--
xo--
xu--
xx--
ya--
yak--
yakay--
yamp--
yan--
yana--
yanapir--
yanapirinak--
yapu--
yaqa--
yaqha--
yaqhip--
yara--
yarana--
yat--
yati--
yatich--
yatiq--
yatjj--
yatjjata--
yatxatiri--
yawir--
ye--
yi--
yl--
yn--
yo--
yr--
ys--
yu--
yuqa--
yura--
yuri--
yuriri--
yv--
yı--
za--
zag--
zar--
ze--
zh--
zhon--
zi--
zins--
zo--
zu--
zv--
zy--
đ--
ł--
ə--
ɪ--
ʔ--
ан--
бло--
бо--
ва--
во--
гор--
д--
де--
и--
ле--
ль--
м--
ма--
н--
пе--
р--
с--
са--
т--
י--
الس--
الم--
ह--
ম--
ர--
ර--
ᄀ--
--0
--0
--1
--1
--2
--2
--22
--3
--3
--4
--4
--41
--49
--5
--5
--6
--6
--61
--7
--7
--8
--8
--80
--87
--9
--9
--a
--aba
--abamba
--able
--ac
--aca
--ach
--ache
--acion
--ack
--ad
--ada
--ade
--ado
--ador
--ados
--adur
--ae
--aga
--ago
--ah
--ahuasi
--ai
--ain
--ais
--aj
--aje
--ak
--aka
--akamp
--akan
--akap
--akapa
--akapamp
--akapampix
--akapasti
--akapax
--akapaxa
--akar
--akaru
--akas
--akat
--akaw
--akawa
--akax
--aki
--akispa
--akiw
--akkiw
--aks
--akuy
--akxa
--al
--ale
--ales
--alo
--am
--ama
--amba
--amp
--an
--ana
--anak
--anaka
--anakaniwa
--ando
--ang
--ani
--aniw
--aniwa
--ano
--anti
--anwa
--anxa
--ao
--ap
--apa
--apampa
--apar
--apatx
--apaw
--apax
--apaxa
--api
--apkakiti
--apxanwa
--apxatayna
--apxi
--aq
--ar
--ara
--araki
--arakiwa
--ard
--ardo
--ards
--ari
--aria
--ario
--arka
--aro
--arse
--aru
--aruw
--arux
--ary
--as
--asa
--ase
--ashi
--asi
--asqa
--asta
--asti
--at
--ata
--atak
--ataki
--atax
--ate
--ati
--ation
--ato
--atoria
--atorio
--atx
--au
--aw
--awa
--awi
--ax
--axa
--ay
--aya
--ayi
--ayku
--ayna
--aynawa
--az
--aza
--azgo
--azo
--b
--ba
--bal
--ball
--bamba
--ban
--baya
--be
--ber
--berg
--bert
--berto
--bi
--bla
--ble
--blemente
--bles
--bly
--bo
--bol
--boro
--boy
--bra
--bran
--bridis
--brook
--bs
--burg
--burn
--bury
--by
--c
--ca
--caca
--cachi
--cancha
--canchi
--cao
--car
--carse
--cas
--cat
--cations
--cay
--cca
--ccio
--ce
--cel
--cer
--ces
--ch
--cha
--chapxiritayna
--chas
--chasa
--chasi
--chasin
--chaw
--chawi
--chax
--che
--ches
--chi
--chiri
--chiritayna
--chirixa
--chixaya
--cho
--cht
--chu
--ci
--cia
--cias
--cil
--cilla
--cillo
--cin
--cio
--cion
--ciones
--cisa
--cita
--cito
--ciun
--ck
--cks
--co
--cocha
--cos
--coto
--cretos
--crito
--cro
--ct
--cta
--ctions
--ctive
--cto
--cu
--cus
--cuta
--cy
--d
--da
--dad
--dada
--dades
--dam
--dar
--das
--dda
--de
--der
--dera
--deros
--des
--di
--dia
--dic
--die
--dler
--do
--dor
--dora
--dos
--dose
--dra
--dre
--dria
--ds
--du
--dur
--duzca
--dy
--dze
--e
--ea
--eador
--eas
--ecer
--echa
--ed
--eda
--edo
--ee
--eer
--ef
--eg
--egra
--eia
--eil
--eim
--eira
--eiro
--eis
--eja
--ejj
--ejo
--ek
--el
--ela
--eld
--ell
--elli
--elo
--ely
--em
--ement
--emos
--en
--ena
--ence
--encia
--ene
--enio
--enne
--eno
--ens
--ense
--ent
--enta
--ente
--ento
--eny
--enz
--eo
--ep
--er
--era
--ere
--erg
--eri
--eria
--erie
--ero
--eros
--ers
--ert
--es
--esa
--eso
--ess
--et
--eta
--eto
--ets
--ett
--etta
--eur
--eurs
--eus
--evich
--ey
--ez
--f
--fa
--fan
--fe
--feld
--ff
--fi
--fica
--ficar
--fico
--fio
--fo
--folk
--fona
--fonica
--ft
--ful
--g
--ga
--gador
--gai
--ge
--ged
--gel
--gen
--ger
--gers
--ges
--gi
--gia
--gie
--gin
--gio
--gling
--gna
--gnac
--go
--gon
--gs
--gton
--gu
--gua
--gue
--guero
--gui
--guilla
--gy
--h
--ha
--haft
--ham
--hanaka
--hantana
--hati
--he
--hed
--hes
--hi
--hia
--hip
--hir
--hire
--hix
--hkent
--hly
--ho
--hoe
--hout
--hs
--ht
--hu
--hua
--huasi
--hue
--huire
--hus
--hy
--i
--ia
--iada
--ial
--ian
--iana
--iano
--ias
--ib
--ible
--ibles
--ic
--ica
[...]
