!
"
#
##0
##1
##10
##11
##12
##13
##14
##15
##16
##17
##18
##19
##2
##20
##21
##22
##23
##24
##25
##26
##27
##28
##29
##3
##30
##31
##32
##33
##34
##35
##36
##37
##38
##39
##4
##40
##41
##42
##43
##44
##45
##46
##47
##48
##49
##5
##50
##51
##52
##53
##54
##55
##56
##57
##58
##59
##6
##60
##61
##62
##63
##64
##65
##66
##67
##68
##69
##7
##70
##71
##72
##73
##74
##75
##76
##77
##78
##79
##8
##80
##81
##82
##83
##84
##85
##86
##87
##88
##89
##9
##90
##91
##92
##93
##94
##95
##96
##97
##98
##99
$
%
&
'
(
)
*
+
,
-
.
/
0
00
000
0001
00027777777777777778
00035488235475000004
001
002
0023597372167
003
004
005
006
007
008
009
01
010
011
012
013
014
015
016
016666666666666666
017
018
0184
019
02
020
021
022
023
024
025
026
0268
027
028
029
0292
03
030
031
032
033
034
035
036
037
038
039
04
040
041
042
043
044
045
046
0469088
047
048
049
05
050
051
052
053
054
055
05585262
056
0568
057
058
059
06
060
061
062
063
064
065
066
067
068
069
07
070
071
072
073
074
075
076
078
079
08
080
081
082
083
084
085
086
087
088
089
09
090
091
092
093
094
095
096
097
098
099
1
10
100
1000
10000
1000000
1001
101
101325
1016
102
103
104
105
1054
1055
1055055
1055055852
106
107
108
109
11
110
1101
111
112
1129848290276167
113
1139189
114
115
116
117
118
119
12
120
121
122
123
1234
124
125
126
1265
127
128
1289000
129
13
130
131
132
1321
1325
133
1337
1339
134
1346
1347
135
1356
136
137
1371
138
1380
1381
139
1398
14
140
141
1416
142
1420
143
144
145
1451
1452
1457
146
1466
1468
147
1471
1475
148
1480
1481
149
1498
15
150
1506
1507
151
1512
1513
1515
1516
1519
152
1520
1521
1524
1525
1527
1528
153
1532
1534
1536
1538
1539
154
1540
1541
1542
1543
1546
1547
1549
155
1550
1556
156
1561
1562
1564
157
1571
1572
1574
1574074074074073
1575
1577
1579
158
1580
1581
1582
1585
1586
1587
159
1591
1594
1595
1599
16
160
1600
1601
1602
1603
1605
1606
1607
1608
1609
161
1610
1610471
1611
1612
1613
1614
1615
1616
1617
162
1620
1621
1622
1623
1624
1626
1627
1628
1629
163
1630
1631
1632
1633
1634
1635
1636
1637
1638
1639
164
1640
1641
1642
1643
1644
1645
1648
1649
165
1650
1651
1652
1653
1655
1656
1657
1658
1659
166
1660
1661
1662
1664
1665
1668
1669
167
1670
1671
1672
1673
1674
1676
1677
1678
1679
168
1680
1681
1682
1685
1688
1689
169
1694
1695
17
170
1706
171
1710
1711
1712
1713
1717
172
1723
1727
173
1732
1735
1737
1738
174
1740
1741
1743
1745
1746
1749
175
1750
1751
1753
1755
1756
1758
1759
176
1760
1763
1764
1765
1767
1769
177
1770
1771
1773
1774
1775
1777
1778
1779
178
1780
1781
1782
1783
1784
1785
1786
1787
1788
1789
179
1790
1791
1792
1793
1794
1795
1796
1797
1799
18
180
1800
1801
1802
1803
1804
1805
1806
1807
1808
1809
181
1810
1811
1812
1813
1814
1815
1816
1817
1818
1819
182
1820
1821
1822
1823
1824
1825
1826
1827
1828
1829
183
1830
1831
1832
1833
1834
18347
1835
1836
1837
1838
1839
184
1840
1841
1842
1843
1844
1845
1846
1847
18474
1848
1849
185
1850
1851
1852
1853
1854
1855
1856
1857
1858
1859
186
1860
1861
1862
1863
1864
1865
1866
1867
1868
1869
187
1870
1871
1872
1873
1874
1875
1876
1877
1878
1879
188
1880
1881
1882
1883
1884
1885
1886
1887
1888
1889
189
1890
1891
1892
1893
1894
1895
1896
1897
1898
1899
19
190
1900
1901
1902
1903
1904
1905
1906
1907
1908
1909
191
1910
1911
1912
1913
1914
1915
1916
1917
1918
1919
192
1920
1921
1922
1923
1924
1925
1926
1927
1928
1929
193
1930
1931
1932
1933
1934
1935
1936
1937
1938
1939
194
1940
1941
1942
1943
1944
1945
1946
1947
1948
1949
195
1950
1951
1952
1953
1954
1955
1956
1957
1958
1959
196
1960
1961
1962
1963
1964
1965
1966
1967
1968
1969
197
1970
1971
1972
1973
1974
1975
1976
1977
1978
1979
198
1980
1981
1982
1983
1984
1985
1986
1987
1988
1989
199
1990
1991
1992
19923
1993
1994
1995
1996
1997
1998
1999
2
20
200
2000
2001
2002
2003
2004
2005
2006
2007
2008
2009
201
2010
2011
2012
2013
2014
2015
2016
2017
2018
2019
202
2020
2021
2022
203
204
2044809344
205
206
207
208
209
21
210
211
211208
212
213
214
215
216
217
218
219
22
220
221
222
223
224
225
226
227
228
229
23
230
231
232
233
234
235
23597372167
236
237
238
239
24
240
241
242
243
244
24496
245
246
247
248
249
25
250
2500
251
252
253
254
255
256
257
258
259
26
260
261
262
263
264
265
266
267
268
269
27
270
271
272
273
274
275
276
27679
277
27777777777777779
278
279
28
280
281
282
283
284
285
286
2869
287
288
289
29
290
291
292
293
294
295
296
297
298
299
3
30
300
301
302
303
304
3048
305
306
307
308
309
31
310
311
312
313
314
315
31557600000000000
316
316846592
317
318
319
32
320
321
322
323
324
325
326
327
328
329
33
330
331
332
333
334
335
336
337
338
339
34
340
341
342
343
344
345
346
347
348
349
35
350
351
352
353
354
355
3558179483314004
356
357
358
359
359237
36
360
3600
3600000
361
362
363
364
365
366
367
368
369
37
370
371
372
373
374
375
376
377
378
379
38
380
381
382
383
384
385
386
387
388
389
39
390
391
392
393
394
395
396
397
398
399
4
40
400
401
402
403
404
405
406
407
408
409
41
410
411
412
413
414
415
416
417
418
4184
4184000
4184000000
419
42
420
421
422
422000
423
424
425
426
427
428
429
43
430
431
432
4327
433
434
435
436
437
438
439
44
440
441
442
443
444
445
446
447
44704
448
449
45
450
451
452
453
454
455
456
457
458
459
46
460
461
462
463
464
465
466
467
468
469
47
470
471
472
473
474
475
476
477
478
479
48
480
48000
481
482
484
485
486
487
488
489
49
490
492
493
494
495
496
497
498
49875
499
5
50
500
501
502
503
504
505
506
507
508
509
51
510
511
512
513
514
515
516
517
518
519
52
520
521
5214
522
523
524
525
526
527
528
529
53
530
531
532
533
534
535
5359237
536
537
538
539
54
540
541
542
543
544
545
546
54609
547
548
549
55
550
551
552
553
555
55555555555555558
556
557
558
559
56
560
561
562
563
564
565
566
567
568
569
57
570
571
572
573
574
575
576
577
578
579
58
580
581
582
583
584
585
586
587
588
589
58987294928
59
590
591
592
59237
593
594
595
596
597
598
599
6
60
600
601
602
602176487
603
604
605
606
607
608
609
61
610
611
612
613
614
615
616
617
618
619
62
620
621
622
623
624
625
626
627
628
629
63
630
631
632
633
634
63400
635
636
637
638
639
64
640
641
642
643
644
645
646
647
648
649
65
650
6500
651
652
653
654
655
656
657
658
66
660
661
662
663
664
665
666
667
668
669
67
670
671
672
673
674
675
676
677
678
679
68
680
681
682
683
684
685
686
687
688
689
6894
69
690
691
692
693
694
695
696
697
698
699
69987158227022
7
70
700
701
702
7039
704
705
706
707
708
709
71
710
711
712
713
714
715
716
717
718
719
72
720
721
722
723
724
725
726
727
7271
729
73
730
731
732
733
734
735
736
737
738
739
74
740
741
742
743
744
745
746
747
748
749
75
750
751
7517
752
753
754
755
756
757
7572931683608
758
759
76
760
761
762
763
764
765
766
767
768
769
77
770
771
772
773
774
775
776
777
778
779
78
780
781
782
783
784
785
785411784
786
787
788
789
79
790
791
792
793
794
795
796
797
798
799
8
80
800
801
802
80234544
803
803776
804
805
806
80665
807
808
809
81
810
8109
811
812
813
814
815
816
817
819
82
820
821
822
823
824
825
826
82642731689663
827
828
829
83
830
8300
831
8316846592
832
833
834
835
836
837
838
839
84
840
841
842
843
844
845
846
847
848
849
8493463425
85
850
851
852
85262
853
854
855
856
857
858
859
86
860
8601
861
862
863
864
865
866
867
868
869
87
870
871
872
873
874
875
876
878
879
88
880
881
882
883
884
885
886
887
888
889
89
890
892
893
894
895
896
897
898
899
9
90
900
901
902
903
904
904710203122
905
906
907
90749
908
90861
909
91
910
911
912
913
914
915
916
917
918
919
92
920
921
922
923
924
925
926
927
928
929
93
930
931
932
933
934
935
936
937
938
939
94
940
941
942
943
944
945
946
947
948
95
950
951
952
953
954
955
956
957
958
959
96
960
961
962
963
964
965
966
967
968
969
97
970
971
972
973
974
975
976
977
978
979
9790
98
980
98066
981
982
983
984
985
986
987
988
989
99
990
991
993
994
995
996
997
9972
998
999
9999
:
;
<
=
>
?
@
\
^
_
`
a
aall
ab
abad
abadi
abajo
abancay
abandon
abandono
abanico
abanto
abarca
abasolo
abba
abbaba
abbey
abbr
abbreviata
abbreviation
abc
abdel
abderrama
abdo
abdoangusta
abdoaurantiaca
abdofuscata
abdolonginqua
abdomininigra
abdonigella
abdopallescens
abdul
abdullah
abeja
abel
abelardo
abensur
abenzur
aberdeen
aberrans
abisacc
abismo
ablepharus
abnego
abner
abnormis
aboard
abogado
abolicio
about
above
abraham
abrahan
abram
abre
abregu
abril
abrio
abs
absalo
absalom
abscondita
absidata
absoluta
absolute
absona
absvalue
abu
abuela
abuelo
abuna
abundans
aburridos
aburto
abuya
abya
ac
aca
acade
academia
acadie
acambay
acantilado
acapulco
acari
acaro
acas
acaso
acceleration
accept
accepted
accepts
acceso
access
accessdate
accessed
accesses
accio
accion
acciones
according
ace
aceite
aceleracio
aceraglans
acerca
acercamiento
acero
aceroglans
aceromata
acesteia
acevedo
aceves
acha
achacachi
achachi
achachil
achachilanak
achachilanakana
achachilanakasax
achachilanakatpachwa
achachilanakax
achachilinakan
achahui
achak
achaku
achasin
achat
achaya
achecchebamba
achhiju
achi
achikt
achille
achka
achkatatarakiwa
achkiti
acho
acht
achu
achuma
achun
achunak
achunaka
achunakapax
achunakawa
achunakax
achupaskati
achupaxa
achuq
achuqa
achuqalla
achuqawinaka
achuqi
achuqiri
achuraki
achurakispa
achuyapxaraki
achuyapxi
achuyata
achuyirin
achxat
acisclo
ackroyd
aco
acobamba
acompan
aconcagua
aconsejable
acos
acosta
acostumbraste
acre
acres
across
act
action
active
actividades
acto
actor
actores
actos
actriz
acts
actual
actuales
actualidad
actualmente
acu
acuerdo
aculeus
acun
acurio
ad
ada
adalberto
adam
adams
adan
adaptacio
adas
add
addcat
addclass
added
adding
addis
addition
additional
addkey
addpencil
address
adds
adecuado
adela
adelante
adelina
adelmo
adema
ademir
adenauer
adentro
adiacente
adio
adioses
adj
adjectival
adjetivos
adjust
adjusted
adler
administrative
administrativo
admiral
adn
adobados
adobe
adolescente
adolf
adolfo
adolio
adonais
adoracio
adrede
adria
adrian
adriana
adrien
adultos
aduraciun
adusta
adventure
adventures
adversary
advi
ae
aedo
aemula
aenigmatica
aerial
aeroginosa
aeroplano
aeropuerto
aethriobasis
afe
afectos
affair
affairs
affinidorsalis
affinis
afganista
afi
afirmacio
afonso
aforismos
afraid
africa
africanas
afrodisio
after
afternoon
again
against
agallpampa
agapito
agatha
age
agencia
agency
agent
agente
ages
agnes
agnostic
agoni
agonia
agostini
agosto
agravio
agreda
agregar
agricultura
agripino
agro
agrupacio
agu
agua
aguacero
aguado
aguas
aguascalientes
aguayo
aguaytiya
aguda
aguila
aguilar
aguinaga
aguirre
agurto
agusti
agustin
agustina
agustino
agustinos
agusto
ah
ahi
ahora
ahorcado
ahua
ahuanari
ahui
ahumada
ai
aija
aimara
air
airdate
aire
aires
airplane
ais
aise
aithogaster
aitor
aix
aja
ajaccio
ajacopa
ajan
ajarankhu
ajay
ajedrez
ajenos
ajha
ajlli
ajllin
ajllita
ajllsun
ak
aka
akama
akampi
akampix
akan
akanak
akanaka
akanakawa
akanakax
akanakaxa
akanaxa
akanx
akanxa
akari
akasti
akat
akatakix
akatjamat
akatuqit
akawa
akax
akaxa
akbar
akha
akham
akhama
akhanaka
akhanakaja
akhanakapaxa
akhanakawa
akhanakaxa
akhaniwa
aki
akipt
akipuniw
akira
akirakiw
akirakiwa
akiri
akisa
akiti
akiw
akiwa
akjam
akjamanak
akjamanakaw
akjan
akki
akkiri
akni
akpach
aksa
aksar
aksaru
akten
aktionsart
aku
akwid
al
ala
alabama
alagoas
alain
alajjpach
alamo
alampeta
alan
alarco
alas
alasin
alaska
alava
alaxa
alaxpach
alaxpacha
alay
alaya
alayarux
alayo
alayojne
alayza
alba
albany
albarraci
albert
alberti
alberto
albi
albino
albistrigata
albites
albornoz
albrecht
albu
album
albumnaka
alca
alcala
alcalde
alcaldi
alcanci
alcasihuincha
alcatraz
alcca
alcedo
alci
alcibiades
alcide
alcides
alco
alcohol
alcoholismo
aldama
aldave
aldeano
aldeas
alderete
aldo
aldrin
ale
aledo
alego
alegori
alegre
alegri
aleixandre
alejandra
alejandri
alejandrino
alejandro
alejo
alejos
aleksandr
alem
alema
aleman
alemana
alemanes
alemania
alembert
aleph
alessandria
alessandro
aleta
alex
alexander
alexandra
alexandre
alexis
alfa
alfabe
alfabeto
alfagu
alfaguar
alfaguara
alfarero
alfaro
alfe
alfonsina
alfonso
alfred
alfredo
algarrobal
algo
algodo
algorithm
algoritmo
algu
alguien
alguna
algunas
algunos
alhirya
ali
aliaga
alianza
alias
aliases
aliaseslist
alibi
alicante
alice
alicia
alighieri
align
alignbars
aliman
alimanya
alimento
alimentos
alina
alinakana
aline
alipazaga
alipio
aliq
aliqak
aliqakiw
aliqat
aliqt
aliri
alirio
alis
alive
aliwa
alix
alize
aljan
aljapxi
aljasin
aljasirinakax
all
alla
allalla
allampa
allan
allax
allcat
alle
allen
allende
allin
allintan
allison
allmusic
allow
allowblankparams
allowed
allows
allowsmall
allpa
allpachu
allpachunakasti
allpachusti
allpapampa
allpi
allpix
allqa
allqamari
allqamarix
allqamayu
allqaminka
allta
allu
allwoodi
alma
almanza
almanzor
almas
almaza
almeida
almenara
almendras
almirante
almizcle
almoloya
almost
almudena
alomi
alondra
alone
along
alonso
aloza
alpaca
alpamayo
alpes
alpha
alphabet
alphjamarakiwa
alphonse
alquimista
already
alrededor
als
alsace
also
alt
alta
altagracia
altamirano
altar
alte
alternate
alternativa
alternativo
although
altiplano
altitude
altivo
alto
altona
altos
alttype
altu
altus
altusan
altvalue
alucinante
aluminio
alva
alvarado
alvarez
alvaro
alve
alverca
alves
alvino
alvites
alwan
alwaw
always
alyxiae
alza
alzada
alzamora
am
ama
amable
amachana
amada
amadeo
amadeus
amado
amador
amaestrado
amakaru
amalia
amampi
aman
amanchan
amanchasin
amancht
amancio
amanda
amanecer
amantani
amante
amantes
amao
amapa
amar
amara
amarambalensis
amarante
amare
amargura
amarguras
amarilis
amarillo
amaro
amaru
amarujawira
amashca
amasuna
amasunu
amat
amaury
amauta
amaw
amawa
amawt
amax
amaya
amazo
amazon
amazona
amazonas
amazonense
amazoni
amazonia
ambientado
ambiental
ambiente
ambigua
ambos
ambox
ambrosio
ame
amelia
amelita
amen
america
american
americana
americanas
americano
amerigo
amerika
amerindias
ametralladora
amhariku
ami
amic
amicarelli
amiens
amigas
amigo
amigos
amilcar
aminaqa
amintore
amistad
amner
amo
amoenus
among
amor
amores
amoretti
amori
amorosa
amos
amotape
amount
amour
amoureux
amours
amp
ampa
ampar
ampara
amparamp
amparampi
amparapamp
amparo
ampere
ampi
ampin
ampinaka
ampinakampi
ampinakaw
ampis
ampisa
ampit
ampla
amplexa
amplexiseta
ampliada
amplio
ampu
ampuero
amsterdam
amt
amta
amtachinu
amtawi
amtawinaka
amtawinakapax
amtax
amtonio
amundsen
amusco
amuy
amuyan
amuyapxi
amuyasi
amuyasipxana
amuyaskarakiti
amuyaskiti
amuykipt
amuyt
amuyu
amuyukwinaka
amuyump
amuyun
amuyunak
amuyunakapax
amuyunakax
amuyuparjam
amuyupawa
amuyusti
amy
an
ana
anacario
anak
anaka
anakajasa
anakan
anakana
anakanx
anakap
anakapataki
anakapawa
anakarakiwa
anakaw
anakawa
anakax
anakaxa
anakipxiri
anakithiri
anakkiw
anaksa
anales
anali
anan
ananaqapxi
ananea
anani
ananiya
anapia
anaqasiraki
anara
anarqui
anarquismo
anas
anat
anata
anatakaman
anatan
anatiri
anatolio
anatomi
anatumiya
anawa
anax
anaya
ancash
ancashina
anch
ancha
anchante
anchar
anchitrichota
anchor
anchunqa
anchuqaya
ancient
anco
ancud
and
anda
andajes
andaluci
andalusiya
andaluz
andamanensis
andar
andean
anderson
andersson
andes
andi
andia
andina
andino
andinos
andoas
andrada
andrade
andre
andrea
andreas
andres
andrew
andris
andro
andurra
andy
ane
aneuvittata
anfibio
anfitrio
anfracta
angamos
angaraes
ange
angel
angela
angeles
angelina
angelique
angelitos
angelo
angels
angelus
anggun
angol
angui
angula
angulo
angustia
angusticostata
angustifasciata
angustifinis
anha
anhalt
anhelo
ani
anibal
aniceto
animal
animales
animanaka
anin
anipxan
anita
aniversario
aniwa
ankalli
ankara
ankashu
ankawasi
ankha
ankhata
ankiri
ankuta
ann
anna
annan
anne
anni
annie
anno
announced
annum
ano
anoche
anomala
anormal
another
anqa
anqara
anqaru
anqasmarka
anqax
anqaxaru
anqha
anqu
anra
ans
ansa
ansas
anselmo
ansichten
ansprache
ant
anta
antabamba
antamarka
antan
antapampa
antaparqu
antarapa
antaray
antata
antauta
antawa
antawaylla
antawayllaca
antayhua
ante
antecedente
antenas
anteno
antenor
anteparra
anterior
antero
antes
antezana
anthology
anthon
anthony
anthracina
anti
anticona
antigone
antigua
antiguo
antisas
antisins
antiukiya
antiwa
anto
antofagasta
antoine
antoli
antologi
anton
antonia
antonino
antonio
antoniu
antoon
antropologi
antu
antun
antunio
antuniu
antuniun
antunyu
anu
anuladas
anunciacio
anwapax
anwas
anwaspha
anwi
anx
anxa
any
anyaipoma
anys
anything
anywhere
ao
ap
apa
apac
apakiti
apan
apanipxi
apansa
apapxi
aparaki
aparece
aparecido
aparicio
aparjama
aparte
apartheid
apas
apasa
apasi
apasin
apata
apatak
apataki
apatakiw
apatakiwa
apatakix
apatakixa
apaw
apawa
apax
apaxa
apaxco
apaykachana
apaza
ape
apenas
apep
apertura
aphini
aphrika
aphrikapi
apicalis
apicofuscans
apiconigroscutella
apilla
apiri
apkama
apki
aplaw
apnaqa
apnaqan
apnaqapxi
apnaqasi
apnaqata
apnaqerinakaru
apnaqiripacha
apo
apolinar
apolinario
apollo
apolo
apolonio
aponte
aposto
apostol
apostolon
apostrophe
apostrophes
app
apparently
appear
appears
append
appended
applies
appointment
appropriate
apra
aprecia
aprender
aprendizaje
april
aprista
aprox
aproximacio
apst
apsun
apt
aptan
aptayiri
apthapi
apthapin
apthapita
apthapxan
apu
apuesta
apumayta
apuniw
apuniwa
apunqu
apuntes
apure
apurimaq
apustul
apxa
apxan
apxaraki
apxi
apxiritayna
apxiwa
aq
aqa
aqan
aqanaka
aqawa
aqcha
aqirinakxa
aqirinkaru
aqirixa
aqquepucho
aqrakiya
aqu
aquel
aquella
aquellas
aquellos
aqui
aquijes
aquila
aquiles
aquilino
aquilonis
aquino
aquise
aquitaine
aqulla
aqumarka
aqumayu
aqupampa
aqupampilla
aqupiya
aquqru
aqus
aqustampu
aquyra
aqway
ar
ara
arabia
arabic
arabiya
arabya
aracayo
arado
arago
arakaki
araki
arakispawa
arakiw
arakiwa
aramango
aramburu
aran
arana
aranakax
aranda
arango
arani
aranibar
arankay
aranwa
aranway
aranwaynaka
arany
arapa
ararakispa
aras
arauca
arauco
araujo
araway
arawayxarakitayna
arawi
araxa
arbela
arbildo
arbulu
arca
arcadia
arcadio
arce
arcenio
arch
archaea
archibald
archipie
archive
archived
archivedate
archiveformat
archives
archiveurl
archivo
archivos
arciniega
arco
arcos
arde
ardenne
ardenson
ardiente
ardiles
ardoin
are
area
arecae
areche
arellano
aren
arena
arenal
arenas
areolata
arequipa
arequipen
arevalo
arg
arge
argentatus
argentina
argentini
argentino
argkeys
argote
args
argsk
argsparam
argtables
argtableval
arguedas
argument
arguments
arhui
ari
arias
arica
ariel
arika
ariola
ariqipa
aris
arisanica
arista
aristo
arithop
arizona
arjona
arkanhil
arkansas
arkhi
arki
arkump
arkunakamp
arles
arma
armada
armadans
armadas
armaguedon
armand
armando
armario
armas
armenia
armenicus
armenteros
armillata
arminda
arminya
armonioso
arms
armstrong
arnaldo
arnold
arnulfo
arocha
arocutipa
arol
aron
arones
arosto
arotinco
around
arpa
arpent
arqque
arqueolo
arquitectura
arr
arrabal
arrascuejne
array
arraya
arredondo
arriaga
arriba
arriola
arrobas
arroyo
arroyos
arroz
ars
arsenio
arst
arsu
arsun
arsuri
arsusin
arsuta
arsutapunirakiwa
arsuyan
art
artagnan
artcyclopedia
arte
arteaga
artehistoria
artemio
artes
arteta
arthur
arti
article
articles
artidoro
artigas
artilleri
artist
artista
artistas
arts
artur
arturo
aru
aruchiri
aruma
arumanakaw
arumanthi
arumax
arumaxa
arump
arumpi
arun
aruna
arunacapa
arunak
arunaka
arunakamp
arunakampi
arunakan
arunakax
arunkirinakax
arunx
arunxa
arupa
arupax
arupi
arur
arusa
arusata
arusimin
aruskipa
aruskipan
aruskipapxi
aruskipt
arusqipa
arust
arusti
arut
aruta
aruw
aruwa
arux
aruxa
arwa
arwapana
arwapax
arwawa
arxatan
arxatiri
arxayatayna
arxintina
arxintinaxa
arxiv
arzobispo
arzuuwispu
arzuwispu
as
asa
asalto
asamblea
asani
asankaru
asankuru
asanqaru
asar
asaw
asawa
asax
asaxa
ascarza
ascencio
ascensio
ascensiun
ascensyon
ascensyun
ascii
ascita
asco
ase
asencios
asesinado
asesinato
asesino
asesores
ashes
ashgabat
asi
asia
asillu
asimov
asin
asina
asint
asipxan
asipxaraki
asipxaspa
asipxi
asipxiri
asipxiwa
asir
asiraki
asirakispa
asirbayjan
asiri
asiria
asiru
asis
asisa
asismanta
asit
asita
asitarakiwa
asitayna
asiwa
asiwayatayna
asiwipa
ask
askan
aski
askikiniwa
askikiti
askinjam
askinjama
askinjamaw
askipata
askipiniwa
askipuniw
askipuniwa
askiw
askiwa
askpach
askpachapinix
askunaka
askunakax
askux
aslla
asociacio
aspa
aspajo
aspecto
aspectos
aspilcueta
aspisapa
aspx
asqupi
assamensis
assassin
assemble
assembled
assigned
assis
assisi
assita
associated
assume
assuming
astaire
aste
astengo
asteroide
astete
astigarraga
astillero
astley
astor
astro
astronomi
astucuri
asturiano
asturias
asu
asuncio
asunsyn
asunsyun
asunta
asunto
asuntos
asuphri
asxaran
asya
asyana
asyapi
at
ata
atacama
atachagua
atahualpa
atak
atakejj
ataki
atakirakiwa
atakis
atakisa
atakiw
atakiwa
atakix
atakixa
atalaya
atampi
atan
atanak
atanaka
atani
atapunitaynawa
atapuniwa
atapxarakiwa
atapxiwa
ataraki
atarakiwa
atardecer
atasa
atat
atata
atauchi
ataulluco
atauqui
atavillos
ataw
atawa
atawallpa
atawra
atax
ataxa
atayna
ataynax
atc
ate
atenas
atenco
ateneo
aterrima
athapi
athe
athena
athina
ati
atienen
atiku
atinin
atipjasina
atipt
atipxi
atiquipa
atiri
atitle
atjam
atk
atla
atlacomulco
atlanta
atlantic
atlanticus
atlantique
atlas
atm
atmosphere
ato
atoccza
atoche
atpach
atra
atrabifasciata
atributos
atrichus
atricilla
atrifacies
atrifemur
atriliniellata
atrisetosa
attempt
attila
attlee
attr
attribute
attributes
attrs
atu
atuan
atunakax
atux
atwa
atypica
au
auberto
audio
auditivo
audouin
audouinii
audrey
auf
aufsa
aug
august
augusta
auguste
augusto
augustus
augusty
aumentada
aunque
aunt
aupa
aura
aurantiaca
aurantiventer
aurea
aurelia
aureliano
aurelio
auris
aurora
aus
ausangate
ausencia
ausente
austen
austin
austral
australia
australiana
australla
austria
austriya
aute
author
authority
authorlink
authorlist
authors
auto
autobiogra
autobiografi
autobiography
autogobierno
automa
automatically
automo
automovilismo
autor
autora
autores
autori
autoridad
autoridades
autorretrato
autos
autour
autry
autumn
auvergne
aux
auxiliadora
auxiliadura
auxiliares
auxiliary
auxilyadura
auyunaka
av
ava
available
avalos
avancemos
avanza
avanzando
avelino
avellanas
avellaneda
avena
avendan
avenger
aventura
aventuras
aves
aviador
avila
avile
avio
aviv
avogadro
avoid
avoirdupois
avray
aw
awa
awaju
awan
awankay
awaq
award
awasi
awatin
away
awayapxi
awayapxtana
awaycha
awayu
awayunaka
awi
awich
awicha
awichanakax
awikaruy
awila
awina
awinak
awinaka
awinakax
awinakaxa
awinpukyu
awisajj
awisanakaxa
awisaxa
awiwa
awix
awixa
awja
awjanakan
awjawa
awk
awki
awkikura
awkir
awn
awna
awnanak
awnanaka
awnanakapax
awnantan
awnantapxi
awnanti
awnapa
awnapas
awnapasti
awnapax
awnapaxa
awnapxi
awni
awpaq
awqallama
awqara
awqayaku
awra
awrani
awrawa
awti
awtut
awullawip
awullitapa
awya
awyayala
ax
axa
axanthinus
axari
axu
axura
axwa
axwan
ay
aya
ayacucho
ayala
ayan
ayanatak
ayane
ayanque
ayapata
ayapxa
ayapxaraki
ayapxi
ayaquchu
ayasa
ayasin
ayasipxi
ayasir
ayata
ayatarakiwa
ayatawa
ayatayna
ayauja
ayawaka
ayawanku
ayawi
ayawiri
ayawqa
ayca
aycha
aychanak
aychapaxa
aychapxa
aydee
ayer
ayerbe
ayerve
ayesta
ayha
ayi
ayiri
ayirinakapa
ayllo
ayllu
ayllumpi
ayllun
aylluna
ayllunakatw
ayllunkirinakax
ayllux
ayma
aymar
aymara
aymarakiti
aymaran
aymaranakan
aymaranakax
aymaranakaxa
aymaranx
aymaras
aymarat
aymarax
ayn
ayna
aynach
aynacha
aynacharusti
aynacharux
aynacht
ayni
ayo
ayon
aypampa
aypaq
aypinakana
ayqa
ayquipa
ayra
ayrani
ayraudth
ayri
ayriwanka
ayt
ayti
ayu
ayuda
ayui
ayulo
ayuntamiento
ayuque
ayuyani
ayvar
aywan
az
aza
azabache
azan
azar
azcona
azcueta
azjne
aznara
aznavour
azparrent
azparret
azu
azul
azules
azur
azurduy
azərbaycan
b
ba
baahinta
babel
babes
babilonia
baby
babylon
baca
bacalar
bacall
bacalla
bach
bachata
bacigalupi
back
background
backtranslate
bacon
bacteria
bacterias
bactrocera
bad
baden
bado
baella
baggio
baghdad
bagua
baha
bahamas
bahi
bahia
bahrayn
baila
bailarina
bailarinas
baile
bailes
baja
bajo
bajonero
bajos
bakeri
bal
baladas
balance
balbuena
balca
balcones
baldemar
baldeo
baldera
baldi
baldivieso
baldomero
baldwin
ball
ballena
ballesteros
ballet
ballivia
ballivian
ballo
balsa
balsas
balta
baltar
baltasar
baltazar
balvi
balzac
bamos
ban
banana
banco
bancroftii
band
banda
bandar
bandaranaike
bandera
banderas
bandurria
bang
bangkok
banner
banneri
bano
bao
baptiste
baquero
bar
barabbas
barack
barato
barba
barbados
barbara
barbe
barbosa
barboza
barbuda
barca
barcelona
barcha
barco
bardales
bardalez
bardo
bardot
bare
bareto
bari
bariju
barinas
bariona
barnes
baron
barra
barraga
barral
barranca
barranco
barranquilla
barranquita
barrantes
barre
barreda
barrel
barrels
barrenechea
barrera
barreto
barretto
barrientos
barrier
barriga
barringtoniae
barrio
barrionuevo
barrios
barro
barroco
barros
barroso
barrow
barry
bartolo
bartolome
bartra
bartulu
bartulumi
basada
basado
basadre
basalto
base
based
basel
basho
basi
basic
basilia
basilica
basilio
baskin
basse
basshunter
basta
bastar
basten
bastidas
bastos
batalla
batallas
batemani
batman
bato
bator
batres
battista
battle
bau
baudelaire
bautismo
bautista
baviera
bawtista
bay
bayern
bayou
baz
baza
bazalar
bbc
bbl
bc
bdft
bdi
be
beach
bean
beans
bear
bearbeiter
beast
beatita
beatles
beatrice
beatriz
beau
beaulieu
beautiful
beauvoir
beber
bebidas
bebimos
bebo
because
becerra
becerril
beck
beckenbauer
beckerae
beckett
becomes
bed
bedoya
beecher
been
beethoven
before
begawan
begazo
begin
beginning
begins
behind
beim
being
bejarano
beker
bela
belau
belaunde
belcher
belcheri
bele
belen
belgrado
belinda
belito
bell
bella
bellas
bellavista
belle
belleza
bellido
bello
bellotas
belma
belo
below
beltra
belushi
belzu
ben
benancio
benavente
benavides
benazir
bence
bend
bendecir
bendecire
bendezu
bendire
benedetti
benedetto
benedicto
benedictus
bengali
beni
benicio
benigno
benita
benites
benito
benjami
benjamin
benny
bentley
beny
ber
beramendi
berardo
berau
berenice
bergman
bergoglio
berkeley
berli
berlin
berlusconi
bermu
berna
bernabe
bernadette
bernal
bernales
bernard
bernarda
bernardino
bernardo
bernedo
bernice
berri
berro
berrocal
berrospi
berry
bersuit
berta
bertha
bertonio
bertram
bertrand
besanc
beso
best
bestia
bestrank
beta
betancourt
bethania
bette
better
betty
between
beverage
beyond
bezzi
bhp
bhutto
bi
biarcuata
biavo
bibcode
bibiano
biblia
bibliat
bibliogra
bibliografi
bibliographisches
biblioteca
bibliotecas
bicentenario
bichos
bicicleta
bidentata
bido
bieber
bien
bienal
bifasciata
bifurcan
big
bigote
biguttata
biguttula
bil
bilarus
bilbao
bilhika
bilingu
bilkiya
bill
billinghurst
billion
billy
bimaculata
bin
bing
bingali
bingen
binidiktu
binitu
binoyi
bio
biobi
biogra
biografi
biografia
biografiasyvidas
biography
biolib
biolo
biologi
biomasa
biorxiv
bipustulata
bird
birds
birmingham
bis
bismarck
bistrit
bisutti
bit
bita
bitcoin
bivittata
biya
bizarro
bjo
black
blacklist
blades
blair
blanca
blancas
blanche
blanco
blancos
blanes
blank
blas
blasco
blaso
ble
bleu
blica
blico
blind
blog
blogs
blogspot
blondie
blood
bloque
blow
blowing
blue
bluebeard
blues
bluff
blume
blurb
bmg
bo
board
boat
bob
bobadilla
bobby
bobo
boca
bocanegra
bocas
bocelli
boda
bodas
bodego
body
boe
bogari
bogarin
bogart
bogorensis
bogota
bohr
bola
bolan
bold
bolero
boleros
boli
bolivar
bolivia
bolivian
boliviana
boliviano
bolivianos
bologna
bolognesi
bolonia
bolsa
boluarte
bomber
bombero
bombo
bompiani
bon
bonaparte
bond
bondy
bonet
bongara
bonifa
bonifacia
bonifacio
bonilla
boniperti
bonita
bonn
bonus
book
booket
books
booktitle
boolean
boom
boomerang
boots
boquete
borassus
borbones
borda
borde
bordeaux
border
bordo
borg
borges
borgo
borgon
boris
borja
borjapi
bornemisza
borra
borsalino
borsani
bosch
bosco
bosmediano
bosna
bosnia
bosque
bosquejo
bosques
bossa
boston
bot
bota
botafogo
botas
botella
both
bots
bottetano
bottom
boulevard
boulogne
boume
bound
bounty
bouret
bourg
bourgeois
bourgogne
bouson
bow
bowen
box
boxes
boxtable
boxtype
boy
boyd
boys
boza
bpj
bq
br
bra
brac
brachus
brachycera
bracketed
brackets
bragagnini
brahez
brahms
brak
brake
branco
brand
brandenburg
brando
brasil
brasileira
brasileiro
brasilia
braulio
brave
bravo
bravos
brazil
brazos
brea
bread
break
breakfast
breaks
brecht
breda
breinigerberg
bremen
bren
brent
bretagne
bretan
breve
breves
breviaculeus
brevirostris
brevistriata
brezhnev
brian
bric
bricen
bride
bridge
bridges
bridgetown
briefe
brigadas
bright
brigitte
brignole
brillante
briones
briscen
brita
britan
britannica
british
brito
broadway
brodie
broken
broncano
bronce
bronze
bros
brother
brothers
brought
brown
bru
bruce
bruguera
brujo
brundtland
bruniy
brunnea
brunneola
brunnicephalus
bruno
brussel
bruxelles
bryoniae
bs
bsh
bso
btu
bu
buarque
buccaneer
buchelli
bucures
budapest
buddleja
buen
buena
buenas
buenaventura
buendi
bueno
buenos
buffalo
bufo
bug
build
built
builtin
buinensis
buitro
bujanda
bukuresti
bula
bulas
buldibuyo
buleje
bulganin
buliwya
bulkariya
bull
bullata
bulleri
bullets
bullifera
bullo
buloloensis
bumachar
bump
bunge
buque
buren
burga
burgos
burgue
burgus
burinkin
burke
burlador
burlington
burning
buro
burton
burundi
bus
busca
buscala
buscando
buscar
bush
bushel
business
busn
busquets
bustamante
bustinza
bustios
busto
but
butan
butler
butros
butter
button
by
bybys
byrne
byron
bystander
byte
c
ca
caballe
caballero
caballeros
caballo
caballos
caban
cabana
cabanillas
cabaut
cabecinegra
cabello
cabero
cabeza
cabezas
cabo
cabral
cabrejos
cabrera
cacahuetes
caceres
cachay
cachi
cachicada
cachinnans
cachique
cachuy
cacique
caco
cada
cadena
cadenas
cadernos
cadillo
caen
caer
caetano
cafe
cafrune
cage
cagney
cahuana
cahuaya
cai
cain
caipo
caja
cajabamba
cajahuaringa
cajamarca
cajas
cal
calabaza
calagua
calais
calama
calamares
calana
calavera
calcio
calcular
calculate
calculated
calculation
caldas
caldera
caldero
calderoniano
caleb
calendar
calendario
calendariona
calendarios
calero
caleta
cali
caliente
california
californicus
caligrafi
calisaya
calixto
caliza
calizaya
call
calla
callaghan
callamarca
callao
callar
callas
callata
callayuc
calle
called
caller
calleri
calles
calling
calls
callupe
calnek
calor
calorie
calories
calpe
calpulli
calvario
calvin
calvo
calwaryu
calzada
calzado
cama
camac
camacho
caman
camarena
camarero
camargo
cambio
cambios
cambridge
came
camello
cameo
camille
camilo
caminando
camino
caminos
camo
campan
campana
campanas
campanilla
campeador
campeche
campeo
campeonato
campeonatos
campesina
campesino
campesinos
campin
campins
campo
camporredondo
campos
campoverde
campus
camus
can
cana
canada
canal
canales
canalla
canaria
cancachu
cancho
canchumani
cancio
cancionero
canciones
candamo
candia
candilarya
candy
canelo
cangrejera
cangrejos
caniun
cannery
cannizzaro
cannot
cano
canoas
canonical
canonicalname
canqui
cansado
canseco
canta
cantan
cantando
cantante
cantar
cantare
cantares
cantautor
canteen
canten
cantinflas
canto
cantor
cantora
cantoral
cantori
cantos
canus
canzoniere
cao
cap
capa
capacity
capak
caparo
capcha
capelletti
capi
capilla
capira
capita
capital
capitalismo
capitan
capitol
capote
cappillo
capricho
captain
capture
captures
capucho
car
cara
carabayllo
caracas
carachi
caracteri
caras
carat
caravaggio
caravana
caravans
caraveli
carbajal
carbo
carboneda
carbonera
carcasi
carcele
cardenal
cardenas
cardich
cardo
cardozo
cards
care
cargo
carhuallanqui
carhuapoma
cari
caribbean
caribe
caridad
carin
carita
caritatis
carl
carla
carles
carlo
carlomagno
carlos
carlota
carlsberg
carmela
carmelino
carmelo
carmen
carmi
carmin
carnaval
carne
carnero
carnes
carnets
caro
carol
carola
carolina
caroline
carolo
carolus
carolyn
carpenter
carpenters
carpentier
carpio
carranza
carrasco
carrazco
carren
carrera
carreras
carrillo
carrington
carrio
carrizo
carrusel
carson
carta
cartagena
cartas
cartel
carter
cartero
cartier
cartography
carumas
caruso
carvajal
carvalho
carvallo
casa
casablanca
casachagua
casado
casafranca
casanova
casas
casaverde
casavilca
cascia
case
caselle
caseri
cases
casete
cash
casi
casia
casilla
casimiro
casitas
caso
casona
casos
caspio
casquino
castagnino
castalia
castan
castellana
castellano
castellanos
castelli
castello
castigo
castilla
castillaumalliq
castillo
castle
castrejo
castresana
castro
castrovirreyna
cat
cata
catacaos
catacora
catala
catalan
catalina
catamarka
catania
cataratas
catarina
catch
catedra
catedral
categori
categoria
categorie
categories
categoriesns
categorisation
categorise
categorization
categorize
categorizing
category
categoryhandler
categorylabels
categoryprop
caterina
catherine
catholic
catillo
cato
cats
cattitle
cattone
catun
caudal
caudaloso
caujul
causa
causana
causas
cause
causeries
causes
cautiva
cautivo
cautivos
cava
cavalleria
caverna
cavero
cayalti
cayambe
cayetano
cayllahua
caynarachi
cayo
caza
cazador
cbs
cc
ccahuana
ccahuata
ccahuatura
ccala
ccallme
ccallo
ccanto
ccapa
ccapaso
ccoicca
ccopa
ccorimanya
ccoyllo
cd
cdo
cdu
ce
cea
ceara
cebada
cebollitas
cecilia
cecilio
cecinio
ceda
cedano
cedro
ceferino
cefet
ceguera
celedonio
celendi
celendin
celeste
celestes
celestino
celia
celis
cell
cello
celos
celsius
celso
cementerio
cemento
cena
cenepa
cenepo
ceniza
cenizas
cenobia
censi
censos
cent
centenario
centeno
center
centimeter
centimeters
centimetre
centimetres
central
centralismo
centre
centro
centru
centuries
centurio
century
cep
cepeda
cera
cerati
cerca
cercado
cercano
cerco
cerda
cerdo
cereales
cerebro
ceremonias
ceremony
ceres
cerezo
cerna
cernuda
cerrada
cerrado
cerro
cerruto
certain
cervantes
cervantinos
cerveza
ces
cesar
cesario
ceso
cfg
cfgkey
cfgvalue
cfgvaluetype
cframe
ch
cha
chaban
chabuca
chac
chacas
chacha
chachakuma
chachan
chachanakax
chachani
chachapuyas
chachas
chachaw
chaclacayo
chaco
chadi
chagas
chagua
chahuaylla
chain
chained
chairo
chajtadu
chaka
chakapalpa
chakapampa
chakaraymi
chakas
chakaya
chakitilla
chakiwa
chakrapampa
chaku
chala
chalaco
chalamarka
chalan
chalco
challapampa
challas
challco
challw
challwa
challwana
challwanak
challwanaka
challwanakasti
challwanakawa
challwanakaxa
challwanka
challwasti
challwawa
challwawachu
challwaxa
chalpo
chalpun
chalqus
chamanchirinakaniwa
chamaqa
chamberlain
chambi
chambre
chameleons
chamorro
champa
champagnat
champagne
champara
champhayna
champi
champin
championship
chan
chana
chancay
chance
chanchamayo
chanchamayu
chanchari
chandrika
chanfle
chang
change
changed
changes
changing
changuillo
chanincha
chanka
chankay
chankayban
chanta
chaos
chapar
chaparra
chapi
chapimarka
chaplin
chapter
chapterurl
chapulin
chapultepec
chapxarakiwa
chapxiwa
chaqaltaya
chaqan
chaqat
chaqlla
chaqn
chaquchi
char
chara
characato
character
characters
charakiwa
charanakamp
charanga
charangux
charasani
charat
charca
charente
charentes
charge
charka
charkana
charlas
charles
charleston
charleth
charley
charlie
charlotte
charlton
charny
charqui
charrito
charro
chars
chase
chaskirqan
chasuta
chat
chata
chatmay
chato
chauca
chaucer
chaupis
chauvelin
chava
chavarri
chavarry
chavela
chavi
chavo
chaw
chawi
chawin
chawinillu
chawisa
chawlan
chawlla
chawpi
chawpimarka
chay
chayanta
chaymanta
chayqa
chayru
che
checa
check
checkdigit
checked
checking
checks
checksum
checktype
chekhov
chelsea
chemical
chemins
chen
cheo
chepe
cher
cherre
chespirito
cheto
chetumal
chexya
cheyenne
chhaqhantaspa
chhichhillanka
chhijchhi
chhijchhis
chhijchhix
chhiqani
chhiqha
chhiqhanakaniwa
chhiqhanakaxa
chhiqhaxa
chhiri
chhiriniwa
chhirixa
chhitthapinaka
chhiwchinak
chhiwchinipk
chhiy
chhull
chhullunkhaya
chhuqhax
chhurun
chhuruni
chhurupaxa
chhuxlla
chhuxu
chi
chiang
chiapas
chiappe
chiara
chica
chicago
chicche
chichas
chichipa
chichipas
chichipaxa
chichu
chiclayo
chiclayu
chico
chicos
chief
chiesa
chiguayante
chiguirip
chihuahua
chik
chika
chikama
chikan
chikancht
chikat
chikataniruw
chikaw
chikawjanx
chikchi
chikla
chiklayu
chikmu
chikt
chikyan
chilca
child
childhood
children
chile
chilena
chili
chiliqui
chiliti
chilla
chillcce
chilli
chillka
chillkayuq
chillun
chillya
chilpancingo
chilquillo
chim
chimban
chimborazo
chimbote
chimpance
chimpu
chimputi
chimu
chimuch
chin
china
chinapas
chinatown
chincha
chinchana
chinchaw
chinchay
chinchaypukyu
chinche
chinchiru
chinchiwasi
chinchu
chinese
ching
chino
chinquinquirapi
chinu
chinuq
chinuqa
chipana
chipin
chipurana
chiqa
chiqakirakiwa
chiqakiwa
chiqakupi
chiqan
chiqanaka
chiqanchatawa
chiqans
chiqanx
chiqapa
chiqapawa
chiqaru
chiqaw
chiqax
chiqllan
chiqpachans
chiqra
chiqt
chiquintirca
chiquiri
chir
chira
chirac
chircca
chirhuana
chirimoto
chirinkax
chirinos
chiriqunuy
chiriwata
chiroque
chisquilla
chitilla
chivigorri
chiwa
chiwalaki
chiway
chiyara
chloropus
chocan
chocano
choclo
chocolate
chola
chongos
choose
chopin
choqila
choque
choquehuanca
chorrillos
chorus
chosen
chosica
chota
christi
christian
christie
christina
christine
christmas
christoph
christopher
chroicocephalus
chrome
chstuwa
cht
chu
chubut
chuca
chuchi
chucho
chuchupi
chuck
chucuito
chugay
chugur
chui
chuka
chukatamani
chukis
chukiyaw
chukiyawu
chuku
chukuwitu
chulli
chullo
chullpa
chullt
chulluchin
chulukanas
chulumani
chulun
chumbe
chumbiauca
chumbivilcas
chumpi
chumpitaz
chumpiwillka
chumuch
chun
chunan
chunga
chunki
chunkuyapi
chuntali
chuntapampa
chup
chupa
chupaka
chupamarka
chupan
chupika
chuqhata
chuqi
chuqipampa
chuqipampilla
chuqisaka
chuqiwanka
chuqiyapu
chuqlluqucha
chuqu
chuquispuma
chuquizuta
chuqupi
chuqurwus
chuqus
chura
churan
churapxa
churaraki
churas
churasirakiwa
churayirinaka
churchill
churi
churinkuna
churirikiti
churirinakawa
chuririwa
churkampa
churu
churuja
churupampa
churus
chuschi
chuta
chuwa
chuym
chuyma
chuyman
chuymani
chuymata
ci
cia
ciclo
cid
cidade
cido
cidob
cie
ciego
ciegos
cielo
cien
ciencia
cienciajj
ciencias
cieneguilla
cienti
cientifico
cientificonakajj
cientificonakan
cierto
ciertos
cieza
cifra
cigarra
cil
cima
cincinnati
cinco
cine
cinematogra
cinematografi
cinq
cio
cipria
cipriano
circa
circle
circo
circulares
circulatorio
circunstancias
ciriaco
cirilo
ciro
cirrocephalus
cisjordania
cisma
cisne
cisneros
cita
citation
citationclass
citations
cite
citeref
cites
citeseerx
cities
cito
city
ciuda
ciudad
ciudadano
ciudades
civil
cixi
cjuno
ck
cken
cl
cla
claim
claims
clamor
clan
clandestino
clara
claras
clarel
clarence
clari
claribel
clarinete
clark
claro
claros
clase
clases
clasificacio
class
classes
classics
claude
claudel
claudia
claudio
claus
clav
clave
clavero
clay
cle
clean
cleanup
clear
cleber
clement
clemente
cleo
cleopatra
cleto
cleveland
cli
clica
clides
client
clima
climent
climinti
clint
clinton
clito
clodomiro
clone
clorinda
close
closing
clotilde
clouds
club
clube
cm
cmbox
cmi
cn
cnica
cnicas
cnico
cnido
co
coa
coahuila
coaquira
coarita
coat
coayla
cobar
cobia
coca
cochabamba
cochamal
cocharcas
cochas
cocinera
cocle
code
codes
codesido
codo
coe
coelho
coello
coffee
cohana
cohen
coimbra
coins
coipa
col
cola
colaboracio
colaboraciones
colca
colcabamba
colcamar
cold
cole
coleccio
colectivo
colectivos
colegio
colette
colima
colin
colina
coll
collaboration
collado
collantes
collapsible
collar
collas
collatio
collazos
collected
collection
college
collpatomaico
colmenares
colo
colombia
colombo
colon
colonia
colonial
colonialisme
colonizacio
colonos
color
colorado
colores
colors
colos
columbia
columbus
column
columna
colunche
com
comandante
comas
combate
combates
combination
combinations
combo
combos
combustibles
combustio
come
comedia
comediante
comedias
comedy
comendador
comentarios
comenzada
comenzo
comercial
comercio
comes
cometa
comida
comiendo
comienza
comienzo
coming
comisario
comisio
comma
command
commas
comment
commercio
common
commons
como
comp
compa
compadres
compan
companhia
companion
company
comparada
compare
comparedisplay
comparelink
comparepages
compareurl
compartidas
compatible
compilacio
complemento
complementos
completa
completas
complete
completo
completos
complex
complutense
components
componer
compop
composicio
composiciones
composite
compositor
compostela
comprobar
compromiso
compuesta
compuesto
computadores
comte
comu
comunal
comune
comunes
comunicacio
comunidad
comunidades
comunista
con
conan
concat
concatenate
concatenation
concejo
concentration
concepcio
concepto
concert
concertacio
concertacion
concha
conche
conciencia
concierto
concordia
concurso
concytec
conde
condecoracio
condemayta
condena
condenada
condenado
condepa
condesa
condesuyos
condezo
condicio
condicional
condition
conditions
conditionserror
condo
condor
condori
conducta
conejo
confederacio
conference
conferenceurl
conferencia
conferencias
confesio
confesiones
confession
confianza
confidencia
config
configuration
confucius
congo
congreso
conila
conislla
conjuga
conjugacio
conjugaciones
conjugan
conjunto
conmigo
connecticut
connery
conoce
conocen
conocer
conocida
conocido
conocimiento
conquest
conquista
conquistador
conquistadores
conrad
conredes
conroy
consagrado
consecuencias
conseguido
consejo
conservador
conservan
conservemos
considera
consideraciones
considerado
considerados
considerarse
consta
constance
constant
constante
constantino
constitucio
constitucional
constrain
construccio
constructora
constructorajne
construyendo
consuelo
consultado
contada
contadas
contagem
contain
containing
contains
contar
contell
contemplacio
contempora
content
contenttitle
contexto
contextos
contiene
contigo
continental
continente
continuacio
contos
contra
contrabando
contralmirante
contrario
contraste
contreras
contribution
contributor
contributorlist
contributors
control
controls
convenciana
convencion
convention
conventions
convento
convergencia
conversacio
conversaciones
conversion
conversions
convert
converted
convertida
converting
converts
convidado
convivencia
convoca
convocado
cook
coolidge
cooper
coordinadora
copa
copacabana
copallin
copas
copenhagen
copenhague
copernico
copied
copulativos
copy
copying
coquimbo
cora
corahua
coraje
coral
corazo
corazones
corbacho
corbera
corbin
corcuera
cord
cordero
cordillera
cordoba
cordova
cordura
corea
coreano
coreca
corina
coriolano
corire
cornejo
cornelio
corner
coro
corona
coronacio
coronada
coronado
coronel
corongo
corono
corosha
corot
corporacio
corporate
corporation
corpu
corpus
corral
corrales
correa
correct
correctly
corregida
correo
correspondance
correspondencia
corresponding
corricolo
corrientes
corsarios
corse
corswarem
corta
cortada
cortas
corte
cortegana
cortes
cortez
corto
cortometraje
cortos
corzo
cosa
cosas
cose
cosicha
cosme
cosmos
cossi
cost
costa
costilla
costumbres
cota
cotaquispe
cotopaxi
cotrina
coturnix
couderc
could
couldn
coulomb
count
counter
countess
counting
country
county
courbet
court
courtship
cox
cp
cquer
cr
cra
crack
crassirostris
crata
crates
craveiro
crawford
crazy
crd
cre
creacio
creaciones
creagrus
create
created
createlink
creation
creatures
crecen
credits
creek
creo
crepu
crespo
cri
criac
cricket
crime
crimen
criolla
criollo
criollos
crisanto
crisis
crislogo
criso
crispi
crispulo
cristal
cristhian
cristian
cristiana
cristianismo
cristiano
cristianu
cristina
cristo
cristoforo
cristubal
critica
criticism
critique
crl
cro
cromosomas
crono
cronologi
crooked
crosby
cross
crossing
cruces
crucificado
crucifixio
cruel
cruijff
crus
crusnaka
cruz
cruzada
cruzadas
cruzado
cruzando
cruzeiro
cry
crypto
cryptocurrency
crystal
cs
css
cssr
csstext
csutcb
ct
ctea
cteos
cter
ctica
cticamente
ctico
ctila
ctor
ctx
cu
cua
cuaderno
cuadernos
cuadra
cuadrado
cuadro
cuadros
cual
cuales
cualquier
cualquiera
cuando
cuarenta
cuaresma
cuarta
cuarto
cuatro
cuautitla
cuba
cuban
cubana
cubano
cubas
cubic
cubillas
cucho
cuchumbaya
cue
cuellar
cuello
cuenca
cuenta
cuentas
cuento
cuentos
cuerda
cuernavaca
cuerpo
cuerpos
cuervo
cuesta
cuestio
cuestiones
cueto
cueva
cuevas
cuft
cuftnaturalgas
cuicapuza
cuidado
cuin
cuispes
cujillo
cukor
cula
culas
culebra
cullanco
culo
culos
culpa
culqui
culquicondor
culquimboz
cultura
cultural
culturales
culture
cumana
cumbaza
cumbia
cumbre
cumbres
cumi
cumpa
cumple
cumplean
cumplir
cun
cuna
cup
cupe
cupertino
cupos
cuprinde
cura
curbstone
cure
curgos
curi
curie
curious
curitiba
curitomay
curitumay
curo
curotto
currency
current
currently
curro
curse
curso
curtiz
curva
cusano
cusco
cusi
cusihuama
custodio
custom
customary
cuta
cutervo
cutipa
cutipe
cutisaca
cuy
cuya
cuyd
cuyo
cuyos
cuzco
cuzquen
cvc
cvt
cvtround
cwt
cyanide
cyclical
cynthia
cypress
cypriot
d
da
daa
daddy
dado
dafnes
daga
dagoberto
daguas
daguerre
dahua
daily
dakota
dal
dalglish
dali
dallas
dalmasya
dalton
dam
dama
damacen
damas
dame
damia
damian
dammert
dan
dance
dancing
dandy
dane
dangerous
daniel
daniela
danilo
danny
dans
dante
danza
danzas
dar
dari
darie
dark
darte
dartnell
darwin
das
dash
data
database
datapage
dataset
datavalue
date
dateformat
datem
dates
datos
daughter
david
davis
davor
dawn
day
days
daza
dc
dd
de
dea
dead
deakin
dean
deas
death
debate
deber
deberi
debido
debug
debussy
decade
decades
decametre
decano
decay
decca
december
decide
decimal
decimals
decimeter
decimetre
decir
decisio
decisiones
declaracio
declaration
declare
declared
decorate
decorated
dedicada
dedicado
dedo
deep
deepcopy
default
defaultkey
defaults
defectivos
defendiendo
defensa
deferre
deferred
define
defined
definition
definitiva
definitivamente
defkey
defs
degas
degli
degree
degrees
dei
del
delano
delaware
delawarensis
delden
delerue
delete
delfi
delfim
delfina
delfor
delgado
delhi
delia
delinquir
dell
della
delle
delmas
delmer
delon
delta
dem
dema
demasiado
demetrio
demo
democra
democracia
democratico
demokratie
demonio
demopage
demospace
den
denegri
deng
denis
denix
deniz
denny
denominacio
denominados
denominan
denominator
density
denstr
dentro
denver
denys
deo
deodoro
departamento
dependiendo
depending
depends
depo
deportes
deportivo
deprecated
depth
der
deray
derecha
derecho
derechos
deres
deriva
derivadas
derivados
deriven
derrota
derrotero
des
desafi
desalmada
desamparados
desamparadunaka
desaparecido
desaparicio
desapariciones
desarrollo
descalza
descentralismo
descentralista
descomponer
desconocida
desconocido
desconocidos
described
descripcio
description
descriptive
descubridores
descubrimiento
descubrimos
desde
desdicha
deseas
desengan
deseo
desert
desfile
desgracia
deshacer
deshonra
desiderio
desiderius
desierto
desire
desnuda
desnudo
desolatrix
desorden
desorejado
despertar
despue
destacan
destierro
destino
destinos
desventuras
detail
detalle
dete
detect
detected
detection
detective
determina
determine
determined
determines
dett
deudas
deutsch
deutsche
deutschen
deutsches
deutschland
deux
devil
devocio
dez
dezvoltare
df
dhabi
dhaka
dhexe
di
dia
diabetes
diable
diablo
diablos
diaeresis
dialectal
dialogue
dials
diamante
diamond
diana
diane
diario
diarios
diariosur
diary
dias
diaz
diber
dibujo
dibujos
dica
diccionario
diccionarios
dicen
dicha
dicho
dichos
diciembre
diciendo
dicis
dickens
dickory
dico
dictadura
dictionary
did
dida
diderot
didi
didn
die
diecise
died
diego
dien
dies
dieser
diestra
dieterich
dietrich
dieu
diez
diferencia
diferente
diferentes
diff
different
difunto
dig
digestio
digestivo
digit
digital
digitletter
digits
digo
dijon
dilfrido
dilthey
dimas
dime
dimukratiku
din
dina
dinamarka
dinasti
diner
dinger
dinner
dino
dio
dionicio
dionisio
dios
diosa
diosajj
diosan
dioses
diploma
diplumatiqu
diptera
dipterorum
diputacio
dirac
dire
direccio
directa
directly
directo
director
directores
directory
direito
dirigida
disambiguator
discmedi
disco
discografi
discos
discurso
discursos
discusio
disenteri
dish
diskunaka
diskuraphiya
disney
disp
dispersa
display
displayed
displays
dispone
dissertation
distinction
distinguidos
distintas
distintos
district
distrital
distrito
dita
ditas
dith
ditions
dito
ditos
div
diva
diversidad
diversos
divide
divina
divino
divinos
divisas
divisio
division
divisions
divorce
divorcio
dix
diz
dj
djalma
djuna
dl
dm
dmy
do
doblan
doble
dobrila
doc
doce
dock
docket
docname
docpage
docpagebase
docs
docspace
docteur
doctitle
doctor
doctoral
doctores
doctrina
documental
documentary
documentation
documentos
does
doesn
dog
dogs
doi
doing
dois
doktor
dollar
dolmen
dolo
dolor
dolores
dolorier
doluris
dom
domador
domain
domains
domanovic
dome
domeciano
domenico
domi
domingo
domingos
domingu
domini
dominicales
dominicana
dominicanus
dominicos
dominio
dominique
don
donald
donato
donayre
doncella
donde
done
donepairs
dones
dongo
donne
donoso
donum
doom
door
doors
dora
dorada
dorado
dore
doria
doris
dornelles
dorothea
dorothy
dos
dosantos
dose
dossier
dot
dots
douard
douat
double
doubled
douglas
dover
down
download
downs
doyle
dr
dra
drachm
draco
drago
dragon
drake
dram
drama
dramas
draper
drawings
dream
dreams
dresden
drew
dro
drucker
drummond
dry
drygal
du
dua
duardos
duarte
dublin
duck
duda
dudas
duele
duelo
duen
duende
duerme
duhalde
duke
dulanto
dulce
dulces
dulo
duluis
dumas
dumb
dumet
dumingu
duminika
duminikana
dummy
duna
dunam
duncan
dunlop
dunum
duomo
dup
duplicado
duplicate
duplication
duque
duquesa
dura
duracio
duran
durand
durango
durante
during
durman
durmiente
dusambe
dust
dustin
dv
dvd
dwight
dy
dyer
dylan
dynamite
dyusmanta
dzhugashvili
e
each
eagle
earhart
earl
earlier
earliest
early
earth
earthsea
east
easter
eastwood
easy
eba
ebadi
eber
eberth
eburnea
ec
ecas
ecatepec
ecfcf
echada
eche
echegaray
echenique
echevarri
echeverri
echeverria
eco
ecologi
econo
economi
economic
ecos
ecuador
ecuatoriana
ecuestre
ed
eda
edad
edades
edden
eddie
eddy
ede
eden
eder
edgar
edgard
edgardo
edge
edgware
edhasa
edic
edicio
ediciones
edicions
edigsa
edilberto
ediles
edimburgo
edinson
edison
edit
editada
editado
edited
edith
editicon
edition
editlink
edito
editor
editora
editores
editorial
editorlist
editors
edmund
edmundo
edn
ednita
eds
edson
edu
eduard
eduardo
educa
educac
educacio
edwar
edward
edwards
edwin
edy
ee
eesti
eett
efecto
effect
effective
efficiency
efigenio
efrai
egipto
ego
egu
eguiguren
eguren
eh
eib
eielson
eight
eighty
eikiai
ein
einaudi
eine
einer
eines
einstein
eiro
eisenhower
eisenover
eissn
either
ej
eje
ejecutivo
ejemplares
ejemplo
ejemplos
ejercicios
ejo
ekka
ekumen
el
eladio
elamidiana
elard
elazar
elba
elder
ele
eleanor
eleazar
elecciones
electas
electoral
electric
electrical
electricidad
electro
electromagne
electromagnetismo
electronvolt
elefante
elegi
elegie
eleji
element
elementales
elementos
elements
elena
elenas
elephants
elera
eleuterio
elfer
elgar
elguera
eli
elias
elio
eliodoro
eliot
elisa
elisabeth
elisba
eliseo
eliza
elizabeth
ella
ellas
ellen
elliott
ellis
ello
ellos
elmer
elo
elogio
eloi
eloy
elsa
else
elseif
elva
elver
elvira
elvis
em
emancipacio
embarazo
embargo
embargoed
emblema
embutidos
eme
emergencia
emerson
emeterio
emi
emigdio
emil
emilia
emiliano
emilio
emily
emir
emirates
emission
emit
emits
emitted
emma
emmeline
emociones
empen
emperador
emperatri
emperatriz
empire
empresa
empty
en
enable
enabled
enamorado
enamorados
encalada
encantada
encanto
encargada
encarnacio
enchanted
enciclope
enciclopedia
encinas
enciso
encode
encoded
encoding
encrucijada
encuentra
encuentran
encuentro
encuentros
encyclopaedia
encyclopedia
end
endash
endashes
endbox
endless
endocrino
ends
enedina
enemecio
enemigo
enemy
energi
energy
enero
enfermedad
enfermeri
enfrente
eng
engan
engels
engineering
england
english
engranajes
engscale
enilo
enlace
enlaces
enlai
enredo
enri
enrico
enrique
enriqueta
enriquez
ensaio
ensayo
ensayos
ense
ensen
entender
entered
entertainment
entierro
entities
entity
entityid
entonces
entrada
entradas
entre
entreme
entrena
entrevista
entry
enum
enumerated
enumerator
env
envfunc
envfuncs
environment
enwiki
enz
enza
enzo
eo
ep
epi
epidemia
epifanio
episode
episodio
episodios
episodiu
episodiukuna
epistolar
epistolario
epistole
epita
epopeya
equal
equals
equation
equipaje
equivalent
er
era
eran
erasmo
erasmus
erazo
ercilla
ere
eres
erfurt
erg
eriberto
eric
erico
erigiendo
erik
erika
erna
ernest
ernestina
ernestine
ernesto
ernst
ero
eros
err
errante
errol
error
errors
errs
erscheinungen
erwin
erza
es
esa
esca
escajadillo
escalante
escalerillas
escapada
escape
escapebrackets
escapes
escate
esce
escena
escenas
esclava
esclavitud
esclavos
escoba
escobar
escobedo
escocia
escogidas
escogidos
escolar
escondido
escorial
escriba
escribe
escribio
escribir
escrita
escritas
escrito
escritor
escritoras
escritores
escritos
escritura
escuadra
escucha
escudero
escudo
escuela
escuelas
escultura
ese
esencial
esfinge
esfuerzo
eslabo
esmeralda
esmo
esolutions
esopo
esos
espacio
espada
espadas
espaldas
espan
esparta
espasa
espe
especial
especiales
especialmente
espejo
espejos
espera
esperanto
esperanza
esperpento
espi
espinal
espino
espinosa
espinoza
espiritual
esplendor
esposa
espumas
esqueleto
esquina
esquivel
essay
essays
essential
essex
est
esta
estaba
estacio
estaciones
estadi
estado
estados
estadounidense
estaing
estambul
estampa
estampas
estanislao
estanque
estar
estas
estativos
estatua
este
esteban
estela
estenssoro
esterlina
estero
esther
esti
estilo
estival
esto
estos
estoy
estrada
estrategas
estrechamente
estrecho
estrella
estrellas
estremadoyro
estrena
estrenada
estrenado
estrofa
estructura
estruendo
estuardo
estuardos
estudiante
estudiantes
estudio
estudios
esuatini
eswatini
et
etal
etc
etcheverry
ete
eterna
eternidad
eterno
ethel
ethics
eti
etienne
etiopia
eu
eua
euahik
eucariota
eudes
euge
eugene
eugenia
eugenio
eulalia
eulogio
eure
euro
europa
europe
europea
europeo
euse
eusebio
euskal
eustacia
eustaquio
eutimio
ev
eva
evaluation
evangelio
evangelista
evans
evaristo
evedardo
eveling
evelio
even
evenhuis
evening
event
ever
everest
evert
every
everybody
everyone
evil
evo
evocacio
evolucio
ex
exa
exaltacio
exaltacion
exaltaciun
exaltasyun
exalto
examen
example
examples
excelsior
excepciones
except
exception
exceptions
exclude
excrecio
exe
executive
exhalataciun
exhaltasyun
exhaust
exhumada
exigen
exil
exile
exilio
exist
existan
existe
existen
existencia
existencialismo
existing
exists
exit
exo
exp
expected
expecttype
expedicio
expediente
experanza
experience
experiencia
experiment
experimentacio
experimental
explicado
exploradores
explosivo
exponent
exported
exposicio
expresan
expresar
expresio
expresiones
expreso
express
expression
expstr
expulsio
ext
extended
extendida
extensa
extension
exterior
exteriores
external
externos
extra
extract
extracted
extracto
extran
extraneous
extranjero
exupe
eye
eyes
eyzaguirre
ez
ezequiel
ezio
ezra
f
fa
fabia
fabian
fabio
fabricante
fabulosos
face
facebook
facio
fact
factor
facultad
facundo
fahrenheit
fail
failing
fails
faique
fajardo
falco
falcon
falcone
falerina
fall
falla
fallecimiento
falls
false
falte
fame
familia
familiar
familiares
familie
famille
family
famous
fan
fanfani
fangio
fania
fanning
fanny
fano
fans
fanta
fantasi
fantasma
fantasmas
far
farewell
farfa
fargs
fari
farias
farin
faro
farro
farrugia
farsa
farsas
farther
fasabi
fasanando
fatal
fatima
faulkner
faunapas
faustino
fausto
faustus
fava
favio
favor
favorita
fc
fe
featured
featuring
febrero
february
fecha
fechas
federacio
federal
federer
federico
fedia
feeling
feet
feijoo
feira
felice
felices
feliciano
felicidad
felimo
felipe
felix
feliz
female
feminine
feminismo
femme
femmes
feno
fenomenolo
fer
ferdina
ferdinand
ferenc
fermento
fermi
fermin
ferna
fernandini
fernando
fero
feros
ferramonti
ferrand
ferrari
ferreira
ferren
ferrer
ferreyros
ferri
ferro
ferrocarril
ferry
festejos
festival
fetch
fever
few
fez
ff
fft
fi
fiat
fica
ficas
ficcio
ficha
fico
ficos
fiddler
fidel
fidencio
fides
fiebre
fiel
field
fields
fiera
fieras
fierro
fiesta
fiestas
fifa
fifth
fifty
fight
fighting
figs
figueroa
figuerola
figura
figuras
figures
file
fileno
filiberto
filin
filinto
filipi
filipinanaka
filis
fill
fille
film
filmada
filo
filomena
filoso
filosofi
filotea
fim
fin
fina
final
finalista
financiera
find
finds
fine
fineza
finger
finland
finn
fiore
fire
firenze
firma
firme
firmeza
first
firstn
fiscal
fisher
fisherman
fisika
fito
fitzcarrald
fitzgerald
five
fix
fixed
fixup
fixups
fk
fl
flabellifer
flag
flags
flakoll
flamenco
flamengo
flappers
flauta
flavio
flexivas
flic
flight
flint
flip
flipped
flo
floating
flood
floor
flor
flora
floreano
florence
florencia
florencio
florentino
flores
florez
floria
floriano
florida
floro
flow
flower
flowers
fluid
fluminense
flynn
fm
fmargs
fmbox
fmt
fntc
fo
foe
fogo
fokker
foldef
folios
folk
folklo
folklore
folleto
follow
followed
following
follows
folly
fona
fonavistas
fondo
fondos
fone
fono
fonseca
font
fontaine
fontana
fontenay
fontsize
foo
fools
foot
football
for
forastero
force
ford
foreign
forest
forever
forget
forgotten
forjadores
form
forma
formacio
formas
format
formatattributes
formatdate
formatinlanguage
formatmessage
formato
formats
formatspattern
formatted
formatting
forme
formosa
forms
foro
forrest
forschung
fort
fortaleza
fortnight
fortuna
fortunata
fortunato
fortune
forward
fosforo
foto
fotografi
fotos
fotosi
found
foundation
fountainhead
four
fourth
fox
fr
frac
fracaso
fracpart
fraction
fracture
fradique
fraga
fragment
fragmento
fragmentos
fraklin
frame
frameless
franc
franca
france
frances
francesa
francesca
francesco
franceses
franche
francia
francis
francisca
francisco
franciscu
franciscus
francisku
franco
frank
frankfurt
frankie
franklin
franz
frases
frasis
frau
fray
fre
fred
freddie
freddy
fredemo
frederick
frederihs
fredesvindo
fredy
free
freedom
frenata
french
frente
frepap
freud
freyre
fri
frias
frica
frid
frida
friedemann
friedrich
friend
friesian
friso
fritz
froila
from
frondizi
front
frontera
fru
fructuoso
frutas
fruto
frutos
frutti
fryderyk
fsln
ft
ftin
ftlb
ftlbf
fu
fudge
fue
fuego
fuegos
fuel
fuente
fuentes
fuera
fueron
fuerte
fuertes
fuerza
fuerzas
fuga
fugaz
fujimori
fulgencio
fuliginosus
full
fullurl
fumagalli
fumec
function
functions
fundac
fundacio
fundador
fundamentales
fundamentos
funeral
funerales
funes
furcatus
furia
furias
fury
fuscus
fustamante
futura
future
futuro
g
ga
gaba
gabino
gable
gabriel
gabriela
gaburr
gaburri
gadea
gado
gaetano
gafotas
gagarin
gago
gainsborough
gaite
gal
gala
galarreta
galarza
galas
galatea
galaxia
galbusera
galdo
galeano
galecio
galeri
galeria
galia
galicia
galilei
galileo
galindo
gallac
gallardo
gallega
gallego
gallegos
gallery
galli
gallimard
gallinazo
gallinula
gallo
gallon
gallons
gallop
galo
galva
galvarriato
gama
gamal
gamarra
gambini
gamboa
gambya
game
gamero
gamez
gamma
gan
ganado
ganador
ganadora
ganas
gandhi
gangster
gap
gaps
gara
garate
garay
garayar
garbo
garci
garcia
garcilaso
gardel
garden
gardiner
gardner
garfias
garibaldi
garibaldinos
gariza
garland
garmendia
garner
garnier
garonne
garrido
garrincha
garro
garuma
gary
gas
gasa
gasco
gaseosas
gaslight
gasnier
gasoline
gaspar
gasparri
gasperi
gasset
gassion
gastelo
gastelu
gasto
gates
gatico
gato
gatos
gauguin
gaulle
gauss
gautama
gavaldo
gavidia
gavila
gavilano
gavino
gavio
gaviota
gavioti
gavrilo
gazeta
gco
ge
geese
gehalten
gelacio
gelatina
gelder
geldre
geldres
gemma
gena
genaro
genas
gender
gene
genei
generacio
general
generales
generally
generalmente
generate
generated
generates
generational
generic
generosa
genes
genet
genghis
genio
genios
genius
geno
genova
genoveva
genre
gente
geoffrey
geogra
geografi
geologi
geometri
georg
george
georges
georgia
ger
gerais
gerald
gerard
gerardo
gerhard
germa
germain
germaine
german
germany
gero
gertrudis
gerundio
gervasio
geschichten
gesi
gesta
geste
get
getargnums
getargs
getbeststatements
getcontentlanguage
getcurrentframe
getcurrenttitle
getenvironment
getlabelbylang
getlabelwithlang
getmetatable
getnamespaceparameters
getparammappings
getparent
gets
getsnak
gettitle
gettitleobject
getu
ghali
ghana
ghiraldo
ghost
ghosts
gi
giacomo
giampiero
gianni
gibaja
gica
gicas
gico
gicos
gif
gigalitre
gigantes
gigatonne
gigawatt
gil
gilber
gilbert
gilberto
gilder
giles
gill
gilles
gilma
gilmer
gime
gimen
gina
ginas
gino
gioachino
giomar
giorgio
giovani
giovanna
giovanni
gira
giraldo
girl
girls
giro
giscard
giuliano
giulio
giura
giuseppe
giussepina
give
given
gives
gj
gje
gl
gla
gladys
glama
glasgow
glaucescens
glaucoides
glenn
glicerio
glifo
glo
global
globals
globo
glodoaldo
gloria
glorias
glorioso
glory
glu
glypotek
gmatch
gmol
gn
go
gob
gobernador
gobierno
god
godfather
godfrey
godofredo
godos
godoy
gods
goes
goethe
gogh
goia
goias
gold
golda
golden
goldman
golfo
golpe
gomel
gon
gonc
gonza
gonzaga
gonzales
gonzalez
gonzalo
good
google
gora
goras
gordillo
gordon
gorgor
gorila
gorki
gorriti
gos
got
gov
goya
goyeneche
goyo
gozar
gr
gra
grabaciones
grabado
grabados
grabar
grace
gracia
graciano
gracias
graciela
gradient
grado
grados
graduation
graf
grafo
graham
grain
gram
grama
gramatical
grams
gramsci
gran
granada
granadas
granados
grand
granda
grande
grandes
grandez
granier
grant
grapes
grass
grasyua
grata
grau
gravedad
graves
gravitacio
gray
great
greater
greatest
grecia
greco
gredos
greek
green
greene
greer
gregoria
gregorian
gregoriano
gregorio
gregory
grenadinak
gret
greta
gridcolor
griego
griguryu
grimaldi
grimaldo
grimas
gripe
gris
grisya
grito
gro
grocio
grohmann
grossa
grosso
group
grouping
groups
groupsgroups
grove
grover
grudy
grueso
grundel
grupo
gs
gsub
gt
gu
gua
guadalajara
guadalcanal
guadalupe
guadalupito
gualamita
gualberto
guanajuato
guano
guaracha
guarany
guardar
guardia
guardian
guatemala
guaviare
guayaba
guayaquil
guayasami
gubbio
gubirnadur
gudberto
guedez
gueiler
gueorgui
guerra
guerre
guerrero
guerrilleros
guest
guevara
guez
guglielmo
gui
guide
guidino
guido
guijarro
guila
guilin
guille
guillermo
guillot
guin
guio
guiones
guionista
guirnalda
guirnaldas
guitarra
guitarrista
guivin
guizado
gula
gullo
gulo
gulos
gumercindo
gun
gurgurillu
gusta
gustativo
gustav
gustave
gustavo
gusto
gustos
gutarra
gutenberg
gutie
gutierrez
guy
guyane
guys
guz
guzma
gw
gy
gyo
h
ha
haaretz
hab
habana
haber
habi
habitantes
habla
hablada
hablar
hablemos
habri
hace
hacer
hacha
hachcha
hachchayaya
hacia
hacienda
had
hado
hagman
hague
hair
hakas
haki
hakira
haley
half
halire
hall
hallka
ham
hamalka
hambre
hambrientos
hamburg
hamburgo
hamilton
hamlet
hammersmith
hammurabi
hampshire
han
hanan
hanaq
hancco
hancock
hand
handbuch
handle
handled
handler
handlers
handlersk
hands
hannah
hannover
hans
hansberry
hap
happened
happy
hara
harada
harawi
hard
hardin
harding
hardy
harlem
harley
harlow
harmental
haro
harold
harriet
harris
harrison
harry
hartford
hartlaubii
hartum
haruki
harvard
has
hassan
hasta
hatun
hatunqulla
haug
haunted
haus
haute
hauts
havana
have
havel
haven
havilland
having
hawa
hawai
hawaii
hawks
hay
haya
hayde
haydee
haydn
hayre
haystack
hdl
he
head
heading
headingfontsize
headingstyle
heart
heat
heath
heaven
heavy
heavyweight
hebert
hebreo
hecho
hechos
hectare
hector
hedges
heeren
heermanni
heidegger
height
heinrich
heinz
heisenberg
heiser
helado
helarf
helen
helena
helene
heli
helio
hell
helmer
helmut
help
helper
helsinki
hemingway
hemisphere
hemprichii
henares
hendrik
hendrix
henri
henriette
henrik
henry
hepburn
her
hera
heraclio
heras
heraud
herben
herbert
hercegovina
hercilio
hercule
herdy
here
heredia
herencia
heriberto
herman
hermana
hermanas
hermann
hermano
hermanos
hermelinda
hermenegildo
hermes
hermilio
hermine
herminia
herminio
hermo
hermosa
hermosillo
hermosura
hermoza
herna
hernan
hernandez
hernando
hernani
herodoto
heroes
heroi
heroico
herr
herrada
herrera
hertz
herzegovina
hesse
hessen
hesuspa
het
heuglini
heure
heureuse
hh
hi
hiascara
hickory
hidalga
hidalgo
hidden
hide
hidra
hidro
hielo
hierarchy
hierro
hierunimu
high
highest
higinio
hija
hijas
hijo
hijos
hilaire
hilandera
hilario
hilariun
hilasaca
hilbeck
hilda
hildebrando
hildebrandt
hildegard
hilder
hill
hillary
hills
hilton
him
himalaya
himno
himnos
himself
hindalicio
hindi
hines
hiniral
hinojosa
hinostroza
hiperbo
hiperio
hipertensio
hipo
hiqitipiqi
hiquise
hiriberto
hirkan
hirohito
hirsikuwina
hirunimu
his
hispa
hispano
hispanoame
hispanoamericana
hispanohablantes
histo
histoire
histon
historia
historial
historias
historic
historical
history
historylink
histrio
hisus
hisuspa
hisusps
hisuy
hit
hitchcock
hitler
hits
hiver
hiwya
hizo
hkey
hl
hm
hnel
ho
hoa
hoffman
hogar
hohberg
hoja
hojas
hoje
holanda
holande
hold
holding
holds
holgui
holiday
hollow
hollywood
holmes
holocausto
holstein
holy
hombre
hombres
hombro
home
homem
homenaje
homero
homme
hommes
homo
honda
hondo
honduras
honeymoon
hong
hongo
hongos
honolulu
honor
honorable
honorato
honore
honores
honori
honoria
honorio
honoris
honra
honradez
hoover
hope
hora
horacio
horario
horas
horca
horizon
horizontal
horizonte
horizontes
hormiga
horna
horne
horri
horrible
horror
horroroso
horse
horsepower
horses
hortalizas
hortensia
hospital
host
hostname
hot
hotel
houghton
hound
hour
hours
house
houston
how
howard
however
hoy
hoyos
hp
hpa
hph
hs
hsi
htm
html
http
https
hu
hua
huac
huaca
huacallo
huacani
huachaca
huacho
huachos
huahua
huahuasoncco
huaira
huaita
huakachina
huallaqa
huallaqui
huallpa
hualpa
hualpe
hualqui
huama
huamala
huamali
huamancaja
huamanculi
huamanga
huamani
huamann
huamanrimachi
huamantica
huambo
huan
huanaco
huanca
huancabamba
huancahuari
huancane
huancas
huancavelica
huancayo
huanchaco
huanchi
huandoy
huang
huanta
huanuco
huapaya
huarac
huaraca
huaracina
huarancca
huarango
huaraz
huarca
huarcaya
huari
huaringa
huarizueca
huaroc
huarochirana
huarochiri
huarza
huashuayo
huasos
huatl
huauya
huayama
huayana
huayca
huayhua
huaylia
huayllani
huayn
huayna
huaynacari
huaynacho
huaynate
huayta
huber
hubiera
hubo
huch
huchusuma
huckleberry
hudson
hue
huehuetoca
huellas
huerga
huerta
huertas
huerto
huey
hueypoxtla
hugh
hughes
hugo
huilber
huillca
huillka
huit
huittoccollo
huk
hulkan
hullaqa
humala
human
humana
humanidad
humanidades
humanismo
humanista
humano
humanos
humareda
humay
humberto
humboldt
humphrey
hun
hundredweight
hung
hungri
hunin
hunkariya
hunt
hunter
huraca
hurdanya
hurtado
hus
husiy
huso
huston
husy
huver
huwan
huyhua
hy
hyde
hydrocoloeus
hyperboreus
hyphen
hyphenated
hyphens
i
ia
iba
ibague
iban
ibarra
ibdb
ibe
iberoamericana
ibrahim
ica
icaco
icaic
icaza
ice
ich
icha
ichana
icharati
ichata
ichhupampa
ichi
ichipa
ichipatxa
ichit
icht
ichthyaetus
ichukan
ichun
icon
iconografi
id
ida
idaho
idcommon
ide
idea
ideas
idelfonso
idem
ident
identical
identidad
identified
identifier
identifiers
identifies
identify
ideologi
idilio
idioma
idiomas
idiot
ido
ids
idx
idxformat
iempsa
ietf
if
ifigenia
iga
iglesia
iglesias
iglu
ignacio
ignaciu
ignore
ignored
ignoring
igo
igual
iguana
iguez
ihp
ii
iii
ijitaki
ik
ika
ikanan
ikcha
ikhi
ikhuki
ikhukirakiwa
ikin
ikipxiwa
ikt
ikunumista
ikwadur
il
ila
ilanda
ilario
ilawaya
ildefonso
iler
ilfov
ili
ilich
ilik
ilina
illa
illampu
illawi
illescas
illia
illima
illimani
illimu
illinois
illiw
illka
illkaymarka
illkha
illu
illump
illumpit
illuwa
illuyu
ilo
ilu
ilusiones
ilust
ilustracio
ilustraciones
ilustrada
ilustrado
ilustre
ilustres
im
ima
image
imagecelldiv
imagecheckblank
imageemptycell
imageemptycellstyle
imageleft
imageleftcell
imagen
imageright
imagerightcell
imagerightnone
images
imagesize
imaginacio
imaginaire
imaginario
iman
imantasipxi
imasin
imax
imaza
imbe
imbert
imbox
imdb
imfb
imilla
immanuel
immediately
imp
imperativo
imperfecto
imperial
imperialismo
imperio
impersonales
impgal
impi
implements
implied
import
importa
importancia
important
importante
imported
imposible
impoz
imppt
impqt
impr
imprenta
impresiones
impreso
impresos
impropios
impulse
imre
in
ina
inacabada
inactive
inak
inaka
inakana
inakax
inakuy
inalmam
inalmamax
inampari
inas
inauguracion
inaugural
inawaya
inawisa
inc
inca
incahuanaco
incaica
incaroca
incas
incendio
inch
inches
inchupalla
incident
incienso
incierta
incla
inclinado
include
included
includemetatable
includes
including
incluida
incluido
incluirse
incluso
incluye
incluyen
incluyendo
incluyo
incompleta
inconclusa
inconcluso
inconnue
incorrect
incorrectly
increi
increment
ind
indep
independencia
independiente
independientes
indepeniente
index
indexed
indexer
indi
india
indiana
indianapolis
indians
indias
indic
indicate
indicated
indicativo
indicator
indio
indios
indipindinsya
indira
individual
indo
indoeuropeas
indonesia
indunisya
industria
industrial
industrias
indya
ine
inei
inessa
inext
infancia
infanta
infantas
infante
infantil
infantiles
infeccio
infierno
infinitivo
infinitivos
infinito
inflamacio
influencia
info
infogob
infopesa
informa
informacio
information
informe
infrarroja
infusiones
inga
ingavi
ingenio
ingenioso
inglaterra
ingle
ingles
inglesa
inglish
inglisuyu
ingmar
ingres
ingrid
inguilpata
inhabitant
inhabitants
inherit
inhin
ini
initial
initials
ink
inka
inkanakax
inkat
inkawasi
inkax
inkh
inkha
inkhanaka
inkhapa
inkikuna
inkinaka
inklis
inklish
inlatirra
inlatirraxa
inlb
inlbf
inlis
inlish
inlisya
inmaculada
inmakulada
inmortal
innocence
innocents
innovacio
innovacion
inocencia
inocencio
inocente
inocentes
inofuente
inolvidables
inoqat
inout
inoz
inozf
input
inputs
inquisicio
inquisiciones
inquisidor
ins
insayu
insayunaka
insecta
insecto
insegna
insert
inserted
inset
inside
insiklikakuna
insiklikanaka
inspector
inspirada
inspirado
instanta
instante
instead
instituciones
institut
institute
institution
instituto
instruccio
instrumental
instrumento
instrumentos
inta
intawi
intawiri
inte
integ
integer
integers
integracio
integracionista
integral
integrando
intelectuales
intended
inter
interamericano
intercultural
interior
interlingua
intermezzo
internacional
internacionales
internal
international
internet
internetarchivebot
interpreta
interpretacio
interpretado
interview
interviewer
interviewerlist
interviewers
interwiki
intestino
inti
intimidad
intiurqu
intix
into
intocables
intransitivo
intransitivos
intro
introduccio
introducing
introduction
introductorias
intrusa
intruso
inuma
inv
invalid
invalidtypeerror
invalue
invariant
invasio
invencible
invencio
inventario
inventor
inventores
inventos
invernadero
invert
inverted
investigacio
investigaciones
investigates
invierno
invisible
invoke
involuntaria
ioannes
iosif
iowa
ipa
ipairs
ipariya
iparm
iparraguirre
ipata
ipenza
iprage
ipt
ipv
iq
iqa
iqi
iqimp
iqin
iqinchiri
iqinkiri
iqipax
iqipaxa
iqiptu
iqisqa
iqit
iqitus
iqt
iquen
iquique
iquitos
iqut
ir
ira
iraido
irakere
iraman
iran
iraqi
irasola
iray
ircash
irene
iri
iriarte
irigoyen
irina
irinaka
irinakan
irinakax
irineo
iris
irish
iriwa
irlandiya
irma
irnaqa
irnaqan
irnaqaraki
irnaqawi
irnaqir
irpiri
irpirin
irpirinak
irpirinaka
irpirinakan
irpirinakax
irpirix
irregular
irregulares
irregularidad
iru
irurita
is
isaac
isabel
isabella
isadora
isai
isaias
isakanaxa
isan
isaq
isaqa
isaqan
isaqanakana
isaqanakansti
isaqanakasti
isaqanakaxa
isaqax
isau
isauro
isbn
isca
isch
iscomplex
isella
isfirst
ishowspeed
isi
isidora
isidoro
isidro
isidru
isimira
isin
isinak
isinaka
isisin
isixa
isk
iskandariya
iskasin
iskay
isknownlanguagetag
iskuchaka
iskultur
iskus
iskusiya
iskusya
isla
island
islandiya
islas
islay
isle
isllipaxa
isluwaqiya
isluwin
ismael
ismaelillo
ismn
isn
isnegative
iso
isolde
isp
ispan
ispi
ispin
ispirantu
isqa
isqi
israel
israeli
israyil
iss
isset
issmall
issn
issubpage
issubstituted
issue
issued
issues
ist
ista
istadu
istadus
istadyu
istambul
istatua
istemperature
istemplatepage
isthapt
istiki
istrilla
istudyu
istun
isxn
it
ita
italaki
italia
italiana
italiano
italianos
italic
italics
italiya
italiyaxa
italo
italy
italya
itan
itapallu
itapallux
itata
item
items
iti
itikilla
itinerario
itipi
ito
its
itt
iturralde
iturrizaga
ituwata
itxa
iu
iv
iva
ivan
ivo
iw
iwa
iwaflores
iwari
iwax
iwayin
iwcha
iwi
iwij
iwija
iwijana
iwijanaka
iwijanakawa
iwijanakaxa
iwijaxa
iwis
iwisa
iwrukupa
iwrupa
iwrupana
iwrupapi
iwxt
ix
ixa
ixi
ixinakaniwa
ixisin
ixisxaphati
ixit
ixu
ixuq
iy
iya
iyan
iyanaka
iyar
iyara
iyarampi
iyarampitarakiwa
iyaranaka
iyaranakarakiwa
iyarawa
iyart
iyo
iz
izaga
izaguirre
izalco
izarra
izcalli
izq
izquierda
izquierdo
j
ja
jach
jacha
jachamarkapura
jachan
jachapxi
jachapxixa
jachha
jachi
jachiri
jacinta
jacinto
jacintu
jack
jackson
jacob
jacobo
jacobus
jacques
jae
jagger
jaguar
jahrhundert
jaime
jaimes
jairzinho
jak
jaka
jakan
jakapxi
jakapxiwa
jakarta
jakasi
jakasin
jakasipxi
jakasir
jakasiraki
jakasiri
jakasirinakax
jakasiriwa
jakawi
jakawiniwa
jakawipa
jakawipana
jakawipaxa
jakawisa
jakhu
jakhun
jakhunaka
jakhuri
jaki
jakir
jakiri
jakirinaka
jakiwa
jakob
jakt
jalantarusti
jalantarux
jalca
jaliri
jalisco
jaljata
jaljatawa
jalkiptawa
jall
jallu
jallumpiki
jalluntan
jallupacha
jallupachanx
jallus
jalluw
jalsu
jalsun
jalsurux
jaltenco
jam
jama
jamach
jamaica
jamak
jaman
jamch
james
jamhuri
jamis
jamp
jamuqa
jamuqan
jamuqanaka
jamuqax
jan
jana
janampa
janchi
janchina
janchini
janchipa
janchipaxa
janchiru
janchiwa
janchixa
jane
janeiro
janet
jangas
jani
janicha
janikiw
janikiwa
janipuniw
janir
janira
janirakikiw
janirakiw
janirakiwa
janirkuch
janis
janit
janiw
janiwa
janjamakiw
jank
janos
janq
janqu
jansen
jant
january
japanese
japo
japon
japone
japonesa
japxi
jaq
jaqaypi
jaqe
jaqejh
jaqen
jaqhatatawa
jaqi
jaqichasin
jaqimp
jaqimpi
jaqin
jaqina
jaqinak
jaqinaka
jaqinakan
jaqinakana
jaqinakapa
jaqinakar
jaqinakaru
jaqinakarux
jaqinakas
jaqinakatakixa
jaqinakaw
jaqinakawa
jaqinakax
jaqinakaxa
jaqinaqa
jaqinsa
jaqipax
jaqiq
jaqir
jaqiru
jaqiruw
jaqisa
jaqitaki
jaqiw
jaqix
jaqixa
jaqt
jaque
jaqukipan
jaqukipata
jar
jara
jaramillo
jarana
jarani
jarapi
jararankh
jararankhux
jarawi
jarawinaka
jarawiri
jardi
jardin
jardines
jardins
jarisin
jarisipxiritayna
jarisipxiwa
jariyan
jark
jarkiri
jaro
jarpa
jas
jasa
jasak
jasaki
jasakiwa
jasax
jasi
jasiraki
jasirakispa
jasispa
jaskiti
jason
jat
jata
jatayna
jatha
jathinakanirakiwa
jathinipxarakiwa
jathinirakispawa
jathirakiwa
jatun
jau
jauja
jaulis
jauregui
javascript
javier
jawaharlal
jawari
jawas
jawasa
jawillt
jawir
jawira
jawiranaka
jawirawa
jawirax
jawiri
jawq
jawsan
jaxu
jay
jaya
jayanak
jayanca
jaychjas
jaychjasisa
jayllin
jaylliphust
jayllt
jayo
jayp
jayriya
jayriyan
jaysa
jaytanin
jayu
jayuk
jayun
jaza
jazz
je
jean
jeanette
jeanne
jeberos
jefe
jeff
jefferson
jehova
jeiner
jempe
jenaro
jenner
jenny
jepelacio
jeremi
jerewan
jero
jersey
jerusale
jerusalem
jesse
jesu
jesucristo
jesus
jeu
jfm
jhenny
jhoni
jhonny
ji
jiang
jicha
jichh
jichha
jichhakamax
jichhapach
jichhasti
jichhax
jichhu
jichhump
jichhurunakanx
jichhurunakanxa
jichhurunakkamasa
jik
jikhan
jikhani
jikhatasipxi
jikhatasipxiwa
jikjatasini
jikxatan
jikxatapxaraki
jikxatapxi
jikxatasi
jikxatasipxi
jil
jila
jilapkiti
jilapxi
jilaqataw
jilasipxaraki
jilat
jilata
jilatanaka
jilax
jilguero
jili
jilili
jilir
jiliri
jilpach
jilpacha
jilpachapinix
jilpachax
jilpachx
jilt
jim
jime
jimeno
jimmy
jimo
jinchu
jinchunakapaxa
jinchuni
jinchupaxa
jinq
jintao
jiphilla
jiphillampi
jiphillampixa
jiqhatasiwa
jiqxatasi
jirafa
jiri
jiries
jiruta
jisk
jiskt
jisnawa
jist
jisucristu
jiwa
jiwaki
jiwakiwa
jiwan
jiwasan
jiwasanakan
jiwasax
jiwat
jiwata
jiwayiri
jiwq
jiwra
jiwxi
jne
jniw
jo
joa
joan
joaqui
joaquim
job
jobs
joe
joel
jogo
johan
johann
johanna
johannes
john
johnny
johnson
johon
join
joiner
joins
joinville
jona
jonathan
jonava
jonavos
jones
joplin
jorda
jordania
jorge
jornada
jornadas
jornal
jose
josef
josefa
josefina
joselito
josep
joseph
josephine
josi
josue
joule
journal
journals
journey
joven
jovito
joya
joyce
jpg
jr
jrushchov
js
json
jstor
jt
ju
jua
juajui
juan
juana
juaneco
juanjui
juarez
jubilar
juch
juchani
judas
judenaka
judet
judge
judi
judicial
judit
judith
juego
juegos
jueves
juez
juicio
juipa
juiyphi
jujuy
juk
juka
jul
jula
julca
jules
juli
julia
juliaca
julian
julie
julieta
julio
julius
julve
july
jumanakataki
jumbilla
jun
june
jung
junge
jungla
jungle
juni
junin
junio
juniors
junk
junt
junta
junto
juntos
juntu
jupa
jupajj
jupan
jupanakakiw
jupanakan
jupanakar
jupanakarux
jupanakast
jupanakasti
jupanakat
jupanakatakix
jupanakaw
jupanakawa
jupanakax
jupanakaxa
jupanakpachax
juparux
jupasti
jupaw
jupax
jupaxa
jupha
juphamp
juq
juqhu
jurado
juraj
juramento
juran
jure
juremos
juri
jurma
juro
jury
juscelino
jusiy
jusiya
just
justa
justice
justicia
justin
justina
justiniano
justino
justo
justupakiw
justuruw
jutan
jutapxi
jutapxiri
jutatayna
juti
jutir
jutiri
jutiriwa
jutki
juvenal
juvenil
juveniles
juventud
juventus
juwao
juwri
juyakiwa
juyphi
juyphin
juyphix
juypi
juyra
juyranak
juyranaka
juyranakax
jxa
k
ka
kaahumanu
kabwe
kachi
kachimayu
kachura
kadilarya
kafka
kahlo
kahn
kai
kaiserslautern
kalamina
kalanku
kalita
kallachi
kallao
kallawaya
kallkis
kallpa
kam
kama
kamachi
kamachinak
kamachiq
kamalich
kaman
kamana
kamanana
kamananxa
kamani
kamanix
kamanti
kamasqa
kamaw
kamax
kamayuq
kamilaqa
kamin
kamisatix
kampala
kampiunatukuna
kampiunatunaka
kamri
kan
kanada
kanamarka
kanarya
kanata
kancha
kanchapampa
kanchaqi
kanchar
kanchayllu
kandilarya
kanka
kankallu
kankan
kansas
kansillir
kant
kanta
kantarawi
kanti
kantunnaka
kantuyux
kapac
kapachika
kapchiy
kaphiy
kaphiyax
kapill
kapilla
kapillas
kaplina
kappelhoff
karachi
karakas
karakisa
karakiti
karangas
karen
karin
karkin
karl
karloff
karlos
karmin
karnawalnaka
karqa
karqan
kartulsuyu
kartun
karu
kashamarkilla
kasharuru
kaskas
kasma
kassel
kast
kasta
kastanaka
kastanakarakiwa
kastanakax
kastaru
kastawa
kastaxa
kastill
kastilla
kastillanu
katalina
katari
katataxa
kate
kategori
kategorie
katharine
katherine
kathidral
kathuliku
katia
katidral
katjan
kato
katu
katun
katuqan
katuqapxatayna
katuqapxi
katuqirinaka
katuqt
katuri
katusin
katusipxi
katusiri
katxasiri
katz
kautivu
kawallu
kawalluqucha
kawapanas
kawkhans
kawkhantix
kawkharus
kawkintixa
kawkiriti
kawkirus
kawkit
kawknir
kawri
kawsachkanku
kawsay
kay
kaya
kaykay
kaylluma
kaypipas
kayran
kayrani
kayu
kayump
kayunakapax
kayunakapaxa
kayuni
kboe
kcal
kci
ke
kean
keep
keighley
keiko
kekule
keller
kellkata
kelly
kelvin
kenji
kennedy
kenneth
kenning
kentucky
kenya
kern
kerning
kerte
kev
kevin
kevt
key
keynes
keys
keyserling
keyword
keywords
kg
kgco
kgf
kha
khalifa
khallka
khan
khana
khanaka
khananaka
khari
kharin
khatatirinakawa
khaya
khaysa
khillaypampa
khirkhi
khithiti
khitis
khituta
khiwin
khiwt
khuchhi
khuchhix
khullu
khulluna
khullunakana
khullunakaxa
khunu
khunus
khusu
khuyapayiri
khuysar
ki
kichis
kichwa
kid
kiel
kikacha
kikihana
kikipa
kiko
kikongo
kikpa
kilawani
kilimanjaro
kill
killapampa
killapi
killer
killing
killki
kilmana
kilo
kilocalorie
kilocalories
kilogram
kilogramo
kilograms
kilojoule
kilojoules
kilolitre
kilometer
kilometers
kilometre
kilometres
kilomole
kilomoles
kiloton
kilotonne
kilotonnes
kilowatt
kilunaka
kim
kimica
kimika
kimiku
kimsa
kimsani
kimsaqallqu
kimsaqalq
kimsar
kimsaw
kimsi
kimsiri
kin
kinchis
kind
kinder
king
kingdom
kinistakilla
kinks
kinsa
kinuqay
kinwa
kipan
kipka
kipkakiwa
kipkaraki
kipkarakiwa
kira
kirakiw
kirawara
kirche
kirchner
kiristi
kiriti
kirk
kis
kiskachay
kiskaniwa
kiski
kiss
kisu
kisump
kisus
kisuwa
kiswar
kiswara
kitara
kitarovic
kiti
kitjata
kitu
kitula
kiw
kiwa
kiyaqa
kiyorxiya
kj
kk
kl
klasisismu
kleine
klub
klubnaka
km
kmol
kn
knight
knights
knockout
knoff
knopf
knot
know
known
knox
ko
kobayashi
kobenhavn
koch
kocsis
kodama
kofi
kohl
kolinda
kommentare
kong
konrad
kopa
kotapata
kouri
kozmic
kpa
kramer
kraus
krause
kristen
kristobal
kristu
kristuwal
kro
krull
krus
krusiru
krusnaka
kruwatiya
kruz
kruznaka
ks
kt
kttnt
ku
kuba
kubitschek
kubrick
kucharkas
kuchawampa
kuk
kuka
kukachakra
kukapampa
kukaxa
kulasay
kulka
kullaka
kullakanaka
kullakanakaw
kullakanakax
kulta
kulumbu
kulunya
kuluwya
kumaratunga
kumbinsyun
kuminista
kumpa
kumpiladunaka
kumunista
kun
kuna
kunalaykutix
kunalaykutixa
kunamatsa
kunampis
kunanakas
kunanakati
kunanaks
kunapachas
kunapachati
kunapachatix
kunapachatixa
kunapxarakiriwa
kunaraki
kunarakiw
kunarakiwa
kunas
kunasa
kunata
kunatakis
kunatakisa
kunati
kunatix
kunatixa
kunats
kunatti
kunaw
kunawrasatix
kunawsati
kunawsatix
kunayman
kunaymana
kunaymanaw
kunaymani
kunaymanwa
kunjam
kunjama
kunjamas
kunjamasa
kunjamati
kunjamatix
kunjamats
kunjams
kunjamsa
kunka
kunkankiwa
kunrak
kuns
kunsa
kunsijiru
kunsijirunaka
kunsipsiun
kunsipsyun
kunsiypsiun
kunsthistorisches
kuntamana
kunti
kuntininti
kuntisuyus
kuntur
kunturiri
kunturirix
kunturkanki
kunturmarka
kunturuma
kupa
kupakawana
kupanaka
kupi
kupisniki
kuraka
kurakakuna
kurakanaka
kuraqwasi
kurasku
kurasun
kurazon
kurimana
kuriya
kurkulla
kurosawa
kurt
kuru
kurunku
kururu
kusa
kusi
kusikancha
kusikusi
kusipata
kusisin
kust
kustarika
kustarikapa
kut
kutapampa
kutawasi
kuti
kutis
kutiw
kutiwa
kutix
kutt
kuwait
kuysmanku
kuyu
kuyuq
kv
kw
kwame
kwh
københavn
l
la
labarta
label
laberinto
labor
labrador
labradur
labruna
lacagta
lachaqui
laden
ladera
ladies
ladimir
ladislao
lado
ladrillo
ladro
ladrones
lady
laga
lagarto
lago
lagos
laguna
lagunas
laime
laines
laj
laja
lajas
lak
laka
lakan
lakanakan
lakanakaru
lakata
lakaxa
lake
lakit
lakita
lalaquiz
lama
lamar
lamara
lamarapi
lamarque
lamas
lamay
lambayeque
lambert
lampa
lampalliqi
lampiyan
lamrama
lamud
lana
lanceros
lanchipa
lancones
land
landa
landes
landi
landing
landkreiskarte
lang
langcode
langer
langosta
langston
language
languages
languedoc
lanka
lankhu
lanki
lansing
lanti
lantix
lanzarote
lao
lap
lapa
lapak
lapaka
laphi
laq
laqakirakiw
laqayanaka
laquita
laqunaka
lar
lara
laram
larama
laramarka
laramati
laraw
larceny
larco
laredo
larga
large
largo
largometraje
lari
laridae
laris
larqay
larrea
larriva
larry
larus
larya
las
laso
laspra
last
lastarria
lastenia
lastfirst
lastfirsttable
lastn
lat
latajamach
late
later
lati
latin
latina
latino
latinoame
latinoamericana
latinoamericano
latinu
latm
latn
latte
latter
lau
laura
laure
laureano
laurel
lauren
laurent
laurente
lauriano
lauricocha
lavado
lavalle
lavalleja
lavarello
lavinia
lavoe
lavoisier
law
lawa
lawan
lawanakat
lawata
lawaytampu
lawrence
lawriqucha
laws
laxra
laxrampi
laxrapa
lay
laya
laydate
layformat
laykuw
layme
laysource
layu
layurl
lazo
lb
lbco
lbf
lbfft
lbm
lbmol
lbum
lbumes
lbumnaka
lc
lcar
lccn
lchez
lculo
lcwt
ld
le
leader
leading
leaf
league
leal
lealtad
leandro
leap
least
leave
leaves
lebres
lebu
lecca
lecciones
lech
leche
lector
lectores
lectura
lecturas
led
leda
ledesma
lee
leerner
left
legacy
legal
legend
legende
legio
legion
legionarios
legislativo
legua
leguapi
legui
legumbres
leibniz
leiden
leipzig
leite
leiva
lejana
lejanos
lejos
lelis
lema
lemus
len
length
lengua
lenguaje
lenguas
lenin
lennon
leo
leocadio
leon
leonard
leonardo
leoncio
leone
leoni
leonid
leonidas
leonor
leopoldo
lepoldo
leque
lera
lerche
lerdo
lerma
lermo
les
lescano
leslie
less
let
leticia
letra
letras
letter
letterdigit
letters
lettres
letzte
leucocitos
leucophaeus
leucophthalmus
lev
levantado
levanto
leveau
level
levels
levi
levis
lewis
lex
lexema
lexus
ley
leyenda
leyendas
leyendo
leymepampa
leyva
lez
lezama
lezcano
lhs
li
lia
liang
libanu
liberace
liberacio
liberal
liberalismo
libertad
libertador
libertadur
liberto
libido
libor
libra
library
libraryutil
libre
libreri
libres
libreto
libri
libro
libros
libya
lic
lica
licas
license
licet
lichi
lico
licos
licupis
lid
lida
lidas
lidia
lidiar
lido
lie
liebre
liedes
lienzo
lietuvos
liextinstin
life
ligera
light
lighthouse
ligia
liho
lik
lika
like
lila
lilacs
lilas
lilia
lilian
liliana
liliuokalani
lille
lillian
lim
lima
limache
limachi
limapampa
limatampu
limber
limen
limit
limited
limo
limonero
limousin
limpani
limpias
lin
linares
lince
lincha
lincoln
linda
lindas
linder
lindley
lindo
line
linear
linegrey
lines
ling
linga
lingala
lingu
lingua
link
linkbox
linkclasses
linked
linkey
linking
linkn
links
linksdata
lino
linus
linux
lio
lion
lionel
lip
lipa
lipe
lipis
liq
liqi
liqiliqi
liquidacio
lira
lirio
lirqay
lisa
lisboa
lisieux
lisis
lissabon
lisso
list
lista
listado
listed
listing
listitems
listk
listparam
lists
liszt
lite
liter
literal
literaria
literarias
literario
literarios
literatura
literaturas
lito
litografi
litoral
litre
litro
litte
little
littlegreen
lituan
lituani
lituaniya
litun
liu
liv
live
livens
liverpool
lives
liveweb
livia
living
livre
livro
liwi
liwitaka
liwru
lix
lixwixa
liyun
liz
liza
lizana
lizardo
lizarralde
lizarzaburu
lk
ll
lla
llacsahuanga
llallagua
llalli
llama
llamada
llamado
llamados
llamas
llamay
llamayu
llamayun
llamillin
llamo
llamocca
llamosas
llamp
llamyu
llancari
llank
llano
llanos
llanqui
llanto
llapa
llapan
llapanchik
llaqanura
llaqta
llaqtakuna
llaqtam
llaqtap
llaqtapi
llaqtayuq
llar
llata
llatunka
llaves
llawta
llaylla
llega
llego
llempe
lleno
ller
lleras
llerena
lleva
llevan
llevo
llibres
llica
llicuar
lliju
llika
llimphinaka
llimphiri
llimphiy
llimphiynaka
llimphiyri
llimphyiri
llimphynaka
llink
llipa
llipata
lliuya
lloc
llona
llora
lloran
llorar
llore
llores
llosa
llover
lloyd
lluch
lluchiqa
llueve
llulluy
llumpa
llumpaqa
llunkumarka
lluq
lluqllapampa
lluqu
lluque
lluquxa
llusk
llust
lluta
lluvia
lo
loa
load
loaddata
loaded
loads
loaiza
loarte
loaysa
loayza
lobitos
lobo
lobos
loc
loca
local
localcase
locales
localidades
localized
locally
located
location
locators
loci
lock
loco
locos
locuitori
locura
log
logo
logos
loiber
loire
loja
lola
loli
lollobrigida
lolo
lomas
lombard
lon
london
londres
lonely
long
longar
longer
longinote
longmonth
longotea
longuita
lonya
loo
look
looked
looking
looks
lookup
loop
looz
lope
lopecancha
lopes
lopez
lorca
lord
lordi
lordly
loren
lorentz
lorenzo
lores
loretana
loreto
loretona
lorig
lorraine
los
losada
lossio
lost
lot
lota
loteri
lothar
louie
louis
louisa
louise
louisiana
lourdes
loustau
louvre
love
loved
lovers
low
lowell
lower
lowercase
loyola
loyseth
loza
lozada
lozano
lp
lsamo
lt
ltf
ltico
ltima
ltimas
ltimo
ltimos
lu
lua
luaargs
luanda
luar
lubre
luca
lucana
lucanas
lucas
lucca
lucero
luces
lucha
luche
luchemos
luchino
luci
lucia
luciani
luciano
lucidez
lucientes
lucila
lucio
luck
lucky
lucma
lucre
lucy
ludecino
luden
ludgerio
ludmilia
ludovico
ludwig
ludwigskirche
luego
luft
lugar
lugares
lugger
lugo
lugosi
lui
luigi
luis
luisa
luja
lujan
luk
luka
lukana
lukanamarka
lukma
lukri
lukruqa
lukumpa
lulas
lullaby
lulu
lumas
lumasa
lumen
lumie
luna
lunar
lunawana
lune
lup
lupa
lupaca
lupe
luperio
lupi
lupimp
lupimpi
luqa
luqan
luqmapampa
luqtan
luque
lura
luran
lurapxa
lurapxi
lurapxiri
lurapxiritayna
lurasi
lurasipki
lurasipxi
lurasirakispawa
lurasispa
lurasiwa
lurat
lurata
luratapax
luratataynawa
luratawa
lurawin
lurawinak
lurawinaka
lurawinakap
lurawinakax
lurayiri
luri
lurigancho
lurin
lurinzu
luriqucha
luriri
lurito
luritu
lurt
lusaka
lusinchi
lusiya
lutero
luther
luva
luxemburg
luximbur
luya
luyantu
luyo
luz
luzmila
luzuriaga
lvarez
lvaro
lvez
lvora
ly
lydia
lynch
lynchs
lyndon
lyngstad
lyon
lyonna
lyun
m
ma
maarten
mabel
mac
maca
macario
macavilca
macazana
macdonald
maceda
macedo
macedonio
mach
machaca
machado
machaq
machaqa
machel
machi
machiavelli
machine
machk
macho
machos
machu
machuca
machupitumarka
maci
maciste
maclean
macmillan
maco
macondo
macri
maculipennis
mad
madama
madame
made
madeira
madeleine
mademoiselle
madera
madero
madia
madingou
madison
madiyan
madonna
madre
madres
madrid
madrigal
madrilen
madrina
madriz
mae
maestra
maestro
maestros
mafaldo
mag
magalha
magallanes
magaly
magazine
magda
magdalena
magdalina
magic
magna
magnani
magnesio
magnetic
magnetizing
magni
magnificent
magnitude
magno
mago
magos
maguin
magyarorsza
mahatma
mahler
mahoma
mai
mailing
mailinglist
main
maincat
maine
mainnsname
maino
mainsnak
maint
maintenance
mainz
maior
maison
majestad
major
make
makecategorylink
makeda
makeinvokefunc
maker
makers
makes
makestartboxdata
makestartboxlinksdata
maketoolbar
makeurllink
makewikilink
makidun
makin
making
makis
maksim
makusani
mal
mala
malaria
malaver
malca
maldecir
maldecire
maldire
maldita
maldito
maldonado
male
maleco
malinalco
mallku
mallkux
mallorca
mallq
mallqui
malo
malos
malpartida
malqui
malta
mama
mamacha
mamajan
mamajax
mamami
maman
mamani
mamanixa
mamara
mamax
mambo
mamerto
mami
mamut
man
mana
management
managing
managua
manama
manantay
manantial
manas
manawa
manay
manayalle
mancha
manchego
manchester
manco
mandari
mande
mandela
mandinga
mando
mandriotti
mandura
manera
manet
manfredo
mango
manhattan
manifiesto
manila
manizales
manku
mann
mano
manolito
manolo
manon
manos
manq
manqan
manqaphi
manqha
manqhan
manqhana
manqhanakan
manqhanakaruw
manqhancha
manqhankarakiwa
manqhankiri
manqhankiwa
manqhanxa
manqhar
manqharu
manqhi
manqi
manrique
mansa
manserichi
mansfield
manso
manta
mantan
mantari
mantaru
mantasaxa
mantequilla
manti
mantienen
mantilla
manual
manuel
manuela
manuelcha
manuelita
manuelo
manuscrito
many
manyavilca
manzana
manzanares
manzanilla
manzano
mao
map
mapa
mapas
maplandia
mapping
mappings
mappingskey
mappingsnsname
mapurl
maq
maqa
maqari
maqati
maqhis
maquera
maqui
mar
mara
maradona
marakay
marakaywu
maramanta
maramba
maramures
maran
marana
maranaka
maranakan
maranakanx
maranakanxa
maranakata
maranakaw
maranakax
maranha
maranicha
maraninaka
marankani
maranura
maranw
maranwa
maranx
maranxa
maras
marat
marata
maravi
maravilla
maravillas
maravillosa
maraw
marax
maraxa
marc
marca
marcabal
marcas
marcavillaca
marcel
marcela
marcelina
marcelino
marcellin
marcello
marcelo
marcet
march
marchena
marcial
marciano
marcio
marco
marcona
marconi
marcos
marden
mardonio
mare
marea
mareomotriz
mares
margaret
margarita
margin
margot
margrethe
mari
maria
mariana
marianela
marianna
mariano
marido
marie
mariella
marilyn
marin
marina
marino
marinus
mario
mariposa
mariposas
marisa
mariscal
mariscala
mariscos
marisol
maritime
maritza
mariya
mariyas
marjorie
mark
marka
markachirinaka
markachirinakata
markachirinakax
markachirinakaxa
markaja
markam
markamara
markampiw
markan
markana
markanaka
markanakajh
markanakamp
markanakan
markanakana
markanakans
markanakanx
markanakanxa
markanakaruw
markanakat
markanakaxa
markani
markankiwa
markanx
markanxa
markap
markapampa
markapata
markapataynawa
markapi
markapumaqucha
markaq
markar
markaru
markaruw
markarux
markas
markat
markata
markatx
markawa
markawillka
markax
markaxa
marker
markii
marks
markt
marku
markup
markus
markx
marlene
marley
marlon
marmut
marne
marple
marquina
marquna
marqus
marrakech
marreros
marriage
marro
marroqui
marruecos
mars
marseillaise
marseille
marsella
marshall
marta
marte
martel
martha
marti
marticorena
martin
martina
martinelli
martinez
martino
martins
maru
maruri
marvelli
marx
marxisme
marxismo
mary
maryatana
maryland
marzo
mas
masa
masamari
masan
masas
mascheroni
mascota
masegkai
masi
masin
masisea
masit
mask
maskn
masma
maso
mass
massachusetts
master
masters
mastitis
mastroianni
mat
mata
matalaqi
matan
matancera
matanza
matanzas
matapalu
matar
matara
matawasi
match
matched
matches
matchesblacklist
matchestitle
matching
mate
mateca
matema
mateo
mateos
mater
materia
material
materiales
materialismo
math
mathematica
mati
matilde
mato
matos
matrimonio
matrimonios
matsuo
matta
matthews
matto
mattos
matukana
matumay
maturana
maturi
mau
maucci
maude
maurice
mauricio
maurino
mauro
mautino
mawri
max
maxdef
maximiliana
maximiliano
maximo
maximum
maxlen
maxsigfig
maxwell
may
maya
mayachan
mayachat
mayachata
mayacht
mayak
mayamp
mayan
mayanakjam
mayani
mayari
mayasti
mayaw
mayax
mayaxa
maybe
mayer
mayi
mayj
mayja
mayjawa
mayjt
mayn
maynard
maynas
maynay
mayni
maynikam
maynikamax
maynin
mayninakax
mayninakaxa
maynit
mayniw
maynix
mayo
mayor
mayores
mayorga
mayori
mayotte
maysa
maysaru
maysat
maysatsti
maysatx
maysatxa
maystra
mayt
mayta
mayu
mayunaka
mayuq
mayutata
maz
maza
mazo
mb
mbar
mbbl
mbito
mbolo
mbolos
mbox
mbq
mbtu
mbulo
mcal
mccartney
mccj
mcginty
mcgovern
mci
mckinley
mcode
mcqueen
md
mdy
me
mean
means
measurement
meazza
meca
mecklenburg
meda
medal
medalla
medel
medelli
medellin
medes
media
medianoche
mediante
mediawiki
medicina
medida
medina
medio
mediodi
medios
meditaciones
mediterra
medium
medrano
meg
megacalorie
megacalories
megajoule
megalitre
megamix
megaton
megatonne
megatonnes
megawatt
mego
megye
meiggs
meir
mej
meji
mejia
mejor
mejores
melanco
melancoli
melania
melanio
melanocephalus
melauchlan
melaza
melbourne
melchor
melchora
melchorita
mele
melecio
melgar
melgarejo
melito
mellitus
melo
melodi
melodrama
melquiades
melquiadez
melville
member
members
memo
memoized
memoria
memorial
memoriam
memorias
memorioso
memory
memphis
men
mena
menachem
menacho
mencio
mendelssohn
mendes
mendez
mendi
mendieta
mendigo
mendigure
mendiza
mendocilla
mendoza
mene
menem
menes
meneses
menhir
meno
menor
menores
menos
mensaje
mensajes
ment
menta
mental
mentira
mer
mera
mercaderes
mercado
merced
mercedes
mercurio
mercury
merea
merello
merg
merge
mergeargs
merino
merlo
merma
mero
meros
merrill
mes
mesa
mesi
mesia
mesias
mesones
mesopotamia
message
messagebox
messagename
messages
mestanza
mestizaje
meta
metaargs
metaargskey
metadata
metal
metalurgia
metatable
meteorolo
meteorologi
meter
meters
method
metiendo
metre
metres
metric
metro
metropolitan
metropolitana
metropolitano
metros
mette
metz
meu
mev
mexicana
mexicano
mexicanos
mexico
meyza
mez
meza
mf
mg
mi
mia
miami
mic
mica
micaela
mice
mich
micha
michael
michahellis
michel
michelangelo
michigan
michoaca
mick
mickey
mico
micos
micro
microlitre
microsoft
microwatt
mid
mide
midi
midiku
midnight
mie
miedo
miedos
miel
miembro
mientras
mifune
might
miguel
miguelito
miha
mijiku
mikaela
mikhail
miklo
mil
mila
milagro
milagros
milan
milane
milano
milder
mildred
mile
milecio
miles
militar
militares
milk
milky
milla
millard
millennium
miller
milliard
millicalorie
millicalories
milligram
milliliter
millilitre
millimeter
millimetre
million
milliwatt
millk
millki
millo
millonario
millonarios
millones
millos
milluni
milner
milpuc
milton
mimul
mimulax
min
mina
minas
minaya
mind
mindernickel
mine
minedu
mineira
minerales
minh
mini
miniaturadeimagen
minim
minimum
miniserie
ministerio
ministro
ministru
minnesota
minotauro
minsk
minus
minute
minutes
minutos
minutus
mio
miqala
mir
mira
miracle
miracosta
mirada
miraflores
miran
miranda
mirantan
mirantapxaraki
mirantapxi
miraval
mirbeau
mircidis
mircidys
mireya
mirgas
miriam
miro
mirra
mirror
mirrors
mirtha
mis
misa
misael
miscela
misericordia
misio
misiones
misk
miskolc
misma
mismatch
mismo
miss
missing
mississippi
missouri
misterio
misterios
misteriosa
misterioso
misti
mistral
mistsu
mistsun
mistsuni
mistsupxi
mistu
mistun
mistuni
mistxan
mit
mita
mitad
mitchell
mite
mites
mitiuruluhya
mito
mitolo
mitos
mitre
mitrunaka
mitterrand
mitu
mix
mixed
mixer
mixiku
miyasawa
mizoguchi
mj
ml
mlatm
mly
mm
mmbtu
mmmm
mmol
mn
mo
mocedad
moche
mocololo
moctezuma
mode
modelo
modelos
modern
moderna
moderno
modesto
modestus
modf
modified
modifier
modify
modo
modos
modugno
module
modules
mogambo
mogollo
mogrovejo
mohamed
mohandas
moho
moina
moise
mojiganga
mol
molajoli
molar
mole
moles
molina
molinari
moline
molinopampa
molinos
mollebamba
molleda
mollendo
mollo
mollohuanca
moment
momento
momentos
mon
mona
monaguillo
monarqui
moncada
moncca
moncermi
moncloa
mondadori
mondo
mondrago
moneda
monedas
monet
money
monge
monica
monika
monja
monje
monk
monnet
mono
monografi
monos
monroe
monroy
monrroy
mons
monsalve
monsefu
monsen
monsieur
monsoreau
monstruo
montagne
montalba
montalva
montalvo
montan
montana
montand
montanha
montano
monte
monteagudo
montecristo
montenegro
montero
monterrey
montes
montesinos
monteverde
montevideo
monteza
montgomery
month
months
montiel
montilla
montoya
montserrat
montuno
monumental
monumento
monumentos
monumentu
monzo
mool
moon
moonlight
moore
moquegua
moqwegwa
mora
moradas
moraima
moral
morales
more
moreano
moreira
morelia
morelos
morena
morenada
moreno
moretti
moreyra
morfemas
mori
morillo
morir
morning
moro
morocco
morona
morris
morrison
mort
morte
mortiz
mory
mos
mosca
moscol
moscoso
moscu
moses
mosku
mosquera
mosqueteros
mossa
most
mostajo
mostejo
mostrar
mother
motivo
motivos
moto
motor
motta
motupe
motupi
mount
mountain
mountains
mousetrap
mov
move
moved
movediza
moveprot
movie
moviemiento
movimiento
moving
moya
moyano
moyobamba
mozart
mozo
mp
mpera
mpg
mpge
mpgimp
mpgus
mph
mphu
mpicos
mpin
mpinaka
mpis
mprotectionbanner
mr
mrs
ms
msc
msg
msgkey
msgs
mshared
msnm
mt
mtontnt
mttnt
mtv
mtx
mu
much
mucha
muchacha
muchachas
muchachos
muchas
muchi
mucho
muchos
muchumi
mudo
mue
muelle
muenchen
muere
muerta
muerte
muertes
muerto
muertos
muestra
muhammad
muhu
mujer
mujercitas
mujeres
mujica
muju
mukhiin
muki
mukiwa
mukiyawyu
mulduwa
mule
mulinu
mulinus
muller
mulli
mullintu
mullipampa
mullipata
mulliwaya
mulo
mult
multa
multiple
multiplier
multiply
multiterritorial
mun
munaku
munampxi
munan
munaraki
munasi
munasin
munata
munay
munayco
muncin
mundaca
mundial
mundiales
mundo
mundos
mundy
mungui
mungul
muni
municipal
municipales
municipalidad
municipio
municipios
municollao
munikelluyo
munisipiyunaka
munisipyu
munisipyunaka
munive
muniw
muniwa
munka
munkarakiti
munki
munkiri
munktanti
munsun
muntan
muntanwa
muntiniru
muntivide
munupampa
muqiwa
mur
mura
murakami
muralla
murasaki
murcie
murder
murders
murga
murgia
muriendo
murieron
murillo
murio
muro
murqulla
murrupi
murrupun
muru
muruchuku
muruq
muruqt
muruqucha
muruway
musambiki
museo
museos
museu
museum
music
musical
musicales
musika
musiku
musin
musiyu
musq
mussolini
must
mustela
musuq
musuqllaqta
mut
mutiny
mutu
mutual
mutupi
muxsa
muxsawa
muy
muya
muytasa
muyu
muyuntapxatayna
muyupampa
mw
mwh
mx
my
myanmar
myspace
mysteries
mysterious
mystery
n
na
nac
nacari
nacer
nach
nacimiento
nacio
nacional
nacionales
nacionalismo
nacionalista
naciones
nada
nadezhda
nadia
nadie
nadine
nagay
nai
naiza
najarro
nak
naka
nakana
nakap
nakat
nakata
nakataki
nakax
naked
nakhiri
naksa
nama
namballe
name
named
namelist
nameliststyle
names
namesep
namesi
namespace
namespaces
namura
nan
nana
nanakan
nanakax
nanay
nanchuq
nanci
nancy
nang
nantes
napaico
naples
napoleo
napoli
naqa
naquiche
nar
naranja
naranjo
narciso
narcizo
narin
narraciones
narrativa
narrator
narro
nas
nasa
nasapaxa
nascimento
nashap
nashville
naska
nassau
nasser
nasyunal
natacha
natal
natalia
natalicio
natalie
nati
national
nationale
nativa
natividad
natiwidad
natiwydad
natural
naturales
naturaleza
nature
naucalpan
nause
nautical
navaja
navarone
navarra
navarrete
navarro
navaxu
nave
navegantes
naves
navidad
navy
nawa
nawan
nawidad
nawta
nayarit
nayaw
nayax
nayluna
nayr
nayra
nayranakapax
nayranakapaxa
nayrani
nayrapach
nayrapacha
nayrapachanakatpach
nayrapachanakatpacha
nayrapachanakatpachsa
nayrapachanakax
nayrapachatpacha
nayrapachax
nayraqat
nayraqata
nayraqatarux
nayraqatasti
nayraqatax
nayraqatpachxa
nayrar
nayratpach
nayraw
nayrax
nayraxa
nayri
nayrir
nayriri
nayrj
nazarenas
nazareno
nazarenu
nazareth
nazaria
nazarinu
nazario
nb
nbk
nbsp
nbsps
ncatl
ncavo
ncbi
ncer
nchen
nchez
ncia
ncias
ncipe
ncora
ncula
nd
ndalo
ndataset
nde
ndel
ndez
ndia
ndico
ndida
ndira
ndola
ndor
ndores
ndose
ndula
ndulo
ne
nea
near
nearest
neas
nebraska
necesario
necesidad
necessary
neder
need
needed
needle
needs
nefertiti
negative
negocios
negra
negrete
negro
negros
negruzca
nehru
neil
neira
neither
nejedly
nel
nelfa
nelly
nelson
nemecio
nemesio
nemesis
neo
neos
nepomuceno
neptuno
neri
nero
neruda
nervioso
nery
nest
net
network
neue
neues
neuf
neutro
nevada
nevado
nevar
never
neville
new
newark
newindex
newline
newman
news
newsgroup
newspaper
newton
next
nextlalpan
ney
neyra
nez
nf
nfa
nfilo
ng
ngaro
ngaros
ngel
ngela
ngeles
ngora
nguez
ngulo
nguyen
nh
nha
ni
nia
nica
nicanor
nicaragua
nicas
niccolo
nice
nich
nicholas
nicholson
nico
nicola
nicolas
nicomedes
nicos
niculas
nidas
nie
niebes
niebla
niedersachsen
niei
niels
niepos
nieto
nietzsche
nieva
nieve
nievenaka
nieves
night
nightingale
nights
nih
nihongo
nihun
nikarwa
nikasyu
nikita
nikola
nikolai
nil
nilargs
nilargskey
nile
niler
nilo
nils
nilser
nilton
nimas
nimo
nimos
nin
nina
ninanya
ninapampa
ninaqaqa
ninaraqui
ninasque
nine
ninguna
nini
nino
nio
nipal
nipin
niqir
nirlandis
niro
nishijima
nisqa
nisqaqa
nito
nitro
nivalis
nivardo
niwa
nixon
niy
niya
niyak
niyas
nizamade
nj
nkrumah
nl
nlm
nm
nmi
nn
no
nobel
nobis
noble
noblecilla
noboa
nocat
noces
noche
noches
nocio
nocomma
nocturna
nocturno
nocturnos
noe
noel
noemi
noise
noite
nolasco
nolberto
nole
nom
noma
nombre
nombres
nome
nominacio
nominado
non
nonato
none
noon
nopp
nor
norberto
nord
nordrhein
noriega
norma
normal
normalize
normally
normalmente
norman
normandie
norte
norteame
north
northampton
northanger
northern
norveli
nos
nosotras
nosotros
nostalgia
not
nota
notas
notation
note
notes
nothing
nothomb
notice
noticia
noticias
notifying
notre
nouvelle
nov
nova
novaehollandiae
novecientos
novel
novela
novelas
november
noveno
novgorod
novia
noviembre
novio
novios
novo
novoa
novola
novos
now
nowiki
nowrap
nowy
ns
nscategory
nsito
nsname
nstable
nstler
nsula
nt
nta
ntalo
ntara
ntase
ntea
ntesis
ntgen
nti
ntica
nticamente
ntico
nticos
ntima
ntimas
ntimo
ntra
ntu
nu
nube
nubes
nuclear
nuco
nuestra
nuestras
nuestro
nuestros
nueva
nuevas
nueve
nuevo
nuevos
nuez
nugkuag
nuit
num
numa
number
numbered
numbers
numdot
numerator
numeric
numerical
numparam
nums
numsep
numstr
nun
nunca
nunura
nuova
nur
nuremberg
nurweka
nuwhurud
nw
nwa
nxa
ny
nyerere
nyi
nylon
o
oa
oar
oaxaca
obaldi
obama
obando
obas
obdulio
obesidad
obispo
obispos
obj
object
objects
objeto
objetos
oblitas
obra
obras
obrego
obrera
obrero
observaciones
ocalli
ocampo
ocan
ocasionales
ocaso
occariy
occidental
occidentalis
occidente
occitanie
occur
occurs
oce
oceani
ochenta
ocho
ochoa
ocinsoutput
oclc
ocllo
ocm
ocn
ocobamba
ocolc
ocopa
ocros
ocsa
oct
octava
octave
octavio
octeto
october
octubre
ocucaje
ocumal
oda
odas
oder
odiaga
odilo
odio
odisea
odo
odri
oe
oereda
oeste
of
off
offenbach
official
offset
ofi
oficial
oficiales
oficialmente
oficina
ofm
ofrece
ofrenda
often
oh
ohio
oi
oil
oilbbl
ois
oise
ojeda
ojo
ojos
ok
oklahoma
ol
ola
olano
olaortu
olas
olaya
old
oldr
oleg
oles
olfatorio
olga
oli
olifo
olimpia
oliva
olivares
olivas
oliveira
oliver
olivera
olivia
olivio
olivos
ollanta
olleros
olmedo
olmo
olo
olrog
olvidados
olvidar
olvido
olympia
omacha
omaha
omar
omara
omargs
ombox
omer
omia
omit
omitsep
omitted
on
once
one
ones
onetti
onez
ongo
onkel
online
only
ono
onofre
onofrio
ontere
onto
onu
onzueta
oo
op
open
opening
openlibrary
opera
operator
opinio
opiniones
oporto
opt
option
optional
options
opu
oquendo
or
ora
orac
oracio
oracionales
oraciones
orales
orange
orangerie
oranguta
oras
oratorio
orbegoso
orbgoso
orbis
orchestra
orchid
ordeal
orden
order
orders
ordo
ordon
ore
oregon
orellana
orestes
orfeo
orfilio
org
organismos
organizacio
organizadas
organizados
organos
orgullo
ori
oribe
orient
orientation
oriente
orig
origargs
origdate
origen
origin
original
originales
originally
originalmente
originalurl
origink
orihuela
orilla
orillas
oriol
orita
orlandini
orlando
orleans
ormachea
ormen
orneta
oro
oroche
oropesa
orosco
orozco
orquesta
orquestas
orqui
orrego
orsay
orsi
ort
ortecho
ortega
ortegal
ortiz
ortografi
ortun
oruro
orwell
os
osa
osama
oscar
oscos
oscura
oscuridad
oscuro
oscuros
osi
osiris
oskar
oslo
osma
oso
osorio
ospina
osti
osvaldo
oswaldo
ota
otazu
otero
other
others
otherwise
oton
otoniel
otorgado
otoya
otra
otras
otro
otros
ottawa
ottmar
otto
ou
ounce
ounces
our
out
outinfo
outlaw
output
outputs
outro
outvalue
ov
oveja
over
overflow
overhead
overlinking
override
overwrite
overwritten
ovidio
oviedo
owens
own
ox
oxford
oxi
oyague
oyarce
oyo
oz
ozf
ozt
ozu
p
pa
pablo
pablu
pac
pacaipampa
pacanga
pacase
pacaya
pacaypampa
paccha
pacco
pacen
pach
pacha
pachacutec
pachakamaq
pachakamilla
pachakiwa
pachakunas
pachakuteq
pachakuti
pachakutiq
pachamam
pachamama
pachamaman
pachamamar
pachamamaru
pachamamax
pachamarka
pachan
pachana
pachanaka
pachanakanx
pachanakax
pachanga
pachangara
pachantin
pachanwa
pachanx
pachanxa
pachapaxa
pachaprakiw
pachaqama
pachar
pacharchiw
pachari
pacharu
pachas
pachat
pachata
pachatix
pachatuqita
pachaw
pachawa
pachax
pachaxa
pachaykamay
pacheco
pachitiya
pachiya
pachiza
pachp
pachpa
pachpan
pachparak
pachparaki
pachparakiwa
pachuca
paci
pacific
pacificus
paco
pacocha
pacoricona
padding
paddington
padilla
padin
padlock
padre
padua
paduamanta
paduapas
padwa
paga
page
pagename
pages
pagetype
pago
pagophila
pagos
pai
paico
paimas
paine
paino
painting
pair
pairs
paisaje
paisajes
paita
paiten
paiva
paja
pajarillo
pajuelo
paka
pakachun
pakapawsa
pakaran
pakaraw
pakasmayu
pakax
pakaxis
pakayqasa
pakistan
pala
palabra
palabras
palace
palacio
palacios
palanca
palazzo
palca
pale
palenque
palermo
palestina
paleta
palito
palkasu
pallalla
pallan
pallanchakra
pallaqi
pallasqa
pallay
pallaykuna
pallaynaka
pallaytas
palllan
pallpata
pallqa
pallqu
palm
palma
palmas
palmeras
palmieri
paloma
palomino
palos
palpa
palpakachi
palti
palza
pamela
pampa
pampachiri
pampacucho
pampakucho
pampamarca
pampamarka
pampanakan
pampanakana
pampanakanx
pampaqullqa
pampas
pan
panaifo
panama
panamapa
panaw
pancha
panchito
pancho
pando
pandu
panduro
panez
panfilo
panichasin
paniniw
panipuniw
panka
pankan
pankanaka
pankar
pankhurst
panorama
panqara
panqaranaka
panqaranakata
panqarani
panqart
panquwa
pantaleo
pantalunani
panther
pantoja
panuera
panx
paola
paolo
pap
papa
papanaka
papandreou
papaplaya
papaya
papayal
pape
papel
papeles
paper
papers
papias
papua
paqallq
paqallqu
paqalq
paqariqtampu
paqarisqa
paqcha
paqchu
paqu
paqucha
paquete
paquita
paquiyauri
paqupampa
paqura
par
para
parade
paradigmas
paradise
parado
paraguay
parai
paraiba
param
paramaribo
parameter
parameternames
parameters
paramlink
paramonga
paramorder
paramore
paramount
params
parana
paranaense
paranday
parani
parao
paraqas
pararka
pararrayos
paratya
parawayi
parco
parcona
pardave
pardo
pare
parece
parecer
paredes
pareja
parent
parentheses
parents
pargs
pari
pariachi
pariacuri
pariasca
paricahua
pariguana
parin
parina
parinacochas
parinacota
parinari
parinawaqucha
parinax
pariona
paris
parisa
pariti
pariwanaqucha
park
parker
parks
parlamento
parlan
parli
parm
parms
parmsi
parmsiparm
parmsoption
parmsparms
parnaso
parole
parqu
parque
parques
parquy
parra
parroquia
parruqia
parruqu
parse
parsec
parser
part
parte
partes
parti
participacio
participante
participantes
participio
particular
particularidades
partida
partido
partidu
partidupi
partir
partitura
partners
parts
partspart
party
parupampa
paruro
paruru
paryaqutu
paryarqa
paryawanka
pas
pasa
pasado
pasaje
pasajeros
pasan
pasapera
pascal
pasco
pascua
pascual
pascuala
paseo
pasi
pasio
pasiones
pasiva
paskasp
paso
pasolini
pasqu
pasqua
pass
passage
passed
passing
passion
pastas
pasteles
pastor
pastoralis
pastores
pastorita
pastorutti
pastrana
pastunaka
pastunakas
pasus
pat
pata
patak
pataka
patakachjata
pataki
patamarkax
patampuku
patan
patana
patanakan
patankiwa
patanx
patanxa
patapampan
patapampanakan
patapu
patar
patarux
patas
patat
patata
patatuqin
patawasi
patawinaka
patawinax
pataypampa
paterson
path
patiamarilla
patin
patio
patiwillka
patria
patrice
patricia
patricio
patrick
patrimonio
patrio
patrios
patriota
patro
patronato
patrones
patrun
patrunan
patrunanakan
patrunar
patrunatak
patrunax
pattacaldo
pattern
patterns
patternspattern
patxa
paucar
paucartambo
paucca
pauccar
paul
paula
paulet
paulette
paulina
pauline
pauling
paulino
paulista
paulo
paulus
pauluw
pavarotti
pavel
pavo
pawlu
pawqar
pawqara
pawqaray
pawqarpampa
pawqarpata
pawqarqulla
pawqartampu
pawsa
pay
paya
payak
payan
payani
payar
payaso
paye
payhan
payi
payir
payiri
paylla
payllan
payllanaka
paypach
paypacha
payqu
pays
payta
payyuyay
paz
pazo
pazos
pbro
pc
pcall
pd
pdf
pdr
pe
peace
peak
pearl
pearls
peas
pebas
pec
peca
pecado
pecador
pecadora
peceros
peche
pecho
peck
pedago
pedagogi
pedernal
pedernera
pedra
pedrarias
pedraza
pedro
peisa
peixoto
peki
pekin
pela
pelaez
pelagio
pelayo
pele
peli
peligro
pelo
pen
pena
penadillo
penal
penas
penco
pene
peng
peni
pennsylvania
pensado
pensadores
pensamiento
pensamientos
people
peor
pepa
pepe
pequen
per
pera
perales
peralta
peras
perca
perch
percy
perdicio
perdida
perdido
perdo
perdona
perea
pereda
peregrinaciones
peregrino
peregrinos
pereira
pereyra
perez
perfect
perfecta
perfecto
perfil
performance
performed
perfumeri
perhaps
peri
periche
perico
peril
perio
period
periodi
periodical
periodically
periodistas
periodo
perkins
perla
permitted
pernambuco
pero
perpetuo
perricholi
perro
perros
perseguidor
perseo
person
persona
personajes
personal
personales
personalidad
personas
perspectiva
persuasion
pertext
peru
peruana
peruanao
peruanas
peruano
peruanos
perunao
peruvian
pesantes
pesar
pesca
pescado
pescador
pescados
pesce
peseque
peso
pesque
pessoa
pestalozzi
peste
pete
peter
petersburgo
petit
petrarca
petro
petronila
pettorossi
pev
pey
peyson
pez
pezet
pezo
pfalz
pframe
pg
pha
phanchiri
phaqcha
phara
phaseolus
phasxi
phat
phatanka
phatankaru
phawan
phaxi
phaxin
phaxs
phaxsi
phaxsin
phaxsina
phaxsinaka
phaxsiniwa
phaxsipa
phaxsit
phaxsita
phaxsiw
phaxsiwa
phaxsixa
phayan
phayapxi
phayasin
phayatawa
phayawi
phichhitanka
phichhitankax
philadelphia
philippe
philips
philosophers
philosophy
phini
phinis
phiriru
phisi
phisir
phisiti
phisix
phisqa
phisqani
phisqha
phisqhan
phisqhi
phisqir
phista
phistanaka
pho
photo
photograph
php
phransiya
phransiyana
phransiyaxa
phransya
phuch
phuju
phukh
phukhur
phuku
phullu
phullunaka
phun
phuncha
phunchawi
phunchha
phuntaninakarakiwa
phuqan
phuqhan
phuqhasiwa
phuqhata
phuqht
phusa
phusan
phust
phuthi
phuti
phutti
phutunaka
phutwul
phuyu
phuyunakapampix
phuyunakapax
phuyunakapaxa
physik
pi
piaf
piamonte
pianista
piano
piazza
piazzolla
pic
pica
picaflor
picardie
picasso
picchu
picha
pichakani
pichan
pichanaki
pichardo
pichari
pichihua
pichirwa
pichiwa
pick
pickwick
pico
picture
pide
pidro
pidru
pie
piece
pieces
piedad
piedades
piedra
piedras
piel
piensa
pier
piero
pierre
pies
pieta
pieter
pietro
pieza
piezas
pigs
pijirriy
pikchu
piksi
pikuta
pila
pilar
pilares
pilas
pilco
pilcuyo
pilikula
pilikulakuna
pilikulanaka
pilkumayu
pillaca
pillao
pillchaka
pillihuama
pillku
pillkumarka
pillpe
pillpichaka
pillpintu
pillwana
piloto
pilpintu
pimentel
pimientos
pimintil
pimpingos
pin
pinacoteca
pinares
pinchi
pineda
pinedo
pinglo
pingo
pinheiro
pinillos
pink
pinkill
pinkillu
pinkillump
pino
pinra
pint
pintado
pinticustis
pintikustis
pinto
pintor
pintores
pintura
pinturas
pinyin
pio
piola
pionero
piorno
pipa
pipe
pipes
pipixcan
piq
piqan
piqata
piqi
piquillo
piqusin
pira
pirata
pirias
pirini
pirinsipi
piriudysta
pirpitu
pirqa
pirqan
pirqapax
pirsa
pirsonal
piru
pirudysta
pirue
piruw
piruwana
piruwano
piruwanu
piruwna
piruwpa
piruwpi
piruwxa
pirwa
pirwana
pirwano
piryudista
pisa
pisaq
pischa
piscina
pisco
pisi
pisku
pisqupampa
pisquyaku
pist
pistolas
pisuquia
pita
pitch
piter
pitipu
pitirwurhu
pitou
pittsburgh
pitumarka
piura
pius
piwra
piwru
piyampiya
piychillimu
piyu
piz
pizango
pizarnik
pizarro
pj
pk
pkiti
pl
pla
place
placeholder
placer
placeres
plain
plainlinks
plains
plainsman
plancarte
planck
planet
planeta
plano
planos
planta
plantacio
plantas
plasencia
plastic
plata
plate
plateada
platense
platero
platini
platiriya
plato
play
playa
player
plays
plaza
plazuela
please
plegaria
plejanov
plen
pleno
plo
plotarea
plotdata
pluma
plummer
plural
plus
pluscuamperfecto
pluto
pm
pmc
pmid
pn
png
pnp
pntype
po
poblacio
pobre
pobres
poca
pocket
poco
pocos
podcast
podemos
poder
poderes
poe
poem
poema
poemario
poemas
poemillas
poems
poesi
poeta
poetas
poetry
poher
point
poirot
poitou
pol
poland
polar
pole
polea
poles
poli
policarpo
police
polici
polie
polifemo
polinar
polis
politico
politische
politischen
polka
polla
pollensa
polo
pologina
polska
polvo
polygram
poma
pomabamba
pomacaja
pomachari
pomareda
pompeyo
pompidou
pompilio
ponasa
ponce
ponciano
pond
pondemaat
poner
ponta
ponte
ponti
pontificia
pop
pope
popular
populares
populat
populates
populibros
por
porfirio
porque
porras
porres
port
porta
portada
portal
portero
portilla
portillo
portion
portions
portland
porto
portocarrero
portrait
portsmouth
portugal
portugue
portuguesa
portuguesas
portuondo
porvenir
pos
posada
posadas
poseen
posesio
posibilidad
posible
posic
position
positional
positive
possible
possibly
post
postal
postales
posterior
posteriores
posteriormente
postigo
postman
postscript
pot
potasio
potosi
potsdam
pottillo
pound
pounds
pour
poussin
power
pozo
pozuzo
pozzo
pp
ppc
pra
practice
prada
prado
pragamanta
praha
prat
pratt
prb
prbo
pre
preb
prec
precedido
preceding
precio
precision
precursora
predicado
predicativos
preface
prefecto
prefix
prefixed
prefixedtext
prefixes
preguntas
prelado
prelatura
preliminar
preload
premiada
premiado
premio
premios
prensa
preprint
preprocess
pres
presa
presb
prescilio
presencia
present
presenta
presentacio
presentado
presentation
presente
presents
preservation
presidencia
president
presidente
presidinti
presidio
presley
press
pressure
presume
prete
preunit
preunits
prevent
prevents
preview
previous
previously
prevista
pri
priale
pricking
pride
priest
prieto
prima
primaria
primavera
primer
primera
primeras
primero
primeros
primitivo
primitivos
primo
prince
princesa
princesita
princeton
princip
principal
principales
principalmente
principia
principios
principles
prinsipinaka
print
printable
printblurb
printing
printtitle
prisidinti
prisidintipa
prisio
private
prize
pro
probablemente
probably
proble
problem
problema
problemas
problems
procariota
proceso
procesos
process
processed
processing
proculo
prodigio
prodigiosa
prodigioso
productos
profanas
profesional
profesionales
profesor
profession
profeta
profile
profundidad
programa
progresa
progresista
progreso
progress
prohibido
project
prologado
promesa
prometeo
promocio
pronombre
pronunciacio
pronunciada
prop
propaganda
proper
properly
propersign
properties
property
propia
propicio
propiedad
propio
propios
propo
propuesta
propuso
prosa
prosas
prosecution
protected
protection
protectionlevels
protector
protei
protest
protesta
protista
proto
protocol
proust
prov
proveedor
provence
provided
providence
providencia
provides
provincia
provincial
provincias
provinciax
provisional
proy
proyectado
proyecto
proyectos
prudencio
prueba
prugrisu
prusiano
pruwinsyal
ps
pseudo
psi
psicologi
psn
psp
psuv
psyche
pt
ptico
ptr
pu
pub
public
publica
publicacio
publicaciones
publicada
publicadas
publicado
publicados
publicara
publication
publicationdate
publicationplace
publicitario
publico
publique
published
publisher
publishername
publishers
publishing
pucara
pucarani
pucarina
puccini
puch
pucp
pucusana
pudding
pudiera
puebla
pueblo
pueblos
puede
pueden
puedes
puedo
puelles
puente
puentes
puerta
puertas
puerto
pues
puestas
puesto
pueyo
puga
pugna
puig
pujra
pukala
pukallpa
pukaqaqa
pukara
pukaran
pukarani
pukina
pukllaq
pukllaykuna
pukupukux
pukus
pukyu
pukyukuna
pukyura
pula
pulan
puli
pulitika
pulitiku
pulitikunaka
pulla
pullu
pulmones
pulo
pulpo
pulso
pultumarka
pulu
pulun
puluni
puluwaya
pum
puma
pumacahua
pumakancha
pumallqa
pumapampa
pumaqanchi
pumaqhawa
pumaqucha
pumata
pumawaka
pun
punch
puncha
punchana
punchaw
punchunaka
punchuni
punct
punctuation
punen
punk
punku
puno
punta
punto
punu
pupuja
puqsi
puquio
puqullay
puqun
puquta
puquwanka
pura
purak
puraka
purapaxa
purge
purguaya
puri
purificada
purin
purini
purinin
purinitapata
purintawixa
purisin
purisinx
purit
puritayna
purixa
puriy
puriyan
purizaga
purki
puro
puros
purports
purt
purtuguis
purtuwal
purtuyis
puruma
purumamarkat
purus
purutu
puruy
pusaq
pusca
pushkin
pusi
pusible
pusin
pusini
pusir
pusiri
pusiru
puska
puskas
pususu
put
puta
putas
putin
putina
putinsa
putumayo
putumayu
putuni
putusi
pututux
puwpu
puya
puyka
puyusqa
px
pxa
pxaxsina
pxiri
pxiwa
pyanirichiw
pyeong
pyne
pyre
q
qa
qachu
qachump
qachunakaxa
qachuxa
qahira
qahyra
qajamarka
qala
qalakayu
qalamark
qalamarka
qalana
qalanakampi
qalapatan
qalapuha
qalat
qalata
qallalli
qallanmarka
qallawanka
qallt
qallta
qalltan
qalltaraki
qalltat
qalltatat
qalltawi
qalltiwa
qallu
qalluchan
qallunaka
qama
qaman
qamapxaraki
qamapxi
qamaqi
qamaqin
qamaqipun
qamaqix
qamasa
qamasani
qamasi
qamasipxi
qan
qanchi
qanqayllu
qapasu
qapaya
qapi
qapu
qapun
qapux
qaqa
qaqatachi
qaqatampu
qaqawa
qaqra
qarachi
qarampuma
qaranya
qarapampa
qarapu
qaraq
qaraqutu
qaras
qarawili
qarqa
qarwa
qarwakallanka
qarwamayu
qarwana
qarwanka
qarwaqayan
qarwas
qarwat
qarwax
qarwayu
qasa
qasaq
qashapampa
qashashi
qasikaypi
qasqapampa
qatachi
qatar
qatawasi
qatilluq
qatqa
qatun
qaw
qawachu
qawana
qawaq
qawaya
qawi
qawqha
qawra
qawrana
qay
qayallti
qayara
qayarani
qayma
qayna
qayrapampa
qayti
qaytix
qha
qhach
qhachwax
qhana
qhanachu
qhanakarakiti
qhanan
qhananchir
qhanancht
qhanata
qhanqha
qhapaq
qhapaqmarka
qhathi
qhathu
qhathur
qhathux
qhatu
qhawana
qhawanakunti
qhawanilla
qhawanillas
qhaway
qhawqha
qheswa
qhich
qhichwa
qhichway
qhilla
qhipa
qhiparux
qhipaxa
qhipha
qhiphaqtan
qhipharux
qhiphi
qhiphu
qhipu
qhiri
qhirit
qhirwa
qhisphiyataw
qhiwi
qhiya
qhullin
qhulu
qhunata
qhuru
qhusqhuri
qhuya
qi
qian
qichuwalla
qichwachaw
qillqa
qillqan
qillqanaka
qillqapunku
qillqaq
qillqas
qillqasqan
qillqat
qillqata
qillqatanaka
qillqatanakapa
qillqatata
qillqax
qillqiri
qillqiriq
qillqt
qillwa
qillwan
qillwax
qilqa
qilqatanaka
qilqt
qimwiri
qin
qina
qinaqina
qinaya
qinti
qiqi
qiqin
qirqu
qiru
qirupallqa
qirupampa
qiruqutu
qiruwillka
qispicanchi
qispiqanchi
qispiyta
qiwilla
qollqe
qosqo
qoyllorit
qt
qtr
qu
quad
quadrillion
quadrimester
quae
quart
quarter
quartet
quarto
quase
quatre
qucha
quchamarka
quchan
quchanaka
quchapampa
quchaptiq
quchaqasa
qucharqa
quchas
quchu
quchurqu
que
quebrada
quechua
queda
quedo
queen
queiro
quemada
quemar
quendam
quenta
quequen
queratina
quere
querecotillo
querer
querevalu
querida
querido
queriendo
querocotillo
query
quesada
queso
quesque
quest
quetzalcoatl
quevedo
quez
qui
quie
quiem
quien
quieras
quiere
quiero
quijandri
quijano
quijote
quilca
quillama
quillca
quille
quimera
quimper
quin
quina
quince
quincho
quincy
quinjalca
quinn
quino
quinoa
quinta
quintana
quintanilla
quintero
quinteros
quinteto
quinti
quintina
quinto
quirhuayo
quiro
quiroga
quiroz
quisbert
quisiera
quispe
quispitupac
quiterio
quito
quives
quiza
quizpez
qulcha
qulla
qullan
qullana
qullari
qullasi
qullasin
qullasuyu
qullasuyun
qullaw
qullawa
qullayasin
qullmukuna
qullpas
qullq
qullqa
qullqamarka
qullqapampa
qullqi
qullqicha
qullqimarka
qullqincha
qullqipata
qullu
qulluna
qullunaka
qullunakana
qullunakaruw
qullur
qulluruw
qulluwa
qullux
qullwas
qumas
qumpapata
qun
qunayqa
qunchamarka
qunima
qunqalla
qunquri
qunt
quntipampa
quntumasa
qunun
quod
quotation
quote
quoted
quotepage
quotepages
quotes
qupa
qupakawana
qupani
qupaqhawanap
qupuraki
quqa
quqata
qura
quranak
quranaka
qurani
qurasun
quri
quriqaqa
quris
quriwaya
qurpa
qurpasi
qurpawasi
qurqa
qurtuwa
qurumata
qusan
qusanaka
qusannaka
qusmi
quspan
qusqu
quta
qutan
qutana
qutanaka
qutapampa
qutar
qutaru
qutarusi
qutawa
qutax
quturapi
quwalaqi
quwasa
quwata
quwayllu
quwinqa
quwiphasa
quwiriyalli
quya
quyllariskisqa
quyllur
quyllurqi
quyshqu
r
ra
rabanal
rabbi
rabe
rabia
rabin
rabo
race
rachel
racine
racing
racismo
rad
rada
radiacio
radiation
radical
radio
rado
radoje
rafael
rafaela
rafaele
rafaile
raffaello
raghu
raging
rai
raices
raid
raimondi
raimu
raimundo
rain
raison
raja
rak
rakiy
raldes
ralvis
rama
ramada
ramat
rame
rami
ramirez
ramiro
ramis
ramo
ramon
ramona
ramos
rampling
ramsay
ramun
rana
ranchera
rancho
ranchos
range
rangei
ranges
raniero
rankine
ranrakancha
ransiya
ranulfo
raoul
rapayan
raphael
rapidez
rapids
rappard
rapray
rapto
raquel
raros
ras
rase
rasgos
rasuri
rate
rathaus
rather
ratio
ratones
ratto
ratukiwa
ratzinger
rau
raul
ravelo
ravenna
ravichagua
raw
rawakayku
rawget
rawset
rawson
ray
raya
raymi
raymond
raymondi
raymunda
raymundo
rayo
rayos
rayun
rayus
raza
razo
razones
rbara
rbol
rboles
rca
rcal
rcamo
rcel
rcito
rcoles
rculo
rculos
rd
rdate
rde
rdenas
rdenes
rdez
rdoba
rdova
re
rea
read
reads
reagan
real
reales
realidad
realista
realiza
realizada
realizado
realizando
realizaron
really
reason
reassemble
rebatta
rebaza
rebelde
rebelio
recibe
recie
recife
recitados
recital
reco
recodo
recoge
recogidos
recognize
recognized
recoletos
recollections
recompensa
reconocimiento
reconstruccio
reconstruyamos
recopilacio
recopilaciones
recopilatorio
record
recordando
recording
records
recreacio
recreo
recta
rector
recuay
recuerdo
recuerdos
recursos
red
redaccio
rede
reden
redencio
redirect
redirects
reduce
reducida
redundant
reedicio
reediciones
reeditada
reef
reeve
reeves
ref
reference
references
referencianaka
referencias
reflexiones
reforma
reformat
reformatted
reformatter
reformatting
refrescos
refs
refugio
reg
regalado
regardless
rege
regencia
regenta
regente
regex
regina
regio
region
regional
regionales
regionalismo
regionalista
regiones
registered
registrant
registration
regiune
regiunii
regla
reglas
regner
regreso
regui
regular
regulares
rehacer
reichenberger
reidora
reikiavik
reimpr
reimpresio
reims
reina
reine
reiner
reino
reinos
reinoso
reis
relacio
relaciones
relative
relatividad
relativita
relato
relatos
release
relevant
reli
relictus
religio
religion
religioso
reloj
rem
remainder
remap
remaplang
remapped
remberto
rembrandt
remedios
remedius
remembered
remigio
remixes
remolacha
remove
removeblanks
removed
removes
rena
renace
renacimiento
renata
renato
rencor
render
rendered
rendering
renderstartbox
renderstartboxlinks
rendo
rene
rengifo
renminbi
renna
renoir
renol
renovable
renovacio
renteri
rep
reparto
repeat
replace
replaced
replacement
replaces
reponer
report
reportaje
reportajes
reposteri
represa
represas
represent
representa
representacio
representado
representativos
represents
reprezenta
reproduccio
reproduce
reproductivo
reptil
reptiles
repu
republic
republica
republicana
republicano
republik
republika
repulle
requejo
requena
requerido
requested
requiem
requiere
requieren
require
required
requires
rer
rerum
res
research
resen
reserva
reserved
resistencia
respiracio
respiratorio
respuesta
restauracio
restaurado
resto
restrepo
result
resulting
results
resumen
resurreccio
ret
retablo
retamozo
retiro
reto
retorno
retrato
retratos
retrieved
retrv
return
returned
returns
reu
reunida
reunio
rev
reve
reveille
revenge
reverse
reversed
review
revilla
revisada
revised
revisio
revisited
revista
revistas
revolucio
revoluciones
revolver
rey
reyes
reykjavi
reykjavik
reymundo
reyna
reynaka
reynaldo
reynoso
rez
rfc
rfcs
rft
rganos
rgb
rhead
rhein
rheinland
rhin
rho
rhode
rhodostethia
rhs
rhythm
rhythms
ri
ria
rias
ribeiro
ribera
ribeyro
rica
ricalde
ricardo
ricas
rich
richard
richie
richman
richmond
ricketts
rico
ricos
rida
ride
ridi
ridibundus
riega
rifa
rifirinsyas
rifle
rift
right
rights
rii
rijn
rika
rikch
rikcha
rikchanaka
rikina
rikiti
rikuway
rimac
rimachi
rimaq
rimaqnaka
rimas
rimay
rimidyu
rin
rinakarakiwa
rinakat
rinakawa
rinakax
rinco
rinconada
ring
ringen
ringo
rinx
rio
riobamba
riofri
rioja
rios
ripa
ripan
ripublika
riqi
riqisha
rirqayku
risco
rise
rises
risk
rissa
risurricciun
rit
rita
ritacuba
ritchle
ritmo
rito
ritu
riva
rivadavia
rivadeneira
rivadeneyra
rival
rivas
rivelino
river
rivera
rivero
riveros
rix
riy
riymanta
riynaka
riynu
riyyat
rj
rmin
rmol
rmx
rn
rne
ro
roa
road
roald
robbins
rober
robert
roberth
roberto
robi
robin
robinson
roble
robledo
robles
robot
robson
roca
rocafuerte
rocannon
rocca
rocha
rochester
roci
rock
rockas
rocosas
rod
roda
rodas
rodil
rodin
rodny
rodo
rodolfo
rodri
rodrigo
rodrigues
rodriguez
roe
roel
roena
roes
rogelio
roger
rogers
roja
rojas
rojo
rojos
rola
roland
rolando
rolda
roll
rolling
rolls
roly
rom
roma
romaina
roman
romana
romance
romancero
romances
romani
romanizacio
romano
romantic
romel
romeo
romer
romero
romilio
romo
romper
ronald
ronaldo
roncal
roncalli
roncin
ronda
rondo
roni
ronny
rony
roo
rood
room
rooney
roosevelt
root
ropa
ropero
roque
rori
rosa
rosada
rosado
rosales
rosali
rosalind
rosalino
rosario
rosas
rosay
rose
rosea
roseau
rosendo
rosenthal
roses
rosita
ross
rossellini
rossi
rossini
rostro
rostros
rostworowski
roswitha
rota
rotier
rouge
round
rounded
rounding
rousseau
roussillon
route
rovira
row
roxana
roy
royal
royce
rozas
rprete
rquez
rraga
rrez
rrida
rroco
rruqu
rtext
rtica
rtico
rtida
rtigo
rtir
rtires
rttemberg
ru
rua
rube
ruben
rubens
rubina
rubino
rubio
rubrogenys
ruby
rudecindo
rudesindo
rudolf
rudy
rudyar
rue
rueda
ruesta
ruffner
rufina
rufino
rufo
rui
ruina
ruinas
ruisen
ruiz
rujel
rule
ruletero
rulfo
ruman
rumantisismu
rumanya
rumba
rumbero
rumbo
rumbos
rumi
rumisapa
rummenigge
run
runa
runakanx
runakax
runakuna
runaqa
running
runtukan
runtus
rupa
rupay
ruperto
rupicola
ruqchaq
rural
rurales
rusa
rusaryu
rusaspata
rusayu
rusi
rusia
rusita
rusiya
ruso
russell
russia
russian
rusticana
rusu
ruta
ruth
rutherford
ruw
ruwataki
rux
rvulo
rwanda
rwynerio
ry
rye
rz
rzano
s
sa
saantia
saarbru
saarbruecken
saarland
saavedra
saba
sabah
sabandi
sabastiano
sabato
sabaynu
sabe
saber
sabes
sabina
sabinas
sabini
sabino
sabogal
sabor
sabroso
saby
sacanche
sacerdote
sach
sachsen
sacramental
sacramentales
sacramento
sacred
sacrificio
sacro
sad
saenz
safe
safo
saga
sagra
sagrada
sagrado
sagrario
sahagun
sahara
saico
said
sailor
saint
sainte
saints
sajama
sakiw
saksamarka
sakuni
sakura
sal
saladino
salamanca
salamandra
salamanka
salas
salaverry
salazar
salazones
salcedo
saldan
saldarriaga
saldi
sale
salem
sales
salga
salgado
salida
salinas
salisbury
salitral
salla
salle
salliqi
sallqa
sallqapampa
sallqawasi
salman
salmo
salmuera
salo
salome
salomo
salpu
salsa
salt
salta
saltillo
salto
salud
saludo
salvador
salvadur
salvaje
salvajes
salvatierra
salvemos
salvo
salzburg
salzburgo
sam
sama
samagua
samame
saman
samana
samanaka
samanchan
samanco
samanez
samaniego
samarapxiwa
samaratapata
samart
samawa
same
sami
samichan
samin
saminakana
saminakaniwa
saminakapax
saminakaw
saminiwa
samipa
samipax
samipaxa
samiri
samkayayku
sammu
sammy
samora
sampras
samsun
samuel
samugari
samuxitya
san
sanaquran
sanchez
sancho
sancos
sand
sandbox
sandboxes
sandboxlinks
sandboxpreload
sandboxtitle
sandia
sandinista
sandino
sanditon
sandoval
sandra
sandro
sang
sangre
sangrienta
sanitizedataset
sanjinez
sanjurjo
sank
sankallaya
sankarara
sanku
sanmiguel
sans
sansibar
sant
santa
santacruz
santamari
santamaria
santana
santander
santarsiero
sante
santi
santiago
santiagu
santiani
santilla
santillana
santisima
santisteban
santo
santolalla
santos
santoyo
santu
santuario
santukuna
santun
santunaka
santurantikuy
santwariu
santyagu
sanu
sanuni
sanzio
sao
sapa
sapak
sapakiw
sapallanka
sapaqat
sapatunaka
sapax
saphi
saphinaka
sapillica
sapjje
sapo
saposoa
sapu
sapxarakiwa
sapxi
sapxiri
sapxiwa
saqapani
saqu
saquena
sar
sara
sarah
saraki
sarakiwa
saraksnawa
saramago
saran
sarani
sarapura
sarapxa
sarapxaraki
sarapxi
sarapxiri
saraqataru
saraqataruw
saraqatat
saraqi
saraqkipanx
sarasara
saratoga
saravia
saraw
sarawayxarakitayna
sarawi
sarawipa
sarayacu
sarayiri
sardina
sargento
sari
sarin
sariri
sarkozy
sarmiento
sarna
sarnakaspawa
sarnakawi
sarnakawipa
sarnaqa
sarnaqan
sarnaqapxana
sarnaqapxi
sarnaqawi
sarnaqawipa
sarnaqawiq
sarnaqi
sarnaqiri
sarnaqiriwa
sarta
sartan
sartayan
sartipampa
sarto
sartoris
sartre
sarumilla
sarwa
sarxa
sarxan
sas
sasa
sasaw
sasawa
sasax
sasin
sasina
sasinwa
sasispawa
sastre
sat
sata
satan
sataraki
satarakiwa
satawa
satawi
sataxa
satayna
sataynax
satchmo
sate
sati
satipo
satipu
satisfacer
saturnino
saturno
sau
sauce
saucedo
saudade
saundersi
savage
save
saved
savia
savile
saw
sawa
sawrama
sawsa
sawsi
sawsipampa
sawt
sawun
sawut
sawuta
say
saya
sayan
sayapullu
sayers
sayla
saylla
saysa
sayt
saywachi
saywitu
saywtu
sbn
sbox
sc
scala
scale
scaled
scalemajor
scaleminor
scales
scar
scara
scaras
scf
scheme
schiaffino
schiller
schistisagus
schleswig
schloss
schmidt
school
schopenhauer
schopp
schreiber
schro
schubert
schultz
schuman
schumann
schuster
schwerin
science
scientific
sco
scoop
scope
scopulinus
scoresbii
scorza
scotland
scott
scotto
screen
scribners
scribunto
script
scriptperiodical
scriptquote
scripttitle
sculo
sculos
scwt
scy
sdb
se
sea
sean
search
searches
seas
season
seasons
seattle
sebastia
sebastian
seccio
secciones
sechura
second
secos
secrecio
secret
secreta
secretario
secreto
secretor
secretos
sect
secta
section
sections
secuestro
secundario
secundo
sed
seda
sede
see
seeler
seem
seen
segment
segovia
segu
seguimos
seguir
segunda
segundo
segura
seguridad
seguro
segurola
sei
seijas
seine
seis
seix
seleccio
select
selecta
selectas
selected
selector
selena
selenio
self
sello
selva
sem
sema
semana
semanario
semblanza
semestral
semi
semicolon
semicolons
semilla
semillas
seminario
sen
sena
senante
sencilla
sencillos
sencuam
senda
senderos
senna
senovio
sense
sensejat
sensibilidad
sensorial
sent
sentado
sentence
sentido
sentidos
sentimental
sentimiento
seo
sep
separate
separated
separator
separators
sepc
sept
september
septiembre
seq
sequeiros
sequence
sequential
ser
sera
serafi
serafino
serapio
seras
serena
serenade
seres
serge
sergeant
sergei
sergio
seri
seria
serial
serie
series
sermo
serna
sernaque
serpiente
serrador
serrano
serranus
serrat
serrato
sertzen
servan
serve
servicio
servil
serving
ses
sessions
sesto
set
setas
setenta
setmetatable
sets
setting
settings
seudo
seven
several
severo
sevilla
sexto
sexy
sforo
shacaime
shach
shaft
shaka
shakespeare
shaku
shall
shallow
shampuyaku
shanao
shanghai
shangkun
shaoqi
shapaja
shaping
shared
sharif
shatoja
shaw
she
sheet
sheets
shek
sheraton
sherlock
sherman
shevardnadze
shi
shift
shikibu
shilcayo
shilla
shimabukuro
shinawatra
ship
shipaspampa
shirorinti
shiv
shoes
shop
shore
short
shortmonth
shot
should
shouldbe
show
showinvalidtypeerror
shown
shows
shp
shqipe
shunki
shunti
shupluy
shuwaru
si
siany
sibastian
siberia
sibina
sica
sicas
sicchez
sich
sichura
sicilia
sico
sicos
sida
siddhartha
side
sidney
sido
sidra
sie
siegfried
siembra
siempre
siena
siendo
sierra
siete
sifuentes
sigfig
sigifredo
siglo
siglos
sigmund
sign
signal
signature
significado
significand
significant
significativa
signior
signo
signos
signture
sigo
siguas
siguen
siguiente
siguientes
sihuas
sihuasino
sikaya
sike
sikritaryu
siku
sikuwa
sikuwani
silbando
silbato
silbio
silencio
siles
silfo
sillapata
sillar
sillinq
sillp
sillq
sillqumaka
sillu
sillunakapaxa
silluninaka
silluta
silly
silos
silq
silva
silver
silverio
silvestra
silvestre
silvia
silvina
silvio
sima
simana
simbad
simbal
simbo
simeo
simi
simikuna
similar
similarly
simio
simipi
simo
simon
simone
simple
simplemente
simplicity
simplificado
simplify
simuna
sin
sina
sinai
sinaloa
sinatra
sinbad
since
sinch
sinchitullo
sindaco
sindical
sindulfo
sinfo
sing
singapore
singapur
singer
single
sings
singular
siniestro
sinkus
sino
sinqa
sinsikap
sint
sinta
sinti
sintipuniw
sionismo
sipan
sipansa
sipawa
sipia
sipio
sipita
siprage
siprefixes
sipultura
siqi
siqlla
siqsi
siquy
sir
sirena
sirenas
siri
sirimavo
sirka
sirkadu
sirwiya
siryi
sisa
sisapampa
sisnawa
sistema
sistemas
sister
sistu
sitajara
sitapampa
sitaqucha
site
sitio
sitios
sitixa
sito
sittaford
situacio
situaciones
situwa
siul
siw
siwa
siwar
siwara
siwaraki
siwaranaka
siwarax
siwas
siwayu
siwi
siwinaka
siwiq
siwsa
siwsawxa
siwya
six
sixa
sixto
siy
siya
size
sk
skazka
sketches
ski
skip
skips
sky
sl
slam
slash
slave
sleep
sleeping
sm
small
smallparam
smalltext
smith
smithsonianus
smo
smoke
smoot
sn
snow
so
soares
soborno
sobre
sobreaguda
socco
social
socialdemocracia
sociales
socialismo
socialist
socialista
socialistas
socie
sociedad
society
sociologi
socola
socorro
sodas
sofi
sofia
sofoni
sofos
soft
soire
sois
soisar
soja
sojourner
sol
sola
solamente
solano
solar
solares
solda
soldado
soldados
soldevilla
soldiers
soledad
soledades
soleil
solemne
soler
soles
soli
solidaria
solidaridad
solidum
solis
solista
solitaria
solitario
solo
soloco
sologuren
solomon
solorzano
solos
soltera
soma
somatosensorial
sombra
sombras
sombri
some
somebody
something
sometimes
somos
somoza
son
sona
sonata
soncco
sonche
sondondo
sondor
sondorillo
soneto
sonetos
song
songs
sonia
sonido
sonora
sonoro
sonoros
sonqo
sonrisa
sons
sont
sony
soo
soon
soong
sophia
sophie
sopla
sopli
soplo
sopra
sor
sorata
sordera
sorgo
soria
soriano
soritor
sorpresas
sort
sortable
sortkey
sortspan
sosa
sostenible
sotelo
soto
sotomayor
sotteccani
soul
souls
sound
source
sources
sous
sousa
south
southern
souza
sovie
soy
soya
sp
space
spaced
spaces
spain
span
spanish
sparkling
sparseconcat
spd
special
specific
specified
specify
specimen
spedes
speech
speed
speedy
spell
spelled
spelling
spence
spencer
spero
speronare
spider
spiel
spin
split
spoli
spor
sport
sporting
spring
springer
springfield
springs
spy
sq
sqbr
sqcm
sqft
sqin
sqkm
sqm
sqmi
square
squared
squeda
squez
squiza
sqverst
sqyd
sr
sri
ss
ssc
sseldorf
ssrn
st
sta
stad
stage
stalin
stanca
standard
stanford
stanislao
stanley
stannard
star
starkey
starlift
starr
stars
start
startbox
stata
state
statement
states
station
status
stawayi
stawipa
stay
stayat
ste
steam
stearns
stefan
stegui
stella
step
stephen
steps
ster
steve
stevens
stevenson
stf
sti
stica
sticas
stico
sticos
stiff
still
stir
stockholm
stocles
stoke
stol
stola
stoles
stomo
stone
stones
stop
stor
store
storia
stories
storm
storni
story
str
strange
stranger
stratovolcano
street
strforce
string
strings
strip
stripmarker
stripmarkers
stripped
structure
strval
stu
studi
studien
studies
studio
studium
study
stuff
stulo
stuma
stumamente
stumas
stumo
stunde
sturzo
stuttgart
style
styled
stylein
styleout
styles
styling
su
sua
suajili
suarez
suasi
suasti
sub
subcli
subdesarrollo
subdiv
subdivisions
subdivs
subinfo
subject
subjectns
subjectspace
subjuntivo
subpage
subpageno
subpageonly
subpages
subscription
subst
substitute
substituted
substring
subtable
subtag
subtags
subtanjalla
subunit
sucacahua
sucari
sucasaca
success
successful
sucede
sucedio
sucesio
sucesivamente
sucesivas
such
sucias
suclla
sucre
sud
sudame
sudamericana
sudamericano
sudan
suecia
suelo
suen
suero
suerte
suez
sufficient
suffix
suggest
suggestion
suggestions
sui
suicide
suicidio
suit
suite
suiza
suizo
sujeto
sukchapampa
sukri
sukurru
sukuta
sul
sulca
sullana
sullca
sulli
sullk
sullka
sullu
sultan
sultaneta
sum
suma
sumac
sumachiri
sumak
sumakaniti
sumakiskaniwa
sumakiskarakiwa
sumalya
suman
sumankan
sumapuniw
sumapuniwa
sumaq
sumar
sumaraki
sumari
sumate
sumatra
sumaw
sumawa
summary
summer
sumpach
sumpilka
sumpini
sumus
sun
sunampi
sunday
sung
suni
sunituqina
sunkhan
sunset
suntur
suo
suomi
supe
super
superior
superstar
supl
suplemento
supo
supondri
supplied
support
supported
supports
supposed
suppress
suppressed
suppression
suprafat
supremo
supyumpirakiw
suq
suqawaya
suqus
sur
suras
suraya
surco
surcos
sure
surge
suri
suriname
surit
surku
surkupampa
surname
surquillo
suruchuku
sus
susan
susana
susani
susanna
susapaya
susiyalisti
suspiros
sussex
sussoni
sut
suta
sutherland
suti
sutichan
sutil
sutimp
sutimpi
sutimpiw
sutin
sutinaka
sutinchata
sutini
sutiniwa
sutipa
sutipax
sutipaxa
sutix
sutiyiri
sutiyuq
sutnyang
suxta
suxtan
suxu
suyk
suyllo
suyo
suysiya
suyt
suytukancha
suyu
suyukuna
suyumpiw
suyun
suyuna
suyunaka
suyunakanwa
suyunx
suyunxa
suyup
suyupi
suyur
suyuta
suyuwa
suyux
suyuxa
sv
svg
swahili
swan
swann
swap
sweet
swing
swisiya
swisya
switch
switsira
sy
sydney
sym
symbol
symlink
syntax
system
systema
sz
sze
szlo
sztemon
szyszlo
t
ta
tab
tabaco
tabaconas
tabalosos
tabasco
tabla
table
tablefield
tablei
tablemerge
tables
tablespoon
taboada
tacabamba
taciano
tacna
taco
tacto
tacuabe
tadeo
tadiu
taft
tafur
tag
taganrog
tagebuch
tagle
tags
tail
taipe
taita
tajo
tak
take
taken
takes
taki
takin
taking
takiri
takiw
takix
takkiw
takt
takya
tal
tala
talara
talavera
talawira
talcahuano
tale
tales
talk
talkargistalkpage
talkawanu
talktext
talktitle
tall
talla
talledo
taller
talleres
talma
tam
tama
tamacha
tamanakaw
tamanakawa
tamanxa
tamar
tamarindo
tamariz
tamaulipas
tamaw
tamax
tamayo
tambie
tambillo
tambo
tambor
tambores
tamerla
tamil
tampu
tampupampa
tampurqu
tamshiyaku
tan
tana
tandil
tang
tanganica
tanganyika
tanger
tango
tangoa
tangos
tania
tano
tanque
tansaniya
tanta
tantacha
tantalea
tantamayu
tantara
tantaranchi
tantarico
tantarika
tantiy
tantiyunakakirakiwa
tanto
tantos
tanzania
tao
taoi
tapa
tapachapxi
tapachasi
tapantaraki
tapapa
tapapax
tapapx
tapara
tapat
tapata
tapax
tapay
tapayriwa
tapia
tapichi
taps
tapu
tapuq
taq
taqe
taqi
taqichaqan
taqikast
taqikasta
taqikuna
taqikunas
taqikunat
taqikunaw
taqin
taqinis
taqiniw
taqit
taqna
taqpach
taqpacha
taquire
tara
tarantos
tarapaca
tarapaka
taraputu
taraqu
tarasov
tarata
tarawasi
taray
tarazona
tarcisio
tarde
target
tarija
tarixa
tarma
taro
tarpuy
tarqa
tarrillo
tarujani
tarukachi
tarukani
tarwi
tarza
tarzan
tas
tasakiw
tasayco
tasi
tasita
taskent
tasmania
tasso
tat
tata
tatalillu
tatarakiwa
tataw
tatawa
tatax
tataxa
tate
tati
tatitu
tatitur
taucapampa
taumaturgo
tauro
taurus
tawantinsuyu
tawanya
tawaqunakax
tawriha
tawripampa
tawriya
taxa
taxi
tay
tayapampa
tayaqaqa
tayik
tayk
tayka
taylandya
taylor
tayna
taynati
taynawa
taype
tayphi
taypi
taypin
taypina
taypinakan
taypinakanpun
taypinakaru
taypinki
taypinkiwa
taypinx
taypinxa
tayta
taytakura
taza
tbilisi
tbl
tbol
tbsp
tcoins
tcommon
tcuft
td
te
tea
team
teatral
teatro
technology
techreport
tecnolo
tecnologi
tecnologia
tedra
tegucigalpa
tegui
tegumento
tehanu
teheran
tejada
tejido
tel
tela
tele
telenovela
teles
telesforo
televisa
televisio
televisor
telgte
tell
tello
telmo
tema
temainaak
temas
temerario
temi
temido
temp
temperature
tempestad
template
templatecat
templatecategory
templatecategoryrequirename
templatedata
templateerrorcategory
templatelink
templatename
templates
templatesort
templatestyles
templatetitle
temple
templo
temporal
temporary
temprana
tempranas
ten
tendri
tenebrosa
tenemos
tener
tengo
teni
teniente
tennessee
tenochtitla
tenochtitlan
tenorio
tentacio
teo
teobaldo
teodocio
teodolfo
teodomiro
teodorico
teodoro
teodosio
teofilo
teori
tepic
teques
tequixquiac
ter
tera
terawatt
tercer
tercera
terciopelo
terciopersonales
terence
teresa
teresina
teresita
teritoriul
termina
terminal
terminan
terminate
termino
terms
ternero
ternura
terra
terramar
terrazas
terre
terremoto
terreros
territorial
territorio
territorios
territory
terrones
terror
terroristas
terry
teruel
tesis
tesla
tesoro
test
testamento
testcases
testcaseslink
testcaseslinkdisplay
testcaseslinks
testcasespreload
testcasestitle
tested
testigo
testimonio
testimonios
testing
tests
teubner
teves
tex
texas
texcoco
text
textcell
textcellspan
textcolor
textil
texto
textos
textstyle
tez
tfrac
th
tha
thai
thakhi
thakhin
thakhinakax
thakhinjam
thakhir
thakhiwa
thakhix
thaki
thakinchatawa
thaksin
than
thanh
thank
thapay
thaqan
thaqhapxi
thaqhasipxi
that
thatcher
thay
thaya
thayacha
thayana
thayapachana
thayata
thayaw
thayeri
thayjata
thayktam
the
their
them
then
theodor
theodore
theorie
theory
there
therm
thermal
thermochemical
therms
these
thesis
thetable
they
thie
thief
thimpo
thing
things
think
third
thirteen
this
thisvalue
thixni
thiy
thiya
thiyanakan
thiyat
thm
thomas
thompson
thomson
thorpe
those
thou
though
thousand
three
through
thu
thubault
thujru
thujsa
thumb
thumbnail
thumbs
thuqht
thuqhtas
thuqhun
thuqhupxi
thuqhuran
thuqhuw
thuqt
thuqun
thursday
thuru
thurunakawa
thyssen
ti
tibillo
tiburo
tica
ticas
ticlla
tico
ticona
ticos
ticse
tidiedval
tidyval
tiempo
tiempos
tiene
tienen
tienes
tienne
tierra
tierras
tigre
tigres
tik
tika
tikaku
tikal
tikillaqa
tikllakayan
tikrapu
til
tilali
tiles
till
tima
timbu
timbuktu
time
timeaxis
timecaption
times
timestamp
timias
timis
timo
timoteo
timpluris
timu
tin
tina
tincopa
tingo
tinguin
tinikachi
tinku
tinkurachina
tinkuy
tinoco
tinqu
tinta
tintay
tintoretto
tinyawarku
tip
tipan
tipo
tipografi
tipos
tiqllas
tirado
tirana
tirano
tirapata
tiravanti
tiriwu
tirso
tisiku
tisku
tita
titi
titicaca
titikaka
titiqaqa
title
titlearg
titlelink
titlenote
titleobj
titles
titletype
tito
titulaba
titulada
titulado
tiwanaku
tiwula
tiwulampi
tiwulasti
tiwulax
tiyanan
tiyawaya
tiza
tj
tl
tlalnepantla
tlatelolco
tlaxcala
tld
tmbox
tmon
tnt
to
tobi
tocantins
tocmoche
toda
todas
todavi
today
todays
todd
todo
todos
together
tokio
tokyo
tola
toled
toledo
tolentino
tolintinu
tolkien
tolls
tolstoi
tolstoy
toluca
tom
toma
tomas
tomasa
tomates
tomay
tomb
tombouctou
tome
tommy
tomo
tomorrow
tomos
ton
tonanitla
tone
tonnage
tonne
tonnes
tono
tontnt
tonumber
tony
too
tools
tooltip
top
topara
toqet
tor
torbisco
tord
torero
torga
toribio
torices
torino
tormenta
tormes
tormo
tornado
tornero
tornillo
torno
toro
toronto
toros
torque
torr
torre
torrechayoc
torrejo
torres
torrico
torrijos
tosca
toscano
toshiro
tostring
total
totala
totocayo
totora
touch
toulouse
tour
tournavista
tours
toussaint
tovar
towards
town
toxinas
toy
tp
tr
tra
trabajadores
trabajando
trabajemos
trabajo
trabajos
trac
track
tracked
tracking
trad
trade
tradiciio
tradicio
tradicional
tradiciones
traduccio
traducciones
traducida
traducido
traduciendo
traducir
traductores
traficoperu
tragedia
tragedy
traicio
traicionera
traidor
trailing
train
traje
trampa
trang
trans
transcluded
transcript
transcriptformat
transcripturl
transdanuwyu
transitivo
transitivos
translate
translated
translatenext
translation
translations
translator
translatorlist
translators
transparent
transperiodical
transporte
transquote
transtitle
transwiki
trapecio
tras
trata
trauco
trave
travel
travesi
travessia
trayectoria
tre
treat
treated
trece
tree
tregua
treinta
trejo
trelles
tren
trent
tres
trevejo
trevin
tri
tribu
tribuna
tributo
trida
tridactyla
trigo
trigos
trigoso
trilce
trillion
trillo
trilogi
trim
trimwhitespace
trinidad
trio
triple
trista
tristan
triste
tristes
trita
triunfo
tro
troilo
trois
trompeta
trompeteros
troncoso
trono
tropical
trotsky
trottoirs
trouble
trova
trovadores
troveros
troy
troya
trucha
trudeau
true
trueno
trujillano
trujillo
truman
trunca
trunk
truro
truth
try
tryon
ts
tse
tsfc
tsubo
ttito
ttnt
tu
tubagu
tube
tuberculosis
tubman
tubo
tuco
tucson
tucupita
tuda
tueros
tuerto
tuesta
tuiro
tujtuka
tukachi
tukinakanx
tukjan
tukjir
tukt
tukuman
tukumi
tukun
tukuqan
tukutat
tukutatx
tukuwipa
tukuwipawa
tukuya
tukuyan
tukuyi
tula
tulio
tulipa
tulo
tultitla
tulum
tuma
tumas
tumay
tumaywaraka
tumba
tumbaden
tumbas
tumbes
tumbesina
tume
tumefaccio
tumipampa
tumpis
tun
tuna
tunal
tunan
tunche
tung
tungasuca
tungurahua
tunk
tunka
tunkani
tunkawa
tunki
tunqu
tunqur
tunqurimpi
tunsn
tunta
tuntax
tunu
tupac
tupak
tupaq
tupayachi
tupi
tupiqucha
tuppence
tupu
tupun
tuqi
tuqikirakiwa
tuqin
tuqina
tuqinsa
tuqinxa
tuqir
tuqiri
tuqiru
tuqirux
tuqiruxa
tuqit
tuqita
tuqitx
tuqitxa
tuqiwjana
tuqix
tuqixa
turaj
turata
turaya
turco
turi
turibiu
turismo
turkasin
turkiya
turkmin
turned
turner
turpay
turpo
turpu
turqui
turu
tus
tusi
tusquets
tuta
tuti
tutti
tutu
tutuka
tutura
tux
tuxtla
tuxu
tuya
tuyo
tuytaspawa
tv
tw
twelve
twenty
twice
twitter
two
txaikovski
tycoon
tyler
type
typedata
types
typewriter
typically
typographia
tz
tze
tzu
u
uba
ubaldo
ubigeo
ubinas
uble
ubuntu
uca
ucar
ucaso
ucayali
uch
uchan
uchasara
uchasipxiri
uchata
uchik
uchisa
ucht
uchu
uchumarka
uchumayu
uchun
uchunaka
uchunakaruw
uchuni
uchuru
uchux
uchuy
uci
ucode
ucuncha
ud
udec
uefa
uelas
uelo
uetersen
ufficiale
uficial
uficialmente
ufisyal
ufmg
uganda
ugarte
ugarteche
ugaz
ugly
ugo
ugu
ujka
ujru
uk
uka
ukajj
ukaki
ukamarak
ukamaraki
ukamp
ukampi
ukampins
ukampinsa
ukampirus
ukampirusa
ukampis
ukampisa
ukampiw
ukampix
ukan
ukana
ukanak
ukanaka
ukanakajja
ukanakampi
ukanakan
ukanakana
ukanakarakiw
ukanakaru
ukanakasa
ukanakasti
ukanakat
ukanakaw
ukanakawa
ukanakax
ukanakaxa
ukanakw
ukanakx
ukaniwa
ukankarakiwa
ukansti
ukanx
ukanxa
ukapachanakax
ukapachanx
ukapachax
ukapachparakikiw
ukapachparakiw
ukapaxa
ukar
ukarusti
ukaruw
ukaruwa
ukarux
ukaruxa
ukas
ukasa
ukast
ukasti
ukat
ukata
ukatakix
ukataw
ukatpi
ukatsti
ukatuqit
ukatwa
ukatx
ukatxa
ukaw
ukawa
ukawjarux
ukawjax
ukax
ukaxa
ukayaki
ukayali
ukch
ukha
ukham
ukhama
ukhaman
ukhamana
ukhamanakawa
ukhamarak
ukhamaraki
ukhamarakiw
ukhamarakiwa
ukhamarus
ukhamarusa
ukhamarux
ukhamasti
ukhamat
ukhamata
ukhamatwa
ukhamaw
ukhamawa
ukhamaxa
ukhamipanxa
ukhamraki
ukhanakaru
ukharak
ukharakiwa
ukhasti
ukhat
ukhaw
ukhawa
ukhax
ukhaxa
ukhun
ukhupampa
ukin
ukipxwa
ukisisinkiwa
ukja
ukjam
ukjama
ukjamak
ukjamaki
ukjamakiw
ukjaman
ukjamar
ukjamarak
ukjamaraki
ukjamarakiw
ukjamarjamaw
ukjamarus
ukjamat
ukjamatwa
ukjamaw
ukjamawa
ukjamax
ukjami
ukjamipansti
ukjan
ukjanaka
ukjanakaw
ukjanakax
ukjar
ukjaruw
ukjarux
ukjat
ukjaw
ukjax
ukjaxa
ukkhax
ukkhaxa
ukki
uknamawa
ukraine
ukraniya
ukranya
uksa
uksan
uksana
uksanakan
uksanakana
uksanjama
uksankiwa
uksanx
uksaru
uksarux
uksat
uksata
uksatuqina
uksatuqinakaya
uku
ukupa
ukutaki
ukx
ukxa
ukxarusti
ukxaruxa
ul
ula
ulan
ulaqa
uldarico
ulianov
ulica
ulimpiku
ulises
ulla
ullachiya
ullan
ullantaytampu
ullaraya
ullilen
ulliru
ullk
ulloa
ullqhi
ullqumayu
ullu
ulluku
ulluta
ulmus
ultravioleta
ululu
um
uma
umacha
umachiri
umalliq
umamp
umampi
umampix
uman
umana
umanata
umanpi
umantan
umar
umara
umari
umas
umasuyu
umat
umati
umaw
umawa
umax
umaxa
umberto
umbrales
umbuqui
umhu
uminak
umjama
umm
ump
umphi
umphiwa
umpi
umpit
umpita
umsa
umt
umu
umuchisqa
umuwa
un
una
unak
unaka
unakata
unakaw
unakawa
unakax
unakaxa
unamuno
unanak
unancha
unanchasa
unaqaski
unas
unay
unch
unchupaico
uncle
und
undefined
under
underscore
une
unesco
unexpected
unfinished
unfit
ungirya
uni
unia
unibol
unicode
unida
unidad
unidades
unidas
unido
unidos
unidu
unidus
unidusna
unificado
unikachi
unio
union
unique
unir
unit
unitcode
united
units
unitsi
universal
universidad
universidade
universidades
universita
universitaria
universitario
university
universo
unix
unjan
unknown
unknowns
unless
unlike
unlikely
unmodified
unmsm
unnamed
uno
unpack
unpita
unquy
unrecognized
unriya
unsere
unset
unsiya
unspaced
unstripnowiki
unt
untan
until
untimely
unto
untsumak
untuna
unturis
unu
unvanquished
unyun
uomo
up
upawachu
upaxa
update
updated
upload
upon
upp
upper
uppercase
upright
uq
uqa
uqan
uqayku
uqi
uqimpi
uqini
uqis
uqitx
uqiwa
uqix
uqiyapu
uqru
uqrus
uqshamarka
uqshapampa
uqunqati
uqunta
uquntaspawa
uquntayirinaka
uqupampa
uquru
uqururu
uquwiri
uquyu
ur
uraka
urakiwa
uralan
uranmarka
urano
uraq
uraqi
uraqin
uraqina
uraqinakakiraki
uraqinakan
uraqinakana
uraqinakax
uraqinkiri
uraqinxa
uraqipa
uraqir
uraqiru
uraqis
uraqita
uraqix
uraqixa
uraqpachan
uraqpachanxa
uraqpachar
urarinas
urasax
uraski
urawa
uraxa
urbano
urbina
urcia
urdaneta
urdu
uregui
uren
ureta
uri
uriarte
uribe
uriburu
uriel
urin
urinakawa
urkhu
url
urlaccess
urls
urlstatus
urnitirrinkuxa
urniturinkuxa
urpay
urqu
urqukuna
urqunaka
urqunakaxa
urqupampa
urqus
urqutuna
urrutia
urss
ursula
uru
urubamba
uruche
uruguayo
urukipan
uruna
urunak
urunaka
urunakan
urunakatwa
urunakaw
urunakax
urunakkiw
uruni
uruniwa
urunx
urupampa
urupisa
ururillu
ururu
urut
uruta
uruw
uruwayi
uruwayixa
urux
uruxa
uruya
uruyan
us
usa
usado
usados
usage
usar
usat
usawa
usbbl
usbeerbbl
usbik
usbsh
usbu
uscamaita
usdrybbl
usdrygal
usdrypt
usdryqt
use
usea
usecollapsibletextfields
used
useful
uselang
usename
usenet
user
users
uses
usescurrenttitle
usesymbol
usfloz
usgal
usgalatm
usgi
ushin
usikayus
using
usiyanya
uskenning
uskil
uskt
uskusin
usn
uso
usoz
usozserve
usp
uspi
uspk
uspt
usqa
usqt
usted
ustedes
ustring
usu
usually
usuario
usub
usuchjasit
usuchjata
usunaka
usurped
ususa
usut
usutak
usutaki
usutanakax
usutatawi
usutatawixa
usuxa
uswa
ut
uta
utable
utachan
utachasin
utachxatat
utah
utampu
utan
utana
utanak
utanaka
utanakan
utanakapa
utanakapax
utanakat
utanakaw
utanakax
utani
utanx
utapa
utapan
utapax
utapaxa
utar
utaru
utaruw
utarux
utas
utaw
utawa
utax
utc
utf
uthaya
utica
utilities
utiliza
utiqyaku
utja
utjakirakiwa
utjan
utjana
utjani
utjapxaraki
utjapxi
utjaraki
utjarakitaynawa
utjarakiwa
utjasiri
utjaskakiwa
utjaski
utjaspa
utjaspawa
utjatapa
utjatayna
utjawa
utjawayi
utjawi
utjayan
utji
utjiki
utjipan
utjipana
utjir
utjiri
utjirikataynati
utjirinaka
utjiritayna
utjistu
utjiwa
utjixa
utjka
utjkanati
utjki
utjkiti
utjxi
utjxiti
utki
utku
utkupampa
utopi
utqunaka
utt
utuqa
utuqinakanxa
utuqirux
utuqu
utuquni
utusku
utusqu
utxarakiwa
utxi
utype
uu
uva
uvas
uw
uwa
uwatana
uwaw
uwax
uwe
uwij
uwija
uwipu
uwispo
uwispu
uwisu
uwisukiti
uwisunakana
uwisunakanxa
uwisunakaxa
uwisuruxa
uwisux
uwisuxa
ux
uxa
uxi
uxn
uxu
uy
uyu
uyulu
uyun
uyuni
uyutun
uyw
uywa
uywampiw
uywan
uywana
uywanak
uywanaka
uywanakamp
uywanakan
uywanakana
uywanakap
uywanakapa
uywanakar
uywanakaru
uywanakat
uywanakata
uywanakaw
uywanakawa
uywanakax
uywanakaxa
uywanakw
uywansa
uywapxi
uywarakiwa
uywasin
uywasipxi
uywasiraki
uywat
uywata
uywatawa
uywawa
uywax
uywaxa
v
va
vaca
vacaciones
vacas
vaci
vagabundo
vagina
val
valarray
valca
valcarcel
valde
valdelomar
valderrama
valdez
valdi
valdivia
valdivieso
valdiza
vale
valencia
valenti
valentim
valentin
valentina
valentino
valenzuela
valer
valera
valeriano
valerio
valga
valid
validate
validates
validation
validator
valientes
valinfo
valinfoi
valladares
valladolid
valle
vallejo
vallejos
valles
valletta
valley
valo
valor
valores
valos
valparai
valqui
vals
valstr
value
valuefunc
values
valuetofind
valverde
vamos
van
vanc
vancouver
vanes
vanessa
vanguardia
vano
vapor
vaquero
var
vara
varayoc
varela
varennes
vargas
varia
variable
variables
variacio
variaciones
variant
varias
variations
variety
varios
various
varname
varona
varsovia
vas
vasco
vasconia
vasquez
vasto
vatican
vauthors
vayas
vaz
vda
ve
vea
veces
vecinal
vecino
veda
veditors
vega
vegae
vegas
veinte
veintemilla
veintiuno
vejez
vela
velacuy
velakuy
velarde
velas
velasco
velayarce
velezmoro
velha
velho
veliz
velo
veloce
velocidad
veloso
ven
venado
venancio
vencer
venceslau
vencidos
vendler
vendra
venecia
venegas
veneno
veneros
venes
venezia
venezolano
venezuela
venganza
vengo
vengoa
venice
vent
venta
ventana
ventanilla
vento
ventura
venus
veo
ver
vera
veracruz
veraguas
verano
veras
verb
verbal
verbales
verbo
verbos
verdad
verdaderas
verdadero
verde
verdes
verdi
verduras
vereau
vergara
vergarabat
vergaray
vergu
vermont
vernacular
vernal
verne
verneuil
vernon
vero
veronica
versa
versailles
versio
version
versiones
versions
verso
versos
verst
versuch
vert
vertebras
vertical
verve
very
vespucci
vest
veszpre
vete
vez
vi
via
viagem
viajante
viaje
viajero
viajeros
viajes
vica
vicarage
vicario
vice
vicenta
vicente
vichayal
vico
victor
victoria
victoriano
victorino
victorio
victory
victur
vicun
vida
vidal
vidarte
vidas
videiuphust
video
videos
vides
vidrio
vie
vieira
vieja
viejo
viejos
viena
viendo
viene
vienne
viento
vientos
vieques
vier
viera
vietnam
view
viewedithistorypurge
vigil
vigilia
viglietti
vigo
vihuela
vii
viii
vil
vila
vilanova
vilca
vilcabamba
vilcahuama
vilcapaza
vilcas
vilchez
vilela
villa
villacorta
villafuerte
village
villago
villagra
villahermosa
villalobos
villalva
villancicos
villano
villanueva
villar
villara
villares
villaroel
villarreal
villarrobledo
villarroel
villarruel
villasante
villasen
villaverde
villavicencio
villazana
villazo
ville
villegas
villena
villoslada
vilque
vin
vinagre
vinagrito
vincent
vincenzo
vinci
vinculados
vingt
vino
vint
violante
violencia
violeta
violi
virgen
virgilio
virginia
virhuez
virreinato
virrey
virtual
virtud
viruela
virus
visconti
visible
visio
vision
visiones
visit
visita
visitacio
visor
viss
vista
visto
visual
vita
vitacura
vital
vite
vitier
vito
vitonera
vittoria
vittorio
viuda
viudo
viva
vivaldi
vivamos
vivanco
vivar
vivas
vive
viviana
vivido
viviente
vivimos
vivir
vivo
vizcardo
vizcarra
vizconde
vladimir
vladimiro
vname
vo
vocabulario
vocal
voces
voice
voices
void
vol
volador
volante
volar
volca
volcanes
volcano
vols
volte
voltio
volu
volume
volumen
voluntad
volver
volvere
vom
von
vori
vorpommern
vosotros
voto
votos
vous
voyage
voz
vozeler
vparam
vs
vuela
vuelo
vuelta
vuelve
vuelven
vuelvo
vulgaris
vxxxxors
w
wa
waals
wabal
wachaq
wachu
wachun
wachupampa
wachuqullpa
wachus
wadalupi
wade
wagner
waja
wajax
wajcha
wak
waka
wakachina
wakan
wakanaka
wakanakapxarakiwa
wakanakasa
wakanakaxa
wakapampa
wakar
wakarakiwa
wakarpana
wakaxa
wakchis
waki
wakicha
wakichan
wakichata
wakichawi
wakicht
wakirka
wakisi
wakisiri
wakisiwa
wakisixa
wakiskir
wakiskiri
wakiskiriwa
wakiyapxi
wakt
wakwas
wal
waldir
waldo
walentin
wali
walikiti
walinaka
walinkan
walipuniw
waliwa
walixa
walj
walja
waljan
waljatuqinakawa
walk
walker
walla
wallace
wallaga
wallanka
wallaqa
wallaqi
wallaqitaw
wallaqix
wallaqt
wallata
wallatax
wallpa
wallpana
wallpar
wallq
wallqa
wallqanqa
wallqayuq
walltay
wallu
walmay
walpin
walpun
walpunrak
walsh
walt
walter
walther
walwas
walxa
wamachuku
wamali
waman
wamankikya
wamankilla
wamanqa
wamanqamanta
wamanqaqa
wamantanga
wamantanka
wamatampu
wamp
wampalpa
wampara
wampu
wampus
wan
wanchaku
wanchaq
wanchay
wang
wanipaqa
wank
wanka
wankan
wankani
wankanu
wankapampa
wankapi
wankapun
wankarama
wankarani
wankaray
wankaraylla
wankaraypi
wankarki
wankas
wankasanku
wankaskar
wankaspata
wankawillka
wankax
wankaya
wankayri
wankayu
wankayuq
wankilli
wankuyu
wansa
want
wanta
wantan
wantar
wanted
wantname
wantu
wanu
wanuara
wanukiti
wanuku
wanuwanu
waq
waqachiq
waqana
waqar
waqaypampa
waqrachuku
waqrapukyu
waqullani
war
wara
waral
waranchal
warani
warankh
waranq
waranqa
waranqh
waranqha
waranqu
waraqu
waraqux
wararqix
waras
waratatan
warawara
waray
wari
waripampa
wariqullqa
warlock
warm
warma
warmaka
warmi
warmina
warminaka
warminakaw
warminakax
warminakaxa
warmiw
warmix
warmiy
warner
warning
warnings
waros
warren
warsaw
warszawa
wartho
waru
waruchiri
warukuntu
waruqt
waryaqa
was
wasawasi
washington
wasi
wasikuna
wasitat
wasmin
wasu
wat
wata
watam
watamanta
watapi
watch
water
waterfront
waters
watimala
watio
watl
watson
watt
waw
wawa
wawan
wawanak
wawanaka
wawanakan
wawanakana
wawanakaparux
wawanakapaxa
wawanakar
wawanakaru
wawanakarux
wawanakasarux
wawanakast
wawanakataki
wawanakaw
wawanakax
wawanakaxa
wawapa
wawar
wawat
wawku
wawra
waxasi
waxasiwip
waxranakapaxa
waxt
way
waya
wayakil
wayakuntu
wayana
wayaqa
wayaqaxa
wayback
waychu
waychux
wayit
wayk
waykawachu
wayki
waylas
waylillas
wayllapampa
wayllati
wayllawara
wayllay
wayllu
wayn
wayna
waynakuta
waynanak
waynanaka
wayra
wayrapata
wayrasuyunu
wayrunq
ways
wayt
waytara
wayu
wayukachi
wayuntan
wayupata
waywash
wałe
wcd
wd
we
wea
web
website
wedding
week
weg
weight
weimar
weissmu
weissmuller
well
wells
wen
wenceslao
weninger
went
were
werner
west
western
westfalen
westphalen
wh
what
whatever
whatsapp
when
where
whether
which
while
white
whitehouse
whitelist
whitespace
whitman
whitney
who
whole
wholestr
whom
why
wi
wich
wichhu
wichhunaka
wichiqucha
wide
width
wie
wien
wiesbaden
wiesse
wife
wiki
wikibar
wikibase
wikidata
wikilink
wikilinked
wikilinks
wikimedia
wikipedia
wikipedias
wikipidiya
wikis
wikisource
wikitext
wikunku
wila
wilamp
wilampita
wilber
wilbert
wilbur
wild
wildcard
wilde
wilder
wilding
wildor
wilfredo
wilhelm
wililli
wilindoro
wilkins
will
willakuy
willakuykuna
willasun
willay
william
williams
willian
willie
willk
willka
willkanchu
willkanota
willkanuta
willkapampa
willkawaman
wills
willy
wilman
wilmer
wiln
wilnakawa
wilson
wimp
wimpi
win
wina
winak
winaka
winakampi
winakan
winakap
winakapa
winakaparjam
winakapax
winakar
winakaw
winakax
winakaxa
winchu
wind
windows
winehouse
wini
winixwila
winner
winpayuq
winsent
winston
winter
winterthur
wintu
winx
wip
wipa
wipax
wipaxa
wiphala
wiphalapa
wiphalax
wiqita
wiqu
wir
wiraku
wiraquchax
wiri
wirinakax
wirpakancha
wirriy
wiru
wiruntu
wischunku
wisconsin
wisk
wiskhalla
wiskhallawa
wiskhu
wiskhun
wislla
wit
with
within
without
withspace
witis
witness
wituku
wituq
wiw
wiwa
wix
wiyacha
wk
wl
wo
wolf
wolfgang
woll
wollstonecraft
woman
women
won
wonder
wonderland
wong
wood
woodard
woodrow
woodstock
woolf
word
words
work
workaround
works
world
worlds
worth
would
wp
wrap
wrapped
wrapper
wrappers
wraps
wrasil
wrasilxa
wrasilya
wrath
wresilen
wright
write
written
wrong
wrote
ws
wu
wuile
wukuta
wuliwar
wuliwqar
wuliwya
wuliwyana
wuliwyaxa
wuyru
wwikisource
www
wyilikiu
wyman
wyoming
władysław
x
xa
xalapa
xama
xamayka
xan
xapa
xapxiri
xapxiwa
xarakiwa
xata
xatt
xauxa
xavier
xedes
xema
xeramanu
xhi
xi
xia
xianfan
xiannian
xiaoping
xico
xicohte
xii
xiii
xikali
xiku
xilografi
xima
ximas
ximo
xine
xiomara
xiriwa
xiti
xito
xitos
xiv
xiwa
xix
xlate
xlo
xml
xn
xo
xtasis
xun
xv
xvi
xvii
xviii
xwila
xx
xxi
xxiii
xxx
xxxxors
xxxxxxx
y
ya
yachachijg
yachaq
yachay
yachaychiy
yachaywasi
yacila
yactayo
yacth
yaguas
yajo
yakayakax
yakhanpinaka
yala
yalana
yale
yallin
yalta
yamakis
yamango
yamas
yamashiro
yambrasbamba
yamel
yamo
yampara
yampura
yamwraspampa
yan
yanakancha
yanama
yanapa
yanapan
yanapt
yanaq
yanaqa
yanaqancha
yanaqiwa
yanas
yanatili
yanavilca
yanawanka
yanawara
yanawaya
yanawka
yanawqa
yanfranco
yang
yangali
yankee
yanpt
yanqha
yanqi
yanque
yanqui
yant
yantalu
yap
yapo
yapu
yapucha
yapuchan
yapuchata
yapuchawi
yapucht
yapuchura
yapump
yapunak
yapunakapa
yapunakax
yapunakx
yaq
yaqaan
yaqha
yaqhanakamp
yaqhanakampi
yaqhanakarakiw
yaqhapxiti
yaqhep
yaqhip
yaqhipa
yaqhipanakax
yaqhipanakaxa
yaqhiph
yaqhippachanakax
yaqhippachax
yaqus
yarada
yaranga
yarapampa
yarasca
yarawi
yard
yards
yarinaquta
yarumayu
yarusyaqan
yaruwillka
yasujiro
yat
yati
yatich
yaticha
yatichan
yatichawini
yatichiri
yatichirinakar
yaticht
yatin
yatiniwa
yatintan
yatintapxi
yatipkiti
yatipxan
yatipxaraki
yatipxi
yatipxiri
yatiq
yatiqa
yatiqan
yatiqawi
yatiqir
yatiqiri
yatiraki
yatiri
yatisax
yatiskapati
yatiskiti
yatita
yatitayna
yatiwi
yatiwinaka
yatiya
yatiyan
yatiyanaka
yatiyapxi
yatiyawi
yatiyawinaka
yatiyi
yatiyir
yatiyiri
yatiyiw
yatjjatan
yatjjatatanakajja
yatxapxanawa
yatxapxiti
yatxatan
yatxatatanaka
yatxatatanakax
yatxatawi
yatxatawiri
yauca
yauli
yauri
yauyos
yawar
yawin
yawka
yawli
yawri
yawrisqi
yawyu
yawyukan
yaxipa
yaya
yban
ybarhuen
yd
ye
year
years
yegros
yellow
yeltsin
yen
yepes
yerba
yerovi
yerupaja
yes
yesno
yeso
yesterday
yet
yglesias
yi
yingluck
yj
ym
yma
ymd
yntusca
yo
yogur
yolanda
yon
yone
yoni
york
yorongos
yoruba
you
young
your
youtube
yr
yrigoyen
yrma
ysrael
yu
yucata
yucra
yugoslavia
yuji
yujra
yukanaka
yukay
yuku
yumani
yunan
yungas
yungay
yunka
yunkay
yunkuyu
yunta
yuntax
yupa
yupanqui
yupay
yupaycha
yupaychan
yupaychawit
yuqa
yuqalla
yuqanaka
yura
yuraqyaku
yurgen
yuri
yurimawas
yurin
yurita
yuritaina
yuritayna
yuriwi
yuru
yurua
yuyapichis
yvan
yves
yy
yyy
yyyy
z
za
zabaleta
zacari
zacarias
zacatecas
zafiro
zafra
zag
zahir
zalamea
zamalloa
zambrano
zamora
zamperini
zamudio
zan
zanabria
zanahoria
zanne
zapana
zapata
zapater
zapatero
zar
zaragoza
zaro
zarumilla
zarzuela
zavala
zavaleta
zayas
zbl
ze
zea
zeami
zeballos
zedong
zeeman
zegarra
zehnder
zeit
zela
zelada
zemin
zen
zender
zeno
zenobia
zenobio
zeppelin
zero
zeros
zevallos
zhang
zhao
zheng
zhou
zhu
zhuang
zi
zico
zig
zinc
ziyang
zj
zm
zo
zoff
zoila
zoilo
zola
zolta
zomeli
zona
zone
zoo
zool
zoraida
zorba
zorrila
zorrilla
zorritos
zorro
zquez
zquita
zu
zuasna
zuazo
zubarry
zubiaga
zulema
zulma
zulu
zulueta
zum
zumaeta
zumos
zumpango
zun
zunz
zur
zurbara
zuri
zurita
zuta
zuzunaga
zwei
zwinger
zwj
zzz
{
|
}
~
¡
¢
£
§
¨
ª
«
¬
­
®
°
±
²
³
´
µ
·
º
»
½
¿
×
ø
đa
đokovic
ı
łobez
ƿ
ǆ
ɏ
ɑ
ə
ʲ
ʹ
ʼ
ʿ
ˇ
ˈ
ː
˘
˛
̀
́
̂
̃
̄
̆
̇
̈
̉
̊
̋
̌
̓
̛
̝
̣
̦
̧
̨
̩
̪
͂
͡
α
γ
ι
μ
ς
а
беларусь
в
д
детство
е
жизнь
и
л
лев
н
на
о
песня
с
ч
чаи
ю
я
ְ
ִ
ֵ
ַ
ָ
ֹ
ֻ
ּ
ׁ
א
ב
ג
ד
ה
ו
ח
י
ל
מ
ע
צ
ק
ר
ש
ا
ة
جمهورية
ه
ِ
ّ
ٓ
ٔ
ٕ
۲
ं
ग
त
द
ध
न
प
म
र
ल
श
ा
ि
ी
ू
े
्
ং
ক
খ
ট
ঢ
ত
দ
প
ব
ম
র
ল
শ
স
হ
়
া
ি
ী
ু
ে
্
ખ
ર
સ
ા
ો
્
க
ங
ட
த
ம
ர
ா
ி
ு
்
ං
ක
ග
ඩ
ද
ම
ර
්
ා
ි
ු
ช
ย
ั
ิ
ุ
่
์
​
‌
‍
‎
–
—
‘
’
“
”
„
†
•
…
‰
′
″
⁄
⁠
€
⅔
↑
→
↔
↷
−
③
④
⑦
☉
☾
♀
♂
♠
♦
ⴰ
ⴳ
ⴷ
ⴽ
ⵉ
ⵍ
ⵎ
ⵏ
ⵓ
ⵔ
ⵛ
ⵜ
⺀
⺄
⺆
⺈
⺊
⺌
⺕
⺝
⺸
⺼
⿰
⿱
⿲
⿳
⿴
⿵
⿶
⿷
⿸
⿹
⿺
⿻
。
〢
コ
ユ
㇁
㇂
㇄
㇇
㇈
㇉
㇓
㐁
㐄
㐅
㐌
㐫
㐬
㐭
㐮
㐱
㑒
㒵
㒸
㒼
㓁
㓞
㔾
㕛
㕣
㖾
㘝
㚅
㚇
㚔
㚘
㝉
㝡
㝴
㝵
㞋
㞢
㞷
㠩
㠭
㠯
㡀
㡭
㡿
㢲
㢴
㣇
㣺
㥯
㪅
㫄
㫐
㫒
㫺
㬅
㬎
㬥
㬰
㲋
㳄
㷠
㸒
㸚
㸦
㼌
㼲
㽞
㿟
䀠
䂞
䍃
䏍
䒑
䖍
䖒
䖝
䖵
䙴
䚻
䜌
䝿
䡛
䧹
䪞
一
丁
丂
七
丄
丅
丆
万
丈
三
上
下
丌
不
与
丏
丐
丑
专
且
丕
世
丘
丙
业
东
丞
丢
丣
两
严
並
丨
丩
个
丫
丬
中
丮
丰
丱
串
丵
丶
丷
丸
丹
为
主
丽
丿
乀
乂
乃
久
乆
乇
么
义
之
乌
乍
乎
乏
乐
乑
乔
乖
乗
乘
乙
乚
乛
乜
九
乞
也
习
乡
乳
乾
亀
亅
了
亇
予
争
事
二
亍
于
亏
亐
云
互
亓
五
井
亘
亚
些
亜
亞
亟
亠
亡
亢
交
亥
亦
产
亨
亩
享
京
亭
亮
亯
亰
亲
亳
亶
亷
人
亻
亼
亾
仁
今
介
仌
从
仐
仑
仒
仓
仕
他
付
仝
代
令
以
们
任
企
伊
伏
伐
休
会
传
伯
但
位
何
佘
余
作
佥
使
來
侈
侌
侖
侯
侵
便
保
俞
信
修
倉
倍
候
倠
健
備
傳
僉
僕
儿
兀
允
兂
元
兄
充
兆
兇
先
光
兊
克
兌
免
兑
兒
兓
兔
党
兜
兟
入
全
兩
兪
八
公
六
兮
兰
共
关
兵
其
具
典
兹
兼
冀
冂
冃
冄
内
冈
冉
冊
冋
册
再
冎
冏
冐
冒
冓
冖
冗
冘
军
农
冝
冡
冥
冫
冬
冷
几
凡
凢
凵
凶
凷
凸
凹
出
函
凾
刀
刁
刂
刃
刄
刅
分
切
刍
刑
刕
刖
列
刘
则
初
別
利
别
到
制
刺
則
削
剌
前
剡
剽
劉
力
办
功
加
劦
助
劫
劳
劵
勃
勇
勉
勒
動
務
勞
勤
勹
勺
勻
勾
勿
匀
匂
包
匆
匈
匊
匋
匍
匕
化
北
匚
匝
匡
匪
匱
匸
匹
区
医
匽
匿
區
十
卂
千
卄
卅
卆
升
午
卉
半
卌
华
卑
卒
卓
单
卖
南
卜
卝
卞
占
卡
卢
卣
卤
卦
卩
卪
卬
卯
印
危
即
却
卵
卷
卸
卻
厂
厃
厄
历
厈
厉
厌
厓
厘
厚
原
厤
厥
厨
厭
厲
厶
厷
厸
去
厼
厽
叀
参
參
叅
又
叉
及
友
双
反
叐
发
叒
叔
叕
取
受
叚
叜
叟
口
古
句
另
叩
只
召
可
台
叱
史
右
叵
号
司
叹
吂
各
吅
合
吉
吊
吋
同
名
后
吏
向
吕
君
吝
吞
否
吧
含
启
吳
吴
吹
吾
呂
呆
呈
告
员
呙
周
命
咅
和
咎
咖
咠
咢
咨
咸
咼
哀
品
哉
員
哥
哲
唉
唐
商
啇
問
啚
啡
啬
啻
善
喇
喜
喬
單
喿
嗇
噢
噩
嚴
囊
囗
囘
囙
囚
四
回
囟
因
囧
囬
园
困
囱
囷
固
国
圂
圅
國
圍
圓
土
圡
圣
圥
在
圭
地
圶
圼
坐
坒
坚
坴
垂
垔
垚
埀
埋
城
埶
執
基
堂
堅
堆
堇
堯
塞
墨
壘
士
壬
壯
声
壳
壴
壹
壺
壽
夂
处
夅
夆
备
夊
夋
夌
复
夏
夒
夕
外
夗
夘
多
夜
夢
大
夨
天
太
夫
夬
夭
央
失
夲
头
夷
夸
夹
夻
夾
奂
奄
奇
奈
奉
奎
奏
奐
契
奓
奔
奚
奞
奠
奢
奥
奭
女
奴
她
奻
好
如
妄
妙
妟
妥
妻
妾
始
姑
委
姜
威
娄
娜
婁
婚
婴
嬰
嬴
子
孑
孔
孕
孖
字
存
孚
孛
孝
孟
季
孤
学
孫
孱
學
宀
宁
宂
它
宅
宇
守
安
宋
完
宏
宓
宗
官
定
宛
宜
宝
客
宣
室
宮
宰
害
家
容
宾
宿
寄
寅
密
富
寒
察
寧
審
寫
寬
寮
寸
对
寺
寻
寽
対
寿
封
尃
射
将
將
專
尉
尊
尋
尌
對
小
少
尒
尓
尔
尖
尗
尚
尞
尢
尣
尤
尧
尨
尭
就
尸
尹
尺
尻
尼
尽
尾
尿
局
居
屈
屋
屎
屏
屑
展
屖
屚
属
屠
屡
屬
屮
屯
屰
山
屵
屾
岁
岂
岑
岡
岩
岳
岸
峯
島
崇
崑
崔
崖
崙
崩
嵬
嶲
巂
巛
川
州
巟
巠
巢
巤
工
左
巧
巨
巩
巫
差
己
已
巳
巴
巷
巸
巽
巾
巿
帀
市
布
希
帚
帛
帝
带
師
席
帶
常
干
平
年
幵
并
幷
幸
幺
幻
幼
幽
幾
广
広
庄
庆
床
底
店
庚
府
度
庫
庭
庶
康
庸
廉
廌
廛
廣
廩
廴
延
廷
建
廾
廿
开
弁
弃
弄
弇
弋
式
弓
弔
引
弗
弘
弜
弟
张
弥
弦
弱
張
強
强
彊
彌
彎
彐
彑
当
彔
录
彖
彗
彡
形
彥
彦
彧
彭
彳
彷
役
彼
往
待
很
律
徒
得
徙
從
徨
復
微
徵
德
心
忄
必
忌
忍
志
忙
忝
忠
忩
快
念
忽
忿
思
怠
急
怱
恆
恋
恒
恩
恭
息
悉
患
悤
悲
悶
惠
惡
惢
想
愁
愈
意
愛
感
慈
慧
慮
慶
憂
憲
應
戀
戈
戉
戊
戋
戌
戍
戎
成
我
戒
戔
或
戚
戠
戢
截
戲
戶
户
戹
戼
戾
房
所
扁
扇
手
扌
才
打
托
执
承
折
拉
拜
拿
振
掌
推
提
搙
摩
支
攴
攵
收
攸
改
放
政
敄
敏
敕
敖
敗
敝
敞
敢
散
敦
敫
敬
数
敷
數
斂
文
斉
斊
斗
斤
斥
斩
斬
斯
新
方
於
施
斿
旁
旋
族
无
旡
既
旣
日
旦
旧
旨
早
旬
旱
旲
时
旾
昆
昇
昌
昍
明
昏
易
昔
昗
昜
星
春
昬
是
昱
昴
昷
時
晃
晋
晏
晓
普
景
晶
智
暑
暴
曇
曩
曰
曲
曳
更
曷
書
曹
曼
曾
替
最
朁
會
月
有
朋
服
朔
朕
朗
望
朝
木
朩
未
末
本
札
朮
术
朱
朵
朶
机
朿
杀
李
杏
村
杜
束
条
来
杨
東
杲
杳
松
析
林
枚
果
枝
枲
枼
某
柔
查
柬
柰
柴
栗
校
格
桀
桂
桑
桼
梁
條
梟
梨
棘
棠
棥
森
楚
業
楽
榮
樂
樊
樹
欠
次
欣
欮
欲
欶
欽
款
歆
歇
歛
止
正
此
步
武
歨
歪
歮
歯
歰
歲
歴
歷
歸
歹
歺
死
殳
段
殷
殸
殹
殺
殻
殿
毋
毌
母
每
毒
比
毕
毚
毛
毳
氏
氐
民
气
氣
水
氵
氶
氷
永
氺
氾
求
汝
汞
江
沃
沓
沙
沝
没
泉
法
波
泣
泥
泰
泽
洛
洪
活
派
流
浦
浪
浮
海
淡
淮
清
渚
渠
温
港
游
湖
湯
溝
滿
漸
澤
濟
濤
火
灬
灭
灰
灵
灷
炅
炎
炏
炗
炙
炭
点
為
烈
烏
烝
焉
無
焦
焱
然
煞
熊
熏
燕
營
燮
爪
爫
爭
爯
爰
爱
爲
爵
父
爻
爽
爾
爿
片
牙
牚
牛
牜
牟
牢
牧
牪
牽
犀
犬
犭
犮
狂
狄
狊
独
狺
猋
猒
猪
献
獻
玄
率
玉
王
玟
玨
玩
现
珎
班
琴
瑜
瑟
瑩
璠
瓜
瓦
甘
甚
生
産
用
甫
甬
田
由
甲
申
电
甶
男
甸
甹
画
甾
畀
界
畏
畐
畔
留
畜
畟
畢
略
畧
畨
番
畫
異
畱
當
畺
畾
疊
疋
疌
疑
疒
疾
癶
癸
癹
登
發
白
百
皀
皃
的
皆
皇
皋
皐
皕
皮
皷
皿
盃
盆
盇
盈
益
盍
盎
监
盒
盖
盛
盡
監
盤
盧
目
直
相
盾
省
眇
眉
看
眔
眞
真
眷
眼
眾
着
睘
睪
睿
瞏
瞢
瞿
矍
矛
矞
矢
矣
知
矦
短
石
破
碎
磊
磨
示
礻
礼
祟
票
祭
禀
禁
禸
禹
禺
离
禽
禾
禿
秀
秃
秉
秋
科
秝
秦
移
稟
穀
穌
穴
究
穹
空
穿
突
窄
窒
立
竒
竜
竝
竟
章
童
竹
笑
笠
筆
等
答
箕
算
箴
節
篤
篭
米
粉
粛
粟
粤
粦
粲
糞
糸
糹
系
約
納
素
索
紧
紫
累
細
絜
絫
絲
維
綿
縣
繇
纍
纟
结
缶
网
罒
罔
罕
罗
罙
罡
罢
罪
署
罷
羅
羊
羌
羍
美
羔
羕
羗
羞
羡
羣
群
義
羲
羸
羽
翁
翏
習
翕
翟
翠
翼
老
耂
考
者
耆
而
耎
耑
耒
耳
耴
耶
耷
聂
聊
聖
聚
聶
聿
肀
肃
肅
肉
肖
肙
肥
肩
肯
育
肴
胃
背
胡
胥
能
脊
脩
膚
臣
臤
臧
自
臬
臭
臯
臱
至
致
臺
臼
臽
臾
臿
舀
舂
舄
與
興
舉
舌
舍
舛
舜
舞
舟
般
船
艮
良
色
艸
艹
艾
芒
芔
芬
芮
花
芳
芺
芻
苔
苗
苟
若
苦
英
茶
茸
荅
草
荒
荣
荼
莆
莎
莧
莫
莽
菆
菊
菐
華
萬
落
葉
著
葛
董
葵
蒙
蒦
蒼
蓋
蓬
蓺
蔑
蔡
蔣
蕉
蕭
薄
薛
薦
薰
藍
藏
藥
藩
蘭
虍
虎
虐
虒
虔
處
虖
虗
虘
虚
虛
虜
虞
虫
虽
蚤
蚩
蜀
蜜
蟲
蠡
血
行
衍
衛
衡
衣
衤
表
衮
衰
袁
袞
褭
褱
襄
襾
西
覀
要
覃
見
規
覓
覧
親
覽
见
角
解
言
訁
訇
計
記
詹
語
誩
說
諸
讠
记
说
谷
豆
豈
豊
豐
豕
豖
豙
象
豦
豩
豪
豸
貇
貝
貞
貟
負
貢
貧
貪
貫
責
貳
貴
買
費
賁
資
賈
賏
賓
賔
賛
賞
賢
賣
質
賴
贊
贝
贡
责
贯
贲
贵
赖
赞
赤
赦
走
赵
起
越
足
跟
路
蹇
身
躬
車
軍
軎
軟
輦
车
辛
辜
辟
辥
辰
辱
農
辵
辶
边
达
迅
过
近
连
迷
追
退
送
逆
逐
通
速
造
逢
連
逮
進
遀
遂
過
道
達
遣
適
遷
遺
邊
邑
邓
邕
那
邦
邪
郎
部
郭
都
鄉
酉
酋
配
酓
釆
采
里
重
野
量
金
釒
錢
錦
钅
锋
镕
長
镸
长
門
閃
閉
開
閏
閑
閒
間
閔
閵
閻
闌
门
间
闷
阑
阜
阝
阳
阿
降
院
陳
隆
隊
隋
隡
隨
隱
隶
隹
隺
隻
隼
隽
难
雀
雁
集
雈
雋
雍
雐
雔
雙
雚
雜
雝
離
難
雨
雩
雪
雲
零
雷
需
霍
霜
霝
霞
霸
靈
靑
青
非
靡
面
靣
革
韋
韦
韭
韯
韱
音
頁
頃
項
須
頗
頡
頻
顛
页
風
风
飛
飞
食
飠
養
饣
馆
首
香
馬
馮
駦
马
骨
高
髟
鬥
鬯
鬲
鬼
魚
魯
鮮
鱼
鲁
鳥
鳳
鸟
鹵
鹿
麃
麗
麥
麦
麻
黃
黄
黍
黎
黑
黒
黨
黹
黽
黾
鼎
鼓
鼠
鼻
齊
齋
齐
齒
齡
齿
龄
龍
龙
龜
龟
龠
龰
龱
龴
龵
龶
龷
龸
龹
ꭹ
ꮃ
ꮳ
者
艹
ﬁ
﻿
，
；
？
🜨
𠀁
𠀃
𠀆
𠀉
𠀎
𠀐
𠁁
𠁣
𠂆
𠂇
𠂈
𠂉
𠂊
𠂋
𠂎
𠂒
𠂔
𠂛
𠂡
𠂢
𠂤
𠂬
𠂭
𠂹
𠃊
𠃋
𠃌
𠃍
𠃎
𠃑
𠃓
𠃔
𠃜
𠄌
𠄎
𠄠
𠄢
𠆢
𠆥
𠇍
𠈌
𠌵
𠓜
𠔉
𠔥
𠔼
𠔽
𠔿
𠕀
𠕁
𠕋
𠘧
𠘨
𠙻
𠙼
𠚏
𠚒
𠚤
𠚪
𠣏
𠤎
𠤕
𠥓
𠦄
𠦑
𠦝
𠧒
𠧗
𠧪
𠩺
𠪚
𠫓
𠫔
𠫤
𠬛
𠬝
𠬞
𠬢
𠬤
𠬶
𠮛
𠮦
𠮷
𠯑
𠱠
𠳮
𠷎
𡈼
𡉀
𡉵
𡌥
𡍮
𡏳
𡕒
𡕩
𡕰
𡖅
𡗗
𡗜
𡘆
𡘤
𡧱
𡨄
𡩧
𡬠
𡭽
𡰣
𡰥
𡰪
𡰯
𡰱
𡷈
𡸁
𡿨
𡿩
𡿪
𡿺
𢀖
𢀛
𢀩
𢁙
𢆉
𢆰
𢆶
𢇁
𢇇
𢉖
𢌬
𢌿
𢏚
𢑑
𢑚
𢖻
𢙣
𢛳
𢦏
𢦒
𢧵
𢼄
𢾕
𣁋
𣄼
𣅀
𣅽
𣍘
𣎳
𣎵
𣏋
𣏼
𣗥
𣥂
𣥖
𣦵
𣦼
𣧄
𣪊
𣪠
𣬉
𣳾
𣶒
𤇾
𤊽
𤐫
𤓰
𤔔
𤕨
𤣩
𤰇
𤰔
𤰞
𤴓
𤴔
𤽄
𥁑
𥁕
𥃦
𥃩
𥃭
𥇡
𥑟
𥘅
𥘈
𥝢
𥫗
𥱡
𦈢
𦉪
𦉬
𦉼
𦍌
𦍒
𦎧
𦐇
𦓔
𦔮
𦘒
𦙃
𦚏
𦣝
𦣞
𦣻
𦥑
𦥔
𦥯
𦨉
𦭝
𦰩
𧆞
𧈧
𧘇
𧰨
𧴪
𧴮
𧵩
𧾷
𨸏
𨾴
𩙿
𩠐
𩫏
𩵋
𪉷
𪜀
𪟽
𪠲
𪩲
𫇦
𫔭
𫜸
𫝀
𫠣
𫠩
𫢉
𫥞
𫩏
𫩠
𫪡
𫲽
𫶧
𬀷
𬐘
𬗌
𬙙
𬛸
𬜯
𬟩
𬯁
𬴘
𬺻
𬼉
𬼖
𭀰
𭁈
𭁨
𭅰
𭑈
𭕄
𭗼
𭤨
𭥫
𭻾
𮅕
𮊿
𮍌
𮍏
𮓗
𮥼
𮧮
廾
𰀁
𰀄
𰀈
𰀉
𰀕
𰀠
𰀡
𰀢
𰀪
𰁜
𰃮
𰆊
𰆘
𰋙
𰕎
𰢴
𰧭
𰯲
000--
000000--
004--
100--
105--
110--
117--
158--
210--
211--
230--
315--
350--
418--
978849--
a--
aa--
ab--
aben--
abi--
abs--
ac--
aca--
ace--
ach--
acha--
achh--
achi--
aci--
aco--
act--
activ--
acu--
ad--
adi--
adiv--
adopt--
adu--
ae--
aero--
aga--
agn--
agos--
agr--
agri--
agu--
ah--
ai--
aja--
aje--
aju--
ak--
aka--
akat--
akha--
aki--
al--
ala--
alaqa--
alas--
alay--
ale--
ali--
all--
allx--
almen--
alt--
alta--
am--
ama--
aman--
amanchir--
amasi--
ambi--
ame--
ami--
amp--
amta--
amuy--
amxa--
an--
ana--
anak--
anan--
anca--
and--
anda--
ane--
ani--
anno--
anqha--
ans--
ansi--
anta--
ante--
anti--
anu--
anwan--
ao--
ap--
apa--
apo--
app--
aps--
apsu--
apt--
apu--
apxa--
apxi--
aq--
aqa--
aqisi--
aqu--
ar--
ara--
are--
arg--
args--
ari--
aris--
arma--
aro--
aroz--
arr--
arsu--
art--
aru--
aruma--
arupt--
arwa--
as--
asa--
ase--
asi--
asipk--
ask--
aski--
aspi--
astu--
asu--
at--
ata--
atamir--
ate--
ati--
atk--
ato--
attr--
atu--
au--
aus--
auto--
av--
aven--
aventu--
avia--
aw--
awa--
awati--
away--
awi--
awki--
awti--
awtj--
ax--
axa--
axwiri--
ay--
aya--
aymaran--
ayn--
az--
azte--
b--
ba--
bal--
ban--
bar--
base--
bat--
bati--
bau--
bay--
be--
bed--
bel--
ben--
ber--
bi--
bibi--
bie--
bil--
bir--
bis--
bla--
blok--
bloo--
bo--
bohe--
bon--
boo--
bor--
bot--
br--
bratisl--
bro--
bron--
bru--
bry--
btu--
bu--
bulga--
buly--
buon--
bur--
bus--
but--
by--
c--
ca--
cai--
caja--
cal--
cali--
camb--
camp--
can--
cap--
capa--
car--
cara--
cari--
cass--
cat--
cay--
cc--
ce--
cebo--
cele--
celu--
cer--
cfg--
ch--
cha--
chac--
chan--
char--
chay--
che--
chha--
chhaqha--
chhaqt--
chhi--
chhichhill--
chhij--
chhu--
chi--
chiq--
chir--
chiw--
cho--
chon--
chu--
chuki--
chump--
chur--
chura--
ci--
cicli--
cil--
cin--
cir--
ck--
cl--
cla--
clasi--
cle--
cli--
clo--
co--
coa--
cock--
col--
coll--
com--
con--
conce--
confe--
confi--
confu--
conser--
consp--
coor--
cor--
corne--
corpor--
corres--
cot--
coti--
cour--
cow--
cr--
cre--
creen--
cri--
cro--
croni--
cru--
cs--
cu--
cue--
cul--
cult--
cump--
cup--
cur--
cy--
cze--
d--
da--
dal--
dan--
dans--
de--
dea--
deci--
defin--
degolla--
del--
den--
deno--
depart--
der--
des--
dey--
di--
dia--
dict--
die--
dil--
dina--
dio--
dir--
dis--
disc--
disku--
display--
diss--
diver--
divid--
do--
doc--
doi--
don--
dor--
doro--
dou--
dr--
dra--
dry--
du--
dur--
dw--
dy--
e--
ec--
ed--
edel--
edit--
egi--
egr--
el--
ele--
em--
emo--
emple--
emprende--
en--
end--
enfer--
enfo--
eng--
enmas--
ensay--
ent--
enti--
ep--
epi--
equi--
er--
era--
erg--
es--
escri--
espi--
est--
et--
eu--
ev--
eva--
every--
ex--
exa--
exp--
expand--
expec--
ext--
extra--
ez--
f--
fa--
facil--
fal--
fall--
fan--
far--
fasc--
fe--
featu--
feder--
femen--
fer--
fi--
figu--
fila--
fir--
fl--
fo--
foot--
for--
fore--
fr--
fre--
frey--
fri--
fried--
fru--
fu--
fugi--
ful--
fun--
fund--
fur--
g--
ga--
gal--
gar--
gara--
gas--
gay--
ge--
ger--
get--
gi--
gib--
giga--
gil--
gio--
gl--
glo--
go--
gob--
god--
gol--
golondr--
good--
gor--
goro--
goul--
goy--
gr--
gra--
gratu--
gren--
gri--
gril--
grin--
gro--
gt--
gu--
gua--
guang--
guara--
gui--
gulf--
gun--
gur--
gutemb--
gy--
h--
ha--
ham--
han--
hanni--
hap--
har--
has--
haupt--
he--
hel--
hen--
her--
hi--
high--
higu--
hil--
hilde--
hin--
hipo--
hiro--
hl--
hm--
ho--
hoch--
hol--
hor--
hr--
hrva--
hu--
hua--
huac--
huan--
huanca--
huar--
huari--
huay--
hubi--
huk--
hun--
hus--
i--
ia--
ibe--
iberoa--
ibi--
id--
ide--
idy--
if--
igi--
ign--
ii--
ij--
ijt--
ik--
ikisk--
ikras--
il--
ili--
iliw--
illu--
ilu--
im--
ima--
imasi--
imp--
imper--
in--
ina--
inc--
incor--
ind--
indi--
indocu--
inesp--
infl--
ini--
inka--
ins--
inter--
inti--
inv--
invoca--
ipt--
ipxa--
iq--
iqi--
ir--
iran--
iri--
iron--
irpt--
irpxa--
is--
isi--
isk--
isp--
ist--
isthap--
it--
ita--
itur--
iw--
iwa--
iwi--
ix--
ixi--
iy--
iya--
iyaws--
iz--
j--
ja--
jacque--
jak--
jaka--
jakh--
jaki--
jal--
jala--
jalant--
jalanuqt--
jalaq--
jalay--
jaljt--
jalt--
jan--
japxa--
jaq--
jaqi--
jaquk--
jar--
jas--
jax--
jay--
jayp--
jayth--
je--
ji--
jicc--
jik--
jikj--
jikjjata--
jil--
jila--
jilt--
jisk--
jiw--
jiwa--
jiwayat--
jo--
joy--
jr--
jt--
ju--
juch--
jugu--
juk--
juka--
julca--
jupa--
jupan--
jupha--
jur--
jut--
juy--
k--
ka--
kai--
kall--
kam--
kama--
kamis--
kan--
kapita--
kar--
kat--
katj--
katu--
katuqa--
kaw--
kawk--
kawkhan--
kayu--
ke--
ker--
kha--
khi--
khit--
khu--
khus--
khuy--
ki--
kid--
kill--
kilo--
kilu--
kimsp--
kin--
kins--
kit--
kk--
kl--
ko--
kri--
kro--
ku--
kulla--
kun--
kuna--
kur--
kusi--
kut--
kuti--
l--
la--
laca--
lak--
lan--
lance--
laq--
lar--
larec--
las--
lat--
lau--
lay--
laya--
layqa--
le--
legi--
leo--
lev--
lez--
li--
liber--
libre--
lie--
lim--
lin--
lind--
lip--
ll--
lla--
llan--
llip--
llo--
llup--
lluthira--
lo--
log--
lon--
lor--
love--
lt--
lu--
luk--
luntha--
luqt--
lur--
lura--
lux--
ly--
m--
ma--
mac--
maca--
mad--
mag--
mai--
mak--
make--
makha--
mal--
maldi--
man--
mani--
manq--
mant--
map--
mar--
mara--
maran--
marg--
marga--
mark--
marx--
mas--
mascu--
masi--
masin--
mask--
mat--
mau--
may--
mayi--
mayu--
mb--
md--
me--
meg--
mega--
mei--
melc--
men--
mer--
mes--
mexi--
mez--
mh--
mi--
micro--
mid--
mik--
mil--
milli--
min--
mina--
mira--
mirror--
mis--
mist--
mit--
mm--
mo--
modi--
molle--
mon--
monte--
mor--
mos--
mou--
mov--
mp--
ms--
mt--
mu--
mugu--
mul--
mun--
muni--
munica--
muniel--
munila--
munilos--
munipac--
munisan--
munisanjuan--
munisanta--
mur--
mus--
mut--
muy--
muyunta--
my--
n--
na--
nak--
nar--
nav--
navi--
naya--
nd--
ne--
neces--
neo--
nept--
neu--
new--
nf--
ng--
ni--
nie--
nin--
nina--
nn--
no--
nom--
nor--
noru--
nos--
nreg--
ns--
nt--
nu--
num--
ny--
o--
oa--
ob--
obli--
occ--
oco--
ocu--
ocur--
of--
ofer--
off--
offi--
ofi--
ok--
ol--
ola--
oli--
olym--
on--
oo--
op--
opu--
or--
org--
ori--
ort--
os--
ot--
ota--
ou--
out--
ov--
over--
ox--
p--
pa--
pac--
pach--
pacha--
pai--
paja--
pale--
pall--
pallapalla--
pallasi--
palp--
pamp--
pan--
paol--
par--
para--
pari--
park--
parlk--
pas--
pat--
pata--
patru--
pav--
pax--
pay--
pe--
pen--
pente--
per--
perse--
pet--
petrar--
pha--
phi--
phich--
phisi--
phra--
phu--
phuqha--
phuyu--
phy--
pi--
pica--
pico--
pill--
pin--
pint--
piq--
pir--
pj--
pk--
pl--
pla--
plani--
play--
ple--
png--
po--
pol--
poli--
pone--
pong--
pop--
por--
porto--
pos--
post--
pot--
pra--
pre--
pri--
pro--
produ--
proi--
prov--
pru--
ps--
psi--
pt--
pu--
puku--
pul--
pull--
puma--
pun--
pur--
puri--
purin--
puripxa--
puriy--
puruma--
pusi--
put--
puy--
px--
pxa--
pxiri--
py--
pyth--
q--
qa--
qama--
qan--
qar--
qatu--
qaw--
qha--
qhans--
qhati--
qhi--
qhis--
qhispi--
qhit--
qhu--
qi--
qisp--
qor--
qu--
qual--
que--
qui--
quisp--
qul--
qull--
qulqi--
quqa--
quri--
quta--
quy--
r--
ra--
raff--
rai--
rak--
ran--
rand--
ras--
raw--
rd--
re--
rece--
reck--
recl--
reco--
recur--
red--
ref--
reg--
rem--
rep--
res--
responsab--
ret--
revolution--
rey--
rft--
ri--
rib--
rin--
risp--
rit--
rix--
rmu--
ro--
roa--
rob--
rou--
rt--
ru--
rubi--
rud--
runa--
ruru--
ry--
s--
sa--
sal--
salgu--
salva--
sam--
samin--
san--
sand--
sandbox--
sapa--
sapie--
sapj--
sapxa--
sar--
sara--
sarapk--
saraq--
sarawi--
sas--
sat--
sata--
sax--
say--
sc--
sch--
sche--
sci--
se--
secue--
secun--
self--
sem--
semi--
sen--
sensi--
sep--
ser--
set--
sh--
sha--
shi--
shu--
si--
sica--
sie--
siku--
sillu--
simp--
simula--
sin--
siq--
situ--
six--
sk--
sky--
sl--
slav--
slov--
sm--
small--
sn--
snow--
so--
sobr--
sobre--
sol--
soli--
some--
son--
sop--
sor--
sp--
spe--
spec--
sq--
squ--
sr--
ss--
st--
sta--
stan--
stani--
stay--
ste--
stein--
sti--
str--
strad--
stras--
stu--
su--
sub--
sul--
sum--
sun--
super--
sur--
sus--
sustj--
susya--
suti--
suy--
sv--
swe--
swo--
sy--
syl--
sz--
t--
ta--
tab--
tak--
taki--
tam--
tama--
tan--
tapa--
taq--
taqi--
taqiw--
taqu--
tar--
tari--
tarwan--
tarwanik--
tas--
tata--
taw--
tawaq--
tay--
tayka--
te--
tea--
tech--
temb--
temp--
ten--
teo--
ter--
tera--
th--
tha--
thax--
the--
thit--
thiya--
tho--
thor--
thu--
thuq--
thuqhu--
ti--
tidyval--
tik--
tika--
til--
tin--
tl--
tlato--
to--
tol--
ton--
toq--
tor--
tortu--
tou--
tp--
tr--
tra--
tran--
trans--
tre--
tri--
triun--
tro--
tru--
ts--
tu--
tuk--
tukj--
tuku--
tukus--
tukut--
tukuy--
tun--
tunka--
tur--
turn--
turu--
tus--
tuy--
tuyu--
tw--
ty--
type--
tyr--
u--
uch--
uchu--
ucra--
ud--
ufra--
ujs--
uk--
uka--
ukan--
ukar--
ukat--
ukaw--
ukha--
ukham--
ukisk--
uku--
ul--
ull--
um--
uma--
un--
una--
uni--
unt--
unx--
unxtasi--
up--
uq--
uqi--
ur--
uraq--
uru--
us--
usa--
use--
usillu--
usu--
usuch--
usut--
ut--
uta--
utachata--
utj--
utjapxa--
utjxa--
uw--
uwan--
uxll--
uy--
uyw--
uywa--
v--
va--
vaga--
val--
vamp--
van--
var--
vas--
ve--
veinti--
ven--
ver--
vi--
via--
view--
vil--
viol--
vir--
vo--
vol--
vor--
vu--
vul--
w--
wa--
wak--
waka--
waki--
wal--
wali--
wallx--
wan--
wanu--
waq--
war--
was--
wasi--
wat--
wawa--
wax--
way--
wayu--
we--
web--
wel--
wen--
west--
wh--
wi--
wiki--
wil--
wila--
willjt--
win--
wini--
wir--
wiraxu--
wit--
wo--
wu--
wuil--
wunder--
x--
xa--
xata--
xi--
xia--
xlate--
xoco--
xx--
y--
ya--
yak--
yakov--
yan--
yanapiri--
yap--
yapu--
yaq--
yaqha--
yaqhiph--
yat--
yati--
yatipxa--
yatj--
yatjjata--
yatjjatasipk--
yatks--
yatxati--
yaw--
yawir--
yd--
ye--
yer--
yi--
yno--
yo--
yr--
yu--
yun--
yuqa--
yura--
yuri--
z--
za--
zag--
zar--
ze--
zen--
zh--
zhi--
zi--
zm--
zo--
zoroa--
zu--
ə--
ɪ--
в--
ва--
горо--
д--
ива--
иль--
ле--
м--
мак--
мо--
н--
с--
со--
--0
--00
--000
--0000
--00000
--000000
--04
--08
--1
--16
--2
--22
--222222222223
--29
--3
--36
--4
--44
--5
--56
--6
--68
--7
--8
--80
--85
--9
--928
--a
--abamba
--able
--ac
--aca
--access
--ach
--acio
--ad
--ada
--adas
--ade
--ado
--ados
--ae
--aga
--age
--ah
--ai
--ain
--ained
--ains
--aio
--ajes
--ak
--aka
--akamp
--akan
--akana
--akani
--akanx
--akapampix
--akapax
--akapaxa
--akapuniw
--akar
--akaru
--akarux
--akas
--akat
--akaw
--akawa
--akax
--aki
--akispa
--akiw
--akiwa
--akix
--akuna
--al
--aldi
--ales
--alo
--am
--ama
--amba
--amp
--ampi
--an
--ana
--ancias
--ando
--ani
--ano
--ant
--ante
--anwa
--anx
--ao
--ap
--apa
--apax
--apin
--ar
--ara
--ard
--ardo
--are
--ares
--ari
--aria
--ario
--arka
--aro
--aru
--aruw
--arux
--ary
--as
--asa
--asqan
--ast
--asta
--asti
--at
--ata
--ate
--ati
--ation
--atm
--ato
--atur
--atura
--atx
--au
--aud
--ave
--aw
--awa
--ax
--axa
--ay
--ayna
--azgo
--b
--ba
--bahn
--bal
--bamba
--bambas
--ban
--baya
--be
--bel
--ben
--berg
--beth
--bi
--bia
--ble
--bles
--blurb
--bo
--boro
--bridis
--brook
--bu
--burg
--burgh
--bury
--bus
--by
--bya
--c
--ca
--cal
--can
--canete
--cas
--cay
--caya
--cc
--cca
--ccio
--ce
--cel
--cen
--ceo
--cer
--ces
--cet
--ch
--cha
--chacra
--chan
--chas
--chasi
--chaspa
--chasqa
--che
--chi
--chixaya
--cho
--chos
--cht
--chu
--chucos
--ci
--cia
--cillo
--cio
--ciones
--cita
--ck
--cke
--cks
--co
--cocha
--cos
--coto
--cott
--count
--createurl
--cs
--ct
--cta
--cto
--cu
--cy
--d
--da
--dad
--dades
--das
--dddddd
--de
--dera
--dero
--des
--di
--dic
--dira
--display
--do
--dor
--doro
--dos
--dre
--ds
--du
--duccio
--dy
--dze
--e
--ea
--eador
--eau
--ec
--eca
--ece
--ecer
--ecio
--ed
--editurl
--ee
--eer
--eg
--ei
--eira
--ek
--el
--ela
--eld
--ell
--elli
--em
--en
--ena
--ence
--endo
--ene
--eng
--enne
--ensive
--ent
--ente
--entes
--ento
--eo
--er
--era
--eri
--erio
--ern
--ero
--ers
--ert
--es
--esa
--esio
--ess
--est
--et
--eta
--etas
--eto
--etre
--ett
--etta
--eum
--eur
--eus
--ev
--ew
--ey
--ez
--eza
--ezas
--f
--fa
--fas
--fe
--feld
--ff
--ffe
--fi
--fied
--fly
--fo
--foni
--format
--ft
--ful
--g
--ga
--gada
--gar
--gart
--gas
--gate
--ge
--ged
--gen
--ger
--ges
--gh
--ghi
--ghini
--ght
--gi
--gia
--gie
--gio
--gna
--go
--gra
--gre
--gri
--gs
--gton
--gu
--gua
--gue
--gui
--gwa
--gy
--h
--ha
--hac
--ham
--han
--hapi
--he
--hen
--hg
--hi
--hiri
--his
--hix
--hn
--ho
--hoe
--hor
--hs
--ht
--hu
--hua
--huasi
--huaylas
--huire
--i
--ia
--iado
--ial
--ian
--iano
--ias
--ible
--ic
--ica
--ical
--icio
--ico
--id
--ida
--idad
--idades
--idae
--idio
--ido
--idos
--ie
--iel
--iente
--ier
--ieri
--ies
--ieta
--if
--ig
--ige
--igh
--ight
--igo
--ii
--ija
--ijo
--ik
--ika
--iki
--ikiti
--il
--ila
--ilda
--ill
--illa
--ille
--illo
--im
--ima
--ime
--imento
--imiento
--imo
--in
--ina
--ine
--ines
--ing
--ings
--ington
--ini
--iniwa
--ino
--ins
--io
--ion
--ioni
--ions
--ios
--ip
--ipa
--ipki
--ipuniw
--ipxi
--ique
--ir
--irakiwa
--ire
--iri
--irita
--irix
--iro
--irs
--is
--isa
--ise
--ish
--ism
--isma
--ismo
--iso
--ispawa
--isplay
--ist
--ista
--istas
--ists
--isuyu
--it
--ita
--itas
--itawa
--itayna
--ite
--iter
--ith
--iti
--ities
--itiva
--itividad
--ito
--itre
--itudes
--ity
--ium
--ius
--iw
--iwa
--iwixa
--ix
--ixa
--iy
--iya
--iz
--izacio
--izador
--izar
--ization
--ize
--ized
--izo
--j
--ja
--jam
--jama
--jamaw
--jan
--jar
--jaru
--jat
--je
--jha
--ji
--jisk
--jj
--jja
--jne
--jo
--jos
--jta
--k
--ka
--kakiw
--kam
--kama
--kamp
--kampi
--kampiw
--kan
--kana
--kans
--kanx
--kanxa
--kapa
--kapxi
--kar
--karakiwa
--kari
--karu
--karuw
--kas
--kaspas
--kast
--kat
--kata
--kaw
--kawa
--kax
--kaxa
--kay
--ke
--ken
--ker
--kes
--key
--kh
--ki
--kin
--kir
--kiri
--kirinaka
--kirinakaw
--kiriwa
--kis
--kisa
--kispawa
--kiti
--kiw
--kiwa
--kix
--kixa
--kiy
--kjam
--kk
--kkiti
--ko
--kov
--kpun
--kra
--ks
--kt
--ktan
--ku
--kun
--kuna
--kup
--kuxa
--kuy
--kx
--ky
--l
--la
--lache
--lan
--land
--las
--lata
--lca
--lcas
--ld
--ldi
--ldo
--le
--lee
--lejo
--lem
--ler
--les
--let
--lga
--li
--lia
--lina
--ling
--lini
--link
--lis
--lj
--lk
--lki
--ll
--lla
--llanga
--llay
--lle
--lli
--llo
--llos
--llu
--lly
--lo
--logi
--los
--ls
--lt
--lta
--lu
--lun
--lus
--ly
--m
--ma
--man
--manta
--map
--mar
--marca
--maw
--max
--mayo
--mba
--mbo
--me
--med
--meer
--ment
--mente
--ments
--mer
--mi
--miento
--mm
--mo
--mor
--mos
--mot
--mp
--mpa
--mpe
--mpi
--mpin
--mpir
--mpis
--mpit
--mpiw
--mpiwa
--mpix
--mpixa
--ms
--mt
--mu
--mus
--my
--n
--na
--nado
--nados
--nak
--naka
--nakamp
--nakampi
--nakampiw
--nakan
--nakana
--nakani
--nakaniwa
--nakapa
--nakapaxa
--nakapx
--nakar
--nakarjam
--nakaru
--nakaruw
--nakarux
--nakas
--nakasa
--nakasti
--nakat
--nakaw
--nakawa
--nakax
--nakaxa
--naks
--nakx
--nakxa
--nal
--nales
--nama
--name
--namp
--nan
--nanpaq
--naq
--nar
--naria
--nas
--nawa
--nax
--nc
--nca
--nce
--ncha
--nche
--ncia
--ncio
--nco
--nd
--nda
--nde
--ndero
--ndi
--ndo
--ne
--neer
--nel
--nen
--ner
--nes
--ness
--ng
--nga
--ngo
--ni
--nia
--nic
--nidad
--nie
--nillo
--nin
--nini
--nio
--nirakiwa
--niri
--nis
--nismo
--nita
--niw
--niwa
--nix
--nizo
--nk
--nka
--nki
--nkir
--nkiri
--nkiwa
--nna
--nne
--no
--nos
--npi
--nrakwa
--ns
--nsa
--nso
--nsti
--nt
--nta
--ntan
--ntata
--ntatawa
--nte
--ntes
--nti
--nto
--ntos
--nts
--nu
--num
--number
--nus
--nw
--nwa
--nx
--nxa
--ny
--nz
--nza
--nzas
--nze
--nzo
--o
--oa
--ob
--oc
--oca
--od
--odi
--og
--oga
--ojj
--ol
--olution
--om
--oma
--on
--ona
--ondo
--one
--ong
--onia
--only
--ons
--ont
--oo
--oon
--oquia
--or
--orre
--os
--osa
--ot
--ou
--ous
--ov
--ova
--ovic
--ovna
--ow
--ox
--oy
--oya
--oz
--p
--pa
--pach
--pachwa
--page
--pamp
--pampi
--pan
--pana
--panx
--panxa
--par
--parjam
--paru
--pas
--pasa
--past
--pasti
--pat
--pata
--pataynawa
--patx
--paw
--pawa
--pax
--paxa
--pe
--peru
--ph
--phe
--phi
--phical
--phu
--pi
--pin
--ping
--piniw
--piro
--pis
--pk
--pki
--ple
--po
--poma
--pos
--poto
--ppe
--ps
--pt
--ptan
--pto
--pu
--pun
--puni
--punitaynawa
--puniw
--puniwa
--punwa
--pur
--px
--pxa
--pxan
--pxana
--pxaraki
--pxarakiri
--pxarakispa
--pxarakiwa
--pxaspa
--pxatayna
--pxaya
--pxi
--pxiri
--pxiritayna
--pxiti
--pxiwa
--q
--qa
--qan
--qas
--qasi
--qasin
--qat
--qata
--qhu
--qhux
--qi
--qin
--qixa
--qt
--qta
--qu
--que
--queri
--ques
--qui
--quia
--r
--ra
--racio
--raj
--rak
--raki
--rakikiwa
--rakispa
--rakispawa
--rakiti
--rakiw
--rakiwa
--rakwa
--ral
--rama
--ran
--rando
--rani
--rar
--rara
--ras
--rasipki
--rat
--rata
--rativo
--rax
--ray
--raz
--rc
--rca
--rce
--rco
--rd
--rdia
--rdo
--rds
--re
--rei
--reich
--remos
--ren
--res
--ret
--rg
--ri
--ria
--ricanos
--rier
--rieta
--rima
--rin
--rina
--rinaka
--ring
--rino
--rio
--ris
--rita
--ritayna
--ritaynawa
--rium
--rius
--riw
--riwa
--rix
--rjam
--rk
--rka
--rla
--rma
--rn
--rno
--ro
--rojj
--ron
--ros
--rot
--rpana
--rqa
--rr
--rra
--rre
--rri
--rs
--rse
--rso
--rt
--rta
--rte
--ru
--rukiw
--rum
--run
--rur
--rurakiw
--ruro
--rus
--rust
--rusti
--rut
--ruw
--ruwa
--rux
--ruxa
--rvo
--rwa
--ry
--rza
--s
--sa
--san
--sana
--sanaka
--saru
--sas
--sasti
--sat
--saw
--sax
--sboro
--sburg
--sca
--sche
--sco
--se
--sed
--self
--ses
--sh
--sha
--shire
--si
--sia
--sin
--sina
--sinx
--sinxa
--sio
--sion
--sipki
--sipxan
--sipxi
--sir
--sis
--sispa
--sita
--sk
--ska
--skakin
--skan
--ske
--ski
--skiti
--skiwa
--sko
--sm
--sma
--smo
--so
--son
--sos
--sp
--spa
--spawa
--spha
--sqa
--sque
--ss
--ssa
--sse
--ssi
--sson
--st
--sta
--stas
--ste
--sti
--sto
--ston
--stu
--stvo
--su
--sux
--suyu
--sville
--sxi
--sy
--t
--ta
--tacio
--tad
--tada
--tadas
--tag
--tai
--tak
--taki
--takiwa
--takix
--takixa
--tal
--tan
--tana
--tap
--tapa
--tapxi
--tar
--tas
--tasa
--tasin
--tasiri
--tat
--tata
--tatayna
--taw
--tawa
--tawayi
--tawixa
--tax
--tay
--tayan
--tayka
--tayna
--te
--teca
--ted
--teen
--tein
--tente
--ter
--tes
--text
--th
--tha
--ti
--tia
--tic
--tie
--tiku
--tine
--tion
--tions
--tir
--tiri
--tis
--tische
--tiva
--tivas
--tive
--tivo
--tivos
--tix
--tixa
--tl
--tm
--tner
--to
--toli
--toma
--ton
--tone
--tor
--tos
--town
--tpach
--tre
--ts
--tsa
--tsti
--tt
--tta
--tte
--tti
--tty
--tu
--tual
--tud
--tupa
--tuqina
--tur
--tura
--ture
--tux
--twa
--tx
--txa
--ty
--tyana
--tyle
--tz
--u
--ua
--uccio
--uce
--uco
--ud
--udo
--ue
--uei
--uela
--uer
--uet
--ug
--ugh
--ui
--uie
--uil
--ukiw
--ul
--ulto
--ulus
--um
--ument
--umintu
--un
--una
--unakkiw
--ung
--unga
--ungen
--uniw
--uq
--uqit
--uqt
--ur
--ura
--ure
--uri
--url
--uro
--urs
--us
--usa
--ut
--ute
--uto
--utu
--uw
--uwa
--ux
--uxa
--uy
--uyo
--v
--va
--vais
--van
--var
--vas
--vat
--ve
--venida
--ves
--vi
--vic
--vich
--vik
--ville
--vio
--vity
--vna
--vo
--vos
--w
--wa
--wal
--wan
--wana
--warmi
--way
--wayi
--wi
--wick
--wipa
--wiri
--wix
--wixa
--wja
--wjanakanx
--wli
--wn
--wood
--word
--ws
--wsa
--x
--xa
--xam
--xan
--xapxi
--xatsa
--xay
--xi
--xiri
--xiw
--xiwa
--xo
--xta
--xu
--y
--ya
--yadeed
--yan
--yapxi
--yaraki
--yasin
--yat
--yata
--yatawa
--yay
--ybamba
--yd
--ye
--yer
--yev
--yeva
--yi
--yir
--yiri
--yirinaka
--yiriwa
--yka
--yl
--yn
--yna
--ynawa
--ynin
--yo
--yos
--ypa
--yri
--ys
--yt
--yta
--yu
--yun
--yuqanaka
--yxi
--z
--za
--zada
--zas
--zation
--ze
--zer
--zes
--zi
--zie
--zo
--zos
--zu
--zy
--zza
--zzi
--zzo
--ə
--а
--в
--е
--едь
--и
--ин
--ич
--к
--ка
--н
--о
--ов
--р
--ч
--я
--ل
--ن
--ন
