!
"
#
##0
##1
##10
##11
##12
##13
##14
##15
##16
##17
##18
##19
##2
##20
##21
##22
##23
##24
##25
##26
##27
##28
##29
##3
##30
##31
##32
##33
##34
##35
##36
##37
##38
##39
##4
##40
##41
##42
##43
##44
##45
##46
##47
##48
##49
##5
##50
##51
##52
##53
##54
##55
##56
##57
##58
##59
##6
##60
##61
##62
##63
##64
##65
##66
##67
##68
##69
##7
##70
##71
##72
##73
##74
##75
##76
##77
##78
##79
##8
##80
##81
##82
##83
##84
##85
##86
##87
##88
##89
##9
##90
##91
##92
##93
##94
##95
##96
##97
##98
##99
$
%
&
'
(
)
*
+
,
-
.
/
0
00
000
0005
0008
001
002
003
00536
007
008
01
010
01009713579
0106
011
012
0153
017395
02
0279
029829
03
030625
036260
04
045
05
0550
056
06
0636
067
068
07
08
082
085
09
090
0951
1
10
100
1000
10000
100000
1000000
1001
1002
1004
1005
1006
1007
1008
1009
101
1010
1012
1015
1016
1018
102
1020
1021
1023
102398
1024
1025
1026
1027
1028
103
1030
1032
1036
1037
1038
1039
104
1040
1044
1045
1047
1048
1049
105
1050
1053
10533
1054
1056
1057
1058
1059
106
1061
1062
1063
1065
1066
1068
107
1071
1072
1073
1074
1075
1077
1078
108
1080
1081
1082
1083
1084
1085
1086
1087
1089
109
1090
1093
1094
1095
1096
1098
1099
11
110
1100
1102
1104
1105
1106
1107
1109
111
1110
1111
1113
1114
1119
112
1122
1123
1124
11244
1125
1127
1128
113
1130
1134
1136
114
1143
1145
1146
1147
1148
115
1154
116
1160
1164
116523
1168
117
1170
1173
1174
1175
1176
1178
1179
118
1183
1186
118616
119
1192
1193
1195
12
120
1200
120044418
1202
1203
1205
1206
1207
1208
1209
121
1212
1213
1214
1216
1218
1219
122
1220
1223
1226
1227
1228
1229
123
1230
1231
1232
1233
1234
12345
1236
1237
1238
1239
124
1240
1241
1242
1243
1245
1247
1248
1249
125
1250
1251
1252
1255
1256
1257
126
1264
1265
1266
1268
127
1271
1272
1274
1275
1276
128
1280
1283
1284
1285
1286
129
1298
13
130
1300
1301
1306
1307
131
1311
1312
1315
1316
1317
1318
1319
132
1321
1323
1325
1326
1327
1329
133
1330
1334
1335
1337
1338
134
1340
1341
1342
1343
1345
1346
1349
135
1350
1351
1352
1353
1357
1358
136
1361
1362
1363
1364
1367
1368
1369
137
1370
1371
1373
1374
1375
1376
1377
1378
138
1380
1381
1384
1385
1387
139
1391
1392
1393
14
140
1400
1401
1402
1404
1405
1407
1408
141
1410
1412
1413
1414
142
1420
1421
1425
1427
1429
143
1430
1431
1433
1434
1436
1438
1439
144
1442
1443
1446
1447
1448
1449
145
1450
1451
1454
1456
1457
1458
1459
146
1460
1461
1462
1464
1465
1467
1468
1469
147
1470
1471
1473
1474
1475
1476
1477
1479
148
1480
1481
1483
1485
1486
1487
1488
149
1490
1491
1493
1494
1498
1499
15
150
1500
1501
1502
1503
1504
1505
1506
1507
1508
1509
151
1510
1511
1512
1513
1514
1515
1516
1517
1518
1519
152
1520
1521
1523
1527
1529
153
1530
1531
1533
1534
1535
1536
1537
154
1540
1542
1543
1544
1545
1548
1549
155
1550
1551
1553
1554
1557
1559
156
1560
1562
1563
1564
1566
1568
157
1572
1573
1574
1578
1579
158
1580
1581
1582
1583
1585
159
1591
1592
1596
1598
1599
16
160
1600
1602
1604
1606
1608
161
1611
1612
1614
1615
1616
1617
1618
1619
162
1620
1621
1622
1626
1627
1628
1629
163
1630
1631
1632
1633
1634
1635
1636
1637
164
1640
1641
1642
1643
1644
1645
1646
1647
1648
1649
165
1650
1652
1653
1654
1655
1656
1657
1658
166
1660
1661
1662
1665
1666
1668
1669
167
1670
1674
1675
1678
168
1680
1681
1682
1683
1684
1685
1687
169
1691
1692
1693
1695
1697
1699
17
170
1700
1703
1704
1705
1708
171
1711
1712
1716
1718
172
1723
1724
1726
1727
1729
173
1730
1731
1732
1733
1737
1738
174
1740
1741
1742
1743
1745
1746
1748
1749
175
1750
1753
1754
1755
1756
1757
1758
176
1760
1761
1762
1764
1765
1766
1767
1768
1769
177
1771
1773
1774
1775
1776
178
1780
1781
1782
1783
1784
1785
1786
1787
1788
1789
179
1790
1791
1792
1793
1794
1795
1797
1798
1799
18
180
1800
1801
1802
1803
1804
1805
1806
1807
1808
1809
181
1810
1811
1812
1813
1814
1815
1816
1817
1818
1819
182
1820
1822
1823
1824
1825
1826
1827
1828
1829
183
1830
1831
1832
1833
1834
1835
1836
1837
1838
1839
184
1840
1841
1842
1843
1844
1845
1846
1847
1848
1849
185
1850
1851
1852
1853
1854
1855
1856
1857
1858
1859
186
1860
1861
1862
1863
1864
1865
1866
1867
1868
1869
187
1870
1871
1872
1873
1874
1875
1876
1877
1878
1879
188
1880
1881
1882
1883
1884
1885
1886
1887
1888
1889
189
1890
1891
1892
1893
1894
1895
1896
1897
1898
1899
19
190
1900
1901
1902
1903
1904
1905
1906
1907
1908
1909
191
1910
1911
1912
1913
1914
1915
1916
1917
1918
1919
192
1920
1921
1922
1923
1924
1925
1926
1927
1928
1929
193
1930
1931
1932
1933
1934
1935
1936
1937
1938
1939
194
1940
1941
1942
1943
1944
1945
1946
1947
1948
1949
195
1950
1951
1952
1953
1954
1955
1956
1957
1958
1959
196
1960
1961
1962
1963
1964
1965
1966
1967
1968
1969
197
1970
1971
1972
1973
1974
1975
1976
1977
1978
1979
198
1980
1981
1982
1983
1984
1985
1986
1987
1988
1989
199
1990
1991
1992
1993
1994
1995
1996
1997
1998
1999
2
20
200
2000
2001
2002
2003
2004
2005
2006
2007
2008
2009
201
2010
2011
2012
2013
2014
2015
2016
2017
2018
20180511
2019
202
2020
2021
202122
2022
2023
2024
2025
2027
2028
2029
203
2030
2031
2035
2036
2038
2039
204
2040
2043
2044
2045
2046
2048
2049
205
2050
2051
2057
2059
206
2060
2061
2063
2065
2067
2068
2069
207
2070
2072
2079
208
2080
2089
209
2090
2094
2096
2099
21
210
2100
2101
21011
2103
211
212
2129
213
2133
214
215
2158
216
217
2174
2175
2176
218
2182
2183
2185
2188
219
22
220
2200
22000
2201
2206
2209
221
2211
2216
222
2221
22222
2225
223
22300
224
2240
225
2256
2257
226
2262
227
228
2280
2284
229
2293
23
230
2300
2302
2305
231
2310
232
2322
233
2330
2338
234
2344
23456789
2346
235
2350
2352
2358
236
2360
2363
237
2371
2375
2378
2379
238
2389
239
2396
24
240
2400
2404
2405
241
242
2422
243
2433
2436
244
2444
244413
2447
245
2450
2454
2458
2459
246
2460
2461
2465
247
2471
2477
248
2481
2482
249
25
250
2500
2502
2504
251
2511
2514
25143
252
253
2532
2536
2537
254
255
2557
256
2561
257
258
259
2597
26
260
2600
2604
2605
2606
261
262
2627
263
264
2640
265
266
267
2679
268
2684
2685
269
2690
2695
27
270
2700
2708
271
272
2720
2722
2724
2726
273
2737
274
2747
2749
275
276
277
2772
2773
2774
2779
278
2782
279
28
280
2800
2808
281
2813
282
2820
2827
283
2830
284
285
28500
2858
286
2865
2867
287
2870
288
289
29
290
2900
29000
291
292
2924
293
2934
294
295
2958
296
2969
297
2975
2977
298
2983
2987
2989
299
2990
3
30
300
3000
30000
3007
301
3012
3018
302
3022
3027
303
3038
304
3049
305
3053
3056
3057
306
307
308
3082
3086
3088
309
3090
3092
3096
31
310
3100
3102
3105
3109
311
3110
31181
312
3120
3121
313
3137
314
3141
3147
315
3150
3151
3152
316
317
318
319
3191
3192
3196
32
320
3200
3202
3207
3208
321
3212
3219
322
3227
323
3233
324
3244
3246
325
3253
3255
3259
326
3265
327
3278
328
3286
329
3298
33
330
3300
331
3314
332
3321
3324
333
334
3345
3347
335
336
337
338
339
3390
34
340
3400
3404
3406
341
342
3428
343
3432
344
345
345678910
346
347
348
3485
349
35
350
3500
351
3511
352
353
354
3543
355
356
357
358
359
3598
36
360
3600
362
363
3637
364
3648
365
366
367
368
369
3695
37
370
3700
371
372
373
3731
3733
374
375
376
3764
378
379
38
380
381
382
383
3839
384
385
386
387
388
389
39
390
391
392
3923
3925
393
3933
394
395
39500
396
3964
397
398
399
3998
3999
4
40
400
4000
401
402
4021
403
404
4041
4046
405
4054
406
40629
407
408
409
41
410
411
412
4121
413
4132
4139
414
4141
415
416
4163
417
4179
418
419
4198
42
420
421
422
423
424
425
426
4262
427
428
429
43
430
431
432
433
434
435
436
437
438
439
44
440
441
442
443
444
445
446
447
448
4481
449
45
450
451
452
453
454
455
456
457
458
459
46
460
461
462
4625
463
4638
464
4645
466
467
468
469
47
470
4700
471
472
473
474
476
477
478
479
48
480
481
482
4823
483
484
485
486
487
4873
488
489
4896
49
490
491
4916
492
493
494
4947
495
496
4963
497
498
5
50
500
5000
50000
502
5026
5027
503
504
505
5061
5062
507
508
509
51
510
5100
511
512
513
5132
516
517
518
519
52
520
5200
524
5242
525
526
527
529
53
530
5300
531
535
536
537
538
539
54
540
542
543
544
545
546
547
548
549
55
550
551
5511
552
553
554
555
556
557
558
559
56
560
5600
562
563
564
5642
566
567
568
569
57
570
5700
5704
571
572
573
5735
5747
575
576
5766
577
578
58
580
581
582
58337
584
585
586
587
588
589
5892
59
590
591
593
594
595
597
5972
598
599
6
60
600
6000
603
6040
605
606
607
608
61
610
6100
611
612
615
616
6171
618
619
6190
62
620
621
622
623
624
625
627
628
629
63
630
6305566
631
6312
632
633
634
635
636
637
6374
638
639
64
640
641
642
643
645
647
648
649
65
650
6502
651
652
653
655
6554
656
657
658
66
660
661
662
663
664
665
6657
666
667
668
669
67
671
672
673
674
675
677
678
679
68
680
682
683
684
685
687
688
6888
69
690
691
695
696
698
699
7
70
700
7000
701
703
705
706
707
708
7082
709
71
710
711
7111
712
713
714
715
716
717
719
72
720
721
722
723
724
725
726
727
729
73
730
731
733
7345
735
7350
736
738
74
740
741
742
743
744
745
747
748
749
75
750
751
7516
752
753
754
755
756
757
758
759
76
760
761
762
763
764
765
7655
7659
766
767
768
769
77
770
771
773
7737
775
776
777
778
779
78
780
7810
7817
782
78201
784
786
787
788
789
79
790
791
792
793
794
795
796
798
8
80
800
8000
801
802
803
804
805
8051
806
808
809
81
811
812
813
814
815
816
817
818
819
82
820
822
823
825
8258093
826
827
828
83
830
836
839
84
840
841
842
843
844
845
847
848
849
85
850
85270
85398
854
85457
855
856
857
858
86
860
8601
8608
861
863
864
866
868
87
8708
871
872
87383
874
878
88
881
883
884
885
887
888
89
890
8900
892
893
894
89476
89503
89850
8995
9
90
900
9000
901
9027
903
904
905
907
91
910
911
91458
915
91561
916
917
918
919
92
920
9200
921
922
923
924
925
926
92661
9267
929
93
931
932
933
934
935
936
938
93916
94
940
942
943
9467
947
948
95
950
951
953
95382
957
958
959
96
9600
961
963
964
965
966
968
969
97
973
974
975
978
98
981
98137
983
985
986
987
989
99
9903
991
9932
9934
994
9944
996
9965
997
999
999999
:
;
<
=
>
?
@
\
^
_
`
a
aa
aaa
ab
aba
abbas
abbr
abdu
abdulhamid
abkai
able
ablo
ablon
ablona
ablonas
ablono
about
above
aboveclass
abovestyle
abs
absolute
abstract
abtei
ac
academia
academic
academy
acb
access
accessdate
account
accounts
ace
across
act
acta
action
active
activeusers
actm
actualdateboundariesproperties
acura
acı
ad
ada
adac
adam
adamlar
adams
add
addclass
added
adding
additional
addnas
addpreambula
address
addtable
addyear
adi
adib
adipisicing
adjust
adjusted
adm
admins
advanced
adventures
ady
adım
ae
aerial
af
afak
afar
affect
affecting
africa
african
africano
africanus
after
afterwards
ag
again
against
age
agilight
ah
ahead
ahları
ahmed
ahmet
ahref
ahttp
ai
aid
aile
ain
air
airbus
airport
ait
aj
aji
ak
akad
ako
aks
aksac
al
alaska
alaylı
alba
albert
album
aldı
aleksandr
aleksievich
alemania
alexander
aleyhtarlıg
alfred
ali
aliases
alice
align
aliqua
aliquip
all
allclaims
allegro
allmovie
allmusic
allocine
allows
allpages
allpropertyclaims
alman
almatı
aloe
alp
alpha
alphabet
already
als
also
alt
altaic
altar
altay
although
alti
altstadt
altun
altın
always
alıs
am
aman
amateur
amazon
amber
ambox
america
american
amerika
amet
amharic
amk
among
amount
amsterdam
amı
an
ana
anadolu
anakkale
analysis
anchor
ancient
and
andrew
android
andy
anfiteatro
ang
angel
anidb
anim
animal
animated
animation
anime
animenewsnetwork
ank
ankara
anlı
ann
anna
anne
anniversary
annual
anonim
another
ansicht
ant
anti
antoloji
antolojisi
any
anymore
anyone
anı
anılar
anıtkabir
ao
aog
ap
appearance
appendaccessdate
appendbookseries
appendedition
appendeditor
appendidentifiers
appendimpl
appendlanguage
appendnumberofpages
appendoriginaltitle
appendpages
appendproperty
appendpublication
appendpublicationdata
appendsnaks
appendsourceid
appendsubtitle
appendtitle
appendtocategory
appendvolumeandissue
apple
application
appropriate
approximation
approximations
apr
april
aq
ar
arabic
aral
aralam
aralık
aramaic
arap
aras
arasında
arc
arcade
arcdate
archimedes
archive
archivedate
archives
archiveurl
arclink
arctic
ardına
are
area
areas
aren
arf
arg
args
argsarg
argsi
argsitem
argsk
argsname
argtables
argtableval
argument
arguments
ark
arkadas
armag
armenia
armenian
army
around
array
ars
arslan
art
arte
arthur
article
articles
artificialsnaks
artist
artists
arts
arxiv
arz
as
asia
asian
asiatic
ask
asker
asks
asp
aspx
assamese
assembly
assertnotnull
assigned
associate
association
ast
astana
aster
asteraceae
astrophysical
asv
asya
asymptotic
asymptotics
asır
asırda
asırlarda
at
ata
atatu
ates
athlete
athletes
athletics
ati
atilla
atlantic
atlı
atsız
attack
attempt
attend
attended
attention
attr
au
audio
audunssøn
auf
aug
august
aurora
aus
ausgesperrten
australia
aute
author
authority
authoritycontrolelements
authorlink
authormain
authors
auto
autocollapse
automagical
automatic
automatically
autor
autovalue
av
available
avarların
ave
average
avrasya
avrupa
award
awarddata
awarden
awardentity
awardfields
awardid
awards
ax
ay
aydın
aynı
ays
ayuntamiento
ayı
ayında
az
azerbaiya
aŋ
aƣ
b
ba
baba
babel
baby
back
backed
background
backstreet
backward
bad
badtwin
bag
baha
bahadır
bahaeddin
bahi
bak
bakanlıg
baku
bakımından
bakıs
bal
balıkesir
bambiland
ban
bananas
band
bank
banner
bar
barbara
barcelona
barıs
bas
base
baseball
based
baseresult
basestyle
basi
basic
basilika
basim
basketball
baskı
bat
battal
battle
bay
bayındırlı
bb
bbc
bc
bcl
bd
bdfutbol
be
beach
bear
beatles
beautiful
became
because
become
bediu
bee
been
before
beg
beginning
behalf
behavior
behaviour
behind
bei
being
beinn
belfast
belfort
bell
bella
bells
belly
beloved
below
belowclass
belowstyle
ben
bengali
beni
benim
ber
berggern
bergtocht
beringei
berli
berlin
berliner
bes
best
bestchange
beststart
beststop
bet
beta
betlerdeyim
better
between
bey
beyaz
beyler
beyond
bezmen
bf
bg
bh
bi
biathlon
bibcode
biblioteca
bibliyografyası
big
bigger
bilgisi
bilim
billboard
billed
billion
billionaire
bin
binası
bingen
bio
biografi
biographie
biographies
biography
biology
bir
bird
birinci
birlig
birlikte
birth
bis
bison
bit
biyografi
biz
bizim
bjn
bk
black
blagodarinskiy
blank
blender
blica
blick
blink
block
bloem
blood
bloomberg
blows
blue
blues
bm
bms
bn
bnf
bo
body
bodyclass
bodystyle
boeing
bog
bogota
bola
bold
bolivia
bomb
bonn
book
books
bookseries
bookseriesentity
bookseriesissue
bookseriesvolume
boolean
border
borders
bos
bosnia
boston
both
botsuana
bottom
bound
boundaries
boundary
bow
box
boxing
boy
boyacı
boylarının
boys
boyunca
boz
bp
bprecision
bpy
br
brackets
bradman
brahim
brahmagupta
branches
brasil
brazil
brazilian
break
bremen
bride
bridge
bright
brighton
brill
britannica
british
broken
brown
browser
bru
bruno
bs
bstructure
bt
btable
bu
buck
budapest
buddhanet
bug
buginese
bugs
bugu
building
bulgaria
bulutlar
bund
bundesliga
bunker
burg
bursa
buryatia
bush
business
but
button
buttons
buzau
bvalue
bw
bx
bxor
bxr
by
c
ca
cache
cached
cadele
caffer
cagefighting
calatayud
calculatedage
calendar
calendarmodel
california
call
called
calling
callparserfunction
cambridge
came
camii
camilla
campaign
can
canada
canal
cancer
canis
cant
canterbury
cap
cape
capitalid
capitalsnak
capitalsnaks
caption
card
cardi
cards
carl
carrera
cas
casa
case
cases
castillo
castle
cat
catadorie
catago
catambiguousgeochains
cate
catedral
categoreye
categori
categoria
categorie
categories
categorizebyplace
category
categoryclaims
categoryitem
categorynameprefix
categoryunknowndeathdate
categuri
catentityid
cathedral
catholic
catiguri
catloopingeochains
catsitelink
caused
cbk
cc
ccc
ccccff
ccf
cd
cdo
ce
ceb
cee
cel
celesta
cell
cells
cemetery
cengiz
cent
centaurus
center
centerasia
central
centralnotice
centre
centro
century
ceremony
cern
cevap
ceylan
cf
cfm
cgi
ch
cha
challenge
challenges
chameleon
champion
championat
championship
chan
chandelier
change
changed
changer
changes
changing
channel
character
characters
charles
charlie
charlotte
charts
che
check
checktype
chelovek
chemical
cheney
chess
chessgames
chicago
chicken
child
children
chile
china
chinese
cho
chobe
chocolate
choice
choices
choose
chopin
chr
christ
christchurch
christianidis
christmas
christopher
chrome
chst
chugach
church
chy
ci
cia
cie
cihan
cillum
cilt
circle
circumstances
citakan
citation
citations
cite
citetype
cities
citoid
city
civic
civilization
ck
ckb
cke
cl
claim
claims
claimspropertyid
class
classical
clear
click
climat
clock
clone
cloneoptions
close
clouds
club
cm
cmbox
cmp
cn
cntd
co
coach
coaches
coast
coauthors
code
codepoint
codes
coeur
cog
cold
collapse
collapsed
collapsible
colleagues
collection
collectlinks
college
colon
color
colorarg
colore
colspan
columbia
column
columns
com
combine
come
coming
comma
command
commands
commas
commemo
comment
comments
commodo
common
commons
commonsmedia
communication
communities
community
company
compare
comparison
competition
competitorid
compilation
complete
complex
complexdate
composite
comput
computer
concat
concatenated
concert
condition
conditions
conference
config
configuration
conflicts
congress
conjunction
conjunctor
consectetur
consequat
consideration
consistent
constraints
consultation
contact
container
contains
contemporary
content
contentlanguagecode
contents
contest
context
continue
contrast
contraststyle
contributions
contributors
control
controlled
convergence
conversiontosiunit
convert
cooh
cook
cookie
coord
coordinate
coordinates
coordinatespec
coords
copenhagen
copy
copyargstosnaks
copyto
coral
core
coronavirus
corporation
corps
correct
cortex
cosmic
cosmopolitan
costa
could
count
counter
counting
countries
country
countryentityid
countryentityorid
countryflags
countryoptions
county
covid
cp
cpa
cq
cqranking
cr
craig
cream
create
createcell
created
creating
creative
credo
cree
crh
cristatus
cristo
critical
croacia
croatian
crop
cropped
cross
crossing
crs
cryptographic
cs
csb
css
csstext
ct
cu
cuda
cufes
culpa
cultural
culture
cumhuriyet
cumhuriyeti
cup
cupidatat
curiosity
curr
curren
current
currententity
currentframe
currentindex
currentnumber
cursor
custom
customtitle
cut
cv
cx
cy
cyberleninka
cycle
cyclebase
cycling
cygnus
cyprus
cz
czech
czytelnik
d
da
dad
dag
dager
daha
dahili
daily
daki
dal
dalai
dali
dall
dallol
dame
damselfly
dan
dance
dancing
daniel
danielle
danilin
dar
dark
dart
das
data
database
datalength
dataresourceid
datatype
datatypes
datavalue
date
dateclaims
daten
datenbanken
dateofbirth
dateofcreation
dateofdeath
dateofpublication
datepart
dates
datesfromqualifier
daughter
david
day
days
db
dc
dcc
dcebff
dd
ddddff
ddt
de
dead
deadlink
dealing
dear
death
dec
december
decimal
decimals
decode
dede
deep
deepcopy
deezer
default
defaults
define
defteri
defterler
deg
degrees
del
deledda
delete
deleted
delhi
deli
delink
della
delta
dem
demir
demiray
demo
demokrat
demonstration
demoscope
demospace
den
deneme
deniz
denmark
department
depending
deprecated
depth
der
derece
dergisi
ders
des
descent
described
description
desde
deserunt
desierto
design
desktop
desna
destanı
destino
destiny
det
detag
detail
details
deutscher
develop
developers
development
device
devices
devil
devlet
devrinde
df
di
dialog
diamonds
diaz
dic
dictionaries
dictionary
did
die
diff
differ
different
diffs
digit
digital
digits
dil
dilber
dili
diliff
dim
dimensional
din
dinle
dino
diphtheria
diq
dir
direct
direction
directly
dis
disabled
disaster
disc
discogs
discoidea
discussion
disney
display
displaycount
displayed
displaying
distinguished
district
div
diversity
divine
division
diye
diz
dizisi
djvu
dk
dl
dm
dmitry
dmoz
dms
do
doc
docs
doctor
document
documentary
documentation
does
doesn
dog
doi
dokl
dokumenty
dollars
dolor
dolore
dom
domain
domination
don
donald
done
dong
donna
donrumata
doo
doris
dos
dot
dotted
double
down
dprecision
dr
drag
dragon
dramen
draws
dream
driver
drone
drop
drops
drz
ds
dsb
dsc
dstructure
dt
dtable
du
duası
due
duet
duis
duisburg
duke
dump
duncan
dur
during
dusk
dutch
dutrieu
duvarları
dv
dvalue
dwt
dyke
dz
dʊ
e
ea
each
eagle
early
earth
easier
easily
east
eastern
easy
ec
eclipse
economic
ecuador
ed
edebiyat
edebiyatı
edinburgh
edirne
edirneli
edison
edit
edited
editing
edition
editor
editors
edits
eds
edu
education
educational
edvard
edward
edłoga
edłoha
ee
eea
een
ef
efendi
eff
effect
eg
ego
egov
ehem
ehemmiyeti
ehir
ehit
ehri
ei
eiffel
ein
eine
einer
einstein
either
eiusmod
ek
ekaterinburg
ekim
ekmek
el
elebi
electrical
electro
elegans
elementid
elements
elementy
elena
eleri
eli
elis
elit
elite
elitexc
elitre
elizabeth
elliptic
els
else
elseif
elvin
em
emir
eml
emohenda
empire
empires
empty
en
enable
enabled
enc
enclosed
encode
encoded
encyclopedia
encyclopædia
end
enddates
ende
engine
engineer
engineering
england
english
enim
enstitu
entertainment
entities
entity
entityid
entityoptions
entorhinal
entriestolookupcategory
entriestolookupcategoryfor
enver
environment
environmental
environments
enwikisource
eo
eol
ep
epidemic
epidemiology
equal
equals
equations
equus
er
erectus
eref
eren
ergenekon
eri
erich
erk
erkek
ermeni
ermita
ernst
errmsg
error
errors
eruption
es
esat
eseri
eserin
eserleri
esi
eski
esocast
espan
espn
esrarı
essays
esse
est
estados
estatal
estonia
et
eta
etapper
etc
ethz
etu
etymological
eu
eur
eurasian
eurasische
euro
eurobasket
euroleague
europe
european
eurosport
ev
eva
even
evenodd
event
events
eventually
ever
every
everyone
evgeny
eviri
evliya
evolution
ex
example
examples
excel
except
excepteur
excude
exe
exercitation
exist
existing
exists
expand
expanded
expandspecialsqualifiers
expandtemplate
expected
expectedvalue
experience
explains
exploration
explorer
express
expression
ext
extension
extensiontag
external
extreme
ey
eye
eyed
eyh
ezir
f
fa
faa
fabaceae
facade
facebook
factbook
factor
faith
faku
falcon
falls
false
family
famous
fan
fannet
far
fargs
farm
farms
faroesoccer
fas
fashion
fastest
father
fatih
fatin
favorite
fc
fd
fe
feature
featurecollection
features
feb
februar
february
federal
federation
feedback
feel
feels
fei
female
feminism
femlabels
fen
feng
feo
ferenc
ferran
ferus
fes
festival
fete
fethi
few
ff
ffdbdb
fff
fg
fi
fiction
field
fifa
fight
fighter
fighting
figures
fila
file
filepath
files
fill
film
filmi
films
filter
filterbyrank
filtercapitalof
filtered
fin
final
finalized
find
finds
finish
finished
finite
fire
firefox
fireworks
first
firstchar
firstcycling
fis
fish
fitrat
fiu
five
fix
fixed
fixing
fj
flac
flag
flagbegindate
flagclaims
flaggedrevs
flagimage
flagimagestatement
flags
flb
flickr
flight
float
flocc
flokkur
floor
flow
flowers
flu
fly
fm
fmbox
fmt
fn
fo
focus
focused
fog
folk
folklore
follow
following
font
fontcolor
fontstyle
foo
food
foot
footage
football
footballdatabase
footballfacts
footballtop
footnotes
for
foradejogo
forall
forbes
force
forest
form
formal
format
formatacademicdegree
formatcategory
formatcorrespondingcategory
formatcorrespondingcategoryandassert
formatdatavalue
formatdate
formatdateimpl
formatentitywithgenderclaim
formatmedals
formatnum
formatoneitems
formatplacewithqualifiers
formatproperty
formatpropertydefault
formatpropertyvalues
formatpropertywithmostrecentclaimandindicator
formatqualifier
formatqualifierandassert
formatrefs
formatsnak
formatstatement
formatstatementdefault
formatted
formattedclaims
formatteddata
formattedstatement
formatter
formatting
formdate
former
formula
formulas
formulæ
fort
fortress
forum
forward
fossilworks
foto
found
foundation
fountain
four
fox
fps
fr
fra
frac
fragments
frame
frameless
frametext
france
francisco
frank
frankfurt
frauen
fred
free
freed
freedom
french
frhdkazan
frica
frida
friday
fritillary
fritz
frog
from
front
frp
frr
fru
fs
ft
ftp
fu
fuente
fugiat
full
fullname
fun
func
function
functional
functions
functiontocall
fund
fur
fussballdaten
futbol
future
fußball
fy
fyhn
g
ga
gag
gala
galaxy
galerie
galleries
gallery
game
games
gan
garamond
garbage
garden
garip
gate
gats
gazeta
gazetesi
gazette
gazi
gd
ge
gec
gece
gecko
gel
gelaltar
gelen
gelin
gelis
gen
genc
gender
gene
general
generate
generateauthorlinks
generated
generation
generic
genie
genitivusmonthesnm
genius
geo
geographical
geoinfobox
geometric
geometry
geonames
georaphic
george
georgia
georgian
gerc
german
germany
get
getallmedals
getallstatements
getargs
getbeststatements
getboolean
getcategory
getcategorybycode
getcode
getconfig
getcontentlanguage
getcurrentframe
getcurrenttitle
getdate
getelementlink
getentity
getentityobject
getlabel
getlabelwithlang
getn
getonemedal
getparameters
getparent
getparentsinboundariessnak
getparentsinboundariessnakimpl
getpeopleaswikitext
getpreviousdegrees
getpreviousdegreesandassert
getpropertyparams
getqualifiersinglevalue
getqualifiervalues
getrefhtml
gets
getsingle
getsinglestringqualifiervalue
getsisterprojectlink
getsitelink
getsourcingcircumstances
gettimeboundariesfromqualifier
getting
gettitle
getuserfunction
getwikisourcelink
gezi
gfs
gfw
gi
giant
gibi
gier
gif
giris
girl
girls
github
give
given
gizemi
gizli
gj
gje
gks
gl
glaciar
glacier
glamour
glass
glk
global
globalframe
globe
glossary
gmatch
gn
gnd
go
goal
god
goes
going
gokbey
gold
golden
golesta
gomez
gone
gonna
gonzaga
good
google
gooria
gorie
gorilla
got
gov
goya
gr
gra
grace
gradient
gran
grand
grande
grant
graphs
grasshopper
grave
gray
graytable
grazia
great
greatest
greece
green
greenwood
gregorian
grenade
grey
grid
grin
groove
group
groupclass
groups
groupstyle
groupwidth
großer
gsub
gt
gu
guard
guardian
guatemala
guatemalan
gubernii
guide
guided
gurbet
guru
guy
gv
h
ha
haberleri
had
hafting
hak
hakka
hakkında
hala
halk
hall
hallstatt
haltern
hamburg
hamburger
hamilton
han
handball
hands
hanlıg
hannover
hans
hanser
hanım
happy
harbour
hard
harmensz
harmenszoon
harvard
has
hasadditionalqualifiers
hasan
hash
hashvalue
hasloop
hatırasına
hauptbahnhof
haus
hausdu
have
having
haw
hawk
hayat
hayatı
haziran
hbo
hcl
hd
hdr
he
head
header
headers
health
hear
heart
heaven
hedy
heide
height
heiligengrabe
helgener
hello
help
helped
helper
henry
her
herbst
here
heritage
hero
heroes
heron
herta
herzegovina
het
hey
hg
hh
hi
hic
hidden
hiddencat
hidepartoflabels
hidesamelabels
hideunitsforcapitals
hif
high
highlands
highlight
highlighted
highlighting
highway
hika
hikayesi
hikmet
hill
him
hindi
hippocampus
his
histo
historia
historic
historical
historicnamesproperties
historicnamespropertyselectors
history
hitaben
hizmet
hj
hle
hlist
hno
hnum
ho
hobbit
hoca
hockey
hole
hollywood
holy
home
homo
honda
hong
hooligans
horses
hortus
hospital
host
hostdelimeterposition
hoststartposition
hot
hotel
hour
house
hover
how
hp
hr
href
hrsg
hsb
hsh
ht
htila
htm
html
http
https
hu
hubble
hubblecast
hugo
hukuk
human
hun
hungarian
hunlar
huun
huur
hy
hybrid
hz
i
ia
iafc
iast
iat
ibdb
ibnsinacanon
ibu
ic
ice
iceland
icon
icons
id
idea
ideas
identifier
iditarod
idr
ie
ieee
ies
if
ifc
ifexists
iffhs
ifredirect
iftc
ig
iglesia
ignore
ihr
ii
iii
iir
iirler
iirleri
ik
il
ila
ile
iler
ilig
ill
illustrated
ilo
im
image
imageclaims
imageformatted
imageleft
imageleftstyle
imagemap
images
imagestyle
imbox
imdb
imdi
img
imizdeki
impact
imperii
implements
important
imported
impression
improve
improved
improvements
improving
imzasıyla
in
inc
ince
inci
incididunt
include
includemetatable
includes
including
incnis
incorrect
increased
inde
indent
independent
index
india
indian
indic
indicating
indices
indien
individual
individuals
ine
infantilgesellschaft
info
infobox
infocardclass
infocards
infocardtemplate
inform
information
informed
infrared
ing
inh
inherits
inin
initial
initially
initiative
initpos
inle
inline
innenansicht
innenraum
inner
input
insert
inserted
insertfromsnak
inserttags
inside
inst
instagram
instead
institut
institute
institutions
instructions
instrument
instytut
int
integer
intended
interested
interface
interior
interlaken
internal
international
internet
interprojects
interscope
interview
interwiki
inthemiddle
into
introduction
invalid
inventor
inverse
inversed
inversion
invisible
invoke
invoked
involved
inyear
io
iof
ios
ip
ipairs
ipni
iprage
ipsum
ir
ira
irak
iran
irina
iron
irure
is
isadora
isblank
isbn
iscountry
isempty
isfaha
isfdb
isfemale
isi
isinstanceof
isinversed
isla
islam
island
islandia
islands
islas
isnotempty
iso
ispartofnext
israel
isrc
iss
isskiptoplevel
issn
issue
ist
istanbul
isunion
it
italia
italic
italy
item
itemid
items
iterator
itim
itis
its
iu
iucn
iupac
iv
ivanovo
iw
iwf
ix
iz
izlə
izmeli
izmi
izv
j
ja
jae
jaguar
jale
jam
james
jamii
jan
jane
january
japan
japanese
jas
javascript
jazz
jbo
jbwr
je
jean
jem
jenny
jewish
ji
jin
jo
johann
john
join
joins
jones
joseph
joueur
journal
jp
jpeg
jpg
jpl
js
json
jsp
jstor
ju
juan
jugendbuch
jukebox
jukoff
juliancomment
july
jun
june
junonia
just
justified
juvenile
jv
k
ka
kaa
kaarangay
kab
kabaklı
kadar
kadavoor
kader
kadın
kaf
kag
kaganer
kahlo
kahra
kahraman
kahramanı
kaiserslautern
kaiyr
kaldı
kalogera
kalp
kan
kanlıg
kar
kara
karak
karcher
karda
kardes
kars
kartolog
kashan
kastanje
kasım
katego
kategooria
kategoreja
kategori
kategoria
kategorie
kategorii
kategorija
kategorio
kategoriy
kategoriya
kategoriye
kategory
kategorya
kateguore
kateqoriya
kath
kato
kattegerie
kaynak
kazak
kazakistan
kb
kbd
ke
kefermarkt
keller
kemal
ken
kerem
kes
key
keyboard
kg
kha
khan
khemchik
khoomey
khural
ki
kiev
kileri
kill
kim
kimdir
kinci
kind
kinder
king
kingdom
kingfisher
kino
kiraz
kirche
kirchspiel
kis
kisiayrinti
kisiid
kitabevi
kitabı
kitap
kitaplar
kitapları
kitapyurdu
kj
kk
kl
klad
klavierspielerin
klein
kleine
klose
kloster
km
kma
kn
kniga
know
knowledge
known
ko
koca
koguryo
koi
kom
kombu
kommersant
komu
kong
kongaa
konus
kopenhagen
kopuz
korea
korean
korkma
korkut
kos
kosmos
kovrizhnykh
kozanog
kr
krako
kralic
krankheit
krat
krc
kremlin
kristin
kru
kruger
ks
ksh
ktu
ku
kubanskoy
kulesi
kumral
kun
kunst
kurt
kus
kv
kw
ky
kyiv
kyoto
kyu
kyzyl
kz
kı
kılıc
kırk
kırmızı
kıs
kısaparmak
kız
kızları
kızı
kızıl
l
la
label
labelallocine
labelanimenewsnetwork
labelclass
labeldeezer
labeldiscogs
labelencyclopaediametallum
labelibdb
labelisfdb
labelmusicbrainz
labels
labelstyle
laboratory
labore
laboris
laborum
lad
lady
lago
laguna
lake
lama
lamarr
lan
land
landing
landscape
landschaftspark
lang
langcode
langentityid
langi
langrefentity
langrefs
langs
langsval
language
languages
languagescode
laos
lapse
lar
lara
large
ları
ların
las
last
lastheight
lastrecord
lat
later
latex
latin
latitude
launch
law
lb
lbe
lc
lcileri
lden
ldi
ldu
le
leading
leaf
league
learn
learned
learning
leave
leben
lecture
led
lee
left
leg
legacy
legend
leh
leiden
leipzig
len
length
lenta
leo
leopard
ler
lere
leri
lerine
les
less
lessing
let
letis
lett
letter
letters
leutgeb
level
levhalar
levi
levskisofia
leylek
leymaniye
lez
lfloor
lg
lgeog
lgesi
li
lib
library
libraryutil
libris
lica
license
lichen
liebhaberinnen
life
lig
liga
light
lightning
ligo
lij
lik
like
likely
lila
limit
limitdouble
line
linear
lines
link
linkedin
linkf
linkin
links
lion
liquidthreads
liquor
lis
list
listclass
listofcountries
listofprofessions
listpadding
lists
liststyle
listtotext
literackie
literary
literature
little
liv
live
liveinternet
liverpool
lives
lix
ljubljana
lk
lke
lkesi
lku
lkur
ll
lla
ller
lmen
lmener
lmo
ln
lng
lngstr
lo
loa
loaddata
loading
lobos
loc
local
localvalue
located
locatie
location
locked
lockvo
lodo
log
logged
logo
lol
lon
london
long
longbow
longer
longitude
longrightarrow
look
looking
lorem
los
losses
lossless
lost
louis
love
loves
low
lower
lowercase
lp
lpi
lpon
lr
lrc
lrd
lt
ltd
ltesi
ltg
lti
ltu
lu
lua
ludwig
lum
lungs
luokka
lupulina
lust
lv
lviv
lvm
lykkelige
lyubvi
lzh
lı
lıg
lıksız
lılar
m
ma
mabbett
mac
macaca
macar
maceraları
machine
mad
madalyası
madame
madan
made
madonna
madre
madrid
magazine
magic
magna
mai
mail
mailing
main
mainsnak
mainsnakclass
maintitle
maize
major
make
makeinvokefunction
makes
maketitle
makgadikgadi
making
mal
malar
malayalam
male
mall
malline
mallnitz
man
management
manager
manali
manchester
manif
mann
mannheim
manx
many
manı
map
maplandia
maps
mar
marathi
marathon
marca
march
marche
margaret
margin
mari
maria
marifetname
marina
marine
mark
marker
market
markina
marks
maroon
marriage
mars
mart
martin
martı
marvel
mary
masalları
masalı
masl
mass
massachusetts
master
mat
mataji
match
matched
matches
material
materialy
math
mathbf
mathematica
mathematics
mathsf
mating
matricaria
matter
maurice
mavi
max
maxauthors
maxim
may
maya
mayanın
mays
mayıs
mb
mbox
mcnaught
md
mdf
me
meadow
mebusu
meclisi
mecmua
mecmuası
med
medal
medals
media
medialist
mediawiki
medicago
medical
meditation
medium
meeting
meetings
mehmed
mehmet
mehmetayci
mekh
mektup
mektuplar
meler
member
members
memleket
memoirs
memoized
memorial
memoriam
men
menchu
mengi
menk
mental
menu
mer
mercury
merfeld
mergeargs
merkezi
merry
meseleleri
meselesi
mesi
message
messagebox
messages
mest
met
meta
metaargs
metaargskey
metacritic
metallica
metatable
method
methods
meti
metro
mexico
mezinarodni
mezquita
mg
mga
mh
mhnt
mhr
mi
michael
michigan
microsoft
mid
middle
mig
mila
miliaceum
militanı
military
millet
milli
million
milliye
milliyetc
min
mine
minerva
mingrelian
mini
minim
minister
ministry
minor
minut
minutes
mir
miranda
mis
miss
missing
mission
mit
mitsubishi
mitte
mitterbach
mixed
mk
ml
mlb
mm
mma
mn
mo
mobile
mobygames
mod
mode
model
modelo
modern
moderne
module
moduledate
modulelanguages
modules
moduleurl
mog
mojgorod
mollit
molodguard
moment
monasterio
monastery
mong
mongolia
mongolian
mongolica
monkeys
monobook
monolinguallangtemplate
monolingualtext
montage
montbe
montbeliard
montenegro
month
monthgm
months
montreal
monument
moon
mor
more
morning
morrison
moscow
moscu
moser
moskva
mosque
most
moth
mother
motion
motor
motors
mount
mountain
mountains
move
moved
movement
movie
movies
moving
moz
mp
mparatorlug
mr
mrj
mrsi
ms
msc
msg
msk
msu
mt
mtv
mu
mucizesi
mudanya
mugler
muhip
mukayeseli
mulstatement
multi
multilingual
multiple
munch
mundo
munich
municipal
munro
mur
mural
mus
musa
musee
museo
museum
music
musicbrainz
must
mustafa
mute
muyuz
mvp
mw
mwcustomeditbuttons
mwl
mwlang
my
mycobank
mylanguage
myriophyllum
myself
myspace
myv
mzasız
mzn
mı
n
na
naar
nachyn
nacional
nacl
nadi
nado
nagrazhdenie
nah
nahco
name
named
names
namespace
namibia
nan
naoh
nap
narod
naroda
narrative
nasa
naselennyie
naselennyx
nasreddin
nasıl
nation
national
natural
nature
nauk
nauka
nautilus
nav
navbar
navbox
navboxdata
navboxes
navframe
navigation
navy
nazca
nazmi
nb
nbg
nc
ncaa
ncbi
nce
nceleme
nchen
ncu
nd
nde
ndefaultlanguage
ndeki
nden
ndn
nds
ndu
ne
near
neas
necessary
nedir
need
needed
needs
negara
negative
nelson
nem
nen
neneuhca
nes
nested
net
netaldefault
netflix
netim
neugebauer
never
new
newclaims
newer
newoptions
newparentsnaks
news
newsletter
newsru
newsweek
newton
next
nextentityid
nextlabel
nez
ng
ngc
ni
nich
nicholas
nicht
nife
niger
night
nights
nihat
nikola
nil
nilargs
nilargskey
nils
nin
nina
nirvana
nisan
nisi
nissue
nist
nit
niversitesi
nl
nler
nlu
nm
nn
nnn
nnnn
nnnnnn
no
nobel
noble
nobody
nobr
nocat
node
nodis
nodot
nodyn
noeditsection
noflip
nogay
nogoogle
nolinks
nomatch
nominate
nominativemonthesnm
nominativeyear
non
none
noosm
nor
nord
normal
north
northern
norway
nostra
nostrud
not
notable
note
notes
nothin
nothing
notice
notification
notify
notları
notoc
notorious
notre
nov
novalue
november
novembre
novembro
now
nowiki
nowrap
noyandex
np
npc
nr
nrm
ns
nsan
nsc
nsf
nster
nth
nu
null
nulla
num
number
numberof
numberofloops
numberofpages
numbers
numerals
numeric
numrecord
nun
nuoro
nur
nv
nvidia
nvolume
nwt
ny
nya
nyanın
nyası
nın
o
obama
oban
obj
object
oblasti
observations
obuhova
oc
ocak
occaecat
och
october
ocug
ocuk
ocuklar
ocukları
ocukların
od
odd
oddeven
oder
of
off
offered
office
officia
official
offset
ofset
og
oga
ogg
ogv
oh
oj
ok
okorneva
oktober
ol
olarak
olav
old
oldu
oldug
olivella
olo
olor
olsun
olur
olympic
olympics
om
ombox
on
once
one
ones
online
only
onze
ool
ooui
op
opacity
open
opened
opener
opening
opera
operator
operatorname
opportunities
opt
optimal
option
optional
optionalarg
options
opus
oq
or
orange
orbit
order
ordered
ordereddata
ordu
ordusunun
org
organic
orgel
orhan
orhun
orient
orig
origargs
origin
original
originalstyle
originaltitle
orkun
oro
orphan
orta
orto
os
osaka
osman
osmanlı
oso
ostrom
osu
ot
otac
otel
other
otherprojects
others
otto
ottoman
otuken
otvetstv
otvetstvennye
ouput
our
out
outcome
outdated
output
outside
outstanding
outtype
outvalue
over
overlay
override
overview
own
oxford
oy
oyun
p
pa
pacific
padding
padis
paeonia
pag
page
pages
pagetitle
pagoda
pagos
pai
painting
pair
pairs
paisaje
pal
palace
palacio
pam
pamir
pamyat
pan
panicum
panorama
pans
panthera
pap
papilio
par
para
parade
param
parameter
parameters
paramorder
params
parbat
parent
parentargs
parententityid
parententityids
parentid
parentoptions
parentsnak
parentsnaks
pargs
pariatur
paris
park
parliament
parque
parseddate
parsedec
parsedms
parsedtime
parseiso
parsetimefromsnak
part
parti
participated
particularly
pas
pass
passed
passing
path
patrono
pattern
patterns
paul
paulo
paulus
pavilion
pay
pays
pc
pcall
pcd
pdc
pdf
pdx
pe
peace
pearl
peas
pencil
people
peoples
per
performance
performed
performing
perl
perse
perseo
persian
person
personal
personname
personnametoauthorname
personnametoresponsiblename
persons
perspectives
perturbation
perturbed
peru
peter
petersburg
pfarrkirche
pfg
pfl
pframe
pg
phabricator
phacochoerus
phase
philosophy
phone
photo
photos
php
phys
physical
physician
physics
pi
piano
picasso
picture
pid
piece
pied
pieris
pih
pilot
pink
pipe
pis
pitt
pixar
pk
pkk
pl
place
placedatanumrecord
placeholder
placeid
placename
places
plain
plaindata
plainlinksneverexpand
plainlist
planes
planet
plant
plantilia
plantilla
plantilya
platform
play
player
playerid
players
playing
playmarkerstats
plaza
please
plisetskaya
ploceus
plus
pm
pmid
pmr
pms
pnb
png
pnnn
pnt
po
podvig
poetry
poezje
point
poland
polar
police
policy
polish
political
politics
polonia
poly
pompilius
pone
pont
pontic
poor
pop
popular
populatedatafromclaims
populatesourcedataimpl
populatetitle
populateurl
populateyear
porsche
port
portal
portland
portrait
portugal
portuguese
pos
posed
position
possible
possibleage
possibledatestring
post
posted
postfix
pour
power
pp
ppelberg
pr
practice
prague
praha
prakticka
pre
prec
precision
predefinic
predloga
predloz
preference
preferences
preferids
preferred
prefix
prefsection
prelude
preprocess
present
presentation
preserve
preset
presets
president
presidential
press
pressenza
prev
preventityid
preview
previously
prevlabel
pride
prime
princeton
priorities
prix
prize
pro
problem
problems
proc
proceedings
process
processed
product
productsymbol
prof
professionslist
professor
profil
profile
program
progress
proident
project
projectcode
projectname
projects
prometh
propclaim
properties
property
propertyentity
propertyid
propertyids
propertyparams
propertyselector
proposal
proposals
proposed
protection
protest
provide
provided
provides
province
pru
ps
pt
pubentity
publ
public
publication
publications
publicationtitle
published
publisher
publishers
publishing
pubmed
pula
punktyi
purple
purpose
put
putting
puzzle
px
pxxx
q
qa
qadas
qani
qazvin
qi
qid
qnnn
qnotlaterthan
qnotsoonerthan
qoni
qoŋi
qq
qu
qualconfig
qualifier
qualifierentityid
qualifierid
qualifierids
qualifierpropertyid
qualifiers
qualifiersqualifiername
qualifiervalue
qualifiervalues
quantity
quatre
que
queen
quest
question
questions
qui
quick
quis
quito
qunc
quote
qxxx
qɔ
qʊ
r
ra
race
radio
rafi
railway
rain
rainbow
ralfr
ran
random
rang
range
rank
ras
rasidaddin
rather
ratio
rawrule
ray
rb
rceilc
rceilv
rda
rdu
re
read
readfootball
reading
readonly
ready
real
recent
recently
recipientcategory
recommended
record
recorded
records
recutita
red
redirect
redirected
ref
referee
reference
references
referencing
reflection
refs
reg
regardless
regex
region
regiondata
regionpage
regions
regnum
regular
regularization
rein
reis
related
release
released
relevant
religious
remaining
remarque
rembrandt
remember
removal
remove
removeblanks
removed
ren
render
renderdocumentationcategory
rendered
renderlink
renderreference
renderreferenceimpl
rendersource
rep
repeat
repetitions
repl
replace
replacement
reply
report
reported
reprehenderit
representation
repu
republic
request
requested
requests
requiem
require
required
res
research
reserva
reserve
residents
resolution
resourcedata
resourcedatas
resourceid
resourcelabel
resources
responsible
rest
restored
result
resultclaims
resultid
resultlist
resultproperty
resultresultproperty
results
resultwikitext
ret
retrieved
return
returned
returns
revelation
reverse
reverseorder
review
reviewer
revival
rgu
rho
rhythm
ri
ria
ribbonimageclaims
rica
rich
richard
ride
rider
ridge
riga
right
rightarrow
rights
rigoberta
rijn
rim
rimbaud
rin
ring
rio
rita
river
riyat
rk
rkc
rkei
rkeline
rkischen
rkistan
rkiyat
rkiye
rkiyenin
rkler
rklerde
rkleri
rklu
rkmen
rkoloji
rku
rlu
rm
rmy
rn
rnste
ro
roa
road
robert
robin
rock
rocky
rockyselena
roi
role
roll
rom
roma
roman
romania
ronald
ronney
rose
rosreestr
ross
rossijskoj
rotten
round
routledge
rover
row
rowindex
rowohlt
rows
royal
rozhkov
rs
rsl
rsllink
rsssf
rt
ru
rudis
rue
rugby
ruhrgebiet
rule
rules
rumani
rummad
run
running
rup
rus
rusia
russ
russia
russian
rutube
ruwiki
ruwikisource
rw
rıza
rʊ
s
sa
saachjrupp
sabah
sablon
sac
sacred
sadri
safari
sah
sahaja
said
sainkho
saint
sair
salar
saldırıs
salvador
salvatore
sambyla
same
san
sana
sanatı
sangarius
santa
santorin
sapiens
saracog
sarı
sarıkamıs
sat
saturday
savas
save
saw
say
says
sayı
saz
sazı
sb
sc
scale
scene
scheme
schemedelimeterposition
schloss
scholar
school
schutz
schwiftinger
sci
science
sciences
scientific
scientists
sciurus
scn
sco
scopus
scoresway
scotland
scott
scottish
screen
screens
screenshot
scribunto
scripts
sculpture
sd
sdc
se
sea
search
seattle
sebastian
sec
second
seconds
secret
section
sectorcode
sed
see
seen
seite
selam
selc
select
selectclaims
selected
selectedsnakes
selecting
selection
selector
selectors
selena
self
selo
sen
sendam
senior
sep
separate
separator
september
serbo
series
serif
servet
service
ses
sesler
session
set
setmetatable
setting
settings
sevdalı
sevek
several
sevginin
sevilla
sex
seyahatna
seyin
sf
sfn
sfnref
sg
sh
shadow
shah
share
shark
sharpshooter
sharq
she
sherdog
shift
shin
ship
shiraz
shl
shop
shopni
short
shortcut
shot
should
show
showed
showing
shown
shows
shr
shri
shtml
shuttle
si
sia
siberia
sich
siconversion
side
sidney
sigfig
sign
signed
significantly
signs
silence
silent
silom
silver
similar
simon
simple
simpler
sin
sina
sinan
since
sind
sineroman
singapore
singer
singing
single
singular
sint
sio
siprage
sir
sit
site
sitelink
sitelinks
sites
six
siya
siyah
siz
size
sizim
sjabloon
sk
skabelon
skater
ski
skin
sku
sky
skyline
sl
slam
sled
slovenia
slow
sm
small
smaller
smartphone
smell
smg
smith
smn
smooth
sn
snak
snaks
snaktype
snakvalue
snið
snow
so
soauthors
soccer
soccerbase
soccerway
social
societa
society
software
soiskateli
sokajy
sol
solar
solid
solo
solution
solutions
solvay
some
someone
something
sometimes
somevalue
son
sonbahar
song
soon
soria
sorry
sort
sorting
sortonerank
sossusvlei
sosyal
sotheby
soul
sound
soundcloud
source
sourceentity
sourceid
sourcepropertyid
sources
sourcetoelementlinksresourceid
south
southern
soviet
sovsport
sp
spa
space
spaced
spaces
spacex
spacing
spain
span
spanish
spartak
sparts
spatial
spb
speak
speaker
speaks
special
species
specified
speed
speedy
sphe
spiegel
spinebuster
spinning
spirits
spiski
spit
split
splitcoord
sport
sporta
sportbox
sportec
sports
sportstu
spotify
spotted
spring
springer
spumans
sq
square
squirrel
sr
src
srcproperty
srcurl
srn
ss
ssa
st
sta
stab
stadium
staff
stage
stamp
stampa
stanbul
stanbullular
standard
stangl
star
stars
start
started
starting
state
stated
statedas
statement
statements
statementvalue
states
statesstate
station
statistical
statistics
stats
statue
status
statya
stavregion
stavropolskoy
stay
steam
stecken
stefan
steklov
step
stephen
stift
stiftskirche
stl
stockholm
stoll
store
stored
storia
storm
story
stq
str
stratejik
street
strefa
strickland
strikeforce
string
strings
strip
striping
stripped
strona
strong
strpages
strsrc
structure
strvalue
sts
stu
studia
studied
studies
study
stwowy
style
styleratio
styles
styling
su
sub
subgroup
subject
subrule
subrules
subscribe
subscription
subst
substring
subtitle
subway
success
successful
such
suda
sufficient
suffix
suggested
suhrkamp
suicide
suleymaniye
sultan
sultanları
sum
summary
summer
summit
sun
sung
sunrise
sunset
sunt
sup
suppl
support
supported
supporting
sur
surface
surname
survey
survivor
sv
sverdlovsk
svetlana
svg
sw
swan
swans
swap
sweet
sweets
swift
switch
switching
symbol
symbols
syn
synagogue
syntax
system
systems
szablon
szl
sıcak
t
ta
tab
table
tablelength
tables
tabletostr
tablets
tablevalue
tabli
tabriz
tabs
tag
taggayt
tags
taherzadeh
tail
tailed
taipei
taiwan
take
takes
talebe
talk
tam
tamil
tan
tanana
tang
tango
tanrıdag
tara
tarafından
tarask
target
targs
tarih
tarihi
tarihin
tarihine
tarihinin
tarihleri
tas
taschenbuch
task
taskforce
tay
taylor
tbl
tchihatcheff
td
te
teach
team
teams
teatr
teau
tech
technical
technology
tehera
tehlike
teklif
tel
telegram
telegraph
telescope
tell
temmuz
temperature
templat
template
templatedata
templatename
templates
templatestyles
temple
tempor
temprow
ten
tercu
teresa
term
terminal
tes
tesla
test
tested
testing
tests
tet
teva
text
textarea
texte
texts
tezi
tf
tff
tg
th
thai
than
thank
thanks
that
the
theaterstu
theatertexte
theatre
their
them
then
theorems
theory
there
these
they
thin
thing
things
think
thirty
this
thomas
thompson
those
though
thought
thoughts
thread
three
throat
through
throwerror
thudufushi
thumb
ti
tibet
tidyval
tig
tiger
tigin
tigrinya
tigris
til
tilastopaja
tiles
tim
timas
time
timelapse
times
timezone
tir
tirage
tirmek
titel
title
titlearea
titledelimeterposition
titleobj
titlestyle
tivani
tk
tl
tlinks
tlp
tlx
tmbox
tn
tname
to
toboolean
toc
toclevel
toclimit
today
todo
together
toggle
tohlistwithheaders
tok
tokenized
tokenizename
tokyo
tol
tomatoes
ton
tonga
tonumber
tool
toolbar
toolbaricon
toolbaritems
tools
top
topic
toplamalar
toprak
toquz
toronto
tostring
tostringsnak
totable
total
toten
totenauberg
totextwithtip
tour
towards
tower
towers
town
toyota
tp
tpi
tr
track
tradition
traduit
traffic
trail
trailer
trailing
train
training
transfermarkt
transform
transit
translate
translated
translatewiki
translathon
translation
translations
translators
transparent
travel
tre
tree
trees
tren
triage
trial
tribute
trick
trier
trim
trimmed
trimstr
triomphe
trip
triplet
tripletpos
tripletstr
trt
truck
true
trust
truth
try
ts
tsclass
tso
tt
ttan
tte
tu
tuf
tug
tuha
tul
tum
tuna
turan
turk
turkey
turkic
turkish
turks
turkum
turn
tuttocalciatori
tuva
tuvan
tuvaonline
tuvapravda
tuvinskogo
tuvsu
tuvy
tv
tw
twice
twitter
two
txt
ty
tyb
type
typeid
types
typing
typus
tyv
tyva
tı
tırma
u
ua
ubat
uboundary
uc
ucfirst
udm
uefa
uezd
ufc
ug
uk
ukraine
ul
ulan
ullamco
ultimate
uluc
ulusal
ume
un
una
uncollapsed
und
under
underside
understand
understanding
understood
unesco
unexpected
uni
unicode
unidos
unilever
union
unions
unit
united
unitentity
unitentityid
unitplural
unittester
unittests
universal
universidad
university
unixavailable
unixdateofdeath
unknown
unnamed
unorthodox
unstripnowiki
unutma
unutmak
up
uparrow
update
updated
updates
upload
uploading
uploads
upper
upperbound
ups
uptown
ur
uran
uravn
urdu
uri
uricomponents
uriyaŋqai
url
urls
ursula
ursus
urus
us
usa
usage
use
used
user
users
uses
using
uss
ussr
usta
ustos
ustring
usuan
ut
utc
utils
utitle
uyghur
uz
uzbekistan
uzun
v
va
vakfı
val
valid
valle
valley
value
values
van
vancouver
var
variable
variables
varsag
vatan
vc
vcard
ve
vec
vector
vedecko
veidne
vekil
veli
velit
veniam
venus
vep
vercin
verhandlungen
veris
verlag
verrihi
version
vertical
very
vi
via
viaf
victor
victoria
vid
vida
video
vidy
view
views
vii
viii
viktor
village
villas
vilnius
vimeo
violence
visible
vista
visual
visualeditor
viva
vk
vlei
vls
vo
vocal
voice
voices
vol
volcanes
volcano
volume
volumes
volunteer
volunteers
voluptate
von
vor
vorlage
vostlit
voyage
vp
vro
vs
vt
vulpes
w
wa
walk
walking
wall
wang
want
wants
war
warheroes
warriors
warszawa
was
washington
watch
watchlist
water
wav
waves
way
wayback
wbstatus
wd
wds
we
weaver
web
webb
webby
webkit
webm
website
wec
week
weekly
weibchen
weight
welcome
well
wells
welt
went
were
west
western
westport
wgtitle
what
whatamidoing
wheel
when
where
whether
which
whichever
while
white
whitespace
who
whose
why
wi
wide
widok
width
wie
wien
wiersze
wierszy
wiesbaden
wiki
wikibase
wikibooks
wikidata
wikidataselectors
wikidatavaluetoarray
wikigap
wikilinks
wikimania
wikimedia
wikinews
wikipedia
wikipedias
wikiprefix
wikiquote
wikis
wikisource
wikispecies
wikitable
wikitext
wikiturkic
wikivalue
wikiversity
wikivoyage
wikivoyages
wild
wildnis
wildpark
will
william
willie
willing
win
wind
window
windows
wing
wins
winter
wir
wirtschaftsunion
wishlist
with
within
without
witter
wmf
wmru
wo
wolfgang
woman
women
won
wops
word
words
work
workboard
workers
workflow
working
works
world
worldcat
worldfootball
worlds
would
wp
wptextbox
wrapinurl
wrapper
wrapperextraargs
wrappers
wrestler
wrestling
wrestrus
write
writers
writing
written
wroclaw
ws
wslink
wsource
wu
wuu
wwe
wwf
wwoof
www
wybrane
wydawnictwo
wydawniczy
wʊ
x
xa
xal
xanyan
xh
xi
xico
xii
xiii
xiongnu
xiv
xix
xl
xls
xmf
xrightarrow
xs
xv
xvi
xvii
xviii
xx
xxi
xxii
xxiii
xxiv
xxix
xxv
xxvi
xxvii
xxviii
xxx
xxxi
xxxiv
y
ya
yabancı
yag
yakarıs
yalan
yalnız
yalnızlık
yanardag
yandex
yane
yanlıs
yar
yarın
yas
yası
yavru
yay
yayin
yayla
yayın
yayınları
yaz
yazar
yazardetay
yazarlar
yazarın
yazgan
yazi
yazıları
yazılmıs
yazıtının
ydeki
ye
year
yearform
years
yeler
yellow
yemen
yeni
yenic
yeniden
yer
yes
yesi
yesno
yesterday
yet
yetis
yi
yirminci
yku
yle
yo
yoga
yok
yol
yolculuk
yollar
yor
york
you
young
your
youtube
yozgat
yu
yue
yuko
yunus
yurt
yyih
yyyy
yı
yıkmak
yıl
yıldırım
yılı
yılın
z
za
zam
zaman
zamanı
zaragoza
zbl
zea
zealand
zel
zentrale
zerinde
zerine
zero
zh
zhuang
zi
zidane
zik
ziya
zledim
zler
zleri
zlu
zmir
zmirden
zoff
zone
zoo
zoom
zotero
zs
zu
zum
zur
zwei
zweig
{
|
}
~

¡
¢
£
¥
§
©
«
¬
­
®
°
±
²
³
¶
·
¸
¹
º
»
¼
½
¾
¿
×
æ
ð
÷
ø
øk
øl
øʃ
ħ
ħʃ
ı
ık
ıkpas
ılgın
ılık
ım
ın
ınaraltı
ının
ıt
ł
ŋ
ŋri
ƣ
ƴ
ɉ
ɔ
ɔp
ə
əə
ɪ
ɪk
ɪŋ
ɬ
ɲ
ɵ
ʃ
ʊ
ʊq
ʊrƣan
ʊrʊŋ
ʏ
ʏn
ʏr
ʒ
ʰ
ʱ
ʲ
ʳ
ʴ
ʵ
ʶ
ʷ
ʸ
ʹ
ʻ
ʼ
ʿ
ˀ
ˁ
˃
ˈ
ˉ
ˌ
ː
ˑ
˘
ˠ
ˡ
ˢ
ˣ
ˤ
˥
˧
̀
́
̂
̃
̄
̅
̆
̇
̈
̉
̊
̋
̌
̍
̓
̔
̚
̛
̣
̤
̥
̦
̧
̨
̩
̬
̭
̯
̱
̲
̳
̸
͂
͘
͜
α
αν
β
βββ
γ
γγ
γος
δ
ε
εγ
ζ
η
θ
ι
κ
κατηγορι
κο
λ
λο
μ
ν
ξ
ο
π
προ
ρ
ς
σ
τ
υ
φ
φβ
χ
ψ
ω
а
аа
аажок
аажы
аазаан
аазаашкынын
ааи
аал
аалактарга
аалга
аалдан
аалдап
аалдар
аалдарга
аалдарның
аалдың
аалчы
аалчылар
аалчыларга
аалчыларны
аалчылары
аалчыларын
аалчыларынга
аалы
аалынга
аалында
аалындан
аалындыва
аалының
аан
аап
аар
аараан
аараанда
аарааш
аарак
аарга
ааржы
ааржыны
аарне
аартаар
аартаи
аартап
аары
аарыг
аарыгга
аарыгдан
аарыглар
аарыгларга
аарыглардан
аарыгларны
аарыгларның
аарыглары
аарыгларын
аарыгларынга
аарыгларында
аарыгларының
аарыглыг
аарыгны
аарыгның
аарыи
аарыкчылар
аарыкчыларның
аарыкчылары
аарыкчыларынга
аарыкчыларының
аарын
аарынга
аарының
аарып
аарышкы
аарышкылыы
аарыы
аарыын
аарыынга
аарыындан
аарыының
аарыыр
аарыыры
аарыычал
аас
ааска
аастыг
аастың
абаев
абаи
абакан
абаканга
абаканда
абаканның
абало
абан
абанда
абанкур
абант
абасоло
абасы
абат
абате
аббас
абдуллина
абдурауф
абдыкаримов
абзацка
аблажеи
абрамович
абрау
абрикос
абсолюттуг
абстрактылыг
абстракции
абт
абу
абугалисина
абульфаз
абусеитов
абхазии
абылаи
ав
ава
аваз
авазы
авазын
авазынга
авазының
аваи
авалар
авалары
аваларым
авалокитешвара
авам
авамга
авамның
авангард
аванза
аваны
аваның
авар
аварии
авария
аварияга
аварлар
аватар
авг
август
августа
августе
августин
августка
августта
августтуң
августуң
августь
авдотья
авенюда
авиатор
авиации
авиационныи
авиация
авиациязынын
авиациязыныӊ
авиценна
авиценнаның
авиценны
авраам
аврора
австралии
австралия
австралияга
австралияның
австри
австрии
австрия
австрияга
австрияда
австрияның
австро
авт
авто
автобиография
автобус
автобустар
автограф
автографы
автомагистраль
автоматизация
автоматически
автоматическое
автоматтыг
автомашина
автомобилем
автомобиль
автомобильдер
автомобильдиг
автомобильдин
автомобильдиң
автономная
автономного
автономнои
автономнуг
автономныи
автоорук
автопортрет
автопортреттерниң
автор
автора
авторе
автореф
автореферат
авторлар
авторларның
авторлары
авторларының
авторлуг
авторнуң
авторов
авторская
авторскии
авторском
автору
авторы
авыи
авырал
авыралды
авыралдыг
аг
ага
агаар
агаарга
агаарда
агаардан
агаарже
агаарлыг
агаарның
агаары
агаарының
агаи
аганак
агапонов
агар
агарткан
агата
агафья
агач
агбаан
агбаанович
агглютинативтиг
агент
агентства
агентство
агентствозу
агенты
агидель
агинск
агинскиниң
агитация
аглакыр
агнес
агни
аграрлыг
аграрнои
аграрныи
агриппина
агроном
агрономнап
агроному
агроүлетпүр
агы
агыи
агым
агымнар
агымның
агымы
агымын
агымында
агымының
агын
агып
ад
ада
адаа
адаан
адаанга
адаанда
адаандан
адаанныг
адаанче
адааны
адааның
адаап
адаар
адаарга
адааргак
адаарда
адаарлар
адаары
адаарын
адаарының
адааш
адаваи
адавас
адага
адад
ададан
адаза
адазы
адазын
адазынга
адазындан
адазының
адаи
адак
адаккы
адакы
адам
адамның
адамс
адан
адана
аданың
адап
адар
адарда
адаров
адаровтуң
адары
адарынга
адатгынар
адаттынар
адаттынган
адаттынып
адаттырган
адатынар
адатынып
адашкылар
адаңар
адвокат
аддамс
аде
аделина
адепттерни
аджи
ади
административно
административных
административтиг
администратор
администратора
администратором
администраттыг
администрации
администрация
адмирал
адольф
адрези
адрезинче
адрес
адреса
адреске
адресу
адрианов
адш
ады
адыг
адыгбаи
адыгеи
адыгея
адыгжы
адыгжылар
адыгжының
адыглар
адыгны
адыгның
адыгуузун
адыжы
адыжын
адыжынга
адым
адын
адынга
адында
адындан
адынче
адының
адып
адыптарга
адыр
адырлар
адырлардан
адырларлыг
адырлары
адырларын
адырларынга
адырларының
адырлы
адырлып
адырлыр
адырлырының
адырның
адыры
адырылбас
адырылган
адырылгаш
адырылдым
адырын
адырынга
адырында
адырының
адырып
адыш
адыштарын
адыя
адың
ае
ажа
ажааган
ажаакчызы
ажаакчызылап
ажаап
ажаар
ажааттынган
ажаи
ажар
ажо
ажы
ажыг
ажыгзымаар
ажыглаа
ажыглаан
ажыглаар
ажыглаарга
ажыглаарда
ажыглаары
ажыглаарын
ажыглаарынга
ажыглаарындан
ажыглаарының
ажыглааш
ажыглаваи
ажыглавас
ажыглавышаан
ажыглаи
ажыглакчылар
ажыглакчыларының
ажыглал
ажыглалга
ажыглалда
ажыглалдыг
ажыглалдың
ажыглалче
ажыглалы
ажыглалынга
ажыглап
ажыглаттынар
ажыглаттынып
ажыглатынып
ажыглаңар
ажыдар
ажыдары
ажыдарын
ажыдарынга
ажыдарының
ажыдып
ажыдыптарга
ажыдыышкын
ажыдыышкыннарны
ажыдыышкыны
ажыдыышкынын
ажыдыышкынынга
ажык
ажыктыг
ажыл
ажылап
ажылга
ажылгыр
ажылда
ажылдаан
ажылдааннар
ажылдааны
ажылдаар
ажылдаары
ажылдаарын
ажылдаарынга
ажылдаарынче
ажылдаарының
ажылдааш
ажылдаваи
ажылдавышаан
ажылдадып
ажылдадыр
ажылдажылга
ажылдажылгазының
ажылдаи
ажылдакчы
ажылдакчызы
ажылдакчызылап
ажылдакчызынга
ажылдакчызындан
ажылдакчылап
ажылдакчылар
ажылдакчыларның
ажылдакчылары
ажылдакчыларын
ажылдакчыларынга
ажылдакчыларының
ажылдан
ажылдап
ажылдар
ажылдарга
ажылдарда
ажылдарны
ажылдарның
ажылдары
ажылдарын
ажылдарынга
ажылдарында
ажылдарынче
ажылдарынын
ажылдарының
ажылды
ажылдыг
ажылдыр
ажылдың
ажылче
ажылчы
ажылчын
ажылчыннар
ажылчыннарга
ажылчыннарның
ажылчыннары
ажылчыны
ажылы
ажылын
ажылынга
ажылында
ажылындан
ажылынче
ажылынын
ажылының
ажынчак
ажынып
ажып
ажыр
ажырбас
ажыткан
ажытканнар
ажытканы
ажыткаш
ажытпышаан
ажыттап
ажыттынар
ажыттынарга
ажыттынган
ажыттынгылаан
ажыттынып
ажыы
ажыын
ажыынга
ажыышкын
аз
аза
азан
азар
азарганчыг
азарлар
азарх
азас
азаттық
азбука
азган
азерб
азербаи
азиат
азиата
азиатскии
азиеи
азиз
азии
азия
азияга
азияда
азиядан
азияже
азияны
азияның
азнабаева
азов
азот
азотсуг
азоттуг
азы
азыг
азыглыг
азып
азыраан
азыраар
азыраары
азыраарын
азыракчызы
азырал
азыранды
азырап
азыы
аи
аида
аир
ак
ака
акад
академиги
академии
академик
академика
академиктиг
академическии
академию
академия
академияга
академияже
академиязы
академиязын
академиязынга
академиязынның
академиязынче
академиязынын
академиязының
академияларының
академияны
академияның
акацуки
акбар
акварели
аквинскии
аки
акира
аккад
аккан
аккомпаниатор
акмуллы
аксе
аксиологияга
аксиома
акскии
аксы
аксымаар
аксын
аксынга
аксында
аксындан
аксынче
аксының
аксып
акт
актаан
актар
актау
акте
актер
актерлары
актеры
активист
активно
активного
активное
активности
активную
активных
активтиг
активчи
актобе
актов
актриса
актрисазы
актрисаның
актрисы
актуальные
актыг
акустика
акустикада
акустиктиг
акушер
акции
акциязының
акцияларын
акчурин
акш
акша
акшага
акшазы
акшаландырып
акшалар
акшаны
акшаның
акшка
акы
акызы
акызын
акызынга
акызынче
акызының
акыи
акылары
акыларым
акыларын
акыларының
акылыг
акым
акымның
акышкылар
акың
ал
ала
алаак
алан
аларман
алатау
алаш
алаштың
албаан
албадаан
албадап
албадапкан
албаи
албан
албания
албанны
албанныг
албанның
албаны
албанын
албанынга
албанындан
албанының
албас
албаты
албатызы
албатызын
албомд
албу
албыс
алвес
алгаан
алгадырда
алган
алганда
алганнар
алганспортсменки
алганы
алганым
алганынга
алганының
алганыр
алганырлар
алгап
алгаш
алгебра
алгебраның
алгоритм
алгы
алгыдан
алгыи
алгылаан
алгыны
алгып
алгырар
алгырып
алгырыпкан
алгыш
алдаг
алдаи
алдан
алдар
алдаржаан
алдаржыдып
алдаржып
алдарлыг
алдарны
алдарның
алдары
алдарын
алдарынга
алдарының
алдунуң
алды
алдывыс
алдыгы
алдым
алдын
алдынаи
алдынары
алдынган
алдынганыл
алдындан
алдынналчак
алдынны
алдынныг
алдынның
алдыны
алдынын
алдынып
алдырбаи
алдырлыг
алдыы
але
алеко
алекс
алекса
александр
александра
александрии
александрия
александров
александрович
александровна
александровскии
алексеев
алексеевич
алексеевна
алексеи
алексея
алексиевич
алексии
ален
алжир
алжире
алза
алзы
алзын
алзып
алзыпкан
алзыпкаш
алзыр
али
алиев
алиева
алилуева
алимова
алина
алине
алиса
алишер
алкалоидтер
алла
аллах
аллегория
аллея
аллилуева
аллофон
аллофоннары
алма
алмаз
алматы
алматыда
алматының
алонсо
алоэ
алп
алт
алтае
алтаи
алтан
алтанбулаг
алтая
алтын
алтынтоп
алфавиди
алфавидин
алфавидинге
алфавит
алфавитке
алфавитном
алфавитте
алфавиттен
алфавитти
алфавиттиң
алфавиттээн
алфавиту
алфавитче
алхимик
алхимия
алчность
алчы
алчызы
алчылар
алы
алызында
алыи
алыксак
алыксап
алып
алыр
алырга
алырда
алырлар
алыры
алырыл
алырын
алырынга
алырында
алырынче
алырының
алыс
алыскан
алысканда
алыспаи
алыспас
алышкы
алышкылар
алышкыларны
алышкыларның
алышкының
алыышкын
алыышкынга
алыышкынны
алыышкыннын
алыңар
аль
альберт
альберта
альберто
альбом
альбома
альбомда
альбомнары
альбомну
альбому
альбомун
альбомунга
альбомунуң
альбомунче
альбрехт
альма
альманагынга
альманах
альманахка
альманахтың
альметьевнефть
альметьевск
альмухаметович
альпинизм
альт
альтернативного
альтернативному
альтернативныи
альфа
альфонсо
альфред
альфреда
альцгеи
алюмини
алюминии
алямкина
аляска
аляскага
алған
ам
ама
амазонканың
амалым
аман
амангельдинович
амбын
амга
амгы
амдан
амданнанып
амданныг
амданы
амдо
амдыгаа
амдызында
амдыызында
америк
америка
америкага
америкада
америкаже
американ
американские
американскии
американского
американскои
американы
американың
америке
америки
амзааш
амзадыр
аминокислоталарны
амир
амитабха
аммиак
ампер
ампула
амстердам
амстердамга
амстердамда
амстердамның
амстердамче
амударья
амур
амурнуң
амфора
амы
амыдыраар
амыдырал
амыдыралга
амыдыралда
амыдыралдан
амыдыралды
амыдыралдыг
амыдыралдың
амыдыралче
амыдыралчы
амыдыралы
амыдыралын
амыдыралынга
амыдыралында
амыдыралының
амыдырап
амызынга
амылыг
амылыглар
амылыгларга
амылыгларның
амыр
амыраан
амырап
амырга
амырлажып
амытан
амытанга
амытандан
амытаннар
амытаннарга
амытаннарда
амытаннардан
амытаннарже
амытаннарны
амытаннарның
амытаннары
амытаннарының
амытанны
амытанның
амытаны
ан
ана
анаа
анаада
анаи
анализ
анализа
анализи
анализин
анализке
анализтеп
анализти
анализтээрде
аналитиктиг
аналог
аналогично
аналогичную
аналогичныи
анан
ананда
ананды
анастаси
анастасия
анатолии
анатолия
анатольевич
анатольевна
анатомия
анахата
анахуань
анахуаньның
анварович
ангара
ангарага
ангарск
ангарского
ангел
ангела
ангелина
ангилал
англ
англи
англии
англилеп
англия
англияга
англияда
англиядан
англияже
англияның
англо
англоязычного
ангы
ангыда
ангылал
ангыланып
ангылап
анд
анда
андаман
андерсен
анджелес
анджелесче
анджелина
андре
андреа
андреев
андреева
андреевич
андреевна
андреи
андрес
андрея
андроповскии
андропология
анекдот
анекдоты
анестезиология
анжи
анзат
ани
аниматор
анимации
анимация
аниме
анимеге
анимеде
анимелер
анимелерниң
анимениң
анисья
анкар
анкара
анкарага
анкарада
анкараның
анкор
анна
аннаның
анны
аномальная
анохин
анри
ансамбли
ансамблинге
ансамблиниң
ансамбль
ансамбльдар
ансамбльдер
ансамбльдиң
ансамбльдың
ансар
ант
анта
антальяспорга
антарктида
антеи
антидоду
антик
антиковеды
антиктиг
антология
антомонов
антон
антонина
антонио
антонова
антонович
антоновна
антропов
антрополог
антропологии
антропология
антропонимнер
антропософ
антуан
антуфьев
ану
анфиса
анфису
анчах
анчыг
анчымаа
аны
аныяанда
аныяандан
аныяк
аныяктар
аныяктарга
аныяктарны
аныяктарның
аныяктары
аныяктарының
анықтамалық
ань
аньези
ао
ап
апаар
апаарга
апаары
апаарын
апаарынга
апаарының
апанбу
апандисит
апар
апарбаан
апарган
апарганда
апарганнар
апарганы
апарганыл
апарганын
апаргаш
апаргылаан
апарза
апартеида
апарып
апельсин
апкан
апкаш
апн
апогамии
апогеи
аполлон
аполог
апологка
апологтуң
апостол
апостолдуң
аппаар
аппазов
аппарады
аппарадынга
аппарадының
аппарат
аппаратов
аппараттың
аппаратчица
аппарган
аппарып
аппроксимации
апр
апрель
апрельге
апрельда
апрельде
апрельден
апрельдиң
апреля
аптар
аптара
аптека
аптечная
ар
ара
араатан
араб
арабдан
арабелла
арабист
арабская
аравии
аравия
аравыста
арага
арагага
арагазы
арагазын
арагалары
араганы
араганың
арагачы
аразы
аразын
аразынга
аразынд
аразында
аразындан
аразынче
аразының
араи
аракчаа
арал
аралдың
арамаи
аранчын
аранчынның
араптан
арат
арата
аратары
араттар
араттарны
араттарның
араттары
араттың
арафат
арахистиг
араңарда
арбаанга
арбаи
арбактап
арбан
арбанныг
арбанның
арбаны
арбачаков
арбитражныи
арбын
арга
аргага
аргада
аргадан
аргажок
аргазы
аргазын
аргазынга
аргазының
аргалар
аргаларны
аргаларның
аргалары
аргаларын
аргаларынга
аргаларының
аргалыг
аргамчы
арган
арганы
арганың
аргентин
аргентина
аргентинага
аргентинаның
аргиппеи
арголик
аргумент
аргумента
аргументами
аргументации
аргументов
аргументом
аргументы
арда
ареала
аревэ
аренда
аренды
арены
арест
арефьева
аржаан
аржаана
аржаане
аржааннар
аржааннары
аржаанны
аржаанның
аржааны
аржан
аржык
арзаи
арзгирскии
арзылан
арзылаң
арзылаңы
ариабхатаның
аридных
арина
аристократ
аристотель
аристотельдиң
ариф
арифметикага
арифметике
ариэль
арк
арка
аркадии
аркадьевич
аркадьевна
арктика
арлы
арм
армавир
армении
армения
арменияга
арменияның
армии
армия
армияга
армиязы
армияның
армстронг
армян
армяннарның
арн
арнольд
арны
арнын
арнынга
арнында
арнындан
арның
арсенал
арсенала
арсеньев
арсеньевтиң
арслан
арт
арта
артаа
артап
артар
артарга
артары
артас
арте
артель
артемьевич
артизи
артикля
артикулястыг
артиллерия
артист
артиста
артистер
артистери
артистериниң
артистерниң
артисти
артистиң
артистка
артистке
артистки
артистов
артисттери
арткан
артканда
артканнар
артканнары
артканнарын
арткаш
артпаан
артпас
артпышаан
артрит
арттар
арттарын
арттырар
арттырган
арттыргаш
арттырып
артур
арты
артыжаар
артык
артыкы
артылдаи
артын
артынга
артында
артынчы
артынчылары
артынчыларын
артып
артырган
артыргаш
артырдым
артырып
артыш
артыштыг
артыы
архаиктиг
архангельск
архангельская
архангельскии
археолог
археологии
археологическая
археологические
археологическии
археологических
археологическои
археология
археологиязын
археологиязының
археологов
археологтар
археологтуг
архив
архива
архиве
архиви
архивин
архивинде
архивинден
архивиниң
архивирования
архивированнои
архивировано
архивная
архивнои
архивные
архивте
архивтен
архивтер
архимед
архимеда
архимедова
архимедти
архимедтиң
архиповна
архитектор
архитекторлар
архитектура
архитектурлуг
архитектуры
ары
арыг
арыгга
арыгда
арыглаан
арыглаар
арыглаары
арыглаарынга
арыглааш
арыглаашкын
арыгланып
арыгланыр
арыглап
арыглыг
арыгның
арыдыр
арык
арыктар
арылар
арылдыр
арын
арынга
арында
арыннар
арыннарда
арыннардан
арыннарны
арыннары
арыннарын
арыннарынга
арыннарында
арынны
арынныг
арынның
арынче
арыны
арынын
арынынга
арып
арыс
арыскан
арысканныг
арыы
арыя
арьен
арэвэ
ас
асаул
асаф
асбест
асимптотика
асимптотическое
аскак
аскан
аскар
аскер
аскеров
аскорбинниг
аскы
аскын
аскынга
аскыр
аслан
аспект
аспекте
аспектилерин
аспекты
аспирант
аспирантов
аспирантура
аспирантурага
аспирантураже
аспирантуразын
аспирантуразынга
аспирантуразынче
аспирантураны
аспирантызы
аспирация
ассамблеи
ассамблея
ассамблеязының
ассамскии
ассистент
ассистентизи
ассистентилеп
ассоциации
ассоциация
ассоциациязы
ассоциациязының
асср
аст
астана
астананың
астафьев
астафьева
астахов
астероид
астероида
астероидтер
астра
астраханочка
астраханскои
астрахань
астрель
астролог
астрология
астрологтар
астроном
астрономии
астрономические
астрономия
астрономияга
астрономияда
астрономияны
астрономнар
астрономнарның
астрономнуг
астротехнологиялар
астурии
астым
астына
астында
астып
асфальт
асэр
ася
ат
ата
атага
атакалаар
аталған
атаман
атасы
ататюрктуң
ататүрк
атеизм
атеист
атилл
атка
аткаарлаар
аткаарлаи
аткаарлап
аткан
аткаш
аткылашкан
атлант
атланта
атланты
атлас
атлет
атлетик
атлетика
атлетикага
атлетике
атлетики
атлетико
атмосфера
атмосферада
атмосферазының
атмосфераның
атом
атомнары
атомнарындан
атомнарының
атомного
атомнуг
атому
атрахасис
атрахасиске
атрахасистиң
атрибуду
атрибут
атрибута
атрибутом
атрибуттар
атрибуту
атсыз
аттар
аттарга
аттарлыг
аттарны
аттарның
аттары
аттарын
аттарынга
аттарындан
аттарының
атташези
аттестадын
атты
аттыг
аттыгып
аттырган
аттырып
аттың
аты
атының
атырау
атырып
ау
аугусто
аудио
аудитории
аудитория
аудуна
аукционга
аул
аун
ауф
афанасии
афанасьев
афанасьева
афанасьевич
афанасьевна
афган
афганистан
афганистанда
афганистане
афинага
афины
африка
африкага
африкада
африкадан
африкан
африканскии
африканың
африке
африки
афроамерикан
афродита
афучжило
аффиксы
ах
ахиезера
ахмадинежад
ахмадулина
ахмадулинои
ахмат
ахмед
ахмет
ахметович
ахунзянов
ацетальдегид
ача
ачазы
ачазын
ачазынга
ачазындан
ачазынның
ачазынныӊ
ачазының
ачаи
ачам
ачамның
ачинск
ачы
ачызы
ачызынга
ачызында
ачызындан
ачылыг
ачыты
аш
ашаа
ашаам
ашаан
ашаанга
ашаандан
ашаанның
ашааның
ашак
ашака
ашакка
ашактар
ашакты
ашактыг
ашел
ашер
ашидэ
ашина
ашк
ашка
ашказын
ашкаландырыышкынны
ашкалыг
ашкан
ашкаш
ашмарин
ашмарина
ашпаи
ашпас
аштаан
аштаар
аштааш
аштаи
аштанып
аштап
аштырган
аштыргаш
аштырыпкан
аштэи
ашхабад
аъды
аъдым
аъдын
аъдынга
аъдының
аъжын
аът
аътка
аъттан
аъттанып
аъттаныпкан
аъттар
аъттарны
аъттарның
аъттары
аъттарын
аътты
аъттыг
аъттың
аъш
аэроклубка
аэроклувунга
аэропорт
аэропорттар
аэропортунда
ая
аяаар
аяар
аяк
аякка
аякта
аякты
аялга
аялгазы
аялгазын
аялгалар
аялгаларны
аялгалары
аялгалыг
аян
аяна
аянажылгазы
аянаның
аянгаты
аяннажылгазы
аяннажылгазынга
аяннаштыр
аянныг
аянчок
аяны
аянын
аяс
аяңгаты
ақ
аң
аңаа
аңгы
аңгыда
аңгылаан
аңгылаар
аңгылава
аңгылаи
аңгылал
аңгылалга
аңгылалдар
аңгылалх
аңгылалче
аңгылалы
аңгыланы
аңгыланып
аңгылап
аңгылаттынган
аңгыр
аңдара
аңдарлып
аңдарып
аңдарыпкан
аңнаар
аңнаарда
аңнаары
аңнаарын
аңнаарынга
аңнап
аңнар
аңнарны
аңнарның
аңны
аңнынң
аңныыр
аңның
аңче
аңчы
аңчылар
аңчыларның
аңчылары
аңчының
аңы
аңын
аӊаа
аӊгы
аӊгыда
б
ба
баажызы
бааза
баазазы
баазаң
баазын
баан
баар
баарга
баарда
баарның
баары
баарымга
баарын
баарынга
баарында
баарының
баасаң
баатар
баатор
бааш
баба
бабии
бабич
бабур
бабушка
бабушки
бабушкинои
баварии
бавария
баварияга
баварияның
бавун
бавуу
бавуужап
баг
бага
багаи
багана
багдад
баглаан
баглаар
баглааш
баглап
баглар
багны
багульник
багы
багын
бада
бадаи
бадалов
бадалова
бадан
бадар
бадарчи
бадарчы
бадма
бадминтон
бадминтону
бадра
бады
бадылаан
бадылаар
бадыланчып
бадылга
бадып
бадыр
бадырар
бадырарын
бадырган
бадыргы
бадыргыга
бадыргыны
бадыргының
бадырып
бадырыптар
бадыткаан
бадыткаар
бадыткаары
бадыткал
бадыткалы
бадыткап
бадыткаттынган
бажазы
бажы
бажым
бажын
бажынга
бажында
бажындан
бажынче
бажыны
бажынын
бажынында
бажының
бажыынга
бажың
бажыңга
бажыңда
бажыңдан
бажыңнар
бажыңнарга
бажыңнарны
бажыңнары
бажыңнарын
бажыңнарында
бажыңнарынче
бажыңнарының
бажыңны
бажыңның
бажыңче
бажыңы
бажыңывыс
бажыңын
бажыңынга
бажыңында
бажыңындан
бажыңынче
бажыңының
бажыӊ
бажыӊынга
баз
база
базазы
базазынга
базар
базарга
базарынга
базе
базовому
базовые
базовыи
базым
базымнарны
базымын
базып
базыр
базырык
базырыктар
базырыктардан
базырыкты
базырыктың
базырып
базырыын
базырыындан
базырыының
базыышкын
базыышкынга
базыышкыны
базыышкынын
баи
баимов
баир
баирович
баировна
баиттер
баия
бак
бакалавр
бакалавры
бакалаврын
бакизович
баксыраан
баксыраар
баксырап
бактаан
бактаап
бакташкан
бактериялар
бакты
бактың
баку
бакуга
бакунин
бакча
бакчаларда
бакы
бакыт
бал
бала
балабанов
балагасун
балалбас
балары
баласы
балауса
балашова
балаяна
балбал
балбалдар
балбес
балгазын
балган
балгат
балдан
балдаң
балды
балдызын
балдыр
балдырлаары
балерина
балериназы
балерине
балерины
балет
балета
балетмеи
балеттен
балетти
балеттиң
балка
балкан
балкар
балкария
балковскии
балл
баллада
балладалар
балладаны
баллак
баллакка
баллакты
баллактың
баллдар
балтии
балтославянские
балчии
балчыи
балчын
балчыр
балчырович
балыг
балыгланган
балыглаткан
балыглаткаш
балыглаттырган
балык
балыкесир
балыктан
балыктап
балыктар
балыктарны
балыкты
балыктыг
балыкчы
балыкшы
балыы
бам
бамбук
бан
бангладеш
банк
банке
банкызы
банкызының
баннернои
банникова
банных
бану
банчын
бап
бапа
баптист
бар
бараалгаан
бараалгаар
бараалгадып
бараалгадыр
бараалгап
бараалгаткан
бараан
бараанажылга
барааннар
барааннары
барааны
бараанын
барабанов
барак
баракаевна
баранова
барба
барбаан
барбара
барбас
барган
барганда
барганнар
барганы
баргаш
баргуджин
баргузин
баргуттар
баргучжин
баргыже
баргылаар
бард
барда
барды
бардым
бардың
баржа
баритон
барлык
барлыкскии
барнаул
барнаулдуң
барович
барокко
барокконуң
барон
барре
барс
барса
барселона
барселонага
барселонаже
барселонаның
барселоне
барселону
барселоны
бартан
барто
бартольд
бартына
баруздин
барун
барчукова
бары
барыи
барык
барыкаан
барыкаанның
барыкааның
барыл
барымдаа
барымдаазы
барымдаалаар
барымдаалааш
барымдаалап
барымдаалар
барымдааларда
барымдаалары
барымдаалыг
барын
барып
барыс
барыспаи
барыын
барыңар
бас
баскан
баскаш
баскетбол
баскетболга
басковтуң
баскыраан
басмыл
басмылдар
басня
баспаи
баспас
баспасы
бассеи
басси
басср
бассын
бастиан
бастырган
бастырып
басы
батальон
батальоннуң
батжаргал
баткан
баткар
баткаш
батманов
бато
батор
баторда
батпас
бату
батурина
батыр
баунтовск
бах
бахаи
бахаиниң
бахия
бахреи
бахтахын
бахчисараи
бачыды
бачыт
бачыттан
бачыттыг
баш
башакшехир
башинформ
башк
башка
башкарар
башкарарда
башкарган
башкарыкчы
башкарыкчызы
башкарылга
башкарылгазын
башкарып
башки
башкир
башкирии
башкирияның
башкирлер
башкирлерге
башкирлери
башкирлерни
башкирлерниң
башкирская
башкирские
башкирскии
башкирского
башкирское
башкирскои
башкирском
башкиры
башкнигоиздат
башкортостан
башкортостана
башкортостанга
башкортостанда
башкортостанның
башкы
башкывыс
башкыга
башкыдан
башкызы
башкызын
башкызының
башкылаан
башкылаар
башкылавышаан
башкылаи
башкылап
башкылар
башкыларга
башкылардан
башкыларны
башкыларның
башкылары
башкыларым
башкыларынга
башкыларының
башкыларыныӊ
башкым
башкыны
башкынын
башкының
башня
баштаан
баштаар
баштаары
баштадып
баштаи
баштак
баштакчызы
баштакчылары
башталга
башталгазы
баштап
баштары
баштарын
баштарынга
баштарында
баштаткан
башты
баштыг
баштың
баштыңнар
баштыңнары
баштыңнарының
баштыңчы
баштыңчызы
баштыңчылары
баштыңы
баштыңынга
баштыңының
башҡорт
баък
баян
баянист
баянович
бақ
ббк
бгму
бе
бег
бегдеги
беге
бегере
бегзи
беги
бегирээ
беглер
беглери
беглерниң
бедиа
бедидер
бедиди
бедидип
бедии
бедиин
бедиинге
бедииниң
бедиир
бедик
бедиктиң
бедикче
бедип
бедээн
бежар
бежара
бежен
без
безин
безмен
безобразова
безопасности
безрадостная
безразличен
беи
бек
бекдик
бекетов
беки
бексимээр
бел
белан
беларуси
беларуская
беларусь
белая
белги
белгород
белгородская
белгородскои
белдир
белдири
белдиринге
белдиринде
белдиринден
белебеи
белек
белекке
белекмаа
белектер
белекти
белен
белени
белеткел
белеткелди
белеткелдиг
белеткели
белеткелин
белеткелинге
белеткенип
белеткенир
белеткеп
белеткээн
белеткээни
белеткээр
белеткээри
белеткээринге
белеткээш
бели
белина
белинскии
белка
белки
белла
бело
белов
белова
белого
белои
белок
белоктар
белоктарны
белоктарның
белоктуг
белом
беломорск
белор
белорецк
белорус
белорусс
белоруссии
белоруссия
белоруссияга
белоруссияда
белоруссияның
белорусская
белорусскии
белорусца
белоусов
белоцарск
белчиир
белые
белыи
белых
бель
бельгии
бельгия
бельгияга
бельгияның
бельзен
белэн
белээ
беляева
белөзоглу
бен
бенедикт
бензин
бениң
бенсон
бенсона
бер
бербези
бербезин
бербеи
бербес
бербээн
берге
бергедеи
бергедеп
бергедээн
бергедээрге
бергедээшкиннерге
бергези
бергезин
бергелер
бергелерге
бергелерин
бергелеринге
бергелерни
берген
бергенде
бергени
бергеним
бергенин
бергенинден
бергениниң
бергеннер
бергеш
бергилээн
берд
берди
бердим
бердинген
бердингени
бердингеннер
бердинип
бердинипкен
бердников
бере
берег
берега
берегах
береговые
берегу
березикова
березовка
береи
берем
беременность
берен
берзе
бери
бериллии
берип
берипкен
бериптер
беркли
берлин
берлинге
берлинде
берлинниң
берлинскиниң
берлинче
берлускони
бернар
бернат
бернерс
берт
берта
бертик
бертинге
бертинде
берып
бес
беседы
бесконечная
беспаленко
бесплатнои
беспорядки
бесси
бессмертныи
бестериниң
бестиг
бестселлер
бет
бета
бетельгеи
бетин
бетинде
бетис
бетон
бетти
бетховен
бечлор
беш
бешикташ
бешки
бештен
би
биатлон
биатлонга
биатлонист
бибер
библеи
библиогр
библиографическая
библиографическии
библиографических
библиографическои
библиография
библиографиязы
библиографтыг
библиотек
библиотека
библиотекага
библиотеказы
библиотеказын
библиотеказынга
библиотеказында
библиотеказының
библиотекалар
библиотекалары
библиотеканың
библиотекарь
библиотеке
библиотеки
библия
библияда
библияның
биганце
биде
бидольо
бие
биеэги
бижек
бижектер
биживес
биживээн
бижигилээн
бижидер
бижидери
бижидип
бижизе
бижии
бижиин
бижиинге
бижиинде
бижииниң
бижиир
бижиирге
бижиирде
бижиири
бижиирин
бижииринге
бижииринден
бижиириниң
бижииринче
бижик
бижикке
бижикте
бижиктен
бижиктер
бижиктерге
бижиктерде
бижиктерден
бижиктери
бижиктерин
бижиктеринге
бижиктеринде
бижиктеринден
бижиктериниң
бижиктерлиг
бижиктерни
бижиктерниң
бижикти
бижиктиг
бижиктиң
бижикчизи
бижимел
бижимелдеринде
бижимелдерниң
бижип
бижиптер
бижитинген
бижиткен
бижиттинген
бижиттине
бижиттинер
бижиттинип
бижиттинмээн
бижиттирген
бижиңер
бижээн
бижээни
бижээниниң
бижээннер
бижээчи
бижээчизи
бижээш
бизе
бизин
бизнес
бизнесмен
бии
биишев
биишева
бикольскии
бил
билбези
билбезин
билбеи
билбес
билбээн
билге
билген
билгеш
билги
билгэ
билдивис
билдилиг
билдинген
билдингени
билдингир
билдингири
билдине
билдинер
билдинип
билдинмес
билдирер
билдириишкин
билдиртпеи
билдиртпес
биле
билек
билектээш
билелиг
билеп
билер
билзе
билзек
билзектер
билиг
билигге
билигже
билиглер
билиглери
билиглерин
билиглериниң
билиглерлиг
билиглерни
билиглерниң
билиглиг
билигни
билигниң
билии
билиин
билиишкин
билиишкиннер
билиишкиннерни
билиишкинни
билиишкинниң
билип
билир
билири
билиривис
билирин
билиринге
билиринден
билл
билчип
бильбао
бимба
бин
бинарлыг
биньямин
биобиблиогр
биобиблиографическии
биогр
биографии
биографика
биографическая
биографические
биографическии
биография
биографиязы
биографиях
биолог
биологи
биологическая
биологические
биологических
биологического
биологическои
биология
биологтуг
биомассаны
биосфера
биосферлиг
биотехнология
биохимик
биохимия
бир
бирге
бирги
биргизи
бирде
бирден
бири
биригээр
бирман
бирмингемге
бируни
бирштеи
бирээ
бирээде
бирээзи
бирээзин
бирээзинге
бирээзинде
бирээзиниң
бирээни
бирюкова
бис
биске
бисте
бистен
бистер
бистерни
бистерниң
бисти
бистиг
бистии
бистин
бистиң
бистиӊ
бисче
бит
битва
биче
бичежек
бичези
бичезин
бичеи
бичелдеи
бичен
биченмал
бичи
бичии
бичиизи
бичиизинде
бичиизинден
бичиилеп
бичиини
бичик
бичурин
бичуринниң
бишкек
бку
бл
благо
благова
благовои
благодарненскии
благодаря
благотворительныи
блау
бле
бледные
блестящие
ближаи
близ
близки
близко
блинова
блог
блогеров
блогу
блок
блока
блоки
блокировать
блокланд
блоктар
блоктуг
блоктуң
блудныи
блы
блэр
блю
блюз
бниц
бнц
бо
боб
бобалаашкын
бобтар
бог
богатырева
богаш
богба
богда
богдан
богданов
богдашева
богона
богота
бода
бодаан
бодааны
бодаар
бодаарга
бодаарлар
бодаарымга
бодааш
бодаваи
бодаган
бодаи
бодал
бодалга
бодалгазы
бодалгазын
бодалгалар
бодалгаларны
бодалгаларын
бодалганың
бодалдар
бодалдарга
бодалдардан
бодалдарны
бодалдарның
бодалдары
бодалдарым
бодалдарын
бодалды
бодалдыг
бодалдың
бодалчы
бодалы
бодалым
бодалын
бодалынга
бодалыңар
бодамчалыг
боданган
боданмышаан
боданып
боданыр
боданыры
боданыышкын
бодап
бодараан
бодарадып
бодарап
бодров
боду
бодувус
бодум
бодумну
бодумнуң
бодун
бодунга
бодунда
бодундан
бодуннун
бодуннуң
бодуннуӊ
бодунун
бодунуу
бодунуң
бодунуӊ
бодунче
бодунығ
бодуун
бодуң
бодуңар
бодуңарның
бодуңга
бодуңнуң
бодхи
бодхисаттва
бодхисаттвачарья
бодхичитта
бодын
боев
боевиктер
боевому
боевые
боевых
боец
божа
божаан
божудар
божулга
божуп
божуур
бозагазынга
бозагазындан
бозджалы
бозон
бозона
бои
бок
бокс
бокса
боксе
боксер
бокска
боксу
боксче
боктаевич
бокту
бол
болат
болбаазырадып
болбаазырадыр
болбаазырадыры
болбаазыраткан
болбаазыраттынып
болбаан
болбаанда
болбазын
болбаи
болбас
болбушаан
болга
болгаи
болган
болганга
болганда
болганнар
болганчок
болганы
болганымда
болганын
болганындан
болгар
болгария
болгарияга
болгарияның
болгары
болгаш
болгу
болгуже
болгулаан
болгулаар
болду
болдум
болдунар
болдунары
болдунмаан
болдунмас
болдунуп
болдур
болдурар
болдурбазынга
болдурбас
болдурган
болдуруп
болдуң
болевои
более
болезнеи
болезни
болезнь
болеро
болз
болза
болзувусса
болзумза
болзун
болзунам
болзуңарза
болзуңза
боливия
болистка
болистказы
болистку
болисты
болонье
болонью
болонья
болотская
болтон
болу
болук
болуксаар
болуксап
болуктун
болунуң
болуп
болур
болурга
болурлар
болурполное
болуру
болурул
болурун
болурунга
болурунда
болурундан
болурунуң
болускаваи
болуу
болуулу
болуушкун
болуушкуннар
болуушкуннарны
болуушкуннарның
болуушкуннары
болуушкуннарын
болуушкуннарының
болуушкуну
болуңар
болч
болчу
болчукчу
болчумчалыг
болчуру
болып
болыпты
боль
больница
больных
большая
больше
большевик
большевиктер
большевиктерге
большевиктерниң
большеи
большие
большим
большинства
большинстве
большинство
больших
большого
большое
большои
большом
большую
болған
бомба
бомбалаашкын
бомбардири
бомбардировщиктер
бомж
боо
боова
боодал
боодалы
боодалын
боозу
боозун
боолаан
боолап
боолар
боолаттырган
боолуг
боом
бооп
боор
боорга
боорда
боорзак
боорун
боорунга
боостаа
боостаазы
боостаалаар
боотур
боп
бор
бора
борагул
боражып
борахович
борбаа
борбаи
борбак
борбаксымаар
борбакты
борбактың
борбаңнадып
бордо
борец
борзаң
бори
борис
бориса
борисова
борисович
борисовна
боровиченко
боровск
бородин
борохул
борохулдуң
борт
борта
бортников
борус
боруссия
борцов
борцы
борщ
борщаговского
борьба
борьбе
борьбы
боскун
босния
бостон
босфор
босфорскии
бот
ботан
ботаник
ботаника
ботаниктиг
ботарынга
ботка
боткин
ботом
ботохои
ботта
боттанган
боттандырар
боттандырары
боттандырарынга
боттандырган
боттандырып
боттандырыышкыны
боттанып
боттар
боттары
боттарывыска
боттарын
боттарынар
боттарынга
боттарындан
боттарынче
боттарынын
боттарының
боттарыныӊ
ботту
боттуг
боттуң
боты
бохан
бош
боъш
бояровка
бояршинов
боярыня
боярыняның
бпла
бр
бразилия
бразилияга
бразилияда
бразилиядан
бразилияның
бразиль
браи
брак
браки
брат
братство
братья
браузер
браузерах
браун
брахма
брахмагупта
брахмагуптаның
брахмадева
брахманың
бред
бреи
брендизи
брестскои
бретон
бретоннуң
бригад
бригада
бригадага
бригадазы
бригадазын
бригадазынга
бригадазынче
бригадазының
бригаданы
бригаданың
бригаде
бригадир
бригадири
бригадирлеп
бригадиром
бригаду
бригады
бриллиантовая
британ
британия
британияның
бритни
брито
бритт
брокгауза
бронетранспорте
бронзовые
бронзовыи
бронзу
бронзы
бронислава
брулетова
бруно
брусникина
брусьяга
брюссель
брюссельге
брюссельдиң
брюховецкои
брянск
брянская
бсср
бсэ
бу
буваи
буга
бугажык
бугазы
бугалар
бугалыг
буганы
буганың
бугаш
бугр
бугу
будаваңар
будалып
будап
будапешт
будапеште
будапештке
будда
буддага
буддадан
буддажы
буддазы
буддалар
буддаларның
будданы
будданың
буддизм
буддизма
буддизмге
буддизмде
буддизмни
буддизмниң
буддии
буддист
буддистер
буддистерниң
буддисчи
будды
буде
будегечи
будегечиев
будем
будет
будешь
буду
будук
будуктар
будуктарлыг
будуктарның
будуктары
будуктарын
будуктуг
будун
будунуң
будуп
будут
будуу
будуур
будучи
будущего
будущее
будущеи
будущему
будущих
будьте
бужар
буза
бузар
буздякскии
бузу
бузундулар
бузундулары
бузуп
бузур
буи
бук
бука
букв
буква
буквами
буквенныи
буквои
букву
буквы
букер
букет
букинага
буклет
букмарклет
булагат
булагаттар
булак
булат
булатов
булганчок
булгар
булгарлар
буле
булези
булезинге
булелиг
булун
булут
булуттар
булуттарның
булуттарының
булуттуг
булуң
булуңга
булуңнарында
булуңнарындан
булуңнуг
булуңнуң
булуңу
булуңчук
булуңчукту
булуңчуктуң
бульвар
бульварда
бум
бумаг
бумын
бумынның
бундеслига
бундеслигага
бундеслиганың
бунина
бунт
бур
буран
бурангулов
бурангуловтуң
буратино
бурган
бурганга
бургандан
бурганнаи
бурганнар
бурганнарга
бурганнарның
бурганнары
бурганны
бурганныг
бурганның
бурганчы
бурганы
бурганым
бурганынга
бургера
бургун
бурдукава
бурен
буржуаз
бурлак
бурса
бурсаспор
буру
бурузу
бурун
бурунгаар
бурунгу
бурунгунуң
буруу
буруудадып
буруудаткан
буруудаткаш
буруузу
буруузун
буруузунуп
буруул
буруулуг
буруун
буруңгаар
буруңгу
буруӊгу
бурхан
буря
буряад
бурят
бурятзолото
бурятии
бурятия
бурятияга
бурятияда
бурятиянның
бурятияның
бурятмясопром
бурятская
бурятскии
бурятского
бурятское
бурятскои
буряттар
буряттарда
буряттарның
буряттары
бус
буска
бускаш
бусталыычал
бустуг
буступ
бут
бутаева
буттаары
буттап
буттары
буттарын
бутту
буттуг
буттуң
бутырин
бууза
буур
буура
буураашкынының
буураи
буурап
буурул
буфетчица
буффер
буффон
бухаа
бухарест
бухгалтер
бухгалтерия
бухтуев
буш
бушлат
буэнос
буян
буянны
буянныг
буянның
буяны
буянын
буң
бф
бхагаван
бы
бывает
бывшая
бывшии
быдаа
быдааны
быдаргаи
быжа
быжар
быжыг
быжыглаан
быжыглаар
быжыглаары
быжыглаарынга
быжыглап
быжыгып
быжыккан
быжыктырар
быжып
быжыр
быжырар
быжырган
быжыы
бызаа
бызаазы
бызаанчы
бызаанчыга
бызаанчыны
бызаанчының
бызааны
бызап
бызаңчы
бызын
быков
был
была
былаажып
былаап
былгаар
былдаары
быле
были
было
бын
быстро
быстрого
быстродеи
быстрые
быстрыи
быстрых
быт
быта
бытия
бытовые
быть
бышев
бышева
бышкан
быштак
быштакты
бың
быңга
быңны
быңның
быңчы
быӊ
бье
бьега
бэ
бэббидж
бэббиджтиң
бэи
бэнд
бэтмен
бээ
бээзи
бээли
бээр
бээрге
бээрде
бээри
бээрин
бээринге
бээринден
бээриниң
бээрлер
бюджет
бюджетное
бюллетень
бюргерлерниң
бюро
бюрозу
бюрозунга
бюрозунуң
бюронуң
бюст
бюстузун
бір
бірнеше
бѳлук
бѳлүк
бѳлүктүн
бѳлүү
бүге
бүгекүкке
бүгени
бүгениң
бүгү
бүгүде
бүгүдеге
бүгүдениң
бүгүнү
бүгүнүң
бүде
бүдер
бүдээл
бүдүжү
бүдүжүн
бүдүжүнүң
бүдүмел
бүдүмелдер
бүдүмелдерге
бүдүмелдерде
бүдүмелдерден
бүдүмелдери
бүдүмелдериниң
бүдүмелдерни
бүдүмелдерниң
бүдүмелди
бүдүмелдиң
бүдүмели
бүдүмелиниң
бүдүн
бүдүнгүр
бүдүнү
бүдүрген
бүдүргени
бүдүргенинден
бүдүрер
бүдүрерде
бүдүреринге
бүдүрүкчү
бүдүрүкчүлүүн
бүдүрүлге
бүдүрүлгеге
бүдүрүлгеден
бүдүрүлгези
бүдүрүлгезин
бүдүрүлгезинге
бүдүрүлгезинде
бүдүрүлгезиниң
бүдүрүлгелер
бүдүрүлгелерге
бүдүрүлгелери
бүдүрүлгелерниң
бүдүрүлгелиг
бүдүрүлгениң
бүдүрүп
бүдүш
бүдүштүг
бүдүштүң
бүдүү
бүдүүзүнде
бүдүүлүк
бүдүүнү
бүдүүнүң
бүзээлеп
бүзээлеткен
бүзээлээни
бүзүревес
бүзүрел
бүзүрелди
бүзүрелдиг
бүзүрели
бүзүреп
бүзүрээн
бүзүрээр
бүи
бүле
бүлеге
бүледе
бүледен
бүлези
бүлезин
бүлезинге
бүлезинде
бүлезинден
бүлезиниң
бүлезинниң
бүлезинче
бүлелер
бүлелерден
бүлелиг
бүлени
бүлениң
бүлүргеи
бүрбү
бүргег
бүргеи
бүргеп
бүрен
бүренге
бүрзекеи
бүрлү
бүрээ
бүрү
бүрүде
бүрүзү
бүрүзүн
бүрүзүнге
бүрүзүнде
бүрүзүнден
бүрүзүнүң
бүрүлер
бүрүлери
бүрүлерин
бүрүлеринде
бүрүлеринден
бүрүлериниң
бүрүлерлиг
бүрүлүг
бүрүн
бүрүнү
бүрүс
бүрүткел
бүрүткеп
бүрүткеттинген
бүрүткээн
бүткен
бүткенин
бүтпеи
бүтсүн
бүүрек
бүүректер
бүүректиң
бүүрелчин
бұл
бәәр
бөгү
бөгүн
бөгүнге
бөгүнгү
бөдүүн
бөдүүнчүдер
бөдүүнчүдүп
бөдүүнчүткен
бөдүүнү
бөкпек
бөлгүм
бөлгүмнүң
бөлгүмүнче
бөлдүнчүр
бөле
бөлүглел
бөлүк
бөлүкке
бөлүктен
бөлүктер
бөлүктерге
бөлүктерже
бөлүктери
бөлүктериниң
бөлүктериниӊ
бөлүктерниң
бөлүктерниӊ
бөлүктээшкин
бөлүктээшкини
бөлүктээшкинин
бөлүктү
бөлүктүг
бөлүктүң
бөлүкче
бөлүп
бөлүү
бөлүүн
бөлүүнге
бөлүүнде
бөлүүнден
бөлүүнче
бөлүүнүң
бөмбүк
бөмбүктү
бөмбүрзекке
бөмбүрзекте
бөмбүрзектиң
бөмбүрзээниң
бөмбүү
бөмбүүн
бөмбүүнге
бөмбүүнүң
бөргү
бөргүн
бөрт
бөрттүг
бөрілі
бөрү
бөрүден
бөрүлер
бөрүлерни
бөөп
в
ва
вавилон
вага
ваганова
ваганьковское
вагнер
вагон
вагоннары
вагриус
ваджрапани
вадим
важнеи
важно
важными
ваз
вазелин
вазовскии
вазовского
ваи
вак
вакуум
вакууме
вакцин
вакцина
вакцинопрофилактика
вал
валентин
валентина
валентины
валерии
валерия
валерьевич
валиди
валикаев
валикаевти
валиханов
валлии
валовои
валовыи
валтасара
валуев
валуи
вальекано
вальс
вальтер
валюта
валя
вам
вамбахер
вами
ван
ванга
ванжа
ваның
вань
ваня
вар
вара
варвар
варвара
варела
варенье
вариант
варианта
вариантов
варианты
вариантыда
вариантызы
вариации
вартанян
варшава
варшавага
варшаваның
вас
васи
василии
василиса
василисы
василия
василь
васильев
васильева
васильевич
васильевича
васильевна
васильевнага
васильевскии
василівна
васнецов
васса
ватикан
ватикана
ватт
вафля
вахтангов
вахтангова
вацлав
ваш
ваша
вашего
вашем
ваши
вашингтон
вашингтонга
вашингтонского
вая
ваң
ваңның
вв
введе
введена
введение
введения
введено
вверх
вверху
ввод
ввода
ввп
вгик
вд
вдали
вдв
вдвое
вди
вднх
вдовина
вдовинои
ве
веб
вега
вегас
вегасе
вегетативтиг
веде
ведомости
ведут
ведущая
ведущих
ведущую
ведьмами
ведьмы
везер
веи
век
века
веках
веке
векке
веков
векте
вектен
вектер
вектерге
вектерде
вектерниң
вектин
вектиң
вектиӊ
вела
великая
великие
великии
великих
великобритании
великобритания
великобританияга
великобританияның
великого
великои
великом
великорусского
величаи
величины
вен
вена
венага
венада
венаның
венг
венгеров
венгеровскии
венгр
венгрии
венгрия
венгрияга
венгрияның
венера
венерада
венераның
венеры
венесуэла
венец
вениаминович
вениаминовна
венкатесан
вентиляция
венше
вер
вера
веракрус
верд
вердер
верди
верещагина
верификация
верка
верли
вернадскии
верне
вернись
вернулась
вернулся
вернуть
вернуться
верныи
вероника
вероятно
вероятность
версии
версия
версиязы
вертикальную
вертоле
веру
верую
верх
верхне
верхнего
верхнеи
верхнем
верхнеудинск
верхнеудинскиге
верхние
верхнии
верхняя
верховного
верху
веры
весе
весит
весна
веснои
весны
весовои
весовых
вести
вестингауз
вестник
весь
весьма
ветви
ветер
ветеран
ветераннар
ветеранов
ветераны
ветеринар
ветеринарлыг
вехи
вече
вечер
вечера
вечернии
вечерняя
вечныи
вечным
веществ
взаимодеи
взаимосвязи
взвод
взводтуң
взводунуң
взгляд
взгляды
взрослом
взрослых
взрыв
взрывы
взять
ви
виа
вибрации
виват
вивьен
вид
вида
видам
видах
виде
видео
видеоклиптери
видеть
видимо
видно
видные
видныи
видов
виду
виды
вижу
виза
византии
визуально
визуального
вики
викибердингеннер
викибердингеннерде
викибердингеннерден
викивиды
викиге
викигид
викигиде
викиданные
викиданным
викиданными
викиданных
викиде
викикод
викикоде
викимапии
викимарафоне
викимедиа
викимедии
викимедия
викиниң
википедии
википедист
википедистер
википедисттер
википедисттерни
википедисттерниң
википедию
википедия
википедияга
википедияда
википедиядан
википедияже
википедияны
википедияның
википроекте
викисклад
викисклада
викискладе
викисловаре
викитека
викитекаже
викитеке
викитекст
викитекста
викитеку
викификации
викицитатник
викишыгжамырда
викрамашила
виктор
виктора
виктория
викторович
викторовна
виленкин
вилиткевич
вилль
виль
вильгельм
вильгельма
вильма
вильнюс
вилья
вилюи
вин
винницкии
вино
виноград
винограда
виноградареи
виноградов
виноградова
винсент
винсентиң
винтовка
винчестер
винчи
виолетта
виолончели
виолончелист
виргин
вирт
виртн
виртуальныи
виртуальных
вирунга
вирус
вирустуң
вирусы
висконсин
вислова
виссел
виталии
витальевна
витамин
витамини
витаминнер
витаминни
витаминниң
вите
витебск
витман
вице
вич
вишне
вишну
вишняның
вк
вка
вкл
вклад
включает
включается
включать
включая
включе
включена
включение
включении
включения
включить
вконтакте
вконтактеде
вконтактениң
вкп
вл
влад
влади
владивосток
владивостоктуң
владикавказ
владимир
владимира
владимирович
владимировка
владимировна
владимиром
владимирскои
владислав
влак
влакым
властелин
власти
власть
влияние
влиянием
влияния
влиятельных
влксм
вместе
вместо
вна
вначале
вне
внедрения
внеземным
внесении
внешнее
внешнеи
внешние
внешнии
внешних
вниз
внизу
внимание
внимания
внимательно
вновь
внуков
внутреннеи
внутренние
внутреннии
внутренних
внутренняя
внутри
внутрь
во
вовк
вод
вода
водка
водныи
водных
водои
водород
водородтуң
воды
воевода
воениздат
военная
военно
военного
военное
военнои
военныи
военных
вожатыи
вождя
возврат
возвращает
возвращается
возвращение
возглавил
возглавила
возглавить
воздеи
возделывания
воздушного
возле
возможен
возможно
возможности
возможность
возможные
возможным
возможных
возмущеннои
вознесенскии
вознесенскои
возникает
возраст
возраста
возрасту
возрождение
вои
вокал
вокалга
вокалист
вокач
вокзал
вокруг
вола
волапюк
волга
волганың
волго
волгоград
волгограде
волгоградка
волгоградскои
волгоградта
волгоградтың
волеи
волжскои
воли
волк
волкан
волкац
волки
волков
волконская
волконскии
волн
волна
волнение
волнения
вологда
вологод
володарская
володарскии
володин
володина
володинои
волонте
волос
волости
волость
волошина
волчихина
волшебная
волшебники
волшебнои
вольная
вольного
вольнои
вольт
вольф
вольфганг
вольфсбург
воля
вонн
вообще
вооруже
вооруженных
вопрос
вопросам
вопросов
вопросу
вопросы
вор
воробье
воробьев
ворона
воронеж
воронежке
воронежская
воронежтиң
воронина
воронцова
ворота
воротаже
ворошилов
ворошиловград
восемнадцать
восемь
воск
воскресение
воскресенье
воскрешение
воспитание
воспитании
воспитания
воспользоваться
воспоминание
воспоминании
воспоминания
воспринимаю
восприятия
восприятиях
вост
восток
востока
востоке
востокова
востоковед
востоковедение
востоковедения
востоковедов
востоковеды
восточная
восточно
восточного
восточное
восточнои
восточном
восточные
восточныи
восточных
восьми
восьмое
восьмои
вот
вота
воткинск
вошла
вошли
вп
впервые
впере
впереди
вписать
вписывают
вплоть
вполне
врага
вранья
вратары
вратарь
вратарьлары
врач
врача
врачеи
врезки
време
времен
времена
временем
времени
временная
время
вроде
врп
вручения
вручил
вручную
вс
всгаки
все
всеволод
всегда
всего
всеи
вселеннои
всем
всеми
всемирная
всемирного
всемирнои
всемирныи
всему
всерос
всероссии
всесоюзного
всесоюзныи
всех
вская
вскии
вскоре
вскрыта
всплывающеи
всплывающую
вспомогательными
вставить
вставка
вставки
вставляется
вставлять
вставьте
встреча
встречается
встречи
вступ
вступил
вступила
вступительная
вступление
всхв
всю
вся
всякии
всякого
вт
втар
втб
вторая
вторжение
вторник
второв
второго
второе
второи
втором
вторым
втуң
ву
вудс
вузов
вуи
вулкан
вулканнар
вульф
входит
входят
входящих
вхождения
вчера
вы
выберет
выбор
выбора
выборах
выборы
выведен
выведено
выведены
вывести
вывод
вывода
выводит
выводится
выводить
выводятся
выглядеть
выглядит
выгрузить
выдае
выданныи
выдающиеся
выдающии
выделение
выделения
выделяется
выделялись
выделяются
выжившеи
вызван
вызов
вызова
вызове
вызовов
вызывает
вызывается
вызывающего
выи
выиграл
выиграла
выиграли
выключить
вым
вымер
вымерших
вынь
вып
выполнении
выполнила
выполнить
выполняла
выпуск
выпуска
выпускники
выравнивания
выражает
выражения
выращиванию
выскажите
высказать
высокая
высокие
высокии
высоким
высоких
высоко
высокого
высокои
высота
высоцкии
выставка
выставках
выставке
выставки
выставок
выстрела
выступает
выступала
выступающии
выступил
выступление
выступления
высшая
высшего
высшеи
высшие
высших
выход
выхода
выходит
вычисл
вычисление
вычисления
выше
вышел
вышеперечисленных
вышла
выявлены
вьетнам
вэи
вэо
вюзи
вяземская
вячеслав
вячеславович
вячеславовна
вѣ
г
га
гаанын
гаар
гаараан
гаараар
гаараары
гааракчызы
гаарал
гааралы
гааралынга
гааралында
гаарап
гааш
габричевского
габриэль
гав
гаваи
гавань
гавел
гавриил
гаврилова
гаврилович
гавриловна
гаврильева
гага
гагарин
гагарина
гагауз
гада
гадан
гадып
гаже
газ
газа
газали
газалиниң
газет
газета
газете
газеты
газиантепспорга
газов
газовои
газпром
газтар
газтарның
газты
газтыг
газтың
газы
газынга
газынче
гаи
гаити
гак
гал
гала
галага
галактика
галактикалар
галактиканың
галарга
галарым
галатасараи
галдар
галдары
галерея
галереязы
гали
галигузов
галиев
галиева
галилеи
галина
галины
галисия
галия
галлея
галсан
галстук
гальего
галя
гам
гамбург
гамлет
гамма
гамчык
гамчыктар
гамчыктыг
ган
ганачуева
гандан
гандболга
гандболистка
гандболистки
гандбольнои
ганден
ганди
гандиниң
ганеша
ганиева
ганновер
ганыр
ганың
гань
ганьсуи
гао
гаогюи
гаоцзюи
гап
гаплогруппам
гараж
гарантии
гарар
гарвард
гардемарины
гарин
гарипов
гариповтуң
гарифович
гарлыкчы
гармония
гармошка
гарник
гарольд
гарри
гарсиа
гарылга
гарып
гас
гастрит
гастриттиг
гастрольдап
гатчина
гатчинского
гаутама
гафури
гафурии
гаш
гбови
гбу
гвардеи
гвардии
гвардия
гвардияның
гватемала
гвинея
гг
гггг
где
гдр
ге
гебауэр
геворк
геи
гектар
гектара
гектардан
гектаров
гекхан
геленджик
гелеф
гелии
гелир
гелоң
гелугпа
гельзенкирхен
гельмут
ген
гена
гендель
гендуне
генерал
генерала
генералдыг
генералиссимус
генералы
генератор
генераторлар
генерации
генерируется
генетика
генетиктиг
генетического
гении
гения
геннадии
генома
генофондов
геноцид
генри
генрих
генс
гео
геогр
географ
географгиз
географии
географическаго
географические
географическии
географических
географического
география
географиязы
географтыг
географы
геодезия
геол
геолог
геологии
геологические
геологическии
геология
геологиязы
геолого
геологтуг
геологу
геометрия
геометрлиг
геополитика
георг
георгиевич
георгиевна
георгиевская
георгиевскии
георгии
георгия
геофизик
геофизика
геофизиктиг
геохимия
гер
геральдика
герард
герасимов
герб
гербарии
гербом
гербы
герд
геркулес
герман
германиеи
германии
германия
германияга
германияда
германияже
германияны
германияның
германовка
германская
геровитал
геродот
геродоттуң
герое
героев
герои
героини
героиня
героическии
героя
героями
героях
герта
герти
гертруда
гертье
герхард
герцен
герцена
герцене
герцог
герцогтуң
гессен
гестапо
гестапонуң
геш
геше
ги
гибдд
гибели
гибель
гибридизация
гиге
гигиена
гигиеназы
гигиены
гидравлика
гидратация
гидрография
гидроксид
гидромелиоративтиг
гидронимов
гиероним
гии
гилберт
гильгамеше
гильотина
гим
гималаи
гимн
гимназия
гимназияга
гимназиязы
гимназиязын
гимназиязынга
гимназиязының
гимназиялар
гимназияны
гимнаст
гимнастика
гимнастикага
гимнастиказынга
гимнастике
гимнастики
гимни
гин
гинеколог
гинекология
гиниң
гинскии
гинского
гиперсөзүглелдиг
гипотезазы
гипотезы
гипотенуза
гипотенузаның
гиреи
гирин
гитара
гитарист
гитис
гитлер
гк
гкал
гкая
гкгн
гкие
гкои
гком
гл
глав
глава
главе
главная
главного
главное
главнои
главном
главныи
главных
главу
главы
глагола
глаголов
глагольнои
гладкевич
глаз
глаза
глазами
глазунова
глафира
глеб
гликозид
гликозидтер
глинка
глинки
глинозе
глобалдыг
глобальное
глобальныи
глубоковскии
глухонемых
глюк
глюкоза
гмо
гнаровская
гнаровскои
гносеологическои
го
гоа
гоар
гоби
говард
гович
говорил
говорит
говорить
говоров
говоря
говорят
гог
гоголь
гогольдуң
гоголя
год
года
годам
годами
годах
годов
годовщина
годом
году
годунов
годы
годым
гои
гол
голдар
голдарны
голдары
голду
голдуң
голиевская
голланд
голливуд
голливуде
голов
голова
головле
головного
головнои
головои
голову
голод
голос
голоса
голосование
голу
голубои
голун
гоман
гомаң
гомельскои
гомес
гомести
гоместиң
гонка
гонкам
гонконг
гонолулу
гончарова
гор
гора
горбаче
горбунок
гордимер
гордон
гордость
горе
горечавка
горизонт
горизонты
горком
горкома
горкомнуң
горловое
гормоннар
горная
горно
горное
горныи
горняк
город
города
городам
городах
городе
городище
городов
городок
городская
городские
городских
городского
городское
городскои
горох
горохта
горохтуң
горшкова
горы
горькии
горько
горького
горячеи
гос
госкомстат
госнаграды
госпиталь
госпитальга
госпич
госпичте
господа
госпожа
госпремии
госстатиздат
гост
гостеи
гость
гостях
государств
государства
государствах
государственная
государственного
государственное
государственнои
государственном
государственности
государственную
государственные
государственныи
государственным
государственными
государственных
государство
государством
государству
готов
готовила
готфрид
гоу
гоңгураи
гп
гр
гравитация
гравюразы
гравюралары
градова
градус
градусов
градустан
граждан
граждане
гражданин
гражданская
гражданские
гражданскии
гражданским
гражданских
гражданского
гражданское
гражданскои
гражданском
гражданство
граматика
граматиктиг
грамм
грамматика
грамматиказының
грамматики
грамматиктиг
граммга
грамота
грамотои
грамоты
гран
гранд
гранде
границ
граница
границеи
границу
границы
грант
гранта
грантов
граф
графага
графигинде
график
графика
графикаже
графикте
графиктиг
графиня
графит
граффити
грация
грач
грача
граче
грачының
гре
гребнев
гребневтуң
греи
грек
греко
гректер
гремит
гренландия
греции
греция
грецияга
грецияда
грецияның
греч
гржимаи
грибоедовтуң
грибы
григо
григориан
григорианскии
григорианских
григории
григорович
григорьев
григорьевич
григорьевича
григорьевна
гризодубова
грим
гриме
гримм
грин
гринберг
гринпис
гринуэя
грипп
грипптен
грипптиң
гроза
грозныи
громова
громовои
гросс
гроссмеи
грот
груз
грузии
грузин
грузиннер
грузинскии
грузия
грузияга
грузияның
грузовик
грум
грумм
групп
группа
группах
группе
группировать
группировки
групповая
группои
группу
группы
грэи
грэмми
грэс
грязнов
грязнова
грязнуха
гст
гтрк
гу
губанова
губернатор
губернатора
губернаторнуң
губернатору
губернии
губерния
губернияга
губерниязы
губерниязынга
губерниязынның
губерниязынныӊ
губерниязынче
губерниязының
губерниязыныӊ
губернияның
губернского
губин
губкин
губкинского
гуга
гузаль
гузун
гуи
гуларның
гулигань
гуль
гульмира
гульфия
гуля
гулянаг
гуманит
гуманитарлыг
гуманитарного
гуманитарные
гуманитарных
гумерова
гумиле
гумилев
гун
гундарева
гунн
гуннар
гуннарның
гуннов
гунуң
гунын
гуп
гур
гурбэсу
гурбэсуну
гурвич
гуристан
гурлар
гурларга
гурлардан
гурларны
гурларның
гурларныӊ
гурлары
гурларыныӊ
гуров
гурскии
гуру
гурченко
гуры
гурьевич
гусев
гусева
гусеи
гуси
гусиноозе
густав
густавович
густавовна
гусь
гуся
гуш
гы
гызы
гызын
гыл
гылаажы
гылаажынга
гылаажында
гылаажының
гылааш
гылаашта
гылак
гылгаан
гылып
гылыш
гын
гырар
гырары
гырган
гырганды
гырткан
гыртып
гыртыр
гырыг
гырып
гырыы
гыч
гыыл
гыылчы
гьялва
гьятцо
гьяцо
гэ
гэс
гюи
гюльсюн
гянь
гүзел
гүн
гүнгөр
гүң
д
да
даа
даады
даажы
даажындан
дааи
даалга
даалгазы
даалгазын
даалгалар
даалгаларны
даалганы
даалганың
даалы
даалылап
даан
даанга
даанче
дааның
даап
даар
даараан
даараар
даараныкчы
даараныр
даараныыр
даарап
даарта
дааскан
дааш
дааштыг
дабан
даваа
даваи
даван
даванын
давать
давид
давидович
давление
давлением
давлетшин
давности
давыдович
давып
даг
дагаа
дагаанын
дагба
дагбаевич
дагга
дагда
дагдан
дагдыныкчы
дагдыныкчызы
дагестан
дагже
даглар
дагларга
дагларда
дагларны
дагларның
даглары
дагларын
дагларынга
дагларында
дагларынче
дагларының
даглыг
дагны
дагның
дагскии
дагылга
дагын
дагып
дагыр
дагыыр
дагыыры
дадаазын
дадар
дадывыр
дае
даже
дажы
дажыглаан
дажын
дажында
дажының
дажып
дажыыр
дажыыры
дазыл
дазылдар
дазылдарлыг
дазылдары
дазылдарын
дазылдыг
дазылы
дазылын
дазылындан
даи
дак
дакович
дакпаи
дакпыр
дакпырлап
дал
дала
далаа
далаи
далаш
далашпаи
далаштыг
далга
далган
далгандан
далганнарны
далганны
далганын
далганындан
далгып
далда
далдан
далдар
далдарга
далдарны
далдарның
далдары
далдарын
далдарының
далды
далдыг
далдың
дале
далее
дали
далиге
далила
далини
далиниң
далче
далы
далын
далынга
далындан
далының
даль
дальневосточного
дальневосточныи
дальнего
дальнеи
дальнем
дальнии
дальних
дальше
даля
дам
дама
дамба
дамбаа
дамби
дамды
дамдын
дамдынович
дамир
дамчаан
дамчаи
дамчывас
дамчыдар
дамчыдарда
дамчыдары
дамчыдарының
дамчыдылга
дамчыдылгага
дамчыдылгазы
дамчыдылгазының
дамчыдылгаларны
дамчыдылганы
дамчыдылганың
дамчыдып
дамчып
дамчыткан
дамчыштыр
дамчыыр
дамыр
дамырак
дамыраң
дамырларның
дамырлары
дан
дана
даная
дандар
данзын
данзынович
данзырын
дани
даниеле
даниил
данилин
данилова
данилович
даниловичиниң
даниэл
даниэль
дания
данияның
данного
данное
даннои
данном
данному
данную
данные
данныи
данным
данными
данных
данте
данчаи
даны
дао
даосизм
дапкыр
дар
дараа
дараазында
дараазындагы
дараалашкак
дараалаштыр
дарбаа
дарбыстың
дарга
даргага
даргазы
даргазын
даргазынга
даргазынче
даргазының
даргалаан
даргалап
даргалар
даргалары
даргаларын
даргаларынга
даргалыг
дарган
дарганнар
дарганнары
дарганы
дарганың
даргыи
дарданелспор
даржа
даржаа
даржаи
дари
дарии
дарлалдың
дарлалын
дарлалындан
дарлалының
дархан
дары
дарыг
дарыгны
дарыи
дарыма
дарыы
дарыын
дарыынга
дарья
дас
дасср
даст
дат
дата
дате
датировки
датскии
дату
даты
дать
даур
даурлэн
дафни
дацанның
даш
даша
даши
дашини
дашка
дашкаар
дашта
даштан
даштар
даштарда
даштардан
даштарлыг
даштарны
даштарның
даштары
даштарын
дашты
даштыг
даштыгаа
даштыгаар
даштыкы
даштыкыга
даштыкыда
даштыкыдан
даштыкыже
даштын
даштынга
даштында
даштындан
даштыы
даштың
даърган
дая
даяан
даяанда
даяанның
даяк
даян
даянган
даяновна
даянып
даяң
даяңгыыш
дағы
даң
даңгына
даңгыназы
даңгыраа
даңгыраан
даңгырак
даңгыракты
даңза
даңзазы
даңзы
даңзыда
даңзыже
даңзызы
даңзызын
даңзызында
даңзызындан
даңзызынче
даңзыны
два
двадцать
дважды
две
двенадцатая
двенадцать
дверь
дверью
двигатель
движение
движении
движения
движок
движокка
двоеточие
двои
дворец
дворца
дворце
дворянстве
двумя
двух
двухбуквенныи
дд
де
дебют
дебютировала
дебюттаан
дева
деви
девип
девискээр
девискээрге
девискээрде
девискээрже
девискээри
девискээрин
девискээринге
девискээринде
девискээринден
девискээриниң
девискээринче
девискээрлер
девискээрлери
девискээрлерин
девискээрлеринге
девискээрлеринде
девискээрлиг
девискээрни
девица
девичестве
девочек
девочка
девушка
девушки
девяти
девятов
девять
дег
дегбезин
дегбес
дегбеңер
дегбээн
дегген
деге
деген
дегжилге
дегтяре
дед
деда
дедир
дедуктивтиг
дедушка
деепричастие
дезер
дезип
дезипкен
деи
дек
декабре
декабрист
декабристер
декабрь
декабрьда
декабрьдан
декабрьның
декабря
декан
деканы
деканының
декарт
декарта
декларацияны
дел
дела
делает
делается
делам
делать
делгеи
делгелге
делгелгеге
делгелгези
делгелгезин
делгелгезинге
делгелгезиниң
делгелгелер
делгелгелерге
делгелгелери
делгелгелерин
делгелгелериниң
делгелгелерниң
делгелгени
делгелгениң
делгем
делгеми
делгеминде
делгеминче
делгемнеринде
делгемнеринче
делгемниң
делгеп
делгередип
делгереңгеи
делгеттинген
делгээн
деле
делег
делегады
делегат
делегатом
делегаттап
делегаттары
делегации
делегацияның
делегеи
делеги
деледда
деление
деления
дели
деликанлы
дело
деловои
делу
делуш
дель
дельта
дельфиннер
дельфис
дем
демаков
дембил
дембилдеи
демги
демд
демдеглевээн
демдегледер
демдегледип
демдеглезе
демдеглел
демдеглелдер
демдеглелдери
демдеглелдерин
демдеглелдеринге
демдеглелдериниң
демдеглелдерни
демдеглели
демдеглеп
демдеглеттинген
демдеглеттинер
демдеглеттинип
демдеглеттинмээн
демдеглээн
демдеглээни
демдеглээр
демдеглээри
демдеглээш
демдек
демдектер
демдектери
демдектерин
демдектериниң
демдектерлиг
демдектерни
демдектерниң
демдекти
демдектиг
демдектиң
демделгелер
демдээ
демдээн
демдээниң
деми
демир
демирге
демирден
демирниң
демирович
демисежилге
демисежип
демисежир
демисел
демиселге
демиселди
демиселдиң
демисели
демиселинге
демиселиниң
демнежилгезиниң
демнежип
демниг
демо
демократ
демократии
демократия
демократтыг
демон
демонстрировала
демоскоп
демчи
демчук
ден
дена
денге
денгер
денде
дендии
дене
денизлиспор
денис
денисов
дено
день
деньги
деп
департамент
департаментизиниң
департаментиниң
депортиво
депрессия
дептер
дептеринче
депутады
депутадынга
депутадының
депутат
депутата
депутатов
депутатом
депутаттап
депутаттар
депутаттары
депутаттарының
депутаты
депшиири
депшилге
депшилгези
депшилгелиг
депшип
депшиткен
депшээн
дер
деражно
дербеттер
дерби
дербис
дергилээн
дерева
деревенские
деревне
деревни
деревня
дерево
дерзиг
дерзии
дери
дериг
дерии
дерсу
дес
десанты
дескен
дескеш
дески
дескиндир
дескинер
дескинип
деспи
десюк
десятилетия
десятичнои
десятичныи
десятои
десятую
десять
дет
детали
детеи
детектив
дети
детка
деткиир
деткимче
деткимчези
деткимчезин
деткимчени
деткип
деткээн
детская
детскии
детского
детскои
детском
детства
детстве
детство
детьми
детям
дефис
деч
дешарн
дешпип
деъмчи
деятелеи
деятели
деятель
деятельности
деятельность
дең
деңге
деңгел
деңгер
деңгерлер
деңзи
деңзиге
деңзизи
деңзилиг
деңзилээри
деңзини
деңнежип
деңнежир
деңнеи
деңнел
деңнелге
деңнелгелер
деңнелгелери
деңнелгелерин
деңнелде
деңнелдери
деңнелди
деңнелдиг
деңнелдиң
деңнели
деңнелин
деңнелинге
деңнелинде
деңнелинден
деңнелиниң
деңнеп
деңнеттинмес
деңнээр
деңнээрге
дж
джа
джаз
джаи
джакамбу
джакамбунуң
джалга
джами
джампа
джамуха
джан
джанлуиджи
джанның
джанскии
джанском
джастин
дже
джеи
джек
джексон
джем
дженнифер
джер
джереми
джеррард
джерси
джессика
джеффри
джеъткен
джидинское
джим
джин
джитсу
джиу
джо
джоан
джобс
джованни
джои
джоли
джомолунгма
джон
джона
джонсон
джонстон
джордж
джохар
джочи
джош
джугашвили
джузеппе
джулия
джулустана
джульетта
джуманджи
джунгар
джунгарлар
джунгарларга
джунгарларның
джут
джучи
джуъртумнуң
джылгымның
дзержинскии
дзержинского
дзета
дзи
дзофф
дзун
дзюдо
дзюдога
дзюдоист
ди
диабет
диагностика
диагностики
диаграмма
диалект
диалекте
диалектизи
диалектизин
диалектизинде
диалектилер
диалектилери
диалектилерин
диалектилериниң
диалектилиг
диалектиниң
диалектов
диалектология
диалекты
диалог
диаметри
диаметрлиг
диана
диапазон
диапазоны
диапозон
диас
диаска
диван
диваны
дивеи
диверсия
дивес
диви
дивизии
дивизион
дивизиона
дивизионга
дивизионнуң
дивизия
дивизиязы
диген
дигени
дигеш
дигнага
диджеи
дидим
дидими
дидир
дидье
диего
дижи
дижик
дижип
дижир
дизаи
дизе
дизель
дизижик
дизижикович
дии
диин
диис
дииң
дииңи
дииңнеп
дииңнер
дикии
диккенс
дикои
диксон
дилги
дилевес
дилег
дилегни
диледим
диленип
дилеп
дили
дилиндек
дилиндектер
дилиндектиг
дилээ
дилээн
дилээни
дилээннер
дилээр
дилээри
дилээш
дилээшкин
диляур
дима
димаш
дин
дина
динамика
динамиктиг
динамическои
динамо
династии
династия
династиязы
династиязының
династиязыныӊ
династияның
динклэи
динлиннер
динлиннери
динлиннерниң
динниң
динскои
динчмен
диомидович
дион
дип
диплом
дипломат
дипломатия
дипломаттыг
дипломнарын
дипломну
дипломнуг
диплому
дипломун
диптер
диптерде
дипти
диптиң
дир
диргизип
директор
директора
директорлаан
директорлап
директорлар
директорнуң
директором
директору
директорунга
директорунуң
дириг
диригге
дириже
диркс
дирлип
дис
диск
диска
дискография
дискотека
диснеи
диспансер
дисс
диссертациеи
диссертации
диссертация
диссертациязы
диссертациязын
диссертациязының
диссертациялар
диссертациялары
диссертацияны
дистанции
дистанционныи
дистанция
дистинчек
дистрибьютор
дисциплин
дисциплина
дисциплиналар
дисциплиналары
дисциплины
дифтериеи
дифтерии
дифтерия
дифференц
дифференциалдыг
диш
диштиг
дия
диң
диңгирээр
диңзелиг
диңмиреп
длина
длинная
длиною
длину
длины
длужневская
для
дмитриев
дмитриева
дмитриевич
дмитриевна
дмитриевское
дмитриенко
дмитрии
дмитрия
дмитровка
дмитровскии
дн
дна
дне
дневник
дневники
днеи
днем
днепр
днепровск
днепровскунуң
днепродзержинскунуң
днепропетровск
днепропетровская
днепропетровскои
днепропетровскунуң
днепропетровщины
дни
днк
дня
до
добавив
добавит
добавить
добавлен
добавление
добавлением
добавления
добавлено
добавляем
добавляет
добавляется
добавлять
добавляются
добавьте
добавят
добивалась
добиваться
добилась
добиться
доблестныи
доблесть
добраться
добринина
добро
добровольного
добровольцев
добровольцы
доброе
добронравов
добрыи
добыча
добыче
дов
довел
доверили
доверия
довженко
довольно
довук
довураа
довурак
довурактың
дог
догаа
догилева
догмат
договор
договора
догунаан
догуннаан
доения
дождь
доза
дозор
дозу
дозуп
дозур
дои
док
доклад
докладов
доклады
докпак
докт
доктаавас
доктааган
доктаадып
доктаадыр
доктаадырым
доктааи
доктаал
доктаалды
доктаалы
доктаалын
доктаамал
доктаап
доктаар
доктааткан
доктааттынган
доктор
доктора
докторлар
докторлары
докторларын
доктору
докторун
докторунуң
докторунче
доктугу
доку
документ
документа
документалдыг
документальныи
документах
документации
документацию
документация
документациях
документиге
документиде
документилел
документилер
документилерге
документилери
документилерин
документилеринде
документилерни
документилээринге
документов
документы
докур
долаан
долаана
долааннар
долаганадан
долагананың
долгажып
долгаи
долган
долганган
долгандыр
долгандырыг
долгандырыгже
долганып
долганыр
долгап
долгар
долготы
долдур
долдурар
должен
должна
должно
должностеи
должности
должность
должны
долина
долине
долинои
долины
доллар
долларга
долларларга
долларны
долларов
долои
долу
долузу
долуп
долчанмаа
доля
дом
дома
домаа
домаан
домаанга
домааның
домак
домакка
домакта
домактар
домактарны
домактарның
домакты
домактың
домашнее
домашнии
домбра
домбыра
домбырамды
доме
домеи
домен
доменнерниң
домзакка
домкрат
домна
домнаар
домов
домои
домохозяи
домьянич
дон
дона
дональд
донгак
донгактың
дондук
дондукту
дондуктуң
дондуп
донец
донецк
донна
донскои
дону
донуга
донуда
доозар
доозарга
доозары
доозарының
доозукчу
доозукчузу
доозукчулар
доозукчулары
доозулбаан
доозулган
доозун
доозунналчак
доозуп
доозупкан
доора
дооразы
доорап
доорбаш
доорбашты
доорт
доос
дооскан
доосканнар
доосканының
дооскаш
дооспаан
дооступ
доостур
доостурга
доп
допинг
дописывает
дополн
дополнение
дополнения
дополнениях
дополненное
дополнительная
дополнительно
дополнительного
дополнительное
дополнительные
дополнительныи
дополнительным
дополнительных
допуи
допускает
допустимо
допустимые
допчу
допчузу
допчулап
допшулуур
дор
дора
дораан
дорала
дорамчылап
дорбо
дорган
доргун
доржготов
доржи
доржо
доржу
доржуевич
доржуевна
доржукаи
доржунуң
дорис
доров
дорова
дорович
доровна
дорог
дорога
дорогая
дороге
дороги
дорогие
дорогои
дорогу
дороти
дорошев
дорт
дортмунд
доруг
доругуп
доруккан
доруктуруп
дорум
доры
досааф
доска
доскаар
доскаарга
доскаарда
доскаарлары
доскуул
доскуулдары
доспаи
доставлен
достаи
достаточно
достаточную
достиг
достигнет
достигнутые
достижение
достижении
достижения
достичь
достоевскии
достопримечательности
доступа
доступности
доступны
доступные
доступных
досье
доткан
дотканны
доходное
доходы
доцент
доцентизи
доцентилеп
дочери
дочернего
дочерние
дочерних
дочерняя
дочерью
дочь
дош
дошкун
дошкуну
дошпулуур
дошпулуурум
дошталы
дошталыышкын
доштар
доштуг
дою
доюнга
доюң
доярка
дояркои
доң
доңар
доңга
доңгаи
доңгак
доңгакович
доңгаковичиниң
доңгаковна
доңгаш
доңмас
доңуп
доңуруп
дп
др
драбкина
дражени
драма
драмазы
драмалыг
драматиктиг
драматическии
драматического
драматург
драматургия
драматургов
драме
драмы
древеснои
древнего
древнегреческои
древнеи
древнетюркские
древнетюркскии
древнетюркских
древнетюркскои
древнеуи
древние
древнии
древних
древностеи
древности
древняя
дреи
дрепунг
дрепуң
дрогба
дрожжи
дроздов
дронов
дроны
дрофа
друг
друга
другая
другие
другим
другими
других
другого
другое
другои
другом
дружба
дружбы
друзеи
друзья
друк
друнина
дсо
дтв
ду
дубаи
дубильдиг
дубль
дубляжа
дубно
дубо
дубов
дубровскии
дува
дуг
дугаар
дугаарлаан
дугаарлаваан
дугаарлап
дугаарларын
дугаарлыг
дугаары
дугаарын
дугаарынга
дугаарында
дугаи
дугалыг
дуган
дугана
дуганга
дуганнар
дуганы
дуганың
дугар
дугаров
дугержаа
дугжур
дугинь
дуглаан
дуглаглыг
дуглаи
дуглап
дуглас
дугуи
дугуржулга
дугуржуп
дугурушкан
дугурушканнар
дугурушканы
дугурушкаш
дудаев
дудак
дужа
дужааган
дужаагаш
дужаал
дужаалга
дужаалда
дужаалдан
дужаалдар
дужаалдарга
дужаалдарны
дужаалдары
дужаалдарын
дужаалдарынга
дужаалды
дужаалдыг
дужаалче
дужаалы
дужаалын
дужаалынга
дужаалындан
дужаалының
дужаап
дужаар
дужаары
дужу
дужунга
дужунда
дужундан
дужуп
дуза
дузааргак
дузааш
дузазы
дузазын
дузазында
дузак
дузалаан
дузалаар
дузалажы
дузалажып
дузалажыр
дузалажыыр
дузалакчы
дузалакчызы
дузалакчылап
дузалакчылары
дузалал
дузаламчы
дузалап
дузалашкан
дузалашканнар
дузалыг
дузаны
дузап
дузу
дузун
дузунга
дузунуң
дуи
дук
дулгуяк
дульская
дум
дума
думаа
думаалаи
думазынның
думазынныӊ
думазының
думал
думаю
думу
думчук
думчуктуг
думчуу
думы
дун
дунаи
дунга
дунеки
дункан
дунмазы
дунуң
дуп
дур
дуран
дургаар
дурган
дурген
дургузу
дургузунда
дургун
дургуннар
дуржулга
дуржулгазы
дуржулгазын
дуржулгазынга
дуржулгалыг
дуржулганы
дуров
дурова
дурт
дурттуг
дурту
дуртун
дуртунуң
дуруг
дуруяа
дуруяалар
дус
дусады
дусадылар
дуска
дуста
дустаан
дустаи
дустан
дустап
дустар
дустарны
дустары
дусту
дустуг
дустуң
дуся
дуу
дух
духа
духовно
духовное
духовность
духовные
духул
душ
душа
душанбе
души
душкен
душтук
душу
дуэи
дуэт
дуюглуг
дуюнгар
дуюу
дуңгуш
дуңзаа
дуңзаалыг
дуңма
дуңмазы
дуңмазын
дуңмазынга
дуңмазының
дуңмалары
дуңмаларын
дуңмалыг
дуңмам
дхарамсала
дхарана
дхарма
дхармадан
дхарманы
дхарманың
ды
дыбо
дываажаң
дывыскан
дыгыи
дызы
дыи
дык
дыка
дыл
дылга
дылда
дылдан
дылдар
дылдарга
дылдарда
дылдардан
дылдарже
дылдарны
дылдарның
дылдары
дылдарын
дылдарынга
дылдарында
дылдарынче
дылдарының
дылды
дылдыг
дылдын
дылдың
дылже
дылче
дылы
дылым
дылын
дылынга
дылында
дылындан
дылынче
дылының
дым
дын
дыннап
дынчжу
дынын
дып
дыптың
дыр
дырап
дырбактыг
дыргаа
дыргак
дыренкова
дыренкованың
дыртык
дыртып
дыры
дыс
дыт
дытка
дыттан
дыттыг
дыттың
дыхания
дыш
дышталгада
дыштанылга
дыштанылгага
дыштанылгада
дыштанылгаже
дыштанып
дыштаныр
дың
дыңгыл
дыңгылдаи
дыңзыг
дыңзыдар
дыңзыдып
дыңмазы
дыңмаларым
дыңна
дыңнаан
дыңнаар
дыңнаарга
дыңнаары
дыңнааш
дыңнаваи
дыңнадыг
дыңнадып
дыңнакчызы
дыңнакчылар
дыңнакчыларга
дыңналбас
дыңналган
дыңналып
дыңналыр
дыңнангыр
дыңнап
дыңнаткан
дыңнаткаш
дьокуускаи
дьяконова
дьячкова
дэвид
дэи
дэлэг
дэн
дэнни
дэп
дэудаи
дээди
дээдизи
дээжи
дээжизи
дээжизин
дээкти
дээн
дээнде
дээнзиг
дээни
дээп
дээптерге
дээр
дээрбедеп
дээрбек
дээрбектер
дээрбектери
дээрбеп
дээрге
дээрги
дээрде
дээрден
дээре
дээрезинде
дээрже
дээрзи
дээрзин
дээрзинге
дээри
дээрим
дээринге
дээриниң
дээрлер
дээрлерниң
дээрни
дээрниң
дээскиндир
дээспес
дээш
дээштиг
дээштиң
дюи
дюрсо
дюсенбаев
дюсш
дютрие
дюфло
дядюшка
дядюшкин
дядя
ді
дѳзү
дѳмеи
дѳрт
дѳстери
дүвү
дүвүн
дүвүнге
дүвүнде
дүвүредип
дүвүреткен
дүвүрээзин
дүгдээшкин
дүгер
дүгержаа
дүгжү
дүгжүп
дүгжүр
дүгжүрү
дүгү
дүгүн
дүгүнүң
дүже
дүжер
дүжерге
дүжери
дүжеринге
дүжү
дүжүдү
дүжүдүн
дүжүлге
дүжүлгеге
дүжүлгези
дүжүлгезин
дүжүлгезинге
дүжүлгезинден
дүжүмеди
дүжүмет
дүжүметерге
дүжүметтер
дүжүметтерге
дүжүметтери
дүжүметтерниң
дүжүп
дүжүр
дүжүрбеи
дүжүрген
дүжүргеш
дүжүрер
дүжүрери
дүжүрткен
дүжүрүп
дүжүт
дүжүткүр
дүжүттү
дүи
дүк
дүккүр
дүкпү
дүктен
дүктер
дүктери
дүктү
дүктүг
дүлген
дүлгээзинниг
дүлгүүр
дүлеи
дүлүп
дүлүш
дүмбеи
дүмен
дүн
дүне
дүнезинде
дүнеки
дүнелерде
дүннер
дүня
дүп
дүптен
дүр
дүрбүп
дүргедедир
дүргедекчилер
дүргектелчек
дүрген
дүргени
дүргенин
дүрзү
дүрзүзү
дүрзүзүн
дүрзүлеп
дүрзүлерин
дүрзүлүг
дүрзүнү
дүрлүп
дүрумнери
дүрүм
дүрүмге
дүрүмнер
дүрүмнери
дүрүмнерин
дүрүмнеринге
дүрүмнерни
дүрүмнү
дүрүмү
дүрүмүн
дүрүмүнге
дүш
дүшкен
дүшкенде
дүшкени
дүшкенинден
дүшкениниң
дүшкеннер
дүшкеш
дүшкүүрлүг
дүшпезин
дүшпеи
дүшпес
дүъш
дүъште
дүңгүр
дүүшкек
дүүшпес
дүүштүр
дөгерген
дөгере
дөгерези
дөгерезин
дөгерер
дөгерип
дөгээ
дөгээлээри
дөгүм
дөжек
дөзеп
дөзу
дөзү
дөзүглел
дөзүк
дөзүн
дөзүнге
дөзүнде
дөмеи
дөнен
дөр
дөрбелчин
дөрбелчиннеи
дөрбет
дөрбеттер
дөргүл
дөргүн
дөрт
дөртен
дөрткү
дөрттен
дөрттүң
дөс
дөстер
дөстерже
дөстери
дөстүг
дөч
дөшке
дөң
дөңге
дөңгүр
дөңмектээри
дөө
е
еаэс
еаээ
ев
ева
евангелие
евгении
евгения
евгеньевна
евдокия
евич
евна
евпатории
евразии
евразия
евразияның
евреи
евро
европа
европага
европада
европадан
европаже
европаннын
европанның
европанныӊ
европаның
европе
европеи
европы
евтюхова
евтюховои
египет
египетке
египетте
египеттиң
египте
его
егор
егоров
егорова
егорович
егоровна
егф
ед
еде
едем
единая
единения
единиц
единица
единицах
единицы
единоборств
единогласное
единои
единственная
единственныи
единство
еді
ее
ежегодник
ежегодно
ежегоднои
ежи
езид
езу
езугаар
езулал
езулуг
еи
ек
екатерина
екатеринбург
екатеринбурге
екатеринбургка
екатеринославск
екатерины
екен
ел
елдің
елена
елены
елизавета
елинек
ельцин
ельцина
ельцинниң
елээ
елюи
ем
емельянов
емельянова
емен
еменде
емене
емес
ему
ен
ени
енисее
енисеи
енисея
еноорд
енохтуң
епископ
еппесен
ер
ера
еравнинск
еравное
ералаш
ерге
ереван
еремеевна
ерке
ермаков
ермаковское
ермолаев
ермолаева
ермолаевские
ермольева
ерохинои
ерштрассу
ес
есенин
есенинниң
ескеныне
ескі
если
ессентуки
естественно
естественное
естественнои
естественных
естествознания
есть
есугеи
есім
ет
ефе
ефимов
ефимович
ефимовна
ефремов
ефрона
ефросинья
еч
еш
еще
еэс
ею
еҥ
ж
жа
жажда
жазушы
жаи
жак
жале
жалын
жаль
жан
жанаозенге
жанаозенде
жанаозенниң
жанеи
жанна
жанр
жанре
жанрлар
жанрларның
жанров
жанры
жанрынга
жансен
жанырлар
жанырның
жар
жара
жас
жатыр
жау
жаңаөзендегі
жгк
жда
жданов
жде
же
желанию
желательно
железная
железнова
железноводск
железнодорожного
железнои
железныи
жемил
жемчуг
жемчужина
жен
жена
женитьба
жених
женои
женская
женскии
женских
женского
женское
женскои
женщин
женщина
женщинам
женщинах
женщине
женщинои
женщины
жены
женя
жер
жеральдин
жерде
жердер
жеребьевки
жермен
жертв
жертвам
жесткии
жи
живая
живе
живет
живого
живои
живописи
живопись
живописьтиң
животноводов
животноводства
животноводстве
животное
животные
животными
животных
живут
живущих
живые
живых
жигуленко
жизель
жизи
жизни
жизнь
жии
жил
жила
жилер
жилери
жилерниң
жили
жилище
жилищно
жилищного
жимбиев
жиниң
жириновскии
жирмунскии
жирным
жителеи
жители
жительство
житомирскии
життя
жить
жная
жного
жнои
жныи
жных
жол
жолио
жомарт
жорж
жоқ
жсх
жу
жуань
жуаньнар
жуаньнарга
жуаньнарны
жужан
жужанар
жужаннар
жужаннарны
жужань
жуз
жузка
жузтуң
жузу
жуков
жукова
жуковскии
жумабаев
жун
журавле
журавли
журн
журнал
журнала
журналга
журналда
журналдар
журналдарга
журналдарның
журналдарында
журналдың
журнале
журнализи
журналист
журналистер
журналистери
журналистерниң
журналистика
журналисттер
журналисттери
журналов
журналы
журналынга
журналының
журнальном
жхл
жы
жыгажынга
жыдар
жыл
жыларны
жылдың
жыткан
жыыры
жь
жюри
жүз
жүріп
жүс
жұмабаев
және
жәнібек
з
за
зааның
забаи
забелин
забил
заблокировать
заболеваемости
заболеваемость
заболевание
заболевании
заболевания
заболеваниях
забыв
заведении
заведующая
заведующеи
заведующии
завершение
завершения
завершил
завершила
зависимости
завод
завода
заводе
заводка
заводская
заводского
заводту
заводтуң
заводу
заводун
заводунга
заводунуң
заводунче
завое
завоевал
завоевала
завтра
завуч
загадка
загадочная
заглавие
заглавия
заглавную
заговор
заголовка
заголовками
заголовки
заголовков
заголовком
заголовку
заголовок
заготовка
заготовок
загрузка
загустаи
задав
задавать
задае
задает
задан
задана
задание
задании
заданию
задания
заданного
заданное
заданныи
заданным
заданных
задано
заданы
задать
задач
задача
задаче
задачи
задают
задаются
задающии
заде
заж
заздравных
заздравныхзаздравных
заи
заказниги
закаменск
закаспии
заки
закиев
заключив
закон
закона
законодательное
законодательства
законодательство
закономерности
закончу
закрепле
закрывает
закрывал
закрыт
закрытия
закрытои
закрытые
закрытых
зал
залга
залда
залдан
зале
заливе
заложников
залы
залынга
залынче
замене
заменив
замените
заменить
замену
замены
заменяет
заменяется
заменять
заместителем
заместители
заместитель
заметка
заметки
замечание
замечательных
заморуев
замуж
зан
занимается
занималась
занимался
занимать
заняла
занятии
зао
заочно
зап
запад
запада
западная
западно
западное
западнои
западном
западныи
западных
западу
запас
записать
записеи
записи
записка
записки
записывает
записывается
записываи
запись
заповедниги
заповедник
заповедниктер
заповедниктиң
заполнен
заполнение
заполнению
заполнения
заполненном
заполнено
заполнены
заполните
заполняется
заполнять
запретить
запрос
запросы
запуск
запятая
запятои
запятую
зараи
заранок
заре
зарема
заренок
заречная
зарипов
заруцкая
зархи
заря
засл
заслуг
заслуги
заслуженная
заслуженного
заслуженные
заслуженныи
заставка
застрои
затем
затерянныи
затмение
захар
захаров
захаровна
захват
заходили
захотим
заче
зачем
защита
защите
защитил
защитник
защиту
защиты
защищать
заявил
заявки
заявку
заявлении
заявок
заяц
заң
збірник
звание
звания
зве
звезда
звезде
звездинскии
звездои
звездопад
звезды
звено
звенозу
звенозун
звенозунуң
звенону
звенонуң
звеньевая
звеньевои
зверев
зверева
зверь
звон
здание
здания
здесь
здные
здныи
здоровье
здоровьем
здоровья
здочками
здочкои
здравоохранение
здравоохранения
здравствуи
зды
зе
зебра
зеи
зеландия
зеле
зеленая
земзаре
земле
землеведение
земледелия
землеи
землетрясение
землетрясения
земли
земля
земляк
зенгин
зенит
зенькова
зер
зеркала
зеркале
зеркало
зерна
зерновых
зерслаутерн
зехра
зең
зи
зидан
зиданның
зиля
зима
зимние
зимнии
зимних
зин
зина
зинаида
зинаиды
зинге
зинедин
зинина
зиниң
зиновьевна
зиусудра
зия
зияда
златан
змеи
знает
знак
знака
знаки
знаков
знаком
знал
знали
знаменательных
знамени
знаменитые
знамя
знание
знании
знания
значение
значением
значении
значению
значения
значениями
значениях
значимости
значимые
значит
значительно
значительныи
значка
знаю
зно
знои
зоб
зов
зовского
зодчества
зои
золота
золотая
золото
золотого
золотое
золотои
золотом
золотоносных
золотые
золотых
золушка
золушке
зон
зона
зоназы
зоназын
зонами
зонгулдак
зонд
зоне
зоология
зоотехниги
зоотехник
зоотехниктеп
зори
зорин
зоя
зоңгава
зрахмановна
зрения
зрители
зу
зубкова
зугаар
зуда
зуев
зузу
зузун
зулал
зулалдар
зулалдарны
зулалдары
зулалды
зулалдың
зулалы
зулалын
зулуг
зульфия
зун
зуп
зуттнер
зуун
зухра
зы
зын
зынга
зыннар
зыннарны
зыннарның
зыннары
зыннарын
зынны
зынның
зыны
зыраан
зыраар
зыраарынга
зырадып
зырадыр
зырадыры
зырадырынга
зырал
зыралды
зыралдың
зыралы
зыралын
зыралынга
зыралынче
зыралының
зырангаи
зырап
зыраткан
зыратканы
зыраткаш
зыраңгаи
зыраӊгаи
зюганов
зябликова
и
иа
иааф
иакинф
иб
ибица
ибн
ибрагимович
ибсен
ив
ива
иван
ивана
иванов
иванова
иванович
ивановичтиң
ивановна
ивановнага
ивановны
иваново
ивановская
ивановскои
иванушки
иви
ивижи
ивижизи
ивижилерниң
ивилер
ивилерин
ивилерни
ивилерниң
ивиниң
ивис
иволга
ивр
иг
иген
иги
игизи
игил
игилге
игилди
игилдиң
игили
игнатьева
игнатьевич
игнатьевна
игнорируется
игнорируются
игнорируя
игореве
игоревна
игорь
игр
игра
играет
играл
играть
играх
игровои
игрок
игроки
игроков
игроком
игрушка
игры
ид
ида
идам
иде
идегел
идегелдиг
идегели
идегеп
идегээрим
идеи
идекпеи
иден
идентификатор
идентификатора
идентификаторларының
идентификаторов
идентификатором
идентификатору
идентификаторы
идентификационныи
идеология
идепкеи
идея
идеялары
идеяларын
идиг
идигни
идиин
идииниң
идик
идиктер
идиктерин
идикти
идил
идиома
идиот
идип
идиптер
идиш
идо
идут
идущии
идээлээр
ие
иегованың
иеден
иези
иезин
иезинге
иезинден
иезиниң
иезинче
иелер
иелерге
иелери
иелээ
иелээн
ием
иемксся
иени
иенин
иениң
иерархия
иерусалим
иерусалимге
ижевск
ижер
ижерге
ижери
ижерин
ижи
ижин
ижинге
ижиниң
ижип
ижиптер
ижиртир
из
изабелла
избежать
избирается
избиралась
изборник
избр
избран
избрана
избранная
избранное
избранные
изв
изваяния
известен
известия
известна
известно
известного
известны
известные
известныи
известным
известных
изгнание
изготовление
изготовления
изд
издается
издание
издании
издания
издатель
издательская
издательскии
издательства
издательство
издателя
изделии
изеп
изи
изиг
изидер
изидиишкинге
изидип
изии
изиир
изим
изин
изип
изложение
излучение
излучении
измаи
изменении
изменению
изменения
изменениями
изменениях
изменил
изменить
измерение
измерения
измир
изначально
изнутри
изображение
изображением
изображении
изображения
изобразительное
изобретатель
изобретении
изобретения
изоляция
израиль
израильдиң
израиля
изучение
изучению
изучения
ии
иил
иимк
иисус
ик
икаро
икер
ики
икона
икпе
икраның
икс
ил
илби
илбилиг
илдең
илдирзи
илдирзин
иле
илергеи
илередип
илередир
илередирде
илередири
илерели
илереп
илеретинип
илереткен
илереткени
илереткеш
илереттинген
илереттинер
илереттинеринге
илереттинип
илереттинмээн
илерээн
илеткел
илеткелдер
илеткелдери
илеткелди
илеткели
илеткелин
или
илиг
илип
илк
илка
илл
илларионов
иллинои
иллюзии
иллюстрация
иллюстрирование
илтериш
илчирбе
иль
ильенков
ильин
ильина
ильинична
ильинка
ильич
ильича
ильичиниң
ильхан
ильчир
илья
ильяның
илээ
им
имам
име
имеет
имеется
имел
имели
имело
имен
имена
именами
именем
имени
имениезинге
именно
именование
именования
именованные
иметь
имеют
имеются
имеющие
имеющиеся
имеющих
имея
ими
имиртиңде
имистелчек
имм
иммануил
иммунитета
иммунобиологии
имп
император
императорнуң
императорскаго
императорского
императорскои
императрица
империи
империя
империязы
империязын
империязынга
империязынның
империязынче
империязының
империяны
империяның
импетус
импорт
имя
ин
инан
инари
иначе
инвалид
инвалиди
инвалидов
инвалидтер
инвалидтерге
инвестиции
инвестиционно
инвестиция
инвестициялар
инвестициялыг
инга
инге
ингуш
ингушетия
инд
инде
индеи
индекс
индекса
инден
индивидуалдыг
индивидуальная
индии
индия
индияга
индияда
индияже
индияның
индоевропеи
индонезии
индонезия
индуизм
индуист
индустриалдыг
индустрии
индустрия
ине
инеи
инек
инектен
инектер
инекти
инектиң
инженер
инженера
инженери
инженерлер
инженерлериниң
инженерно
инженеров
ини
инин
инициалы
инициатива
инициатор
иниң
инли
инна
инновационнои
инновационные
инновационныи
иннокентии
иннокентьевна
иногда
иного
иное
ином
иностранная
иностранных
иноязычного
иноязычнои
иноязычном
иноязычных
инспектор
инспекторлап
инспектору
институду
институдун
институдунга
институдунда
институдунун
институдунуң
институдунче
институт
института
институте
институтка
институтов
институтом
институтту
институттуң
институтунче
институты
инструктор
инструкторлап
инструктору
инструмент
инструмента
инструментов
инструменты
инсульт
инсульттуң
интеграции
интеграция
интеллект
интер
интервики
интервью
интервьюга
интервьюзунга
интерес
интернады
интернадынга
интернат
интернате
интернатка
интернационал
интернационалдыг
интернационализация
интернационалчы
интернет
интернета
интернете
интернетке
интернетте
интернеттиг
интернеттиң
интерпретации
интерпретация
интертото
интерфакс
интерфеи
инфаркта
инфекции
инфекционные
инфекционных
инфекция
инфо
информ
информастыг
информатика
информатикада
информации
информационное
информационные
информационныи
информационных
информацию
информация
информацияны
информацияның
инфраструктура
инфраструктуразы
инфраструктуры
инче
инь
иньеста
инээ
инээн
иоанн
иоганн
иоланта
ион
ионнарга
иорданияда
иосиф
иосифовна
ип
ипатовскии
ипполитова
ир
ираида
ирак
иракта
иран
ирана
иранга
иранд
иранда
ирбижеи
ирбис
ирбитеи
ирбиш
ирги
иргин
иргит
иргитович
ире
ирези
иреи
ирек
ирен
ирена
иресаң
ирина
иринаны
ирины
ирип
ириңниг
иркут
иркутск
иркутская
иркутске
иркутскиге
иркутскиниң
иркутского
иркутскунуң
ирланд
ирландия
ирландияның
ирт
иртти
иртыш
ис
исаак
исаака
исаакович
исабель
исакович
исемдәре
искендерун
исключением
исключительно
исключить
ископаемые
ископаемых
искра
искусств
искусства
искусстве
искусственные
искусственныи
искусство
искусствовед
искусствоведения
искусствоведы
искусствознание
ислам
исламда
исламны
исламның
исландия
исмагилов
исмагиловтуң
исп
испан
испании
испания
испанияга
испанияже
испанияның
испанка
испанкадан
испанскии
испанского
исповедь
исполком
исполкомунуң
исполнев
исполнение
исполнилось
исполнителеи
исполнитель
исполнительные
исполняет
исполняется
исполнял
использовался
использован
использована
использование
использованием
использовании
использованию
использования
использовано
использованы
использовать
использоваться
используем
используемые
используемыи
используемых
использует
используется
используи
используют
используются
использующие
использующих
используя
испр
исправить
испытания
испытываю
исслед
исследование
исследовании
исследования
исследователи
исследователь
исследовательскии
исследовательского
ист
истанбул
истелге
истеми
истеминиң
истеп
истер
истери
исти
истинным
исток
истоки
истоков
истомин
истомина
истории
историк
историко
историческая
исторические
историческии
исторических
исторического
историческое
историческои
историческом
историю
история
источник
источника
источникам
источниками
источниках
источнике
источники
источников
источником
источнику
исты
исхаков
исходная
исходного
исходном
исходя
исцеления
исчезнет
исчезновения
исҡужин
ит
итал
итали
италии
италия
италияга
италияже
италияның
итальян
итальянская
итальянскии
итан
итератор
итигэлов
итог
итогам
итогах
итоги
итоговыи
итпек
итпектели
итпекти
иудаизм
ифип
их
ихлас
ихсанова
ихя
ицхак
иш
ишимбаи
ишкен
ишкеш
ишкин
ишкинге
ишкир
ишкири
ишкирин
ишпес
ишти
иштиг
иштии
иштики
иштин
иштинге
иштинде
иштинден
иштиниң
иштинче
ишчи
ищет
ищу
иърхит
июль
июльда
июльдан
июльдуң
июля
июнь
июньда
июньнуң
июня
июс
ия
к
ка
каа
каадыр
каазы
кааи
каан
каанда
кааннар
кааны
каап
каапкан
каапканнар
каапканы
каапкаш
кааптар
кааптарга
каапты
кааптыңар
каар
каарга
каарын
каас
каастаан
каастаар
каастааш
каасталга
каасталгага
каасталгазы
каасталгалар
каастап
кааш
кааң
кааңдаашкын
кабардин
кабардино
кабачкини
кабачок
кабинеди
кабинет
каваи
кавалер
кавалери
кавалерлери
кавалером
кавалеры
кавказ
кавказа
кавказка
кавказская
кавказтың
кавминвод
кавы
кавыда
кавызынга
кавызында
кавының
кавычек
кавычках
кавычки
каг
каган
каганат
кагар
кагарда
кагары
кагарын
кагбаан
кагбаи
кагбас
кагган
каггаш
кагдың
кагжылгага
кагжып
кагжыр
кагжырга
кагзын
кагыг
кагыгны
кагыкчы
кагысканда
када
кадаан
кадааш
кадагааты
кадагалаар
кадагалап
кадагалаттынган
кадагалаттынып
кадаи
кадак
кадактар
кадактарны
кадакты
кадактыг
кадактың
кадап
кадар
кадарар
кадарчы
кадарчызы
кадарчылап
кадарынга
кадарып
каддафи
кадегар
кадет
кадр
кадрлар
кадрларны
кадрларның
кадров
кадры
кады
кадыг
кадыгбаи
кадыгланып
кадыи
кадык
кадыкшыдылга
кадыкшыл
кадыкшылга
кадыкшылды
кадыкшылы
кадыкшылының
кадыкөи
кадын
кадында
кадындан
кадынны
кадынның
кадыны
кадының
кадып
кадыр
кадырар
кадыров
кадырып
кадыы
кадыын
кадыының
кадыыр
кадыырзыг
кадь
кажаа
кажан
кажанда
кажар
каждого
каждое
каждои
каждом
каждому
каждую
каждыи
каждым
кажется
кажык
кажыктан
кажыктап
кажыктар
кажыктардан
кажыктарны
кажыктарның
кажыкты
кажыктыг
кажыктың
кажылга
кажыы
кажыын
кажыындан
кажыының
каз
казак
казаки
казактар
казактарның
казан
казанак
казани
казанскии
казанского
казань
казаньга
казаньда
казаньның
казаньныӊ
казаньче
казар
казах
казахов
казахских
казахского
казахскои
казахстан
казахстана
казахстанга
казахстанда
казахстане
казахстанның
казахстанская
казахстанскои
казахстанцы
казахстанче
казахтар
казахтарның
казвин
казим
казимир
казначеи
казылган
казылдазын
казымал
казымалдар
казып
казыра
казыргы
казыткан
казыттырган
казыыр
казыышкыннар
казыышкыннарны
казыышкыны
казыышкынын
казыышкынынга
каи
каир
как
какие
каким
каких
каккан
какканда
каккаш
какого
какое
какои
каком
какпак
какпас
какую
какыи
кал
кала
каларупа
калашников
калашникова
калбаа
калбаан
калбаи
калбак
калбакхөрекович
калбарган
калбарткан
калбартыр
калбас
калбаңнаан
калга
калгага
калгада
калган
калганнар
калгаш
калда
калдар
калдым
калдың
календарда
календары
календарын
календарының
календарь
календарьга
календарьда
календарьны
календарьның
календарю
календаря
калза
калзан
калзаң
калзымза
калии
калинин
калинина
калининград
калининградская
калининградтың
калининскии
калифорнии
калифорния
калифорнияның
каллиграфия
калм
калмак
калмык
калмыкия
калмыкияның
калмыков
калмыктар
калмыктарның
калмыцкии
калмыцкои
кало
калонуң
калуга
калужская
калчаа
калчан
калып
калыр
калыры
калье
кальеге
кальениң
кальеха
калькутта
кальск
кальская
кальскии
кальскиниң
кальского
кальции
калью
калья
кам
кама
камбы
камгалаан
камгалааны
камгалаар
камгалаары
камгалаарын
камгалаарынга
камгалаарынче
камгалаарының
камгалааш
камгалакчы
камгалакчызы
камгалакчылары
камгалакчыларының
камгалал
камгалалды
камгалалдыг
камгалалы
камгалалын
камгалалынга
камгалалының
камгаланган
камгаланып
камгаланыр
камгалап
камгалаттынган
камгалаңар
каменные
каменныи
каменогорскунуң
каменоломни
каменск
каменыи
камень
камео
камер
камера
камерлиг
камерная
камерного
камерун
ками
камилла
камиль
каминская
камнаар
камнаваи
камнаг
камнап
камне
камнеи
камнерез
камни
камныг
кампании
кампания
камчатка
кан
канад
канада
канадага
канаданың
канал
канала
каналга
каналдар
каналдары
каналдың
канализация
каналынга
канд
кандаазылыг
кандан
кандаурова
кандидады
кандидадын
кандидадының
кандидат
кандидата
кандидатов
кандидаттар
кандидаттары
кандидаттарын
кандидаттың
кандидаты
кандыг
кандыгыл
каникулах
каникулы
канн
канны
канонда
канону
канопус
кант
канун
канчаан
канчаар
канчалдыр
канчап
канчыыр
канье
каори
капаган
капаи
капелла
капитал
капиталистиг
капитального
капитан
капитана
капитаны
каприччио
капсула
капсырылга
капуста
капустина
кар
кара
караа
караам
караан
караанга
карааның
караваево
карага
караганда
карагас
карагасс
карагассахъ
карагасы
карадениз
каражык
каразы
каразын
карак
каракалпак
каракка
карактаар
карактажып
карактап
карактар
карактарлыг
карактарны
карактары
карактарын
карактарының
каракты
карактыг
карактың
карала
каралыг
карам
карамельдиг
карандаш
караны
караның
карарып
карате
каратэ
каратэге
карачаево
карачаи
карачал
карачкова
караш
караң
караңгы
караңгыда
карбон
каргы
каргыга
каргыраа
каргыраалаар
каргыш
карди
карел
карелина
карелия
карельск
каренина
каржы
каржып
кариб
карим
карима
карл
карла
карлес
карло
карлович
карлос
карлук
карлуктар
карман
кармен
карнавальная
каролина
каротин
карп
карпенко
карт
карта
картада
картазы
картазын
картазында
картаи
карталар
карталарга
карталспор
картап
карте
картин
картина
картины
картография
картои
картон
картофель
картофельде
картофельди
картофельдиң
карточек
карточка
карточкалар
карточкаларга
карточканың
карточках
карточке
карточки
карточкои
карточку
картошка
карту
карты
картын
картында
картындан
картының
карусель
карыш
карышкактар
карьера
карьеразы
карьеразын
карьеразынга
карьеразында
карьеразының
карьеру
карьеры
кас
касаткина
касахемас
касающиеся
касильяс
каскан
каскаш
каспии
кассирером
кастилья
кастро
кастынган
касым
кат
катаи
каталог
каталоге
каталонияның
катанга
катанию
катанов
катанова
катановтуң
катап
катаптаан
катаптаашкыннарлыг
катаптап
катаптаттынмас
катарина
катарның
катастрофа
катастрофу
категори
категорие
категоризации
категории
категорически
категорию
категория
категорияга
категориязы
категориязынга
категорияның
категориях
категорија
категорія
катерина
катет
катетке
катеттерниң
катетти
катеттиң
катеґорія
катигорі
катионнар
каткан
каткаш
каткы
като
католик
католиктер
католиктиг
каторга
катпаанда
катпас
катрин
каттаи
каттап
каттар
каттарда
каттары
катты
каттыжа
каттыжар
каттыжылга
каттыжылгазы
каттыжылгазында
каттыжылгазының
каттыжылгалар
каттыжып
каттыжыышкын
каттыжыышкыннар
каттыжыышкыннарның
каттыжыышкыннары
каттыжыышкыннарын
каттыжыышкыннарының
каттыжыышкынны
каттыжыышкынның
каттыжыышкыны
каттыжыышкынын
каттыжыышкынында
каттыжыышкынының
каттырынчыг
каттышкан
каттышканда
каттышканы
каттышканындан
каттышканының
каттышкаш
каттыштырар
каттыштырары
каттыштырган
каттыштырып
каттың
катун
катчып
каты
катыжыышкыны
катыжыышкынын
катыжыышкынындан
катэгорыя
катя
кафедра
кафедрада
кафедразы
кафедразын
кафедразынга
кафедразында
кафедразынның
кафедразынче
кафедразынын
кафедразының
кафедраны
кафедраның
кафедре
кафедрои
кафедры
кафка
ках
кахузи
качества
качестве
качеством
качуевская
качыгдаан
качыгдалдан
качык
каш
кашагы
кашгар
кашгари
кашгариниң
кашпагаи
кашпал
кашпык
каъды
каък
каът
каъттары
каъттарының
каътташкак
каюм
кая
каяа
каң
каңгаи
каңгылыг
каңмыыл
кв
квадрат
квадратика
квадратике
квадратные
квадратных
квадраттың
квадратчыкта
квадратчыктың
квалификатора
квалификации
квалификация
квалификацияны
квантовая
квантришвили
квантылыг
кваньяма
квартал
квартет
квартета
квартира
квартирага
квартиралыг
квас
квн
квт
кг
кгб
ке
кевин
кегу
кегээн
кегээрелдиң
кеден
кеденип
кедеп
кедер
кедергеи
кедерезе
кедерелиниң
кедереп
кедерээн
кедизи
кедизинде
кедилиг
кедип
кедире
кедирер
кедирип
кедрова
кеже
кежеге
кежер
кежи
кежиг
кежигуну
кежигууну
кежигүн
кежигүннери
кежигүннеринге
кежигүннериниң
кежигүнү
кежигүнүнге
кежигүнүнден
кежигүнүнүң
кежигүүн
кежигүүнү
кежии
кежиин
кежик
кежикти
кежиктиг
кежиктиң
кежилдир
кежин
кежинге
кежинден
кежинин
кежиниң
кежип
кежир
кежирниң
кежээ
кежээзи
кежээзинде
кежээки
кежээкиниң
кежээлерде
кежээниң
кежүгүнү
кезее
кезек
кезекке
кезекте
кезектен
кезектер
кезектерге
кезектерден
кезектери
кезектерин
кезектеринге
кезектеринде
кезектериниң
кезектерни
кезектерниң
кезектиг
кезектиң
кезекчигештер
кезекчигештерниң
кеземче
кезенгилештир
кезер
кезери
кезии
кезиин
кезиинге
кезиинде
кезииниң
кезиир
кезик
кезип
кезээ
кезээде
кезээн
кезээнге
кезээнде
кезээниң
кезээнче
кеи
кел
келбеи
келбес
келбишаан
келбээн
келбээнде
келген
келгенде
келгени
келгенил
келгенин
келгенинге
келгенинден
келгениниң
келгеннер
келгеш
келгижемче
келгилээр
келдерелиниң
келди
келдивис
келдилер
келдим
келдирткен
келзе
келзин
келин
келинни
келинниң
келип
келир
келирге
келири
келирин
келиринге
келириниң
келиңер
келли
кем
кемал
кемаль
кембилчеп
кембридж
кемдеи
кемдээн
кемдээри
кемдээшкин
кемдээшкиннери
кемерово
кемниг
кен
кенден
кенденбиль
кенин
кеннеди
кенни
кент
кер
кераи
кераит
кераитер
кераиттер
кереит
кери
керээ
керээзи
керээзин
керээн
керээни
керээниң
кес
кесаң
кесилежек
кескен
кескеш
кеспедим
кеспес
кет
кеткен
кеттерни
кефир
кечил
кечилович
кечуа
кеш
кешке
кешкеш
кешпи
кештен
кештер
кештерин
кешти
кештиг
кештиң
кеъзек
ки
кибернетика
кибернетики
кидань
киданьның
кидин
кидис
кидиспеи
киев
киеве
киевке
киевте
киевтиң
киевче
киж
кижи
кижиге
кижиде
кижиден
кижиже
кижизи
кижизиг
кижизидер
кижизидеринге
кижизидикчи
кижизидилге
кижизидилгеге
кижизидилгези
кижизидилгениң
кижизидип
кижизин
кижизинге
кижизиниң
кижизиткен
кижизиттинген
кижизиттирикчизи
кижиир
кижилер
кижилерге
кижилерден
кижилерже
кижилери
кижилерин
кижилеринге
кижилериниң
кижилерлиг
кижилерни
кижилернин
кижилерниң
кижилерниӊ
кижилиг
кижим
кижингинск
кижини
кижинин
кижиниң
кижиниӊ
кижинниң
кижинниӊ
кижээ
кии
киир
киирбеи
киирбес
киирбээн
киирген
кииргени
кииргеннер
кииргеш
киирдинген
киирер
киирери
киирерин
кииреринге
киирериниң
киирилде
киирилделер
киирип
киириштирген
киириштирип
кииртинген
кикбоксе
кикбоксингиге
кикбокска
кикуи
кил
килге
килдиг
килдизи
килдизин
килдизинге
килдизиниң
килдис
килдиске
килдисти
килдистиң
килдисче
килең
килеңниг
килеңнээн
кили
киликии
килограмм
килограмма
килограммов
километр
километрах
километров
ким
кима
кин
кина
кинг
кинематограф
кинематографии
кинематография
кинигэ
кино
киноакте
киноактриса
киноартизи
киновед
кинога
кинода
кинодан
киноже
кинозу
кинозун
кинозунга
кинозунда
киноискусства
кинолар
киноларга
киноларда
киноларны
киноларның
кинолары
кинону
кинонуң
кинооператор
кинопоиск
кинопоиске
кинорежиссе
киностудия
киностудияга
киносценарии
киносценарист
кинофестивалинге
кинофестиваля
кинофильма
кинохроника
киношаңнал
киншаса
кипр
кир
кира
кирбезин
кирбеи
кирбес
кирбээн
кирген
киргени
киргенил
киргениниң
киргеннер
киргеш
киргиз
киргизии
киргизия
кирди
кире
кирер
кирерде
кирери
кирерин
киреринге
кирериниң
киржиир
киржикчи
киржикчизи
киржикчилер
киржикчилерге
киржикчилери
киржикчилерин
киржикчилериниң
киржикчилерни
киржикчилерниң
киржикчилиг
киржилге
киржилгеге
киржилгези
киржилгелиг
киржилдези
киржип
киржир
киржирде
киржири
киржирин
кирижи
кирижин
кирилл
кириллица
кириллицага
кириллицаның
кириллович
кирим
кирип
кирипкен
кирипкеннер
кириптер
кириш
киришкен
киришкени
киришкеннер
киришкеш
киришпеи
киришпес
киришпээн
киришти
киркоров
киров
кирова
кировская
кировскии
кирпич
кирсараи
киршбаума
киселе
кисель
кислер
кислород
кислота
кислотазы
кислоталар
кислоталарның
кислоталары
кислоталыг
кислотаны
кислотаның
кит
китаб
китае
китаи
китап
китаю
китая
кихот
киче
кичээл
кичээлдер
кичээлдерге
кичээлдери
кичээлдерин
кичээлдеринге
кичээлдериниң
кичээлдерни
кичээли
кичээнгеи
кичээңгеи
киш
киши
кишине
кишка
киі
ккби
ккпи
кл
кла
клава
клавдии
клавдия
клавиатура
клавиш
клавиша
клавиши
кладбище
клазы
клазын
клазынга
клазынче
клазының
кланы
клара
кларк
класс
класса
классах
классе
классиги
классик
классика
классики
классиктиг
классификастыг
классификации
классификация
классификациязы
классификациялары
классическая
классического
классическое
класска
классов
класстан
класстар
класстарга
класстарны
класстарның
класстары
классты
класстыг
класстың
классче
классы
клаус
клдыр
клеи
клетка
клеткаже
клеткалап
клеткалар
клеткаларга
клеткаларының
клетчатка
клеть
кливиниң
климады
климат
климов
клиника
клиниказы
клиниказынга
клиники
клинток
клинтон
клип
клиптери
кличко
клише
клод
клозе
клом
клоун
клоуны
клуб
клуба
клубе
клубка
клубника
клубныи
клубом
клубтар
клубтарга
клубтарның
клубтары
клубтарының
клубту
клубтуң
клубу
клубунга
клубче
клуву
клувунга
клувунда
клувундан
клувунуң
клувунче
ключ
ключевск
ключи
ключик
кляшторныи
км
кн
кндр
книг
книга
книгах
книге
книги
книгу
книж
книжка
книжного
книжное
книжныи
книппер
кно
кнопка
кнр
кнс
княгини
княгиня
князь
князя
ко
кобальт
кобду
кобе
кобеи
кобра
ков
ковале
ковалевская
ковалевскии
ковалевскои
ковалец
коврижных
ковскии
ковского
ковчег
ковшова
когараан
когарал
когаралды
когда
кого
когун
код
кода
кодан
коданга
коданынга
коде
кодекс
кодов
кодом
кодтары
кодтуг
коду
кодунуң
кодур
коды
кожа
кожагар
кожазы
кожазында
кожаи
кожалары
кожаларының
кожамык
кожамыктар
кожар
кожевниковскии
кожемякина
кожумаа
кожумак
кожумактар
кожумактарлыг
кожумактарның
кожумактары
кожумактыг
кожумактың
кожуннуң
кожуп
кожуун
кожууна
кожуунар
кожуунарны
кожуунга
кожуунда
кожуундан
кожууннар
кожууннарга
кожууннарда
кожууннарны
кожууннарның
кожууннары
кожууннарын
кожууннарынга
кожууннарында
кожууннарынче
кожууннарының
кожуунну
кожууннун
кожууннуң
кожууннуӊ
кожууну
кожуунун
кожуунунга
кожуунунда
кожуунундан
кожуунунуң
кожуунуң
коз
козага
козина
козлов
козлова
козловскии
кои
кок
кокаи
кокаин
коко
коковихин
кокпа
кокпазынга
кокпазынче
кокпалар
кол
колга
колдаадып
колдаан
колдап
колдовство
колдуг
колдук
колдуу
колдуунда
колесник
колесо
колесова
колесовои
колизеи
колин
количества
количество
количеству
коллега
коллегалары
коллеги
коллегии
коллегия
коллегиязының
коллегияның
колледж
колледжа
колледжи
колледжин
колледжинге
колледжинде
колледжиниң
колледжке
колледжти
коллектив
коллектива
коллективах
коллективи
коллективке
коллективнои
коллективтиг
коллективтиң
коллективы
коллектор
коллекции
коллекция
коллекциязы
колман
колобки
колокол
колония
колонка
колонкалар
колонки
колонок
колорадо
колумбии
колумбия
колун
колхоз
колхоза
колхозе
колхозка
колхозница
колхозницеи
колхозного
колхозов
колхозтар
колхозтарның
колхозту
колхозтуң
колхозу
колхозунга
колхозунуң
колхозунче
колхозче
колхозчу
колхозчулар
колхозчуларның
колчедан
колчинскии
колыма
коль
кольцо
коля
ком
кома
команд
команда
командага
командада
командаже
командазы
командазын
командазынга
командазында
командазынның
командазынче
командазының
командалар
командаларның
командалары
командаларынга
командаларының
командалыг
команданы
команданың
команде
командир
командири
командиринге
командириниң
командирлер
командирлери
командного
командное
командныи
командои
командор
команду
команды
комарова
комбаи
комбикорм
комбинады
комбинадынга
комбинадынче
комбинадының
комбинат
комбината
комбинате
комбинатка
комбинаттың
комбинации
комбу
комга
комедии
комедия
комета
кометалар
кометы
коми
комиксов
комиссар
комиссарлар
комиссары
комиссии
комиссия
комиссиязы
комиссиязының
комиссиялар
комиссияның
комитеди
комитедин
комитединге
комитединин
комитединиң
комитет
комитета
комитеттер
комитеттиң
коммент
комментарии
коммерсант
коммерсантъ
коммерческии
коммерческих
коммуналдыг
коммунар
коммунизм
коммунизму
коммуникации
коммунист
коммунистер
коммунистиг
коммунистического
коммунистическои
комнуң
комп
компакт
компактно
компании
компания
компанияга
компаниязы
компаниязын
компаниязынга
компаниязынче
компаниязының
компаниялар
компанияның
компаративист
компаративистики
компартии
компас
комплекизи
комплекс
комплекса
комплексизи
комплексилиг
комплексная
комплексного
комплексное
комплекснои
комплексныи
комплекстиг
комплекстиң
комплект
комплектациялыг
композитор
композиторлар
композиторларның
композиторларының
композитору
композиторы
композиция
композициязы
композицияның
компонентизи
компонентилер
компонентилиг
компонетизи
компот
компьютер
компьютерге
компьютерлер
компьютернои
компьютерные
компьютерных
комсомол
комсомола
комсомолдуң
комсомолец
комсомолчу
комсомольская
комсомольскои
кому
комунуң
кон
конвертером
конгар
конго
конгрези
конгрезинге
конгрезиниң
конгресс
конгресске
конгресстиң
кондал
конденсатор
кондратьев
коне
конец
конечныи
конзулакович
конкретизации
конкретная
конкретного
конкретное
конкретнои
конкретном
конкретному
конкретные
конкретныи
конкретных
конкурс
конкурса
конкурсе
конкурска
конкурстар
конкурстарның
конкурстуг
конкурстуң
конкурсче
коноково
кононенко
кононов
кононова
конор
консерва
консервалар
консерваларын
консерватории
консерватория
консерваториязын
консерваториязынга
консерваторияның
консонантизма
констант
константа
константин
константинова
константинович
константиновича
константиновна
константинополь
константы
конституции
конституционного
конституция
конституциязы
конституциязын
конституциязында
конституциязының
конституциялыг
конституцтуг
конструктор
конструкции
конструкция
консул
консулу
консультант
консультативтиг
контакты
контеи
контекст
контексте
континенталдыг
континентилер
контр
контракт
контракты
контрактының
контроль
контрольно
контрреволюстуг
конур
конус
конустуң
конф
конфедерация
конфедерациялар
конференции
конференция
конференциязы
конференциязынга
конференциязының
конференциялар
конференцияларга
конференцияларның
конференцияның
конфессия
конфеталар
конфликт
конфликты
конфуцианство
конфуции
конца
конце
концентратты
концентрациязы
концепции
концепция
концепциязын
концепцияларга
концепцияларны
концерт
концерте
концертерин
концерти
концертин
концертке
концерттер
концерттиг
концерты
концу
кончаа
кончуг
кончук
кооперативиниң
кооперации
координат
координаталары
координатами
координаттары
координаты
копа
копенгаген
копии
копирования
копию
копия
копту
копты
кор
корабли
корабль
корабльга
корабльдар
корабльды
корабльдың
коранның
корбин
корвин
коргар
корген
коргузуп
коргулчун
коргунчуг
коргуп
коргускен
коргуушкун
коргуш
коргуштуг
кордакчы
кордакчызы
кордильер
кореи
коренные
коренных
корея
кореяда
кореяның
корж
коржаң
корженкова
кори
коринебактерии
коркина
кормиловскии
кормушин
корнеи
корнелия
корни
корнильева
корнильевтерниң
коробкаларга
коров
коровы
короле
королев
королева
королевская
королевскии
королевского
королевы
король
коротких
короткометражныи
короткопериодическои
корпоративтиг
корпорация
корпус
корр
корректно
корректнои
корреспондент
корреспондентизи
корреспондентилеп
корриган
кортана
корткан
корткаш
кортпас
кортук
корум
корунья
коруп
коса
косметика
космическии
космического
космическои
космодром
космодрома
космология
космонавт
космонавтика
космонавтиканың
космонавтызы
космонавтылар
космос
космоса
космосе
космостан
космосче
коста
костенко
кости
кострома
костромского
костромскои
коступ
костюме
костюхинниң
кот
коте
котельная
котерген
котловины
которая
которого
которое
которои
котором
которому
которую
которые
которыи
которым
которыми
которых
кофе
коцюбинскии
кочевники
кочевников
кочевого
кочетов
кочетово
кочо
кочубеевскии
кош
кошара
кошкадып
кошкадыр
кошкак
кошкар
кошкаш
кошки
кошкина
коштаи
коштунган
коштунуп
кощеи
коъш
коъштуг
коэн
коэффициент
коя
коңга
коңгар
коңгурак
коңгуреи
коңгурои
кп
кпп
кпрф
кпсс
кравцова
кравченко
кравчук
крае
краевед
краеведение
краеведения
краеведческии
краевои
краи
краков
краса
красавица
красивые
красная
красно
красноармеи
краснова
красногвардеи
красного
красногорского
краснодар
краснодарга
краснодарның
краснодарскии
краснодарского
краснодон
красное
краснознаме
краснои
красном
краснопольскии
краснояровка
красноярск
красноярска
красноярскга
красноярске
красноярскиге
красноярскиде
красноярскии
красноярскиниң
красноярского
красноярскта
красноярсктың
красноярскының
красную
красные
красныи
красных
красота
красс
кратер
краткая
краткии
краткое
краткои
крахмал
краю
края
краям
кре
кредо
креи
кремле
кремль
кремнии
креольскии
крепостнои
крест
креста
крестовникова
крестьян
крестьянка
крестьянства
кривицкая
кривчикова
кризис
крик
крис
кристаллдары
кристиан
кристин
кристина
кристоф
критиги
критик
критика
критиктер
критиктериниң
критиктерниң
критиктиг
криштиану
крови
кровь
крокодил
кроме
кроуфут
круг
круга
круге
круглова
круглого
кругосвет
кругу
кружогу
круиз
круковскии
крупнеи
крупнолистная
крупные
крупныи
крупская
крупскои
крутои
крушение
крылатское
крылов
крылова
крыльев
крыльце
крылья
крым
крыма
крымга
крымда
крымны
крымның
крымск
крымская
крымскии
крымскои
крымче
крыша
крыше
крышова
крюков
крюкова
крючкова
кряду
ксения
ксиимк
кстове
кт
кто
ктэ
ку
куб
куба
кубани
кубанские
кубанскии
кубань
кубаньны
кубаньның
кубаньче
кубизм
кубизмниң
кубин
кубка
кубков
кубогу
кубогун
кубогунга
кубогуннуң
кубогуннуӊ
кубогунуң
кубок
кувезин
кувеи
кугарчинскии
кугульта
куд
куда
кудага
кудажы
кудажының
кудазы
кудаи
кудалар
кудаларны
куданы
кудар
кударанчыг
кударанчыын
кударап
куделли
куди
кудрявцева
куду
кудук
кудуку
кудулаар
кудулап
кудумчу
кудумчуга
кудумчуда
кудумчуже
кудумчузу
кудумчузун
кудумчузунга
кудумчузунда
кудумчулар
кудумчуларны
кудумчулары
кудумчуну
кудуп
кудуптар
кудургаи
кудурук
кудуруктуг
кудуруу
кудуруун
кудуруундан
кудуруунуң
кудыргэ
кужу
кужугет
кужун
кужур
кужурларлыг
кужурлуг
кузе
кузел
кузнецов
кузнецова
кузнецовтуң
кузовтуг
кузук
кузьма
кузьмин
кузьминична
кузьмич
куи
кукла
кукол
кукуруза
кукурузаның
кукушкина
кул
кула
кулаа
кулаан
кулак
кулакка
кулактары
кулан
кулаш
кулдаттырган
куличевская
култук
кулузун
кулун
кулуннуг
кулунундан
кулчаны
кулчаның
куль
кульминация
культ
культур
культура
культурага
культурада
культуразы
культуразын
культуразынга
культуразында
культуразының
культуралар
культуралары
культураларын
культуралыг
культураны
культураның
культуре
культурлуг
культурная
культурно
культурного
культурное
культурнои
культурные
культурныи
культурология
культуру
культуры
кум
кумбс
кумбум
кумиры
куммер
кумулятивтиг
кумык
кумыс
кун
кунаа
кунг
кунгаа
кунгааевич
кунгуртуг
кундалини
кундустуг
кунжуттуг
куницкая
кунчен
кунчуг
кунчуи
кунчуу
кунчуун
кунчуунуң
куп
купальщица
кур
кураи
курбатская
курбатскии
курбусту
кургаг
кургадып
кургадыр
курган
курганинские
курганинскии
курганы
кургап
кургаткан
кургаткаш
курд
курджакуз
куржаа
куржааның
куржаг
куржагның
куржанып
куржап
куржаңгылыг
курзун
курзунга
курлавыр
курлавырга
курлавырда
курлавырлар
курлавырлары
курлавыры
курлавырын
курлавырының
курмет
курна
курорт
куросава
куросаваның
курс
курса
курсив
курсивное
курсивом
курск
курска
курская
курскии
курсора
курстан
курстар
курстарга
курстарны
курстары
курстарын
курстарынга
курстарының
курсту
курстуң
курсы
курт
курттуг
куртуг
куру
куруг
куруже
курузу
курузун
куруккан
курултаи
курун
куруне
куруненин
курут
курыкан
курьер
кусимова
кускун
кустодиев
кут
кутафина
кутв
куткан
куткаш
кутлуг
кутлуга
кутлугну
кутлугнуң
куттарыныӊ
кутуктаи
куу
куузумаар
куулар
кууларны
кууларның
кууседип
куусеткени
кухня
куцова
куча
кучеров
кучлук
кучма
куш
кушкаш
кушлук
куштар
куштарның
куштуг
куштуң
куъзук
куяк
куңгуртуг
кхандакхадьяка
кывар
кыд
кыдат
кыдатка
кыдатта
кыдаттан
кыдаттар
кыдаттарга
кыдаттарның
кыдаттың
кыдатче
кыдыг
кыдыглары
кыдыгларында
кыдыкы
кыдыраажын
кыдырали
кыдыы
кыдыын
кыдыынга
кыдыында
кыдыындан
кыдыынче
кыдыының
кыжанып
кыжын
кызаа
кызаалыг
кызар
кызганмаслар
кызласов
кызы
кызыгаар
кызыгаарга
кызыгаарда
кызыгаарже
кызыгаарлаар
кызыгаарлаашкын
кызыгаарлажып
кызыгаарлап
кызыгаарларлыг
кызыгаарлары
кызыгаарлаттынган
кызыгаарлаттынып
кызыгаарлыг
кызыгаары
кызыгаарын
кызыгаарынга
кызыгаарында
кызыгаарындан
кызыгаарынче
кызыгаарының
кызыдар
кызыдып
кызыл
кызыла
кызылга
кызылда
кызылдан
кызылдын
кызылдың
кызыле
кызылорда
кызылскии
кызылче
кызым
кызымаа
кызымак
кызымакаи
кызымаккаи
кызын
кызының
кызып
кызыр
кызыра
кызырак
кызырган
кызырлып
кызырылган
кызытканы
кызыы
кыи
кык
кыла
кылагар
кылаштаан
кылаштаар
кылаштап
кылаң
кылаңаи
кылаңнааш
кылбаан
кылбазы
кылбаи
кылбас
кылган
кылганнар
кылганы
кылганын
кылгаш
кылдывыс
кылдым
кылдынган
кылдынмаан
кылдыныг
кылдыныглар
кылдыныгларның
кылдыныглары
кылдыныгны
кылдыныгның
кылдынып
кылдыныын
кылдыр
кылдырган
кылдыртып
кылдыртыр
кылза
кылыг
кылыглар
кылыглары
кылык
кылымал
кылын
кылып
кылыпкан
кылыптар
кылыр
кылырга
кылырда
кылыры
кылырын
кылырынга
кылырындан
кылырынче
кылырының
кылыч
кым
кымга
кымда
кымдан
кымнар
кымны
кымның
кымчы
кымыл
кымыскаяк
кымыскаяктар
кымытваль
кыннып
кыпсып
кыпсыр
кыпсыры
кыпчак
кыр
кыраан
кыргаан
кыргааш
кырган
кырганнар
кырганнарның
кыргывадым
кыргыз
кыргызов
кыргызстан
кыргызтар
кыргын
кыргып
кыргыс
кыргысович
кыргысовна
кыргыстар
кыргыстардан
кыргыстарны
кыргыстарның
кыргыстары
кыргыстарынга
кыргыстың
кыргыткан
кыргыыр
кыркыз
кырлап
кырлыг
кырлып
кыры
кырыи
кырыкы
кырын
кырынга
кырында
кырындан
кырынче
кырының
кырып
кырыш
кырыыр
кырыыры
кыс
кыска
кысказы
кыскаладыр
кыскан
кыскаш
кыскыл
кыстаа
кыстар
кыстарны
кыстарның
кыстары
кысты
кыстыг
кыстын
кыстырып
кыстың
кысыгбаи
кысь
кытаи
кыш
кышка
кышкы
кыштаандан
кыштаг
кыштагга
кыштаглаи
кыштаглары
кышты
кыштың
кыыл
кэ
кэмерон
кэпсээннэр
кэрол
кэти
кэтрин
кэш
кэша
кээн
кээп
кээр
кээрге
кээргел
кээргенчиг
кээргээр
кээргээчел
кээрде
кээри
кээримде
кээрин
кээринге
кюи
кюнер
кюнзегеш
кюри
кюриниң
кяхта
кяхтаның
кяхтинскии
кім
кѳже
кѳк
кѳргүскен
кѳстүп
кѳшкен
кү
күгүр
күгүрлүг
күдерек
күдерекович
күдээ
күдээзи
күжениишкин
күжениишкини
күжениишкиннер
күжениишкинниг
күженири
күжү
күжүген
күжүгет
күжүгетович
күжүн
күжүнден
күжүнүң
күжүр
күзег
күзел
күзелдер
күзелдери
күзелдерин
күзелдиг
күзелдии
күзели
күзелим
күзелин
күзелиниң
күзен
күзенчиг
күзеп
күзээн
күзээни
күзээр
күзүн
күзүнүнде
күл
күлиг
күлтегин
күлүг
күлүк
күмүл
күмүлүм
күнзегеш
күр
күрседи
күрсединиң
күрси
күруне
күрүне
күрүнеге
күрүнеде
күрүнеден
күрүнеже
күрүнези
күрүнезин
күрүнезинге
күрүнезинде
күрүнезиниң
күрүнезиниӊ
күрүнезинче
күрүнелер
күрүнелерде
күрүнелерден
күрүнелери
күрүнелерин
күрүнелериниң
күрүнелерни
күрүнелерниң
күрүнелиг
күрүнени
күрүнениң
күрүнениӊ
күрүненниң
күрүнүң
күс
күске
күскениң
күскомунуң
күскү
күскүлек
күстен
күстүктүр
күстүң
күчү
күчүзү
күчүлел
күчүлелдиг
күчүлүг
күчүтен
күчүтеннер
күш
күштелген
күштелдирер
күштелдирери
күштелдиреринге
күштелип
күштер
күштери
күштерин
күштеринге
күштериниң
күштерни
күштерниң
күштү
күштүг
күштүң
күштүү
күңгүрбаага
күүи
күүседиири
күүседикчи
күүседикчизи
күүседикчилер
күүседикчилери
күүседикчиниң
күүседилге
күүседип
күүседипкен
күүседир
күүседири
күүседирин
күүсекчи
күүселде
күүселдези
күүселдезин
күүселдезинге
күүселдезинде
күүселдезиниң
күүсеткен
күүсеткени
күүсеттинген
күүсеттинип
күүском
күүскомунуң
көвеи
көвүдевес
көвүдедип
көвүдедир
көвүдедири
көвүдеи
көвүдеп
көвүдээн
көвүдээр
көвүдээри
көвүдээрин
көвүдээш
көвүктелдирикчи
көвүктелдирикчини
көвүрүг
көвүрүгде
көвүрүглер
көвүрүгнү
көвүрүгнүң
көвүрүү
көге
көгел
көгмен
көгээр
көгээржикти
көгү
көгүдүп
көдээ
көдээге
көдээниң
көдүрген
көдүргеш
көдүрер
көдүрлүп
көдүртүнүп
көдүрүлген
көдүрүлгеш
көдүрүп
көже
көжелдеи
көжер
көжерин
көжуп
көжээ
көжээлер
көжээлерни
көжээлиг
көжээни
көжүп
көжүрген
көжүрер
көжүрүп
көзенекте
көзенектери
көзүлбеи
көзүлбес
көзүлген
көзүлгүлээр
көзүлдүр
көк
көкбөрү
көкке
көкмүш
көксүмээр
көнчок
көп
көпек
көпсү
көр
көрбеи
көрбес
көрбээн
көрген
көргени
көргеннер
көргеш
көргузүп
көргускен
көргүзе
көргүзер
көргүзерге
көргүзерде
көргүзери
көргүзерин
көргүзеринге
көргүзү
көргүзүг
көргүзүглер
көргүзүглери
көргүзүглерни
көргүзүп
көргүзүү
көргүскен
көргүскени
көргүспээн
көргүстүнген
көрдүм
көрдүнген
көрдүнери
көрдүнүп
көре
көреи
көрем
көрея
көреяга
көреяда
көреяның
көрзе
көрнү
көрнүп
көрнүр
көрсе
көрээлиңер
көрүжү
көрүжүн
көрүкчү
көрүкчүге
көрүкчүлер
көрүкчүлерге
көрүкчүлерниң
көрүкчүнүң
көрүлдезинге
көрүн
көрүнген
көрүндүр
көрүндүрүп
көрүп
көрүптер
көрүш
көрүштер
көрүштерин
көрүштүг
көрүңер
көрүңерем
көрүүшкүнү
көс
көскү
көскүзү
көскүлеңнээр
көстеп
көступ
көстү
көстүк
көстүп
көстүр
көстүрү
көш
көшкен
көшкендеи
көшкенинден
көшкеннер
көшкеш
көшкүн
көште
көък
көъп
көңгүс
көөп
көөр
көөрге
көөрде
көөрдэ
көөрү
көөрүмге
көөрүн
көөрүнүң
л
ла
лаа
лаавыс
лаан
лааның
лаар
лаарга
лаары
лаарының
лааш
лаашкын
лаборант
лаборантызы
лаборантылап
лаборатории
лаборатория
лабораторияга
лабораториязы
лабораториязын
лабораториязынга
лабораториязынче
лабораториязының
лабораторияның
лабораторлуг
лабытнанги
лавлеи
лавранса
лавров
лаврова
лавровскии
лаг
лагар
лагга
лагере
лагеринге
лагериниң
лагерле
лагерь
лагерьге
лагерьже
лагерьлерге
лагерьлери
лада
ладен
ладып
ладыр
ладыры
лаевич
лажып
лазанья
лазарев
лазарева
лаи
лаида
лак
лакпа
лакскии
лактар
лактары
лакшми
лам
лама
ламага
ламажап
ламазы
ламазының
ламалар
ламаларга
ламаларны
ламаларның
ламалары
ламаны
ламаның
ламарр
ламаррны
ламе
ламин
ламина
лампа
ламрим
ландарма
ланка
ланкин
ланнистер
ланцет
ланчыы
ланчыының
ланып
лао
лаос
лап
лапетра
лапластың
лапшин
лар
ларга
ларда
лардан
ларже
лариса
ларлыг
ларны
ларның
ларош
лары
ларын
ларынга
ларында
ларындан
ларынче
ларының
лас
ласкера
ласков
ласковыи
ластман
ластманның
ласточки
лат
латвии
латвия
латвияда
латин
латиница
латинская
латинскии
латинским
латинского
латинское
латинскои
латинчиткен
латкан
латтынган
латтынмаан
латтырган
латыни
лаура
лауреады
лауреат
лауреаттары
лауреаты
лауренсия
лацио
лациога
лационуң
лашкан
лая
лаң
лаңмаа
лгу
лдар
лдарны
лдары
лди
лды
ле
лебедев
лебедеи
лебединое
лебедь
лебедя
леброн
лев
левертовская
леви
левин
левитан
левитана
левого
левои
левокумскии
левыи
легат
легенда
легендарного
легендарнои
легенды
легион
легко
легкоатлеты
леда
леди
ледизи
ледокол
лежип
леи
лекарственные
лекарь
лексика
лексикада
лексики
лексико
лексикография
лексикология
лексиктиг
лексику
лексические
лектору
лекции
лекция
лекциязын
лекциялар
лекцияларны
лекцияларын
лена
лениздат
ленин
ленина
ленинге
ленингр
ленинград
ленинграда
ленинградка
ленинградская
ленинградскии
ленинградского
ленинградское
ленинградскои
ленинградском
ленинградта
ленинградтан
ленинградтың
ленинградче
ленинизм
ленинка
ленинниң
лениногорск
лениногорскунуң
ленинскии
ленинского
ленинчи
ленко
леннокс
ленскии
лента
ленфильм
ленчек
леон
леонард
леонардо
леонид
леонидовна
леонов
леонтина
леонтьев
леонтьевна
леопард
леп
лер
лерге
лерде
лери
лерин
лериниң
лермонтовтуң
лерни
лерниң
лес
леса
лесгафт
леси
лесная
лесного
леснои
лесные
лесных
лесов
лессинг
леся
лет
летают
летие
летию
летия
леткен
летнеи
летние
летнии
летних
летняя
лето
летом
летописеи
летописи
летопись
летучая
летчик
летят
лех
лечебно
лечение
лечения
лешкек
лешпес
ли
либби
либерализм
либерии
либерияның
либо
либретто
ливан
ливенс
ливенстиң
ливерпуль
ливии
ливинская
ливияның
лившиц
лиг
лига
лигага
лигаже
лигазы
лигазын
лигазынга
лигазының
лиганың
лиге
лиги
лид
лида
лидер
лидери
лидеров
лиди
лидизин
лидия
лиепа
лиеш
лиза
лизы
лии
лик
лике
лили
лилия
лиллиан
лимит
лимита
лимите
лимон
лимоннуг
лин
лина
линг
лингвист
лингвистами
лингвистика
лингвистические
лингвистическии
линда
линдерот
линдси
линеи
линии
линия
линияга
линиң
линк
линнеи
линь
лионель
липатова
липецк
липидтер
лир
лира
лирика
лириказы
лириктиг
лиса
лисицына
лист
листьев
лит
литаң
литва
литвы
литвяк
литератор
литератур
литература
литературага
литературада
литературазы
литературазын
литературазының
литератураны
литератураның
литературе
литературлуг
литературная
литературного
литературное
литературнои
литературном
литературные
литературныи
литературных
литературоведение
литературы
литогр
литр
литрге
лихтенштеи
лиц
лица
лицах
лицеи
лицензии
лицо
лицом
лицу
лич
личная
лично
личное
личном
личностеи
личности
личные
личныи
личных
лишь
лия
лка
лке
лки
лку
лла
ллер
ло
лобов
лобсаң
лов
лова
ловато
ловзаң
лович
ловича
ловичтиң
ловка
ловна
ловои
ловскии
ловское
лог
логарифм
логика
логикага
логикада
логиказы
логиказының
логиканы
логиканың
логики
логиктиг
логическое
логои
логотиви
логотип
лодка
лодои
лои
лок
локализации
локальные
локальным
локомотив
локомотива
локтя
ломоносов
ломоносова
лондон
лондонга
лондоне
лондоннуң
лондонче
лонуң
лопес
лопсан
лопсанның
лопсанчап
лопсаң
лопсаңның
лор
лорд
лориса
лос
лоян
лс
лсб
лся
лу
луг
луга
луганск
лугати
луговомарии
лудужапович
лудуп
лужудулга
лузу
лузун
лузунуң
луи
луиджи
луиза
луизы
луис
лук
лука
лукас
лукашенко
луки
лукьянов
лулар
луларын
лун
луна
луначарскии
луне
луну
луны
луораветлан
луп
лурье
лухои
луч
лучко
лучшая
лучше
лучшее
лучшеи
лучшие
лучшии
лучшим
лучших
луңток
лхамо
лхамону
лхарамба
лхаса
лхасага
лхасаның
лы
лыбыр
лыг
лые
лыжа
лыи
лык
лыкмаа
лып
лысенина
лысенко
ль
льва
львов
львович
львовна
львовтуң
львів
льюис
лья
лэ
лэи
лэмпард
лээн
лээни
лээр
лээри
лээрин
лю
люба
любви
любил
любим
любимая
любимовои
любимыи
любит
любителеи
любитель
любительница
любительскии
любить
любичев
любишь
люблю
любов
любовницы
любовныи
любовь
любовью
любого
любое
любои
любом
любые
любым
любых
людвиг
людеи
люди
людмила
людовик
людям
людях
люк
люксембург
люндуп
люси
люся
лютер
лютеран
ля
лябиба
ляи
ляля
лянь
ляо
лү
лүп
м
ма
маа
маады
маадыр
маадырга
маадырлар
маадырларны
маадырларның
маадырлары
маадырларын
маадырларының
маадырлыг
маадырлыы
маадырны
маадырның
маадыры
маадырын
маадырынга
маадырының
маак
маан
маанаи
маанга
маанда
маандан
маани
маанче
мааның
мавзолеи
мавлютов
мага
магадаан
магадаар
магадал
магаданчыг
магадап
магазин
магалыг
маган
маганны
маганныг
маганның
маганы
маганын
магат
магдалена
магеллан
магжан
магиктиг
магистр
магистраль
магистратуразын
магистры
магия
магнии
магнит
магнитки
магнитнои
магнитные
магнитогорск
магнитогорского
магнитогорское
магнитогорскуга
магнитогорскунуң
магниттиг
магнитыг
магомед
магритт
магриттиң
магуба
магусту
мадагаскар
мадам
мадебеи
мадонна
мадрид
мадридке
мажалык
мажалыкка
мажалыктың
мажилис
мажит
мажита
маи
мак
макария
макаров
макарова
макбет
макгрегор
макгрегорнуң
македон
македоннуң
македонскии
макка
маккои
макмэн
макроэкономика
макс
максим
максима
максимально
максимова
максимович
максимовна
макта
мактаан
мактаар
мактал
макталдары
макталдыг
макталы
мактан
мактап
мактар
мактарга
мактардан
мактарны
мактарның
мактары
мактарын
макты
мактыг
мактың
мал
малаи
малая
малаялам
малга
малгаш
малгаштан
малгашты
малгаштыг
малдар
малдарның
малды
малдыг
малдың
малена
маленькая
маленькие
маленьких
малерияга
мало
малов
малова
малого
малои
малочисленных
малоэтажнои
малчын
малчыннап
малчыннар
малчыннарны
малчыннарның
малчыны
малы
малые
малыи
малым
малын
малының
малых
малышев
малькова
мальта
мальтии
мальцев
мальчик
мальчики
малярия
маляров
мама
мамаев
мамедов
мамонт
ман
манаан
манаар
манаары
манаашкыннарлыг
манавааны
манаджаб
манап
манас
манасеина
манга
мангистау
мандан
мандараа
мандат
мандела
манджушри
мандич
мандып
манжур
мани
мание
манисаспор
манихеи
манла
маннаи
маннар
маннарны
маннарның
маннары
манның
манро
мансии
мануэль
манчакаи
манчестер
манчжур
манчжурлар
манчжурларга
манчы
манчык
маншук
маны
манының
маньчжур
маня
мао
мар
мара
марадона
маральскии
марат
марафон
марафонга
марафонунга
марачевка
маргарет
маргарита
марго
маргыжып
маргылдаа
маргылдаага
маргылдаадан
маргылдаазы
маргылдаазынга
маргылдаазынче
маргылдаазының
маргылдаалар
маргылдааларга
маргылдааларның
маргылдаалары
маргылдааларынга
маргылдаалыг
маргылдааны
маргылдааның
маргыш
маргыштыг
мард
марем
маресева
маржымал
мари
марианна
мариано
марии
марин
марина
маринина
марины
марио
марионелла
марит
марица
мария
марияны
марияның
марк
марка
марказы
марказында
маркалары
маркалыг
маркетинг
маркиза
маркин
маркина
марко
марков
маркова
марковна
маркс
маркса
марксизм
марксизма
марксисчи
маркуз
маркус
марлен
мармарис
марпл
марра
марс
марса
марселино
марсель
марсты
марстың
март
марта
марте
мартен
марти
мартин
мартина
мартинес
мартинниң
мартка
мартта
марттан
марттың
марты
мартынов
мартыновна
маруся
марфа
марфуга
марцелл
марченко
марш
маршак
маршактың
маршал
маршалы
маршрут
маршруттуң
маршруты
марья
мас
маска
маскарад
масло
масловке
масса
массазы
массазын
массазындан
массалыг
массалыы
массив
массовои
массовые
массовых
мастер
мастера
мастерге
мастери
мастеринге
мастерицоп
мастерлер
мастерлери
мастеров
мастерская
мастерскаязынга
мастерскаязынче
мастерство
масштаб
масштабтыг
мат
матаджи
матвеев
матвеева
матвеевич
матвеевна
матем
математик
математика
математикага
математикада
математикадан
математиказы
математиканы
математиканың
математике
математики
математиктер
математиктерниң
математиктиг
математические
математических
математическое
математическои
матер
матери
материал
материалам
материалах
материалдан
материалдар
материалдарны
материалдарның
материалдары
материалдарын
материалдарында
материалдарындан
материалды
материалдыг
материале
материализм
материалов
материалы
материальнои
материнская
материнскои
матильда
матпаа
матпаадыр
матре
матрена
матрос
матроскин
матч
матче
матчи
матчка
матчта
матчтар
матчтарга
матчтарны
матчтарын
матчты
матчызын
мать
маугли
маха
махан
махасаттва
махатма
махачкала
махаяна
махмуд
мачыылаевна
маша
маши
машин
машина
машинага
машиназы
машиналар
машиналарга
машиналарны
машиналарның
машиналары
машиналарын
машинаны
машинаның
машинист
машинного
машиностроение
машиностроения
машины
машков
мая
маяк
маяковскии
мағжан
маңаа
маңган
маңгыстың
маңнаар
маңнаи
маңнап
маңы
маңын
мб
мвд
мвт
мг
мгимо
мгми
мгновении
мгу
мгюа
мдми
ме
мегафауна
мегафауназы
мегафон
меге
мегелеп
мегелээр
мегечи
мед
медалеи
медали
медализи
медалин
медалинниң
медалинниӊ
медалистер
медалы
медалын
медалының
медаль
медальга
медальдар
медальдарны
медальдары
медальдарының
медальды
медальдыг
медальдың
медальының
медалью
медведев
медведева
медведь
медведя
медгиз
меде
медеглел
медеглелдер
медел
меделдиң
медерел
медерелдиг
медерелдиң
медерели
медерелин
медерелинде
медерелинден
медерелиниң
медереп
медиа
медиафаи
медик
медики
медико
медитации
медитация
медицина
медицинага
медицинада
медициналар
медицинаның
медицине
медицинниң
медицинская
медицинские
медицинскии
медицинских
медицинского
медицинскои
медицины
медичи
меднои
медовыи
медресе
медресеге
медсестра
медээ
медээзи
медээлел
медээлелди
медээлелдиң
медээлеп
медээлер
медээлери
медээлерин
медээлерни
медээлээн
медээни
медээниң
между
междунар
международ
международная
международного
международное
международнои
международном
международные
международныи
международным
международных
межегеи
межилер
межконтинентальныи
межлумова
межпоселенческая
межтюркские
мезизи
мезил
мезолит
меи
мекка
мексика
мексикада
мексикан
мексиканың
мелахат
мелдер
мелегеи
мелетинскии
мелиоранскии
мелиоранского
мелиорация
мелким
мелодии
мелодия
мельников
мельникова
мельцер
мемориал
мемориалдыг
мемориальная
мемуар
мемуарлар
мемуарларында
мемуары
мен
менде
менделеев
менделеева
менделеевтиң
менден
мендести
менди
мендизин
мендилежир
мендилежирге
менеджер
менеджери
менеджмент
менеджмента
менее
мени
мениң
менче
менчинская
менчу
меньшие
меню
меня
меняется
менять
мер
мерв
мерге
мергежил
мергежилге
мергежилгелери
мергежилгелерни
мергежилдер
мергежилдери
мергежилдерин
мергежилди
мергежилдиг
мергежилдиң
мергежили
мергежилин
мергежилинге
мергежилиниң
мергежээн
мерген
мергени
мере
мери
меридиан
мерит
меркель
меркит
меркиттер
меркиттерни
меркиттерниң
меркурии
меркурия
меркьюри
мернеи
мероприятии
мессенджер
мессерер
месси
мест
места
местах
месте
местечко
местного
местное
местном
местному
местности
место
месторождение
месторождении
месторождения
месту
месут
месхи
месяц
месяца
месяцев
мета
метал
металл
металла
металлдан
металлдар
металлдарны
металлов
металлург
металлургии
металлургического
металлургия
метан
метафизика
метафизикага
метафизиканы
метафизиктиг
метеорит
метеорита
метеориттер
метеорология
метилдиг
метин
метка
меткам
метками
метке
метки
меткои
метку
метод
метода
методизи
методика
методиказы
методики
методиктиг
методист
методические
методическое
методов
методологические
методологияларны
методу
методун
методунуң
методы
меток
метр
метражтыг
метрге
метрден
метро
метров
метрового
метрополитене
мефодии
мефодьевна
механизатор
механизаторлар
механизатору
механизация
механизм
механизма
механизми
механизмнер
механизмы
механик
механика
механиканың
механики
механиктиг
мехико
мехмед
мехмет
мец
меценат
меч
мечеть
мечислав
мечникова
мечта
мечты
мещанин
мең
меңги
меңгилиг
меңи
меңии
меңниң
меңээ
мз
ми
миа
миасс
миг
мигель
мид
мидлсбро
мижит
мижиттиң
мик
микробиолог
микробиологии
микробиология
микробтарга
микрораи
микрофильмов
милан
миланның
милая
милиция
милицияның
миллер
миллеровскои
миллетиме
милли
миллиард
миллиарда
миллиардов
миллиметрах
миллион
миллиона
миллиондан
миллионер
миллионов
милосердия
милошевич
милуоки
милутин
миль
мин
мина
минаев
миналар
минасовна
миндиашвили
миндиашвилиниң
минерал
минералдыг
минералов
минераловодскии
минералогии
минералогия
минералы
мини
минимальныи
минимум
минир
министерства
министерстве
министерство
министерствозу
министерствозуннуң
министерствозунун
министерствозунуң
министири
министр
министра
министри
министрлер
министрниң
министров
минкуса
минниишкин
минниишкиннер
миннип
миннир
минобороны
минск
минскиге
минсуг
минусинск
минусински
минусинскиниң
минусинского
минут
минута
минутага
минутада
минутах
миным
миокарда
мир
мира
мире
мириам
мирныи
мирных
миро
мировая
мировна
мирового
мировоззрение
мировои
мирок
миронов
миронова
миронович
миронуң
мирослав
мирослава
мирославты
мирославтың
миру
мисис
мисс
миссии
миссионер
миссис
миссисипи
миссия
миссури
мистер
мистраль
митинг
митохондриалдыг
митохондриялыг
митпек
митрофановна
миф
мифологии
мифология
мифологияда
мифологтуг
мифтен
мифтер
мифы
миха
михаи
михаил
михаила
михале
михалков
михаэль
мицкевич
мичиган
мичман
миш
миша
мишель
миштиң
миядзаки
мкк
мкми
мкртчян
мкту
мку
мкф
мкхрис
мл
младшии
млн
млрд
мм
мма
мми
ммк
мммм
мн
мная
мне
мнение
многие
многих
много
многоборье
многодетнои
многолетнюю
многострочныи
многотомных
многочисленные
множественные
множество
мо
мобилдиг
мова
мог
могаг
могаи
могап
могила
могилы
могла
могли
могои
могу
могут
мода
модалдыг
модальнои
модели
моделин
моделирование
модель
модельдерин
моделью
модерн
моджорян
модулеи
модули
модуль
модульдар
модуля
модэ
мое
моего
моеи
может
можете
можно
можу
можуга
можузу
можузунга
можузунда
можузунуң
можуларында
можуну
можунуң
мозг
мозга
мозер
мозером
мои
моисеев
моисеевна
моисеи
моих
мок
мокрая
мокша
мокшанскии
молдав
молдавии
молдавия
молдавияның
молдавскии
молдова
молдурга
молдурганы
молдурук
молдурукту
молдуруктуг
молдуруу
молдуруун
молекула
молекулярлыг
молекулярнои
молитва
моллеров
молодая
молоде
молодежи
молодежная
молодежь
молодого
молодои
молодости
молодость
молодые
молодым
молодых
молока
молоко
молот
молотов
молочно
молочного
мольер
мольера
мольерниң
мом
момент
момента
мон
монархия
монастир
монастырь
монг
монгол
монголии
монголия
монголов
монгольская
монгольские
монгольскии
монгольских
монгольского
монгольскои
монгужукович
монгун
монгуш
монгуша
монгушевич
монгушевна
монгушовна
монгуштуң
монд
монда
монды
моника
мониторинг
монне
монография
монографиязы
монографиялар
монографияларны
монографияларның
монографиялары
монографияның
монро
монстров
монстры
монтажного
монтальчини
монте
монтевидео
монтевидеодан
мону
монументалдыг
моол
моолга
моолда
моолдан
моолдап
моолдар
моолдарга
моолдарда
моолдардан
моолдарже
моолдарны
моолдарның
моолдары
моолду
моолдун
моолдуң
моолдуӊ
моолче
моон
моондак
моорлап
мооң
мораль
мордва
мордовия
море
морзук
морис
морковь
морковьтан
мормоннар
моро
мороза
морозов
морозова
морозованнын
морозованың
морозовои
моррис
моррисон
морского
морскои
морфемалыг
морфология
морфологтуг
моря
мосаль
моск
москага
москва
москвага
москвада
москвадан
москваже
москваннын
москванның
москванныӊ
москванын
москваның
москваныӊ
москве
москвич
москвои
москву
москвы
московская
московские
московскии
московского
московское
московскои
московском
московскому
москомспорт
москомспорта
моссовет
мост
мотивтери
мотова
мотористиң
мотористка
мохандас
мохэ
моцарт
мочур
мошенники
мошкова
мощностью
мою
моюн
моя
моңгуш
моңгушевна
моңгуштуң
мпа
мрамор
мс
мса
мсоп
мсха
мтс
му
муаи
муаммар
мубарак
муваххит
мугулаи
мугулюи
мугур
муж
мужа
мужем
мужество
мужского
мужскои
мужчин
мужчина
мужчины
муз
муза
музее
музеи
музею
музея
музык
музыка
музыказы
музыкалдыг
музыкалыг
музыкальная
музыкально
музыкального
музыкальное
музыкальнои
музыкальные
музыкальныи
музыкальных
музыкант
музыканта
музыканте
музыканты
музыке
музыки
музыковед
музыку
муи
мукасеи
муладхара
мультимедиа
мультипликация
мультсериалов
мультфильм
мультфильмде
мумбаи
мумия
мун
мунавара
мунар
мунарда
мунарынга
мунасипович
мунган
мунгаргаи
мунгаш
мундурары
мунзук
мунзуктуң
муни
муниципалдыг
муниципального
муниципальное
муниципальныи
муниципальным
муниципальных
мунку
мунмас
мунукчу
мунукчузу
мунуп
муп
муравеи
муравье
мурад
мураками
мурасаки
мурат
муратов
мургутеевич
мургутеевичиниң
мурзууна
мурманск
мурнаи
мурнакчы
мурнакчызы
мурнап
мурнуга
мурнуку
мурнунга
мурнунда
мурнундагы
мурнундан
мурнунче
мурнуу
муса
мусаи
мусин
мусинов
мустафа
мусулман
мусульман
мусульманин
мусульманнар
мухамедьяров
мухамедьярова
мухаметша
мухаметшин
мухаммад
мухаммед
мухан
мухина
мухинанның
мухоршибир
мухсин
мученое
мушников
муң
муңгак
муңгараан
муңгаш
муңу
муӊ
мф
мфа
мхат
мхт
мценского
мчаэ
мы
мыи
мыла
мында
мынды
мындыг
мынча
мынчаар
мынчага
мынчалдыр
мынчан
мынчангаш
мынчап
мыреева
мыреевои
мырныкы
мырнынче
мырыңаи
мысли
мысль
мыши
мышкин
мышление
мышления
мышь
мың
мэ
мэдээ
мэи
мэнди
мэнсфилд
мэргэн
мэри
мэрилин
мэрэчиняну
мээ
мээзинде
мээзиниң
мээн
мээни
мээнин
мээниң
мээнчилер
мээнчилерни
мээрең
мээс
мээң
мээңии
мю
мюллер
мюнхен
мюнхенге
мюрдаль
мюфиде
мягкое
мяса
мятеж
мяч
мяча
мячиктерни
мячиктиң
мячом
міне
мѳнгүн
мѳѳреи
мѳңгүн
мѳӊгүн
мүн
мүнге
мұны
мәтін
мөге
мөгези
мөгеи
мөгелер
мөгелерге
мөгелери
мөгелериниң
мөгелерни
мөгелерниң
мөген
мөгени
мөгениң
мөгенниг
мөзү
мөзүлүг
мөнге
мөнгүн
мөргүл
мөргүлү
мөрен
мөч
мөчээн
мөчээниниң
мөчээннер
мөчү
мөчүзү
мөчүзүн
мөчүзүнден
мөчүл
мөңге
мөңгеде
мөңгежидер
мөңгежидери
мөңгежидип
мөңгези
мөңгүл
мөңгүлек
мөңгүн
мөңгүнден
мөңгүннелчек
мөөгү
мөөгүлер
мөөреи
мөөң
мөөңнеп
мөөңнээшкини
н
на
наадым
наадымга
наадымның
наадымынга
наан
нааннар
нааны
наар
наарактар
наарда
наары
наарын
наарынга
наарынче
наарының
нааш
наб
набережная
наби
набирать
наблюдать
наблюдении
набор
наваан
наважап
навальныи
навас
наведении
навигации
навигационная
навигационного
навигационнои
навигационном
навигационную
навигационные
навигационныи
навигационных
навигация
навигациялыг
наводнение
наводнения
навои
навышаан
нагарджуна
наград
награда
наградами
наградил
награднои
наградные
награду
награды
награжде
награждена
награждении
над
надаль
наде
надежда
надежды
наделяев
наделяевтиң
надеюсь
надзор
нади
надо
надои
надою
надоя
надписеи
надписи
надпись
надулу
надып
надыпкан
надя
надяның
надұлұше
назад
назарбаев
назвал
названа
название
названием
названии
названию
названия
названиями
названиях
наздраче
назначен
назначена
назначение
назначении
назначения
назначить
назы
называли
называют
назыда
назылап
назылыг
назылыглар
назын
назында
назындан
назынныг
назынның
назыны
назынын
назынында
назынының
наи
наиболее
наил
наименование
наименовании
наименования
наина
нак
наказание
накануне
наклонение
наклонениезиниң
наку
накчы
накчызы
накчылар
накчыларның
накчылары
накчыларының
накчыны
накчының
наличие
наличии
налме
налык
нам
намаз
намбыраловна
намга
намгаевич
намгаи
намдакчызы
намдан
намдар
намдараа
намдары
намдарын
намдарынга
намдарында
наме
намзал
намзалов
намзыраи
нами
намны
намның
намо
намсараев
намсараевтиң
намчалович
намчылак
намы
намын
намынга
намының
нан
наньшань
наньшаня
наоборот
нап
написал
написали
написание
написания
написанных
написано
написаны
написать
напишете
напишите
направлен
направлена
направление
например
напрямую
нар
наразыларды
наразыларға
наразылыққа
нард
наречие
наречиелер
наречиелери
наркотик
наркотиктер
наркыш
наро
народ
народа
народами
народах
народная
народного
народное
народнои
народном
народностеи
народные
народныи
народным
народных
народов
народы
нарушение
нарын
нарыны
нарышкин
нарышкина
нарыыдадып
нарыыдап
наряду
нас
наса
населе
население
населения
населенных
населення
наси
насилов
наслег
наследие
наследия
наследство
наставники
настолько
настоятель
настоящая
настоящего
настоящее
настоящем
настоящему
настоящии
настроек
настрои
настроить
настя
насьональ
насьоналя
ната
наталия
наталья
наташа
наташи
нато
натпии
натрии
натуралист
натуроплаты
натурфилософия
наук
наука
науке
науки
наур
наутилус
науч
научная
научно
научного
научное
научнои
научном
научные
научныи
научных
нахимов
находилась
находились
находилось
находится
находят
находятся
находящиеся
наху
нац
нации
национал
националдар
националдыг
национализм
националистиг
националы
национальная
национального
национальное
национальнои
национальном
национальность
национальныи
национальных
нация
нациязы
нациялар
нациялыг
начал
начала
начале
начали
начало
начальниги
начальнигиниң
начальник
начальника
начальником
начальнои
начальныи
начертание
начинается
начинаться
начинаются
начиная
начне
начын
начыны
наш
наша
наше
нашего
нашеи
нашем
наши
наших
нашли
наштыг
нашу
ная
наявного
нб
нберг
нг
нга
нге
нген
нгу
нд
нда
ндан
нде
ндебеле
нджерс
ндровна
ндыр
не
неактуальным
неандертал
неаполь
неба
небе
небес
небесное
небо
небольшои
небылица
невада
невель
неверныи
невеста
невидимые
невозможно
невскии
невы
невытканныи
негевес
негеи
негелде
негелдеге
негелдези
негелдезин
негелдезинге
негелделер
негелделерге
негелделери
негелделерин
негелделиг
негелдени
негеп
негеттинер
негеттинип
него
негр
негээн
негээр
недвижимости
недели
недель
неделю
неделя
неделяда
недоступная
недоступного
нее
нежелательно
нежели
нежинск
независимо
независимости
независимость
независимых
незнаи
неи
неизвестен
неизвестна
неизвестно
неизвестные
неизвестныи
неименованного
неименованные
неименованныи
неименованным
неименованных
нек
неке
некии
неклиновскии
некорректно
некоторое
некоторые
некоторых
некрасов
некрасова
некролог
нелегал
нелли
нельзя
нельсон
нем
немежип
немежир
немеи
немелде
немелдезикенин
немелделиг
немеп
неметтинген
немец
немецкая
немецкии
немецких
немецкого
немецкои
немецком
немецтер
немецтерге
немецтерниң
немешкен
немешсин
немештир
немирович
немного
нему
немцы
немээн
немээр
немээри
нен
ненецкии
ненецкого
ненужные
ненумерованнои
необходимо
необходимое
необходимости
необходимость
необходимыи
необязателен
необязательные
необязательныи
неоднозначностеи
неоднократно
неолит
неонила
неопр
неопределе
непал
непалда
непокоре
непокоренныи
непосредственно
непосредственнои
непрерывнои
непроверенными
нептергеи
нептеревээн
нептередикчизи
нептередип
нептередир
нептередири
нептередиринге
нептереи
нептеренгеи
нептереп
нептереткен
нептереттинген
нептереңгеи
нептерээн
нептерээни
нептун
непустое
непустои
непустом
нер
нера
неразрывные
нерв
нерви
нервнои
неринге
неру
нескольких
несколько
неслихан
несмотря
несториан
несуществующее
несуществующии
нет
нетаньяху
нету
нефрит
нефти
нефть
нефтянои
нече
нечепорчукова
нечун
ни
ниагара
нианкп
нибудь
нигерия
нидерланд
нидерланды
нидерландылар
нидерландыларга
нидерландының
ние
ниж
ниже
нижегород
нижнеи
нижнем
нижнеудинск
нижнии
нижняя
низкая
нии
ниити
ниитиге
ниитижи
ниитизи
ниитилел
ниитилелге
ниитилелде
ниитилелдер
ниитилелдери
ниитилелдериниң
ниитилелди
ниитилелдиң
ниитилели
ниитилелинден
ниитилелиниң
ниитилелинче
ниитилелчи
ниитиниң
ниитичи
ниияли
ник
ника
никак
никаких
никакои
никель
ники
никита
никитин
никитина
никитич
никитична
никитюк
никлаус
ников
никова
никогда
никого
никола
николаев
николаева
николаевич
николаевича
николаевка
николаевна
николаевскии
николаенко
николаи
николаның
николас
николая
николо
николы
николь
никольск
никольская
никольское
николя
никотинниг
никто
никулин
никулина
никулинниң
нил
ним
нимажап
нимажапты
нимажаптың
ними
нин
нина
нинде
ниниң
нинту
нины
ниньо
нип
нир
нирмала
нитизи
нитроксилдиг
них
нихал
нихат
ницше
ничего
нишыду
ния
нияз
ниязов
ниң
ниӊ
нк
нка
нквд
нко
нло
нм
нна
ннар
нная
нниң
нновскии
нного
нное
ннои
нном
нному
нную
нные
нныи
нных
но
ноа
нобелевская
нобелевского
нобелевскои
нобелевском
нобель
нов
нова
новая
новгород
новеи
новелла
новеллалар
новеллистиктиг
новиков
новикова
нович
новна
ново
новоалександровскии
нового
новогоднее
новогоднии
новодевичье
новое
новои
новокуи
новом
новомихаи
новомосковск
новомосковскии
новому
новосибирск
новосибирскиге
новосибирскиде
новосибирскиниң
новосибирскои
новосибирсктиң
новостеи
новости
новотитаровскои
новочеркасскының
новую
новые
новыи
новым
новых
ногаа
ногааларда
ногаан
ногаанзымаар
ногаи
ного
ногои
ное
нои
ноин
нок
нокаут
ноль
ном
номга
номд
номда
номдан
номенклатуразы
номер
номера
номере
номинации
номинация
номинацияга
номинацияда
номинациязынга
номинациялары
номинацияны
номинацияның
номналын
номнар
номнарга
номнарда
номнарны
номнарның
номнары
номнарын
номнарынга
номнарында
номнарының
номну
номнуң
ному
номун
номунга
номунда
номундан
номунуң
номунче
номчаан
номчааш
номче
номчудар
номчукчу
номчукчуга
номчукчулар
номчукчуларга
номчукчуларның
номчукчулары
номчукчуларының
номчулга
номчулгага
номчулгалары
номчулгаларының
номчуп
номчуттунар
номчуур
номчуурга
номчууру
номчуурун
номчуурунга
нонпарель
нор
нора
норбу
норвег
норвегии
норвегия
норвегияже
норвегияның
норвеж
норвежские
норвежскии
норвежского
норм
норма
нормазы
нормам
нормативтиг
нормы
нос
носил
носителя
носова
ности
нотно
ночи
ночного
ночнои
ночные
ночными
ночь
нояб
ноябрь
ноябрьда
ноябрьдан
ноябрьның
ноября
ноян
ноянга
нояннар
нояннарга
нояннарның
нояннары
ноянны
ноянның
нояны
ноянын
ноғаи
нп
нравственность
нтв
нти
нтл
ну
нугуман
нудненко
нужен
нужна
нужно
нужную
нужны
нук
нуклеинниг
нуктары
нулгынэт
нумерованнои
нумерованные
нумерованных
нумизматика
нун
нунга
нундан
нунуң
нунче
нур
нургалиев
нургулаи
нурдавлетова
нурзат
нури
нуриевна
нурислам
нурнуң
нурсат
нурсултан
нуруузу
нуруузунда
нурыев
нут
нуттуң
нуу
нуур
ную
нуң
нуӊ
нче
нштаи
нштеи
ны
ные
ныи
ныкыыс
ным
ными
нымме
нын
ныне
нып
ныр
ных
ның
ныӊ
нь
нью
ньюкасл
ньютон
нюнорск
нюра
нюргун
няня
нү
нүгүл
нүгүлдеп
нүгүлдээшкин
нүгүлдү
нүгүлдүг
нүгүлү
нүң
нүүр
нүүрлүг
нүӊ
нұр
о
оао
оаэ
об
оба
обама
обд
обе
обезьяна
обелиск
обеспечение
обеспечения
обзор
обитавших
обитания
обитатели
обитель
обкома
обкомнуң
обкомунуң
обл
обладатель
обладательница
облазы
облазын
облазынга
облазында
облазыннын
облазынның
облазынныӊ
облазынын
облазының
облазыныӊ
облака
областарында
области
областка
областная
областного
областнои
областың
область
областька
областьта
областьтар
областьтка
областьтың
областьче
областью
областям
областях
облегчения
обложка
облсоветтиң
облысы
обмен
обновить
обозначается
обозначаются
обозначение
обозначением
обозначении
обозначения
обозрение
обои
обоих
оболь
оборачивает
оборону
обороны
обоснование
обрабатывается
обработки
образ
образа
образе
образец
образована
образование
образовании
образования
образованиям
образовательного
образовательнои
образовательных
образом
образцов
образцы
образы
обратите
обратно
обратным
обращение
обращения
обрече
обручев
обручева
обряд
обсе
обсерватория
обсерваториязынга
обслуживала
обсуждение
обсуждении
обсуждения
обуви
обухова
обучение
обучения
общ
общаться
общая
общего
общее
общежитие
общеи
общем
общения
обществ
общества
общественная
общественно
общественного
общественное
общественнои
общественную
общественным
общественных
общество
общетюркские
общие
общии
общим
объе
объедине
объединение
объединения
объединяет
объект
объекта
объектах
объектизи
объектилер
объектилери
объектилерин
объектилериниң
объектини
объектиниң
объектов
объекты
объем
объемов
объему
объявления
обыденныи
обыкновенныи
обычаи
обычная
обычно
обычного
обычные
обычныи
обычным
обычных
обь
обязателен
обязательно
обязательного
обязательны
обязательные
обязательныи
обязательным
обязательных
обязательств
ов
ова
оваа
оваалаи
оваалыг
оваарымчалыг
овечкин
ович
овна
овощевод
овур
овуру
овурунга
овцы
овчарова
овчинникова
ог
ога
огада
огаи
оганың
огаре
огдамдам
огды
оги
оглан
оглу
оглум
оглун
оглунга
оглунуң
оглы
огненная
огни
огоне
огонь
огород
огородтарда
ограничении
ограничения
ограничениями
огромное
огу
огуз
огун
огундан
огурец
огус
огуш
огыл
од
ода
одаар
одаг
одага
одагалыг
одагланып
одаи
одалга
одан
одап
одар
одарлар
одержала
одеса
одесса
одессага
одессаның
одетта
один
одиннадцатои
одиннадцать
одиноким
одкб
одна
однажды
однако
одним
одно
одновременно
одного
однои
одноиме
одном
одну
оду
одум
одун
одунган
одура
одуруг
одуругга
одуругда
одуругдан
одуруглар
одуругларны
одуругларның
одуругларын
одуругларынга
одуруглуг
одуругну
одуругнуң
одуруу
одус
одө
ое
ожидается
ожирение
ожук
ожуу
озал
озалааш
озалдап
озгат
оздоровительные
озе
озера
озеро
озеф
ознаменование
ознаменовании
означает
озноб
озолниеки
озондан
озонова
ои
оиифф
ок
ока
оказали
оказался
окато
океан
океана
океанга
океанда
океане
океания
океанны
океанның
океанская
океанче
окино
окинских
оккервиль
оккупастаан
оккупации
оккупация
оккупацияга
оккупированнои
окладников
оклахома
окна
окне
около
окончании
окончания
окончательных
окончила
окраины
округ
округа
округам
округка
округле
округление
округов
округтар
округтуң
округу
округунга
округунда
округунуң
округунче
окружающего
окружающеи
окружающии
оксана
оксид
оксфорд
окт
октаан
октаар
октаары
октааш
октавиан
октаи
октап
октапкан
октапкаш
октаптар
октар
октаргаи
октарны
октары
октарын
октаткаш
окту
октуг
октуң
октябре
октябрь
октябрьга
октябрьда
октябрьдан
октябрьның
октябрьская
октябрьскии
октябрьского
октябрьскои
октября
октяевич
окул
окулова
окунев
ол
ола
олаа
олап
олар
оларга
оларда
олардан
оларже
оларны
оларнын
оларның
оларныӊ
олары
оларын
оларынга
олбук
олдан
оле
олег
олегович
оленныи
олень
олеся
олжас
олзеи
оливелья
оливер
олии
олимп
олимпиада
олимпиадага
олимпиаданың
олимпиаде
олимпиады
олимпиакос
олимпии
олма
олонхо
олонхожулар
олонхону
олонхонуң
олуду
олумнуг
олур
олура
олурар
олурарлар
олурары
олурган
олурганнар
олургаш
олурда
олурткан
олурткаш
олуртуп
олуртур
олуруп
олурупкан
олурупкаш
олуруптарга
олуруңар
олут
олуттарын
олуттуг
олуттуң
олча
олчаан
олчазы
олчам
олче
оль
ольга
ольги
ольхон
оля
ом
омааш
омааштап
омак
омакты
омактың
оман
омар
омега
омогон
омонимах
омск
омская
омскиде
омскиниң
омскои
он
она
онаажыр
онаан
онаар
онаарының
онаашкан
онаашкыны
онааштыр
онааштырар
онааштырган
онааштырза
онат
онаңович
онга
онгу
онгут
онда
ондакка
ондактыг
ондар
ондара
ондарга
ондарлар
ондарлары
ондарның
ондарович
оне
онегин
онза
онзагаи
онзаланып
онзалап
они
оникиенко
онкология
онлаи
онлар
оннар
оннарда
оннарның
оннарынга
оннарында
онного
оннуг
оннуң
онныи
онных
оно
онов
онон
онтарио
онти
онтология
ону
онунга
онунда
онуннуң
онунуң
онунуӊ
онунче
онуң
ончалап
онче
оны
оның
оо
оода
оожу
оожуктуруп
оожум
оожургадып
оожургадыр
оожургал
оожургап
оозу
оозун
оои
оол
оола
оолак
оолакаевич
оолга
оолдар
оолдарга
оолдарлыг
оолдарны
оолдарның
оолдары
оолдарын
оолдарының
оолду
оолдуг
оолдун
оолдуу
оолдуң
оолович
ооловичтиң
ооловна
ооловнаның
оолом
оон
ооо
оор
оораш
оорга
ооргазы
ооргазын
ооргазынга
ооргазының
ооредилге
ооредилгезинин
ооренип
ооржак
ооржактың
ооржу
оорлаан
оорлаар
оорлаары
оорлаарынга
оорлаашкын
оорлап
оорлаттырган
оорлатырган
оортан
ооруг
оотпак
ооң
ооңеи
ооӊ
оп
опан
опеи
опер
опера
операже
операны
операның
оперативтиг
оператор
операторлары
оператором
оператору
операции
операцию
операция
операциялар
опере
опережает
опережающего
оперетта
оперная
оперныи
оперы
описание
описанием
описании
описания
описываемого
опись
опозоренные
определе
определение
определения
определено
определены
определяет
определяется
определяются
опровержение
оптика
оптиктиг
оптимального
оптическое
оптуг
опубликовала
опубликован
опубликована
опубликования
опубликованных
опубликовано
опускается
опущен
опции
опциональнои
опция
опциях
опшх
опыт
опыта
опытом
опыттыг
опять
ор
ора
ораагаш
орааи
ораап
ораар
ораи
оралакчы
оралакчызы
оралакчызынга
оралакчызының
оралдажып
оралдажыр
оралдажыышкыннар
оралдашкан
орамбалович
оран
оранга
оранда
орандан
оранкаи
ораннарга
ораннарның
ораннары
ораннарын
ораннарынга
оранның
оранче
оранчок
ораны
оранынга
оранында
оранындан
оранынче
оранының
орар
оратор
орбак
орбас
орбита
орбитазы
орбитальная
орбиту
орган
органа
органами
организакчы
организакчызы
организас
организастаан
организастаар
организастап
организастыг
организатор
организатору
организации
организационно
организация
организациязы
организациязын
организациязынга
организациязының
организациялар
организацияларга
организацияларның
организациялары
организацияларының
организацияның
организациях
организм
организма
организмге
организминге
организмнерниң
организмниң
организмов
организовать
органиктиг
органнар
органнарга
органнарны
органнарның
органнары
органнарынга
органнарының
органов
органы
оргаш
оргу
оргулааш
орда
орданың
орден
ордена
орденами
ордени
орденин
ордениниң
ордениннин
орденинниң
орденнер
орденнери
орденнериниң
орденниг
орденниң
орденом
орденоносныи
ордос
орду
ордуже
ордузу
ордузун
ордузунга
ордузунуң
ордузунче
ордуну
ордунуң
оре
орел
оренбург
оренбургка
оренбургская
оренбургтуң
орестовна
орехов
оригинал
оригинала
оригиналдыг
оригинального
оригинальное
ориентированию
орион
орк
орке
оркестр
оркестрге
оркестрде
оркестри
оркестрин
оркестриниң
оркестрниң
оркестром
оркка
оркта
орктуң
оркун
орлан
орлов
орлова
орловка
орловская
орловскии
орловскои
орлы
орнап
орнитология
орну
орнукшудар
орнукшударда
орнукшудуп
орнукшуткан
орнукшутканнар
орнун
орнунга
орнунда
орон
орт
орта
ортаа
ортаакы
ортан
ортач
ортузу
ортузун
ортузунга
ортузунда
ортузундан
ортузунче
ортуку
ортулук
ортулукка
ортулукта
ортулуктар
ортулуктарда
ортулуктары
ортулукту
ортулуктуң
ортулуу
ортулуунга
ортумаа
ортумак
ортун
ору
орудии
оружие
орузу
оруи
орук
орукка
орукта
оруктап
оруктар
оруктарны
оруктары
оруктарын
оруктарынга
оруктарының
орукту
оруктуг
оруктуң
орукче
орукчу
орулга
орулгазы
орулгалыг
орун
орунга
орунда
оруннары
оруп
орус
орустап
орустар
орустарга
орустардан
орустарны
орустарның
орустуң
оруу
оруун
оруунга
оруунда
оруунуң
оруунче
орфографии
орфография
орфографияның
орфографтыг
орхан
орхон
орхонда
ос
освещении
освобождение
освобождения
освоение
освоении
освоения
освоила
осени
осеннии
осень
осет
осетии
осетин
осетия
осипенко
осипов
осиповна
оскал
оскар
оске
оскелер
оскунар
оскунуп
оскунупкан
ослица
осло
осложнении
осман
османлы
осн
основана
основание
основании
основания
основатель
основе
основная
основного
основное
основнои
основном
основные
основным
основных
основу
основы
основываясь
особенно
особенное
особенности
особенностям
особенностях
особо
особое
особые
особыи
оспа
оспан
оставалась
оставался
оставаться
оставил
оставить
оставшемся
остается
осталась
остались
остальные
остальных
останется
остановка
остров
островскии
островского
остроградскии
остром
остроумова
осур
осурну
осуществлено
осуществляется
осы
от
ота
отан
отари
отв
отвагу
ответ
ответственные
ответственныи
отд
отдел
отдела
отделение
отделением
отделении
отделения
отделом
отдельно
отдельного
отдельнои
отдельности
отдельную
отдельные
отдельными
отдельных
отдых
отдыха
отдыхающие
отель
отец
отечества
отечественная
отечественного
отечественнои
отечественные
отечеством
отзывы
отка
отказа
отказано
отключает
открывающии
открылась
открыли
открылся
открыт
открытие
открытии
открытия
открытого
открытыи
открытым
откуда
отладочная
отличается
отличие
отличник
отличныи
отличным
отменяет
отметил
отметки
отмечает
отмеченные
отмечены
отмороженныи
относительно
относительности
относится
отношение
отношении
отношению
отношения
отображаемого
отображаемыи
отображаемым
отображает
отображается
отображалось
отображать
отображаться
отображаются
отображе
отображен
отображена
отображение
отображении
отображения
отображено
отов
оториноларингологии
оториноларингология
отпетые
отправленное
отпуск
отработала
отражение
отрасли
отрасль
отрывки
отрывок
отряд
отрядтың
отряды
отрядынче
отрядының
отс
отскии
отступ
отступа
отступы
отсутствие
отсутствии
отсутствовать
отсутствует
отсутствуют
отсылка
отто
отту
оттуг
оттук
оттукаи
оттулар
оттуп
оттурган
оттуруп
оттуушкун
оттуң
отца
отцентрирован
отцу
отче
отчества
отчет
отчугаш
офицер
офицери
офицерлер
офицерлерни
официалдыг
официальная
официально
официальном
официальные
официальныи
оформить
оформление
оформлении
оформлению
оформления
оформленного
оформленныи
оформленных
оформленых
оформляет
оформлять
офортар
офсет
охан
охемчик
охемчиктиң
охота
охрана
охране
охраны
оценка
оценкам
оценке
очалаң
очалаңдан
очалаңның
очень
очереди
очериги
очерк
очерки
очерктер
очерктери
очерктерни
очко
очно
очуду
очул
очулга
очулгага
очулгада
очулгазы
очулгазын
очулгалар
очулгалары
очулгаларын
очулганы
очулдурар
очулдурарга
очулдурары
очулдурбаи
очулдурбас
очулдурган
очулдургаш
очулдурттунган
очулдуртунар
очулдуртунган
очулдуртунмаан
очулдурукчу
очулдурукчузу
очулдурукчулар
очулдуруп
очур
очурнуң
очуровна
ошибка
ошибками
ошибке
ошибки
ошибкои
ошибку
ошибок
ошибочно
ошку
оъду
оъдунуң
оът
оъткарып
оъттап
оъттар
оъттуг
оъттуң
оъңхыт
оэз
ою
оюк
оюлган
оюлганнаар
оюн
оюнга
оюнда
оюндан
оюннар
оюннарга
оюннарда
оюннарны
оюннарның
оюннары
оюннарын
оюннарынга
оюннарында
оюннарынның
оюннарынныӊ
оюннарынче
оюннарының
оюнну
оюннуң
оюновна
оюну
оюнун
оюнунга
оюнунда
оюнуннуң
оюнунуң
оюнуңар
оюп
оюу
оя
ояла
оғуз
оқ
оң
оңгак
оңгар
оңгарга
оңгарлар
оңгарны
оңгул
п
па
пабло
павел
павелдиң
павла
павлик
павлов
павлович
павловна
павловны
пага
падеж
падеже
падежи
падежинге
падежинде
падежиниң
падежтер
падежтерге
падежтериниң
падежтерни
падмасамбхава
падме
паи
пак
пакистан
пакистане
пако
пакьяо
пала
палатазының
палаталыг
палате
палеолиди
палеолит
палермо
пали
палл
паломничества
пальмбах
памир
памук
памяти
памятная
памятник
памятника
памятники
памятников
памятные
памятных
память
памятью
пана
панам
пандемия
пандемияның
панджшер
пандито
пани
панин
панк
панкратов
панорама
панорамы
панчен
папа
папка
папоушкова
пар
пара
параболаның
парагваи
парад
парада
паралимпии
параллели
параметр
параметра
параметрам
параметрами
параметрах
параметре
параметрлер
параметрлери
параметрлерин
параметров
параметром
параметру
параметры
парамита
параолимпии
парасат
парасимпатическая
парашют
парень
пари
париж
парижке
парижскои
парижте
парижтиң
парижче
парк
парке
паркта
парктар
парлаан
парлаар
парлаарынга
парлааш
парладып
парлалга
парлалгага
парлалгаже
парламент
парламента
парламентизи
парламентизиниң
парламентиниң
парлап
парлаткан
парлаткылаан
парлаттынган
парлаттынганы
парлаттынып
паром
пароход
пароходствонуң
пароходтар
пароходу
парсера
партизан
партизаннарның
партии
партию
партия
партияга
партиядан
партиязы
партиязындан
партиязынның
партиязының
партиялар
партияларның
партияларының
партияны
партияның
партне
пару
пары
парыгы
пас
паспорт
паспортта
пассажир
пассажирка
пассажирлер
пассажирлерни
пассажирскии
паста
пастернак
патент
патентилер
патенты
патогенез
патока
патологии
патология
патопсихология
патриарх
патриот
патрону
патрушев
патрушева
паулу
пауль
пачелма
паш
пашка
пашта
паштанмазын
паштаныр
пашты
пашче
пб
пг
пгк
пгт
пе
певец
певица
певицы
певцы
певческии
пед
педагог
педагогика
педагогикага
педагогиказы
педагогиканың
педагогики
педагогиктиг
педагогические
педагогическии
педагогических
педагогического
педагогическои
педагогическом
педагогов
педагогтуг
педиатр
педро
пеи
пекех
пекин
пекинге
пекинче
пектиннер
пел
пелагея
пелевин
пен
пена
пенальти
пенза
пензенская
пение
пенов
пенсионер
пенсию
пенсия
пенсияда
пенсияже
пеньяроль
пепел
пер
первая
первенства
первенство
первого
первое
первои
первом
первомаи
первоначально
первую
первые
первыи
первым
первыми
первых
переаб
переведе
переведена
переведено
перевели
перевод
переводами
переводе
переводится
переводить
переводов
переводчик
переводы
переворот
перед
переда
передавать
передае
передан
переданных
передано
переданы
передать
передач
передачи
передаются
передающии
передовиков
передовиком
передовои
передовые
передовых
переехала
переи
переиздание
переименования
переменнои
переменных
перенаправление
перенаправлении
перенаправления
перенести
перенос
переноса
переносами
переносить
переопределить
переписи
переписка
переписывает
перепись
перепле
переправы
перераб
переработанное
переработке
переработки
перес
переселенцев
перестрои
пересче
переулок
переход
перехода
переходе
перечень
переше
перешла
перигеи
перигелия
период
периода
периодиктиг
периодического
периодтуг
периодунуң
перкуссия
перл
перми
пермскои
пермь
пермьге
пермьниң
перо
перон
перпендикуляр
перри
перс
перси
персид
персидскии
персидского
персона
персонаж
персонажа
персонажеи
персонажтарның
персонажтары
персонажы
персоналдыг
персоналии
персоналиялар
персоналиях
персональная
персональныи
персоны
перспективы
перстер
перстерниң
перу
перы
перье
песен
песет
пески
песни
песнь
песню
песня
песочная
песошин
петерб
петербург
петербурга
петербурге
петербургка
петербургские
петербургскии
петербургское
петербургта
петербургтан
петербургтуң
петербургтуӊ
петербургче
петербургѣ
пети
петля
петр
петра
петров
петрович
петровича
петровна
петровнанның
петровои
петровскии
петроглифы
петроград
петроградтың
петроградче
петрозаводск
петром
петропавловск
петропавловскои
петрушевского
петрушина
петтис
петя
пехота
печ
печати
печатных
печать
пи
пианист
пианистка
пиаф
пиво
пии
пикассо
пикассога
пикассонуң
пиковая
пикселях
пилацкая
пилот
пингала
пиночет
пиньинь
пио
пион
пионер
пионерлер
пионерлериниң
пир
пираты
пириңлеи
пирло
писал
писала
писали
писателеи
писатели
писатель
писателя
писать
пистолет
письма
письме
письменности
письменность
письмо
питер
питера
питт
пичтиң
пишется
пишите
пишу
пищевои
пищу
пиң
пкотс
пкс
пламя
план
плана
планаттынган
плане
планет
планета
планетага
планетазы
планеталар
планеталарга
планеталарның
планеталарының
планетаны
планетаның
планеты
планирование
планируется
планнап
планнар
планшет
планшеттер
планшеттерниң
планшеттиң
планы
планын
пластик
платин
платон
платформа
платформазы
платформы
платье
пле
плеи
племе
племен
племена
племенами
племенах
племени
племя
пленница
пленок
плену
пленумунга
плеханов
плеханова
плисецкая
плисецкаяның
плисецкии
плисецкои
плита
плод
плодотворную
плотность
плохо
площади
площадь
плутарх
плутархтың
плутон
плутония
плэи
плюрисентриктиг
плюс
пляжному
пневмония
пневмоосцилограмма
по
побег
победа
победила
победителем
победители
победитель
победу
победы
поведение
повелитель
поверхность
повествование
повествования
повести
повесть
повидло
повлияет
поводу
поволжье
повторно
повышена
повышение
повышения
погибли
погибших
погодинниң
погребения
под
подавить
подавлена
подагра
подать
подвиг
подводная
подгорная
подготовка
подготовке
подготовки
подготовку
подгруппы
подданство
поддерживает
поддерживается
поддерживаются
поддержке
поддержки
подзаголовок
подкарточка
подкова
подноминацияга
подобные
подозрительные
подольски
подписал
подписала
подписи
подпись
подполковник
подпорожье
подробнее
подробно
подробности
подробным
подруга
подряд
подсветки
подсказки
подсказку
подснежника
подст
подставить
подставляться
подстановки
подстановкои
подстраницу
подтверждает
подход
подхода
подходы
подче
подчине
подъе
пое
поединки
поезд
поезде
поездиге
поездиниң
пожалуи
пожар
позволит
позволяет
позволяющая
позволяющего
поздно
поздняя
поздравил
поздравление
поздравления
позже
позитивистерниң
позиционная
позиционнои
позиционную
позиционных
позицию
позиция
позицияга
позицияны
позкартах
познер
познерниң
пои
поиск
поиска
поисках
поиски
пока
покажет
показ
показала
показан
показана
показания
показано
показателеи
показатели
показать
показатьскрыть
показывает
показывается
показывать
показываться
показываются
покинуть
покоем
поколение
поколении
поколения
поколениях
покровская
покровские
покровское
покрышкина
пол
пола
полад
полат
полаттың
полвека
поле
полевая
полеводческои
полевои
полезно
полезные
полезных
полеи
поливанов
полиграф
полиграфия
полимерлер
полиметаллдарлыг
полина
полиомиелит
полисахаридтер
полит
политехниктиг
политехтиг
политиздат
политик
политика
политикага
политиказы
политиказын
политиказының
политиканы
политике
политики
политиктер
политиктери
политиктиг
политику
политическая
политические
политическии
политических
политического
политическои
политология
полицеи
полиция
полицияның
полк
полка
полковниги
полковник
полктар
полктун
полктуң
полку
полное
полнои
полномочии
полномочным
полностью
полные
полныи
полным
поло
половина
половине
положение
положения
полонии
полос
полоса
полосе
полоцкии
полтава
полтавчанка
полугу
полугуннун
полугунун
полулях
полусреднем
получает
получается
получала
получать
получение
получения
получено
получил
получила
получили
получило
получится
получить
полушарии
поль
пользования
пользователеи
пользователи
пользователя
польск
польскии
польских
польскои
польском
польша
польшага
польшадан
польшаның
польши
полю
полюс
полюстарындан
поля
поляк
поляков
поляна
поляр
полярная
полях
поменять
поместите
поместить
поместье
пометка
пометки
помещает
помещаются
помидор
помимо
помнили
помог
помогала
поможет
помочь
помощи
помощь
помощью
помпилиус
понесло
понимает
понимаю
понна
пономаре
понтии
понятия
понятиях
понять
поп
попадает
попков
попкова
попов
попова
поппе
поппениң
популярен
популярлыг
популярная
популярнои
популярность
популярны
попурри
попытка
попытки
пор
пора
поражение
поражением
порода
породазы
породалыг
поросят
порт
портал
портале
порталы
порталынче
портнова
портр
портреди
портредин
портрет
портретов
портреттери
портреты
португал
португалия
португалияга
португалияның
португальскии
портузу
поручению
порфирии
порфирия
порядка
порядке
порядки
порядков
порядковыи
порядок
посв
посвящ
посвящается
посвяще
посвященнои
посвященном
посвященныи
посе
посевнои
посевные
поселение
поселении
поселения
поскольку
послание
послания
после
последнего
последнее
последнеи
последние
последнии
последним
последняя
последовательно
последовательности
последовательность
последствии
последующего
пословиц
послом
посмертно
посмотреть
посна
пособие
посол
пост
поставили
поставить
постановление
постановлении
постепенно
постоянно
постоянного
постоянное
постоянных
построены
построить
постузун
поступила
потала
поталага
потанин
потанина
потанинниң
потапов
потапова
потенциал
потенциала
потерпел
потерь
потерянныи
потом
потомкам
потомки
потомков
потому
потоп
потопа
потребления
потребовать
похищение
похлебкин
поход
похоронена
похороненные
похоть
поццо
почв
поче
почему
почета
почетного
почетные
почетныи
почитаемые
почта
почти
почтовая
почтовыи
пошелюжныи
пошла
поэзии
поэзия
поэзияның
поэма
поэмалар
поэмы
поэт
поэта
поэтесса
поэтика
поэтиказы
поэтиктиг
поэтому
появившиеся
появилась
появились
появится
появление
появляется
появлялся
появляться
появятся
пояс
пояснение
пперт
пр
пра
праалтаи
прав
права
правах
правда
правде
правды
праве
правее
правил
правила
правилам
правилах
правило
правильно
правильного
правильное
правительства
правительстве
правительство
править
правка
правки
правку
правления
право
правоведение
правового
правовое
правовои
правовые
правовых
правого
правои
правок
правом
правонуң
православ
православие
православная
православнои
правосудия
праву
правыи
прага
прадедушка
праджняпарамитаның
прадо
праздник
праздники
празднования
практ
практика
практиказын
практикалап
практикалары
практики
практиктиг
практически
практическии
практическои
прапорщик
прасковья
пратюркскии
преамбула
превратятся
пред
предание
предания
предварительно
предварительныи
предгорныи
предел
пределами
пределах
пределдиг
предикаттыг
предисл
предисловие
[...]
