!
"
#
##0
##1
##10
##11
##12
##13
##14
##15
##16
##17
##18
##19
##2
##20
##21
##22
##23
##24
##25
##26
##27
##28
##29
##3
##30
##31
##32
##33
##34
##35
##36
##37
##38
##39
##4
##40
##41
##42
##43
##44
##45
##46
##47
##48
##49
##5
##50
##51
##52
##53
##54
##55
##56
##57
##58
##59
##6
##60
##61
##62
##63
##64
##65
##66
##67
##68
##69
##7
##70
##71
##72
##73
##74
##75
##76
##77
##78
##79
##8
##80
##81
##82
##83
##84
##85
##86
##87
##88
##89
##9
##90
##91
##92
##93
##94
##95
##96
##97
##98
##99
$
%
&
'
(
)
*
+
,
-
.
/
0
00
000
001
003
005
00536
007
01
0153
017395
02
0279
029
029829
03
030625
036260
04
045
05
056
06
0636
068
07
08
09
1
10
100
1000
1001
101
102
1027
103
1030
104
105
106
107
1074
108
109
1090
1093
11
110
111
112
113
114
115
116
117
118
119
12
120
1200
121
1218
122
123
124
1240
125
126
127
128
129
13
130
131
132
1326
133
134
135
136
137
138
139
14
140
1400
141
142
143
144
145
146
147
1470
148
1480
149
15
150
1500
151
152
153
154
155
156
157
158
1582
159
16
160
1600
161
162
1626
1628
163
1632
1633
1634
1635
1636
164
1640
165
1650
1652
1655
166
1669
167
168
1682
1683
1689
169
17
170
1704
171
172
1727
1729
173
174
175
176
1764
1765
177
178
1780
1785
1786
1787
179
1790
1792
1795
1798
1799
18
180
1800
1801
1802
1803
1804
1805
1806
1808
181
1812
1813
1814
1816
1817
1818
1819
182
1820
1822
1823
1824
1825
1826
1827
1828
1829
183
1830
1831
1832
1833
1834
1835
1836
1837
1838
1839
184
1840
1841
1842
1843
1844
1845
1846
1847
1848
1849
185
1850
1852
1853
1854
1855
1856
1857
1858
1859
186
1860
1861
1862
1863
1864
1865
1866
1867
1868
1869
187
1870
1871
1872
1873
1874
1875
1876
1877
1878
1879
188
1880
1881
1882
1883
1884
1885
1886
1887
1888
1889
189
1890
1891
1892
1893
1894
1895
1896
1897
1898
1899
19
190
1900
1901
1902
1903
1904
1905
1906
1907
1908
1909
191
1910
1911
1912
1913
1914
1915
1916
1917
1918
1919
192
1920
1921
1922
1923
1924
1925
1926
1927
1928
1929
193
1930
1931
1932
1933
1934
1935
1936
1937
1938
1939
194
1940
1941
1942
1943
1944
1945
1946
1947
1948
1949
195
1950
1951
1952
1953
1954
1955
1956
1957
1958
1959
196
1960
1961
1962
1963
1964
1965
1966
1967
1968
1969
197
1970
1971
1972
1973
1974
1975
1976
1977
1978
1979
198
1980
1981
1982
1983
1984
1985
1986
1987
1988
1989
199
1990
1991
1992
1993
1994
1995
1996
1997
1998
1999
2
20
200
2000
2001
2002
2003
2004
2005
2006
2007
2008
2009
201
2010
2011
2012
2013
2014
2015
2016
2017
20170731141731
2018
20180726010024
2019
202
2020
2021
2022
2024
203
2030
2031
204
2040
205
2050
206
2060
207
2070
2079
208
2080
209
2090
21
210
2101
211
212
213
214
215
216
217
218
219
22
220
2200
221
222
2224
223
224
225
226
227
228
229
23
230
231
232
234
235
236
237
238
239
24
240
241
242
243
244
244413
245
246
2464
247
248
249
25
250
2500
251
252
253
254
255
256
257
258
259
26
260
2600
262
263
264
265
266
267
268
269
27
270
271
273
274
275
276
277
279
28
280
281
282
283
284
285
286
287
288
29
290
291
292
293
294
295
296
297
299
3
30
300
3000
301
302
303
304
305
306
307
308
309
31
310
311
312
313
314
315
316
318
319
32
320
321
322
323
325
327
328
329
33
333
334
336
339
34
340
342
343
346
348
349
35
350
351
352
355
356
357
36
360
3600
363
364
365
366
367
368
369
37
370
372
373
375
376
379
38
380
381
384
385
387
388
389
39
390
391
392
393
395
397
399
4
40
400
4000
402
404
405
406
407
408
41
410
414
415
416
419
42
420
423
425
426
427
428
43
430
431
437
44
440
443
444
446
447
448
45
450
451
455
456
46
460
463
464
468
4691
47
472
48
480
481
482
484
49
490
494
5
50
500
5000
50000
502
508
51
511
512
518
52
527
53
530
536
54
540
544
547
55
550
552
554
555
558
56
560
562
569
57
570
575
576
577
578
58
580
587
588
589
59
591
593
597
598
6
60
600
6000
601
605
608
61
612
617
618
619
62
623
627
628
63
630
631
632
633
64
640
65
658
66
660
665
67
674
679
68
682
69
699
7
70
700
7000
71
710
712
72
720
7281
73
74
742
744
745
75
750
7516
753
758
76
765
7655
7692
77
78
7810
79
798
8
80
800
8000
81
82
83
84
840
85
850
85270
85398
85457
85981
86
86218
863
87
87383
88
880403
89
89503
9
90
900
907
91
911
91178
92
923
93
93916
94
95
953
95382
96
96342
966
97
975
977378
978
98
985
99
9944
9965
999
:
;
<
=
>
?
@
[
\
]
^
_
`
a
aa
about
ac
academia
academic
academy
acta
action
activity
acura
acı
ad
ada
adam
adi
adım
af
afak
afanassjewa
africa
after
ag
again
against
age
agency
ages
agilight
ah
ahmet
ai
ait
aji
akad
al
albert
album
alcohol
aldı
aleksandr
aleksievich
aleph
alexander
ali
alice
all
allmusic
aloe
alp
alpha
alphabet
altay
alternative
altın
alıs
am
amas
amateur
america
american
an
ana
anadolu
anakkale
analysis
ancient
and
andrews
android
angeles
animation
anime
ank
ankara
ann
anna
anne
annual
antoloji
antolojisi
aog
ap
apg
apple
application
approximations
april
aq
ar
aralık
aras
arasında
arc
archimedes
archive
archives
are
arf
aria
arkadas
armag
arnold
ars
arslan
art
arthur
article
articles
artist
artists
arts
as
asia
asian
asp
aspx
association
astrophysical
asya
asymptotic
asymptotics
at
atatu
ates
ati
atle
atlı
atsız
audio
auf
august
aus
australia
austria
aut
author
authorities
authors
av
avicenna
avrupa
award
awarded
awards
ax
aydın
ayı
az
b
ba
baba
babelio
baby
back
bad
bag
baha
bahaeddin
bahai
bak
baku
bakıs
ball
band
barbara
barcelona
barre
barıs
bas
base
based
basim
baskı
bassi
bayerische
bayern
bb
bbc
bc
bd
bdfutbol
be
behavior
bei
being
ben
beni
benim
ber
berlin
berners
bes
best
bet
beta
better
between
bey
beyaz
bezmen
bg
bi
bibliographisches
bibliothe
big
bilim
billboard
bin
bio
biogra
biographical
biographies
biography
biology
bir
birinci
birlig
birlikte
birth
biyografi
biz
bizim
black
blica
bn
bnf
bo
bodak
bog
bogota
bond
bonuses
book
books
bosnia
boston
boundary
box
boxing
boy
boys
boz
br
brahmagupta
bremen
bridge
brill
britannica
british
broadway
brockhaus
brown
bruce
bruno
bt
bu
buck
buddhanet
bugu
bul
bund
bursa
business
by
c
ca
cabb
cambridge
camilla
can
cancer
canis
cardi
carl
case
cat
catalana
catalogue
cc
ccl
cctv
cd
ce
cell
center
centerasia
central
centre
century
ceremony
cern
cevap
ch
challenges
championat
champions
championship
championships
chandelier
charles
chart
chartsbin
chelovek
chemical
chemistry
chess
child
children
chile
china
chinese
chisholm
cho
cia
cilt
cite
civilization
cl
clark
class
clinical
club
cnig
cnt
co
coach
cold
collection
college
columbia
columns
com
come
commons
community
companion
company
complementary
complete
complex
computer
con
conditions
conference
congress
connect
conor
contemporary
content
contributions
control
controlled
convergence
cooperation
corporation
cortex
cosmopolitan
countries
country
cover
cq
cr
craig
credo
cristiano
critical
cropper
cs
cu
cultural
culture
cumhuriyet
cumhuriyeti
cup
curie
curren
current
cx
cyberleninka
cycling
cz
czytelnik
d
da
dafne
dag
daha
daily
dali
dallas
dan
dance
daniel
daniela
danilin
das
data
database
date
daughter
david
day
days
dc
de
dead
debut
december
dede
def
default
defterler
deg
del
deledda
delhi
deli
della
demoscope
den
deneme
dental
dentistry
department
depression
der
dergisi
des
desc
destanı
detail
deutsche
deutscher
deutschland
development
devlet
di
dia
diaz
dic
dictionary
die
dies
differ
digital
digitalarchivioricordi
dil
dili
dim
dimash
dimensional
dino
diphtheria
directory
discogs
disney
display
displaystyle
distinguished
division
dizisi
dm
dmitry
do
doc
docs
dog
doi
dokl
don
donald
donna
doo
dordrecht
doris
dos
down
dq
dr
dream
drops
ds
du
duma
duncan
dutrieu
dw
dynamics
e
early
earth
east
eb
ec
economic
ed
edebiyat
edebiyatı
edison
edited
edition
editor
edr
eds
edu
education
ef
efc
effect
eg
ehir
ehit
ehrenfest
ein
eine
einstein
ek
ekaterinburg
ekim
el
eli
elizabeth
elliptic
elvin
em
emre
en
enciclope
enciklopedija
encyclopedia
encyclopædia
encyklopedia
end
engineering
england
english
enstitu
entertainment
entorhinal
ep
epidemiology
equations
equus
er
erdinc
erding
erectus
eref
eren
ergenekon
erich
ermeni
es
eserleri
eski
espan
espn
essays
esther
et
ethnologue
ethz
eu
eur
eurasian
euro
europe
european
ev
events
eviri
evolution
ex
example
exist
express
f
faa
facebook
factbook
facts
faculty
faith
false
family
famous
farms
fashion
fatih
fc
fe
feat
federal
federation
fedoroff
fellows
female
fembio
feng
ferus
festival
fi
fiction
fifa
fight
fighter
fighting
fila
film
filmportal
final
find
finite
fire
first
fitrat
flowers
flu
fm
fo
food
foot
football
footballtop
footy
for
forbes
formation
forum
found
foundation
fox
fr
frac
franc
france
frances
francisco
frank
frankfurt
freddie
free
french
frida
from
fu
full
func
functional
fund
futbol
future
fußball
fyhn
g
ga
gala
game
games
garip
gary
gay
gazeta
gazi
ge
gec
gece
gel
gelis
gen
genc
geneastar
general
generation
genericorum
genetics
geonames
george
gerc
gerd
germany
get
gets
giris
girl
girls
gizli
gks
glamour
global
globe
gnd
go
god
gold
golden
gomez
gone
gonzaga
good
google
gorby
got
gouv
gov
goya
grace
gran
grand
grave
grazia
great
greatest
greek
green
greenwood
grey
group
gruber
grup
gu
guardian
guatemala
guide
h
hafting
hakkında
halk
hall
hamilton
han
hand
handbuch
hands
hans
harvard
has
hasan
have
hayat
hayatı
haziran
hbo
hcl
hd
he
health
heart
heatseeker
hedy
henry
her
hero
heroes
herta
herzegovina
hg
hider
high
hika
hill
hippocampus
his
historia
historical
history
hno
ho
hobbit
hobbs
hoca
hollywood
home
homo
honda
hong
honorary
hooligans
hope
hospital
hot
house
how
hrsg
hrvatska
htm
html
http
https
hu
human
humanities
huun
huur
hybrid
i
iana
iapt
iast
ic
ica
ice
icon
id
iditarod
ieee
if
iffhs
ii
iii
iir
iirler
ik
il
ile
ilig
ill
illustrated
im
image
imdb
imzasıyla
in
inc
inde
independent
index
india
indian
influence
influenza
info
inform
information
iniesta
inst
instagram
institut
institute
instytut
international
internet
interview
into
introduction
inventor
ipa
iprage
iran
is
isabart
isadora
isbn
islam
iso
iss
issn
issue
ist
istanbul
it
its
itunes
iv
ix
iz
izlə
j
ja
james
january
japan
japanese
jas
jazz
jean
ji
jn
jo
john
johnson
join
joins
jones
jose
joseph
journal
jpg
jpl
jstor
ju
july
june
just
k
ka
kabaklı
kadın
kahlo
kahraman
kalogera
kalp
kan
kara
kardes
karl
kass
kasım
kathrine
kazak
kazakistan
kazan
ke
keen
keith
keller
kemal
ken
kes
key
kha
khoomey
khural
ki
kileri
kim
kinci
king
kino
kisiid
kitabı
kitap
kitaplar
kitapyurdu
kk
klose
kma
know
ko
kommersant
konus
kopuz
korea
kos
kovrizhnykh
krako
krasstat
kremlin
ktu
ku
kudaibergen
kurt
kus
kz
kı
kırk
kırmızı
kız
kızı
kızıl
l
la
laboratory
lady
lamarr
lambert
lan
lang
language
languages
lar
ları
las
last
latin
laura
law
ldi
ldu
le
lead
leaders
leadership
league
learning
leben
lee
legacy
legend
leiden
leksikon
lenta
leo
leopard
ler
lere
lerine
les
lessing
let
letis
letopis
lett
letters
leutgeb
levi
lewis
lfloor
lgeog
li
lib
library
libris
life
lig
like
linear
link
lis
list
literackie
literature
little
live
liveinternet
liverpool
lives
lk
lla
ller
ln
lo
local
log
logan
london
long
longrightarrow
los
lost
love
lp
lpon
lr
lrd
ltd
lti
ltu
lu
lua
lucy
luis
lı
lıksız
m
ma
mac
machine
madalyası
madrid
magazin
magazine
mail
maize
major
man
management
manager
manchester
manga
manocha
map
marathon
march
marcia
mari
maria
marie
marilyn
mark
marriage
mars
mart
marti
mary
masalları
mass
mat
mataji
math
mathematica
mathematics
mathsf
matricaria
maxim
may
maya
mayer
mayıs
mcclintock
mcgregor
me
meclisi
mecmua
med
medal
media
medica
medical
medicine
meditation
meduza
mehmet
mekh
mektup
men
menchu
mengi
mental
mer
mercury
meseleleri
meselesi
mesi
method
mevlu
mi
michael
mid
middle
millet
milli
milliyetc
minnette
mit
mitsubishi
mma
mmain
mmajunkie
mo
modern
module
molodguard
moma
mongolia
mongolica
mongush
monroe
montalcini
moore
more
morning
morris
morrison
moscow
moser
mosque
most
mother
motors
mourou
movement
movie
mp
mparatorlug
mr
ms
msc
msk
msu
mtv
mu
multi
mun
munro
munzinger
murad
museum
music
mustafa
mvp
my
myriophyllum
myself
mı
n
na
nadia
nagrazhdenie
name
named
names
narod
naroda
narrative
nasa
nasıl
nate
nation
national
nationalbibliothek
nationale
nations
nature
nauk
nauka
nautilus
nbsp
nc
ncaa
nchen
ncu
nd
nde
ndu
ne
necessary
nedir
nermin
nes
net
netherlands
network
neugebauer
neuroscience
never
new
news
newsletter
newspaper
newton
nft
nicht
night
nikola
nin
nisan
nit
niversitesi
nkp
nl
nler
nlu
no
nobel
nobelprize
node
nominations
nominum
norske
north
norton
norway
not
notable
notları
november
now
nr
nsw
nu
num
nun
nur
ny
nya
nyası
nytimes
nz
nın
o
obr
observer
ocak
och
october
ocug
ocuk
ocuklar
ocukları
of
office
official
offset
oficial
ofset
og
ogilvie
oglu
oh
ok
ol
old
olivella
olympics
on
one
online
onze
ool
op
opc
open
opt
optimal
or
order
ordu
org
organic
orhun
original
origins
oro
osman
osmanlı
ostrom
otel
other
oup
our
out
over
oxford
oyun
p
pa
pacific
package
paeonia
page
pages
pamyat
pan
pandemic
par
param
paris
park
part
pas
past
paul
pay
pc
pdf
pe
peace
pearl
penrith
people
peoples
peptide
per
performance
person
personen
persons
perspectives
perturbation
perturbed
peter
pg
philip
philosophy
phone
photos
php
phys
physics
physiker
physiology
pi
picasso
pioneering
pioneers
pkk
pl
place
planet
plant
play
player
players
please
plisetskaya
plofker
pm
pmid
pmr
po
podvig
poetry
poezje
point
political
politics
pompilius
poor
popular
population
portal
portrait
posed
post
pound
power
pp
practice
present
president
presidential
press
princeton
prize
prizes
pro
problem
problems
proc
proceedings
prof
professor
profil
profile
project
pru
pt
public
publications
publishers
publishing
pvm
q
qa
qazvin
qi
que
queen
quot
r
ra
race
rankings
rar
rauschert
ray
rceil
rda
rdu
re
readfootball
real
realmadrid
rec
receives
recipients
record
records
red
ref
refbegin
refend
reference
references
regular
regularization
release
religion
religious
remarque
rembrandt
ren
rene
report
representation
repu
republic
res
research
resmi
resources
results
retrieved
review
reviewer
revival
rgu
ri
ria
ribosomal
ribosomes
richard
riga
right
rightarrow
rights
rigoberta
rin
rita
rk
rkc
rkdartists
rkistan
rkiye
rkler
rkmen
rkoloji
rku
rlu
ro
road
robert
rock
rocky
rodovid
role
rollyson
roma
roman
ronald
ronaldo
rosreestr
ross
rosstat
round
routledge
rowohlt
royal
rq
rsl
rsssf
rt
ru
run
rus
rushandball
ruslat
russia
russian
rustt
s
sa
sabah
sacred
sahaja
sainkho
saint
sair
sakha
salvador
sambo
same
san
sanskrit
santa
sapiens
sarı
saturday
savas
sayı
sb
sc
scholar
school
sci
science
sciences
scientific
scientist
scientists
sciurus
se
sea
search
sec
second
secret
see
selc
selected
selena
selma
senior
september
series
service
sesler
set
sf
sfd
sfn
sh
sharq
she
sherdog
show
shri
shtml
si
siberian
sil
silence
sin
sinan
singer
single
singles
singular
sinoussi
sio
sir
site
sites
siyah
siz
sizim
sky
slam
small
smith
smo
snow
so
soccer
soccerway
social
society
solo
solution
solutions
some
son
song
songs
sons
source
sources
south
soviet
sovsport
sp
space
spain
span
spanish
spatial
spb
speculative
spiegel
sport
sportbox
sportec
sports
spring
springer
st
staatsbibliothek
staff
stanbul
star
stars
start
state
states
statistical
statistics
stats
stefan
steklov
sterreichische
sterreichischen
sterreichischer
store
storia
stories
story
street
strefa
strickland
strikeforce
structure
stu
stub
studia
studies
study
stwowy
styles
su
succession
sufficient
sultan
sunday
sung
suppl
sur
suttner
svetlana
switzer
sydney
symbol
syn
system
systems
szymborska
t
ta
tag
take
takes
talk
tan
tanana
tang
tarih
tarihi
tarihin
tarihine
tas
taylor
tchihatcheff
te
team
teklif
telegram
telegraph
temmuz
template
ten
tercu
teresa
term
tesla
texas
text
texte
texts
tff
th
than
that
the
their
theory
they
third
this
thomas
three
through
ti
tico
tim
timas
time
times
title
to
today
ton
toni
top
toplamalar
toquz
tour
toyota
tr
track
tradition
trail
transfermarkt
transformation
transit
translated
translation
trial
trt
trust
ts
tt
tu
turan
turk
turkey
turkic
turkish
turner
tuva
tuvaonline
tuvapravda
tuvsu
tuvy
tv
twentieth
twitter
two
tyva
tzdb
tı
u
ua
ubat
uc
ucoz
ufc
ug
uk
ultimate
un
una
unc
uncia
und
under
understanding
unesco
union
united
universal
university
unspecified
untranslated
up
uparrow
uploads
uravn
uri
url
ursula
uruguay
us
usa
use
ustos
utc
uyghur
uz
uzbekistan
v
va
vakfı
var
vatan
vc
ve
vera
verlag
vero
version
vi
vicky
video
vienna
view
vii
viii
violence
virus
vis
viva
vk
vladimir
vogel
voices
vol
volume
von
vostlit
vs
w
wa
wall
wambacher
wang
war
warszawa
was
washington
watch
wave
way
wayback
wcm
we
web
webarchive
website
wec
wechanged
week
weekly
welt
west
what
when
where
white
who
wi
wide
wiersze
wife
wiki
wikipedia
will
william
williams
win
wind
windows
winner
winners
wins
winter
wissen
with
without
woman
women
won
wops
work
works
world
wp
wps
wrestling
wrestrus
writers
wu
wwe
wwf
wwoof
www
wybrane
wydawnictwo
wydawniczy
x
xa
xi
xii
xiii
xiongnu
xiv
xix
xls
xn
xrightarrow
xv
xvi
xvii
xviii
xx
xxi
xxii
xxiii
xxiv
xxv
xxvi
xxvii
xxviii
xxx
xxxi
y
ya
yag
yalnız
yar
yas
yay
yayin
yayın
yayınları
yazar
yazarlar
yazarın
yazi
yazılmıs
ye
year
years
yeler
yellow
yemen
yeni
yeniden
yes
yku
yle
yo
yoga
yol
yolculuk
yonath
york
you
young
your
youtube
yu
yunus
yyih
yı
yıl
yılı
z
zaman
zbl
zel
zerinde
zerine
zh
zi
zidane
zik
zinedine
zip
ziya
zlu
zmir
zoff
zones
zu
zur
zweig
{
|
}
~
£
¥
§
©
«
¬
­
®
°
±
²
³
·
¸
º
»
½
×
ð
÷
ø
ħ
ı
ık
ım
ın
ınaraltı
ının
ŋ
ŋri
ƣ
ƴ
ɉ
ɔ
ə
əə
ɪ
ɲ
ʃ
ʊ
ʏ
ʒ
ʷ
ʻ
ʼ
ʿ
˃
ˈ
ˉ
ˌ
ː
ˑ
˘
̀
́
̂
̃
̄
̅
̆
̇
̈
̊
̋
̌
̓
̔
̣
̧
̨
̪
̬
̯
̲
̳
͂
͘
͜
α
β
βββ
γ
γγ
δ
ε
ζ
η
ι
λ
ν
ο
π
περι
ρ
ς
υ
φ
χ
ω
а
аа
аажок
аажы
аазаан
ааи
аал
аалга
аалдан
аалдап
аалдар
аалдарга
аалдарның
аалдың
аалчы
аалчылар
аалчыларга
аалчыларны
аалы
аалынга
аалындан
аалының
аан
аап
аар
аараан
аарааш
аарак
аарга
ааржы
ааржыны
аары
аарыг
аарыгга
аарыгдан
аарыглар
аарыгларга
аарыгларны
аарыгларның
аарыглары
аарыгларын
аарыгларынга
аарыгларында
аарыгларының
аарыглыг
аарыгны
аарыгның
аарыи
аарыкчылар
аарын
аарынга
аарының
аарып
аарыы
аарыын
аарыынга
аарыындан
аарыының
аарыыр
аарыычал
аас
ааска
аастыг
абаев
абаи
абакан
абаканның
абало
абан
абанкур
абант
абасоло
абат
абате
абдуллина
абдыкаримов
аблажеи
абрамович
абрау
абсолюттуг
абт
абу
абылаи
ав
ава
авазы
авазын
авазынга
авазының
аваи
авалары
авалокитешвара
авам
аваның
авар
аварияга
аварлар
авг
август
августа
августка
августта
августуң
авдотья
аветиковна
авиации
авиационныи
авиация
авиценна
авиценнаның
аврора
австралии
австралия
австралияның
австри
австрии
австрия
австрияга
австрияның
австро
авт
авто
автобиография
автобус
автобустар
автомашина
автомобиль
автомобильдин
автомобильдиң
автономная
автономного
автономнуг
автономныи
автопортрет
автор
автора
автореф
автореферат
авторлар
авторларның
авторлары
авторларының
авторлуг
авторнуң
авторов
авторская
автору
авторы
авыи
авырал
авыралды
авыралдыг
аг
агаар
агаарга
агаарда
агаардан
агаарлыг
агаарның
агаары
агаарының
агаи
аганак
агапонов
агар
агарткан
агата
агафья
агач
агбаан
агбаанович
агглютинативтиг
агент
агентство
агидель
агинск
агитация
аглакыр
агнес
агни
аграрлыг
аграрныи
агроном
агрономнап
агроүлетпүр
агыи
агым
агымның
агымы
агымының
агын
агып
ад
ада
адаа
адаан
адаанга
адаанда
адаандан
адаанче
адааны
адааның
адаар
адаарга
адаарда
адаарлар
адаары
адаарының
адаваи
адавас
ададан
адазы
адазын
адазынга
адазының
адаи
адак
адаккы
адакы
адам
адамның
адан
аданың
адап
адар
адаровтуң
адары
адарынга
адатгынар
адаттынар
адаттынган
адаттынып
адатынып
адвокат
аддамс
аделина
аджи
административно
административтиг
администраттыг
администрации
администрация
адмирал
адольф
адрези
адрианов
адш
ады
адыг
адыгбаи
адыгжы
адыгуузун
адыжын
адым
адын
адынга
адындан
адының
адып
адыр
адырларлыг
адырлары
адырларын
адырларынга
адырларының
адырлып
адырлыр
адырлырының
адырның
адыры
адырылган
адырылдым
адырын
адырынга
адырының
адырып
адыш
адыштарын
ажа
ажааган
ажаакчызы
ажаакчызылап
ажаап
ажаар
ажааттынган
ажар
ажо
ажы
ажыг
ажыгзымаар
ажыглаан
ажыглаар
ажыглаарга
ажыглаары
ажыглаарын
ажыглаарынга
ажыглааш
ажыглаваи
ажыглавас
ажыглавышаан
ажыглаи
ажыглал
ажыглалда
ажыглалдыг
ажыглалче
ажыглалы
ажыглап
ажыглаттынар
ажыглаттынып
ажыдар
ажыдары
ажыдарын
ажыдарынга
ажыдып
ажыдыышкын
ажыдыышкыннарны
ажыдыышкыны
ажыдыышкынынга
ажык
ажыктыг
ажыл
ажылга
ажылгыр
ажылда
ажылдаан
ажылдааны
ажылдаар
ажылдаары
ажылдаарын
ажылдаарынче
ажылдааш
ажылдаваи
ажылдавышаан
ажылдадып
ажылдажылга
ажылдажылгазының
ажылдаи
ажылдакчы
ажылдакчызы
ажылдакчызынга
ажылдакчызындан
ажылдакчылап
ажылдакчылар
ажылдакчылары
ажылдакчыларын
ажылдакчыларынга
ажылдакчыларының
ажылдан
ажылдап
ажылдар
ажылдарга
ажылдарда
ажылдарны
ажылдарның
ажылдары
ажылдарын
ажылдарынга
ажылдарында
ажылдарынче
ажылдарының
ажылды
ажылдыг
ажылдыр
ажылдың
ажылче
ажылчы
ажылчын
ажылчыннар
ажылчыннарның
ажылчыннары
ажылчыны
ажылы
ажылын
ажылынга
ажылында
ажылындан
ажылынче
ажылының
ажып
ажыр
ажырбас
ажыткан
ажытканнар
ажытканы
ажыткаш
ажыттынар
ажыттынган
ажыттынып
ажыы
ажыын
аз
аза
азар
азарганчыг
азарлар
азарх
азас
азаттық
азбука
азерб
азербаи
азиат
азиеи
азии
азия
азияга
азияда
азияже
азияның
азнабаева
азот
азоттуг
азы
азып
азыраан
азыраар
азыраары
азырал
азыранды
азырап
азыы
аи
ак
ака
акад
академиги
академии
академик
академика
академиктиг
академическии
академию
академия
академияга
академиязы
академиязын
академиязынга
академиязынның
академиязынче
академиязының
академияны
академияның
акварели
аки
акира
аккан
аксе
аксельруд
аксиома
аксы
аксымаар
аксын
аксынга
аксында
аксындан
аксының
аксып
акт
акте
актер
активно
активное
активности
активную
активчи
актов
актриса
актрисазы
актрисаның
актуальные
актыг
акустика
акустиктиг
акушер
акчурин
акш
акша
акшага
акшазы
акшаны
акшаның
акы
акызы
акызын
акызының
акыи
акылары
акылыг
акым
ал
ала
алаак
алампа
алан
алаш
алаштың
албаан
албадаан
албадап
албадапкан
албаи
албан
албания
албанны
албанныг
албанның
албаны
албанын
албанынга
албанындан
албанының
албас
албаты
албатызы
албомд
алвес
алгаан
алган
алганда
алганнар
алганы
алганынга
алганының
алгап
алгаш
алгоритм
алгы
алгыдан
алгыи
алгылаан
алгыны
алгырып
алгыш
алдаг
алдаи
алдан
алдар
алдаржаан
алдаржыдып
алдарлыг
алдарны
алдарның
алдары
алдарын
алдарынга
алдарының
алды
алдывыс
алдыгы
алдым
алдын
алдынаи
алдынары
алдынган
алдынналчак
алдынның
алдынып
алдырлыг
алдыы
але
алекса
александр
александра
александрии
александрия
александров
александрович
александровна
алексеев
алексеевич
алексеевна
алексеи
алексея
алексиевич
алжир
алза
алзы
алзын
алзып
алзыр
али
алиев
алилуева
алимова
алина
алиса
алишер
алкалоидтер
алла
аллах
аллея
аллилуева
аллофон
алма
алмаз
алматы
алматыда
алматының
алоэ
алп
алт
алтае
алтаи
алтан
алтая
алтын
алтынтоп
алфавиди
алфавидин
алфавит
алфавитке
алфавитте
алфавиттен
алфавитти
алфавиттиң
алчы
алчызы
алы
алыи
алыксап
алып
алыр
алырга
алырда
алырлар
алыры
алырыл
алырын
алырынга
алырынче
алырының
алыс
алыскан
алысканда
алыспас
алышкы
алышкылар
алышкыларның
алышкының
алыышкын
алыышкынга
алыышкыннын
алыңар
аль
альберт
альберта
альберто
альбом
альбомнары
альбомну
альбому
альбомун
альманагынга
альманах
альманахка
альметьевск
альмухаметович
альфа
альфреда
алюмини
алюминии
аляскага
алған
ам
ама
амбын
амга
амгы
амдан
амданныг
амданы
амдо
амдыгаа
амдызында
амдыызында
америк
америка
америкага
америкада
америкаже
американ
американскии
американских
американского
американскои
американың
америке
америки
аминокислоталарны
амир
ампула
амстердам
амстердамга
амстердамче
амударья
амур
амфора
амы
амыдыраар
амыдырал
амыдыралга
амыдыралда
амыдыралдан
амыдыралды
амыдыралдыг
амыдыралдың
амыдыралче
амыдыралчы
амыдыралы
амыдыралын
амыдыралынга
амыдыралында
амыдыралының
амыдырап
амылыг
амылыглар
амылыгларга
амылыгларның
амыр
амырап
амытан
амытанга
амытандан
амытаннар
амытаннарга
амытаннардан
амытаннарны
амытаннарның
амытаннары
амытаннарының
амытанны
амытанның
амытаны
ан
ана
анаа
анаада
анаи
анализ
анализа
анализи
анализин
аналитиктиг
аналитическая
анан
анастасия
анатолии
анатольевич
анатольевна
анатомия
анахуань
анахуаньның
ангара
ангарск
ангел
ангела
ангелина
англ
англи
англии
англия
англияга
англияда
англияже
англияның
ангы
ангыда
ангылал
ангыланып
анджелес
андре
андреа
андреев
андреева
андреевич
андреевна
андреи
андрес
андрея
андріи
анекдот
анекдоты
анестезиология
анимация
аниме
анимеде
анимениң
анисья
анкар
анкара
анкарага
анна
аннаның
анны
анохин
анри
ансамбли
ансамблинге
ансамблиниң
ансамбль
ансамбльдар
ансамбльдиң
ансамбльдың
ансар
ант
анта
антиктиг
антология
антомонов
антон
антонина
антонович
антоновна
антропов
антропологии
антропология
антуан
антуфьев
анфиса
анчах
аны
аныяанда
аныяандан
аныяк
аныяктар
аныяктарга
аныяктарны
аныяктарның
аныяктары
аныяктарының
ань
ао
ап
апаар
апаарга
апаары
апаарын
апаарынга
апарган
апарганда
апарганнар
апарганы
апарганын
апаргаш
апаргылаан
апарза
апарып
апкан
апн
апогеи
аполлон
аполог
аппазов
аппарадынга
аппарадының
аппарат
аппарган
аппарып
апр
апрель
апрельде
апрельден
апрельдиң
апреля
аптар
аптара
аптечная
ар
ара
араатан
араб
арабдан
аравии
аравыста
арага
арагага
арагазы
арагазын
араганы
араганың
арагачы
аразы
аразын
аразынга
аразынд
аразында
аразындан
аразынче
аразының
араи
аракчаа
арал
аралдың
аранчын
аранчынның
араптан
арат
араттар
араттарны
араттарның
араттың
арахистиг
арбаи
арбактап
арбан
арбаны
арбачаков
арбитражныи
арбын
арга
аргага
аргадан
аргажок
аргазы
аргазын
аргазынга
аргазының
аргалар
аргаларны
аргаларның
аргалары
аргаларын
аргаларынга
аргаларының
аргалыг
аргамчы
арган
арганы
арганың
аргентин
аргентина
аргентинага
аргентинаның
аргентины
арголик
аргументы
арда
аревэ
аренда
арефьева
аржаан
аржаана
аржаане
аржааннар
аржаанны
аржааны
аржан
аржык
арзаи
арзылан
арзылаң
арина
аристотель
аристотельдиң
ариф
арифметике
арк
аркадии
аркадьевич
арм
армении
армения
арменияга
арменияның
армии
армия
армиязы
армияның
армстронг
армян
арнольд
арны
арнын
арнынга
арнында
арнындан
арсенал
арслан
арт
арта
артар
артас
арте
артемьевич
артизи
артист
артиста
артистер
артистери
артистерниң
артисти
артистиң
артистка
артистке
артистов
арткан
артканнары
арткаш
артпаан
артпас
артпышаан
арттырар
арттырган
арттырып
артур
арты
артыжаар
артык
артыкы
артылдаи
артынга
артында
артынчылары
артып
артырган
артырып
артыш
артыы
архаиктиг
архангельск
археолог
археологии
археологическая
археологические
археологическии
археологических
археология
археологтар
археологтуг
архив
архива
архиве
архиви
архивинде
архивиниң
архивировано
архивная
архивные
архивтээн
архимед
архимеда
архимедти
архимедтиң
архиповна
архитектор
архитектура
архитектурлуг
ары
арыг
арыгга
арыглаар
арыглаары
арыглааш
арыгланып
арыглап
арыглыг
арыгның
арыдыр
арык
арын
арында
арыннар
арынныг
арынның
арыны
арыс
арыскан
арысканныг
арыы
арыя
ас
асаул
асаф
асбест
асеева
асимптотика
аскак
аскан
аскар
аскеров
аскорбинниг
аскы
аскынга
аскыр
аслан
аспект
аспекты
аспирант
аспирантура
аспирантурага
аспирантураже
аспирантуразын
аспирантуразынга
аспирантуразынче
аспирантураны
аспирантызы
ассамблея
ассамблеязының
ассистент
ассистентизи
ассистентилеп
ассоциации
ассоциация
ассоциациязы
ассоциациязының
асср
аст
астана
астанада
астафьев
астафьева
астероид
астероида
астра
астрахань
астрель
астролог
астрология
астроном
астрономии
астрономия
астрономнар
астрономнарның
астрономнуг
астына
астында
асфальт
ася
ат
ата
атага
атасы
ататюрктуң
ататүрк
атеист
атка
аткаарлаар
аткаарлаи
аткаарлап
аткан
аткаш
атлант
атланта
атлас
атлетик
атлетика
атлетикага
атлетике
атлетико
атмосфера
атмосферазының
атмосфераның
атом
атомнары
атомного
атомнуг
атрибут
атсыз
аттар
аттарлыг
аттарны
аттары
аттарын
аттарынга
аттарындан
аттарының
атташези
атты
аттыг
аттырган
аттырып
аттың
аты
атырау
аудио
аудитории
аудитория
аудуна
аул
аун
афанасии
афанасьев
афанасьева
афанасьевич
афанасьевна
афганистан
афганистанда
афганистане
афинага
афины
африка
африкага
африкада
африкадан
африкан
африканың
африке
африки
афроамерикан
афродита
афучжило
ах
ахиезера
ахмадулина
ахмед
ахмет
ахметович
ахтамов
ача
ачазы
ачазын
ачазынга
ачазындан
ачазынның
ачазының
ачам
ачамның
ачинск
ачы
ачызы
ачызында
ачызындан
ачылыг
ачыты
аш
ашаа
ашаан
ашаанга
ашаандан
ашаанның
ашааның
ашак
ашака
ашакка
ашактыг
ашина
ашка
ашказын
ашкан
ашкаш
ашмарин
ашмарина
ашнин
ашпас
аштаан
аштаар
аштааш
аштанып
аштап
аштырган
аъды
аъдым
аъдын
аъдынга
аъдының
аът
аътка
аъттан
аъттаныпкан
аъттар
аъттарны
аъттарның
аъттары
аъттарын
аътты
аъттыг
аъттың
аъш
аэроклувунга
аэропорт
аюпов
ая
аяар
аяк
аякка
аялга
аялгазы
аялгазын
аялгалар
аялгаларны
аялгалары
аян
аяна
аянаның
аянгаты
аяннажылгазынга
аянныг
аяны
аянын
аяс
аяңгаты
аң
аңаа
аңгы
аңгыда
аңгылаан
аңгылаар
аңгылава
аңгылаи
аңгылал
аңгыланы
аңгыланып
аңгылап
аңгылаттынган
аңгыр
аңдара
аңдарлып
аңнаар
аңнаары
аңнап
аңнар
аңнарны
аңнарның
аңны
аңныыр
аңның
аңчы
аңчылар
аңчының
аӊаа
аӊгы
б
ба
баазаң
баар
баарга
баарда
баарның
баары
баарын
баарынга
баарында
баарының
баатар
баба
бабии
бабич
бабур
бабушка
бавария
бавун
бавуу
баг
багаи
багана
баглаар
баглааш
баглап
баглар
багны
багы
багын
бада
бадалов
бадар
бадарчи
бадарчы
бадма
бадминтону
бадра
бады
бадылаан
бадыланчып
бадып
бадыргы
бадыргыны
бадыргының
бадырып
бадыткаан
бадыткаар
бадыткаары
бадыткал
бадыткап
бадыткаттынган
бажы
бажын
бажынга
бажында
бажындан
бажынче
бажынында
бажының
бажыынга
бажың
бажыңга
бажыңда
бажыңдан
бажыңнар
бажыңнары
бажыңны
бажыңның
бажыңче
бажыңы
бажыңын
бажыңынга
бажыңында
бажыңындан
бажыңынче
бажыңының
бажыӊ
бажыӊынга
баз
база
базазы
базазынга
базар
базарынга
базе
базым
базымын
базып
базыр
базырык
базырыктар
базырыының
базыышкын
базыышкынга
базыышкыны
базыышкынын
баи
баимов
баир
баирович
баировна
баишев
бак
бакалавр
бакалавры
бакалаврын
бакизович
баксыраан
баксыраар
баксырап
бактаап
бактың
баку
бакуга
бакунин
бакчаларда
бакыт
бал
бала
балабанов
балалбас
балары
баласы
балауса
балашова
балбал
балбес
балгазын
балган
балдан
балдаң
балды
балдыр
балерина
балерины
балет
балета
балетмеи
балеттиң
балкан
балкар
балл
баллада
баллак
баллактың
баллдар
балтии
балчии
балчыи
балчыр
балыг
балыгланган
балыглаткан
балык
балыкесир
балыктан
балыктап
балыктар
балыктыг
балыкчы
балыы
бан
банк
банке
банкызы
банкызының
банных
бану
бап
бапа
бар
бараалгаан
бараалгадып
бараалгап
бараалгаткан
бараан
барааннар
бараанын
барабанов
барак
баранова
барба
барган
барганда
барганнар
барганы
баргаш
баргузин
баритон
барлык
барнаул
барон
барре
барс
барса
барселона
барселонага
барселонаның
барселону
барселоны
барто
бартольд
барун
барчукова
бары
барык
барыкаан
барыкаанның
барымдаа
барымдаазы
барымдаалаар
барымдаалааш
барымдаалап
барымдаалар
барымдааларда
барымдаалары
барымдаалыг
барын
барып
барыс
барыын
бас
баскан
баскаш
баскетбол
баскетболга
баскетболу
басмыл
басмылдар
басня
бассеи
басср
бастырган
бастырып
басы
батальон
батальоннуң
баткан
баткар
баткаш
батманов
батор
батпас
бату
батыр
бахия
бахреи
бахчисараи
бачыт
бачыттыг
баш
башинформ
башк
башка
башкарар
башкарыкчы
башкарыкчызы
башкарылга
башкарып
башкир
башкирии
башкирияның
башкирлер
башкирлерниң
башкирская
башкирские
башкирскии
башкирского
башкирское
башкирскои
башкортостан
башкортостана
башкортостанда
башкортостане
башкортостанның
башкы
башкыга
башкыдан
башкызы
башкызын
башкызының
башкылаан
башкылаар
башкылаи
башкылап
башкылар
башкыларга
башкыларның
башкылары
башкыларым
башкыларының
башкым
башкыны
башкының
башня
баштаан
баштаар
баштаары
баштадып
баштаи
баштак
башталга
баштап
баштары
баштарынга
баштарында
баштаткан
башты
баштыг
баштың
баштыңнары
баштыңчы
баштыңчызы
баштыңы
баштыңынга
баштыңының
башҡорт
баян
бақ
ббк
бе
бег
бегзи
беглер
беглери
беглерниң
бедиа
бедидер
бедидип
бедии
бедиин
бедик
бедикче
бедип
бедээн
бежар
бежен
бежина
без
безин
безопасности
беи
бек
бекдик
беки
бексимээр
бел
белан
беларуси
беларуская
беларусь
белая
белги
белгород
белгородскои
белдир
белдири
белдиринге
белдиринде
белдиринден
белек
белекке
белектер
белен
белеткел
белеткелди
белеткели
белеткелин
белеткелинге
белеткенип
белеткенир
белеткеп
белеткээн
белеткээни
белеткээр
белеткээри
белеткээринге
белеткээш
бели
белина
белка
белла
белов
белова
белого
белои
белок
белоктар
белоктуг
беломорск
белор
белорус
белорусс
белоруссии
белоруссия
белоруссияга
белоруссияның
белоцарск
белчиир
белые
белыи
белых
бельгии
бельгия
бельгияга
бельгияның
беляева
бен
бензин
бениң
бер
бербезин
бербеи
берберова
бербес
бербээн
берге
бергедеп
бергедээн
бергези
бергезин
бергелер
бергелерге
бергелерни
берген
бергенде
бергени
бергенин
бергеннер
бергенов
бергеш
бергилээн
берди
бердим
бердинген
бердингени
бердинип
бердинипкен
бере
берегу
береи
берем
берен
берзе
бери
бериллии
берип
берипкен
бериптер
беркли
берлин
берлинге
бернар
бернерс
берт
берта
бертик
бертинге
бертинде
бес
беспаленко
бесси
бессмертныи
бестиг
бет
бета
бетин
бетинде
бетти
бетховен
беш
бешикташ
бешки
бештен
би
биатлонга
бибер
библеи
библиогр
библиографическии
библиография
библиографтыг
библиоинформация
библиотека
библиотеказы
библиотеказынга
библиотеказында
библиотеказының
библиотекалар
библиотеканың
библиотекарь
библиотеке
библиотеки
бидольо
биеэги
бижек
бижектер
биживес
биживээн
бижигилээн
бижидип
бижии
бижиин
бижиинге
бижиинде
бижииниң
бижиир
бижиирде
бижиири
бижиирин
бижииринге
бижик
бижикке
бижикте
бижиктен
бижиктер
бижиктерде
бижиктерден
бижиктери
бижиктерин
бижиктеринде
бижиктеринден
бижиктериниң
бижиктерни
бижиктерниң
бижикти
бижиктиг
бижиктиң
бижикчизи
бижимел
бижимелдеринде
бижип
бижитинген
бижиткен
бижиттинген
бижиттинер
бижиттинип
бижиттинмээн
бижиттирген
бижээн
бижээни
бижээчи
бижээчизи
бижээш
бизе
бизнес
бизнесмен
бии
биишев
биишева
бил
билбеи
билбес
билбээн
билге
билген
билгеш
билги
билдилиг
билдинген
билдингени
билдингир
билдингири
билдине
билдинер
билдинип
билдинмес
биле
билек
билелиг
билеп
билзе
билзек
билзектер
билиг
билигге
билиглер
билиглери
билиглерин
билиглериниң
билиглерни
билиглиг
билигни
билигниң
билии
билиин
билиишкин
билип
билир
билири
билирин
билиринге
билчип
биобиблиогр
биобиблиографическии
биогеография
биогр
биографии
биографика
биографическая
биографические
биографическии
биография
биографиях
биолог
биологические
биологических
биология
биологтуг
биосфера
биосферлиг
биохимик
бир
бирги
бирде
бирден
бирман
бирээ
бирээде
бирээзи
бирээзин
бирээзинге
бирээзинде
бирээзиниң
бирюкова
бис
биске
бистер
бистерни
бистерниң
бисти
бистиг
бистии
бистин
бистиң
бистиӊ
бисче
биче
бичежек
бичези
бичезин
бичеи
бичелдеи
бичен
биченмал
бичии
бичиизи
бичиизинде
бичиизинден
бичиилеп
бичик
бичурин
бичуринниң
бишкек
благова
благодаря
блау
бле
близ
блинкова
блинова
блог
блогеров
блок
блоктуг
блоктуң
блюз
бнц
бо
бобалаашкын
богатырева
богба
богда
богдан
богданов
богдашева
богона
бода
бодаан
бодаар
бодаарга
бодааш
бодаваи
бодаган
бодаи
бодал
бодалга
бодалдар
бодалдарга
бодалдардан
бодалдары
бодалдарын
бодалды
бодалдыг
бодалдың
бодалчы
бодалы
бодалын
бодалынга
боданган
боданып
боданыры
бодап
бодараан
бодарадып
бодарап
бодров
боду
бодум
бодумну
бодун
бодунга
бодунда
бодундан
бодуннуң
бодуннуӊ
бодунун
бодунуң
бодунуӊ
бодунче
бодуң
бодуңар
бодуңарның
бодуңнуң
бодхи
боевому
боевые
боевых
боец
божа
божаан
божудар
божулга
божуп
божуур
бои
бок
бокс
бокса
боксе
бокска
боксу
боксче
боктаевич
бол
болат
болбаазырадып
болбаазырадыр
болбаазырадыры
болбаазыраткан
болбаан
болбаанда
болбазын
болбаи
болбас
болбушаан
болга
болгаи
болган
болганда
болганнар
болганчок
болганы
болганын
болганындан
болгар
болгарии
болгария
болгарияның
болгаш
болгу
болгулаар
болду
болдум
болдунар
болдунмас
болдур
болдурар
болдурбазынга
болдурбас
болдурган
болдуруп
более
болезнеи
болезни
болезнь
болз
болза
болзувусса
болзумза
болзун
болзунам
болзуңарза
болзуңза
болистка
болистказы
болу
болуксаар
болуп
болур
болурга
болуру
болурул
болурун
болурунга
болурунуң
болуушкун
болуушкуннар
болуушкуннарны
болуушкуннарның
болуушкуннары
болуушкуннарын
болуушкуннарының
болч
болчу
болчукчу
болып
болыпты
больница
больных
большая
больше
большевик
большевиктер
большие
большим
больших
большого
большое
большои
большом
большую
болған
бомба
бомбалаашкын
бомбардири
бомбардировщиктер
боо
боова
боодал
боозун
боолап
боолар
боолуг
боом
бооп
боор
боорга
боорда
боорзак
боорун
боостаа
боотур
боп
бор
бора
борагул
борбак
борбактың
бордо
борец
борис
бориса
борисова
борисович
борисовна
боровиченко
борус
боруссия
борцов
борцы
борьба
борьбе
борьбы
бостон
босфор
бот
ботан
ботаник
ботаника
ботаниктиг
ботка
боттандырар
боттандырарынга
боттандырган
боттандырып
боттанып
боттар
боттары
боттарын
боттарынга
боттарындан
боттарының
боттуг
боттуң
бочаров
бочварова
бош
бояровка
бояршинов
боярыня
бр
бразилия
бразилияга
бразилияның
бразиль
браи
брак
братск
братскии
братья
браун
брахма
брахмагупта
брахмагуптаның
брахманың
брестскои
бригад
бригада
бригадага
бригадазы
бригадазын
бригадазынга
бригадазынче
бригадазының
бригаданы
бригаданың
бригаде
бригадир
бригадири
бригадирлеп
бригадиром
бригаду
бригады
британ
британия
британияның
бритт
брокгауз
брокгауза
бронзовыи
бронзы
брулетова
бруно
брусьяга
брянск
брянская
бсэ
бу
бубенчик
буваи
буга
бугажык
бугазы
бугалар
буганың
бугу
будаваңар
будапешт
будапештке
будда
буддага
буддажы
буддазы
буддалар
будданы
будданың
буддизм
буддизма
буддизмге
буддизмде
буддизмни
буддизмниң
буддии
буддист
буддистер
буддистерниң
буддисчи
будегечи
будегечиев
будем
будет
буду
будук
будуктар
будуктарлыг
будуктары
будуктарын
будуктуг
будун
будунуң
будуп
будут
будуу
будучи
будущего
будущее
бужар
буза
буздякскии
бузундулары
бузуп
бузур
буи
буквы
буклет
булак
булат
булатов
булгар
булгарлар
буле
булези
булезинге
булун
булут
булуттар
булуттарның
булуттарының
булуң
булуңга
булуңнарындан
булуңнуг
булуңнуң
булуңу
булуңчук
булуңчуктуң
бульвар
бумын
бумынның
бундеслига
бундеслигага
бундеслиганың
бунина
бур
бурангулов
буратино
бурган
бурганга
бурганнаи
бурганнар
бурганнарга
бурганнарның
бурганнары
бурганны
бурганныг
бурганның
бурганчы
бурганы
бурдукава
бурен
буржуаз
бурса
буру
бурун
бурунгаар
бурунгу
бурунгунуң
буруу
буруудадып
буруудаткан
буруузун
буруузунуп
буруул
буруулуг
буруңгу
буруӊгу
бурхан
буря
буряад
бурят
бурятии
бурятия
бурятияга
бурятияда
бурятиянның
бурятияның
бурятскии
бурятского
бурятское
бурятскои
буряттар
бус
буступ
бут
бутаева
буттап
буттары
буттарын
бутту
буттуг
буттуң
буур
буура
буураашкынының
буураи
буурап
буурул
бухаа
бухарест
бухгалтер
бухтуев
бушлат
буэнос
буян
буянныг
буянның
буяны
буянын
бы
бывшая
бывшего
бывшии
быдаа
быдаргаи
быжа
быжар
быжыг
быжыглаан
быжыглаар
быжыглаарынга
быжыглап
быжыгып
быжыктырар
быжып
быжыр
быжырар
быжырган
бызаа
бызаазы
бызаанчы
бызаанчының
бызааны
бызаңчы
был
была
былаажып
были
было
бын
быстро
быстродеи
быстрыи
быстрых
быт
быта
быть
бышев
бышкан
быштак
быштакты
бың
быңны
быңның
быңчы
бье
бэи
бэнд
бэтмен
бээ
бээзи
бээр
бээрге
бээри
бээрин
бээринге
бээринден
бээриниң
бээрлер
бюджет
бюллетень
бюро
бюрозунуң
бюст
бюстузун
бір
бѳлүк
бѳлүктүн
бүге
бүгү
бүгүде
бүгүдеге
бүгүдениң
бүгүнү
бүде
бүдер
бүдээл
бүдүжү
бүдүжүн
бүдүжүнүң
бүдүмел
бүдүмелдер
бүдүмелдерге
бүдүмелдерден
бүдүмелдери
бүдүмелдерни
бүдүмелдерниң
бүдүмелди
бүдүмелдиң
бүдүмели
бүдүн
бүдүнгүр
бүдүнү
бүдүрген
бүдүрер
бүдүрерде
бүдүреринге
бүдүрүкчү
бүдүрүлге
бүдүрүлгеден
бүдүрүлгези
бүдүрүлгезин
бүдүрүлгезиниң
бүдүрүлгелер
бүдүрүлгелиг
бүдүрүлгениң
бүдүрүп
бүдүш
бүдүштүг
бүдүү
бүдүүзүнде
бүдүүлүк
бүзээлеп
бүзээлеткен
бүзүревес
бүзүрел
бүзүрелдиг
бүзүрели
бүзүреп
бүзүрээн
бүзүрээр
бүле
бүлеге
бүледе
бүледен
бүлези
бүлезин
бүлезинге
бүлезинде
бүлезинден
бүлезиниң
бүлелер
бүлелиг
бүлени
бүлениң
бүрбү
бүргеп
бүрен
бүрзекеи
бүрү
бүрүде
бүрүзү
бүрүзүн
бүрүзүнге
бүрүзүнде
бүрүзүнден
бүрүзүнүң
бүрүлер
бүрүлери
бүрүлерин
бүрүлеринде
бүрүлериниң
бүрүлерлиг
бүрүлүг
бүрүн
бүрүнү
бүрүткел
бүрүткеттинген
бүрүткээн
бүткен
бүүрек
бүүректер
бүүректиң
бұл
бөгүн
бөд
бөдүүн
бөдүүнчүткен
бөкпек
бөлгүм
бөлгүмнүң
бөле
бөлүглел
бөлүк
бөлүкке
бөлүктен
бөлүктер
бөлүктерге
бөлүктери
бөлүктериниң
бөлүктерниң
бөлүктү
бөлүктүң
бөлүкче
бөлүү
бөлүүн
бөлүүнге
бөлүүнде
бөлүүнден
бөлүүнче
бөлүүнүң
бөмбүк
бөмбүктү
бөмбүрзектиң
бөмбүү
бөмбүүн
бөмбүүнге
бөрт
бөрттүг
бөрілі
бөрү
бөрүлер
бөөп
в
ва
вавилон
вага
вагон
вадим
ваз
вазелин
вазовскии
вазовского
ваи
вак
вакцин
вакцина
вакцинопрофилактика
валентин
валентина
валентины
валерии
валерия
валерьевич
валиди
валовои
валуи
вальков
вальс
валюта
валя
вам
вамбахер
ван
ванга
ванжа
вань
вар
варвар
варвара
варела
варенье
вариант
вариантызы
вартанян
варшава
варшавага
варшаваның
вас
васи
василии
василиса
василисы
василия
василь
васильев
васильева
васильевич
васильевна
васильевнага
ватикан
ватикана
вафля
ваш
вашингтон
ваң
вв
введена
введение
вгик
вди
вднх
вдовина
ве
веб
вега
вегетативтиг
веде
ведомости
ведут
ведущая
ведьмами
ведьмы
везер
веи
век
века
веках
веке
векке
веков
векте
вектен
вектер
вектерде
вектерниң
вектиң
вектиӊ
вела
великая
великие
великии
великих
великобритании
великобритания
великобританияга
великобританияның
великого
великои
великом
великорусского
величаи
вена
венага
венг
венгр
венгрия
венгрияга
венгрияның
венера
венерада
венераның
венкатесан
вентиляция
вера
вердер
верди
верещагина
верли
вернулась
вернулся
вероника
версии
версия
версиязы
веру
верх
верхне
верхнеи
верхнеудинск
верхнии
верховного
верховныи
веры
весе
весна
весны
весовои
вести
вестник
весь
ветви
ветер
ветеран
ветеранов
ветераны
ветеринар
ветеринарлыг
вече
вечер
вечера
вечернии
вечерняя
вечныи
веществ
взаимодеи
взвод
взводтуң
взводунуң
взгляд
взгляды
взрослых
ви
виа
вибрации
вид
вида
видам
видах
виде
видео
видные
видов
виза
византии
викимапии
викимедиа
википедии
википедия
википедияга
википедияда
википедиядан
википедияның
викискладе
викицитатнике
викишыгжамырда
виктор
виктора
виктория
викторович
викторовна
вилиткевич
вилль
вилюи
виноград
винограда
виноградов
виноградова
винсент
винтовка
виолетта
виолончелист
виртуальныи
вирус
вирустуң
висконсин
вислова
виталии
витальевна
витамин
витаминнер
витаминни
витаминниң
витебск
витман
вице
вич
вишне
вишняның
вка
вклад
включает
включая
вконтакте
вконтактеде
вкп
вл
влад
влади
владивосток
владимир
владимира
владимирович
владимировка
владимировна
владимиром
владислав
влак
власти
власть
влияние
влксм
вместе
вместо
вна
вначале
вне
внедрения
внесении
внешнеи
внешние
вновь
внутреннеи
внутренних
во
вовк
водка
водных
водород
водородтуң
воды
воевода
воениздат
военная
военно
военного
военное
военнои
военныи
вожатыи
вождя
возвращение
возглавил
возглавить
воздеи
возделывания
возможно
возможности
возможность
возмущеннои
возраста
возрасту
возрождение
возрождения
вои
вокал
вокач
вокзал
вокруг
волга
волгоград
волгоградка
волеи
волжскои
волк
волкан
волкац
волков
волконская
волконскии
волна
волнения
володарскии
володина
володинои
волость
волошина
волхонская
волчек
волчихина
волшебники
волшебнои
волынкина
вольная
вольнои
вольф
воля
вооруже
вооруженных
вопрос
вопросам
вопросу
вопросы
воробье
воробьев
воронеж
воронежке
воронежская
воронежтиң
воронина
воронцова
ворота
ворошиловград
восемь
воск
воскресение
воскресенье
воспитание
воспитании
воспитания
воспользоваться
воспоминание
воспоминании
воспоминания
воспринимаю
восприятия
восприятиях
вост
восток
востока
востоке
востокова
востоковед
востоковедение
востоковедения
востоковедов
восточная
восточно
восточного
восточнои
восточныи
восточных
восьми
восьмои
вот
воткинск
воше
вошла
вошли
впервые
впере
впереди
впо
вратары
вратарь
врач
врачеи
време
времена
времени
время
врп
вручения
вручил
вручили
вс
всгаки
все
всеволод
всегда
всего
всеи
всем
всемирная
всемирного
всемирныи
всему
всериале
всерос
всероссии
всесоюзныи
всех
вская
вскии
встреча
встречи
вступ
всхв
всю
вся
вт
втб
вторая
вторник
второв
второго
второе
второи
втуң
ву
вузов
вуи
вфильме
вфильмеверх
вфильмениз
входит
вчера
вы
выбора
выборах
выборы
выдающиеся
выдающии
выдающихся
выи
выиграл
выиграла
выиграли
вынь
вып
выполнении
выполнила
выпуск
выпуска
выпускники
выражает
высокие
высокии
высоких
высокого
высокои
выставка
выставках
выставке
выставки
выставок
выступала
выступающии
выступления
высшая
высшего
высшеи
высшие
высших
выхода
выходит
выше
вышел
вышестоящего
вышла
выявлены
вьетнам
вэи
вэо
вюзи
вяземская
вячеслав
вячеславович
г
га
гаар
гаараар
гаараары
гаарал
гааралы
гааралынга
гаарап
гааш
габричевского
габриэль
гаваи
гавань
гавриил
гаврилова
гаврилович
гавриловна
гага
гагарин
гагарина
гагауз
гада
гадан
гаджиева
гадып
гаже
газ
газа
газали
газета
газете
газеты
газизова
газовои
газтарның
газтыг
газтың
газы
газынга
газынче
гаи
гак
гал
гала
галактикалар
галарга
галарым
галатасараи
галдар
галерея
галереязы
гали
галигузов
галиев
галина
галины
галсан
галстук
галымжан
гальего
галя
гам
гамлет
гамма
гамчык
гамчыктыг
ган
гандан
гандбол
гандбола
гандболга
гандболистка
гандбольнои
гандбольныи
ганди
гандиниң
ганиева
ганың
гао
гаогюи
гаоцзюи
гап
гарантии
гарар
гарвард
гардемарины
гарипов
гариповтуң
гарифович
гарлыкчы
гармошка
гарник
гарылга
гарып
гас
гастрит
гастриттиг
гастрольдап
гатчина
гафури
гаш
гбови
гбу
гвардеи
гвардии
гвардия
гвардияның
гватемала
гвинея
гг
где
гдр
ге
гебауэр
геворк
геи
гектар
гектара
гектардан
геленджик
гелеф
гелии
гелугпа
гельбке
ген
гена
гендуне
генеалогия
генерал
генерала
генералдыг
генералы
генетика
генетиктиг
гении
гения
геннадии
генс
геогр
географ
географгиз
географии
географических
географического
география
географиязы
географтыг
географы
геодезия
геол
геолог
геологии
геология
геологтуг
геометрия
геополитика
георгиевич
георгиевна
георгиевскии
георгии
георгия
гер
геральдика
герасимов
герб
гербарии
гербы
герд
герман
германиеи
германии
германия
германияга
германияда
германияже
германияны
германияның
германовка
гернек
геродот
героев
герои
героини
героиня
героическии
героя
героях
герта
герти
гертруда
герцен
герцена
герцене
герцог
гессен
гестапо
геше
ги
гибдд
гибель
гибридизация
гиге
гигиена
гигиеназы
гигиены
гилем
гим
гималаи
гимн
гимназия
гимназиязын
гимназиязынга
гимназиязының
гимназияны
гимнаст
гимнастика
гимнастикага
гимнастике
гимнастики
гинекология
гиниң
гиреи
гирин
гитара
гитарист
гитис
гк
гкал
гкая
гкои
гл
глав
глава
главе
главная
главного
главнои
главныи
главы
глагола
глаза
глазами
глеб
гликозид
гликозидтер
глобализации
глубоковскии
глухонемых
глюкоза
гмо
гнаровская
гнаровскои
го
гоар
гоби
говард
говорит
гог
гоголь
гогольдуң
год
года
годах
годов
годом
году
годы
годым
гои
гол
голдар
голдарны
голду
голиевская
голланд
голов
головле
головои
голову
голос
голоса
голубои
голун
гомаң
гомес
гоместиң
гонка
гонолулу
гончарова
гор
гора
горбаче
горбунок
гордимер
гордон
гордость
горе
горечавка
горком
горкома
горкомнуң
горловое
горно
горныи
горняк
город
города
городам
городах
городе
городецкая
городище
городов
городская
городские
городских
городского
городскои
горшкова
горы
горькии
горького
гос
госпиталь
госпитальга
господа
госпожа
гость
гостях
государств
государства
государственная
государственного
государственное
государственнои
государственном
государственности
государственную
государственные
государственныи
государственными
государственных
государство
государству
гоу
гоңгураи
градова
градус
граждан
граждане
гражданин
гражданская
гражданские
гражданским
гражданских
гражданского
гражданское
гражданском
гражданство
граматика
грамм
грамматика
грамматиктиг
грамота
грамотои
грамоты
гран
гранд
границы
грантов
граф
график
графика
графики
графиктиг
графиня
графит
грация
грач
грача
граче
грвл
гре
гребнев
греи
грек
греко
гректер
гренландия
греции
грецияның
греч
гржимаи
григо
григориан
григории
григория
григорьев
григорьевич
григорьевна
гризодубова
грим
гримм
грин
грипп
грипптиң
гроза
грозныи
громова
гросс
гроссмеи
груз
грузии
грузин
грузия
грузовик
грум
грумм
групп
группа
группе
групповая
группы
грэмми
грэс
грязнов
грязнова
гст
гтрк
гу
губанова
губернатор
губернатора
губернатору
губернии
губерния
губернияга
губерниязы
губерниязынга
губерниязынның
губерниязынныӊ
губерниязының
губерниязыныӊ
губернияның
губкин
губкинского
губскии
гузаль
гулигань
гуль
гульмира
гульфия
гуля
гуманит
гуманитарлыг
гуманитарные
гуманитарныи
гуманитарных
гумерова
гумиле
гумилев
гун
гундарева
гунн
гуннар
гуннов
гунуң
гуп
гур
гурвич
гурлар
гурларны
гурларның
гурларныӊ
гуров
гурскии
гуру
гуры
гурьевич
гусеи
гусиноозе
густав
густавович
густавовна
гуш
гы
гызы
гылаажы
гылаажында
гылаажының
гылааш
гылаашта
гын
гырары
гырган
гырткан
гыртып
гыртыр
гырып
гыч
гыыл
гыылчы
гьялва
гьяцо
гэс
гюи
гюльсюн
гүнгөр
гүң
д
да
даа
даады
даажы
дааи
даалга
даалгазы
даалгазын
даалгалар
даалгаларны
даалганы
даалы
даан
даанга
дааның
даап
даараан
даараар
даараныкчы
даараныр
даараныыр
даарап
дааскан
дааш
дааштыг
даваа
даваи
даван
даванын
давид
давидович
давление
давыдов
давыдова
даг
дагаа
дагба
дагга
дагда
дагдан
дагдыныкчы
дагдыныкчызы
дагестан
даглар
дагларга
дагларда
дагларның
даглары
дагларын
дагларынга
дагларында
дагларынче
дагларының
даглыг
дагны
дагның
дагылга
дагып
дагыр
дагыыр
дадаазын
дадар
дае
даже
дажы
дажын
дажының
дажып
дажыыр
дазыл
дазылдары
дазылдыг
дазылы
дазылын
дазылындан
даи
дак
дакпаи
дакпыр
дакпырлап
дал
далаа
далаи
далаш
далаштыг
далга
далган
далгандан
далганны
далганын
далганындан
далда
далдан
далдар
далдарга
далдарны
далдары
далдарын
далды
далдыг
далдың
дале
дали
далила
далиниң
далче
далы
далын
далынга
далының
даль
дальневосточного
дальневосточныи
дальнего
дальнеи
дальнем
дальше
даля
дам
дама
дамба
дамды
дамдын
дамир
дамчаан
дамчыдар
дамчыдылга
дамчыдылгазы
дамчыдылгаларны
дамчыдылганы
дамчыдылганың
дамчыдып
дамчып
дамчыткан
дамчыштыр
дамчыыр
дамыр
дамырак
дамыраң
дамырларның
дан
дандар
данзын
данзырын
дани
данилин
данилова
данилович
даниловна
даниэл
дания
данияның
даннои
данные
данныи
данным
данных
данчаи
дао
даосизм
дапкыр
дар
дараа
дараазында
дараазындагы
дараалашкак
дараалаштыр
дарбаа
дарга
даргазы
даргазын
даргазынга
даргазының
даргалаан
даргалап
даргалар
даргалары
дарган
дарганың
даргыи
даржаа
даржаи
дарии
дарыг
дарыи
дарыма
дарыы
дарыын
дарья
дат
дата
даты
дацанның
даш
даша
даши
дашка
дашкаар
дашта
даштан
даштар
даштарлыг
даштарны
даштарның
даштары
дашты
даштыг
даштыкы
даштыкыга
даштыкыда
даштыкыдан
даштыкыже
даштын
даштындан
даштың
дая
даяан
даяанның
даяк
даян
даянган
даяновна
даянып
даң
даңгына
даңгыраа
даңгырак
даңза
даңзы
даңзыда
даңзыже
даңзызы
даңзызын
даңзызында
даңзызындан
даңзызынче
даңзыны
два
двадцать
дважды
две
двенадцатая
двенадцать
двигатель
движение
движения
двои
дворец
дворце
двудольные
двудольных
двумя
двух
де
дебют
дебютировала
дебюттаан
дева
деви
девип
девискээр
девискээрге
девискээрже
девискээри
девискээрин
девискээринге
девискээринде
девискээринден
девискээриниң
девискээринче
девискээрлер
девискээрлери
девискээрлерин
девискээрлеринге
девискээрни
девичестве
девочек
девочка
девушка
девушки
девяти
девятов
девять
дег
дегбес
дегбээн
деген
дегтяре
деда
дедир
дедушка
дезер
дезип
дезипкен
деи
дек
декабре
декабрист
декабрь
декабрьда
декабрьдан
декабрьның
декабря
декан
деканы
декарт
декарта
дел
дела
делам
делать
делгеи
делгелге
делгелгеге
делгелгези
делгелгезинге
делгелгезиниң
делгелгелер
делгелгелерге
делгелгелери
делгелгелерниң
делгелгениң
делгем
делгеми
делгеминде
делгеминче
делгемнеринде
делгемнеринче
делгеп
делгередип
делгереңгеи
делгээн
делегады
делегат
делегатом
делегации
делегеи
делеги
деледда
дело
деловои
дель
дельта
дельфиннер
дем
дембил
дембилдеи
демги
демдеглелдер
демдеглелдери
демдеглелдерин
демдеглелдерни
демдеглеп
демдеглеттинген
демдеглеттинип
демдеглээн
демдеглээни
демдеглээр
демдеглээри
демдек
демдектер
демдектери
демдектерин
демдектериниң
демдектерлиг
демдектерни
демдекти
демдектиг
демдээ
демдээн
демдээниң
демир
демирден
демирниң
демирович
демисежип
демисежир
демисел
демиселге
демиселди
демиселдиң
демиселиниң
демнежип
демниг
демократ
демократии
демократия
демократтыг
демоскоп
ден
дендии
дене
денисов
день
деньги
деп
департамент
департаментизиниң
департаментиниң
депортиво
дептер
дептеринче
депутады
депутадынга
депутадының
депутат
депутата
депутатов
депутатом
депутаттап
депутаттар
депутаттары
депутаттарының
депутаты
депшилгелиг
депшээн
дер
деражно
дерева
деревне
деревни
деревня
дерево
дерзиг
дерзии
дериг
дерсу
дес
дескен
дескеш
дески
дескинер
дескинип
деспи
десюк
десятилетия
десять
дет
детеи
детектив
дети
деткимче
деткимчези
деткимчезин
деткимчени
деткип
деткээн
детская
детскии
детского
детскои
детском
детства
детстве
детство
детьми
деч
дешарн
деятели
деятель
деятельности
деятельность
дең
деңге
деңгер
деңгерлер
деңзи
деңзиге
деңзизи
деңзилиг
деңзилээри
деңнежип
деңнежир
деңнел
деңнелге
деңнелде
деңнелдиг
деңнели
деңнелин
деңнелинге
деңнелинде
деңнелинден
деңнелиниң
деңнеп
деңнээрге
дж
джаз
джами
джампа
джан
джанның
джеи
джек
джексон
джем
джеъткен
джим
джин
джитсу
джиу
джо
джоан
джон
джона
джонсон
джонстон
джордж
джочи
джугашвили
джулия
джулустана
джульетта
джунгар
джунгарлар
джунгарларның
джылгымның
дзержинскии
дзержинского
дзофф
дзун
дзюдо
дзюдога
дзюдоист
ди
диагностика
диагностики
диалект
диалектизи
диалектилер
диалектилери
диалектилиг
диалектов
диалектология
диаметри
диаметрлиг
диана
диас
диван
диваны
дивеи
диверсия
дивес
дивизия
дивизиязы
диген
дигени
диджеи
дидим
дидими
дидир
диего
дижи
дижик
дижип
дижир
дизаи
дизе
дизижик
дизижикович
диис
дииң
дииңи
дииңнеп
дииңнер
дикои
дилги
дилег
дилегни
диледим
дилеп
дилиндек
дилиндектер
дилиндектиг
дилээ
дилээн
дилээр
дилээри
дилээшкин
диляур
димаш
дин
дина
динамика
динамо
династии
династия
династиязының
династияның
динлиннер
динлиннерниң
динниң
динскои
динчмен
дип
диплом
дипломат
дипломатическои
дипломатия
дипломатов
дипломаттыг
дипломнарын
дипломну
дипломнуг
диплому
дипломун
дипти
диптиң
дир
директор
директора
директорлаан
директорлап
директорлар
директорнуң
директором
директору
директорунга
директорунуң
дириг
дириже
дирлип
дис
диск
диспансер
дисс
диссертациеи
диссертации
диссертация
диссертациязы
диссертациязын
диссертациязының
диссертациялар
диссертацияны
дистанции
дистанция
дистинчек
дистрибьютор
дисциплины
дифтериеи
дифтерии
дифтерия
диш
диштиг
диңзелиг
диңмиреп
длиною
длужневская
для
дман
дмитриев
дмитриева
дмитриевич
дмитриевна
дмитрии
дмитрия
дмитровскии
дне
дневник
дневники
днеи
днем
днепр
днепропетровск
днепропетровская
днепропетровскои
днепропетровщины
дни
днк
дня
до
добивалась
добиваться
добилась
добиться
доблестныи
доблесть
добраться
добровольцев
добровольцы
доброе
добрыи
добыче
доверили
довженко
довурак
довурактың
догаа
договор
договора
догунаан
догуннаан
доения
дождь
доза
дозор
дозуп
дозур
дои
док
докл
доклад
докладов
докпак
докт
доктааган
доктаадып
доктаадыр
доктааи
доктаал
доктаалды
доктаалы
доктаалын
доктаамал
доктаап
доктаар
доктааткан
доктааттынган
доктор
доктора
докторлары
доктору
докторун
докторунуң
доктугу
документ
документалдыг
документальныи
документилер
документилери
документилеринде
документов
документы
долаан
долаана
долагананың
долгаи
долган
долгандыр
долганып
долганыр
долгап
долгополов
долгота
долдур
должен
должно
должности
должностные
должность
долина
долине
долины
доллар
долларов
долои
долу
долузу
долуп
долчанмаа
доля
дом
дома
домаа
домаан
домак
домакка
домакта
домактар
домактарны
домактарның
домакты
домактың
домбыра
доме
домен
домкрат
домна
домнаар
домои
домохозяи
дон
дона
дональд
донгак
дондук
дондукту
донецк
донна
донскои
дону
донуга
доозар
доозарга
доозукчу
доозукчузу
доозукчулар
доозукчулары
доозулган
доозун
доозунналчак
доозуп
доозупкан
доора
дооразы
доорап
доорбаш
доорбашты
доос
дооскан
доосканының
дооскаш
дооступ
доостур
доостурга
доп
допинг
дополн
дополнения
дополнительные
допчу
допчузу
допчулап
дор
дора
дораан
дорамчылап
доргун
доржготов
доржо
доржу
доржуевич
доржукаи
доржунуң
дорис
доров
дорова
дорович
доровна
дорог
дорога
дороге
дороги
дорогои
дорогу
дороти
дорошев
дорт
дортмунд
доруг
доругуп
доруккан
доруктуруп
дорум
досааф
доска
доскаар
доскуул
достаи
достиг
достигнет
достигнутые
достижение
достижении
достижения
достоевскии
доткан
доцент
доцентизи
дочери
дочь
дош
дошкун
дошпулуур
дошталыышкын
доштар
доштуг
дою
доюнга
доярка
дояркои
доң
доңгаи
доңгак
доңгаш
доңуп
дп
др
драбкина
дражени
драма
драмазы
драматиктиг
драматическии
драматург
драматургия
драмы
древнего
древнегреческои
древнеи
древнетюркские
древнетюркскии
древнетюркских
древнетюркскои
древнеуи
древние
древнии
древних
древностеи
древности
древняя
дреи
дрепуң
дроздов
дроздова
дрофа
друг
друга
другие
другим
другими
других
другои
другом
дружба
дружбы
друзеи
друзья
друк
ду
дубильдиг
дубно
дубо
дубровскии
дуг
дугаар
дугаарлап
дугаарлыг
дугаары
дугаарын
дугаарынга
дугаарында
дугаи
дуган
дугана
дуганнар
дуганы
дуганың
дугержаа
дуглаан
дуглаглыг
дуглап
дуглас
дугуи
дугуржулга
дугуржуп
дудак
дужа
дужааган
дужаал
дужаалга
дужаалда
дужаалдан
дужаалдар
дужаалдарга
дужаалдарны
дужаалдарынга
дужаалды
дужаалдыг
дужаалче
дужаалы
дужаалын
дужаалынга
дужаалындан
дужаалының
дужаап
дужаар
дужунга
дужунда
дужундан
дужуп
дуза
дузазы
дузазын
дузак
дузалаан
дузалаар
дузалажып
дузалажыр
дузалакчы
дузалакчызы
дузалакчылап
дузалакчылары
дузалал
дузаламчы
дузалап
дузалашкан
дузалыг
дузаны
дузап
дузу
дузун
дузунга
дузунуң
дуи
дук
дулгуяк
дульская
дума
думаа
думазынның
думазының
думчук
думчуктуг
думчуу
думы
дун
дунаи
дунеки
дункан
дунмазы
дуп
дур
дуран
дургаар
дурган
дурген
дургузунда
дургун
дургуннар
дуржулга
дуржулгазы
дуржулгазын
дуржулгазынга
дуржулгалыг
дуржулганы
дуркин
дуров
дурова
дурт
дурттуг
дурту
дуртунуң
дуруг
дуруяа
дуруяалар
дус
дусады
дуска
дуста
дустаи
дустан
дустар
дустары
дусту
дустуг
дустуң
дуся
дуу
дух
духа
духовно
духовного
духовности
духовность
духовные
душ
душа
душанбе
души
душу
дуңгуш
дуңма
дуңмазы
дуңмазын
дуңмазынга
дуңмазының
дуңмалары
дуңмаларын
дуңмалыг
дуңмам
дхарма
дхарманың
ды
дыбо
дывыскан
дыгыи
дызы
дыи
дык
дыка
дыл
дылга
дылда
дылдан
дылдар
дылдарга
дылдарда
дылдардан
дылдарже
дылдарны
дылдарның
дылдары
дылдарын
дылдарынга
дылдарында
дылдарынче
дылдарының
дылды
дылдыг
дылдың
дылче
дылы
дылым
дылын
дылынга
дылында
дылының
дын
дынын
дып
дыр
дырбактыг
дыргак
дыренкова
дыртык
дыс
дыт
дыттан
дыттыг
дыттың
дыш
дыштанылга
дыштанылгага
дыштанылгада
дыштанылгаже
дыштанып
дыштаныр
дың
дыңгыл
дыңгылдаи
дыңзыг
дыңзыдып
дыңмазы
дыңнаан
дыңнаар
дыңнаарга
дыңнаары
дыңнааш
дыңнадыг
дыңнадып
дыңнакчызы
дыңнакчылар
дыңналган
дыңналып
дыңналыр
дыңнап
дыңнаткан
дьокуускаи
дьяконова
дьячкова
дэвид
дэи
дэлэг
дээди
дээдизи
дээжизин
дээн
дээнде
дээнзиг
дээни
дээп
дээр
дээрбек
дээрбектер
дээрге
дээрде
дээрден
дээре
дээрезинде
дээрже
дээрзи
дээрзин
дээрзинге
дээри
дээрим
дээринге
дээрни
дээрниң
дээскиндир
дээш
дээштиг
дээштиң
дюи
дюрсо
дюсенбаев
дюсш
дютрие
дюфло
дядюшкин
дядя
дѳрт
дүвү
дүвүн
дүвүнге
дүвүредип
дүгер
дүгжүп
дүгжүр
дүгжүрү
дүгү
дүгүн
дүгүнүң
дүже
дүжер
дүжерге
дүжеринге
дүжүдү
дүжүдүн
дүжүлге
дүжүлгеге
дүжүлгезин
дүжүлгезинге
дүжүлгезинден
дүжүмеди
дүжүмет
дүжүметтер
дүжүметтерге
дүжүметтери
дүжүметтерниң
дүжүп
дүжүр
дүжүрген
дүжүргеш
дүжүрер
дүжүрүп
дүжүт
дүжүткүр
дүжүттү
дүк
дүккүр
дүктер
дүктү
дүктүг
дүлген
дүлгүүр
дүлеи
дүлүп
дүлүш
дүмбеи
дүн
дүне
дүнезинде
дүнеки
дүнелерде
дүп
дүптен
дүр
дүргектелчек
дүрген
дүргени
дүргенин
дүрзү
дүрзүзү
дүрзүзүн
дүрзүлеп
дүрзүлерин
дүрзүлүг
дүрүм
дүрүмнер
дүрүмнери
дүрүмнерин
дүрүмнеринге
дүрүмнерни
дүрүмнү
дүрүмү
дүрүмүн
дүшкен
дүшкенде
дүшкени
дүшкениниң
дүшкеш
дүшкүүрлүг
дүшпезин
дүшпеи
дүшпес
дүъш
дүүшкек
дүүшпес
дүүштүр
дөгерген
дөгере
дөгерези
дөгерезин
дөгерер
дөгерип
дөжек
дөзеп
дөзү
дөзүн
дөзүнге
дөзүнде
дөмеи
дөнен
дөрбелчин
дөргүл
дөргүн
дөрт
дөртен
дөрткү
дөрттен
дөс
дөстери
дөстүг
дөч
дөң
дөңгүр
е
еаээ
ев
ева
евгении
евгения
евгеньевна
евдокия
евич
евна
евразии
евразия
евразияның
евреи
евро
европа
европага
европада
европаже
европаннын
европанның
европанныӊ
европаның
европе
европеи
европои
европы
евтюхова
евтюховои
египет
египетте
египеттиң
его
егор
егоров
егорова
егорович
егоровна
ед
еде
единая
единения
единица
еді
ее
ежегодник
ежегодно
езу
езугаар
езулал
езулуг
еи
екатерина
екатеринбург
екатеринбургка
екатерины
екен
ел
елена
елены
елизавета
елинек
ельцин
ельцина
ельцинниң
елээ
ем
емельянов
емельянова
емен
емес
ему
ен
енисее
енисеи
енисея
еппесен
ер
ера
ералаш
ермаков
ермолаев
ермолаева
ерохина
есенин
есенинниң
если
естественных
естествознания
есть
есугеи
ет
ефимов
ефимович
ефимовна
ефрон
ефрона
ефросинья
еще
ею
ж
жазушы
жаи
жак
жалсанова
жалын
жан
жанеи
жанна
жанр
жанрларның
жанры
жанрынга
жанырның
жар
жара
жаңаөзендегі
жда
жданов
же
железная
железнодорожного
железнои
жемчужина
жена
женитьба
женская
женскии
женских
женского
женское
женскои
женщин
женщина
женщинах
женщинои
женщины
жены
жер
жерде
жердер
жеребьевки
жермен
жертв
жи
живая
живе
живого
живои
живописи
живопись
животноводов
животноводства
животноводстве
животные
животных
живых
жизи
жизни
жизнь
жил
жила
жилер
жилери
жилерниң
жили
жилищного
жиниң
жителеи
жительство
житомирскии
життя
жить
жная
жнои
жныи
жных
жовтня
жозе
жолио
жомарт
жоқ
жу
жуань
жуаньнар
жужанар
жужаннар
жуз
жукова
жуковскии
жумабаев
журавле
журнал
журнала
журналга
журналда
журналдар
журналдарның
журналдың
журнале
журнализи
журналист
журналистер
журналистика
журналисттер
журналы
журналынга
журналының
журнальном
жы
жыл
жь
жюри
жүріп
жұмабаев
з
за
зааның
забаи
забелин
забил
заболеваемости
заболеваемость
заболевание
заболевании
заболевания
заболеваниях
заварнова
заведении
заведующая
заведующеи
заведующии
завершения
завершил
завершила
завершился
зависимости
завод
завода
заводе
заводка
заводского
заводтуң
заводу
заводун
заводунга
заводунуң
завоевала
завтра
завуч
загадка
загадочная
заглавие
заготовок
задан
задании
задач
задаче
задачи
заде
заж
заздравных
заи
заказниги
заки
закиев
закон
закона
законодательное
законодательства
законодательство
закрепле
закрытия
зал
залга
зале
залы
залынга
залынче
заместителем
заместитель
заметка
заметки
замечательных
замуж
зан
занималась
занимался
заняла
зао
зап
запад
западная
западно
западнои
западныи
записка
записки
заповедниги
заповедник
заповедниктиң
зараи
заранок
заренок
заречная
зарипов
зарубежная
заруцкая
заря
заслуг
заслуги
заслуженная
заслуженного
заслуженные
заслуженныи
затем
затмение
захаров
захаровна
заче
зачем
защите
защитник
защиты
збірник
звание
звания
зве
звезда
звездои
звезды
звено
звенозу
звенозун
звенозунуң
звенону
звенонуң
звеньевая
звеньевои
зверев
зверева
здание
здесь
здоровье
здоровья
здравоохранение
здравоохранения
здравствуи
зды
зеи
зеландия
зеле
зеленая
зелинскии
земле
земледелия
землетрясение
землеустрои
земли
земля
земляк
земляки
зенгин
зеркале
зеркало
зерновых
зерслаутерн
зехра
зең
зи
зидан
зиданның
зиля
зима
зимние
зимних
зин
зина
зинаида
зинаиды
зинедин
зинина
зиниң
зиновьевна
зия
зияда
зкспресс
знает
знак
знаменательных
знамени
знаменитые
знамя
знание
знании
знания
значение
значения
значительныи
знаю
зно
зов
зои
золота
золотая
золото
золотое
золотои
золотом
золотые
золотых
золушка
зона
зоназы
зонгулдак
зонд
зоология
зоотехник
зори
зоя
зоңгава
зрения
зу
зубкова
зугаар
зуда
зуев
зузу
зулал
зулалдар
зулалдарны
зулалды
зулалы
зулалын
зулуг
зульфия
зуп
зуттнер
зы
зын
зыннар
зыннарны
зыннарның
зыннары
зынның
зыны
зыраан
зыраар
зыраарынга
зырадып
зырадыр
зырадыры
зырадырынга
зырал
зыралды
зыралдың
зыралы
зыралын
зыралынга
зыралынче
зыралының
зырап
зыраткан
зыратканы
зыраңгаи
и
иа
иааф
иакинф
ибн
ибраев
ибсен
ив
ива
иван
ивана
иванов
иванова
иванович
ивановна
ивановнага
ивановны
иваново
иви
ивижи
ивижилерниң
ивилер
ивилерин
ивилерни
ивиниң
иволга
ивр
иг
иги
игизи
игил
игилди
игилдиң
игнатьева
игнатьевич
игнатьевна
игоревна
игорь
игр
игра
играть
играх
игрок
игрока
игроки
игроком
игры
ид
идам
иде
идегел
идегелдиг
идегели
идегеп
идеи
идекпеи
иден
идентификатор
идеология
идепкеи
идея
идиг
идигни
идик
идиктер
идил
идиома
идип
ие
иези
иезин
иезинге
иезинден
иезиниң
ием
иемксся
иениң
иерусалим
иерусалимге
ижевск
ижер
ижери
ижерин
ижи
ижин
ижинге
ижип
ижиптер
ижиртир
из
избиралась
избран
избрана
избранное
избранные
изв
изваяния
известия
известного
известные
известныи
изготовления
изд
издание
издании
издания
издательская
издательскии
издательство
изи
изиг
изидип
изии
изиир
изин
изип
излучении
измаи
изменении
изменения
изменениях
измерения
измир
изобразительного
изобразительное
изобретатель
изобретении
изолированная
израиль
израиля
изучение
изучению
изучения
ии
иимк
иисус
ик
икаро
икпе
ил
илби
илдең
иле
илергеи
илередип
илередир
илередирде
илередири
илерели
илереп
илереткен
илереттинген
илереттинер
илереттинип
илерээн
илеткел
или
илиг
илл
илларионов
иллинои
иллюстрация
илтериш
илчирбе
ильин
ильина
ильинична
ильинка
ильич
ильича
ильхан
илья
илээ
им
име
имеет
имен
имена
именем
имени
именно
имеются
имеющие
имм
иммунитета
иммунобиологии
имп
император
императорнуң
императорского
императорскои
императрица
империи
империя
империязы
империязынга
империязынның
империязынче
империязының
империяның
имя
ин
инан
иначе
инвалид
инвалидов
инвалидтер
инвалидтерге
инвестиционно
инвестиция
инвестициялар
инге
инде
индеи
индекс
индивидуальная
индии
индия
индияга
индияда
индияже
индияның
индоевропеи
индонезия
индуизм
индуист
индустрии
ине
инек
инектен
инектер
инекти
инектиң
инженер
инженери
инженерлер
инженеров
ини
иниң
инна
иннокентии
иннокентьевна
иногда
иностранная
иностранных
инспекторлап
инспектору
институду
институдун
институдунга
институдунда
институдунун
институдунуң
институдунче
институт
института
институте
институтка
институтов
институтом
институтту
институттуң
институтунче
инструктор
инструкторлап
инструктору
инсульт
инсульттуң
интер
интервью
интервьюга
интернады
интернадынга
интернат
интернатка
интернационал
интернационализация
интернационалчы
интернет
интернеттиң
интерпретации
инфекции
инфекционных
информ
информастыг
информатика
информации
информационно
информационное
информационныи
информация
информацияны
инче
инь
иньеста
иоанн
иоганн
иоланта
иосиф
иосифовна
ип
ипполитова
ир
ираида
ирак
иран
иранга
иранда
ирбижеи
ирбис
ирбиш
ирги
иргин
иргит
иргитович
ире
иреи
ирек
ирен
ирена
иресаң
ирина
ирины
иркут
иркутск
иркутскиге
иркутскиниң
иркутскунуң
ирланд
ирландия
ирландияның
ирт
иртыш
ис
исаак
исабель
исемдәре
искра
искусств
искусства
искусстве
искусство
ислам
исламны
исламның
исландия
исмагилов
исп
испан
испании
испания
испанияга
испанияже
испанияның
испанкадан
исповедь
исполнев
исполнение
исполнилось
исполнитель
исполняет
исполняется
использование
использованием
использования
используется
испр
испытание
исслед
исследование
исследовании
исследования
исследователи
исследователь
исследовательскии
исследовательского
ист
истанбул
истелге
истеми
истеп
истер
истери
исти
исток
истоки
истоков
истомина
истории
историк
историко
историческая
исторические
историческии
исторических
исторического
историческое
историческои
историческом
историю
история
источник
источника
источникам
источники
источников
источнику
исхаков
исчезновения
исҡужин
итал
итали
италии
италия
италияга
италияның
итальян
итигэлов
итогам
итоги
итоговыи
итогозаклуб
итпек
итпекти
ифип
их
ихлас
ихсанова
ихя
иш
ишимбаи
ишкен
ишкин
ишкинге
ишкир
ишкири
ишкирин
ишпес
ишти
иштиг
иштии
иштики
иштин
иштинге
иштинде
иштинден
иштиниң
иштинче
ишчи
ищет
июль
июльда
июльдан
июльдуң
июля
июнь
июньда
июньнуң
июня
ия
к
ка
каа
каадыр
каазы
кааи
каан
каанда
кааннар
кааны
каап
каапкан
каапканнар
каапканы
каапкаш
кааптар
кааптарга
каар
каарга
каарын
каас
каастаан
каастаар
каасталга
каасталгага
каасталгалар
каастап
кааш
кааң
кабаева
кабардин
кабардино
кабинет
каваи
кавалер
кавалера
кавалери
кавалером
кавалеры
кавказ
кавказа
кавказка
кавказтың
кавы
кавыда
кавызынга
кавызында
каган
каганат
кагар
кагары
кагбаан
кагган
каггаш
кагжыр
кагыг
када
кадаан
кадагааты
кадагалаар
кадагалап
кадагалаттынган
кадагалаттынып
кадаи
кадак
кадактар
кадакты
кадактыг
кадактың
кадар
кадарар
кадарчы
кадарчызы
кадарып
кадет
кадр
кадрлар
кадрларны
кадровые
кады
кадыг
кадыгбаи
кадык
кадыкшыл
кадыкшылга
кадыкшылды
кадыкшылы
кадын
кадында
кадындан
кадынның
кадыны
кадының
кадып
кадыр
кадырып
кадыы
кадыын
кадыының
кадыыр
кадь
кажаа
кажан
кажанда
кажар
каждого
каждое
каждои
каждыи
кажык
кажыктан
кажыктар
кажыктарны
кажыктарның
кажыкты
кажыктың
кажыын
кажыының
каз
казак
казаки
казактар
казан
казанак
казани
казанская
казанскии
казанского
казань
казаньга
казаньның
казаньче
казар
казах
казахов
казахского
казахскои
казахстан
казахстана
казахстанга
казахстанда
казахстане
казахстанның
казахстанскои
казахстанцы
казахстанче
казахтар
казахтарның
казим
казинина
казначеи
казымал
казымалдар
казып
казыргы
казыткан
казыттырган
казыыр
казыышкыны
казыышкынынга
каи
как
какие
каккан
какои
какыи
кал
калашников
калбаа
калбаи
калбак
калбартыр
калбас
калга
калгага
калган
калгаш
калдар
калдым
калдың
календарда
календары
календарын
календарь
календарьга
календарьда
календарьны
календарьның
калза
калзан
калии
калинин
калинина
калининград
калининградтың
калифорнии
калифорния
калифорнияның
калм
калмак
калмык
калмыки
калмыкия
калмыкияның
калмыков
калмыктар
калмыктарның
кало
калонуң
калуга
калчаа
калчан
калыр
калье
кальениң
кальеха
кальск
кальская
кальского
кальции
калья
кам
кама
камбы
камгалаан
камгалааны
камгалаар
камгалаары
камгалаарынга
камгалааш
камгалакчы
камгалакчызы
камгалакчылары
камгалакчыларының
камгалал
камгалалды
камгалалдыг
камгалалы
камгалалын
камгалалынга
камгалалының
камгаланган
камгаланып
камгаланыр
камгалап
камгалаттынган
каменные
каменогорскунуң
каменск
камень
камео
камер
камера
камерлиг
камерун
камилла
камиль
каминская
камнаар
камнап
камнеи
камныг
кан
канад
канада
канадага
канаданың
канал
канала
каналга
каналдың
канд
кандан
кандаурова
кандидады
кандидадын
кандидадының
кандидат
кандидата
кандидатов
кандидаттар
кандидаттары
кандидаттарын
кандыг
каникулы
канны
канону
канскии
канчаар
канчалдыр
канчап
каори
капаган
капелла
капитан
капитаны
капсырылга
капуста
капустина
кар
кара
караа
караам
караан
караанга
карааның
карагас
карадениз
карак
каракалпак
каракка
карактаар
карактап
карактар
карактарлыг
карактары
карактарының
каракты
карактыг
карактың
карала
каралыг
карам
карандаш
караның
карарып
каратэ
каратэге
карачаево
карачаи
карачал
карачкова
караң
караңгы
каргапольцев
каргы
каргыраа
каргыраалаар
каргыш
карди
карелия
каренина
каржы
карим
карима
каримов
карл
карла
карло
карлос
карлук
карман
кармен
каролина
каротин
карп
карпенко
карт
карта
картазы
картазын
картаи
картап
картин
картина
картины
картография
картон
картофель
картофельдиң
карточка
карты
картын
картында
картындан
карусель
карыш
карьера
карьеразы
карьеразын
карьеразында
карьеразының
карьеру
карьеры
кас
касаткина
касающиеся
касеева
каскан
каскаш
каспии
кастро
кастынган
касым
кат
катаи
каталог
катанов
катанова
катап
катаптаан
катаптап
катаптаттынмас
катастрофа
категории
категория
категориязы
катерина
катетке
катеттиң
каткан
катовице
католик
католиктер
католиктиг
каттаи
каттап
каттарда
катты
каттыжа
каттыжар
каттыжылга
каттыжылгазы
каттыжылгазында
каттыжылгазының
каттыжып
каттыжыышкын
каттыжыышкыннар
каттыжыышкыннарның
каттыжыышкыннары
каттыжыышкынны
каттыжыышкыны
каттыжыышкынын
каттыжыышкынында
каттыжыышкынының
каттырынчыг
каттышкан
каттышканда
каттышканы
каттышканындан
каттышканының
каттышкаш
каттыштырар
каттыштырган
каттыштырып
каттың
катчып
каты
катыжыышкыны
катя
кафедра
кафедразы
кафедразын
кафедразынга
кафедразынче
кафедразының
кафедраны
кафедраның
кафедре
кафедрои
кафедры
ках
качества
качестве
качеством
качуевская
качыгдаан
каш
кашгар
кашпагаи
кашпал
каъды
каък
каът
каъттары
кая
каяа
каң
каңгаи
каңмыыл
кв
квалификации
квалификация
квантылыг
квартал
квартет
квт
кг
кгб
кгпу
кгу
ке
кевин
кегээн
кеден
кедер
кедергеи
кедерезе
кедереп
кедерээн
кедизинде
кедип
кедирер
кедирип
кедрова
кеже
кежеге
кежер
кежи
кежиг
кежигууну
кежигүн
кежигүннери
кежигүннеринге
кежигүннериниң
кежигүнү
кежигүнүнге
кежигүүн
кежигүүнү
кежии
кежиин
кежик
кежикти
кежиктиг
кежиктиң
кежин
кежинге
кежинден
кежиниң
кежип
кежир
кежирниң
кежээ
кежээзи
кежээзинде
кежээки
кежээкиниң
кежээниң
кежүгүнү
кезек
кезекке
кезекте
кезектен
кезектеп
кезектер
кезектерге
кезектерден
кезектери
кезектерин
кезектеринге
кезектеринде
кезектериниң
кезектерни
кезектерниң
кезектиг
кезекчигештер
кезекчигештерниң
кеземче
кезер
кезии
кезиин
кезиинде
кезииниң
кезип
кезээ
кезээде
кезээн
кезээнге
кезээнде
кезээниң
кезээнче
кеи
кел
келбеи
келбес
келбээн
келген
келгенде
келгени
келгенил
келгенин
келгенинге
келгениниң
келгеннер
келгеш
келди
келдим
келдирткен
келзе
келзин
келин
келип
келир
келирге
келири
келирин
келиринге
келириниң
кем
кемаль
кембридж
кемдээн
кемдээри
кемдээшкин
кемерово
кемниг
кен
кенден
кенденбиль
кенин
кенни
кераит
кереит
керээ
керээзи
керээзин
керээни
кес
кескен
кескеш
кеспес
кет
кеткен
кечил
кечилович
кеш
кешке
кешкеш
кешпи
кештен
кешти
кештиг
кештиң
ки
кибернетика
кидань
кидин
кидис
кидиспеи
киев
киевке
киевте
киевтиң
киевче
киж
кижи
кижиге
кижиде
кижиден
кижиже
кижизи
кижизиг
кижизидер
кижизидеринге
кижизидикчи
кижизидилге
кижизидилгеге
кижизидилгези
кижизидилгениң
кижизидип
кижизин
кижизинге
кижизиниң
кижизиткен
кижизиттинген
кижизиттирикчизи
кижиир
кижилер
кижилерге
кижилерден
кижилери
кижилерин
кижилеринге
кижилериниң
кижилерлиг
кижилерни
кижилерниң
кижилерниӊ
кижилиг
кижини
кижинин
кижиниң
кижиниӊ
кижинниң
кижинниӊ
кижээ
кии
киир
киирбеи
киирбээн
киирген
кииргени
кииргеннер
кииргеш
киирдинген
киирер
киирери
киирерин
кииреринге
киирериниң
киирилде
киирип
киириштирген
кикбоксингиге
кил
килге
килдизи
килдизин
килдизинге
килдизиниң
килдис
килдисти
килдистиң
килең
килеңниг
кили
килограмм
килограмма
килограммов
километр
ким
кима
кин
кина
кинг
кинематографии
кинематографист
кинематография
кинигэ
кино
киноакте
кинога
кинода
киноже
кинозу
кинозунга
кинозунда
киноискусства
кинолар
киноларга
киноларны
киноларның
кинолары
кинону
кинонуң
кинооператор
кинорежиссе
киностудия
кинофестивалинге
кинофестиваля
кипр
кирбезин
кирбеи
кирбес
кирбээн
кирген
киргени
киргениниң
киргеннер
киргеш
киргиз
киргизия
кире
кирер
кирерде
кирери
кирерин
киржикчи
киржикчизи
киржикчилер
киржикчилери
киржикчилериниң
киржикчилерни
киржилге
киржилгеге
киржилгези
киржип
киржир
киржирин
кирижин
кирилл
кириллица
кириллицаның
кириллович
кирип
кирипкен
кириш
киришкен
киришкени
киришкеннер
киришкеш
киришпеи
киришпес
киришпээн
киров
кирова
кировскии
кирсараи
киселе
кисель
кислород
кислота
кислотазы
кислоталар
кислоталарның
кислоталары
кислотаны
кислотаның
кит
китаб
китае
китаи
китап
китая
кихот
кичээл
кичээлдер
кичээлдерин
кичээлдеринге
кичээнгеи
кичээңгеи
киш
киши
кишине
киі
ккби
ккпи
кл
кла
клава
клавдия
клавиатура
кладбище
клазы
клазын
клазынга
клазының
кланы
клара
класс
класса
классах
классе
классиги
классик
классика
классики
классиктиг
классификации
классификация
классификациязы
классических
классического
классическои
класска
классов
класстан
класстар
класстарга
класстарны
класстарның
классты
класстыг
класстың
классче
клеи
клетка
клетчатка
климады
климат
клиника
клиники
клинток
клип
кличко
клод
клозе
клоун
клстат
клуб
клуба
клубка
клубтар
клубтарга
клубтары
клубтарының
клубту
клубтуң
клубу
клубче
клуву
клувунга
клувунуң
клувунче
ключ
кляшторныи
км
кн
кндр
книг
книга
книгах
книге
книги
книгу
книжное
книжныи
книппер
кно
кнр
княгини
княгиня
князь
князя
ко
кобальт
кобра
ков
кова
ковале
ковалевская
ковалевскои
ковалец
коврижных
ковскии
ковского
ковском
ковшова
когда
код
кода
кодан
коданга
коданынга
кодекс
кодтары
коду
кодунуң
кодур
кожа
кожагар
кожазы
кожаи
кожалары
кожамыктар
кожевниковскии
кожумаа
кожумак
кожумактары
кожумактыг
кожуп
кожуун
кожууна
кожуунга
кожуунда
кожуундан
кожууннар
кожууннарга
кожууннарда
кожууннарның
кожууннары
кожууннарының
кожуунну
кожууннуң
кожууну
кожуунун
кожуунунга
кожуунунда
кожуунундан
кожуунунуң
кожуунуң
козлова
кои
кок
кокаи
коко
кол
колдаан
колдап
колдук
колдуу
колдуунда
колесник
колесова
колец
колин
количество
коллегии
коллегия
коллегияның
колледж
колледжа
колледжи
колледжин
колледжинге
колледжке
коллектив
коллектива
коллективи
коллективтиг
коллективтиң
коллекции
коллекция
колман
колобки
колония
колумбии
колумбия
колхоз
колхоза
колхозе
колхозка
колхозного
колхозтар
колхозту
колхозтуң
колхозу
колхозунга
колхозунуң
колхозунче
колхозче
колхозчу
колхозчулар
колхозчуларның
коль
кольцо
коля
ком
кома
команд
команда
командага
командазы
командазын
командазынга
командазынның
командазынче
командазының
командалар
командаларның
командалары
командаларынга
командаларының
командалыг
команданы
команданың
команде
командир
командири
командиринге
командириниң
командирлер
командирлери
командного
командное
командныи
командор
команду
команды
комарова
комбаи
комбинады
комбинадынга
комбинадының
комбинат
комбината
комбинате
комбинатка
комбинаттың
комбу
комедии
комедия
комета
коми
комиссар
комиссары
комиссии
комиссия
комиссиязы
комиссиязының
комиссияның
комитеди
комитедин
комитединге
комитединиң
комитет
комитета
комитеттиң
коммент
комментарии
коммерсант
коммерсантъ
коммерческии
коммуналдыг
коммунизму
коммунист
коммунистиг
коммунистическои
комнуң
компании
компания
компанияга
компаниязы
компаниялар
компанияның
компаративист
компартии
комплекизи
комплекс
комплекса
комплексилиг
комплексного
комплекснои
комплекстиг
комплекстиң
композитор
композиторлар
композиторларның
композиторларының
композитору
композиция
компот
компьютер
компьютерге
комсомол
комсомолдуң
комсомолец
комсомолчу
комсомольская
комсомольскои
кому
комунуң
кон
конгар
конгрезиниң
конгресс
конгресса
конгресске
конгресстиң
конденсатор
коне
конец
конечныи
конзулакович
конкурс
конкурса
конкурсе
конкурска
конкурстарның
конкурстуң
коноково
кононенко
кононов
кононова
конор
консерва
консерватории
консерваториязын
консерваториязынга
константин
константинова
константинович
константиновна
конституции
конституционного
конституция
конституциязы
конституциязын
конституциязында
конституциязының
конституцтуг
конструкции
конструкция
консул
консультант
контакты
контексте
континенталдыг
континентилер
контр
контракт
контроль
контрреволюстуг
конур
конф
конфедерация
конфедерациялар
конференции
конференция
конференциязынга
конференциялар
конференцияларның
конференцияның
конфликт
конфуцианство
конфуции
конца
конце
концентрациязы
концепция
концепциязын
концерт
концерти
концертке
концерттер
кончаа
кончуг
кооперативиниң
кооперации
копа
копенгаген
копия
кор
корабль
корбин
корвин
коргар
коргулчун
коргунчуг
коргуп
коргуушкун
коргуш
кордакчы
кордакчызы
кореи
коренные
коренных
корень
корея
кореяда
корженкова
кори
коринебактерии
коркина
кормушин
коров
коровы
короле
королев
королева
королевского
королевы
король
короткометражныи
корпорация
корр
корреспондент
корреспондентизи
корреспондентилеп
корриган
корткан
кортук
корум
корунья
космическии
космическои
космодром
космонавт
космонавтика
космонавтиканың
космос
костенко
кости
кострома
костромского
костромскои
костюк
кот
котова
которая
которого
которое
которои
котором
которые
которыи
которым
которых
кофе
коцюбинскии
кочевники
кочевников
кочевые
кочетово
кочо
кош
кошара
кошкадып
кошкак
кошкар
кошкаш
кошки
кошкина
коштунган
коштунуп
коъш
коъштуг
коэн
коя
коңгар
коңгурак
коңгурои
кп
кпрф
кпсс
кравцова
кравченко
крае
краевед
краеведение
краеведения
краеведческии
краевого
краевои
краи
краков
краса
красавица
красивые
красная
красноармеи
краснова
красного
красногорского
краснодар
краснодарга
краснодарның
краснодарскии
краснодарского
красное
краснои
краснояр
краснояровка
красноярск
красноярска
красноярская
красноярскга
красноярскиде
красноярскии
красноярскиниң
красноярского
красноярсктың
красноярскының
красныи
красс
кратер
краткая
краткии
крахмал
краю
края
кредо
креи
кремле
кремль
крепостнои
крест
креста
крестовникова
крестьян
кривицкая
кривчикова
кризис
крис
кристин
кристина
кристоф
критиги
критик
критика
критиктер
критиктиг
крови
крокодил
кроме
кроуфут
круг
круглова
круглого
кругосвет
крупнеи
крупская
крупскои
крутои
крылатское
крылов
крылова
крыльце
крылья
крым
крыма
крымга
крымның
крымск
крымскии
крымскои
крышова
крюков
крюкова
крючкова
ксения
ксиимк
кт
кто
ку
куб
кубани
кубанские
кубанскии
кубань
кубаньны
кубаньның
кубизмниң
кубка
кубков
кубогу
кубогун
кубогунга
кубогуннуң
кубогуннуӊ
кубогунуң
кубок
кувезин
кувеи
куд
куда
кудага
кудажы
кудажының
кудазы
кудаи
куданы
кудар
кударанчыг
кударанчыын
кударап
куделли
куди
кудрявцева
куду
кудук
кудуку
кудулаар
кудулап
кудумчу
кудумчуга
кудумчуда
кудумчузу
кудумчузун
кудумчузунда
кудумчулар
кудумчуларны
кудумчулары
кудумчуну
кудуп
кудуптар
кудургаи
кудурук
кудуруктуг
кудуруу
кудуруун
кудуруундан
кужу
кужугет
кужурлуг
кузнецов
кузнецова
кузоватов
кузовтуг
кузьмин
кузьминична
кузьмич
куи
кукла
кукланова
кукол
кукуруза
кукурузаның
кукушкина
кул
кула
кулаа
кулак
кулакка
кулаш
куличевская
кулун
кулуннуг
культ
культур
культура
культурага
культурада
культуразы
культуразын
культуразынга
культуразында
культуразының
культуралар
культураларын
культуралыг
культураны
культураның
культуре
культурлуг
культурно
культурного
культурное
культурнои
культурные
культурология
культуры
кум
кумиры
куммер
кумулятивтиг
кумык
кумыс
кун
кунаа
кунгаа
кунгуртуг
кундалини
кундустуг
куницкая
кунстман
кунчуи
кунчуу
кур
кураи
курбатскии
кургаг
кургадып
кургадыр
курган
курганинскии
курганы
кургаткан
кургаткаш
курджакуз
куржаа
куржаг
курзун
курлавыр
курлавыры
курлавырын
курлавырының
курмет
курна
курорт
куросаваның
курс
курск
курска
курская
курстар
курстарны
курстары
курстарын
курстарынга
курстарының
курстуң
курт
куруг
курузун
куруккан
курултаи
куруне
куруненин
курут
курыкан
кусимова
кускун
кустодиев
кут
кутафина
кутв
куткан
куткаш
кутлуг
куторга
куу
куузумаар
куулар
кууларның
куцова
кучеров
кучлук
куш
кушевскии
кушкаш
куштар
куштарның
куштуң
куяк
куңгуртуг
кхандакхадьяка
кывар
кыд
кыдат
кыдатка
кыдатта
кыдаттан
кыдаттар
кыдаттарга
кыдаттарның
кыдаттың
кыдатче
кыдыг
кыдыглары
кыдыкы
кыдыы
кыдыын
кыдыынга
кыдыында
кыдыындан
кыдыынче
кыжанып
кыжын
кызаа
кызаалыг
кызар
кызласов
кызы
кызыгаар
кызыгаарга
кызыгаарда
кызыгаарже
кызыгаарлажып
кызыгаарларлыг
кызыгаарлары
кызыгаарлаттынып
кызыгаарлыг
кызыгаары
кызыгаарын
кызыгаарынга
кызыгаарында
кызыгаарындан
кызыгаарынче
кызыгаарының
кызыдар
кызыдып
кызыл
кызыла
кызылга
кызылда
кызылдан
кызылдың
кызыле
кызылорда
кызылче
кызымаа
кызымак
кызын
кызып
кызыр
кызырак
кызыы
кыи
кык
кыла
кылагар
кылаштаар
кылаштап
кылаң
кылбаан
кылбаи
кылбас
кылган
кылганнар
кылганы
кылгаш
кылдынган
кылдынмаан
кылдыныг
кылдыныглар
кылдыныглары
кылдыныгның
кылдынып
кылдыр
кылдырган
кылдыртып
кылза
кылыг
кылыглар
кылык
кылымал
кылын
кылып
кылыпкан
кылыптар
кылыр
кылырга
кылырда
кылыры
кылырын
кылырынга
кылырындан
кылырынче
кылырының
кым
кымга
кымда
кымдан
кымны
кымның
кымчы
кымыл
кымытваль
кыпсып
кыпсыр
кыпчак
кыр
кыраан
кыргаан
кырган
кырганнар
кыргывадым
кыргыз
кыргызов
кыргызтар
кыргып
кыргыс
кыргысович
кыргысовна
кыргыстар
кыргыстарны
кыргыстарның
кыргыстары
кыргыыр
кырлап
кырлыг
кырлып
кыры
кырыи
кырыкы
кырын
кырынга
кырында
кырындан
кырынче
кырының
кырып
кырыш
кырыыр
кыс
кыска
кысказы
кыскан
кыскыл
кыстар
кыстарның
кыстары
кысты
кыстыг
кыстың
кысь
кыш
кышкы
кыштаг
кыштагга
кышты
кыштың
кыыл
кэмерон
кэрол
кэти
кэтрин
кээн
кээп
кээр
кээрге
кээргел
кээргенчиг
кээргээр
кээргээчел
кээрде
кээри
кээрин
кюнер
кюнзегеш
кюри
кюриниң
кѳже
кѳк
кѳргүскен
кѳстүп
кѳшкен
кү
күгүр
күгүрлүг
күдерек
күдээ
күдээзи
күжениишкин
күжениишкини
күжениишкинниг
күжү
күжүгет
күжүн
күжүнүң
күжүр
күзел
күзелдер
күзелдерин
күзелдиг
күзелдии
күзели
күзелин
күзенчиг
күзеп
күзээн
күзээни
күзээр
күзүн
күзүнүнде
күл
күлтегин
күлүг
күлүк
күмүл
күн
күнзегеш
күрседи
күрүне
күрүнеге
күрүнеде
күрүнеден
күрүнеже
күрүнези
күрүнезин
күрүнезинге
күрүнезинде
күрүнезиниң
күрүнезинче
күрүнелер
күрүнелерде
күрүнелери
күрүнелерниң
күрүнелиг
күрүнени
күрүнениң
күрүнениӊ
күрүненниң
күрүнүң
күс
күске
күскү
күскүлек
күстүң
күчү
күчүзү
күчүлел
күчүлелдиг
күчүлүг
күчүтен
күш
күштелген
күштелдирер
күштелдиреринге
күштелип
күштер
күштери
күштерин
күштеринге
күштериниң
күштерниң
күштү
күштүг
күштүң
күштүү
күңгүрбаага
күүи
күүседиири
күүседикчи
күүседикчизи
күүседикчилери
күүседип
күүседир
күүседири
күүседирин
күүсекчи
күүселде
күүселдези
күүселдезиниң
күүсеткен
күүсеткени
күүсеттинген
күүском
күүскомунуң
көвеи
көвүдедип
көвүдедир
көвүдедири
көвүдеи
көвүдеп
көвүдээн
көвүдээр
көвүдээри
көвүдээрин
көвүрүг
көвүрүгнү
көвүрүгнүң
көвүрүү
көге
көгмен
көгүдүп
көдээ
көдүрген
көдүрер
көдүрлүп
көдүрүлген
көдүрүп
көже
көжелдеи
көжер
көжерин
көжуп
көжээ
көжээлер
көжээлерни
көжээлиг
көжээни
көжүп
көжүрген
көжүрер
көжүрүп
көзүлбеи
көзүлбес
көзүлген
көк
көп
көпсү
көр
көрбеи
көрбес
көрбээн
көрген
көргени
көргеннер
көргеш
көргузүп
көргүзе
көргүзер
көргүзерде
көргүзери
көргүзерин
көргүзүг
көргүзүглер
көргүзүглери
көргүзүглерни
көргүзүп
көргүзүү
көргүскен
көргүскени
көргүстүнген
көрдүнген
көрдүнүп
көре
көреи
көрея
көреяда
көреяның
көрзе
көрнүп
көрнүр
көрээлиңер
көрүжү
көрүжүн
көрүкчүлер
көрүкчүнүң
көрүлдезинге
көрүн
көрүнген
көрүндүр
көрүп
көрүш
көрүштер
көрүштүг
көрүңер
көрүңерем
көрүүшкүнү
көс
көскү
көстү
көстүп
көстүр
көстүрү
көш
көшкен
көшкендеи
көшкеннер
көшкеш
көшкүн
көште
көък
көъп
көңгүс
көөп
көөр
көөрге
көөрү
көөрүн
л
ла
лаа
лаан
лааның
лаар
лаарга
лааш
лаашкын
лаборант
лаборантызы
лаборатории
лаборатория
лабораторияга
лабораториязы
лабораториязын
лабораториязынга
лабораториязының
лабораторияның
лабораторлуг
лабытнанги
лавлеи
лавранса
лавров
лаврова
лаг
лагере
лагерле
лагерь
лагерьже
лагерьлери
ладомир
ладып
ладыр
лаевич
лазанья
лазарева
лаи
лаида
лак
лактары
лам
лама
ламага
ламажаа
ламазы
ламазының
ламалар
ламаларга
ламаларны
ламаларның
ламалары
ламаны
ламаның
ламарр
ламе
ламин
ламина
лампа
ламрим
ланнистер
ланцет
ланчыының
ланып
лао
лап
лапетра
лар
ларга
ларда
лардан
ларже
лариса
ларлыг
ларны
ларның
ларош
лары
ларын
ларынга
ларында
ларындан
ларының
лас
ласкера
ласков
лат
латвии
латвия
латин
латинскии
латинчиткен
латкан
латтынган
латтырган
лаура
лауреады
лауреат
лауреаттары
лауреаты
лацио
лая
лаң
лаңмаа
лгу
лдар
лди
ле
лебедев
лебедеи
лебединое
лебединскии
лебедь
лев
левертовская
леви
левин
левитан
левитана
легат
легенда
легендарного
легендарнои
легенды
леди
лежип
леи
лекарственные
лексика
лексики
лексико
лексикология
лексиктиг
лексические
лекции
лекция
лекциялар
лекцияларны
лекцияларын
лена
лениздат
ленин
ленина
ленингр
ленинград
ленинграда
ленинградка
ленинградская
ленинградскии
ленинградского
ленинградское
ленинградскои
ленинградта
ленинградтың
ленинградче
ленинизм
ленинка
ленинниң
лениногорск
лениногорскунуң
ленинского
ленинчи
лента
ленфильм
ленчек
леон
леонардо
леонид
леонидовна
леонова
леонтина
леонтьевна
леп
лер
лерге
лери
лерин
лериниң
лермонтовтуң
лерни
лерниң
лес
леса
лесная
лесного
лесные
лессинг
леся
лет
летие
летием
летию
летия
летнеи
летние
летнии
летних
лето
летом
летописеи
летописи
летопись
лечение
лечения
лешкек
лешпес
ли
либби
либерияның
либо
ливерпуль
ливии
ливинская
лившиц
лиг
лига
лигазын
лигазынга
лигазының
лиганың
лиге
лиги
лида
лидер
лидери
лиди
лидия
лиеш
лиза
лии
лик
лилия
лиллиан
лимоннуг
лин
лина
линг
лингвист
лингвистика
лингвистическая
лингвистическии
лингвистических
линеи
линии
линия
линиң
липатова
липецк
лира
лирика
лириктиг
лиса
лисицына
лист
лит
литва
литвяк
литератор
литератур
литература
литературага
литературада
литературазы
литературазын
литератураны
литератураның
литературе
литературлуг
литературная
литературного
литературное
литературнои
литературные
литературныи
литературы
литр
лиц
лица
лицах
лицеи
лицо
лицом
личная
лично
личного
личное
личности
личность
личные
личныи
личных
лия
лка
лке
лки
лку
лла
ллер
ло
лобов
лобсаң
лов
лова
ловзаң
лович
ловича
ловка
ловна
ловои
логика
логикага
логиказы
логиканы
логиканың
логиктиг
логинова
логои
логотип
лодои
лои
лок
локомотив
ломоносов
ломоносова
лондон
лондонга
лондоне
лондоннуң
лондонче
лопатин
лопес
лопсан
лопсанчап
лопсаң
лопсаңның
лор
лос
лоян
лу
луг
луга
луганск
лудуп
лузу
лузун
лузунуң
луи
луиза
луизы
луис
лук
лука
лукас
лукьянов
луну
луны
луп
лурье
луч
лучко
лучшая
лучше
лучшеи
лучшие
лучшии
лучшим
лучших
лхамо
лхарамба
лхаса
лы
лыбыр
лыг
лыжа
лыи
лык
лыкмаа
лысенина
лысенко
ль
льва
львов
львовтуң
льюис
лья
лээн
лээр
лээри
лю
люба
любви
любил
любимая
любимыи
любителеи
любительскии
любичев
любишь
любкер
любкеру
люблю
любов
любовь
любовью
людеи
люди
людмила
люк
люксембург
люндуп
люси
люцерна
ля
лябиба
ляи
ляля
лянь
ляо
лү
лүп
м
ма
маа
маады
маадыр
маадырга
маадырлар
маадырларны
маадырларның
маадырлары
маадырларын
маадырларының
маадырлыг
маадырлыы
маадырны
маадырның
маадыры
маан
маанаи
маанга
маанда
маандан
маани
мааның
мавзолеи
мага
магадаар
магадал
магадап
магазин
магалыг
маган
маганны
маганның
маганы
маганын
магиктиг
магистр
магистратуразын
магия
магнии
магнит
магнитогорск
магнитогорского
магнитогорскуга
магнитогорскунуң
магниттиг
магнитыг
магритт
магриттиң
магуба
мадам
мадрид
мадридке
мажалык
мажалыкка
мажалыктың
мажит
мажита
маи
мак
макгрегор
македон
македонскии
македонского
макка
макс
максим
максима
максимова
максимович
максимовна
макта
мактаан
мактаар
мактал
макталдыг
мактан
мактап
мактар
мактарга
мактарны
мактарның
мактары
мактарын
макты
мактың
мактьютор
мал
малаи
малаше
малга
малгаш
малгаштыг
малды
малдыг
малдың
маленькая
маленькие
малерияга
малик
малов
малова
малого
малои
малочисленных
малчын
малчыннап
малчыннар
малчыннарның
малчыны
малы
малыи
малым
малын
малының
малых
малышев
малькова
мальта
мальчик
мальчики
маляров
мама
мамедов
ман
манаан
манап
манас
манасеина
манга
мангистау
мандан
манджушри
мани
мание
маннаи
маннар
маннарның
манро
мансии
мануэль
манчестер
манчжур
манчжурлар
манчы
манчык
маншук
маны
маньчжур
мао
мар
маральскии
марат
марафон
марафонунга
маргарита
марго
маргыжып
маргылдаа
маргылдаага
маргылдаадан
маргылдаазы
маргылдаазынга
маргылдаазының
маргылдаалар
маргылдааларга
маргылдааларның
маргылдаалары
маргылдааларынга
маргылдаалыг
маргылдааны
маргылдааның
маргыштыг
маресева
маржымал
мари
марианна
марии
марина
марины
марио
марионелла
мария
марияны
марияның
марк
марка
марказы
маркина
марко
марков
маркова
маркс
марксизм
марксизма
маркуз
маркус
мармарис
марпл
марс
марса
марстың
март
марта
марте
мартин
мартинес
мартинниң
мартка
мартта
марттан
марттың
марты
мартыновна
марфа
марфуга
марченко
марш
маршрут
марья
маска
маскарад
масса
массазы
массазындан
массалыг
массовои
массовые
мастер
мастера
мастери
мастеринге
мастерлери
мастеров
мастерская
мастерскаязынга
мастерскаязынче
мастерства
матаджи
матвеев
матвеевич
матвеевна
матем
математик
математика
математикага
математикада
математиканың
математики
математиктиг
математическая
математические
математических
матери
материал
материалам
материалах
материалдан
материалдар
материалдарны
материалдары
материалдарын
материалдарында
материалдарындан
материалды
материалдыг
материале
материализм
материалов
материалы
матильда
матре
матч
матча
матче
матчи
матчка
матчта
матчтар
матчтарга
матчтарны
матчты
мать
махасаттва
махатма
махачкала
махаяна
махмуд
маша
маши
машин
машина
машинага
машиназы
машиналар
машиналарның
машиналарын
машинаны
машинаның
машинист
машинного
машины
мая
маяк
маяковскии
мағжан
маңаа
маңган
маңнаар
маңнаи
маңнап
маңы
мб
мвд
мвт
мг
мгимо
мгми
мгновении
мгу
мгюа
мдми
ме
мегафауна
меге
мегелеп
мегечи
мед
медали
медализи
медалин
медалинниӊ
медалы
медалын
медалының
медаль
медальдар
медальдарны
медальдары
медальдарының
медальды
медальдыг
медальдың
медалью
медведев
медведева
медведь
медведя
медгиз
меде
медеглел
медеглелдер
меделдиң
медерел
медерелдиг
медерелдиң
медерели
медерелин
медерелиниң
медереп
медиа
медиафаи
медики
медико
медитация
медицина
медицинада
медициналар
медицинаның
медицине
медицинниң
медицинская
медицинские
медицинскии
медицинского
медицинскои
медицины
медресе
медсестра
медээ
медээзи
медээлел
медээлелдиң
медээлер
медээлери
медээлерни
медээлээн
медээни
между
междунар
международ
международная
международного
международное
международнои
международном
международные
международныи
международным
международных
межегеи
межилер
межконтинентальныи
межлумова
межрегиональнои
мезил
мезолит
меи
мексика
мексикан
мексиканың
мелегеи
мелетинскии
мелиоранскии
мелиоранского
мелодии
мелодия
мельников
мельникова
мельцер
мемориал
мемориалдыг
мемориальная
мемуары
мен
менделеев
менделеева
менделеевтиң
менделеевым
менден
менди
менеджмент
менее
мени
мениң
менов
менче
менчинская
меня
мер
мерге
мергежил
мергежилге
мергежилди
мергежилдиг
мергежилдиң
мергежили
мергежилин
мергежилинге
мергежилиниң
мергежээн
мерген
мергени
мери
мерит
меркит
меркурии
мернеи
мероприятии
мессенджер
мессерер
месси
мест
места
местах
месте
местного
местности
место
месторождение
месторождении
месхи
месяц
месяца
месяцев
металл
металла
металлдар
металлдарны
металлов
металлург
металлургии
металлургия
метан
метафизика
метафизикага
метин
метод
метода
методизи
методика
методиказы
методики
методиктиг
методические
методическое
методов
методология
методы
метр
метражтыг
метрге
метро
мефодьевна
механизаторлар
механизация
механизма
механизмы
механик
механика
механиканың
механиктиг
мехмед
мехмет
мечеть
мечникова
мечта
мечты
мең
меңги
меңи
меңээ
ми
миа
миасс
миг
мигель
мид
мижит
мижиттиң
микробиологии
микробиология
микрораи
микрофильмов
милан
милана
милая
милиция
миллер
миллиард
миллион
миллионов
милосердия
мин
мина
миндиашвили
минерал
минералдыг
минералогия
мини
минимум
министерства
министерстве
министерство
министерствозу
министерствозуннуң
министерствозунун
министерствозунуң
министр
министра
министри
министрлер
министрниң
министров
минниишкиннер
миннип
минск
минскиге
минсуг
минусинск
минусинскиниң
минусинского
минут
минута
минутада
мир
мира
мире
мириам
мирных
миро
мировая
мирового
мировои
миронов
миронова
мирослав
мирослава
мирославты
мирославтың
мисс
миссионер
миссис
миссия
миссури
мистер
митлянская
митпек
митрофановна
миф
мифологии
мифология
мифологияда
мифологтуг
мифы
миха
михаи
михаил
михаила
михале
михалков
михаэль
миядзаки
мк
мку
млекопитающие
млн
млрд
мм
мма
мми
ммк
мн
мне
мнение
многие
многих
много
многоборье
многолетнюю
множество
мо
могаг
могаи
могап
могила
могла
мода
модели
моделирование
модель
моджорян
модуль
модэ
мое
моего
моеи
может
можно
можу
можузу
можузунда
можуларында
можунуң
мозга
мозер
мозером
мои
моисеи
моих
молдав
молдурга
молдурук
молдурукту
молдуруктуг
молдуруу
молдуруун
молекулярлыг
молитва
моллеров
молодая
молоде
молодежи
молодежная
молодого
молодои
молодость
молодые
молодых
молока
молот
молотов
молочно
молочного
мольера
мольерниң
мом
момент
монгол
монголии
монголия
монголов
монгольская
монгольские
монгольскии
монгольских
монгольскои
монгужукович
монгун
монгуш
монгуша
монгушевич
монгушевна
монгушовна
монда
монография
монографиязы
монографиялар
монографияның
монро
монтальчини
монте
монтевидео
мону
монументалдыг
моол
моолга
моолда
моолдан
моолдап
моолдар
моолдарга
моолдардан
моолдарже
моолдарның
моолду
моолдуң
моолдуӊ
моолче
моон
моондак
моорлап
мооң
мораль
море
морзук
моро
мороз
морозов
морозова
моррис
моррисон
морского
морфологии
морфология
морфологтуг
моря
мосаль
моск
москва
москвага
москвада
москвадан
москваже
москваннын
москванның
москванныӊ
москванын
москваның
москваныӊ
москве
москвич
москву
москвы
московская
московские
московскии
московского
московскои
московском
москомспорта
мост
мотова
мохандас
мошкова
моюн
моя
моңгуш
моңгушевна
моңгуштуң
мс
мтс
му
муваххит
мугулаи
мугулюи
мугур
муж
мужа
мужество
мужская
мужскои
мужчин
мужчина
мужчины
муз
муза
музее
музеи
музею
музея
музыка
музыкальная
музыкально
музыкального
музыкальное
музыкальнои
музыкальные
музыкальныи
музыкальных
музыкант
музыканты
музыке
музыки
музыку
муи
мукасеи
мультипликация
мультфильм
мультфильмде
мун
мунар
мунган
мунгаш
мунзук
муниципалдыг
муниципального
муниципальное
муниципальным
муниципальных
мунукчу
мунукчузу
мунуп
муп
муравье
мурад
мурат
мургутеевич
мурзалин
мурманск
мурнаи
мурнакчы
мурнакчызы
мурнап
мурнуку
мурнунга
мурнунда
мурнундагы
мурнундан
мурнуу
муса
мусин
мусинов
мустафа
мусульман
мусульманнар
мухамедьяров
мухаметша
мухаметшин
мухаммад
мухаммед
мухан
мухина
мухсин
муң
муңгаш
муӊ
мхат
мхт
мы
мыи
мында
мынды
мындыг
мынча
мынчаар
мынчага
мынчалдыр
мынчангаш
мынчап
мыреева
мыреевои
мырныкы
мырыңаи
мысли
мысль
мышления
мэ
мэи
мэнсфилд
мэри
мэрилин
мээ
мээн
мээниң
мээнчилер
мээрең
мээң
мю
мюллер
мюнхен
мюнхенге
мюфиде
мяса
мяч
мяча
мячиктерни
мячом
мѳнгүн
мѳѳреи
мѳңгүн
мѳӊгүн
мүн
мүнге
мәтін
мөге
мөгези
мөгеи
мөгелер
мөгелери
мөгелериниң
мөгелерни
мөгелерниң
мөген
мөгени
мөгениң
мөгенниг
мөзү
мөзүлүг
мөнгүн
мөргүл
мөрен
мөч
мөчээн
мөчээниниң
мөчүзүн
мөңге
мөңгеде
мөңгүлек
мөңгүн
мөңгүнден
мөңгүннелчек
мөөгү
мөөгүлер
мөөреи
мөөң
мөөңнеп
мөөңнээшкини
н
на
наадым
наадымга
наадымның
наадымынга
наан
нааны
наар
наарактар
наарда
наары
наарын
наарынга
наарының
нааш
наб
набережная
набережные
наби
наваан
навас
навои
навсегда
наград
награда
наградами
наградил
наградили
награду
награды
награжде
награждена
награждении
над
наде
надежда
надежды
наделяев
надеюсь
надзор
нади
надин
надо
надои
надою
надоя
надписи
надпись
надып
надыпкан
надя
надяның
надұлұше
назад
названа
название
названием
названии
названия
назначен
назначена
назначения
назы
называли
назыда
назылап
назылыг
назылыглар
назын
назында
назынныг
назынның
назыны
назынын
назынында
назынының
наи
наиболее
наил
наименовании
наина
нак
наклонение
накчы
накчызы
накчылар
накчыларның
накчылары
накчыларының
накчыны
налме
нам
намбыраловна
намдан
намдар
намдараа
намдары
намдарын
наме
намзал
намзыраи
нами
намның
намо
намчылак
намы
намын
намының
нан
нап
направлена
направление
например
нар
наречие
наречиелер
наречиелери
наркотиктер
народ
народа
народами
народах
народная
народно
народного
народное
народнои
народном
народностеи
народные
народныи
народным
народных
народов
народы
нарын
нарышкин
нарышкина
нас
наса
населе
население
населения
населенных
населення
насилов
наслег
наследие
наследия
наставники
настольном
настольному
настоящее
настя
насьональ
ната
наталия
наталья
наташа
наташи
нато
натрии
наук
наука
науке
науки
науч
научная
научно
научного
научное
научнои
научном
научные
научныи
научных
находится
нац
нации
национал
националдыг
национализм
националы
национальная
национального
национальное
национальнои
национальном
национальности
национальныи
национальных
нациязы
нациялар
начал
начала
начале
начали
начало
начальниги
начальник
начальника
начальнои
начальныи
начинается
начиная
начын
начыны
наш
наша
наше
нашего
нашеи
наши
наших
нашли
нашу
ная
наявного
нб
нберг
нг
нген
нгу
нда
нде
не
неандертал
неаполь
неба
небесная
небо
невель
неверныи
невеста
невытканныи
негелде
негелдези
негелделер
негелделерге
негелделери
негелделерин
негелделиг
негеп
негеттинер
негеттинип
него
негр
негээн
недели
неделя
неделяда
недоступная
нее
независимая
независимости
независимых
неи
неизвестные
некоторые
некоторых
некрасов
некрасова
некролог
некрополь
нелегал
нелли
нельзя
нельсон
нем
немежип
немежир
немеи
немелде
немелделиг
немеп
немец
немецкии
немецкого
немецкои
немецтер
немецтерге
немецтерниң
немешкен
немештир
нему
немээн
немээр
нен
необходимости
необязательныи
неоднократно
неолит
неопр
непалда
нептергеи
нептередикчизи
нептередип
нептередир
нептередири
нептередиринге
нептереи
нептереп
нептереткен
нептереңгеи
нептерээн
нептун
нер
нерв
нерви
нервнои
нескольких
несколько
неслихан
несмотря
нет
нефрит
нефти
нефть
нефтянои
нечепорчукова
нечун
ни
нидерл
нидерланд
нидерландылар
ние
ниже
нижегород
нижнем
нижнеудинск
нижнии
нии
ниити
ниитиге
ниитижи
ниитизи
ниитилел
ниитилелге
ниитилелде
ниитилелдери
ниитилелди
ниитилелдиң
ниитилели
ниитилелиниң
ниитилелчи
ниитиниң
ниитичи
ник
ника
ники
никита
никитенко
никитин
никитина
никитич
никитична
никогда
никола
николаева
николаевич
николаевича
николаевка
николаевна
николаенко
николаи
николас
николая
никольская
никольское
никотинниг
никто
никуленков
никулин
никулина
никулинниң
ним
нимажап
нимажаптың
ними
нин
нина
нинель
нины
нип
нирмала
них
нихал
нихат
ничего
ния
ниң
ниӊ
нк
нка
нквд
нко
нков
нм
нна
ннар
нная
нниң
нного
нное
ннои
нном
нные
нныи
нных
но
ноа
нобелевская
нобелевскии
нобелевского
нобелевскои
нобелевском
нобель
нов
нова
новая
новгород
новеи
новелла
нович
новна
ново
нового
новодевичье
новое
новои
новокуи
новомосковскии
новосибирск
новосибирскиге
новосибирскиниң
новосибирскои
новостеи
новости
новотитаровскои
новые
новыи
новым
новых
ногаа
ногааларда
ногаан
ногаанзымаар
ногаи
ного
ное
нои
ноин
нок
нокаут
ном
номга
номда
номдан
номер
номинации
номинация
номинацияга
номинацияда
номинацияның
номналын
номнар
номнарга
номнарда
номнарны
номнарның
номнары
номнарын
номнарында
номнарының
номну
номнуң
ному
номун
номунга
номунда
номундан
номунуң
номунче
номчаан
номчааш
номче
номчудар
номчукчу
номчукчулар
номчукчуларга
номчукчуларның
номчукчуларының
номчулга
номчуп
номчуттунар
номчуур
номчууру
номчуурунга
нонпарель
нор
нора
норбу
норв
норвег
норвегия
норвегияның
норвеж
норма
нормативныи
нормы
носова
ности
ночи
ночнои
ночными
ночь
нояб
ноябрь
ноябрьда
ноябрьдан
ноябрьның
ноября
ноян
ноянга
нояннар
нояннарга
нояннарның
нояннары
ноянны
ноянның
нояны
ноғаи
нп
нравственность
нтв
нтл
ну
нугуман
нудненко
нужен
нужно
нук
нулгынэт
нун
нунга
нунче
нур
нургулаи
нурдида
нурзат
нури
нуриевна
нурнуң
нурсат
нуруузунда
нут
нуу
нуур
ную
нуң
нуӊ
нче
нштеи
ны
ные
ныи
ныкыыс
ным
нын
ныне
нып
ныр
ных
ның
ныӊ
нью
ньютон
нюра
нюргун
няня
нү
нүгүл
нүгүлдүг
нүң
о
оао
об
обд
обелиск
обеспечения
обзор
обитавших
обитания
обкома
обкомнуң
обкомунуң
обл
обладатель
облазы
облазынга
облазында
облазыннын
облазынның
облазынныӊ
облазынын
облазының
облазыныӊ
области
областка
областного
областнои
областың
область
областька
областьта
областьтка
областьтың
областьче
обложка
облысы
обнаружены
обозрение
оборону
обороны
обоснование
обработки
образ
образа
образование
образовании
образованию
образования
образованиям
образовательного
образовательных
образом
образцов
образцы
образы
обратно
обращения
обручев
обручева
обсерватория
обсерваториязынга
обухова
обучение
обучения
общ
общая
общего
общее
общежитие
общеи
обществ
общества
обществе
общественно
общественного
общественнои
общественную
общественным
общественных
общество
общие
общии
объе
объедине
объединение
объединения
объект
объектизи
объектилер
объектилери
объектилерин
объектилериниң
объектини
объектов
объем
объему
обыденныи
обычаи
обязательств
ова
оваа
оваалыг
оваарымчалыг
ович
овур
овчинникова
ог
ога
огада
огаи
оганың
оги
оглан
оглу
оглум
оглун
оглунга
оглунуң
огненная
огни
огоне
огонь
огород
огородтарда
огу
огуз
огун
огус
огуш
огыл
од
ода
одаар
одага
одагалыг
одаи
одар
одесса
одессага
одессаның
один
одиннадцатои
одиннадцать
одиноким
одинцово
одна
однажды
однако
одним
одно
одновременно
одного
однои
одном
однофамильцев
одну
оду
одунган
одура
одуруг
одуругда
одуругдан
одуруглар
одуругларны
одуругларын
одуруглуг
одуругну
одуругнуң
одө
ожук
озал
озалааш
озгат
озе
озера
озеро
ознаменование
ознаменовании
озондан
ои
оиифф
ок
ока
океан
океана
океанга
океанда
океанның
океанче
окинских
оккервиль
оккупастаан
оккупации
оккупация
окладников
окна
около
окончании
окончания
окончила
округ
округа
округка
округов
округтуң
округу
округунуң
окружающеи
окружающии
оксана
оксид
оксфорд
окт
октаан
октаар
октааш
октап
октапкан
октапкаш
октаптар
октар
октаргаи
октары
октарын
октаткаш
окту
октуг
октуң
октябре
октябрь
октябрьга
октябрьда
октябрьдан
октябрьның
октябрьская
октябрьскии
октябрьского
октябрьскои
октября
окунев
ол
ола
олар
оларга
оларда
олардан
оларже
оларны
оларнын
оларның
оларныӊ
олары
оларын
олбук
олег
олегович
олень
олеся
олзеи
оливелья
оливер
олии
олимп
олимпиада
олимпиадага
олимпиаданың
олимпиаде
олимпии
олимпия
олма
олонхо
олонхожулар
олонхону
олонхонуң
олур
олура
олурар
олурган
олургаш
олурда
олурткан
олуртуп
олуртур
олуруп
олурупкан
олурупкаш
олуруңар
олут
олуттуг
олча
олчаан
олчазы
олче
ольга
ольгердовна
ольги
оля
ом
омааш
омааштап
омак
оман
омар
омск
омскиниң
омскои
он
она
онаажыр
онаан
онаарының
онаашкан
онааштыр
онат
онаңович
онга
онда
ондакка
ондар
ондара
ондарның
ондарович
оне
онегин
онза
онзагаи
онзаланып
онзалап
они
онлаи
оннар
оннарда
онного
оннуг
оннуң
оно
онов
ону
онунга
онунда
онуннуң
онунуң
онунуӊ
онче
оны
оның
оо
оода
оожуктуруп
оожум
оожургадып
оожургадыр
оожургал
оозу
оозун
оои
оол
оола
оолак
оолакаевич
оолга
оолдар
оолдарга
оолдарлыг
оолдарны
оолдарның
оолдары
оолдарын
оолдарының
оолду
оолдуг
оолдун
оолдуң
оолович
ооловна
оон
ооо
оор
оорга
ооргазы
ооргазын
ооргазынга
ооредилге
ооренип
ооржак
ооржактың
оорлаан
оорлаар
оорлаашкын
оорлап
оортан
ооң
ооңеи
ооӊ
оп
опан
опеи
опера
операның
оперативтиг
оператор
оператором
оператору
операции
операция
операциялар
оперы
описание
описываемои
опись
определе
определение
определения
определено
определены
оптиктиг
оптимального
опубликован
опыт
опыта
опытом
ор
ора
ораагаш
ораап
ораи
оралакчы
оралакчызы
оралакчызынга
оралакчызының
оралдажып
оралдажыр
оралдашкан
оран
оранга
оранда
орандан
ораннарга
ораннарын
оранның
оранче
оранчок
ораны
оранынга
оранында
оранындан
оранынче
орар
орбита
орбиту
орган
органа
органами
организакчы
организакчызы
организас
организастаан
организастап
организастыг
организатор
организатору
организации
организационно
организация
организациязы
организациязын
организациязынга
организациязының
организациялар
организациялары
организацияларының
организацияның
организм
организмге
организмниң
органиктиг
органнар
органнарга
органнарның
органнары
органнарынга
органнарының
органов
органы
оргаш
оргу
оргулааш
орда
ордабаев
орданың
орден
ордена
орденами
ордени
орденин
ордениниң
ордениннин
орденинниң
орденнер
орденнери
орденнериниң
орденниң
орденов
орденом
ордос
орду
ордуже
ордузу
ордузун
ордузунга
ордузунче
ордуну
ордунуң
оре
орел
оренбург
оренбургка
оренбургская
орестовна
ориг
оригинал
оригиналдыг
оригинальное
орк
орке
оркестр
оркестри
оркестриниң
оркестрниң
оркестром
оркка
оркта
орктуң
орлан
орлов
орлова
орну
орнукшудар
орнукшударда
орнукшуткан
орнун
орнунга
орнунда
орт
орта
ортаа
ортаакы
ортан
ортузу
ортузун
ортузунга
ортузунда
ортузундан
ортуку
ортулук
ортулукка
ортулукта
ортулуктар
ортулуктарда
ортулуктары
ортулуктуң
ортулуу
ортумаа
ортумак
ортун
ору
оружие
орук
орукка
орукта
оруктар
оруктарны
оруктары
оруктарын
оруктарының
орукту
оруктуг
оруктуң
орукче
орулга
орулгалыг
орун
оруннары
оруп
орус
орустап
орустар
орустарга
орустардан
орустарны
орустарның
орустуң
оруу
оруун
оруунга
оруунуң
оруунче
орфографтыг
орхан
орхон
освещении
освобождение
освобождения
освоении
освоения
освоила
осеннии
осень
осетия
осипенко
осипов
осиповна
оскар
оске
осло
осман
османлы
основание
основания
основатель
основе
основная
основного
основнои
основные
основных
основы
особенно
особенности
особенностях
особо
особые
особыи
осталась
остров
островскии
островского
остроградскии
остром
остроумова
осур
осуществлено
осы
от
отан
отв
отвагу
ответ
ответственныи
отд
отдел
отдела
отделение
отделении
отделения
отделом
отдельных
отдых
отдыха
отдыхающие
отец
отечества
отечественная
отечественного
отечественнои
отечественные
отечеством
отка
открылась
открыли
открылся
открытие
открытии
открытия
открытыи
открытых
отличие
отличник
отметил
отмечает
отношение
отношении
отношения
оториноларингология
отпуск
отработала
отражение
отрасли
отрасль
отряд
отрядтың
отряды
отрядының
отс
отсылка
отсылки
отто
оттуг
оттук
оттулар
оттуп
оттурган
оттуруп
оттуң
отца
отче
отчет
офицер
офицери
офицерлер
офицерлерни
официалдыг
официальная
официально
официальном
официальныи
охемчик
охота
охрана
охране
охраны
оценка
оценке
очалаң
очалаңдан
очалаңның
очень
очериги
очерк
очерки
очерктер
очерктери
очно
очуду
очул
очулга
очулгага
очулгада
очулгазы
очулгазын
очулгалар
очулгалары
очулдурар
очулдурарга
очулдурары
очулдурган
очулдургаш
очулдурттунган
очулдуртунар
очулдуртунган
очулдурукчу
очулдурукчузу
очулдуруп
очур
ошибка
ошку
оъду
оъдунуң
оът
оъттап
оъттар
оъттуг
ою
оюк
оюлган
оюлганнаар
оюн
оюнга
оюнда
оюнзаевна
оюннар
оюннарга
оюннарда
оюннарны
оюннарның
оюннары
оюннарын
оюннарынга
оюннарынның
оюннарынныӊ
оюннарынче
оюннарының
оюнну
оюннуң
оюновна
оюну
оюнун
оюнунга
оюнунда
оюп
оюу
оя
оғуз
оқ
оң
оңгар
оңгарга
оңгарлар
оңгарны
оңгул
п
па
пабло
павел
павла
павлов
павлович
павловна
павловны
пага
падеж
падежи
падежинде
падежиниң
падежтер
падме
паи
пак
пакистан
пакистане
палатазының
палаталыг
палеолиди
палеолит
пали
палл
пальмбах
памир
памяти
памятная
памятник
памятники
памятников
памятные
память
пана
панарина
пандемияның
пандито
панкратов
панорама
панчен
папа
папоушкова
пар
пара
парад
парада
паралимпии
параметр
параметрлерин
параметрни
параметров
парамита
параолимпии
парашют
парень
пари
париж
парижке
парижскои
парижте
парижтиң
парижче
парк
парке
парлаан
парлаар
парладып
парлалга
парлалгаже
парламент
парламента
парламентизи
парламентизиниң
парламентилери
парламентиниң
парлап
парлаткан
парлаттынган
парлаттынып
паром
пароходства
пароходтар
партизан
партизаннарның
партии
партия
партияга
партиядан
партиязы
партиязынның
партиязының
партиялар
партияның
партне
паспорт
пассажир
пассажирлер
паста
патент
патенты
патологии
патология
патриарх
патриот
патрушев
паулу
пауль
пачелма
паш
пашка
пашта
пашты
пашче
пг
пгк
пе
певец
певица
пед
педагог
педагогика
педагогиканың
педагогики
педагогиктиг
педагогическии
педагогических
педагогического
педагогическои
педагогическом
пеи
пекин
пекинге
пектиннер
пелагея
пен
пенальти
пенза
пензенская
пение
пенов
пенсионер
пенсия
пенсияда
пенсияже
пер
первая
первенства
первенство
первого
первое
первои
первоисточника
первом
первомаи
первую
первые
первыи
первым
первыми
первых
переаб
переведена
переведено
перевод
переводе
переводов
переводчик
переводы
перед
переда
передач
передачи
передовиков
передовиком
передовои
передовые
передовых
переехала
переи
переиздание
переименовывалась
перепелица
переписи
переписка
перепись
перепле
перераб
переработке
переработки
перестрои
переулок
переход
перехода
перечень
переше
перешла
перигеи
период
периода
периодиктиг
периодического
периодтуг
перл
пермь
пермьге
перо
перон
перс
перси
персид
персидского
персонажа
персонажтарның
персоналдыг
персоналии
персональная
персональныи
перспективы
перстерниң
перу
песен
песни
песню
песня
петербург
петербурга
петербурге
петербургка
петербургскии
петербургское
петербургта
петербургтуң
петербургтуӊ
петербургче
петербургъ
петр
петра
петров
петрова
петрович
петровича
петровна
петровои
петровскии
петроглифы
петроград
петроградтың
петрозаводск
петропавловск
печати
печатных
пи
пианист
пианистка
пиво
пии
пикассо
пикассонуң
пиковая
пилацкая
пилот
пиньинь
пио
пион
пионер
пионерлер
пириңлеи
писал
писателеи
писатели
писатель
писателя
письма
письменности
письмо
питер
питт
пищевои
пкотс
плавания
пламя
план
плана
плане
планет
планета
планетазы
планеталар
планеталарга
планеталарның
планеталарының
планетаны
планетаның
планеты
планнап
планнар
планшет
планшеттер
планы
планын
платина
платон
платформа
пле
плеи
племе
племен
племена
племенами
племенах
племя
плену
плеханов
плисецкая
плисецкои
плодотворную
площади
площадь
плутарх
плутархтың
плутон
плэи
плюс
пляжному
по
побег
победа
победил
победила
победителем
победители
победитель
победу
победы
поверхность
повествование
повествования
повести
повесть
повидло
повышение
повышения
погибли
погодин
погребения
под
подагра
подарок
подвиг
подгорная
подготовка
подготовке
подготовки
подгруппа
поддержке
поддержки
подкова
подольски
подполковник
подпорожье
подруга
подряд
подход
пое
поезд
поздравил
поздравление
поздравления
позже
позиции
позицияга
позицияны
познанскии
познер
пои
поиск
поисках
поиски
пока
показала
показателеи
показатели
показывать
поколении
поколения
поколениях
покровская
покровские
покрышкина
пол
полвека
поле
полевая
полеводческои
полевои
поливанов
полиграф
полиграфия
полимерлер
полина
полисахаридтер
полит
политехниктиг
политехтиг
политиздат
политик
политика
политикага
политиказы
политиказының
политике
политики
политиктиг
политическая
политические
политическии
политических
политического
политическои
политология
полиция
полицияның
полк
полка
полковниги
полковник
полктун
полктуң
полку
полного
полное
полномочным
полностью
полные
полныи
полным
половина
половине
положение
положения
полонии
полтава
полтавчанка
полу
полугу
полугунун
полулях
получала
получение
получения
получил
получила
получили
получило
получить
поль
польск
польского
польскои
польша
польшага
польшадан
польшаның
польши
поля
поляк
поляков
поляр
полярная
полях
помидор
помнили
помогала
помощь
помощью
понедельник
понимание
понна
поп
попков
попкова
попов
попова
поппе
поппениң
популярлыг
популярная
попытка
пор
пора
поражением
порода
порт
портал
портале
порталынче
портнова
портр
портреди
портрет
портреты
португалия
португалияның
поручению
порфирии
порядка
порядке
порядок
посвящ
посвящается
посвяще
посвященнои
посвященныи
посе
поселении
поселения
после
последнее
последние
последнии
последняя
послесловие
послом
посмертно
пособие
посол
пост
постановление
постановлении
постепенно
постоянно
постоянного
постоянное
потанин
потанина
потапов
потапова
потенциал
потом
потомкам
потомки
потомков
потому
потоп
потопа
похищение
похлебкин
поход
похоронена
поццо
поче
почему
почета
почетного
почетные
почетныи
почитаемые
почта
почти
почтовая
почтовыи
пошелюжныи
поэзии
поэзия
поэма
поэмалар
поэмы
поэт
поэта
поэтиктиг
поэтому
появилась
пояс
пперт
ппс
пр
пра
прав
права
правах
правда
правды
правил
правила
правилам
правильного
правительства
правительстве
правительство
править
правления
право
правовое
правовои
правовые
правовых
правонуң
православ
православие
правосудия
праву
правыи
прага
праджняпарамитаның
праздник
праздники
празднования
практ
практика
практикалап
практики
практиктиг
практическои
прасковья
пред
предисл
предисловие
предков
предоставляется
предприятие
предприятиезиниң
предприятиениң
предприятии
предприятия
председателем
председатель
председателя
представителеи
представители
представлена
представления
представляла
представляю
предшествующем
прежде
прежних
президент
президента
президенте
президентизи
президентизин
президентизиниң
президентизинниң
президентиниң
президентом
президиум
президиума
президиуму
президиумуннун
президиумунун
президиумунуң
прекрасная
премии
премию
премия
премиязы
премиязын
премиязының
премияның
премьер
премьеразы
пресс
пржевальскии
пржевальского
при
прибавления
прибаи
приволжскии
прие
приз
призе
призером
признан
приисках
приказ
прикладных
приключения
приложение
приложения
прим
применение
применения
пример
примере
примечания
приморскии
принимает
принимал
принимала
принцева
принцеваның
принцесса
принципы
принял
приняла
принятых
природа
природных
природы
прирост
присвоении
присвоено
приступил
приступила
причастиелер
пришлось
про
проблем
проблема
проблеме
проблемы
пробуждение
проведении
проведения
проверено
проверьте
провинции
провинция
проводится
проводить
прогноз
программ
программа
программага
программазы
программазын
программазынга
программалар
программаларын
программаны
программаның
программе
программист
программы
прогресс
прогрессивных
продажи
продолжала
продолжение
продукт
продуктивности
продуктов
продуктузу
продуктулар
продукции
продукцию
продукция
продюсер
продюсери
проект
проекта
проектах
проекте
проектизинге
проектилер
проектиниң
проживала
проза
прозаик
прозачы
прозорова
прои
произведении
произведения
производительности
производства
производстве
производственного
производственные
производственных
производство
производству
происходит
происхождение
происхождении
происхождения
прокат
прокофьев
прокофьева
прокуратуры
прокурор
прокурору
пролетарская
промышленнои
промышленности
пропаганда
пропп
проработала
проректору
проса
просветительское
просвещение
просвещения
проспект
просто
простоквашино
пространства
пространстве
протез
протестант
протесты
против
протокол
протоколы
протяжении
проф
профессии
профессионал
профессионалдыг
профессионального
профессиональныи
профессию
профессия
профессиязы
профессияны
профессор
профессора
профессорлар
профессору
профилактика
профиль
профэвилел
профэвилелдер
профэвилелдериниң
профэвилелдерниң
профэвилелиниң
проходит
прохоров
процедур
процесс
процесса
процессе
процессов
процессы
прошла
прошлого
прошлое
прошлом
прощаи
проявленную
прыжок
прямои
псаммит
псевдоним
психиатрии
психиатрия
психика
психиктиг
психолог
психологии
психология
психологтуг
псков
псковскои
птах
птиц
птица
птицы
пу
публ
публикации
публикация
публицист
публицистиг
публицистика
пугаче
пулеме
пулса
пунктов
пунктуация
пусть
путеводитель
путевые
путеи
путешественник
путешественники
путешествие
путешествии
путешествия
пути
путин
путина
путинниң
путораи
путь
пухов
пушкин
пушкина
пушкинниң
пциг
пшеницы
пылжит
пьер
пьес
пьеса
пьесе
пьесы
пюрбю
пюрбюнуң
пяти
пятилетка
пятилетки
пятилетнего
пятница
пятыи
пять
піліпау
пөкпедим
пөс
пөстер
пөш
р
ра
работ
работа
работает
работал
работала
работали
работать
работах
работе
работник
работников
работница
работои
работу
работы
рабочая
рабочеи
рабочии
рабочих
равно
рагозина
рагс
рада
радж
раджасекхаран
ради
радии
радик
радио
радиоактивность
радиоактивтиг
радиоведущии
радиога
радиостанция
радиосы
радист
радиузу
радиф
радлов
радоновых
раевскии
раз
раза
разведка
разведки
разведчик
разведчица
развитие
развитием
развитии
развитию
развития
раздел
разделе
различия
различного
различных
разнообразия
разных
разработка
разработке
разработки
разработку
разряда
раи
раиса
рак
ракета
ракобольская
рам
рамазан
рамазановна
раменскии
раменского
раменское
рами
рамках
рамн
ран
раневская
ранее
ранних
рано
ранова
раньше
рао
раскладка
раскова
расковои
раскопки
распоряжение
распределение
рассадин
рассадина
рассказ
рассказал
рассказов
рассказы
растениеводстве
растении
растения
растительности
растут
расче
расширение
рат
раттар
рафаилович
рафаэль
рах
рахимов
рахимович
рационалдыг
рашид
рақ
рб
рга
рггу
рген
ргнф
рго
ре
реабилитация
реал
реала
реализации
реальности
реальность
реальныи
ребе
ревизор
ревматизм
революстуг
революсчу
революции
революционер
революционного
революция
революциязы
революциязының
революцияның
рег
регби
регбиге
регболу
регина
регион
региона
регионалдыг
региональная
регионального
региональнои
региональные
региональныи
региональных
регионах
регионнар
регионнуң
регионов
регионы
регламент
ред
редактирование
редактор
редакторлаан
редакторлааны
редакторлап
редактору
редакторунга
редакторы
редакциеи
редакционная
редакция
редакциязынга
редакциязының
редкол
редколлегия
реестр
реж
режиссе
режиссер
режиссеру
режиссура
резерва
результат
результатам
результатов
результаты
реи
рек
река
реке
реки
реклама
реконструкции
рекорд
рекордные
рекордсмен
рекордсмени
рекордтары
рекордту
рекордтуг
рекордун
рекреациялыг
ректор
ректору
рекурсия
религии
религиозная
религиозно
религиозного
религиозности
религиозные
религиозных
религия
релиз
рембрандт
рембрандтка
рембрандтың
ремонт
рене
репертуарында
репин
репрессии
репрессияга
репрессиялар
репрессияларга
репрессиялаткан
рес
респ
республик
республика
республикага
республикада
республикадан
республиказы
республиказында
республиказының
республикалар
республикаларның
республиканның
республиканская
республиканскии
республиканского
республиканскои
республиканы
республиканын
республиканың
республиканыӊ
республике
республики
республикианың
республикои
рестлери
ресторан
ресурс
ресурсов
референдум
референтизи
рецензенты
рецензия
рецептизи
речбер
речи
речь
решение
решении
решения
решка
рж
ржи
ржонсницкии
ри
риа
ривер
ривера
рид
риддер
риддлс
рим
рима
римге
римма
римниң
римская
римскии
римчи
римчилер
ринпоче
ринчен
рио
рис
рисола
рита
ритмиктиг
ритуал
рихтер
ричард
рк
ркка
ркп
рлап
рлар
рларны
рлары
рма
рн
рная
рнуң
рныи
ро
роббек
робер
роберт
ров
рова
ровно
рога
род
рода
роде
родилась
родился
родина
родину
родины
родиона
родионовна
родителеи
родители
родного
роднои
родном
родному
родным
родов
родом
родригес
родственники
родственных
рождение
рождении
рождения
роза
розенстила
розы
рои
рок
року
ролан
роланда
роли
роль
рольдар
рольдарны
рольдары
рольдарын
рольду
ролью
ролю
ролюн
ролюнга
ром
роман
романнар
романнары
романның
романов
романс
романтиктиг
романченко
романчы
романы
романын
романында
ромашка
ромашки
ромео
рон
рос
росс
россиеи
россии
россини
россию
россия
россияга
россияда
россиядан
россияже
россияне
россияннын
россиянның
россиянныӊ
россияны
россиянын
россияның
росспэн
росстат
рост
роста
ростов
ростовская
ростовскои
ростовтуң
ростоцкии
рот
роща
рр
рс
рсдрп
рская
рсфср
рт
рта
ру
руаджан
руб
рубежом
рубин
рублеи
рубль
руда
рудазы
рудалыг
руденко
рудн
рудольф
рук
руках
руки
руководителем
руководитель
руководство
руководством
рульдуг
рум
румын
румыния
румынияның
руналыг
руника
руниктиг
рурская
рус
руслан
русск
русская
русские
русскии
русских
русско
русского
русское
русскои
русском
рушаи
рушеваның
рушевои
рф
рфс
рч
ры
рыбаков
рыза
рынок
рыночнои
рыфат
рыцарь
рьевна
рэа
рэи
рэп
рэпер
рюштю
ряд
ряда
рядовои
рядом
ряду
ряды
рязанскои
рязань
с
са
саадак
саадап
саадапкан
саазын
саазынга
саан
саанчы
саанчызы
саанчылап
саап
саар
саарар
саарзык
саарылга
сааттыг
саая
сабиха
сабри
сава
савага
савазы
савазын
савалар
саваны
саваң
саввична
савельева
савельевна
савинов
савчук
сага
сагаан
сагаи
саган
саганы
сагган
сагды
сагламер
саглы
сагываи
сагыжы
сагыжын
сагыжынга
сагыл
сагылга
сагындырар
сагындырып
сагып
сагыш
сагыштыг
сагыызын
сагыыр
сагыыры
сагыырының
сад
сада
садар
садары
саджах
садтарда
сады
садыг
садыгжы
садыгжылар
садыглажылга
садык
садып
сазыкина
саи
саит
сакагавея
сакаит
саксон
саксофон
сактып
сактыр
сактырга
сактыышкын
сактыышкыннар
сактыышкыннары
сактыышкыннарын
сактыышкыным
сал
сала
салаа
салаалар
салават
салам
салар
салба
салбаан
салбаи
салбас
салбыр
салбыры
салбырын
салбырынга
салбырынче
салбырының
салгаан
салгакчызы
салгакчылары
салгал
салгалга
салгалдан
салгалдар
салгалдары
салгалдарын
салгалдарының
салгалды
салгалдың
салгалче
салгалы
салгалын
салгалының
салган
салганик
салганнар
салгап
салгаш
салгын
салдам
салдап
салдар
салдарлыг
салдарны
салдары
салдарын
салдарынга
салдарындан
салдарының
салдынган
салдынып
салдың
салзыңмаа
салчак
салчаковна
салым
салымныг
салымы
салымын
салып
салыптар
салыптарга
салыр
салырда
салыры
салыышкын
салыышкыны
салыышкынын
сальвадор
сальвадора
сам
сама
самагалдаи
самара
самарканд
самарская
самая
самбажык
самбо
самбога
самбу
самбуу
самбыра
самдан
самдар
самедов
сами
самнап
самның
самоди
самодии
самое
самои
самоле
самолет
самом
самостоятельно
самоуправления
самсонова
самуилович
самчы
самы
самые
самыи
самым
самых
самыын
самыяа
сан
санаа
санаан
санааны
санаар
санаарга
санаарда
санаары
санааш
санаашкын
санаашкыны
санаашкынын
санаашкынынга
санаваи
санадып
санаев
санаи
санал
саналга
саналдаан
саналдап
саналдар
саналы
саналын
санап
санатории
санаттынар
санаттынган
санаттынып
санатынар
санатынып
санга
сангун
сандаи
сандан
санинструктор
санитар
санитарка
санитарлыг
саният
санкт
саннар
саннарны
саннарының
санны
санныг
санның
санск
санскр
санскрит
сантиметр
сантиметрде
санчаа
санчааевич
санчат
санчы
саны
санын
санынга
санында
санындан
санынче
санының
саныяң
саньдага
саори
сар
сара
сараи
сарала
саратов
саратовка
саратовская
саратовскои
саратовтуң
сарвар
саргалаң
сардана
саржаг
саржаглыг
саржагны
сарлык
сарлыктар
сарлыктың
сармат
сароджини
сарт
сартыыл
сары
сарыг
сарыгзымаар
сарыглар
сарын
сарыоглу
сарыылдыг
сарыым
саския
сасмен
сат
сатира
сатирик
сатириктиг
саткан
саттар
саттынган
саттыныкчы
сатурн
сауд
сафьянов
сафьяновтуң
саха
сахаджа
сахаларның
сахаров
сац
саша
сашаны
сая
саяан
саян
саяна
саяннар
саянның
саяно
саяны
саятыевна
саң
саңче
саңы
саңын
саңынга
саңының
сб
сборная
сборник
сборнике
сборнои
сборную
сборные
св
свадьба
сванидзе
сваха
све
сведении
сведения
свердловск
свердловскиге
свет
света
свете
светил
светла
светлана
светланы
свеча
свидание
свидетели
свидетельства
свинаре
свинаркои
свинец
свобода
свободе
свободнои
свод
свое
своего
своеи
свои
своим
своих
свою
своя
свыше
связанных
связи
связь
святителя
святого
святои
священные
сделать
се
себе
себрова
себя
севастополь
севек
севера
северная
северного
севернои
северные
северныи
северных
северо
северск
северьянов
севи
севилья
севин
севортян
севьян
севээн
сегии
сегип
сегиржип
сегирип
сегис
сегленмеи
сеглеңмеи
сегодня
седен
седип
седипович
седора
седоры
седьмои
сезен
сези
сезик
сезон
сезона
сезонда
сезоне
сезоннар
сезоннарда
сезонну
сезоннуң
сезонов
сезону
сезонун
сезонунда
сеи
сек
секиз
секонд
секрет
секретарлап
секретары
секретарынга
секретарының
секретарь
секретарьлап
секретаря
секреты
секс
сектор
секторнуң
сектору
секторун
секторунга
секторунуң
секты
секунд
секунда
секундага
секундада
секции
секция
секциязынче
сел
села
селе
селекция
селеме
селена
селенаның
селенга
селенганың
селеңе
селиванов
село
селчук
сельма
сельмы
сельская
сельскии
сельских
сельского
сельское
сельском
сельскохозяи
сельсовет
селютина
сем
семантика
семантиктиг
семантическая
семасиология
семе
семеи
семененко
семеновна
семи
семинар
семинара
семинариязынга
семиотика
семис
семнадцать
семь
семье
семьи
семья
сен
сендажы
сендлерова
сени
сент
сентябрь
сентябрьда
сентябрьның
сентября
сенчен
сеп
сепке
сепсякова
септеп
септээр
сер
сера
серафима
серб
сервет
сервис
серге
сергеев
сергеева
сергеевич
сергеевна
сергеи
сергек
сергея
сергіі
сердобов
сердца
сердце
сере
серебренников
серебряная
серебрянои
серебряныи
серекеи
серен
серенот
сержан
сержант
сержантызы
сери
сериал
сериалда
сериалдар
сериалдың
серии
сериин
серия
серлиф
серп
сертификат
серье
серээдар
сес
сесеге
сесерлиг
сесерлик
сески
сессии
сессиязы
сестип
сестир
сестра
сестразы
сестры
сетевое
сети
сеткил
сеткилге
сеткилден
сеткилдер
сеткилдерни
сеткилди
сеткилдиг
сеткилдии
сеткилдиң
сеткили
сеткилимниң
сеткилин
сеткилинге
сеткилинде
сеткилинден
сеткилиниң
сеткүүл
сеткүүлге
сеткүүлдерге
сеткүүлдүң
сеткүүлү
сеткүүлүнге
сеткүүлүнүң
сеул
сеченова
сеяньто
сеңээ
си
сиб
сибаи
сибир
сибири
сибирниң
сибирская
сибирскии
сибирских
сибирского
сибирское
сибирь
сибирьге
сибирьде
сибирьже
сибирьниң
сивцев
сиген
сигени
сигениниң
сигенни
сигнал
сигрид
сида
сиддханта
сиддхартха
сидели
сидик
сиднеи
сидоров
сидоровна
сидя
сизим
сизых
сиилбип
сиилбээн
сиир
сил
сила
силер
силерге
силерже
силерлер
силерни
силерниң
силиг
силип
силлогизм
силу
силы
символ
символу
симеон
симпозиум
симферополь
симфоническая
симфония
син
сина
синаны
синаның
синара
сингапур
сингл
сингулярно
синкретизма
синтаксис
синтаксиске
синтаксистиг
синтетиктиг
синусси
сины
синь
синьхаи
синьцзян
синяя
сир
сирии
сирия
сирияда
сироткина
систем
система
системазы
системазын
системазынга
системазында
системазының
системалар
системаны
системаның
системе
системы
ситдиҡова
ситдыкова
сити
ситиге
ситуации
ситуация
сих
сиңген
сиңип
сиңирген
сиңирип
ск
ска
сказание
сказания
сказка
сказке
сказки
скала
скандал
скандинав
ская
скиге
ские
скии
ским
скиниң
скиф
ских
склифосовскии
склодовская
склонение
ско
скобка
ского
ское
скои
сколько
ском
скому
скончалась
скончался
скорость
скороходова
скота
скотт
скрипач
скрипка
скрипки
скрипникова
скульптор
скульптора
скульптура
скую
слава
славы
славян
славянскии
сладкая
сле
след
следствие
следует
следы
слишком
слобода
слов
слова
словак
словакия
словареи
словары
словарын
словарының
словарь
словарю
словаря
словения
словесности
слово
слог
слогтуг
служба
службе
службу
службы
служит
случае
случаи
случаю
слэмми
см
смерти
смерть
смертью
сми
смирнов
смирнова
смирновои
смит
смогла
смоленск
снаи
сначала
снг
снегурочка
снежная
снежныи
снималась
снова
сносок
со
соавт
соавтор
соавторстве
соавтору
собак
собака
собаки
собеседник
собои
соболезнования
собор
собрание
собрании
собрания
собственно
события
сов
соведи
совединге
совединиң
совединиңпрезидиум
совершенно
совесть
совет
совета
совете
советник
советов
советская
советские
советскии
советских
советско
советского
советское
советскои
советтиг
советтиң
советы
совм
совместно
совнархоза
современная
современник
современного
современное
современнои
современном
современности
современность
современные
современныи
современных
совхоз
совхоза
совхозе
совхозка
совхозтуң
совхозу
совхозунга
совхозунуң
согааш
согажа
согар
согдак
согдии
согласно
согуг
согун
согуна
согунаны
согунаның
согунну
согуннуң
согунчугаш
согур
содаа
содаандан
содержание
содержимого
содружества
содунам
сое
соединении
создал
создан
создана
создание
создании
создания
созыва
созывов
сои
соискание
соколов
соколова
сократ
сокровенного
сокровенное
сокровища
соксаал
соксаан
соксадып
соксадыр
соксаткан
соксатпаан
соктаан
соктаар
соктааш
соктап
сол
солаан
солагаи
солдат
солдаттар
солдаттарны
солизи
солистка
солистказы
солнца
солнцем
соло
соловье
соломон
солт
солтанов
солун
солунга
солунда
солуннар
солуннарга
солуннарынга
солуннарының
солунну
солуннуң
солуну
солунунга
солунунуң
солуп
солуттунмас
солуур
солчу
солчуп
солчур
солчуушкунун
солчуушкунунга
соль
сон
сонам
сонгу
сономжамц
сонуургаан
сонуургаар
сонуургадып
сонуургаи
сонуургал
сонуургалдары
сонуургалдыг
сонуургалы
сонуургалын
сонуурганчыг
сонуургап
соня
соо
сообщение
сообщества
сообщество
соогу
соогунда
соои
соок
соокка
сооксумаар
соокта
сооктан
соон
соонга
соонда
соондан
сооп
соора
соот
соответствие
сооткаш
соп
сопрано
сопредельных
сорбоннга
соревнование
соревновании
соревнования
соревнованиях
сорок
сорокина
сорт
сортов
сорттары
сорук
сорукту
соруктуг
сорулга
сорулгазы
сорулгазын
сорулгалар
сорулгалыг
сорулганы
сорунзалыг
соруу
соруун
соседка
сосновка
сост
состав
состава
составе
составил
составители
составитель
составляет
составтыг
составы
составынга
составында
составынче
состоялась
состоялся
состояние
состоянии
состоянию
сотникова
сотрудник
сотрудника
сотрудничества
сотрудничестве
сотрудничество
софия
софронов
софьи
софья
сохранение
сохранения
сохранить
соц
социал
социалдыг
социализмче
социалистиг
социалистических
социалистического
социалистическое
социалистическои
социалистическом
социальная
социально
социальнои
социальные
социальных
социокультурныи
социолог
социологические
социология
соч
сочи
сочиге
сочинение
сочинении
сочинения
сош
союз
союза
союп
соя
соян
соң
соңга
соңгаан
соңгаар
соңгу
соңгудуп
соңгулда
соңгулдага
соңгулдаларга
соңгулдалары
соңгулдаларынга
соңгуп
соңгуткан
соңгуттурган
соңгуттуруп
соңгуу
соңгуур
соңнаи
соӊгу
соӊгуткан
сп
спартак
спартака
спартакиадазынга
спас
спасибо
спб
спбгасу
спбгу
спектакле
спектакль
специализи
специалист
специалистер
специалистов
специалисттер
специалисты
специальности
специальность
специальныи
специальным
спешнева
спиридоновна
спирт
спиртке
спирттиң
список
спокои
спор
спордунуң
спорт
спорта
спортивная
спортивного
спортивнои
спортивные
спортивных
спортка
спортсмен
спортсмени
спортсменка
спортсменки
спортсменнер
спортсменов
спортсмены
спортту
спорттуң
спорту
спортче
спортчу
спортчузу
спортчулар
способ
справедливая
справка
справочник
справочное
спустя
спутник
спутники
спхута
спящая
ср
сравнительная
сравнительно
сравнительное
среда
среди
среднеазиатско
средневековья
среднего
среднеи
среднем
средние
средняя
средств
средства
средство
среды
сс
сср
ссрэ
ссрэниң
ссср
сссрэ
ссылка
ссылки
ссылку
ссылок
ст
ста
ставрополь
ставропольскии
ставропольского
стадник
стажировканы
стаи
стакан
стаканнап
стал
стала
стали
сталин
сталина
сталинград
сталинграда
сталинградка
сталинниң
сталинская
стало
стамбул
стамбулга
стамбулдуң
стан
станет
станислав
станиславовна
станиславскии
станица
станицага
станка
становилась
становление
становления
станции
станция
станциязы
станциязынга
станциязының
старина
старообрядцы
старт
стартовал
старшии
старшим
старшина
старые
старыи
статеи
статистика
статистиказы
статистики
статистическии
статистических
статистичнии
статузу
статус
статусе
статуя
стать
статье
статьи
статью
статья
стб
ств
ства
стве
ственного
ственнои
ственныи
ственных
ствие
ствии
ствительныи
ствия
ство
ству
сте
степан
степанов
степанова
степанович
степановна
степеи
степени
степи
степная
степнои
степь
стер
стерлитамак
стефановна
сти
стив
стивен
стили
стилин
стилинге
стилус
стилустуң
стиль
стильге
стипендия
стихи
стихов
стихотворении
стихотворения
стлб
сто
стои
стокгольм
стол
стола
столбец
столетии
столетия
столица
стопиа
стороне
стороны
стр
стран
страна
странах
страниц
страница
страницу
страницы
страны
страсти
стратегтиг
страх
стрелковои
стремительныи
стрикленд
стрит
строи
строительно
строительного
строительнои
строительных
строительства
строительстве
строительство
строки
строя
структура
структуры
стры
студент
студентизи
студентилер
студентилерге
студентилерниң
студентов
студии
студия
студиязы
студиязын
студиязынга
студиязынче
студиязының
стурова
стуровои
сты
стюарт
су
суарес
субурган
субъекта
субъектам
субъектизи
субъектилерниң
субъектов
суваи
сувакпит
сувандии
суваң
суворова
сувурган
сувурганга
сувурганнар
сувурганны
суг
суга
сугар
сугга
суггарар
сугда
сугдан
сугже
суглар
сугларның
суглары
суглуг
сугну
сугнуң
суд
сударчикова
судебных
судеи
суду
судунуң
судур
судурларны
судурну
судьба
судьбе
судьбы
судья
сузукеи
суи
суккан
суккаш
сукпак
суксун
суксуннар
суксуну
сула
суламифь
суларап
сулеи
султан
сумела
сумерки
сумо
суму
сумуга
сумуда
сумузу
сумузун
сумузунга
сумузунда
сумузундан
сумузунуң
сумулар
сумулуг
сумуну
сумунуң
сун
сунар
сунарда
сунгатуллина
сундуи
сундулуг
сундулуун
сунуп
суп
супер
суперкубогунуң
супруга
сура
сураа
сурагжаан
сураглыг
сургаалы
сургаалын
сургап
сургуул
сургуулдар
сургуулдары
сургуулу
суриков
сурикова
суртаал
сурун
сус
суслова
сут
сутки
суток
суу
суук
суун
суунга
суунуң
суур
суурга
суурганың
суурда
суурдан
суурже
сууржугаш
сууржуң
суурлар
суурларга
суурларда
суурларның
суурларын
суурну
суурнун
суурнуң
сууру
суурунга
суурунда
суурунуң
сухарева
сухои
сухоцкая
суш
существует
сущность
сфера
сфере
сферы
сфу
схема
сцена
сценага
сценаже
сценазынга
сценарии
сценарист
сцене
сцену
сцены
счастливыи
счастье
счастья
сче
сша
съезд
съезда
съездизи
съездизинге
съездизиниң
съездиниң
сывороток
сывы
сывын
сывырыпкан
сывырыпкаш
сыграл
сыгыдын
сыгыр
сыгырар
сыгыртып
сыгыртыр
сыгырып
сыгыт
сыгытты
сыгыттың
сыдым
сыи
сыкпас
сылдызы
сылдызын
сылдыс
сылдыстан
сылдыстар
сылдыстарга
сылдыстардан
сылдыстарны
сылдыстарның
сылдыстары
сылдыстарының
сылдысты
сылдыстыг
сылдыстың
сылдысчыгаш
сын
сына
сыннар
сыннарны
сыннарының
сынны
сынныг
сынның
сыны
сынын
сыныш
сыптыг
сыр
сыра
сырганы
сырдарья
сыртланова
сыртык
сыртыын
сырыглык
сырыи
сырых
сырья
сысоева
сыстыг
сыстып
сыын
сыңмас
сыңыи
сэ
сэкп
сэр
сэсэн
сээң
сюань
сюда
сюжеди
сюжет
сюжеттери
сюжеттерин
сюжеттиг
сюжеттиң
сюита
сюнну
сюрреалистер
сюрюн
сююмбике
ся
сяньби
січня
сѳс
сѳстен
сѳѳлгү
сѳѳлзүредир
сүбедеи
сүдү
сүдүн
сүдүнден
сүзүглеп
сүзүглээр
сүзүк
сүзүктүг
сүзүү
сүлде
сүлдези
сүлеи
сүмбер
сүме
сүмези
сүмезин
сүмелевеи
сүмележип
сүмелекчизи
сүмелеп
сүмелер
сүмелээн
сүмелээни
сүнезини
сүрген
сүрүн
сүрүп
сүрүң
сүт
сүтке
сүткүр
сүттен
сүттээн
сүттээр
сүттү
сүттүг
сүттүң
сүүр
сөглекчи
сөглеп
сөглээн
сөглээр
сөзү
сөзүглел
сөзүглелдери
сөзүглелди
сөзүглелдиң
сөзүн
сөзүнге
сөзүнден
сөзүнүң
сөи
сөктүп
сөс
сөске
сөсте
сөстен
сөстер
сөстерге
сөстерде
сөстерден
сөстери
сөстерин
сөстеринге
сөстериниң
сөстерни
сөстерниң
сөстү
сөстүг
сөстүк
сөстүң
сөстүү
сөстүүн
сөңнеп
сөңнээр
сөңү
сөөгү
сөөгүн
сөөгүнге
сөөгүнден
сөөгүнүң
сөөк
сөөктен
сөөктер
сөөктери
сөөктерни
сөөктүг
сөөктүң
сөөлгү
сөөлзүреди
сөөлзүредир
сөөлүнге
сөөлүнде
сөөрткен
сөөртүп
сөөртүр
сөөскен
сөөт
т
та
таавы
таакпы
таакпыны
таалал
тааланчыг
таалап
таан
тааржыр
таарымча
таарымчалыг
таарып
таарышкан
таарышпаи
таарышпас
таарыштыр
таарыштырып
табаков
табл
таблица
таблицага
таблицада
таблицу
таблицы
таваар
тавак
тавакка
тавакуль
таваржы
таваржып
таваржыр
таварты
таварылга
таварылгада
таварылгалар
таварылгаларда
таварылганы
таварып
таварышкан
таварышканнар
таварышкаш
таварышкылаар
таварыштыр
таволга
таврическии
таг
тадар
таджик
таджикистан
тадыр
тае
таженова
тажы
таи
таиланд
так
такая
также
таки
таким
таких
такого
такое
такои
такпыр
таксона
таксономии
такш
тал
тала
талаан
талаар
талааш
талага
талада
таладан
талаже
талазы
талазын
талазынга
талазында
талазындан
талазынче
талазының
талаи
талакы
талалакчызы
талалакчылары
талалар
талалары
талаларын
талаларында
талалыг
таланта
таланты
талантызын
талантылыг
таланың
талап
талдар
талды
талдыг
талдың
таллин
там
тамара
тамба
тамбов
тамдын
тамы
тан
тана
танал
танды
танец
танзын
танк
танкистер
танкыга
танкының
танну
танов
танова
тансылу
тантра
танца
танцы
танцылаар
танцылап
танцылар
танцычы
танчаи
таншу
таныжып
танып
таныш
танышкан
таныштырган
таныштырып
таныыр
таня
тап
тапсы
таптыг
тар
тара
тараа
тараадан
тараазын
тараалар
тараан
тарааны
тарааның
тараачын
тараачыннар
тарады
тарадып
тарадыр
тараи
тарак
тарамык
тарап
тарас
тараткан
тарбагатаи
тарина
тариназы
тариналарны
таринаны
тарихи
таркан
тарлаг
тарн
тарш
тарылга
тарылгага
тарылганы
тарымал
тарып
тарыыр
тарэ
тас
тасс
тастың
тат
тата
татар
татаринцев
татаринцева
татарлар
татарлары
татарская
татарскии
татарскои
татарстан
татарстана
татарстанның
таттин
татьяна
татьяны
тау
тах
таццяна
ташкент
таян
таң
таңгыт
таңды
таңдыга
таңдыларда
таңдым
таңдының
таңма
таңмазы
таңмалар
таңныыл
тбилиси
тв
тве
тверская
тверскои
тверь
творческии
творческую
творчества
творчестве
творчество
тгсэтши
тгтши
тгши
тдлтэши
тдчши
те
театр
театра
театральная
театрального
театральные
театральныи
театрга
театрдан
театре
театрже
театрлар
театрны
театрның
театры
театрын
театрынга
театрынче
театрының
тебе
тебя
теве
тевеге
тевек
тевекти
тевелер
тевене
тевениң
тевер
тевери
тег
тегди
тегеран
тегин
тед
тез
тезисы
теи
теккен
теккеш
текст
текста
тексте
текстильнои
текстов
текстология
тексты
текущего
тел
тела
теле
телебашкарыкчы
телеведущая
телеведущии
телевидение
телевидениеге
телевидениениң
телевидения
телевизор
теледамчыдылганың
телеканал
телеканала
телесериал
телесериалдың
телескоп
телескопка
телефильм
телефон
тело
телолар
телоларның
телоларының
телонуң
телятницеи
тем
тема
темага
темазы
темазынга
темалар
темалары
темалыг
теманы
тематиктиг
тематическии
теме
темир
температура
температурага
температуразы
тему
темучин
темір
тен
тенант
тенантызы
тенгри
тенгрианство
тенденции
тенек
тензин
тени
тенишев
тенишева
тенишевтиң
тениң
тенниг
теннис
теннисе
теннисист
теннису
тенор
тео
теодор
теология
теоретиктиг
теоретические
теории
теория
теориязы
теориязын
теорияны
теп
теперь
тепкен
тепкеш
тепкииш
тепло
теплоухов
тер
теракт
терге
тергелер
тергиидеи
тергиидели
тергиидеп
тергиидээн
тергиидээр
тергиин
тергиини
тере
терегулова
тереза
терезин
терек
теректиг
терешкова
терең
тереңи
терим
терлиг
термин
терминнер
терминов
терминология
терни
терновская
терра
территории
территорию
территория
террорист
тес
тесла
тесланы
тесланың
тесь
тех
техн
техник
техника
техниказы
техниказының
техники
техниктиг
техникум
техникуме
техникуму
техникумун
техникумунга
техникумунче
технических
технического
техническои
технолог
технологии
технология
технологиялар
технологияны
технологтуг
течение
теңри
ти
тибет
тиг
тигер
тиги
тигин
тигпи
тигран
тиде
тиев
тии
тиилекчи
тиилекчизи
тиилекчилер
тиилекчилери
тиилелге
тиилелгеже
тиилелгези
тиилелгелиг
тиилелгени
тиилелгениң
тиилеп
тиилээн
тиилээрин
тиилээш
тик
тикке
тиккен
тиктиг
тим
тимербулатов
тимирязев
тимирязева
тимор
тимофеев
тимофеева
тимофеевна
тимур
тинг
тингеи
тингизи
тинлеи
тинмеи
тип
типа
типо
типов
типография
тир
тираж
тиражы
титан
титаник
титаренко
титова
титрах
титул
тиф
тихие
тихомиров
тихомирова
тихонов
тихоновна
тихорецкии
тишина
тишины
тищенко
тиң
тиңлеи
тк
тка
ткаче
тку
тная
тниияли
тного
тное
тнои
тнр
тные
тныи
тнүч
то
тобольск
тов
товарищ
товарищтаи
товаров
тогду
тогдунар
того
тогорил
тогус
тода
тодазы
тодарадылга
тодарадылгазын
тодарадып
тодарадыр
тодарадырда
тодарадыры
тодарап
тодараткан
тодараткаш
тодараттынар
тодараттынган
тодаргаи
тоджинскии
тодоренко
тодуг
тоже
тожу
тожулар
тожуларның
тожунуң
тозан
тои
ток
тока
токаев
токаның
токарева
токарчук
токарь
токио
токпак
токуз
толковыи
толмаче
толстая
толстои
только
том
тома
томаанныг
томас
томат
томах
томда
томнуг
томпсон
томск
томская
томскии
томского
томскои
томскунуң
тому
томуи
тон
тони
тонн
тонну
тоннуг
тонун
тонунуң
тоньукук
тоня
тоо
тоовас
тоожу
тоожузу
тоожулар
тоожулары
тоожуну
тоол
тоолаи
тоолга
тоолда
тоолдан
тоолдар
тоолдарда
тоолдарны
тоолдарның
тоолдары
тоолдарын
тоолдарында
тоолду
тоолдуң
тоолзуг
тоолу
тоолун
тоолчу
тоолчулар
тоолчуларның
тоолчургу
тоомча
тооп
тоора
тооргу
тоорук
тооруктуг
топ
топалов
топоним
топонимии
топонимическии
топонимов
топтап
топтуг
торгалыг
торгалыгга
торговли
торгу
торжественная
торжу
торлаа
торопов
торулга
торуттунген
тос
тоску
тот
тофа
тофалар
тофаларның
тофаларскии
тофаларского
тофалары
точка
точказы
точки
тош
тоъфа
тоқуз
тпак
тпакты
тпактың
тпышаан
тр
трабзон
трабзонспор
трава
траве
трагедия
традиции
традиционная
традиционного
традиционнои
традиционные
традиция
тражукова
трактат
трактор
трактористтеп
трамваи
трамп
транзит
транскрипция
транскрипциязы
транскрипциязын
транспорт
транспорта
трансформация
тре
трегубова
треи
тренер
тренери
тренерлеп
тренерлери
тренерниң
тренеры
тренировка
тренировкалап
трест
треста
третии
третьего
третьяковская
три
тридцать
трикотаж
трилогия
триумф
трифонович
трифоновои
трлн
трое
трои
троицкая
троллеи
тропиктиг
трофеи
трт
трубецкая
трубецкои
труд
труда
трудах
труде
трудилась
трудиться
трудно
трудов
трудовая
трудового
трудовое
трудовои
трудовую
трудовые
трудом
трудоустроилась
труду
труды
трудящихся
труппа
тс
тся
тт
тта
ттар
ттиң
ту
туба
туберкуле
тув
тува
тувгу
туве
тувинская
тувинские
тувинскии
тувинским
тувинских
тувинско
тувинского
тувинское
тувинскои
тувинском
тувинскому
тувинцев
тувинцы
туву
тувы
тугнуи
тугу
тугун
тугю
туда
тудазы
тудар
тударга
тударда
тудары
тударын
тударынга
тударының
тудуг
тудугжу
тудугжузу
тудуглар
тудум
тудуп
тудуптар
тудуу
тудуун
тудуунга
тудуунуң
тудуушкуну
тудуушкунунуң
тудуш
тудушкак
тудуштурар
тудуштуруп
тузунда
туи
тук
тукталга
туктуң
тукюе
тула
тулаа
тулаалыг
тулааш
тулааштап
тулаи
тулган
тулуш
тулчуп
тулчуушкун
тулчуушкунга
тулчуушкуннарга
тулчуушкуну
тульского
тульскои
туман
туманналчак
туманналчактар
тумат
туматтар
туматтарның
туна
тунгус
тунджаи
тунка
тупа
тур
тура
туразы
туралы
туран
туранга
турандот
туранның
туранское
турар
турарга
турарлар
турары
турарывыс
турарыл
турарын
турарынга
турарындан
турарының
тураскаадып
тураскаал
тураскаалдар
тураскаалдарны
тураскаалдары
тураскаалдарын
тураскаалдарының
тураскаалды
тураскаалдыг
тураскаалы
тураскаалын
тураскааткан
тураскааттынган
турачы
турачылар
турачыларның
турбаан
турбазы
турбас
турбуже
турган
турганнар
турганы
турганыл
турганын
турганындан
турганының
тургаш
тургенев
тургенева
тургузар
тургузарда
тургузары
тургузарын
тургузарынга
тургузарының
тургузуг
тургузуглуг
тургузугну
тургузукчу
тургузукчузу
тургузукчуларының
тургузунда
тургузуп
тургузуптар
тургузуу
тургузуун
тургузуунга
тургузуунда
тургузуунуң
тургузуунче
тургулаан
тургулаар
тургускан
тургусканнар
тургусканы
тургускаш
тургуспас
тургустунар
тургустунары
тургустунарынга
тургустунган
тургустунганы
тургустунганын
тургустунганындан
тургустунганының
тургустунмаан
тургустунуп
турда
турду
турдум
турецкие
турецкии
турецких
турецкого
турецкои
турецком
туржуп
турза
турзун
туризм
туризма
турин
турист
турисчи
турк
туркестан
туркестанныӊ
туркмен
туркменистан
турктар
турлаг
турлар
турнир
турнира
турнирге
турнире
турнирниң
туру
туруг
туружу
туружун
турум
турумчуп
турунда
туруп
турупкан
туруптар
туруш
турушта
туруштуг
турфан
турции
турция
турцияга
турцияда
турцияже
турцияның
тус
тускаи
туснолобова
туткан
тутканнар
туткаш
тутпас
тутсуп
тутсур
туттунган
туттунуп
туттурары
туттурган
туттургаш
туттуруп
тутук
тутчу
тутчуп
тутчур
тууи
туха
тухалар
тухаларның
туң
туһунан
тф
тхотеп
тхүптен
тчик
ты
тыв
тыва
тывага
тывада
тывадан
тываже
тывазы
тывазын
тывазынга
тывазынче
тывазының
тывалаар
тывалап
тывалар
тываларга
тываларда
тываларны
тываларның
тываларныӊ
тывалары
тываларының
тывам
тываны
тыванын
тываның
тываныӊ
тываполиграф
тывар
тыварда
тывары
тыварынга
тывгу
тывку
тывнуч
тывнүч
тывы
тывыжы
тывызык
тывызыктар
тывыкы
тывылбаан
тывылбас
тывылган
тывылганы
тывылганыл
тывылганын
тывылганының
тывылдырар
тывылдырып
тывынгыр
тывыскан
тывыш
тыга
тыгаи
тыда
тызы
тызында
тык
тыкчызы
тын
тынар
тыны
тынын
тынынга
тынындан
тыныш
тыныштыг
тының
тып
тыпкан
тыпканнар
тыпканы
тыпкаш
тыппаан
тыппаи
тыппас
тыпсаан
тыпсып
тыпсыр
тыпсыры
тыпсырын
тыпсырының
тыпты
тыптып
тыптыр
тыптырынга
тыр
тырар
тырарга
тырган
тырда
тырта
тыртар
тырткан
тырткаш
тырттырган
тырттырып
тыртып
тырыг
тырыгга
тырыглар
тырыгларга
тырыгларны
тырыгларның
тырыглары
тырыгларын
тырыгларынга
тырыгларының
тырыгны
тырыкы
тырып
тырыы
тырыын
тыс
тысяч
тысяча
тысячи
тыттырар
тыттырган
тыттырып
тыышкыны
тың
тыӊ
тэнгрианство
тэфи
тэц
тээ
тээли
тээлиниң
тюгашев
тюлюш
тюмень
тюргэн
тюрк
тюрки
тюрко
тюрков
тюрколог
тюркологии
тюркологическии
тюркология
тюркологтар
тюркская
тюркские
тюркских
тюркское
тюркскои
тя
тяже
тянь
тіп
тѳлдүг
тѳлептиг
тѳнчүзүнде
тѳп
тѳрээн
тѳрүмелинден
тѳрүттүнген
тѳѳгүзүнде
түгел
түлүбер
түлүк
түлүш
түме
түмен
түмер
түп
түр
түреп
түреңги
түрк
түркем
түркии
түркистан
түркмен
түрколог
түрктер
түрктерге
түрктерден
түрктерже
түрктеринң
түрктерни
түрктерниң
түрлүг
түрік
түріктің
түң
түңнел
түңнелге
түңнелдер
түңнелдерге
түңнелдери
түңнелдерин
түңнелдерни
түңнелди
түңнелдиг
түңнели
түңнелин
түңнелинде
түңнеп
түңнээн
түңнүг
түңү
түңүн
түү
тұранның
төв
төвү
төвүн
төвүнге
төвүнде
төвүнден
төвүнче
төвүнүң
төвүт
төвүтке
төвүтте
төвүттен
төвүттер
төвүттерниң
төвүттү
төвүттүң
төвүтче
төгерик
төжүн
төктүп
төктүр
төл
төлге
төлдери
төлдү
төлдүг
төлдүң
төлевилел
төлевилелди
төлевилелдиң
төлевилели
төлевилелин
төлевир
төлеп
төлептиг
төлес
төлээ
төлээде
төлээзи
төлээлекчи
төлээлекчизи
төлээлекчизиниң
төлээлекчилер
төлээлекчилери
төлээлекчилериниң
төлээлеп
төлээлер
төлээлери
төлээлериниң
төлээн
төлээр
төлү
төлүн
төлүнге
төлүнүң
төнген
төндүр
төне
төнер
төнерге
төнмес
төнмээн
төнчү
төнчүзү
төнчүзүнге
төнчүзүнде
төнчүлели
төнүп
төп
төптүң
төр
төре
төрези
төрезинге
төрезиниң
төрел
төрелгетени
төрелгетенниң
төрелдер
төрелдери
төрелдерин
төрелдеринге
төрелдериниң
төрели
төрелинге
төрелиниң
төрениң
төречи
төрээн
төрээннери
төрүвеи
төрүвээн
төрүмелинде
төрүмелинден
төрүп
төрүттунген
төрүттүнген
төрүттүнгенде
төрүттүнгенинден
төрүттүнгениниң
төрүттүнгеннер
төрүттүнгеш
төрүттүнер
төрүттүнерге
төрүттүнериниң
төрүттүнүп
төрүтүнген
төрүүр
төш
төөг
төөгү
төөгүвүс
төөгүге
төөгүде
төөгүден
төөгүжү
төөгүзү
төөгүзүн
төөгүзүнге
төөгүзүнде
төөгүзүнден
төөгүзүнче
төөгүзүнүң
төөгүлеп
төөгүлер
төөгүлүг
төөгүнү
төөгүнүң
төөгүп
төөгүчү
төөгүчүзү
төөгүчүлер
у
уаи
уатт
убии
убрятова
убса
убсу
уваи
уваров
увеличении
увеличению
увертюра
уг
угаазылал
угаан
угаанга
угаанны
угаанныг
угаанның
угаанче
угааны
угааныг
угаанын
угаанында
угаанының
угаап
угбазы
угбазын
угбазының
угбаи
угбал
угбалары
угбашкылар
угда
угжок
углаарының
углаи
угланган
угландырып
угланыышкын
угланыышкынны
угланыышкынныг
угланыышкыны
углевод
углеводородтар
углеводтар
углекислоталыг
углерод
углеродтуг
углеродтуң
углуг
угор
угроведение
угу
угулза
угулзалар
угун
уда
удаа
удаада
удаваанда
удавас
удазын
удазыннар
удазынның
удазыны
удалось
ударение
удатпаанда
удк
удмурт
удостоен
удостоена
удуи
удуп
удур
удурланган
удурланыкчы
удурланыкчызы
удурланыкчызының
удурланыкчылар
удурланыкчыларның
удурланыкчылары
удурланыкчыларын
удурланыкчыларының
удурланыкчының
удурланып
удурланыр
удурланышкак
удурланыышкын
удурткан
удуртканы
удуртукчу
удуртукчузу
удуртукчузулап
удуртукчузунга
удуртукчузунуң
удуртукчулап
удуртукчулар
удуртукчулары
удуртукчуларының
удуртулга
удуртулгазы
удуртулгазын
удуртулгазының
удуртуп
удуртур
удуртуру
удуур
удэ
удэге
удэниң
удэнскии
уе
уеде
уезд
уезда
уездизи
уездизинге
уездизиниң
уездиниң
уезинде
уенин
уениң
уефа
уехала
ужа
ужар
уже
ужу
ужудар
ужудукчу
ужудукчузу
ужудукчулар
ужудуп
ужудуушкун
ужудуушкуннарны
ужулгаш
ужун
ужунга
ужунда
ужуп
ужур
ужуражылга
ужуражып
ужуражыр
ужурашкан
ужурга
ужурлары
ужурлуг
ужуру
ужурун
ужурунда
ужурундан
ужуткан
уз
узадыр
узаи
узак
узала
узб
узбек
узбекистан
узбекистанда
узбекистанның
узбекского
узсср
узун
узуну
узунун
узуткаан
узуткаар
узуткап
уи
уильям
уильямс
уин
ук
указ
указан
указания
указано
указатель
указом
укр
украин
украина
украинага
украинада
украинаже
украинаның
украине
украинскои
украины
украі
укрепление
укреплении
уксаалыг
уксустуг
укталбаан
укталган
укталганын
укталып
уктуг
ул
ула
улаан
улаастаи
улаатаи
улав
улаи
улам
уламчылаан
уламчылаар
уламчылаары
уламчылаарын
уламчылавышаан
уламчылап
улан
уланчылаан
уланчылап
улар
улаштыр
улгады
улгадып
улгадыр
улгаткан
улгаттырган
улгаттырып
улиц
улица
улице
улицы
улу
улуг
улуглары
улугну
улузу
улузун
улузунга
улузундан
улузунуң
улус
улуска
улуста
улустан
улустар
улустарга
улустарны
улустарның
улустары
улустарының
улусту
улустун
улустуң
улусчу
улусъ
улуу
улуун
улы
улья
ульяна
ульяненко
ульянов
ульянова
ульяновск
ум
ума
умаи
умение
умер
умерла
ун
унген
ундурген
унелиг
универсиадага
универсиады
университеди
университедин
университединге
университединде
университединин
университединиң
университединниң
университединче
университет
университета
университете
университетке
университеттериниң
университетти
университеттиң
унсет
унская
унскии
унского
уну
унуга
унун
унунга
унунда
унц
уола
уот
упоминается
упр
управление
управлении
управления
управляемых
упражненияларга
ур
ура
ураанхаи
урааңкаи
урааңхаи
урааҥхаи
уравнении
урал
урала
уралга
уралдың
уральск
уральскии
уральского
уран
урана
уранхаи
ургаш
ургу
уренгои
уро
уровня
урожаев
урожаи
урожая
уроки
урочище
уруг
уруга
уругваи
уругвая
уругга
уруглар
уругларга
уругларлыг
уругларны
уругларның
уруглары
уругларын
уругларынга
уругларының
уруглуг
уругну
уругнун
уругнуң
уругнуӊ
урук
уруп
уруу
уруум
уруун
уруунга
уруунуң
уруң
уруңу
урянхаи
ус
уса
усадьба
условии
условия
условиях
условности
услуг
успа
успенка
успенская
успенскии
успенского
успех
успеха
успехи
успешно
усср
уссурии
устименко
устои
устрои
устроившись
устуу
усть
усун
утешительные
утка
уткаан
уткада
утказы
утказын
утказында
утказының
уткалары
уткалыг
уткан
утканы
уткаш
уткуп
уткуур
уткууру
уткуштур
утомле
утпаи
утпас
утро
уттундурбас
уттундурган
уттундуруп
уттуп
уттурган
уттургаш
уттуруп
утяшева
утяшевои
уула
ууланың
ууракты
уургаи
уфа
уфага
уфада
уфаже
уфаның
уфе
уфим
уфы
уходили
уч
участвовала
участие
участием
участия
участник
участников
участницеи
участок
участокка
учащихся
уче
учеб
учебник
учебно
учебное
учебнои
учебных
учен
учение
учения
ученого
ученои
ученые
ученыи
ученых
училища
училище
училищеге
училищези
училищезин
училищезинге
училищезиниң
училищезинче
училищени
училищениң
учитель
учительница
учителя
учителями
учиться
учреждение
учреждении
учреждения
уш
ушаков
ушел
ушинскии
ушинского
ушкан
ушла
ушта
уштап
уштуп
ушу
уэи
уэст
уюк
уян
ф
фаа
фааа
фабрика
фабрикага
фабриказы
фабрикант
фабрике
фабрики
фабрику
фабрично
фаготипирования
фазазында
фаи
фаизовна
фаина
фактор
фактора
факты
факультеди
факультедин
факультединге
факультединиң
факультединче
факультет
факультета
факультетке
факультеттиң
фамилия
фамилиязы
фамилиязын
фамилиязынга
фамилиялар
фамилиялыг
фан
фантазия
фантаст
фантастики
фараби
фарук
фатима
фатих
фатых
фашист
фашистер
фашистерге
фашистерни
фашистерниң
фашистиг
фгбоу
фе
февраль
февральда
февральдың
февраля
федерал
федералдыг
федеральная
федерального
федеральное
федеральнои
федеральныи
федеральных
федеративтиг
федерациеи
федерации
федерация
федерациязы
федерациязында
федерациязынның
федерациязынныӊ
федерациязынын
федерациязының
федерацияның
федор
федорович
федоровна
федотов
федотова
федяевскии
феи
феликс
фельдман
фельдшер
феминизм
фенербахче
феникс
феномен
феншуи
феодал
феодалдар
феодалдарга
феодора
феодосия
фер
фердинанд
ферма
фермага
фермазынга
ферманың
ферме
ферментилер
ферментилерни
ферму
фернандес
фернандо
ферштатер
фестивале
фестивалы
фестивалынга
фестивалының
фестиваль
фестивальга
фестивальдың
фестиваля
фея
фи
фигура
физ
физик
физика
физикага
физикада
физиказы
физиканың
физике
физики
физико
физиктиг
физиологии
физиология
физическая
физического
физическое
физическои
физкультура
фил
фила
филармониязының
филатов
филиал
филиала
филиалы
филипп
филиппин
филиппис
филиппов
филиппова
филипповна
филол
филолог
филологии
филологическии
филологических
филология
филос
философ
философии
философия
философияга
философияда
философиядан
философиязы
философиязын
философиязының
философияны
философиянын
философияның
философских
философскои
философтар
философтары
философтуг
философчу
фильм
фильма
фильмге
фильмде
фильме
фильми
фильмнер
фильмнерге
фильмни
фильмниң
фильмография
фильмы
фин
финал
финалга
финалда
финалдыг
финализи
финалов
финалынга
финансовои
финансы
финикии
финляндии
финляндия
финно
фирма
фитиль
фитонцидтер
фифа
фишер
фишка
фишкалар
фишкаларны
фк
флавоноидтер
флаг
флагификация
флеи
флективтиг
флоду
флодунга
флодунуң
флои
флора
флоренс
флоры
флот
флота
фнтр
фолиевая
фольино
фольклор
фольклора
фольклорга
фольклорист
фольклорлуг
фольклорнуң
фольклору
фон
фонд
фонда
фонду
фондузу
фондузун
фондузунда
фондузунуң
фондулар
фондунуң
фоне
фонема
фонеманы
фонеманың
фонетика
фонетиктиг
фонетическое
фонтан
фонтен
форм
форма
формирование
формирования
формула
формулазы
формулалар
формы
фортепиано
фортепианога
форум
фосфор
фото
фотоаппарат
фотограф
фотографии
фотографиях
фотострана
фр
фрагмент
фразеологизм
фразеологические
фразеология
фразеологтуг
фракция
франк
франко
франкфурт
франс
франсиско
франсуа
франц
францева
францевна
франции
франциско
франция
францияга
францияда
францияже
францияның
француз
французскии
французского
фрау
фрг
фредерик
фреи
фрида
фриданың
фридрих
фриды
фролов
фролова
фроловна
фронт
фронтуга
фронтудан
фронтуже
фронтузу
фронтузунга
фронтузунче
фронтунуң
фронтучу
фронтучуларның
фру
фруктуларда
фрунзе
фрэнк
фсб
фу
фундаменталдыг
фундаментальные
функции
функционалдыг
функциязы
фунт
фусте
футбол
футбола
футболга
футболдуң
футболист
футболу
футболчу
футболчузу
футбольного
фэнтези
х
ха
хаа
хааглыг
хаазыт
хааи
хаак
хаакка
хаактың
хаакчы
хаалгазынче
хаалгачы
хаалгачызы
хаалчак
хаан
хаанары
хаанга
хаандан
хааннап
хааннар
хааннары
хаанны
хаанныг
хаанның
хааны
хаанын
хаанынга
хаанындан
хааның
хаап
хаара
хаарган
хааржак
хаас
хаая
хабар
хабаровск
хабаровске
хава
хавак
хаван
хавы
хавын
хавырган
хавырып
хавыяа
хавыяазы
хавыяалар
хавыяалыг
хавыязы
хагас
хагдынган
хадаханэ
хады
хадыдан
хадын
хадып
хадыыр
хадың
хадыңдан
хадыңның
хажыдып
хаи
хакас
хакасии
хакасия
хакасияда
хакасияның
хакаского
хакасского
хакастар
хакастарның
хакяньсы
хал
халааш
халавы
халавын
халавындан
халавының
халап
халапка
халаптыг
халаптың
халас
халашкан
халашкаш
халва
халдаан
халдаар
халдааш
халдаашкын
халдаашкыннар
халдаашкыны
халдавырлыг
халдакчы
халдакчызы
халдап
халдун
халдып
халдыр
халет
халима
халып
халыын
халыыр
халыышкын
халыышкынның
халыышкыны
халыышкынының
хам
хамаан
хамаанчок
хамааржып
хамааржыр
хамааржырын
хамааржыыр
хамаарылга
хамаарылгазы
хамаарылгазын
хамаарылгалар
хамаарылгалыг
хамаарылганың
хамаарышкан
хамаарышпас
хамаарыштыр
хамаарыштырар
хамаарыштырарының
хамаарыштырып
хамааты
хамаатызы
хамаатылар
хамаатыларга
хамаатыларның
хамаатылары
хамбо
хамид
хамит
хамнаар
хамнаашкын
хамнар
хамнарга
хамнарның
хамның
хамык
хамыкты
хамыктың
хан
хана
ханада
ханазы
ханалар
ханалары
ханаларын
хананы
хангыль
ханда
хандагаи
ханды
хандызын
хандыкшыл
хандыкшылдыг
хандыкшып
хандылааш
хандылап
хандыны
хандыр
хандырар
хандырылга
хандырып
ханна
ханныг
ханның
ханов
ханты
ханы
ханызы
ханызындан
ханылап
ханым
ханын
ханынга
ханып
хань
хап
хапка
хапсагаи
хапта
хар
хара
хараадап
хараазы
хараал
хараача
хараган
хараганныг
хараи
характер
характеристика
харам
харамнанмаи
харап
харга
хардан
харис
харлаан
харлааны
харлаанынга
харлап
харлыг
харлыымда
харлыынга
харлыында
харлыындан
харны
харның
хартыга
харунова
хары
харылзаа
харылзаазы
харылзаазын
харылзаазының
харылзаалар
харылзааларның
харылзаалары
харылзааларын
харылзааларының
харылзаалыг
харылзааны
харылзажып
харылзажыр
харын
харысаалгалыг
харыы
харыылаан
харыылаар
харыылап
харыылар
харыылаттынар
харыыны
харыысалга
харыысалгалыг
харьков
харьковтуң
хасан
хасанович
хасбулатов
хат
хатаи
хатка
хаттыг
хачы
хачыны
хаш
хая
хаяазы
хаяда
хаяларга
хаялыг
хе
хеви
хевин
хевиниң
хевир
хевирге
хевирде
хевири
хевирин
хевиринге
хевиринде
хевириниң
хевиринче
хевирлеп
хевирлер
хевирлерге
хевирлери
хевирлерин
хевирлеринге
хевирлериниң
хевирлерлиг
хевирлерни
хевирлерниң
хевирлиг
хевирни
хевирниң
хевээр
хевээрзин
хеди
хеи
хек
хелбээ
хелен
хелиң
хем
хемге
хемде
хемден
хеме
хемезин
хемелер
хемелерни
хемени
хеми
хемим
хеминиң
хемнер
хемнери
хемнерин
хемнериниң
хемнерни
хемнерниң
хемни
хемнин
хемниң
хемскии
хемского
хемче
хемчег
хемчеглер
хемчеглерге
хемчеглери
хемчеглерни
хемчеглерниң
хемчигеш
хемчик
хемчикке
хемчикте
хемчиктиң
хемчикче
хемчээ
хемчээл
хемчээлге
хемчээлдер
хемчээлдерни
хемчээлди
хемчээлдиг
хемчээлдиң
хемчээли
хемчээлин
хемчээлинге
хемчээлинден
хемчээлиниң
хемчээн
хемчээп
хемчээр
хемчээри
хендерге
хендир
хенертен
хензиг
хеп
хепке
хептер
хепти
хептиг
хер
хербис
хере
хереглели
хереглеп
хереглеттинер
хереглеттинип
хереглээни
хереглээр
хереглээри
хережээн
херек
херекке
херексел
херекселдер
херекселдери
херекселдерин
херекселдеринге
херекселдериниң
херекселдерлиг
херекселдерни
херекселдерниң
херекселди
херекселдиң
херексели
херекселин
херекселиниң
херектер
херектерин
херектеринге
херектериниң
херектерниң
херекти
херектиг
херектиң
херектээн
херел
херелденип
херелдери
херелдериниң
херелдиг
херели
херечи
херечизи
херечилелдери
херечилеп
херим
херип
херсон
хертек
хертекович
херээ
херээжен
херээжени
херээженнер
херээженнери
херээженнерниң
херээженниң
херээн
херээнге
херээниң
херээт
хиит
хиитке
хилинчек
хилинчектенип
хилинчектенир
хилинчектеп
хилинчектиг
хилл
хим
химии
химик
химиктиг
химического
химия
химияга
химияда
химияның
хин
хиндиктиг
хип
хир
хире
хирезин
хирезинде
хирелиг
хирени
хири
хирин
хириниң
хирлиг
хирург
хирургии
хирургия
хисамутдиновна
хит
хлеб
хмет
хо
хоббит
хоббс
ховалыг
ховалыгның
ховар
хову
ховуга
ховуда
ховузу
ховузунга
ховулар
ховуларга
ховулары
ховуларынга
ховунуң
хогжум
ходе
ходжкин
хожу
хожуула
хозяи
хои
хоккеи
хоккею
хол
хола
холааш
холбаалыг
холбап
холбашкан
холга
холда
холдап
холдары
холдарын
холдарының
холдуг
холдуң
холера
холестеринниң
холин
холл
холодная
холу
холужуп
холуи
холуксаазы
холумак
холумактыг
холун
холунга
холунда
холундан
холунуң
холуп
холуур
холушкак
холушкан
холь
хольскии
хом
хомду
хомудаан
хомудал
хомудап
хомус
хомусту
хомушку
хомушкунуң
хонар
хонаш
хонаштары
хонган
хонганда
хонгаш
хонда
хондергеи
хондур
хондурар
хонук
хонукта
хонуктар
хонукту
хонуктуг
хонуктуң
хонуп
хонуу
хонуун
хоозун
хоои
хоолаи
хоолулуг
хоомеи
хоор
хоораи
хоорган
хоорлуп
хоорук
хооруп
хоочун
хоочуннар
хоочуну
хоочураан
хоош
хоп
хоптак
хор
хора
хораа
хораан
хорааны
хорааның
хорагаи
хорадааш
хорадаи
хорадап
хораи
хоралыг
хоран
хоранныг
хорв
хорват
хорватия
хорвиц
хореограф
хореографического
хореография
хоржок
хори
хорлуу
хорошии
хорошо
хоругдаан
хоругдаар
хоругдааш
хоругдап
хоругдаткан
хоругдаттырган
хоруглуг
хорум
хорумнуг
хоруп
хос
хосе
хостаан
хостаар
хосталга
хосталгазын
хосталгалыг
хосталган
хосталып
хостап
хостуг
хотан
хотел
хотя
хочу
хоюг
хоюдур
хоюн
хояры
хоңгураи
хр
храм
храманмараш
храмов
хранитель
христиан
христианнар
христианнары
христос
христостуң
хромосомы
хроника
хронограф
хронос
хрустальная
ху
хуан
хуваалдазы
хуваап
хувилаи
хувискаал
хувискаалдыг
хувискаалдың
хувискаалчы
хувискаалчылар
хугоннаи
художественная
художественнои
художественныи
художник
художника
художники
художников
худуха
худякова
хузангаи
хуи
хулер
хулээп
хум
хумагалап
хуна
хунаевич
хунажын
хунан
хунаштаар
хундулуг
хуниорс
хунну
хуннулар
хуннуларны
хуннуларның
хуньюи
хур
хурааңгаи
хураган
хураганны
хурал
хурала
хуралбаи
хуралга
хуралдар
хуралдың
хуралы
хуралынга
хуралының
хургулек
хуреш
хурээ
хусаинов
хусеи
хут
хутор
хуу
хууда
хуузу
хуузун
хуузунда
хуула
хуулгаазын
хуулгаазынныг
хуулуп
хуурак
хуурактап
хуусаа
хуусаазы
хуусаалыг
хууң
хууңга
хх
хыдыкчы
хыи
хыл
хылбыктаар
хылдап
хылдар
хылдыг
хылы
хымызын
хымыс
хымысты
хымыш
хымыштың
хынаан
хынааны
хынаап
хынаар
хыналда
хыналдазы
хынап
хып
хыпар
хыраа
хырбалап
хырны
хырнын
хырын
хырынның
хэ
хэнд
хээ
хээлер
хээлиг
хээндектээш
хѳгжүм
хѳи
хѳл
хѳрек
хѳѳрүнде
хүл
хүлбүс
хүлер
хүлерден
хүлерни
хүлээдип
хүлээлге
хүлээлгези
хүлээлгезин
хүлээлгелер
хүлээлгелерин
хүлээлгелиг
хүлээлгени
хүлээнип
хүлээп
хүлээткен
хүлээттинген
хүлүк
хүлүмзүрүү
хүлүн
хүлүп
хүн
хүнге
хүнде
хүнден
хүндү
хүндүлел
хүндүлелдиң
хүндүлеп
хүндүлээр
хүндүлээри
хүндүлээчел
хүндүлүг
хүндүс
хүндүскү
хүндүткел
хүндүткелдиг
хүндүткелдиң
хүндүткелин
хүндүткеп
хүндүткээн
хүнзедир
хүннер
хүннерде
хүннери
хүннеринге
хүннеринде
хүннү
хүннүг
хүннүң
хүнү
хүнүм
хүнүн
хүнүнге
хүнүнде
хүнүнден
хүнүнүң
хүнүң
хүргүлек
хүрежи
хүрежинге
хүрежип
хүрежир
хүреш
хүрешке
хүрешкен
хүреште
хүрешти
хүрештиң
хүрең
хүртү
хүртүзү
хүртүзүн
хүртүлери
хүртүнүң
хүрээ
хүрээге
хүрээже
хүрээзи
хүрээзинге
хүрээзиниң
хүрээзинче
хүрээлер
хүрээлерге
хүрээлериниң
хүрээлерниң
хүрээлеңинге
хүрээни
хүрээниң
хүт
хөвең
хөвеңмеи
хөгжүдер
хөгжүдеринге
хөгжүлде
хөгжүлдези
хөгжүлдезин
хөгжүлдезинге
хөгжүлдезиниң
хөгжүм
хөгжүмге
хөгжүмнү
хөгжүмнүг
хөгжүмнүң
хөгжүмчү
хөгжүмчүлер
хөгжүмчүлери
хөгжүмчүлерниң
хөгжүмү
хөгжүп
хөгледип
хөглүг
хөделип
хөи
хөктүг
хөл
хөлге
хөлде
хөлден
хөлдер
хөлдү
хөлдүң
хөлеге
хөлезиледипкен
хөлезилеп
хөлечиктеп
хөлче
хөлчок
хөлчүк
хөлү
хөлүн
хөм
хөмден
хөме
хөмүр
хөмүрлүг
хөнделең
хөндергеи
хөр
хөрек
хөреңги
хөреңгизи
хөреңгизин
хөрзүн
хөрзүнү
хөрээн
хөрээнге
хөңнү
хөө
хөөевич
хөөкүи
хөөмеи
хөөн
хөөнү
хөөнүн
хөөп
хөөр
хөөрге
хөөрде
хөөреп
хөөржүткен
хөөржүттүнген
хөөрү
хөөрүк
хөөрүнде
ц
ца
цаатан
цаатаны
цагаан
цамо
цар
царица
цария
царияга
царскии
царскои
царукаева
царь
цв
цветок
цветы
цев
цева
цезарьның
цеи
целинное
цемент
цензура
ценности
центнер
центнера
центнеров
центр
центра
центральная
центрально
центрального
центральное
центральнои
центральныи
центре
цер
церемония
церкви
церковь
цех
цеха
цехке
цехтиң
цеченлиң
цзун
цзы
цзэтянь
цзюань
ци
цивилизации
цивилизация
цикл
цикла
цин
цирк
цирка
цирктиң
цитата
цитаты
цифровои
цк
цонкапа
цоп
цска
цсп
цы
цыган
цыденжапов
цюрих
ч
ча
чаа
чаага
чаагаи
чаажыктырар
чаазы
чаазында
чаалажып
чаалажыр
чаалап
чаалашкан
чаалашкаш
чаалаштым
чаан
чаап
чаар
чаарттынары
чаартылга
чаартылгалар
чаартынган
чаартынып
чаартып
чаартыр
чааскаан
чааттар
чааты
чаашкын
чаваа
чавыс
чавыт
чаг
чагаа
чагаага
чагаазы
чагаалажып
чагаалар
чагааларны
чагатаи
чагыг
чагып
чагыра
чагыраны
чагыраның
чагырар
чагырга
чагыргага
чагыргазы
чагыргазын
чагыргазындан
чагыргазынче
чагыргазының
чагыргалыг
чагырганы
чагырганың
чагырткан
чагыртпаи
чагыртпас
чагырты
чагыртып
чагыртыр
чагырыкчы
чагырыкчызы
чагырып
чагытаи
чагыы
чагыын
чагыыр
чада
чадаан
чадаана
чадаанага
чадаананың
чадавас
чадаг
чадагаи
чадаган
чадаганның
чадада
чадазы
чадазын
чадазынга
чадазында
чадазының
чадалары
чадаларын
чадалыг
чадамба
чадамбаевич
чадан
чаданның
чаданы
чаданын
чаданың
чадап
чадапчок
чадаң
чадып
чадыр
чадырда
чадырларга
чажар
чажы
чажыг
чажыды
чажымда
чажын
чажында
чажындан
чажып
чажырып
чажыт
чажыттарын
чажыын
чаза
чазаа
чазаан
чазаанга
чазааның
чазаар
чазаваан
чазак
чазакка
чазактың
чазаныкчы
чазаныр
чазап
чазаттынмаан
чазы
чазыг
чазыи
чазык
чазын
чазынында
чазының
чазып
чазыы
чаи
чак
чакра
чал
чалаа
чалаан
чалаар
чалалга
чалалгазы
чалалганы
чалама
чалап
чалар
чалараан
чаларадып
чаларап
чалаттырган
чалаттырып
чалаң
чалбаа
чалбак
чалбарыг
чалбарып
чалбарыыр
чалгаа
чалгыглар
чалгыглары
чалгып
чалым
чалыы
чалыылар
чамдык
чамдыкта
чамдыктары
чамдыктарын
чамдыы
чамдыызы
чамдыызын
чамзы
чамыяң
чан
чана
чанагаш
чанаккале
чанар
чанган
чангыс
чанзан
чанчы
чанчын
чанъэ
чаны
чанынга
чанында
чанындан
чанынче
чанып
чаныш
чаның
чань
чао
чап
чаплин
чапсар
чаптанчыг
чаптап
чара
чаражы
чаражын
чарандаи
чарар
чараш
чарба
чарган
чаргаш
чардынган
чаржып
чарлаан
чарлаанының
чарлаар
чарлакчызы
чарлап
чарлаттынган
чарли
чарлы
чарлык
чарлып
чарлыр
чарлыы
чарлыын
чарльз
чарт
чарттың
чартык
чартыы
чартыын
чартыынга
чартыында
чартыындан
чартыынче
чарыжы
чарыжынга
чарык
чарылбас
чарылга
чарылган
чарылгаш
чарын
чарып
чарыш
чарышка
чарыштарга
чарыштырар
чарыштың
чарыында
час
часка
часкан
часкы
часкылак
часпас
чассыг
чассыдып
части
частная
частности
часто
часты
частып
частырыг
частырыглар
частыышкын
частыышкынныг
частың
часть
частью
чаттылган
чаттылып
чаус
чаш
чашкы
чаштаи
чаштар
чаштарга
чаштарның
чашты
чаштыг
чаштынар
чаштынып
чаштып
чаштың
чаъс
чая
чаяаган
чаяалгазы
чаяан
чаяанны
чаяанныг
чаяаны
чаяанын
чаяап
чаянныг
чаң
чаңгы
чаңгызы
чаңгыс
чаңгыстап
чаңгыстың
чаңнап
чаңныг
чаңнык
чаңчыгып
чаңчыккан
чаңчыктырып
чаңчыл
чаңчылдар
чаңчылдары
чаңчылдарын
чаңчылдарынга
чаңчылдарының
чаңчылды
чаңчылдыг
чаңчылчаан
чаңчылы
чаңчылын
чаңы
чаңын
чаӊгыс
че
чебоксары
чебурашка
чебурашки
чевег
чевегге
чевеглер
чевеглери
чевээ
чевээн
чевээнге
чевээнде
чего
чеде
чеден
чедер
чедерге
чедери
чеди
чедиги
чедиишкин
чедиишкини
чедиишкинин
чедиишкиннер
чедиишкиннери
чедиишкиннерин
чедиишкиннериниң
чедиишкиннерлиг
чедиишкиннерни
чедиишкинни
чедиишкинниг
чедилик
чедиликтиң
чедимче
чедимчелиг
чедимчок
чедингир
чединмес
чедип
чедир
чедирбес
чедирген
чедире
чедирер
чедирери
чедирип
чедишкен
чедишпес
чедиштир
чеже
чеи
чекпениң
челер
челны
человек
человека
человеком
человеческого
челээш
челябинск
челябинская
челябинскиде
челябинскиниң
челябинскои
чем
чемге
чемгерер
чемгерип
чемзиг
чеми
чемижи
чемижин
чемин
чеминиң
чемиштиг
чемненилге
чемненип
чемненир
чемнер
чемнерге
чемнери
чемнерни
чемни
чемниг
чемниң
чемпион
чемпиона
чемпионады
чемпионадын
чемпионадынга
чемпионадында
чемпионадынның
чемпионадынныӊ
чемпионадынче
чемпионадының
чемпионат
чемпионата
чемпионате
чемпионатка
чемпионатов
чемпионаттары
чемпионаттарынга
чемпионаттарының
чемпионатты
чемпионаттың
чемпионаты
чемпионка
чемпионками
чемпионкои
чемпионнар
чемпионнары
чемпионов
чемпионом
чемпиону
чемпионы
чеп
чепсек
чепсектер
чепсектери
чепсектерин
чепсектиг
чепсээ
чептеи
чер
черби
черге
чергези
чергезинге
чергелешкек
чергелештир
чергелештирип
чергелиг
чергениң
черде
черден
через
черже
чержигешке
чери
черим
черин
черинге
черинде
черинден
черинин
чериниң
черинниң
черинче
черкасова
черкес
черкесскои
черле
черлер
черлерге
черлерде
черлерден
черлерже
черлери
черлерин
черлеринге
черлеринде
черлеринден
черлериниң
черлеринче
черлерлиг
черлерни
черлерниң
черлиг
черлик
черни
черниговская
черниговскиниң
черниинден
чернин
черниң
чернобыльская
черныше
чернышевскии
черняковская
чес
чеспектиг
честек
честен
чести
честиң
честь
четве
четин
четкен
четкер
четкерлиг
четкеш
четки
четкиде
четкизи
четкизинге
четкизинде
четкизиниң
четкилеп
четкиниң
четпеи
четпес
четпестерин
четпестээр
четпээн
четтигипкен
четтикпеи
четтикпээн
четтирген
четтиргенин
четтирер
четтирип
четче
четчелеп
четчи
четчип
четчир
четыре
чех
чехия
чехияның
чехов
чехова
чеховтуң
чечек
чечекмаа
чечектелип
чечектелир
чечектелири
чечектер
чечектери
чечектерлиг
чечектиг
чечен
чечээ
чеш
чжао
чжи
чжоу
чжоушу
чи
чивес
чивеш
чиг
чиге
чигзиниг
чигир
чигирзиг
чигири
чигирин
чигиринова
чиде
чидер
чидиг
чидидер
чидип
чидирген
чидирер
чидирип
чижеглеи
чижек
чижекте
чижектер
чижектиг
чижелээрге
чижээ
чижээлээрге
чижээнге
чизе
чизези
чизезиниң
чиигелде
чииги
чиижең
чиик
чиир
чиири
чик
чикаго
чикагога
чиктиг
чилби
чили
чимба
чимизи
чимис
чимистер
чимит
чин
чингиз
чингис
чинчи
чинчилиг
чип
чиргилчин
чисельність
числа
числе
численности
численность
число
чита
читает
читкен
читпээн
чихаче
чич
чиш
чишке
чиң
чиңге
чиңгежек
чиңгине
чиңгис
чиңмит
чиңмиттиң
чиңнеп
чкаловка
чл
член
члена
членов
членом
чм
човаар
човадыр
човангыр
човап
човулаң
човулаңга
човулаңдан
човулаңнар
човулаңнарны
човулаңнарның
човулаңны
човулаңның
човулаңын
човулаңындан
чог
чогаадыкчы
чогаадыкчызы
чогаадыкчының
чогаадылга
чогаадылгазы
чогаадылгазын
чогаадылгазынга
чогаадылгазында
чогаадылгазының
чогаадып
чогаадыр
чогаадырынга
чогаадышкан
чогаал
чогаалга
чогаалда
чогаалдан
чогаалдар
чогаалдарда
чогаалдарны
чогаалдарның
чогаалдары
чогаалдарын
чогаалдарынга
чогаалдарында
чогаалдарының
чогаалды
чогаалдың
чогаалчы
чогаалчызы
чогаалчылар
чогаалчыларның
чогаалчылары
чогаалчыларының
чогаалчының
чогаалы
чогаалын
чогаалынга
чогаалында
чогаалының
чогааткан
чогаатканы
чогааткаш
чогааттынган
чогды
чогу
чогум
чогумчалыг
чогун
чогундан
чогуур
чогуш
чогушту
чода
чодураа
чодураалыг
чодурааның
чоза
чои
чок
чокка
чокпак
чокта
чол
чолаачы
чолаачызы
чолаачылап
чолаачылар
чолдак
чолдуг
чолу
чолукшуп
чолукшуур
чолун
чолунга
чон
чонар
чонга
чонда
чондан
чоннар
чоннарга
чоннарда
чоннардан
чоннарны
чоннарнын
чоннарның
чоннары
чоннарын
чоннарынга
чоннарында
чоннарының
чонну
чоннун
чоннуң
чоннуӊ
чону
чонукчузу
чонум
чонун
чонунга
чонунуң
чонуп
чоога
чоогу
чоогун
чоогунга
чоогунда
чоогунуң
чооду
чоок
чоокка
чоокку
чоокта
чоокшулаан
чоокшулаар
чоокшулавас
чоокшуладыр
чоокшулап
чоон
чоор
чоорту
чоп
чор
чораан
чорааннар
чорааны
чораанын
чорааш
чорбаан
чорбас
чорга
чоргаар
чоргаарал
чоргаарланып
чоргузуп
чоргузупкан
чоргускан
чорда
чорду
чордум
чорза
чорзун
чорнуң
чорос
чорта
чортуп
чортупкан
чору
чорудар
чорудары
чорударын
чорударынга
чорударының
чорудулга
чорудулгага
чорудулгадан
чорудулгазы
чорудулгазын
чорудулгазынга
чорудулгазының
чорудулганы
чорудуп
чорудупкан
чоруи
чорук
чорукка
чоруктап
чоруктар
чоруктары
чоруктарын
чорукту
чоруктуң
чорукче
чорукчу
чорулга
чорулгалар
чоруп
чорупкан
чорупканнар
чорупкаш
чоруптар
чоруткан
чорутканы
чоруткаш
чоруттунуп
чоруттурган
чоруу
чорууи
чоруун
чоруунуң
чоруур
чоруурга
чоруурда
чоруурлар
чорууру
чоруурун
чоруурунга
чоруңар
чосон
чотпун
чочагаи
чочагар
чочак
чр
чрезвычаи
чтении
чтения
что
чтобы
чу
чуваш
чувашия
чувашская
чувашского
чувашскои
чуве
чувел
чувств
чуг
чуга
чугаа
чугаага
чугаада
чугаажок
чугаазы
чугаазын
чугаазынга
чугаазында
чугаазындан
чугаазының
чугаалаан
чугаалааны
чугаалаар
чугаалаарга
чугаалааш
чугаалавас
чугаалажып
чугаалажыр
чугааланып
чугааланыр
чугаалап
чугаалар
чугааларда
чугаалардан
чугааларны
чугаалары
чугааларын
чугааларында
чугааларының
чугаалашкан
чугаалыг
чугааны
чугааның
чугаи
чугаладыр
чуге
чугле
чугула
чудес
чудеса
чудурук
чуи
чук
чуковскии
чукот
чукотки
чул
чула
чулуу
чулуун
чульдум
чунар
чуп
чураан
чурагаи
чургуи
чурек
чурт
чуртаан
чуртаар
чуртаи
чуртакчызы
чуртакчылары
чурталга
чурталгазы
чурталгазын
чуртап
чуртка
чуртта
чурттаан
чурттаар
чурттаары
чурттаарын
чурттаарының
чурттааш
чурттадып
чурттаи
чурттакчы
чурттакчызы
чурттакчылар
чурттакчыларның
чурттакчылары
чурттакчыларын
чурттакчыларынга
чурттакчыларының
чурттакчылыг
чурттакчылыр
чуртталга
чуртталгага
чуртталгада
чуртталгаже
чуртталгазы
чуртталгазын
чуртталгазынга
чуртталгазында
чуртталгазының
чуртталганы
чуртталганың
чурттан
чурттап
чурттар
чурттарга
чурттарда
чурттардан
чурттарже
чурттарның
чурттары
чурттарынга
чурттарында
чурттарындан
чурттарының
чуртту
чурттуг
чурттуглары
чурттун
чурттунуң
чурттунче
чурттуң
чурту
чуртуг
чуртум
чуртун
чуртунга
чуртунда
чуртундан
чуртунуң
чуртунче
чуртуң
чуртуңарны
чуртуӊ
чуртче
чурук
чурукка
чурукта
чуруктар
чуруктарны
чуруктарның
чуруктары
чуруктарын
чуруктарында
чуруктарының
чурукту
чуруктуң
чурукчу
чурукчуга
чурукчузу
чурукчулар
чурукчуларның
чурукчулары
чурукчуну
чурукчунуң
чурулга
чурулгага
чурум
чурумалдыг
чурумга
чурумну
чурумнуг
чурумнуң
чуруму
чурумун
чуруп
чуруттунган
чуруттунуп
чуруу
чуруун
чуруур
чурууру
чус
чут
чуттап
чуул
чуур
чуура
чуурга
чуңма
чч
чыган
чыгаш
чыгган
чыггаш
чыгдынган
чыглы
чыглып
чыглыр
чыгыы
чыда
чыдар
чыдарын
чыды
чыдымы
чыдын
чыдып
чыдыр
чыдырда
чыжыргана
чыжыргананың
чызаан
чыл
чыла
чылан
чылапча
чылбак
чылга
чылгап
чылгы
чылгылыг
чылгычы
чылд
чылда
чылдаан
чылдагаан
чылдагааннар
чылдагааны
чылдагаанын
чылдан
чылдар
чылдарга
чылдарда
чылдардан
чылдарны
чылдарның
чылдарныӊ
чылдары
чылдарын
чылдарынга
чылдарында
чылдарындан
чылдарының
чылды
чылдыг
чылдын
чылдып
чылдың
чылдыӊ
чылча
чылче
чылы
чылыг
чылым
чылын
чылынга
чылынд
чылында
чылындан
чылының
чылып
чылыы
чымба
чымчадыр
чымчаи
чымчак
чымыштыг
чыпшыр
чыпшырып
чыраа
чыргакы
чыргал
чыргалдыг
чырыдып
чырыдыышкын
чырык
чырыктың
чырыкче
чырып
чырыткан
чырыткылыг
чырыы
чырыын
чырыының
чыскаал
чыскаалы
чыт
чыткан
чыткаш
чыттыг
чыттырар
чыттырган
чыттыргаш
чыттырып
чычаан
чычааннар
чышпыр
чыыжы
чыыжынга
чыыжынче
чыыжының
чыыкчызы
чыылган
чыылда
чыынды
чыындыга
чыындыда
чыындызы
чыындызын
чыындызынга
чыындызында
чыындызының
чыындылары
чыындыларын
чыындыларының
чыындыны
чыындының
чыып
чыыр
чыыра
чыыры
чыыш
чыышка
чыыштарының
чыыштың
чээни
чээрби
чээрбиги
чюа
чюдюк
чѳвүлелиниӊ
чѳвүлелиннин
чѳвүлелинниӊ
чѳпшээрелди
чѳѳн
чүве
чүвеге
чүведен
чүвези
чүвезин
чүвел
чүвелер
чүвелери
чүвелерни
чүвелерниң
чүвем
чүвени
чүвениң
чүг
чүге
чүген
чүгле
чүглүг
чүгнү
чүгээр
чүгүн
чүгүнге
чүгүнде
чүгүнче
чүгүрүк
чүдек
чүдел
чүден
чүдүкчү
чүдүлге
чүдүлгеге
чүдүлгези
чүдүлгезин
чүдүлгезиниң
чүдүлгелер
чүдүлгелиг
чүдүлгени
чүдүлгениң
чүдүп
чүдүрер
чүдүрүп
чүдүүр
чүзү
чүзүн
чүзүнү
чүзүнүн
чүк
чүкке
чүкте
чүктен
чүктеп
чүктүң
чүкче
чүл
чүлдүм
чүлдүмович
чүме
чүнү
чүнүң
чүргүи
чүрек
чүректиң
чүрмет
чүрээ
чүрээм
чүрээн
чүс
чүстер
чүткүл
чүткүлдүг
чүткүп
чүък
чүъктү
чүү
чүүл
чүүлге
чүүлде
чүүлден
чүүлдер
чүүлдерге
чүүлдерден
чүүлдери
чүүлдерин
чүүлдеринге
чүүлдериниң
чүүлдерлиг
чүүлдерни
чүүлдерниң
чүүлдү
чүүлдүг
чүүлдүң
чүүлчү
чүүлү
чүүлүн
чүүлүнге
чүүлүнде
чүүлүнүң
чүүнден
чөвүлекчизи
чөвүлел
чөвүлелдиң
чөвүлели
чөвүлелинге
чөвүлелиниң
чөгенчиг
чөдүлге
чөкпек
чөкпекти
чөп
чөптүг
чөпшээревес
чөпшээрел
чөпшээрелди
чөпшээрели
чөпшээрээн
чөпшээрээр
чөрүлдээлер
чөрүлдээлиг
чөөн
ш
ша
шаа
шаажылаан
шаажылаар
шаажылал
шаажылап
шаанак
шаанда
шаандагы
шаандакы
шаандан
шаандыгы
шаап
шаапкан
шаапкаш
шаараш
шаблон
шаблона
шаблоне
шаблоны
шавар
шаг
шагаа
шагаада
шагаан
шагааны
шагааның
шагар
шагда
шагдаа
шагдан
шагдыр
шагдыржап
шагдыржапты
шагдыржаптың
шагның
шагонар
шагы
шагын
шагында
шад
шадрина
шады
шажын
шажынга
шажында
шажыннарда
шажынны
шажынның
шажынчы
шажыны
шажынын
шажының
шаи
шак
шакирова
шакка
шакта
шактан
шактар
шакты
шакьямуни
шал
шала
шалабаева
шалык
шалың
шалыңын
шальке
шаманизм
шамбалыг
шамиль
шанган
шанель
шанлы
шаннаткан
шанхаи
шанчы
шанчып
шань
шаньның
шаньюи
шаня
шапкан
шапканының
шапкын
шаптап
шаптараазын
шаптык
шаптыктап
шаптырган
шар
шара
шарикова
шарипутра
шарлан
шарлотта
шарль
шартаа
шары
шарызы
шарыны
шарып
шат
шатрова
шах
шахмат
шахте
шашка
шашкаларга
шашкам
шашкилерге
шая
шаң
шаңнаан
шаңнаар
шаңнаары
шаңнадып
шаңнал
шаңналга
шаңналдар
шаңналдарга
шаңналдарны
шаңналдарның
шаңналдары
шаңналдарын
шаңналдарының
шаңналды
шаңналдыг
шаңналдың
шаңналы
шаңналын
шаңналынга
шаңналынның
шаңналынныӊ
шаңналының
шаңнаткан
шаңчы
шаӊнал
шаӊналын
шаӊнаткан
шварц
швед
швеи
швеции
швеция
швецияга
швецияның
швея
швитцер
ше
шевер
шевцова
шевченко
шеи
шекпер
шекпээр
шекспир
шекспира
шекспирниң
шелк
шелунь
шем
шеми
шемиге
шенек
шенелде
шенеп
шенээр
шериг
шеригге
шеригде
шеригден
шеригже
шеригжи
шериглер
шериглерге
шериглерден
шериглери
шериглерин
шериглериниң
шериглерни
шериглерниң
шериглиг
шеригни
шеригниң
шерии
шериин
шериинге
шерииниң
шериинче
шерпалар
шерпаларның
шерсти
шестакова
шестая
шестои
шесть
шет
ши
шибаева
шивалха
шивегеи
шиви
шивилиг
шивишкин
шивээ
шивээзи
шивээлиг
шиде
шидип
шие
шии
шииге
шиидер
шиидип
шиизи
шиизин
шиизинге
шиизинде
шиилер
шиилерге
шиилери
шиилерин
шиилерни
шиилерниң
шиини
шииткекчи
шииткекчизи
шииткекчилер
шииткен
шиитпир
шиитпири
шиитпирин
шиитпирлеп
шиитпирлерин
шиитпирлиг
шиитпирлээн
шиитпирлээр
шиитпирлээри
шиитпирлээринге
шиитпирни
шииттирген
шикунец
шил
шилги
шилден
шилеге
шилиир
шилилге
шилиндек
шилип
шилиткен
шилиттинген
шилчидер
шилчидип
шилчии
шилчип
шилчиткен
шилчиттинген
шилчиттирген
шилчиттирип
шилчээн
шилчээш
шилээн
шимко
шимчедикчи
шимчедикчилиг
шимчедикчини
шимчедип
шимченгир
шимчеп
шимчээр
шимчээшкин
шимчээшкини
шимчээшкинин
шимчээшкининге
шимчээшкининиң
шимчээшкиннер
шимчээшкиннери
шимчээшкиннерни
шимчээшкинниң
шимээн
шимээнниг
шин
шиник
шинчизи
шинчилекчи
шинчилекчизи
шинчилекчизиниң
шинчилекчилер
шинчилекчилери
шинчилекчилериниң
шинчилел
шинчилелдер
шинчилелдери
шинчилелдерин
шинчилелдериниң
шинчилелдерни
шинчилелдерниң
шинчилелдиг
шинчилели
шинчилелиниң
шинчилеп
шинчилеттинген
шинчилеттинмээн
шинчилээн
шинчилээр
шинчилээри
шинчилээрин
шинчилээринге
шинчилээш
шириин
ширин
ширинмеевич
широбокова
ширтек
ширээзинге
ших
шиш
шиғырҙар
шиңгээдип
шиңгээдирин
шк
шкадов
шкаф
школ
школа
школага
школада
школадан
школаже
школазы
школазын
школазынга
школазында
школазынче
школазының
школалар
школаларга
школаларны
школаларның
школаларынга
школаларының
школаны
школаның
школах
школачы
школе
школу
школы
школьная
школьников
школьного
школьныи
шла
шлемниң
шляпа
шмидт
шмидттиң
шнеи
шнирельман
шо
шожал
шои
шокар
шоколад
шола
шолазы
шолазын
шолалыг
шоланы
шолбан
шома
шонуп
шончалаи
шоодаи
шоодуглуг
шоолуг
шор
шорт
шору
шоссеи
шотланд
шоу
шош
шоюн
шри
шривастава
штаб
штаба
штады
штаи
штат
штатта
штаттары
штаттарында
штаттарының
штаттың
штеи
штурман
шу
шугдур
шугум
шугуму
шугумун
шугумунга
шудургу
шуи
шукшина
шулбус
шулбустарның
шулбустуң
шулукчу
шулуу
шульц
шумеева
шупашкар
шупту
шуптузу
шуптузун
шуптузунуң
шура
шураи
шурап
шургуп
шурика
шуткуп
шутова
шуудаң
шуулган
шуулганга
шуулганы
шуулганынга
шуурган
шуурмак
шуут
шууштур
шушенск
шыбаев
шыва
шывар
шывыг
шывыглар
шыгжаан
шыгжаар
шыгжамыры
шыгжап
шыгжаттынган
шыгжаттынып
шыдаан
шыдаар
шыдаваан
шыдаваи
шыдавас
шыдажып
шыдал
шыдалдыг
шыдалдың
шыдалын
шыдамык
шыдап
шыдапкан
шыдаптар
шыдашпаи
шыдыраа
шыдыраага
шыдырааны
шыдырааның
шыдырааныӊ
шыи
шык
шыкка
шыктан
шыктар
шыктарлыг
шыктыг
шылгалда
шылгалдалар
шылгалдаларны
шылгалдаларын
шылгарал
шылгаралдыг
шылгаралдың
шылгараңгаи
шымкент
шын
шынаа
шынаазында
шынаазының
шынап
шынар
шынараповна
шынарларлыг
шынарларны
шынарлары
шынарларын
шынарларының
шынарлыг
шынарның
шынары
шынарын
шынарының
шындавал
шынзыдар
шынзыдып
шынны
шынныг
шынчы
шынчызы
шыны
шынын
шынында
шып
шыпкан
шыпшык
шыраи
шыргаи
шыырак
шыырап
шыыраповна
шыяан
шығыс
шыққан
шыңган
шыңгыы
шээлеи
шээр
шүглүп
шүгүмчүлел
шүгүмчүлеп
шүлүглел
шүлүглелдер
шүлүглелдерин
шүлүк
шүлүкке
шүлүктер
шүлүктери
шүлүктерин
шүлүктеринге
шүлүктеринде
шүлүктериниң
шүлүктерни
шүлүктээн
шүлүкчү
шүлүкчүзү
шүлүкчүлер
шүлүкчүлерниң
шүлүкчүнүң
шүлүү
шүлүүн
шүлүүнге
шүүгү
шүүлген
шүүрээр
шүүштүрүп
шөи
шөл
шөлге
шөлде
шөлден
шөлдер
шөлдери
шөлдерин
шөлдеринге
шөлдү
шөлдүг
шөлдүң
шөлче
шөлээн
шөлү
шөлүг
шөлүглер
шөлүн
шөлүнге
шөлүнде
шөлүнден
шөлүнүң
шөлүпкен
шөлүттүрген
щ
щедрин
щедрина
щербак
щербинина
щербо
щетинина
щукин
ъ
ы
ыг
ыглап
ыглар
ыглыг
ыгны
ыдалаар
ыдар
ыды
ыдык
ыдыктап
ыдыктыг
ыдынга
ыдынның
ыдының
ыдып
ыжы
ыжык
ызы
ызыгуур
ызыгуурлуг
ызыгууртан
ызыгууртаннарның
ызыгууру
ызыгуурун
ызын
ызынга
ызында
ызындан
ызыннар
ызыннары
ызынны
ызынның
ызынныӊ
ызыны
ыи
ык
ыкка
ыкты
ыл
ылангыя
ылап
ылаптыг
ылаңгыя
ылаңгыяда
ылбыр
ылбырлаан
ылбырлаар
ылбырлап
ылбырлар
ылбырлыг
ылбырны
ылбыры
ылбырын
ылгаар
ылгавыр
ылгал
ылгалбас
ылгалдар
ылгалдары
ылгалдыг
ылгалы
ылгалын
ылгалып
ылгалыр
ылган
ылгап
ылдажып
ылдажыр
ылдашкан
ылдыртып
ылым
ым
ын
ына
ынаа
ынаажык
ынаан
ынаар
ынаваан
ынаи
ынак
ынакшаан
ынакшыи
ынакшыл
ынакшылды
ынакшылдың
ынакшылы
ынакшылын
ынал
ынга
ынд
ында
ындан
ынды
ындыг
ындында
ындырар
ындырган
ындыргаш
ындырып
ынзырак
ынны
ыннын
ынның
ынча
ынчаар
ынчаарга
ынчаарда
ынчалдыр
ынчалза
ынчалзажок
ынчан
ынчангаш
ынчангаштың
ынчангы
ынчап
ынчаш
ынчаңгаш
ынче
ынчы
ынчызы
ынчылар
ынчыларны
ынчыларның
ынчылары
ыны
ынын
ынынга
ынында
ыныннын
ынынның
ынынныӊ
ынынче
ынының
ының
ып
ыр
ыраа
ыраажы
ыраажызы
ыраажылар
ыраажыларның
ыраажылары
ыраажының
ыраан
ырадыр
ыразын
ыраи
ырак
ыракан
ыраккы
ыракта
ырактан
ыракы
ырал
ыралдажып
ыралдыг
ыралдың
ыралы
ыралыг
ыралын
ыралының
ырап
ырбан
ыргаи
ыргак
ырда
ыржым
ырку
ырлаан
ырлаар
ырлаары
ырлаарынга
ырлажып
ырлаи
ырлал
ырлалга
ырлалдар
ырлалдарга
ырлалдарының
ырлалды
ырлалдыы
ырлалдың
ырлалы
ырлалын
ырлалынга
ырлалының
ырлап
ырлар
ырларны
ырлары
ырларын
ырларында
ырлашкан
ырлыг
ырма
ырны
ырның
ырович
ыровна
ыры
ырызы
ырызын
ырызының
ырылар
ырыларны
ырыларның
ырылары
ырыларын
ырыларында
ырыларының
ырым
ырын
ырыны
ырының
ырыылар
ыс
ысаалга
ыскылаң
ыстыг
ысылал
ысылалга
ысылалы
ысылалынга
ыт
ытка
ыткан
ытканы
ытпаан
ыттар
ытты
ыттың
ыш
ышкажыл
ышкаш
ыштап
ыште
ыът
ыъттар
ыъттарны
ыы
ыыл
ыылга
ыылды
ыылдыг
ыылы
ыын
ыыр
ыыт
ыыткыр
ыыткырзымаар
ыяап
ыяжын
ыяжындан
ыяк
ыяп
ыяш
ыяшка
ыяштан
ыяштар
ыяштарга
ыяштарлыг
ыяштарны
ыяштарның
ыяшты
ыяштыг
ыяштың
ың
ыңаи
ыӊаи
ь
э
эа
эбади
эбру
эбэ
эвакуации
эвакуацияга
эвези
эвезин
эвенк
эвенки
эвенкии
эвенков
эвес
эвеспе
эвесте
эвилел
эвилелдеп
эвилелдериниң
эвилелдиң
эвилели
эвилелин
эвилелинге
эвилелинин
эвилелиниң
эвилелиниӊ
эвилелиннин
эвилелинниң
эвилелинниӊ
эвилелинче
эвилелчи
эвилең
эволюция
эвээжедир
эвээжеп
эвээжээн
эвээжээр
эвээш
эге
эгеге
эгези
эгезин
эгезинге
эгезинде
эгезинден
эгеки
эгелеи
эгелекчи
эгелекчизи
эгелеп
эгелээн
эгелээнде
эгелээни
эгелээнинден
эгелээннер
эгелээр
эгелээрге
эгелээрде
эгелээрин
эгелээриниң
эгелээрлер
эгелээш
эгелээшкини
эгидип
эгил
эгин
эгиткен
эглип
эдвард
эдвардом
эде
эдегеи
эдер
эдерер
эдержип
эдержир
эдеринчи
эдеринчизи
эдеринчилери
эдеринчилериниң
эдерип
эдертип
эди
эдилгелиг
эдилекчизи
эдилекчилер
эдилекчилери
эдилекчилериниң
эдилел
эдилели
эдилеп
эдилээн
эдилээр
эдин
эдип
эдисон
эдисоннуң
эдуард
эдуарда
эдуардо
эдхям
эдээ
эдээн
эдээнге
эдээнде
эдээнче
эжелеи
эжелекчи
эжелекчилер
эжелекчилерге
эжелеп
эжелеттирген
эжелээн
эжен
эжеш
эжи
эжии
эжиин
эжииниң
эжик
эжим
эжин
эжинге
эжиндирип
эжиниң
эзер
эзерлиг
эзерниң
эзеңги
эзилбес
эзилдирип
эзим
эзир
эзирик
эзиртир
эи
экелген
экер
экз
экзема
экземпляр
экземплярская
эки
экижидер
экижидери
экижидеринге
экижидип
экижиткен
экизин
экии
экииргек
экини
экиртир
эккелген
эккелгеш
эккеп
эккээр
экологии
экологического
экологическое
экология
эколого
экологтуг
экон
экономизи
экономик
экономика
экономиказы
экономиказының
экономиканың
экономике
экономики
экономиктиг
экономист
экономическая
экономические
экономическии
экономических
экономического
экономическое
экономическои
экран
экранче
экс
экскурсия
эксмо
экспедиции
экспедиция
экспедициязы
экспедициязын
экспедициязынга
экспедициязының
экспедициялар
эксперимент
эксперименталдыг
экспериментально
эксперт
экспертиза
экспертизи
экспозиция
экспресс
эктинге
эл
элаи
элбедиринге
элбек
элдеп
элдептиг
элдиг
элеге
элегес
элегест
элезиннер
элезинниг
элекке
электри
электриктиг
электрилиг
электромагниттиг
электроника
электронная
электроннои
электронном
электроннуг
электронныи
электротехника
элемент
элементизи
элементилер
элементилерин
элементилерниң
элементиниң
элементов
элементы
элен
элеонора
эли
элизабет
элик
элим
элин
элиниң
элинор
элиста
элита
элла
эллипс
элчи
элчиген
элчигенниң
элчин
элчини
эль
эльвира
эльза
эльфрида
элээди
элээдилер
элээн
эм
эмге
эмдик
эмзимаа
эмиг
эмили
эмилия
эмиль
эмин
эмирниң
эмкуль
эмма
эмнедип
эмнелге
эмнелгеге
эмнелгеде
эмнелгези
эмнелгезинге
эмнелгезиниң
эмнелгениң
эмненип
эмненир
эмнеп
эмнер
эмнерге
эмнерни
эмнерниң
эмни
эмниң
эмнээр
эмнээри
эмнээринге
эмнээшкин
эмре
эмчи
эмчиге
эмчиден
эмчизи
эмчизинге
эмчизиниң
эмчилеп
эмчилер
эмчилерниң
эмчиниң
эн
энгельс
эндевес
эндрю
эне
энергетика
энергетиктиг
энергия
энергиязы
энергиязын
энергиязының
энергияны
энергияның
энерел
энерелдиг
эниат
эник
энн
эннэр
энтони
энцикл
энциклопедии
энциклопедическии
энциклопедия
энциклопедиядан
энциклопедияның
энциклопедиясы
энцыклапедыя
энэ
эп
эпидемиологии
эпидемиология
эпидемия
эпизод
эпиктиг
эпир
эпитафии
эпос
эпостуң
эпоха
эпохи
эпоху
эпсилон
эптежип
эптештир
эптиг
эпчок
эр
эрага
эраның
эрге
эргежок
эргези
эргезин
эргезинде
эргек
эргеледип
эргелекчи
эргелекчизи
эргелекчизинге
эргелекчилеп
эргелекчилээн
эргелекчиниң
эргелел
эргелели
эргелелинге
эргелелиниң
эргелер
эргелери
эргелерин
эргелиг
эргени
эрги
эргижирээн
эргии
эргилдези
эргилдезин
эргилдезинде
эргим
эргип
эргис
эргээн
эрдинч
эректус
эренфест
эрес
эреңгеи
эржеи
эрзин
эрзинниң
эривес
эриг
эрии
эриин
эриинге
эриинде
эриинден
эрииниң
эрик
эрика
эриктерин
эрин
эриннер
эринниң
эрип
эркан
эрлер
эрлик
эрни
эрнст
эрте
эртеги
эртежик
эртем
эртемге
эртемде
эртемден
эртемденге
эртемденер
эртемдени
эртемденнер
эртемденнерге
эртемденнери
эртемденнериниң
эртемденнерниң
эртемденниң
эртемдээн
эртемдээнер
эртемдээннер
эртеми
эртемин
эртеминге
эртеминде
эртеминиң
эртемнер
эртемнерге
эртемнери
эртемнерин
эртемнеринге
эртемнеринде
эртемнериниң
эртемнериниӊ
эртемнеринниң
эртемнерниң
эртемни
эртемниг
эртемниң
эртен
эртенги
эртенинде
эртер
эртерге
эртери
эртик
эртине
эртинеден
эртинези
эртинелиг
эртип
эртир
эртирген
эртирер
эртирип
эрткен
эрткенде
эрткени
эрткеннер
эрткеш
эртпеи
эрттер
эрттип
эрттир
эрттирген
эрттиргеш
эрттирер
эрттирери
эрттиреринге
эрттирип
эртугрулдуң
эрчис
эрээн
эскадрилья
эскадрон
эскадроннуң
эскербеи
эскерген
эскергеш
эскерип
эски
эскишехирспор
эсперовна
эссе
эстафетага
эстер
эстетика
эстетиктиг
эстиичел
эстип
эстир
эстон
эстония
эстрада
эт
эта
этанол
этапе
этапы
эти
этика
этилдиг
этим
этимологическии
этимологтуг
этих
эткир
этн
этниктиг
этническая
этническии
этническои
этно
этногенез
этнограф
этнографии
этнографическии
этнография
этнографтыг
этнокультурлуг
этнокультурные
этноса
этносоциалдыг
этносоциальные
это
этого
этои
этом
этому
этот
эттеп
эттир
эттирген
эттирип
эттээр
эту
эфир
эфирге
эфирлер
эфирлиг
эффект
эффективности
эффектилиг
эхо
эчизинге
эш
эши
эшпи
эштеп
эштери
эштерин
эштеринге
эштериниң
эштиг
эштип
эштир
эъди
эъдин
эъдинден
эъжим
эът
эътке
эъткир
эътти
эъттиг
ээ
ээжегеи
ээжелеп
ээжелээн
ээзи
ээзин
ээзинге
ээзиниң
ээи
ээлгир
ээлдек
ээлекчизи
ээлеп
ээлери
ээлеринге
ээлчег
ээлчегде
ээлчеглиг
ээлээн
ээлээш
ээн
ээп
ээр
ээрбек
ээрен
ээрип
ээтпек
ээтпектиң
эң
эңгин
эңдере
эңдерик
эңмежок
эӊ
ю
юан
юань
юаньның
юар
юбилеем
юбилеи
юбилею
ювентус
юго
югославии
юдин
юдина
южная
южно
южнои
южныи
юи
юлаев
юлаи
юлиан
юлии
юлия
юльякшин
юнаи
юнеско
юниорлар
юность
юпа
юпитер
юпитерниң
юридиктиг
юридическая
юридическии
юридического
юридическои
юрии
юрист
юристы
юрия
юрченко
юрьевич
юрьевна
юріи
юстиция
юсупов
юсуф
юсуфзаи
юю
я
яамазы
яамазының
яамызы
яамызын
яамызынга
яамызының
яасср
яблоктуг
является
являлась
являются
яга
ягаан
ядро
ядролуг
ядыы
яз
язовских
язы
язык
языка
языкам
языках
языке
языки
языков
языковои
языковом
языкознание
языкознании
языкознания
языку
яи
яиц
як
якимова
якина
якоб
яков
яковенко
яковлев
яковлева
яковлевич
яковлевна
якорь
яку
якут
якутии
якутия
якутияга
якутияның
якутск
якутскии
якутского
якутскои
якутском
якутскуга
якутскунуң
якушева
якушина
яла
ялоу
ямало
ямбы
ян
яна
янв
январь
январьда
январьның
января
янзы
янзызы
янзылары
янзылыг
янина
янькова
яп
япон
япония
японияга
японияда
япониядан
японияның
японнар
яр
ярмаркалар
ярослав
ярослава
ярославль
ярыгин
ясемин
ясли
яструн
ят
яф
яцковскии
яшен
яшкова
ященкова
ящук
ђ
і
ѳ
ѳг
ѳгленген
ѳгленип
ѳлүм
ѳске
ѳѳредилге
ѳѳренген
ѳѳреникчизи
ѳѳренип
ғ
қ
қазақ
қазақстан
қазақтың
қаи
қалмақ
қан
қандаи
қани
қара
қаңтар
қои
қылып
құдаи
ҡыҙы
ң
ңу
ҫ
ҫава
ҫе
ү
үгер
үгү
үделгези
үдеп
үдээн
үдээр
үе
үеге
үеде
үедеги
үеден
үези
үезин
үезинге
үезинде
үезинден
үезиниң
үелер
үелерге
үелерде
үелерден
үелери
үелерин
үелеринде
үелерни
үен
үени
үенин
үениң
үенниң
үер
үержаа
үжен
үжү
үжүглел
үжүк
үжүкке
үжүктен
үжүктер
үжүктерден
үжүктери
үжүктерин
үжүктерни
үжүктү
үжүктүг
үжүктүң
үжүү
үжүүн
үжүүрлешкен
үзе
үзел
үзери
үзү
үзүк
үзүктел
үзүлген
үзүн
үзүндү
үзүндүлер
үзүп
үзүү
үи
үк
үкімет
үлегер
үлегери
үлегерлеп
үлегерлиг
үлежип
үлежир
үлеп
үлетпүр
үлетпүрге
үлетпүрнүң
үлетпүрү
үлетпүрүнүң
үлешкен
үлээни
үлээр
үлүг
үлүү
үлүүн
үн
үнге
үнген
үнгени
үнгеш
үнгүлээн
үнд
үндезилекчи
үндезилекчизи
үндезилекчилери
үндезилекчилериниң
үндезилеп
үндезилеттинген
үндезилеттинип
үндезилээн
үндезилээш
үндезин
үндезини
үндезинин
үндезининде
үндезиннер
үндезиннери
үндезиннерин
үндезинниг
үндурген
үндү
үндүнүң
үндүр
үндүрбеи
үндүрбес
үндүрген
үндүргени
үндүргеннер
үндүргеш
үндүрер
үндүрерде
үндүрери
үндүрерин
үндүреринге
үндүрериниң
үндүрткен
үндүрттүнген
үндүрүг
үндүрүглер
үндүрүлге
үндүрүлгези
үндүрүлгезиниң
үндүрүп
үндүрүпкен
үндүрүптер
үне
үнези
үнезин
үнелел
үнелелди
үнелелин
үнелеп
үнелиг
үнелээн
үнелээр
үнер
үнерге
үнерде
үнери
үнерин
үнеринге
үнериниң
үнмеи
үнмес
үнмээн
үннелдирген
үннер
үннери
үннерин
үннерни
үннерниң
үннү
үннүг
үннүң
үнэн
үнү
үнүжү
үнүн
үнүп
үнүпкен
үнүш
үнүштер
үнүштерге
үнүштерде
үнүштерни
үнүштерниң
үнүштүң
үнүүшкүнү
үп
үптеп
үр
үрбүнге
үргүлчү
үргүлчүлээн
үрдүнүп
үре
үрезин
үрезини
үрезинин
үрезининде
үрезининиң
үрезиннер
үрезиннерде
үрелбезин
үрелбес
үрелиг
үреп
үрер
үрээр
үрүле
үс
үсеи
үске
үскен
үскеш
үспеи
үстер
үстү
үстүг
үстүкү
үстүнде
үстүп
үстүр
үстүү
үттерлиг
үттүг
үч
үш
үшкү
үштен
үүлгедиг
үүлгедиглер
үүлгедиглери
үүлгедип
үүле
үүледен
үүлези
үүлезин
үүлени
үүлениң
үүр
үүргене
үүрмек
ұлы
ұстап
һааш
ә
әз
ө
өвүр
өвүрнүң
өг
өгбе
өгбезиниң
өгбелер
өгбелери
өгбелеривис
өгбелеривистиң
өгбелерим
өгбелерин
өгбелеринге
өгбелериниң
өгбелерниң
өгбем
өгге
өгде
өге
өгленген
өгленгеш
өгленип
өгленир
өгленчип
өглеп
өглер
өглерге
өглерин
өглүг
өгнү
өгнүң
өдек
өдүген
өжегээр
өжээн
өжүрүп
өзбек
өзе
өзек
өзен
өзеп
өзер
өзээ
өзээн
өзээнде
өзүлде
өзүлдези
өзүп
өи
өк
өкпе
өл
өлбес
өлген
өлгени
өлгүжеге
өле
өлең
өлеңдер
өлеңдері
өлзе
өлзеи
өлчеи
өлү
өлүг
өлүк
өлүм
өлүмнүг
өлүмнүң
өлүмү
өлүп
өлүр
өлүрге
өлүрген
өлүрер
өлүрери
өлүрткен
өлүрүнүң
өлүрүп
өндүр
өнер
өнчү
өнчүзү
өнчүзүн
өпеи
өрге
өрген
өргээзи
өргээзинге
өргээн
өргүл
өргүп
өргүүр
өргүүрү
өре
өреге
өрегелиг
өреме
өремени
өрт
өртедип
өртедипкен
өртедиптер
өртектиг
өртемчеи
өрттенген
өртээ
өртээн
өршээ
өршээзин
өршээл
өршээп
өрээл
өрээлдер
өрээлдери
өрээли
өрээлин
өрээлиңер
өрээп
өрү
өрүп
өрүүр
өс
өске
өскези
өскезин
өскелер
өскелерге
өскелерден
өскелери
өскелерни
өскелерниң
өскен
өскеп
өскерилбес
өскерилбээн
өскерилге
өскерилгелер
өскерилген
өскерли
өскерлиишкини
өскерлиишкиннер
өскерлиишкиннерни
өскерлип
өскерлир
өскерти
өскертип
өскертир
өскерткен
өскээр
өскүс
өстүрген
өстүрер
өстүрери
өстүреринге
өстүрүп
өт
өткүт
өттүнүп
өттүр
өтүкен
өфө
өш
өшкү
өшкүнү
өшкүнүң
өшпес
өң
өңге
өңгүр
өңнер
өңнери
өңнерлиг
өңнерниң
өңнүг
өңнүк
өңнүктер
өңнүктери
өңнүү
өңнүүм
өңү
өө
өөк
өөн
өөнге
өөнден
өөнүң
өөр
өөредиг
өөредигге
өөредиглиг
өөредигни
өөредигниң
өөредии
өөредиин
өөредиинге
өөредииниң
өөредилге
өөредилгеге
өөредилгеже
өөредилгези
өөредилгезин
өөредилгезиниң
өөредилгелиг
өөредилгени
өөредилгениң
өөредип
өөредир
өөредирде
өөредири
өөредиринге
өөредириниң
өөренген
өөренгеш
өөрени
өөрениир
өөреникчи
өөреникчизи
өөреникчилер
өөреникчилери
өөреникчилеринге
өөреникчилериниң
өөреникчилерни
өөренип
өөренир
өөренири
өөренирин
өөрениринге
өөренириниң
өөренмишаан
өөреткен
өөртүп
өөрү
өөрүк
өөрүм
өөрүн
өөрүнчүг
өөрүнүң
өөрүп
өөрүшкү
өөрүшкүзүн
өөрүшкүлүг
өөс
өөскээн
өөскүп
өөң
ַ
ּ
ו
،
؛
ا
ب
ت
ج
ح
د
ر
س
ص
ط
ع
ف
ل
م
ن
و
ً
ٌ
ٍ
َ
ُ
ِ
ّ
ٔ
ٕ
ٰ
ک
ہ
ی
ۡ
ं
क
ग
त
ध
न
प
ब
म
य
र
व
स
ा
ि
ी
ु
ो
्
ા
ப
ா
ி
்
ิ
ี
้
་
།
ཁ
ག
གས
ང
ཅ
ཆ
ཐ
ད
དཀ
ན
པ
ཕ
བ
བས
མ
མཆ
མས
ཚ
ར
ལ
ཤ
ས
ི
ུ
ེ
ོ
ྐ
ྒ
ྗ
ྟ
ྣ
ྩ
ྱ
ྲ
ླ
ྷ
조선
ᵝ
ᵠ
​
‌
‎
‒
–
—
―
‘
’
“
”
„
•
…
‰
′
″
›
‿
⁡
№
™
↑
→
↓
↔
↵
↷
⇧
−
∘
≡
≤
⌉
⌊
③
④
⑦
►
◄
♥
⟶
⭾
⭿
⺀
⺄
⺆
⺈
⺊
⺌
⺕
⺝
⺸
⺼
⿰
⿱
⿲
⿳
⿴
⿵
⿶
⿷
⿸
⿹
⿺
⿻
、
《
》
【
】
〢
さ
た
れ
゙
゚
ア
イ
カ
コ
ス
ニ
ヒ
フ
ユ
ル
ー
㇁
㇂
㇄
㇇
㇈
㇉
㇓
㐁
㐄
㐅
㐌
㐫
㐬
㐭
㐮
㐱
㑒
㒵
㒸
㒼
㓁
㓞
㔾
㕛
㕣
㖾
㘝
㚅
㚇
㚔
㚘
㝉
㝡
㝴
㝵
㞋
㞢
㞷
㠩
㠭
㠯
㡀
㡭
㡿
㢲
㢴
㣇
㣺
㥯
㪅
㫄
㫐
㫒
㫺
㬅
㬎
㬥
㬰
㲋
㳄
㷠
㸒
㸚
㸦
㼌
㼲
㽞
㿟
䀠
䂞
䍃
䏍
䒑
䖍
䖒
䖝
䖵
䙴
䚻
䜌
䝿
䡛
䧹
䪞
一
丁
丂
七
丄
丅
丆
万
丈
三
上
下
丌
不
与
丏
丐
丑
专
且
丕
世
丘
丙
业
东
丞
丢
丣
两
严
並
丨
丩
个
丫
丬
中
丮
丰
丱
串
丵
丶
丷
丸
丹
为
主
丽
丿
乀
乂
乃
久
乆
乇
么
义
之
乌
乍
乎
乏
乐
乑
乔
乖
乗
乘
乙
乚
乛
乜
九
乞
也
习
乡
乳
乾
亀
亅
了
亇
予
争
事
二
亍
于
亏
亐
云
互
亓
五
井
亘
亚
亜
亞
亟
亠
亡
亢
交
亥
亦
产
亨
亩
享
京
亭
亮
亯
亰
亲
亳
亶
亷
人
亻
亼
亾
仁
今
介
仌
从
仐
仑
仒
仓
仕
他
付
仝
代
令
以
任
企
伊
伏
伐
休
会
伯
但
位
何
佘
余
作
佥
使
來
侈
侌
侖
侯
侵
便
俊
保
俞
信
修
倉
倍
候
倠
備
僉
僕
儿
兀
允
兂
元
兄
充
兆
兇
先
光
兊
克
兌
免
兑
兒
兓
兔
党
兜
兟
入
全
兩
兪
八
公
六
兮
兰
共
关
兵
其
具
典
兹
兼
冀
冂
冃
冄
内
冈
冉
冊
冋
册
再
冎
冏
冐
冒
冓
冖
冗
冘
军
农
冝
冡
冥
冫
冬
冷
几
凡
凢
凵
凶
凷
凸
凹
出
函
凾
刀
刁
刂
刃
刄
刅
分
切
刍
刑
刕
刖
列
刘
则
初
別
利
别
到
制
刺
則
削
剌
前
剡
剽
劉
力
功
加
劦
动
助
努
劫
劳
劵
勃
勇
勉
勒
動
務
勞
勤
勹
勺
勻
勾
勿
匀
匂
包
匆
匈
匊
匋
匍
匕
化
北
匚
匝
匡
匪
匱
匸
匹
区
医
匽
匿
區
十
卂
千
卄
卅
卆
升
午
卉
半
卌
华
卑
卒
卓
单
卖
南
卜
卝
卞
占
卡
卢
卣
卤
卦
卩
卪
卫
卬
卯
印
危
即
却
卵
卷
卸
卻
厂
厃
厄
历
厈
厉
厌
厓
厘
厚
原
厤
厥
厨
厭
厲
厶
厷
厸
去
厼
厽
叀
参
參
叅
又
叉
及
友
双
反
叐
发
叒
叔
叕
取
受
叚
叜
叟
口
古
句
另
叩
只
召
可
台
叱
史
右
叵
号
司
叹
吂
各
吅
合
吉
吊
吋
同
名
后
吏
向
吕
君
吝
吞
否
含
启
吳
吴
吹
吾
呂
呆
呈
告
员
呙
呦
周
命
咅
和
咎
咠
咢
咨
咸
咼
哀
品
哈
哉
响
員
哥
哲
唐
唱
商
啇
問
啚
啬
啻
善
喜
喬
單
喿
嗇
噩
嚴
囊
囗
囘
囙
囚
四
回
囟
因
团
囧
囬
困
囱
囷
固
国
圂
圅
國
圍
圓
土
圡
圣
圥
在
圭
地
圶
场
圼
坐
坒
坚
坴
垂
垔
垚
埀
埋
埶
執
基
堂
堅
堆
堇
堯
塞
墨
壘
士
壬
壯
声
壳
壴
壹
壺
壽
夂
处
夅
夆
备
夊
夋
夌
复
夏
夒
夕
外
夗
夘
多
夜
夢
大
夨
天
太
夫
夬
夭
央
失
夲
头
夷
夸
夹
夻
夾
奂
奄
奇
奈
奉
奎
奏
奐
契
奓
奔
奚
奞
奠
奢
奥
奭
女
奴
奻
好
如
妄
妙
妟
妥
妻
妾
姑
委
姜
威
娄
娅
婁
婴
嬰
嬴
子
孑
孔
孕
孖
字
存
孚
孛
孝
孟
季
孤
学
孫
孱
學
宀
宁
宂
它
宅
宇
守
安
宋
完
宏
宓
宗
官
定
宛
宜
宝
实
客
宣
室
宮
宰
害
宵
家
容
宾
宿
寄
寅
密
富
寒
察
寧
審
寫
寬
寮
寸
对
寺
寻
寽
対
寿
封
尃
射
将
將
專
尉
尊
尋
尌
對
小
少
尒
尓
尔
尖
尗
尚
尞
尢
尣
尤
尧
尨
尭
就
尸
尹
尺
尻
尼
尽
尾
尿
局
居
屈
屋
屎
屏
屑
展
屖
屚
属
屠
屡
屬
屮
屯
屰
山
屵
屾
岁
岂
岑
岡
岩
岳
岸
峯
島
崇
崑
崔
崖
崙
崩
嵬
嶲
巂
巛
川
州
巟
巠
巢
巤
工
左
巧
巨
巩
巫
差
己
已
巳
巴
巷
巸
巽
巾
巿
帀
市
布
希
帚
帛
帝
带
師
席
帶
常
幕
干
平
年
幵
并
幷
幸
幺
幻
幼
幽
幾
广
広
庄
床
底
店
庚
府
度
庫
庭
庶
康
庸
廉
廌
廛
廣
廩
廴
延
廷
建
廾
廿
开
弁
弃
弄
弇
弋
式
弓
弔
引
弗
弘
弜
弟
弥
弦
弱
張
強
强
彊
彌
彎
彐
彑
当
彔
录
彖
彗
彡
形
彥
彦
彧
彭
影
彳
役
彼
往
待
律
徒
得
徙
從
復
微
徵
心
忄
必
忌
忍
志
忝
忠
忩
快
念
忽
忿
思
怠
急
怱
恆
恒
恩
恭
息
悉
患
悤
悲
悶
情
惠
惡
惢
愁
愈
意
愛
感
慈
慧
慮
憂
憲
應
戀
戈
戉
戊
戋
戌
戍
戎
成
我
戒
戔
或
戚
戠
戢
截
戲
戶
户
戹
戼
戾
房
所
扁
扇
手
扌
才
打
托
执
承
技
折
拉
拜
拳
拿
掌
推
提
摩
撑
支
攴
攵
收
攸
改
放
政
敄
敏
敕
敖
敗
教
敝
敞
敢
散
敦
敫
敬
数
敷
數
斂
文
斉
斊
斗
斤
斥
斩
斬
斯
新
方
於
施
斿
旁
旋
族
无
旡
既
旣
日
旦
旧
旨
早
旬
旱
旲
时
旾
昆
昇
昌
昍
明
昏
易
昔
昗
昜
星
春
昬
是
昱
昴
昷
時
晃
晋
晏
晚
普
景
晶
智
暑
暴
曇
曩
曰
曲
曳
更
曷
書
曹
曼
曾
替
最
朁
會
月
有
朋
服
朔
朕
朗
望
朝
期
木
朩
未
末
本
札
朮
术
朱
朵
朶
朿
杀
杏
杜
束
条
来
東
杲
杳
松
析
林
枚
果
枝
枲
枼
某
柔
查
柬
柰
柴
栗
株
格
桀
桑
桼
梁
條
梟
梨
棘
棠
棥
森
楚
業
楽
榮
樂
樊
欠
次
欣
欮
欲
欶
欽
款
歆
歇
歌
歛
止
正
此
步
武
歨
歪
歮
歯
歰
歲
歴
歷
歸
歹
歺
死
殳
段
殷
殸
殹
殺
殻
殿
毋
毌
母
每
毒
比
毕
毚
毛
毳
氏
氐
民
气
氣
水
氵
氶
氷
永
氺
氾
求
汝
汞
江
沃
沓
沙
沝
治
泉
法
波
泣
泥
泰
洛
洪
活
派
流
浦
浪
浮
海
淡
淮
清
渚
渠
湖
湯
滿
演
漸
火
灬
灭
灰
灵
灷
炅
炎
炏
炗
炙
炫
炭
為
烈
烏
烝
焉
無
焦
焱
然
煞
熊
熏
燕
營
燮
爪
爫
爭
爯
爰
爱
爲
爵
父
爻
爽
爾
爿
片
牙
牚
牛
牜
牟
牢
牧
牪
牽
犀
犁
犬
犭
犮
狂
狄
狊
独
狺
猋
猒
猜
猪
献
獻
玄
率
玉
王
玛
玟
玨
珎
班
琴
瑟
瑩
瓜
瓦
甘
甚
生
産
用
甫
甬
田
由
甲
申
电
甶
男
甸
甹
画
甾
畀
界
畏
畐
留
畜
畟
畢
畧
畨
番
畫
異
畱
當
畺
畾
疊
疋
疌
疑
疒
疾
癶
癸
癹
登
發
白
百
皀
皃
的
皆
皇
皋
皐
皕
皮
皷
皿
盃
盆
盇
盈
益
盍
盎
监
盒
盖
盛
盡
監
盤
盧
目
直
相
盾
省
眇
眉
看
眔
眞
真
眷
眼
眾
着
睘
睪
睿
瞏
瞢
瞿
矍
矛
矞
矢
矣
知
矦
短
石
研
破
碎
磊
磨
示
礻
礼
社
祟
票
祭
禀
禁
禸
禹
禺
离
禽
禾
禿
秀
秃
秉
秋
科
秝
秦
移
稟
稽
穀
穌
穴
究
穹
空
穿
突
窄
窒
立
竒
竜
竝
竟
章
童
竹
笑
笠
第
筆
等
答
箕
算
箴
節
篤
篭
籁
米
粉
粛
粟
粤
粦
粲
糞
糸
糹
系
約
納
素
索
紫
累
細
絜
絫
絲
維
綿
縣
繇
纍
纟
纯
线
维
综
缶
网
罒
罔
罕
罗
罙
罡
罢
罪
署
罷
羅
羊
羌
羍
美
羔
羕
羗
羞
羡
羣
群
義
羲
羸
羽
翁
翏
習
翕
翟
翠
翻
翼
老
耂
考
者
耆
而
耎
耑
耒
耳
耴
耶
耷
聂
聊
聖
聚
聶
聿
肀
肃
肅
肉
肖
肙
肥
肩
肯
育
肴
胃
背
胡
胥
能
脊
脩
腾
膚
臣
臤
臧
自
臬
臭
臯
臱
至
致
臺
臼
臽
臾
臿
舀
舂
舄
與
興
舉
舌
舍
舛
舜
舞
舟
般
艮
良
色
艸
艹
艺
艾
节
芒
芔
芬
芮
花
芳
芺
芻
苏
苔
苗
苟
若
苦
英
茶
茸
荅
草
荒
荣
荼
莆
莉
莧
莫
莽
菆
菊
菐
華
萌
萨
萬
落
葉
著
葛
董
葵
蒙
蒦
蒼
蓋
蓬
蓺
蔑
蔡
蕉
蕭
薄
薛
薦
薰
藍
藏
藥
蘭
虍
虎
虐
虒
虔
處
虖
虗
虘
虚
虛
虜
虞
虫
虽
蚤
蚩
蜀
蜜
蟲
蠡
血
行
衍
衛
衣
衤
表
衮
衰
袁
袞
被
褭
褱
襄
襾
西
覀
要
覃
見
規
覓
覧
親
覽
见
视
角
解
言
訁
訇
計
詹
語
誩
諸
讠
语
谷
豆
豈
豊
豐
豕
豖
豙
象
豦
豩
豪
豸
貇
貝
貞
貟
負
貢
貧
貪
貫
責
貳
貴
買
費
賁
資
賈
賏
賓
賔
賛
賞
賢
賣
質
賴
贊
贝
贡
责
贯
贲
贵
赖
赛
赞
赤
赦
走
越
足
路
蹇
身
躬
車
軍
軎
軟
輦
车
辛
辜
辟
辥
辰
辱
農
辵
辶
边
达
过
近
连
迪
迷
追
退
送
逆
逐
通
速
造
逢
連
逮
進
遀
遂
過
道
達
遣
適
遷
遺
邊
邑
邕
那
邦
邪
郎
部
郭
都
鄉
酉
酋
配
酓
釆
采
里
重
野
量
金
釒
錢
钅
長
镸
长
門
閃
閉
開
閏
閑
閒
間
閔
閵
閻
闌
门
间
闷
阑
阜
阝
阿
际
降
陳
隆
隊
隋
隡
隨
隱
隶
隹
隺
隻
隼
隽
难
雀
雁
集
雈
雋
雍
雐
雔
雙
雚
雜
雝
離
難
雨
雩
雪
雲
零
雷
需
霍
霜
霝
霞
霸
靈
靑
青
非
靡
面
靣
革
韋
韦
韭
韯
韱
音
頁
頃
項
須
頗
頡
頻
顛
页
频
風
风
飙
飛
飞
食
飠
養
饣
首
香
馬
馮
駦
马
骨
高
髟
鬥
鬯
鬲
鬼
魚
魯
鮮
鱼
鲁
鳥
鳳
鸟
鹵
鹿
麃
麗
麥
麦
麻
黃
黄
黍
黎
黑
黒
黨
黹
黽
黾
鼎
鼓
鼠
鼻
齊
齋
齐
齒
齿
龍
龙
龜
龟
龠
龰
龱
龴
龵
龶
龷
龸
龹



者
艹
！
，
：
？
�
𐰃
𐰆
𐰔
𐰴
𐰺
🌏
🎄
𠀁
𠀃
𠀆
𠀉
𠀎
𠀐
𠁁
𠁣
𠂆
𠂇
𠂈
𠂉
𠂊
𠂋
𠂎
𠂒
𠂔
𠂛
𠂡
𠂢
𠂤
𠂬
𠂭
𠂹
𠃊
𠃋
𠃌
𠃍
𠃎
𠃑
𠃓
𠃔
𠃜
𠄌
𠄎
𠄠
𠄢
𠆢
𠆥
𠇍
𠈌
𠌵
𠓜
𠔉
𠔥
𠔼
𠔽
𠔿
𠕀
𠕁
𠕋
𠘧
𠘨
𠙻
𠙼
𠚏
𠚒
𠚤
𠚪
𠣏
𠤎
𠤕
𠥓
𠦄
𠦑
𠦝
𠧒
𠧗
𠧪
𠩺
𠪚
𠫓
𠫔
𠫤
𠬛
𠬝
𠬞
𠬢
𠬤
𠬶
𠮛
𠮦
𠮷
𠯑
𠱠
𠳮
𠷎
𡈼
𡉀
𡉵
𡌥
𡍮
𡏳
𡕒
𡕩
𡕰
𡖅
𡗗
𡗜
𡘆
𡘤
𡧱
𡨄
𡩧
𡬠
𡭽
𡰣
𡰥
𡰪
𡰯
𡰱
𡷈
𡸁
𡿨
𡿩
𡿪
𡿺
𢀖
𢀛
𢀩
𢁙
𢆉
𢆰
𢆶
𢇁
𢇇
𢉖
𢌬
𢌿
𢏚
𢑑
𢑚
𢖻
𢙣
𢛳
𢦏
𢦒
𢧵
𢼄
𢾕
𣁋
𣄼
𣅀
𣅽
𣍘
𣎳
𣎵
𣏋
𣏼
𣗥
𣥂
𣥖
𣦵
𣦼
𣧄
𣪊
𣪠
𣬉
𣳾
𣶒
𤇾
𤊽
𤐫
𤓰
𤔔
𤕨
𤣩
𤰇
𤰔
𤰞
𤴓
𤴔
𤽄
𥁑
𥁕
𥃦
𥃩
𥃭
𥇡
𥑟
𥘅
𥘈
𥝢
𥫗
𥱡
𦈢
𦉪
𦉬
𦉼
𦍌
𦍒
𦎧
𦐇
𦓔
𦔮
𦘒
𦙃
𦚏
𦣝
𦣞
𦣻
𦥑
𦥔
𦥯
𦨉
𦭝
𦰩
𧆞
𧈧
𧘇
𧰨
𧴪
𧴮
𧵩
𧾷
𨸏
𨾴
𩙿
𩠐
𩫏
𩵋
𪉷
𪜀
𪟽
𪠲
𪩲
𫇦
𫔭
𫜸
𫝀
𫠣
𫠩
𫢉
𫥞
𫩏
𫩠
𫪡
𫲽
𫶧
𬀷
𬐘
𬗌
𬙙
𬛸
𬜯
𬟩
𬯁
𬴘
𬺻
𬼉
𬼖
𭀰
𭁈
𭁨
𭅰
𭑈
𭕄
𭗼
𭤨
𭥫
𭻾
𮅕
𮊿
𮍌
𮍏
𮓗
𮥼
𮧮
廾
𰀁
𰀄
𰀈
𰀉
𰀕
𰀠
𰀡
𰀢
𰀪
𰁜
𰃮
𰆊
𰆘
𰋙
𰕎
𰢴
𰧭
𰯲
00--
01--
02--
03--
05--
07--
09--
46--
59--
60--
62--
66--
68--
73--
78--
79--
80--
82--
85--
86--
87--
88--
89--
90--
91--
92--
93--
94--
96--
97--
978--
98--
99--
a--
ac--
ad--
ag--
ah--
ai--
ak--
al--
am--
an--
anı--
ap--
ar--
as--
astr--
at--
au--
av--
ay--
az--
b--
ba--
bal--
bay--
be--
beh--
bi--
bilg--
bio--
bo--
bor--
botan--
boy--
br--
bu--
bur--
c--
ca--
cal--
can--
ce--
cele--
cen--
certif--
ch--
chri--
chromo--
ci--
cl--
clo--
co--
col--
com--
cor--
cr--
cre--
cryst--
cu--
d--
da--
de--
des--
dev--
di--
disc--
do--
docu--
dr--
du--
dyna--
e--
edir--
ef--
ek--
el--
elec--
em--
en--
er--
es--
ethno--
ev--
ex--
expan--
f--
fe--
fer--
fi--
for--
fr--
fu--
g--
ga--
gaz--
ge--
ger--
gi--
go--
goktu--
gold--
gra--
gre--
gu--
h--
ha--
haber--
ham--
har--
hay--
he--
hel--
ho--
hono--
hti--
hu--
i--
id--
il--
im--
in--
info--
inter--
is--
it--
j--
ja--
jah--
jo--
ju--
k--
ka--
kar--
ke--
ki--
kind--
ko--
kra--
ku--
ky--
kı--
l--
la--
le--
lec--
ley--
li--
lite--
lo--
lou--
lu--
m--
ma--
mag--
mar--
me--
mem--
memo--
mes--
meta--
mi--
min--
mis--
mma--
mo--
mol--
molecu--
mon--
mu--
n--
na--
naz--
nc--
ne--
nel--
neu--
ng--
no--
nu--
num--
o--
ol--
oly--
on--
one--
op--
or--
organiz--
p--
pa--
pan--
pe--
pen--
pi--
pl--
po--
pols--
pre--
pri--
pu--
pul--
q--
qa--
qua--
r--
ra--
rando--
re--
regi--
rey--
ri--
rk--
ro--
ru--
rı--
s--
sa--
saca--
sar--
sc--
se--
ser--
seven--
sevg--
sey--
sh--
si--
sla--
so--
sos--
sp--
spi--
st--
su--
t--
ta--
tab--
tat--
te--
th--
the--
theater--
tho--
ti--
to--
tr--
tu--
tırma--
u--
uc--
ulu--
un--
univ--
univer--
up--
ur--
us--
v--
va--
ve--
ver--
vi--
vic--
vo--
vu--
vys--
w--
wa--
wal--
wel--
wer--
wh--
wi--
wiki--
wri--
wy--
x--
y--
ya--
yirmi--
yol--
yu--
z--
zav--
zh--
zi--
ø--
ı--
ık--
ɪ--
γ--
κ--
λ--
φ--
а--
аа--
аар--
аас--
аб--
абсолю--
абха--
ав--
ава--
аве--
авто--
аг--
агра--
агропромышле--
ад--
ада--
адыр--
ажаалда--
ажы--
ажыглак--
аз--
аза--
азнагу--
азы--
азыгл--
аи--
ак--
акт--
актив--
ал--
ала--
але--
али--
алы--
алык--
аль--
аля--
ам--
амбас--
аминокисло--
амы--
ан--
ана--
аниме--
анти--
антич--
анч--
ап--
апель--
апо--
ар--
ара--
араб--
арал--
араль--
аргы--
аре--
арк--
аркти--
арт--
ары--
арыг--
ас--
асси--
аст--
астро--
ат--
ата--
атмосфер--
аур--
ауэ--
аф--
ах--
ахмаду--
аш--
аъ--
аэрод--
аэрок--
аян--
ақ--
аң--
б--
ба--
баг--
бадмин--
бады--
баж--
баз--
бак--
бал--
балыг--
бан--
бар--
баргу--
баргы--
бас--
баш--
башкы--
баян--
бг--
бе--
бег--
бед--
без--
бел--
бен--
бер--
бес--
бестсел--
би--
биат--
биб--
бижи--
бил--
билин--
био--
бир--
биче--
благ--
бо--
боб--
боз--
бол--
боль--
боо--
боп--
бор--
борбаң--
борт--
бот--
ботхис--
бр--
браз--
брат--
брен--
бриллиан--
брон--
брус--
брэд--
брю--
бу--
буд--
бул--
булуң--
бур--
бус--
бут--
бхага--
бы--
быжыг--
был--
бюджед--
бі--
бѳ--
бѳлү--
бүзү--
бүр--
бүт--
бұ--
бә--
бөмб--
бөрг--
в--
ва--
ваг--
вага--
ван--
вах--
вв--
ве--
вели--
велос--
вен--
вене--
вер--
веч--
вз--
взаимо--
ви--
вид--
виль--
вин--
виол--
вир--
виссари--
виш--
вл--
влия--
во--
вод--
воен--
воз--
возвращ--
воздуш--
вознесен--
возник--
воин--
вол--
воло--
вологод--
володар--
воль--
восп--
воспи--
восс--
вось--
вра--
вращ--
вру--
вруче--
вс--
все--
всеволож--
вселе--
вт--
ву--
вулка--
вхо--
вы--
выращ--
выс--
высо--
высту--
выступле--
г--
га--
гавриль--
газ--
гал--
галь--
гам--
ган--
гапло--
гармо--
гастроль--
ге--
ген--
гено--
гео--
геометричес--
гер--
ги--
гидр--
гиль--
гипо--
гипотез--
гипотенуз--
гит--
гк--
гл--
глоб--
глобаль--
глу--
гне--
го--
гор--
горьков--
гос--
гри--
гру--
гу--
губерн--
гур--
гурьев--
гы--
гыл--
гөк--
д--
да--
даа--
давлет--
дак--
дам--
дамчыт--
дан--
дар--
дарлалы--
де--
дев--
дег--
дек--
дел--
делгетт--
дем--
демдег--
демон--
ден--
деп--
дер--
дерги--
держав--
дес--
дет--
деят--
дең--
деңн--
дж--
джан--
дз--
ди--
диаг--
диви--
дивизи--
дик--
дин--
дип--
дис--
дисцип--
дисциплина--
диф--
дифференци--
диш--
диң--
длин--
дми--
дмитро--
до--
доба--
доброволь--
добросовест--
доброхо--
дог--
дол--
дон--
дорам--
доро--
доч--
дош--
доң--
др--
древ--
древнетюрк--
ду--
дуб--
дуг--
дугур--
духо--
духов--
душ--
дую--
ды--
дыр--
дыт--
дыш--
дың--
дыңзы--
дыңна--
дэ--
дээ--
дү--
дүк--
дүрге--
дөг--
дөрб--
дөс--
е--
ев--
евро--
егип--
ед--
един--
ел--
ен--
ер--
есте--
ж--
жа--
жан--
жанр--
жап--
же--
жен--
жи--
живот--
жизнен--
жу--
жуз--
жы--
жыл--
з--
за--
заво--
завьялов--
зак--
залож--
замо--
запорож--
засе--
зат--
затерян--
захо--
защи--
зву--
зд--
зе--
зем--
земель--
зень--
зер--
зи--
зна--
значи--
значитель--
зод--
зри--
зу--
и--
ибр--
иг--
ид--
иде--
идея--
иди--
ие--
иероглиф--
из--
иза--
изв--
изве--
извест--
изг--
изд--
изи--
изложе--
изображе--
изобре--
ик--
ил--
иллю--
иль--
им--
имп--
импер--
импуль--
ин--
ир--
ис--
испол--
исполь--
иш--
к--
ка--
каба--
каг--
кад--
када--
каж--
кажыы--
каз--
казыышкын--
как--
кал--
калуж--
каль--
кам--
камен--
кан--
кап--
кар--
карпо--
кас--
кат--
катал--
кати--
качыг--
каш--
кв--
квад--
квартир--
ке--
кез--
кел--
келги--
кем--
кес--
кеш--
ки--
киев--
киир--
кик--
кил--
кино--
кир--
киш--
кишеч--
кл--
кла--
клетка--
ко--
коб--
ков--
кога--
кок--
кокпа--
кол--
коле--
коли--
колле--
ком--
компо--
кон--
координа--
коп--
кор--
коргу--
косми--
костю--
кот--
коче--
кош--
коң--
кра--
крас--
краси--
краснин--
красно--
крат--
кре--
кри--
криш--
кру--
круж--
круко--
круп--
кры--
ку--
куб--
кубан--
куду--
куз--
кул--
куль--
кум--
кун--
кур--
куу--
куъ--
кы--
кыд--
кызаң--
кыл--
кылаш--
кымыс--
кыр--
кыргы--
кыска--
кыт--
кыш--
кях--
кѳ--
кѳр--
кѳрг--
кү--
күже--
күз--
күр--
күс--
күш--
күңгүрба--
күүс--
күүсет--
кө--
көг--
көж--
көзүл--
көн--
көрг--
л--
ла--
лагер--
лазаре--
лак--
лап--
ле--
левокум--
лен--
лес--
лет--
лечеб--
ли--
лие--
лин--
ло--
лобаче--
лов--
логи--
лу--
лук--
луң--
лы--
ль--
лю--
люб--
люби--
люд--
ля--
м--
ма--
маа--
мавлю--
маг--
мага--
мак--
макар--
мал--
маль--
маме--
ман--
мар--
мари--
мас--
матпа--
матро--
маң--
мг--
ме--
меге--
мед--
медицин--
медо--
меж--
мел--
мель--
мемуар--
менед--
мер--
метро--
мех--
механиз--
мещ--
ми--
микро--
микроб--
мил--
мин--
мир--
митр--
миф--
мифол--
мк--
млад--
мн--
много--
мо--
могилев--
мол--
моле--
моло--
мон--
моно--
мор--
мос--
моти--
мото--
моторис--
мошен--
мс--
му--
мун--
муниципаль--
мур--
мура--
мурн--
муң--
муңга--
мы--
мьян--
мэн--
мээ--
мю--
мюр--
мя--
мі--
мөчектер--
н--
на--
над--
наз--
наза--
наи--
нак--
нам--
нань--
напис--
нар--
нас--
настоящ--
находи--
нация--
не--
небес--
неж--
независи--
неи--
нем--
необ--
неот--
неп--
непо--
нер--
нефтеперераба--
ни--
ник--
николь--
нир--
но--
новин--
ново--
номна--
норма--
ноч--
ну--
нук--
нул--
нур--
нут--
ныышк--
нь--
нү--
нұ--
о--
об--
оби--
обл--
облада--
обслу--
обуч--
обще--
объя--
ов--
овощ--
овча--
ог--
ограниче--
од--
оде--
одеж--
оз--
ози--
ок--
ока--
окул--
ол--
олен--
олу--
оль--
ом--
он--
ондар--
ону--
оо--
оожу--
оожукт--
оор--
оп--
опер--
опис--
ор--
орал--
ори--
ориен--
орфог--
ос--
оск--
осп--
остава--
от--
отд--
отк--
откры--
отлич--
отме--
отно--
относи--
отс--
оф--
официаль--
охот--
оът--
оюн--
оя--
оң--
п--
па--
павличе--
пал--
палат--
палео--
памят--
пан--
пар--
пара--
парлат--
патр--
пе--
пер--
пере--
перее--
пермс--
печ--
печа--
пи--
пись--
пла--
плас--
пласти--
по--
побе--
победи--
под--
подго--
подроб--
пое--
поз--
покров--
пол--
поли--
полик--
поло--
полу--
помещ--
пон--
поп--
популяр--
пос--
посла--
пост--
поче--
поя--
пр--
пра--
праджняп--
пре--
пребы--
пред--
предприниматель--
преступле--
при--
присуж--
про--
продол--
промышле--
проте--
проф--
пру--
пряди--
психи--
психиатр--
пу--
пул--
пят--
пөс--
пөш--
р--
ра--
рав--
радик--
радио--
раз--
разг--
разре--
рам--
ран--
расп--
расс--
растениевод--
рациональ--
ре--
рево--
рег--
регулир--
ред--
рез--
реперту--
реф--
реч--
ри--
рим--
рино--
рис--
рн--
ро--
род--
рон--
рот--
рс--
рт--
ру--
рул--
румян--
руни--
рф--
ры--
рыб--
рязан--
с--
са--
сабар--
сагы--
сагын--
сад--
сал--
салыкч--
сам--
само--
сан--
сар--
сат--
сатьяг--
саха--
саян--
сақ--
сб--
св--
све--
свин--
своб--
связ--
священ--
се--
севе--
сег--
сеги--
сегменти--
седь--
сел--
сель--
сем--
семе--
семи--
сен--
сеп--
сер--
сең--
си--
силь--
сильве--
син--
синтети--
сиракуз--
сици--
ск--
скиф--
сла--
слав--
сле--
сло--
слож--
сложе--
слу--
см--
смеша--
сни--
со--
соб--
сов--
совершен--
согл--
соз--
сок--
сол--
солнеч--
сон--
сонуурга--
соо--
сот--
соц--
сп--
спе--
спектр--
специализа--
специаль--
спир--
сприн--
ср--
сравнитель--
сред--
средне--
ста--
стади--
стажи--
стар--
стари--
стве--
стви--
сте--
сти--
сто--
стр--
струк--
струн--
су--
[...]
