!
"
#
##a
##aa
##ab
##ac
##ad
##ae
##af
##ag
##ah
##ai
##aj
##ak
##al
##am
##an
##ao
##ap
##aq
##ar
##as
##at
##au
##av
##aw
##ax
##ay
##az
##b
##ba
##bb
##bc
##bd
##be
##bf
##bg
##bh
##bi
##bj
##bk
##bl
##bm
##bn
##bo
##bp
##bq
##br
##bs
##bt
##bu
##bv
##bw
##bx
##by
##bz
##c
##ca
##cb
##cc
##cd
##ce
##cf
##cg
##ch
##ci
##cj
##ck
##cl
##cm
##cn
##co
##cp
##cq
##cr
##cs
##ct
##cu
##cv
##cw
##cx
##cy
##cz
##d
##da
##db
##dc
##dd
##de
##df
##dg
##dh
##di
##dj
##dk
##dl
##dm
##dn
##do
##dp
##dq
##dr
##ds
##dt
##du
##dv
##dw
##dx
##dy
##dz
##e
##ea
##eb
##ec
##ed
##ee
##ef
##eg
##eh
##ei
##ej
##ek
##el
##em
##en
##eo
##ep
##eq
##er
##es
##et
##eu
##ev
##ew
##ex
##ey
##ez
##f
##fa
##fb
##fc
##fd
##fe
##ff
##fg
##fh
##fi
##fj
##fk
##fl
##fm
##fn
##fo
##fp
##fq
##fr
##fs
##ft
##fu
##fv
##fw
##fx
##fy
##fz
##g
##ga
##gb
##gc
##gd
##ge
##gf
##gg
##gh
##gi
##gj
##gk
##gl
##gm
##gn
##go
##gp
##gq
##gr
##gs
##gt
##gu
##gv
##gw
##gx
##gy
##gz
##h
##ha
##hb
##hc
##hd
##he
##hf
##hg
##hh
##hi
##hj
##hk
##hl
##hm
##hn
##ho
##hp
##hq
##hr
##hs
##ht
##hu
##hv
##hw
##hx
##hy
##hz
##i
##ia
##ib
##ic
##id
##ie
##if
##ig
##ih
##ii
##ij
##ik
##il
##im
##in
##io
##ip
##iq
##ir
##is
##it
##iu
##iv
##iw
##ix
##iy
##iz
##j
##ja
##jb
##jc
##jd
##je
##jf
##jg
##jh
##ji
##jj
##jk
##jl
##jm
##jn
##jo
##jp
##jq
##jr
##js
##jt
##ju
##jv
##jw
##jx
##jy
##jz
##k
##ka
##kb
##kc
##kd
##ke
##kf
##kg
##kh
##ki
##kj
##kk
##kl
##km
##kn
##ko
##kp
##kq
##kr
##ks
##kt
##ku
##kv
##kw
##kx
##ky
##kz
##l
##la
##lb
##lc
##ld
##le
##lf
##lg
##lh
##li
##lj
##lk
##ll
##lm
##ln
##lo
##lp
##lq
##lr
##ls
##lt
##lu
##lv
##lw
##lx
##ly
##lz
##m
##ma
##mb
##mc
##md
##me
##mf
##mg
##mh
##mi
##mj
##mk
##ml
##mm
##mn
##mo
##mp
##mq
##mr
##ms
##mt
##mu
##mv
##mw
##mx
##my
##mz
##n
##na
##nb
##nc
##nd
##ne
##nf
##ng
##nh
##ni
##nj
##nk
##nl
##nm
##nn
##no
##np
##nq
##nr
##ns
##nt
##nu
##nv
##nw
##nx
##ny
##nz
##o
##oa
##ob
##oc
##od
##oe
##of
##og
##oh
##oi
##oj
##ok
##ol
##om
##on
##oo
##op
##oq
##or
##os
##ot
##ou
##ov
##ow
##ox
##oy
##oz
##p
##pa
##pb
##pc
##pd
##pe
##pf
##pg
##ph
##pi
##pj
##pk
##pl
##pm
##pn
##po
##pp
##pq
##pr
##ps
##pt
##pu
##pv
##pw
##px
##py
##pz
##q
##qa
##qb
##qc
##qd
##qe
##qf
##qg
##qh
##qi
##qj
##qk
##ql
##qm
##qn
##qo
##qp
##qq
##qr
##qs
##qt
##qu
##qv
##qw
##qx
##qy
##qz
##r
##ra
##rb
##rc
##rd
##re
##rf
##rg
##rh
##ri
##rj
##rk
##rl
##rm
##rn
##ro
##rp
##rq
##rr
##rs
##rt
##ru
##rv
##rw
##rx
##ry
##rz
##s
##sa
##sb
##sc
##sd
##se
##sf
##sg
##sh
##si
##sj
##sk
##sl
##sm
##sn
##so
##sp
##sq
##sr
##ss
##st
##su
##sv
##sw
##sx
##sy
##sz
##t
##ta
##tb
##tc
##td
##te
##tf
##tg
##th
##ti
##tj
##tk
##tl
##tm
##tn
##to
##tp
##tq
##tr
##ts
##tt
##tu
##tv
##tw
##tx
##ty
##tz
##u
##ua
##ub
##uc
##ud
##ue
##uf
##ug
##uh
##ui
##uj
##uk
##ul
##um
##un
##uo
##up
##uq
##ur
##us
##ut
##uu
##uv
##uw
##ux
##uy
##uz
##v
##va
##vb
##vc
##vd
##ve
##vf
##vg
##vh
##vi
##vj
##vk
##vl
##vm
##vn
##vo
##vp
##vq
##vr
##vs
##vt
##vu
##vv
##vw
##vx
##vy
##vz
##w
##wa
##wb
##wc
##wd
##we
##wf
##wg
##wh
##wi
##wj
##wk
##wl
##wm
##wn
##wo
##wp
##wq
##wr
##ws
##wt
##wu
##wv
##ww
##wx
##wy
##wz
##x
##xa
##xb
##xc
##xd
##xe
##xf
##xg
##xh
##xi
##xj
##xk
##xl
##xm
##xn
##xo
##xp
##xq
##xr
##xs
##xt
##xu
##xv
##xw
##xx
##xy
##xz
##y
##ya
##yb
##yc
##yd
##ye
##yf
##yg
##yh
##yi
##yj
##yk
##yl
##ym
##yn
##yo
##yp
##yq
##yr
##ys
##yt
##yu
##yv
##yw
##yx
##yy
##yz
##z
##za
##zb
##zc
##zd
##ze
##zf
##zg
##zh
##zi
##zj
##zk
##zl
##zm
##zn
##zo
##zp
##zq
##zr
##zs
##zt
##zu
##zv
##zw
##zx
##zy
##zz
$
%
&
'
(
)
*
+
,
-
.
/
0
00
000
007
01
016
02
03
04
05
06
0633
07
08
09
0a
0b
0c
0d
0e
0f
0g
0h
0i
0j
0k
0l
0m
0n
0o
0p
0q
0r
0s
0t
0u
0v
0w
0x
0y
0z
1
10
100
1000
101
102
103
104
1041
105
106
107
108
109
11
110
111
112
113
114
115
116
117
118
119
12
120
121
122
123
124
125
126
127
128
129
13
130
131
132
133
134
135
136
137
138
139
14
140
141
142
143
144
145
145578
146
147
148
149
15
150
1509
151
152
153
154
155
156
157
158
1585
159
16
160
161
162
163
164
165
166
167
1678
168
169
1690
1699
17
170
171
172
173
174
1748
175
1750
176
1762
1765
1766
1768
177
1773
1777
178
1780
1782
1784
1787
1788
1789
179
1790
1791
1792
1793
1796
1797
1798
1799
18
180
1800
1801
1802
1803
1804
1805
1807
1808
1809
181
1810
1811
1812
1813
1814
1815
1816
1818
1819
182
1820
1821
1822
1823
1824
1825
1826
1827
1828
1829
183
1830
1831
1832
1833
1834
1835
1836
1837
1838
1839
184
1840
1841
1842
1843
1844
1845
1846
1847
1848
1849
185
1850
1851
1852
1853
1854
1855
1856
1857
1858
1859
186
1860
1861
1862
1863
1864
1865
1866
1867
1868
1869
187
1870
1871
1872
1873
1874
1875
1876
1877
1878
1879
188
1880
1881
1882
1883
1884
1885
1886
1887
1888
1889
189
1890
1891
1892
1893
1894
1895
1896
1897
1898
1899
19
190
1900
1901
1902
1903
1904
1905
1906
1907
1908
1909
191
1910
1911
1912
1913
1914
1915
1916
1917
1918
1919
192
1920
1921
1922
1923
1924
1925
1926
1927
1928
1929
193
1930
1931
1932
1933
1934
1935
1936
1937
1938
1939
194
1940
1941
1942
1943
1944
1945
1946
1947
1948
1949
1950
1951
1952
1953
1954
1955
1956
1957
1958
1959
196
1960
1961
1962
1963
1964
1965
1966
1967
1968
1969
197
1970
1971
1972
1973
1974
1975
1976
1977
1978
1979
198
1980
1981
1982
1983
1984
1985
1986
1987
1988
1989
199
1990
1991
1992
1993
1994
1995
1996
1997
1998
1999
1a
1b
1c
1d
1e
1f
1g
1h
1i
1j
1k
1l
1m
1n
1o
1p
1q
1r
1s
1t
1u
1v
1w
1x
1y
1z
2
20
200
2000
2001
2002
2003
2004
2005
2006
2007
2008
2009
201
2010
2011
2012
2013
2014
2015
2016
2017
2018
2019
202
2020
2021
2022
203
204
205
206
207
208
209
21
210
211
212
213
214
215
216
217
218
219
22
220
221
222
223
224
225
226
227
228
229
23
230
231
232
233
234
235
236
237
238
239
24
240
241
242
243
244
245
246
248
249
25
250
251
254
255
256
257
258
259
26
260
261
262
263
265
266
267
268
27
270
272
273
274
278
28
280
281
282
283
284
285
286
288
289
29
290
295
297
298
299
2a
2b
2c
2d
2e
2f
2g
2h
2i
2j
2k
2l
2m
2n
2o
2p
2q
2r
2s
2t
2u
2v
2w
2x
2y
2z
3
30
300
301
302
305
306
309
31
310
311
312
316
319
32
320
321
323
324
325
326
327
328
329
33
330
331
333
335
337
338
34
340
341
342
346
347
348
35
350
351
352
353
354
357
359
36
360
361
365
367
37
374
376
378
38
380
388
39
391
393
3a
3b
3c
3d
3e
3f
3g
3h
3i
3j
3k
3l
3m
3n
3o
3p
3q
3r
3s
3t
3u
3v
3w
3x
3y
3z
4
40
400
403
407
41
417
42
422
423
43
44
440
45
46
47
48
480
49
496
4a
4b
4c
4d
4e
4f
4g
4h
4i
4j
4k
4l
4m
4n
4o
4p
4q
4r
4s
4t
4u
4v
4w
4x
4y
4z
5
50
500
503
51
519
52
526
53
532
54
541
546
55
552
553
56
561
564
568
57
575
58
59
5a
5b
5c
5d
5e
5f
5g
5h
5i
5j
5k
5l
5m
5n
5o
5p
5q
5r
5s
5t
5u
5v
5w
5x
5y
5z
6
60
600
601
61
62
63
64
65
66
67
68
69
692
6a
6b
6c
6d
6e
6f
6g
6h
6i
6j
6k
6l
6m
6n
6o
6p
6q
6r
6s
6t
6u
6v
6w
6x
6y
6z
7
70
700
71
72
73
74
75
76
77
772
78
79
7a
7b
7c
7d
7e
7f
7g
7h
7i
7j
7k
7l
7m
7n
7o
7p
7q
7r
7s
7t
7u
7v
7w
7x
7y
7z
8
80
800
81
82
83
84
85
85297
86
87
88
89
890
8a
8b
8c
8d
8e
8f
8g
8h
8i
8j
8k
8l
8m
8n
8o
8p
8q
8r
8s
8t
8u
8v
8w
8x
8y
8z
9
90
900
91
92
93
94
95
96
97
978
979
98
99
9a
9b
9c
9d
9e
9f
9g
9h
9i
9j
9k
9l
9m
9n
9o
9p
9q
9r
9s
9t
9u
9v
9w
9x
9y
9z
:
;
<
=
>
?
[
[CLS]
[MASK]
[PAD]
[SEP]
[UNK]
\
]
^
_
a
a0
a1
a2
a3
a4
a5
a6
a7
a8
a9
aa
aas
ab
aba
abaa
ababa
abachi
abada
abalambo
abale
abalee
abaminga
abande
abando
abandonne
abandonnee
abandonnees
abandonner
abandonnes
abanga
abango
abara
abat
abata
abatango
abattage
abattre
abattu
abbaye
abbe
abc
abces
abdication
abdomen
abe
abebe
abebee
abeille
abeilles
abel
abend
abendmahl
abengba
aber
abezoa
abi
abibe
abidibidi
abikua
abikwa
abima
abime
abimer
abimes
abingbi
abio
abjurer
abnegation
aboate
aboi
aboiement
aboiements
abolit
abolition
abominable
abomination
abominations
abondamment
abondance
abondant
abondante
abonee
abonema
abongo
abonne
abonnement
abonnes
abord
aborde
aborder
aboro
abort
about
aboutir
above
abozo
abraham
abrege
abreger
abri
abrite
abriter
abrus
abruti
abrutissait
absence
absent
absente
absolu
absolue
absolument
absolutisme
absorbe
abstraire
absurde
absurdes
absurdite
abuakode
abuba
abuja
abuku
abukumanda
abungbi
abunsoon
abus
abusoon
abutuma
abya
ac
acacia
academicien
academie
academique
acajou
acanthaceae
acanthe
acariatre
accablant
accablement
accalmie
acceder
accelere
accent
accents
acceptation
accepte
accepter
acces
accessoires
accident
accidentellement
accidents
acclamations
accommoder
accompagnait
accompagnant
accompagne
accompagnee
accompagner
accompagnes
accompli
accomplir
accomplissement
accord
accorde
accordeon
accorder
accords
accouchement
accouplement
accoutrement
accoutumance
accra
accroc
accrochage
accroche
accroissement
accueil
accueilli
accueillir
accueillit
accusait
accusation
accusations
accuse
accusee
accuser
accuses
ace
acetique
acharnee
achat
achetait
achete
achetee
acheter
acheteur
acheteurs
acheteuse
achevait
acheve
achevee
achever
achille
achinais
acht
achtung
acida
acide
acides
acidite
acier
acker
acne
acompte
acquerir
acquis
acquisition
acquittement
acre
acremant
acrobate
acrobatie
acta
acte
actes
acteur
acteurs
actifs
action
actions
active
activer
activite
activites
actor
actrice
actualite
actualites
actually
actuel
actuelle
actuellement
actuels
acuite
ad
ada
adage
adaları
adam
adambeti
adamee
adams
adangere
adaptation
adapte
adapter
addition
address
ade
adee
adekongo
adeline
aden
adherent
adhesion
adi
adieu
adieux
adiko
adikongo
adimasi
adjectif
adjectifs
adjoint
adjudant
admettre
administrateur
administratif
administration
administrative
administratives
administrer
admirable
admirables
admiration
admire
admirer
admis
ado
adolescence
adolescente
adolescents
adoli
adolphe
adongo
adopte
adoptee
adopter
adoption
adorable
adorait
adore
adorer
adoum
adressant
adresse
adressee
adresser
adrien
adrienne
adroit
adroitement
adu
adule
aduler
adult
adulte
adultere
adultes
aduti
adventices
adventures
adversaire
adversaires
adverse
adversite
advice
ae
aegyptiaca
aerienne
aerogare
aeronautique
aeropa
aeroport
aethiopica
af
afa
afaa
afango
afer
afere
affabilite
affaiblir
affaiblissement
affaiblit
affaire
affaires
affaissement
affame
affectation
affecte
affection
affermissement
affichage
affiche
afficher
affiches
affirmait
affirmation
affirmations
affirme
affirmer
affliction
affluence
affluent
affluer
affoler
affranchir
affreuse
affreusement
affreux
affront
affrontement
affrontements
affronter
affubler
affut
afin
afini
afono
afp
afpa
aframomum
africa
africain
africaine
africaines
africains
african
africana
africanus
africanword
afrika
afrikaans
afrique
after
afu
afuku
afun
afuta
afzelia
ag
aga
agaba
agacait
again
against
aganza
agarawo
agatoo
agave
agba
agbagba
agbakuru
agbanda
agbangba
agbanzi
agbaralimo
agbasu
agbe
agbo
agboo
agbu
agbugburu
age
agee
agees
agence
agenda
agenouille
agent
agents
ageratum
agere
agerembeti
ages
agglomeration
aggravation
aggrave
aggraver
agi
agile
agilement
agilite
agingo
agir
agirilande
agissait
agit
agitation
agite
agitee
agnes
ago
agodobe
agonda
agonie
agouti
agrafeuse
agreable
agreablement
agreables
agree
agreement
agrement
agresseur
agression
agricole
agricoles
agriculteur
agriculteurs
agriculture
agricultures
agronome
agronomie
agronomiques
ague
aguerrir
agunda
ah
ahalezo
ahariya
ahengo
ahinga
ahmed
ahole
aholengo
ahon
ahunda
ahunzi
ahuru
ai
aide
aider
aides
aidon
aie
aient
aieul
aigle
aigre
aigrir
aigu
aigue
aigues
aiguille
aiguilles
aiguiser
aiguisoir
ail
aile
ailee
ailes
aille
ailleurs
aimable
aimaient
aimais
aimait
aimant
aimard
aime
aimee
aiment
aimer
aimerais
aimes
ain
aine
ainee
aines
ainesse
ainsi
air
aire
airi
airplane
airport
airs
aisance
aise
aisement
aisne
aisselle
aisselles
ait
aita
aix
aj
ajouta
ajoutait
ajoute
ajoutee
ajouter
ajuster
ak
aka
akaan
akada
akai
akakara
akala
akamarade
akanana
akanga
akangbi
akange
akapa
akara
akarako
akasia
ake
akeke
akenge
akete
akiri
ako
akobe
akobela
akode
akodekua
akodoro
akodorosese
akogara
akoli
akomba
akondo
akongo
akono
akonza
akopo
akoro
akota
akotara
akoto
akozo
akpa
akpangaba
akpe
akpee
akpengba
akpo
aku
akua
akuandia
akuasinga
akugbe
akuku
akundu
akungba
akunibe
akutu
al
ala
alafabee
alai
alain
alango
alarme
alata
alazeri
alba
albainia
albanais
albani
albania
albanie
albanien
albanii
albanija
albanska
albansko
albert
albin
albinos
albizia
album
albumine
alcan
alchornea
alcool
alcoolique
alcoolisme
alcools
ale
alebede
alego
aleke
alekere
alemanique
alembert
alembeti
alentour
alentours
alerte
alesu
alevinage
alex
alexander
alexandre
alexandrie
alexis
alfred
algebre
alger
algeri
algeria
algerie
algerien
algorithm
ali
alia
alibert
alice
alikɔ
aliment
alimentaire
alimentaires
alimentation
alimenter
aliments
alimeti
alimo
aline
alinga
alingbi
alisa
alix
alizerii
all
alla
allai
allaient
allain
allais
allait
allaitement
allan
allant
alle
allee
allees
alleg
allegresse
allein
allemagne
allemand
allemande
allemands
allen
aller
allergie
alles
allez
alliance
alliances
allie
allier
allions
allonge
allons
allow
allowed
alluma
allume
allumer
allumette
allure
almanach
almond
almost
alo
aloe
aloes
alondo
alone
along
alors
aloysius
alpes
alphabet
alphabete
alphabetisation
alphonse
already
als
alsace
also
alt
altar
alte
alten
altercation
alterer
alternative
although
altissima
altitude
altruisme
alu
aluminium
aluti
always
alya
alzir
am
ama
amabe
amabilite
amafuta
amahan
amai
amakako
amalgame
amama
amanda
amande
amandier
amangbi
amango
amant
amante
amants
amara
amaranth
amaranthaceae
amaranthus
amariki
amaryllidaceae
amas
amaseka
amasia
amasini
amasse
amateur
amateurs
amba
ambala
ambani
ambassade
ambassadeur
ambassadeurs
ambata
ambela
ambeni
ambert
ambeti
ambi
ambiance
ambiangu
ambiasi
ambiguites
ambii
ambilasi
ambitieux
ambition
ambo
amboko
ambroise
ambroisie
ambrosioides
ambulancier
ambulant
ambunzu
ame
amedee
ameka
amelenge
amelie
amelioration
ameliorer
amenagement
amende
amene
amener
amer
amere
america
americain
americaine
americaines
americains
american
americana
americke
amerika
amerikas
amerique
amertume
ames
ameublement
ami
amibe
amidon
amidoon
amie
amies
amin
amiral
amis
amitie
amnistie
amolenge
amoncellement
amont
amosoro
amount
amour
amoureuse
amoureux
amours
amovible
ampere
amphimas
amphore
ampleur
ampoule
amputation
amsterdam
amu
amunzu
amurundu
amusait
amusant
amuse
amusement
amuser
amveni
an
ana
anacardiaceae
anais
analogue
analphabetisme
analyse
analytique
ananaa
ananas
anarchie
anarchiste
anatole
anatomie
ancetre
ancetres
anchomanes
ancien
ancienne
anciennes
anciennete
anciens
ancient
ancre
and
andaa
ande
andeke
andeko
andere
andern
anders
andia
ando
andora
andoro
andorra
andre
andrea
andrew
andrews
androgenes
andya
ane
anecdote
anecdotes
anemie
anes
anesthesie
anfang
ang
angangu
angasa
angazi
angba
angbaka
angbenda
ange
angede
angele
angelee
angeles
angelique
angelo
angers
anges
angine
anglais
anglaise
angle
anglee
angles
angletere
angleterre
anglo
angobo
angoi
angoisse
angola
angolaa
angolensis
angombe
angoro
angst
angu
anguilla
angulata
anguru
angustifolia
ani
aniama
aniegre
animal
animale
animales
animalite
animation
animaux
anime
animee
animer
aninga
anisette
ankara
ankommen
ankylose
anna
annales
anne
anneau
anneaux
annee
annees
annexe
annie
anniversaire
anniversary
annona
annonaceae
annoncait
annonce
annoncer
annonces
announcement
annuaire
annuel
annuelles
annulaire
annulation
annuum
anonner
anonyme
anorexie
another
anquetil
ans
anse
anserine
answer
ant
antagonisme
antananarivo
antenne
anterieur
anthocleista
anthologie
anthony
anthropologie
anthropologiques
anti
antigua
antigva
antilles
antilope
antipathie
antiquaire
antiquaires
antique
antiques
antiquite
antoine
antonio
anus
anxiete
any
anyama
anyilikolo
anyway
anze
anzere
anzerekasa
anziehen
anzina
anzoni
anzoroko
ao
aolenge
aotoo
aout
ap
apa
apaiser
apapa
apart
ape
apee
apendere
apercevait
apercevant
apercevoir
apercoit
apercu
apercut
aperesii
apete
apfel
aphrodite
apiaceae
apiculture
apika
apikango
apinii
apitoyer
aplanir
apo
apocalypse
apocynaceae
apollinaire
apollon
apologie
apopo
aporo
apotre
apotres
apparaissait
apparaissent
apparait
apparaitre
appareil
appareils
apparemment
apparence
apparences
apparente
apparition
appartement
appartements
appartenait
appartenant
appartiennent
appartient
apparu
apparut
appear
appel
appelaient
appelait
appele
appelee
appelees
appeler
appeles
appellation
appelle
appellent
appels
appendice
appetissante
appetit
applaudir
applaudissements
apple
application
applications
appliquait
applique
appliquee
appliquees
appliquer
appointements
apport
apporta
apportait
apporte
apportent
apporter
apprecie
apprecier
apprend
apprendrai
apprendre
apprends
apprennent
apprenti
apprentie
apprentissage
apprete
appris
apprit
approbation
approcha
approchait
approchant
approche
approcher
approprie
approvisionnement
approvisionner
approximation
appui
appuie
appuyant
appuye
appuyer
apre
apres
aprete
april
aptitude
apusu
aq
aquatique
aquatiques
ar
arab
arabe
arabes
arabie
arabo
arabu
araceae
arachide
aragon
aragonais
araignee
araignees
arameen
arbeit
arbeiten
arbitraire
arbitre
arbore
arboreus
arbre
arbres
arbrisseaux
arbuste
arbustes
arc
archaique
arche
archeologie
archer
archeveque
archie
archipel
architecte
architectes
architecture
archives
arcvad
ardemment
ardennais
ardennaise
ardennaises
ardenne
ardennes
ardente
ardentes
ardeur
are
arecaceae
aretee
argent
argentina
argile
argue
argument
argumenter
arguments
arides
arikoo
aristide
aristoloche
aristolochia
aristolochiaceae
arithmetique
arkansas
arland
arliss
arm
armand
armando
arme
armee
armees
armeni
armenia
armenie
armenien
armenii
armenija
armer
armes
armoire
armoires
armoiries
arnaud
aromate
arome
aroumain
around
arq
arquebuse
arrache
arracher
arrange
arrangement
arranger
arrestation
arret
arreta
arretai
arretaient
arretait
arrete
arreter
arretes
arriere
arriva
arrivaient
arrivait
arrivames
arrivant
arrive
arrived
arrivee
arrivent
arriver
arrives
arrogance
arrondissement
arrose
arsene
art
artere
arteres
artheme
arthur
article
articles
artifice
artificiel
artificielle
artificielles
artikel
artillerie
artist
artiste
artistes
artistiques
artocarpus
artois
arts
aruba
ary
arz
arzt
as
asala
asango
asara
ascaris
ascension
asembe
asendasu
asendaye
asene
asenge
aserbaidschan
aseti
asewa
asi
asiatique
asiatiques
asidi
asie
asigi
asigigi
asile
asimba
asinga
asioni
ask
asked
asmara
aso
asongo
asoro
asparagus
aspect
aspects
asphyxie
aspirateur
assaillir
assainir
assassin
assassinat
assassiner
assassins
assaut
assauts
assemblage
assemblee
assemblees
assembler
assener
assentiment
asseoir
assez
assezat
assidument
assiette
assiettes
assignment
assis
assise
assises
assistance
assiste
assister
associated
association
associations
associe
associes
assoupissement
assumer
assurance
assure
assurement
assurer
assyrie
ast
asteraceae
asthme
astre
astres
astrologie
astrologues
astronomie
astuces
asturien
asu
asukula
asura
asuru
asyaye
at
ata
ataa
atala
atanga
atangbi
atara
atasema
ate
atelier
ateliers
atene
atengbi
atere
athee
athenes
athlete
athletisme
ati
atia
atikamekw
atiko
atiri
atisa
atj
atlantique
atlas
atmosphere
atmospherique
ato
atokua
atomate
atomba
atonda
atondo
atoo
atoro
atorono
atoto
atrazine
atroce
atroces
attache
attachee
attachement
attacher
attaches
attaque
attaquer
attaques
atteignent
atteignit
atteignons
atteindre
atteint
atteinte
atteintes
atteints
attempt
attend
attendait
attendant
attendent
attendre
attends
attendu
attentat
attente
attenter
attention
attentive
attentivement
attenue
attenuer
atterrissage
attirait
attirance
attire
attiree
attirer
attitude
attrape
attraper
attribue
attribuer
attribution
attributions
attriste
atuku
atunge
au
aube
auberge
aubergine
aubier
auch
aucun
aucune
aucunement
audace
aude
audiard
audience
auditeur
auditoire
auf
aufgabe
aufruhr
auge
augen
augmentation
augmente
augmentee
augmenter
august
auguste
augustin
aujourd
auparavant
aupres
auquel
aura
aurai
auraient
aurais
aurait
aurantium
auras
aureole
aurez
aurions
auront
aurore
aus
aussi
aussitot
austen
australia
australie
australien
australija
autant
autel
autels
auteuil
auteur
auteurs
authenticite
authentique
author
auto
autobiographie
autobus
automatique
automne
automobile
automobiles
autonomie
autopsie
autorisation
autorise
autorite
autorites
autoroute
autos
autosuggestion
autour
autranella
autre
autrefois
autrement
autres
autriche
autrui
auvent
auvergne
aux
auxerre
auxiliaire
auxquelles
auxquels
außerdem
av
avaient
avais
avait
avale
avaler
avancait
avance
avancee
avancer
avant
avantage
avantages
avantageux
avare
avarice
avarie
avasi
avec
avenement
avenir
aventure
aventures
avenue
avenues
avere
averer
averse
aversion
averti
avertir
avertissement
aveu
aveugle
aveuglement
aveugles
avez
aviation
avides
avidite
aviez
avignon
avion
avions
avis
avk
avo
avocat
avocatier
avocats
avoine
avoir
avoisinant
avoit
avons
avortement
avoue
avouer
avril
avuazeen
avunga
avuru
aw
awa
awabeafrika
awabungbi
awadungo
awafango
awakango
awakode
awakodoro
awakoko
awakua
awakuafue
awalengo
awali
awande
awandokua
awanga
awara
awasendayanga
awasungo
away
awazen
awaziba
awe
awo
awu
ax
axe
ay
aya
ayaka
ayanga
ayant
aye
ayeka
ayeke
ayekua
ayengere
ayez
ayingi
aymara
ayme
ayo
ayongoro
ayoro
ayu
ayuru
az
aza
azali
azanga
azara
azembe
azen
azerbaidjan
azerbaigian
azerbaijan
azerbajdzan
azerbeidzjan
azerbejdzan
azeri
azi
azia
aziango
azii
azingo
azinyoon
aziyade
azo
azobe
azua
azur
azwa
aɔ
aɛ
aɪ
aʁ
aʊ
b
b0
b1
b2
b3
b4
b5
b6
b7
b8
b9
ba
baa
baan
baba
babillage
babokilo
babolo
babouches
babouin
baby
babylone
bac
bachaga
bachkir
back
bacteries
bacteriologie
bad
bada
bagage
bagages
bagara
bagarre
bage
bagne
bague
bagues
baguette
baguettes
bah
bahama
bahamas
bahasa
bai
baie
baigner
bail
bailler
bailliere
bailly
bain
bains
baiser
baisers
baisse
baisser
baj
baka
bakari
bakongo
bakounine
bakoya
baku
bal
bala
balabala
balade
balafon
balafre
balai
balaka
balakpa
balance
balancer
balangeti
balao
balata
balawa
balayer
balbutiement
balbutiements
balcon
bald
bale
balee
baleine
baleiniere
baleoko
balewa
baliser
balivernes
balkar
ball
ballade
balle
balles
ballet
ballon
ballons
ballot
bals
balsamo
balthazar
balzac
balɛ
bamako
bamara
bambara
bambi
bambin
bambou
bambu
bamingi
ban
banana
banane
bananes
banc
bancs
banda
bandage
bandar
bande
bandee
bander
bandes
bandi
bandit
banditisme
bandits
bando
banga
bangasu
bange
bangerewa
bangi
bangkok
bango
bangui
banjo
banjul
bank
banlieue
banner
banniere
banque
banques
banquet
banquier
banxxx
banzakoro
banzo
baobab
baoule
bapteme
baptise
baptiser
baptiste
bar
bara
baraga
baragouin
barai
baratin
baraze
barbados
barbara
barbare
barbares
barbarie
barbe
barbery
barbiche
barbier
barbou
barbuda
barbusse
bard
barder
bardes
bark
barman
barnais
baron
barque
barrage
barral
barre
barres
barrette
barricade
barricades
barriere
barry
barthelemy
bas
bascule
basculer
base
baseball
baselik
basenzi
bases
basi
basilicum
basin
basis
basket
basque
basse
basses
bassin
bassine
bastonnade
basure
bat
bata
batada
bataille
batailles
bataillon
batango
batat
batata
bateau
bateaux
batelier
bateme
batemo
bath
batie
batik
batiment
batiments
batir
bato
baton
battaient
battait
battant
battent
batterie
battle
battre
battu
batʁ
baudelaire
baudiniere
bauer
baum
baume
baumgartner
bavardage
bavardages
bavarois
bayard
bayle
baysse
bazangele
bazar
bazen
bazengele
bazin
baɪ
baʁ
baʊ
bb
bbc
bc
bcl
bd
be
beach
beafrika
bean
beat
beatitude
beatrice
beau
beaucoup
beaudry
beaujolais
beaute
beautes
beautiful
beauty
beauvais
beauvoir
beaux
bebe
bebee
bebes
bebi
bec
because
become
bed
bedaine
bedarf
bedel
bedono
bee
been
beer
before
beg
begaiement
begala
began
begawan
begbenge
begirisa
behaghel
behind
bei
beigbeder
beijing
beilschmiedia
beim
being
beißen
beke
bekombite
bekommen
bekpa
beku
bel
bela
belarus
belarusi
belcika
bele
beleze
belfond
belg
belge
belges
belgia
belgica
belgie
belgien
belgija
belgio
belgique
belgiu
belgium
belier
believe
belin
beliziki
beljik
bell
belle
belles
bello
bellonte
bells
below
belsj
belu
belungu
ben
bench
bend
benda
bendere
bendo
benediction
benefice
benefices
benen
bengali
bengba
bengo
benigne
benin
benjamin
benoit
benoite
benyama
beoko
berberes
berceau
bercement
bere
berg
berger
bergerac
bergerie
berlin
berman
bermuda
bermudes
bernadette
bernanos
bernard
berriot
berry
bert
berthaud
berthelot
berthier
bertrand
beru
besace
besides
besitzer
besogne
besoin
besoins
besser
best
besteht
bestialite
bestiaux
beta
betail
bete
betere
betes
betise
beton
bett
better
betterave
betteraves
between
beurre
beyrouth
bezahlen
bezoa
bf
bg
bh
bharat
bi
bia
biais
biaku
bian
biani
bibe
biberon
bible
bibliophile
bibliothecaire
bibliotheque
biblique
bic
bicarbonate
biceps
bichlamar
bicyclette
bicyclettes
biden
bidoon
bielorrusia
bielorusi
bielorusia
bielorussia
bielorussie
bien
biene
bienfaisante
bienfaisantes
bienfait
bienfaits
bienfilatre
biens
bientot
bienveillance
bienveillante
bienvenue
bier
biere
bieres
bifteck
big
bigarrure
bignoniaceae
bigoudis
bijou
bijoux
bikisi
biklo
bikol
bikua
bikwa
bilan
bild
bile
bilharziose
bili
bilibili
bilisa
bill
billard
bille
billes
billet
billets
billy
bilobaloba
bilɔ
bin
bindi
bingbi
bingi
bingo
binli
bio
biographie
biologie
biologique
biologiques
biophytum
bira
bird
biri
birigadi
biriki
biroo
birth
bis
bisa
bisaoo
bisau
biscuiterie
biscuits
bise
bishnupriya
bishop
bissau
bist
bistouri
bistrot
bit
bitch
bite
bitte
bitten
bitter
bivouaquer
biyo
bizarre
bizarrement
bj
bja
bjelorusija
bjɔ
bjɛ
bk
bl
bla
blabla
black
blague
blagues
blaise
blame
blamer
blanc
blanchard
blanchatre
blanche
blanches
blancheur
blancs
blanket
blason
blatte
ble
bled
bleiben
bles
blesse
blesses
blessure
blessures
bleu
bleuatre
bleue
bleues
bleus
bli
blitz
bloc
bloch
blog
blond
blonde
blondes
blood
bloque
bloud
blouse
blouson
blue
blume
blɑ
blɔ
blə
blɛ
bm
bn
bo
boa
board
boat
boate
boatee
bob
bobo
bobomi
bobos
boboto
boboyi
bobɔ
bobɛ
bocal
bock
bocvana
bod
boden
body
boeck
bogota
boheme
boi
boileau
boire
bois
boiseries
boisson
boissons
boit
boite
boites
bokaboli
bokanga
bokati
bokilo
bokmal
bokoo
bokɔnɔ
bol
bolamu
bole
bolingo
bolivia
bolivija
bololo
bolongo
bolongoli
bolɛ
bombacaceae
bombardement
bombarnac
bombe
bombes
bomo
bomɛngɔ
bon
bonaparte
bonasse
bonbonne
bond
bondeko
bondimi
bondo
bondoki
bonds
bone
bongbi
bongo
bongongu
bonheur
bonheurs
bonhomie
bonhomme
boniface
boniment
bonjour
bonnard
bonne
bonnement
bonnes
bonnet
bons
bonsɔ
bonte
bontes
bonɛ
book
books
boon
bopesi
bord
borde
bordeaux
bordees
border
bordereau
bords
bordure
boreal
boree
borgne
boris
born
borne
bornes
boro
borosi
bos
bosangisi
bosch
boscia
bosco
bosna
bosnia
bosniaque
bosnie
bosnien
bosnii
bosniya
boso
bosongbi
bosquets
boss
bosse
bosses
bossuet
bosɔ
bosɔtɔ
botangi
botanique
both
bother
botiyi
boto
botsuana
botsvana
botswana
botte
bottes
bottines
bottle
bottom
botɔ
botɛ
boualam
bouc
bouchard
bouche
boucher
boucherie
bouches
bouchon
boucle
boucles
bouclier
bouddhisme
bouderie
boue
bouffe
bouffonnerie
bouge
bouger
bougie
bougies
bouillante
bouilli
bouillie
bouillir
bouillon
boulanger
boule
boules
boulet
boulette
boulettes
boulevard
boulevards
bouleverser
boulimie
boulliot
boulogne
boulonnage
boulot
bouquet
bouquets
bouquiaux
bouquin
bouquiniste
bouquins
bourbier
bourdaloue
bourdeau
bourdon
bourg
bourgeois
bourgeoise
bourgeoises
bourgeoisie
bourgmestre
bourgogne
bourguignon
bourguignottes
bourrage
bourre
bourreau
bourrer
bourse
bousculade
bousculer
bouse
boussole
bout
bouteille
bouteilles
boutique
boutiques
bouton
boutons
bouts
bouvier
bovary
bovine
bow
bowl
box
boxe
boxer
boxeur
boxeurs
boy
boyambi
boycott
boycottage
boyebi
boylesve
boys
bozangi
bozo
bozum
bozwi
bp
bpra
bpy
bq
br
bra
brac
bracelet
brachystachyum
bragelonne
braguette
braille
brain
braise
branch
branche
branches
branle
bras
brasero
brasil
brassens
brauche
brave
bravement
braves
bravoure
braz
brazil
bread
breadfruit
break
breal
breau
brebis
breche
bref
brenda
bresil
bresilien
brest
bretagne
breton
bretonne
bretons
breuvage
brevet
bribe
bribes
bricolage
bride
bridelia
bridge
brief
briere
brievete
brigade
brigadier
brigand
brigands
bright
brigitte
brillamment
brillant
brillante
brillantes
brillantine
brillants
brille
brillent
briller
brin
brique
briques
briqueterie
brise
brisent
briser
bristle
britannique
britanniques
broad
brocante
broceliande
brochant
broche
brochet
brochette
broderie
broglie
broken
bronches
bronchite
bronte
bronze
brooks
broom
brosse
brother
brouhaha
brouillard
brouillards
brouille
brouiller
brouillon
brouillons
brousse
brown
broyage
bru
brucke
bruder
bruine
bruit
bruits
brulant
brule
bruler
brulure
brume
brumes
brun
brune
brunei
brunej
brunes
bruno
bruns
brush
brusque
brusquement
brusques
brust
brutal
brutale
brutalement
brutalite
brutes
bruxelles
bruyante
bruyants
bruyere
bruyeres
bs
bt
bu
bua
buanga
buar
buate
buba
bubangere
bubango
bubu
buburu
buch
bucher
budget
budgetaire
buffle
buffles
buffon
bug
bugarska
build
building
built
buis
buisson
buissons
bujumbura
buka
buku
bukumanda
bul
bulbifera
bule
bulee
bulgareye
bulgaria
bulgarie
bulgarien
bulgarija
bulgarije
bulgariya
bulgaro
bull
bulle
bulletin
bullshit
bulo
buloon
bulu
bulugari
bulugarii
buma
bun
bungbi
bungbingo
buonarroti
bur
burbark
bureau
bureaux
buried
burkina
burseraceae
buru
buruma
burunda
burundi
burundii
burweed
bus
bush
business
busnel
buso
buste
bustier
but
buta
butoon
butte
butter
button
butu
butuma
buvait
buvette
buy
buysse
buzancy
buze
buzii
buʁ
bv
bw
bwa
bx
by
bya
byere
byron
bz
bœ
bœuf
bœufs
bɐ
bɑ
bɔ
bɔa
bɔi
bɔlɔ
bɔn
bɔʁ
bə
bən
bəʊ
bɛ
bɛl
bɛt
bɛʁ
bɜ
bɥe
bɪ
bɹɑ
bʁ
bʁa
bʁe
bʁi
bʁu
bʁy
bʁɑ
bʁɔ
bʁə
bʁɛ
bʊl
bʌt
c
c0
c1
c2
c3
c4
c5
c6
c7
c8
c9
ca
cabane
cabanis
cabarets
cabbage
cabillaud
cabine
cabines
cabinet
cabinets
cable
cabo
cacahuete
cacao
cacaoyer
cachait
cache
cachees
cachent
cacher
caches
cachette
cachot
cactus
cad
cadavre
cadavres
cadeau
cadeaux
cadence
cadet
cadette
cadre
cadres
caen
caesar
cafe
cafes
cage
cahier
cahiers
cahots
caicos
caid
caillaux
caille
caillou
cailloux
caiman
cain
caisse
caisses
cajou
cake
calabash
calcaire
calcaires
calcium
calcul
calcule
calculer
calculs
cale
calebasse
calecon
caledonie
calendrier
cali
californie
call
called
calls
calm
calmann
calme
calmer
calomnie
calumet
calvitie
camara
camarade
camarades
camargue
camarun
cambrinus
came
camel
camembert
cameras
cameron
cameroon
cameroun
camerun
camille
camion
camionnette
camions
camp
campagne
campagnes
campanulata
campement
campo
camus
can
canada
canadien
canadienne
canadiens
canal
canape
canard
canards
canarium
canberra
cancer
cancrelat
candidats
candidature
canif
caniveau
cannabaceae
cannabis
canne
cannelle
cannes
cannot
canon
canons
canot
canton
cantonais
caoutchouc
cap
capable
capables
capacite
capacites
cape
capes
capitaine
capital
capitale
capitales
capitaliste
capitan
capitaux
caporal
capote
capparidaceae
caprice
caprices
capsicum
captain
captive
caquet
car
caraco
caractere
caracteres
caracterise
caracterisee
caracteristique
caracteristiques
carambola
caramel
caravane
carbonate
carcassonne
carco
cardinal
cardinaux
cards
care
careful
carelessly
careme
caresse
cargaison
cargos
carica
carine
carl
carmen
carnet
carnets
carnot
carole
caroline
carotte
carottes
carpentras
carre
carreau
carreaux
carree
carrefour
carrement
carres
carried
carriere
carrioles
carrure
cars
carte
carter
cartes
carton
cartons
cas
casablanca
casanier
cascade
cascavelle
case
caserne
cases
cash
casier
casiers
casque
casquette
cassava
casse
casser
casseres
casserole
cassia
cassier
cast
caste
casterman
castor
cat
catalan
catastrophe
catastrophes
catch
catechisme
categorie
categories
category
cathedral
cathedrale
catherine
catholique
catholiques
cauchemar
cauri
cause
causer
causerie
causes
caution
cavale
cavalerie
cavalier
cavaliers
cave
cavernes
caves
cavite
cayman
cb
cbk
cc
cd
cdo
cdr
ce
ceara
ceb
cebuano
ceci
cecile
cedant
cedar
cede
ceder
cedric
ceiba
ceinture
cela
celebra
celebration
celebre
celebree
celebrer
celebres
celeri
celeste
celibataire
celibataires
celine
celle
celles
cellule
cellules
celosia
celtique
celtis
celui
cendre
cendres
cent
centaine
centaines
centimes
centimetres
centrafricain
centrafrique
central
centrale
centrales
centre
cents
cependant
cephalophe
ceps
cercle
cercles
cercueil
cereale
cereales
ceremonie
ceremonies
cerf
cerise
cerises
certain
certaine
certainement
certaines
certains
certes
certificat
certitude
cerveau
cerveaux
cervelle
ces
cesar
cessait
cessation
cesse
cesser
cesserent
cet
cette
ceux
ceylan
cf
cg
ch
chacal
chacun
chacune
chad
chagrin
chagrins
chaille
chaine
chaines
chair
chaire
chairs
chaise
chaises
chaleur
chaleurs
chambre
chambres
chameau
chameaux
chameleon
chamelle
chamerot
chaminadour
champ
champagne
champenois
champignons
champion
championnat
championnats
champs
chance
chancelante
chances
chandail
chandelle
chandler
change
changea
changed
changement
changements
changer
changes
chanson
chansons
chant
chantait
chantal
chantant
chante
chantent
chanter
chanteur
chanteurs
chanteuse
chantier
chantiers
chants
chanvre
chaos
chaoui
chap
chapdelaine
chape
chapeau
chapeaux
chapelet
chapelle
chapiteau
chapitre
chapitres
chaptal
chapter
chaque
charbon
charcoal
charcot
charge
chargee
chargees
charger
charges
chargeur
charitablement
charite
charles
charleville
charlie
charlotte
charmant
charmante
charme
charnel
charpente
charpentier
charrette
charrettes
chars
chartres
chasse
chasser
chasses
chasseur
chasseurs
chastete
chat
chataignes
chateau
chateaubriand
chateaubriant
chateaux
chatelet
chatiment
chatrian
chats
chatte
chaud
chaude
chaudes
chauds
chauffage
chauffard
chauffe
chauffer
chauffeur
chauffeurs
chaume
chaumiere
chaumont
chausey
chaussee
chaussette
chaussettes
chaussure
chaussures
chauve
chauves
chaux
chavacano
chechia
cheek
chef
chefs
cheikh
chemin
cheminee
cheminees
cheminements
chemins
chemise
chemises
chemisette
chene
chenes
chenille
chenopode
chenopodiaceae
cheque
cher
chercha
cherchait
cherchant
cherche
cherchent
chercher
chercherent
chercheur
chercheurs
cherchez
chere
cheres
cheri
cherokee
chers
chetif
cheval
chevalerie
chevalier
chevaliers
chevalines
chevaux
chevelure
chevet
cheveux
cheville
chevilles
chevre
chevres
cheyney
chez
chi
chic
chicago
chiche
chiches
chief
chien
chienne
chiens
chiffre
chiffres
child
children
chile
chili
chillies
chimie
chimique
chimiques
chimpanze
chin
china
chine
chinois
chiot
chique
chirurgicale
chirurgie
chirurgien
chlorophytum
chlother
choc
chocolat
chocs
choisi
choisir
choisissent
choisit
choix
cholera
chomage
chorvatsko
chose
choses
chou
chouette
choux
chr
chretien
chretienne
chretiennes
chretiens
christ
christened
christian
christianisme
christine
christmas
christophe
chrome
chronique
chroniques
chrysophyllum
church
chute
chutes
chœur
ci
ciad
cible
ciboulette
cibuti
ciceron
cidre
cie
ciel
cierge
cierges
cigale
cigare
cigarette
cigarettes
cile
cili
cils
ciment
cimes
cimetiere
cin
cina
cinema
cingalais
cinq
cinquantaine
cinquante
cinquieme
cirad
circoncis
circoncision
circonstance
circonstances
circuit
circulaire
circulation
cire
cirque
ciseaux
citation
cite
citer
cites
citoyen
citoyens
citron
citronnier
citrus
city
civil
civile
civilisation
civils
civry
cj
ck
cl
clair
claire
clairement
clairon
clancy
clappe
claquer
clarte
class
classe
classement
classes
classification
classique
classiques
claude
claudel
claudine
claudius
clauses
claveau
cle
clean
clef
clefs
clemenceau
clement
clementine
clerc
clercs
clerge
clermont
clerodendrum
cles
cleves
client
clientele
clients
climat
climatiques
climb
clinique
cliquetis
clitoris
clochard
clochards
cloche
clocher
cloches
clochette
clock
cloque
cloques
clos
close
closes
closet
clothes
cloture
clou
cloud
clown
club
clusiaceae
cm
cn
cnrs
co
coagulation
coccinelle
cochon
cochons
coco
cocotier
cocotiers
cocotte
code
codes
coffee
coffre
coffres
cognee
cohen
cohorte
coiffe
coiffes
coiffeur
coiffeuse
coiffure
coin
coins
col
cola
cold
colere
coleres
colette
coleus
colibri
colibris
colin
colis
coll
collaboration
collar
colle
collectif
collection
collective
collectives
collectivite
collegamentomodele
college
collegue
collegues
colles
collet
colline
collines
colloque
colomb
colombe
colombia
colombie
colonel
coloniale
coloniales
colonialisme
colonie
colonies
colonisation
colonne
colonnes
colons
color
colore
coloris
colporteur
cols
com
comb
combat
combats
combattant
combattants
combattre
combien
combinaison
combinaisons
combine
combines
comble
combretaceae
combretum
combustible
come
comedie
comedien
comediens
comedies
comestible
comestibles
comique
comite
command
commandant
commande
commandement
commandements
commander
commandes
comme
commelinaceae
commenca
commencaient
commencait
commence
commencee
commencement
commencent
commencer
commencerent
comment
commentaire
commentaires
commercant
commercants
commerce
commercial
commerciale
commettre
commis
commissaire
commissariat
commission
commode
common
commons
commun
communale
communaute
communautes
commune
communement
communes
communication
communications
communion
communique
communiquer
communis
community
communs
comores
comoros
comosum
compact
compacte
compacter
compagnie
compagnies
compagnon
compagnons
company
comparable
comparables
comparaison
comparait
comparant
compare
comparee
comparer
compas
compatible
compatriote
compenser
competition
complainte
complaisance
complement
complet
complete
completement
completer
completes
complexe
complexes
complexite
complicite
complimenter
compliquee
complot
comportait
comporte
comportement
comporter
composait
compose
composee
composees
composent
composer
composes
compositae
compositeur
composition
comprehension
comprenait
comprenant
comprend
comprendre
comprends
comprennent
comprime
compris
comprit
compromettre
compromis
comptable
comptait
compte
compter
comptes
comptoir
computer
comte
comtesse
comtois
con
conakry
conan
concarneau
concatenate
conceive
concentration
concentre
concept
conception
concernant
concerne
concert
concession
concessions
concevoir
concile
conciliateur
conciliatrice
concis
concision
concitoyens
conclure
conclus
conclusion
conclut
concoit
concorde
concours
concu
concurrence
concurrents
condamnation
condamne
condamnee
condamner
condamnes
conde
condition
conditions
conducteur
conduire
conduisit
conduit
conduite
conduits
cones
confection
confectionner
confere
conference
confesseurs
confessions
confiance
confidence
confidences
configuration
confinement
confins
confirme
confirmera
confitures
conflit
conflits
confond
confondre
conforme
conformement
conformer
confort
confortable
confrerie
confrontation
confrontee
confus
confusement
confusion
conge
congo
congolensis
congres
conjugal
conjugale
connais
connaissais
connaissait
connaissance
connaissances
connaissent
connaissez
connaissons
connait
connaitre
connu
connue
connues
connus
connut
conquerir
conquete
conquetes
conrad
cons
consacre
consacree
conscience
consciente
conscrit
conseil
conseille
conseiller
conseillers
conseils
consentement
consequence
consequences
consequent
conservateur
conservateurs
conservation
conserve
conserver
conserves
considerable
considerablement
considerables
considerait
considerant
consideration
considerations
considere
consideree
considerer
consideres
consistait
consistance
consiste
consolation
consoler
consommateurs
consommation
consomme
consommee
consommees
consommer
conspiration
constamment
constance
constant
constantin
constate
constater
constituaient
constituante
constitue
constituee
constituent
constitution
constitutionnel
construction
construire
construit
construite
construits
consulte
consulter
contact
contagion
conte
contemplait
contempler
contemporain
contemporaines
contemporains
contenait
contenant
contenir
content
contente
contenter
contention
contents
contenu
contes
conteste
contester
contiennent
contient
continent
continentales
continents
continua
continuait
continue
continuellement
continuent
continuer
continues
contourne
contourner
contours
contracte
contracter
contradiction
contradictions
contraint
contrainte
contraire
contrairement
contraste
contrat
contrats
contre
contrebande
contrecarrer
contree
contrees
contribue
contribuent
contribuer
contribution
contributions
contrition
controle
controler
convaincre
convaincu
convenablement
convenait
convenance
convention
conversation
conversations
conversion
conviction
convictions
conviennent
convient
convives
convocation
convoi
convoitise
convolvulaceae
cook
cool
cooperation
coordonne
cop
copains
copie
copine
coq
coqs
coque
coquette
coquetterie
coquille
coquins
cor
corail
corbeau
corbeaux
corbin
corday
corde
cordes
cordialite
cordifolia
cordleaf
cordon
cordons
coree
corkwood
corn
corne
corneille
corneliu
cornes
cornique
cornouaille
coronavirus
corpores
corps
corpse
correa
correct
correctement
correspond
correspondance
correspondant
corridor
corrige
corrigee
corriger
corrompre
corruption
corsage
corsaires
corse
cortege
corti
corynanthe
cosmopolitisme
cosse
cossettes
cost
costa
costes
costume
costumes
costus
cote
coteaux
cotes
cotisations
coton
cottage
cotton
cou
couca
couche
couchee
coucher
couches
couchette
couci
coude
coudes
coudre
coue
cough
could
coule
couler
couleur
couleurs
couloir
country
coup
coupable
coupables
coupe
coupee
coupees
couper
coupes
couple
couples
coups
cour
courage
courageux
couraient
courait
couramment
courant
courante
courants
courbe
courber
courent
coureur
courge
courir
couronne
courrier
courroux
cours
course
courses
court
courte
courtes
courtiers
courtoisie
courts
couru
courut
cousin
cousine
cousins
coussin
cousu
cousue
cout
coute
couteau
couteaux
coutume
coutumes
couture
couturiere
couvent
couvercle
couvert
couverte
couverts
couverture
couvertures
couvrait
couvre
couvrir
couvrit
covid
cow
cowhage
cowhitch
coze
cp
cq
cr
cra
cracher
crachin
craie
craignait
craignent
craindre
crains
craint
crainte
crane
crapaud
crapauds
crapule
crassulaceae
cratere
cravate
crayon
creanciers
creant
create
creation
creatique
creature
creatures
creche
credibilite
credit
credule
credulite
cree
creee
creeper
creeping
creer
creme
creole
crepe
crepes
crepuscule
crete
creuse
creuser
creux
creve
crever
crh
cri
cria
criant
cricket
cricri
crie
crier
crime
crimee
crimes
criminel
criminelle
criminels
crimson
criniere
crinum
criquet
cris
crise
cristo
critique
critiquer
critiques
croacia
croassements
croate
croatia
croazia
croches
crocodile
croient
croirait
croire
crois
croisades
croise
croisees
croisement
croises
croissait
croissance
croissant
croissante
croissent
croit
croitre
croix
croquant
croque
cross
crossopteryx
crotalaria
croton
croute
croyaient
croyais
croyait
croyance
croyances
croyant
croyants
croyez
cru
cruaute
crucifix
crue
cruel
cruelle
cruellement
cruelles
cruels
crus
crush
crut
cs
csb
ct
cta
cu
cub
cuba
cube
cubes
cucurbita
cucurbitaceae
cueillait
cueillette
cueillir
cuillere
cuir
cuire
cuirs
cuisine
cuisines
cuisinier
cuisiniere
cuisse
cuisses
cuisson
cuistrerie
cuit
cuite
cuivre
cuivres
cul
culinaire
culotte
culottes
culpabilite
culs
culte
cultivateur
cultivateurs
cultive
cultivee
cultivees
cultiver
culture
culturelle
cultures
cup
curcas
cure
curee
curer
cures
curie
curieuse
curieuses
curieux
curiosite
curiosity
cushion
customs
cut
cuve
cuvette
cuvier
cv
cw
cx
cy
cyathula
cycle
cycliste
cyclone
cylindre
cylindricum
cyrille
cythere
cz
cœur
cœurs
d
d0
d1
d2
d3
d4
d5
d6
d7
d8
d9
da
daa
dabatango
dabe
dabuze
dach
dada
dadawa
dade
dafugula
dagaduru
dagbi
dagnan
dahomey
daily
daim
dak
dakanga
dakangi
dakango
dakar
dakobe
dakuku
dalamoroke
dalango
dale
dalecarlien
dalembe
dalimo
dam
damalinga
damapa
damati
damazani
damba
dambakaola
dambeso
dambeti
dame
damee
dames
damien
damit
damiyee
damokanda
dan
dance
dancer
dancing
danemarc
danemark
danemerke
danga
danganga
dangbaa
danger
dangere
dangereuse
dangereuses
dangereux
dangers
dango
dangudada
dania
daniel
danielle
danija
danimarca
danimarka
daniya
dank
danmark
danmork
dann
danois
dans
dansait
danse
danser
danses
danseur
danseuse
danska
danton
danzapa
darakuba
daran
dard
darf
dark
darkness
das
dasendagi
dass
data
database
datalatu
datant
date
datokua
dattier
datum
daudet
dauphine
davantage
daveke
david
dawaa
day
dayoro
days
dazo
daß
daɔ
daɪ
daʒ
db
dc
dd
de
dead
death
deba
debagori
deballe
debandade
debarquement
debarrasser
debat
debats
debattre
debit
debiter
debits
debordante
deboucher
debout
debray
debris
debrouiller
debt
debut
debuter
debuts
dec
decadence
decamper
decede
decembre
decence
decennie
decennies
decent
deces
dechainait
dechaine
decharges
dechet
dechets
dechira
dechire
dechirent
dechirer
decibelproduction
decida
decide
decided
decidement
decider
decisif
decision
decisions
declara
declaration
declarations
declare
declaree
declarer
declenche
declin
decline
decolle
decoller
decomposition
decompter
decor
decoration
decoucher
decoupees
decouper
decourager
decousu
decouvert
decouverte
decouvertes
decouvre
decouvrir
decouvrit
decree
decret
decrire
decrit
decrypter
decu
dedaigne
dedaigner
dedaigneux
dedain
dedans
dede
dedee
dee
deep
deesse
defa
defaite
defaut
defauts
defend
defendre
defendu
defense
defi
deficit
defie
defier
defile
defini
definir
definit
definitif
definition
definitive
definitivement
defis
defriche
defunt
degage
degageait
degager
degout
degradation
degre
degres
dehes
dehors
dein
deine
deiner
deja
dejeuner
deke
dekite
dekobra
dekongo
deku
del
dela
delagrave
delai
delasser
delerm
delhi
deliberation
delicat
delicate
delicatement
delicatesse
delicats
delice
delices
delicieuse
delicieuses
delicieux
delinquance
delinquant
delinquants
delire
delit
delits
delivrance
delivre
delivrer
delmas
delphine
dem
dema
demagogie
demain
demand
demanda
demandai
demandait
demandant
demande
demandent
demander
demandes
demandez
demange
demantelement
demarche
demarere
demarrer
demeura
demeure
demeurent
demeurer
demeures
demi
demie
democratie
democratique
demode
demoiselle
demoiselles
demolir
demon
demons
demontre
demontrer
demouzon
den
denamna
dendi
dendoon
denemarken
denga
dengbe
denge
dengengo
dengo
denier
denigrement
denis
denise
denmark
denn
denoel
denombrement
denomination
denonce
denoncer
denrees
dense
dent
dentaires
dentelle
dentiste
dents
dentu
depa
depart
departager
departement
departements
depasse
depassent
depasser
depecage
depecement
depeche
depend
dependait
depens
depense
depenses
deperir
deperissement
depistage
depit
deplace
deplacement
deplacer
depose
deposer
deposition
depot
depots
depouille
depourvu
depourvues
depression
depressions
depuis
depute
deputes
der
deraison
derange
dere
derive
dernier
derniere
dernieres
derniers
dero
derobade
derobe
derober
deroule
derriere
derrieres
derville
des
desagreable
desaive
desastre
desastreuse
descartes
descend
descendait
descendant
descendante
descendants
descendent
descendit
descendre
descends
descendu
descente
deschamps
description
desert
deserte
deserts
desesperee
desesperement
desesperer
desespoir
desforges
deshonneur
design
designait
designe
designer
desintegration
desir
desirait
desire
desirer
desirs
desistement
desjardins
desk
desobeir
desordonne
desordonnee
desordre
desordres
desormais
despreaux
desquelles
desquels
desqueyroux
desseche
dessein
dessert
dessin
dessine
dessins
dessous
dessus
destin
destination
destine
destinee
destinees
destouches
destruction
detachement
detail
details
detenus
determinant
determination
determine
determiner
determines
deterville
deteste
detonation
detour
detourne
detourner
detours
detresse
detruire
detruit
dette
dettes
deuil
deulin
deutsch
deutschen
deutschland
deux
deuxieme
devaient
devais
devait
devant
devanture
developpe
developpee
developpement
developpent
developper
developpes
devenaient
devenait
devenant
devenir
devenu
devenue
devenues
devenus
devergondage
devez
deviendra
deviennent
devient
devil
devine
deviner
devinrent
devint
devoile
devoir
devoirs
devons
devorait
devorant
devore
devorer
devouement
devra
devraient
devrais
devrait
devriez
dextre
deɪ
df
dg
dh
dhe
dhotel
di
diable
diagnostic
dialecte
dialium
dialogue
dialogues
diamaa
diamale
diamant
diamants
diametre
diamond
diamonds
diane
diarrhee
dibutii
dich
dickens
dickson
dico
dictature
dictee
dictionnaire
dictionnaires
did
dida
diderot
didi
didier
didisinga
didn
didot
die
died
dienstag
dies
diese
diesem
diesen
dieser
dieses
dieu
dieudonne
dieux
diffamation
differe
differemment
difference
differend
different
differente
differentes
differents
difficile
difficilement
difficiles
difficult
difficulte
difficultes
diffusa
diffusion
dig
digestion
digne
dignite
digues
dijon
dik
diki
diko
dikongo
dil
dile
dilemme
dili
dillon
diluer
dimanche
dimanches
dimasi
dime
dimension
dimensions
diminuant
diminue
diminuer
diminution
dimli
dina
dinamarca
dinamarka
dinde
diner
diners
dingi
dinner
diocese
diolo
dion
diongo
dioscorea
dioscoreaceae
diospyros
diplomatie
diplomatique
diplomes
diplomo
diq
dir
dira
dirai
dirais
dirait
dire
direct
directe
directement
directeur
directeurs
direction
directrice
dirige
dirigea
dirigeable
dirigeants
dirigee
diriger
dirt
dirty
dis
disaient
disais
disait
disant
discerner
disciple
disciples
discipline
discorde
discours
discredit
discretement
discrimination
discussion
discussions
discutaient
discute
discuter
dise
disease
disent
disette
disgrace
disons
disorder
disparaissait
disparait
disparaitre
disparition
disparu
disparue
disparut
displaystyle
disponibles
dispose
disposees
disposer
disposes
disposition
dispute
disputent
disputer
disputes
disque
disques
dissemination
dissensions
dissimulation
dissimule
dissimuler
dissiper
distance
distichodus
distillation
distinctement
distinction
distinguait
distingue
distinguer
distraction
distraire
distribuer
distribution
district
dit
dite
dites
dits
divaan
divan
divehi
divers
diverse
diversement
diverses
diversite
divin
divination
divine
divinite
divise
diviser
division
divisions
divorce
dix
dixieme
diyan
dizaine
dizaines
diʁ
dj
dja
dje
djibouti
djibuti
djɔ
dk
dl
dm
dn
do
doch
docilite
docteur
doctor
doctorat
doctrine
document
documentation
documents
dodo
dodoma
dodoro
dodoya
does
dog
dogbo
dogmes
dogs
doigt
doigts
doin
doing
dois
doit
doivent
doli
dolichos
dolique
dollar
dollars
dom
domaine
domaines
dombere
dome
domenico
domestique
domestiques
domicile
dominante
domination
domine
dominer
dominica
dominika
dominique
dommage
don
donald
donation
donc
dondo
done
dongbi
dongo
dongongbi
doniana
donis
donna
donnaient
donnait
donnant
donne
donnee
donnees
donnent
donner
donnera
donnerait
donnerent
donnerstag
donnes
donnez
dono
dons
dont
donzi
donzo
doon
door
doraient
dore
dorees
dores
dorf
dormaient
dormait
dormir
doro
doroko
dorokongo
dorsale
dort
dos
dose
doses
dossier
dossiers
dot
dote
dotia
douane
douanes
douanier
douba
double
doubles
doublet
doubt
douce
doucement
douces
douceur
doue
douleur
douleurs
douloureuse
douloureux
doussie
douta
doute
douter
douteux
doux
douzaine
douze
dove
down
dp
dq
dr
draft
dragon
dragons
dramatique
drame
drap
drapeau
draps
draußen
drawing
dream
drei
dress
dresse
dresser
dreyfus
dricot
dried
drieu
drink
drive
driver
driving
drogue
drogues
droit
droite
droits
drole
drolement
droz
druon
dry
drzave
drɔ
ds
dsb
dt
du
dube
dubere
dubois
duc
duchesse
duck
dudu
due
duel
dues
duhamel
duke
dukua
dule
dulee
duma
dumas
dumay
dumbere
dumont
dunan
dune
dungo
dungu
dungusara
dunia
dunkel
dunkelheit
dunod
dunyere
dupanloup
dupe
dupont
dupouy
dupuis
duquel
dur
durable
durait
durand
durant
durch
dure
duree
durent
durer
durera
dures
durete
during
durs
durtal
dus
dussent
dust
dut
dutchman
dutee
duti
dutingo
duuduu
duvalle
duwa
dv
dw
dwa
dwarf
dx
dy
dyk
dynamique
dynasties
dyodyo
dysphania
dz
dzibuti
dzongkha
dœʁ
dɑ
dɔ
də
dən
dɚ
dɛ
dɛʁ
dɥiʁ
dɪ
dɪs
dɪŋ
dɹaɪ
dʁ
dʁa
dʁwa
dʒə
e
e0
e1
e2
e3
e4
e5
e6
e7
e8
e9
ea
each
ear
earth
east
easy
eat
eau
eaux
eb
ebauche
ebe
ebele
eben
ebenaceae
ebene
ebenier
eberhardt
ebombelo
ebony
ebranler
ec
ecailles
ecarlate
ecart
ecarte
ecartele
ecarter
ecarts
ecclesiastique
echange
echanges
echantillons
echappe
echapper
echarpe
echec
echecs
echelle
echo
echos
echoue
echouer
eclair
eclairage
eclaircir
eclaire
eclairee
eclairees
eclairer
eclairs
eclat
eclatant
eclatante
eclatantes
eclate
eclater
eclats
eclipse
eclore
eclosion
eco
ecole
ecoles
ecolier
ecoliere
ecoliers
ecologie
economie
economies
economique
economiques
ecorce
ecorces
ecossais
ecosse
ecoule
ecoulement
ecoutaient
ecoutais
ecoutait
ecoutant
ecoute
ecouter
ecoutez
ecran
ecrans
ecrasait
ecrase
ecraser
ecria
ecrie
ecrire
ecris
ecrit
ecrite
ecrites
ecrits
ecriture
ecrivain
ecrivains
ecrivait
ecrivant
ecrivent
ecroulement
ecrouler
ecu
ecuador
ecuatorial
ecume
ecureuil
ecurie
ecuries
ecuyer
ed
eden
edgar
edi
edifice
edifices
edilivre
edit
edite
editeur
editeurs
edition
editions
edito
editorial
edme
edmond
edouard
edp
educagri
education
edulis
ee
ef
efface
effacer
effares
effectue
effectues
effet
effets
efficace
efficaces
efficacite
effondrement
efforcait
efforce
efforcent
effort
efforts
effraction
effraye
effroi
effroyable
eg
egal
egale
egalement
egalite
egard
egarement
egarer
egaux
egg
eglise
eglises
egoisme
egoiste
egratignure
egypt
egypte
egyptienne
eh
ehe
ehrlich
ei
eight
ein
eine
einem
einen
einer
eines
einfach
einige
einmal
einstein
eisen
either
ej
ek
ekolo
ekuatere
ekvador
ekɔ
ekɛ
el
elaeis
elamba
elan
elance
elancer
eland
elastica
eleanor
electeurs
election
elections
electorale
electricite
electrique
electronique
elegamment
elegance
elegant
elegante
eleko
elembo
elemens
element
elementaire
elementaires
elements
elephant
elephants
eleusine
eleva
elevage
elevaient
elevait
eleve
elevee
elevees
elevent
elever
eleves
eleveur
elfenbeinkuste
elhamy
eli
elie
eliminer
elire
elisabeth
elise
elisee
elites
elizabeth
elke
elle
elles
eloge
eloges
eloigne
eloignement
eloigner
eloignes
eloquence
elsa
eltchaninoff
eltern
elu
elue
elus
elysee
elysees
elɔ
elɔngɔ
elɛ
em
emancipation
embacle
embarcation
embarquement
embarquer
embarras
embarrasse
embleme
embonpoint
embouchure
embrassant
embrasse
embrouillamini
embryon
eme
emergence
emerveille
emien
emigration
emile
emilia
emilien
emissaire
emission
emissions
emma
emmanuel
emmene
emotion
emotions
empara
empare
emparer
empechait
empeche
empechent
empecher
empereur
empire
emplacement
emplette
emplit
emploi
emploie
emploient
emplois
employe
employee
employees
employer
employes
empoigna
empoisonne
empoisonnement
emportait
emportant
emporte
emportee
emporter
empreinte
empreintes
empressement
empresses
emprunte
empty
emsome
emu
en
enama
enceinte
encens
enchaine
encheres
enclos
encoignures
encombree
encontre
encor
encore
encourage
encourager
encre
encyclopedie
encyclopedique
end
ende
endiri
endormi
endormie
endormir
endormis
endort
endroit
endroits
endurcir
endure
endurer
endyi
enemy
energetique
energie
energique
energy
enfance
enfant
enfantement
enfants
enfer
enferme
enfermement
enfers
enfiler
enfin
enfonce
enfoncer
engage
engagea
engagee
engagement
engager
engbongolo
engendre
engendrer
engins
england
englisch
english
engrais
eni
enivrante
enjeux
enleve
enlevee
enlever
enleves
ennde
enndonezii
ennemi
ennemie
ennemis
ennui
ennuie
ennuis
ennuyer
ennuyeuse
enonce
enorme
enormement
enormes
enough
enquete
enquetes
enregistrement
enrichir
enrichis
enseignant
enseigne
enseignement
enseigner
ensemble
ensembles
ensoleille
ensuit
ensuite
entame
entandrophragma
ente
entend
entendais
entendait
entendement
entendit
entendre
entends
entendu
entente
enterre
enterrement
enterrements
enterrer
enthousiasme
entier
entiere
entierement
entieres
entiers
entouraient
entoure
entouree
entourer
entr
entra
entraient
entrailles
entrain
entraina
entrainant
entraine
entrainement
entrainer
entrait
entrames
entrant
entre
entrebaillement
entree
entrent
entreprendre
entrepris
entreprise
entreprises
entrer
entres
entretenir
entretien
entretiens
entrevue
enumeration
envahir
envahis
envahissant
envahit
enveloppait
enveloppe
enveloppes
envers
envie
envies
envieux
environ
environnement
environs
envisage
envisager
envoie
envola
envole
envolent
envoler
envoya
envoyant
envoye
envoyer
envoyes
eo
ep
epais
epaisse
epaisses
epaisseur
epargne
epars
eparses
epaule
epaules
epazote
epee
epees
ephemere
epi
epices
epicure
epicuriens
epidemie
epidemies
epier
epieu
epilepsie
epinal
epinard
epinards
epine
epines
epingle
epingles
epis
episode
eplucher
eponge
epopee
epoque
epoques
epouse
epouser
epouses
epouvantable
epouvante
epoux
epreuve
epreuves
eprouva
eprouvait
eprouve
eprouver
epuise
epuisee
epuises
epuration
eq
equateur
equatorial
equatoriale
equilibre
equipage
equipe
equipement
equipements
equipes
equitable
equitation
equivalent
er
erable
eradiquee
erasme
erckmann
erde
ere
eres
erfassen
erhalten
eric
erik
eritrea
eritree
eritreja
erkodoka
erlauben
ermite
ernaux
ernest
ernestine
erotique
errant
errer
erreur
erreurs
errico
erscheinen
erst
erudit
erudition
eruption
erzegovina
es
escalier
escaliers
escape
escargot
escargots
escarpees
esclavage
esclave
esclaves
escopette
escorte
escroquerie
esculentum
esculentus
ese
esel
eshte
esika
espace
espaces
espagne
espagnol
espagnole
espagnols
espana
espanya
espanye
espanyol
espece
especes
especially
esperance
esperances
esperant
esperanto
espere
esperer
espions
espoir
esprit
esprits
esquisse
essai
essaie
essaient
essais
essaya
essayais
essaye
essayer
essen
essence
essences
essentiel
essentielle
essentiellement
essentiels
essia
essor
essuie
essuyer
est
estados
estats
estelle
esthetique
estime
estiment
estimer
estomac
estonien
estremegne
eswatini
et
etable
etabli
etablie
etablir
etablis
etablissement
etablissements
etablit
etage
etagere
etages
etaient
etain
etais
etait
etalage
etale
etaler
etando
etang
etangs
etant
etape
etapes
etat
etats
etazi
etc
ete
eteindre
eteint
etend
etendait
etendant
etendre
etendu
etendue
etendues
eternel
eternelle
eternellement
eternite
eternuement
etes
ethiopia
ethiopie
ethique
ethnies
etienne
etiez
etions
etiopi
etiopia
etiopii
etiopija
etoffe
etoffes
etoile
etoiles
etoit
etonnant
etonnante
etonnantes
etonne
etonnement
etouffait
etouffe
etouffer
etourdie
etrange
etrangement
etranger
etrangere
etrangeres
etrangers
etranges
etranglee
etre
etres
etroit
etroite
etroitement
etroites
etroits
etude
etudes
etudiant
etudiants
etudie
etudier
etui
etuka
etumbu
etwas
etymologie
etɛ
eu
eucalyptus
euclid
eugene
eugenie
euphorbia
euphorbiaceae
euphorie
eure
eureka
eurent
euro
europa
europe
european
europeen
europeenne
europeennes
europeens
euros
eus
eusse
eussent
eut
eux
ev
evacuer
evada
evaluation
evangile
evariste
evasion
eve
evelyne
even
evenement
evenements
evening
eveque
eveques
ever
everest
every
eveuss
evidemment
evidence
evident
evitant
eviter
evolution
evoquait
evoque
evoquer
evre
ew
ewe
ex
exact
exacte
exactement
exam
examen
examens
examina
examine
examiner
example
excavation
excellence
excellent
excellente
excellentes
excellents
excelsa
excepte
exception
exces
excessif
excessive
excision
excite
excites
exclus
exclusion
exclusive
exclusivement
excrements
excursion
excuse
excuses
execute
executer
execution
exemple
exemples
exerce
exercer
exercice
exercices
exercise
exhale
exige
exigeait
exigences
exil
exiles
existaient
existait
existat
existe
existence
existent
exister
exode
exotiques
expansion
expedier
expedition
experience
experiences
experimentale
expert
experts
expier
explication
explications
expliqua
explique
expliquer
exploit
exploitation
exploite
exploitent
exploiter
exploits
exploration
explorer
explosa
exploser
explosion
exportation
expose
exposer
exposes
exposition
expres
express
expression
expressions
exprimait
exprime
exprimer
expulsion
exquis
ext
extase
extension
exterieur
exterieure
exterieurs
externe
extime
extinction
extirper
extra
extraction
extraire
extrait
extraordinaire
extraordinaires
extreme
extremement
extremes
extremite
extremites
exupery
ey
eye
eyes
eyrolles
ez
ezali
eɪ
eɪt
f
f0
f1
f2
f3
f4
f5
f6
f7
f8
f9
fa
faa
fabaceae
fabanga
fabienne
fabl
fable
fables
fabre
fabricants
fabrication
fabrice
fabrique
fabriquer
facade
face
faces
facheuse
facheux
facile
facilement
faciles
facilite
faciliter
facon
facons
facteur
facteurs
facture
faculte
facultes
fadaises
fade
fadeso
fafade
fafadeso
fafara
fagne
fagot
faguet
fahren
fahrrad
faible
faiblement
faibles
faiblesse
faiblit
faience
failli
faillit
faillite
faim
faineant
faire
fais
faisaient
faisais
faisait
faisant
faisons
fait
faite
faites
faith
faithful
faits
fal
falaise
falaises
falcon
falkland
fall
fallait
fallen
falloir
falls
fallu
fallut
false
fambage
fameuse
fameux
famii
familiale
familiales
familie
familier
familiere
familierement
famille
familles
family
famous
famy
fan
fandara
fandoto
fane
faner
fanfare
fanfarlo
fango
fani
fantaisie
fantaisies
fantasme
fantastique
fantomas
fantome
fantomes
fao
far
faranga
faranzi
farbe
farce
fard
fardeau
farine
farm
farmer
farouche
farsi
fas
fasce
fashion
faso
fasquelle
fasse
fast
fat
fatal
fatale
fatalite
father
fatigue
fatigues
faubourg
fauche
faucher
faucille
faucon
faudra
faudrait
faune
faure
fausse
fausses
faut
faute
fautes
fauteuil
fauteuils
fauve
fauves
faux
faveur
faveurs
favorable
favori
favorise
favoriser
favorite
fayard
faye
fayette
faɪ
faʁ
fb
fc
fd
fe
fear
febrifuga
feconde
fecondes
fecondite
federal
federation
fee
feel
feeling
feempje
fees
feet
fehlt
feind
felande
felicite
felix
fell
female
femba
femelle
femelles
feminin
feminine
femme
femmes
fendu
fenelon
fenetere
fenetre
fenetres
fenster
feodalite
feodaux
fer
fera
ferai
feraient
ferais
ferait
ferdinand
ferez
ferma
ferme
fermee
fermees
fermement
fermentation
fermer
fermes
fermeture
fermier
fern
fernand
fernsehen
feroce
ferocite
feroe
feroien
ferons
feront
ferrand
ferre
ferroviaire
ferruginea
ferrugineus
fers
ferte
fertiles
fertilisantes
ferveur
fessee
fesses
festin
fete
feter
fetes
fetiche
fetide
feu
feuer
feuillage
feuille
feuilles
feux
fever
feves
fevrier
few
ff
fg
fh
fi
fiance
fiancee
fibre
fibres
fiche
fiches
fiction
ficus
fidele
fideles
fidelite
fides
fidji
fidjien
fidyii
fidzi
fieber
fief
fiel
field
fields
fier
fiere
fierement
fiers
fierte
fievre
fig
figaro
fight
figuier
figuiers
figure
figures
fiji
fik
fil
filature
file
filer
filere
filet
filets
filiere
filipin
filipinas
filipini
filipiny
fille
filles
fillette
fillon
film
films
fils
filtre
fin
final
finale
finalement
finally
finances
financier
financiere
find
finden
fine
fines
finesse
finger
fingers
fingi
fini
finie
finir
finira
finish
finissent
finit
finland
finlanda
finlande
finlandia
finnland
finnois
fins
finska
finsko
fion
fire
firecrest
firent
firigoo
firma
firmin
first
fis
fiscal
fisch
fischbacher
fische
fischer
fish
fit
fitasu
fiu
five
fix
fixe
fixee
fixer
fixes
fiʁ
fj
fje
fjɔ
fk
fl
fla
flacon
flacons
flamand
flammarion
flamme
flammes
flanc
flancs
flaques
flasche
flash
flat
flaubert
flaɪ
fle
fleau
fleche
fleches
fleisch
fleur
fleurs
fleury
fleuve
fleuves
flic
flics
floh
floor
flora
flore
florence
florian
flot
flots
flottait
flottante
flotte
flotter
flotteur
flour
flow
flower
flugel
fluide
flute
flux
fluxion
fly
flɑ
flɛ
fm
fn
fo
foetida
foi
foie
foin
foire
foires
fois
foko
folie
folies
folio
folle
follement
folles
follet
fololo
fomba
fon
fonce
foncierement
fonction
fonctionnaire
fonctionnaires
fonctionne
fonctionnement
fonctionner
fonctions
fond
fondamental
fondateur
fondation
fonde
fondee
fondement
fondements
fonder
fondo
fondre
fonds
fondu
fono
fonono
font
fontaine
fonte
food
fool
foot
football
for
forca
forcats
force
forcement
forces
forest
forestier
forestiere
forestieres
forestiers
foret
forets
forfaits
forge
forgeron
forges
formaient
formalites
formant
format
formation
forme
formee
formees
formellement
forment
former
formes
formidable
formulation
formule
formules
foro
fororo
foroto
forse
fort
forte
fortement
fortes
forts
fortune
fortunes
forum
fosse
fosses
foto
fotoo
fou
foucault
foudre
fouet
fougere
fougeres
fougue
fouille
foulard
foule
fouler
foules
found
four
fourberie
fourchettes
fourmi
fourmis
fourneaux
fourni
fournier
fournir
fournit
fourrage
fourre
fourreau
fourrure
fourrures
fours
fourvoyer
fous
foutre
fox
foyer
fp
fq
fr
fraction
fracture
fracturer
frage
fragen
fragile
fragiles
fragilite
fragments
fraiche
fraicheur
fraipont
frais
fraises
frake
franc
franca
francais
francaise
francaises
france
franche
franchement
franchir
franchise
francique
francis
francisco
franck
franco
francois
francoise
francoprovencal
francs
frange
frank
franquin
frans
franz
franzosisch
frapie
frappa
frappant
frappe
frapper
fraternite
frau
fraude
frauder
frayer
frayeur
freddy
frederic
frederique
free
freedom
frein
freitag
french
frequemment
frequence
frequent
frequentation
frequente
frequentes
frequents
frere
freres
freude
freund
fri
fric
friday
frieden
friedrich
friend
friends
frigo
frioulan
frisch
frise
frison
frisson
frites
fritsch
fro
froc
froid
froide
from
fromage
fromentin
front
frontenac
frontiere
frontieres
frotte
frotter
frousse
frp
frr
fructifier
fruher
fruit
fruitiers
fruits
frutescens
fry
fs
ft
fu
fuir
fuit
fuite
fuku
full
fulundigi
fumant
fumante
fume
fumee
fumees
fument
fumer
fumerent
fumier
fun
function
funda
funebre
funerailles
funeste
funf
fungi
fungo
fungu
funngo
fur
furent
fureur
furieux
furu
furusa
fus
fusees
fusil
fusillade
fusils
fusion
fussent
fut
futa
futango
fute
futii
futile
futs
futur
future
futurs
fuu
fuß
fußball
fuʁ
fv
fw
fwa
fx
fy
fz
føz
fœtus
fœʁ
fɐ
fɑ
fɔ
fɔl
fɔn
fɔɹ
fɔʁ
fə
fəl
fən
fɚ
fɛ
fɛk
fɛkt
fɛs
fɛɐ
fɛʁ
fɪkt
fɪn
fʁa
fʁe
fʁi
fʁɑ
fʁɔ
fʁɛ
g
g0
g1
g2
g3
g4
g5
g6
g7
g8
g9
ga
gaafar
gaba
gabe
gabelle
gabo
gabon
gabonensis
gaboon
gabriel
gabrielle
gabun
gacher
gaduru
gael
gaelique
gaffes
gag
gagambolo
gagaouze
gage
gagna
gagne
gagnent
gagner
gai
gaie
gaillard
gain
gal
gala
galamment
gale
galerie
galeries
galeswinthe
galette
galettes
gali
galicien
galiciens
galilee
gallimard
gallo
gallois
gambia
gambie
gambii
gambija
gambula
game
games
gamin
gamins
gamme
gamvara
gan
gana
ganaa
ganda
gang
gango
ganngo
gants
ganz
ganza
ganze
ganzen
gapa
gar
gara
garage
garant
garanties
garantir
garcinia
garcon
garcons
gard
gardait
garde
garden
gardent
garder
gardes
gardez
gardien
gare
gares
garni
garnie
garnier
garola
garonne
gars
gary
gascogne
gaspard
gaspiller
gaste
gaston
gate
gateau
gateaux
gather
gati
gatoo
gauche
gaule
gaules
gaulle
gaulois
gaussen
gauthier
gautier
gave
gavinard
gay
gaz
gaza
gazelle
gazelles
gazette
gazon
gb
gba
gbabio
gbada
gbadara
gbadodo
gbadola
gbadora
gbagba
gbagbagba
gbagbara
gbakawagba
gbako
gbakodoro
gbakuru
gbalaka
gbama
gbamangboko
gbanda
gbandatere
gbanga
gbangambala
gbangba
gbani
gbanyama
gbanzi
gbanzingo
gbara
gbari
gbasu
gbata
gbavaka
gbazabanga
gbe
gbebingo
gbeda
gbede
gbefa
gbego
gbele
gbembingo
gbemingo
gbene
gbenga
gbeni
gbenyogbia
gbere
gbeya
gbi
gbia
gbian
gbiki
gbingo
gbo
gbogbo
gbogbolinda
gboklu
gbokora
gbole
gbongo
gboo
gboto
gbotongo
gbu
gbudu
gbugburu
gbundo
gbungo
gbutunga
gc
gcr
gd
ge
geant
geants
gear
geben
gebissen
gefunden
gegen
gegenuber
gehe
geheimnis
gehen
geht
geist
geld
gelee
gelees
gemacht
gemein
gemeinschaft
genau
gendarme
gendarmes
gene
geneagenese
genealogie
general
generale
generalement
generales
generalites
generation
generations
generaux
genereux
genes
genese
genetique
geneve
genevieve
genevoix
genie
genisse
genlis
genou
genoux
genre
genres
gens
gentil
gentilhomme
gentillesse
gentilshommes
gentleman
genug
geoffroy
geographie
geographique
geologie
geologique
geometrie
george
georges
georgette
georgien
gerade
gerald
gerant
gerard
gerbault
gere
gereki
gerela
gerepa
gerer
germain
germaine
germains
germanique
germe
germer
gern
gerrit
gers
gervais
gerver
geschaft
geschehen
geschenk
geschichte
gesehen
gesicht
gesier
gesprach
geste
gestern
gestes
gestion
gesund
gesundheit
get
getting
gewinnen
gewonnen
geysers
gf
gg
gh
ghana
gi
gia
giant
giapon
gibier
gibt
gide
gigantesque
gigantesques
gigi
gigot
gilbert
gilet
gilets
gilles
ginaleni
gindi
gine
ginea
ginee
gingembre
ginger
gingo
gini
ginon
giono
girafe
giraffe
girard
girardin
giraudoux
giriri
girisa
girisango
girl
girls
gisserot
gite
github
give
gj
gk
gl
glace
glaces
glaciers
glass
glaube
glauben
glaucescens
glaziovii
glisse
glisser
globe
gloire
glorieuse
glorieux
glory
glossaire
gluck
gluten
gm
gn
go
goat
gobelet
gobineau
gobo
god
gode
godobe
godoroo
goelands
goes
goethe
goffic
gogo
gogol
gogoro
goigoi
goinfrerie
going
gola
gold
golf
golfe
gombo
gomme
gomphrena
goncourt
gonda
gonflait
gonfle
gonfler
gonge
gonzesses
good
goosegrass
gorge
gorila
gorilla
goro
gosa
gosier
gosse
gosselin
gosses
gossypiifolia
got
gotique
gott
goudreault
goudron
gouffre
gourd
gourde
gout
goute
gouter
gouts
goutte
gouttes
gouvernement
gouvernements
gouverner
gouverneur
gov
govoroma
goyave
goyaviers
goyavu
gozo
gp
gq
gr
grab
grabat
grace
graces
gracieuse
gracieux
gracq
grade
graeber
grain
graine
graines
grains
graisse
graisses
grammaire
grammaires
grand
grande
grandes
grandet
grandeur
grandi
grandiose
grandir
grandissante
grands
grange
granoux
grant
grapefruit
graphique
grappes
gras
grass
grasse
grasser
grasset
gratis
gratissimum
gratitude
grattage
gratte
gratter
gratuit
gratuite
gratuitement
grave
gravee
gravement
graves
gravir
gravure
gravures
grc
gre
great
grec
grece
grecque
grecs
green
greet
gregoire
grele
grenada
grenier
grenoble
grenouille
grenouilles
grenze
gres
gret
greve
greves
grew
grewia
grey
griefs
grievement
griffe
griffes
grille
griller
grillon
grillons
grimace
grimaces
grimpe
grimper
grind
griottes
grippe
gris
grise
grises
groenland
groenlandais
groenlandia
grogne
groko
grondement
gronder
gros
grosse
grosses
grossesse
grosseur
grossi
grossiere
grossieres
grossir
grossit
grotesques
grottes
grouillait
groult
ground
groupaient
groupe
groupes
grow
grown
growth
groß
große
großmutter
großvater
grun
grund
grundy
gs
gt
gu
guadalupe
guadeloupe
guagua
guarani
guard
guatemala
gue
guehenno
guelfe
guen
guengo
guepe
guepes
guere
guerin
guerir
guerison
guerit
guerliche
guerre
guerres
guerrier
guerroyer
guette
gueule
gueules
guga
guge
gugu
guguma
guguru
gui
guiana
guibourg
guide
guider
guillaume
guillotine
guine
guinea
guinee
guineea
guineense
guineensis
guineja
guise
guitard
guitare
gujarati
gum
gumbaya
gunda
gup
guru
gustave
gusuyombo
gut
gute
guth
guy
guyana
guyanais
guyane
gv
gvatemala
gvineja
gvineo
gvineya
gw
gwe
gwengo
gwinea
gwlad
gx
gy
gyni
gz
h
h0
h1
h2
h3
h4
h5
h6
h7
h8
h9
ha
haa
habe
haben
habile
habilete
habille
habiller
habilles
habit
habitait
habitant
habitants
habitation
habitations
habite
habitent
habiter
habits
habitude
habitudes
habitue
habituel
habituelle
habituellement
habitues
hache
haches
hachette
hachisch
had
hahn
hai
haie
haies
hail
haine
hair
hairy
haiti
haitien
hak
haka
hakka
hale
haleine
halevy
halezo
half
hall
halle
halles
halliwell
hallyday
hals
halte
halten
hameau
hameaux
hamecon
han
hana
hand
handa
handale
handango
handicap
hands
hangar
hange
hango
hans
hante
hapley
hapon
happy
hara
harara
harare
haras
hard
hardi
hareng
harengs
haria
haricot
haricots
hariya
harkis
harlequin
harmattan
harmonie
harpe
harper
harry
hart
hartmann
has
hasa
hasard
haschich
haschisch
hassan
hast
hat
hate
hatte
hatten
hauptstadt
haus
hausa
hause
hausse
haut
haute
hautes
hauteur
hauteurs
hauts
have
having
havre
haw
hawaien
haɪ
haʊ
hb
hbo
hc
hd
he
head
headed
health
hear
hearing
heart
heat
heavy
hebdo
hebdomadaire
hebdomadaires
hebreu
hectares
hector
hegelbacher
hegemonie
hein
heinrich
hekla
helas
helena
helene
helice
helicoptere
hell
hello
heloise
help
helsinki
hematozoaires
hemd
hemon
hen
hene
hengo
henri
henriette
henry
her
herault
herbe
herbert
herbes
hercegovina
hercule
here
heresie
heretiques
herisson
heritage
heritages
heritier
hermann
hermine
hero
heroine
heroique
heroiques
heros
herr
hersek
herve
herzegovina
herzegovinni
herzegowina
hesitation
hesite
hesiter
hetzel
heure
heures
heureuse
heureusement
heureuses
heureux
heute
hevea
hf
hg
hh
hi
hibiscus
hideux
hier
hierarchie
hif
high
hilaire
hill
hills
him
himmel
himself
hin
hind
hindi
hindistan
hindustan
hinga
hingango
hingo
hinon
hio
hippocrate
hippolyte
hirondelle
hirsuta
his
histoire
histoires
historiens
historique
historiquement
historiques
history
hit
hitze
hiver
hj
hk
hl
hm
hn
ho
hoa
hobson
hoch
hocha
hoffmann
holandee
hold
hole
holengo
holiday
hollandais
hollande
holy
holz
homba
home
homere
hommage
hommages
homme
hommes
hon
honde
hondengo
honduras
honey
hongo
hongrie
hongruaa
honig
honnete
honnetes
honneur
honneurs
honngo
honor
honorable
honore
honorer
honte
honteux
honzi
hook
hop
hopital
hopitaux
hor
horace
horaire
hordes
horen
horizon
horloge
horn
horreur
horrible
horriblement
hors
horse
hort
horticole
horticulture
hospitalier
hostile
hostilites
hot
hote
hotel
hotels
hoto
houe
houellebecq
houle
houleuse
hour
house
houssaye
how
however
hp
hq
hr
hrvatska
hs
hsb
ht
http
https
hu
huasteca
hubert
hubsch
hudson
huga
huge
hugo
hugues
hui
huile
huiles
huit
huitieme
huitre
huitres
hule
hulengo
huluhulu
hululu
huma
humain
humaine
humaines
humains
human
humanisme
humanite
humble
humbles
humer
humeur
humide
humides
humidite
humiliations
humilite
humour
hun
hund
hunda
hundango
hundred
hunger
hungo
hunter
hunzi
hurler
hurt
hurtebise
huru
huruhuru
hururu
husband
hussard
husten
hut
hutte
huysmans
huzard
hv
hw
hx
hy
hyacinth
hydravion
hydrographique
hydromel
hyene
hygiene
hymenocardia
hymne
hypocrite
hypocrites
hz
hɑ
hɔ
hɛ
i
i0
i1
i2
i3
i4
i5
i6
i7
i8
i9
ia
iakoute
ib
ic
ice
iceland
ich
ici
id
idea
ideal
idee
idees
identification
identite
ideologie
idi
idiot
ido
idolatrie
idole
ie
ier
ierevan
if
ig
igbo
ignace
igname
ignoble
ignorance
ignore
ignorer
ih
ihm
ihn
ihnen
ihr
ihre
ihrer
ii
iii
iiie
ij
ik
il
ile
iles
iliade
ill
illes
illico
illimite
illness
illumine
illusion
illusions
illustration
illustrations
illustre
illustres
ilo
ilocano
ilomba
ils
im
image
images
imaginaire
imagination
imagine
imaginent
imaginer
imbecile
imbeciles
imiter
immediat
immediate
immediately
immediatement
immense
immenses
immer
immeuble
immeubles
immigrant
immobile
immobiles
immobiliser
immuable
immunite
imp
impact
impardonnable
impassible
impatience
imperial
imperiale
imperialisme
impermeable
impitoyable
impitoyablement
implacable
implantation
impliquant
implique
importait
importance
important
importante
importantes
importants
importations
importe
imposait
imposant
imposante
impose
imposer
impossibilite
impossible
impot
impotent
impots
impr
impraticable
impression
impressionne
impressionner
impressions
imprevue
imprime
imprimee
imprimer
imprimerie
improvise
in
ina
incapable
incapables
incarcerer
incendie
incendies
incertaine
incertitude
incessamment
incident
incirconcis
inciser
incision
incite
inclination
incline
incliner
inconnu
inconnue
inconnus
incontrolable
inconvenient
inconvenients
incorrigible
incroyable
incubation
inde
indefiniment
indefinissable
indemnite
indeniable
independance
independant
independante
indes
indescriptible
indeterministe
index
india
indian
indica
indication
indie
indien
indienne
indiens
indifference
indifferent
indigene
indigenes
indigents
indignation
indigne
indigo
indigofera
indii
indija
indiquait
indique
indiquer
indirect
indispensable
individu
individuelle
individus
indiya
indo
indochine
indonesia
indonesie
indonesien
indonezia
indonezija
industrie
industriel
industrielle
industrielles
industriels
industries
industrieux
inedit
inedite
inedits
inegalites
inevitable
infame
infanterie
infecte
infection
inferieur
inferieure
inferieurs
infernal
infini
infinie
infiniment
infirmiere
infirmieres
infirmiers
influence
info
information
informations
informatique
informe
informer
infortunes
ingenieur
ingenieurs
ingere
ingo
ingoo
ingrat
inimitie
initia
initiale
initiation
initiative
injure
injures
injuste
injustice
innocemment
innocence
innocent
innocente
innocentes
innocents
innombrables
inoffensifs
inouie
inquiet
inquiete
inquieter
inquiets
inquietude
ins
inscription
inscrit
insecte
insectes
insecticide
insensiblement
insertion
inside
insigne
insistance
insiste
insolence
inspecteur
inspection
inspiration
inspire
installa
installation
installe
installee
installer
installes
instamment
instant
instantanement
instants
instinct
institut
institute
instituteur
institution
institutions
institutrice
instruction
instructions
instruire
instruit
instrument
instruments
insucces
insulae
insulte
insulter
insultes
insupportable
insurge
insurrection
insurrections
integral
integrale
integrante
integration
integre
intellectual
intellectuel
intellectuelle
intellectuels
intelligence
intelligent
intelligente
intelligiblement
intense
intenses
intensite
intention
intentions
interceder
intercepter
intercession
interdiction
interdit
interessait
interessant
interessante
interesse
interesser
interet
interets
interieur
interieure
interieurs
interlingua
interlingue
interlocuteur
intermediaire
interminable
interminables
international
internationale
internationales
internationaux
interne
internet
interpretation
interprete
interprogetto
interrogation
interroger
interrompit
interrompu
interruption
interstellaire
intervalle
intervalles
intervenir
intervention
interventions
intervient
interview
intestin
intestine
intestines
intestins
intime
intimite
into
intolerable
intrepide
intrigue
introduction
introduire
introduisant
introduisit
introduit
introduite
inuktitut
inutile
inutilement
inutiles
invalide
invalides
invasion
inventaire
invente
inventee
inventer
inventeur
invention
inventions
inverse
invincible
invisible
invisibles
invita
invitation
invite
invites
io
ip
ipomee
ipomoea
iq
ir
ira
irai
irait
irak
iran
iri
iris
irlandais
irlande
iroko
iron
ironie
irreparable
irresistible
irritation
irrite
irriter
irruption
irvingiaceae
is
isaac
isabelle
isbn
islam
islamique
island
islanda
islandais
islande
islandi
islandia
islandija
isle
isole
isolee
isolement
isoles
israel
issu
issue
issus
ist
istocni
it
ita
itali
italia
italie
italien
italienne
italiens
italija
italuii
italya
items
itineraire
its
iu
iv
ivan
ivanhoe
ive
ivoire
ivre
ivres
ivresse
ivrogne
ivrognerie
iw
ix
iy
iz
izini
iʁ
j
j0
j1
j2
j3
j4
j5
j6
j7
j8
j9
ja
jaapan
jabot
jack
jackfruit
jacky
jacob
jacqueline
jacques
jadis
jahr
jahren
jaillit
jakarta
jalousie
jalousies
jaloux
jam
jamaica
jamaika
jamais
jamajka
jambe
jambes
james
jan
jane
janeiro
janvier
japan
japana
japani
japanska
japon
japonais
japonaise
japonia
japonsko
jaquier
jardin
jardinier
jardins
jargon
jatropha
jaune
jaunes
jaures
jav
java
javelot
jaʒ
jb
jbo
jc
jd
je
jean
jeanne
jeden
jeder
jehan
jemand
jemandem
jemanden
jerasimof
jeremie
jerome
jerusalem
jesuit
jesuites
jesus
jet
jeta
jetait
jetant
jetat
jete
jetee
jeter
jeterent
jetes
jette
jettent
jetzt
jeu
jeudi
jeune
jeunes
jeunesse
jeux
jezik
jezyk
jf
jg
jh
ji
jim
jimmy
jiʁ
jj
jk
jl
jm
jn
jo
joachim
job
jobs
joe
joel
johann
johannes
john
johnny
johnson
joie
joies
joindre
joint
joints
joli
jolie
jolies
jolis
joly
jon
jonas
jonathan
jordan
joris
jose
joseph
josephine
jouait
jouant
joue
jouent
jouer
joues
joueur
joueurs
jouhandeau
jouir
jouissance
jouit
jour
jourgeot
journal
journalist
journaliste
journalistes
journaux
journee
journees
jours
joyeuse
joyeux
jp
jpg
jq
jr
js
jt
ju
juan
juba
judaisme
judas
judeo
judge
judiciaire
judiciaires
juge
jugea
jugement
jugements
jugent
juger
juges
jugez
juif
juifs
juillet
juin
juive
jules
julia
julian
julie
julien
juliette
julius
julliard
jumeau
jumeaux
jumelle
jumelles
jument
june
junge
junger
jungle
junior
jupe
jupiter
jupons
jura
jure
jurer
juridiction
juridique
jurisprudence
jurons
jury
jus
jusqu
jusque
just
juste
justement
justes
justesse
justice
justification
justifier
justin
justine
jute
jv
jw
jx
jy
jz
jœʁ
jɑ
jɔ
jə
jɛ
jɛʁ
k
k0
k1
k2
k3
k4
k5
k6
k7
k8
k9
ka
kaa
kaamelott
kaandaa
kab
kabarde
kabinee
kabo
kabyle
kachoube
kada
kadagolo
kadawa
kafe
kaffee
kaga
kai
kaingo
kaj
kaka
kakaradengbe
kakauka
kakaweyee
kakele
kaki
kako
kal
kala
kalaallisut
kalanchoe
kalangba
kalba
kalee
kam
kama
kamarade
kamata
kamba
kambiri
kamel
kameme
kamene
kameroen
kamerun
kamerune
kamita
kampala
kan
kanada
kanadaa
kanago
kanapee
kanata
kanda
kandaa
kanga
kangale
kangali
kangame
kangango
kangaradia
kangba
kangbi
kangbingo
kange
kangi
kango
kangourous
kangoya
kangu
kanifu
kanivo
kanivoo
kann
kannara
kannga
kant
kaolin
kap
kapa
kapakua
kapampangan
kapi
kapita
kapitula
kapok
kapokier
kaputt
kara
karakalpak
karakanzi
karako
karambulee
karan
karapiri
karatchai
karate
karavati
karine
karite
karl
karr
karthala
kas
kasa
kase
kashmiri
kate
katebongo
kathala
kati
katikati
katra
katze
kaufen
kawa
kawoya
kay
kaya
kayee
kazaka
kazakh
kazan
kaziee
kaʁ
kaʒ
kb
kbd
kc
kd
ke
kebab
kebe
kebeek
kebenaven
keel
keep
kein
keine
keinen
keke
kekembeti
kekereke
kekete
kele
kelele
kembi
ken
kena
kenge
kengelibaa
kengo
kenia
kenija
keniya
kenne
kennedy
kennen
kenya
kenyaa
kepi
kere
kerebende
kerere
keretien
kerewere
kete
kevin
key
keys
kf
kg
kh
khadra
khakasse
khartoum
khaya
ki
kiakia
kick
kidiri
kieli
kif
kigali
kigelia
kii
kikiri
kikongo
kikuyu
kilikili
kill
killer
kilo
kilogram
kilogramme
kilogrammes
kilometer
kilometere
kilometre
kilometres
kiloo
kilos
kiloti
kim
kimya
kina
kind
kinda
kindanda
kinder
king
kingdom
kinini
kinkeliba
kinkin
kio
kion
kipee
kipling
kir
kirghiz
kiri
kirikiri
kiringo
kirundi
kisoro
kiss
kite
kiti
kitts
kizama
kizi
kj
kja
kje
kjh
kjɔ
kk
kl
kla
klasse
kle
kleidung
klein
kleine
kli
klɔ
klɛʁ
km
kmere
kmr
kn
knife
knock
know
knowledge
known
ko
kobe
kobebisa
kobela
kobika
kobima
kobo
kobodawa
koboma
koboya
kobozo
kobɔ
kobɔngisa
kobɛ
kochen
koda
kode
kodekua
kodelege
kodivuara
kodogoro
kodoro
kodorosese
kodro
kofanda
kofo
kogara
kogbene
kogbia
koi
koiko
kok
kokanga
kokata
koko
kokoka
kokoliko
kokoma
kokombo
kokomisa
kokoo
kokora
kokoro
kokpi
kokumisa
kokɔ
kola
koleka
kolela
koli
kolingo
kolo
koloba
kolobaloba
kolobo
kolokoto
kolongo
kolumbia
kolumbija
kolɛ
komanda
komandee
komandema
kombe
komberee
kombo
kombuka
kombuta
kome
komi
komm
kommen
kommt
komoro
kon
konde
kondima
kondo
kondome
konga
kongba
kongo
kongoo
konnen
konnte
kono
konongo
konyangwisa
konza
kopayoka
kopesa
kopf
kopia
kopo
kopya
kora
korb
koreyeen
koro
korobo
korodu
korogbo
korongo
korongu
kororo
kosala
kosangisa
kosipo
koso
kosta
kostarika
kosukola
kosɛ
kot
kota
kotambola
kotambwisa
kotanga
kotara
kotava
kote
koti
kotiya
koto
kotoon
kotɔ
kotɛ
kouloub
koumyk
koya
koyebisa
koyo
koyraboro
koyt
kozo
kozongisa
kozoni
kozonyomo
kozwa
kp
kpa
kpaa
kpabanza
kpafondo
kpaka
kpakata
kpaklo
kpakoro
kpakpa
kpakpakpa
kpaku
kpale
kpanda
kpangaba
kpangbala
kpangbara
kpangblamusu
kparakongo
kpaya
kpazuru
kpe
kpekpe
kpelikua
kpenda
kpene
kpengba
kpengo
kpenzu
kpere
kperekpere
kpete
kpi
kpia
kpiango
kpindiri
kpingba
kpja
kplatisho
kplon
kpo
kpoka
kpondo
kpongo
kpongubu
kpopa
kporo
kpoto
kpu
kpukangbi
kpukpu
kpungbo
kpungbɔ
kpungubu
kpupa
kpɔ
kpɛ
kq
kr
krach
kraft
krampel
krc
kreool
kreuz
kro
kroa
kroasia
kroasii
kroatia
kroatien
krokodil
krompir
ks
ksh
kt
ku
kua
kuala
kuali
kuatere
kuayanga
kuba
kubu
kuche
kuda
kue
kugbe
kugbekasa
kuh
kui
kuku
kukulu
kukuna
kukuru
kula
kuli
kum
kuma
kumba
kumbamba
kun
kunda
kundi
kundu
kune
kungba
kungbi
kungbingo
kungo
kungu
kuni
kunibe
kupu
kurde
kurt
kuru
kurungu
kusa
kusala
kusara
kusere
kuta
kutu
kutukutu
kutunembo
kuyaa
kuʁ
kv
kw
kwa
kwe
kwɛ
kx
ky
kyl
kz
kæn
kæt
kɑ
kɒn
kɔ
kɔl
kɔli
kɔʁ
kə
kəl
kəm
kən
kɛ
kɛl
kɛs
kɛt
kɛʁ
kɥi
kɪt
kʁa
kʁe
kʁi
kʁu
kʁy
kʁɔ
kʁɛ
kʌm
l
l0
l1
l2
l3
l4
l5
l6
l7
l8
l9
la
laa
laala
labeo
labitani
lablab
labor
laboratoire
laboure
labro
lac
laccosperma
lacey
lache
lachen
lacher
lachete
lack
lacroix
lacs
lad
laden
lady
lafabee
laffont
lafleur
lahngo
lai
laicite
laideron
laine
laique
laiques
laissa
laissaient
laissait
laissant
laisse
laissee
laissent
laisser
laissera
laisses
laissez
lait
laitiere
laitue
lakata
lakatango
lakeree
lakue
lakui
lakwe
lalamba
laliberte
lama
lamande
lamartine
lamb
lamba
lambert
lame
lames
lamiaceae
lampe
lampes
lan
lanca
lancant
lance
lancee
lanceolata
lancer
lances
land
landes
lando
landolphia
lang
langa
langage
langando
langba
lange
langi
lango
langsam
language
langue
languedoc
langues
langueur
lani
lanieres
lannea
lanore
lant
lantana
lantanaa
lanterne
lantier
laotien
lapara
laparaa
lape
lapin
lapins
laposo
laque
laquelle
laramoara
larbaud
larcier
lard
large
largement
larges
largeur
larmes
larose
larousse
larve
larves
las
laso
lasoro
lasse
lassen
lasserre
lassitude
last
lateen
later
latex
lati
latifolia
latifolium
latin
latine
latines
latins
latitude
lattes
laugh
lauraceae
laure
laurence
laurent
laurier
lausanne
lautrec
lav
lavabo
laval
lave
laveaux
laver
lavoisier
lavu
law
lawa
laws
lay
layenga
lazwari
lazy
laɪ
laɪt
laʁ
laʒ
lb
lc
ld
le
lead
leader
leaf
learn
learning
leave
leaved
leaves
leaving
lebanon
leben
lebrun
leclerc
leclercq
lecon
lecons
lecourrier
lecteur
lecteurs
lecture
lectures
leduc
leea
lefaure
lefebvre
left
legault
lege
legende
legendes
legeoko
leger
legere
legerement
legeres
legerete
legers
leggiparametro
leggiparametromodele
legion
legislatif
legislation
legislature
legistique
legitime
legitimite
lego
legrand
legs
legume
legumes
legumineuses
lehrer
leiche
leiden
leiris
leiten
leke
lekeke
lekengbi
lekengo
lekere
lekerengo
lekpa
lelaurin
lele
leleu
lembe
lembeti
lembio
lemeac
lemerre
lemoine
lemon
lemonde
lenda
lendemain
lendo
lengala
lengata
lengboro
lenge
lengo
lengua
lengungu
leningrad
lenoir
lent
lente
lentement
lentes
lenteur
lentilles
lents
lenze
leo
leon
leona
leonard
leone
leopard
leopold
lepa
lepere
lepointe
lepre
lequel
lernen
leroux
les
lesbos
lesen
lesions
lesoto
lesquelles
lesquels
lessive
lesson
leste
let
leta
letaa
lett
letton
lettre
lettres
leur
leurs
leva
levait
levant
leve
levee
lever
levi
levrault
levre
levres
levy
lewis
lexique
lezard
leɪ
lf
lg
lh
li
liaison
liaisons
liait
liane
lianes
liasse
liba
libaan
liban
libanda
libano
libanon
libebe
libela
liber
liberalisme
liberation
libere
liberent
liberer
liberes
liberia
liberie
liberija
liberte
libertes
libia
libii
libija
liboso
libraire
libraires
librairie
libre
librement
libres
libreville
librinova
libya
libye
libyen
libɔ
licence
lick
lid
lida
lie
liebe
lieben
liee
liees
liege
liegt
lien
liens
lient
lier
lierre
lies
liesse
lietuva
lieu
lieues
lieutenant
lieux
lievre
lievres
life
lift
ligboma
light
lightning
ligne
lignee
lignes
ligneuses
ligure
lij
lik
likambo
likanisi
like
likelelo
likisi
likodoro
likolo
likongo
likundu
likune
likuni
likunu
lili
liliaceae
lille
lilloise
lilongwe
lily
lim
lima
limba
limbourgeois
lime
limite
limitee
limitees
limiter
limites
limo
limondo
lin
linda
lindipa
lindisu
lindo
line
lingala
lingbi
lingbingo
linge
lingi
lingo
lingongu
lingots
lingu
lingua
lingue
linguistique
linguistiques
lingvo
lino
lion
lionceau
lionel
lions
lip
lipanda
lippia
liqueur
liquide
liquides
lire
lis
lisa
lisait
lisanga
lisant
lisanɔ
lisbonne
lise
lisent
lisoro
lisse
list
liste
listen
lisusu
lit
litaue
litauen
liter
literatura
literature
litho
lithuania
litiri
litouwen
litre
litres
lits
litteraire
litteraires
litteralement
litterature
litteratures
little
littre
lituana
lituania
lituanie
lituanien
lituanii
litva
litvanija
litvaniya
litvanya
litwa
litwanya
liv
live
lived
lives
livide
living
livrait
livre
livree
livrees
livrer
livres
livret
liwa
liʁ
lj
lja
lje
ljɔ
ljɛʁ
lk
ll
lld
lm
lmo
ln
lo
lobaye
loboma
lobɔ
local
locale
locales
localite
localites
locataires
location
locaux
lock
locomotive
locust
locution
loganiaceae
loge
logement
loger
loges
logiciel
logique
logis
loi
loic
loin
lointain
lointaine
lointains
loire
lois
loisir
lojban
lokasa
lokola
lokoso
lokoterezamba
lokumu
lolaka
lolenge
lolo
lombard
lombe
lome
londo
london
londongo
londres
long
longer
longevite
longo
longs
longtemps
longue
longuement
longues
longueur
lonzi
lonzingo
look
looking
lord
loriyee
loro
lorrain
lorraine
lors
lorsqu
lorsque
los
lose
loso
lost
lot
loti
lotissement
lotoko
lots
lotus
lotɛ
louange
louanges
louche
loue
louer
louis
louise
loup
loups
lourd
lourde
lourdement
lourdes
lourdeur
lourdines
lourds
louse
louvain
louve
louvre
louys
love
lovers
loʊ
lp
lq
lr
ls
lt
lu
lua
luanda
lubnan
luc
lucas
lucia
lucie
lucien
lucioles
luck
lucre
lucy
ludovic
ludwig
luee
lueur
luge
lugubre
lui
luku
lulu
lumbalumba
lumbu
lumiere
lumieres
luminaire
lumineux
lumpur
lundi
lundis
lune
lunette
lunettes
lungo
lungu
lungula
lunguu
lusaka
lustrer
luti
lutingo
lutte
lutter
luttes
lutz
luxe
luxembourg
luxembourgeois
luxuriante
luʁ
lv
lw
lx
ly
lya
lycee
lyon
lyonnaise
lys
lz
lœ
lœʁ
lɑ
lɔ
lɔt
lə
lən
ləʊ
lɛ
lɛk
lɛlɔ
lɛt
lɛʁ
lɪt
lɪŋ
m
m0
m1
m2
m3
m4
m5
m6
m7
m8
m9
ma
maalouf
mabanckou
mabe
mabele
maboko
mabɔ
mabɛ
mac
macabo
macaranga
macedonien
mach
mache
machen
machete
machette
machiavel
machine
machines
machoires
macht
macmillan
macon
maconnerie
macron
macrophylla
mada
madagascar
madagascariensis
madagasikara
madagaskar
madagaskara
madam
madame
madchen
made
madeleine
mademoiselle
madiridi
madone
mae
mafia
mafuta
mag
magasin
magasins
magazani
magazine
magazines
magazini
maghreb
magic
magie
magique
magnanime
magnard
magnetique
magnetiques
magnifique
magnifiques
magreb
magrib
mahogany
mahomet
mai
maigre
maigres
maigreur
mail
maili
maille
mailles
main
maine
maingo
mains
maintenant
maintenir
maintes
maintien
maints
maire
maires
mairie
mais
maison
maisonnette
maisonneuve
maisons
maitre
maitres
maitresse
maitresses
maitrise
maitriser
majeste
majestueux
majeure
major
majorite
maka
makabo
makako
makala
makando
makango
makara
makasi
makayabo
make
makes
making
makongo
makonzi
makoroo
mal
mala
malabo
malade
malades
maladie
maladies
malaise
malaisia
malajzia
malamu
malaquais
malaria
malasia
malatesta
malaui
malavi
malawi
malawii
malayalam
malaysia
malayziya
malcuit
male
malediction
malee
malefices
maleisie
malembe
malentendu
males
malesia
malezii
malezija
malezya
malgache
malgre
malherbe
malheur
malheureuse
malheureusement
malheureux
malheurs
malhonnete
mali
malice
malii
malin
malinga
mallarme
malle
malles
malo
maloba
malot
malotru
malraux
maltais
malterre
malvaceae
malɛ
mama
maman
mambere
mamelles
mamie
mamiwata
mammiferes
man
management
manager
manceau
manche
manches
manchette
manda
mandako
mandango
mandarin
mandat
manga
mangbele
mangbi
mangboko
mange
mangeaient
mangeait
mangeant
mangenge
manger
mango
mangoo
mangue
mangues
manguier
manguiers
maniement
maniere
manieres
manifestation
manifeste
manifestement
manifester
maniguette
manihot
manila
manioc
maniok
manipouri
mankee
mann
manner
mannois
manon
manqua
manquait
manquant
manque
manquent
manquer
mansfield
mansiet
mante
manteau
manuel
manuels
manuscrit
many
manzeke
manœuvre
manœuvres
maori
map
mapa
mapo
maputo
maquereau
maquillage
maquille
mar
mara
marabout
marais
marakuza
marantaceae
marara
marathe
marbre
marc
marcel
marcelle
march
marchaient
marchait
marchand
marchande
marchandise
marchandises
marchands
marchant
marche
marchent
marcher
marches
mardaga
mardi
mare
marecage
marechal
maree
marees
marge
margolle
margot
margouillat
marguerite
margueritte
marguier
mari
maria
mariage
mariages
marianne
marie
mariee
mariees
marier
maries
marijuana
marin
marine
marines
marins
mario
marion
marionnette
maris
maritime
maritimes
marivaux
marivole
mark
market
marketing
marmite
marne
maroc
marocaine
marocaines
marocains
marocco
maroch
marokko
maroko
marquant
marque
marquent
marquer
marques
marquis
marquise
marrakech
marriage
married
marroc
marron
marruecos
mars
marseillais
marseillaise
marseille
marteau
martel
marthe
martin
martine
martineau
martinica
martiniere
martinik
martinika
martinique
martyre
marx
mary
mas
masa
masanga
masaragba
mascate
maschine
masculine
maseka
masini
masoch
maspero
masque
masques
mass
massachusetts
massacre
massacres
masse
masses
massif
massillon
massive
masson
mastering
masua
masuwa
mat
matabisi
matanga
match
mate
matelas
matelots
materiaux
materiel
materielle
materiellement
materiels
maternel
maternelle
mathematique
mathematiques
mathias
mathieu
matiere
matieres
matin
matinee
mato
mats
matter
matthieu
mature
maturite
maudit
maudite
maudits
mauer
maupassant
mauretanien
mauriac
maurice
mauricien
mauricijus
mauricio
mauricius
mauritania
mauritanie
mauritanija
mauritiana
mauritius
maurois
maury
maus
mauvais
mauvaise
mauvaises
maux
mavritaniya
mawa
max
maxime
maximes
maximilien
maximum
may
maya
mayenne
mayere
maytenus
mayɛ
mazarin
mazende
mazindi
maɪ
maʁ
mb
mba
mbadi
mbage
mbai
mbakele
mbakoro
mbala
mbali
mbamba
mbambali
mbana
mbanda
mbanga
mbangi
mbango
mbangu
mbarambara
mbarata
mbasambala
mbata
mbaye
mbela
mbele
mbembe
mbenge
mbeni
mbenze
mbera
mbere
mbereka
mbeso
mbete
mbeti
mbetikapa
mbetinginza
mbetisango
mbetisu
mbeto
mbetroo
mbetti
mbi
mbilimbili
mbinda
mbindo
mbingo
mbio
mbipa
mbirimbiri
mbitimbiti
mbiwa
mbla
mblanga
mbo
mboka
mboko
mboma
mbombi
mbombo
mbombonzi
mbomo
mbomu
mbondo
mbonga
mbongo
mboo
mboro
mborola
mboto
mbotomon
mboyo
mbrambra
mbreya
mbu
mbua
mbuki
mbuli
mbulu
mbumbuse
mbunzu
mbupa
mbupu
mburu
mburuwa
mbutu
mbuyu
mbwa
mbɔ
mbɛ
mc
md
mdf
me
mea
meal
meambe
meaning
means
meat
meaux
mebe
mec
mecanicien
mecanique
mecaniques
mechamment
mechancete
mechanics
mechant
mechante
mechants
meche
mecontentement
medaille
medailles
medecin
medecine
medecins
media
medias
mediaspaul
medical
medicale
medicales
medicament
medicaments
medicaux
medicinales
medico
medievale
mediocre
medire
meditation
meditations
mediterranee
mediterraneen
meer
meet
meeting
mefiance
mehariste
mehr
meilleur
meilleure
meilleures
meilleurs
mein
meine
meinem
meinen
meiner
meinung
meka
mekango
mekaze
meksiko
melaient
melancolie
melancolique
melange
melanges
mele
melee
melenge
meler
meles
meliaceae
melinaa
melo
melodie
melon
melotte
membrane
membre
membres
meme
memento
memes
memoire
memoires
memorial
men
menacant
menace
menacer
menaces
menage
menager
menagere
menageres
menagers
menages
menant
mendicite
mendier
mene
mener
menga
mengo
mensch
menschen
mensonge
mensonges
ment
mental
mentale
menteur
menteurs
menteuse
menthe
mention
mentionne
mentir
menton
menu
menus
mepris
meprisant
meprise
mepriser
mer
merci
mercier
mercredi
mercure
merde
mere
meredee
meres
meric
meridional
meridionales
merimee
meritaient
merite
meriter
meriterent
merle
merlin
mermoz
merovingiens
mers
mervale
merveille
merveilles
merveilleuse
merveilleuses
merveilleux
mes
message
messagerie
messages
messe
messer
messieurs
messire
mesurait
mesure
mesurer
mesures
met
metal
metallique
metalliques
metallurgie
metamorphose
metamorphoses
metaphysique
metaux
meter
methode
methodes
methodique
methodiquement
metier
metiers
metre
metres
metro
mets
mettait
mettant
mettent
mettez
mettra
mettrait
mettre
metz
meuble
meubles
meules
meurs
meurt
meurtre
meurtres
meurtrier
meurtris
meuse
meute
mexicain
mexican
mexico
mexiko
mexique
meya
meyer
meza
mezangere
mezieres
meɪl
mf
mfe
mg
mh
mi
miamara
mich
michael
michaud
michel
michele
michelet
michelle
micranthum
microbes
middle
midi
miel
mien
mienne
miettes
mieux
might
mignon
migrations
mil
milady
milan
milch
mile
milieu
milieux
militaire
militaires
militante
militants
military
milk
mille
millenaire
miller
milles
millet
milliards
milliers
million
millions
millon
mimosa
min
mina
mince
minces
mind
mindong
mine
minerai
minerais
minerale
minerales
mines
minet
mineur
mineurs
mingi
mingo
mingongo
mingrelien
minh
mini
minier
minimini
minister
ministere
ministre
ministres
minnan
mino
minsk
minuit
minuscule
minute
minuten
minutes
minutieux
mioches
miombe
miquelon
mir
mirabeau
miracle
miracles
miraculeuses
mirbeau
mirent
miro
miroir
miroirs
mirror
mis
misa
mise
miserable
miserables
misere
miseres
misericorde
misery
mises
miso
miss
mission
missionnaire
missionnaires
missions
mist
mister
mit
mitan
mitchell
mitere
mitigoro
mittwoch
mixte
miʁ
mj
mje
mjɔ
mk
ml
mlle
mm
mme
mn
mo
moabi
mobali
mobile
mobiles
mobilier
mobilisation
mobimba
mobutu
mobylette
mobylettes
mobɛ
mochte
mock
mode
modele
modeles
moderer
moderne
modernes
modernite
modes
modeste
modiano
modifiant
modifier
modo
modompte
module
moehama
mogadiscio
mohamed
moi
moindre
moindres
moine
moineau
moineaux
moines
moins
moira
mois
moisson
moitie
mokanda
mokcha
mokenge
mokerelo
moko
mokolo
mokondo
mokonzi
mokopete
mokpakpa
mokrievitch
mokɔ
mokɔlɔ
mokɛ
molangi
mole
molecules
molenge
moliere
molinga
molle
molles
mollis
molongo
molozanana
molɔ
molɔngɔ
mombango
mombongo
mombulu
mome
moment
moments
mon
mona
monarchie
monday
monde
mondes
mondial
mondiale
mondialisation
monetaire
money
monganga
mongault
mongol
monguna
moninga
monique
moniteur
monk
monkey
monkɛ
monnaie
monodora
monopole
monotone
monotonie
monrovia
monseigneur
monsieur
monstre
monstrueuse
mont
monta
montag
montagne
montagnes
montaient
montaigne
montait
montant
montchrestien
monte
montee
monter
month
montherlant
montmartre
montparnasse
montpellier
montra
montrait
montrant
montre
montreal
montrent
montrer
montres
monts
montserrat
montsoreau
monture
monument
monuments
monya
monɔkɔ
moon
moped
moque
moquer
moraceae
moral
morale
morales
morand
moraux
morceau
morceaux
morcellement
mord
mordre
mordu
more
moreau
morel
moresby
morgen
morgue
morin
morinda
moringa
moris
morisi
moritani
moritania
moritanii
moritanya
morituri
morne
morning
morocco
moroko
moroni
morphologie
mort
mortane
morte
mortel
mortelle
mortels
mortes
mortier
mortiers
morts
mortuaire
morue
morvan
morvelle
mosala
mosali
mosambik
mosapi
moscou
moscow
moselle
mosika
mosoro
mosquee
most
mosuma
mosɔlɔ
mot
motema
motere
motete
moteur
moteurs
mothe
mother
motif
motifs
motindo
motion
moto
motokoo
motoo
motor
mots
motuka
motɛ
mouche
mouches
mouchoir
mouille
moule
moulin
moulins
mount
mountain
mourir
mourning
mourut
mouse
mousse
moustache
moustaches
moustiques
mouth
mouton
moutons
mouvant
mouvement
mouvements
mouvoir
move
movie
moyen
moyenne
moyens
mozambik
mozambika
mozambique
mozanbik
mozen
mozoko
mp
mpamba
mpasi
mpe
mpema
mpi
mposa
mpota
mpunda
mpɔ
mpɛ
mq
mr
mrena
mrs
ms
mt
mu
mua
much
mucuna
mue
muet
muette
muettes
mules
mulets
muller
multiflora
multiples
multiplication
multiplie
multiplient
multiplier
multitude
muna
mungo
muni
municipal
municipalite
munis
munitions
munzu
mupe
mur
muraille
murailles
mure
murger
muriel
murier
murir
muritanya
murmure
murmures
murs
mus
musa
musanji
musard
muscadier
muschel
muscle
muscles
musculaire
musee
museler
museum
mushroom
music
musical
musicale
musicien
musicienne
musiciens
musik
musique
muss
mussen
musset
must
musulman
musulmane
musulmans
mutation
mutations
mutilations
mutter
mutters
mv
mvale
mve
mvene
mveni
mvuka
mvupo
mw
mwa
mwana
mwasi
mwatha
mwete
mwɛ
mx
my
mya
myp
myrianthus
myristica
myristicaceae
myrtaceae
mystere
mysteres
mysterieuse
mysterieuses
mysterieux
mystification
mystiques
mythe
mythes
mythologie
mythologies
myʁ
mz
mæn
mœurs
mɑ
mɔ
mɔʁ
mə
mən
mənt
mɛ
mɛd
mɛl
mɛm
mɛn
mɛnt
mɛs
mɛtʁ
mɛʁ
mɪ
mɪs
mʌtʃ
n
n0
n1
n2
n3
n4
n5
n6
n7
n8
n9
na
nabanduru
nach
nachdenken
nacht
nackt
nacre
nadal
nadia
nage
nagel
nahuatl
naif
nail
nain
nains
nairobi
naissance
naissances
nait
naitre
naivete
nako
name
namen
namur
namzoure
nan
nana
nanaa
nanas
nancy
nane
nantes
nap
naples
napoleon
napolitain
nappe
naquet
narines
narration
nas
naseaux
nasillarde
nasse
nat
natal
natale
natalite
natation
nathalie
nathan
nation
national
nationale
nationalisme
nations
native
natron
natte
nattes
natur
naturaliste
nature
naturel
naturelle
naturellement
naturelles
naturels
natures
nauclea
naudeau
naufrage
naufrages
nauka
nauruan
nausee
nausees
navajo
navarre
navigation
navire
navires
nawe
nazira
naʁ
naʒ
nb
nc
nch
nci
nd
nda
ndagere
ndakandoko
ndako
ndali
ndambo
ndangba
ndangoro
ndani
ndao
ndapelele
ndapere
ndaperere
ndapre
ndara
ndaramba
ndarasa
nde
ndeke
ndekelende
ndeko
ndembe
ndembo
nden
ndende
ndene
ndenge
ndepandaa
ndi
ndia
ndiakani
ndiangbereye
ndiayanga
ndidro
ndika
ndili
ndima
ndimo
ndiri
ndo
ndogigi
ndokoro
ndokua
ndolo
ndolotingo
ndombe
ndongba
ndongo
ndoni
ndoro
ndoto
ndowa
ndoye
nds
ndu
ndukukota
ndumba
ndumbu
ndunda
ndundu
nduru
ndurukpa
ndurusu
ndutu
nduzu
ndɔ
ndɛ
ndɛkɛ
ne
neanmoins
neant
near
neben
necessaire
necessairement
necessaires
necessite
necessites
necessiteux
nee
need
needle
needs
neem
nef
negation
neglige
negligeable
negociants
negociation
negre
negres
negro
nehmen
neige
neiges
nein
neka
nene
nenee
nengo
nenuphar
nepalee
nepali
nere
nerfs
nerval
nerve
nerveuse
nerveux
nes
net
nette
nettement
nettete
nettle
nettoyer
neue
neuen
neuf
neuve
neuves
neuvieme
never
nevers
neveu
neveux
nevis
new
newari
news
newsletter
next
nez
neɪ
neɪm
nf
ng
nga
ngaako
ngadi
ngago
ngai
ngaidemona
ngalafo
ngalasso
nganda
ngandangombe
nganga
ngangi
ngangu
ngara
ngasa
ngasi
ngata
ngatua
ngba
ngbaa
ngbaanda
ngbada
ngbako
ngbakpa
ngbanga
ngbangba
ngbangbo
ngbangere
ngbedede
ngbenda
ngbene
ngbengbe
ngbere
ngberere
ngbi
ngbii
ngbiii
ngbingbi
ngbo
ngbolo
ngbonda
ngbonga
ngbongbolo
ngbongboro
ngbongo
ngbugu
nge
ngeenge
ngende
ngenge
ngengeru
ngengo
ngere
ngi
ngia
nginya
nginza
ngo
ngoalo
ngoangoa
ngobo
ngodo
ngoi
ngoli
ngolo
ngolomosobe
ngombe
ngombi
ngonda
ngondoromango
ngongo
ngongono
ngonzo
ngooka
ngoro
ngu
ngube
ngubi
nguen
nguhingo
ngume
ngunde
ngundongo
ngungu
ngunu
ngunza
ngunzapa
nguru
ngusu
nguyen
ngya
ngɔ
ngɛ
ngɛli
nh
nhn
ni
nia
niama
niamey
nicaragua
nice
nichent
nicher
nicholas
nicht
nichts
nickleby
nicolas
nicole
nid
nids
nie
niebe
niece
nier
nietzsche
nigeir
niger
nigera
nigeria
nigerie
nigerija
night
nije
nijer
nik
nika
nikaragua
nikaragva
nikpa
nil
nili
nilo
nine
ninga
nique
nis
nivakini
niveau
niveaux
nivoit
nixer
nizan
nizere
nizeria
niʁ
nj
nja
nje
njɔ
njɛʁ
nk
nkita
nkoma
nkombo
nkɔ
nl
nm
nn
no
nobilis
noble
nobles
noblesse
nocat
noce
noces
noch
nocturne
noel
nog
nogai
nohain
noir
noire
noires
noirs
noise
noix
nom
nomade
nombre
nombres
nombreuse
nombreuses
nombreux
nombril
nomma
nomme
nommee
nommer
nomoro
noms
non
nonchalamment
noon
nora
nord
norden
norge
normal
normale
normalement
normand
normandie
normant
norme
normes
norsko
north
noruega
norvegia
norvegien
norvegija
norveska
norvezi
norway
norwegen
nos
nose
nosorog
nostalgie
not
notaire
notamment
note
noter
notes
nothing
nothomb
notice
notices
notion
notions
notre
notres
nouakchott
nourri
nourrice
nourrir
nourrissent
nourrisson
nourrit
nourriture
nous
nouveau
nouveaux
nouvel
nouvelle
nouvellement
nouvelles
nov
nova
november
novembre
novial
novo
now
nowele
noyau
noye
noʊ
np
nq
nr
nrf
nrm
ns
nse
nsima
nso
nsɔ
nt
ntaba
ntembe
ntina
ntoma
ntɔ
nu
nuage
nuages
nuance
nucleaire
nue
nuee
nuees
nues
nuire
nuisibles
nuit
nuits
nul
nulle
nullement
nullite
number
numbers
numerique
numero
numeros
nummer
nun
nuptialite
nuque
nur
nus
nut
nutmeg
nutrition
nv
nw
nwaʁ
nx
ny
nyama
nyau
nye
nyenye
nyi
nyigaduru
nyigamvara
nyikoli
nyilikolo
nyindu
nyinguru
nyitaba
nymphaea
nymphaeaceae
nynorsk
nyo
nyon
nyongo
nyɛ
nz
nzabi
nzai
nzala
nzalakodi
nzambo
nzangi
nzango
nzanzaamboli
nzanzara
nzapa
nzara
nze
nzeen
nzela
nzen
nzene
nzenze
nzere
nzerekasa
nzerengo
nzerere
nzete
nzi
nzia
nzilo
nzina
nzinga
nzingo
nzo
nzobe
nzoko
nzoku
nzoni
nzoroko
nzoto
nzototo
nœud
nœuds
nœʁ
nɑ
nɔ
nɔʁ
nə
nən
nəs
nəʊ
nɛ
nɛa
nɛl
nɛs
nɛt
nɛʁ
nɥi
nɪs
nɪŋ
o
o0
o1
o2
o3
o4
o5
o6
o7
o8
o9
oa
oasis
ob
obala
obei
obeir
obeissance
obeit
object
objectif
objection
objet
objets
obligation
obligatoire
oblige
obligee
obliger
obliges
obscene
obscur
obscure
obscures
obscurite
obscurs
obseques
observait
observateur
observation
observations
observe
observer
obsolescence
obstacle
obstacles
obstination
obstine
obtenir
obtention
obtenu
obtient
obu
obus
oc
occasion
occasionne
occasionnellement
occasions
occident
occidental
occidentale
occidentalis
occitan
occupaient
occupation
occupations
occupe
occupee
occuper
occupes
ocde
ocean
och
ochnaceae
ocimum
octave
octobre
od
oder
odette
odeur
odeurs
odile
odorat
oe
of
off
offense
offensive
offert
office
officer
officiel
officiellement
officier
officiers
officinale
offraient
offrait
offrande
offre
offrent
offres
offrir
offrit
oft
often
og
oh
ohabolana
ohne
oi
oie
oies
oif
oignon
oignons
oil
oise
oiseau
oiseaux
oj
ok
oke
oko
okpo
okra
oku
ol
old
olive
oliver
olivier
oliviers
ollendorff
ollivier
olympique
olyra
om
ombre
ombres
omene
omer
omission
omnibus
on
once
oncle
ondee
ondes
one
oneself
onfray
ongbo
ongles
ongo
only
ont
onu
onze
oo
op
opale
open
opera
operateur
operation
operations
opere
operent
operer
opfer
opiniatre
opiniatrete
opinion
opinions
opium
opportunite
opposant
oppose
opposee
opposer
opposes
opposition
opprimes
optimiste
option
optique
opulence
oq
or
orage
oraison
oraisons
orale
orange
oranger
oranges
oranze
orchard
orchestre
ordeal
order
ordinaire
ordinairement
ordinaires
ordinateur
ordonna
ordonnance
ordonne
ordonner
ordre
ordres
ordure
ordures
oreille
oreiller
oreilles
org
organe
organes
organique
organiques
organisation
organise
organisee
organisees
organiser
organisme
orge
orgue
orgueil
orgueilleuse
orient
oriental
orientale
orientales
orientation
orientaux
oriente
orifice
originaire
original
originale
originaux
origine
originelle
origines
orleans
ormes
ormesson
orne
ornee
ornement
ornements
oro
orphelin
orpheline
orphelins
ort
orteil
orthographe
os
oscar
ose
oseille
osier
osio
oslo
ossete
osten
ostentation
ostralii
ostrovy
osttimor
ot
ota
ote
oter
otez
other
others
othon
otoci
otoki
otoo
otoro
ottawa
ou
ouagadougou
oubli
oubliant
oublie
oublier
oudmourte
oued
ouest
oui
ouie
ouighour
our
ouragan
ours
out
outil
outillage
outils
outre
ouvert
ouverte
ouvertement
ouvertes
ouverture
ouvrage
ouvrages
ouvrait
ouvrant
ouvre
ouvrent
ouvrier
ouvriere
ouvrieres
ouvriers
ouvrir
ouvrit
ouzbek
ov
ovale
ovca
over
overcome
ovide
ovuru
ow
own
owner
ox
oxalidaceae
oxford
oxyde
oxygene
oy
oz
ozouf
oʊ
p
p0
p1
p2
p3
p4
p5
p6
p7
p8
p9
pa
paan
pachto
pachyceras
pachyloba
pacification
pacifique
pacte
pagaille
pagao
page
pages
pagne
pagnol
paie
paiement
paien
pailhes
paille
pailles
pain
pains
paint
painting
pair
paire
paisible
paisiblement
paix
paka
pakara
pakistan
pakistani
pakt
pal
palace
palais
palanete
palase
palata
pale
palenquero
pales
palestine
paletuvier
paleur
pali
palier
palisota
palm
palme
palmes
palmier
palmiers
palu
paludisme
pam
pamplemousse
pan
panama
panaris
panayiotis
panckoucke
pandalo
pande
pandemie
pandoli
pandoo
pango
pangolin
panicum
panier
panique
panne
panneaux
pansement
pantalon
pantalons
pantheon
panther
panthere
panze
pap
papa
papai
papaya
papaye
pape
paper
paperasses
papiamento
papier
papiers
papillon
papu
papua
paquebot
paquebots
paques
paquet
paquets
paquistan
par
para
paraboles
parade
paradis
paradise
paradoxe
parages
paragraphe
paragraphes
paraguai
paraguay
paraissaient
paraissait
paraissent
parait
paraitre
parallele
paralleles
paralysie
paralytique
paraphe
parapluie
parasite
parasites
parasol
parata
parc
parce
parcelles
parchemin
parcourir
parcours
parcourue
parcourut
pardessus
pardon
pardonne
pardonner
pare
pareil
pareille
pareils
parent
parente
parents
paresse
paresseuse
paresseux
parfait
parfaite
parfaitement
parfois
parfum
parfume
parfumer
parfumerie
parfums
paris
parisien
parisienne
parisiennes
parisiens
park
parla
parlaient
parlait
parlant
parle
parlement
parlementaire
parlementaires
parlent
parler
parles
parlez
parlons
parmi
parny
parois
paroisse
parole
paroles
parquet
pars
part
partage
partagee
partager
partait
partei
partenaires
parthenogenese
parti
participant
participants
participation
participe
participent
participer
particules
particulier
particuliere
particulierement
particulieres
particuliers
partie
partiellement
parties
partir
partis
partisans
partit
partition
partout
parts
party
paru
parure
parut
parvenir
parvenu
parvenus
parvient
parvint
pas
pasa
pascal
pascale
pasee
pasengo
pasi
pasion
pasioon
pass
passa
passage
passager
passagers
passages
passai
passaient
passait
passant
passantes
passants
passe
passee
passees
passent
passer
passes
passez
passiflora
passifloraceae
passiflore
passion
passionne
passions
passons
past
pasteke
pasteque
pasteur
pat
pata
pataloon
patara
patate
pate
paternel
paternelle
path
pathologie
patience
patient
patients
patois
patriarche
patrice
patricia
patrick
patrie
patrimoine
patriot
patron
patrons
patte
pattes
paturage
paturages
pature
paul
paulin
pauline
paullinia
paume
paupiere
paupieres
pausole
pauvre
pauvres
pauvrete
pave
paves
pavillon
pavlov
pavlovsky
pawa
pawkins
pay
paye
payement
payer
payes
payo
payot
pays
paysage
paysages
paysan
paysanne
paysans
paʁ
paʒ
pb
pc
pcd
pd
pdc
pe
peach
peanut
pearl
pearson
peau
peaux
peche
pecher
pecheries
peches
pecheur
pecheurs
peigne
peigner
peinard
peindre
peine
peines
peint
peinte
peintre
peintres
peinture
peke
pekin
peko
pekoni
pele
peler
pelerin
pelerinage
pelifa
pembe
pen
penal
penard
penaud
pencha
penchant
penche
penchee
pencher
penches
penda
pendakonde
pendant
pendantes
pendants
pende
pendere
pendre
pendu
pendues
penetra
penetrait
penetration
penetre
penetrer
penible
penis
penitence
penitencier
pennisetum
pennsilfaanisch
penombre
pensais
pensait
pensant
pense
pensee
pensees
pensent
penser
pensez
pentaclethra
pentandra
pente
pentes
penzabi
penze
people
pepe
pepee
pepelependo
pepenyomo
pepere
pepiniere
pepinieriste
pepper
per
perce
percee
perception
percevais
percevoir
perche
perches
perd
perdait
perdent
perdit
perdre
perdreau
perdreaux
perdrix
perdu
perdue
perdues
perdus
pere
perec
peres
perfect
perfection
perfectionne
perfectionner
performance
pergaud
peril
perils
period
periode
periodique
perir
perle
perles
permanence
permanent
permanente
permet
permettait
permettant
permettent
permettez
permettra
permettrait
permettre
permis
permission
permit
pernicieuse
pernicieux
perochon
perou
perpendiculairement
perpetuel
perplexite
perrin
perron
perroquet
perroquets
perruque
perse
persecution
perseverance
persil
persistance
person
personnage
personnages
personnalite
personnalites
personne
personnel
personnelle
personnellement
personnelles
personnes
perspective
perspectives
persuade
persuader
perte
pertes
pertinemment
peru
pesait
pesant
pesante
pese
pesent
peser
peste
pesticides
pestle
pesu
pet
petanque
pete
petengo
peter
petersbourg
petersianum
petesu
petesungo
petit
petitdoigt
petite
petites
petits
petorole
petoroo
petri
petrir
petrole
pets
peu
peul
peuple
peuplement
peuples
peupliers
peur
peut
peuvent
peux
peyee
peɪ
pf
pferd
pg
ph
phagocytes
pharmaceutique
pharmaceutiques
pharmacie
phase
phaseolus
phedre
phenomene
phenomenes
phi
philip
philippe
philippinen
philippines
philosophe
philosophes
philosophie
philosophique
philosophiques
pho
phoenix
phone
photo
photographie
photographique
photos
phrase
phrases
phtisie
phyllanthaceae
phyllanthus
physalis
physicnut
physiologie
physiologiques
physionomie
physique
physiques
phytosanitaire
phytosociologique
pi
pialo
pialokua
piano
piaulements
pic
picard
picardie
pick
picture
pid
pie
piece
pieces
pied
pieds
piege
pieges
piemontais
pierre
pierres
pierson
piete
pieton
pietons
pieux
pigeon
pigeons
pignon
pih
pika
pikango
pilate
pile
piles
piliostigma
pilipili
pilipinas
pillage
pillards
pilon
pilori
pilot
pilote
pilules
piment
piments
pimpante
pin
pinarii
pince
pinceau
pindi
pindiri
pineapple
ping
pinii
pink
pinnata
pintade
pioche
pipe
piper
piperaceae
pipes
piquante
pique
piquer
piqure
piqures
piraha
pirates
pire
pires
piri
piripiri
piriwa
pis
pisa
piscine
pise
pisin
pisira
pisitase
pistache
piste
pistolet
piston
pit
pitaan
pitcairnais
pitie
pittoresque
pivot
pj
pja
pje
pk
pl
pla
placard
place
placee
placees
placement
placer
places
plafond
plage
plaide
plaider
plaidoyer
plaie
plaies
plaindre
plaine
plaines
plains
plaint
plainte
plaintes
plaira
plaire
plaisanterie
plaisanteries
plaisir
plaisirs
plait
plan
planche
planches
plane
planet
planete
planetes
planeur
plans
plant
plantain
plantations
plante
planter
plantes
plants
plaplamusu
plaque
plaques
plas
plastique
plat
plate
plateau
plateaux
plates
platine
platon
platre
plats
platycerium
platz
play
playing
ple
please
pleiade
plein
pleine
pleinement
pleines
pleins
pleurait
pleure
pleurent
pleurer
pleurs
pleut
pleuvait
pleuvoir
pli
plier
plis
pln
plodarisch
plomb
plon
plonge
plongee
plot
plu
pluie
pluies
plum
plumage
plume
plumes
plupart
pluriel
plus
plusieurs
plut
plutot
plwa
plø
plɑ
plɔ
plɛ
pm
pms
pn
pneu
pneus
pnt
po
poaceae
poc
poche
poches
pochette
pocket
pod
poe
poele
poeme
poesie
poesies
poete
poetes
poetique
pognon
poids
poigne
poignee
poignees
poignet
poignets
poil
poils
poing
poings
point
pointe
pointes
points
pointue
poire
poireau
poires
poirier
pois
poison
poisson
poissons
poitevin
poitrine
poivre
poko
pol
polaire
polan
poland
polandia
polani
pole
polele
polemique
polemiques
polen
police
polices
policier
policieres
policiers
polipa
polisi
politesse
political
politique
politiques
poljska
pollution
pologne
pololo
polona
polonais
polonee
poloni
polonia
polonya
polsa
polska
polsko
poltronnerie
polynesie
polystachion
polytechnique
polytechniques
pomboromusu
pome
pomelo
pomme
pommes
pommier
pompe
pompons
pona
ponde
pondi
pong
ponga
pongo
pono
ponon
pont
ponte
pontique
ponts
pool
poor
pop
popo
popokodoro
popoto
populace
populaire
populaires
population
populations
porc
porcelaine
porchat
porcs
poro
poroso
poroyanga
port
porta
portaient
portail
portait
portant
portatif
portative
porte
portee
portees
portefeuille
portekiz
portent
porter
portes
porteur
porteurs
portiere
portion
portiques
porto
portogallo
portoriko
portrait
portraits
portugais
portugal
portugale
portugali
portugalia
portugalija
portugaliya
portugalska
portugalsko
portugues
portulacaceae
posa
posait
pose
posee
posees
poser
poses
positif
position
positions
possedait
possede
possedent
posseder
possession
possibilite
possibilites
possible
possibles
post
poste
postes
posture
pot
potage
potato
poteau
potence
potiron
poto
potopoto
potron
pots
pou
poubelle
pouce
pouces
poudre
poudres
pouilleux
poulain
poule
poules
poulet
poulets
pouliche
pouls
poumon
poumons
poupee
pour
pourboire
pourghere
pourpier
pourpoint
pourpre
pourquoi
pourra
pourrai
pourraient
pourrais
pourrait
pourri
pourrons
pourront
poursuit
poursuite
poursuivaient
poursuivent
poursuivi
poursuivit
poursuivre
pourtant
pourvu
poussa
poussaient
poussait
poussant
pousse
poussee
poussent
pousser
pousses
poussiere
poussieres
poutre
pouvaient
pouvais
pouvait
pouvant
pouvez
pouvoir
pouvoirs
pouvons
poux
poverty
pow
power
pp
pq
pr
practice
pradeau
praia
prairie
prairies
praise
prat
pratiquant
pratique
pratiquer
pratiques
pray
pre
prealable
prealablement
precatorius
precaution
precautions
precede
precedent
precedente
precepte
preceptes
preche
precher
precieuse
precieuses
precieux
precipitation
precipite
precipiter
precis
precise
precisement
preciser
precision
precoce
preface
prefecture
preferable
preferait
preferant
prefere
preference
preferent
preferes
prefet
prehistoire
prehistorique
preis
prejudice
prejuges
prelevement
premier
premiere
premierement
premieres
premiers
prenaient
prenait
prenant
prend
prendra
prendrait
prendre
prends
prenez
prenne
prennent
prenom
preoccupations
preoccupes
preparait
preparation
preparations
prepare
preparent
preparer
pres
presage
presence
present
presentait
presentant
presentation
presente
presentee
presentement
presentent
presenter
presents
preservatif
preservatifs
preserver
presidence
president
presidente
presidentielle
presider
presque
press
presse
pressee
pressent
pressentiment
pressentiments
presses
pression
prestige
pret
prete
pretend
pretendait
pretendent
pretendre
pretendu
pretentieux
pretention
pretentions
preter
pretes
pretexte
pretre
pretres
prets
pretty
preuve
preuves
prevenir
prevention
previens
prevoir
prevu
pria
price
pride
prie
prier
priere
prieres
prieur
primaire
primate
prime
primitif
primitive
prince
princes
princesse
principal
principale
principalement
principales
principaux
principe
principes
prinsipe
print
printemps
prirent
pris
prise
prises
prison
prisonnier
prisonniers
prisons
prit
prive
privee
priver
prives
privilege
prix
pro
probabilites
probable
probablement
problem
probleme
problemes
problems
procede
proceder
procedes
procedure
proces
procession
processus
prochain
prochaine
proche
proches
proclamant
proclamation
proclame
proclamer
procure
procurer
procureur
prodigieuse
producteurs
production
productions
produire
produisaient
produisant
produisent
produisit
produit
produite
produits
prof
profanation
profane
professeur
professeurs
profession
professionnel
professionnelle
professionnels
profil
profit
profitant
profite
profitent
profiter
profiteur
profits
profond
profonde
profondement
profondes
profondeur
profondeurs
profonds
profusion
progeniture
program
programmation
programme
progres
progresser
progressivement
proie
projet
projets
proletaire
proletariat
proletarienne
prologue
promenade
promenades
promenait
promene
promener
promesse
promesses
promet
promettait
promettre
promis
promise
prompte
promptement
prononce
prononcer
prononciation
pronostic
proof
propagande
prophet
prophete
proportion
propos
proposa
propose
proposees
proposer
proposition
propositions
propre
proprement
propres
proprete
proprietaire
proprietaires
propriete
proprietes
prosper
prosperite
prostituee
prostituees
prostitution
prostrata
protecteur
protection
protectrice
protege
protegee
proteger
proteines
protestantisme
protestants
protester
proudhon
proust
prouve
prouver
provenait
provenance
provenant
provence
proverbe
proverbes
providence
provient
province
provinces
provinciales
provisions
provisoire
provoque
provoquer
proximite
prudence
prudent
prunier
pruriens
prusse
ps
pseudonyme
psychanalyse
psyche
psychologie
psychologique
psychologue
pt
pteridophyta
pteris
pu
puante
publibook
public
publication
publications
publicite
publics
publie
publiee
publier
publies
publique
publiquement
publiques
publishing
publishroom
puce
pucelle
pucerons
pudeur
pudica
pue
puerto
puis
puiser
puisqu
puisque
puissance
puissances
puissant
puissante
puissants
puisse
puissent
puits
pull
pulp
pulpe
pulusu
pumba
pumbu
punaise
punaises
puni
punie
punir
pupe
pupille
pupu
pupulenge
pur
pura
pure
puree
purement
pures
purgatoire
purple
purtugal
puru
pus
pusa
pusiere
pustules
pusu
pusupusu
put
putain
putrefaction
puʁ
pv
pw
pwa
pwɛ
px
py
pycnanthus
pygmalion
pygmee
pygmees
pyl
pyramide
pyrenees
pythocles
python
pyʁ
pz
pœʁ
pɑ
pɔ
pɔʁ
pə
pən
pɚ
pɛ
pɛd
pɛɹ
pɛʁ
pɜ
pɝ
pɥi
pʁa
pʁe
pʁi
pʁɑ
pʁɔ
pʁɔs
pʁə
pʁɛ
q
q0
q1
q2
q3
q4
q5
q6
q7
q8
q9
qa
qb
qc
qd
qe
qf
qg
qh
qi
qj
qk
ql
qm
qmi
qn
qo
qp
qq
qr
qs
qt
qu
quae
quai
quais
qualifier
qualite
qualites
quamoclit
quand
quant
quantique
quantite
quantites
quantum
quarantaine
quarante
quart
quarte
quartier
quartiers
quarto
quarts
quasi
quasiment
quatorze
quatre
quatrefages
quatrieme
que
quebec
quebecois
quebecoise
quechua
queen
quel
quelconque
quelle
quelles
quelqu
quelque
quelquefois
quelques
quels
quemander
queneau
quenia
quentin
querangal
querelle
querelles
quesnay
question
questions
quete
queue
qui
quichotte
quickly
quiconque
quiet
quinine
quinquina
quinzaine
quinze
quittait
quitte
quittent
quitter
quoi
quoiqu
quoique
quotidien
quotidienne
quotidiennes
quotidiens
qv
qw
qx
qy
qz
qıtay
r
r0
r1
r2
r3
r4
r5
r6
r7
r8
r9
ra
rabalan
rabat
rabbit
race
races
racheter
racine
racines
racisme
raconta
racontait
raconte
raconter
radical
radicaux
radio
radot
raffinage
raffineurs
rafle
rafraichissante
rage
railles
rain
rainbow
raisin
raisins
raison
raisonnable
raisonne
raisonnee
raisonnement
raisons
ramassa
ramasse
ramasser
rambai
rameau
rameaux
ramene
ramener
rampe
ramper
ramsay
ramure
ramuz
ran
randonnee
rang
rangee
rangees
ranger
rangs
raoul
raoult
rap
rape
raper
raphael
raphia
rapide
rapidement
rapides
rapidite
rappelait
rappeler
rappelle
rapport
rapporte
rapportee
rapporter
rapports
rapproche
rapprocher
rare
rarement
rares
ras
rase
raser
rasoir
raspail
rassemble
rassembler
rassurer
rat
rate
ration
rationalistes
rationnelle
rats
ratsel
rattache
rattacher
rattan
rattle
rauchen
rauque
rauvolfia
ravage
raven
ravenala
ravin
ravissante
raviver
ray
raye
raymond
rayon
rayons
rb
rc
rcf
rd
re
reaction
reactionnaire
reactions
read
reading
realisation
realise
realisee
realiser
realises
realite
really
rear
reason
rebel
rebelle
reboisement
rebours
rebutante
recemment
recent
recente
recentes
reception
recette
recettes
recevait
recevoir
rechauffer
recherche
recherchee
rechercher
recherches
recht
recit
recitation
reciter
recits
reclame
reclinata
reclus
recoins
recois
recoit
recolte
recoltes
recommande
recommander
recompense
recompenser
recompenses
reconnais
reconnaissance
reconnait
reconnaitre
reconnu
reconnus
reconnut
reconstitution
reconstruction
reconstruire
record
recoudre
recourir
recours
recouvert
recouverte
recouvraient
recouvre
recouvrent
recouvrer
recriminations
rectangles
rectum
recu
recue
recueil
recueilli
recueillir
recueillis
recues
reculent
reculer
recus
recut
recyclage
red
redeker
redige
rediger
redoutable
redressement
redresser
reduire
reduit
reduite
reduits
reed
reedition
reel
reelle
reellement
reels
refaire
refait
refectoire
reference
referma
reflechi
reflechir
reflechit
reflet
reflets
reflexes
reflexion
reflexions
reforme
reformes
refractaires
refrigerateur
refuge
refugier
refugies
refus
refusa
refusait
refuse
refusent
refuser
regal
regard
regarda
regardaient
regardais
regardait
regardant
regarde
regardent
regarder
regardez
regards
regen
regime
regiment
regine
region
regionale
regions
regle
reglement
reglementation
regler
regles
reglisse
regnait
regne
regnen
regner
regnier
regression
regret
regrets
regrette
regrouper
regular
regulariser
regulier
regulierement
reguliers
reich
reign
reilly
reimpr
reims
rein
reine
reines
reins
reis
reise
reisen
rejean
rejoindre
relache
relacher
relais
relatifs
relation
relations
relative
relativement
relatives
releve
relevees
relever
relie
relief
religieuse
religieusement
religieuses
religieux
religion
religions
reliques
remain
remarqua
remarquable
remarquables
remarquait
remarque
remarquer
remarques
remarquez
remede
remerciement
remerciements
remercier
remet
remettre
remi
remis
remise
remit
remontant
remonte
remonter
remontrances
remords
remous
remplace
remplacee
remplacer
rempli
remplie
remplies
remplir
remplit
remuant
remuer
remunerations
remusat
remy
renaissance
renan
renard
renaud
rencontra
rencontre
rencontrent
rencontrer
rencontres
rend
rendaient
rendait
rendant
rendent
rendez
rendis
rendit
rendre
rends
rendu
rendue
rendues
rendus
rene
renee
renferme
renforcer
rennen
rennes
renommee
renoncement
renoncer
renouveler
renseignement
renseignements
rente
rentenmark
rentrait
rentre
rentree
rentrer
renverse
renversee
renverser
renvoyer
repair
repandait
repandre
repandu
repandue
reparation
repare
reparer
repartir
repartit
repartition
repas
repassage
repasser
repentir
repere
repertoire
repetant
repete
repeter
repetition
repit
replace
repliqua
replique
repond
repondait
repondent
repondez
repondis
repondit
repondre
reponds
repondu
reponse
reponses
reportage
reporter
repos
reposait
repose
reposent
reposer
reprenait
reprend
reprendre
representait
representant
representants
representation
representations
represente
representent
representer
repression
reprimande
repris
reprise
reprises
reprit
reprobation
reproche
reproches
reproduction
reproduire
reproduit
republic
republica
republicain
republicains
republiek
republik
republika
republique
republiques
repudiation
reputation
repute
requete
requin
reseau
reseaux
reserve
reservee
reservees
reserves
reservoir
residence
resignation
resineux
resistance
resistante
resistants
resister
resolu
resolution
resonner
resoudre
respect
respectable
respectait
respecte
respecter
respectes
respectivement
respectueux
respirant
respiration
respiratoires
respire
respirer
responsabilite
responsabilites
responsable
responsables
ressemblait
ressemblance
ressemble
ressemblent
ressembler
ressent
ressentiment
ressentiments
ressentir
ressort
ressorts
ressource
ressources
rest
resta
restai
restaient
restait
restant
restante
restaurant
restaurants
restauration
restaurer
reste
restee
restent
rester
restera
restes
restif
resultant
resultat
resultats
resulte
results
resume
resurrection
retablir
retablissement
retard
retenir
retentit
retenue
retient
retire
retirer
retoucher
retour
retournait
retourne
retournee
retourner
retrait
retraite
retribuee
retroussees
retrouve
retrouver
return
retusa
reuni
reunies
reunion
reunionnais
reunions
reunir
reunis
reunit
reussi
reussir
reussit
reussite
revait
revanche
revasser
reve
reveche
reveil
reveille
reveiller
revelation
revele
revelent
reveler
revenaient
revenait
revenant
revenants
revendre
revenir
revent
revenu
revenus
rever
reverie
revers
reves
revient
revinrent
revint
revision
revocation
revoir
revolte
revolter
revoltes
revolution
revolutionnaire
revolutionnaires
revolutions
revolver
revoquer
revue
revues
reybert
reykjavik
rf
rg
rh
rhetorique
rhin
rhinoceros
rhone
rhum
rhume
ri
ria
riait
riant
rib
ribambelle
ribaud
ribbon
rica
ricard
riccoboni
rice
richard
riche
richelieu
richer
riches
richesse
richesses
richtig
ricin
rico
rictus
rideau
rideaux
rides
ridicule
ridicules
ridoo
rien
riens
right
rigide
rigoureuse
rigoureusement
rigueur
rika
riko
rimbaud
rime
rinaldi
ring
ringard
rio
ripuaire
rire
rires
risque
risquent
risquer
risques
rit
rite
rites
ritual
rituania
rituel
rivage
rivages
rival
rivale
rivalite
rive
river
rives
riviere
rivieres
rixe
riz
riziere
rj
rja
rk
rl
rm
rmy
rn
ro
roa
road
roanne
robe
robert
roberts
robes
robespierre
robin
robinee
robinet
robinson
robitaille
robuste
roc
roche
rochefort
rochefoucauld
rochelle
rocher
rochers
roches
rocheux
rock
rockall
roder
rodolphe
roger
rogissart
roi
rois
roland
role
roll
rollin
rom
romain
romaine
romains
roman
romance
romanche
romani
romans
romantique
rome
romeo
rompre
rompu
ronces
rond
ronde
ronds
ronge
rongeur
rongo
ronsard
roo
room
root
roret
rosa
rose
roseau
roseaux
rosee
roses
rosier
rostand
rot
rotation
roti
rotin
rotir
roubaix
roudier
roue
rouen
roues
rouge
rougemont
rouges
rougeur
rougier
rougir
rougit
rougon
rouille
roula
roulaient
roulait
roulante
roule
roulement
rouler
rousse
rousseau
route
routes
routiere
routiers
rouvroy
roux
row
roy
royal
royale
royaume
royaute
roze
rp
rq
rr
rs
rt
ru
ruanda
ruandaa
ruban
rubans
rubber
rubiaceae
rubis
ruches
rucken
rude
rudyard
rue
rues
rugueuse
ruhe
ruine
ruined
ruiner
ruines
ruisseau
ruisseaux
ruisselant
rule
rulee
rumbatee
rumeen
rumeur
run
running
rup
rupture
rural
rurale
rurales
rus
ruse
ruses
rusi
rusia
rusii
rusija
rusko
rusland
russe
russes
russia
russie
russland
rustique
rustiques
rusya
rutaceae
ruth
ruwanda
rv
rw
rwanda
rx
ry
rythme
rz
rɔ
rɛ
s
s0
s1
s2
s3
s4
s5
s6
s7
s8
s9
sa
saa
saala
sabbat
sabine
sable
sables
sabots
sabre
sabundu
sac
saccage
sachant
sache
sacher
sack
sacre
sacree
sacres
sacrifice
sacrifices
sacs
sad
sade
safu
safuu
sagaie
sage
sagen
sages
sagesse
sagittifolium
sah
sahara
sahel
said
saillie
sain
saint
sainte
saintes
saintongeais
saints
sais
saisi
saisie
saisir
saisis
saisit
saison
sait
saki
sako
sakpa
sakpazende
sakuumbe
sal
sala
salade
salaire
salaires
salami
salango
salas
salaud
sale
salee
salete
saletes
salignac
salive
salle
salomon
salon
salons
saloon
salos
salt
salua
salue
saluer
salut
salvador
sam
samba
sambela
sambia
same
samedi
samen
samivel
samoan
samogitien
samstag
samuel
san
sanction
sanctionne
sanctuaire
sand
sandaga
sandaka
sandrine
sanduku
sanft
sang
sanga
sangbi
sangbilege
sanglant
sanglante
sanglier
sango
sangoo
sangsue
sangsues
sangu
sanitaire
sanitaires
sanois
sans
sansevieria
sanskrit
sant
santa
sante
santiago
santo
sanza
sanze
sanzeri
sanziri
sanzo
sao
saonoises
sapato
sapin
sapindaceae
sapins
sapotaceae
sara
saradini
sarah
saramutu
sarango
sarate
sarayevo
sarde
sarraute
sartre
sasa
sasigi
sat
satan
satellites
satere
saterlandais
satire
satisfaction
satisfaire
satisfait
satisfaite
saturday
satyre
sauber
sauce
sauf
saugrenues
saule
saules
saurais
saurait
saute
sauter
sauterelle
sauterelles
sauvage
sauvages
sauve
sauver
sauvetage
sauveur
savaient
savais
savait
savane
savant
savante
savantes
savants
savate
save
savent
saveur
savez
savine
savoie
savoir
savoirs
savon
savonnerie
savons
savoon
savourer
saw
saxon
say
saɪ
saɪd
saʒ
sb
sc
scandale
scandales
sceau
scenario
scene
scenes
sceptique
schaf
scheer
scheint
schiff
schlafen
schlagen
schlagt
schlussel
schmitt
schmutz
schnecke
schneider
schnell
schnitt
schon
school
schopenhauer
schreiben
schuld
schule
schussel
schwarz
schwein
schweinfurthii
schwester
schwimmbad
scie
science
sciences
scientifique
scientifiques
scission
scn
sco
scolaire
scolastique
scorpion
scots
scotsman
scott
scrape
scratch
scratched
scrupule
scrutin
sculpture
sd
se
sea
seance
seances
seant
season
seau
sebakari
sebastien
sebatango
sec
sechage
seche
secher
secheresse
seches
sechs
second
secondaire
seconde
secondes
secoue
secouer
secourir
secours
secret
secretaire
secretariat
secrete
secretement
secretes
secrets
secs
sectes
secteur
secteurs
section
securite
sedan
seduction
seduit
seduti
see
seed
seen
seesa
segbia
segbya
sego
seguin
segur
sehen
sehr
sei
seigle
seigneur
seigneurs
sein
seine
seinem
seinen
seiner
seins
seit
seite
seize
sejour
sejourner
sejseli
seka
sekamene
sekango
seko
sekpale
sekpango
seku
sel
selaf
selbst
selection
selerii
self
selizanzo
selle
selles
selon
seloro
sels
sem
semaine
semaines
semantique
sembe
sembla
semblable
semblables
semblaient
semblait
semblant
semble
semblent
seme
semences
semer
semi
semingi
semiologie
semizi
semolongo
sen
senat
senateur
senda
sendada
sendadunia
sendafi
sendagao
sendagi
sendago
sendakode
sendamati
sendamifi
sendanganga
sendasa
sendasen
sendasese
sendasu
sendatongo
sendavara
sendayanga
sende
sendia
sendo
sene
senegal
senegala
senegale
senegalensis
senegali
senestre
seng
sengbondo
senge
sengo
seni
senna
senni
sens
sensation
sensations
sense
sensibilite
sensible
sensiblement
sensibles
sensitive
sent
sentais
sentait
sentant
sentence
sentent
senteur
senti
sentier
sentiers
sentiment
sentiments
sentinelle
sentinelles
sentir
sentit
separate
separation
separe
separees
separent
separer
separes
sepe
sepela
sept
september
septembre
septentrion
septentrional
septentrionale
septieme
sepulture
sepultures
sequence
ser
sera
serai
seraient
serais
serait
serbe
serbo
sere
serein
sereme
serenite
sereno
serez
serge
sergent
seri
serie
series
serieuse
serieusement
serieuses
serieux
seriez
serions
serment
sermon
sermons
seroit
serons
seront
serotonine
serpent
serpents
serra
serre
serree
serrees
serres
serrure
serrurier
sert
servaient
servait
servant
servante
serve
servent
serveur
servi
service
services
serviette
servir
servirait
servit
serviteur
serviteurs
servitude
ses
sesam
sesame
sese
sesee
session
set
seta
setaria
sete
setere
setonbgi
seuil
seul
seule
seulement
seules
seuls
seve
seven
severe
severement
severite
sevices
sevigne
sewa
sewing
sex
sexe
sexes
sexualite
sexuel
sexuelle
sexuellement
sexuelles
sexuels
seychellen
seychelles
seyongoro
seyshele
seɪ
sf
sg
sh
shadow
shakespeare
shall
shameful
share
she
shea
sheep
sheet
sheka
shell
shiiu
shilii
shingazidja
shinuaa
ship
shirt
shit
shona
shop
short
shot
should
show
shower
shy
si
siaina
siam
siamea
sic
sich
sicher
sicilien
sick
sid
sida
side
sido
sie
sieben
siecle
siecles
siege
sieges
sien
sienne
siens
siera
sierra
sieste
sifflait
sifflant
siffle
sifflement
siffler
sifflet
sighebert
sight
sigi
sigigi
sigingo
sign
signal
signale
signature
signe
signes
signifiait
signification
signifie
siin
sijera
sika
sil
silence
silences
silencieuse
silencieux
silent
silesien
silhouette
silk
sillon
sillons
siloe
silure
silver
sim
siman
simenon
simisi
simon
simone
simple
simplement
simples
simplicite
simplification
simulait
simuler
simultanement
sin
sina
since
sincere
sincerement
sind
sindi
sindo
singa
singale
singame
singapor
singapore
singapour
singapur
singapura
singapuru
singe
singer
singes
singila
single
singo
singulier
singuliere
sini
sinon
sinople
sint
siokpale
siokpari
sion
siongahozo
sioni
sipo
siprage
sir
sire
sirene
siri
siribi
siriri
sirop
sis
sisa
sisongo
sister
sit
sita
site
sites
sitot
situation
situations
situe
situee
situees
situes
six
sixieme
size
sizoo
siʁ
sj
sja
sje
sjedinjene
sjø
sjøz
sjɑ
sjɔ
sjɛ
sjɛl
sjɛʁ
sk
ska
skin
sky
skɔ
sl
slave
sleeping
sleepings
slip
slogan
slovaque
slovaques
slovene
slowly
sm
small
smallways
smell
smg
smith
smoke
sn
snail
snake
snobs
snow
so
soap
sobenda
sobrement
sobriquet
soccer
social
sociale
sociales
socialisme
socialiste
socialistes
sociaux
societe
societes
society
sociologie
socrate
soda
sodaa
sodium
soedan
sofia
sofort
sogar
sohn
soi
soie
soient
soif
soigne
soigner
soigneusement
soin
soins
soir
soiree
soirees
soirs
sois
soit
soixante
soko
sol
solaire
solanaceae
solanum
solar
soldat
soldats
soleil
solennel
solennelle
solid
solidarite
solide
solidement
solides
solipedes
solitaire
solitaires
solitude
soll
sollers
solliciter
sollte
solomon
sols
soluble
solution
somali
somalia
somalie
somalii
somalija
sombo
sombre
sombres
some
someday
someone
something
sometimes
sommaire
somme
sommeil
sommer
sommes
sommet
sommets
son
song
songe
songeant
songer
songes
songhai
songo
sonnait
sonne
sonner
sonnerie
sonnet
sonnette
sonntag
sonore
sons
sonst
sont
soon
soore
sooro
sophie
sophisme
sopo
sorabe
sorbonne
sorcellerie
sorcier
sorciere
sorcieres
sorciers
sore
sorel
sorgho
sorghum
sorgo
soro
sorongo
sorry
sort
sortaient
sortait
sortant
sorte
sortent
sortes
sorti
sortie
sorties
sortir
sortirent
sortis
sortit
sosongo
sot
sotho
sottise
sottises
sou
souche
souci
soucie
soucis
soudain
soudaine
soudan
soude
souffert
soufflait
souffle
souffler
souffles
souffrait
souffrance
souffrances
souffrant
souffrante
souffre
souffrent
souffrir
soufre
souhaite
souhaiter
souillure
souk
soul
soulagement
soulager
souleva
soulevant
souleve
soulever
souliers
soumettre
soumis
soumise
soumises
soumission
sound
soundanais
soupcon
soupconne
soupcons
soupe
souper
soupiere
soupir
souple
souplesse
source
sources
sourcils
sourd
sourde
sourds
souriait
souriant
souriciere
sourire
sourires
souris
sourit
sous
soutenir
soutenu
soutenue
south
soutien
soutient
souvenir
souvenirs
souvent
souverain
souvestre
souviens
sovietique
soyez
sp
space
spagna
spain
spainn
spania
spanien
spanija
spaniya
spanje
spater
spathodea
spazieren
spe
speak
special
speciale
specialement
speciales
specialiste
specialistes
specialite
species
specifique
specifiquement
spectacle
spectacles
spectateur
spectateurs
spectre
speculation
sperme
sphere
sphinx
spicata
spider
spiegel
spiel
spielen
spinach
spinosa
spirale
spirit
spirituel
spirituelle
spirituelles
spit
splendeur
splendide
sponia
spontanement
sport
sportif
sports
spot
sprache
sprang
spread
sprechen
spring
springer
sq
square
squelette
sr
sranan
srn
ss
st
sta
staaten
stable
stade
stadt
stagiaire
staline
stand
standard
stanke
star
stark
start
starting
state
statement
staten
stater
states
stati
station
stations
statistique
statistiques
statue
statues
statut
staty
stay
ste
steam
steele
stehen
steht
steigen
stelle
stendhal
stephane
stephanie
stephen
stephenson
sterben
sterculiaceae
sterculier
sterile
steriles
sterilite
stevenson
sti
stick
still
stimme
stock
stolz
stone
stop
stopped
store
stores
storm
story
stq
straight
strain
stranger
strasbourg
stratageme
strategie
strategies
strategique
strauss
straße
street
streit
strelitziaceae
stress
strike
string
striped
stroll
stromberg
strong
structure
structures
strychnos
student
stuhl
stupefaction
stupeflip
stupeur
stupid
stupide
stupides
stupidite
style
stɔ
su
sua
suali
suango
suave
subi
subir
subit
subitement
subject
sublime
sublimes
submersion
subsistait
subsister
substance
substances
subtil
subtropicales
subway
suc
succedaient
succedent
succeder
succes
succession
successivement
successives
suce
such
sucre
sucree
sud
sudaan
sudan
sudana
sudani
sue
suede
suedois
sueduaa
sueur
sueurs
suffi
suffirait
suffire
suffisait
suffisamment
suffisance
suffisante
suffit
suffrage
suffrages
sugar
suicide
suicider
suie
suif
suinte
suis
suisse
suisses
suit
suite
suites
suivait
suivant
suivante
suivants
suivent
suivi
suivie
suivirent
suivit
suivons
suivre
sujet
sujets
suko
suku
sukula
sukulango
sukulu
sulee
sulfate
sully
sultan
suma
summer
sun
sunday
sung
sungba
sungo
super
superba
superbe
superbes
supercherie
superficielle
superflu
superieur
superieure
superieures
superieurs
superiorite
supervielle
supplement
supplications
supplice
supplie
support
supporte
supportent
supporter
supporters
suppose
supposer
suppression
suprematie
supreme
supu
sur
sura
surabondance
surcroit
sure
surement
sures
surete
surface
surfaces
surgir
surinam
suriname
surlendemain
surmonte
surmontee
surnom
surnomme
surpasse
surplus
surprenait
surprend
surprendre
surpris
surprise
surprises
surrounded
surs
surtout
suru
surungo
surveillance
surveiller
survie
survint
survivre
sus
susceptible
susceptibles
suscite
susciter
suspect
suspecte
suspendu
suspendues
suspension
susu
sut
suu
suva
suzanne
suʁ
sv
svaty
sveta
sw
swa
swahili
swann
swazi
swaʁ
sweet
sweets
swindle
swizzle
sword
sx
sy
syene
syerra
syllabes
sylvain
sylvestre
sylvie
sylvio
symbole
symboles
symbolique
sympathie
sympathique
symptomes
syndicat
syndicats
synodontis
synonyme
synthese
syoni
syphilis
syrien
syrtes
system
systematique
systematiquement
systeme
systemes
syzygium
syʁ
sz
szigetek
szl
søz
sœur
sœurs
sœʁ
sɑ
sɔ
sɔl
sɔʁ
sə
səl
sən
sɛ
sɛk
sɛks
sɛl
sɛp
sɛʁ
sɜ
sɥit
sɪ
sɪŋ
sɯ
t
t0
t1
t2
t3
t4
t5
t6
t7
t8
t9
ta
taa
taatene
taba
tabac
tabatiere
tabayer
tabl
table
tableau
tableaux
tables
tablette
tablier
tabolo
taboro
tabouret
taburu
tac
tache
tacherot
taches
tachetee
taciturne
tactique
tadjik
tag
tagalog
tagba
tage
tagen
tagua
tahiti
tahitien
tai
tail
tailande
tailandia
taille
tailler
tailleur
tailleurs
taillis
taine
taire
taj
tajland
tak
taka
take
takisii
takuambele
tal
tala
tale
talent
talents
talinum
talisman
talk
tallandier
taloche
talon
talons
tam
tamarin
tamarind
tamarinier
tamazight
tambour
tambours
tambula
tambulango
tamil
tamis
tamoro
tamuli
tan
tandango
tandis
tanga
tangawisi
tangbi
tangbingo
tanger
tango
tansania
tant
tante
tantot
tanzani
tanzania
tanzanie
tanzanii
tanzanija
tanzanio
tanzaniya
tanzen
taossouma
tap
tapage
tapande
tape
taper
tapis
tapisserie
tara
tarango
taranto
tarashkevitsa
tarask
tard
tarda
tarde
tarder
tare
tarif
tarir
tarit
taro
tarte
tas
tasche
tasse
tassel
taste
tata
tatalinda
tatalita
tatar
tatara
tatare
tatene
tatouage
tau
taureau
taureaux
tauschen
tausend
taux
tawa
taxe
taxes
taxi
tay
tayt
taɪ
taʁ
taʃ
taʊ
taʒ
tb
tc
tchad
tchetchene
tchouvache
td
te
tea
teach
teacher
team
tears
technip
technique
techniques
techno
technologie
technologies
technology
teck
tee
teendele
teeth
tehran
teilen
teint
teinte
tel
tele
telegramme
telemaque
telephone
telephoner
telerama
television
tell
telle
tellement
telles
tellier
telougou
tels
tembe
tembere
tembutu
temoignage
temoignages
temoigne
temoin
temoins
temperament
temperature
temperatures
tempes
tempete
tempetes
temple
templiers
temporel
temps
ten
tenace
tenaient
tenait
tenant
tend
tendance
tendele
tendent
tendons
tendre
tendres
tendresse
tendu
tendue
tendus
tene
tenebres
tenebreux
tenengo
teneriffe
teneur
tenez
tengah
tengana
tengbi
tengo
tenir
tennis
tenors
tension
tentation
tentative
tentatives
tente
tenter
tentes
tenu
tenue
tenus
tere
tereda
term
terme
termes
terminait
terminalia
termine
terminer
terminus
termite
terrain
terrains
terrasse
terrasser
terre
terres
terrestre
terreur
terrible
terriblement
terribles
territoire
territoires
terrorisme
tertre
tes
test
testament
testicules
testosterone
tet
tete
tetembe
tetes
teti
tetoum
tetrapleura
tetraptera
teufel
texte
textes
textile
textiles
teyake
teɪ
tf
tg
th
thai
thailand
than
thank
thanks
that
the
theatre
thebookedition
theiere
their
them
theme
then
theobroma
theodore
theologie
theologiens
theophile
theorie
theories
theorique
therapeutique
there
therese
these
thevenin
they
thibault
thibaut
thiebault
thief
thierry
thiers
thing
things
think
thirion
this
thomas
thorax
thorny
those
though
thought
thousand
three
throne
through
throw
thumb
thursday
thus
ti
tia
tiabenge
tianate
tiatio
tibetain
tibia
tick
ticket
tie
tiede
tiema
tieng
tienne
tiennent
tiens
tient
tier
tierce
tiers
tif
tige
tiger
tiges
tigre
tigres
tigrigna
tik
tiko
til
tili
tilleul
tilleuls
timbre
time
times
timide
timidite
timor
timoro
tin
tingbi
tingo
tinizii
tint
tipoi
tique
tir
tira
tirage
tirait
tirane
tirant
tire
tired
tirent
tirer
tires
tiri
tiroir
tis
tisa
tisango
tisch
tism
tissu
tissus
tit
tite
titene
titre
titres
tiv
tiz
tiʁ
tj
tja
tje
tjɔ
tjɛ
tjɛʁ
tk
tl
tm
tn
to
toad
toc
tocan
tod
today
todd
toe
together
togo
togoo
tohgbata
toi
toile
toiles
toilette
toilettes
toinette
toit
toits
tok
toki
tokipona
toko
tokua
tokyo
tol
told
tole
tolerait
toli
tolstoi
tom
tomate
tomates
tomati
tomato
tomba
tombai
tombaient
tombait
tombant
tombe
tombeau
tombee
tombent
tomber
tombera
tomberent
tombes
tomboka
tome
tomorrow
ton
tonda
tondo
tongana
tongaso
tongbi
tongien
tongo
tongondolo
tongue
tonight
tonneau
tonneaux
tonnerre
tonnes
tons
tony
too
took
tool
top
topi
tora
tord
tordre
tordu
tordus
toro
torola
toronto
toroo
torotoro
torpeur
torrent
torrentielle
torrents
torse
tort
tortue
torture
tortures
tot
total
totale
totalement
totalite
totasema
toto
touch
touchant
touche
toucher
touches
touffe
touffes
toujours
toulet
toulouse
tour
tourangeau
tourbe
tourbillon
tourbillons
tourgueneff
tourgueniev
tourisme
touriste
touristes
tourmentait
tourmente
tourmenter
tourna
tournaient
tournait
tournant
tourne
tournees
tourner
tournier
tournure
tours
tourteau
tourterelle
tous
toussaint
tousse
tousser
tout
toute
toutefois
toutes
touvain
toux
town
toxique
toxiques
toʊ
tp
tpi
tq
tr
tra
tracas
trace
tracer
traces
track
trad
tradescantia
tradition
traditional
traditionnel
traditionnelle
traditionnellement
traditionnelles
traditionnels
traditions
traduction
traduire
traduit
traduits
trafic
tragedie
tragen
tragt
trahir
trahison
trahit
train
trainait
trainant
traine
trainer
trains
traire
trait
traitait
traitant
traite
traitement
traitements
traiter
traites
traitre
traitres
traits
trajectoire
trajet
tramways
tranchant
tranche
tranchee
tranchees
trancher
tranches
tranquille
tranquillement
tranquilles
tranquillite
transformation
transforme
transformer
transgresser
transgression
transmet
transmettre
transmises
transmission
transparence
transparent
transport
transporte
transportee
transporter
transportes
transports
trap
trappeurs
trapu
traquer
trash
travail
travaillaient
travaillait
travaille
travailler
travailleur
travailleurs
travaux
travel
traveler
travers
traversa
traversaient
traversant
traverse
traversee
traverser
tree
trees
treffen
trefle
treize
trema
tremblait
tremblay
tremblement
tremblements
trembler
trempe
tremper
trempes
trennen
trennung
trentaine
trente
tres
tresor
tresorerie
tresors
tressaillement
tressaillir
tressauter
treuttel
treve
tri
triangle
triangulare
tribu
tribunal
tribunaux
tribune
tribus
trick
tridax
trier
trifasciata
trigyna
trinite
trinken
triolet
triomphe
tripe
tripes
triplochiton
tripoli
tripot
triptyque
trisaieul
tristan
triste
tristes
tristesse
triumfetta
trohoho
trois
troisieme
trompe
tromper
tromperie
trompette
trompeur
tronc
troncs
trone
trop
tropical
tropicale
tropicales
tropique
tropiques
troppmann
trottoir
trottoirs
trotzdem
trou
trouble
troublee
troubler
troubles
troupe
troupeau
troupeaux
troupes
trous
trouva
trouvai
trouvaient
trouvais
trouvait
trouvant
trouve
trouvee
trouvent
trouver
trouvera
trouverait
trouverent
trouves
trouvez
trouvons
troyat
troyes
truc
truck
trucs
trudeau
true
trump
trung
trunk
trust
truth
try
trying
trɔ
ts
tschad
tsiili
tsonga
tt
tu
tua
tube
tubercule
tubercules
tuberculose
tue
tuer
tues
tuesday
tueur
tufa
tuiles
tukia
tuku
tulipier
tum
tumba
tumbuka
tumeur
tumult
tumulte
tun
tunesien
tunge
tuning
tunis
tunisia
tunisie
tunizii
tunnel
tur
turbulent
turchia
turcija
turcs
turkey
turki
turkia
turkiye
turkmene
turks
turn
turned
turquia
turugu
turukii
turuku
turungu
tut
tutu
tutulutuu
tuu
tuutuu
tuyau
tuʁ
tv
tw
twa
twaʁ
twenty
twist
two
tx
ty
tyade
tyd
tyeki
type
types
typhoide
typographes
typographie
typographique
tyran
tyv
tyʁ
tz
tzm
tøz
tœʁ
tɐ
tɑ
tɑn
tɔ
tɔk
tɔli
tɔʁ
tə
tən
təʊ
tɚ
tɛ
tɛk
tɛl
tɛlɛ
tɛn
tɛnt
tɛs
tɛʁ
tɜ
tɥe
tɹu
tɹæns
tʁ
tʁa
tʁe
tʁi
tʁis
tʁo
tʁu
tʁy
tʁɑ
tʁɔ
tʁə
tʁɛ
tʃ
tʃi
tʃə
tʃɚ
tʊŋ
u
u0
u1
u2
u3
u4
u5
u6
u7
u8
u9
ua
ub
uber
uc
ud
udm
ue
uf
ug
uganda
ugandaa
uh
uhr
ui
uilenberg
uj
uk
ukreni
ul
ullah
ulric
ultra
um
umbellatum
umbrella
umvu
un
unanime
unanimement
unanimite
uncle
und
under
understanding
une
unes
uni
unicode
unidos
unies
uniforme
uniformement
union
unique
uniquement
unir
unis
unite
united
uniti
units
univ
univers
universel
universelle
universitaires
universite
universites
university
unordnung
uns
unsere
unter
until
uo
up
upon
uq
ur
urbain
urbaine
urdu
urgence
urgences
urgent
uribe
urine
uriner
urticaceae
uruguai
uruguay
us
usa
usage
usages
use
used
usee
user
usine
usines
using
usio
ustensile
ustensiles
usuelle
usure
usyo
ut
uterus
utile
utiles
utilisant
utilisation
utilise
utilisee
utilisees
utilisent
utiliser
utilises
utilite
utopie
uu
uv
uw
ux
uy
uz
v
v0
v1
v2
v3
v4
v5
v6
v7
v8
v9
va
vacances
vacarme
vaccin
vaccination
vaccins
vache
vaches
vagabonds
vagin
vague
vaguement
vagues
vailland
vaillant
vain
vaincre
vaincu
vaincus
vaine
vainement
vaines
vainqueur
vainqueurs
vais
vaisseau
vaisseaux
vaisselle
vaka
val
vala
valable
valait
valent
valentine
valerie
valery
valet
valets
valeur
valeurs
validite
valise
valises
vallee
vallees
vallery
valles
vallet
vallon
valmy
valoda
valoir
valois
valse
value
values
valut
vampire
van
vanite
vapeur
vapeurs
vara
variable
variables
variations
varie
variees
varies
variete
varietes
variole
vas
vase
vaste
vastes
vater
vatican
vatikiotis
vauban
vaudois
vaudrait
vaurien
vaut
vautour
vavara
vaɪ
vb
vc
vd
ve
veau
veaux
vec
vecu
vedette
veen
vegetal
vegetale
vegetales
vegetation
vegetaux
vehicule
vehicules
veil
veille
veillees
veiller
veinards
veine
veines
veke
velo
veloo
velours
veluru
velvet
venaient
venais
venait
venal
venant
vend
vendaient
vendait
vendee
vendent
vendeur
vendeuses
vendre
vendredi
vendu
vendus
venecuela
venere
venez
venezuela
vengeance
venger
venin
venir
venise
venitien
venons
vent
vente
ventes
ventouses
ventre
vents
venu
venue
venues
venus
vep
vepse
ver
vera
veranda
verbal
verbe
verbenaceae
verbiage
vercel
verdatre
verde
verdict
verdure
vere
verenigde
verger
vergers
verges
vergessen
vergogne
verifier
veritable
veritables
verite
verites
verlag
verlaine
verlassen
verne
vernonia
verole
veronique
verordnung
verraten
verre
verres
verrez
verrons
verrou
vers
versailles
verse
versee
verser
verset
version
versprechen
verstandnis
verstehen
versuchen
vert
verte
vertes
verts
vertu
vertus
verviers
very
veste
vestiges
veston
vetement
vetements
veterinaire
vetille
vetir
vetu
vetue
vetus
veuf
veulent
veut
veuve
veuves
veux
vf
vg
vh
vi
via
vian
viande
viandes
viard
vice
vices
vicomte
victime
victimes
victoire
victor
victoria
victorin
vide
video
vider
vides
vie
vieil
vieillard
vieillards
vieille
vieilles
vieillesse
vieilli
vieillit
viel
viele
vielen
viendra
vienne
viennent
viens
vient
vier
vierge
vies
vietnam
vieux
vif
vifs
vigan
vigilance
vigna
vigne
vignes
vigny
vigoureusement
vigoureux
vigueur
vii
viii
vikings
vil
vilain
vilenie
villa
village
villageois
villageoises
villages
villars
ville
villeneuve
villes
villiers
vilnius
vin
vinaigre
vincent
vine
vingt
vingtaine
vinrent
vins
vint
violemment
violence
violences
violent
violente
violentes
violents
violet
violets
violette
violettes
viollet
violon
viperes
virgile
virgin
virginie
virginite
virus
vis
visage
visages
visible
visiblement
vision
visions
visite
visiter
visites
visiteur
visiteurs
visiteuses
vit
vitaceae
vite
vitesse
vitex
viticole
vitre
vitres
vivace
vivacite
vivaient
vivait
vivant
vivante
vivantes
vivants
vive
vivement
vivent
vives
viviane
vivier
vivons
vivre
vivres
vizir
viʁ
vj
vja
vje
vjɛʁ
vk
vl
vladimir
vlax
vls
vm
vn
vo
vocabulaire
vocabulary
vocation
vogel
voice
voici
voie
voient
voies
voila
voile
voiles
voir
voire
vois
voisin
voisinage
voisine
voisines
voisins
voit
voiture
voitures
voix
voko
vol
volaille
volailles
volant
volants
volapuk
volcan
vole
voler
voleur
voleurs
volontaire
volonte
volontiers
vols
voltaire
volubilis
volume
volumes
volumineux
volupte
voluptueux
vom
vomir
vomissements
vomitoria
von
vonga
vongba
vongo
vont
vor
voro
vorongo
vorsicht
vos
vosges
vote
votee
voter
votre
voudra
voudrais
voudrait
voudriez
voulaient
voulais
voulait
voulant
voulez
vouloir
voulons
voulu
voulut
vous
voute
vouziers
vovoro
voyage
voyager
voyages
voyageur
voyageurs
voyaient
voyais
voyait
voyant
voyez
voyons
voyous
vp
vq
vr
vrai
vraie
vraies
vraiment
vrais
vrin
vro
vs
vt
vu
vue
vues
vuillet
vuko
vula
vulgaire
vulu
vuma
vundu
vunga
vuru
vurungo
vus
vv
vw
vwa
vwaʁ
vx
vy
vz
vø
vœu
vœux
vɑ
vɔ
və
vən
vɚ
vɛ
vɛl
vɛt
vɛʁ
vʁe
vʁiʁ
vʁə
w
w0
w1
w2
w3
w4
w5
w6
w7
w8
w9
wa
wabange
wabatango
waboso
wabuze
wachsen
wadenge
wadodo
wafango
wagbadara
wagbotongo
wagbungo
wagere
wagingo
waginon
wagon
wagosinga
wahanda
wahlen
wahongo
wahrend
waka
wakanga
wakangbingo
wakango
wakangoye
wakenge
wakion
wakode
wakodoro
wakoko
wakpale
wakpengo
wakpongo
wakua
wakutukutu
wala
walapara
wald
walege
walekengo
walengo
wali
walikundu
walingongu
walk
walking
wall
wallisien
wallon
walombe
walter
wamabe
wamandango
wamapa
wamasua
wambarata
wambenze
wambeso
wambeti
wamo
wamosoro
wamozoko
wamua
wamungo
wand
wanda
wandara
wande
wandembo
wanga
wanganga
wanganguli
wango
wanguru
wani
wann
want
wanyongo
wanzi
wanzinga
wapikango
wapolipa
wapongo
war
wara
waraga
warango
waray
waren
warm
warning
wars
warsaw
warten
warum
was
wasa
washington
wasiokpari
wasiongahozo
wasopo
wasser
wasungo
wasurungo
watambula
watch
water
waters
wato
watokua
waves
wavongo
wawa
wawango
way
waya
wayere
wayinda
wayongo
ways
wazaradaa
wazen
waziba
waɪ
wb
wc
wd
we
wealth
wear
web
wedding
wednesday
weed
week
weg
wegen
weight
weil
weisgerber
weit
weiß
welateki
welcome
well
wells
welt
wen
wenn
went
wer
werber
werde
werden
were
wert
wesh
west
weɪ
wf
wg
wh
what
wheel
when
where
whether
which
while
whistle
white
whitfieldia
who
whole
why
wi
wicked
wie
wieder
wife
wight
wiki
wikimedia
wikipedia
wikipediyaa
wikispecies
wild
wilde
wilfrid
wilhelm
will
william
williams
willst
wind
windows
wine
winter
wir
wird
wissen
wit
with
without
wj
wk
wl
wladimir
wls
wm
wn
wo
wogara
woke
woko
wokoso
wolf
wolfgang
wollen
wollte
wolof
woman
won
wonder
wongo
wood
wool
word
words
work
workbook
works
world
worm
wormseed
wororo
worse
worship
wort
worterbuch
worth
worthless
wotere
wotoro
would
wp
wq
wr
write
ws
wt
wu
wuhngo
wuma
wungo
wurde
wurtz
wusuwusu
wuu
wv
ww
www
wx
wy
wyspy
wz
wɔ
wɛ
wɛl
wɜ
x
x0
x1
x2
x3
x4
x5
x6
x7
x8
x9
xa
xapon
xavier
xb
xc
xd
xe
xet
xeta
xf
xg
xh
xhosa
xi
xie
xii
xiie
xiii
xiiie
xiv
xive
xix
xixe
xj
xk
xl
xm
xmf
xn
xo
xor
xp
xq
xr
xs
xt
xu
xv
xve
xvi
xvie
xviie
xviiie
xw
xx
xxe
xxi
xxie
xxiii
xxiv
xy
xylopia
xz
y
y0
y1
y2
y3
y4
y5
y6
y7
y8
y9
ya
yaa
yacht
yada
yaka
yakoo
yala
yam
yamba
yambango
yambati
yamoussoukro
yanda
yando
yanga
yangada
yangakodoro
yangba
yangbato
yangbo
yango
yangu
yani
yann
yapakara
yaponiya
yapu
yapungo
yasmina
yati
yaya
yayu
yb
yc
yd
ye
year
years
yeda
yeeke
yeka
yeke
yekia
yekua
yellow
yenga
yenge
yengere
yengo
yere
yes
yesterday
yet
yeux
yeye
yf
yg
yh
yi
yiddish
yinda
yingi
yingo
yj
yk
yl
ym
yn
yo
yolia
yombo
yongba
yongo
yongoro
yonne
yoo
york
yoro
yorongo
yoruba
you
young
your
yourcenar
youth
yp
yq
yr
ys
yt
yu
yua
yucateque
yue
yungo
yuru
yv
yves
yw
yx
yy
yz
z
z0
z1
z2
z3
z4
z5
z6
z7
z8
z9
za
zabalo
zabolo
zadig
zagreb
zaheira
zahl
zain
zam
zamani
zamba
zambala
zambia
zambie
zambii
zambija
zamboanga
zanbia
zangbingo
zangbingoro
zango
zanthoxyloides
zanthoxylum
zaponee
zapoo
zara
zaradaa
zariffa
zavanee
zavokaa
zawa
zaza
zazaki
zazama
zaʁ
zb
zc
zd
zdj
ze
zea
zebi
zee
zegbe
zehn
zehner
zeichen
zeigen
zeit
zeke
zekezeke
zelandais
zele
zelenortski
zembe
zeme
zen
zende
zendo
zene
zengo
zenkeri
zere
zerebaidyaan
zero
zevaco
zevaes
zf
zg
zh
zi
zia
ziango
zidoro
zidoroo
ziehe
ziehen
zieht
ziki
zima
zimbabue
zimbabve
zimbabwe
zimmer
zin
zinc
zingiberaceae
zingiri
zingo
zingongo
zis
zj
zja
zje
zjɔ
zk
zl
zm
zn
znapa
zo
zoa
zoe
zog
zola
zombi
zone
zones
zonga
zongo
zoologie
zoranzi
zorogo
zorondo
zovoko
zovuko
zoyoon
zozombo
zp
zq
zr
zs
zt
zu
zua
zucker
zuerst
zug
zuhoren
zuku
zulu
zum
zumbu
zunge
zur
zurcher
zuruck
zusammen
zuska
zusuka
zuu
zuydcoote
zv
zw
zwa
zwanzig
zwei
zwischen
zx
zy
zyʁ
zz
zɑ
zɔ
zɔʁ
zə
zɛ
zɛt
zɛʁ
zɪt
{
|
}
§
«
®
°
²
³
´
·
º
»
½
×
ß
æ
æd
æf
æsculape
ð
ðə
ø
þ
đ
đo
ħ
ı
ł
łituania
ŋ
ŋa
ŋi
ŋɔ
ŋɛ
œ
œil
œuf
œufs
œuvre
œuvres
ſ
ǀ
ǃ
ǝ
ɐ
ɑ
ɑl
ɑn
ɒ
ɒn
ɓ
ɔ
ɔk
ɔl
ɔp
ɔs
ɔʁ
ɕ
ɕi
ɖ
ɗ
ɘ
ə
əl
əm
ən
ət
əʊ
ɚ
ɛ
ɛk
ɛks
ɛl
ɛn
ɛnt
ɛs
ɛtʁ
ɛɐ
ɛɡ
ɛɹ
ɛʁ
ɛʁb
ɜ
ɝ
ɟ
ɡ
ɡa
ɡal
ɡaɔ
ɡaʁ
ɡe
ɡi
ɡja
ɡl
ɡle
ɡli
ɡlɔ
ɡn
ɡo
ɡoʊ
ɡu
ɡui
ɡwa
ɡwɛ
ɡy
ɡŋ
ɡɑ
ɡɔ
ɡɔa
ɡɔi
ɡə
ɡən
ɡəʊ
ɡɚ
ɡɛ
ɡɛt
ɡɹeɪs
ɡɹi
ɡʁa
ɡʁe
ɡʁi
ɡʁo
ɡʁɑ
ɡʁə
ɡʁɛ
ɣ
ɣa
ɥ
ɦ
ɨ
ɩ
ɪ
ɪd
ɪl
ɪm
ɪn
ɪs
ɪt
ɪŋ
ɫ
ɯ
ɱ
ɲ
ɲa
ɲe
ɲi
ɲɔ
ɲɛ
ɴ
ɸ
ɹ
ɹaɪt
ɹi
ɹu
ɹə
ɹɛf
ɹɛk
ɹɪ
ɹɪŋ
ɻ
ɾ
ɾa
ɾi
ɾə
ɾɯ
ʀ
ʀaɪ
ʁ
ʁa
ʁabl
ʁaʒ
ʁe
ʁi
ʁin
ʁis
ʁiʁ
ʁja
ʁje
ʁjœʁ
ʁjɛ
ʁjɛʁ
ʁo
ʁu
ʁwa
ʁy
ʁyʁ
ʁø
ʁøz
ʁɑ
ʁɔ
ʁə
ʁən
ʁɛ
ʁɛj
ʁɛk
ʁɛs
ʁɛt
ʂ
ʃ
ʃa
ʃaʁ
ʃaʒ
ʃe
ʃi
ʃiʃ
ʃo
ʃu
ʃœʁ
ʃɑ
ʃɔ
ʃə
ʃən
ʃɛ
ʃɛt
ʃɛʁ
ʃɪp
ʈ
ʉ
ʊ
ʋ
ʌ
ʌn
ʌp
ʍ
ʎ
ʏ
ʐ
ʑ
ʒ
ʒa
ʒe
ʒi
ʒiʁ
ʒja
ʒu
ʒuʁ
ʒwa
ʒy
ʒys
ʒœʁ
ʒɑ
ʒɔ
ʒə
ʒɛ
ʒɛʁ
ʔ
ʤ
ʦ
ʦi
ʧ
ʨ
ʰ
ʱ
ʲ
ʳ
ʷ
ʹ
ʻ
ʼ
ʾ
ʿ
ˀ
ˈ
ˈᵐ
ˈᵑ
ˌ
ː
ːˈ
ˑ
ˤ
˥
˦
˧
˩
α
β
γ
γουινεα
δ
ε
ζ
η
θ
ι
ινδια
ισπανια
κ
λ
μ
ν
ξ
ο
π
ρ
ς
σ
τ
υ
φ
χ
ω
ϩ
а
азербаиджан
албания
америка
ангола
андора
андорра
армения
ат
африка
б
беларусь
бельги
бенин
бисао
бисау
болгария
босна
брунеи
буркина
бурунди
в
верде
г
габон
гана
гвинея
гвинеја
гвінея
герцеговина
грек
д
дани
дания
джибути
е
ж
з
зимбабве
и
инди
индия
индонезия
иран
исланди
исландия
испания
к
кабо
камерун
канада
кения
китаи
кот
кытаи
л
леоне
литва
м
мадагаскар
малави
малаизия
мали
марокко
мароко
мастор
мозамбик
н
нигер
никарагуа
о
острва
острова
острови
п
пакистан
панама
папуа
парагваи
перу
польша
португал
португали
португалия
р
република
руанда
русия
с
сан
сао
сенегал
сент
сиерра
сингапур
судан
суринам
сьерра
т
таиланд
тил
тимор
того
томе
тунис
туркия
у
уганда
ф
фасо
х
херцеговина
хорватия
ц
ч
чад
чили
ш
щ
ъ
ы
ь
э
ю
я
ямаика
япон
япония
є
і
ј
љ
њ
ћ
џ
ѡ
ѣ
ґ
ғ
қ
ҡ
ң
ҫ
ү
ұ
ҳ
ҷ
һ
ӈ
ә
ө
ա
բ
գ
դ
ե
զ
է
թ
ժ
ի
լ
խ
ծ
կ
հ
ձ
ղ
ճ
մ
յ
ն
շ
ո
չ
պ
ջ
ռ
ս
վ
տ
ր
ց
ւ
փ
ք
ֆ
և
א
ב
ג
גינאה
ד
ה
ו
ז
ח
ט
י
כ
ל
ם
מ
ן
נ
נד
ס
ע
ף
פ
צ
ק
ר
ש
ת
װ
ײ
ؠ
ء
ا
البانيا
المغرب
اندورا
ب
ة
ت
ث
ج
جاپان
ح
خ
د
دانمارک
ذ
ر
رواندا
ز
س
ساحل
ش
ص
ض
ط
ظ
ع
غ
غينيا
ف
فاسو
ق
ك
ل
ليتوانيا
لیتوانی
م
مالی
ن
ه
هند
هندوستان
و
ى
ي
ٲ
ٹ
ټ
پ
پاکستان
ڀ
ځ
چ
ڈ
ډ
ڊ
ڑ
ژ
ک
ګ
گ
گینه
ڵ
ھ
ھندستان
ہ
ۆ
ۇ
ۋ
ی
یا
ێ
ې
ے
ە
ܐ
ܒ
ܓ
ܕ
ܗ
ܘ
ܛ
ܝ
ܠ
ܡ
ܢ
ܣ
ܦ
ܩ
ܪ
ܬ
ހ
ނ
ރ
ބ
ކ
އ
ވ
މ
ދ
ތ
ލ
ގ
ސ
ޑ
ޓ
ޔ
ޕ
ޖ
ޗ
ޝ
ߏ
ߐ
ߔ
ߟ
ߢ
अ
अम
अल
आ
आइसल
आन
इ
ई
उ
ऊ
ए
ऑ
ओ
औ
क
कर
ग
गल
घ
च
ज
ट
ड
ण
त
थ
द
न
नड
प
फ
ब
भ
म
मडग
मल
य
यम
र
रत
ल
व
श
स
ह
অ
আ
ই
ইজ
উ
এ
ও
ক
গ
ঘ
ঙ
চ
জ
ট
ড
ণ
ত
থ
দ
ধ
ন
প
ফ
ব
ভ
ম
মর
য
র
রত
ল
শ
ষ
স
হ
ਅ
ਆ
ਏ
ਕ
ਗ
ਜ
ਡ
ਤ
ਥ
ਦ
ਨ
ਪ
ਬ
ਭ
ਮ
ਯ
ਰ
ਲ
ਸ
ਹ
ੜ
અ
આ
ઇ
ઈ
એ
ક
ગ
ઘ
ચ
જ
ડ
ત
થ
દ
ન
પ
ફ
બ
ભ
મ
ય
ર
લ
શ
સ
હ
ଆ
କ
ଜ
ଡ
ଣ
ତ
ନ
ପ
ଭ
ର
ସ
அ
ஆ
இ
ஈ
உ
எ
ஐ
க
ங
ச
ஜ
ட
ண
த
ந
ன
ப
ம
ய
ர
ல
ள
வ
ஸ
ஹ
అ
ఇ
ఐ
క
గ
ఘ
చ
జ
ట
డ
త
థ
ద
న
ప
ఫ
బ
భ
మ
య
ర
ల
వ
శ
ష
స
హ
ಅ
ಇ
ಐ
ಕ
ಗ
ಘ
ಚ
ಜ
ಟ
ಡ
ತ
ಥ
ನ
ಪ
ಫ
ಬ
ಭ
ಮ
ಯ
ರ
ಲ
ವ
ಶ
ಷ
ಸ
ಹ
അ
ഇ
എ
ഐ
ക
ഗ
ഘ
ങ
ച
ജ
ട
ഡ
ണ
ത
ന
പ
ബ
ഭ
മ
യ
ര
റ
ല
ള
വ
ഷ
സ
ഹ
ൻ
ർ
ൽ
ൾ
ඇ
ඉ
ක
ග
ඩ
ත
ද
න
ප
භ
ම
ය
ර
ල
ව
ස
ก
ข
ค
ง
จ
ช
ซ
ญ
ฐ
ณ
ด
ต
ถ
ท
ธ
น
บ
ป
ประเทศต
ประเทศบ
ประเทศฟ
ประเทศอ
พ
ฟ
ภ
ม
ย
ร
ล
ว
ศ
ษ
ส
สาธารณร
ห
อ
ฮ
ะ
า
เ
แ
โ
ไ
ກ
ງ
ຊ
ຍ
ດ
ຕ
ທ
ນ
ປ
ມ
ລ
ວ
ອ
ະ
າ
ຽ
ເ
ແ
ໂ
་
།
ཀ
ཁ
ག
གར
ང
ཅ
ཇ
ཌ
ཏ
ཐ
ད
ན
པ
ཕ
བ
མ
འ
ཡ
ར
ལ
ཤ
ས
ཧ
ཨ
က
င
စ
ည
တ
ထ
ဒ
န
ပ
မ
ယ
ရ
လ
ဝ
သ
အ
ၼ
ა
ბ
გ
დ
ე
ვ
ზ
თ
ი
კ
ლ
მ
ნ
ო
პ
რ
ს
ტ
უ
ფ
ქ
ღ
შ
ჩ
ც
ძ
წ
ჭ
ხ
ჯ
ჰ
ᄀ
가
고
과
국
기
ᄁ
ᄂ
나
남
네
니
ᄃ
다
도
드
ᄅ
라
란
러
레
로
루
르
리
ᄆ
마
말
메
모
미
ᄇ
바
베
부
비
ᄉ
사
세
소
수
스
시
ᄋ
아
어
에
우
이
인
일
ᄌ
자
제
중
지
ᄎ
ᄏ
카
코
크
키
ᄐ
투
트
티
ᄑ
파
페
프
ᄒ
ᅡ
ᅢ
ᅣ
ᅥ
ᅦ
ᅧ
ᅨ
ᅩ
ᅪ
ᅮ
ᅰ
ᅱ
ᅲ
ᅳ
ᅵ
ᆨ
ᆫ
ᆯ
ᆷ
ᆸ
ᆼ
ሄ
ህ
ለ
ሊ
ላ
ሌ
ል
መ
ማ
ሜ
ም
ሞ
ሩ
ሪ
ራ
ር
ሮ
ሱ
ሲ
ሳ
ሴ
ስ
ሶ
ሸ
ሺ
ቡ
ቢ
ባ
ቤ
ብ
ቦ
ቨ
ቪ
ቱ
ቲ
ታ
ት
ቶ
ቻ
ኒ
ና
ኔ
ን
ኛ
አ
ኢ
ኤ
እ
ከ
ኪ
ካ
ኬ
ክ
ኮ
ኳ
ዊ
ዋ
ዌ
ው
ዎ
ዚ
ዛ
ዜ
የ
ዩ
ያ
ይ
ዮ
ዲ
ዳ
ዴ
ድ
ዶ
ጀ
ጃ
ጄ
ጅ
ጊ
ጋ
ጎ
ጵ
ፋ
ፌ
ፍ
ፑ
ፓ
ፔ
ፕ
ፖ
ᐃ
ᐅ
ᐊ
ᐋ
ᐳ
ᐸ
ᑉ
ᑎ
ᑐ
ᑕ
ᑦ
ᑭ
ᑯ
ᑲ
ᑳ
ᒐ
ᒥ
ᓃ
ᓇ
ᓐ
ᓕ
ᓚ
ᓛ
ᓴ
ᔅ
ᔭ
ᕆ
ᕌ
ᕙ
ᖅ
ᚨ
ក
ខ
ង
ជ
ញ
ដ
ឋ
ឌ
ណ
ទ
ប
ភ
ម
រ
វ
ស
ហ
ឡ
អ
ឥ
ᠠ
ᠡ
ᠢ
ᠣ
ᠤ
ᠦ
ᠨ
ᠬ
ᠭ
ᠮ
ᠯ
ᠰ
ᠲ
ᠳ
ᠶ
ᠷ
ᠸ
ᨄ
ᨍ
ᨑ
ᱛ
ᱞ
ᱟ
ᱣ
ᱤ
ᱩ
ᱭ
ᱮ
ᱯ
ᱰ
ᱱ
ᱳ
ᱷ
ᵊ
ᵐ
ᵑ
‐
‑
–
—
‘
’
“
”
„
•
…
‿
ⁿ
€
←
→
↔
↷
−
√
∴
③
④
⑦
☉
☽
☾
☿
♀
♁
♂
♃
♄
♅
♆
♪
⛢
⯉
ⲁ
ⲉ
ⲏ
ⲓ
ⲛ
ⲟ
ⲣ
ⲧ
ⲩ
ⲫ
ⴰ
ⴱ
ⴻ
ⴼ
ⴽ
ⵇ
ⵉ
ⵎ
ⵓ
ⵔ
ⵖ
ⵛ
ⵝ
ⵣ
⺀
⺄
⺆
⺈
⺊
⺌
⺕
⺝
⺸
⺼
⿰
⿱
⿲
⿳
⿴
⿵
⿶
⿷
⿸
⿹
⿺
⿻
〢
ァ
ア
アメリカ
ィ
イ
ウ
ェ
エ
オ
カ
キ
キニア
ク
ケ
コ
サ
シ
ス
セ
ソ
タ
チ
ッ
ツ
テ
ト
ナ
ニ
ネ
ノ
ハ
ヒ
フ
ヘ
ホ
マ
ミ
ム
メ
モ
ャ
ュ
ユ
ラ
リ
ル
レ
ロ
ワ
ン
・
ー
㇁
㇂
㇄
㇇
㇈
㇉
㇓
㐁
㐄
㐅
㐌
㐫
㐬
㐭
㐮
㐱
㑒
㒵
㒸
㒼
㓁
㓞
㔾
㕛
㕣
㖾
㘝
㚅
㚇
㚔
㚘
㝉
㝡
㝴
㝵
㞋
㞢
㞷
㠩
㠭
㠯
㡀
㡭
㡿
㢲
㢴
㣇
㣺
㥯
㪅
㫄
㫐
㫒
㫺
㬅
㬎
㬥
㬰
㲋
㳄
㷠
㸒
㸚
㸦
㼌
㼲
㽞
㿟
䀠
䂞
䍃
䏍
䒑
䖍
䖒
䖝
䖵
䙴
䚻
䜌
䝿
䡛
䧹
䪞
一
丁
丂
七
丄
丅
丆
万
丈
三
上
下
丌
不
与
丏
丐
丑
专
且
丕
世
丘
丙
业
东
丞
丢
丣
两
严
並
丨
丩
个
丫
丬
中
丮
丰
丱
串
丵
丶
丷
丸
丹
为
主
丽
丿
乀
乂
乃
久
乆
乇
么
义
之
乌
乍
乎
乏
乐
乑
乔
乖
乗
乘
乙
乚
乛
乜
九
乞
也
习
乡
乳
乾
亀
亅
了
亇
予
争
事
二
亍
于
亏
亐
云
互
亓
五
井
亘
亚
亜
亞
亟
亠
亡
亢
交
亥
亦
产
亨
亩
享
京
亭
亮
亯
亰
亲
亳
亶
亷
人
亻
亼
亾
仁
今
介
仌
从
仐
仑
仒
仓
仕
他
付
仝
代
令
以
任
企
伊
伏
伐
休
会
伯
但
位
何
佘
余
佛
作
佥
使
來
侈
侌
侖
侯
侵
便
俄
保
俞
信
修
倉
倍
候
倠
假
備
僉
僕
儿
兀
允
兂
元
兄
充
兆
兇
先
光
兊
克
兌
免
兑
兒
兓
兔
党
兜
兟
入
內
全
兩
兪
八
公
六
兮
兰
共
关
兵
其
具
典
兹
兼
冀
冂
冃
冄
内
冈
冉
冊
冋
册
再
冎
冏
冐
冒
冓
冖
冗
冘
军
农
冝
冡
冥
冫
冬
冰
冷
几
凡
凢
凵
凶
凷
凸
凹
出
函
凾
刀
刁
刂
刃
刄
刅
分
切
刍
刑
刕
刖
列
刘
则
刚
初
判
別
利
别
到
制
刺
則
削
剋
剌
前
剡
剽
劉
力
功
加
劦
助
劫
劳
劵
勃
勇
勉
勒
動
務
勞
勤
勹
勺
勻
勾
勿
匀
匂
包
匆
匈
匊
匋
匍
匕
化
北
匚
匝
匡
匪
匱
匸
匹
区
医
匽
匿
區
十
卂
千
卄
卅
卆
升
午
卉
半
卌
华
卑
卒
卓
单
卖
南
卜
卝
卞
占
卡
卢
卣
卤
卦
卩
卪
卬
卯
印
危
即
却
卵
卷
卸
卻
厂
厃
厄
历
厈
厉
厌
厓
厘
厚
原
厤
厥
厨
厭
厲
厶
厷
厸
去
厼
厽
叀
参
參
叅
又
叉
及
友
双
反
叐
发
叒
叔
叕
取
受
叚
叜
叟
口
古
句
另
叩
只
召
可
台
叱
史
右
叵
号
司
叹
吂
各
吅
合
吉
吊
吋
同
名
后
吏
向
吕
君
吝
吞
否
含
启
吳
吴
吹
吾
呂
呆
呈
告
员
呙
周
命
咅
和
咎
咠
咢
咨
咸
咼
哀
品
哇
哈
哉
員
哥
哲
唐
商
啇
問
啚
啬
啻
喀
善
喜
喬
單
喿
嗇
噩
嚴
囊
囗
囘
囙
囚
四
回
囟
因
囧
囬
困
囱
囷
固
国
圂
圅
國
圍
圓
土
圡
圣
圥
在
圭
地
圶
圼
坐
坒
坚
坡
坦
坴
垂
垔
垚
埀
埃
埋
埶
執
基
堂
堅
堆
堇
堯
塔
塞
墨
壘
士
壬
壯
声
壳
壴
壹
壺
壽
夂
处
夅
夆
备
夊
夋
夌
复
夏
夒
夕
外
夗
夘
多
夜
夢
大
夨
天
太
夫
夬
夭
央
失
夲
头
夷
夸
夹
夻
夾
奂
奄
奇
奈
奉
奎
奏
奐
契
奓
奔
奚
奞
奠
奢
奥
奭
女
奴
奻
好
如
妄
妙
妟
妥
妻
妾
姑
委
姜
威
娄
婁
婴
嫩
嬰
嬴
子
孑
孔
孕
孖
字
存
孚
孛
孝
孟
季
孤
学
孫
孱
學
宀
宁
宂
它
宅
宇
守
安
宋
完
宏
宓
宗
官
定
宛
宜
宝
客
宣
室
宮
宰
害
家
容
宾
宿
寄
寅
密
富
寒
察
寧
審
寫
寬
寮
寶
寸
对
寺
寻
寽
対
寿
封
尃
射
将
將
專
尉
尊
尋
尌
對
小
少
尒
尓
尔
尖
尗
尚
尞
尢
尣
尤
尧
尨
尭
就
尸
尹
尺
尻
尼
尽
尾
尿
局
居
屈
屋
屎
屏
屑
展
屖
屚
属
屠
屡
屬
屮
屯
屰
山
屵
屾
岁
岂
岑
岛
岡
岩
岳
岸
峯
島
崇
崑
崔
崖
崙
崩
嵬
嶲
巂
巛
川
州
巟
巠
巢
巤
工
左
巧
巨
巩
巫
差
己
已
巳
巴
巷
巸
巽
巾
巿
帀
市
布
希
帚
帛
帝
带
師
席
帶
常
干
平
年
幵
并
幷
幸
幺
幻
幼
幽
幾
广
広
庄
床
底
店
庚
府
度
庫
庭
庶
康
庸
廉
廌
廛
廣
廩
廴
延
廷
建
廾
廿
开
弁
弃
弄
弇
弋
式
弓
弔
引
弗
弘
弜
弟
弥
弦
弱
張
強
强
彊
彌
彎
彐
彑
当
彔
录
彖
彗
彡
形
彥
彦
彧
彭
彳
役
彼
往
待
律
徒
得
徙
從
復
微
徵
德
心
忄
必
忌
忍
志
忝
忠
忩
快
念
忽
忿
思
怠
急
怱
恆
恒
恩
恭
息
悉
患
悤
悲
悶
惠
惡
惢
愁
愈
意
愛
感
慈
慧
慮
憂
憲
應
戀
戈
戉
戊
戋
戌
戍
戎
成
我
戒
戔
或
戚
戠
戢
截
戲
戶
户
戹
戼
戾
房
所
扁
扇
手
扌
才
打
托
执
承
折
拉
拜
拿
挪
掌
推
提
摩
支
攴
攵
收
攸
改
放
政
敄
敏
敕
敖
敗
敝
敞
敢
散
敦
敫
敬
数
敷
數
斂
文
斉
斊
斐
斗
斤
斥
斩
斬
斯
新
方
於
施
斿
旁
旋
族
无
旡
既
旣
日
旦
旧
旨
早
旬
旱
旲
时
旺
旾
昂
昆
昇
昌
昍
明
昏
易
昔
昗
昜
星
春
昬
是
昱
昴
昷
時
晃
晋
晏
普
景
晶
智
暑
暴
曇
曩
曰
曲
曳
更
曷
書
曹
曼
曾
替
最
朁
會
月
有
朋
服
朔
朕
朗
望
朝
木
朩
未
末
本
札
朮
术
朱
朵
朶
朿
杀
杏
杜
束
条
来
東
杲
杳
松
板
析
林
枚
果
枝
枲
枼
某
柔
查
柬
柰
柴
栗
格
桀
桑
桼
梁
梅
條
梟
梨
棘
棠
棥
森
楚
業
楽
榮
樂
樊
橙
欠
次
欣
欮
欲
欶
欽
款
歆
歇
歛
止
正
此
步
武
歨
歪
歮
歯
歰
歲
歴
歷
歸
歹
歺
死
殳
段
殷
殸
殹
殺
殻
殿
毋
毌
母
每
毒
比
毕
毚
毛
毳
氏
氐
民
气
氣
水
氵
氶
氷
永
氺
氾
求
汉
汝
汞
江
汶
沃
沓
沙
沝
泉
法
波
泣
泥
泰
洛
洪
洲
活
派
流
济
浦
浪
浮
海
淡
淮
清
渚
渠
湯
滿
漠
漸
澳
火
灬
灭
灰
灵
灷
炅
炎
炏
炗
炙
炭
為
烈
烏
烝
焉
無
焦
焱
然
煞
熊
熏
燕
營
燮
爪
爫
爭
爯
爰
爱
爲
爵
父
爻
爽
爾
爿
片
牙
牚
牛
牜
牟
牢
牧
牪
特
牽
犀
犬
犭
犮
狂
狄
狊
狐
独
狸
狺
猋
猒
猩
猪
献
獅
獻
玄
率
玉
王
玟
玨
玻
珎
班
球
琴
瑞
瑟
瑩
瓜
瓦
甘
甚
生
産
用
甫
甬
田
由
甲
申
电
甶
男
甸
甹
画
甾
畀
界
畏
畐
留
畜
畟
畢
畧
畨
番
畫
異
畱
當
畺
畾
疆
疊
疋
疌
疑
疒
疾
癶
癸
癹
登
發
白
百
皀
皃
的
皆
皇
皋
皐
皕
皮
皷
皿
盃
盆
盇
盈
益
盍
盎
监
盒
盖
盛
盡
監
盤
盧
目
直
相
盾
省
眇
眉
看
眔
眞
真
眷
眼
眾
着
睘
睪
睿
瞏
瞢
瞿
矍
矛
矞
矢
矣
知
矦
短
石
破
碎
磊
磨
示
礻
礼
祟
票
祭
禀
禁
福
禸
禹
禺
离
禽
禾
禿
秀
秃
秉
秋
科
秘
秝
秦
移
稜
稟
穀
穌
穴
究
穹
空
穿
突
窄
窒
立
竒
竜
竝
竟
章
童
竹
笑
笠
筆
等
答
箕
算
箴
節
篤
篭
米
粉
粛
粟
粤
粦
粲
糞
糸
糹
系
約
納
素
索
紫
累
細
絜
絫
絲
維
綿
縣
繇
纍
纟
纳
维
缶
网
罒
罔
罕
罗
罙
罡
罢
罪
署
罷
羅
羊
羌
羍
美
羔
羕
羗
羞
羡
羣
群
義
羲
羸
羽
翁
翏
習
翕
翟
翠
翼
老
耂
考
者
耆
而
耎
耑
耒
耳
耴
耶
耷
聂
聊
聖
聚
聶
聿
肀
肃
肅
肉
肖
肙
肥
肩
肯
育
肴
胃
背
胡
胥
能
脊
脩
腊
膚
臣
臤
臧
自
臬
臭
臯
臱
至
致
臺
臼
臽
臾
臿
舀
舂
舄
與
興
舉
舌
舍
舛
舜
舞
舟
般
艮
良
色
艸
艹
艾
芒
芔
芬
芮
花
芳
芺
芻
苏
苔
苗
苟
若
苦
英
茶
茸
荅
草
荒
荣
荼
莆
莧
莫
莱
莽
菆
菊
菐
菠
華
菲
萄
萬
落
葉
著
葛
葡
董
葵
蒂
蒙
蒦
蒲
蒼
蓋
蓬
蓺
蔑
蔡
蕉
蕭
薄
薛
薦
薰
藍
藏
藥
蘇
蘭
虍
虎
虐
虒
虔
處
虖
虗
虘
虚
虛
虜
虞
虫
虽
蚤
蚩
蜀
蜜
螺
蟲
蠡
血
衆
行
衍
衛
衣
衤
表
衮
衰
袁
袞
裁
裡
褭
褱
襄
襾
西
覀
要
覃
見
規
覓
覧
親
覽
见
角
解
言
訁
訇
計
詹
誕
語
誩
論
諸
讠
论
语
谷
豆
豈
豊
豐
豕
豖
豙
象
豦
豩
豪
豸
貇
貝
貞
貟
負
貢
貧
貨
貪
貫
責
貳
貴
買
費
賁
資
賈
賏
賓
賔
賛
賞
賢
賣
質
賴
贊
贝
贡
责
货
贯
贲
贵
赖
赞
赤
赦
走
越
足
路
蹇
身
躬
車
軍
軎
軟
軸
輦
车
辛
辜
辟
辥
辰
辱
農
辵
辶
边
达
过
近
连
迦
迪
迷
追
退
送
逆
逐
通
速
造
逢
連
逮
進
遀
遂
過
道
達
遣
適
遷
遺
邊
邑
邕
那
邦
邪
郎
部
郭
都
鄉
酉
酋
配
酓
釆
采
里
重
野
量
金
釒
錢
钅
長
镸
长
門
閃
閉
開
閏
閑
閒
間
閔
閵
閻
闌
门
间
闷
阑
阜
阝
阿
降
陳
陵
陶
隆
隊
隋
隡
隨
隱
隶
隹
隺
隻
隼
隽
难
雀
雁
雅
集
雈
雋
雍
雐
雔
雙
雚
雜
雝
離
難
雨
雩
雪
雲
零
雷
需
霍
霜
霝
霞
霸
靈
靑
青
非
靡
面
靣
革
韋
韓
韦
韭
韯
韱
音
頁
頃
項
須
頗
領
頡
頻
顛
页
風
风
飛
飞
食
飠
養
饣
首
香
馬
馮
駦
马
骨
高
髟
鬥
鬯
鬲
鬼
魚
魯
鮮
鰐
鱼
鲁
鳥
鳳
鴉
鸟
鹵
鹿
麃
麒
麗
麟
麥
麦
麻
黃
黄
黍
黎
黑
黒
黨
黹
黽
黾
鼎
鼓
鼠
鼻
齊
齋
齐
齒
齿
龍
龙
龜
龟
龠
龰
龱
龴
龵
龶
龷
龸
龹
ꙁ
ꙗ
ꭰ
ꭲ
ꮃ
ꮅ
ꮇ
ꮈ
ꮊ
ꮎ
ꮒ
ꮕ
ꮗ
ꮙ
ꮚ
ꮝ
ꮟ
ꮢ
ꮣ
ꮧ
ꮩ
ꮳ
ꮵ
ꮹ
ꮺ
ꮿ
者
艹
ﬁ
ﬅ
？
𐌰
𐌲
𐌳
𐌴
𐌷
𐌹
𐌻
𐌽
𐌾
𐌿
𐍀
𐍂
𐍃
𐍄
𐍅
𐤎
𓏏
🜨
𠀁
𠀃
𠀆
𠀉
𠀎
𠀐
𠁁
𠁣
𠂆
𠂇
𠂈
𠂉
𠂊
𠂋
𠂎
𠂒
𠂔
𠂛
𠂡
𠂢
𠂤
𠂬
𠂭
𠂹
𠃊
𠃋
𠃌
𠃍
𠃎
𠃑
𠃓
𠃔
𠃜
𠄌
𠄎
𠄠
𠄢
𠆢
𠆥
𠇍
𠈌
𠌵
𠓜
𠔉
𠔥
𠔼
𠔽
𠔿
𠕀
𠕁
𠕋
𠘧
𠘨
𠙻
𠙼
𠚏
𠚒
𠚤
𠚪
𠣏
𠤎
𠤕
𠥓
𠦄
𠦑
𠦝
𠧒
𠧗
𠧪
𠩺
𠪚
𠫓
𠫔
𠫤
𠬛
𠬝
𠬞
𠬢
𠬤
𠬶
𠮛
𠮦
𠮷
𠯑
𠱠
𠳮
𠷎
𡈼
𡉀
𡉵
𡌥
𡍮
𡏳
𡕒
𡕩
𡕰
𡖅
𡗗
𡗜
𡘆
𡘤
𡧱
𡨄
𡩧
𡬠
𡭽
𡰣
𡰥
𡰪
𡰯
𡰱
𡷈
𡸁
𡿨
𡿩
𡿪
𡿺
𢀖
𢀛
𢀩
𢁙
𢆉
𢆰
𢆶
𢇁
𢇇
𢉖
𢌬
𢌿
𢏚
𢑑
𢑚
𢖻
𢙣
𢛳
𢦏
𢦒
𢧵
𢼄
𢾕
𣁋
𣄼
𣅀
𣅽
𣍘
𣎳
𣎵
𣏋
𣏼
𣗥
𣥂
𣥖
𣦵
𣦼
𣧄
𣪊
𣪠
𣬉
𣳾
𣶒
𤇾
𤊽
𤐫
𤓰
𤔔
𤕨
𤣩
𤰇
𤰔
𤰞
𤴓
𤴔
𤽄
𥁑
𥁕
𥃦
𥃩
𥃭
𥇡
𥑟
𥘅
𥘈
𥝢
𥫗
𥱡
𦈢
𦉪
𦉬
𦉼
𦍌
𦍒
𦎧
𦐇
𦓔
𦔮
𦘒
𦙃
𦚏
𦣝
𦣞
𦣻
𦥑
𦥔
𦥯
𦨉
𦭝
𦰩
𧆞
𧈧
𧘇
𧰨
𧴪
𧴮
𧵩
𧾷
𨸏
𨾴
𩙿
𩠐
𩫏
𩵋
𪉷
𪜀
𪟽
𪠲
𪩲
𫇦
𫔭
𫜸
𫝀
𫠣
𫠩
𫢉
𫥞
𫩏
𫩠
𫪡
𫲽
𫶧
𬀷
𬐘
𬗌
𬙙
𬛸
𬜯
𬟩
𬯁
𬴘
𬺻
𬼉
𬼖
𭀰
𭁈
𭁨
𭅰
𭑈
𭕄
𭗼
𭤨
𭥫
𭻾
𮅕
𮊿
𮍌
𮍏
𮓗
𮥼
𮧮
廾
𰀁
𰀄
𰀈
𰀉
𰀕
𰀠
𰀡
𰀢
𰀪
𰁜
𰃮
𰆊
𰆘
𰋙
𰕎
𰢴
𰧭
𰯲
0--
1--
2--
3--
33--
4--
5--
6--
7--
8--
9--
978--
a--
aa--
aard--
ab--
aba--
abais--
abe--
aber--
abi--
abol--
abon--
abou--
abre--
abso--
abst--
abtrei--
ac--
accap--
acce--
accept--
accl--
accr--
accu--
accumu--
acha--
acharn--
ache--
acousti--
actinobac--
activ--
ad--
ada--
ade--
adi--
admir--
admon--
ado--
adonn--
adoucis--
adress--
adu--
ae--
aero--
aeth--
af--
afa--
affa--
affaib--
affe--
affer--
affl--
affu--
afu--
ag--
aga--
agba--
agbo--
age--
aggl--
agi--
agiss--
ago--
agran--
agre--
ah--
ai--
air--
aj--
ajus--
ak--
aka--
ake--
ako--
akpa--
aku--
al--
ala--
alco--
ale--
alge--
ali--
alien--
all--
alle--
alour--
alourdis--
alte--
alu--
am--
ama--
amazo--
amba--
ame--
ami--
amoko--
amol--
amu--
an--
ana--
ances--
and--
ane--
ang--
ange--
angu--
ani--
anon--
anor--
ans--
ant--
anti--
antibio--
any--
anza--
ao--
ap--
apa--
apais--
ape--
apit--
apo--
applaudis--
appli--
appre--
appu--
aq--
aqua--
ar--
arbo--
arc--
archi--
are--
arist--
aristoc--
arm--
arna--
arom--
aromati--
arra--
arri--
art--
articul--
artis--
as--
asce--
asend--
aser--
asi--
aso--
asph--
aspi--
asse--
asso--
ast--
astro--
asu--
at--
ata--
ate--
ato--
atro--
atta--
atte--
atteig--
au--
audacie--
audi--
auf--
aufge--
augmen--
aus--
ausge--
auto--
autri--
av--
avan--
aventur--
aver--
avia--
avo--
awa--
awo--
ay--
aya--
aye--
ayo--
az--
aza--
azer--
azerbaidz--
azi--
azo--
b--
ba--
bac--
bache--
bah--
bai--
baign--
baion--
bakc--
bal--
balour--
ban--
bar--
bara--
baraque--
bas--
bat--
bata--
batte--
baud--
bava--
be--
beau--
bec--
bed--
bee--
bei--
bel--
bele--
belis--
belji--
ben--
benef--
bern--
berr--
bers--
beson--
betr--
beugle--
beuv--
bh--
bi--
bidon--
biel--
bien--
bifur--
big--
bila--
bilo--
bin--
bio--
biri--
birl--
bis--
bit--
bl--
bla--
blair--
ble--
bles--
bli--
bluf--
bo--
bob--
boi--
bois--
bol--
bomi--
bon--
bondis--
bos--
bouf--
boug--
bougain--
boui--
bouill--
boul--
boule--
bour--
bous--
bouv--
bow--
boy--
bozi--
br--
bra--
bracon--
brancar--
bras--
bredouill--
brill--
brim--
bris--
brit--
brita--
brod--
bron--
broq--
brou--
bru--
bruis--
bu--
bucc--
bul--
bur--
busch--
but--
by--
byza--
bɔ--
bɛ--
bɪ--
bɹ--
c--
ca--
cabal--
cad--
cafou--
cajo--
cala--
calo--
calv--
camb--
cambrio--
camo--
can--
canni--
cap--
car--
cas--
cat--
catap--
caus--
ce--
cele--
cell--
cellul--
cend--
cens--
centen--
centra--
centroa--
ceph--
cere--
cerv--
ces--
ch--
chal--
cham--
chan--
chanoi--
char--
charle--
chas--
chau--
chaus--
chel--
chen--
chev--
chi--
choq--
chrys--
chrysant--
ci--
cicat--
cin--
circ--
circon--
cita--
cl--
claq--
clar--
cle--
clique--
cloi--
clop--
clot--
cn--
co--
coag--
coali--
coas--
cock--
cogn--
col--
coloc--
com--
compli--
compt--
con--
confi--
conju--
cons--
construi--
consul--
contr--
contra--
contre--
contu--
convena--
convo--
cop--
copro--
coquill--
cor--
coros--
corpo--
cosm--
cou--
cour--
cr--
cra--
craig--
crea--
crem--
crepi--
cret--
creus--
crev--
cri--
cris--
croa--
croi--
crot--
crou--
cru--
cs--
cu--
cuei--
cul--
cup--
cy--
cycl--
cz--
d--
da--
dam--
dan--
das--
daup--
de--
dec--
decem--
decom--
decon--
decou--
decri--
defe--
defrai--
dego--
degr--
degu--
del--
dela--
dem--
demen--
democ--
demon--
den--
denonci--
dentif--
depl--
deplais--
depo--
der--
des--
desen--
desol--
detac--
dete--
detrui--
devergo--
devin--
devis--
devo--
di--
dict--
diff--
diffor--
dig--
dil--
diplom--
dis--
disco--
dislo--
dissi--
divertis--
divis--
divu--
dj--
dje--
do--
dom--
don--
dorl--
dorm--
dos--
doub--
dr--
drac--
drib--
du--
duc--
dur--
dw--
dy--
dynas--
dzib--
dɛ--
dɪ--
dɹ--
dʁ--
dʒ--
e--
ea--
eb--
ebran--
ebre--
ec--
echa--
echan--
echapp--
echauf--
eche--
eco--
ecoul--
ecras--
ecri--
ecu--
ecœur--
ed--
edi--
educ--
ee--
ef--
effe--
effi--
effr--
eg--
eh--
ehe--
ei--
ein--
ek--
ekuato--
ekva--
ekvato--
ekwa--
el--
elab--
elast--
elec--
electri--
eli--
elon--
elu--
elɛ--
em--
emberlific--
emou--
empf--
employ--
emprun--
emu--
en--
end--
endom--
enflamm--
engl--
engre--
enlai--
enlu--
ennu--
enre--
enri--
enth--
enthousi--
entr--
entre--
entsch--
entschei--
entw--
enum--
eo--
ep--
epan--
epand--
epanouiss--
epar--
eper--
epi--
epou--
eq--
equa--
equi--
equivo--
er--
erit--
eryt--
es--
esca--
escap--
escar--
esco--
esqui--
est--
estim--
estiv--
et--
ethn--
etin--
eu--
eus--
ev--
evac--
evan--
evange--
eve--
even--
every--
ew--
ex--
exalt--
exas--
exasper--
exci--
excl--
execu--
exem--
exer--
exhi--
exist--
exorbit--
expe--
experim--
expi--
expl--
expli--
ext--
exter--
ey--
eye--
ez--
f--
fa--
fact--
fan--
far--
fas--
faul--
faus--
fe--
feier--
fer--
fest--
festi--
feu--
ff--
fi--
figur--
fil--
filip--
fin--
fis--
fix--
fj--
fl--
fla--
flamb--
fle--
flin--
flor--
flot--
flug--
fo--
folk--
fon--
for--
forni--
foss--
fou--
fr--
frac--
frag--
frau--
fremis--
fren--
fri--
fro--
frott--
frus--
fu--
fugi--
fun--
funer--
fur--
furie--
furni--
fus--
fɹ--
g--
ga--
gag--
gal--
gan--
gar--
garne--
gastro--
gaz--
gba--
gbe--
gbu--
ge--
gene--
geni--
geog--
germ--
gesc--
gesp--
gesti--
get--
gh--
gi--
gia--
giapp--
gj--
gl--
glapis--
glis--
glob--
globu--
gluc--
gn--
go--
god--
gono--
gont--
goose--
gour--
gourman--
gouver--
gr--
gradu--
gram--
gran--
grand--
grat--
grav--
gre--
grena--
grenl--
grig--
grill--
grim--
grimp--
grog--
gron--
grum--
gu--
gue--
gueriss--
guett--
gui--
guillau--
gut--
gv--
gw--
gwate--
gy--
gymn--
gyne--
h--
ha--
hair--
haiss--
han--
happ--
harm--
has--
hat--
he--
heli--
hen--
her--
heraus--
here--
heris--
herze--
hetero--
heur--
hi--
hide--
hin--
his--
histo--
ho--
hoch--
hoff--
holl--
homo--
hon--
hor--
hosp--
houp--
hr--
hu--
huiss--
hun--
hurl--
hy--
hydr--
hydrog--
hyper--
hypothe--
hɛ--
ia--
iapo--
ib--
ic--
id--
iden--
ideo--
if--
ig--
ij--
ik--
il--
ill--
illum--
illus--
im--
imagi--
imbr--
immen--
immi--
immo--
imp--
impar--
impati--
imper--
imple--
impopul--
impul--
in--
inach--
inatt--
incar--
inces--
inci--
incl--
incon--
inde--
indi--
indis--
indu--
inep--
inexpli--
infan--
infe--
infi--
infl--
inge--
init--
inje--
inju--
innom--
inocul--
inon--
ins--
insensi--
insignifi--
insom--
inspi--
instrui--
insuf--
insul--
inte--
interc--
interdis--
interp--
interr--
interrog--
interrom--
introdui--
inve--
invec--
invent--
investi--
io--
ip--
ir--
iri--
iron--
irre--
irrit--
is--
ist--
it--
ita--
iv--
iz--
j--
ja--
jacq--
jam--
jaun--
je--
ji--
jo--
jomf--
joua--
jouiss--
ju--
jubi--
jung--
jus--
juxtapo--
k--
ka--
kai--
kaj--
kal--
kam--
kan--
kap--
kart--
kas--
kauf--
ke--
key--
kh--
ki--
kink--
kir--
kl--
kla--
kli--
kn--
ko--
koba--
kobun--
kok--
kola--
kole--
kolu--
komi--
kon--
kope--
kore--
koro--
kosu--
kota--
koye--
kozi--
kpa--
kpi--
kpo--
kr--
kran--
kro--
ku--
kua--
kutu--
ky--
kɔ--
kɛ--
kɹ--
l--
la--
labour--
lac--
lad--
lan--
larm--
las--
laur--
lav--
le--
legisl--
legiti--
les--
let--
lh--
li--
lice--
licenci--
lie--
lik--
lim--
limo--
lin--
liou--
lip--
lis--
lit--
lithu--
litte--
lituw--
liv--
ll--
lo--
long--
lot--
loua--
louv--
lu--
luc--
lui--
lutt--
luxu--
lw--
ly--
læ--
lɔ--
lɛ--
lɪ--
m--
ma--
mac--
mag--
mai--
main--
mal--
mala--
male--
mamm--
man--
mangu--
mania--
manif--
manipul--
manufac--
mar--
margina--
mas--
mat--
matri--
maugre--
maur--
mauret--
maus--
mavr--
mawr--
maza--
mb--
mba--
mbeti--
mbi--
mbo--
mbu--
mc--
me--
mea--
mec--
mecon--
mecont--
medi--
media--
medik--
mega--
men--
mendi--
mer--
mes--
met--
metap--
mh--
mi--
micr--
micros--
migr--
mil--
min--
mini--
mino--
minutie--
mir--
miracul--
mis--
mit--
mitra--
mj--
mo--
mobe--
mode--
modi--
mogl--
moha--
mollus--
mon--
monog--
mont--
morb--
morc--
mori--
mosa--
mot--
moto--
moul--
mour--
mous--
mousti--
mout--
mozam--
mp--
mpɔ--
msum--
mu--
mult--
multim--
multipli--
muque--
mur--
mus--
my--
mysti--
mɔ--
məʊ--
mɪ--
n--
na--
nach--
nais--
nami--
nan--
nas--
navi--
nd--
nda--
ndi--
ndo--
ne--
nego--
negoci--
net--
neuf--
neutra--
nevro--
new--
news--
ng--
nga--
nge--
ngo--
ngu--
ngɛ--
nh--
ni--
nico--
nie--
nj--
nk--
no--
nom--
non--
nonch--
norv--
norw--
nos--
not--
nov--
ns--
nt--
nu--
nut--
ny--
nyi--
nz--
nze--
nzo--
nɔ--
nɛ--
nɪ--
oa--
ob--
ober--
obli--
observa--
obst--
oc--
occup--
od--
oe--
off--
offen--
og--
oh--
oi--
ok--
ol--
olei--
om--
omni--
on--
oo--
op--
oppo--
opti--
or--
orfe--
org--
orig--
os--
oscill--
ot--
ou--
our--
out--
ov--
ovip--
ow--
oz--
p--
pa--
paci--
pacifi--
paki--
pal--
pam--
pan--
panop--
panor--
pantouf--
pap--
par--
para--
parach--
pas--
past--
patis--
pay--
pe--
peda--
pell--
pen--
peniten--
per--
perch--
perip--
peris--
pet--
petro--
peu--
peyr--
pf--
ph--
phala--
phi--
pho--
phosp--
phys--
physio--
pi--
piani--
pic--
pick--
pie--
pill--
pin--
piro--
pis--
pistac--
pit--
pl--
pla--
placi--
plaig--
plais--
ple--
pleur--
pli--
plu--
po--
poc--
poig--
poit--
poiv--
pol--
polis--
polit--
polyg--
polygon--
pome--
ponc--
poro--
posit--
poss--
possed--
pot--
potam--
poten--
pou--
pour--
pr--
pre--
preci--
predi--
preme--
prim--
priv--
pro--
procl--
produ--
prof--
prohi--
propa--
proso--
protest--
prouv--
prus--
ps--
psyc--
psychi--
pu--
publi--
puls--
pur--
purif--
pus--
py--
pɔ--
pɛ--
pɹ--
qa--
qu--
quad--
que--
qui--
r--
ra--
rabac--
rabo--
racc--
raccom--
raci--
rack--
radi--
raff--
raffer--
rafrai--
rafraichiss--
rall--
ramen--
ramp--
ran--
rap--
rappe--
ras--
rat--
ravis--
ravit--
re--
rebar--
recalcit--
recapitul--
rece--
reci--
recipro--
recl--
reco--
recon--
recri--
rect--
rectific--
recu--
red--
redou--
refor--
refr--
refu--
regi--
regl--
regn--
regu--
rejo--
reli--
relui--
rembour--
reme--
remp--
remplac--
renf--
renfer--
reni--
rent--
renv--
repan--
repen--
reper--
repro--
rept--
repu--
requi--
resc--
resis--
resp--
respub--
ress--
ressem--
rest--
reten--
retentis--
reti--
retr--
revu--
rh--
ri--
rich--
rigi--
risq--
rit--
ro--
roc--
rom--
ronf--
ronfle--
roo--
rose--
ross--
rot--
rougis--
roul--
roum--
roup--
rous--
rouv--
ru--
rumu--
rus--
ry--
s--
sa--
sac--
sacri--
safou--
sagitt--
saig--
saill--
sal--
sam--
san--
sarc--
sard--
sarr--
sat--
satel--
satis--
saucis--
saut--
sauv--
sc--
scap--
scar--
sche--
schi--
schim--
schl--
schm--
scho--
schr--
schw--
scin--
scintil--
scle--
sco--
scul--
se--
sea--
sec--
secul--
seduis--
see--
sei--
sel--
sem--
sen--
senda--
ser--
ses--
set--
sex--
seyc--
sh--
shop--
si--
sil--
sim--
simul--
sin--
sir--
sit--
sk--
skel--
sl--
slon--
sm--
sn--
snob--
so--
soci--
sol--
somm--
son--
sou--
souff--
souhai--
sourn--
sous--
sp--
spaa--
spar--
spe--
speci--
spin--
spol--
spont--
spri--
sq--
squa--
squi--
st--
sta--
ste--
stein--
stipu--
stre--
stri--
stru--
stup--
stɹ--
su--
sua--
subj--
subm--
subs--
subv--
suc--
sud--
suff--
sugg--
suin--
sulf--
sun--
super--
supp--
suppli--
sur--
sus--
sv--
sw--
sy--
symp--
syndi--
synt--
sz--
sɔ--
sɛ--
t--
ta--
taa--
tac--
tai--
tail--
tal--
tam--
tan--
tap--
tart--
tas--
tau--
tay--
tc--
te--
tech--
techno--
tele--
telepho--
temp--
tempor--
ten--
terg--
tergivers--
terr--
tes--
tet--
th--
the--
thermom--
thom--
thor--
ti--
tia--
tie--
tin--
tis--
tit--
to--
ton--
tonitru--
topog--
torc--
torn--
torp--
toub--
tour--
toxi--
tr--
tra--
trahis--
trans--
transpi--
traum--
trem--
tres--
tri--
triomph--
troc--
trom--
tron--
trot--
truq--
ts--
tu--
tun--
tur--
tw--
tx--
ty--
tz--
tɔ--
tɥ--
tɹ--
tʃ--
ua--
ub--
uber--
uc--
uf--
uh--
uk--
ul--
um--
un--
unbe--
under--
uni--
up--
ur--
us--
usur--
util--
utilis--
v--
va--
val--
valoris--
van--
vas--
ve--
vehe--
vehi--
veil--
vene--
venera--
ver--
verbrei--
verri--
vers--
verschi--
vesti--
veui--
vi--
vigi--
vign--
viol--
virg--
viri--
vis--
vit--
vo--
vol--
volumin--
vomis--
vor--
vr--
vu--
vulg--
vulgaris--
vɔ--
vɪ--
w--
wa--
wahr--
wale--
war--
was--
water--
we--
weihn--
wh--
wi--
wie--
wir--
wit--
wo--
wr--
wu--
x--
xa--
xe--
xi--
xx--
y--
ya--
ye--
yi--
yn--
yo--
yoro--
ys--
yu--
yv--
z--
za--
zam--
ze--
zen--
zerb--
zh--
zi--
zigo--
zin--
zn--
zo--
zu--
zw--
zy--
zɛ--
zɪ--
æ--
ð--
đ--
ŋ--
œ--
ſ--
ɐ--
ɑ--
ɒ--
ɔ--
ə--
ɛ--
ɡ--
ɡa--
ɡl--
ɡr--
ɡɹ--
ɣ--
ɥ--
ɦ--
ɪ--
ɲ--
ɹ--
ɾ--
ʀ--
ʁ--
ʃ--
ʃa--
ʃt--
ʃɛ--
ʊ--
ʌ--
ʒ--
ʔ--
ʤ--
ʦ--
ανδ--
κ--
а--
авст--
азерб--
алб--
алв--
аме--
амер--
анд--
ар--
арге--
арм--
бе--
бел--
бело--
белор--
бо--
бол--
бос--
вене--
га--
гам--
гв--
гви--
дан--
е--
екв--
зам--
и--
исп--
ита--
ка--
ке--
ко--
л--
ли--
либ--
лі--
ма--
мавр--
маври--
мал--
мар--
мек--
н--
на--
не--
но--
норв--
по--
пол--
прин--
р--
ри--
с--
сах--
св--
со--
т--
танз--
ту--
тур--
фи--
фили--
финл--
хорв--
чи--
шт--
экв--
энэ--
լի--
א--
אי--
י--
ל--
ס--
ק--
רו--
ا--
اذرب--
افر--
ال--
الب--
امر--
ايس--
برو--
بلغ--
بور--
بول--
تو--
د--
ر--
رو--
س--
ع--
م--
ما--
مال--
مت--
مر--
مل--
موري--
ن--
نا--
پرت--
پول--
چ--
ژا--
ګو--
گ--
گا--
अ--
आ--
इ--
ई--
ए--
ज--
त--
प--
ब--
य--
र--
আ--
আই--
ই--
এ--
ব--
ল--
ਸ--
அ--
இ--
க--
ம--
ய--
గ--
మ--
ర--
ಗ--
ಮ--
ರ--
ഗ--
മ--
ർ--
ก--
น--
ประ--
ประเ--
ประเท--
ประเทศ--
ย--
ร--
ว--
ส--
เ--
ປະເ--
ན--
ᄀ--
ᄂ--
ᄃ--
ᄅ--
ᄆ--
ᄇ--
ᄉ--
ᄋ--
ᄌ--
ᄎ--
ᄏ--
ᄐ--
ᄑ--
ᄒ--
カ--
シ--
タ--
フル--
ヘ--
マ--
--0
--0
--1
--1
--2
--2
--3
--3
--36
--4
--4
--5
--5
--6
--6
--7
--7
--8
--8
--9
--9
--a
--aa
--aan
--ab
--able
--ables
--ac
--ach
--ache
--ad
--ade
--ades
--ae
--af
--ag
--age
--ages
--agh
--ah
--ai
--aient
--ain
--ains
--aire
--aires
--ais
--ait
--ak
--aki
--al
--ala
--ale
--ales
--aliser
--alisme
--alite
--als
--am
--amm
--ampe
--amy
--an
--ana
--ance
--and
--ane
--aner
--ango
--ani
--ann
--ano
--ans
--ant
--ante
--antes
--ants
--anu
--anz
--ao
--aon
--apie
--aque
--ar
--ara
--ard
--arde
--ards
--ari
--arpa
--ary
--as
--ase
--asse
--assent
--at
--ata
--ateur
--ateurs
--ath
--ation
--ations
--atre
--atres
--ats
--ature
--atus
--au
--aud
--ault
--aut
--aux
--ava
--ave
--ax
--ay
--ayka
--aze
--b
--ba
--be
--ber
--bes
--bi
--bia
--bie
--bl
--ble
--blement
--bles
--bo
--boko
--boma
--bre
--bres
--bt
--bu
--by
--bɛ
--c
--ca
--caient
--cait
--cal
--cation
--ce
--ceae
--ceau
--cedait
--cee
--cees
--cence
--cer
--cerie
--ces
--ch
--cha
--che
--chen
--ches
--chet
--chon
--cht
--ci
--cia
--cial
--cide
--cient
--cier
--cip
--cir
--cis
--cisme
--cit
--ck
--ckt
--co
--cot
--craft
--cret
--crit
--cs
--ct
--cte
--cter
--ctes
--cteurs
--ctif
--ction
--ctique
--cts
--ctus
--cu
--cue
--cum
--cus
--cy
--d
--da
--dage
--dages
--dain
--dait
--dal
--dation
--day
--de
--dem
--den
--der
--des
--det
--deur
--dge
--di
--dia
--dier
--din
--ding
--dio
--dium
--do
--dor
--dou
--dra
--dre
--dron
--ds
--du
--dung
--dy
--dɔ
--dɛ
--dʒ
--e
--ea
--eae
--eait
--ean
--eant
--eau
--eb
--ec
--eck
--ecke
--ed
--eda
--ede
--ee
--een
--ees
--ege
--ei
--eil
--eille
--eit
--eje
--ek
--el
--ela
--ele
--eler
--ell
--ella
--elle
--eln
--elo
--els
--elt
--em
--ember
--emblable
--eme
--emens
--ement
--ements
--en
--ena
--enable
--ence
--end
--ene
--enes
--engo
--enne
--ens
--ense
--ent
--enta
--ents
--eo
--eon
--eons
--er
--era
--ere
--erent
--erg
--erie
--eries
--ering
--ern
--erne
--ers
--ert
--ervait
--ervant
--erve
--ery
--es
--ese
--esia
--ess
--esse
--est
--et
--ete
--eti
--ets
--ette
--ettes
--eu
--eur
--eurs
--euse
--euses
--eux
--ew
--ex
--ey
--eya
--eyjar
--ez
--eßen
--f
--fa
--fe
--fen
--fes
--ff
--ffe
--ffin
--fi
--fie
--fly
--fo
--folgen
--fort
--fs
--ft
--fu
--ful
--g
--ga
--gal
--gba
--gbia
--gbu
--ge
--geau
--gee
--gele
--gen
--gence
--gent
--gente
--ger
--gere
--ges
--gga
--gh
--ght
--gi
--gie
--gier
--ging
--git
--gle
--glerie
--gna
--gnard
--gne
--gner
--gnes
--gnon
--gnons
--gny
--go
--gon
--graphie
--grir
--gs
--gt
--gu
--gua
--gubu
--gue
--gɔ
--gɛ
--h
--ha
--hage
--ham
--he
--hed
--hee
--heim
--heit
--hen
--her
--hes
--hese
--het
--hi
--hie
--hip
--hique
--hissement
--hl
--hme
--ho
--hod
--hoir
--hood
--hr
--hs
--ht
--hte
--hu
--hus
--hy
--i
--ia
--iaceae
--iai
--iaire
--iait
--ial
--iale
--ian
--iane
--iant
--iants
--iard
--ias
--iation
--iau
--iaux
--ib
--iba
--ibilite
--ible
--ic
--ica
--ical
--iche
--ick
--ics
--icule
--id
--ida
--ide
--ides
--ie
--ied
--iee
--ief
--iel
--ieme
--ien
--ienne
--iens
--ient
--ier
--iere
--ieres
--iers
--ies
--ieu
--ieuse
--ieux
--iez
--if
--ifiant
--ification
--ifie
--ifiee
--ifiees
--ifier
--ifies
--ifolia
--ifs
--ift
--ig
--ige
--igen
--ignac
--igne
--ignent
--igner
--ignit
--ignon
--igny
--igt
--ii
--ija
--ik
--ika
--ike
--iki
--ikii
--iko
--ikos
--il
--ila
--ili
--illant
--ille
--illements
--iller
--illon
--ily
--im
--ima
--imbo
--ime
--iment
--imes
--in
--ina
--inal
--inant
--ine
--iner
--ines
--ing
--inga
--inge
--ingi
--ings
--ini
--inia
--inie
--inn
--inne
--ino
--inos
--ins
--io
--ioides
--iole
--ion
--ions
--ios
--iot
--iquait
--ique
--iques
--ir
--ira
--ire
--irent
--ires
--is
--isa
--isation
--isch
--ische
--ise
--isee
--isees
--isent
--iser
--iserie
--ises
--ish
--isi
--ision
--ism
--isme
--ison
--isons
--issaient
--issait
--issant
--isse
--issement
--isseur
--ist
--istan
--iste
--istes
--it
--ita
--itaire
--itantes
--ite
--iter
--ites
--ith
--iti
--ition
--ito
--itude
--ity
--ium
--ius
--iva
--ive
--ivement
--ives
--ivite
--iwa
--iya
--iye
--ize
--izi
--izia
--izija
--j
--ja
--jar
--je
--ji
--jo
--k
--ka
--kani
--ke
--ked
--keit
--kel
--ken
--ker
--ki
--kin
--kisa
--kisi
--ko
--koo
--kpa
--kpen
--ks
--kt
--ku
--kua
--kus
--kutu
--kuzu
--ky
--kɛ
--kʁ
--l
--la
--lage
--laient
--lain
--laire
--lait
--land
--lant
--lar
--las
--lat
--lata
--lbert
--ld
--le
--lea
--led
--lee
--lees
--lement
--len
--lence
--ler
--les
--let
--lettes
--leux
--ley
--lf
--lg
--lguinea
--li
--lia
--lic
--lich
--liche
--lichen
--lie
--lier
--liere
--lin
--line
--ling
--lio
--lir
--lis
--lit
--lite
--ll
--lla
--lle
--llee
--ller
--lles
--lli
--llo
--llon
--lls
--llt
--lly
--ln
--lo
--logie
--lomiso
--lon
--lons
--loo
--lore
--lot
--ls
--lt
--ltern
--lu
--lung
--lupa
--lure
--lus
--ly
--lɔ
--lɛ
--m
--ma
--maa
--mak
--mal
--man
--mann
--mba
--mbe
--mbi
--mbisa
--mbo
--mbola
--me
--mee
--mel
--meln
--mens
--ment
--ments
--mes
--mi
--mie
--mill
--mique
--mment
--mo
--mp
--ms
--mu
--mum
--mɛ
--n
--na
--nable
--nac
--nade
--nage
--nai
--naient
--naire
--naires
--nais
--nait
--nal
--nant
--nante
--nard
--nary
--nay
--nce
--nces
--ncier
--ncy
--nd
--nda
--nde
--ndi
--ndo
--ndra
--ndre
--ndres
--ndrez
--ndront
--ne
--neau
--ned
--nee
--nees
--nehm
--nel
--nelle
--nellement
--nelles
--nels
--nement
--nen
--nent
--ner
--nerie
--nes
--ness
--net
--neur
--neurs
--neuse
--neuses
--neux
--nexion
--ney
--neye
--ng
--nga
--ngba
--ngbi
--ngbo
--nge
--nger
--ngi
--ngisi
--ngle
--ngo
--ngu
--ngue
--ngues
--nha
--ni
--nia
--nie
--nier
--niere
--niers
--ning
--nio
--nions
--nir
--nis
--nische
--niste
--nistes
--niya
--nk
--nn
--nna
--nne
--nner
--nnes
--no
--nois
--nons
--nor
--ns
--nsis
--nst
--nt
--nte
--ntes
--nthe
--nthus
--ntino
--nts
--nu
--num
--nus
--nut
--nx
--ny
--nya
--nz
--nza
--nɔ
--nɛ
--o
--oa
--oard
--ob
--oba
--obo
--od
--ode
--odo
--oe
--og
--oge
--ogie
--ogne
--oi
--oient
--oin
--oir
--oire
--oires
--oirs
--ois
--oit
--ok
--oka
--ol
--ola
--ole
--olens
--olent
--oli
--olia
--olite
--olo
--ologie
--ologique
--ologiques
--ologues
--om
--oma
--ombo
--ome
--on
--ona
--ond
--onde
--ondo
--one
--oni
--onisme
--onne
--onner
--onnes
--ons
--ont
--oo
--ood
--ook
--oon
--op
--ope
--oque
--or
--ora
--ore
--ors
--ory
--os
--osa
--osite
--oso
--osse
--ot
--ots
--ott
--otte
--ou
--oud
--oue
--oul
--ous
--oux
--ov
--ova
--ow
--oy
--oya
--oz
--p
--pa
--paa
--pe
--ped
--pee
--pees
--pel
--per
--pes
--pf
--pfen
--phe
--pi
--pia
--pin
--pir
--po
--pon
--porelles
--port
--ppa
--pre
--preneur
--ps
--pt
--pta
--pte
--ption
--pum
--py
--pɔ
--pɛ
--q
--qua
--quat
--que
--quer
--ques
--r
--ra
--raal
--rad
--rade
--rai
--raient
--rais
--rait
--ral
--ran
--rance
--rant
--rante
--ras
--rat
--raud
--raux
--rbe
--rch
--rd
--rde
--rder
--rds
--re
--reau
--red
--ree
--rees
--rel
--ren
--rent
--rer
--rerie
--res
--resse
--ret
--reux
--rez
--rge
--rger
--ri
--ria
--ric
--richt
--richten
--rie
--riee
--rier
--ries
--riki
--rin
--rine
--ring
--rique
--rir
--ris
--rise
--rite
--rix
--rling
--rm
--rma
--rmum
--rn
--rna
--rne
--rner
--ro
--ron
--rone
--rons
--ront
--roon
--ros
--rque
--rra
--rre
--rs
--rsa
--rse
--rson
--rt
--rte
--ru
--ruis
--ruka
--ry
--s
--sa
--saient
--sait
--sant
--sante
--sard
--sation
--sch
--schaft
--se
--sed
--see
--sees
--seki
--sement
--sent
--ser
--ses
--set
--seur
--seurs
--sez
--sh
--shed
--shi
--si
--sia
--sible
--sibles
--sie
--siere
--sif
--sion
--sistes
--sive
--sk
--ska
--ski
--skij
--sko
--sman
--smann
--sme
--smes
--so
--soire
--sol
--son
--sque
--sques
--ss
--ssa
--ssage
--ssaient
--ssais
--ssait
--ssant
--ssante
--sse
--ssement
--ssent
--sser
--sses
--ssez
--ssions
--ssons
--st
--stan
--ste
--stein
--sten
--ster
--stere
--stes
--stre
--su
--sy
--sya
--sɔ
--sɛ
--t
--ta
--table
--tage
--taient
--tait
--tal
--tan
--tant
--tar
--tat
--tation
--te
--ted
--tee
--tees
--ten
--tent
--ter
--tere
--terie
--tes
--teur
--teurs
--teuse
--teux
--th
--tha
--ti
--tic
--tie
--tier
--tif
--tig
--tine
--ting
--tio
--tion
--tions
--tis
--tit
--tive
--tives
--tle
--to
--toire
--ton
--tons
--tor
--tors
--tos
--tou
--tre
--trice
--tron
--ts
--tt
--tta
--tte
--ttes
--tto
--ttre
--tu
--tude
--tue
--ture
--tus
--ty
--tz
--tɔ
--tɛ
--tʁ
--u
--ua
--uait
--ual
--ualite
--uan
--uani
--uant
--uar
--ub
--ube
--uce
--uch
--uche
--ucht
--uck
--ud
--ude
--udes
--udo
--uds
--ue
--uee
--uees
--uel
--uela
--uen
--uer
--ues
--uet
--ueux
--uf
--ug
--uga
--uge
--ui
--uil
--uin
--uis
--uit
--uite
--ujo
--uk
--uka
--uki
--uku
--ul
--ula
--ular
--ulat
--ule
--ulent
--uler
--ules
--uli
--ult
--ulu
--um
--uma
--umba
--ume
--umer
--umoli
--un
--une
--ung
--unga
--ur
--ura
--urage
--urais
--ure
--urer
--ures
--urg
--urie
--urier
--urs
--uru
--ury
--us
--use
--usement
--uses
--ust
--usu
--ut
--uta
--ute
--uter
--utes
--utu
--uu
--ux
--uya
--uz
--uß
--v
--va
--vaan
--val
--van
--ve
--vee
--ves
--ville
--vin
--vo
--vre
--vu
--vʁ
--w
--wa
--wagen
--way
--we
--weed
--wein
--wi
--wo
--x
--xion
--y
--ya
--yaient
--yait
--yan
--yant
--yasika
--ye
--yee
--yer
--ygu
--yi
--yin
--ylla
--yn
--yo
--ys
--yte
--yu
--yɔ
--z
--za
--ze
--zen
--zer
--zi
--zo
--zt
--zte
--zten
--zung
--zy
--ß
--ßen
--ßt
--æ
--æn
--ð
--ø
--ık
--ır
--ız
--ław
--ŋ
--ŋk
--œ
--ɐ
--ɑ
--ɒ
--ɔ
--ə
--ən
--ɚ
--ɛ
--ɛi
--ɛki
--ɡ
--ɪ
--ɪc
--ɪk
--ɪn
--ɪp
--ɪs
--ɪz
--ɲ
--ɴ
--ɹ
--ɾ
--ʁ
--ʃ
--ʊ
--ʊl
--ʊn
--ʊt
--ʊŋ
--ʒ
--ʦ
--α
--αλια
--ανια
--ι
--ια
--ικα
--νια
--а
--ад
--ада
--аи
--алія
--ан
--ана
--анд
--ар
--ау
--ба
--ва
--го
--гія
--д
--дор
--е
--еи
--емала
--ер
--ея
--и
--ик
--ика
--ини
--ир
--ис
--ия
--ија
--к
--ка
--ки
--кии
--л
--ліка
--н
--на
--нд
--ндия
--ни
--нии
--ния
--нија
--нска
--нски
--нь
--нія
--о
--р
--ра
--рас
--рея
--рия
--рія
--с
--ска
--ски
--ские
--скии
--стан
--т
--та
--тан
--ти
--то
--хэг
--ыя
--ь
--я
--і
--ія
--ја
--իա
--նիա
--տան
--א
--אן
--ה
--ו
--ון
--י
--יה
--יע
--ן
--ע
--ا
--ال
--ان
--ب
--ت
--تان
--تي
--ج
--د
--دا
--ر
--ريا
--رک
--زيا
--س
--ستان
--سکر
--ش
--ل
--ما
--ن
--نا
--ند
--ندا
--نىيە
--نيا
--نی
--ه
--و
--ور
--ون
--ى
--ىيە
--ي
--يا
--يون
--پور
--ک
--کا
--ی
--یه
--र
--ഗ
--ก
--ด
--น
--ร
--า
--ა
--ეთი
--თი
--ია
--ნი
--რა
--რი
--ᆨ
--ᆫ
--ᆯ
--ᆷ
--ᆼ
--ア
--カ
--カル
--コ
--ス
--タ
--ト
--ニア
--ラ
--リア
--ル
--ン
