!
"
#
##0
##1
##10
##11
##12
##13
##14
##15
##16
##17
##18
##19
##2
##20
##21
##22
##23
##24
##25
##26
##27
##28
##29
##3
##30
##31
##32
##33
##34
##35
##36
##37
##38
##39
##4
##40
##41
##42
##43
##44
##45
##46
##47
##48
##49
##5
##50
##51
##52
##53
##54
##55
##56
##57
##58
##59
##6
##60
##61
##62
##63
##64
##65
##66
##67
##68
##69
##7
##70
##71
##72
##73
##74
##75
##76
##77
##78
##79
##8
##80
##81
##82
##83
##84
##85
##86
##87
##88
##89
##9
##90
##91
##92
##93
##94
##95
##96
##97
##98
##99
$
%
&
'
(
)
*
+
,
-
.
/
0
00
000
0004
001
002
003
004
005
006
007
008
009
01
010
011
02
0213
03
04
040
044
05
06
07
08
09
1
10
100
1000
10000
1001
1002
1007
101
1012
1016
1017
102
1020
1024
103
1031
1035
1038
104
1040
1045
1046
105
1050
1054
106
1060
1066
107
1073
108
1080
1085
1086
109
1093
1095
11
110
1100
111
1111
1113
1115
1118
112
1120
1125
1126
113
1130
1131
1135
1137
1138
114
1140
1141
1147
1148
115
1150
1152
1154
1155
1156
116
1160
117
1170
1173
1175
1177
118
1180
1184
1185
1186
1187
1189
119
1190
1194
1198
1199
12
120
1200
1201
1202
1204
1206
1209
121
1210
1212
1213
1214
1215
1217
1219
122
1220
1221
1223
1224
1225
1226
1227
1228
1229
123
1230
1232
1234
1235
1236
1237
1238
1239
124
1240
1241
1242
1243
1244
1245
1246
1247
1248
1249
125
1250
1252
1253
1254
1255
1256
1257
1258
126
1260
1261
1263
1264
1265
1266
1267
1268
1269
127
1270
1271
1272
1273
1274
1275
1276
1277
1278
1279
128
1280
1281
1282
1283
1284
1285
1288
1289
129
1290
1291
1292
1294
1295
1296
1297
1298
1299
13
130
1300
1301
1302
1303
1304
1305
1306
1307
1308
1309
131
1310
1311
1312
1314
1315
1316
1317
1318
1319
132
1320
1321
1322
1323
1324
1325
1326
1327
1328
1329
133
1330
1331
1332
1333
1334
1335
1336
1337
134
1340
1341
1342
1343
1344
1345
1346
1347
1348
1349
135
1350
1351
1352
1353
1354
1355
1356
1357
1358
1359
136
1360
1361
1362
1363
1364
1365
1366
1367
1368
1369
137
1370
1371
1374
1375
1377
1378
1379
138
1380
1381
1382
1383
1384
1385
1386
1387
1388
1389
139
1390
1391
1392
1393
1394
1395
1396
1397
1398
1399
14
140
1400
1401
1402
1403
1404
1405
1406
1407
1408
1409
141
1410
1411
1412
1413
1414
1415
1416
1417
1418
1419
142
1420
1421
1422
1423
1424
1425
1427
1428
1429
143
1430
1431
1432
1433
1434
1435
1436
1437
1438
1439
144
1440
1441
1442
1443
1444
1445
1446
1447
1448
1449
145
1450
1451
1452
1453
1454
1455
1456
1457
1458
1459
146
1460
1461
1462
1463
1464
1465
1466
1467
1468
1469
147
1470
1471
1472
1473
1474
1475
1476
1477
1478
1479
148
1480
1481
1482
1483
1484
1485
1486
1487
1488
1489
149
1490
1491
1492
1493
1494
1495
1496
1497
1498
1499
15
150
1500
1501
1502
1503
1504
1505
1506
1507
1508
1509
151
1510
1511
1512
1513
1514
1515
1516
1517
1518
1519
152
1520
1521
1522
1523
1524
1525
1526
1527
1528
1529
153
1530
1531
1532
1533
1534
1535
1536
1537
1538
1539
154
1540
1541
1542
1543
1544
1545
1546
1547
1548
1549
155
1550
1551
1552
1553
1554
1555
1556
1557
1558
1559
156
1560
1561
1562
1563
1564
1565
1566
1567
1568
1569
157
1570
1571
1572
1573
1574
1575
1576
1577
1578
1579
158
1580
1581
1582
1583
1584
1585
1586
1587
1588
1589
159
1590
1591
1592
1593
1594
1595
1596
1597
1598
1599
16
160
1600
1601
1602
1603
1604
1605
1606
1607
1608
1609
161
1610
1611
1612
1613
1614
1615
1616
1617
1618
1619
162
1620
1621
1622
1623
1624
1625
1626
1627
1628
1629
163
1630
1631
1632
1633
1634
1635
1636
1637
1638
1639
164
1640
1641
1642
1643
1644
1645
1646
1647
1648
1649
165
1650
1651
1652
1653
1654
1655
1656
1657
1658
1659
166
1660
1661
1662
1663
1664
1665
1666
1667
1668
1669
167
1670
1671
1672
1673
1674
1675
1676
1677
1678
1679
168
1680
1681
1682
1683
1684
1685
1686
1687
1688
1689
169
1690
1691
1692
1693
1694
1695
1696
1697
1698
1699
17
170
1700
1701
1702
1703
1704
1705
1706
1707
1708
1709
171
1710
1711
1712
1713
1714
1715
1716
1717
1718
1719
172
1720
1721
1722
1723
1724
1725
1726
1727
1728
1729
173
1730
1731
1732
1733
1734
1735
1736
1737
1738
1739
174
1740
1741
1742
1743
1744
1745
1746
1747
1748
1749
175
1750
1751
1752
1753
1754
1755
1756
1757
1758
1759
176
1760
1761
1762
1763
1764
1765
1766
1767
1768
1769
177
1770
1771
1772
1773
1774
1775
1776
1777
1778
1779
178
1780
1781
1782
1783
1784
1785
1786
1787
1788
1789
179
1790
1791
1792
1793
1794
1795
1796
1797
1798
1799
18
180
1800
1801
1802
1803
1804
1805
1806
1807
1808
1809
181
1810
1811
1812
1813
1814
1815
1816
1817
1818
1819
182
1820
1821
1822
1823
1824
1825
1826
1827
1828
1829
183
1830
1831
1832
1833
1834
1835
1836
1837
1838
1839
184
1840
1841
1842
1843
1844
1845
1846
1847
1848
1849
185
1850
1851
1852
1853
1854
1855
1856
1857
1858
1859
186
1860
1861
1862
1863
1864
1865
1866
1867
1868
1869
187
1870
1871
1872
1873
1874
1875
1876
1877
1878
1879
188
1880
1881
1882
1883
1884
1885
1886
1887
1888
1889
189
1890
1891
1892
1893
1894
1895
1896
1897
1898
1899
19
190
1900
1901
1902
1903
1904
1905
1906
1907
1908
1909
191
1910
1911
1912
1913
1914
1915
1916
1917
1918
1919
192
1920
1921
1922
1923
1924
1925
1926
1927
1928
1929
193
1930
1931
1932
1933
1934
1935
1936
1937
1938
1939
194
1940
1941
1942
1943
1944
1945
1946
1947
1948
1949
195
1950
1951
1952
1953
1954
1955
1956
1957
1958
1959
196
1960
1961
1962
1963
1964
1965
1966
1967
1968
1969
197
1970
1971
1972
1973
1974
1975
1976
1977
1978
1979
198
1980
1981
1982
1983
1984
1985
1986
1987
1988
1989
199
1990
1991
1992
1993
1994
1995
1996
1997
1998
1999
2
20
200
2000
20000
2001
2002
2003
2004
2005
2006
2007
2008
2009
201
2010
2011
2012
2013
2014
2015
2016
2017
2018
2019
202
2020
2021
2022
2023
2024
2025
2026
2027
2028
2029
203
2030
2031
2032
2033
2034
2035
2036
2037
2038
2039
204
2040
2041
2042
2043
2044
2045
2046
2047
2048
2049
205
2050
2051
2052
2053
2054
2055
2056
2057
2058
2059
206
2060
2061
2062
2063
2064
2065
2066
2067
2068
2069
207
2070
2071
2072
2073
2074
2075
2076
2077
2078
2079
208
2080
2081
2082
2083
2084
2085
2086
2087
2088
2089
209
2090
2091
2092
2093
2094
2095
2096
2097
2098
2099
21
210
211
212
213
214
215
216
217
218
219
22
220
2200
221
222
223
224
225
226
227
228
229
23
230
2300
2307
231
232
233
234
235
236
237
238
239
24
240
2400
241
242
243
244
245
246
247
248
249
25
250
2500
251
252
253
254
255
256
257
258
259
26
260
2600
261
262
263
264
265
266
267
268
269
27
270
271
272
273
274
275
276
277
278
279
28
280
281
282
283
284
285
286
287
288
289
29
290
291
292
293
294
295
296
297
298
299
3
30
300
3000
301
302
303
304
305
306
307
308
309
31
310
311
312
313
314
315
316
3166
317
318
319
32
320
321
322
323
324
325
326
327
328
329
33
330
331
332
333
334
335
336
337
338
339
34
340
341
342
343
344
345
346
347
348
349
35
350
3500
351
352
353
354
355
356
357
358
359
36
360
361
362
363
364
365
366
367
368
369
36960
37
370
371
372
373
374
375
376
377
378
379
38
380
381
382
383
384
385
386
387
388
389
39
390
391
392
393
394
395
396
397
398
399
4
40
400
4000
401
402
403
404
405
406
407
408
409
41
410
411
412
413
414
415
416
417
418
419
42
420
421
4217
422
423
424
425
426
427
428
429
43
430
431
432
433
434
435
436
437
438
439
44
440
441
442
443
444
445
446
447
448
449
45
450
451
452
453
454
455
456
457
458
459
46
460
461
462
463
464
465
466
467
468
469
47
470
471
472
473
474
475
476
477
478
479
48
480
481
482
483
484
485
486
487
488
489
49
490
491
492
493
494
495
496
497
498
499
5
50
500
5000
501
502
503
504
505
506
507
508
509
51
510
511
512
513
514
515
516
517
518
519
52
520
521
522
523
524
525
526
527
528
529
53
530
531
532
533
534
535
536
537
538
539
54
540
541
542
543
544
545
546
547
548
549
55
550
551
552
553
554
555
556
557
558
559
56
560
561
562
563
564
565
566
567
568
569
57
570
571
572
573
574
575
576
577
578
579
58
580
581
582
583
584
585
586
587
588
589
59
590
591
592
593
594
595
596
597
598
599
6
60
600
6000
601
602
603
604
605
606
607
608
609
61
610
611
612
613
614
615
616
617
618
62
620
621
622
623
624
625
626
627
628
629
63
630
631
632
633
634
635
636
637
638
639
64
640
641
642
643
644
645
647
648
649
65
650
651
652
653
654
655
656
659
66
660
661
664
665
666
668
669
67
670
671
672
673
674
675
677
678
679
68
680
681
683
684
685
686
687
688
69
690
691
7
70
700
7000
701
702
703
704
705
707
709
71
710
711
712
713
7136
714
715
716
717
718
72
720
721
722
725
727
729
73
730
7303
731
732
735
736
737
74
740
741
742
744
745
747
748
75
750
751
752
754
755
756
757
759
76
760
7618
762
765
767
768
77
770
772
774
775
776
777
778
78
780
782
785
786
787
788
79
790
792
7954
796
8
80
800
8000
8001
8014
802
804
805
806
809
81
810
812
813
814
815
816
82
820
825
829
83
830
84
840
841
842
843
845
849
85
850
851
855
858
86
860
863
867
869
87
870
87334
874
875
876
877
88
880
882
884
885
886
89
890
895
896
9
90
900
9000
905
906
907
91
910
911
912
913
914
918300
92
920
923
924
925
93
930
935
936
939
94
940
942
946
95
950
951
952
954
955
956
958
96
960
961
962
963
965
966
968
97
970
972
973
975
976
978
98
980
983
985
987
988
99
990
991
996
997
999
:
;
<
=
>
?
@
\
^
_
`
a
aa
aaa
aachen
aan
aaron
ab
aba
abajo
abandonis
abandonita
abas
abasida
abasidoj
abateja
abatejo
abatejon
abatino
abato
abatoj
abau
abba
abbas
abbaye
abbe
abbey
abc
abd
abdel
abdikis
abdiko
abdu
abdul
abdullah
abe
abel
abelmang
abelo
abeloj
aber
aberdeen
abgerufen
abh
abi
abies
abio
abismo
abiturienta
abiturientig
abiturientis
ablono
ablonoj
ablonon
abo
aboco
abolicio
abolis
abolo
abonantoj
aborto
about
abovjan
abraham
abrahamo
abram
abruco
abrupta
abrupte
abs
absido
absoluta
absolutan
absolute
abstract
abstrakta
abstraktaj
absurda
abu
abunda
abundaj
abundan
abundance
abundas
abunde
abundo
ac
acacia
acade
academia
academic
academy
accademia
access
accessed
accipiter
account
ace
acero
acetata
acetato
acetatoj
acetoacetata
acetoacetato
acetono
ach
achille
acid
acida
acidaj
acido
acidoj
acidon
acrocephalus
across
act
acta
actes
action
activity
ad
ada
adagio
adalbert
adalberto
adam
adamo
adams
adaptado
adaptaj
adapti
adaptig
adaptis
adaptita
adaptitaj
adapto
adaptoj
adas
adatok
adb
adda
additives
ade
adekvata
adelajdo
adepto
adeptoj
adi
adiau
adicio
adig
adipato
adis
adjektivo
adjektivoj
adjunkto
adler
administra
administracia
administraciaj
administracie
administracio
administrado
administradon
administraj
administrajn
administran
administranto
administrantoj
administras
administrata
administrataj
administration
administre
administrejo
administri
administris
administrita
admiralo
admiri
admiris
admiro
ado
adoj
adoleskantoj
adolf
adolfo
adolph
adolphe
adon
adoptas
adopti
adoptis
adoptita
adoptitaj
adopto
adorado
adoras
adorata
adoris
adorja
adorno
adoro
adoru
adresaro
adresita
adreso
adresoj
adreson
adria
adrian
adriano
adriatika
adriatiko
adrien
advanced
advances
advent
adventure
adventures
adverbo
adverboj
advokatan
advokato
advokatoj
ady
ae
aelo
aeno
aer
aera
aeraj
aerarmeo
aere
aerfoto
aero
aeron
aeronau
aers
af
afa
afabla
afable
afero
aferoj
aferojn
aferon
affaire
affairs
afgana
afganio
afghanistan
afhau
afido
afiksoj
afis
afo
afoj
afojn
afonso
africa
african
afrik
afrika
afrikaj
afrikan
afrikanoj
afrikansa
afriko
afrikon
afrique
afro
afrodito
afrotropisa
after
ag
aga
agadas
agadi
agadis
agado
agadoj
agadojn
agadon
again
against
agamemno
aganta
aganto
agantoj
agas
age
agency
agent
agentejo
agentejoj
agento
agentoj
ages
agi
agis
agitado
aglo
agloj
aglomeraj
agne
agnes
agnoskas
agnoskata
agnoskataj
agnoski
agnoskis
agnoskita
agnoskitaj
agnosko
agnoskon
ago
agoj
agojn
agon
agordo
agordoj
agos
agostino
agra
agrabla
agrablan
agrable
agrara
agreno
agresema
agreso
agricola
agricultural
agriculture
agrikultura
agrikulturaj
agrikulturajn
agrikulturan
agrikulturisto
agrikulturistoj
agrikulturo
agrikulturon
agro
agroj
agrokulturo
agronomo
agronomoj
agu
agua
aguilar
aguirre
agusti
ah
ahmad
ahmed
aho
ahr
ahrweiler
ai
aid
aida
aidoso
aigle
ail
aime
ain
air
airbus
aire
aires
airlines
airport
ais
aise
aisne
aiud
aix
aj
aja
ajfo
ajka
ajkovskij
ajlo
ajlovic
ajn
ajna
ajnaj
ajnan
ajnas
ajne
ajnigas
ajnigi
ajnigis
ajnis
ajnismo
ajno
ajo
ajoj
ak
aka
akada
akade
akademia
akademiaj
akademiajn
akademian
akademiano
akademianoj
akademie
akademio
akademioj
akademion
akademiuloj
akaj
akajama
akan
akarto
akbar
akc
akceli
akcelis
akcelo
akcentas
akcento
akceptado
akceptante
akceptas
akceptata
akceptataj
akceptebla
akcepti
akceptig
akceptis
akceptita
akceptitaj
akcepto
akcepton
akceptos
akceptu
akcesoraj
akcia
akcidento
akcidentoj
akcioj
akcipitredoj
akcipitro
akcipitroformaj
akcipitroj
akeno
aki
akira
akirado
akirante
akiras
akiri
akiris
akirita
akiritaj
akiro
akisto
akistoj
akita
akko
ako
akolimpiko
akompana
akompanaj
akompanas
akompanata
akompanataj
akompani
akompanis
akompanita
akompano
akordig
akordo
akordoj
akordon
akra
akraj
akrajn
akran
akre
akrig
akrilato
akronimo
akropolo
aksa
aksiomo
aksiomoj
akso
aksoj
akta
aktabulo
aktiva
aktivado
aktivaj
aktivajn
aktivan
aktivas
aktive
aktiveco
aktivecoj
aktivecojn
aktivecon
aktivig
aktivis
aktivismo
aktivisto
aktivulino
aktivulo
aktivuloj
aktivulojn
akto
aktoj
akton
aktora
aktorado
aktoradon
aktoran
aktorino
aktoris
aktoro
aktoroj
aktuala
aktualaj
aktualan
aktuale
aktualo
akumulig
akurate
akus
akustika
akuta
akuzas
akuzativo
akuzis
akuzita
akuzitaj
akuzo
akuzoj
akuzojn
akva
akvaj
akvajn
akvedukto
akvejo
akvejoj
akvino
akvisto
akvitanio
akvo
akvobaraj
akvobirdoj
akvodislimo
akvofalo
akvofaloj
akvofluo
akvoj
akvojn
akvokastelo
akvokolekta
akvokvanto
akvomuelejo
akvon
akvonivelo
akvopilkisto
akvorezervejo
akvorezervujo
akvosurfaco
akvoturo
akvovojo
al
ala
alabamo
alada
alagoaso
alain
alajos
alan
alano
alaska
alasko
alau
alb
alba
albacete
alban
albana
albanaj
albanio
albanoj
albany
albarraci
albatroso
albatrosoj
albert
alberta
alberti
alberto
albin
albirex
albis
albordig
albrecht
albreh
album
albumo
albumoj
albumojn
albumon
alca
alcala
alcalde
alcan
aldea
aldehido
aldo
aldomigitaj
aldona
aldonaj
aldonajn
aldonan
aldonante
aldonas
aldonata
aldone
aldoni
aldonig
aldonis
aldonita
aldonitaj
aldono
aldonoj
aldonon
aldonu
aldrich
ale
alec
alegorio
alegre
alejandro
aleksander
aleksandr
aleksandra
aleksandrio
aleksandro
aleksandrovic
aleksej
aleksio
alemana
alemane
aleo
ales
alessandria
alessandro
alex
alexander
alexandra
alexandre
alexandria
alexis
alf
alfa
alfabeta
alfabete
alfabeto
alfabetoj
alfabeton
alfluanto
alfluantoj
alfluas
alfluo
alfo
alfons
alfonso
alfoz
alfrapo
alfre
alfred
alfredo
alfrontas
alfronti
alfrontis
alg
alge
algebra
algebraj
algebro
algo
algoj
algoritmo
algoritmoj
alh
ali
alia
aliaflanke
aliaj
aliajn
alian
aliancaj
aliancanaj
aliancano
aliancanoj
aliancig
alianco
aliancoj
aliancon
alianza
alice
alicia
alicio
alie
alien
aliflanke
aliformig
alig
alighieri
aligis
aligita
aligitaj
align
aligo
alikanto
alikaze
alikonstruita
alikonstruo
alila
alilandaj
alilingvaj
alilingve
aliloke
alimaniere
alineo
alinome
alinomita
alio
aliras
alirebla
alireblaj
alirejo
alirejoj
aliri
aliris
alirita
alirite
aliro
aliron
alisa
aliulo
aliuloj
alivorte
aljug
alkala
alkalaj
alkazaro
alkemio
alkohola
alkoholaj
alkoholo
alkoholoj
alkondukis
alkonstruaj
alkonstruig
alkonstruita
alkroc
alkutimig
all
alla
allah
allan
alle
allegro
allen
allende
aller
alles
allgemeine
alliance
allier
alligita
alloga
allogaj
allogas
allogi
allogis
allogo
alma
almagro
almanako
almas
almeida
almenau
almeri
almerio
alno
alo
aloe
alois
aloj
alojo
alojoj
alom
alon
alone
along
alonso
alpa
alpaj
alparolis
alpas
alpes
alpha
alphonse
alpoj
alportas
alporti
alportis
alportita
alportitaj
alportos
alportu
alprenas
alpreni
alprenis
alproksimig
als
also
alt
alta
altaj
altaja
altajn
altamira
altan
altara
altarejo
altaro
altaroj
altaron
altas
alte
altebenaj
alteco
altecoj
altecon
alten
altenburg
altenkirchen
alter
alterig
alterna
alternaj
alternas
alternativa
alternativaj
alternativajn
alternativan
alternative
alternativo
alternativoj
alterne
alti
altig
altigi
altigis
altigita
altiraj
altiras
altiri
altiris
altiro
altitudo
altitudoj
altkvalita
altkvalitaj
altlerneja
altlernejaj
altlernejo
altlernejoj
altlernejon
altmark
altnivela
altnivelaj
alto
altoj
alton
altranga
altrangaj
altranguloj
altvalora
altvaloraj
aludas
alude
aludi
aludis
aludo
aludoj
aluminia
aluminio
alvenas
alveni
alveninta
alvenintaj
alveninte
alvenis
alveno
alvenon
alvenos
alves
alveturejo
alveturis
alvokas
alvoki
alvokis
alvokita
alvoko
alvokoj
alvokojn
alvokon
alzaco
alzey
am
ama
amadeo
amadeus
amaj
amalia
amand
amanda
amano
amantino
amanto
amantoj
amara
amas
amasa
amasaj
amasan
amase
amasig
amaskomunikila
amaskomunikilaro
amaskomunikiloj
amaso
amasoj
amason
amata
amatino
amato
amatora
amatoraj
amatoran
amatoroj
amazon
amazona
amazonio
amazono
ambasadejo
ambasado
ambasadoro
ambasadoroj
ambau
ambelano
ambicia
ambicio
ambra
ambrego
ambreto
ambro
ambroj
ambrojn
ambromuziko
ambron
ambrozio
ambrus
ame
amelo
amen
amendo
america
american
americana
amerika
amerikaj
ameriko
amerikoj
amerikon
amfibioj
amfiteatro
ami
amidoj
amiens
amigos
amika
amikaj
amikaro
amike
amikeco
amikecon
amikig
amikino
amiko
amikoj
amikojn
amikon
amila
aminda
amino
aminoacidoj
aminobenzoata
aminobenzoato
aminoj
amir
amis
ammad
amnestio
amnestion
amo
amon
among
amonia
amoniako
amonio
amont
amor
amora
amoraj
amore
amoro
amos
amour
ampanjo
ampionado
ampioneco
ampionecon
ampiono
ampionoj
ampionumo
ampleksa
ampleksaj
ampleksajn
ampleksan
ampleksas
amplekse
ampleksig
ampleksigita
ampleksis
amplekso
amplekson
amplitudo
ams
amsterdam
amsterdamo
amt
amu
amundsen
amuza
amuzaj
amuzig
amuzo
amy
an
ana
anaj
analfabetoj
analitiko
analiza
analizas
analizi
analizis
analizo
analizoj
analizon
analoga
analogaj
analoge
analogio
analoj
analyse
analysis
anarchism
anarchist
anarh
anarki
anarkiisma
anarkiismaj
anarkiismo
anarkiista
anarkiistaj
anarkiisto
anarkiistoj
anaro
anas
anasedoj
anaso
anasoj
anatole
anatolij
anatolio
anatomia
anatomio
anatomy
anc
ance
ancelig
ancient
anco
ancoj
ancojn
ancon
and
anda
andaj
andaluci
andalus
andaluza
andaluzio
andante
ande
andere
anders
andersen
anderson
andes
ando
andoj
andor
andoro
andra
andrade
andranik
andras
andre
andrea
andreas
andreescu
andrei
andrej
andreo
andrew
andrews
android
andromedo
andrzej
andy
ane
anejrio
anejro
anekdotoj
aneksado
aneksaj
aneksis
aneksita
anekso
anemio
anfa
ang
angalo
ange
angel
angela
angeles
angelo
angels
anger
angers
angiospermae
angiospermoj
angkor
angla
anglaj
anglajn
anglalingva
anglalingvaj
anglalingve
anglan
angle
anglia
anglikana
anglio
anglion
anglo
angloj
anglosaksa
anglosaksoj
anglujo
ango
angola
angolo
angs
angula
angulo
anguloj
angulojn
angulon
anh
anhaja
anhajo
anhalt
anhalto
anhidrido
ani
anig
anika
aniko
anima
animacia
animaciaj
animacio
animal
animala
animalaj
animalo
animaloj
animalojn
animals
animation
anime
animeo
animeoj
animo
animoj
animojn
animon
anino
anio
anis
anismo
anita
anizila
anj
anjo
anjou
ankaro
ankau
ankorau
ankro
anlando
ann
anna
annales
anne
annette
anni
annie
anno
annual
ano
anoj
anojn
anon
anoncas
anonci
anoncis
anoncita
anonco
anoncoj
anonima
anonime
another
anov
anova
ans
ansbach
anselmo
anser
ansero
anseroformaj
anseroj
anstatau
ant
anta
antaj
antajn
antal
antan
antara
antarctic
antarkta
antarktaj
antarkto
antaro
antaroj
antaron
antas
antau
ante
anteno
antenoj
antes
anthology
anthony
anthropology
anti
antibakteriajn
anticipe
antifungajn
antikva
antikvaj
antikvajn
antikvan
antikve
antikveco
antikvo
antiloj
antimikrobajn
antioh
antiquity
antisemitismo
antjokio
anto
antoine
antoinette
antoj
antojn
antologio
antologioj
anton
antoni
antonia
antonino
antonio
antonius
antono
antony
antranilata
antranilato
antropologia
antropologio
antropologo
antropologoj
antverpena
antverpeno
antwerpen
anunciacio
any
ao
aomori
aoso
aosta
aou
ap
apa
apache
apalac
aparataro
aparato
aparatoj
aparatojn
aparaton
aparta
apartaj
apartajn
apartamento
apartamentoj
apartan
aparte
apartenaj
apartenanta
apartenantaj
apartenas
aparteni
apartenis
aparteno
apartenu
apartig
apartigas
apartigi
apartigilo
apartigis
apartigita
apartigitaj
apartigo
apartismo
apek
apelacia
apelo
apeloj
apelon
apenau
apencelo
apendico
aperadis
aperaj
aperanta
aperantaj
aperas
aperi
aperigas
aperigi
aperigis
aperinta
aperintaj
aperis
apero
aperoj
aperon
aperos
aperturo
aperu
apitro
apitroj
apitrojn
apitron
aplau
aplikado
aplikaj
aplikas
aplikata
aplikataj
aplikebla
apliki
aplikig
aplikis
aplikita
aplikitaj
apliko
aplikoj
aplikon
apo
apoganta
apogante
apogas
apogi
apogig
apogis
apogita
apogo
apogon
apokalipso
apokrifaj
apolda
apollo
apolo
apolodoro
apolona
apolonaj
apolono
apon
apopleksio
apostola
apostolaj
apostolo
apostoloj
apotekisto
apoteko
apoteozo
apple
application
applications
applied
approach
approx
apr
apre
aprezata
april
aprile
aprilo
apro
aprobas
aprobi
aprobis
aprobita
aprobitaj
aprobo
aprobon
apud
apuda
apudaj
apudajn
apudan
apudas
apude
apulio
aqui
aquila
ar
ara
arab
araba
arabaj
arabajn
araban
arabe
arabia
arabic
arabio
araboj
arad
arado
aradrioformaj
arago
aragona
aragono
aram
aramea
aran
aranda
araneoj
arang
arany
ararat
ararato
arato
arau
arba
arbara
arbaraj
arbareto
arbaristo
arbaro
arbaroj
arbarojn
arbaron
arbedo
arbedoj
arbeiter
arbitra
arbitracio
arbitre
arbo
arboj
arbojn
arbon
arbos
arbustaro
arbustaroj
arbusto
arbustoj
arc
arcah
arch
archa
archaeological
archaeology
arche
archibald
architecture
architektur
archiv
archive
archives
arco
arcos
arctic
ard
arda
arde
ardea
ardena
ardenaj
ardenisto
ardennes
ardeno
ardenoj
ardenojn
ardenon
ardeo
ardeoj
ardo
are
area
arealo
areas
arena
arenas
areno
arentoj
areo
areoj
areojn
areon
aresti
arestis
arestita
arestitaj
arestitoj
aresto
arg
argentina
argentinaj
argentino
argila
argilaj
argilo
argo
argoj
argon
argonau
argovio
argumentante
argumentas
argumentis
argumento
argumentoj
argumentojn
argumenton
arh
ari
aria
ariane
arias
arida
aridaj
arie
ariel
arig
arigas
arigis
ario
arioj
aris
aristide
aristofano
aristokrata
aristokrataro
aristotela
aristotelo
aritmetika
aritmetiko
arizona
arizono
arja
arjan
ark
arka
arkadio
arkadoj
arkaika
arkaj
arkansaso
arkeo
arkeologia
arkeologiaj
arkeologio
arkeologo
arkeologoj
arkiduko
arkiepiskopo
arkimedo
arkipelago
arkitekto
arkitektoj
arkitektura
arkitekturaj
arkitekturan
arkitekturo
arkitekturon
arkiva
arkive
arkivejo
arkivisto
arkivita
arkivo
arkivoj
arko
arkoj
arkon
arkta
arkto
arles
arm
arma
armaj
armand
armando
arme
armea
armeaj
armeajn
armean
armeanoj
armee
armeestro
armen
armena
armenaj
armenajn
armenan
armene
armenia
armenian
armenio
armenion
armenoj
armeo
armeoj
armeojn
armeon
armilaro
armilejo
armilo
armiloj
armilojn
armilon
armin
armistico
armita
armitaj
armo
armor
arms
armstrong
army
arnaud
arne
arnhem
arno
arnold
arnstadt
aro
aroj
arojn
aromata
aromataj
aron
arondismento
arondismentoj
around
arov
arp
arpentisto
arpitane
arras
arriba
arrondiment
arrondissement
arroyo
ars
arseno
art
arta
artaj
artajn
artan
arte
artefaktoj
artefarita
artefaritaj
artefaritan
artemisia
artemiso
arterioj
artes
artgalerio
arthalo
arthistoriisto
arthistoriistoj
arthur
arti
article
articles
artikel
artikoj
artikolo
artikoloj
artikolojn
artikolon
artikulacio
artileria
artilerio
artis
artist
artista
artistaj
artistino
artistkolonio
artisto
artistoj
artistojn
artists
arto
artoj
artojn
arton
artportal
artropodoj
arts
artu
artur
arturo
arundo
as
asa
asado
asadon
asas
asaviadiloj
asc
ascendo
aschaffenburg
asean
asekuro
asembleo
asembleoj
asembleon
asertante
asertas
aserti
asertis
aserto
asertoj
asertojn
aserton
ashundoj
asi
asia
asiago
asian
asignita
asio
asiria
asirianoj
asirio
asis
asista
asistanto
asisto
asistoj
asizo
aso
asocia
asociacio
asociaj
asociata
asociig
asociita
asociitaj
asocio
asocioj
asociojn
asocion
asp
aspects
aspektas
aspekte
aspekti
aspektis
aspekto
aspektoj
aspektojn
aspekton
asplenium
aspx
assessment
associated
association
assr
astano
aste
asteco
asteracoj
asteriks
asteroid
asteroida
asteroidaj
asteroido
asteroidoj
asteroidojn
asteroidon
asti
astragalus
astrah
astrid
astro
astrofizika
astrofizikisto
astrofiziko
astroj
astrologio
astronau
astronomia
astronomiaj
astronomian
astronomical
astronomie
astronomino
astronomio
astronomion
astronomo
astronomoj
astronomon
astronomy
asturio
asuncio
at
ata
ataj
atajn
atakanto
atakas
atakata
ataki
atakis
atakita
atakitaj
atako
atakoj
atakojn
atakon
atan
atantoj
atas
atata
atataj
atatu
ate
ateismo
ateisto
ateistoj
ateliero
atelieroj
atelieron
atelo
atena
atenco
atencoj
atendante
atendas
atendata
atendi
atendis
atendita
atendu
ateneo
ateno
atentas
atente
atenti
atentigas
atentigi
atentigis
atentis
atento
atenton
atentu
atestaj
atestanto
atestantoj
atestas
atestilo
atestis
atestita
atesto
atestoj
ateston
athens
ati
atiko
atingante
atingas
atingebla
atingeblaj
atingeblas
atingi
atingig
atinginta
atinginte
atingis
atingita
atingitaj
atingo
atingoj
atingojn
atingos
atingu
atis
atla
atlanta
atlantic
atlantido
atlantika
atlantikaj
atlantiko
atlantikon
atlantique
atlantiques
atlantis
atlas
atlaso
atle
atletika
atletiko
atleto
atletoj
atmosfera
atmosfero
atmosferon
ato
atolo
atom
atoma
atomaj
atombombo
atomnumero
atomo
atomoj
atribuas
atribuata
atribui
atribuis
atribuita
atribuitaj
atribuo
atributoj
atsushi
attack
attila
atus
au
aube
aubin
aubusson
auch
auckland
aude
audio
audrey
audubon
auf
aufl
auflage
aug
auge
augsburg
august
augusta
auguste
augustin
augusto
augustus
auk
auld
aups
aure
aurora
aus
auschwitz
ausgabe
ausstellung
austen
austerlitz
austin
australia
australian
australis
austria
auta
author
authority
authororder
auto
autobiography
autor
autre
autres
auvergne
aux
auxerre
av
ava
avallon
avancis
avanco
avangarda
avangardo
avant
avantag
avaroj
ave
avec
aventura
aventuro
aventuroj
aventurojn
avenue
avenuo
averag
avertas
averti
avertis
averto
aves
avesnes
avesnois
aveyron
avi
aviada
aviadila
aviadilaj
aviadilaro
aviadilo
aviadiloj
aviadilojn
aviadilon
aviado
avian
aviceno
avignon
avilo
avinjono
avino
avispa
aviv
avivo
avo
avon
avril
aw
award
awards
away
ax
axel
ay
ayuntamiento
az
aza
azaj
azeno
azera
azerbajg
azeroj
azia
aziaj
azilon
azio
azion
aziz
azmuzikisto
azmuzikistoj
azo
azon
azori
azteka
aztekoj
azul
azur
b
ba
baal
baar
bab
baba
babel
babes
babilona
babilonio
babilono
baby
bac
bach
bachs
back
background
bacon
bad
badah
badajoz
baden
badeno
bafta
bagdado
baghy
bah
baha
bahaa
bahaaj
bahaanoj
bahamoj
bahia
bahio
bahn
bahnhof
bai
baia
baile
bailey
bains
baj
baja
bajkalo
bajo
bajtoj
bakaj
bakalau
baker
bakr
bakterio
bakterioj
bakuo
bal
bala
balado
baladoj
balassagyarmat
balatonfu
balatono
baldau
baldueno
baldur
baldwin
balearoj
baleno
balenoj
baleta
baletisto
baleto
baletoj
baleton
balkana
balkanio
balkono
ball
balla
ballet
balls
balo
balogh
balono
balota
balotado
balotadoj
balotadon
balotaj
balotantoj
baloto
balotoj
balotojn
baloton
balotrajto
balotsistemo
balta
baltaj
balthasar
baltimore
baltio
baluc
balzac
bamberg
bambuo
ban
bana
banato
banc
banco
band
banda
bandego
bandestro
banditoj
bando
bandoj
bandon
banejo
banejoj
bang
banglades
bani
bank
banka
bankedo
bankisto
banko
bankoj
bankrotis
bankroto
banks
banloko
banlokoj
banner
bano
banska
banu
banuso
baptist
baptista
baptiste
baptisto
baptita
bapto
baptopatro
baptujo
bar
bara
baraba
barack
baraj
baranya
barata
barataj
barato
barba
barbado
barbara
barbaro
barbo
barbosa
barbulo
barca
barcelona
barcelono
bardejov
bardo
barejno
barelo
bareloj
bari
baria
barilo
bariloj
baris
barita
baritono
barker
barko
barna
barnes
baro
baroj
baroka
barokaj
barokan
barokig
baroko
baron
barono
baronoj
barra
barral
barre
barrett
barrio
barros
barroso
barrow
barry
bars
bart
barth
bartha
barthe
bartholdy
barto
bartolome
bartolomeo
barton
bartos
bas
basa
basbalo
base
based
basel
baseno
basenoj
basenon
basgitaro
basic
basie
basil
basilikato
basin
basis
basisto
baso
bass
basse
basso
bastien
bastiono
bastonetoj
bastono
bastonoj
bastonon
bat
bataille
batal
batala
batalado
batalanta
batalantaj
batalante
batalanto
batalantoj
batalas
batalema
batali
bataliono
batalionoj
batalis
batalkampo
batalo
bataloj
batalojn
batalon
batals
batas
baterio
baterioj
bates
bath
bati
batis
batista
batita
bato
batoj
baton
batthya
battista
battle
batu
bau
baudelaire
bauer
bauhaus
baum
baumann
baur
bautista
bautzen
bavara
bavaria
bavario
bay
bayer
bayern
bayeux
bayreuth
baza
bazaj
bazajn
bazan
bazaro
bazaroj
bazas
bazata
baze
bazelo
bazig
baziliko
bazilikoj
bazilo
bazita
bazitaj
bazitan
bazlernejo
bazlernejon
bazo
bazoj
bazojn
bazon
bb
bbc
bc
bd
bde
be
bea
beach
bean
bear
beat
beata
beatles
beatrice
beatrico
beatriz
beau
beauchamp
beaufort
beaufront
beaumont
beaune
beautiful
beauty
beauvais
beauvoir
beaux
bebo
beboj
bebon
bec
beck
becker
beda
bedau
bede
bedeutung
bedr
bee
been
beer
beethoven
before
begin
begonia
behavior
behavioral
behaviour
behind
bei
beijing
being
beitra
beitrag
bejruto
bek
beka
beko
bekobazo
bekoj
bekojn
bekon
bel
bela
belaj
belajn
belan
belarta
belartaj
belartoj
bele
beleco
belecon
belega
belegaj
belegan
beletra
beletraj
beletristika
beletro
belfort
belfrido
belga
belgaj
belgio
belgoj
belgujo
belinzono
belizo
bell
bella
belle
belles
bellini
bellmare
bello
belmont
belmonte
belo
belorusa
belorusaj
belorusio
belulino
belva
belvedere
belvedero
ben
benavente
bendo
bendoj
bene
benedek
benedetto
benediktana
benediktanoj
benedikto
benes
benevento
bengala
bengalio
bengalo
beni
benino
benita
benito
benjamin
benko
benkoj
bennett
benny
beno
benoi
benon
benson
benth
benu
benz
benzena
benzeno
benzila
benzino
benzoata
benzoato
benzoatoj
beo
beogrado
ber
berbera
berberis
berberoj
bercht
bere
bereg
berenica
berg
bergamo
berge
bergen
berger
bergerac
bergman
bericht
berka
berkeley
berlin
berlina
berlinaj
berliner
berlino
berlinon
bermudo
bern
berna
bernard
bernardino
bernardo
bernd
berndt
bernhard
bernhardt
bernkastel
berno
bernoulli
bernstein
bero
beroj
berojn
beroun
berry
bersetzung
bert
berta
bertalan
bertha
berthold
bertilo
bertolt
bertrand
beru
berveling
bes
besanc
beschreibung
beslano
bessel
besson
best
besta
bestaj
bestaro
bestkuracisto
besto
bestog
bestoj
bestojn
bestokuracisto
beston
bestoscienco
besze
bet
beta
beth
bethlen
beto
betono
betty
betula
betulo
between
beverly
beyond
bezde
bezirk
bezonas
bezonata
bezonataj
bezone
bezonis
bezono
bezonoj
bezonojn
bezonon
bezonos
bf
bg
bi
bia
biała
bibcode
bible
biblia
bibliaj
biblio
bibliografia
bibliografio
bibliographie
bibliography
biblion
biblioteca
biblioteka
bibliotekisto
bibliotekistoj
biblioteko
bibliotekoj
bibliotekon
bibliothe
bibliotheca
bibliothek
bibopo
bicikla
biciklado
biciklisto
biciklo
bicikloj
biden
bie
bielefeld
bielo
bien
bienalo
bieno
bienoj
bienojn
bienon
bienulo
bierfarejo
biero
bieron
big
bihar
bihor
bikarbonato
biks
bilbao
bild
bilda
bildaro
bilder
bildgalerio
bildig
bildigas
bildigita
bildigo
bildliteraturo
bildo
bildoj
bildojn
bildon
bildstrioj
bileto
biletoj
biletojn
bileton
bill
billboard
billie
billy
bilo
bin
bingen
bio
biochemistry
biodiverseco
biodiversity
biogeografio
biogeography
biografi
biografia
biografiaj
biografieto
biografio
biografioj
biografion
biographical
biographie
biography
biokemiisto
biokemio
biologia
biologiaj
biologian
biological
biologie
biologio
biologo
biologoj
biology
biome
bios
biosfera
biosfero
biotechnology
biotopo
bird
birda
birdaj
birdlife
birdo
birdoj
birdojn
birdon
birdospecio
birdospecioj
birds
birdumo
birkenfeld
birma
birmingham
birmo
birth
bis
bisau
bisch
bishop
bismarck
bistrit
bita
bitburg
bitoj
bitterfeld
bizanca
bizancaj
bizancanoj
bizanco
bizet
bjalistoka
bjalistoko
bjo
bk
bl
bla
black
blackwell
blair
blaise
blake
blanc
blanca
blanche
blanco
blank
blanka
blankaj
blankajn
blankan
blanke
blankeca
blankecaj
blanko
blankuloj
blansko
blas
blasco
blatna
blazono
blazonoj
blazonon
blazons
ble
bleu
bli
blia
blica
blico
blind
blinda
blindaj
blindeco
blinduloj
bloch
block
blog
blogo
blois
blokado
blokis
bloko
blokoj
blonda
blood
bloom
bloomington
bloomsbury
blovas
blovinstrumentoj
blu
blua
bluaj
bluajn
bluan
blue
blues
blum
blume
bluo
blusaj
bluso
bm
bmatrix
bn
bner
bo
boa
board
boat
boato
boatoj
boaton
bob
bobby
boc
boca
bocage
boccaccio
bochum
bock
bocvano
bode
bodenlago
bodo
bodrog
body
boe
boeing
bofilo
bofrato
boga
bogota
bogoto
bohe
bohema
bohemia
bohemio
bohumi
bois
boiss
boj
bojkoto
boksisto
boleslao
boleslav
bolesław
boleti
boli
bolivia
bolivio
bologna
bolonjo
bols
bolyai
bolzano
bomba
bombado
bombardadis
bombardado
bombaviadiloj
bombay
bombo
bomboj
bon
bona
bonaero
bonaj
bonajn
bonan
bonaparte
bond
bone
boneco
bonega
bonegaj
bonegan
bonege
bonfara
bonfarto
bonifaco
bonkora
bonkvalita
bonkvalitaj
bonn
bonnet
bonno
bono
bonon
bons
bonsajo
bonstato
bonvenigis
bonvenon
bonvolu
book
books
bopatro
bor
bora
borba
borda
borde
bordeaux
border
bordo
bordoj
bordojn
bordon
bordozo
borel
borges
borgo
boris
bormann
born
borneo
boros
bors
borso
borsod
boru
borysiewicz
bos
bosch
bosco
bose
bosko
bosnia
bosnio
boston
bostono
bot
bota
botanical
botanika
botanikaj
botanikisto
botanikistoj
botaniko
botany
botau
botelo
boteloj
both
botreleo
bottom
bottrop
bouches
bougainville
boulder
boulevard
boulogne
boulton
bourbon
bourg
bourgeois
bourges
bovaj
bovido
bovino
bovinoj
bovisto
bovo
bovoj
bovojn
bowell
box
boy
boyd
boyer
boys
boz
bozen
bp
br
bra
brabanto
brad
bradley
brady
braga
braha
brahms
brain
brako
brakoj
brakojn
brakon
brakteoj
bram
branc
branco
brand
brandenburg
brandenburgio
brando
brandon
brandt
bras
brasiko
brasil
brasileira
brasso
bratislava
bratislavo
brauerei
braun
braunau
braunschweig
brava
brave
bravo
brazil
brazila
brazilaj
brazilan
brazilanoj
braziljo
brazilo
brazilon
bre
brec
brecht
breda
bredado
bredas
bredataj
breeding
breisgau
brej
bremen
bremeno
bremsi
brenner
bres
bresadolae
brescia
breslau
bresse
brest
bretagne
breto
breton
bretona
bretonaj
bretone
bretonio
breve
brevier
breviero
brewer
brezno
brian
brianza
brice
bridge
brie
brief
briefe
brien
brieuc
brigado
brigadoj
bright
brigitte
brika
briko
brikoj
brila
brilaj
brilajn
brilan
brilanta
brilas
brile
brilis
brill
brilo
brilon
briofitoj
bristol
brit
brita
britain
britaj
britajn
britan
britannica
britia
britio
brition
british
brito
britoj
britujo
brive
brno
bro
broadbent
broadcasting
broadcom
broadway
brockhaus
brod
brojo
broken
broklino
bromida
bromido
bromo
bromoacetato
bronisław
brons
bronza
bronzaj
bronzajn
bronzan
bronze
bronzepoko
bronzo
brook
brooke
brooklyn
brooks
bros
brother
brothers
brouwer
brown
browne
browser
browsing
bru
bruce
bruck
bruckner
brug
brulado
brulaj
brulanta
brulas
bruldetruis
brulego
brulema
brulig
bruligado
bruligi
bruligis
bruligita
bruligitaj
bruligo
brulis
brun
bruna
brunaj
brunajn
brunan
bruneca
brunecaj
brunejo
brunkapa
brunner
bruno
brunsvigo
brunswick
brunta
bruo
bruon
brusela
bruselo
brusta
brusto
bruston
brutaro
bruto
brutobredado
brutoj
brutojn
bruxelles
bryan
bryophyta
bryophytae
bs
bt
bu
bubo
buc
buch
buchanan
buchenwald
buck
bud
buda
budai
budapes
budapest
buddha
buddhism
buddleja
buddy
bude
budhisma
budhismaj
budhismo
budho
budo
buen
bueno
buenos
buffalo
bufo
bug
buh
building
buk
bukares
bukarest
buleo
bulgara
bulgaraj
bulgario
bulgaroj
bull
bulletin
bulonjo
bulteno
bultenon
bulvardo
bun
bund
bunta
buntaj
buntpego
bura
burbono
burbonoj
bureau
bureba
burg
burga
burgdorf
burgejo
burgen
burgenland
burgenlando
burger
burgo
burgoj
burgon
burgonja
burgonjo
burgos
burgoso
burke
burkino
burning
burns
buroj
buroo
burton
burundo
bus
busa
busch
bush
business
buslinio
buslinioj
buso
busoj
busto
but
butano
butanolo
buteo
buteoj
buterata
buterato
butero
butiko
butikoj
butila
butler
butono
butterfly
buxwv
buza
bv
bw
bwv
by
bydgoszcz
byrd
byron
bystr
bystrica
c
ca
cab
caballero
caballeros
cabeza
cabo
cabral
cabrera
cac
cada
caen
caesar
cafe
cage
cahiers
cai
cal
calabria
calais
calatayud
calatrava
caldero
calern
cali
california
call
calle
called
callicarpa
calvados
calvin
calvo
calzada
cam
camacho
cambrai
cambre
cambridge
came
camera
cameron
cameros
camille
camillo
camino
camp
campaign
campbell
campin
campinas
campo
campos
camus
can
canada
canadensis
canadian
canal
canaria
cancer
canis
cannes
cannon
cano
canon
cantal
canterbury
canto
canton
cantor
canvas
canyon
cao
cap
cape
capensis
capita
capital
capitol
capo
cappella
captain
car
cara
caracas
caras
carcassonne
cardoso
carduelis
care
caribbean
carl
carla
carlo
carlos
carmen
carnegie
carnot
caro
carol
carolina
caroline
carolyn
carr
carrie
carroll
cart
carta
carter
cartier
carvalho
cas
casa
casanova
casas
case
cases
casimir
caso
caspar
cassini
castan
castel
castello
castelo
castiglione
castilla
castillo
castle
castro
cat
catala
catalina
catalogue
catalunya
catania
catarina
cathedral
catherine
catholic
cato
cattolica
causa
cause
caussols
cave
cavendish
cay
cb
cbs
cc
ccd
cd
cdc
cdeli
cdot
cdots
cdu
ce
cearao
cebaot
cecil
cecilia
cedar
cedas
cedi
cedis
cedro
cegle
ceinture
cel
cela
celanta
celantaj
celante
celas
celata
cele
celebrado
celebras
celebrata
celebri
celebris
celi
celis
celita
cell
celldo
celle
celo
celoj
celojn
celon
cemento
cendoj
censa
censita
censo
census
cent
centau
center
centimetroj
centimetrojn
centjara
centjarig
cento
centoj
centojn
centr
centra
centrafrika
centraj
central
centrale
centralo
centraloj
centrameriko
centran
centre
centrejo
centrig
centrita
centro
centroj
centrojn
centron
centrum
centuries
century
cenzuro
cepo
ceramika
ceramikaj
ceramikisto
ceramiko
cerba
cerbo
cerbon
cerealoj
ceremonia
ceremonio
ceremonioj
ceremoniojn
ceremonion
ceres
cerezo
cerl
cerro
certa
certaj
certajn
certan
certas
certe
certeco
certig
certigas
certigi
certigis
cervantes
cervo
cervoj
ces
cesare
cesta
cetacoj
cetera
ceteraj
ceterajn
cetere
cetero
cezareo
cezaro
cf
cgi
ch
cha
chabrol
challenge
chalon
cham
chamberlain
chambers
champ
champagne
champion
champs
chan
chance
chandler
chang
change
changes
changing
channel
chanson
chant
chantal
chapel
chapelle
chaplin
chapman
chapter
character
characteristics
charente
charles
charlie
charlotte
charlottenburg
chartres
chase
chat
chaucer
chaux
che
cheb
checklist
chelsea
chemical
chemicalland
chemicals
chemie
chemin
chemins
chemistry
chemnitz
chen
chenyi
cher
cherry
chess
chester
chet
chevalier
chez
chi
chiapas
chiba
chicago
chick
chico
chief
chiesa
chihuahua
child
children
chile
chin
china
chinese
ching
chinon
chirac
chisholm
cho
chod
choice
chomsky
chomutov
chopin
chov
chr
chre
chris
christ
christensen
christi
christian
christiane
christianity
christie
christina
christine
christmas
christoph
christophe
christopher
christus
chronicle
chronik
chrudim
chu
chuck
chulilla
church
churchill
chy
ci
cia
cianato
cianido
cianoacetata
cianoacetato
cianobenzoata
cianobenzoato
cicero
cicerono
ciconia
cid
cido
cie
ciel
cielo
ciencias
cifereca
ciferecaj
cifero
ciferoj
ciferojn
ciga
cigana
ciganoj
cigno
cignoj
cikla
ciklo
ciklobutila
cikloheksanolo
cikloheksila
cikloheptila
cikloj
ciklon
ciklopentila
cikonio
cikonioj
cile
cilindra
cilindraj
cilindro
cima
cin
cinamata
cinamato
cinamila
cincinnati
cinco
cindro
cindroj
cine
cinema
cinq
cio
cion
cionismo
circ
circle
circus
cirila
cirilaj
cirile
cirilo
cirkau
cirkla
cirklo
cirkloj
cirklon
cirko
cirkonstanco
cirkonstancoj
cirkonstancojn
cirkulado
cirkulas
cirkvito
cirkvitoj
ciro
cis
cisjordanio
cismontaro
cisterciana
cistercianoj
cit
citadelo
citaj
citante
citas
citata
cite
citi
cities
citis
citita
cititaj
citrato
citronelila
citrono
citrus
citta
city
citypopulation
ciuc
ciudad
ciuszko
civil
civila
civilaj
civilajn
civilan
civilizacio
civilizacioj
civilization
civilizo
civilizoj
civiluloj
civilulojn
civita
civitana
civitanaj
civitaneco
civitanecon
civitano
civitanoj
civitanojn
civito
ck
cke
cken
cker
cl
cla
clair
claire
clara
clare
clarence
clarendon
clark
clarke
class
classic
classical
classics
classification
claude
claudia
claudio
claudius
claus
clav
clay
clayton
cle
clemens
clement
clemente
clements
clermont
clerodendrum
clethra
cleveland
clifford
climate
clinical
clinton
clio
close
cloud
club
cluj
cluny
clyde
cm
cn
cnn
cnrs
cnt
co
coa
coast
coastal
coat
coburg
cochem
code
codex
cohen
cohn
col
cola
cold
cole
coleman
colette
colin
coll
colle
collected
collection
collections
college
collegium
collier
collins
colmar
colo
coloj
colombia
colon
colonia
colonial
color
colorado
colors
coltrane
columba
columbia
columbus
com
comba
combat
come
comes
comics
coming
comite
comme
comment
commentary
commerce
commission
committee
common
commons
commonwealth
communaute
communes
communication
communications
communist
communities
community
como
compagnie
compan
companion
company
comparative
comparison
compendium
complete
complex
composition
compostela
compounds
comprehensive
computer
comte
comunidad
con
conan
concepcio
concept
concepts
concert
concerto
concise
concordia
conde
condor
conference
conflict
congo
congress
connecticut
connor
conquista
conrad
consadole
conscience
conseil
consejo
conservation
constant
constantin
constantine
constitution
construction
conte
contemporary
content
conteo
contes
context
continental
continuo
contra
contre
control
convention
conway
cook
cool
coonabarabran
cooper
coord
copa
corazo
corbusier
cordillera
core
cornelia
cornelis
cornelius
cornell
cornwall
corona
corporation
corps
corpus
corre
corse
corsetti
corte
corvus
cos
cosenza
costa
cotton
could
council
count
countries
country
county
cour
cours
course
court
covasna
cover
covid
cowbird
cox
coxeter
cp
cr
craig
cranach
crane
crawford
crazy
crc
cre
creation
creative
creek
cremona
creuse
cri
crime
cris
crisis
cristina
cristo
cristuru
critical
critique
cro
croce
croix
cromwell
cropped
crosby
cross
crown
crowned
cruz
crypturellus
crystal
cs
csa
csaba
csala
cse
cseh
csi
csiky
cso
csokonai
csongor
csongra
css
csu
csy
ct
ctor
cu
cua
cuando
cuatro
cuba
cue
cuenca
cuentos
cueva
cultura
cultural
culture
cultures
cum
cunamo
cuneo
cunha
cunningham
cup
cura
curie
curitiba
current
curtis
cut
cuxhaven
cv
cxd
cy
cyr
cyrano
cyril
cz
cze
czech
czesław
czi
czy
cœur
d
da
dachau
dado
dag
dagestano
dahl
dai
daily
daj
dakaro
dako
dakota
dakoto
dal
dalai
dale
dali
dallas
dalmatio
dalton
dam
dama
damag
damasko
dame
damiano
damo
dan
dana
danaj
danan
danca
dancado
dancas
dance
danci
dancigo
dancis
dancistino
dancisto
dancistoj
danco
dancoj
dancon
dane
dang
daniel
daniela
daniele
danielo
danio
dank
dankas
danke
danki
dankis
danko
dankon
danny
danoj
dans
danse
dante
danuba
danubo
danujo
daphne
dar
dario
dark
darkgrey
darmstadt
darvino
darwin
das
dasd
daszyn
dat
data
database
datado
dataj
datas
date
datenoj
datenojn
datig
datita
datitaj
dato
datoj
daton
datreveno
datrevenon
datumas
datumbazo
datumo
datumoj
datumojn
dau
daun
dave
david
davido
davidson
davies
davis
davos
davy
dawn
dawson
dax
day
days
db
dc
dchen
dcysc
dd
ddr
de
dea
dead
dean
death
debato
debatoj
debaton
debehogne
debla
debrecen
debreceno
debussy
debuta
debutis
debuto
dec
decca
december
decembre
decembro
decida
decidan
decidas
decide
decidi
decidig
decidis
decidita
decidite
decido
decidoj
decidojn
decidon
deciduaj
decline
dedic
dedukti
dee
deep
defau
defend
defenda
defendaj
defendan
defendante
defendanto
defendantoj
defendas
defendi
defendis
defendo
defendon
defense
defiis
define
definitiva
definitivan
definitive
defio
defioj
deflankig
degli
deh
dei
dej
dek
deka
dekadencis
dekadenco
dekano
dekdu
dekdua
dekduedro
dekduo
dekila
dekjara
dekkvin
deklaracio
deklaracion
deklarante
deklaras
deklari
deklaris
deklarita
deklaritaj
deklaro
deklaroj
deklaron
dekliva
deklivaro
deklivo
deklivoj
deknau
deko
dekoj
dekojn
dekomenca
dekomence
dekonaj
dekoraciisto
dekoracio
dekretis
dekreto
dekretoj
dekreton
deksesuma
dekstra
dekstraj
dekstran
dekstre
dekstren
dekstro
dekuma
dekunu
dekunua
del
dela
delaunay
delegacio
delegita
delegitaro
delegito
delegitoj
delemonto
delfeno
delfenoj
delfo
delhi
delhio
delia
delikata
delikataj
dell
della
delle
delonge
delta
delto
dem
demandas
demandi
demandis
demando
demandoj
demandojn
demandon
demetas
demetis
demetrio
demisiis
demisio
demo
democracy
democratic
demografia
demografio
demokrata
demokrataj
demokratia
demokratiaj
demokratian
demokratie
demokratio
demokration
demokratoj
demono
demonoj
demonstris
den
denaska
denaskaj
denaske
dendroica
denis
denise
dennis
denova
denove
densa
densaj
densan
dense
denseco
densecon
denso
denson
denta
dento
dentoj
dentojn
denuncis
deo
departamento
departementa
departementaj
departementejo
departementestro
departemento
departementoj
departementon
department
departmento
dependa
dependaj
dependas
depende
dependeco
dependis
deponejo
deponejoj
deportado
deportis
deportita
deportitaj
depost
depresio
deputita
deputitaj
deputito
deputitoj
deputitojn
der
derby
derbyshire
derek
derivaj
derivas
derivig
derivita
derivitaj
des
descartes
description
desde
desegnado
desegnaj
desegni
desegnis
desegnisto
desegnita
desegnitaj
desegno
desegnoj
desegnojn
desegnon
desert
deserto
design
desire
despue
dessau
destinis
destinita
destinitaj
destino
destinon
det
detail
detala
detalaj
detalajn
detalan
detale
detalo
detaloj
detalojn
detekti
detektivo
deteni
determinas
determini
determinis
determinismo
determinita
detlev
detranc
detroit
detrojto
detrua
detruado
detruas
detrui
detruig
detruis
detruita
detruitaj
detruo
detruoj
detruon
deu
deus
deutsch
deutsche
deutschen
deutscher
deutsches
deutschland
deutschlands
deux
deva
devant
devas
development
devena
devenaj
devenanta
devenantaj
devenas
devene
deveni
devenis
deveno
devenoj
devenon
devi
deviga
devigaj
devigan
devigante
devigas
devigata
devigataj
devige
devigi
devigis
devigita
devigitaj
devigo
devil
devintus
devis
devizo
devo
devoj
devojig
devojn
devon
devos
devus
dez
dezajnita
dezajno
dezerta
dezertaj
dezertig
dezerto
dezertoj
dezerton
dezirante
deziras
dezirata
deziris
deziro
deziroj
dezirojn
deziron
dezirus
dezso
df
dg
dh
di
dia
diabeto
diabla
diable
diablo
diagnozo
diagramo
diaj
diakono
dialektika
dialektiko
dialekto
dialektoj
dialektojn
dialekton
dialogo
dialogoj
dialogon
dialogue
diamanto
diamantoj
diametro
diametroj
diametron
diamond
dian
diana
diane
dianthus
diario
diary
dias
diasporo
diboc
diccionario
dich
dick
dickens
dico
dictionary
dictionnaire
did
diderot
didier
dido
die
dieco
diego
dies
diet
dieter
dieto
dieton
dietrich
dieu
diez
difektig
difektita
difekto
difektoj
difektojn
diferenca
diferencaj
diferencajn
diferencan
diferencas
diference
diferenciala
diferencialaj
diferencig
diferencigas
diferencigi
diferencigo
diferenco
diferencoj
diferencojn
diferencon
different
difina
difinas
difini
difinig
difinis
difinita
difinitaj
difinitajn
difinitan
difino
difinoj
difinon
dig
diger
digesta
digimon
digital
digitalisat
digno
digo
digoj
diino
diinoj
dija
dijo
dijon
dika
dikaj
dikajn
dikan
dikeco
diktatoreco
diktatoro
diktaturo
dilig
diligenta
diligente
diluvo
dimanc
dimensia
dimensiaj
dimensio
dimensioj
dimensiojn
dimension
dimorfismo
din
dina
dinamika
dinamiko
dinan
dinastia
dinastio
dinastioj
dinastion
dino
dinosau
dinslaken
dinte
dio
diocezo
diocezoj
diodoro
dioj
diojn
diokleciano
dioksido
dion
dionizo
dios
diospyros
dipatrino
diplomata
diplomatia
diplomatiaj
diplomatiajn
diplomatio
diplomatique
diplomato
diplomatoj
diplomig
diplomita
diplomitig
diplomo
diplomoj
diplomojn
diplomon
diputacio
dir
dira
diraj
dirante
diras
dirata
dire
direct
direkcio
direkta
direktado
direktas
direkte
direkti
direktig
direktis
direktisto
direktita
direktitaj
direktivo
direkto
direktoj
direkton
direktoraro
direktorino
direktorio
direktoro
direktoroj
direktoron
diri
dirigentis
dirigento
dirigentoj
dirinte
diris
dirita
diritaj
dirite
dirk
diro
diroj
diros
diru
dirus
dis
disa
disaj
disau
disbranc
disc
discentra
discentreco
disciplino
disciplinoj
discours
discovery
disde
disdivido
disdonas
disdonis
disdono
dise
disease
diseases
disertacio
disertaj
diservo
diservoj
disfalanta
disfalis
disfalo
disidentoj
disig
disigas
disigi
disigis
disigita
disigitaj
disigo
disj
diskaro
diskeldonejo
disko
diskografio
diskoj
diskojn
diskon
diskonigi
diskonigis
diskreta
diskriminacio
diskurso
diskutado
diskutas
diskutata
diskuti
diskutis
diskutita
diskuto
diskutoj
diskutojn
diskuton
dismo
disney
dispartigo
display
disponas
disponebla
disponeblaj
disponeblas
disponeblo
disponi
disponigas
disponigi
disponigis
disponis
dispono
dispozicio
dispozicioj
disputata
disputo
disputoj
disputojn
disputon
diss
dissendo
dissertatio
dissertation
dissolvig
dissolvita
dissolvo
distance
distancig
distanco
distancoj
distancojn
distancon
distas
distilado
distinga
distingaj
distingan
distingas
distingebla
distingeblaj
distingi
distingig
distingilo
distingis
distingita
distingitaj
distingo
distingoj
distingon
distr
distra
distraj
distranc
distribuado
distribuadon
distribuaj
distribuita
distribuitaj
distribuo
distribution
district
distrikta
distriktaj
distriktaro
distriktc
distriktejo
distrikto
distriktoj
distriktojn
distrikton
distro
disvastig
disvastigado
disvastigas
disvastigata
disvastigi
disvastigis
disvastigita
disvastigitaj
disvastigo
disvastigon
disvolvado
disvolvas
disvolvi
disvolvig
disvolvigi
disvolvigis
disvolvigita
disvolvigitaj
disvolvigo
disvolvigon
disvolvis
disvolvita
disvolvo
dit
dita
dithmarschen
dition
ditions
ditrih
diveni
diverg
diversa
diversaj
diversajn
diverse
diverseco
diversecon
diversity
diverslandaj
diversloke
diversmaniere
diversspecaj
dividaj
dividas
dividata
dividi
dividig
dividis
dividita
dividitaj
dividlinio
divido
dividoj
dividon
division
divizio
divizioj
divorcis
divorco
dix
dixon
diz
dizajnita
dizajno
dizionario
dizzy
dj
djordj
djula
dk
dky
dl
dla
dliche
dlr
dm
dmezo
dmg
dmitrij
dms
dn
dna
do
doboka
dobr
dobra
doc
docento
doch
doctor
documents
dodekila
dodo
does
dog
dogmo
dogmoj
doho
doi
doj
dojn
dok
doktor
doktoreco
doktorecon
doktorig
doktoro
doktoroj
doktrino
doktrinoj
doktrinon
dokumenta
dokumentado
dokumentaj
dokumentaro
dokumentas
dokumente
dokumentis
dokumentita
dokumentitaj
dokumento
dokumentoj
dokumentojn
dokumenton
dol
dolaro
dolaroj
dolarojn
dolc
dole
doli
dolina
dolni
dolny
dolora
dolores
doloro
doloroj
doloron
dom
doma
domag
domajno
domaro
domaroj
domaz
dombo
dome
domego
domenico
dometo
dometoj
domi
domin
domina
dominado
dominaj
dominanta
dominanto
dominas
dominata
domine
domingo
domini
dominik
dominika
dominikana
dominikanoj
dominiko
dominique
dominis
dominita
domino
domo
domoj
domojn
domokos
domon
don
dona
donacas
donaci
donacis
donacita
donaco
donacoj
donacojn
donacon
donado
donaj
donald
donante
donantoj
donas
donata
donau
donde
donecka
dong
doni
donimo
donimoj
donis
donita
donitaj
donitan
donizetti
donna
donne
donnersberg
dono
donoj
donojn
donomo
donon
donos
donu
donus
door
dor
dora
dordogne
dore
dorf
doria
doris
dormanta
dormas
dormi
dormis
dormo
dormoc
dornoj
doroteo
dorothea
dorothy
dorsa
dorse
dorso
dorson
dortmund
dos
dosiero
dosieroj
dosierojn
dostojevskij
dot
dots
dou
douard
double
doubs
douglas
douglass
dover
down
doyle
dozo
dozoj
dp
dq
dr
dra
dragon
drahana
drake
drako
drakoj
drama
dramaj
dramaturgo
dramisto
dramistoj
dramma
dramo
dramoj
dramojn
dramon
dramverkisto
dras
draste
drato
draz
dre
dream
dreams
drei
dresden
dresdena
dresdeno
drew
dreyfus
drinkejo
drive
dro
drogo
drogoj
droit
dronis
drsc
drug
drugs
drumisto
drumo
dry
ds
dsc
dt
dter
dtv
du
dua
duafoje
duaj
duala
duan
duaranga
duarangaj
duarte
dub
duba
dubai
dubajo
dubas
dubi
dubinda
dubis
dubler
dublin
dublino
dubo
dubois
duboj
dubojn
dubromoacetata
dubromoacetato
duc
ducent
duck
ducks
duda
dudek
dudeka
dudekedro
due
duelo
duen
duero
duetag
duetila
dufluoroacetata
dufluoroacetato
dufoje
duformismo
duisburg
dujara
duka
duke
dukino
duklando
duklandoj
duklandon
dukloroacetata
dukloroacetato
duko
dukoj
dukolora
dukotiledonaj
dulingva
dulingvaj
dulitera
dum
dumao
dumas
dume
dumetilbenzoata
dumetilbenzoato
dumfluge
dumlonge
dumnokte
dumont
dumpase
dumtage
dumtempe
dumviva
dumvive
dun
duna
dunajska
dunau
duncan
duncker
dungado
dungi
dungig
dungis
dungita
dungitaj
dungito
dungitoj
dungitojn
dunn
dunoj
duo
duobla
duoblaj
duoblan
duoble
duoblig
duobligo
duoksido
duoksidon
duon
duona
duonakso
duonan
duonarbaroj
duoncirkla
duone
duonfinalo
duonfrato
duonglobo
duonig
duoninsula
duoninsulo
duoninsulon
duono
duonon
duonronda
duopa
duopaj
duope
duopo
dupont
duque
dur
dura
durand
durango
durante
durch
durero
durham
during
dus
duseksaj
duseldorfo
dusulfido
dutch
duuma
dv
dvd
dvor
dvu
dw
dwestpfalz
dwight
dx
dy
dylan
dynamics
dz
e
ea
eagle
earl
early
earth
east
eastern
easy
eau
eb
eba
ebea
ebena
ebenaj
ebeno
ebenoj
eberhard
ebert
ebi
ebla
eblaj
eblajn
eblan
eblas
eble
ebleco
eblecoj
eblecojn
eblecon
ebligante
ebligas
ebligi
ebligis
eblis
eblo
ebloj
eblojn
eblon
eblus
ebova
ebria
ebro
ebur
eburo
ec
eca
ecaj
ecajn
ecan
ecbruna
ecclesiae
ech
echo
eck
eckernfo
eclav
ecm
eco
ecoj
ecojn
ecological
ecology
econ
econo
economic
economics
economy
ed
eda
edda
eddie
eddy
ede
eden
eder
edgar
edge
edicio
ediciones
edicions
edikto
edinburgh
edinburgo
edipo
edison
edit
edited
edith
edition
editions
editor
editora
editore
editores
editorial
editors
edizioni
edmond
edmund
edni
edo
edouard
edro
edroj
eds
edu
eduard
eduardo
educacio
education
educational
eduka
edukado
edukadon
edukaj
edukejo
eduki
edukig
edukis
edukisto
edukita
edukitaj
eduko
edukon
edvard
edward
edwards
edwin
edzeco
edzig
edzinig
edzinigis
edzino
edzinoj
edzinojn
edzinon
edzo
edzoj
edzon
ee
een
eesta
eestanta
eestantaj
eestantoj
eestas
eesti
eestis
eesto
eeston
ef
efa
efaj
efajn
efaltaro
efan
efang
efdelegito
efe
efektiva
efektivan
efektive
efektivig
efektivigas
efektivigi
efektivigis
efektivigita
efektivigo
efekto
efektoj
efekton
efenirejo
efepiskopo
efepiskopoj
efepiskopujo
efezo
effect
effects
effendi
efika
efikaj
efikan
efikas
efike
efikeco
efikecon
efiki
efikis
efiko
efikoj
efikojn
efikon
efing
efinstruisto
efkomandanto
efkuracisto
efloko
efministro
efministroj
efministron
efo
efoj
efon
efpag
efpastro
efplaco
efraim
efredaktoro
efrolis
efrolo
efrolon
efrolulo
efroluloj
efsekretario
efsidejo
efstacidomo
efstrato
eftemo
efturo
efurba
efurbaj
efurbestro
efurbo
efurboj
efurbon
efverko
efverkoj
efvilag
efvojo
efvojoj
eg
ega
egaj
egala
egalaj
egalajn
egalan
egalas
egale
egaleco
egalecon
egalis
egan
ege
egea
eger
egg
egidio
egipta
egiptaj
egiptia
egiptio
egiption
egipto
egiptoj
egiptujo
eglise
ego
egon
egy
egyesu
egyha
egypt
eh
eha
ehime
ehrlich
ei
eichsfeld
eifel
eiffel
eight
ein
einaudi
eindhoven
eine
einem
einen
einer
eines
einfu
einstein
eisenach
eisenberg
eisenstadt
eisenstein
ej
eja
ejaj
ejan
ejeto
ejfelo
ejh
ejko
ejnombrado
ejo
ejoj
ejojn
ejon
ejov
ek
eka
ekaperis
ekas
ekatakis
ekau
ekbriloj
ekde
ekdej
ekestas
ekestinta
ekestis
ekesto
ekfluas
ekflugas
ekflugo
ekfunkciis
ekg
ekgravis
ekhavas
ekhavi
ekhavis
eki
ekig
ekigis
ekinstruis
ekinteresig
ekipaj
ekipita
ekipitaj
ekiris
ekis
ekkaptis
ekkoni
ekkonis
ekkono
ekkonstruis
ekkriis
eklaboris
eklernis
eklezia
ekleziaj
ekleziajn
eklezian
ekleziejo
eklezio
eklezioj
eklezion
ekleziuloj
eklipso
eklog
eko
ekokupis
ekologia
ekologiaj
ekologian
ekologie
ekologio
ekonomia
ekonomiaj
ekonomiajn
ekonomian
ekonomie
ekonomika
ekonomikaj
ekonomikisto
ekonomikistoj
ekonomiko
ekonomikon
ekonomio
ekonomioj
ekonomion
ekoprovinco
ekoregiono
ekoregionoj
ekosistemo
ekosistemoj
ekozono
ekparolis
ekpensis
ekposedis
ekprenis
ekrano
ekranoj
ekregis
ekrigardis
eks
eksa
eksaj
ekscias
ekscii
eksciis
ekscitig
eksedzig
eksentis
eksig
eksigita
eksklavo
ekskludas
ekskluziva
ekskluzive
ekskurso
ekskursoj
eksonas
eksonis
ekspansio
ekspedicio
ekspedicioj
ekspediciojn
ekspedicion
eksperimenta
eksperimentado
eksperimentaj
eksperimente
eksperimentis
eksperimento
eksperimentoj
eksperimentojn
eksperimenton
ekspiro
eksplicita
eksplicite
eksplikas
ekspliki
eksplodaj
eksplodigis
eksplodis
eksplodo
eksplodoj
eksplodon
ekspluatado
ekspluati
ekspluatis
ekspluato
eksponaj
eksponitaj
ekspono
eksportado
eksportaj
eksporto
ekspozicia
ekspoziciaj
ekspoziciejo
ekspoziciis
ekspoziciita
ekspozicio
ekspozicioj
ekspoziciojn
ekspozicion
ekspresionismo
ekspreso
ekstaris
ekster
ekstera
eksteraj
eksterajn
eksteran
eksterdistrikta
eksterdistriktaj
ekstere
eksteren
eksterlanda
eksterlandaj
eksterlandajn
eksterlandan
eksterlandanoj
eksterlande
eksterlanden
eksterlando
eksterleg
ekstermejo
ekstero
eksterordinara
eksterordinaraj
eksterordinaran
eksterordinare
eksterteranoj
ekstrema
ekstremaduro
ekstremaj
ekstreme
ekstremo
ekstudis
ektus
ekumena
ekuzis
ekvacio
ekvacioj
ekvacion
ekvadoro
ekvalidis
ekvatora
ekvatoro
ekverkis
ekveturis
ekvidas
ekvidi
ekvidis
ekvilibra
ekvilibro
ekvilibron
ekvivalenta
ekvivalentaj
ekvivalento
ekvivalentoj
ekvojag
ekz
ekzakta
ekzakte
ekzamena
ekzamenas
ekzameni
ekzamenis
ekzamenitaj
ekzameno
ekzamenoj
ekzamenojn
ekzamenon
ekzekutis
ekzekutita
ekzekutitaj
ekzekuto
ekzekutoj
ekzempla
ekzemplaj
ekzemple
ekzemplero
ekzempleroj
ekzemplerojn
ekzempleron
ekzemplo
ekzemploj
ekzemplojn
ekzemplon
ekzercado
ekzerco
ekzercoj
ekzila
ekzilig
ekzilita
ekzilitaj
ekzilitoj
ekzilo
ekzilon
ekzistadismo
ekzistado
ekzistadon
ekzistanta
ekzistantaj
ekzistantajn
ekzistantan
ekzistas
ekzisti
ekzistinta
ekzistis
ekzisto
ekziston
ekzistus
ekzotaj
el
ela
elac
elaera
elaj
elasta
elb
elba
elbe
elbo
elc
eld
elde
eldiris
eldiro
eldiroj
eldona
eldonado
eldonadon
eldonaj
eldonanto
eldonas
eldonata
eldonejo
eldonejoj
eldonejon
eldoni
eldonig
eldoninto
eldonis
eldonisto
eldonistoj
eldonita
eldonitaj
eldonkvanto
eldono
eldonoj
eldonojn
eldonon
ele
eleanor
electric
electronic
elefanto
elefantoj
elegans
eleganta
elek
elekta
elektado
elektas
elektata
elekteblaj
elekti
elektig
elektis
elektisto
elektita
elektitaj
elektitoj
elekto
elektodistrikto
elektoj
elektojn
elekton
elektra
elektraj
elektrajn
elektran
elektre
elektrejo
elektro
elektromagneta
elektron
elektrona
elektronika
elektronikaj
elektroniko
elektrono
elektronoj
elektrotekniko
elektu
eleme
elementa
elementaj
elemento
elementoj
elementojn
elementon
elements
elena
eleonora
elephant
eleso
elfluas
elfluejo
elfluo
elformig
elfosado
elfosadoj
elfosaj
elfosis
elfosita
elfositaj
elgermanigita
eli
elias
elig
eligas
eligi
eligis
eligo
elija
elimini
elio
eliot
elipsa
elira
eliranta
eliras
elirejo
eliri
eliris
eliro
eliros
elirpunkto
eliru
elis
elisabeth
elise
elisto
elita
elito
eliza
elizabeta
elizabeth
elizabeto
elj
elkreskis
ell
ella
ellaborado
ellabori
ellaboris
ellaborita
ellandigo
elle
ellen
ellernis
ellington
elliot
elliott
ellis
elme
elmigrado
elmigri
elmigrintoj
elmigris
elmontras
elmontris
elnestig
elo
eloj
elojn
elon
elovig
elp
elparolo
elparolu
elpas
elpelita
elpelitaj
elpensis
elpensita
elpostenigita
elpreni
elprenis
els
elsa
else
elsendas
elsendi
elsendis
elsendita
elsendo
elsendoj
elsevier
elso
elspezis
elspezo
elspezoj
elspezojn
elst
elstara
elstaraj
elstarajn
elstaran
elstaras
elstare
elstarig
elstaris
elstaruloj
elster
elte
eltenas
elteni
eltenis
eltiraj
eltiri
eltiris
eltirita
eltranc
eltrovi
eltrovis
eltrovita
eltrovo
elturnig
eluzis
elvers
elvira
elvis
elvokas
elvokis
em
ema
emaj
emancipig
emanuel
emanuelo
emara
emas
ember
emberiza
emberizedoj
emberizo
emblemo
embrio
eme
emela
emelaj
emelig
emelkomunumo
emeloj
emelurbo
emelurboj
emerg
emeriko
emerita
emeritig
emerson
emes
emfazas
emfazi
emfazis
emfazo
emi
emia
emida
emidaj
emil
emile
emilia
emilio
emily
eminenta
eminentaj
eminentuloj
emio
emirlando
emirlandoj
emiro
emis
emizo
emle
emma
emmanuel
emmanuelle
emme
emmy
emo
emocia
emocie
emocio
emocioj
emociojn
emon
emperor
empire
ems
emscher
emu
emuo
emysl
en
ena
enado
enaj
enajn
enamig
enan
enas
enbus
enc
enciclo
enciclopedia
encikliko
enciklopedia
enciklopedio
enciklopedioj
enco
encyclopaedia
encyclope
encyclopedia
encyclopædia
end
endang
endangered
endarmoj
endate
ende
endemia
endemiaj
endemio
endormig
endre
ene
eneado
enec
enen
eneo
enerala
eneralaj
eneralajn
eneralan
enerale
eneraligita
eneraligo
energia
energiaj
energie
energio
energioj
energion
energy
enestanta
enestas
eneva
enevo
enfant
enfants
enfermita
enfluas
enfluejo
enfluo
eng
engag
engel
engels
engelso
engineering
engl
england
english
enhavanta
enhavantaj
enhavante
enhavas
enhavi
enhavis
enhavo
enhavoj
enhavon
eni
enia
eniera
enierado
enierarto
eniero
enieroj
enig
enigas
enigi
enigis
enigita
enigitaj
enigma
enigmo
enigmoj
enigo
eniko
enio
enirante
eniras
enireja
enirejo
enirejoj
enirejon
eniri
eniris
eniro
eniron
eniros
eniru
enis
enj
enkadre
enkarcerigita
enkarnig
enketado
enketo
enketoj
enketon
enklavo
enko
enkonduka
enkondukas
enkonduki
enkondukig
enkondukis
enkondukita
enkondukitaj
enkonduko
enkondukon
enkov
enlanda
enlandaj
enlandan
enlande
enlando
enlightenment
enlog
enmars
enmetas
enmeti
enmetis
enmetita
enmetitaj
enmeto
enmigrado
enmigrantoj
enmigrintoj
enmigris
enmiksig
eno
enoficig
enoj
enojn
enon
enorma
enormaj
enormajn
enorman
enov
enovo
enpas
enpostenig
enprizonigita
enpus
enradikig
enrico
enrique
enro
enroj
enron
ens
enscenigis
ensemble
ensemblo
ensembloj
ensemblon
enskribaj
enskribig
enskribita
enskribitaj
enskribo
enspezo
enspezofontoj
enspezoj
enspezojn
enspezon
enta
entaj
entajn
entajpu
entan
entenanta
entenas
enteni
entenis
entento
enterigis
enterigita
enterigitaj
enterigo
enterprise
entertainment
entila
entile
entjera
entjeraj
entjero
entjeroj
ento
entoj
entombig
entombigis
entombigita
entombigitaj
entombigitoj
entombigo
entomologo
enton
entranc
entre
entreprena
entreprenas
entrepreni
entreprenis
entreprenisto
entreprenistoj
entrepreno
entreprenoj
entreprenojn
entreprenon
entstehung
entuta
entute
entuziasma
entuziasme
entuziasmig
entuziasmo
entuziasmon
entwicklung
enurbaj
enverguro
envers
environment
environmental
enyedi
enz
enzimo
enzimoj
enzyklopa
eo
eoceno
eoj
eosta
ep
epa
eparh
eperjes
epic
epidemio
epidemioj
epifanio
epiro
episkopa
episkopejo
episkopo
episkopoj
episkopon
episkopujo
episodo
epistola
epistolo
epistoloj
epiteto
epizodo
epizodoj
epizodojn
epizodon
epoko
epokoj
epokon
epopeo
eposo
epsilon
epub
er
era
eraj
erajn
erajso
eran
erao
erara
eraras
erare
eraris
eraro
eraroj
erarojn
eraron
erasmo
erasmus
erce
ercmontaro
erco
ercoj
erde
erdo
ere
erevana
erevano
erfurt
erfurta
erfurter
erfurto
erhard
eria
eriaj
eric
erich
eridano
erigita
erigitaj
erik
erika
erikejo
eriko
erinnerungen
erio
erita
eritaj
eritreo
erkel
erko
erlangen
ermana
ermanaj
ermanoj
ermita
ermitejo
ermitejoj
ermito
ermo
erna
ernest
ernesto
ernih
erno
ernst
erny
ero
eroj
erojn
eron
erono
eros
erotika
erotikaj
erov
erozio
erpig
erpis
erpita
erste
ersten
ertl
erto
ertoj
erudiciulo
erudiciuloj
erupcio
erupcioj
ervena
ervin
erwin
erza
erzejo
erzse
erzsi
es
esa
esas
escepta
esceptaj
escepte
escepto
esceptoj
esch
escorial
escuela
ese
eseisto
eseistoj
esenca
esencaj
esencan
esence
esenco
esencon
eseo
eseoj
eseojn
eseon
esh
esi
esigi
esigis
esigita
esigo
esis
eska
eskapi
eskapis
eske
esko
esky
eso
esos
esp
espan
espasa
espe
esperanta
esperantaj
esperantajn
esperantan
esperante
esperantig
esperantigis
esperantigita
esperantigite
esperantigo
esperantismo
esperantist
esperantista
esperantistaj
esperantistan
esperantistaro
esperantistig
esperantistino
esperantisto
esperantistoj
esperantistojn
esperantlingva
esperantlingvaj
esperantlingve
esperanto
esperantologio
esperantomuzeo
esperanton
esperantujo
esperas
esperi
esperis
espero
esperoj
esperon
espi
espirito
esplora
esplorado
esploradoj
esploradon
esploraj
esploras
esplori
esploris
esploristo
esploristoj
esplorita
esploro
esploroj
esplorojn
esploron
esprimas
esprimi
esprimig
esprimis
esprimita
esprimitaj
esprimo
esprimoj
esprimojn
esprimon
esprit
essai
essay
essays
essen
essener
essential
essex
esslingen
essonne
est
esta
estaba
establado
establas
establi
establig
establis
establita
establitaj
establo
estadas
estadi
estadis
estado
estaing
estaj
estanta
estantaj
estante
estas
este
esteban
ester
esterha
esterigo
estero
esteroj
estetika
estetiko
esther
esti
estienne
estig
estigante
estigas
estigi
estigis
estigo
estimata
estimo
estimon
estingig
estinta
estintaj
estinte
estintus
estis
esto
eston
estona
estonaj
estonio
estonta
estontaj
estontajn
estontan
estonte
estonteco
estontecon
estonto
estos
estrado
estrarano
estraranoj
estraro
estraron
estras
estrata
estre
estreco
estrejo
estri
estrino
estris
estrita
estritaj
estro
estroj
estron
estu
estuaro
estudio
estudios
estulo
estuloj
estus
esu
eszperanto
eszter
esztergom
et
eta
etado
etag
etaj
etajn
etan
etanolo
etante
etapo
etapoj
etas
etc
ete
etenda
etendaj
etendan
etendas
etende
etendi
etendig
etendis
etendita
etenditaj
etendo
etendon
eterna
eternan
eterne
eterneco
eternulo
eternulon
etero
eteroj
ethics
ethnic
ethnologue
eti
etienne
etig
etika
etikaj
etikedo
etiko
etila
etilbenzoata
etilbenzoato
etileno
etimologia
etimologie
etimologio
etimologion
etiopa
etiopia
etiopio
etis
etita
etitaj
etna
etnaj
etne
etno
etnografia
etnografio
etnografo
etnografoj
etnoj
etnologio
eto
etoj
etojn
eton
etos
etoso
etoson
etruska
ets
etu
eu
euge
eugen
eugene
eugenia
eugenio
euler
euphorbia
eur
eure
euro
europa
europaea
europe
european
ev
eva
evala
evalaj
evalo
evaloj
evalojn
evalon
evalpovoj
evan
evangela
evangelia
evangeliaj
evangeliisto
evangelio
evangelioj
evangelion
evano
evans
evc
eve
evelyn
even
evening
evento
eventoj
eventojn
eventon
eventuala
eventualaj
eventuale
ever
every
everything
evic
evidence
evidenta
evidentaj
evidentas
evidente
evidentig
evika
evikoj
evil
evitante
evitas
eviti
evitis
evitu
evo
evolua
evoluado
evoluas
evolucio
evolui
evoluig
evoluigi
evoluigis
evoluigita
evoluigitaj
evoluigo
evoluinta
evoluintaj
evoluis
evoluismo
evoluo
evoluoj
evoluon
evolution
evolutionary
evskij
ewa
ex
exchange
exd
exhibition
exo
expe
expedition
experience
experiment
experimental
exploration
explorer
expo
express
extra
ey
eye
eyed
eyes
ez
ezra
f
fa
fabacoj
fabela
fabelo
fabeloj
fabelojn
faber
fabian
fabio
fabius
fabloj
faboj
fabricius
fabrika
fabrikado
fabrikanto
fabrikas
fabrikata
fabriki
fabrikis
fabrikita
fabrikitaj
fabriko
fabrikoj
fabrikojn
fabrikon
face
facebook
facila
facilaj
facilan
facile
facileco
faciligas
faciligi
faciligis
fact
facto
factory
facts
factsheet
fadeno
fadenoj
fago
fagoj
fair
faire
fairy
fait
faith
fajfiloj
fajna
fajnaj
fajne
fajra
fajro
fajrobrigado
fajroestingista
fajroj
fajron
faka
fakaj
fakdelegito
fako
fakoj
fakojn
fakon
fakta
fakte
fakto
faktoj
faktojn
fakton
faktoro
faktoroj
faktorojn
fakulo
fakuloj
fakultato
fakultatoj
fakultaton
fakverkisto
falanta
falas
falc
falco
falcon
fali
faligi
faligis
faligita
falinta
falintaj
falintoj
falis
falk
falko
falkoj
fall
falls
falo
falon
falos
falsa
falsaj
falsan
false
falu
falva
fama
famaj
famajn
faman
famas
fame
famega
famig
famigis
familia
familiaj
familiajn
familian
familianoj
familiara
familie
familinomo
familio
familioj
familiojn
familion
famille
family
famis
famkonata
famo
famon
famous
famulo
famuloj
fan
fandado
fandig
fandita
fanny
fantasta
fantastaj
fantasy
fantazia
fantaziaj
fantazio
fantazioj
fantomo
fantomoj
fao
far
fara
faraday
farado
faranta
farante
faraono
faraonoj
faras
farata
farataj
farbo
farboj
farc
fare
farebla
fari
farig
farigis
farinta
farinte
faris
farita
faritaj
faritajn
faritan
faritis
farkas
farm
farmacia
farmaciaj
farmacio
farmer
farmisto
farmistoj
farmo
farmoj
farnezila
faro
faroj
farojn
faros
fartas
faru
faruno
farus
fas
fasado
fasadoj
fasadon
fasko
fast
fasto
fat
fatala
fate
father
fatima
fau
fauna
faure
faust
favora
favoraj
favorajn
favoran
favoras
favorata
favore
favoris
favoro
favoron
fayard
faye
faz
faza
fazanedoj
fazano
fazanoj
fazekas
fazeoloj
fazo
fazoj
fazojn
fazon
fb
fbi
fc
fd
fe
fear
feat
feather
feature
feb
febro
februare
februaro
february
federacia
federaciaj
federacian
federacio
federacioj
federacion
federal
federala
federation
federico
feeding
fehe
feino
feje
fejlo
fekaj
fekete
fekunda
fekundaj
fekundeco
fel
felic
felice
feliks
felikso
felipe
felix
fellini
felo
feloj
fels
felso
female
feminisma
feminismo
feministoj
femme
femmes
fenaroli
fendo
fendoj
fenestro
fenestroj
fenestrojn
fenestron
fenetila
fenica
fenikso
fenil
fenila
fenilacetata
fenilacetato
fenilpropionata
fenilpropionato
fenolo
fenomeno
fenomenoj
fenomenojn
fenomenon
fense
fer
fera
feraj
ferdeko
ferdinand
ferdinando
ferenc
ferencz
ferenczy
ferepoko
ferguson
feria
feriejo
ferio
ferioj
ferma
fermas
fermat
fermentado
fermi
fermig
fermilo
fermis
fermita
fermitaj
fermo
ferna
fernand
fernandes
fernando
fero
feroa
feron
ferooj
ferrand
ferrara
ferrari
ferreira
ferrer
ferrie
ferry
ferto
fervoja
fervojaj
fervojan
fervojista
fervojisto
fervojistoj
fervojlinio
fervojlinioj
fervojo
fervojoj
fervojon
fervora
fervoraj
fervore
fervoro
fest
festa
festado
festas
festata
festeno
festi
festis
festival
festivalo
festivaloj
festivalon
festlibro
festo
festoj
festojn
feston
festotago
festotagoj
festschrift
fettes
feu
ff
ffentlichungen
ffer
fi
fia
fianc
fiaskis
fiasko
fiat
fibro
fibroj
fica
fichte
fico
fiction
ficus
fidas
fide
fidel
fidela
fidelaj
fidele
fideleco
fidelecon
fideluloj
fidi
fidinda
fidindaj
fidis
fido
fidon
fiedler
field
fields
fiera
fiere
fiero
fifa
fifama
fig
figaro
figura
figuraj
figuras
figure
figuro
figuroj
figurojn
figuron
fikcia
fikciaj
fikcio
fiksa
fiksaj
fiksas
fikse
fiksi
fiksig
fiksis
fiksita
fiksitaj
fil
filadelfio
filantropo
file
files
filharmonio
filia
filikoj
filino
filinoj
filinojn
filinon
filio
filioj
filion
filip
filipina
filipinaj
filipinoj
filipo
filippo
filis
fille
fillon
film
filma
filmado
filmaj
filmajn
filman
filmaro
filmeto
filmetoj
filmfestivalo
filmis
filmisto
filmita
filmitaj
filmo
filmografio
filmoj
filmojn
filmon
filmreg
films
filo
filoj
filojn
filologia
filologio
filologion
filologo
filologoj
filon
filosofia
filozofia
filozofiaj
filozofiajn
filozofian
filozofio
filozofioj
filozofion
filozofo
filozofoj
fils
filtrilo
filtriloj
fin
fina
finaj
final
finalist
finalistino
finalisto
finaliston
finalo
finan
financa
financado
financaj
financajn
financan
finance
financi
financial
financis
financita
financo
financoj
finante
finas
finch
finches
find
fine
finfine
fingro
fingroj
fingrojn
fingron
fini
finia
finig
finigi
finigis
finigo
fininte
finis
finiste
finita
finitaj
finkonstruita
finkonstruo
finn
finna
finnaj
finne
finnlanda
finnlando
finnoj
fino
finoj
finon
finstacio
finstudis
fiore
fire
firenze
firma
firmaj
firman
firmao
firmaoj
firmaon
firme
firmo
first
fis
fischer
fish
fisher
fiska
fitzgerald
fiu
five
fizika
fizikaj
fizikajn
fizikan
fizike
fizikisto
fizikistoj
fiziko
fizikon
fiziologio
fiziologo
fjodor
fjordo
fk
fl
fla
flag
flago
flagoj
flagon
flagotenanto
flagstaff
flamengo
flamengoj
flamenko
flammarion
flamo
flamoj
flandra
flandraj
flandrio
flanka
flankaj
flankajn
flankan
flanke
flanken
flanko
flankoj
flankojn
flankon
flankovojo
flankovojoj
flankrivero
flau
flava
flavaj
flavajn
flavan
flavbeka
flave
flaveca
flavecaj
flavio
flavo
flavor
fle
flegado
flegis
flegistino
fleisch
fleischer
fleksebla
fleming
flensburg
fletcher
fleury
flickr
flight
flo
flood
flor
flora
florado
floraj
floranta
floraro
floraroj
floras
florenca
florence
florenco
flores
florian
floriano
florida
florido
floris
floro
floroj
florojn
floron
flosanta
floto
flower
flowers
floyd
flu
flua
fluaj
fluanta
fluas
flue
fluejo
flug
flugado
fluganta
flugantaj
flugas
flughaveno
flughavenoj
flughavenon
flugi
flugila
flugilo
flugiloj
flugilojn
flugilplumoj
flugis
flugkompanio
flugkompanioj
flugmas
flugo
flugoj
flugojn
flugon
fluidaj
fluis
fluo
fluoj
fluon
fluorido
fluoro
fluoroacetata
fluoroacetato
fluto
flutoj
fly
flying
fm
fn
fo
focus
fodor
foerster
foirejo
foiro
foiroj
foje
fojfoje
fojo
fojoj
fojojn
fojon
foko
fokoj
fokusas
fokusig
fokuso
folia
foliaj
foliarbaroj
foliaro
folietoj
folio
folioj
foliojn
folk
folklora
folkloraj
folkloro
fona
fonda
fondado
fondaj
fondas
fondata
fondi
fondig
fondinta
fondinto
fondintoj
fondis
fondita
fonditaj
fonditis
fondo
fondon
fonds
fondumo
fonduso
fone
fonemo
fonemoj
fonetika
fonetiko
fono
fonologio
fonon
fonseca
font
fonta
fontaine
fontainebleau
fontana
fontano
fontanoj
fontas
fontenay
fonto
fontoj
fontojn
fonton
fontsize
food
football
for
fora
foraging
foraj
forbes
forbrulis
force
forces
ford
fore
foreign
forest
forestas
forestis
foresto
forests
forever
forfug
forg
forga
forge
forgesas
forgesi
forgesis
forgesita
forgesu
forig
forigante
forigas
forigi
forigis
forigita
forigitaj
forigo
forigon
forigu
foriras
foriri
foriris
foriro
foriros
foriru
forj
forko
forkuras
forkuri
forkuris
forlasante
forlasas
forlasi
forlasis
forlasita
forlasitaj
forlaso
forlasos
forlasu
form
forma
formacio
formacioj
formado
formadon
formaj
formala
formalaj
formalan
formale
forman
formang
formantaj
formante
formas
format
formata
formation
formato
formatoj
forme
formi
formiata
formiato
formig
formikoj
formis
formita
formitaj
formo
formoj
formojn
formon
formortinta
formortintaj
formortis
formorto
formulado
formulis
formulo
formuloj
formulon
forno
fornoj
forpasinta
forpasis
forpaso
forpelas
forpeli
forpelis
forpelita
forpelitaj
forpelo
forportis
forprenas
forpreni
forprenis
forpus
fors
forschungen
forst
forsta
forstado
forster
fort
forta
fortaj
fortajn
fortan
forte
forteco
fortig
fortigi
fortigis
fortika
fortikaj
fortikan
fortikigita
forto
fortoj
fortojn
forton
fortranc
fortreso
fortuna
fortune
fortuno
forum
forumo
forveturis
forvis
forvojag
fosaj
fosfato
fosfora
fosforo
fosilia
fosiliaj
fosilio
fosilioj
fosis
fosse
foster
fostoj
fotado
fotaj
fotaro
fotelo
fotilo
fotis
fotisto
fotistoj
fotita
foto
fotogalerio
fotografaj
fotografio
fotografioj
fotoj
fotojn
foton
fotosintezo
foucault
found
foundation
fountain
four
fourier
fourth
fox
fr
fra
frac
fradeko
fragmento
fragmentoj
fragmentojn
frakasis
frakcio
frakcioj
framasona
framasonismo
framasono
framasonoj
frame
franc
franca
francaj
francajn
francan
france
frances
francesca
francesco
francia
francilio
francio
francion
francis
francisco
franciscus
franciska
franciskana
franciskano
franciskanoj
francisko
franciszek
franck
franclando
franclingva
franclingvaj
franclingve
franco
francoj
francojn
francolinus
francujo
frank
franka
frankfurt
frankfurta
frankfurter
frankfurto
frankisma
franklin
franko
frankoj
frankolino
frankonio
frans
frantis
franz
franzo
frapas
frapi
frapinstrumentaro
frapinstrumentisto
frapinstrumentoj
frapis
frapita
frapo
fraser
frata
frataro
frateco
fratino
fratinoj
fratinon
frato
fratoj
fratojn
fraton
frau
frauen
fray
frazo
frazoj
frazojn
frazon
fre
fred
freddie
frederic
frederick
frederik
frederiko
free
freedom
freeman
fregato
frei
freiberg
freiburg
freie
freiheit
freiherr
freimut
freising
frekvenca
frekvenco
frekvencoj
frekventis
fremda
fremdaj
fremdajn
fremdan
fremdlingva
fremdulo
fremduloj
french
freneza
frenezaj
frenezig
frenezo
frente
fres
fresh
fresko
freskoj
freskojn
fresno
fret
freud
freund
freunde
frey
freytag
frg
friburga
friburgo
frick
frida
fried
friedman
friedrich
friend
friends
frigyes
fringedoj
frisa
frislando
fritz
friulo
fro
from
fromag
fromm
front
fronta
frontale
frontas
fronte
frontera
fronti
frontie
frontis
fronto
frontoj
fronton
frost
frostas
frostig
frosto
frotado
fru
frua
fruaj
fruajn
fruan
frue
fruit
fruktarboj
frukto
fruktodona
fruktog
fruktoj
fruktojn
frukton
frumatene
frunte
frunto
frunton
fry
fsb
ft
ftalata
ftalato
fu
fuchs
fue
fuente
fuentes
fug
fugo
fuj
fukuoka
fulda
full
fuller
fulmo
fumado
fumo
fun
function
functional
fund
fundacio
fundamenta
fundamentaj
fundamentajn
fundamentan
fundamente
fundamento
fundamentoj
fundamentojn
fundamenton
funde
fundo
funebra
funebraj
funebran
funebro
fungo
fungoj
funikularo
funk
funkcia
funkciado
funkciadon
funkciaj
funkcianta
funkciantaj
funkcias
funkcii
funkciigas
funkciigi
funkciigis
funkciis
funkcio
funkcioj
funkciojn
funkcion
funkciulo
funkciuloj
fuortaro
fuorto
furag
furfurila
furioza
furoraj
furoris
fus
futbal
futbala
futbalaj
futbalas
futbalis
futbalisto
futbalistoj
futbalklubo
futbalo
futbalon
futbalteamo
futbalteamoj
futoj
futojn
futura
future
futuro
fuzio
g
ga
gaa
gabono
gabriel
gabriela
gabriele
gabriella
gabrielle
gabrielo
gaela
gaetano
gagarin
gai
gaillarde
gaius
gaj
gaja
gajaj
gaje
gajn
gajnante
gajnas
gajni
gajninto
gajnintoj
gajnis
gajnita
gajno
gal
gala
galaksia
galaksio
galaksioj
galapagoj
gale
galega
galegio
galeno
galerie
galerio
galerioj
galerion
galicia
galicio
galilei
galilejo
galileo
gall
gallery
gallica
gallimard
gallo
gallus
galo
gama
gamas
gamba
gambio
gamboj
game
games
gamma
gamo
gamon
gan
ganao
gandhi
gang
gango
ganz
gap
garantias
garantii
garantiis
garantio
garbejo
garci
garcia
gard
garda
gardanto
gardas
garde
garden
gardens
gardi
gardis
gardistaro
gardisto
gardistoj
gardner
gardu
gare
garibaldi
garland
garnier
garnizono
garolo
garonne
garrett
garten
gary
gas
gasa
gaso
gasoj
gason
gaspar
gaspard
gastejo
gastejoj
gastiganta
gastiganto
gastigantoj
gastigas
gastigi
gastigis
gastis
gasto
gastoj
gastojn
gaston
gastronomio
gate
gates
gatlasz
gau
gauche
gauguin
gaulle
gauss
gautier
gavia
gay
gaz
gaza
gazda
gazdasa
gazeta
gazetara
gazetaro
gazeto
gazetoj
gazetojn
gazeton
gazette
gb
gdan
gdansko
gdr
gdynia
ge
gea
geaktoroj
geamantoj
geamikoj
geastronomoj
geavoj
geburtstag
geco
gedeon
gedichte
gedioj
geedza
geedzeco
geedzig
geedzoj
gefa
gefianc
gefiloj
gefilojn
gefratoj
gefratojn
gegen
gegenwart
gehrels
geisei
geist
gej
geja
gejaj
gejoj
gejunuloj
gek
geknaboj
gel
geldern
gelernantoj
gelle
gelog
gelsenkirchen
gema
gemeinde
gemini
gemoj
gemu
gen
gender
gene
genealogia
genealogio
genera
generacio
generacioj
generacion
generado
general
generala
generalo
generaloj
generalon
generas
generation
generi
generis
generita
genes
genesis
genetic
genetika
genetikaj
genetikan
genetike
genetiko
genevie
genezo
genia
genila
genio
genitivo
geniulo
genius
geno
genocide
genocido
genoj
genova
genra
genro
genroj
genrojn
genron
gent
genta
gente
gento
gentoj
genuo
genuoj
genus
geo
geodezio
geodss
geoffrey
geoffroy
geogra
geografia
geografiaj
geografiajn
geografian
geografie
geografio
geografion
geografo
geografoj
geographic
geographical
geography
geologia
geologiaj
geological
geologie
geologio
geologo
geologoj
geometria
geometriaj
geometrio
geometry
geopedia
georg
george
georges
georgi
georgia
georgij
georgio
georgo
gepatra
gepatran
gepatroj
gepatrojn
ger
gera
gerais
gerald
geranila
gerard
gerardo
gerd
gerda
gereg
gergely
gerhard
gerilanoj
gerilo
germain
german
germana
germanaj
germanajn
germanan
germandevena
germane
germania
germanio
germanion
germanlando
germanlingva
germanlingvaj
germanlingvan
germanlingvanoj
germanlingve
germanlingvio
germano
germanoj
germanojn
germanujo
germany
gero
gerrit
gers
gert
gertrud
gertrude
gervais
ges
geschichte
geschichten
gesellschaft
gesinjoroj
gespra
gestapo
gesto
gestoj
gestudentoj
gesu
get
geto
getz
gh
gheorghe
gheorgheni
ghost
gi
gia
giacomo
giai
gian
gianni
giant
gibbs
gibson
gica
gico
gießen
gif
gifu
giganta
gigantaj
giganto
gigantoj
gil
gilbert
gilberto
gildo
giles
gilgames
gill
gilles
gillespie
gilman
gilmour
gimnastika
gimnastiko
gimnazia
gimnazio
gimnazioj
gimnaziojn
gimnazion
gina
gio
gion
giordano
giorgio
giotto
giovanni
gipso
girard
girl
girls
giro
girolamo
gironde
gis
gitaristo
gitaristoj
gitaro
gitaroj
gitaron
giuliano
giulio
giuseppe
give
gizella
gizo
gjumri
gl
gla
glac
glacia
glaciaj
glaciepoko
glacihokeisto
glaciig
glacio
gladbeck
glando
glandoj
glano
glaruso
glasgovo
glasgow
glaso
glass
glat
glata
glataj
glau
glavo
glavoj
glavon
gleichen
glen
glenn
gli
gliese
glikolata
glikolato
glikolo
glise
globa
global
globalspecies
globe
globo
globoj
globon
glora
gloria
gloro
gloron
glory
glu
glukozo
glutamata
glutamato
glutarata
glutarato
gm
gmbh
gmelin
gmu
gn
gnes
gnostikismo
gnu
go
gob
gobierno
god
goddard
godfredo
gods
goebbels
goes
goethe
goeto
gogh
gogol
goia
going
gojaso
gok
gold
goldberg
golden
goldman
golf
golfa
golfeto
golfo
golfoj
golfon
golo
goloj
gomes
gon
gonc
goncourt
gone
gong
gonza
gonzaga
gonzalo
good
goodman
google
gora
gorbac
gordon
gorg
gorkij
gos
gost
goston
got
gota
gotamo
gotao
gotardo
gotha
gotika
gotikaj
gotikan
gotiko
gotoj
gott
gottes
gottfried
gottlieb
gottlob
gottwald
gouges
gould
gov
government
goya
gr
gra
grabowski
grace
gracia
graco
grad
grada
grade
gradig
grado
gradoj
gradojn
gradon
graf
grafa
grafejo
grafeo
grafika
grafikaj
grafikistino
grafikisto
grafikistoj
grafiko
grafino
graflando
graflandoj
graflandon
grafo
grafoj
grafschaft
graham
grajnoj
gramatika
gramatikaj
gramatiko
gramatikon
grammar
grammy
gramoj
gramojn
grampus
gran
granada
granado
grand
granda
grandaj
grandajn
grandan
grandas
grandbieno
grandduklando
grandduko
grande
grandeco
grandecon
grandega
grandegaj
grandegajn
grandegan
grandes
grandig
grandioza
grandkvante
grandmajstro
grando
grandoj
grandon
grandparte
grandpollando
grandprinclando
grands
grandskala
grandskale
grandurbo
grandurboj
grandvilag
granita
granito
grant
grasa
grasaj
graso
grass
grasset
grassland
grau
grava
gravaj
gravajn
gravan
gravas
grave
graveco
gravecon
graveda
gravedeco
gravedig
gravega
graves
gravis
gravita
gravito
gravo
gravon
gravulo
gravuloj
gravuraj
gravuristo
gravurita
gray
graz
gre
great
greater
greatest
grebo
greboj
greco
gredos
greece
greek
green
greene
greenwich
greenwood
greg
gregoj
gregor
gregoria
gregorio
gregory
greifswald
greiz
grejsmontaro
grejso
grek
greka
grekaj
grekajn
grekan
greke
grekio
greko
grekoj
grekokatolika
grekujo
grenado
grenejo
greno
grenoble
grenoj
grenon
greta
grey
gridcolor
griffin
griffith
grigorij
grimm
grimpado
grimpas
grimpi
grimpis
grin
gripo
gris
griza
grizaj
grizajn
grizan
grizbruna
grizeca
grizono
gro
grodno
groeneveld
groningen
groningo
gronlanda
gronlando
gros
grosjean
gross
grosso
groto
grotoj
ground
group
groups
grove
growth
grozno
groß
große
großen
großer
großes
gru
gruber
grund
grunda
grundo
grundoj
grundon
gruo
gruoj
grupa
grupaj
grupanoj
grupe
grupig
grupigas
grupigitaj
grupo
grupoj
grupojn
grupon
gruyter
gs
gsburgo
gt
gu
gua
guadalajara
guadalupe
guanajuato
guarda
guardia
guardian
gubernia
guberniestro
guberniestroj
gubernio
gubernioj
gue
guerra
guerre
guerrero
guevara
guez
gug
guglo
gui
guide
guides
guido
guillaume
guillermo
guinea
guinness
guitar
gujano
gulago
guldenoj
gulf
gulivero
gulo
gumo
gun
gunma
gunnar
gunther
gupta
gura
guris
gurita
guro
gus
gusen
gusta
gustaf
gustav
gustave
gustavo
guste
gustenanoj
gusteno
gustigagento
gusto
gustoj
guston
guszta
gut
gutenberg
gutie
guy
guzma
gvadalah
gvadelupo
gvarania
gvardio
gvatemalo
gvida
gvidado
gvidadon
gvidaj
gvidanta
gvidantaro
gvidanto
gvidantoj
gvidantojn
gvidanton
gvidas
gvidata
gvidataj
gvidi
gvidilo
gvidis
gvidita
gviditaj
gvidlibro
gvido
gvineo
gy
gya
gyaloglo
gye
gyergyo
gyi
gymnasium
gyo
gyu
gyula
gyulafehe
gło
h
ha
haag
haardt
haas
habana
haben
habi
habilitig
habitat
habitato
habitatoj
habitatoperdo
habsburg
habsburga
habsburgo
habsburgoj
hac
hachette
hacia
hackett
had
hadeso
hadriano
hag
hagen
hago
hahn
hai
haitia
haitio
hajdelbergo
hajderabado
hajdu
hajko
hajo
hakilo
hal
hala
halberstadt
hale
haleakala
half
hall
halle
haller
halo
haloj
haltas
haltejo
haltejoj
halti
haltigi
haltigis
haltigita
haltis
halto
ham
hamas
hamburg
hamburga
hamburgo
hamid
hamilton
hamlet
hamleto
hamm
hammer
hammond
hamps
hampshire
hampton
han
hana
hancock
hand
handbook
handbuch
handel
handikapuloj
hank
hankai
hankyu
hanna
hannah
hannes
hannover
hanns
hanoi
hanojo
hanovro
hans
hansa
hansen
hanshin
hanus
happy
hara
harald
hararo
hararon
harbor
harco
harcourt
hard
hardy
hare
harghita
hari
harlow
harmattan
harmonia
harmonie
harmonio
harmonion
haro
haroj
harojn
harold
haroldo
harper
harpo
harriet
harris
harrison
harry
hart
hartmann
hartmut
harvard
harvey
harz
has
hasan
hassan
hasse
hasta
hastings
hat
hata
hatvan
hau
haus
haut
haute
hautes
hauts
havaj
havaja
havajaj
havajo
havano
havanta
havantaj
havante
havas
have
havebla
haveblaj
haveblas
havel
haven
havena
haveno
havenoj
havenojn
havenon
havenurbo
havenurboj
havi
havigante
havigas
havigi
havigis
havigita
havinta
havis
havli
havo
havos
havre
havu
havus
hawaii
hawk
hawkins
hay
hayden
haydn
hayes
haza
hazarda
hazardaj
hazarde
hazardo
hcl
hd
he
hea
head
health
heart
heath
heaven
hebejo
hebrea
hebreaj
hebrean
hebree
hebreoj
hebrew
hector
heft
heg
hegedu
hegel
hegelo
hegemonia
hegemonias
hegemoniis
hegemonio
hegemonion
heidegger
heidelberg
heidi
height
heikkila
heilbronn
heiligen
heiligenstadt
heimat
heine
heinrich
heinz
hej
hejdelbergo
hejma
hejmaj
hejmas
hejme
hejmen
hejmenveninta
hejmenvenis
hejmig
hejmlando
hejmo
hejmoj
hejmon
hejmpag
hejmregiono
hejmurbo
hejtado
heksanata
heksanato
heksila
hektaroj
hektarojn
hektoro
hel
hela
helaj
helan
helbruna
helbrunaj
held
hele
helen
helena
helenaj
helene
helenisma
helenisto
heleno
helga
helgriza
helikoj
helikon
helikoptero
helikopteroj
helin
heliumo
hell
heller
helm
helmstedt
helmut
help
helpa
helpaj
helpanta
helpante
helpanto
helpantoj
helpas
helpata
helpe
helpi
helpilo
helpiloj
helpis
helpita
helplingvo
helpo
helpon
helpos
helpu
helsinki
helsinko
helveta
hemingway
hemisfero
hen
henares
henderson
hendrik
henning
henri
henriette
henrik
henriko
henrique
henry
henryk
hepata
hepato
hepburn
heptanata
heptanato
heptila
her
hera
heraklo
herald
heraldiko
herausgegeben
herb
herba
herbaj
herbejo
herbejoj
herbeno
herbert
herbie
herbo
herboj
herbojn
herbst
hercegovino
herder
here
hereda
heredaj
heredanto
heredantoj
heredis
heredo
heredon
heredonto
herezo
heritage
herkulo
herman
hermann
hermeso
herna
hernando
herne
hero
heroa
heroaj
herodo
herodoto
heroes
heroino
heroldo
heron
heroo
herooj
herr
herrera
herrmann
herrn
herschel
herve
herz
herzberg
herzog
hes
hesio
hess
hesse
hessen
het
hetmano
heute
heves
hexe
heydrich
hez
heziodo
hezitis
hf
hg
hi
hibrida
hibridig
hibrido
hibridoj
hidalgo
hidrargo
hidratigo
hidrau
hidrido
hidro
hidroelektra
hidrogena
hidrogenaj
hidrogenatomoj
hidrogeno
hidroksido
hidroksidoj
hidroksila
hidroksilaj
hidrokso
hidroksobenzoato
hidrolizo
hidrologio
hier
hierarkio
hierau
hieronimo
hieronymus
higas
higgins
high
higher
higieno
hilaire
hilbert
hilda
hildburghausen
hildegard
hildesheim
hill
hills
him
himalaja
himalajo
himmel
himmler
himno
himnoj
himnon
hind
hinda
hindaj
hindeu
hindia
hindiaj
hindio
hindoc
hindu
hindua
hinduaj
hinduisma
hinduismo
hindujo
hinduoj
hio
hiperbola
hiperkubo
hiperpluredro
hiperpluredroj
hipokrato
hipolito
hipono
hipoteza
hipotezo
hipotezoj
hipotezon
hippeastrum
hippolyte
hiragana
hiroki
hiros
hiroshi
hiroshima
hirsch
hirt
hirundo
his
hispana
hispanaj
hispanajn
hispanan
hispane
hispania
hispanio
hispanion
hispanlingva
hispanlingvaj
hispano
hispanoj
hispanujo
hist
histo
histoire
histoj
histori
historia
historiae
historiaj
historiajn
historian
historic
historical
historie
historiisto
historiistoj
historio
historiografio
historioj
historiojn
historion
historique
historische
historischen
history
hit
hitchcock
hitita
hitler
hitlero
hits
hiv
hjogo
hl
hlau
hle
hlen
hler
hlhausen
hluc
hlungen
hm
hms
hn
hne
ho
hobbes
hobojo
hobojoj
hoc
hochkant
hochschule
hodiau
hodler
hodoni
hof
hoffman
hoffmann
hofmann
hogan
hohe
hokajdo
hokuto
holanda
holando
holarktisa
holger
holiday
holivudo
holland
hollo
hollyhock
hollywood
holmes
holocaust
holokau
holstein
holstinio
holt
holy
holz
holzland
hom
homa
homaj
homajn
homamaso
homan
homaranismo
homaro
homaron
hombre
homburg
home
homeco
homer
homero
homme
hommes
homo
homogena
homoj
homojn
homon
homrajta
hon
honda
honduro
honesta
honey
hong
hongkongo
honkongo
honolulu
honor
honora
honoraj
honoran
honoras
honore
honori
honorig
honorigita
honorigoj
honoris
honorita
honoro
honoroj
honorojn
honoron
hons
hont
honto
hook
hooker
hoover
hope
hopkins
hor
hora
horace
horacio
horaro
hordeo
hordo
hore
horizontala
horizontalaj
horizontale
horizonte
horizonto
horlog
hormono
hormonoj
horn
horna
horne
horni
horo
horodo
horoj
horojn
horon
horora
hors
horse
horst
horthy
hortikulturo
horva
hory
horzono
hos
hospital
hospitalo
hospitaloj
hospitalon
host
hot
hotel
hotelo
hoteloj
hotelon
houghton
hour
house
houston
houten
hovhannes
how
howard
howe
hoy
hoyo
hoz
hp
hr
hra
hrad
hradec
hradis
hranice
hrazdan
hrer
hrsg
hruby
hrung
hrus
htm
html
http
https
hu
hua
huang
hubbard
hubble
hubejo
huber
hubert
hudson
hue
huelva
huerta
hugh
hughes
hugo
hui
hull
human
humana
humanisma
humanismo
humanisto
humanistoj
humanitara
humblot
humboldt
hume
humenne
humida
humidaj
humideco
humidejoj
humoro
humphrey
humura
humuraj
humuristo
humuro
hundo
hundoj
hundojn
hundon
hundred
hunedoara
hung
hungara
hungaraj
hungarajn
hungaran
hungardevena
hungardevenaj
hungare
hungaria
hungariaj
hungarian
hungariga
hungario
hungarion
hungarlando
hungarlingva
hungarlingvaj
hungarlingve
hungaro
hungaroj
hungarujo
hungarujon
hungary
hunoj
hunsru
hunt
hunter
hunyad
hunyadi
hus
husa
husanoj
hussein
husza
hut
huta
hutton
huygens
hy
hyde
hyemalis
hz
i
ia
iafoje
iaj
iajn
ial
iam
iama
iamaj
iamajn
iaman
iamaniere
iame
iamverda
iamverdaj
ian
iana
iang
iar
ias
iata
iau
ib
iba
ibe
ibera
iberia
iberio
iberoj
ibis
ibiso
ibisoj
ibm
ibn
ibrahim
ibraltaro
ibsen
ibutio
ic
ica
icao
ice
ich
ichov
ichovice
ichu
id
ida
idaho
idaro
idaron
ide
idea
ideala
idealismo
idealo
idealoj
idealojn
idearo
ideas
identa
identaj
identas
identeco
identecon
identification
identig
identigas
identigi
identigis
identigita
identigitaj
identigo
identities
identity
ideo
ideoj
ideojn
ideologia
ideologiaj
ideologio
ideologioj
ideologion
ideon
idino
ido
idoj
idojn
idolo
idoloj
idon
idozorgado
ie
ieee
iei
iel
iela
ielaj
ielan
ielarko
iele
ielenpreno
ieliro
ielo
ielon
ielpreno
ien
ies
ieyasu
if
ifa
ifef
ifigenio
ifju
ifoje
ifri
ig
iga
igado
igaj
igano
igante
igas
igata
igataj
igazsa
igi
igis
igita
igitaj
iglesia
iglesias
igna
ignacio
ignaco
ignacy
ignaz
ignoras
ignoris
igo
igon
igor
igos
igu
ih
ihr
ihre
ihrer
ii
iii
ij
ija
ijk
ijob
ik
ika
ikaga
ikago
ikau
ike
iki
ikio
iko
ikono
ikonoj
iks
ikso
ikteredoj
iktero
iku
ikue
il
ila
ilaro
ildiko
ildo
ildoj
ildon
ile
ilei
ili
ilia
iliado
iliaj
iliajn
ilian
ilin
ilina
ilinojo
ilinojso
ilio
ilja
iljic
ill
ille
illinois
illustrated
illustration
ilm
ilmenau
ilo
iloj
ilojn
ilon
ilona
ils
ilustraj
ilustras
ilustris
ilustristo
ilustristoj
ilustrita
iluzio
im
ima
imagas
image
images
imagesize
imagi
imagis
imagita
imago
imagoj
imagon
imamo
imdb
imf
img
imitado
imitaj
imitas
imiti
imitis
immanuel
imo
imoj
imon
imov
impact
imperia
imperiaj
imperial
imperian
imperiestra
imperiestraj
imperiestrino
imperiestro
imperiestroj
imperiestron
imperiismo
imperio
imperioj
imperion
impeto
implicas
implications
implikas
implikig
implikita
implikitaj
impona
imponaj
imponan
important
impossible
imposta
impostado
imposto
impostoj
impostojn
imposton
impresa
impresionismo
impresis
impreso
impresoj
impreson
improvizado
impulse
impulso
imre
in
ina
inaj
inajn
inan
inaro
inau
inc
incendio
incendioj
incidento
including
increment
inda
indas
inde
indekso
independence
independent
index
india
indian
indiana
indianaj
indianao
indianio
indiano
indianoj
indico
indicoj
indicon
indiferenta
indig
indikante
indikas
indikata
indiki
indikilo
indikiloj
indikis
indikita
indikitaj
indiko
indikoj
indikojn
individua
individuaj
individuajn
individuan
individue
individuo
individuoj
individuojn
indo
indolo
indonesia
indonezia
indonezio
indre
indukto
induso
industria
industriaj
industriajn
industrial
industrian
industriarta
industrie
industriig
industriigo
industriisto
industrio
industrioj
industrion
industry
ine
inec
inegi
inejo
infana
infanag
infanaj
infaneco
infang
infanlaboro
infano
infanoj
infanojn
infanon
infanteria
infanterio
infanto
infektaj
infektig
infektitaj
infekto
infektoj
infero
inflacio
inflamo
infloresko
influa
influaj
influas
influata
influence
influi
influis
influita
influitaj
influo
influoj
influojn
influon
info
infobox
informa
informacio
informadiko
informado
informaj
informaro
informas
information
informationen
informi
informig
informilo
informis
informita
informkesto
informkeston
informo
informoj
informojn
informon
infrarug
infrastrukturo
infrastrukturoj
infrastrukturon
infty
ing
inge
ingis
ingo
ingredienco
ingrediencoj
ingredients
ingrid
ingtonio
ingtono
ingus
inia
iniciate
iniciatinto
iniciatis
iniciatita
iniciativo
iniciato
iniciatoj
iniciaton
ining
inio
inion
inkaa
inkaoj
inklino
inklinon
inkludante
inkludas
inklude
inkludi
inkludis
inkludita
inkluditaj
inkluzivanta
inkluzivante
inkluzivas
inkluzive
inkluzivi
inkluzivis
inkluzivita
inko
inkvizicio
inn
innsbruck
ino
inocento
inoj
inojn
inon
inorganic
inoue
ins
insee
insekto
insektoj
insektojn
insel
inside
insigno
insistas
insistis
inskij
inskipp
inspektisto
inspektoro
inspirig
inspiris
inspirita
inspiritaj
inspiro
inspiron
instalado
instalaj
instali
instalig
instalis
instalita
instalitaj
instalo
instanco
instancoj
instigas
instigi
instigis
instigita
instigo
institucia
institucio
institucioj
instituciojn
institucion
institut
institute
institution
instituto
institutoj
instituton
instrua
instruado
instruadon
instruaj
instruan
instruas
instruata
instrui
instruis
instruista
instruistino
instruisto
instruistoj
instruistojn
instruiston
instruita
instruitaj
instrukcio
instrukcioj
instrukciojn
instrumenta
instrumentaj
instrumento
instrumentoj
instrumentojn
instrumenton
instruo
instruoj
instruojn
instruon
insula
insulaj
insularo
insularoj
insularon
insuleto
insuletoj
insulo
insuloj
insulojn
insulon
insurekcio
int
inta
intaj
intajn
intan
inte
integra
integrado
integrala
integralo
integrig
integrita
integritaj
intel
intelekta
intelektaj
intelekto
intelektularo
intelektulo
intelektuloj
inteligenta
inteligentaj
inteligenteco
inteligento
intelligence
intenca
intencas
intence
intencis
intencita
intenco
intencoj
intencojn
intencon
intendanto
intensa
intensaj
intensan
intense
intenseco
inter
interaga
interagado
interago
interagoj
interalie
intercite
intercivitana
interesa
interesaj
interesajn
interesan
interesas
interese
interesig
interesis
interesita
intereso
interesoj
interesojn
intereson
interfaco
interior
interkomprenig
interkonatig
interkonektoj
interkonsentis
interkonsentita
interkonsento
interkonsentoj
interkonsenton
interkrucig
interkultura
interlaken
interligas
interligitaj
interligo
interligon
interlingua
interlingvao
interlingvistiko
intermeza
intermilita
interna
internacia
internaciaj
internaciajn
internacian
internacie
internaciismo
internacio
internacional
internaj
internajn
internan
international
internationale
internationalen
interne
internen
internet
interno
internon
interparolado
interparolo
interparoloj
interplektig
interpretado
interpretas
interpretata
interpretation
interpreti
interpretis
interpretisto
interpretistoj
interpretita
interpreto
interpretoj
interpreton
interreta
interretaj
interrete
interretejo
interreto
interrilato
interrilatoj
interrompi
interrompis
interrompita
interrompo
interrompoj
inters
intertempe
intertraktadoj
interurba
intervalo
intervaloj
intervenas
interveni
intervenis
interveno
intervenoj
intervenon
interview
intervjuo
intervjuoj
intesto
intima
intimaj
intime
into
intoj
intojn
intrigo
intrigoj
introduction
inuitoj
inujo
inunditaj
inundo
inundoj
invadaj
invadi
invadis
invado
invadoj
invadon
inventaj
inventaro
inventinto
inventis
inventisto
inventistoj
inventita
invento
inventoj
inversa
inverse
inverso
investado
investigaciones
investis
investo
investoj
invitas
inviti
invitis
invitita
invititaj
invito
inviton
iny
io
ioj
iok
iom
ioma
ioman
iomang
iome
iomete
ion
iopova
ios
iovao
iowa
ip
ipa
ipaj
ipanaro
ipanoj
iparo
iparon
ipe
ipernity
ipig
iplo
iploj
ipo
ipoj
ipojn
ipon
ir
ira
iradis
irado
irafo
iraka
irako
iran
irana
iranaj
irano
iranta
irante
iranymagyarorszag
iras
ire
irejo
ireland
irena
irene
ireneo
iri
irig
irigacio
irina
iris
irish
iriso
irisoj
irita
iritaj
irkau
irlanda
irlandaj
irlando
irma
irmas
irmi
irmilo
irmita
irmo
iro
irodalmi
irodalom
iron
ironie
ironio
iros
iru
irving
irwin
is
isa
isaac
isaak
isabel
isabella
isabelle
isae
isbn
ische
ischen
isdatigita
ise
isidoro
isidro
iskola
isla
islam
islama
islamaj
islaman
islamanoj
islamic
islamo
islamon
island
islanda
islandaj
islando
islands
isle
isma
ismail
ismaj
ismo
ismoj
ismorte
isnuna
isnunaj
iso
isola
isonzo
isorado
isoraj
isorino
isoris
isorita
isoro
isoroj
israel
israela
israelaj
israelanoj
israelo
israelon
issn
issue
issues
ist
ista
istaj
istanbulo
istaro
istiama
istino
istinoj
istituto
istmo
isto
istoj
istojn
iston
istva
iszdb
it
ita
itaj
itajn
itala
italaj
italajn
italan
itale
italia
italian
italiana
italiani
italiano
italio
italion
itallingva
italo
italoj
italujo
italy
itan
ite
itekto
itekturo
ithaca
itinero
itineroj
itineron
itis
ito
its
iturbide
iu
iucn
iuflanke
iufoje
iuj
iujara
iujaraj
iujaran
iujare
iujn
iukaze
iulia
iumonate
iun
iuokaze
iupac
ius
iusemajne
iusence
iuspecaj
iutaga
iutagaj
iutagan
iutage
iv
iva
ivan
ivano
ivanov
ivanovic
ivanovna
ivo
ivoj
iwata
ix
iz
izabela
izita
izitaj
izo
izoamila
izobuterata
izobuterato
izobutila
izocianato
izocianido
izoeu
izoftalata
izoftalato
izola
izolaj
izolita
izolitaj
izomeroj
izopropila
izotiocianato
izotopo
izotopoj
izovalerata
izovalerato
izrael
izraelidoj
izraelo
izuoka
j
ja
jablonec
jac
jacek
jack
jackie
jackson
jacob
jacobi
jacobs
jacobus
jacopo
jacqueline
jacques
jadwiga
jae
jagelona
jah
jahr
jahrbuch
jahre
jahren
jahrhundert
jahrhunderts
jaime
jak
jakab
jako
jakob
jakoba
jakobo
jakovlev
jakub
jalisco
jalto
jam
jama
jamagata
jamajka
jamajko
jamanas
james
jan
jana
jancso
jane
janeiro
janet
jang
jango
jangzio
janka
janko
jano
janos
januar
januara
januare
januaro
january
janus
janusz
japan
japana
japanaj
japanajn
japanan
japane
japanese
japania
japanio
japanion
japano
japanoj
japanujo
japonica
jar
jara
jarag
jaraj
jaran
jarcenta
jarcentaj
jarcento
jarcentoj
jarcentojn
jarcenton
jardeko
jardekoj
jardekojn
jardekon
jardi
jardin
jare
jarig
jarkolekto
jarlibro
jarmilo
jarmiloj
jaro
jaroj
jarojn
jaromi
jaron
jaroslav
jarosław
jarulo
jaruloj
jas
jason
jau
jaume
java
javier
javo
javorni
jay
jazz
jc
jd
je
jean
jeanne
jef
jeff
jefferson
jeffrey
jehovo
jehuda
jei
jekaterinburg
jelcin
jemeno
jen
jena
jenaj
jenajn
jenan
jenas
jene
jenkins
jennifer
jenny
jeno
jenon
jens
jensen
jeppe
jera
jeremia
jeremy
jerez
jero
jerome
jerry
jersey
jerusalem
jerusalema
jerusalemo
jerusalemon
jerzy
jes
jesaja
jeseni
jesse
jessica
jesu
jesuo
jesuon
jesus
jet
jetzt
jeu
jeune
jeunesse
jewish
jews
jezd
jezuita
jezuitaj
jezuito
jezuitoj
jfalu
jg
jh
jhely
ji
jia
jiang
jic
jida
jihlava
jim
jime
jimmy
jin
jindr
jio
jir
jis
jizera
jizerou
jj
jl
jm
jn
jo
joa
joachim
joakimo
joan
joaqui
joaquim
jodida
jodido
jodo
jodoacetato
joe
joel
jog
jogo
joh
johan
johana
johanesburgo
johanino
johann
johanna
johannes
johano
johanon
johansson
john
johnny
johns
johnson
johnston
joj
jokohama
jokohamo
jola
jon
jona
jonas
jonathan
jones
jong
jono
jonoj
jordan
jordanio
jordi
jorge
jorkio
jorko
jos
jose
josef
josep
joseph
joshua
josif
josip
josquin
josuo
jour
journ
journal
journey
jours
jov
jovice
joy
joyce
jozef
jozefo
jp
jpeg
jpest
jpg
jpl
jr
js
jsa
jsessionid
jstor
ju
jua
juan
juana
jubilea
jubileo
jud
juda
judaj
judajn
judan
judaso
judicial
judismo
judit
judith
judo
judoj
judojn
judujo
jug
jugend
jugo
jugoslava
jugoslavaj
jugoslavia
jugoslavianoj
jugoslavio
juha
jukatana
jukatano
jul
jules
juli
julia
julian
juliano
julie
julien
julieta
juliette
julio
julius
july
jun
juna
junag
junaj
junajn
junan
junano
junco
june
juneco
jung
junge
jungle
juni
junie
junio
junior
junipero
junta
junto
junula
junulara
junularaj
junularan
junularo
junulino
junulinoj
junulinon
junulo
junuloj
junulojn
junulon
jupiter
jupitera
jupiteraj
jupitero
jur
jura
juraj
jurajn
juran
jure
juri
jurij
jurisdikcia
jurisdikcio
jurisdikcion
juristo
juristoj
juro
juron
jus
juss
just
justa
justaj
justan
juste
justeco
justecon
justica
justice
justico
justin
justiniano
justo
justulo
justuloj
justus
jutlando
jutubo
juvelo
juveloj
juventus
jva
jyva
k
ka
kaba
kabalo
kabano
kabanoj
kabaredo
kabe
kabineto
kablando
kablo
kabloj
kabo
kabulo
kaburbo
kac
kacso
kaczyn
kadafi
kadavraj
kadavro
kadavroj
kadavrojn
kadavron
kadenco
kadizo
kadra
kadre
kadro
kadroj
kadron
kaduka
kadukig
kaest
kafejo
kafejoj
kafka
kafo
kafon
kag
kah
kahelaro
kahelaroj
kahn
kai
kaido
kairo
kaiser
kaiserslautern
kaj
kajero
kajeroj
kajo
kajoj
kal
kala
kalabrio
kalcedono
kalcia
kalcio
kaldrono
kaledonio
kalendaro
kalendaroj
kalendaron
kales
kaleza
kalgario
kalia
kalian
kalidro
kaliflando
kalifo
kalifoj
kalifornia
kalifornio
kaligrafio
kaliko
kaliningrada
kaliningrado
kalio
kalipto
kalisto
kalkato
kalko
kalkos
kalks
kalkulado
kalkulante
kalkulas
kalkulata
kalkuli
kalkulig
kalkulis
kalkulita
kalkulitaj
kalkulo
kalkuloj
kalkulon
kalocsa
kalocsay
kaluga
kalva
kalvario
kalvinana
kalvinanaj
kalvinanoj
kalvino
kam
kamarado
kamaradoj
kambog
kamc
kamelo
kameloj
kamen
kamenice
kameno
kameraisto
kamerao
kamero
kameruno
kamiono
kamionoj
kamp
kampa
kampadejo
kampaj
kampanilo
kampanio
kampanjis
kampanjo
kampanjoj
kampanjon
kampara
kamparaj
kamparana
kamparanaj
kamparano
kamparanoj
kamparanojn
kamparo
kampo
kampoj
kampojn
kampon
kampurbo
kampurboj
kampuso
kan
kanabo
kanada
kanadaj
kanadanoj
kanado
kanagau
kanalo
kanaloj
kanalojn
kanalon
kanariaj
kanario
kanarioj
kanazawa
kanbirdo
kancelario
kanceliero
kancero
kandelo
kandeloj
kandid
kandidatig
kandidatis
kandidato
kandidatoj
kandidatojn
kandidaton
kane
kaneda
kanjono
kankro
kann
kano
kanona
kanonaj
kanoniko
kanonikoj
kanono
kanonoj
kanonojn
kanopeo
kansai
kansas
kansaso
kansasurbo
kant
kanta
kantabra
kantabrio
kantadis
kantado
kantadon
kantaj
kantante
kantaro
kantas
kantata
kantato
kantatoj
kantau
kanti
kantis
kantistino
kantisto
kantistoj
kantita
kanto
kantoj
kantojn
kantokonkurso
kanton
kantona
kantonc
kantono
kantonoj
kantoro
kantu
kantvoc
kanvaso
kanzono
kanzonoj
kanzonojn
kaoso
kap
kapa
kapabla
kapablaj
kapablas
kapableco
kapablis
kapablo
kapabloj
kapablojn
kapablon
kapacito
kapdoloro
kapelestro
kapeleto
kapelmajstro
kapelo
kapeloj
kapelon
kapitalisma
kapitalismo
kapitalo
kapitalon
kapitano
kapitanoj
kapitelo
kapiteloj
kapitolo
kapitulacis
kapitulaco
kapitulo
kaplan
kaple
kaplic
kapo
kapoj
kapojn
kapon
kaposva
kappa
kappel
kapro
kaproj
kapsulo
kapta
kaptado
kaptaj
kaptante
kaptas
kapti
kaptilo
kaptis
kaptista
kaptisto
kaptistoj
kaptita
kaptitaj
kaptiteco
kaptito
kaptitoj
kaptiveco
kapto
kaptuledoj
kaptulo
kapuc
kapvortoj
kar
kara
karabah
karac
karaj
karakaso
karaktera
karakteraj
karakteriza
karakterizaj
karakterizan
karakterizas
karakterizata
karakterize
karakterizig
karakterizis
karakterizita
karakterizitaj
karakterizo
karakterizoj
karaktero
karakteroj
karakterojn
karakteron
karaktroj
karan
karavano
karbo
karbon
karbona
karbonan
karbonata
karbonato
karbonatomoj
karbonhidratoj
karbono
karcero
kardelo
kardinala
kardinalo
kardinaloj
karel
karelio
karen
kargo
kariba
karibio
kariero
karieron
karikaturisto
karin
karintio
karistio
karitato
karl
karlo
karlovy
karlsruhe
karnatako
karnavalo
karno
karnon
karoj
karol
karola
karolida
karolina
karolino
karolo
karpata
karpatoj
kars
kartago
karte
karteziaj
kartezio
karto
kartoc
kartografio
kartografo
kartoj
kartojn
karton
kartono
kartuzio
kartvela
kartvelaj
kartvelio
kartveloj
karvina
kas
kaselo
kashiwa
kasisto
kasko
kaso
kaspar
kaspia
kassa
kassel
kaste
kastela
kasteleto
kastelo
kasteloj
kastelon
kastilia
kastilio
kat
kata
katakana
katalin
kataliza
katalizilo
katalog
katalogo
kataluna
katalunaj
katalune
katalunio
katanio
katarina
katarino
kataro
katastra
katastraj
katastro
katastrofa
katastrofo
katastrofoj
katastrofon
kate
katedrala
katedralo
katedraloj
katedralon
katedrestro
katedro
katedron
kategorio
kategorioj
kategoriojn
kategorion
kateh
katekismo
katerina
katerino
katharina
katherine
kathleen
kati
katin
kato
katoj
katolika
katolikaj
katolikajn
katolikan
katolikismo
katoliko
katolikoj
katolikoso
katolikus
katona
katowice
katz
kau
kaufmann
kaunas
kava
kavaj
kavalerio
kavalira
kavaliro
kavaliroj
kaverno
kavernoj
kavo
kavoj
kawasaki
kay
kaz
kaza
kazah
kazaj
kazan
kazano
kaze
kazerno
kazimierz
kazimiro
kazino
kazio
kazo
kazoj
kazojn
kazon
kazuro
kb
kc
kcio
kcpg
kd
ke
kea
kebangsaan
kebekia
kebekio
kebeko
kec
kecskeme
kei
keifuku
keihan
keikyu
keil
keith
kek
kelemen
keleti
keli
kelka
kelkaj
kelkajn
kelkan
kelkcent
kelke
kelkfoje
kelkloke
keller
kelly
kelnero
kelo
keloj
kelta
keltaj
keltoj
kely
kelyudvarhely
kemal
kembrig
keme
kemia
kemiaj
kemiajn
kemian
kemie
kemiisto
kemiistoj
kemio
kemion
ken
kenigsbergo
kenja
kenjo
kennedy
kenneth
kenny
kent
kento
kentucky
kentukio
kepler
keplero
ker
kerc
kere
kereszte
keresztes
kermeso
kern
kerna
kernaj
kerno
kernoj
kernon
kerte
kesfehe
kesto
keston
keszthely
kevin
key
keynes
kez
kezonurbo
kg
kgb
kh
kha
khan
ki
kia
kiado
kiaj
kiajn
kial
kialo
kialoj
kialojn
kialon
kiam
kiamaniere
kian
kiburgo
kic
kicsoda
kid
kie
kiel
kielce
kien
kierkegaard
kies
kieva
kievo
kih
kilikio
kill
kilogramoj
kilogramojn
kilometra
kilometro
kilometroj
kilometrojn
kilometron
kim
kimra
kimrio
kimrujo
kin
kina
kinaj
kinarto
kind
kinder
kineja
kinejaj
kinejo
kinejoj
king
kingdom
kings
kino
kins
kintetsu
kio
kiom
kion
kioto
kipro
kira
kirasita
kiraso
kirchberg
kirche
kirchen
kirchner
kirgizio
kirk
kirka
kirko
kirkoj
kirkon
kirurgia
kirurgio
kirurgo
kirurgoj
kis
kisfaludy
kisis
kiso
kiss
kisva
kit
kita
kitami
kito
kitt
kiu
kiuj
kiujn
kiun
kivio
kj
kk
kl
kla
klac
klado
klagenfurt
klaipe
klako
klano
klanoj
klara
klaraj
klarajn
klaran
klaras
klare
klareco
klarig
klarigas
klarigi
klarigis
klarigita
klarigo
klarigoj
klarigojn
klarigon
klarneto
klasa
klasado
klasbatalo
klasc
klasifikado
klasifikita
klasifikitaj
klasifiko
klasifikon
klasigo
klasika
klasikaj
klasikajn
klasikan
klasikisma
klasikismo
klasita
klasitaj
klaso
klasoj
klasojn
klason
klatovy
klau
klaus
klavaro
klavaroj
klaviceno
klavo
klavoj
klein
kleine
kleiner
kleist
klemento
kleopatra
klera
kleraj
klereco
kleriga
klerigado
klerigo
klerikaro
kleriko
klerikoj
klerismo
klerulo
kleruloj
klet
kleve
klida
klido
kliento
klientoj
klifo
klifoj
klimata
klimataj
klimato
klimatoj
klimaton
klin
klinangulo
klineco
klingo
klinig
klinika
kliniko
klinis
klinita
klis
klo
klopodante
klopodas
klopodi
klopodis
klopodo
klopodoj
klopodojn
klopodon
kloramino
klorida
klorido
kloridoj
kloridon
kloro
kloroacetata
kloroacetato
klorobenzeno
kloroformiato
kloroformo
kloster
klostro
klu
kluba
klubejo
klubo
kluboj
klubon
kluj
kluzo
kluzoj
km
kn
knabeto
knabina
knabineto
knabino
knabinoj
knabinon
knabo
knaboj
knabon
kne
kni
knight
knopf
know
knowledge
known
knox
knut
ko
koalicio
koalicion
kobalta
kobayashi
kobe
koblenco
koblenz
koburgo
koc
koch
kocsis
koda
kodekso
kodnumero
kodo
kodoj
kodojn
kodon
koeficiento
koeficientoj
kofu
koh
kohera
kohl
koimbro
koincidas
koincide
koincidis
koincido
koiro
koj
kok
kokinoj
koko
kokoformaj
kokoj
kol
kola
kolapsis
kolapso
kolbe
kolc
kolegio
kolegioj
kolegion
kolego
kolegoj
kolektado
kolektaj
kolektanto
kolektantoj
kolektas
kolekti
kolektig
kolektis
kolektistoj
kolektita
kolektitaj
kolektiva
kolektivaj
kolektive
kolektivo
kolekto
kolektoj
kolektojn
kolekton
kolera
kolere
kolerig
kolero
koleron
kolh
kolimbo
kolizio
kolizioj
kolkata
kolkato
kolo
koloj
kolombedoj
kolombia
kolombiaj
kolombio
kolombo
kolomboj
kolon
kolonelo
kolonia
koloniado
koloniaj
kolonianoj
koloniigo
koloniismo
koloniistoj
kolonio
kolonioj
koloniojn
kolonion
kolonja
kolonjo
kolono
kolonoj
kolonojn
kolora
koloradio
kolorado
koloraj
kolorajn
koloran
kolore
koloro
koloroj
kolorojn
koloron
koloseo
kolozs
kolozsva
kolumba
kolumbia
kolumbio
kolumbo
kolumno
kolumnoj
kolumo
kom
koma
komandanto
komandantoj
komandejo
komandis
komando
komandon
komandoro
komarka
komarko
komarkoj
kombinado
kombinaj
kombinas
kombine
kombini
kombinig
kombinis
kombinita
kombinitaj
kombino
kombinoj
komedia
komediaj
komediisto
komedio
komedioj
komedion
komenca
komencaj
komencan
komencanta
komencante
komencantoj
komencas
komence
komenci
komencig
komencis
komencita
komenco
komencoj
komencon
komencos
komencu
komenio
komentario
komentarioj
komentas
komentis
komentistoj
komento
komentoj
komentojn
komerca
komercado
komercaj
komercajn
komercan
komerce
komercisto
komercistoj
komerco
komercon
kometo
kometoj
komforta
komika
komikisto
komiksoj
komisaro
komisiis
komisiita
komisiito
komisio
komision
komisiono
komisionoj
komisionon
komitatano
komitatanoj
komitato
komitatoj
komitaton
komlo
kommission
komo
komoroj
komp
kompakta
kompanio
kompanioj
kompanion
kompara
komparas
komparata
kompare
komparebla
kompareblaj
kompari
komparis
komparita
komparo
komparu
kompatinda
kompato
kompaton
kompense
kompensi
kompenso
kompenson
kompetenta
kompetenteco
kompilado
kompilaj
kompilis
kompilita
kompilo
kompleksa
kompleksaj
kompleksajn
kompleksan
komplekseco
komplekso
kompleksoj
komplekson
komplemento
kompleta
kompletaj
kompletan
komplete
kompletig
kompletigas
kompletigi
kompletigis
kompletigita
kompletigo
komplika
komplikaj
komplikeco
komploto
komponado
komponadon
komponaj
komponanto
komponantoj
komponas
komponi
komponig
komponis
komponistino
komponisto
komponistoj
komponita
komponitaj
kompono
kompostelo
kompozicio
komprenas
komprenata
komprenebla
kompreneblaj
kompreneble
kompreni
komprenig
komprenis
komprenita
kompreno
komprenon
komprenos
komprenu
kompromiso
komputado
komputiko
komputila
komputilaj
komputilo
komputiloj
komputilon
komputis
komuna
komunaj
komunajn
komunan
komune
komuneco
komunejo
komunika
komunikado
komunikadon
komunikaj
komunikas
komuniki
komunikig
komunikilo
komunikiloj
komunikis
komuniko
komunikoj
komunio
komunisma
komunismaj
komunismo
komunista
komunistaj
komunistan
komunisto
komunistoj
komunuma
komunumaj
komunuman
komunumaro
komunumaroj
komunumdatumoj
komunumo
komunumoj
komunumojn
komunumon
komunumoparto
komunumopartoj
komunumparto
kon
konas
konata
konataj
konatajn
konatan
konatas
konate
konatecon
konatig
konatigis
konatuloj
konc
koncedis
koncentrejo
koncentrejoj
koncentrig
koncentrita
konceptis
konceptita
koncepto
konceptoj
konceptojn
koncepton
koncerna
koncernaj
koncernan
koncernantaj
koncernas
koncerne
koncernis
koncerta
koncerte
koncertejo
koncertis
koncerto
koncertoj
koncertojn
koncerton
koncertvojag
koncilio
koncilioj
koncilion
koncipig
koncipo
konciza
koncize
kondamnas
kondamnis
kondamnita
kondamnitaj
kondamno
kondamnon
kondensig
kondic
kondukanta
kondukante
kondukas
konduki
kondukis
kondukita
kondukos
konduta
kondutas
konduti
kondutis
konduto
kondutoj
konduton
koneksa
konekso
konekta
konektas
konekti
konektig
konektikuto
konektita
konektitaj
konekto
konektoj
konekton
konfederacio
konferenco
konferencoj
konferencon
konfesas
konfesi
konfesio
konfesioj
konfesis
konfeso
konfesoj
konfidis
konfido
konfirmas
konfirmi
konfirmis
konfirmita
konfirmitaj
konfirmo
konfiskis
konfiskita
konflikto
konfliktoj
konfliktojn
konflikton
konforma
konformas
konforme
konformig
konfrontig
konfuceismo
konfuceo
konfuza
konfuzi
konfuzig
konfuzita
konfuzo
konfuzon
konfuzu
kong
konga
kongo
kongregacio
kongresa
kongresanoj
kongresejo
kongreso
kongresoj
kongresojn
kongreson
kongrua
kongruaj
kongruas
kongrue
kongruis
kongruo
koni
koniferaj
koniferaroj
koniferoj
konigis
konis
konita
konjekto
konkeri
konkerinto
konkeris
konkerita
konkeritaj
konkero
konkeroj
konkeron
konkludas
konkludi
konkludis
konkludo
konkludoj
konkludojn
konko
konkoj
konkordo
konkreta
konkretaj
konkretan
konkrete
konkurado
konkuras
konkurencas
konkurenci
konkurencis
konkurenco
konkurencon
konkuri
konkuris
konkuro
konkurso
konkursoj
konkursojn
konkurson
kono
konoj
konojn
konon
konrad
konrado
konscia
konscias
konscie
konscienco
konsciig
konsciis
konscio
konscion
konsekris
konsekrita
konsekro
konsekvence
konsekvenco
konsekvencoj
konsekvencojn
konsentas
konsenti
konsentis
konsento
konsenton
konservada
konservado
konservadon
konservaj
konservante
konservas
konservata
konservataj
konservativa
konservativaj
konservativismo
konservativuloj
konservatorio
konservema
konservi
konservig
konservis
konservisma
konservita
konservitaj
konservo
konservu
konsiderante
konsideras
konsiderata
konsiderataj
konsideratas
konsideri
konsiderig
konsiderinda
konsiderindan
konsiderinde
konsiderinte
konsideris
konsiderita
konsideritaj
konsidero
konsideroj
konsideron
konsideru
konsilantaro
konsilanto
konsilantoj
konsilas
konsiliano
konsilianoj
konsilig
konsilio
konsilioj
konsilion
konsilis
konsilisto
konsilistoj
konsilo
konsiloj
konsilojn
konsilon
konsista
konsistanta
konsistantaj
konsistantan
konsistante
konsistas
konsisti
konsistigas
konsistigis
konsistis
konsisto
konsiston
konsolo
konsonanto
konsonantoj
konspira
konspiro
konstanca
konstanco
konstanta
konstantaj
konstantan
konstante
konstanteno
konstantin
konstantino
konstantinopolo
konstanto
konstanz
konstatas
konstati
konstatis
konstatita
konstato
konstelacio
konstelacioj
konstituas
konstitucia
konstituciaj
konstitucian
konstitucianta
konstitucio
konstitucioj
konstitucion
konstituis
konstituita
konstru
konstrua
konstruado
konstruadon
konstruaj
konstruante
konstruas
konstruata
konstruataj
konstrui
konstruig
konstruigis
konstruigita
konstruis
konstruisto
konstruistoj
konstruita
konstruitaj
konstruitan
konstruitis
konstrulaboroj
konstrumaniero
konstrumaterialoj
konstruo
konstruoj
konstruon
konsulo
konsuloj
konsulti
konsultita
konsumado
konsumantoj
konsumas
konsumo
kontag
kontakti
kontaktig
kontaktis
kontakto
kontaktoj
kontaktojn
kontakton
kontenta
kontentig
kontentiga
kontentigas
kontentigi
konteo
kontinenta
kontinentaj
kontinento
kontinentoj
kontinenton
kontinua
kontinuaj
kontinuan
kontinue
konto
kontoj
kontrabaso
kontraktis
kontrakto
kontraktoj
kontrakton
kontrapunkto
kontrasta
kontrastas
kontraste
kontrasto
kontraston
kontrau
kontribuaj
kontribuanto
kontribuas
kontribui
kontribuinta
kontribuis
kontribuo
kontribuoj
kontribuojn
kontribuon
kontrolado
kontrolas
kontrolata
kontroli
kontrolis
kontrolita
kontrolitaj
kontrolo
kontrolon
konuso
konveksa
konveksaj
konvena
konvenaj
konvenan
konvenas
konvencia
konvencio
konvencioj
konvencion
konvene
konvento
konverg
konversacio
konversations
konvertado
konvertas
konverti
konvertig
konvertilo
konvertis
konvertita
konvertitoj
konverto
konvinki
konvinkig
konvinkis
konvinkita
konvinko
konvinkoj
konzerno
kooperativa
kooperativo
kooperativoj
koordinatoj
kopenhago
koperniko
kopii
kopiis
kopio
kopioj
kopiojn
kopion
kopirajto
kopta
kor
kora
korako
koran
korano
koratako
korbo
korda
kordinstrumentoj
kordo
kordobo
kordoj
kordojn
kordovo
kore
korea
koreaj
korean
koree
koreio
korekta
korekti
korektita
koreografo
koresponda
korespondado
korespondaj
korespondanta
korespondanto
korespondas
korespondis
koridoro
koridoroj
korintanoj
korinto
korj
kormorano
kormoranoj
korne
kornico
korno
kornoj
kornvalo
koro
koroj
korojn
koron
korpa
korpaj
korpan
korpo
korpoj
korpojn
korpon
korporacio
korporacioj
korpuso
korpusoj
korsiko
korta
kortega
kortegaj
korteganoj
kortego
kortegoj
kortegon
korteso
korto
kortobirdoj
kortoj
korton
kortumo
kortumoj
kortus
korunk
koruptado
korupto
koruso
korvedoj
korvo
korvoj
kos
kosi
kosma
kosmaj
kosmetikaj
kosmo
kosmologio
kosmonau
kosmopramo
kosmos
kosmosondilo
kosmostacio
kosmoteleskopo
kosovo
kossuth
kosta
kostariko
kostas
kostel
kostis
kosto
kostoj
kostojn
koston
kostumo
kostumoj
kota
koto
kotono
koturno
kov
kova
kovac
kovado
kovas
kovataj
koverto
kovice
kovraj
kovranta
kovrante
kovras
kovrata
kovrataj
kovri
kovrilo
kovriloj
kovrilpag
kovris
kovrita
kovritaj
kovro
koz
koza
kozakoj
kozma
kozyra
kp
kpd
kr
kra
krac
krado
kraft
kraj
krako
krakova
krakovo
kramer
krampoj
kranio
kras
krasso
kratero
krateroj
kraus
krause
kravar
kre
krea
kreado
kreadon
kreaj
kreanta
kreante
kreanto
kreas
kreata
kredante
kredantoj
kredas
kredeble
kredi
kredis
kredito
kredo
kredoj
kredojn
kredon
kredu
krefeld
krei
kreig
kreinta
kreinto
kreintoj
kreis
kreita
kreitaj
kreiva
kreko
kremlo
kremo
kremono
kreo
kreola
kreon
krepusko
kreska
kreskado
kreskadon
kreskaj
kreskanta
kreskantaj
kreskantan
kreskas
kreski
kreskig
kreskigi
kreskigis
kreskis
kresko
kreskon
kresta
kresto
krestomatio
kreston
kretaceo
kreto
kreuz
kreuznach
krias
krieg
kriis
krima
krimaj
krime
krimea
krimeo
kriminala
krimo
krimoj
krimojn
krimon
krimulo
krimuloj
krio
krioj
kripto
kris
krista
kristala
kristalig
kristalo
kristaloj
kristana
kristanaj
kristanajn
kristanan
kristanig
kristanigo
kristanisma
kristanismo
kristanismon
kristano
kristanoj
kristanojn
kristiano
kristina
kristnaska
kristnaskaj
kristnasko
kristo
kristoforo
kriston
kriterio
kriterioj
kriteriojn
kriterion
kritik
kritika
kritikaj
kritikan
kritikantoj
kritikas
kritikata
kritike
kritiki
kritikis
kritikisto
kritikistoj
kritikita
kritiko
kritikoj
kritikojn
kritikon
kriza
krizo
krizoj
krizon
kro
kroata
kroataj
kroate
kroatio
kroatoj
kroc
krokodilo
krokodiloj
krom
kroma
kromaj
kromajn
kroman
krome
kromenonila
kromnomata
kromnomita
kromnomo
kromnomon
kromosomo
kromosomoj
krona
kronado
kronenberger
kronig
kronika
kronikisto
kroniko
kronikoj
kronita
krono
kronoj
kronologia
kronologio
kronon
kronprinco
kronvirusa
kronviruso
kropotkin
krti
kru
kruc
kruca
krucas
krucifikso
krucig
krucistoj
krucmilito
krucmilitoj
kruco
krucoj
krucon
krucumo
kruda
krudaj
krude
krudmaterialo
krudmaterialoj
kruela
kruelaj
kruele
krueleco
krumlov
krupp
kruro
kruroj
krurojn
kruron
krusto
krustuloj
krustulojn
kruta
krutaj
krzysztof
krzyz
ks
kserofitaroj
ksia
ksie
kszereda
kto
ktp
ku
kuala
kuba
kubaj
kubanoj
kubismo
kubo
kubrick
kuc
kug
kuglo
kugloj
kuhn
kuirado
kuirarto
kuirartoj
kuirejo
kuiri
kuiristo
kuirita
kuiritaj
kujper
kuko
kukolo
kulminas
kulminis
kulmino
kulminon
kulpa
kulpigis
kulpo
kulpon
kulta
kultado
kultivado
kultivaj
kultivaroj
kultivas
kultivata
kultivataj
kultivi
kultivis
kultivita
kultivitaj
kultivo
kultivoj
kulto
kultoj
kulton
kultur
kultura
kulturaj
kulturajn
kulturan
kulturcentro
kulturdomo
kulture
kulturheredaj
kulturo
kulturoj
kulturojn
kulturon
kuma
kumamoto
kumar
kun
kuna
kunaj
kunau
kunc
kune
kunfandig
kunfluas
kunfluejo
kunfluo
kunfondinto
kunfondis
kunhavas
kunig
kuniganta
kunigas
kunigi
kunigis
kunigita
kunigitaj
kunigo
kuniklo
kunikloj
kunkreinto
kunkreskintaj
kunlabora
kunlaborado
kunlaboradon
kunlaborantaj
kunlaborantino
kunlaboranto
kunlaborantoj
kunlaboras
kunlabore
kunlabori
kunlaboris
kunlaboro
kunlaboron
kunligas
kunligita
kunligitaj
kunligo
kunlog
kunmalkovris
kunmang
kunmetaj
kunmetita
kunmetitaj
kunordiganto
kunordigas
kunordigi
kunordigis
kunordigo
kunportas
kunportis
kunpus
kunrei
kunsidis
kunsido
kunsidoj
kunst
kunstdenkma
kunteksto
kuntekstoj
kuntirig
kunulau
kunulino
kunulo
kunuloj
kunurba
kunvenas
kunvenejo
kunvenis
kunveno
kunvenoj
kunvenojn
kunvenon
kunverkis
kunvivado
kunvokis
kunvokita
kunzler
kupolo
kupoloj
kupolon
kupra
kupraj
kupro
kur
kuraca
kuracado
kuracaj
kuracejo
kuraci
kuracilo
kuraciloj
kuracista
kuracistan
kuracistino
kuracisto
kuracistoj
kuraciston
kuracloko
kuracplantoj
kurado
kurag
kuranta
kuras
kuratoro
kurba
kurbaj
kurbeco
kurbig
kurbo
kurboj
kurda
kurdaj
kurdio
kurdoj
kurejo
kurento
kurenton
kuri
kuriero
kurio
kurioza
kuriozaj
kuris
kuro
kurosawa
kurso
kursoj
kursojn
kurson
kurt
kurta
kurteno
kurtfilmo
kurz
kurzo
kus
kusel
kutima
kutimaj
kutimajn
kutiman
kutimaro
kutimas
kutime
kutimig
kutimis
kutimo
kutimoj
kutimojn
kutimon
kutna
kuvajto
kuzino
kuzo
kv
kva
kvadrata
kvadrataj
kvadratajn
kvadratan
kvadratkilometra
kvadratkilometroj
kvadrato
kvadratoj
kvadraton
kvalifikig
kvalifikita
kvalita
kvalito
kvalitoj
kvalitojn
kvaliton
kvankam
kvanto
kvantoj
kvantojn
kvanton
kvantuma
kvar
kvara
kvaran
kvarco
kvardek
kvaredro
kvaredroj
kvarfoje
kvarjara
kvarono
kvaronoj
kvaronon
kvaropo
kvartalo
kvartaloj
kvartalojn
kvartalon
kvarteto
kvarvoc
kvazau
kve
kvenko
kverelo
kvereloj
kverkaroj
kverko
kverkoj
kvieta
kviete
kvin
kvina
kvinan
kvincent
kvinciferaj
kvindek
kvinfoje
kvinjara
kvinopo
kvinslando
kvinto
kvociento
kw
ky
kyo
kyoto
kyu
l
la
lab
label
labem
labirinto
labor
labora
laborado
laboraj
laboranta
laborantaj
laborante
laboranto
laborantoj
laboras
laboratorio
laboratorioj
laboratorion
laboratory
laborejo
laborejoj
laborforto
laborgrupo
labori
laboris
laborista
laboristaj
laboristan
laboristaro
laboristo
laboristoj
laboristojn
laborkapabla
laborkondic
laboro
laboroj
laborojn
laboron
laboru
labour
labradoro
lac
laca
lacerto
lacertoj
lach
lachaise
lacig
lactuca
lada
laden
ladislao
ladislav
lado
lady
lafayette
laffont
lafo
laga
lagaro
lageto
lagetoj
lago
lagoj
lagojn
lagon
lagopo
lagopus
lagos
lagoso
lagrange
lagroj
laguna
laguno
lahn
lai
laika
laikaj
laikoj
laj
lajos
lakatos
lake
lakeo
lako
lakta
laktaj
laktata
laktato
lakto
lakton
lam
lama
lamao
lambda
lambert
lampo
lampoj
lan
lana
lanas
lanc
lancaster
lanco
lancoj
land
landa
landaj
landajn
landan
landau
lande
landes
landkreis
landlima
landlimaj
landlimo
landlimoj
landlimojn
landlimon
landnomoj
lando
landoj
landojn
landokodo
landon
landoparto
landparto
landru
lands
landsberg
landscape
landshut
landvojo
lane
lang
lange
langensalza
langle
lango
langon
language
languages
langue
langues
lanio
lanius
lano
lans
lanterno
lanti
lanugo
lao
laon
laoso
lapenna
laplaca
lapok
lara
larg
large
largo
larmoj
larmojn
larry
lars
larus
larvoj
larvojn
las
lasante
lasas
lasi
lasis
lasita
laslo
lasos
last
lasta
lastaj
lastajn
lastan
lastatempa
lastatempaj
lastatempe
laste
lastfoje
lasu
lat
lata
late
later
laterana
latero
lateroj
laterza
latin
latina
latinaj
latinajn
latinamerika
latinamerikaj
latinameriko
latinan
latine
latinida
latinidaj
latinigita
latinigo
latinlingva
latinlingvaj
latinliterigo
latino
latio
latitudo
latitudoj
latva
latvaj
latve
latvia
latvijas
latvio
lau
lauenburg
laufen
laura
laurence
laurent
lausanne
lautrec
lavado
laval
lavey
lavi
law
lawrence
laws
laye
laz
lazare
lazaro
lazura
lc
lcea
ld
lder
ldes
ldi
ldots
ldrajzi
ldva
le
lea
league
leandro
lear
learning
leary
leben
lebens
lec
lecco
lech
leciono
lecionoj
lecionojn
lecke
leclerc
lecture
lectures
led
leda
ledo
lee
lefebvre
left
leg
legacy
legado
legadon
legaj
legal
legante
leganto
legantoj
legantojn
leganton
legas
legata
legato
legebla
legeblaj
legeblas
legend
legenda
legendaj
legende
legendo
legendoj
legendon
legi
legilo
legio
legioj
legion
legis
legita
legitima
lego
legomo
legomoj
legomojn
legrand
legu
leh
leha
lehmann
lehrbuch
lei
leibniz
leicester
leiden
leigh
leipzig
leipziger
lejdeno
lek
lekciis
lekciisto
leksiko
leksikono
lektoro
lem
lemaire
lemano
lemmon
lemy
len
lena
lencburgo
lengua
lengyel
leni
lenin
leningrada
leningrado
lenino
lennon
leno
lenso
lensoj
lenz
leo
leon
leona
leonard
leonardo
leone
leonhard
leonid
leono
leonoj
leonon
leonor
leopold
leopoldina
leopoldo
leporo
leporoj
lepsika
lepsiko
ler
lera
lernado
lernadon
lernantino
lernanto
lernantoj
lernantojn
lernas
lerneja
lernejaj
lernejan
lernejanoj
lernejestro
lernejo
lernejoj
lernejojn
lernejon
lerni
lernintoj
lernis
lerno
lernojaro
lernolibro
lernolibroj
lernolibrojn
lernolibron
lernu
leroy
lerta
lertaj
lerte
lerteco
lertecon
les
lescaut
leslie
lessing
lestakov
lester
lesvigo
leszek
let
lete
letero
leteroj
leterojn
leteron
letrajzi
letras
letter
letters
lettre
lettres
letzte
leu
lev
levante
levas
leve
level
levente
levi
levice
levidoj
levig
levin
levis
levita
levy
lewis
lex
lexicon
lexikon
ley
lez
lf
lffy
lgy
lheim
lhota
lhotka
li
lia
liaj
liajn
lian
liard
liaz
lib
libana
libano
libe
liber
libera
liberaj
liberajn
liberal
liberala
liberalaj
liberalismo
liberaluloj
liberan
liberation
libere
liberec
liberecana
liberecbatalo
libereco
liberecoj
liberecon
liberig
liberiga
liberigante
liberigas
liberigi
liberigis
liberigita
liberigitaj
liberigo
liberigon
liberio
libero
liberon
libertad
liberte
libertempo
liberty
libervola
libervole
libia
libio
libra
librairie
libraro
library
libre
librejo
libreto
libreton
libri
libro
libroj
librojn
libron
libros
libroservo
librovendejo
lic
lica
lice
licenco
licencon
liceo
lich
licht
lichtenberg
lidia
lido
lidoj
lie
liebe
liebig
lied
lieder
lieg
life
lifto
liga
liganta
ligas
ligata
lige
light
lightgrey
ligi
ligig
ligilo
ligiloj
ligilojn
ligilon
ligiltabelo
ligis
ligita
ligitaj
ligitajn
ligitan
ligna
lignaj
lignajn
lignan
ligne
ligno
lignogravuraj
lignon
ligo
ligoj
ligojn
ligon
ligurio
lih
lika
like
liko
likva
likvaj
likvidis
likvido
likvo
lili
lilio
liliomfi
lille
lilli
lillo
lim
lima
limaj
limas
limburg
limburgo
lime
limig
limigas
limigi
limigis
limigita
limigitaj
limigitan
limigo
limigoj
limigojn
limited
limits
limo
limog
limoges
limoj
limojn
limon
limpasejo
lin
lina
linalila
lincoln
linda
lindau
linden
line
linear
lineara
linearaj
lineo
lines
lingua
linguistic
linguistics
lingva
lingvaj
lingvajn
lingvan
lingvaro
lingve
lingvistika
lingvistiko
lingvisto
lingvistoj
lingvo
lingvoj
lingvojn
lingvon
lingvoscienco
lingvouzo
linia
linio
linioj
liniojn
linion
link
linko
links
linnaeus
linne
lino
linoj
linon
lins
lint
linukso
linux
linz
lio
lion
lionel
liono
lipa
lipo
lipoj
lipova
lippe
liptovsky
lirika
lirikaj
liriko
liro
lis
lisa
lisboa
lisbono
lise
list
lista
liste
listigas
listigis
listigita
listigitaj
listita
listo
listoj
listojn
liston
liszt
lit
litera
literary
literatur
literatura
literaturaj
literaturajn
literaturan
literature
literaturhistoriisto
literaturhistoriistoj
literaturisto
literaturo
literaturoj
literaturon
litere
literkombino
litero
literoj
literojn
literon
literumado
literumita
litia
litio
lito
litoj
litome
litomys
liton
litoral
litova
litovaj
litove
litovio
litovoj
litro
litroj
litte
little
liturgia
liturgiaj
liturgio
liu
live
liverado
liveras
liveri
liveris
liverita
liveritaj
liverpool
lives
living
livio
livonia
livonio
livre
lix
lj
ljubljana
ljudmila
lk
lka
lkk
lku
ll
lla
llami
llano
llanos
llar
lle
ller
lli
lln
llo
llobregat
lloyd
lm
lma
ln
lni
lo
lobo
local
locarno
location
locke
lockheed
lode
lodge
lodi
lodza
lodzo
log
logan
logatott
logic
logika
logikaj
logike
logiko
logikon
logo
logos
logronjo
loi
loir
loire
loiret
loj
lojala
lojaleco
loka
lokaj
lokajn
lokan
lokanoj
lokas
lokata
loke
lokhistoriisto
loki
lokig
lokigas
lokigi
lokigis
lokigita
lokigitaj
lokigo
lokis
lokita
lokitaj
loknomo
loknomoj
loknomvortaro
loko
lokoj
lokojn
lokomotivo
lokomotivoj
lokon
loksidig
loktrova
lokuloj
lola
lom
lombarda
lombardio
lon
london
londona
londono
londonon
londres
lonely
loneos
long
longa
longaj
longajn
longan
longas
longatempe
longdau
longdistanca
longdistancaj
longe
longeco
longecon
longedau
longitudo
longo
longoj
longon
longrightarrow
longtempa
longtempe
longvosta
lons
look
looking
lookup
lope
lopes
lopez
lora
lorca
lord
lordo
loreno
lorenz
lorenzo
lori
los
losila
losilaj
losilnumero
losilo
losiloj
losilon
lost
lot
lothar
lotus
lou
louc
louis
louise
louisiana
louny
loup
lourdes
louvre
love
lovelock
loveno
low
lowe
lowell
lower
loze
lp
lr
ls
lt
lta
ltala
ltd
lte
lten
lto
ltspkr
lu
lua
luarlandoj
luaro
lubeko
lublin
luc
luca
lucas
lucca
lucerno
luci
lucia
luciano
lucie
lucien
lucifero
lucio
lucius
lucky
lucy
luda
ludado
ludadon
ludanta
ludante
ludanto
ludantoj
ludas
ludata
ludataj
ludejo
ludi
ludilo
ludiloj
ludis
ludisto
ludistoj
ludita
ludmila
ludo
ludoj
ludojn
ludon
ludovika
ludoviko
ludu
ludwig
ludwigsburg
ludwigshafen
ludwigslust
ludwik
luftwaffe
lugano
lugo
lugoj
lui
luigi
luis
luisa
luise
luiso
luiz
luiza
luiziano
lujza
luka
lukas
luke
luko
luksa
luksaj
luksemburga
luksemburgio
luksemburgo
luktado
luktas
lukti
luktis
lukto
luktoj
lukton
lulilo
lum
luma
lumaj
lumie
lumigita
lumigo
lumo
lumoj
lumon
lumturo
lun
luna
lunaj
lunar
lund
lunde
lundo
lune
luno
lunoj
lunon
lupeno
lupo
lupoj
lupuso
lure
lus
lutera
luterana
luteranaj
luteranoj
lutermano
lutero
luther
lutz
luvro
lux
luxemburg
luz
luzacia
luzacio
luzono
lv
lvarez
lvaro
lviva
lvivo
lvovo
lwo
ly
lya
lyi
lynch
lynn
lyno
lynx
lyom
lyon
lzerwald
m
ma
mabel
mac
macdonald
machado
machine
macht
maciej
mack
macmillan
mad
mada
madagaskara
madagaskaro
madame
made
madeira
madejro
madeleine
madison
madonna
madono
madre
madrid
madrida
madrido
mae
maestro
mafio
mag
maga
magalha
magazeno
magazin
magazine
magazino
magda
magdalena
magdeburg
magdeburgo
magelana
maggiore
magia
magiaj
magian
magic
magiisto
magio
magistrato
magistrig
magistro
magmo
magna
magnato
magneta
magnetaj
magnetan
magnetismo
magnezia
magnezio
magnificat
magnitudo
magnoliofitoj
magnus
magrebo
magyar
magyaro
magyarorsza
mah
maha
mahabarato
maharas
mahatma
mahler
mahmud
mai
maia
maier
maigret
mail
main
maine
mainz
maior
mais
maison
maizo
maj
maja
majaa
majaaj
majaoj
maje
majenco
majesta
majno
majo
major
majora
majoritato
majoritaton
majorko
majoro
majstra
majstro
majstroj
majstroverko
majuskla
majusklo
makao
makbeto
make
makedona
makedonio
makedonoj
making
makiso
mako
maks
maksim
maksimiliano
maksimuma
maksimuman
maksimume
maksimumo
makulo
makuloj
makulojn
makulon
makzelo
mal
mala
malabunda
malabundo
malago
malagrabla
malagrablaj
malaja
malajzio
malakceptas
malakceptis
malakceptita
malakcepto
malalt
malalta
malaltaj
malaltajn
malaltan
malalte
malaltebenaj
malaltig
malaltigi
malamas
malamika
malamikaj
malamikeco
malamiko
malamikoj
malamikojn
malamikon
malamis
malamo
malamon
malantau
malaperas
malaperi
malaperinta
malaperintaj
malaperis
malapero
malaperos
malaprobis
malario
malavantag
malavio
malbela
malbenita
malbeno
malbona
malbonaj
malbonajn
malbonan
malbone
malbonig
malbono
malbonon
malbork
malborko
malc
malcolm
maldau
maldekstra
maldekstraj
maldekstran
maldekstre
maldekstren
maldekstro
maldekstruloj
maldensa
maldense
maldika
maldikaj
maldivoj
maldolc
maldungis
maldungita
male
malebenaj
malebligas
malebligi
malebligis
malegaleco
malespero
malfacila
malfacilaj
malfacilajn
malfacilan
malfacilas
malfacile
malfacileco
malfaciligas
malfavora
malfavoraj
malfelic
malferma
malfermaj
malfermajn
malferman
malfermas
malferme
malfermi
malfermig
malfermis
malfermita
malfermitaj
malfermitan
malfermitis
malfermo
malfermoj
malfermon
malfermu
malfinia
malfondig
malfondis
malfondita
malfonditaj
malfondo
malforta
malfortaj
malfortan
malforte
malforteco
malfortig
malfrua
malfruaj
malfrue
malfrugotika
malfruig
malg
malgaja
malgrand
malgranda
malgrandaj
malgrandajn
malgrandan
malgrandig
malgrau
malgrava
malgravaj
malhavas
malhela
malhelaj
malhelajn
malhelan
malhelbruna
malhelbrunaj
malhele
malhelgriza
malhelgrizaj
malhelpas
malhelpi
malhelpis
malhelpo
malhelrug
mali
malica
malik
malio
maljuna
maljunaj
maljunan
maljuneco
maljunig
maljunulino
maljunulo
maljunuloj
maljusta
maljustaj
maljusteco
malkapablo
malkas
malkiel
malklara
malkomponado
malkomponaj
malkomponig
malkonsentis
malkonsento
malkonsentoj
malkonstruis
malkonstruita
malkonstruitis
malkonstruo
malkontenta
malkontento
malkovras
malkovri
malkovrig
malkovrinto
malkovrintoj
malkovris
malkovrita
malkovritaj
malkovro
malkovroj
malkovron
malkreskas
malkreskis
malkresko
malkurag
malkutima
mall
mallarg
mallau
mallevig
mallibereco
malliberejo
malliberejoj
malliberejon
malliberigis
malliberigita
malliberigitaj
malliberigitoj
malliberigo
mallibero
malliberulo
malliberuloj
malliberulojn
mallonga
mallongaj
mallongajn
mallongan
mallongdau
mallonge
mallongigita
mallongigite
mallongigo
mallongigoj
mallongigon
mallongtempe
malluma
mallumaj
mallumo
malmo
malmola
malmolaj
malmulta
malmultaj
malmultajn
malmultan
malmulte
malmultekosta
malmultekostaj
malmulto
malmulton
malneta
malnov
malnova
malnovaj
malnovajn
malnovan
malo
malobeo
malofta
maloftaj
maloftas
malofte
malordo
malordoj
malpaco
malpermesas
malpermesata
malpermesi
malpermesis
malpermesita
malpermesitaj
malpermesite
malpermeso
malpermeson
malpeza
malpezaj
malplac
malplej
malplena
malplenaj
malpli
malpligrandig
malpliig
malpliigas
malpliigi
malpliigis
malpliigo
malpliigon
malplimulto
malplimultoj
malprofunda
malprofundaj
malproksima
malproksimaj
malproksime
malproksimen
malproksimig
malpura
malpuraj
malrapida
malrapidaj
malrapide
malric
mals
malsag
malsama
malsamaj
malsamajn
malsaman
malsamas
malsame
malsameco
malsana
malsanaj
malsanig
malsano
malsanoj
malsanojn
malsanon
malsanulejo
malsanulejoj
malsanulo
malsanuloj
malsanulojn
malsata
malsatego
malsato
malseka
malsekaj
malsekejoj
malsimetria
malsimila
malsimilaj
malsimile
malsovag
malstabila
malstabilaj
malstrec
malsufic
malsukcesa
malsukcesaj
malsukcesas
malsukcese
malsukcesis
malsukceso
malsupera
malsupra
malsupraj
malsupran
malsupre
malsupren
malsupreniras
malsupreniris
malsupro
malta
maltau
malto
maltrankvila
maltrankvilig
malvarma
malvarmaj
malvarman
malvarme
malvarmig
malvarmo
malvasta
malvenkis
malvenko
malvenkon
malvera
maly
mama
mammals
mamoj
mamulo
mamuloj
mamulojn
man
mana
manag
management
manc
mancha
manche
manchester
mandato
mandatoj
mandaton
mandela
mane
manekeno
manet
manfred
mang
manga
mangana
mangano
mangao
mangrovoj
manhatano
manhattan
manice
maniero
manieroj
manierojn
manieron
manifestaciantoj
manifestacio
manifestacioj
manifestation
manifestig
manifesto
manifeston
manika
manilo
manipulado
manitobo
mankanta
mankas
mankis
manko
mankoj
mankon
manlibro
mann
mannheim
mano
manoj
manojn
manon
manos
manpilkado
mans
mansfeld
manskribaj
mantelo
mantelon
manu
manual
manuel
manuela
manufakturo
manuskripto
manuskriptoj
manuskriptojn
manuskripton
many
mao
maoria
map
mapa
mapo
mapoj
mapojn
mapon
maps
mar
mara
maraglo
marais
maraj
marakvo
maramures
maran
mararmea
mararmeo
maratono
marbach
marbirdo
marbirdoj
marborda
marbordaj
marbordo
marbordoj
marbordon
marburg
marc
marcel
marcello
marcelo
march
marche
marco
marcos
marcus
marde
mardo
mare
marek
marfluo
marg
margaret
margareta
margarita
margit
margot
margrafo
marguerite
marhavenaj
mari
maria
marian
mariana
marianna
marianne
mariano
marianoj
marie
marienburg
marija
marilando
marilyn
marin
marina
marine
marino
marinos
mario
marion
maristo
maristoj
maritime
maritimes
marius
mariusz
marjorie
mark
markas
markata
markataj
marker
market
marki
markigo
markilo
markio
markis
markita
markitaj
markizino
markizo
marko
markoj
markojn
markolo
markolon
markon
marks
marksisma
marksismo
marksistoj
markso
markt
markus
marlene
marmora
marmoro
marne
marnivelo
maro
maroj
maroka
maroko
maron
maros
marosva
marque
mars
marsa
marsan
marseille
marsejlo
marsh
marshall
marso
marsrenkonta
marsrenkontaj
mart
marta
marte
martelo
marten
marteno
martha
marti
martial
martigny
martin
martina
martine
martinez
martini
martiniko
martino
martins
martiro
martiroj
marto
marton
marty
marvin
marx
mary
maryland
mas
masa
masac
masag
masakris
masakro
masakroj
masaryk
masi
masiva
masivo
maskla
masklaj
masklo
maskloj
masko
maskoj
maso
masoj
mason
masonaj
masonistoj
masonita
mass
massa
massachusetts
massimo
masson
master
masters
masto
mastrino
mastro
mastroj
mastruma
mastrumado
mat
mata
matc
mate
matematika
matematikaj
matematikajn
matematikan
matematike
matematikisto
matematikistoj
matematiko
matematikon
matena
matene
matenig
matenmang
mateno
matenon
mateo
mater
materia
materiaj
material
materiala
materialo
materialoj
materialojn
materialon
materials
materiismo
materio
materion
math
mathbb
mathbf
mathcal
mathematical
mathematics
mathfrak
mathias
mathieu
mathilde
mathrm
mathsf
matiaso
matilda
matildo
matisse
mato
matrica
matrico
matricoj
matrix
matsumoto
matt
matteo
matter
mattha
matthew
matthias
matura
maturaj
matureco
maturig
mau
maubeuge
maui
mauna
maura
maurice
mauricio
mauro
mauthausen
max
maxim
maximilian
maximus
maxwell
may
maya
mayen
mayenne
mayer
maynard
mayo
mayor
mayr
maziero
mazovio
mazurio
mb
mbox
mc
mccartney
mccoy
mcd
mcdonald
mcfarland
mcg
mcgraw
mcnaught
md
me
mea
meaning
meblaro
mebloj
meblojn
mec
mecenato
med
medal
medalo
medaloj
medalojn
medalon
medaltabelo
medea
medeg
medelli
media
mediaj
medic
medica
medical
medici
medicina
medicinaj
medicinajn
medicinal
medicinan
medicine
medicinisto
medicino
medicinon
medieval
medikamento
medikamentoj
medina
medino
medio
medioj
medion
mediprotektado
meditado
mediteranea
mediteraneaj
mediteraneo
mediterranean
meer
meeting
meg
mega
meh
mehr
mei
meier
mein
meine
meiningen
meister
meitetsu
meißen
mejlo
mejloj
mejlojn
mejlos
mejor
mek
mekanika
mekanikaj
mekaniko
mekanismo
mekanismoj
mekko
meklenburga
meklenburgo
meksika
meksikaj
meksikio
meksiko
meksikurbo
mel
melbourne
melburno
melchior
meleagro
melinda
melissa
melnikov
melo
melodia
melodio
melodioj
melodiojn
melodion
mem
members
membiografia
membiografio
membraj
membrano
membraro
membras
membreco
membrecon
membrig
membrino
membris
membro
membroj
membrojn
membron
membros
memkompreneble
memmortigis
memmortigo
memo
memoirs
memor
memoraj
memoras
memore
memorejo
memori
memoria
memorial
memoriam
memorias
memoriga
memorigaj
memorigas
memorigi
memorigiloj
memorigis
memorigo
memorindaj
memoris
memoro
memoroj
memoron
memors
memortabulo
memortago
memoru
memory
memphis
memportreto
memstara
memstaraj
memstaran
memstare
memstareco
memstarecon
memstarig
men
mena
mencias
menciata
mencii
menciig
menciinda
menciindaj
menciindas
menciis
menciita
menciitaj
menciitan
menciitis
mencio
mencioj
mencion
mende
mendel
mendelssohn
mendes
mendis
mendo
mendoj
mendoza
mene
mens
mensa
mensaj
mensan
mensch
menschen
mense
menso
mensogo
menson
ment
mentila
mento
mentoj
mentojn
menton
mentono
mentoris
mentoro
mep
mequinenza
mer
mercedes
mercia
mercury
meredith
merg
merian
meridiano
meritas
meritis
merito
meritoj
merkata
merkato
merkatoj
merkaton
merkel
merkrede
merkredo
merkuro
merlin
merlo
merr
merriam
merseburg
mes
mesa
mesag
mese
mesino
mesio
mesnil
meso
mesoj
meson
mesrop
messe
messiaen
messier
messina
mesto
met
meta
metabolo
metafizika
metafiziko
metaforo
metakrilato
metal
metala
metalaj
metalo
metaloj
metalroko
metalurgio
metamorfozo
metamorfozoj
metano
metanolo
metante
metas
metata
meteologia
meteologio
meteoroj
meteors
meth
method
methods
meti
metia
metiejo
metiejoj
metiisto
metiistoj
metil
metila
metio
metioj
metion
metis
metita
metitaj
meto
metodo
metodoj
metodojn
metodon
metoksila
metos
metra
metriko
metro
metroa
metroj
metrojn
metrolinio
metron
metroo
metrooj
metropola
metropolaj
metropolita
metropolitan
metropolitana
metropolito
metropolo
metropoloj
metrostacio
metrostacioj
metu
metz
metzger
metzler
meurthe
meuse
mevo
mevoj
mexicana
mexico
meyer
meyers
mez
meza
mezaj
mezalta
mezameriko
mezan
mezaverag
mezbohemia
meze
mezepoka
mezepokaj
mezepokan
mezepoko
mezeu
mezgranda
mezgrandaj
mezlando
mezlerneja
mezlernejo
mezlernejoj
mezlernejojn
mezlernejon
mezmontaro
meznombro
mezo
mezon
mezopotamio
mezoregiono
mezoregionoj
mezoriento
mezumo
mezurado
mezuras
mezurata
mezuri
mezurilo
mezuriloj
mezuris
mezurita
mezuro
mezuroj
mezurojn
mezuron
mezurunuo
mezurunuoj
mezvarmaj
mf
mg
mh
mhnt
mhz
mi
mia
miadzin
miai
miaj
miajn
miami
mian
miasta
miasto
mic
mica
mich
michael
michal
michalovce
michał
miche
michel
michelangelo
michele
michelle
michigan
michoaca
mickey
mickiewicz
microsoft
mid
middle
midi
midnight
mie
mieczysław
mielo
mieno
miercurea
mies
mifflin
mig
migdalarboj
migra
migrado
migradoj
migradon
migrant
migranta
migrantaj
migranto
migrantoj
migras
migration
migratory
migris
miguel
mih
miha
mihai
mikaelo
mike
mikelang
mikena
mikeno
miklo
miklos
miko
mikola
mikrobiologio
mikrofono
mikronezio
mikroorganismoj
mikroregiono
mikroregionoj
mikroskopo
miksa
miksado
miksaj
miksas
miksig
miksis
miksita
miksitaj
mikso
mikula
mil
mila
milan
milana
milano
milda
mildaj
mildan
milde
mildigi
mile
miles
mileto
miliardo
miliardoj
miliardojn
milico
milimetroj
miliono
milionoj
milionojn
milionon
milionurbo
milionurboj
milit
milita
militado
militaj
militajn
militan
military
milite
militestro
militestroj
militfortoj
militiro
militis
militista
militistaj
militistan
militistaro
militisto
militistoj
militistojn
militkaptito
militkaptitoj
militkrimoj
milito
militoj
militojn
militon
milits
militservis
militservo
mill
milla
mille
millennium
miller
millet
million
mills
milo
miloj
milojn
milos
milton
milvo
milvoj
mimi
min
mina
minacas
minacata
minacataj
minacis
minaco
minacoj
minacon
minado
minami
minareto
minas
mind
mindanao
minden
mine
mineja
minejo
minejoj
minerala
mineralaj
mineralo
mineralogio
mineralogo
mineraloj
minerva
mines
minesoto
ming
mingus
minh
mini
minimuma
minimumaj
minimuman
minimume
minimumo
minis
minista
ministeria
ministerio
ministerioj
ministoj
ministraro
ministrejo
ministrino
ministro
ministroj
ministrojn
ministron
minkowski
minnaja
minnesota
mino
minoj
minoo
minor
minora
minoraj
minoritata
minoritataj
minoritato
minoritatoj
minoro
minsko
mint
minus
minuskla
minuskle
minuta
minuto
minutoj
minutojn
mio
mioceno
mir
mira
miraj
mirakla
miraklo
mirakloj
miranda
miras
mire
mireille
miri
mirinda
mirindaj
mirindan
mirinde
miris
miristila
miro
miroslav
mirror
mirza
mis
mise
misia
misiisto
misiistoj
misiloj
misio
misioj
misiojn
mision
misisipio
misisipo
miskolc
miskomprenu
mismo
miss
missa
mission
mississippi
missouri
mistera
misteraj
mistero
misteroj
mistika
mistikismo
mistikulo
misurio
misuzo
mit
mita
mitaj
mitchell
mito
mitochondrial
mitoj
mitologia
mitologiaj
mitologio
mitte
mitteilungen
mittelalter
mitterrand
mix
miyamoto
mizera
mizero
mj
mk
mky
ml
mlada
mln
mly
mm
mme
mmerda
mn
mo
mobile
mobilizo
moc
mod
moda
modaj
mode
model
modela
modelo
modeloj
modelojn
modelon
modena
modera
moderaj
modere
moderklimataj
modern
moderna
modernaj
modernajn
modernan
moderne
moderneco
modernigo
modernisma
modernismo
moderno
modesta
modeste
modifaj
modifas
modifi
modifis
modifita
modifitaj
modifo
modifoj
modo
modra
modulo
moe
moers
mogola
moha
mohamed
mohamedo
mohammad
mohammed
moi
moid
moire
moires
moj
mokis
mol
mola
molaj
moldava
moldavio
mole
molecular
molekula
molekulaj
molekulo
molekuloj
molie
molina
moll
molna
molotov
moltke
moluskoj
momanto
moment
momente
momento
momentoj
momentojn
momenton
mon
mona
monah
monaj
monakejo
monako
monarh
monarkio
monarkion
monarko
monarkoj
monasterio
monastero
monata
monate
monato
monatoj
monatojn
monaton
monbileto
monbiletoj
mond
monda
mondadori
mondaj
mondan
mondc
monde
mondfama
mondial
mondmilito
mondmilitoj
mondmiliton
mondo
mondoj
mondon
mondopartoj
mondpokalo
monero
moneroj
monerojn
money
mongola
mongolaj
mongolio
mongoloj
monica
monika
monk
monmouth
mono
monod
monografio
monographs
monon
monopolo
monopolon
monotipa
monroe
mons
monsieur
monstro
monstroj
mont
monta
montagne
montagut
montaj
montan
montana
montano
montara
montaraj
montararbaroj
montarbaroj
montaro
montaroj
montaron
montbe
monte
montedio
montenegro
montes
monteta
montetaro
monteto
montetoj
monteton
montevideo
montfort
montgomery
monthly
monti
montiel
montigny
montmartre
monto
montoc
montodorso
montoj
montojn
monton
montopasejo
montopinto
montopintoj
montparnasse
montpasejo
montpellier
montrado
montranta
montrantaj
montrante
montras
montrata
montrataj
montre
montrealo
montreuil
montri
montrig
montris
montrita
montritaj
montro
montroj
montros
montru
montserrat
monument
monumenta
monumentaj
monumento
monumentoj
monumentojn
monumenton
monuments
monunuo
monunuoj
monza
moon
moore
mor
mora
moral
morala
moralaj
moralajn
moralan
morale
morales
moralo
moralon
morato
morava
moravia
moraviaj
moraviasilezia
moravio
moravo
moravska
moravske
morbihan
more
moreau
moreira
morel
morelos
morena
moreno
morfologio
morgan
morgau
morges
mori
morin
moriskoj
moritz
mormona
morning
moro
moroj
morris
morrison
mort
morta
mortaj
mortanta
mortas
morte
morti
mortig
mortiga
mortigaj
mortigante
mortigas
mortigi
mortigis
mortigita
mortigitaj
mortigo
mortigon
mortigos
mortigu
mortinta
mortintaj
mortinto
mortintoj
mortintojn
mortis
morto
mortoj
mortojn
morton
mortopuno
mortos
mortpafis
mortpafita
mortpuno
mortu
mos
moscow
mosel
moselle
moseo
moser
moses
moskeo
moskeoj
moskeon
moskva
moskvaj
moskvo
moskvon
moson
mosonmagyaro
most
mosta
moteto
motetoj
mother
motion
motivo
motivoj
motivojn
motivon
moto
motor
motora
motoro
motoroj
motoron
motors
mots
motte
moulin
moulins
mount
mountain
mountains
moutier
mouvement
mova
movada
movado
movadoj
movadojn
movadon
movas
movebla
moveblaj
movement
movi
movie
movig
movimento
movimentoj
movis
movita
movo
movoj
movojn
movokvanto
movon
moyen
mozaiko
mozaikoj
mozambiko
mozart
mozelo
mozo
mp
mpc
mpios
mr
mrkos
mrp
mrs
ms
msm
mt
mta
mtv
mu
much
mudeh
muel
muelejo
muelejoj
muelejon
muerte
mug
muh
muhammad
mujer
mujeres
mukac
mulhouse
mult
multa
multaj
multajn
multan
multas
multe
multegaj
multege
multekosta
multekostaj
multenombraj
multenombrajn
multfoje
multig
multipliko
multiterritorial
multjara
multlingva
multnombra
multnombraj
multnombrajn
multo
multon
mumbajo
mumio
mun
mundi
mundo
munich
municio
municipa
municipaj
municipal
municipan
municiparo
municipios
municipo
municipoj
municipojn
municipon
munka
munkena
munkeno
muntado
muntita
mur
mura
murat
murcia
murcio
murder
murdi
murdis
murdisto
murdistoj
murdita
murditaj
murdo
murdoj
murdon
murego
muregoj
mures
muri
murmuris
muro
muroj
murojn
muron
murpentraj
murphy
murray
mus
musa
muse
museo
museum
museums
music
musica
musical
musicians
musik
musique
musko
muskoj
muskola
muskolo
muskoloj
muslim
muso
musoj
musono
mussolini
mustafa
muta
mutaj
muy
muzea
muzeaj
muzeo
muzeoj
muzeologo
muzeon
muzeum
muzik
muzika
muzikaj
muzikajn
muzikakademio
muzikalbumo
muzikalbumoj
muzikalo
muzikaloj
muzikan
muzikarta
muzike
muzikgrupo
muzikilo
muzikiloj
muzikinstruisto
muzikinstrumentoj
muzikis
muzikisto
muzikistoj
muzikistojn
muziklernejo
muziko
muzikoj
muzikon
muzo
mv
mw
mx
my
myers
myle
mys
mystery
myth
mythologie
mythology
myths
n
na
nabla
nac
nach
nachrichten
nacht
naci
nacia
naciaj
naciajn
nacian
nacie
nacieco
naciecoj
naciisma
naciismaj
naciismo
naciistoj
nacilingvaj
nacio
nacioj
naciojn
nacion
nacional
nacisocialisma
nad
nada
nadj
nafta
nafto
naftogasa
nafton
nag
nagano
nagasaki
nagel
nagoya
nagy
nagyba
nagyenyed
nagyka
nagykanizsa
nagyko
nagylexikon
nagyszombat
nagyva
nah
nahe
nai
naiva
naja
najbara
najbaraj
najbarajn
najbaras
najbare
najbareco
najbaro
najbaroj
najtingalo
nak
nakamura
nam
nambla
name
names
namibio
nan
nana
nancio
nancy
nankai
nankino
nano
nanoj
nantes
naomi
nap
naplo
napoca
napola
napole
napoleon
napoleona
napoleonaj
napoleono
napoli
napolo
nara
nard
narrative
nas
nasa
nash
nask
naskas
naski
naskig
naskigis
naskis
naskita
naskitaj
nasko
naskoloko
nassau
nat
natalia
natalo
nathalie
nathan
nation
national
nationale
nationalism
nations
native
nato
natria
natriaj
natrian
natrio
natur
natura
naturae
naturaj
naturajn
natural
naturaleza
naturalis
naturalismo
naturalist
naturalisto
naturan
nature
naturelle
naturheredaj
naturmemorindaj
naturo
naturon
naturparko
naturprotekto
naturrezervejo
naturscienca
natursciencisto
naturscienco
natursciencoj
nau
nauc
naumburg
nauro
nava
naval
navaro
navarro
navas
navigado
navigebla
navigilo
navigis
navigisto
navo
navoj
navon
navy
nay
naza
nazaire
nazareto
nazi
nazia
naziaj
naziismo
nazioj
nazionale
nazo
nazon
nb
nbc
nberg
nc
ncbi
nchen
nchez
ncia
ncipe
nd
ndb
nde
ndel
nden
nder
ndez
ndi
ndia
ndo
ndor
ndose
ne
nea
neantau
near
nearktisa
neas
neat
neatendita
neatendite
nebraska
nebrasko
nebula
nebulo
nebulozo
nebulozoj
neburg
nec
necerta
necerteco
necesa
necesaj
necesajn
necesan
necesas
necese
necesejo
necesejoj
necesigis
necesis
neceso
necesoj
neceson
necesus
neckar
nedau
nederland
nederlanda
nederlandaj
nederlandan
nederlandanoj
nederlande
nederlandlingva
nederlando
nederlandon
nederlandse
nedeviga
neebla
neeble
neegalaj
neelakantan
neevitebla
neeviteble
nefikcio
nefinita
neformala
neformale
neg
negativa
negativaj
negativajn
negativan
negative
negi
negocado
negocisto
negocistoj
negoco
negocoj
negra
negranda
negro
nehru
nei
neil
neill
neis
nek
nekapabla
neklara
nekompleta
nekonata
nekonataj
nekonatan
nekredebla
nekrologo
nekropolo
nekutima
nekutimaj
nekutime
nel
neleg
nell
nella
nelly
nelog
nelonge
nelson
nem
nemateria
nematuruloj
nemes
nemoveblaj
nemzeti
nemzetko
nen
nenia
neniaj
neniajn
neniam
nenian
nenie
neniel
neniig
neniigi
neniigis
neniigita
neniigo
nenio
neniom
nenion
neniu
neniuj
neniujn
neniun
neo
neodys
neoficiala
neoficialaj
neoficiale
neolitika
neolitiko
neologismo
neologismoj
neordinare
neorganika
neorganikaj
neotropical
neotropisa
nepala
nepalo
nepara
neperforta
nepino
neplenag
nepo
nepoj
nepolaraj
nepomuk
nepomuka
nepra
nepras
nepre
neprofunda
neprofundaj
neptuno
ner
neregistaraj
neregula
neregulaj
nerekta
nerekte
nerila
nero
nerono
neruda
nerva
nervo
nervoj
nes
nesala
nesalakvaj
nescio
nesolvebla
nest
nestamasulo
nestas
nesting
nesto
nestoj
nestojn
nestolokoj
neston
nestumado
nestumas
nesufic
net
netau
nete
netherlands
neti
neto
netus
network
neu
neue
neuen
neues
neuf
neuilly
neumann
neunkirchen
neurbaj
neustadt
neuville
neuwied
nev
nevada
nevado
neve
never
nevers
neves
nevidebla
neville
nevino
nevo
nevole
nevter
new
newcastle
newman
newport
news
newsletter
newton
next
ney
nez
nf
nfeld
ng
nga
ngc
nge
ngel
ngen
nger
ngo
nguyen
ngyo
nh
nha
ni
nia
niai
niaj
niajn
nian
nic
nica
niccolo
nice
niceo
nicholas
nicholson
nicht
nick
nico
nicola
nicolae
nicolai
nicolas
nicolaus
nicole
nie
niel
niels
nielsen
nien
nietzsche
nig
nigel
niger
nigeria
night
nigra
nigrablankaj
nigraj
nigrajn
nigrakapa
nigran
nigre
nigreca
nigrecaj
nigro
nigrula
nigrulo
nigruloj
nigsberg
nigstuhl
niigata
nij
nijmegen
nik
nika
nikaj
nikaragvo
nikela
nikelo
nikita
niko
nikola
nikolai
nikolaj
nikolajevic
nikolao
nikolaus
nikov
nil
nilo
nils
nimfo
nimfoj
nimo
nin
nina
nine
nineteenth
ning
nino
nintendo
nio
nippon
nis
niso
nisou
nist
nitra
nitrata
nitrato
nitrito
nitro
nitroacetato
nitrogena
nitrogenaj
nitrogeno
niva
nivalis
nivelo
niveloj
nivelojn
nivelon
nixon
niz
nj
nja
njan
nk
nka
nko
nkvd
nky
nl
nm
nmu
nn
nne
nner
no
noa
noah
nobel
nobela
nobelaj
nobelaro
nobeldomo
nobelo
nobeloj
nobelpremiita
nobeluloj
nobla
noblaj
noble
noc
noch
noche
nocio
nocioj
nocion
nodo
nodoj
noe
noel
noir
noire
noj
nok
nokta
noktaj
noktan
nokte
nokto
noktoj
noktomezo
nokton
nom
noma
nomadaj
nomado
nomadoj
nomante
nomas
nomata
nomataj
nomatajn
nomatan
nomatas
nombra
nombraj
nombrajn
nombras
nombre
nombrig
nombris
nombro
nombroj
nombrojn
nombron
nombroteorio
nome
nomenclature
nomenklaturo
nomi
nomig
nomiga
nomigas
nomigis
nomigo
nominativo
nomis
nomita
nomitaj
nomitajn
nomitan
nomitis
nomo
nomoj
nomojlisto
nomojn
nomon
nomordo
nomos
nomportantoj
noms
nomumas
nomumi
nomumig
nomumis
nomumita
nomumitaj
nomumitis
nomumo
nomumon
nomvarianto
non
nonila
nor
nora
norbert
nord
norda
nordafriko
nordaj
nordamerika
nordamerikaj
nordameriko
nordan
norde
norden
nordgermana
nordhausen
nordia
nordo
nordokcidenta
nordokcidentaj
nordokcidente
nordokcidento
nordon
nordorienta
nordoriente
nordorienten
nordoriento
nordrejn
norfolk
norma
normaj
normala
normalaj
normalan
normale
norman
normanda
normandie
normandio
normandoj
normiga
normigo
normo
normoj
normojn
normon
norte
north
northern
northumbria
northwest
norton
norvega
norvegaj
norvegio
norvegujo
nos
nostra
not
nota
notacio
notario
notas
note
notes
nothing
noti
noticias
notinda
notindaj
notindas
notinde
notis
notita
noto
notoc
notoj
notojn
noton
notre
notu
nou
nous
nouveau
nouvelle
nouvelles
nov
nova
novaj
novajn
novan
nove
novel
novela
novelaro
novelisto
novelo
noveloj
novelojn
november
novembra
novembre
novembro
novgorod
novgoroda
novgorodo
novgotika
novgvineo
novi
novigo
novjara
novjaro
novjorka
novjorkio
novjorko
novklasika
novklasikismo
novlando
novo
novsudkimrio
novy
novzelanda
novzelandaj
novzelando
now
nowak
nowy
np
npiv
npm
nr
nro
ns
nsdap
nska
nske
nsky
nsson
nste
nster
nstler
nszky
nt
nta
ntara
nter
nther
nto
ntu
nu
nuanco
nuancoj
nuancojn
nuancon
nubo
nuboj
nubskrapuloj
nuclear
nuda
nudaj
nudeco
nuestra
nuestros
nueva
nuevo
nuit
nuits
nuklea
nukleaj
nuklean
nukleo
nuko
nuksoj
nul
nula
nulig
nuligi
nuligis
nuligita
nuligitaj
nuligo
nuligon
nulo
nuloj
num
number
numbers
numeraloj
numero
numeroj
numerojn
numeron
nun
nuna
nunaj
nunan
nune
nuno
nuntempa
nuntempaj
nuntempan
nuntempe
nuntempo
nuova
nuovo
nuptis
nupto
nur
nura
nuraj
nuran
nure
nurenbergo
nuro
nuroj
nus
nutra
nutrado
nutraj
nutras
nutri
nutrindustrio
nutris
nutro
nutrondustrio
nv
nw
ny
nya
nyai
nye
nyei
nyek
nyelv
nyes
nyi
nyitra
nyok
nyon
nyos
nyu
nyugat
nyv
nyve
nyvkiado
nyvta
nz
o
oa
oah
oak
oakland
oaktoro
oaktoroj
oara
oaxaca
oazo
ob
obama
obc
obce
obe
obeas
obecni
obei
obeis
obelisko
obeo
ober
oberhausen
oberlando
oberwart
obj
object
objektiva
objektivo
objekto
objektoj
objektojn
objekton
obla
oblasto
oble
oblikva
oblonga
obr
obra
obras
observa
observado
observaj
observanto
observantoj
observas
observata
observataj
observations
observatorio
observatorioj
observatorion
observatory
observejo
observi
observis
observita
observitaj
observo
observoj
observojn
obstakloj
obstina
obteni
obtenis
oc
oca
occidental
ocean
oceana
oceanaj
oceanio
oceano
oceanoj
oceanon
ocentro
och
ocl
oclc
october
od
oda
odas
ode
odenwald
oder
odesa
odeso
odiseado
odiseo
odo
odoj
odore
odorheiu
odorigagento
odoro
odoron
odra
odro
odyssey
oeste
of
ofara
ofensivo
ofensivon
oferas
oferi
oferis
ofero
oferoj
oferojn
oferon
ofertas
oferti
ofertis
oferto
off
offenbach
office
official
ofica
oficejo
oficejoj
oficejojn
oficejon
oficial
oficiala
oficialaj
oficialajn
oficialan
oficiale
oficialig
oficialuloj
oficina
oficiro
oficiroj
oficirojn
oficis
oficisto
oficistoj
ofico
oficoj
oficon
oficperiodo
oforo
ofta
oftaj
oftajn
oftas
ofte
ofteco
og
oguno
oh
ohio
ohne
ohr
ohrdruf
oi
oil
ois
oise
oiseaux
oita
oj
oja
ojas
ojc
oje
ojis
ojn
ojo
ojon
ojos
oju
ok
oka
okajama
okangula
okato
okayama
okazadis
okazaj
okazanta
okazantaj
okazas
okaze
okazi
okazigas
okazigi
okazigis
okazigita
okazigitaj
okazigo
okazinta
okazintaj
okazis
okazo
okazoj
okazon
okazonta
okazos
okazu
okazus
okcident
okcidenta
okcidentafriko
okcidentaj
okcidentajn
okcidentan
okcidente
okcidenten
okcidenteu
okcidento
okcitana
okcitane
okcitanio
okdek
okedro
oklahoma
oklahomo
oklatera
oko
okolado
okres
oksalato
oksfordo
oksidado
oksidig
oksidigagentoj
oksidigo
oksido
oksidoj
oksigenatomoj
oksigeno
oksigenon
okt
oktanata
oktanato
oktaviano
oktavo
oktila
oktober
oktobra
oktobre
oktobro
okula
okulfrapa
okulo
okuloj
okulojn
okulon
okulringo
okulvitroj
okupacio
okupado
okupanta
okupantoj
okupas
okupata
okupataj
okupi
okupig
okupis
okupita
okupitaj
okupo
okupoj
ol
ola
olaf
olando
old
olda
oldenburg
oldr
ole
olea
oleg
oleo
oleoj
oleon
olero
oles
olga
oli
olimpia
olimpiaj
olimpiano
olimpianoj
olimpika
olimpikaj
olimpikan
olimpiko
olimpikoj
olimpo
oliva
olivarboj
olive
oliveira
oliver
olivia
olivier
olivoj
olivoleo
olof
ologie
olomouc
ols
olson
olsztyn
olt
olten
olympia
olympic
om
omag
omano
omar
ombre
ombro
ombroj
ombron
omega
omip
omnia
omo
on
ona
onard
once
onda
ondo
ondoj
ondojn
ondolongo
ondon
ondosimilaj
ondr
one
ong
oni
onia
onidire
onidiro
onidiroj
onin
onklino
onklo
online
only
ono
onoj
ons
ont
onta
ontaj
ontario
ontologio
onubo
oo
ooizumi
oomoto
op
opa
opac
opava
ope
opel
open
oper
opera
operacia
operacio
operacioj
operaciojn
operacion
operaciumo
operaciumoj
operaco
operacoj
operacon
operation
operatorname
operatoro
operejo
operetkantisto
opereto
operetoj
operetoteatro
operkantistino
operkantisto
operkantistoj
operkomponistoj
opero
operoj
operojn
operon
ophile
opinias
opiniis
opinio
opinioj
opiniojn
opinion
opo
opold
oponis
oportuna
oportune
oportunon
opozicia
opoziciaj
opozicio
opozicion
opreg
ops
optika
optikaj
optiko
opus
or
ora
oradea
oraj
orajn
orakolo
oralo
oran
orang
orange
oranje
oranta
oratio
oratorio
oratorioj
oratoro
orba
orbe
orbis
orbita
orbitaj
orbitan
orbitanta
orbitas
orbito
orbitoj
orbitojn
orbiton
orchester
orchestra
orchis
orda
orden
ordena
ordeno
ordenoj
ordenon
order
ordigi
ordigis
ordigita
ordigitaj
ordigo
ordinara
ordinaraj
ordinaran
ordinare
ordinita
ordo
ordoj
ordon
ordonas
ordonis
ordonita
ordono
ordonoj
ordonojn
ordonon
ordre
ore
oregon
oregono
orejo
orelo
oreloj
orelojn
orelon
oresto
orf
orfejo
orfeo
orfis
orfoj
org
organic
organika
organikaj
organisation
organismo
organismoj
organiza
organizado
organizadon
organizaj
organizanto
organizantoj
organizas
organizata
organization
organizi
organizig
organizis
organizita
organizitaj
organizo
organizoj
organizojn
organizon
organo
organoj
organojn
organon
orgel
orgenisto
orgenistoj
orgenkonstruisto
orgeno
orgenoj
orgenon
orgue
orh
ori
orient
orienta
orientaj
orientajn
oriental
orientales
orientalis
orientalisa
orientalisto
orientalistoj
orientan
orientation
oriente
orienten
orienteu
orientig
orientita
orientitaj
oriento
origeno
origin
origina
originaj
original
originala
originalaj
originalajn
originalan
originale
originalo
originan
originas
origine
origines
originig
originis
origino
originoj
originojn
originon
origins
orio
oriole
orion
oriono
oris
orkestra
orkestrestro
orkestro
orkestroj
orkestron
orla
orlando
orle
orleano
orleans
orlici
ornama
ornamado
ornamaj
ornamas
ornami
ornamis
ornamita
ornamitaj
ornamo
orne
ornithologists
ornithology
ornitologio
ornitologo
ornitologoj
oro
oroj
oron
orosha
orosz
ors
orsza
orta
ortangula
ortega
ortiz
orto
ortodoksa
ortodoksaj
ortodoksismo
ortodoksuloj
ortografio
ortografion
orwell
os
osa
osaka
osako
oscar
osea
oseo
oseoj
oseon
oseta
osetio
osijek
osiris
oskar
oskaro
oslo
oslovaka
oslovakaj
oslovakio
osmana
osmanida
osnabru
oso
osoj
ost
osta
ostag
osto
ostoj
ostojn
ostrava
ostro
ostrobotnio
ostrov
ostwald
oswald
oszk
oszka
ot
ota
otakar
otavo
otelo
other
otis
oto
otomana
otomanaj
otomanoj
otra
otro
otros
ott
otto
ottoman
ou
ouen
ouest
our
out
ov
ova
ovala
ovalaj
ovario
ovas
ovce
over
overview
ovi
ovica
ovice
ovidio
oviedo
ovig
ovis
ovita
ovo
ovodemetado
ovoj
ovojn
ovon
ovsky
owen
own
oxford
oz
ozo
p
pa
paa
pablo
pac
paca
pacaj
pacan
pace
pacheco
pacienco
paciento
pacientoj
pacific
pacifika
pacifikaj
pacifiko
packontrakto
paco
pacon
pactraktato
paderborn
padilla
pado
padoj
padovo
padre
pafado
pafaj
pafekzekutis
pafi
pafilo
pafiloj
pafis
pafisto
pafistoj
pafita
pafmortigis
pafmortigita
pafo
pag
pagana
paganaj
paganismo
paganoj
pagas
pagasts
page
pages
pagi
pagis
pagita
pagitaj
pago
pagoj
pagon
pagos
pai
painting
paix
pajlo
pajrolando
pakaj
pakistan
pakistana
pakistano
pakto
pakton
pal
pala
palaca
palace
palacio
palacios
palaco
palacoj
palacon
palais
palaj
palatinata
palatinato
palatino
palau
palazzo
pale
palearktisa
palencio
paleolitiko
paleontologio
paleontologo
palermo
palestina
palestinaj
palestinanoj
palestine
palestino
palestrina
palgrave
palig
pallas
palm
palma
palmer
palmo
palmoj
palo
palomar
palos
pama
pamela
pan
panama
panamo
panc
pandemio
panelo
paneloj
pang
panicum
panjo
panny
pano
panon
panorama
panoramio
panoramo
pantalono
panteono
panthera
paolo
pap
papa
papado
papago
papagoj
papaj
papan
paper
papera
paperaj
paperback
papero
paperoj
paperon
papers
papilio
papilioj
papiruso
papo
papoj
papon
papp
papua
papuo
par
para
parabolo
paradis
paradise
paradizo
parado
paradokso
paragrafo
paragvaja
paragvajo
parai
paraibo
paraj
paralela
paralelaj
paralele
paralelo
parametro
parametroj
parametrojn
parametron
paramount
parana
paranao
paras
parazito
parazitoj
parc
parcelojn
parchim
pardo
pardono
pardonon
pardonu
pardubice
pardubicky
pare
parenca
parencaj
parenceco
parenco
parencoj
parencojn
parfumoj
pari
parig
paris
pariza
parizaj
parizo
parizon
park
parka
parker
parkinson
parko
parkoj
parkon
parks
parlamenta
parlamentaj
parlamentan
parlamentano
parlamentanoj
parlamentejo
parlamento
parlamentoj
parlamenton
parler
parma
parmo
parnaso
paro
parodio
paroh
paroj
parojn
paroko
parola
parolado
paroladoj
paroladojn
paroladon
parolaj
parolanta
parolantaj
parolante
parolanto
parolantoj
parolantojn
parolas
parolata
parolataj
parole
paroli
parolis
parolisto
parolita
parolmaniero
parolo
paroloj
parolojn
parolon
parolos
parolu
paron
parque
pars
part
parta
partaj
partan
parte
partenono
parti
partia
partiaj
partial
partianoj
participo
partido
partiestro
partikla
partiklo
partikloj
partikulara
partikulare
partio
partioj
partiojn
partion
partituro
partiza
partizana
partizanoj
partnera
partneraj
partnereco
partnero
partneroj
partneron
parto
partoj
partojn
parton
partoprenantaj
partoprenante
partoprenanto
partoprenantoj
partoprenantojn
partoprenas
partopreni
partoprenintaj
partoprenintoj
partoprenis
partopreno
partoprenon
party
paruliedoj
parulio
paruo
parus
pas
pasa
pasado
pasag
pasaj
pasante
pasas
pascal
pascual
pasejo
paserina
pasero
paseroformaj
paseroj
pasi
pasia
pasie
pasigas
pasigi
pasigis
pasinta
pasintaj
pasinteco
pasinto
pasio
pasioj
pasion
pasiono
pasis
pasiva
paska
paskalo
pasko
paso
pasos
pasporta
pasporto
pasquale
pass
passage
passau
passe
passer
passerine
passion
past
pasteur
pasto
pastor
pastoro
pastra
pastraro
pastrig
pastro
pastroj
pastrojn
pastron
pat
patagonio
patento
patentoj
patenton
pater
pato
patologio
patra
patria
patriarko
patriarkoj
patrice
patricia
patrick
patrimonio
patrina
patrino
patrinoj
patrinon
patrio
patriota
patriotismo
patriotoj
patro
patroj
patron
patrona
patroneco
patronino
patrono
patronoj
patrujo
patrujon
patterns
pau
paul
paula
pauli
pauline
paulista
paulo
paulus
pavel
pavia
pavilono
pavio
pavo
paweł
pax
payne
pays
paz
pbs
pc
pcf
pd
pdf
pe
pea
peace
peak
pearl
pearson
pec
pech
peco
pecoj
pecojn
pecon
pedagogia
pedagogiaj
pedagogian
pedagogio
pedagogo
pedagogoj
pedofilia
pedofilio
pedro
peer
pegazo
peggy
pego
pej
pejzag
pek
pekina
pekino
peko
pekoj
pekon
pelas
pelhr
peli
pelikano
pelikanoformaj
pelikanoj
pelis
peloponezo
pelvo
pen
pena
penado
penas
pendanta
pendantaj
pendas
pendis
pendolo
pene
penelope
penetranta
penetras
penetri
penetris
penguin
penguins
peni
penis
peniso
penn
pennsylvania
penny
peno
penoj
pensado
pensadon
pensante
pensaro
pensas
pense
pensi
pensiero
pensigas
pensiig
pensilvanio
pensiono
pensis
pensiulig
pensmaniero
penso
pensoj
pensojn
penson
pensu
pensuloj
pentekosto
pento
pentradis
pentrado
pentradon
pentraj
pentrarto
pentras
pentri
pentris
pentristino
pentristo
pentristoj
pentrita
pentritaj
people
peoples
per
perado
peranto
perceptas
percepti
perceptita
percepto
perche
percy
perdas
perdi
perdig
perdis
perdita
perditaj
perdo
perdoj
perdojn
perdon
perdos
perdriko
pere
pereinta
pereintaj
pereira
pereis
pereo
pereos
perfekta
perfektaj
perfektan
perfekte
perfekteco
perfektig
perfidis
perfido
performance
perforta
perfortaj
perforte
perforto
perforton
peri
periferio
perigordo
perimetro
period
perioda
periodaj
periode
periodo
periodoj
periodojn
periodon
peris
perkins
perlo
perloj
permane
permanenta
permesante
permesas
permesata
permesi
permesilo
permesiloj
permesis
permesita
permesitaj
permeso
permeson
permesos
permesu
pernambuko
pero
peroksido
perrin
perry
pers
persa
persaj
persan
perse
persekutado
persekutadon
persekutas
persekutata
persekutataj
persekuti
persekutis
persekuto
persekutoj
perseo
persian
persio
perso
persoj
person
persona
personaj
personajn
personal
personan
personaro
persone
personeco
personecoj
personecon
personensuche
personigo
persono
personoj
personojn
personon
perspective
perspectives
perspektivo
perspektivoj
perspektivon
persvadi
persvadis
perto
perturbo
perturboj
peru
perua
perugia
peruo
pes
pesilo
peso
pest
pesti
pesticidoj
pesto
pet
petaloj
petante
petas
pete
petegas
petegis
peter
peterburga
peterburgo
petermannia
peters
petersberg
petersen
peterson
peti
petis
petit
petite
peto
petoj
peton
petr
petra
petrelo
petreloj
petri
petro
petrogrado
petrolo
petrov
petrovic
petrovice
petrus
pettiford
petu
peugeot
pez
peza
pezaj
pezajn
pezan
pezas
peze
pezis
pezo
pezoj
pezon
pf
pfa
pfalz
pfeiffer
pflanzen
pg
pgae
pgc
ph
phalacrocorax
phane
phd
phe
phi
phil
philadelphia
philip
philipp
philippe
philips
phillip
phillips
philosophical
philosophie
philosophy
phoenix
photo
photos
php
phylloscopus
phylogenetic
phylogenetics
phylogeny
physical
physics
physiology
pi
pia
pianistino
pianisto
pianistoj
piano
pianoj
pianokonc
pianon
piazza
pic
pica
picasso
piceo
pico
picture
pictures
pie
pieco
pied
piede
piedestalo
piedira
piedirado
piedirantoj
piediri
piednotoj
piedo
piedoj
piedojn
piedon
piedpilkisto
piedpilko
piedra
piemonto
pier
pierce
piero
pierre
pies
pieter
pietro
pig
pigmentoj
pigo
piko
pilar
pilastroj
pilato
pilgrima
pilgrimado
pilgrimantoj
pilgrimejo
pilgrimloko
pilieroj
pilko
pilkon
pilorio
piloto
pilotoj
pilse
pim
pin
pinaroj
pinc
pine
ping
pingloj
pingveno
pingvenoj
pinjine
pinjino
pink
pino
pinoj
pinta
pintaj
pinte
pinto
pintoj
pintojn
pinton
pinus
pio
pioneer
pionira
pioniraj
pioniro
pioniroj
piotr
pip
piper
piperazina
pipes
pipro
piramida
piramido
piramidoj
pirata
pirato
piratoj
pireneoj
piron
piroska
pis
pisa
pistoiese
pisuerga
pitagoro
pitkarna
pitono
pitoreska
pittsburgh
piu
piv
pizarro
pizo
piłsudski
pj
pjongjango
pjotr
pk
pl
pla
plac
place
places
placo
placoj
placon
plado
pladoj
plafono
plag
plage
plago
plain
plaine
plains
plaisir
plan
plana
planado
planas
planata
planck
plane
planeda
planedaj
planedetoj
planedo
planedoj
planedojn
planedon
planet
planeta
planetario
planetary
plani
planis
planita
planitaj
planko
plankon
planlingvo
planlingvoj
planning
plano
planoj
planojn
planon
plant
planta
plantado
plantag
plantaj
plantaro
plantarum
plantejoj
plantilla
plantis
plantita
plantitaj
planto
plantofamilioj
plantoj
plantojn
planton
plantoscienco
plantospecioj
plants
plasa
plasta
plastaj
plastikaj
plasto
plata
plataj
platbeka
plate
platform
platformo
platformoj
plato
platoj
platojn
platona
platono
platz
plau
play
plays
playstation
plaza
ple
plebiscito
pledis
pleistoceno
plej
pleja
plejag
pleje
plejmultaj
plejmulto
plejmulton
plejofte
plejparte
plejparto
plejparton
plejstoceno
plena
plenag
plenaj
plenajn
plenan
plendas
plendis
plendo
plendoj
plene
plenig
plenigas
plenigi
plenigis
plenigita
plenigitaj
plenkreska
plenkreskaj
plenkreskulo
plenkreskuloj
plennome
plenuma
plenumado
plenumante
plenumas
plenumi
plenumig
plenumis
plenumita
plenumitaj
plenumo
plenumon
plenumos
plenumu
ples
pleu
plezuro
plezuron
pli
plia
pliag
pliaj
pliajn
plialtig
plialtigi
plialtigis
plialtigita
plialtigo
plian
plibonig
plibonigas
plibonigi
plibonigis
plibonigita
plibonigo
plibonigoj
plibonigon
plie
plifortig
plifortigas
plifortigi
plifortigis
plifortigita
plifortigo
pligrandig
pligrandigas
pligrandigi
pligrandigis
pligrandigita
pligrandigo
pliig
pliigas
pliigi
pliigis
pliigita
pliigo
plilarg
plilongig
plilongigita
plilongigo
plimulte
plimultig
plimulto
plimulton
plinio
plioceno
pliposte
pliric
plivastig
plo
plon
plong
ploras
ploris
ploro
plotarea
plotdata
plotino
plozivoj
plu
plua
pluaj
pluajn
pluan
pluas
pludau
plue
pluen
pluigis
pluis
plulernis
plumaro
plumaron
plumba
plumbo
plumnomo
plumo
plumoj
plumojn
plumos
pluraj
plurajn
plurala
plurale
pluralo
plurc
pluredro
pluredroj
plurfoje
plurjara
plurlatera
plurlatero
plurlateroj
plurlingva
plus
pluse
plutarko
plutono
pluva
pluvarbaro
pluvarbaroj
pluvas
pluvivis
pluvo
pluvoj
pluvokvanto
pluvon
pluvsezono
plzen
pm
pmc
pmeg
pmid
pn
pneu
png
po
poacoj
poblacio
pobo
poc
poche
pocket
poco
pod
pode
podhorsky
podlah
poe
poema
poemaro
poemas
poemo
poemoj
poemojn
poemon
poems
poentoj
poentojn
poesi
poet
poeta
poetiko
poetino
poeto
poetoj
poeton
poetry
poezia
poeziaj
poezio
poezion
pogromo
pohled
poincare
point
pointe
points
poitiers
poj
pokalo
pokalon
pol
pola
polaj
polajn
polan
poland
polar
pole
polemika
polemiko
polemikoj
polemikon
polga
poli
polic
polica
policaj
policano
policanoj
police
policejo
policisto
policistoj
polico
policon
policy
poligloto
polimeroj
polinezio
polinomo
polinomoj
polis
polish
politeknika
politekniko
political
politics
politik
politika
politikaj
politikajn
politikan
politike
politikistino
politikisto
politikistoj
politiko
politikoj
politikojn
politikon
politique
politische
pollando
pollandon
pollingva
polo
poloj
polojn
polonia
polska
polski
polskie
polskiego
poluado
polujo
poluo
polusa
polusaj
poluso
polusoj
polvo
poly
pomeria
pomerio
pomni
pomo
pomoj
pompejo
pompeo
pompidou
pongra
pons
pont
ponta
pontarlier
ponte
pontifika
ponto
pontoj
pontojn
ponton
poole
pop
pope
poplo
poploj
popmuziko
popol
popola
popolaj
popolajn
popolan
popolkanto
popolkantoj
popolmuziko
popolnombrado
popolo
popoloj
popolojn
popolon
poprad
populacio
populacioj
populaciojn
populacion
popular
populara
popularaj
popularajn
popularan
populare
populareco
popularecon
popularig
popularigis
popularigo
population
populations
por
porc
porcelano
pordego
pordegoj
pordegon
pordo
pordoj
pordojn
pordon
porfirio
porinfana
porinfanaj
porinstruista
porjunulara
porkaj
porko
porkoj
porque
port
porta
portal
portalo
portaloj
portanta
portantaj
portante
portanto
portantoj
portas
portata
porte
portebla
portempa
portempe
porter
porti
portiko
portis
portita
portitaj
portland
porto
portrait
portreto
portretoj
portretojn
portreton
portu
portugal
portugala
portugalaj
portugalan
portugale
portugalio
portugallingva
portugaloj
portugalujo
portuguesa
portulaca
poruba
pos
posedaj
posedanto
posedantoj
posedas
posedata
posedataj
posedi
posedis
posedo
posedon
position
post
posta
postaj
postajn
postan
poste
posteno
postenoj
postenojn
postenon
posteulo
posteuloj
postlasaj
postlasis
postlasitaj
postmilita
postmilitaj
postmilite
postmorta
postmorte
postparolo
postrestaj
postrestis
posttagmeze
posttagmezo
postulante
postulas
postulata
postuli
postulis
postulita
postulo
postuloj
postulojn
postulon
postvivis
pot
potenca
potencaj
potencan
potence
potenciala
potencialo
potencialon
potenco
potencoj
potencojn
potencon
potenculoj
potenza
poto
potok
potosi
potsdam
potter
poul
pour
pouteria
pova
povaj
povas
povi
povintus
povis
povo
povoj
povojn
povon
povos
povu
povumo
povus
powell
power
powiat
pozicio
pozicioj
poziciojn
pozicion
pozidono
pozitiva
pozitivaj
pozitivajn
pozitivan
pozitive
poznan
poznano
pozo
pozono
pozsony
pp
ppen
ppr
pr
pra
praa
praaj
praarbaro
praavo
prac
prachatice
practical
practice
prades
prado
praetorius
praga
prago
praha
prahistoria
prahistoriaj
prahistorio
prairie
praktika
praktikado
praktikaj
praktikajn
praktikan
praktikas
praktikata
praktike
praktiki
praktikis
praktiko
praktikoj
praktikojn
praktikon
pralog
pramo
prams
pranepo
prapatro
prapatroj
pratt
praulo
prauloj
prava
pravaloro
pravas
pravda
prave
pravec
pravigas
pravigi
pravigo
praxis
praz
prc
pre
precipa
precipaj
precipe
precipitaj
preciza
precizaj
precizajn
precizan
precize
precizeco
precizigi
predado
predanto
predantoj
predantojn
predas
predator
predikado
predikejo
predikis
predikisto
prediko
predikoj
predo
predoj
predojn
predon
prefektejo
prefekto
prefektujo
preferas
preferata
preferataj
prefere
preferis
prefero
prefikso
prefiksoj
preg
preghejo
preis
prelato
preleganto
prelegis
prelego
prelegoj
prelegojn
prelegon
prelongo
preludo
premas
premi
premie
premier
premieris
premierita
premiero
premiita
premiitaj
premiito
premiitoj
premio
premioj
premiojn
premion
premis
premita
premo
premoj
premon
prenante
prenas
preni
prenila
prenis
prenita
prenitaj
preno
prenos
prenu
prepara
preparado
preparaj
preparas
preparata
prepari
preparig
preparis
preparita
preparitaj
preparo
preparoj
preposto
prepozicio
prepozicioj
pres
presado
presaj
presarto
presbiterejo
prescott
presejo
presejon
present
presi
president
presidente
presis
presisto
presita
presitaj
preskau
presl
presley
preso
press
presse
presses
prestig
prestige
preston
preta
pretaj
pretas
preteksto
pretendas
pretendis
pretendo
pretendoj
preter
preterfluas
preterflugo
preteriras
preterpasas
preterpasis
pretig
pretigi
pretigis
pretigita
pretigo
pretis
preto
preventi
prevento
prey
prez
prezentado
prezentadoj
prezentadon
prezentaj
prezentanta
prezentante
prezentas
prezentata
prezentataj
prezenti
prezentig
prezentis
prezentisto
prezentita
prezentitaj
prezento
prezentoj
prezenton
prezentu
prezidanta
prezidanteco
prezidantecon
prezidantino
prezidanto
prezidantoj
prezidanton
prezidas
prezidenta
prezidentaj
prezidentan
prezidenteco
prezidento
prezidentoj
prezidenton
prezidis
prezo
prezoj
prezojn
prezon
pri
priamo
price
pridisputata
prie
priestley
prievidza
prijug
prilaborado
prilaboras
prilabori
prilaboris
prilaborita
prilaboritaj
prilaboro
prima
primara
primaraj
primaso
primatoj
prime
primer
primera
primitiva
primitivaj
primo
primoj
primus
princa
prince
princess
princeton
princino
princinoj
principe
principles
principo
principoj
principojn
principon
princlando
princlandoj
princo
princoj
princon
print
printempa
printempe
printempo
printing
priorejo
prioro
pripensas
pripensi
pripensis
prirabis
pris
priserc
priservata
priskriba
priskribanta
priskribante
priskribas
priskribata
priskribi
priskribis
priskribita
priskribitaj
priskribo
priskriboj
priskribojn
priskribon
prisma
prismo
prismoj
pristudis
pritakso
pritraktas
pritrakti
pritraktis
privat
privata
privataj
privatajn
privatan
private
privatprofesoro
privatuloj
privilegio
privilegioj
privilegiojn
privilegion
prix
prize
prizono
prizonuloj
prizorgado
prizorgas
prizorgi
prizorgis
prizorgo
pro
probabla
probable
probableco
probablo
proble
problem
problema
problemo
problemoj
problemojn
problemon
problems
procedo
procedoj
procedon
proceduro
proceduroj
proceedings
procelariedoj
procelarioformaj
procentaj
procento
procentoj
procentojn
procesio
proceso
procesoj
proceson
procesoro
procesoroj
process
processes
processing
procezo
procezoj
procezojn
procezon
prod
production
productions
products
produkta
produktado
produktadon
produktaj
produktanta
produktante
produktanto
produktantoj
produktas
produktata
produktataj
produktejo
produkti
produktig
produktis
produktisto
produktita
produktitaj
produktiva
produkto
produktoj
produktojn
produkton
produktoro
produktoroj
produto
prof
profana
profanaj
profesia
profesiaj
profesian
profesie
profesio
profesioj
profesion
profesiuloj
profesorig
profesorino
profesoro
profesoroj
profesoron
professor
profetaj
profeto
profetoj
profile
profilo
profita
profitante
profitas
profite
profiti
profitis
profito
profitoj
profiton
profunda
profundaj
profundajn
profundan
profunde
profundeco
profundo
profundon
program
programa
programado
programaro
programeroj
programisto
programistoj
programlingvo
programlingvoj
programme
programo
programoj
programojn
programon
progresas
progresema
progresinta
progresis
progresiva
progreso
progresoj
progreson
progress
project
projekcia
projekcio
projekt
projektis
projektita
projekto
projektoj
projektojn
projekton
proklamas
proklamis
proklamita
proklamo
prokrasti
prokrastis
prokrastita
prokrasto
proks
proksima
proksimaj
proksimajn
proksiman
proksimas
proksime
proksimeco
proksimig
proksimo
proksimulo
proksimuma
proksimume
prokuroro
proleta
proletaro
prologo
promenado
promenejo
promeni
promesas
promesis
promesita
promeso
promesoj
promeson
prometeo
promocii
promociis
promociita
promocio
pron
pronomo
pronomoj
prononcata
prononci
prononco
prononcon
prononcu
propaganda
propagandaj
propagandi
propagandis
propagandisto
propagando
propagandon
propanolo
proparolanto
properties
propila
propilena
propionata
propionato
proponante
proponas
proponi
proponis
proponita
proponitaj
propono
proponoj
proponojn
proponon
proporcia
proporcie
proporcio
proporcioj
proporcion
propozicio
propozicioj
propra
propraj
proprajn
propran
propravole
propre
propreco
proprecoj
proprecojn
proprieto
propulsion
prosper
prospera
prosperas
prosperis
prospero
prosperon
proste
protagonisto
protagonistoj
protection
proteino
proteinoj
protekta
protektado
protektadon
protektanto
protektas
protektata
protektataj
protekti
protektis
protektita
protektitaj
protekto
protekton
protektorato
protestanta
protestantaj
protestantisma
protestantismo
protestantoj
proteste
protesti
protestis
protesto
protestoj
protestojn
protokolo
protokoloj
protonoj
prototipo
proust
provante
provas
provenc
provence
provenco
proverbaro
proverbo
proverboj
provi
providenco
provinca
provincaj
province
provincia
provincial
provinco
provincoj
provincojn
provincon
provis
provizado
provizas
provizi
provizis
provizita
provizitaj
provizo
provizoj
provizora
provizoraj
provizoran
provizore
provo
provoj
provojn
provokis
provon
proza
prozaj
prozo
pru
prudenta
prudente
prudento
prunus
prusa
prusia
prusio
prusujo
pruvaro
pruvas
pruvi
pruvig
pruvis
pruvita
pruvo
pruvoj
pruvojn
pruvon
przez
ps
psalmo
psalmoj
pseu
psi
psih
psika
psikaj
psikiatria
psikiatrio
psikiatro
psiko
psikoanalizo
psikologia
psikologiaj
psikologio
psikologo
psikologoj
psikoterapio
psoe
psychology
pt
pterodroma
ptolemeo
pu
puatuo
pub
public
publication
publications
publicisto
publika
publikaj
publikajn
publikan
publike
publikig
publikigaj
publikigas
publikigi
publikigis
publikigita
publikigitaj
publikigo
publikigon
publikis
publikita
publiko
publikon
publique
published
publishers
publishing
puc
puccini
puck
puebla
pueblo
puente
puerta
puerto
pues
puf
puffinus
pufino
pufinoj
pugo
pulitzer
pulma
pulmo
pulmoj
pulse
pulso
pulvo
pulvoro
pumpilo
puna
pundoj
puni
punis
punita
punko
punkta
punkto
punktoj
punktojn
punkton
puno
punoj
punon
punta
punto
pupo
pupoj
pupteatro
pura
puraj
puran
pure
pureco
purigado
purigi
purigo
puro
purple
purpura
purpuraj
purpurea
pus
putin
puto
putoj
putrig
puy
pv
px
py
pyre
python
pzo
q
qa
qi
qin
qing
qquad
qu
qua
quad
quae
quam
quand
quarterly
quartet
quatre
que
quedlinburg
queen
quelle
quellen
quentin
quercus
quest
question
questions
qui
quie
quien
quijote
quimper
quincy
quinn
quintana
quintanilla
quisling
quo
r
ra
rabado
rabeno
rabenoj
rabi
rabis
rabisto
rabistoj
rabobirdo
rabobirdoj
rac
race
rachel
racia
racie
raciismo
racine
racio
rad
rada
radaro
radi
radia
radiado
radiadon
radiaj
radical
radika
radikal
radikala
radikalaj
radikale
radiko
radikoj
radikojn
radikon
radio
radioaktiva
radioamatoroj
radioj
radiostacio
radiostacioj
radiuso
radno
rado
radoj
radom
radon
rados
raf
rafael
rafaelo
rafinita
rag
ragnarsson
rah
rahman
rai
raider
rail
railway
rain
rainbow
rainer
raire
raj
rajdado
rajdanto
rajdantoj
rajdis
rajn
rajtas
rajtigis
rajtigita
rajtis
rajto
rajtoj
rajtojn
rajton
raketo
raketoj
rakonta
rakontado
rakontaj
rakontanto
rakontaro
rakontas
rakonti
rakontis
rakontisto
rakontita
rakonto
rakontoj
rakontojn
rakonton
rakontu
rakovni
ral
rale
raleigh
ralf
ralph
ram
rama
ramaros
rami
ramiro
ramo
ramon
ramos
ramsay
ran
rana
ranc
rance
rand
randa
rande
rando
randoj
random
randon
range
rangle
rango
rangoj
rangojn
rangon
ranko
rano
ranoj
ranojn
ranta
ranto
ranunculus
rao
raoul
raphae
raphael
rapid
rapida
rapidaj
rapidajn
rapidan
rapidas
rapide
rapideco
rapidecon
rapidege
rapidis
rapido
rapidon
rapidumskatolo
raportaj
raportas
raporti
raportis
raportisto
raportita
raportitaj
raporto
raportoj
raportojn
raporton
rapperswil
rara
raraj
rard
rare
ras
rasa
rasismo
rasmussen
raso
rasoj
rat
rate
rathaus
ratifis
ration
rato
ratoj
ratp
rature
rau
rault
raven
ravenna
raveno
ravino
ravinoj
raw
ray
raymond
razia
razio
rb
rbara
rc
rca
rchen
rd
rda
rde
rdenas
rdi
rdo
rdoba
rdonyi
re
rea
reactions
read
reader
reading
reagan
reagas
reage
reagi
reagis
reago
reagoj
reagojn
reagon
reakcia
reakciaj
reakcias
reakcio
reakcioj
reakcion
reakiri
reakiris
reaktoro
real
reala
realaj
realan
reale
realeco
realig
realigas
realigi
realigis
realigita
realigitaj
realigo
realigon
realisma
realismaj
realismo
reality
realnome
realo
realon
reaperis
rearang
reason
reato
reatoj
rebecca
rec
recent
recenzo
recenzoj
recenzojn
recepto
receptoj
recherche
recherches
recht
recife
reciproka
reciprokaj
reciprokan
reciproke
recitativo
recklinghausen
reclam
reclams
reconquista
record
recordings
records
red
redakcio
redakta
redaktado
redakti
redaktis
redaktisto
redaktita
redaktitaj
redakto
redaktorino
redaktoro
redaktoroj
rediris
redon
redonas
redoni
redonis
redonita
redono
reds
reduktado
reduktas
redukti
reduktig
reduktigo
reduktis
reduktita
reduktitaj
redukto
ree
reed
reela
reelaj
reeldonita
reeldono
reelektita
reen
reenkarnig
reeves
ref
refarig
referenca
referencas
referencata
reference
referenci
referencis
referenco
referencoj
referencojn
referendumo
reflektas
reflekto
refoje
refondig
refondis
refondita
reform
reforma
reformacio
reformation
reformi
reformis
reformisto
reformistoj
reformita
reformo
reformoj
reformojn
reformon
refres
reg
rega
regado
regadon
reganta
regantaj
reganto
regantoj
regas
regata
regataj
rege
regensburg
regentino
regento
reggio
regi
regia
regimento
regina
reginald
regio
region
regiona
regionaj
regionajn
regional
regionan
regione
regiono
regionoj
regionojn
regionon
regis
registara
registaraj
registaran
registaro
registaroj
registarojn
registaron
register
registrado
registradoj
registraj
registras
registri
registrig
registris
registrita
registritaj
registro
registroj
registrojn
registron
regita
regna
regno
regnoj
regnojn
regnon
rego
regon
regopovoj
regotempo
regu
regula
regulado
regulaj
regulajn
regulan
regularo
regularoj
regularon
regule
reguligas
reguligi
reguligita
reguligo
regulo
reguloj
regulojn
regulon
regyha
rehungarig
rei
reich
reichenbach
reichstag
reid
reihe
reims
reina
reinbek
reine
reiner
reinhard
reinhardt
reinhold
reinmuth
reiras
reiri
reiris
reis
reise
rej
rejkjaviko
rejn
rejna
rejnlando
rejno
rek
reklamado
reklamo
reklamoj
rekomencig
rekomencis
rekomendas
rekomendis
rekomendita
rekomendo
rekomendoj
rekompenco
rekompencon
rekonas
rekonata
rekonebla
rekoneblaj
rekoneblas
rekoni
rekonis
rekonita
rekonkeris
rekonkero
rekono
rekonon
rekonsciig
rekonstruado
rekonstrui
rekonstruig
rekonstruis
rekonstruita
rekonstruitaj
rekonstruo
rekonstruon
rekorda
rekordo
rekordoj
rekordon
rekta
rektaj
rektajn
rektan
rektangula
rekte
rekto
rektoro
rekuperi
rekuperig
rekuperis
rekviemo
related
relation
relations
relationship
relationships
relativa
relativan
relative
relativeco
release
relevig
reliefas
reliefo
reliefoj
religia
religiaj
religiajn
religian
religie
religio
religioj
religion
religions
religious
religiuloj
relikvoj
relog
reloj
rem
rembrandt
reme
rememoras
rememorigas
rememoris
rememoro
rememoroj
remix
remo
remparo
remparoj
ren
renaissance
renard
renaskig
renate
renato
renaud
renault
renco
rendsburg
rene
renesanca
renesancaj
renesanco
renkontas
renkonte
renkonti
renkontig
renkontis
renkonto
renkontoj
rennes
rennsteig
reno
renoir
renoj
renoma
renomaj
renomig
renomita
renomon
renovig
renovigaj
renovigi
renovigis
renovigita
renovigitaj
renovigo
renreiter
renversi
renversig
renversis
renversita
renverso
reo
reokupis
repacig
repertuaro
report
reports
repreni
reprenis
represita
represo
reprezalioj
reprezenta
reprezentado
reprezentaj
reprezentanta
reprezentantaj
reprezentante
reprezentanto
reprezentantoj
reprezentantojn
reprezentas
reprezentata
reprezentataj
reprezenti
reprezentig
reprezentis
reprezentita
reprezentitaj
reprezento
reprint
reproductive
reprodukta
reproduktado
reproduktaj
reproduktan
reproduktanta
reproduktantaj
reproduktas
reproduktejoj
reprodukti
reproduktig
reptilioj
repu
republic
republik
repus
reputacio
reputacion
requiem
rer
rericevis
rerum
res
resanig
research
reserc
reserve
resistance
resonanco
resource
resources
resp
respegulas
respektas
respektata
respekti
respektis
respektiva
respektivaj
respektive
respekto
respekton
responda
respondas
responde
respondeca
respondecaj
respondecas
respondecis
respondeco
respondecon
respondeculo
respondi
respondis
respondo
respondoj
respondojn
respondon
responsa
response
responsis
respublika
respublikaj
respublikana
respublikano
respublikanoj
respubliko
respublikoj
respublikon
resta
restadejo
restadis
restado
restadon
restaj
restanta
restantaj
restante
restarigi
restarigis
restarigita
restarigo
restas
restau
resti
restinta
restintaj
restis
resto
restoj
restojn
reston
restoracio
restoracioj
restos
restu
restus
results
resumas
resume
resumo
resurekto
resursoj
resursojn
resurtronigo
ret
reta
retablo
retaj
rete
retejo
retejoj
retejon
retenas
reteni
retenis
retino
retirig
retiris
retiro
reto
retoj
retojn
reton
retoriko
retour
retpag
retpos
retrieved
retrovi
retrovis
retrovita
return
returne
reu
reunio
reunuig
reuss
reuters
reuß
rev
revelacio
revenante
revenas
reveng
reveni
revenigi
revenigis
reveninta
reveninte
revenis
reveno
revenon
revenos
revenu
review
reviews
reviglig
revis
revised
revista
revivig
revivigi
revivigis
revivigo
reviziis
reviziita
revizio
revizoro
revo
revoj
revolucia
revoluciaj
revolucian
revolucio
revolucioj
revolucion
revoluciulo
revoluciuloj
revolution
revolutionary
revu
revue
revuo
revuoj
revuojn
revuon
rex
rey
reyes
reynolds
reysol
rez
reza
rezerva
rezervejo
rezervejoj
rezervita
rezervitaj
rezervo
rezervoj
rezervujo
rezidejo
rezidis
rezignas
rezigni
rezignis
rezigno
rezino
rezista
rezistado
rezistanco
rezisti
rezistis
rezisto
rezistomovado
reziston
rezolucio
rezolucion
rezonado
rezso
rezulta
rezultanta
rezultas
rezulte
rezulti
rezultig
rezultigas
rezultigis
rezultis
rezulto
rezultoj
rezultojn
rezulton
rf
rfi
rg
rgb
rgen
rger
rgio
rgu
rgy
rgyi
rh
rhein
rheinland
rhely
rhelyi
rhin
rho
rhodes
rhythm
ri
ria
ribbentrop
ribeira
ribeiro
ribela
ribelaj
ribelantoj
ribelig
ribelis
ribelo
ribeloj
ribelojn
ribelon
ribeluloj
ribera
ribes
ric
rica
ricardo
rice
ricevante
ricevanto
ricevas
ricevi
ricevilo
ricevinta
ricevinte
ricevinto
ricevis
ricevita
ricevitaj
ricevo
ricevos
ricevu
rich
richard
richards
richardson
richelieu
richmond
richter
ricio
rick
rico
ricz
rida
ridas
ridetis
rideto
ridge
ridis
rido
rie
ried
riemann
rien
ries
rieur
rieure
rifo
rifoj
rifug
rifuzas
rifuzi
rifuzis
rifuzita
rifuzo
rig
riga
rigardante
rigardas
rigardata
rigardataj
rigardi
rigardis
rigardita
rigardo
rigardoj
rigardon
rigardu
rigas
right
rightarrow
rights
rigi
rigida
rigidaj
rigis
rigo
rigoletto
rigon
rigora
rih
rik
rika
rikardo
riko
rikoltis
rikolto
rikoltoj
rilata
rilataj
rilatajn
rilatanta
rilatantaj
rilatas
rilate
rilati
rilatis
rilato
rilatoj
rilatojn
rilaton
rilatumo
rim
rimarkas
rimarki
rimarkigas
rimarkigis
rimarkinda
rimarkindaj
rimarkindajn
rimarkindan
rimarkindas
rimarkinde
rimarkis
rimarko
rimarkoj
rimarku
rimavska
rime
rimedo
rimedoj
rimedojn
rimedon
rimini
rin
rinc
rinco
rinda
rinde
ring
ringa
ringen
ringer
ringo
ringoj
ringojn
ringon
rino
rinocero
rio
rioh
rioja
riparado
ripari
riparita
riparo
ripeta
ripetado
ripetas
ripetata
ripete
ripeti
ripetig
ripetis
ripetita
ripeto
ripido
ripoj
ripova
ripozas
ripoze
ripozejo
ripozejoj
ripozi
ripozis
ripozo
ripozon
riproc
rique
ris
rise
rising
risk
riskas
risko
riskoj
riskon
risto
rita
ritaj
ritanio
rite
ritma
ritmo
ritmoj
ritmon
rito
ritoj
ritojn
riton
ritter
riva
rivaleco
rivalo
rivaloj
rivas
rivelas
rivelis
river
rivera
riveraj
riverbordo
riverbus
riverego
rivereto
riveretoj
rivero
riveroj
riverojn
riveron
rivers
riverside
rivie
rizo
rizzoli
rj
rk
rka
rke
rkheim
rko
rl
rlap
rlitz
rm
rma
rme
rmegye
rmend
rmil
rn
rna
rnberg
rne
rner
rngen
rni
rno
rnye
ro
road
roald
rob
robbins
robert
roberto
roberts
robertson
robin
robinson
robo
roboto
robotoj
roc
roca
rocca
rocha
roche
rochefort
rochelle
rock
rockefeller
rocky
rod
roda
rodano
rodezio
rodin
rodinila
rodni
rodolfo
rodri
rodrigo
rodrigues
rodriguez
rog
roger
rogers
roh
rohan
rohrbach
roi
rois
roj
rojas
rojn
rojo
rojoj
rok
roka
rokaj
rokenrolo
rokgrupo
rokmuzika
rokmuzikaj
rokmuziko
roko
rokoj
rokoka
rokoko
rokon
roku
rokycany
roland
rolas
role
rolf
roli
rolis
roll
rolland
rolle
rolling
rolls
rolo
roloj
rolojn
rolon
rolularo
rolulo
roluloj
rolulojn
rolulon
roly
rolyi
rom
roma
romain
romaj
roman
romana
romanc
romance
romani
romanika
romanikaj
romaniko
romanisto
romanjo
romano
romanoj
romanojn
romanon
romantika
romantikaj
romantikismo
romantisma
romantismo
romaoj
rombo
rome
romeo
romero
romia
romiaj
romiajn
romian
romianoj
romio
romkatolika
romkatolikaj
romkatolikoj
romo
romon
rompas
rompi
rompig
rompis
rompita
rompitaj
rompo
romsze
ron
ronald
rond
ronda
rondaj
rondan
ronde
rondeto
rondo
rondoj
rondon
rong
ronoj
room
roosevelt
root
roots
rop
ropa
ropaj
ropajn
ropan
ropano
ropanoj
ropo
ropon
ropunia
roque
roro
ros
rosa
rosario
rosas
rose
rosen
rosenberg
rosenheim
roses
rosi
roso
rospatak
ross
rossetti
rossi
rossini
rosso
rostand
rostita
rostock
rostov
rot
rota
rotacia
rotacianta
rotacio
rotenburg
roterdamo
roth
rothschild
roto
rotondo
rotterdam
rottweil
rou
rouen
rouge
rough
round
rouse
rousseau
route
routledge
roux
rov
rovido
row
rowohlt
roy
royal
royale
roz
roza
rozario
rozkolora
rozkoloraj
rozo
rozoj
rp
rpa
rpf
rpr
rquez
rr
rrez
rs
rsasa
rsfsr
rst
rsulat
rt
rta
rte
rtel
rten
rterbuch
rth
rtl
rtner
rto
rton
rttemberg
ru
rua
ruando
rubaj
rubando
ruben
rubens
rubloj
rublojn
rubo
rubriko
ruby
ruda
rudi
rudolf
rudolfo
rudolph
rudolstadt
rue
rufa
rufus
rug
ruhr
ruina
ruinaj
ruinig
ruinigis
ruinigita
ruino
ruinoj
ruinojn
ruiz
rulaj
rule
rulig
ruls
rulseg
ruma
rumana
rumanaj
rumane
rumania
rumanio
rumanoj
rumanuja
rumanujaj
rumanujo
rumex
run
rung
rupert
rura
ruraj
rural
rus
rusa
rusaj
rusajn
rusan
ruse
rush
rusia
rusiaj
rusian
rusiljono
rusio
rusion
ruslan
ruslando
ruslingva
ruslingvaj
ruso
rusoj
russell
russia
russian
rust
rusujo
ruta
rutene
rutenoj
ruth
rutherford
ruz
ruza
rva
rve
rvi
ry
ryan
rybni
rychnov
ryszard
rz
rza
rzburg
s
sa
saale
saalfeld
saalfelden
saarbru
saarburg
saba
sabate
sabato
sabaton
sabine
sabla
sablaj
sablo
sablokolora
sablokoloraj
sablon
sablos
sabo
sac
sacerdoto
sacerdotoj
sachs
sachsen
sacra
sacramento
sacre
sacred
sad
saddam
safety
sag
saga
sagan
sagao
sage
sagitario
sago
sagoj
sah
sahara
saharo
sai
said
saint
sainte
saintes
saints
saj
sajo
saka
sako
sakon
sakovojo
sakrala
sakralaj
sakramento
sakramentoj
sakristio
saksa
saksia
saksio
saksofonisto
saksofono
saksoj
sal
sala
saladino
salaj
salajro
salajroj
salajron
salamanca
salamanko
salamon
salas
salato
salazar
salcburga
salcburgio
salcburgo
sale
salem
salerno
sales
salgo
salikata
salikato
saliko
salinas
salisbury
salix
salle
sally
salmo
salo
saloj
salome
salomon
salomono
salomonoj
salon
salonego
salono
salonoj
salonon
salt
saltas
salti
saltis
salto
salut
salutas
salutis
saluto
saluton
salvador
salvadoro
salvatore
salzburg
salzburger
salzwedel
sam
sama
samag
samaj
samajn
saman
samara
samario
samas
samba
sambo
same
samea
samgenranoj
samideano
samideanoj
samjare
samkiel
samloke
sammaniere
sammlung
samnoma
samnomaj
samnoman
samnomata
samo
samon
samoo
sampson
samseksa
samseksaj
samseksema
samseksemaj
samseksemo
samseksemuloj
samtage
samtempa
samtempaj
samtempe
samtempulo
samtempuloj
samtitola
samu
samuel
san
sana
sanaj
sanatorio
sanc
sancho
sancti
sand
sanders
sandra
sandro
sandvic
sanfrecce
sang
sanga
sangaj
sango
sangon
sanig
sankt
sankta
sanktaj
sanktajn
sanktan
sankteco
sanktejo
sanktejoj
sanktejon
sanktulino
sanktulo
sanktuloj
sano
sanon
sans
sanskrita
sanskrito
sanstato
sant
santa
santana
santander
santandero
santi
santiago
santo
santos
sanyo
sanz
sao
sapiens
sapigo
sapo
sapporo
sar
sara
sarah
sarajevo
sardio
sargatal
sargsjan
sarino
sarkofago
sarkozy
sarlando
sars
sarthe
sartre
sas
sasanida
saskac
sassari
sat
satana
satano
satelita
satelitaj
satelito
satelitoj
satellite
satira
satiraj
satiro
satmaro
sato
satu
saturn
saturno
sau
saud
sauda
sauer
saul
saussure
sauveur
sava
savage
savana
savannah
savano
savanoj
savanto
savas
save
savi
savig
savinto
savis
savita
savitaj
savo
savoie
savojo
savon
savoue
savoy
savu
say
says
sb
sc
scala
scale
scalemajor
scar
sce
scenaristo
scenaristoj
scenarlibroj
scenaro
scenaroj
scenaron
sceneja
scenejo
scenejoj
scenejon
sceno
scenoj
scenojn
scenon
scents
sch
scha
sche
schelling
schelte
schengen
schiller
schindler
schla
schlegel
schleswig
schleyer
schlo
schloss
schloß
schmadel
schmalkalden
schmid
schmidt
schmitt
schmitz
schneider
schnell
scho
scholz
school
schools
schopenhauer
schott
schriften
schro
schu
schubert
schule
schuller
schulz
schulze
schumann
schuster
schwa
schwartz
schwarz
schwarzburg
schwarzenberg
schwarzschild
schweitzer
schweiz
schweizer
schwerin
sci
sciante
sciaro
scias
sciata
scienc
scienca
sciencaj
sciencajn
sciencan
science
sciences
sciencfikcia
sciencfikciaj
sciencfikcio
sciencisto
sciencistoj
scienco
sciencoj
sciencojn
sciencon
scienculo
scienculoj
scientific
scientist
scii
sciig
sciigas
sciigi
sciigis
sciigo
sciigoj
sciis
scio
scioj
sciojn
scion
scios
scipovas
scipovis
sciu
scius
scotland
scott
scottish
scsaba
sculpture
sd
se
sea
seal
sean
search
season
seatlo
seattle
sebastia
sebastian
sebastiano
sebastopolo
sebert
sebestye
sebio
sec
secesio
second
secret
secrets
section
secuiesc
security
sed
sedimentaj
sedimentoj
sedlec
sedlo
see
seele
seen
seg
segeberg
segedo
segmento
segmentoj
segovia
segovio
segura
sei
seiji
sein
seine
seinen
seiner
seit
seite
seiten
sejm
sejmo
sejno
sejs
sejuo
sek
seka
sekaj
sekajn
sekalo
sekan
sekcio
sekcioj
sekciojn
sekcion
sekco
sekeco
sekelj
seki
sekig
sekigita
sekigitaj
sekolah
sekreta
sekretaj
sekretan
sekretariejo
sekretariino
sekretario
sekretarioj
sekrete
sekreto
sekretoj
sekreton
seksa
seksaj
seksajn
seksan
sekse
sekseco
sekso
seksoj
sekson
seksumado
sekto
sektoj
sektoro
sektoroj
sektoron
sekulara
sekularaj
sekularigo
sekundara
sekundaraj
sekundo
sekundoj
sekundojn
sekura
sekuraj
sekuran
sekure
sekureca
sekurecaj
sekureco
sekurecon
sekurigi
sekurigis
sekva
sekvaj
sekvajn
sekvan
sekvanta
sekvantaj
sekvantajn
sekvantan
sekvante
sekvanto
sekvantoj
sekvas
sekvata
sekve
sekvenco
sekvi
sekvis
sekvita
sekvo
sekvoj
sekvojn
sekvos
sekvu
sel
sela
selected
selection
selektado
selektita
selektitaj
selekto
seleu
self
selg
selma
selmecba
selo
selon
sem
semado
semajna
semajne
semajnfino
semajngazeto
semajno
semajnoj
semajnojn
semajnon
semantiko
semestro
semi
semily
seminario
seminarioj
seminarion
semmelweis
semo
semoj
semojn
semon
sempervivum
sen
senarbarigo
senata
senatano
senatanoj
senato
senbatale
senc
sence
senco
sencon
sendai
sendang
sendas
sendependa
sendependaj
sendependajn
sendependan
sendepende
sendependeca
sendependeco
sendependecon
sendependig
sendependigo
sendependo
sendependon
sendependuloj
sendi
sendis
sendita
senditaj
sendito
sendos
sendu
sendube
senegala
senegalio
senegalo
seneko
senescepte
senfina
senfinaj
senfinan
senfine
senfineco
seng
senhalte
senhidratigo
senhoma
senhomig
senigis
senigita
seniluziig
seninterrompe
senior
senjora
senjorlando
senjoro
senjoroj
senjorujo
senkolora
senkoloraj
senkondic
senkulpa
senlaboreco
senlima
senlog
senmakula
senmorta
senmorteco
senmova
senmove
sennacieca
sennaciismo
sennaciulo
sennoma
sennombraj
sennombrajn
senpaga
senpagaj
senpagan
senpage
senpera
senpere
senpintigita
senprobleme
senprokraste
senrajtaj
sens
sense
sensencaj
sensignifa
senso
sensoj
sensukcesa
sensukcese
sent
senta
sentante
sentas
sentema
senti
sentis
sento
sentoj
sentojn
senton
senvertebruloj
senvertebrulojn
senvoc
sep
sepa
sepaloj
separas
separata
separataj
separig
sepdek
sepjara
sepsiszentgyo
sept
september
septembre
septembro
septuaginto
sepultita
sequences
ser
sera
serba
serbaj
serbe
serbia
serbio
serboj
serc
serena
serg
serge
sergei
sergej
sergio
seria
serie
series
serinus
serio
serioj
seriojn
serion
serioza
seriozaj
seriozan
serioze
serpento
serpentoj
serra
serrani
serrano
serva
servado
servanta
servante
servanto
servantoj
servas
servata
serve
servi
service
services
servilo
serviloj
servis
servistino
servisto
servistoj
servita
servo
servoj
servojn
servon
servu
servuteco
servutuloj
ses
sesa
sesdek
sesdekaj
sesio
sesioj
seslatera
set
setlado
setlantoj
setlejo
setlejoj
setlejojn
setlejon
setlig
setlis
seu
seuil
seulo
sevan
seven
severa
severaj
severan
severe
severin
severo
sevilla
sevilo
sex
sexual
seymour
sezona
sezonaj
sezone
sezono
sezonoj
sezonon
sf
sfa
sfera
sfero
sferoj
sfio
sfondo
sforza
sg
sh
sha
shackleton
shadow
shah
shakespeare
shall
shannon
sharp
shaw
she
sheets
sheffield
shelley
sherman
shi
shift
shimizu
shin
ship
shirley
sho
shoemaker
shoghi
shonan
short
should
show
shtml
shu
si
sia
siaflanke
siaj
siajn
sian
siatempe
siavice
siberia
siberio
sibio
sibiu
sibley
sic
sica
sich
sicilia
sicilio
sid
sidanta
sidante
sidas
side
sidejo
sidejoj
sidejon
sident
sidi
sidig
siding
sidis
sidloko
sidlokoj
sidlokojn
sidnejo
sidney
sie
siebenbu
sieg
siegen
siegfried
siemens
siempre
siena
sieno
sieraleono
sierra
sigelo
sigismondo
siglo
sigma
sigmund
sign
signal
signalo
signaloj
signalojn
signalon
signas
signifa
signifaj
signifajn
signifan
signifanta
signifante
signifas
signife
signifi
signifis
signifo
signifoj
signifojn
signifon
signifus
signis
signita
signo
signoj
signojn
signolingvo
signon
siklo
sikorski
sil
sila
silabo
silaboj
silabon
silence
silent
silenta
silentas
silente
silentis
silento
silezia
sileziaj
silezio
silicio
silikatoj
silka
silko
silla
silnice
silva
silver
silvestre
silvestro
silvia
silviedoj
silvio
sim
sima
simbola
simbolaj
simbolan
simbolas
simbole
simbolismo
simbolo
simboloj
simbolojn
simbolon
simetria
simetriaj
simetrio
simetrion
simferopolo
simfonia
simfonio
simfonioj
simfonion
simila
similaj
similajn
similan
similas
simile
simileco
similecon
similis
simio
simioj
simo
simon
simone
simono
simpatio
simpation
simpla
simplaj
simplajn
simplan
simple
simpleco
simpligita
simpozio
simpson
simptomoj
simptomojn
simulado
sin
sina
sinagogo
sinagogoj
sinagogon
sinajo
sinatra
since
sincera
sincere
sinclair
sind
sindedic
sindikata
sindikato
sindikatoj
sindromo
sindromoj
sine
sing
singapore
singapuro
singen
singer
singh
single
singlong
singulara
singulare
singularo
sinjorejo
sinjorino
sinjorinoj
sinjoro
sinjoroj
sinjoron
sinkis
sinmortigintoj
sinmortigo
sino
sinodo
sinonimo
sinonimoj
sinsekva
sinsekvaj
sinsekve
sinsekvo
sinsekvon
sint
sintakso
sinteno
sintenoj
sintenojn
sintenon
sinteza
sintezaj
sintezo
sintezoj
sintezon
sio
sion
sir
sirakuzo
sire
siria
siriaj
sirio
siro
sis
sistema
sistemaj
sisteman
sistematiko
sisteme
sistemo
sistemoj
sistemojn
sistemon
site
sites
sito
situa
situacio
situacioj
situaciojn
situacion
situanta
situantaj
situantas
situante
situas
situejo
situis
situo
situon
sive
six
size
sj
sjuniko
sk
ska
skaj
skala
skalara
skalo
skaloj
skandalo
skandalon
skandinava
skandinavaj
skandinavio
skarabo
skaraboj
skatolo
skatoloj
ske
skec
skeleto
skeletoj
skema
skemo
skemoj
skermisto
sketado
ski
skiado
skie
skiego
skinner
skio
skipo
skira
skismo
skizis
skizo
skizoj
sklaveco
sklavecon
sklavino
sklavo
sklavoj
sklavojn
sko
skolo
skoloj
skolon
skolta
skoltismo
skoltoj
skota
skotaj
skotio
skotlando
skoto
skotoj
skriba
skribado
skribaj
skribante
skribas
skribata
skribataj
skribe
skribi
skribig
skribis
skribisto
skribistoj
skribita
skribitaj
skribitan
skribite
skribmaniero
skribmencio
skribo
skriboj
skribon
skribsistemo
skribsistemoj
skribu
sku
skuis
skulptado
skulptaj
skulptarto
skulptisto
skulptistoj
skulptita
skulptitaj
skultado
skultanto
skultantoj
skultas
skulti
skultis
skultu
skurg
skvamoj
skvaro
sky
skyla
skytrain
sl
sla
slatina
slava
slavaj
slave
slavkov
slavoj
slim
slipo
sloan
slogano
slovaka
slovakaj
slovake
slovakia
slovakio
slovakoj
slovena
slovenaj
slovenia
slovenio
slovenoj
slupsko
sm
sma
small
smart
smarty
smetana
smith
smithsonian
smolensk
sn
sna
sncf
sne
snina
snow
so
soares
sobe
sobieski
sobota
sobre
soc
socha
soci
socia
sociaj
sociajn
social
sociala
socialaj
socialdemokrata
socialdemokratia
socialdemokratoj
sociale
socialism
socialisma
socialismaj
socialisman
socialismo
socialismon
socialist
socialista
socialistaj
socialisto
socialistoj
socian
socie
sociedad
societa
societo
societoj
societon
society
socio
sociogeografio
socioj
sociologia
sociologio
sociologo
sociologoj
socion
socorro
soest
sofia
sofio
sofoklo
software
sohn
soir
soj
sojlo
sojuz
sok
soklo
sokolov
sokrato
sol
sola
solaj
solan
solanum
solar
soldata
soldataj
soldataro
soldataroj
soldatig
soldato
soldatoj
soldatojn
sole
soleca
soleco
soledad
soleil
solena
solenaj
solenan
solene
soli
solid
solida
solidaj
solidan
solidareco
solidig
solido
solidoj
solisto
solo
solomon
soloturno
solr
solvado
solvaj
solvanto
solvantoj
solvas
solvebla
solvi
solvig
solvis
solvita
solvitaj
solvo
solvoj
solvojn
solvon
som
somalia
somalio
sombra
some
somera
someraj
someran
somere
somermeznokta
somero
someroj
someron
somerset
something
somlo
somme
sommer
somogy
somogyi
son
sona
sonaj
sonas
sonata
sonate
sonato
sonatoj
sondershausen
sondilo
sondisko
sonetoj
song
songs
sonia
sonis
sonja
sonny
sono
sonoj
sonojn
sonon
sonora
sonorilejo
sonorilo
sonoriloj
sonorilojn
sonorilon
sonorilostablo
sonorilturo
sonregistraj
sonregistris
sons
sont
sony
soo
sophia
sophie
sopiras
sopiris
sopiro
sopot
sopra
soprano
sopron
sor
sorbato
sorbonne
sorbono
sorc
soria
sorio
soros
sorto
sorton
sos
sosnowiec
soto
sou
soul
sound
source
sources
sous
sousa
south
southeastern
southern
southwestern
souza
sovag
sovet
soveta
sovetaj
sovetan
sovetia
sovetiaj
sovetio
soveto
sovetoj
sovetrespubliko
sovetunia
sovetuniaj
sovetunio
sovetunion
soviet
soy
sp
spa
spaca
spacaj
space
spacewatch
spaco
spacoj
spacojn
spacon
spain
spanish
sparrow
sparrows
sparto
spd
spe
specia
special
speciala
specialaj
specialajn
specialan
speciale
specialig
specialigitaj
specialisto
specialistoj
species
specifa
specifaj
specifajn
specifan
specife
specifications
specimena
specimeno
specimenoj
specimenojn
specio
specioj
speciojn
specion
speco
specoj
specojn
specon
spegula
spegulas
spegulo
speguloj
spektakla
spektaklo
spektakloj
spektaklojn
spektaklon
spektantaro
spektanto
spektantoj
spekti
spektra
spektro
spektroskopio
spencer
sperta
spertaj
spertas
sperti
spertis
sperto
spertoj
spertojn
sperton
spertulo
spertuloj
speyer
spicio
spicoj
spider
spiegel
spielberg
spino
spionado
spiono
spionoj
spira
spirado
spiri
spirit
spirita
spiritaj
spiritan
spirite
spiriteco
spiritisma
spiritismo
spirito
spiritoj
spiriton
spiro
spis
spite
split
spo
spock
spontane
spontanea
sport
sporta
sportaj
sportan
sportejo
sportejoj
sportisto
sportistoj
sporto
sportoj
sporton
sports
spoto
spp
sprache
spree
spring
springer
springfield
springs
spritaj
spuro
spuroj
spurojn
spuron
sq
sqrt
square
sr
sri
srilanka
srilanko
sro
ss
sse
ssel
sseldorf
sser
ssing
ssr
ssy
st
sta
stabanaro
stabila
stabilaj
stabilan
stabileco
stabilecon
stabilig
stabo
stachys
stacidomo
stacidomoj
stacidomon
stacio
stacioj
staciojn
stacion
stade
stadio
stadioj
stadion
stadiono
stadt
stafeto
staff
stag
stage
stako
stalin
stalingrado
stalinismo
stalino
stalo
stamenoj
stampis
stampita
stan
stana
stand
standard
standardo
standards
stanford
stango
stangoj
stanislao
stanislas
stanislav
stanisław
stanley
stano
star
stara
staranta
starantaj
starante
staras
stare
stari
starig
starigas
starigi
starigis
starigita
starigitaj
starigitis
starigo
starigon
staris
stark
staro
staron
stars
start
startas
startis
starto
stary
stas
stat
stata
state
states
statika
station
statistical
statistics
statistika
statistikaj
statistike
statistikisto
statistiko
statistikoj
stato
statoids
statoj
staton
statuaro
statue
statuo
statuoj
statuojn
statuon
status
statuso
statuson
statuta
statuto
statutoj
statuton
stau
ste
steel
steele
stefan
stefano
stein
steinberg
steinburg
steiner
stek
stela
stelaj
stelamaso
stelamasoj
steleo
stella
stelo
steloj
stelojn
stelon
stels
stelulis
stelulo
steluloj
sten
stendal
stenografio
step
stepa
stepan
stepanovic
stephan
stephanie
stephen
stepo
stepoj
ster
sterko
sterling
stern
sternaj
sterreich
sterreichische
sterreichischen
sterreichischer
steve
steven
stevens
stevenson
steward
stewart
sti
stica
stico
stiftung
stila
stilaj
stile
still
stilo
stiloj
stilojn
stilon
stimulas
stimuli
stimulis
stimulo
stipendio
stipendiojn
stipendion
stirio
stirpo
stm
sto
stock
stockholm
stojan
stokado
stokejo
stokes
stokholmo
stomako
stone
stones
stop
storia
stories
storm
story
str
stra
strabono
straj
strakonice
strala
stralazia
stralia
straliaj
stralianoj
stralio
strando
strandoj
stranga
strangaj
strangajn
strangan
strange
strasbourg
strasburgo
strata
stratangulo
strategia
strategiaj
strategian
strategie
strategio
strategioj
strategion
strateto
strato
stratoj
stratojn
straton
strauss
strauß
stravinski
straße
strebas
strebis
strebo
streboj
strec
streda
street
streketo
streko
strekoj
stri
stria
striaj
strieca
striecaj
strieco
strigo
strigoj
striko
strikoj
strikta
striktaj
strikte
string
strio
strioj
striojn
strion
stro
strobiloj
strofo
strofoj
stroj
strong
structural
structure
struggle
strujo
struktura
strukturaj
strukturo
strukturoj
strukturojn
strukturon
struto
strutoformaj
sts
stu
stuart
studa
[...]
