!
"
#
##0
##1
##10
##11
##12
##13
##14
##15
##16
##17
##18
##19
##2
##20
##21
##22
##23
##24
##25
##26
##27
##28
##29
##3
##30
##31
##32
##33
##34
##35
##36
##37
##38
##39
##4
##40
##41
##42
##43
##44
##45
##46
##47
##48
##49
##5
##50
##51
##52
##53
##54
##55
##56
##57
##58
##59
##6
##60
##61
##62
##63
##64
##65
##66
##67
##68
##69
##7
##70
##71
##72
##73
##74
##75
##76
##77
##78
##79
##8
##80
##81
##82
##83
##84
##85
##86
##87
##88
##89
##9
##90
##91
##92
##93
##94
##95
##96
##97
##98
##99
$
%
&
'
(
)
*
+
,
-
.
/
0
00
000
0004
001
002
003
004
0044
005
006
007
008
009
01
010
011
012
013
014
015
016
017
017473
018
019
02
020
021
022
024
025
03
030
031
033
034
04
040
044
048
049
05
050
055
05506
06
060
067
07
070
072
075
076
08
080
083
09
090
1
10
100
1000
10000
1001
1002
1006
1007
101
1010
1011
1012
1015
1016
1017
1018
102
1020
1021
1023
1024
103
1030
1038
104
1040
1045
1046
105
1050
1054
1055
1057
106
1060
1066
107
1070
1071
1073
108
1080
1085
1086
109
1090
1093
1095
1097
1098
11
110
1100
111
1110
1111
1113
1115
112
1120
1125
1126
113
1130
1131
1135
1136
1137
1138
1139
114
1140
1141
1146
1147
1148
115
1150
1152
1154
1155
1156
116
1160
117
1170
1173
1175
1177
118
1180
1181
1184
1185
1186
1187
1189
119
1190
1194
1198
12
120
1200
1201
1202
1204
1206
1207
1209
121
1210
1211
1212
1213
1214
1215
1216
1217
1219
122
1220
1221
1223
1224
1225
1226
1227
1228
1229
123
1230
1232
1234
1235
1236
1237
1238
1239
124
1240
1241
1242
1243
1244
1245
1246
1247
1248
1249
125
1250
1251
1252
1253
1254
1255
1256
1257
1258
126
1260
1261
1262
1263
1264
1265
1266
1267
1268
1269
127
1270
1271
1272
1273
1274
1275
1276
1277
1278
1279
128
1280
1281
1282
1283
1284
1285
1287
1288
1289
129
1290
1291
1292
1293
1294
1295
1296
1297
1298
1299
13
130
1300
1301
1302
1303
1304
1305
1306
1307
1308
1309
131
1310
1311
1312
1313
1314
1315
1316
1317
1318
1319
132
1320
1321
1322
1323
1324
1325
1326
1327
1328
1329
133
1330
1331
1332
1333
1334
1335
1336
1337
1338
1339
134
1340
1341
1342
1343
1344
1345
1346
1347
1348
1349
135
1350
1351
1352
1353
1354
1355
1356
1357
1358
1359
136
1360
1361
1362
1363
1364
1365
1366
1367
1368
1369
137
1370
1371
1373
1374
1375
1377
1378
1379
138
1380
1381
1382
1383
1384
1385
1386
1387
1388
1389
139
1390
1391
1392
1393
1394
1395
1396
1397
1398
1399
14
140
1400
1401
1402
1403
1404
1405
1406
1407
1408
1409
141
1410
1411
1412
1413
1414
1415
1416
1417
1418
1419
142
1420
1421
1422
1423
1424
1425
1427
1428
1429
143
1430
1431
1432
1433
1434
1435
1436
1437
1438
1439
144
1440
1441
1442
1443
1444
1445
1446
1447
1448
1449
145
1450
1451
1452
1453
1454
1455
1456
1457
1458
1459
146
1460
1461
1462
1463
1464
1465
1466
1467
1468
1469
147
1470
1471
1472
1473
1474
1475
1476
1477
1478
1479
148
1480
1481
1482
1483
1484
1485
1486
1487
1488
1489
149
1490
1491
1492
1493
1494
1495
1496
1497
1498
1499
15
150
1500
1501
1502
1503
1504
1505
1506
1507
1508
1509
151
1510
1511
1512
1513
1514
1515
1516
1517
1518
1519
152
1520
1521
1522
1523
1524
1525
1526
1527
1528
1529
153
1530
1531
1532
1533
1534
1535
1536
1537
1538
1539
154
1540
1541
1542
1543
1544
1545
1546
1547
1548
1549
155
1550
1551
1552
1553
1554
1555
1556
1557
1558
1559
156
1560
1561
1562
1563
1564
1565
1566
1567
1568
1569
157
1570
1571
1572
1573
1574
1575
1576
1577
1578
1579
158
1580
1581
1582
1583
1584
1585
1586
1587
1588
1589
159
1590
1591
1592
1593
1594
1595
1596
1597
1598
1599
16
160
1600
1601
1602
1603
1604
1605
1606
1607
1608
1609
161
1610
1611
1612
1613
1614
1615
1616
1617
1618
1619
162
1620
1621
1622
1623
1624
1625
1626
1627
1628
1629
163
1630
1631
1632
1633
1634
1635
1636
1637
1638
1639
164
1640
1641
1642
1643
1644
1645
1646
1647
1648
1649
165
1650
1651
1652
1653
1654
1655
1656
1657
1658
1659
166
1660
1661
1662
1663
1664
1665
1666
1667
1668
1669
167
1670
1671
1672
1673
1674
1675
1676
1677
1678
1679
168
1680
1681
1682
1683
1684
1685
1686
1687
1688
1689
169
1690
1691
1692
1693
1694
1695
1696
16967
1697
1698
1699
17
170
1700
1701
1702
1703
1704
1705
1706
1707
1708
1709
171
1710
1711
1712
1713
1714
1715
1716
1717
1718
1719
172
1720
1721
1722
1723
1724
1725
1726
1727
1728
1729
173
1730
1731
1732
1733
1734
1735
1736
1737
1738
1739
174
1740
1741
1742
1743
1744
1745
1746
1747
1748
1749
175
1750
1751
1752
1753
1754
1755
1756
1757
1758
1759
176
1760
1761
1762
1763
1764
1765
1766
1767
1768
1769
177
1770
1771
1772
1773
1774
1775
1776
1777
1778
1779
178
1780
1781
1782
1783
1784
1785
1786
1787
1788
1789
179
1790
1791
1792
1793
1794
1795
1796
1797
1798
1799
18
180
1800
1801
1802
1803
1804
1805
1806
1807
1808
1809
181
1810
1811
1812
1813
1814
1815
1816
1817
1818
1819
182
1820
1821
1822
1823
1824
1825
1826
1827
1828
1829
183
1830
1831
1832
1833
1834
1835
1836
1837
1838
1839
184
1840
1841
1842
1843
1844
1845
1846
1847
1848
1849
185
1850
1851
1852
1853
1854
1855
1856
1857
1858
1859
186
1860
1861
1862
1863
1864
1865
1866
1867
1868
1869
187
1870
1871
1872
1873
1874
1875
1876
1877
1878
1879
188
1880
1881
1882
1883
1884
1885
1886
1887
1888
1889
189
1890
1891
1892
1893
1894
1895
1896
1897
1898
1899
19
190
1900
1901
1902
1903
1904
1905
1906
1907
1908
1909
191
1910
1911
1912
1913
1914
1915
1916
1917
1918
1919
192
1920
1921
1922
1923
1924
1925
1926
1927
1928
1929
193
1930
1931
1932
1933
1934
1935
1936
1937
1938
1939
194
1940
1941
1942
1943
1944
1945
1946
1947
1948
1949
195
1950
1951
1952
1953
1954
1955
1956
1957
1958
1959
196
1960
1961
1962
1963
1964
1965
1966
1967
1968
1969
197
1970
1971
1972
1973
1974
1975
1976
1977
1978
1979
198
1980
1981
1982
1983
1984
1985
1986
1987
1988
1989
199
1990
1991
1992
1993
1994
1995
1996
1997
1998
1999
2
20
200
2000
20000
2001
2002
2003
2004
2005
2006
2007
2008
2009
201
2010
2011
2012
2013
2014
2015
2016
2017
2018
2019
202
2020
2021
2022
2023
2024
2025
2026
2027
2028
2029
203
2030
2031
2032
2033
2034
2035
2036
2037
2038
2039
204
2040
2041
2042
2043
2044
2045
2046
2047
2048
2049
205
2050
2051
2052
2053
2054
2055
2056
2057
2058
2059
206
2060
2061
2062
2063
2064
2065
2066
2067
2068
2069
207
2070
2071
2072
2073
2074
2075
2076
2077
2078
2079
208
2080
2081
2082
2083
2084
2085
2086
2087
2088
2089
209
2090
2091
2092
2093
2094
2095
2096
2097
2098
2099
21
210
2100
211
212
213
214
215
216
217
218
219
22
220
2200
221
222
223
224
225
226
227
228
229
23
230
2300
2307
231
232
233
234
235
236
237
238
239
24
240
2400
241
242
243
244
245
246
247
248
249
25
250
2500
251
252
253
254
255
256
257
258
259
26
260
2600
261
262
263
264
265
266
267
268
269
27
270
271
272
273
274
275
276
277
278
279
28
280
281
282
283
284
285
286
287
288
289
29
290
291
292
293
294
295
296
297
298
299
3
30
300
3000
301
302
303
304
305
306
307
308
309
31
310
311
312
313
314
315
316
3166
317
318
319
32
320
321
322
323
324
325
326
327
328
329
33
330
331
332
333
334
335
336
337
338
339
34
340
341
342
343
344
345
346
347
348
349
35
350
3500
351
352
353
354
355
356
357
358
359
36
360
361
362
363
364
365
366
367
368
369
36960
37
370
371
372
373
374
375
376
377
378
379
38
380
381
382
383
384
385
386
387
388
389
39
390
391
392
393
394
395
396
397
398
399
4
40
400
4000
401
402
403
404
405
406
407
408
409
41
410
411
412
413
414
415
416
417
418
419
42
420
421
4217
422
423
424
425
426
427
428
429
43
430
431
432
433
434
435
436
437
438
439
44
440
441
442
443
444
445
446
447
448
449
45
450
451
452
453
454
455
456
457
458
459
46
460
461
462
463
464
465
466
467
468
469
47
470
471
472
473
474
475
476
477
478
479
48
480
481
482
483
484
485
486
487
488
489
49
490
491
492
493
494
495
496
497
498
499
5
50
500
5000
501
502
503
504
505
506
507
508
509
51
510
511
512
513
514
515
516
517
518
519
52
520
521
522
523
524
525
526
527
528
529
53
530
531
532
533
534
535
536
537
538
539
54
540
541
542
543
544
545
546
547
548
549
55
550
551
552
553
554
555
556
557
558
559
56
560
561
562
563
564
565
566
567
568
569
57
570
571
572
573
574
575
576
577
578
579
58
580
581
582
583
584
585
586
587
588
589
59
590
591
592
593
594
595
596
597
598
599
6
60
600
6000
601
602
603
604
605
606
607
608
609
61
610
611
612
613
614
615
616
617
618
619
62
620
621
622
623
624
625
626
627
628
629
63
630
631
632
633
634
635
636
637
638
639
64
640
641
642
643
644
645
646
647
648
649
65
650
651
652
653
654
655
656
657
658
659
66
660
661
662
663
664
665
666
667
668
669
67
670
671
672
673
674
675
676
677
678
679
68
680
681
682
683
684
685
686
687
688
689
69
690
691
692
693
694
695
696
697
698
699
7
70
700
7000
701
702
703
704
705
706
707
708
709
71
710
711
712
713
7136
714
715
716
717
718
719
72
720
721
722
7227
723
724
725
726
727
728
729
73
730
7303
731
732
733
734
735
736
737
738
739
74
740
741
742
743
744
745
746
747
748
749
75
750
751
752
753
754
755
756
757
758
759
76
760
761
762
763
764
765
766
767
768
769
77
770
771
772
773
774
775
776
777
778
779
78
780
781
782
783
784
785
786
787
788
789
79
790
791
792
793
794
795
7954
796
797
798
799
8
80
800
8000
8001
801
8014
802
803
804
805
806
807
808
809
81
810
811
812
813
814
815
816
817
819
82
820
821
822
823
824
825
826
827
828
829
83
830
831
832
833
834
835
836
838
839
84
840
841
842
843
844
845
846
847
848
849
85
850
851
852
853
854
855
856
857
858
859
86
860
861
862
863
864
865
866
867
868
869
87
870
871
872
87334
874
875
876
877
878
879
88
880
882
883
884
885
886
887
888
889
89
890
891
892
894
895
896
898
899
9
90
900
9000
901
903
905
906
907
908
909
91
910
911
912
913
914
91409
915
916
917
918
918300
919
92
920
921
922
923
924
925
926
927
929
93
930
93020
931
932
933
934
935
936
937
939
94
940
941
942
943
944
945
946
947
95
950
951
952
953
954
955
956
958
959
96
960
961
962
963
965
965096742
966
967
968
969
97
970
971
972
973
974
975
976
978
979
98
980
981
982
983
984
985
987
988
989
99
990
991
992
993
995
996
997
999
:
;
<
=
>
?
@
[
\
]
^
_
`
a
aa
aachen
aan
aaron
ab
aba
abajo
abandonis
abandonita
abas
abasida
abatejo
abatejon
abatino
abato
abau
abba
abbas
abbaye
abbe
abbey
abbott
abc
abd
abdel
abdikis
abdiko
abdu
abdul
abdullah
abe
abel
abelmang
abelo
abeloj
aber
aberdeen
abgerufen
abgrund
abh
abi
abies
abio
abioj
abismo
abiturienta
abiturientig
abiturientis
ableitung
ablono
ablonoj
ablonon
abo
aboco
abonantoj
aborto
about
abraham
abrahamo
abram
abruco
abrupta
abrupte
abs
absido
absoluta
absolutan
absolute
abstract
abstrakta
abstraktaj
absurda
abu
abunda
abundaj
abundan
abundas
abunde
abundo
ac
acacia
acade
academia
academic
academy
accademia
access
accessed
accipiter
according
account
acero
acetata
acetato
acetoacetato
acetono
ach
achille
acid
acida
acidaj
acido
acidoj
acidon
acrocephalus
across
act
acta
actes
action
activity
ad
ada
adalbert
adalberto
adam
adamo
adams
adaptado
adaptaj
adapti
adaptig
adaptis
adaptita
adaptitaj
adapto
adas
adatok
adb
adda
additive
additives
ade
adekvata
adelajdo
adepto
adeptoj
adi
adiau
adicio
adig
adipato
adis
adj
adjektiva
adjektivo
adjektivoj
adjektivs
adjunkto
adler
administra
administracia
administraciaj
administracie
administracio
administrado
administradon
administraj
administrajn
administran
administranto
administrantoj
administras
administrata
administration
administre
administrejo
administri
administris
administrita
admiralo
admiri
admiris
admiro
ado
adoj
adoleskantoj
adolf
adolfo
adolph
adolphe
adon
adoptas
adopti
adoptis
adoptita
adoptitaj
adopto
adorado
adoras
adorata
adoris
adorja
adorklinig
adorno
adoru
adresaro
adresita
adreso
adresoj
adreson
adria
adrian
adriano
adriatika
adriatiko
adrien
adrienne
advanced
advances
advent
adventure
adventures
adverbo
adverboj
advokatan
advokato
advokatoj
ady
ae
aelo
aeno
aer
aera
aeraj
aerarmeo
aere
aero
aeron
aeronau
aers
aertelfero
af
afa
afabla
afable
afero
aferoj
aferojn
aferon
affairs
afgana
afganio
afghanistan
afhau
afido
afiksoj
afis
afo
afoj
afojn
afonso
afp
africa
african
afrik
afrika
afrikaj
afrikan
afrikanoj
afrikansa
afriko
afrikon
afrique
afro
afrodito
afrotropisa
after
afto
ag
aga
agadas
agadi
agadis
agado
agadoj
agadojn
agadon
again
against
agamemno
aganta
aganto
agantoj
agas
age
agency
agent
agentejo
agentejoj
agento
agentoj
ages
agi
agis
agitado
aglo
agloj
aglomeraj
agne
agnes
agnoskas
agnoskata
agnoskataj
agnoski
agnoskis
agnoskita
agnoskitaj
agnosko
agnoskon
ago
agoj
agojn
agon
agordo
agos
agostini
agostino
agra
agrabla
agrablan
agrable
agrara
agreement
agreno
agresema
agreso
agricola
agricultural
agriculture
agrikultura
agrikulturaj
agrikulturajn
agrikulturan
agrikulturo
agrikulturon
agro
agroj
agrokulturo
agronomo
agu
agua
aguilar
aguirre
agusti
ah
ahmad
ahmed
aho
ahr
ahrweiler
ai
aid
aida
aidoso
aigle
ail
aime
ain
air
airbus
aire
aires
airlines
airport
airways
ais
aise
aisne
aiud
aix
aj
aja
ajka
ajkovskij
ajlo
ajlovic
ajlovna
ajn
ajna
ajnaj
ajnan
ajnas
ajne
ajni
ajnigas
ajnigi
ajnigis
ajnis
ajno
ajo
ajoj
ak
aka
akada
akade
akademia
akademiaj
akademian
akademiano
akademianoj
akademie
akademiens
akademio
akademioj
akademion
akademiuloj
akaj
akajama
akarto
akbar
akc
akceli
akcelis
akcelo
akcento
akceptado
akceptas
akceptata
akceptataj
akceptebla
akcepti
akceptig
akceptis
akceptita
akceptitaj
akcepto
akcepton
akceptos
akceptu
akcesoraj
akcia
akcidento
akcidentoj
akcidenton
akcioj
akcipitredoj
akcipitro
akcipitroj
akeno
aki
akira
akirado
akirante
akiras
akiri
akiris
akirita
akiritaj
akiro
akisto
akita
akitania
akiten
akitɛn
akko
ako
akolimpiko
akompana
akompanas
akompanata
akompanataj
akompani
akompanis
akompanita
akompano
akordig
akordo
akordoj
akordon
akra
akraj
akrajn
akran
akre
akrig
akrilato
akristoj
akro
akronimo
akropolo
aksa
aksiomo
aksiomoj
akso
aksoj
akta
aktabulo
aktiva
aktivado
aktivaj
aktivajn
aktivan
aktivas
aktive
aktiveco
aktivecoj
aktivecojn
aktivecon
aktivig
aktivis
aktivismo
aktivisto
aktivulino
aktivulo
aktivuloj
aktivulojn
akto
aktoj
aktora
aktorado
aktoradon
aktoran
aktorino
aktoris
aktoro
aktoroj
aktuala
aktualaj
aktualan
aktuale
aktualo
aktuell
akumulig
akurata
akurate
akus
akustika
akuta
akuzas
akuzativa
akuzativo
akuzis
akuzita
akuzitaj
akuzo
akuzoj
akuzojn
akva
akvaj
akvajn
akvejoj
akvino
akvitanio
akvo
akvobaraj
akvobirdoj
akvodislimo
akvofalo
akvofaloj
akvofluo
akvoj
akvojn
akvokolekta
akvokvanto
akvon
akvonivelo
akvopilkisto
akvorezervejo
akvorezervujo
akvosurfaco
akvoturo
akvovojo
al
ala
alabamo
alada
alagoaso
alain
alajos
alan
alaska
alasko
alau
alb
alba
albacete
alban
albana
albanio
albano
albanoj
albany
albarraci
albatroso
albatrosoj
albatrosses
albert
alberta
alberti
alberto
albin
albirex
albis
albordig
albrecht
albreh
album
albumo
albumoj
albumojn
albumon
albuquerque
alca
alcala
alcalde
alcan
alciono
aldea
aldo
aldona
aldonaj
aldonajn
aldonan
aldonante
aldonas
aldone
aldoni
aldonig
aldonis
aldonita
aldonitaj
aldono
aldonoj
aldonon
aldonu
aldrich
ale
alec
alegorio
alegre
alejandro
aleksander
aleksandr
aleksandra
aleksandrio
aleksandro
aleksandrovic
aleksej
aleksio
alemana
alemane
aleo
ales
alessandro
alex
alexander
alexandra
alexandre
alexandria
alexis
alf
alfa
alfabeta
alfabete
alfabeto
alfabetoj
alfabeton
alfluanto
alfluantoj
alfluas
alfluo
alfo
alfons
alfonso
alfoz
alfrapo
alfre
alfred
alfredo
alfrontas
alfronti
alfrontis
alg
alge
algebra
algebro
algeria
algo
algoj
algoritmo
algoritmoj
algovio
alh
ali
alia
aliaflanke
aliaj
aliajn
alian
aliancaj
aliancanaj
aliancano
aliancanoj
aliancig
alianco
aliancon
alianza
alice
alicia
alicio
alie
alien
aliflanke
aliformig
alig
alighieri
aligis
aligita
aligitaj
aliig
alikaze
alikonstruita
alikonstruo
alila
alilanda
alilandaj
alilingvaj
aliloke
alimaniere
alineo
alinome
alinomita
aliras
alirdato
alirebla
alireblaj
alirejo
aliri
aliris
alirita
alirite
aliro
aliron
aliulo
aliuloj
alivorte
aljug
alkala
alkario
alkemiisto
alkohola
alkoholaj
alkoholo
alkoholoj
alkondukis
alkonstruaj
alkonstruig
alkonstruita
alkroc
alkutimig
all
alla
allah
allan
alle
allegro
allen
allende
aller
alles
allgemeine
alliance
allier
alligita
allmovie
allmusic
alloga
allogaj
allogas
allogi
allogis
allogo
alma
almanako
almas
almeida
almenau
almeri
almerio
alo
aloe
alois
aloj
alojo
alojoj
alom
alon
alone
along
alonso
alp
alpa
alpaj
alparolis
alpas
alpes
alpha
alphonse
alpoj
alportas
alporti
alportis
alportita
alportitaj
alportos
alportu
alprenas
alpreni
alprenis
alproksimig
alquist
als
also
alt
alta
altaj
altaja
altajn
altamira
altan
altara
altaro
altaroj
altaron
altas
alte
altebenaj
alteco
altecoj
altecon
alten
altenburg
altenkirchen
alter
alterig
alterna
alternaj
alternas
alternativa
alternativaj
alternativajn
alternativan
alternative
alternativo
alternativoj
alterne
althochdeutsch
alti
altig
altigi
altigis
altigita
altiraj
altiras
altiri
altiris
altiro
altitudo
altitudoj
altkvalita
altlerneja
altlernejo
altlernejoj
altlernejon
altmark
altnivela
alto
altoj
alton
altranga
altrangaj
altranguloj
altvalora
altvaloraj
aludas
alude
aludi
aludis
aludo
aludoj
aluminia
aluminio
aluzo
alvenas
alveni
alveninta
alvenintaj
alveninte
alvenis
alveno
alvenon
alvenos
alves
alveturejo
alveturis
alvokas
alvoki
alvokis
alvokita
alvoko
alvokoj
alvokon
always
alzaco
am
ama
amadeo
amadeus
amaj
amalia
amand
amanda
amano
amantino
amanto
amantoj
amara
amas
amasa
amasaj
amasan
amase
amasig
amaskomunikila
amaskomunikilaro
amaskomunikiloj
amaso
amasoj
amason
amata
amatino
amato
amatora
amatoraj
amatoran
amatoroj
amazon
amazona
amazonio
amazono
ambasadejo
ambasado
ambasadoro
ambasadoroj
ambau
ambelano
ambicia
ambicio
ambra
ambrego
ambreto
ambro
ambroj
ambrojn
ambron
ambrozio
ambrus
ame
amelo
amen
amendo
america
american
americana
amerika
amerikaj
ameriko
amerikon
amfibioj
amfiteatro
ami
amiens
amigos
amika
amikaj
amikaro
amike
amikeco
amikecon
amikig
amikino
amiko
amikoj
amikojn
amikon
amila
aminda
amino
aminoacidoj
aminobenzoato
aminoj
amir
amis
ammad
amnestio
amnestion
amo
amon
among
amonia
amoniako
amonio
amont
amor
amora
amore
amoro
amos
amour
ampanjo
ampionado
ampioneco
ampionecon
ampiono
ampionoj
ampionumo
ampleksa
ampleksaj
ampleksajn
ampleksan
ampleksas
amplekse
ampleksig
ampleksigita
ampleksis
amplekso
amplekson
amplitudo
ams
amsterdam
amsterdama
amsterdamo
amt
amu
amundsen
amuza
amuzaj
amuzig
amuzo
amy
an
ana
analfabetoj
analitiko
analiza
analizas
analizi
analizis
analizo
analizoj
analizon
analoga
analogaj
analoge
analogio
analoj
analyse
analysis
anarchism
anarchist
anarh
anarki
anarkiisma
anarkiismo
anarkiista
anarkiisto
anarkiistoj
anaro
anas
anaso
anasoj
anatole
anatolij
anatolio
anatomia
anatomie
anatomio
anatomo
anatomy
anc
ance
ancelig
ancient
anco
ancoj
ancojn
ancon
and
anda
andaj
andaluci
andalus
andaluza
andaluzio
andante
andere
anderen
anders
andersen
anderson
andes
ando
andoj
andor
andoro
andra
andrade
andranik
andras
andre
andrea
andreas
andreescu
andrei
andrej
andreo
andrew
andrews
android
andromedo
andrzej
andy
ane
anejrio
anejro
anekdotoj
aneksado
aneksis
aneksita
anekso
anemio
anfa
ang
angalo
ange
angel
angela
angeles
angelo
angels
anger
angers
angiospermae
angiospermoj
angkor
angla
anglaj
anglajn
anglalingva
anglalingvaj
anglalingve
anglan
angle
anglia
anglikana
anglio
anglion
anglo
angloj
anglosaksa
anglujo
ango
angol
angola
angolo
angoro
angs
angula
angulo
anguloj
angulojn
angulon
anh
anhajo
anhalt
anhalto
anhidrido
ani
anig
anika
aniko
anima
animacia
animaciaj
animacio
animal
animala
animalaj
animalo
animaloj
animalojn
animals
animation
anime
animeo
animo
animoj
animojn
animon
anino
anio
anis
anismo
anita
anizila
anj
ankaro
ankau
ankorau
anlando
ann
anna
annales
annals
anne
annette
anni
annie
anniversary
anno
annual
ano
anoj
anojn
anon
anoncas
anonci
anoncis
anoncita
anonco
anoncoj
anonima
anonime
another
anov
ans
ansbach
anselmo
anser
ansero
anseroj
anstatau
ant
anta
antaj
antajn
antal
antan
antanas
antara
antarctic
antarctica
antarkta
antarkto
antaro
antaroj
antaron
antas
antau
ante
anteno
antenoj
antes
anthology
anthony
anthropology
anti
antibakteriajn
anticipe
antifungajn
antikva
antikvaj
antikvajn
antikvan
antikve
antikveco
antikvo
antiloj
antimikrobajn
antioh
antiquity
antisemitismo
antjokio
anto
antoine
antoinette
antoj
antojn
antologio
anton
antoni
antonia
antonimoj
antonino
antonio
antono
antony
antranilata
antranilato
antropologia
antropologio
antropologo
antverpena
antverpeno
antwerpen
anunciacio
any
ao
aodou
aoso
aosta
aou
ap
apa
apache
apalac
aparataro
aparato
aparatoj
aparatojn
aparaton
aparta
apartaj
apartajn
apartamento
apartan
aparte
apartenaj
apartenanta
apartenantaj
apartenas
aparteni
apartenis
aparteno
apartenu
apartig
apartigas
apartigi
apartigilo
apartigilon
apartigis
apartigita
apartigitaj
apartigo
apartismo
apek
apelo
apeloj
apelon
apenau
apencelo
aperadis
aperaj
aperanta
aperantaj
aperas
aperdato
aperi
aperigas
aperigi
aperigis
aperinta
aperintaj
aperis
apero
aperoj
aperon
aperos
aperturo
api
apitro
apitroj
apitrojn
apitron
aplau
aplikado
aplikaj
aplikas
aplikata
aplikataj
aplikebla
apliki
aplikig
aplikis
aplikita
apliko
aplikoj
aplikon
apo
apoganta
apogante
apogas
apogi
apogig
apogis
apogita
apogo
apogon
apokalipso
apokrifaj
apolda
apollo
apolodoro
apolona
apolono
apon
apopleksio
apostola
apostolo
apostoloj
apotekisto
apoteko
apoteozo
apple
application
applications
applied
approach
approx
apr
apre
aprezata
april
aprile
aprilo
apro
aprobas
aprobi
aprobis
aprobita
aprobitaj
aprobo
aprobon
apud
apuda
apudaj
apudajn
apudan
apudas
apude
apulio
aq
aqui
aquila
aquita
aquitaine
ar
ara
arab
araba
arabaj
araban
arabe
arabia
arabic
arabio
araboj
arad
arado
arago
aragona
aragono
aram
aramea
aran
aranda
araneo
araneoj
arang
arany
ararat
ararato
arato
arau
arba
arbara
arbaraj
arbaristo
arbaro
arbaroj
arbarojn
arbaron
arbedo
arbedoj
arbeit
arbeiten
arbeiter
arbitra
arbitracio
arbitre
arbo
arboj
arbojn
arbon
arbor
arbos
arbustaro
arbustaroj
arbusto
arbustoj
arc
arcah
arch
archa
archaeological
archaeology
arche
archibald
architecture
architektur
archiv
archive
archived
archives
arco
arctic
ard
arda
arde
ardea
ardena
ardenisto
ardennes
ardeno
ardenoj
ardenojn
ardenon
ardeo
ardeoj
ardija
ardo
are
area
arealo
areas
arena
arenas
areno
arentoj
areo
areoj
areojn
areon
aresti
arestis
arestita
arestitaj
arestitoj
aresto
areto
arg
argentina
argentino
argila
argilaj
argilo
argo
argoj
argon
argonau
argono
argovio
argumentas
argumentis
argumento
argumentoj
argumentojn
arh
ari
aria
ariane
arias
arida
aridaj
arie
ariel
arif
arig
arigas
arigis
ario
arioj
aris
aristide
aristofano
aristokrata
aristotelo
aritmetika
aritmetiko
arizona
arizono
arja
ark
arka
arkadio
arkadoj
arkaika
arkaj
arkansaso
arkeo
arkeologia
arkeologiaj
arkeologio
arkeologo
arkeologoj
arkiduko
arkiepiskopo
arkimedo
arkipelago
arkitekto
arkitektoj
arkitektura
arkitekturaj
arkitekturan
arkitekturo
arkitekturon
arkiva
arkive
arkivejo
arkivigite
arkivisto
arkivita
arkivo
arkivoj
arko
arkoj
arkon
arkta
arkto
arles
arm
arma
armaj
armand
armando
arme
armea
armeaj
armeajn
armean
armeanoj
armee
armeestro
armen
armena
armenaj
armenajn
armenan
armene
armenia
armenian
armenio
armenion
armenoj
armeo
armeoj
armeojn
armeon
armilaro
armilejo
armilo
armiloj
armilojn
armilon
armin
armistico
armita
armitaj
armo
armor
arms
armstrong
army
arnaud
arne
arnhem
arno
arnold
arnstadt
aro
aroj
arojn
aromaj
aromata
aron
arondismento
arondismentoj
aroteorio
around
arov
arp
arpentisto
arpitane
arras
arriba
arrondiment
arrondissement
arroyo
ars
arseno
art
arta
artaj
artajn
artan
arte
artefaktoj
artefarita
artefaritaj
artefaritan
artemisia
artemiso
artes
artgalerio
arthalo
arthistoriisto
arthur
arti
article
articles
artikel
artikolo
artikoloj
artikolojn
artikolon
artikon
artikulacio
artileria
artilerio
artis
artist
artista
artistino
artistkolonio
artisto
artistoj
artistojn
artists
arto
artoj
artojn
arton
artportal
artropodoj
arts
artu
artur
arturo
arundo
arvor
as
asa
asado
asadon
asas
asc
ascendo
aschaffenburg
asean
asekuro
asembleo
asembleoj
asembleon
asertante
asertas
aserti
asertis
aserto
asertoj
asertojn
aserton
ash
ashley
ashundoj
asi
asia
asiago
asian
asignita
asimilado
asiria
asirianoj
asirio
asis
asista
asistanto
asisto
asistoj
asizo
aso
asocia
asociacio
asociaj
asociata
asociig
asociita
asociitaj
asocio
asocioj
asociojn
asocion
asp
aspects
aspektas
aspekte
aspekti
aspektis
aspekto
aspektoj
aspektojn
aspekton
asplenium
aspx
assembly
assessment
assis
associated
association
asta
astano
asteco
asteroid
asteroida
asteroidaj
asteroido
asteroidoj
asteroidojn
asteroidon
asteroids
asti
astragalus
astrah
astrid
astro
astrofizika
astrofizikisto
astrofiziko
astroj
astrologio
astrologo
astronau
astronomia
astronomiaj
astronomian
astronomical
astronomie
astronomino
astronomio
astronomion
astronomo
astronomoj
astronomon
astronomy
astrophysical
astrophysics
asturio
asuncio
aszo
at
ata
ataj
atakanto
atakas
ataki
atakis
atakita
atakitaj
atako
atakoj
atakojn
atakon
atan
atantoj
atas
atata
atataj
atatu
ate
ateismo
ateisto
ateliero
atelieroj
atelieron
atelo
atena
atenco
atencoj
atendante
atendas
atendi
atendis
atendita
atendo
atendu
ateneo
ateno
atenta
atentas
atente
atenti
atentigas
atentigi
atentigis
atentis
atento
atenton
atentu
atestaj
atestanto
atestantoj
atestas
atestis
atestita
atesto
atestoj
ateston
athens
ati
atiko
atingante
atingas
atingebla
atingeblaj
atingeblas
atingi
atinginta
atinginte
atingis
atingita
atingitaj
atingo
atingoj
atingojn
atingos
atingu
atis
atla
atlanta
atlantic
atlantido
atlantika
atlantikaj
atlantiko
atlantikon
atlantique
atlantiques
atlantis
atlas
atlaso
atle
atletika
atletiko
atleto
atletoj
atmosfera
atmosfero
atmosferon
ato
atolo
atom
atoma
atomaj
atombombo
atomnumero
atomo
atomoj
atribuas
atribuata
atribui
atribuis
atribuita
atribuitaj
atribuite
atribuo
atributoj
atsushi
attack
attila
atus
au
aube
aubin
aubusson
auch
auckland
aude
audi
audio
audrey
audubon
auf
aufbau
aufl
auflage
aug
auge
augen
augsburg
august
augusta
auguste
augustin
augusto
augustus
auk
auld
aups
aure
aurora
aus
auschwitz
ausfu
ausgabe
ausstellung
austen
austerlitz
austin
australia
australian
australis
austria
auta
author
authority
authororder
auto
autobiography
autre
autres
auvergne
aux
auxerre
av
ava
available
avallon
avancis
avangarda
avangardo
avant
avantag
avaroj
ave
avec
aveno
aventura
aventuro
aventuroj
aventurojn
avenue
avenuo
averag
avertas
averti
avertis
averto
aves
avesnes
avesnois
avi
aviada
aviadila
aviadilaro
aviadilo
aviadiloj
aviadilojn
aviadilon
aviadisto
aviado
avian
aviceno
avignon
avilo
avinjono
avino
avispa
aviv
avivo
avo
avon
avril
aw
award
awards
away
ax
axel
ay
ayala
ayuntamiento
az
aza
azeno
azera
azerbajg
azeroj
azia
aziaj
azilon
azio
azion
aziz
azmuzikisto
azmuzikistoj
azo
azon
azori
azteka
aztekoj
azul
azur
aɪ
aʊ
b
ba
baal
baar
bab
baba
babel
babes
babilado
babilona
babilonia
babilono
baby
bac
bach
back
bacon
bad
badajoz
badan
baden
badeno
bafta
bagdado
baghy
bah
baha
bahaa
bahaanoj
bahamoj
bahasa
bahia
bahio
bahn
bai
baia
bailey
baill
bains
baj
baja
bajkalo
bajo
bajtoj
bakaj
bakalau
baker
bako
bakr
bakterio
bakterioj
baku
bakuo
bal
bala
balado
baladoj
balancig
balassagyarmat
balatonfu
balatono
bald
baldau
baldueno
baldur
baldvin
baldwin
balearoj
baleno
balenoj
baleta
baletisto
baleto
baletoj
baleton
balkana
balkanio
balkono
ball
balla
ballet
balo
balogh
balono
balota
balotado
balotadoj
balotadon
baloto
balotoj
balotojn
baloton
balotrajto
balotsistemo
balta
baltaj
balthasar
baltimore
baltio
baluc
balzac
bamberg
bambuo
ban
bana
banado
banarsidass
banato
banc
banco
band
banda
bandego
bandestro
bando
bandoj
bandon
banejo
banejoj
bang
banglades
bangladesh
bani
bank
banka
bankedo
bankiero
bankisto
banko
bankoj
bankoko
bankroto
banks
banloko
banner
bano
banska
banu
banuso
baptist
baptista
baptiste
baptisto
baptita
bapto
baptopatro
baptujo
bar
bara
baraba
barack
baraj
baranya
barata
barataj
barato
barba
barbado
barbara
barbaro
barbo
barbosa
barbulo
barca
barcelona
barcelono
barco
barcs
bardejov
bardo
barejno
barelo
bareloj
bari
baria
barilo
bariloj
baris
barita
baritono
barker
barko
barna
barnes
baro
baroj
baroka
barokaj
barokan
barokig
baroko
baron
barono
baronoj
barra
barre
barrett
barrier
barrio
barros
barry
bars
bart
barth
bartha
barthe
bartholdy
barto
bartolome
bartolomeo
barton
bartos
bas
basa
base
based
basel
baseno
basenoj
basenon
basgitaro
basic
basie
basil
basin
basis
basisto
baso
bass
bastia
bastien
bastiono
bastonetoj
bastono
bastonoj
bastonon
bat
bataille
batal
batalado
batalanta
batalantaj
batalante
batalanto
batalantoj
batalas
batalema
batali
bataliono
batalionoj
batalis
batalkampo
batalo
bataloj
batalojn
batalon
batals
batas
baterio
baterioj
bates
bath
bati
batis
batista
batita
bato
batoj
baton
batthya
battista
battle
batu
bau
baudelaire
bauer
bauhaus
baum
baur
bautista
bautzen
bavara
bavaria
bavario
bay
bayer
bayerische
bayern
bayreuth
baza
bazaj
bazajn
bazan
bazaro
bazas
bazata
baze
bazelo
bazig
baziliko
bazilo
bazita
bazitaj
bazitan
bazlernejo
bazlernejon
bazo
bazoj
bazojn
bazon
bb
bbc
bc
bd
bde
be
bea
beach
bean
bear
beat
beata
beatles
beatrice
beatrico
beatriz
beau
beauchamp
beaufort
beaufront
beaumont
beaune
beautiful
beauty
beauvais
beauvoir
beaux
bebo
beboj
bebon
bec
beck
becker
bed
bedau
bede
bedeutung
bedr
bee
been
beer
beethoven
before
begin
begonia
behavior
behavioral
behaviour
behind
bei
beijing
beim
being
beispiel
beitra
beitrag
bejruto
bek
beka
beko
bekobazo
bekoj
bekojn
bekon
bel
bela
belaj
belajn
belan
belarta
belartaj
belartoj
bele
beleco
belecon
belega
belegaj
belegan
belegt
beletra
beletraj
beletristika
beletro
belfort
belfrido
belga
belgaj
belgio
belgoj
belgujo
belinzono
belizo
bell
bella
belle
belles
bellini
bellmare
bello
belmont
belo
belorusa
beloruse
belorusio
belov
belulino
belva
belvedere
belvedero
ben
benavente
bend
bendo
bendoj
bene
benedek
benedetto
benedict
benediktana
benediktanoj
benedikto
benes
benevento
bengala
bengalio
bengalo
beni
benino
benis
benita
benito
benjamin
benko
benkoj
bennett
benny
beno
benoi
benon
benson
benth
benu
benz
benzena
benzeno
benzila
benzino
benzoata
benzoato
beo
beogrado
ber
berbera
berberis
berberoj
bercht
bere
bereg
berenica
berettyo
berg
bergamo
berge
bergen
berger
bergerac
bergman
bericht
berka
berkeley
berlin
berlina
berliner
berlino
berlinon
bermudo
bern
berna
bernard
bernardino
bernardo
bernd
berndt
bernhard
bernhardt
bernkastel
berno
bernoulli
bernstein
bero
beroj
berojn
beroun
berria
berry
bersetzung
bert
berta
bertalan
bertha
berthold
bertilo
bertolt
bertragen
bertrand
beru
berveling
bes
besanc
besar
beschreibung
beslano
besonders
besser
besson
best
besta
bestaj
bestkuracisto
besto
bestog
bestoj
bestojn
bestokuracisto
beston
bestoscienco
besze
bet
beta
beth
bethlen
beto
betono
better
betty
betula
betulo
between
beverly
bewegung
beyond
bezde
bezirk
bezonas
bezonata
bezonataj
bezone
bezonis
bezono
bezonoj
bezonojn
bezonon
bezonos
bezonus
bf
bg
bh
bi
bia
biała
bibcode
bible
biblia
bibliaj
biblio
bibliogra
bibliografia
bibliografio
bibliographie
bibliographisches
bibliography
biblion
biblioteca
biblioteka
bibliotekisto
biblioteko
bibliotekoj
bibliotekon
bibliothe
bibliotheca
bibliothek
bibopo
bicikla
biciklado
biciklisto
biciklo
bicikloj
biden
bie
bielefeld
bielo
bien
bienalo
bieneto
bieno
bienoj
bienojn
bienon
bienulo
bier
bierfarejo
biero
bieron
big
bihan
bihar
bihari
bihor
bikarbonato
biks
bilbao
bild
bilda
bilder
bildig
bildigas
bildigita
bildigo
bildliteraturo
bildo
bildoj
bildojn
bildon
bildstrioj
bildung
bileto
biletoj
biletojn
bileton
bill
billboard
billie
billy
bilo
bin
bingen
bio
biochemistry
biodiverseco
biodiversity
biogeography
biografi
biografia
biografiaj
biografieto
biografio
biografioj
biografion
biographical
biographie
biographisches
biography
biokemiisto
biokemio
biol
biologia
biologiaj
biologian
biological
biologie
biologio
biologo
biology
biome
biosfera
biotechnology
biotopo
bir
bird
birda
birdaj
birding
birdlife
birdo
birdoj
birdojn
birdokolekto
birdon
birdospecio
birdospecioj
birds
birdumo
birkenfeld
birma
birmingham
birmo
birth
bis
bisau
bisch
bishop
bismarck
bist
bistrit
bita
bitburg
bitte
bizanca
bizancaj
bizanco
bizet
bjalistoka
bjalistoko
bjo
bk
bl
bla
black
blackwell
blair
blaise
blake
blanc
blanca
blanche
blanco
blank
blanka
blankaj
blankajn
blankan
blanke
blankeca
blankecaj
blanko
blankuloj
blansko
blas
blasco
blau
blaue
blazono
blazonoj
blazonon
blazons
ble
bleiben
bli
blica
blico
blind
blinda
blindaj
blinde
blinduloj
blo
bloch
block
blog
blogger
blogo
blois
blokado
bloko
blokoj
blonda
blood
bloom
bloomington
bloomsbury
blovas
blovinstrumentoj
blu
blua
bluaj
bluajn
bluan
blue
blues
blum
blume
bluo
bluso
bm
bmatrix
bn
bner
bo
boa
board
boat
boato
boatoj
boaton
bob
bobby
boc
boca
bocage
boccaccio
bochum
bock
bocvano
bode
boden
bodenlago
bodo
bodrog
body
boe
boeing
bofilo
bofrato
boga
bogota
bogoto
bohe
bohema
bohemia
bohemio
bohr
bohumi
bois
boiss
boj
bojkoto
boksisto
bol
boleslao
boleslav
bolesław
boleti
boli
bolivia
bolivio
bologna
bolonjo
bols
bolyai
bolzano
bom
bomba
bombado
bombardadis
bombardado
bombaviadiloj
bombay
bombo
bomboj
bon
bona
bonaero
bonaj
bonajn
bonan
bonaparte
bond
bone
boneco
bonega
bonegaj
bonegan
bonege
bonfara
bonfarto
bongusta
bonifaco
bonkora
bonkvalita
bonkvalitaj
bonn
bonnet
bonnie
bonno
bono
bonon
bons
bonstato
bonvenigis
bonvenon
bonvolu
bonyha
book
books
bopatro
bor
bora
borba
borda
borde
bordeaux
bordo
bordoj
bordojn
bordon
bordozo
borel
borges
borgo
boris
boriso
bormann
born
borneo
boros
borough
bors
borso
borsod
boru
borysiewicz
bos
bosch
bosco
bose
bosko
bosnia
bosnio
boston
bostono
bot
bota
botanical
botanika
botanikaj
botanikisto
botaniko
botany
botau
botelo
boteloj
botelon
both
botreleo
boucher
bouches
boulder
boulevard
boulogne
boulton
bourbon
bourg
bourges
bourgogne
bovaj
bovido
bovino
bovinoj
bovisto
bovo
bovoj
bovojn
bowell
box
boy
boyd
boyer
boyle
boys
boz
bozen
bp
br
bra
brabanto
brad
bradley
brady
braga
braha
brahms
brain
brako
brakoj
brakojn
brakon
bram
branc
brancato
branco
brand
brandenburg
brandenburgio
brando
brandon
brandt
bras
brasiko
brasil
brasileira
brasileiro
brasileiros
brasso
bratislava
bratislavo
brau
brauerei
braun
braunschweig
brava
brave
bravo
brazil
brazila
brazilaj
brazilan
braziljo
brazilo
bre
brec
brecht
breda
bredado
bredas
bredataj
breeding
breisgau
breizh
brej
bremen
bremeno
bremsi
brenner
brent
bres
brescia
breslau
brest
bretagne
breto
breton
bretona
bretone
bretonio
breve
brevier
breviero
brezno
brian
brianza
bridge
brie
brief
briefe
brien
brieuc
brig
brigado
brigadoj
bright
brigitte
brika
briko
brikoj
brila
brilaj
brilan
brilanta
brilas
brile
brilis
brill
brilo
brilon
bringen
briofitoj
bristol
brit
brita
britain
britaj
britajn
britan
britannica
britia
britio
brition
british
brito
britoj
britton
britujo
brive
brno
bro
broadbent
broadcasting
broadcom
broadway
brockhaus
brod
brojo
broken
broklino
bromido
bromo
bromoacetato
bronisław
brons
bronza
bronzaj
bronzajn
bronzan
bronze
bronzepoko
bronzo
brook
brooke
brooklyn
brooks
bros
broth
brother
brothers
brown
browne
browser
browsing
bru
bruce
bruch
bruck
bruckner
brug
brugg
brulado
brulaj
brulanta
brulas
bruldetruig
bruldetruis
brulego
brulema
brulig
bruligado
bruligi
bruligis
bruligita
bruligitaj
bruligo
brulis
brun
bruna
brunaj
brunajn
brunan
bruneca
brunecaj
brunejo
brunkapa
brunner
bruno
brunsvigo
brunswick
brunta
bruo
bruon
brusela
bruselo
brusta
brusto
bruston
brutaro
bruto
brutobredado
brutoj
brutojn
bruxelles
bryan
bryant
bryophyta
bryophytae
bs
bt
bu
bubo
buc
buch
buchanan
buchenwald
buck
bucures
bud
buda
budai
budapes
budapest
buddha
buddhism
buddhist
buddy
bude
budhisma
budhismaj
budhismo
budho
budo
buen
buena
bueno
buenos
buffalo
bufo
bug
buh
building
buk
bukares
bukarest
buleo
bulgara
bulgaraj
bulgare
bulgario
bulgaroj
bull
bulle
buller
bulletin
bulo
bulonjo
bulteno
bultenon
bulthuis
bulvardo
bun
bund
bunta
buntpego
bura
burbono
bureau
bureba
burg
burga
burgdorf
burgejo
burgen
burgenland
burgenlando
burger
burgo
burgoj
burgon
burgonj
burgonja
burgonjo
burgos
burgoso
burke
burkino
burn
burns
buroo
burton
burundo
bus
busa
busch
bush
business
buslinio
buslinioj
buso
busoj
buster
busto
but
butano
butanolo
buteo
buterata
buterato
butero
butiko
butikoj
butila
butler
butono
butterfly
buxwv
buza
bv
bwv
by
bydgoszcz
byrd
byron
bystr
bystrica
bz
bə
c
ca
caballero
caballeros
cabeza
cabo
cabral
cabrera
cada
caen
caesar
cafe
cage
cahiers
cai
calabria
calais
calatayud
calatrava
caldero
calern
cali
california
call
calle
called
callicarpa
calvados
calvin
calvo
calzada
camacho
cambrai
cambre
cambridge
came
camera
cameron
cameros
camille
camillo
camino
camp
campaign
campbell
campin
campinas
campo
campos
campus
camus
can
canada
canadensis
canadian
canal
canaria
canavese
cancer
canis
cannes
cannon
cano
canon
canoo
canterbury
canto
canton
cantor
cao
cap
cape
capensis
capita
capital
capitol
capo
cappella
captain
car
cara
caracas
carcassonne
carduelis
care
caribbean
carin
carl
carla
carlo
carlos
carmen
carnegie
carnot
caro
carol
carolina
caroline
carolyn
carr
carre
carrie
carroll
cart
carta
carter
cartier
carvalho
cas
casa
casanova
casas
case
cases
casimir
caso
caspar
cassini
castan
castel
castellano
castello
castiglione
castilla
castillo
castle
castro
cat
catala
catalina
catalog
catalogue
catalunya
catania
catarina
catherine
catholic
cathopedia
cato
cattolica
causa
cause
causes
caussols
cave
cavendish
cay
cb
cbs
cc
ccd
cd
cdc
cdeli
cdlt
cdot
cdots
cdu
ce
cearao
cebaot
cecil
cecilia
cedar
cedi
cedis
cedro
cegle
ceinture
cel
cela
celanta
celantaj
celante
celas
cele
celebrado
celebras
celebrata
celebri
celebris
celi
celis
celita
cell
celldo
celle
celloko
celo
celoj
celojn
celon
cemento
cendoj
censa
censita
censo
census
cent
centau
center
centimetroj
centimetrojn
centjara
centjarig
cento
centoj
centojn
centr
centra
centrafrika
centraj
central
centrale
centralo
centraloj
centrameriko
centran
centre
centrig
centrita
centro
centroj
centrojn
centron
centrum
centuries
century
cenzuro
cepo
cepoj
ceramika
ceramikaj
ceramikisto
ceramiko
cerba
cerbo
cerbon
cerealoj
ceremonia
ceremonio
ceremonioj
ceremoniojn
ceremonion
ceres
cerezo
cerl
cerro
certa
certaj
certajn
certan
certas
certe
certeco
certig
certigas
certigi
certigis
cervantes
cervo
cervoj
ces
cesare
cetacoj
cetera
ceteraj
ceterajn
cetere
cetero
cezareo
cezaro
cf
cg
cgi
ch
cha
challenge
challenges
cham
chamberlain
chambers
champ
champagne
champion
champs
chan
chance
chandler
chang
change
changes
changing
channel
chantal
chapel
chapelle
chaplin
chapman
chapter
character
characteristics
charente
charles
charlie
charlotte
charlottenburg
chartres
chase
chaucer
chaux
che
cheb
check
checklist
chelsea
chembk
chemblink
chemical
chemicalland
chemicals
chemie
chemin
chemindex
chemins
chemistry
chemnet
chemnitz
chemsrc
chen
chenyi
cher
cherbourg
cherry
chess
chester
chet
chevalier
chez
chi
chiapas
chiba
chicago
chico
chief
chiesa
chihuahua
child
children
chile
china
chinese
ching
chinon
chirac
chisholm
cho
chod
choice
chomsky
chomutov
chopin
chov
chr
chre
chris
christ
christensen
christi
christian
christiane
christianity
christie
christina
christine
christmas
christoph
christophe
christopher
christus
chronicle
chronik
chronology
chrudim
chst
chte
chtig
chu
chuck
chulilla
church
churchill
chy
ci
cia
cianido
cianoacetato
cicero
cicerono
ciconia
cid
cido
cie
ciel
cielo
ciencias
cienti
cifereca
ciferecaj
ciferecita
cifero
ciferoj
ciferojn
ciga
cigana
ciganoj
cigno
cignoj
cikla
ciklo
ciklobutila
cikloheksila
cikloheptila
cikloj
ciklon
ciklopentila
cikonio
cikonioj
cile
cilindra
cilindro
cima
cin
cinamata
cinamato
cinamila
cincinnati
cinco
cindro
cindroj
cine
cinema
cio
cion
cionisma
circ
circle
circular
circus
cirila
cirile
cirilo
cirkau
cirkla
cirklo
cirkloj
cirklon
cirko
cirkonstanco
cirkonstancoj
cirkonstancojn
cirkulado
cirkulas
cirkvito
cirkvitoj
ciro
cis
cisjordanio
cisterciana
cistercianoj
cit
citadelo
citaj
citante
citas
citata
cite
citi
cities
citis
citita
cititaj
citizen
citrato
citronelila
citrono
citrus
citta
city
citypopulation
ciuc
ciudad
ciuszko
civil
civila
civilaj
civilajn
civilan
civilizacio
civilizacioj
civilization
civilizo
civilizoj
civiluloj
civilulojn
civita
civitana
civitanaj
civitaneco
civitanecon
civitano
civitanoj
civitanojn
civito
ck
cke
cken
cker
ckt
cl
cla
clair
claire
clara
clare
clarence
clarendon
clark
clarke
claro
class
classic
classical
classics
classification
claude
claudia
claudio
claudius
claus
clav
clay
clayton
cle
clemens
clement
clemente
clements
clermont
clerodendrum
clethra
cleveland
clifford
climate
clinical
clinton
clio
clive
close
cloud
club
cluj
clyde
cm
cn
cnn
cnrs
cnt
co
coast
coastal
coburg
cochem
code
codex
cohen
cohn
coi
col
cola
cold
cole
coleman
colette
colin
coll
colle
collected
collection
collections
college
collegium
collier
collins
colmar
colo
coloj
colombia
colon
colonia
colonial
color
colorado
coltrane
columba
columbia
columbus
com
comarca
comba
combat
come
comes
comet
comets
comics
coming
comite
comme
comment
commentary
commerce
commercial
commission
committee
common
commons
commonwealth
communaute
commune
communes
communication
communications
communist
communities
community
como
compagnie
compan
companion
company
comparative
comparison
compendium
complete
complex
composition
compostela
compounds
comprehensive
computer
comte
comunidad
con
conan
concepcio
concept
concepts
concerning
concert
concerto
concise
concord
concordia
conde
condor
conference
conflict
congo
congress
connecticut
connexions
connor
conquest
conquista
conrad
consadole
conscience
conseil
consejo
conservation
constant
constantin
constitution
construction
contact
conte
contemporary
content
conteo
contes
context
continental
contra
contre
contribution
contributions
control
convention
conway
cook
cool
coonabarabran
cooper
copa
cor
coral
corazo
corbusier
cordillera
core
cornelis
cornelius
cornell
corona
coronavirus
corporation
corps
corpus
corre
correspondence
corrientes
corse
corsetti
corte
corvus
cos
cosa
cosmoglotta
costa
cotta
cotton
could
council
count
countries
country
county
cours
course
court
couturat
cov
covasna
covid
cox
coxeter
cp
cr
craig
crane
crash
crawford
crazy
crc
cre
creation
creative
creek
cremona
creuse
cri
crime
cris
crisis
cristina
cristo
cristuru
critical
criticism
critique
cro
croce
croix
cromwell
crosby
cross
crown
cruz
cry
crypturellus
crystal
cs
csa
csaba
csala
cse
cseh
csi
csiky
cso
csokonai
csongor
csongra
csu
csy
ct
ctor
cu
cua
cual
cuando
cuatro
cuba
cue
cuenca
cuenta
cueva
cultura
cultural
culture
cultures
cum
cunamo
cuneo
cunha
cunningham
cup
cura
curie
curitiba
current
curtis
cut
cv
cw
cy
cyr
cyrano
cyril
cz
cze
czesław
czi
czy
cœur
d
da
dac
daca
dachau
dado
dag
dagestano
dagmar
dahl
dai
daily
daisuke
daj
dakaro
dako
dakota
dakoto
dal
dalai
dale
dali
dallas
dalmatio
dalton
dam
dama
damag
damasko
dame
dames
damiano
damit
damo
dan
dana
danaj
danan
danca
dancado
dancas
dance
danci
dancigo
dancis
dancistino
dancisto
dancistoj
danco
dancoj
dancon
dane
dang
daniel
daniela
daniele
danielo
danio
dank
dankas
danke
danki
dankis
danko
dankon
dann
danny
danoj
dans
dante
danuba
danubo
danujo
danuta
daphne
dar
dari
daring
dario
dark
darmstadt
darvino
darwin
das
dasd
dass
dat
data
database
dataj
datamuse
datas
date
datenoj
datenojn
datig
datita
datitaj
dativ
dativo
dato
datoj
daton
datreveno
datrevenon
datumas
datumbazo
datumoj
datumojn
dau
daun
davao
dave
david
davido
davidson
davies
davis
davos
davy
dawn
dawson
dax
day
days
daß
db
dc
dchen
dcysc
dd
ddr
de
dea
dead
deal
dean
death
debate
debato
debatoj
debaton
debehogne
debla
deborah
debrecen
debreceno
debussy
debuta
debutis
debuto
dec
december
decembre
decembro
decida
decidan
decidas
decide
decidi
decidig
decidis
decidita
decidite
decido
decidoj
decidojn
decidon
deciduaj
decline
dedic
dedukti
dee
deep
defau
defend
defenda
defendaj
defendan
defendante
defendanto
defendantoj
defendas
defendi
defendis
defendo
defendon
defense
definition
definitiva
definitivan
definitive
defio
defioj
deflankig
deg
degli
dei
dein
deine
dej
dek
deka
dekadencis
dekadenco
dekano
dekdu
dekdua
dekduedro
dekduo
dekila
dekjara
dekkvin
deklaracio
deklaracion
deklarante
deklaras
deklari
deklaris
deklarita
deklaritaj
deklaro
deklaroj
deklaron
deklinacio
dekliva
deklivaro
deklivo
deklivoj
deknau
deko
dekoj
dekojn
dekomenca
dekomence
dekonaj
dekono
dekoraciisto
dekoracio
dekretis
dekreto
dekretoj
dekreton
deksesuma
dekstra
dekstraj
dekstran
dekstre
dekstren
dekstro
dekuma
dekunu
dekunua
del
dela
delaunay
delegacio
delegita
delegitaro
delegito
delegitoj
delemonto
delfeno
delfenoj
delfo
delhi
delhio
delia
delikata
delikataj
dell
della
delle
delonge
delta
delto
dem
demandas
demandi
demandis
demando
demandoj
demandojn
demandon
demandu
demetas
demeter
demetis
demetrio
demisiis
demisio
demo
democracy
democratic
demografia
demografio
demokrata
demokrataj
demokratia
demokratiaj
demokratian
demokratie
demokratio
demokration
demokratoj
demono
demonoj
den
denaska
denaskaj
denaske
dendroica
denis
denise
denn
dennis
denova
denove
densa
densaj
densan
dense
denseco
densecon
denso
denson
dent
denta
dento
dentoj
dentojn
denuncis
deo
departamento
departementa
departementejo
departementestro
departemento
departementoj
departementon
department
departmento
dependa
dependaj
dependas
depende
dependeco
dependis
deponejo
deportado
deportig
deportis
deportita
deportitaj
depost
depresio
deputita
deputitaj
deputito
deputitoj
deputitojn
der
derby
derbyshire
derek
deren
derivaj
derivas
derivig
derivita
derivitaj
des
descartes
description
desde
desegnado
desegnaj
desegni
desegnis
desegnisto
desegnita
desegnitaj
desegno
desegnoj
desegnojn
desegnon
desenvolvimento
desert
deserto
design
desire
desmond
despue
dessau
destinis
destinita
destinitaj
destino
destinon
det
details
detala
detalaj
detalajn
detalan
detale
detalo
detaloj
detalojn
detekti
detektivo
deteni
determinas
determinativkompositum
determini
determinis
determinita
detlev
detranc
detroit
detrojto
detruado
detruas
detrui
detruig
detruis
detruita
detruitaj
detruo
detruon
deu
deus
deutsch
deutsche
deutschen
deutscher
deutsches
deutschland
deutschlands
deux
deva
devas
development
devena
devenaj
devenanta
devenantaj
devenas
devene
deveni
devenis
deveno
devenon
devi
deviga
devigaj
devigan
devigante
devigas
devigata
devigataj
devige
devigi
devigis
devigita
devigitaj
devigo
devil
devis
devizo
devo
devoj
devojig
devojn
devon
devos
devus
dez
dezajnita
dezajno
dezember
dezerta
dezertaj
dezertig
dezerto
dezertoj
dezerton
dezirante
deziras
dezirata
deziri
deziris
deziro
deziroj
dezirojn
deziron
dezirus
dezso
df
dh
di
dia
diabeto
diabla
diable
diablo
diagnozo
diagramo
diaj
diakono
dialektiko
dialekto
dialektoj
dialektojn
dialekton
dialogo
dialogoj
dialogon
dialogue
diamanto
diamantoj
diametro
diametroj
diametron
diamond
dian
diana
diane
dianthus
diario
diary
dias
diasporo
diboc
diccionario
dice
dich
dichtung
dick
dickens
dickinson
dico
dictionary
dictionnaire
did
diderot
didier
dido
die
dieco
diego
dies
diese
diesem
dieser
dieses
diet
dieter
dieto
dieton
dietrich
dietterle
dieu
diez
difektig
difektita
difekto
difektoj
diferenca
diferencaj
diferencajn
diferencan
diferencas
diference
diferenciala
diferencialaj
diferencig
diferencigas
diferencigi
diferenco
diferencoj
diferencojn
diferencon
different
difina
difinas
difini
difinig
difinis
difinita
difinitaj
difinitajn
difinitan
difino
difinoj
difinon
dig
diger
digesta
digimon
digital
digitales
digitalisat
digne
digno
digo
digoj
diino
diinoj
dija
dijo
dijon
dika
dikaj
dikajn
dikan
dikeco
diktatoreco
diktatoro
diktaturo
dilig
diligenta
diligente
diluvo
dimanc
dimensia
dimensiaj
dimensio
dimensioj
dimensiojn
dimension
dimorfismo
din
dina
dinamika
dinamiko
dinan
dinastia
dinastio
dinastioj
dinastion
ding
dino
dinosau
dinte
dio
diocezo
diocezoj
diodoro
dioj
diojn
diokleciano
dioksido
diomedea
dion
dionizo
dios
diospyros
dipatrino
diplomata
diplomatia
diplomatiaj
diplomatiajn
diplomatio
diplomatique
diplomato
diplomatoj
diplomig
diplomita
diplomitig
diplomo
diplomojn
diplomon
diputacio
dir
dira
diraj
dirante
diras
dirata
dire
direct
director
directory
direkcio
direkta
direktado
direktas
direkte
direkti
direktig
direktis
direktisto
direktita
direktitaj
direktivo
direkto
direktoj
direkton
direktoraro
direktorino
direktoro
direktoroj
direktoron
diri
dirigentis
dirigento
dirinte
diris
dirita
diritaj
dirite
dirk
diro
diroj
diros
diru
dirus
dis
disa
disaj
disau
disbranc
disc
discentra
discentreco
disciplino
disciplinoj
discours
discovery
disde
disdivido
disdonas
disdonis
disdono
dise
disease
diseases
disertacio
disertaj
diservo
diservoj
disfalanta
disfalas
disfalis
disfalo
disidis
disig
disigas
disigi
disigis
disigita
disigitaj
disigo
disj
diskeldonejo
disko
diskoj
diskojn
diskon
diskonigi
diskonigis
diskreta
diskriminacio
diskurso
diskutado
diskutas
diskutata
diskuti
diskutis
diskuto
diskutoj
diskuton
dismo
disney
disorders
dispartigo
display
displaystyle
disponas
disponebla
disponeblaj
disponeblas
disponi
disponigas
disponigi
disponigis
disponis
dispono
dispozicio
disputata
disputo
disputoj
disputojn
disputon
diss
dissendo
dissertatio
dissertation
dissolvig
dissolvita
dissolvo
distance
distancig
distanco
distancoj
distancojn
distancon
distas
distilado
distinga
distingaj
distingan
distingas
distingebla
distingeblaj
distingi
distingig
distingilo
distingis
distingita
distingitaj
distingo
distingon
distra
distraj
distranc
distribuado
distribuadon
distribuita
distribuitaj
distribuo
distribution
district
distrikta
distriktaj
distriktaro
distriktc
distriktejo
distrikto
distriktoj
distriktojn
distrikton
distro
disvastig
disvastigado
disvastigas
disvastigata
disvastigi
disvastigis
disvastigita
disvastigitaj
disvastigo
disvastigon
disvolvado
disvolvas
disvolvi
disvolvig
disvolvigi
disvolvigis
disvolvigita
disvolvigitaj
disvolvigo
disvolvigon
disvolvis
disvolvita
disvolvo
dit
dita
dithmarschen
dition
ditions
ditrih
diveni
diverg
divers
diversa
diversaj
diversajn
diverse
diverseco
diversecon
diversity
diversloke
diversmaniere
diversspecaj
dividaj
dividas
dividata
dividi
dividig
dividis
dividita
dividitaj
divido
dividoj
dividon
divisa
division
divizio
divizioj
divorcis
divorco
dix
dixon
diz
dizajnita
dizajno
dizionario
dizzy
dj
djordj
djula
dk
dl
dla
dliche
dlr
dm
dmezo
dmg
dmitrij
dn
dna
dnb
do
doboka
dobr
dobra
doc
docento
doch
doctor
document
documentary
documents
does
dog
dogmo
dogmoj
doho
doi
doj
dojn
dok
doktor
doktoreco
doktorecon
doktorig
doktoro
doktrino
doktrinoj
doktrinon
dokumenta
dokumentado
dokumentaj
dokumentaro
dokumentas
dokumente
dokumentita
dokumentitaj
dokumento
dokumentoj
dokumentojn
dokumenton
dol
dolaro
dolaroj
dolarojn
dolc
dole
doli
dolina
dolni
dolny
dolora
dolores
doloro
doloroj
doloron
dom
doma
domag
domain
domajno
domaro
domaroj
domaz
dombo
dome
domego
domenico
dometo
dometoj
domin
domina
dominado
dominaj
dominanta
dominanto
dominas
dominata
domingo
domini
dominik
dominika
dominikana
dominikanoj
dominiko
dominique
dominis
domino
domo
domoj
domojn
domokos
domon
don
dona
donacas
donaci
donacis
donacita
donaco
donacoj
donacojn
donacon
donado
donald
donanta
donante
donantoj
donas
donata
donau
donde
donecka
dong
doni
donig
donimo
donimoj
donimon
donis
donita
donitaj
donitan
donizetti
donna
donne
donnersberg
dono
donoj
donojn
donomo
donon
donos
donu
donus
door
dor
dora
dordogne
dore
dorf
doria
doris
dormanta
dormas
dormi
dormis
dormo
dormoc
dornoj
dorog
doroteo
dorothea
dorothy
dorsa
dorse
dorso
dorson
dort
dortmund
dos
dosiero
dosieroj
dosierojn
dosierujo
dostojevskij
dot
dots
dou
douard
double
doubleday
doubs
douglas
douglass
dove
dover
down
doyle
dozo
dozoj
dp
dq
dr
dra
dragon
drake
drako
drama
dramaj
dramaturgo
dramisto
dramo
dramoj
dramojn
dramon
dramverkisto
dras
draste
drato
draz
dre
dream
dreams
drei
dresado
dresden
dresdena
dresdeno
drew
dreyfus
drezen
drinkejo
drive
dro
drogo
drogoj
drogs
droit
dronis
drsc
dru
druck
drug
drugs
drumisto
drumo
dry
ds
dt
dter
dtv
du
dua
duafoje
duaj
duala
duan
duaranga
duarangaj
duarte
dub
duba
dubai
dubajo
dubas
dubi
dubinda
dubis
dubler
dublin
dublino
dubo
dubois
duboj
dubojn
dubromoacetata
duc
ducent
duck
ducks
duda
dudas
dudek
dudeka
dudekedro
duden
dudenredaktion
dudenverlag
due
duelo
duero
duetag
duetila
dufluoroacetata
dufluoroacetato
dufoje
duformismo
duisburg
dujara
duka
duke
dukino
duklando
duklandon
duko
dukoj
dukolora
dukotiledonaj
dulingva
dulingvaj
dulitera
dum
dumao
dumas
dume
dumetilbenzoata
dumfluge
dumlonge
dumnokte
dumont
dumpase
dumtage
dumtempe
dumviva
dumvive
dun
duna
dunau
duncan
duncker
dungado
dungi
dungig
dungis
dungita
dungitaj
dungito
dungitoj
dungitojn
dunn
dunoj
duo
duobla
duoblaj
duoblan
duoble
duoblig
duoksido
duoksidon
duon
duona
duonakso
duonan
duonarbaroj
duone
duonfrato
duonig
duoninsula
duoninsulo
duoninsulon
duonjaro
duono
duonon
duonronda
duopa
duopaj
duope
duopo
dupont
duque
dur
dura
durand
durante
durch
durchgesehene
durham
during
dus
duseksaj
duseldorfo
dutch
duuma
dv
dvd
dvor
dvu
dw
dwight
dx
dy
dylan
dynamics
dynasty
dz
də
dʁelwaʁ
e
ea
eagle
earl
earliest
early
earth
east
eastern
easy
eau
eb
eba
ebaze
ebea
eben
ebena
ebenaj
ebeno
ebenoj
eberhard
ebert
ebi
ebla
eblaj
eblajn
eblan
eblas
eble
ebleco
eblecoj
eblecojn
eblecon
ebligante
ebligas
ebligi
ebligis
ebligos
eblis
eblo
ebloj
eblojn
eblon
eblus
ebooks
ebova
ebria
ebro
ebur
eburo
ec
eca
ecaj
ecajn
ecan
ecbruna
ecbrunaj
ecclesiae
ech
echo
eck
eckernfo
eclav
eco
ecoj
ecojn
ecological
ecology
econ
econo
economic
economics
economist
economy
ed
eda
edad
edda
eddie
eddy
ede
eden
eder
edgar
edge
edicio
ediciones
edicions
edikto
edinburgh
edinburgo
edipo
edison
edit
edited
edith
edition
editions
editor
editora
editore
editorial
editors
editrice
edizioni
edmond
edmund
edo
edouard
edro
edroj
eds
edu
eduard
eduardo
educacio
education
educational
eduka
edukado
edukadon
edukaj
edukejo
eduki
edukig
edukis
edukisto
edukita
edukitaj
eduko
edukon
edvard
edward
edwards
edwin
edzeco
edzig
edzinig
edzinigis
edzino
edzinoj
edzinojn
edzinon
edzo
edzoj
edzon
ee
een
eestanta
eestantaj
eestantoj
eestas
eesti
eestis
eesto
eeston
ef
efa
efaj
efajn
efaltaro
efan
efang
efdelegito
efe
efektiva
efektive
efektivig
efektivigas
efektivigi
efektivigis
efektivigita
efektivigo
efekto
efektoj
efekton
efenirejo
efepiskopo
efepiskopujo
efezo
effect
effects
effendi
efika
efikaj
efikan
efikas
efike
efikeco
efikecon
efiki
efikis
efiko
efikoj
efikojn
efikon
efing
efinstruisto
efkomandanto
efkunlaboranto
efkuracisto
efloko
efministro
efministroj
efministron
efo
efoj
efpag
efpastro
efplaco
efraim
efred
efredaktoro
efrolis
efrolo
efrolon
efrolulo
efroluloj
efsekretario
efsidejo
eftero
efurba
efurbestro
efurbo
efurboj
efurbon
efverko
efvilag
efvojo
efvojoj
eg
ega
egaj
egala
egalaj
egalajn
egalan
egalas
egale
egaleco
egalecon
egalis
egan
ege
egea
eger
egg
egidio
egipta
egiptaj
egiptia
egiptio
egiption
egipto
egiptoj
egiptujo
ego
egon
egri
egy
egyesu
egyetem
egyha
egypt
egyptian
eh
ehime
ehrlich
ei
eichsfeld
eifel
eiffel
eight
eighteenth
ein
einaudi
eindhoven
eine
einem
einen
einer
eines
einfu
einige
einmal
einstein
eintrag
eisenach
eisenberg
eisenstadt
eisenstein
ej
eja
ejaj
ejan
ejeto
ejfelo
ejh
ejko
ejnombrado
ejo
ejoj
ejojn
ejon
ejov
ek
eka
ekaperis
ekas
ekatakis
ekau
ekbriloj
ekde
ekdej
ekestas
ekestinta
ekestis
ekesto
ekfluas
ekflugas
ekfunkciis
ekg
ekgravis
ekhavas
ekhavi
ekhavis
eki
ekig
ekigis
ekinstruis
ekinteresig
ekipaj
ekipita
ekipitaj
ekiris
ekis
ekkaptis
ekkoni
ekkonis
ekkono
ekkonstruis
ekkriis
eklaboris
eklernis
eklezia
ekleziaj
ekleziajn
eklezian
ekleziejo
eklezio
eklezioj
eklezion
ekleziuloj
eklipso
eklog
eko
ekologia
ekologiaj
ekologian
ekologie
ekologio
ekonomia
ekonomiaj
ekonomiajn
ekonomian
ekonomie
ekonomika
ekonomikaj
ekonomikisto
ekonomiko
ekonomikon
ekonomio
ekonomioj
ekonomion
ekoprovinco
ekoregiono
ekoregionoj
ekosistemo
ekosistemoj
ekozono
ekparolis
ekpensis
ekposedis
ekprenis
ekrano
ekregis
ekrigardis
eks
eksa
eksaj
ekscias
ekscii
eksciis
ekscios
ekscitig
eksedzig
eksentis
eksig
eksigita
eksklavo
ekskluziva
ekskluzive
ekskurso
ekskursoj
eksonis
ekspansio
ekspedicio
ekspedicioj
ekspedicion
eksperimenta
eksperimentado
eksperimentaj
eksperimentis
eksperimento
eksperimentoj
eksperimentojn
eksperimenton
ekspiro
eksplicite
eksplikas
ekspliki
eksplodaj
eksplodigis
eksplodis
eksplodo
eksplodoj
eksplodon
ekspluatado
ekspluati
eksponitaj
eksportado
eksporto
ekspozicia
ekspoziciejo
ekspoziciis
ekspozicio
ekspozicioj
ekspoziciojn
ekspozicion
ekspresionismo
ekspreso
ekstaris
ekster
ekstera
eksteraj
eksterajn
eksteran
eksterdistrikta
ekstere
eksteren
eksterlanda
eksterlandaj
eksterlandajn
eksterlandanoj
eksterlande
eksterlanden
eksterlando
eksterleg
ekstermejo
ekstermi
ekstero
eksterordinara
eksterordinaraj
eksterordinaran
eksterordinare
eksterteranoj
ekstrema
ekstremaduro
ekstremaj
ekstreme
ekstremo
ekstudis
ektus
ekumena
ekuzis
ekvacio
ekvacioj
ekvacion
ekvadoro
ekvalidis
ekvatora
ekvatoro
ekverkis
ekvidas
ekvidi
ekvidis
ekvilibra
ekvilibro
ekvilibron
ekvivalenta
ekvivalentaj
ekvivalento
ekvojag
ekz
ekzakta
ekzakte
ekzamenas
ekzameni
ekzamenis
ekzamenitaj
ekzameno
ekzamenoj
ekzamenojn
ekzamenon
ekzekutis
ekzekutita
ekzekutitaj
ekzekuto
ekzekutoj
ekzempla
ekzemplaj
ekzemple
ekzemplero
ekzempleroj
ekzemplerojn
ekzempleron
ekzemplo
ekzemploj
ekzemplojn
ekzemplon
ekzercado
ekzercaro
ekzerco
ekzercoj
ekzila
ekzilig
ekzilita
ekzilitaj
ekzilo
ekzistado
ekzistadon
ekzistanta
ekzistantaj
ekzistantajn
ekzistantan
ekzistas
ekzisti
ekzistinta
ekzistis
ekzisto
ekziston
ekzistos
ekzistus
el
ela
elac
elaj
elasta
elb
elba
elbe
elbo
elc
elcentoj
eld
elde
eldiris
eldiro
eldiroj
eldona
eldonado
eldonadon
eldonaj
eldonanto
eldonas
eldonata
eldonejo
eldonejoj
eldonejon
eldoni
eldonig
eldoninto
eldonis
eldonisto
eldonistoj
eldonita
eldonitaj
eldonkvanto
eldono
eldonoj
eldonojn
eldonon
ele
eleanor
election
electric
electronic
elefanto
elefantoj
elegans
eleganta
elek
elekta
elektado
elektas
elektata
elekti
elektig
elektis
elektisto
elektita
elektitaj
elektitoj
elekto
elektodistrikto
elektoj
elektojn
elekton
elektra
elektraj
elektrajn
elektran
elektre
elektrejo
elektro
elektromagneta
elektron
elektrona
elektronika
elektronikaj
elektroniko
elektrono
elektronoj
elektrotekniko
elektu
eleme
elementa
elementaj
elemento
elementoj
elementojn
elementon
elements
elena
eleonora
eleso
elfluas
elfluejo
elfluo
elformig
elfosado
elfosadoj
elfosaj
elfosis
elfosita
elfositaj
elgermanigita
elhispanigita
eli
elias
elig
eligas
eligi
eligis
eligo
elija
elimini
elio
eliot
elipsa
eliranta
eliras
elirejo
eliri
eliris
eliro
eliros
elirpunkto
eliru
elis
elisabeth
elisto
elita
elito
eliza
elizabeta
elizabeth
elizabeto
elj
elke
elkreskis
ell
ella
ellabori
ellaboris
ellaborita
ellandigo
elle
ellen
ellernis
ellersiek
ellington
elliot
elliott
ellis
elme
elmigrado
elmigri
elmigrintoj
elmigris
elmontras
elmontris
elnestig
elo
eloj
elojn
elon
elor
elovig
elp
elparolitaj
elparolo
elparolu
elpas
elpensis
elpensita
elpostenigita
elpreni
elprenis
els
elsa
else
elsendas
elsendfluo
elsendi
elsendis
elsendita
elsendo
elsendoj
elsevier
elso
elspezis
elspezo
elspezoj
elspezojn
elst
elstara
elstaraj
elstarajn
elstaran
elstaras
elstare
elstarig
elstaris
elster
elte
eltenas
elteni
eltenis
eltiraj
eltiri
eltiris
eltranc
eltrovi
eltrovis
eltrovita
eltrovo
elturnig
eluzis
elvers
elvira
elvis
elvokas
elvokis
em
ema
emaj
emancipig
emanuel
emanuelo
emara
emas
ember
emberizo
emblemo
embrio
eme
emela
emelaj
emeloj
emerg
emeriko
emerita
emeritig
emerson
emfazas
emfazi
emfazis
emfazo
emi
emia
emida
emil
emile
emilia
emilio
emily
eminenta
eminentaj
eminentuloj
emio
emirlando
emirlandoj
emiro
emis
emizo
emle
emma
emmanuel
emmanuelle
emme
emmy
emo
emocia
emocio
emocioj
emociojn
emon
emperor
empire
ems
emscher
emu
emuo
emysl
en
ena
enado
enaj
enajn
enamig
enan
enas
enbus
enc
enciclo
enciclopedia
encikliko
enciklopedia
enciklopedio
enciklopedioj
enco
encyclopaedia
encyclope
encyclopedia
encyclopædia
end
endang
endangered
endarmoj
endate
ende
endemia
endemiaj
endemio
endormig
endre
ene
enec
enen
eneo
enerala
eneralaj
eneralajn
eneralan
enerale
eneraligita
eneraligo
energia
energiaj
energie
energio
energioj
energion
energy
enestanta
enestas
eneva
enevo
enfant
enfants
enfluas
enfluejo
enfluo
eng
engadino
engag
engel
engels
engineering
engl
england
englisch
english
enhavanta
enhavantaj
enhavante
enhavas
enhavi
enhavis
enhavo
enhavoj
enhavon
eni
enia
eniera
enierado
enierarto
eniero
enieroj
enig
enigas
enigi
enigis
enigita
enigitaj
enigma
enigmo
enigo
eniko
enio
enirante
eniras
enireja
enirejo
enirejoj
enirejon
eniri
eniris
eniro
eniron
eniros
eniru
enis
enj
enka
enkadre
enkarcerigita
enkarnig
enketado
enketo
enketoj
enketon
enklavo
enko
enkonduka
enkondukas
enkonduki
enkondukig
enkondukis
enkondukita
enkondukitaj
enkonduko
enkondukon
enkov
enlanda
enlandaj
enlandan
enlande
enlightenment
enlitig
enlog
enmars
enmetas
enmeti
enmetis
enmetita
enmetitaj
enmeto
enmigrado
enmigrantoj
enmigrintoj
enmigris
enmiksig
enne
eno
enoj
enojn
enon
enorma
enormaj
enormajn
enorman
enov
enova
enovo
enpas
enprizonigita
enprofundig
enpus
enradikig
enrete
enrico
enrique
enro
enroj
enron
ens
enscenigis
ensemble
ensemblo
ensembloj
ensemblon
enskribaj
enskribig
enskribita
enskribitaj
enskribo
enspezo
enspezofontoj
enspezoj
enspezojn
enspezon
ent
enta
entaj
entajn
entajpu
entan
entenanta
entenas
enteni
entenis
entento
enterigis
enterigita
enterigo
enterprise
entertainment
entila
entile
entileco
entjera
entjero
entjeroj
ento
entoj
entombig
entombigis
entombigita
entombigitaj
entombigo
entomologo
enton
entonces
entranc
entre
entreprena
entreprenas
entrepreni
entreprenis
entreprenisto
entreprenistoj
entrepreno
entreprenoj
entreprenojn
entreprenon
entropio
entry
entstehung
entuta
entute
entuziasma
entuziasme
entuziasmig
entuziasmo
entwicklung
enurbaj
enverguro
envers
environment
environmental
enyedi
enz
enzimo
enzimoj
enzyklopa
eo
eoj
eoru
eosta
ep
epa
eperjes
epic
epidemio
epidemioj
epifanio
episkopa
episkopejo
episkopo
episkopoj
episkopon
episkopujo
epistolo
epistoloj
epiteto
epizodo
epizodoj
epizodojn
epoko
epokoj
epokon
epopeo
eposo
epsilon
er
era
eraj
erajn
erajso
eran
erao
erara
eraras
erare
eraris
eraro
eraroj
erarojn
eraron
erasmo
erasmus
erce
ercmontaro
erco
ercoj
erde
erdo
ere
eredme
erevana
erevano
erfurt
erfurta
erfurter
erfurto
ergane
erhard
eri
eria
eric
erich
eridano
erigita
erigitaj
erik
erika
erikejo
eriko
erinnerungen
erio
erita
eritaj
eritreo
erkel
erkla
erko
erlangen
ermana
ermanaj
ermanoj
ermitejo
ermitejoj
ermito
ermo
erna
ernest
ernesto
ernih
erno
ernst
ero
eroj
erojn
eron
erono
eros
erotika
erov
erozio
erpi
erpig
erpis
erpita
erst
erste
ersten
erster
ertl
erto
ertoj
erudiciulo
erupcio
erupcioj
ervena
ervin
erweiterte
erwin
erza
erzejo
erzse
erzsi
es
esa
esas
escepta
esceptaj
escepte
escepto
esceptoj
esch
escobar
escorial
escuela
ese
eseisto
esenca
esencaj
esencan
esence
esenco
esencon
eseo
eseoj
eseojn
eseon
esh
esi
esigi
esigis
esigita
esigo
esis
eska
eskapi
eskapis
eske
esko
esky
eslav
eso
esos
esp
espan
espasa
espe
esperancki
esperanta
esperantaj
esperantajn
esperantan
esperante
esperantigis
esperantigita
esperantigite
esperantigo
esperantismo
esperantist
esperantista
esperantistaj
esperantistan
esperantistaro
esperantistig
esperantistino
esperantisto
esperantistoj
esperantistojn
esperantlingva
esperantlingvaj
esperantlingve
esperanto
esperantologio
esperantomuzeo
esperanton
esperantujo
esperas
espereble
esperi
esperis
espero
esperoj
esperon
espi
espirito
esplor
esplora
esplorado
esploradoj
esploradon
esploraj
esploras
esplori
esploris
esploristo
esploristoj
esplorita
esploro
esploroj
esplorojn
esploron
esprima
esprimas
esprimi
esprimig
esprimis
esprimita
esprimitaj
esprimo
esprimoj
esprimojn
esprimon
esprimu
esprit
essai
essay
essays
essen
essential
essex
essonne
est
esta
estaba
establado
establi
establig
establis
establita
establitaj
establo
estadas
estadi
estadis
estado
estaj
estanta
estantaj
estante
estas
este
esteban
ester
esterha
esterigo
estero
esteroj
estetika
estetiko
esther
esti
estienne
estig
estigante
estigas
estigi
estigis
estigo
estimata
estimativas
estimo
estimon
estingig
estinta
estintaj
estinte
estintus
estis
esto
estona
estone
estonio
estonta
estontaj
estontajn
estontan
estonte
estonteco
estontecon
estonto
estos
estrada
estrado
estrarano
estraranoj
estraro
estraron
estras
estrata
estre
estreco
estrejo
estri
estrino
estris
estrita
estritaj
estro
estroj
estron
estu
estuaro
estudio
estudios
estulo
estuloj
estus
esu
eszperanto
eszter
esztergom
et
eta
etado
etag
etaj
etajn
etan
etanolo
etante
etapo
etapoj
etas
etc
ete
etenda
etendaj
etendas
etende
etendi
etendig
etendis
etendita
etenditaj
etendo
etendon
eterna
eternan
eterne
eterneco
eternulo
eternulon
etero
eteroj
ethics
ethnic
ethnologue
eti
etienne
etig
etika
etikaj
etikedo
etiko
etila
etimologia
etimologie
etimologio
etimologion
etiopa
etiopia
etiopio
etis
etita
etitaj
etna
etnaj
etne
etno
etnografia
etnografio
etnografo
etnoj
eto
etoj
etojn
eton
etos
etoso
etoson
etruska
ets
ett
etu
etwas
etymologie
etymologisches
eu
euge
eugen
eugene
eugenia
eugenio
euler
eur
eure
euro
europa
europaea
europe
european
ev
eva
evala
evalo
evaloj
evalojn
evalon
evaluation
evan
evangelia
evangeliaj
evangeliisto
evangelio
evangelioj
evangelion
evano
evans
evc
eve
evelyn
even
evening
evento
eventoj
eventojn
eventon
events
eventuala
eventualaj
eventuale
ever
every
everything
evic
evidence
evidenta
evidentaj
evidente
evidentig
evika
evikoj
evil
evitante
evitas
eviti
evitis
evitu
evo
evolua
evoluado
evoluas
evolucio
evolui
evoluig
evoluigi
evoluigis
evoluigita
evoluigo
evoluinta
evoluintaj
evoluis
evoluismo
evoluo
evoluoj
evoluon
evolution
evolutionary
evskij
ewa
ex
exchange
exd
executive
exhibition
exo
exp
expedition
experience
experiment
experimental
exploration
explorer
expo
express
extinct
extinction
extra
extragalactic
ey
eye
eyed
eyes
ez
ezra
f
fa
fabacoj
fabela
fabelo
fabeloj
fabelojn
faber
fabian
fabio
fabloj
faboj
fabricius
fabrikado
fabrikanto
fabrikas
fabriki
fabrikis
fabrikita
fabrikitaj
fabriko
fabrikoj
fabrikojn
fabrikon
face
facebook
facila
facilaj
facilan
facile
facileco
faciligas
faciligi
faciligis
fact
factbook
facto
factory
facts
factsheet
fadeno
fadenoj
fago
fagoj
fair
faire
fairy
fait
faith
fajna
fajnaj
fajne
fajra
fajro
fajroestingista
fajroj
fajron
faka
fakaj
fakdelegito
fako
fakoj
fakojn
fakon
fakta
fakte
fakto
faktoj
faktojn
fakton
faktoro
faktoroj
fakulo
fakuloj
fakultato
fakultatoj
fakultaton
fakverkisto
falanta
falas
falc
falco
falcon
fali
faligi
faligis
faligita
falinta
falintaj
falintoj
falis
falk
falko
falkoj
fall
falls
falo
falon
falos
falsa
falsaj
falsan
false
falu
falva
fam
fama
famaj
famajn
faman
famas
fame
famega
famig
famigis
familia
familiaj
familiajn
familian
familianoj
familianon
familiara
familie
families
familinomo
familinomoj
familio
familioj
familiojn
familion
family
famis
famkonata
famo
famon
famous
famuloj
fan
fandado
fandig
fanny
fantasta
fantasy
fantazia
fantaziaj
fantazio
fantazioj
fantomo
fantomoj
fao
far
faraday
farado
farago
farante
faraono
faras
farata
farataj
farbo
farboj
farc
fare
fari
farig
farigis
farinta
farinte
faris
farita
faritaj
faritajn
faritan
faritis
farkas
farm
farmacia
farmaciaj
farmaciisto
farmacio
farmer
farmisto
farmistoj
farmo
farmoj
farnezila
faro
faroj
farojn
faros
farra
fartas
faru
faruno
farus
fas
fasado
fasadoj
fasadon
fasko
fast
fasto
fat
fatala
fate
father
fatima
fau
fauna
faure
faust
favora
favoraj
favoran
favoras
favore
favoris
favoro
favoron
fayard
faz
faza
fazanedoj
fazano
fazanoj
fazekas
fazeoloj
fazo
fazoj
fazon
fb
fbi
fc
fd
fe
fear
feather
features
feb
febro
februar
februare
februaro
february
federacia
federaciaj
federacian
federacio
federacioj
federacion
federal
federala
federation
federico
feeding
fehe
feino
feje
fejes
fejlo
fekaj
fekete
fekunda
fekundaj
fekundeco
fel
feld
felic
felice
feliks
felikso
felipe
felix
fellini
felo
felon
fels
felso
female
feminisma
feminismo
femme
femmes
fen
fenaroli
fendo
fendoj
fenestro
fenestroj
fenestrojn
fenestron
fenetila
fenica
fenikso
fenil
fenila
fenilacetata
fenilacetato
fenilpropionato
fenolo
fenomeno
fenomenoj
fenomenojn
fenomenon
fense
fer
fera
feraj
ferdeko
ferdinand
ferdinando
ferenc
ferencz
ferenczy
ferepoko
ferguson
feria
feriejo
ferio
ferioj
ferkel
ferma
fermas
fermat
fermentado
fermi
fermig
fermis
fermita
fermitaj
fermo
ferna
fernand
fernandes
fernando
fero
feroa
feron
ferooj
ferrand
ferrara
ferrari
ferreira
ferrer
ferrie
ferto
fervoja
fervojaj
fervojan
fervojista
fervojisto
fervojistoj
fervojlinio
fervojo
fervojoj
fervojon
fervora
fervoraj
fervore
fervoro
fest
festa
festado
festas
festata
feste
festeno
festi
festis
festival
festivalo
festivaloj
festivalon
festlibro
festo
festoj
festojn
feston
festotago
festotagoj
festschrift
fetic
fettes
feu
fez
ff
ffentlichungen
ffer
fi
fia
fianc
fiaskis
fiasko
fiat
fibro
fibroj
fica
fichte
fico
fiction
fidas
fide
fidel
fidela
fidelaj
fidele
fideleco
fidelecon
fideluloj
fidi
fidinda
fidindaj
fidis
fido
fidon
fiedler
field
fields
fiera
fieras
fiere
fiero
fifa
fifama
fig
figaro
fight
figura
figuraj
figuras
figure
figures
figuro
figuroj
figurojn
figuron
figursenca
fikcia
fikciaj
fikcio
fiksa
fiksaj
fiksas
fikse
fiksi
fiksig
fiksis
fiksita
fiksitaj
fil
filadelfio
filantropo
file
files
filharmonio
filia
filikoj
filino
filinoj
filinojn
filinon
filio
filioj
filion
filip
filipina
filipinoj
filipo
filippo
filis
fille
film
filma
filmado
filmaj
filmajn
filman
filmeto
filmetoj
filmfestivalo
filmis
filmisto
filmita
filmo
filmoj
filmojn
filmon
filmreg
films
filo
filoj
filojn
filologia
filologio
filologion
filologo
filon
filosofia
filozofia
filozofiaj
filozofiajn
filozofian
filozofio
filozofioj
filozofion
filozofo
filozofoj
fils
filtrilo
filtriloj
fin
fina
finaj
final
finalist
finalistino
finalistinon
finalisto
finaliston
finalo
finan
financa
financado
financaj
financajn
financan
finance
financi
financial
financis
financita
financo
financoj
finante
finas
finch
find
fine
finfine
fingro
fingroj
fingrojn
fingron
fini
finia
finig
finigi
finigis
finigo
fininte
finis
finiste
finita
finitaj
finkonstruita
finkonstruo
finn
finna
finnaj
finne
finnlanda
finnlando
finnoj
fino
finoj
finon
finstacio
finstudis
fiore
fire
firefox
firenze
firma
firman
firmao
firmaoj
firmaon
firme
firmo
first
fis
fischer
fish
fisher
fitzgerald
fiu
five
fix
fizika
fizikaj
fizikajn
fizikan
fizike
fizikisto
fizikistoj
fiziko
fizikon
fiziologio
fiziologo
fjodor
fjordo
fk
fl
fla
flag
flago
flagoj
flagon
flagotenanto
flagstaff
flagtenanto
flamengo
flamenko
flammarion
flamo
flamoj
flandra
flandraj
flandrio
flanka
flankaj
flankajn
flankan
flanke
flanken
flanko
flankoj
flankojn
flankon
flankovojo
flankovojoj
flankrivero
flau
flava
flavaj
flavajn
flavan
flavbeka
flaveca
flavecaj
flavio
flavo
flavor
fle
flegado
flegis
flegistino
fleisch
fleischer
fleksebla
fleming
flensburg
fletcher
fleury
flexion
fli
flight
flo
flood
flor
flora
florado
floraj
floranta
floraro
floraroj
floras
florenca
florence
florenco
flores
florian
floriano
florida
florido
floris
floro
floroj
florojn
floron
flosanta
floto
floyd
flu
flua
fluaj
fluanta
fluas
flue
fluejo
flug
flugado
fluganta
flugantaj
flugas
flughaveno
flughavenoj
flughavenon
flugi
flugila
flugilo
flugiloj
flugilojn
flugilplumoj
flugis
flugkompanio
flugmas
flugo
flugoj
flugojn
flugon
fluidaj
fluis
fluo
fluoj
fluon
fluorido
fluoro
fluoroacetato
fluto
flutoj
fly
flying
fm
fn
fo
focus
fodor
foerster
foirejo
foiro
foiroj
foje
fojfoje
fojo
fojoj
fojojn
fojon
fok
foko
fokoj
fokusig
fokuso
folge
folia
foliaj
foliarbaroj
foliaro
folietoj
folio
folioj
foliojn
folk
folklora
folkloraj
folkloristo
folkloro
fona
fonda
fondado
fondaj
fondas
fondata
fondi
fondig
fondinta
fondinto
fondintoj
fondis
fondita
fonditaj
fonditis
fondo
fondon
fonds
fondumo
fonduso
fone
fonemo
fonemoj
fonetika
fonetiko
fono
fonologio
fonon
fonseca
font
fonta
fontaine
fontainebleau
fontaines
fontana
fontano
fontanoj
fontas
fontenay
fonto
fontoj
fontojn
fonton
food
foods
football
for
fora
foraging
foraj
forbes
forbrulis
force
forces
ford
fore
foreign
forest
forestas
forestis
foresto
forests
forever
forfug
forg
forga
forgesas
forgesi
forgesis
forgesita
forgesu
forig
forigante
forigas
forigi
forigis
forigita
forigitaj
forigo
forigon
forigu
foriras
foriri
foriris
foriro
foriros
foriru
forj
forko
forkuras
forkuri
forkuris
forlasante
forlasas
forlasi
forlasis
forlasita
forlasitaj
forlaso
forlasos
forlasu
form
forma
formacio
formacioj
formado
formadon
formaj
formala
formalaj
formalan
formale
forman
formang
formantaj
formante
formas
formata
formation
formato
forme
former
formi
formiata
formiato
formig
formikoj
formis
formita
formitaj
formo
formoj
formojn
formon
formortinta
formortintaj
formortis
formorto
formosa
forms
formulis
formulo
formuloj
formulon
forno
fornoj
forpasinta
forpasis
forpaso
forpelas
forpeli
forpelis
forpelita
forpelitaj
forpelo
forportis
forprenas
forpreni
forprenis
forprenita
forpus
fors
forschung
forschungen
forst
forsta
forstado
forster
fort
forta
fortaj
fortajn
fortan
forte
forteco
fortega
fortig
fortigi
fortigis
fortika
fortikaj
fortikan
fortikigita
forto
fortoj
fortojn
forton
fortranc
fortreso
fortuna
fortune
fortuno
forum
forumo
forveturis
forvis
forvojag
fosaj
fosfato
fosfora
fosforo
fosilia
fosiliaj
fosilio
fosilioj
fosis
fosse
fossil
foster
fostoj
fotado
fotaj
fotaro
fotilo
fotis
fotisto
fotita
foto
fotografaj
fotografio
fotoj
fotojn
foton
fotosintezo
foucault
found
foundation
foundations
fountain
four
fourier
fourth
fox
fr
fra
frac
fradeko
frage
fragmento
fragmentoj
fragmentojn
fragrance
frakasis
frakcio
frakcioj
frakseno
framasona
framasonismo
framasono
franc
franca
francaj
francajn
francan
france
frances
francesca
francesco
franche
francia
francilio
francio
francion
francis
francisco
franciscus
franciska
franciskana
franciskano
franciskanoj
francisko
franciszek
franck
franclando
franclingva
franclingvaj
franclingve
franco
francoj
francolinus
francujo
frank
franka
frankfurt
frankfurta
frankfurter
frankfurto
frankisma
franklin
franko
frankoj
frankolino
frankonio
frans
frantis
franz
franzo
frapas
frapi
frapinstrumentaro
frapinstrumentisto
frapis
frapita
frapo
fraser
frata
frataro
frateco
fratino
fratinoj
fratinon
frato
fratoj
fratojn
fraton
frau
frauen
fraza
frazeologio
frazo
frazoj
frazojn
frazon
fre
fred
freddie
frederic
frederick
frederik
frederiko
free
freedom
freeman
fregato
frei
freiberg
freiburg
freie
freiheit
freiherr
freimut
freising
frekvenco
frekvencoj
frekventis
fremda
fremdaj
fremdajn
fremdan
fremdlingva
fremdulo
fremduloj
fremdwo
french
freneza
frenezaj
frenezig
frenezo
frenezulo
frente
fres
fresh
fresko
freskoj
freskojn
fresno
freud
freund
freunde
frey
freytag
frg
fri
friburga
friburgo
frick
frida
fried
frieden
friederike
friedman
friedrich
friend
friends
frigo
frigyes
fringedoj
fringo
fripono
frisa
frislando
fritz
friulo
fro
from
fromag
fromm
front
fronta
frontale
frontas
fronte
frontera
fronti
frontie
frontis
fronto
frontoj
fronton
frost
frostas
frostig
frosto
frotado
fru
frua
fruaj
fruajn
fruan
frue
fruit
fruits
fruktarboj
frukto
fruktodona
fruktog
fruktoj
fruktojn
frukton
frumatene
frunto
frunton
fry
ft
ftalata
ftalato
fu
fuchs
fue
fuego
fuente
fuentes
fug
fugo
fuj
fukuoka
fulda
full
fuller
fulmo
fumado
fumo
fun
funcio
function
functional
fund
fundacio
fundamenta
fundamentaj
fundamentajn
fundamentan
fundamente
fundamento
fundamentoj
fundamentojn
fundamenton
funde
fundo
funebra
funebraj
funebran
funebro
fungo
fungoj
funikularo
funk
funkcia
funkciado
funkciadon
funkciaj
funkcianta
funkciantaj
funkcias
funkcii
funkciigas
funkciigi
funkciigis
funkciis
funkcio
funkcioj
funkciojn
funkcion
funkciulo
funkciuloj
fuortaro
fuorto
furag
furfurila
furioza
furoraj
furoris
fus
fusilo
futbal
futbala
futbalaj
futbalas
futbalis
futbalisto
futbalklubo
futbalo
futbalon
futbalteamo
futoj
futura
future
futuro
fuzio
fɛɐ
g
ga
gaa
gabono
gabriel
gabriela
gabriele
gabriella
gabrielle
gabrielli
gabrielo
gaela
gaetano
gagarin
gai
gaillarde
gaius
gaj
gaja
gajaj
gaje
gajn
gajnante
gajnas
gajni
gajninto
gajnis
gajnita
gajno
gal
gala
galaksia
galaksio
galaksioj
galapagoj
galbraith
gale
galega
galegio
galeno
galerie
galerio
galerioj
galerion
gales
galicia
galicio
galilei
galilejo
galileo
gall
gallery
gallica
gallimard
gallo
gallus
galo
gama
gamas
gamba
gambio
gamboj
game
games
gamma
gamo
gamon
gan
ganao
gandhi
gang
gango
ganz
gap
gar
gara
garantias
garantii
garantiis
garantio
garbejo
garci
garcia
gard
garda
gardanto
gardas
garde
garden
gardens
gardi
gardis
gardistaro
gardisto
gardistoj
gardner
gardu
gare
gares
garibaldi
garland
garnier
garnizono
garolo
garonne
garrett
garten
gary
garzanti
gas
gasa
gaso
gasoj
gason
gaspar
gaspard
gastejo
gastejoj
gastiganta
gastiganto
gastigantoj
gastigas
gastigi
gastigis
gastis
gasto
gastoj
gastojn
gaston
gastono
gata
gate
gates
gatlasz
gau
gauche
gaulle
gauss
gautier
gavin
gay
gaz
gaza
gazda
gazdasa
gazeta
gazetara
gazetaro
gazeto
gazetoj
gazetojn
gazeton
gazette
gazetteer
gb
gdan
gdansko
gdr
gdynia
ge
gea
geaktoroj
geamikoj
geastronomoj
geavoj
geba
geben
geburtstag
geco
gedeon
gedichte
gedioj
geedza
geedzeco
geedzig
geedzoj
gefa
gefianc
gefiloj
gefilojn
gefratoj
gefratojn
gefu
gegen
gegenwart
gehen
geho
gehrels
geht
geisei
geist
gej
geja
gejaj
gejoj
gejunuloj
gek
geknaboj
gel
geld
gelernantoj
gelle
gelog
gelsenkirchen
gema
gemeinde
gemini
gemoj
gemu
gen
gender
gene
genealogia
genealogio
genera
generacio
generacioj
generado
general
generala
generalo
generaloj
generalon
generas
generation
generi
generis
generita
genes
genesis
genetic
genetics
genetika
genetikaj
genetike
genetiko
genevie
genezo
genia
genila
genio
genitiv
genitivo
geniulo
genius
geno
genocide
genocido
genoj
genova
genra
genraro
genro
genroj
genrojn
genron
gent
genta
gente
gento
gentoj
genuo
genuoj
genus
geo
geodss
geoffrey
geoffroy
geogra
geografia
geografiaj
geografiajn
geografian
geografie
geografio
geografion
geografo
geographic
geographical
geography
geologia
geologiaj
geological
geologie
geologio
geologo
geology
geometria
geometriaj
geometrio
geopedia
georg
george
georges
georgi
georgia
georgij
georgio
georgo
gepatra
gepatran
gepatroj
gepatrojn
ger
gera
gerade
gerais
gerald
geranila
gerard
gerardo
gerd
gerda
gereg
gergely
gerhard
gerilanoj
gerilo
germa
germain
germaine
german
germana
germanaj
germanajn
germanan
germandevena
germane
germania
germanio
germanion
germanlando
germanlingva
germanlingvaj
germanlingvan
germanlingvanoj
germanlingve
germanlingvio
germano
germanoj
germanojn
germanujo
germany
germplasm
gero
gerrit
gers
gert
gertrud
gertrude
gervais
ges
geschichte
geschichten
gesellschaft
gesinjoroj
gespra
gestapo
gesto
gestoj
gestudentoj
gesu
get
geto
getz
gewa
gh
gha
gheorghe
gheorgheni
gi
gia
giacomo
giai
gian
gianni
giant
gibbs
gibson
gibt
gica
gico
gießen
gifu
giganta
gigantaj
giganto
gigantoj
gil
gilbert
gilberto
gildo
giles
gilgames
gill
gilles
gillespie
gilmour
gimnastika
gimnastiko
gimnazia
gimnazio
gimnazioj
gimnaziojn
gimnazion
gina
ging
gio
gion
giordano
giorgio
giovanni
gipso
girl
girls
giro
girolamo
gironde
gis
gitaristo
gitaro
gitaroj
gitaron
giuliano
giulio
giuseppe
give
gizella
gjumri
gl
gla
glac
glacia
glaciaj
glaciepoko
glacihokeisto
glaciig
glacio
glando
glandoj
glano
glaruso
glasgovo
glasgow
glaso
glason
glass
glat
glata
glataj
glau
glavo
glavoj
glavon
gleich
gleichen
glen
glenn
gli
glich
gliese
glikolo
glise
glo
globa
global
globalspecies
globe
globo
globoj
globon
glora
gloria
gloro
gloron
glory
glosbe
gloso
glossary
glu
glukozo
glutamato
glutarato
gm
gmbh
gmelin
gmu
gn
gna
gnes
gnostikismo
gnu
go
gob
gobierno
god
goddard
godfredo
gods
goebbels
goes
goethe
goeto
gogh
gogol
goia
going
gojaso
gok
gold
goldberg
golden
goldman
golf
golfa
golfeto
golfo
golfon
goloj
golojn
gomes
gon
gonc
goncourt
gone
gong
gonza
gonzaga
gonzalo
good
goodman
google
gora
gorbac
gordon
gorg
gorkij
gos
gost
goston
got
gota
gotamo
gotao
gotardo
gotha
gotika
gotikaj
gotikan
gotiko
gotoj
gott
gottes
gottfried
gottlieb
gottlob
gould
gov
government
goya
gr
gra
grabowski
grace
gracia
graco
grad
grada
grade
gradig
grado
gradoj
gradojn
gradon
graf
grafa
grafejo
grafeo
grafika
grafikaj
grafikistino
grafikisto
grafiko
grafino
graflando
graflandoj
graflandon
grafo
grafoj
graham
grajno
grajnoj
grama
gramatika
gramatikaj
gramatikisto
gramatiko
gramatikon
grammar
grammatik
grammy
gramoj
gramojn
grampus
gran
granada
granado
grand
granda
grandaj
grandajn
grandan
grandas
grandbieno
grandduklando
grandduko
grande
grandeco
grandecon
grandega
grandegaj
grandegajn
grandegan
grandense
grandes
grandig
grandioza
grandkvante
grandmajstro
grando
grandoj
grandon
grandparte
grandpollando
grandprinclando
grands
grandskala
grandskale
grandurbo
grandurboj
grandvilag
granita
granito
grant
granville
grasa
grasaj
graso
grass
grasset
grau
grava
gravaj
gravajn
gravan
gravas
grave
graveco
gravecon
graveda
gravedeco
gravedig
gravega
graves
gravis
gravita
gravito
gravo
gravon
gravulo
gravuloj
gravuraj
gravuristo
gravurita
gray
graz
gre
great
greater
greatest
grebo
greco
gredos
greece
greek
green
greene
greenwich
greenwood
greg
gregor
gregoria
gregorio
gregory
greifswald
grejerco
grejso
grek
greka
grekaj
grekajn
grekan
greke
grekio
greko
grekoj
grekokatolika
grekujo
grenado
grenejo
greno
grenoble
grenoj
grenon
greta
grey
griffin
griffith
grigorij
grimm
grimpado
grimpas
grimpi
grimpis
grin
gripo
gris
griza
grizaj
grizajn
grizan
grizbruna
grizeca
grizono
gro
grodno
groeneveld
groningen
gronlanda
gronlando
gros
grosjean
gross
grosso
groto
grotoj
ground
group
groups
grouse
grove
growth
groß
große
großen
großer
großes
gru
gruber
grund
grunda
grundlagen
grundo
grundoj
grundon
gruo
gruoj
grupa
grupe
grupig
grupigas
grupigitaj
grupo
grupoj
grupojn
grupon
gruppe
gruyter
gs
gsburgo
gt
gu
gua
guadalajara
guadalupe
guarda
guardia
guardian
gubernia
guberniestro
gubernio
gubernioj
gue
guerra
guerre
guerrero
guevara
guez
gug
guglo
gui
guide
guidechem
guides
guido
guillaume
guillermo
guinea
guinness
guitar
gujano
gulago
gulf
gulivero
gulo
gumo
gun
gunma
gunnar
gunther
gupta
gura
guris
gurita
guro
guruo
gus
gusta
gustaf
gustav
gustave
gustavo
guste
gusteno
gustigagento
gusto
gustoj
guston
guszta
gut
gute
gutenberg
gutie
guto
guy
guzma
gvadalah
gvadelupo
gvardio
gvatemalo
gvida
gvidado
gvidadon
gvidaj
gvidanta
gvidantaro
gvidanto
gvidantoj
gvidantojn
gvidanton
gvidas
gvidata
gvidataj
gvidi
gvidilo
gvidis
gvidita
gviditaj
gvidlibro
gvido
gvineo
gy
gya
gyaloglo
gye
gyergyo
gyi
gymnasium
gyo
gyu
gyula
gyulafehe
gło
h
ha
haag
haar
haas
hab
habana
habe
haben
haber
habi
habilitig
habitat
habitato
habitatoj
habitatoperdo
habsburg
habsburga
habsburgo
habsburgoj
hac
hace
hacer
hachette
hacia
hackett
had
hadeso
hadriano
hag
hagen
hago
hahn
hai
haitia
haitio
hajdelbergo
hajderabado
hajdu
hajnal
hajo
hakilo
hal
hala
halberstadt
hale
haleakala
half
halka
hall
halle
haller
halo
haloj
hals
haltas
haltejo
haltejoj
halten
halti
haltigi
haltigis
haltigita
haltis
halto
haltu
ham
hamas
hamburg
hamburga
hamburgo
hamid
hamilton
hamlet
hamleto
hamm
hammer
hammond
hamps
hampshire
hampton
han
hana
hancock
hand
handbook
handbuch
handel
handikapuloj
hank
hankai
hankyu
hanna
hannah
hannes
hannover
hanns
hanoi
hanojo
hanovro
hans
hansa
hansen
hanshin
happy
har
hara
harald
hararo
hararon
harbor
harco
harcourt
hard
harding
hardy
hare
harghita
hari
harka
harlow
harmattan
harmonia
harmonie
harmonio
harmonion
haro
haroj
harojn
harold
harper
harpercollins
harpo
harriet
harris
harrison
harry
hart
hartmann
hartmut
harvard
harvey
harz
has
hasan
hassan
hast
hasta
hastings
hat
hata
hatte
hatten
hatvan
hau
hauptmann
haus
haut
haute
hautes
hauts
havaj
havaja
havajo
havano
havanta
havantaj
havante
havas
have
havebla
haveblaj
haveblas
havel
haven
havena
haveno
havenoj
havenojn
havenon
havenurbo
havi
havigas
havigi
havigis
havigita
havinta
havis
havli
havo
havos
havre
havu
havus
hawaii
hawk
hawkins
hay
hayden
haydn
hayes
haza
hazarda
hazardaj
hazarde
hazardo
hcl
hd
he
head
health
heart
heat
heath
heather
heaven
hebejo
hebrea
hebreaj
hebrean
hebree
hebreoj
hebrew
hector
heft
heg
hegedu
hegel
hegemonia
hegemonias
hegemonio
hegemonion
heide
heidegger
heidelberg
heidi
heights
heikkila
heilbronn
heiligen
heiligenstadt
heim
heimat
heine
heinrich
heinz
hej
hejdelbergo
hejma
hejmaj
hejmas
hejme
hejmen
hejmenveninta
hejmenvenis
hejmig
hejmlando
hejmo
hejmoj
hejmon
hejmpag
hejmregiono
hejmurbo
hejtado
heksanata
heksanato
heksila
hektaroj
hektarojn
hektoro
hel
hela
helaj
helan
helbruna
helbrunaj
held
hele
helen
helena
helenaj
helene
helenisma
helenisto
heleno
helga
helge
helgriza
helgrizaj
helikon
helikoptero
helikopteroj
helin
heliumo
hell
heller
helm
helmut
help
helpa
helpaj
helpanta
helpante
helpanto
helpantoj
helpas
helpata
helpe
helpi
helpilo
helpis
helpita
helplingvo
helpo
helpon
helpos
helpu
helsinki
helsinko
heltai
helveta
helyne
hemingway
hemisfero
hen
henares
henderson
hendrik
henning
henri
henriette
henrik
henriko
henrique
henry
henryk
hepato
hepburn
heptanata
heptanato
heptila
her
hera
heraklo
herald
herausgegeben
herb
herba
herbaj
herbejo
herbejoj
herbeno
herbert
herbie
herbo
herboj
herbojn
hercegovino
herder
here
hereda
heredaj
heredanto
heredantoj
heredis
heredo
heredon
heredonto
herezo
herezulo
heritage
herkulo
herkunft
herkunftswo
herman
hermann
hermes
hermeso
herna
hernando
herne
hero
heroa
heroaj
herodo
herodoto
heroes
heroino
heroldo
heroo
herooj
herr
herren
herrera
herrmann
herrn
herschel
herve
herz
herzberg
herzog
hes
hesio
hess
hesse
hessen
het
hetmano
heute
heves
hexe
heydrich
hez
heziodo
hezitis
hf
hg
hi
hibrida
hibridig
hibrido
hibridoj
hidalgo
hidrargo
hidratigo
hidrau
hidro
hidroelektra
hidrogena
hidrogenatomoj
hidrogeno
hidroksido
hidroksila
hidroksilaj
hidrokso
hidrolizo
hier
hierarkio
hierau
hieronimo
hieronymus
hig
higas
higashi
higeno
higgins
high
higher
higieno
hilaire
hilbert
hilda
hildburghausen
hildegard
hildesheim
hill
hills
him
himalaja
himalajo
himmel
himmler
himno
himnoj
himnon
hin
hind
hinda
hindaj
hindeu
hindia
hindiaj
hindio
hindoc
hindu
hindua
hinduaj
hinduismo
hindujo
hinduoj
hinter
hio
hiperbola
hiperkubo
hiperpluredro
hiperpluredroj
hipokrato
hipolito
hipono
hipoteza
hipotezo
hipotezoj
hipotezon
hippolyte
hiroki
hiros
hiroshi
hiroshima
hirsch
hirt
hirundo
his
hispana
hispanaj
hispanajn
hispanan
hispane
hispania
hispanio
hispanion
hispanlingva
hispanlingvaj
hispano
hispanoj
hispanujo
hist
histo
histoire
histoj
histori
historia
historiae
historiaj
historiajn
historian
historic
historical
historie
historiisto
historiistoj
historio
historiografio
historioj
historiojn
historion
historique
historische
historischen
history
hit
hitchcock
hitita
hitler
hitlero
hits
hiv
hivatal
hjogo
hk
hl
hlau
hle
hlen
hler
hlhausen
hlt
hluc
hlungen
hm
hms
hn
hne
ho
hobbes
hobojo
hoc
hoch
hochschule
hodiau
hodler
hodoni
hoepli
hof
hoffman
hoffmann
hofmann
hogan
hohe
hokajdo
hokuto
holanda
holando
hole
holger
holiday
holivudo
holland
hollo
hollyhock
hollywood
holmes
holocaust
holokau
holstein
holstinio
holt
holy
holz
hom
homa
homaj
homajn
homamaso
homan
homaranismo
homaro
homaron
hombre
home
homeco
homepage
homer
homero
homme
hommes
homo
homogena
homoj
homojn
homon
homrajta
hon
honda
honduro
honesta
honey
hong
hongkongo
honkongo
honolulu
honor
honora
honoraj
honoran
honoras
honore
honori
honorig
honorigita
honoris
honorita
honoro
honoroj
honorojn
honoron
hons
hont
honto
hood
hook
hooker
hoover
hope
hopkins
hor
hora
horace
horacio
horaro
hordeo
hordo
hore
horizontala
horizontalaj
horizontale
horizonte
horizonto
horlog
hormono
hormonoj
horn
horna
horne
horni
horo
horodo
horoj
horojn
horon
horora
hors
horse
horst
horthy
horva
hory
horzono
hos
hospital
hospitalo
hospitaloj
hospitalon
hosszu
host
hot
hotel
hotelo
hoteloj
hotelon
houghton
hour
house
houston
houten
how
howard
howe
howell
hoy
hoyo
hoz
hozza
hp
hr
hra
hradec
hradis
hranice
hren
hrend
hrer
hrsg
hrt
hrung
hrus
ht
htm
html
http
https
hu
hua
huang
hubbard
hubble
hubejo
huber
hubert
hudson
hue
huerta
hugh
hughes
hugo
hui
hull
human
humana
humanisma
humanismo
humanisto
humanistoj
humanitara
humano
humblot
humboldt
hume
humenne
humida
humidaj
humideco
humidejoj
humila
humoro
humphrey
humura
humuraj
humuristo
humuro
hund
hundo
hundoj
hundojn
hundon
hundred
hunedoara
hung
hungara
hungaraj
hungarajn
hungaran
hungardevena
hungare
hungaria
hungarian
hungariga
hungario
hungarion
hungarlando
hungarlingva
hungarlingvaj
hungarlingve
hungaro
hungaroj
hungarujo
hungarujon
hungary
hunoj
hunsru
hunt
hunter
hunyad
hunyadi
hus
husanoj
hussein
husza
hut
huta
hutton
huxley
huygens
hy
hyde
hz
i
ia
iafoje
iaj
iajn
ial
iam
iama
iamaj
iamajn
iaman
iamaniere
iame
iamverda
iamverdaj
ian
iana
iang
iar
ias
iata
iau
iauc
ib
iba
ibe
ibera
iberia
iberio
iberoj
ibge
ibis
ibiso
ibm
ibn
ibolya
ibrahim
ibraltaro
ibsen
ibutio
ic
ica
icao
ice
ich
ichov
ichovice
ichu
id
ida
idaho
idaro
idaron
ide
idea
ideala
idealo
idealoj
idealojn
idearo
ideas
ident
identa
identaj
identeco
identecon
identification
identig
identigas
identigi
identigis
identigita
identigitaj
identigo
identities
identity
ideo
ideoj
ideojn
ideologia
ideologiaj
ideologio
ideologioj
ideologion
ideon
idino
ido
idoj
idojn
idolo
idoloj
idon
ie
ieee
iei
iej
iel
iela
ielaj
ielan
ielarko
iele
ielenpreno
ieliro
ielo
ielon
ielpreno
ien
ies
ieyasu
if
ifa
ifef
ifigenio
ifju
ifoje
ig
iga
igado
igaj
igano
igante
igas
igataj
igazsa
igi
igis
igita
igitaj
iglesia
iglesias
ign
igna
ignacio
ignaco
ignacy
ignaz
ignoras
igo
igon
igor
igos
igu
ih
ihm
ihn
ihnen
ihr
ihre
ihren
ihrer
ii
iii
ij
ija
ijk
ijob
ik
ika
ikaga
ikago
ikau
ike
iki
ikio
iko
ikono
ikonoj
iks
ikso
iktero
iku
ikue
il
ila
ilaro
ildiko
ildo
ildoj
ildon
ile
ilei
ilera
ilex
ili
ilia
iliado
iliaj
iliajn
ilian
ilin
ilina
ilinojo
ilinojso
ilio
ilja
iljic
ill
ille
illinois
illustrated
ilm
ilmenau
ilo
iloj
ilojn
ilon
ilona
ils
ilustraj
ilustras
ilustris
ilustristo
ilustrita
iluzio
im
ima
imagas
image
images
imagi
imagis
imago
imagoj
imagon
imagu
imamo
imdb
imf
imitado
imitaj
imitas
imiti
imitis
immanuel
immer
imo
imoj
imon
imov
impact
imperative
imperativo
imperia
imperiaj
imperial
imperian
imperiestra
imperiestraj
imperiestrino
imperiestro
imperiestroj
imperiestron
imperiismo
imperio
imperioj
imperion
impeto
implicas
implications
implikas
implikig
implikita
implikitaj
impona
imponaj
imponan
importance
important
impossible
imposta
impostado
imposto
impostoj
impostojn
imposton
impresa
impresionismo
impresis
impreso
impresoj
impreson
improvizado
impulse
impulso
imre
in
ina
inaj
inajn
inan
inaro
inau
inc
incendio
incendioj
incidento
including
inda
indas
inde
indekso
independence
independent
index
indi
india
indian
indiana
indianaj
indianao
indianapolis
indianio
indiano
indianoj
indica
indico
indicoj
indiferenta
indig
indikante
indikas
indikata
indiki
indikilo
indikiloj
indikis
indikita
indikitaj
indiko
indikoj
indikojn
individua
individuaj
individuajn
individuan
individue
individuo
individuoj
individuojn
indo
indolo
indonesia
indonezia
indonezio
indre
indukto
induso
industri
industria
industriaj
industrial
industrian
industriarta
industrie
industriig
industriigo
industriisto
industrio
industrioj
industrion
industry
ine
inec
inegi
inejo
infana
infanag
infanaj
infaneco
infang
infano
infanoj
infanojn
infanon
infanteria
infanterio
infanto
infektaj
infektig
infektitaj
infekto
infektoj
infero
infinitivo
inflacio
inflamo
influa
influaj
influas
influata
influence
influi
influis
influita
influitaj
influo
influoj
influojn
influon
info
informa
informacio
informadiko
informado
informaj
informaro
informas
information
informationen
informationssystem
informi
informig
informilo
informis
informita
informkesto
informo
informoj
informojn
informon
infrarug
infrastrukturo
infrastrukturoj
infty
ing
inge
ingeborg
ingenra
ingis
ingo
ingredienco
ingrediencoj
ingredients
ingrid
ingtonio
ingtono
ingus
inia
iniciate
iniciatinto
iniciatis
iniciatita
iniciativo
iniciato
iniciatoj
inio
inion
initiative
inkaa
inkaoj
inklino
inklinon
inkludante
inkludas
inklude
inkludi
inkludis
inkludita
inkluditaj
inkluzivanta
inkluzivante
inkluzivas
inkluzive
inkluzivi
inkluzivis
inkluzivita
inko
inkvizicio
inn
inner
innovation
innsbruck
ino
inocento
inoj
inojn
inon
inorganic
inoue
ins
insee
insekto
insektoj
insektojn
insel
inside
insigno
insistas
insistis
inskij
inskipp
inspektisto
inspektoro
inspirig
inspiris
inspirita
inspiritaj
inspiro
inspiron
instagram
instalado
instalaj
instali
instalig
instalis
instalita
instalitaj
instalo
instanco
instancoj
instigas
instigi
instigis
instigita
instigo
instinkto
institucia
institucio
institucioj
instituciojn
institucion
institut
institute
institution
instituto
institutoj
instituton
instrua
instruado
instruadon
instruaj
instruan
instruas
instruata
instrui
instruis
instruista
instruistino
instruisto
instruistoj
instruistojn
instruiston
instruita
instruitaj
instrukcio
instrukcioj
instrumenta
instrumentaj
instrumento
instrumentoj
instrumentojn
instrumenton
instruo
instruoj
instruojn
instruon
insula
insulaj
insularo
insularon
insuleto
insuletoj
insulo
insuloj
insulojn
insulon
insurekcio
int
inta
intaj
intajn
intan
inte
integra
integralo
integrig
integrita
integritaj
intel
intelekta
intelektaj
intelekto
intelektularo
intelektulo
intelektuloj
inteligenta
inteligentaj
inteligenteco
inteligento
intellectual
intelligence
intenca
intencas
intence
intencis
intencita
intenco
intencoj
intencojn
intencon
intendanto
intensa
intensaj
intensan
intense
intenseco
inter
interaga
interagado
interago
interagoj
interalie
interesa
interesaj
interesajn
interesan
interesas
interese
interesig
interesis
interesita
intereso
interesoj
interesojn
intereson
interfaco
interior
interkomprenig
interkonatig
interkonsentis
interkonsentita
interkonsento
interkonsentoj
interkonsenton
interkrucig
interkultura
interlaken
interligas
interligitaj
interligo
interligon
interlingua
interlingvao
interlingvistiko
intermeza
intermilita
interna
internacia
internaciaj
internaciajn
internacian
internacie
internaciismo
internacio
internacional
internaj
internajn
internan
international
internationale
internationalen
interne
internen
internet
interno
internon
interparolado
interparolo
interparoloj
interplektig
interpretado
interpretas
interpretation
interpreti
interpretis
interpretisto
interpretistoj
interpretita
interpreto
interpretoj
interpreton
interreta
interretaj
interrete
interretejo
interreto
interrilato
interrilatoj
interrompi
interrompis
interrompita
interrompo
interrompoj
inters
intertempe
interurba
intervalo
intervaloj
intervenas
interveni
intervenis
interveno
intervenoj
intervenon
interview
intervjuo
intervjuoj
intesto
intima
intime
into
intoj
intojn
intrigo
intrigoj
introduction
inuitoj
inujo
inunditaj
inundo
inundoj
invadaj
invadi
invadis
invado
invadoj
invadon
inventaj
inventaro
inventinto
invention
inventis
inventisto
inventita
invento
inventoj
inversa
inverse
inverso
investado
investigaciones
investis
investoj
invitas
inviti
invitis
invitita
invititaj
invito
inviton
iny
io
ioj
iok
iom
ioma
ioman
iomang
iome
iomete
ion
ionia
iopova
ios
iovao
iowa
ip
ipa
ipac
ipaj
ipanaro
ipanoj
iparo
iparon
ipe
ipernity
ipestro
ipig
iplo
iploj
ipo
ipoj
ipojn
ipon
ir
ira
iradis
irado
iradon
irafo
iraka
irako
iran
irana
iranaj
iranian
irano
iranta
irante
iranymagyarorszag
iraq
iras
ire
irejo
ireland
irena
irene
ireneo
iri
irig
irigacio
irina
iris
irish
iriso
irisoj
irita
iritaj
irkau
irlanda
irlandaj
irlande
irlando
irma
irmi
irmilo
irmo
irmsch
iro
iroda
irodalmi
irodalom
iron
ironie
ironio
iros
iru
irving
irwin
is
isa
isaac
isaak
isabel
isabella
isabelle
isae
isbn
ische
ischen
isdatigita
ise
isidoro
isidro
iskola
isla
islam
islama
islamaj
islaman
islamanoj
islamic
islamo
islamon
island
islanda
islandanoj
islande
islando
islands
isle
isma
ismail
ismaj
ismo
ismorte
isnuna
iso
isola
isonzo
isorado
isorino
isoris
isorita
isoro
isoroj
israel
israela
israelaj
israeli
israelo
israelon
issn
issue
issues
ist
ista
istaj
istanbulo
istaro
isten
istiama
istino
istinoj
istituto
istmo
isto
istoj
istojn
iston
istva
iszdb
it
ita
itaj
itajn
ital
itala
italaj
italajn
italan
itale
italia
italian
italiana
italiani
italiano
italigita
italio
italion
itallingva
italo
italoj
italujo
italy
itan
ite
itekto
itekturo
ithaca
itinero
itineroj
itis
ito
its
iu
iucn
iuflanke
iufoje
iuj
iujara
iujaraj
iujaran
iujare
iujn
iukaze
iulia
iumonate
iun
iuokaze
iupac
ius
iusemajne
iusence
iuspecaj
iutaga
iutagaj
iutagan
iutage
iv
iva
ivan
ivano
ivanov
ivanovic
ivanovna
ivaro
ivo
iwata
ix
iz
izabela
izita
izo
izoamila
izobuterata
izobuterato
izobutila
izocianato
izoeu
izoftalato
izola
izolaj
izolita
izolitaj
izomeroj
izopropila
izotopo
izotopoj
izovalerata
izovalerato
izrael
izraelidoj
izraelo
izuoka
j
ja
jablonec
jacek
jack
jackie
jackson
jacob
jacobi
jacobs
jacobus
jacopo
jacqueline
jacques
jae
jagelona
jah
jahr
jahrbuch
jahre
jahren
jahrhundert
jahrhunderts
jaime
jak
jakab
jako
jakob
jakoba
jakobo
jakovlev
jakub
jalisco
jalo
jalto
jam
jama
jamagata
jamajka
jamajko
jamanas
james
jan
jana
jancso
jane
janeiro
janet
jang
jango
jangzio
janka
janko
jano
janos
jansen
janua
januar
januara
januare
januaro
january
janus
janusz
japan
japana
japanaj
japanan
japane
japanese
japania
japanio
japanion
japano
japanoj
japanujo
japonica
jar
jara
jarag
jaraj
jaran
jarcenta
jarcento
jarcentoj
jarcentojn
jarcenton
jardeko
jardekoj
jardekojn
jardekon
jardi
jardin
jare
jarig
jarkolekto
jarlibro
jarmilo
jarmiloj
jaro
jaroj
jarojn
jaromi
jaron
jaroslav
jarosław
jarulo
jaruloj
jas
jason
jau
jaume
java
javier
javo
jay
jazz
jc
je
jean
jeanne
jeder
jef
jeff
jefferson
jeffrey
jeh
jehovo
jehuda
jekaterinburg
jemand
jemandem
jemanden
jemeno
jen
jena
jenaj
jenajn
jenan
jenas
jene
jenkins
jennifer
jenny
jeno
jenon
jens
jensen
jeppe
jera
jeremia
jeremy
jerez
jero
jerome
jerry
jersey
jerusalem
jerusalema
jerusalemo
jerusalemon
jerzy
jes
jesaja
jeseni
jesse
jessica
jesu
jesuo
jesuon
jesus
jet
jetzt
jeu
jeune
jewish
jews
jezd
jezuita
jezuito
jezuitoj
jfalu
jg
jh
jhely
ji
jia
jic
jida
jihlava
jim
jime
jimmy
jin
jindr
jing
jio
jir
jis
jk
jm
jn
jo
joa
joachim
joakimo
joan
joanna
joaqui
joaquim
jodida
jodido
jodo
jodoacetato
joe
joel
jog
jogo
joh
johan
johana
johanesburgo
johanino
johann
johanna
johannes
johano
johanon
johansson
john
johnny
johns
johnson
johnston
joint
joj
jokohamo
jola
jon
jona
jonas
jonathan
jones
jong
jono
jonoj
jordan
jordanio
jordi
jorf
jorge
jorkio
jorko
jos
jose
josef
josep
joseph
joshua
josif
josip
josquin
josuo
jour
journ
journal
journey
jours
jov
jovice
joy
joyce
jozef
jozefo
jp
jpest
jpg
jpl
jr
js
jsa
jsessionid
jstor
jsza
jszaka
ju
jua
juan
juana
jubilea
jubileo
jud
juda
judaj
judajn
judan
judaso
judicial
judismo
judit
judith
judo
judoj
judojn
judujo
jug
jugend
jugo
jugoslava
jugoslavia
jugoslavianoj
jugoslavio
juha
jukatana
jukatano
jul
jules
juli
julia
julian
juliano
julie
julien
julieta
juliette
julio
julius
july
jump
jun
juna
junag
junaj
junajn
junan
junano
june
juneco
jung
junge
jungle
juni
junie
junio
junior
junipero
juno
junta
junto
junula
junulara
junularaj
junularan
junularo
junulino
junulinoj
junulinon
junulo
junuloj
junulojn
junulon
jupiter
jupitera
jupiteraj
jupitero
jupo
jura
juraj
jurajn
juran
jure
juri
jurij
jurisdikcia
jurisdikcio
jurisdikcion
juristo
juristoj
juro
juron
jus
juss
just
justa
justan
juste
justeco
justecon
justica
justice
justico
justin
justiniano
justo
justulo
justus
jutlando
jutuba
jutubo
juvelo
juveloj
juventus
jva
jyva
k
ka
kaba
kabalo
kabano
kabanoj
kabaredo
kabe
kabineto
kablando
kablo
kabloj
kabo
kabulo
kaburbo
kac
kacso
kaczyn
kadafi
kadavraj
kadavro
kadavroj
kadavrojn
kadavron
kadenco
kadizo
kadre
kadro
kadroj
kadron
kaduka
kadukig
kafejo
kafejoj
kafka
kafo
kafon
kag
kah
kahelaro
kahelaroj
kahn
kai
kaido
kairo
kaiser
kaiserslautern
kaj
kajero
kajeroj
kajo
kajoj
kakao
kal
kala
kalabrio
kalcia
kalcio
kaldrono
kaledonio
kalendaro
kalendaroj
kalendaron
kales
kaleza
kalgario
kalia
kalidro
kaliflando
kalifo
kalifornia
kalifornio
kaligrafio
kaliko
kaliningrado
kalio
kalipto
kalkato
kalko
kalkos
kalks
kalkulado
kalkulas
kalkulata
kalkulebla
kalkuli
kalkulig
kalkulis
kalkulita
kalkulitaj
kalkulo
kalkuloj
kalkulon
kalocsa
kalocsay
kaluga
kalva
kalvario
kalvinana
kalvinanoj
kalvino
kam
kama
kamarado
kamaradoj
kambog
kamc
kamelo
kameloj
kamen
kamenice
kameno
kameraisto
kamerao
kamero
kameruno
kamiono
kamionoj
kampa
kampadejo
kampanilo
kampanio
kampanjo
kampanjoj
kampanjon
kampara
kamparaj
kamparana
kamparanaj
kamparano
kamparanoj
kamparo
kampf
kampo
kampoj
kampojn
kampon
kampurbo
kampuso
kamus
kan
kana
kanabo
kanada
kanadaj
kanadan
kanado
kanagau
kanalo
kanaloj
kanalojn
kanalon
kanariaj
kanario
kanarioj
kanazawa
kanbirdo
kancelario
kanceliero
kancero
kandelo
kandeloj
kandid
kandidatig
kandidatis
kandidato
kandidatoj
kandidatojn
kandidaton
kane
kaneda
kanjono
kankro
kann
kano
kanona
kanonaj
kanoniko
kanono
kanonoj
kanonojn
kanopeo
kansai
kansas
kansaso
kansasurbo
kant
kanta
kantabra
kantabrio
kantadis
kantado
kantadon
kantaj
kantante
kantaro
kantas
kantata
kantato
kantatoj
kantau
kanti
kantis
kantistino
kantisto
kantistoj
kantita
kanto
kantoj
kantojn
kantokonkurso
kanton
kantona
kantonc
kantono
kantonoj
kantoro
kantu
kantvoc
kanzono
kanzonoj
kanzonojn
kaoso
kap
kapa
kapabla
kapablaj
kapablas
kapableco
kapablis
kapablo
kapabloj
kapablojn
kapablon
kapacito
kapdoloro
kapelestro
kapeleto
kapelmajstro
kapelo
kapeloj
kapelon
kapitalisma
kapitalismo
kapitalo
kapitalon
kapitano
kapitolo
kapitulacis
kapitulaco
kapitulo
kaplan
kapo
kapoj
kapojn
kapon
kaposva
kappa
kappel
kapro
kaproj
kapsulo
kapta
kaptado
kaptaj
kaptante
kaptas
kapti
kaptig
kaptilo
kaptis
kaptista
kaptisto
kaptistoj
kaptita
kaptitaj
kaptiteco
kaptito
kaptitoj
kaptiveco
kapto
kaptuledoj
kaptulo
kapuc
kapvorto
kapvortoj
kar
kara
karabah
karac
karaj
karakaso
karaktera
karakteraj
karakteriza
karakterizaj
karakterizan
karakterizas
karakterizata
karakterize
karakterizig
karakterizis
karakterizita
karakterizitaj
karakterizo
karakterizoj
karaktero
karakteroj
karakterojn
karakteron
karaktroj
karan
karavano
karbo
karbon
karbona
karbonan
karbonata
karbonato
karbonatomoj
karbono
karcero
kardelo
kardinala
kardinalo
kardinaloj
karel
karelio
karen
karesnomo
kariba
karibio
kariero
karieron
karikaturisto
karin
karintio
karistio
karitato
karl
karlo
karlovy
karlsruhe
karnavalo
karno
karnon
karoj
karol
karola
karolida
karolina
karolino
karolo
karpata
karpatoj
kars
kartago
karte
kartezio
karto
kartoc
kartografo
kartoj
kartojn
karton
kartvela
kartvelaj
kartvele
kartvelio
karvina
kas
kaselo
kashiwa
kasisto
kasko
kaso
kaspar
kaspia
kassa
kassel
kastela
kasteleto
kastelo
kasteloj
kastelon
kastilia
kastilio
kat
kata
katalin
katalizilo
katalog
katalogo
katalogon
kataluna
katalunaj
katalune
katalunio
katanio
katarina
katarino
kataro
katastra
katastraj
katastro
katastrofa
katastrofo
katastrofoj
kate
katedrala
katedralo
katedraloj
katedralon
katedrestro
katedro
katedron
kategorio
kategorioj
kategoriojn
kategorion
kateh
katekismo
katerina
katerino
katharina
katherine
kathleen
kati
katin
kato
katoj
katolika
katolikaj
katolikan
katolikismo
katoliko
katolikoj
katolikoso
katona
katowice
katz
kau
kaufmann
kaunas
kava
kavaj
kavalerio
kavalira
kavaliro
kavaliroj
kaverno
kavernoj
kavo
kavoj
kavon
kawasaki
kay
kaz
kaza
kazah
kazaj
kazan
kazana
kazano
kaze
kazerno
kazimierz
kazimiro
kazio
kazo
kazoj
kazojn
kazon
kazuro
kb
kbbi
kc
kcio
kcpg
kd
ke
kea
kebekia
kebekio
kebeko
kebudayaan
kec
kecskeme
kei
keihan
keikyu
keil
kein
keine
keinen
keith
kek
kel
kelemen
keleti
keli
kelka
kelkaj
kelkajn
kelkan
kelkcent
kelke
kelkfoje
kelkloke
keller
kelly
kelnero
kelo
keloj
kelta
keltaj
keltoj
kely
kelyudvarhely
kemal
kembrig
kemdikbud
keme
kementerian
kemia
kemiaj
kemiajn
kemian
kemie
kemiisto
kemiistoj
kemio
kemion
ken
kenja
kenji
kenjo
kennedy
kenneth
kenny
kent
kento
kentucky
kentukio
kenya
kepler
keplero
ker
kere
kereszte
keresztes
kermeso
kern
kerna
kernaj
kerno
kernoj
kernon
kerte
kes
kesfehe
kessler
kesto
keston
keszthely
ket
kevin
key
keynes
kezonurbo
kg
kgb
kh
kha
khan
ki
kia
kiado
kiaj
kiajn
kial
kialo
kialoj
kialojn
kialon
kiam
kiamaniere
kian
kiburgo
kic
kicsoda
kid
kie
kiel
kielce
kien
kierkegaard
kies
kieva
kievo
kih
kilikio
kilimang
kill
killed
kilo
kilogramo
kilogramoj
kilogramojn
kilometra
kilometro
kilometroj
kilometrojn
kilometron
kim
kimra
kimrio
kimrujo
kin
kina
kinarto
kind
kinder
kindheit
kineja
kinejaj
kinejo
kinejoj
king
kinga
kingdom
kings
kino
kins
kintetsu
kio
kiom
kion
kioto
kipro
kira
kirasita
kiraso
kirchberg
kirche
kirchen
kirchner
kirgizio
kirk
kirko
kirkoj
kirkon
kirurgia
kirurgio
kirurgo
kis
kisfaludy
kisis
kisko
kiskunhalas
kiso
kiss
kisva
kita
kitami
kito
kitt
kiu
kiuj
kiujn
kiun
kivio
kj
kk
kl
kla
klac
klado
klagenfurt
klaipe
klako
klano
klanoj
klara
klaraj
klaran
klaras
klare
klareco
klarig
klarigas
klarigi
klarigis
klarigita
klarigo
klarigoj
klarigojn
klarigon
klarneto
klas
klasa
klasado
klasc
klasifikado
klasifikita
klasifikitaj
klasifiko
klasifikon
klasigo
klasika
klasikaj
klasikajn
klasikan
klasikisma
klasikismo
klasita
klasitaj
klaso
klasoj
klasojn
klason
klatovy
klau
klaus
klavaro
klavaroj
klaviceno
klavo
klavoj
klein
kleine
kleinen
kleiner
kleist
klemento
kleopatra
klera
kleraj
klereco
kleriga
klerigado
klerigo
klerikaro
kleriko
klerikoj
klerismo
klerulo
kleruloj
klet
kleve
kli
klida
klido
kliento
klientoj
klifo
klifoj
klimata
klimataj
klimato
klimatoj
klimaton
klin
klinangulo
klineco
klingo
klinig
klinika
kliniko
klinis
klinita
klis
klo
klopodante
klopodas
klopodi
klopodis
klopodo
klopodoj
klopodojn
klopodon
klorida
klorido
kloridoj
kloro
kloroacetato
kloroformiato
kloroformo
klos
kloster
klostro
klu
kluba
klubejo
klubo
kluboj
klubon
kluj
kluzo
kluzoj
km
kn
knabeto
knabineto
knabino
knabinoj
knabinon
knabo
knaboj
knabon
kne
kni
knight
kno
knopf
know
knowledge
known
knox
ko
koalicio
koalicion
kobayashi
kobe
koblenz
koburgo
koc
koch
kocsis
koda
kodekso
kodnumero
kodo
kodoj
kodojn
kodon
koeficiento
koeficientoj
kofu
koh
kohera
kohl
koimbro
koincidas
koincidis
koincido
koiro
koj
kok
kokino
koko
kokoformaj
kokoj
kol
kola
kolapsis
kolapso
kolbaso
kolbe
kolc
kolegio
kolegioj
kolegion
kolego
kolegoj
kolektado
kolektaj
kolektanto
kolektas
kolekti
kolektig
kolektis
kolektita
kolektitaj
kolektiva
kolektivaj
kolektive
kolektivo
kolekto
kolektoj
kolektojn
kolekton
kolera
kolere
kolerig
kolero
koleron
kolh
kolimbo
kolizio
kolizioj
kolkato
kolker
kolo
koloj
kolombedoj
kolombia
kolombio
kolombo
kolomboj
kolon
kolonelo
kolonia
koloniado
koloniaj
kolonianoj
koloniigo
koloniismo
koloniistoj
kolonio
kolonioj
koloniojn
kolonion
kolonja
kolonjo
kolono
kolonoj
kolonojn
kolora
koloradio
kolorado
koloraj
kolorajn
koloro
koloroj
kolorojn
koloron
kolozs
kolozsva
kolumba
kolumbio
kolumbo
kolumno
kolumnoj
kolumo
kom
koma
komandanto
komandantoj
komandejo
komandis
komando
komandon
komandoro
komarka
komarko
komarkoj
kombinaj
kombinas
kombini
kombinig
kombinis
kombinita
kombinitaj
kombino
kombinoj
komedia
komediisto
komedio
komedioj
komedion
komenca
komencaj
komencan
komencanta
komencante
komencantoj
komencas
komence
komenci
komencig
komencis
komencita
komenco
komencoj
komencon
komencos
komencu
komenio
komentario
komentas
komentis
komento
komentoj
komentojn
komerca
komercado
komercaj
komercajn
komercan
komerce
komercisto
komercistoj
komerco
komercon
kometo
kometoj
kometojn
kometon
komforta
komforto
komika
komikisto
komiksoj
komisaro
komisiis
komisiita
komisiito
komisio
komision
komisiono
komisionoj
komisionon
komitatano
komitatanoj
komitato
komitatoj
komitaton
komlo
kommen
kommersant
kommission
kommt
komo
komoroj
komp
kompakta
kompanio
kompanioj
kompanion
kompara
komparas
komparata
komparativo
kompare
komparebla
kompari
komparis
komparita
komparo
komparu
kompatinda
kompato
kompaton
kompense
kompensi
kompenso
kompetenta
kompetentaj
kompetenteco
kompilado
kompilaj
kompilis
kompilita
kompilo
kompleksa
kompleksaj
kompleksajn
kompleksan
komplekseco
komplekso
kompleksoj
komplekson
komplemento
kompleta
kompletaj
kompletan
komplete
kompletig
kompletigas
kompletigi
kompletigis
kompletigita
kompletigo
komplika
komplikaj
komploto
komponado
komponaj
komponanto
komponantoj
komponas
komponi
komponig
komponis
komponistino
komponisto
komponistoj
komponita
komponitaj
kompono
komprenas
komprenata
komprenebla
kompreneblaj
kompreneble
kompreni
komprenig
komprenis
komprenita
kompreno
komprenon
komprenos
komprenu
kompromiso
komputado
komputiko
komputila
komputilaj
komputilo
komputiloj
komputilon
komputis
komuna
komunaj
komunajn
komunan
komune
komuneco
komunejo
komunika
komunikado
komunikadon
komunikaj
komunikas
komuniki
komunikig
komunikilo
komunikiloj
komunikis
komuniko
komunikoj
komunio
komunisma
komunismaj
komunismo
komunista
komunistaj
komunistan
komunisto
komunistoj
komunuma
komunumaj
komunuman
komunumaro
komunumaroj
komunumdatumoj
komunumo
komunumoj
komunumojn
komunumon
komunumoparto
komunumopartoj
komunumparto
kon
konas
konata
konataj
konatajn
konatan
konatas
konate
konatecon
konatig
konatigis
konc
koncedis
koncentrejo
koncentrejoj
koncentrig
koncentrita
konceptis
koncepto
konceptoj
konceptojn
koncepton
koncerna
koncernaj
koncernantaj
koncernas
koncerne
koncernis
koncerta
koncertejo
koncertis
koncerto
koncertoj
koncertojn
koncerton
koncertvojag
koncilio
koncilioj
koncilion
koncipig
konciza
koncize
kondamnas
kondamnis
kondamnita
kondamnitaj
kondamno
kondensig
kondic
kondratjev
kondukanta
kondukante
kondukas
konduki
kondukis
kondukita
kondukos
konduta
kondutas
konduti
kondutis
konduto
kondutoj
konduton
koneksa
konekso
konekta
konektas
konekti
konektig
konektikuto
konektita
konektitaj
konekto
konekton
konfederacio
konferenco
konferencoj
konferencon
konfesas
konfesi
konfesio
konfesioj
konfesis
konfeso
konfesoj
konfidis
konfido
konfidon
konfirmas
konfirmi
konfirmis
konfirmita
konfirmitaj
konfirmo
konfiskis
konflikto
konfliktoj
konfliktojn
konflikton
konforma
konformas
konforme
konformig
konfrontig
konfuceo
konfuza
konfuzi
konfuzig
konfuzita
konfuzo
konfuzon
konfuzu
kong
konga
kongo
kongregacio
kongresa
kongresanoj
kongresejo
kongreso
kongresoj
kongresojn
kongreson
kongrua
kongruaj
kongruas
kongrue
kongruo
koni
koniferaj
koniferaroj
koniferoj
konigi
konigis
konis
konita
konjekto
konjugacio
konjunkcio
konkeri
konkerinto
konkeris
konkerita
konkeritaj
konkero
konkeroj
konkeron
konkludas
konkludi
konkludis
konkludo
konkludoj
konkludojn
konko
konkoj
konkoly
konkorde
konkordo
konkreta
konkretaj
konkrete
konkurado
konkuranto
konkurantoj
konkuras
konkurencas
konkurencis
konkurenco
konkuri
konkuris
konkuro
konkurso
konkursoj
konkursojn
konkurson
konnte
kono
konoj
konojn
konon
konrad
konrado
konscia
konscias
konscie
konscienco
konsciig
konsciis
konscio
konscion
konsekris
konsekrita
konsekro
konsekvence
konsekvenco
konsekvencoj
konsekvencojn
konsentas
konsenti
konsentis
konsento
konsenton
konservada
konservado
konservadon
konservaj
konservante
konservas
konservata
konservataj
konservativa
konservativaj
konservativuloj
konservatorio
konservema
konservi
konservig
konservis
konservisma
konservita
konservitaj
konservo
konservu
konsiderante
konsideras
konsiderata
konsiderataj
konsideratas
konsideri
konsiderig
konsiderinda
konsiderindan
konsiderinde
konsiderinte
konsideris
konsiderita
konsideritaj
konsidero
konsideroj
konsideru
konsilantaro
konsilanto
konsilantoj
konsilas
konsiliano
konsilig
konsilio
konsilioj
konsilion
konsilis
konsilisto
konsilistoj
konsilo
konsiloj
konsilojn
konsilon
konsistanta
konsistantaj
konsistante
konsistas
konsisti
konsistigas
konsistigis
konsistis
konsisto
konsiston
konsolo
konsonanto
konsonantoj
konspira
konspiro
konstanca
konstanco
konstanta
konstantaj
konstantan
konstante
konstanteno
konstantin
konstantino
konstantinopolo
konstanto
konstatas
konstati
konstatis
konstatita
konstato
konstelacio
konstituas
konstitucia
konstituciaj
konstitucian
konstitucio
konstitucioj
konstitucion
konstituis
konstituita
konstru
konstrua
konstruado
konstruadon
konstruaj
konstruas
konstruata
konstruataj
konstrui
konstruig
konstruigis
konstruis
konstruisto
konstruistoj
konstruita
konstruitaj
konstruitan
konstruitis
konstrulaboroj
konstruo
konstruoj
konstruon
konsulejo
konsulo
konsuloj
konsulti
konsultita
konsumado
konsumantoj
konsumas
konsumo
kontag
kontakti
kontaktig
kontaktis
kontakto
kontaktoj
kontaktojn
kontakton
kontenta
kontentig
kontentiga
kontentigas
kontentigi
konteo
kontinenta
kontinentaj
kontinento
kontinentoj
kontinua
kontinuaj
kontinuan
kontinue
konto
kontoj
konton
kontrabaso
kontraktis
kontrakto
kontraktoj
kontrakton
kontrasta
kontrastas
kontraste
kontrasto
kontraston
kontrau
kontribuaj
kontribuanto
kontribuas
kontribui
kontribuinta
kontribuis
kontribuo
kontribuoj
kontribuojn
kontribuon
kontrolado
kontrolas
kontrolata
kontroli
kontrolis
kontrolita
kontrolitaj
kontrolo
kontrolon
konuso
konveksa
konveksaj
konvena
konvenaj
konvenan
konvenas
konvencia
konvencio
konvencioj
konvencion
konvene
konvento
konverg
konversacio
konversacioj
konversations
konvertado
konverti
konvertig
konvertis
konvertita
konverto
konvinki
konvinkig
konvinkis
konvinkita
konvinko
konvinkoj
konzerno
kooperativa
kooperativo
kooperativoj
koordinatoj
kopenhago
koperniko
kopf
kopii
kopiis
kopio
kopioj
kopiojn
kopion
kopirajto
kopta
kor
kora
korako
koran
korano
koratako
korbo
korda
kordinstrumento
kordinstrumentoj
kordo
kordobo
kordoj
kordojn
kordovo
kore
korea
koreaj
korean
koree
koreio
korekta
korekti
korektita
korektoj
koreografo
koresponda
korespondado
korespondaj
korespondanta
korespondanto
korespondas
korespondis
koridoro
koridoroj
korintanoj
korinto
korj
kormorano
kormoranoj
korne
kornico
korno
kornoj
kornvalo
koro
koroj
korojn
koron
korpa
korpaj
korpan
korpo
korpoj
korpojn
korpon
korporacio
korporacioj
korpuso
korsiko
korta
kortega
korteganoj
kortego
kortegon
korto
kortobirdoj
kortoj
korton
kortumo
kortus
korunk
koruptado
korupto
koruso
korvedoj
korvo
korvoj
kos
kosi
kosma
kosmaj
kosmetikaj
kosmo
kosmologio
kosmonau
kosmopramo
kosmos
kosmosondilo
kosmostacio
kosmoteleskopo
kosovo
kossuth
kosta
kostariko
kostas
kostis
kosto
kostoj
kostojn
koston
kostumo
kostumoj
kot
kota
kotapedia
kotavaa
kotavao
koto
kotono
koturno
kov
kova
kovac
kovado
kovas
kovataj
koverto
kovice
kovraj
kovranta
kovrante
kovras
kovrata
kovri
kovrilo
kovriloj
kovrilpag
kovris
kovrita
kovritaj
kovro
kowalska
koz
koza
kozakoj
kozma
kozyra
kp
kr
kra
krac
krado
kraft
kraj
krajono
krako
krakova
krakovo
kramer
krampoj
kranio
kras
krasso
kratero
krateroj
kraus
krause
kravar
kre
krea
kreado
kreadon
kreaj
kreante
kreanto
kreas
kreata
kredante
kredantoj
kredas
kredeble
kredi
kredis
kreditas
kredito
kredo
kredoj
kredojn
kredon
kredu
krei
kreig
kreinto
kreintoj
kreis
kreita
kreitaj
kreiva
kreko
kremlo
kremo
kremono
kreo
kreola
kreon
krepusko
kreskado
kreskaj
kreskanta
kreskantaj
kreskantan
kreskas
kreski
kreskig
kreskigi
kreskigis
kreskis
kresko
kreskon
kresta
kresto
krestomatio
kreston
kretaceo
kreto
kreu
kreuz
kreuznach
krias
krieg
kriis
krima
krime
krimea
krimeo
kriminala
krimo
krimoj
krimojn
krimon
krimulo
krimuloj
krio
krioj
kripto
kris
krista
kristala
kristalig
kristalo
kristaloj
kristana
kristanaj
kristanajn
kristanan
kristanig
kristanigo
kristanisma
kristanismo
kristanismon
kristano
kristanoj
kristanojn
kristiano
kristina
kristnaska
kristnaskaj
kristnasko
kristo
kristoforo
kriston
krisztia
kriterio
kriterioj
kriteriojn
kriterion
kritik
kritika
kritikaj
kritikan
kritikantoj
kritikas
kritikata
kritike
kritiki
kritikis
kritikisto
kritikistoj
kritikita
kritiko
kritikoj
kritikojn
kritikon
kriza
krizo
krizoj
krizon
kro
kroata
kroataj
kroate
kroatio
kroatoj
kroc
krokodilo
krokodiloj
krom
kroma
kromaj
kromajn
kroman
krome
kromenonila
kromnomata
kromnomita
kromnomo
kromnomon
kromosomo
kromosomoj
krona
kronado
kronenberger
kronig
kronika
kronikisto
kroniko
kronikoj
kronita
krono
kronoj
kronologia
kronologio
kronon
kronprinco
kronvirusa
kronviruso
kropotkin
kru
kruc
krucas
krucifikso
krucig
krucmilito
krucmilitoj
kruco
krucoj
krucon
kruda
krudaj
krude
krudmaterialoj
kruela
kruelaj
kruele
krueleco
krumlov
krupp
kruro
kruroj
krurojn
kruron
krusto
krustuloj
krustulojn
kruta
krutaj
krzysztof
krzyz
ks
ksia
ksie
kszereda
kt
kto
ktp
ku
kuala
kuba
kubaj
kubo
kuboj
kubrick
kuc
kug
kuglo
kugloj
kuhn
kuirado
kuirarto
kuirartoj
kuirejo
kuiri
kuiristo
kuirita
kuiritaj
kuirlibro
kujper
kuko
kukolo
kul
kulminas
kulminis
kulmino
kulminon
kulpa
kulpigis
kulpo
kulpon
kultado
kultivado
kultivaj
kultivaroj
kultivas
kultivata
kultivataj
kultivi
kultivis
kultivita
kultivitaj
kultivo
kultivoj
kulto
kulton
kultur
kultura
kulturaj
kulturajn
kulturan
kulturcentro
kulturdomo
kulture
kulturheredaj
kulturo
kulturoj
kulturojn
kulturon
kuma
kumamoto
kumar
kun
kuna
kunaj
kunau
kunc
kune
kunegond
kunfandig
kunfluas
kunfluejo
kunfluo
kunfondinto
kunfondis
kunhavas
kunhelpi
kunig
kuniganta
kunigas
kunigi
kunigis
kunigita
kunigitaj
kunigo
kuniklo
kunikloj
kunkreinto
kunlabora
kunlaborado
kunlaboradon
kunlaborantaj
kunlaborantino
kunlaboranto
kunlaborantoj
kunlaboras
kunlabore
kunlabori
kunlaboris
kunlaboro
kunlaboron
kunligas
kunligita
kunligitaj
kunligo
kunmalkovris
kunmang
kunmetaj
kunmetita
kunmetitaj
kunmeto
kunordiganto
kunordigas
kunordigi
kunordigis
kunordigo
kunportas
kunportis
kunpus
kunredaktoro
kunrei
kunsidis
kunsido
kunsidoj
kunst
kunstdenkma
kunteksto
kuntekstoj
kunth
kuntirig
kunulau
kunulino
kunulo
kunuloj
kunurba
kunvenas
kunvenejo
kunvenis
kunveno
kunvenoj
kunvenojn
kunvenon
kunverkis
kunvivado
kunvokis
kunvokita
kunzler
kupolo
kupoloj
kupra
kupraj
kupro
kur
kurac
kuraca
kuracado
kuracaj
kuracbanejo
kuracejo
kuraci
kuracilo
kuraciloj
kuracista
kuracistan
kuracistino
kuracisto
kuracistoj
kuraciston
kuracloko
kurado
kurag
kuranta
kuras
kuratoro
kurba
kurbaj
kurbig
kurbo
kurboj
kurda
kurdoj
kurejo
kurento
kurenton
kuri
kurier
kuriero
kurio
kurioza
kuriozaj
kuris
kuro
kurosawa
kurso
kursoj
kursojn
kurson
kurt
kurta
kurteno
kurtfilmo
kurz
kurzo
kus
kusel
kutima
kutimaj
kutimajn
kutiman
kutimaro
kutimas
kutime
kutimig
kutimis
kutimo
kutimoj
kutimojn
kutimon
kutna
kuvajto
kuzino
kuzo
kv
kva
kvadrata
kvadrataj
kvadratajn
kvadratan
kvadratkilometra
kvadratkilometroj
kvadrato
kvadratoj
kvalifikig
kvalita
kvalito
kvalitoj
kvalitojn
kvaliton
kvankam
kvanto
kvantoj
kvantojn
kvanton
kvantuma
kvar
kvara
kvaran
kvarco
kvardek
kvaredro
kvaredroj
kvarfoje
kvarjara
kvarono
kvaronoj
kvaronon
kvaropo
kvartalo
kvartaloj
kvartalojn
kvartalon
kvarteto
kvazau
kvenko
kverelo
kvereloj
kverkaroj
kverko
kverkoj
kvieta
kviete
kvin
kvina
kvinan
kvincent
kvinciferaj
kvindek
kvinfoje
kvinjara
kvinlatera
kvinopo
kvinslando
kvinto
kvociento
kw
ky
kyo
kyoto
kyu
l
la
lab
labem
labirinto
labor
labora
laborado
laboraj
laboranta
laborantaj
laborante
laboranto
laborantoj
laboras
laboratorio
laboratorioj
laboratorion
laboratory
laborejo
laborejoj
laborforto
laborgrupo
labori
laboris
laborista
laboristaj
laboristan
laboristaro
laboristo
laboristoj
laboristojn
laborkapabla
laborkondic
laboro
laboroj
laborojn
laboron
laboru
labour
lac
laca
lacerto
lacertoj
lach
lacig
lactuca
lada
laden
ladislao
ladislav
lado
lady
lafayette
laffont
lafo
lag
laga
lagaro
lage
lageto
lagetoj
lago
lagoj
lagojn
lagon
lagopo
lagos
lagoso
lagrange
laguna
laguno
lah
lahn
lai
laika
laikaj
laikoj
laj
lajos
lakatos
lake
lakeo
lako
lakta
laktaj
laktata
laktato
lakto
lakton
lam
lama
lamao
lambda
lambert
lampo
lampoj
lan
lana
lanas
lanc
lancaster
lancet
lanco
lancoj
land
landa
landaj
landajn
landan
landau
lande
landes
landkreis
landlima
landlimo
landlimoj
landlimojn
landlimon
lando
landoj
landojn
landokodo
landon
landoparto
landparto
lands
landscape
landschaft
landshut
landvojo
lane
lang
lange
langensalza
langle
lango
langon
language
languages
langue
langues
lanio
lanius
lano
lans
lanterno
lanti
lanugo
lao
laon
laoso
lap
lapenna
lapok
lar
lara
larg
large
largest
largo
lariko
larmoj
larmojn
larry
lars
larus
larvoj
las
lasante
lasas
lasi
lasis
lasita
laslo
lasos
lassen
last
lasta
lastaj
lastajn
lastan
lastatempa
lastatempaj
lastatempe
laste
lastfoje
lasu
laszta
lat
lata
late
lateinisch
later
latero
lateroj
laterza
latin
latina
latinaj
latinajn
latinamerika
latinamerikaj
latinameriko
latinan
latine
latinida
latinidaj
latinigita
latinisto
latinlingva
latinliterigite
latinliterigo
latino
latio
latitudo
latitudoj
latva
latve
latvia
latvijas
latvio
lau
lauenburg
laufen
laura
laurence
laurent
laurie
lausanne
laut
lauter
lavado
laval
lavey
lavi
law
lawrence
laws
laye
laz
lazare
lazaro
lazura
lc
lcea
ld
lder
ldes
ldi
ldots
ldrajzi
ldva
le
lea
lead
leader
league
leandro
lear
learning
leben
lebens
lec
lech
leciono
lecionoj
lecionojn
lecke
leclerc
lecture
lectures
led
leda
ledo
ledon
lee
lefebvre
left
leg
legacy
legado
legadon
legaj
legal
legante
leganto
legantoj
legantojn
legas
legata
legato
legebla
legeblaj
legeblas
legend
legenda
legende
legendo
legendoj
legendon
legi
legilo
legio
legioj
legion
legis
legita
lego
legomo
legomoj
legomojn
legrand
legu
legyha
leh
leha
lehmann
lehrbuch
lehre
lei
leibniz
leicester
leiden
leigh
leipzig
leipziger
lejdeno
lejzer
lek
lekciis
lekciisto
leksiko
leksikono
lektoro
lem
lemaire
lemano
lemmon
lemo
lemy
len
lena
lencburgo
lengua
lengyel
leni
lenin
leningrada
leningrado
lenino
lenka
lennon
leno
lens
lenso
lensoj
lenta
lenz
leo
leon
leona
leonard
leonardo
leone
leonhard
leonid
leono
leonoj
leonor
leopardo
leopold
leopoldina
leopoldo
leporo
lepsika
lepsiko
leq
ler
lera
lernado
lernadon
lernantino
lernanto
lernantoj
lernantojn
lernas
lerneja
lernejaj
lernejan
lernejanoj
lernejestro
lernejo
lernejoj
lernejojn
lernejon
lerni
lernis
lernojaro
lernolibro
lernolibroj
lernolibrojn
lernolibron
lernu
leroy
lerta
lertaj
lerte
lerteco
lertecon
les
leslie
lesoto
lessing
lessons
lestakov
lester
lesvigo
leszek
let
lete
letero
leteroj
leterojn
leteron
letrajzi
letras
letter
letters
lettre
lettres
letzte
letzten
leu
leur
lev
levante
levas
leve
level
levente
levi
levice
levidoj
levig
levin
levis
levita
levu
levy
lewis
lex
lexicon
lexikon
lexington
ley
lez
lf
lffy
lg
lgy
lheim
lhota
lhotka
li
lia
liaj
liajn
lian
liard
lib
libana
libano
libe
liber
libera
liberaj
liberajn
liberal
liberala
liberalaj
liberalismo
liberaluloj
liberan
liberation
libere
liberec
liberecana
liberecbatalo
libereco
liberecoj
liberecon
liberig
liberiga
liberigante
liberigas
liberigi
liberigis
liberigita
liberigitaj
liberigo
liberigon
liberio
libero
liberon
libertad
liberte
libertempo
liberty
libervola
libervole
libia
libio
libra
librairie
libraries
libraro
library
libre
librejo
libreto
libreton
libri
libro
libroeldonejo
libroj
librojn
libron
libros
libroservo
librovendejo
lic
lica
lice
licenco
licencon
liceo
lich
licht
lichtenberg
lidia
lido
lidoj
lie
liebe
liebig
lied
lieder
lieg
liegt
lietuvos
life
lifto
lig
liga
liganta
ligas
ligata
lige
light
ligi
ligig
ligilo
ligiloj
ligilojn
ligilon
ligis
ligita
ligitaj
ligitajn
ligitan
ligna
lignaj
lignajn
lignan
ligne
ligno
lignon
ligo
ligoj
ligojn
ligon
ligurio
lih
lik
lika
like
likva
likvaj
likvidis
likvido
likvo
lila
lili
lilio
liliomfi
lille
lilli
lillo
lim
lima
limaj
limas
limburg
limburgo
lime
limig
limigas
limigi
limigis
limigita
limigitaj
limigitan
limigo
limigoj
limigojn
limited
limits
limo
limog
limoges
limoj
limojn
limon
limpasejo
lin
lina
linalila
lincoln
linda
lindau
linde
linden
lindl
line
linear
lineara
linearaj
lineo
lines
lingua
linguistic
linguistica
linguistics
lingva
lingvaj
lingvajn
lingvan
lingvaro
lingve
lingvistika
lingvistiko
lingvisto
lingvistoj
lingvo
lingvoj
lingvojn
lingvon
lingvoscienco
lingvouzo
linia
linio
linioj
liniojn
linion
link
linko
links
linn
linnaeus
linne
lino
linoj
linon
lins
lint
linukso
linux
linz
lio
lion
lionel
liono
lipo
lipoj
lipojn
lipova
lippe
liptovsky
lirika
lirikaj
liriko
liro
lis
lisa
lisboa
lisbono
lise
list
lista
liste
listig
listigas
listigis
listigita
listigitaj
listita
listo
listoj
liston
liszt
lit
litera
literary
literatur
literatura
literaturaj
literaturajn
literaturan
literature
literaturhistoriisto
literaturisto
literaturo
literaturoj
literaturon
litere
literkombino
litero
literoj
literojn
literon
literumado
literumita
litia
litio
lito
litoj
litome
litomys
liton
litoral
litova
litovaj
litove
litovio
litovoj
litro
litroj
litte
little
liturgia
liturgiaj
liturgio
liu
live
liverado
liveras
liveri
liveris
liverita
liverpool
lives
living
livio
livonia
livonio
livre
lix
lj
ljubljana
ljudmila
lk
lka
lkk
lku
ll
lla
llami
llano
llanos
llar
lle
llen
ller
lli
llig
lln
llo
llobregat
lloyd
llt
lm
lma
ln
lni
lo
lobo
loc
local
locarno
loch
locke
lockheed
locuint
lode
lodge
lodi
lodzo
log
logan
logaritmo
logatott
logic
logika
logikaj
logike
logiko
logo
logos
logronjo
loi
loir
loire
loiret
lois
loj
lojala
lok
loka
lokaj
lokajn
lokan
lokanoj
lokas
lokata
loke
lokhistoriisto
loki
lokig
lokigas
lokigis
lokigita
lokigitaj
lokigo
lokis
lokita
lokitaj
loknomo
loknomoj
loknomvortaro
loko
lokoj
lokojn
lokomotivo
lokomotivoj
lokon
loksidig
loktrova
lokuloj
lola
lom
lombarda
lombardio
lon
london
londona
londono
londonon
londres
lonely
loneos
long
longa
longaj
longajn
longan
longas
longatempe
longbeka
longdau
longdistanca
longdistancaj
longe
longeco
longecon
longedau
longitudo
longman
longo
longoj
longon
longrightarrow
longtempa
longtempe
longvosta
lons
look
looking
lookup
lope
lopes
lopez
lora
lorca
lord
lordo
loreno
lorenz
lorenzo
lori
los
losila
losilaj
losilnumero
losilo
losiloj
losilon
lost
lot
lothar
lotus
lou
louc
louis
louise
louisiana
louny
loup
lourdes
love
loveno
low
lowe
lowell
lower
loze
lp
lr
ls
lt
lta
ltala
ltd
lte
lten
ltnis
lto
lu
lua
luarlandoj
luaro
lublin
luc
luca
lucas
luce
lucerno
luci
lucia
luciano
lucie
lucien
lucio
lucius
lucky
lucy
ludado
ludadon
ludanta
ludante
ludanto
ludantoj
ludas
ludata
ludataj
ludejo
ludi
ludilo
ludiloj
ludis
ludisto
ludita
ludmila
ludo
ludoj
ludojn
ludon
ludoviko
ludu
ludwig
ludwigslust
ludwik
lueblaj
luft
luftwaffe
lugano
lugo
lugoj
lui
luigi
luis
luisa
luise
luiso
luiz
luiza
luiziano
lujza
luka
lukas
luke
luko
luksa
luksaj
luksemburga
luksemburgio
luksemburgo
luktado
luktas
lukti
luktis
lukto
luktoj
lukton
lulilo
lulu
lum
luma
lumaj
lumie
lumis
lumo
lumoj
lumon
lumturo
lun
luna
lunaj
lunar
lund
lunde
lundo
lune
luno
lunoj
lunon
lupeno
lupo
lupoj
lupus
lupuso
lure
lus
lust
lutera
luterana
luteranoj
lutermano
lutero
luther
lutz
luvro
lux
luxemburg
luz
luzacia
luzacio
luzono
lv
lvarez
lvaro
lveda
lviva
lvivo
lvovo
lwaʁ
lwo
ly
lya
lydia
lyi
lynch
lynn
lyno
lynx
lyom
lyon
m
ma
mac
macdonald
mach
machado
machen
machine
macht
maciej
mackenzie
macmillan
macron
mad
mada
madagaskara
madagaskaro
madame
made
madejro
madeleine
madge
madison
madonna
madono
madre
madrid
madrida
madrido
mae
maestro
mafio
mag
maga
magalha
magazeno
magazin
magazine
magazino
magda
magdalena
magdeburg
maggiore
magia
magiaj
magian
magic
magiisto
magio
magistrato
magistrig
magistro
magmo
magna
magnato
magneta
magnetaj
magnetan
magnetismo
magnezia
magnezio
magnitudo
magnus
magyar
magyaro
magyarorsza
mah
maha
mahabarato
maharas
mahler
mahmud
mai
maia
maier
maigret
mail
main
maine
mainz
mais
maison
maistre
maizo
maj
maja
majaa
majaaj
majaoj
maje
majenco
majesta
majno
majo
major
majora
majoritato
majorko
majoro
majstra
majstro
majstroj
majstroverko
majuskla
majusklo
makao
makbeto
make
makedona
makedonio
making
makiso
mako
maks
maksim
maksimiliano
maksimo
maksimuma
maksimuman
maksimume
maksimumo
makulo
makuloj
makulojn
makulon
makzelo
mal
mala
malabunda
malago
malagrabla
malagrablaj
malaja
malajzia
malajzio
malakceptas
malakceptis
malakceptita
malakcepto
malalt
malalta
malaltaj
malaltajn
malaltan
malalte
malaltebenaj
malaltig
malaltigi
malamas
malamika
malamikaj
malamikeco
malamiko
malamikoj
malamikojn
malamikon
malamis
malamo
malamon
malantau
malaperas
malaperi
malaperinta
malaperintaj
malaperis
malapero
malaperos
malaprobis
malaria
malario
malavantag
malavio
malbela
malbenita
malbeno
malbona
malbonaj
malbonajn
malbonan
malbone
malbonig
malbono
malbonon
malbork
malborko
malc
malcolm
maldau
maldekstra
maldekstraj
maldekstran
maldekstre
maldekstren
maldekstro
maldekstruloj
maldensa
maldense
maldika
maldikaj
maldivoj
maldolc
maldungita
male
malebenaj
malebligas
malebligi
malebligis
malegaleco
malespero
malfacila
malfacilaj
malfacilan
malfacilas
malfacile
malfacileco
malfaciligas
malfavora
malfavoraj
malfelic
malferma
malfermaj
malfermajn
malferman
malfermas
malferme
malfermi
malfermig
malfermis
malfermita
malfermitaj
malfermitan
malfermo
malfermon
malfermu
malfinia
malfondig
malfondis
malfondita
malfondo
malforta
malfortaj
malfortan
malforte
malforteco
malfortig
malfrua
malfruaj
malfrue
malfrugotika
malfruig
malg
malgaja
malgrand
malgranda
malgrandaj
malgrandajn
malgrandan
malgrandig
malgrau
malgrava
malgravaj
malhavas
malhela
malhelaj
malhelajn
malhelan
malhelbruna
malhelbrunaj
malhele
malhelgriza
malhelgrizaj
malhelpas
malhelpi
malhelpis
malhelpo
mali
malica
malik
malio
maljuna
maljunaj
maljunan
maljuneco
maljunig
maljunulino
maljunulo
maljunuloj
maljusta
maljustaj
maljusteco
malkapablo
malkas
malkiel
malklara
malkomponig
malkonsentis
malkonsento
malkonstruis
malkonstruita
malkonstruitis
malkonstruo
malkontenta
malkontento
malkovras
malkovri
malkovrig
malkovrinto
malkovrintoj
malkovris
malkovrita
malkovritaj
malkovro
malkovroj
malkovron
malkreskas
malkreskis
malkresko
malkurag
malkutima
mallarg
mallau
mallevig
malliberejo
malliberejoj
malliberejon
malliberigis
malliberigita
malliberigitaj
malliberigitoj
malliberigo
mallibero
malliberulo
malliberuloj
malliberulojn
mallonga
mallongaj
mallongajn
mallongan
mallongdau
mallonge
mallongigita
mallongigite
mallongigo
mallongigoj
mallongtempe
malluma
mallumaj
mallumo
malmo
malmola
malmolaj
malmulta
malmultaj
malmultajn
malmultan
malmulte
malmultekosta
malmultekostaj
malmulto
malmulton
malneta
malnov
malnova
malnovaj
malnovajn
malnovaltgermana
malnovan
malnovgreka
malnovig
malo
malobeo
malofta
maloftaj
maloftas
malofte
malordo
malpaco
malpermesas
malpermesata
malpermesi
malpermesis
malpermesita
malpermesitaj
malpermesite
malpermeso
malpermeson
malpeza
malpezaj
malplac
malplej
malplena
malplenaj
malpli
malpligrandig
malpliig
malpliigas
malpliigi
malpliigis
malpliigo
malplimulto
malplimultoj
malprofunda
malproksima
malproksimaj
malproksime
malproksimen
malproksimig
malpura
malpuraj
malrapida
malrapidaj
malrapide
malric
mals
malsag
malsama
malsamaj
malsamajn
malsaman
malsamas
malsame
malsameco
malsana
malsanaj
malsanig
malsano
malsanoj
malsanojn
malsanon
malsanulejo
malsanulejoj
malsanulo
malsanuloj
malsanulojn
malsata
malsatego
malsato
malseka
malsekaj
malsimetria
malsimila
malsimilaj
malsimile
malsovag
malstabila
malstabilaj
malstrec
malsufic
malsukcesa
malsukcesaj
malsukcesas
malsukcese
malsukcesis
malsukceso
malsupera
malsupra
malsupraj
malsupran
malsupre
malsupren
malsupreniras
malsupreniris
malsupro
malta
maltau
malto
maltrankvila
maltrankvilig
malvarma
malvarmaj
malvarman
malvarme
malvarmig
malvarmo
malvasta
malvenkis
malvenko
malvenkon
malvera
malviva
maly
mama
mammals
mamoj
mamulo
mamuloj
mamulojn
man
mana
manag
management
manc
mancha
manche
manchester
mandato
mandaton
mandela
mane
manekeno
manfred
mang
manga
mangana
mangano
mangao
mango
mangrovoj
manhatano
manhattan
maniero
manieroj
manierojn
manieron
manifestaciantoj
manifestacio
manifestacioj
manifestation
manifestig
manifesto
manifeston
manika
manilo
manipulado
manitobo
mankas
mankis
manko
mankoj
mankon
manlibro
mann
mannheim
mano
manoj
manojn
manon
manos
manpilkado
manrique
mans
mansfeld
manskribaj
mantelo
mantelon
manu
manual
manuel
manufakturo
manuskripto
manuskriptoj
manuskriptojn
manuskripton
many
mao
maoria
map
mapa
mapo
mapoj
mapojn
mapon
maps
mar
mara
maraglo
marais
maraj
marakvo
maramures
maran
mararmea
mararmeo
maratono
marbach
marbirdo
marbirdoj
marborda
marbordaj
marbordo
marbordoj
marbordon
marburg
marc
marcel
marcello
marcelo
march
marche
marco
marcos
marcus
marde
mardo
mare
marek
marfluo
marg
margaret
margareta
margarita
margit
margot
margrafo
marguerite
mari
maria
marian
mariana
marianna
marianne
mariano
marianoj
marie
marija
marilando
marilyn
marin
marina
marine
marino
marinos
mario
marion
marista
maristo
maristoj
maritime
maritimes
marius
mariusz
marja
marjorie
mark
markas
markata
markataj
market
marki
markio
markis
markita
markitaj
markizino
markizo
marko
markoj
markojn
markolo
markon
marks
marksisma
marksismo
markso
markt
markus
marlene
marmora
marmoro
marne
marnivelo
maro
maroj
maroka
maroko
maron
maros
marosva
marque
marques
marriage
mars
marsa
marsan
marseille
marsejlo
marsh
marshall
marso
marsrenkonta
marston
mart
marta
marte
martelo
marten
marteno
martha
marti
martial
martie
martigny
martin
martina
martinez
martini
martiniko
martino
martins
martiro
martiroj
marto
marton
marty
marvin
marx
mary
maryland
mas
masa
masac
masag
masakris
masakro
masakroj
masao
masaryk
masi
masiva
masivo
maskla
masklaj
masklo
maskloj
masko
maskoj
maso
masoj
mason
masonaj
masonistoj
masonita
mass
massa
massachusetts
massimo
masson
master
masters
masto
mastrino
mastro
mastroj
mastruma
mastrumado
mat
mata
matc
mate
matematika
matematikaj
matematikajn
matematikan
matematike
matematikisto
matematikistoj
matematiko
matematikon
matena
matene
matenig
matenmang
mateno
matenon
mateo
mater
materia
materiaj
material
materiala
materialo
materialoj
materialojn
materialon
materials
materiismo
materio
materioj
math
mathbb
mathbf
mathcal
mathematical
mathematics
mathfrak
mathias
mathieu
mathilde
mathrm
mathsf
mathworld
matiaso
matilda
matildo
matisse
mato
matrica
matrico
matricoj
matrix
matsumoto
matt
matteo
matter
mattha
matthew
matthias
matura
maturaj
matureco
maturig
mau
maubeuge
maui
mauna
maura
maurice
mauricio
maurizio
mauro
mauthausen
max
maxim
maximilian
maximus
maxwell
may
maya
mayen
mayenne
mayer
maynard
mayo
mayor
mayr
maziero
mazovio
mb
mbox
mc
mccarthy
mccartney
mccoy
mcd
mcdonald
mcfarland
mcg
mcgraw
mcnaught
md
me
mea
mead
mean
meaning
means
meblaro
meblo
mebloj
meblojn
mec
mecenato
mechanics
mecklenburg
med
medal
medalo
medaloj
medalojn
medalon
medaltabelo
medelli
media
mediaj
medic
medica
medical
medici
medicina
medicinaj
medicinajn
medicinal
medicinan
medicine
medicinisto
medicino
medicinon
medieval
medikamento
medikamentoj
medina
medino
medio
medioj
medion
meditado
mediteranea
mediteraneaj
mediteraneo
mediterranean
medizin
meer
meet
meeting
meg
mega
megero
meh
mehr
mei
meier
mein
meine
meinen
meiner
meiningen
meist
meister
meißen
mejlo
mejloj
mejlojn
mejlos
mejor
mek
mekanika
mekanikaj
mekaniko
mekanismo
mekanismoj
mekko
meklenburga
meklenburgo
meksika
meksikaj
meksikio
meksiko
meksikurbo
mel
melanktono
melbourne
melburno
melchior
meleagro
melinda
melissa
mello
melnikov
melo
melodia
melodio
melodioj
melodiojn
melodion
mem
members
membiografio
membraj
membrano
membraro
membras
membreco
membrecon
membrig
membrino
membris
membro
membroj
membrojn
membron
membros
memkompreneble
memmortigis
memmortigo
memo
memoirs
memor
memoraj
memoras
memore
memorejo
memori
memoria
memorial
memoriam
memoriga
memorigaj
memorigas
memorigi
memorigis
memorindaj
memoris
memoro
memoroj
memoron
memors
memortabulo
memortago
memoru
memory
memphis
memportreto
memstara
memstaraj
memstaran
memstare
memstarig
men
mencias
menciata
mencii
menciig
menciinda
menciindaj
menciindas
menciis
menciita
menciitaj
menciitis
mencio
mencioj
mencion
mende
mendelssohn
mendes
mendi
mendis
mendo
mendoj
mendoza
mene
menos
mens
mensa
mensaj
mensan
mensch
menschen
mense
menso
mensogo
menson
ment
mental
mentila
mento
mentoj
mentojn
menton
mentono
mentorino
mentoris
mentoro
menuo
mep
mer
mercedes
mercia
merck
mercury
merg
meridiano
meritas
meritis
merito
meritoj
meritojn
merkata
merkato
merkatoj
merkaton
merkel
merkrede
merkredo
merkuro
merlin
merlo
merr
merriam
merseburg
mes
mesa
mesag
mese
mesino
mesio
mesnil
meso
mesoj
mesojn
meson
messe
messier
messina
mesto
met
meta
metabolo
metafizika
metafiziko
metaforo
metakrilato
metal
metala
metalaj
metalo
metaloj
metalroko
metalurgio
metamorfozoj
metano
metanolo
metante
metas
meteologia
meteologio
meteoroj
meteors
meth
method
methods
meti
metia
metiejo
metiisto
metiistoj
metil
metila
metio
metioj
metion
metis
metita
metitaj
metodo
metodoj
metodojn
metodon
metoksila
metos
metra
metriko
metro
metroa
metroj
metrojn
metrolinio
metron
metroo
metropola
metropolita
metropolitan
metropolitana
metropolito
metropolo
metrostacio
metrostacioj
metu
metz
metzger
metzler
meurthe
meuse
mevo
mevoj
mexicana
mexico
mey
meyer
meyers
mez
meza
mezaj
mezalta
mezaltgermana
mezameriko
mezan
mezaverag
mezbohemia
meze
mezepoka
mezepokaj
mezepokan
mezepoko
mezeu
mezgranda
mezgrandaj
mezlando
mezlerneja
mezlernejo
mezlernejoj
mezlernejojn
mezlernejon
mezmontaro
meznombro
mezo
mezopotamio
mezoregiono
mezoregionoj
mezoriento
mezumo
mezurado
mezuras
mezurata
mezurebla
mezuri
mezurilo
mezuris
mezurita
mezuro
mezuroj
mezurojn
mezuron
mezurunuo
mezurunuoj
mezvarmaj
mf
mg
mh
mhz
mi
mia
miadzin
miai
miaj
miajn
miami
mian
miasta
miasto
mic
mica
mich
michael
michal
michalovce
michał
miche
michel
michelangelo
michele
michelle
michigan
mickey
mickiewicz
microsoft
mid
middle
midi
midnight
mie
mieczysław
mielo
mieno
mientras
miercurea
mies
mifflin
migdalarboj
migra
migrado
migradoj
migradon
migranta
migrantaj
migranto
migrantoj
migras
migration
migratory
migris
miguel
mih
miha
mihai
mikaelo
mike
mikelang
mikena
miklo
miklos
miko
mikola
mikrobiologio
mikronezio
mikroorganismoj
mikroregiono
mikroregionoj
mikroskopo
miksa
miksado
miksaj
miksas
miksi
miksig
miksita
miksitaj
mikso
miksu
mikula
mil
mila
milan
milana
milano
milda
mildaj
mildan
milde
mildigi
mile
miles
miliardo
miliardoj
miliardojn
milico
milimetroj
miliono
milionoj
milionojn
milionon
milionurboj
milit
milita
militado
militaj
militajn
militan
military
milite
militestro
militfortoj
militi
militiro
militis
militista
militistaj
militistan
militistaro
militisto
militistoj
militistojn
militkaptito
militkaptitoj
militkrimoj
milito
militoj
militojn
militon
milits
militservis
militservo
milk
mill
milla
mille
millennium
miller
million
mills
milo
miloj
milojn
milos
milton
milvo
mimi
min
mina
minacas
minacata
minacataj
minacis
minaco
minacoj
minacon
minado
minami
minareto
minas
mind
mindanao
minden
mine
mineja
minejo
minejoj
mineral
minerala
mineralaj
mineralo
mineralogio
mineralogo
mineraloj
minerva
mines
minesoto
ming
mingus
minh
mini
minimuma
minimumaj
minimuman
minimume
minimumo
minis
minista
minister
ministeria
ministerio
ministerioj
ministoj
ministraro
ministrejo
ministro
ministroj
ministron
ministry
minkowski
minnaja
minnesota
mino
minoj
minoo
minor
minora
minoraj
minoritata
minoritataj
minoritato
minoritatoj
minoro
minsko
mint
minus
minuskla
minuskle
minuta
minutes
minuto
minutoj
minutojn
mio
mioceno
mir
mira
miraj
mirakla
miraklo
mirakloj
miranda
miras
mire
mireille
miri
mirinda
mirindaj
mirindan
mirinde
miris
miristila
miro
miroslav
mirror
mirza
mis
mischen
mise
misia
misiisto
misiistoj
misiloj
misio
misioj
misiojn
mision
misisipio
misisipo
miskolc
miskompreno
miskomprenu
mismo
miss
missa
mission
mississippi
missouri
mistera
misteraj
mistero
misteroj
mistika
mistikismo
mistikulo
misurio
misuzo
mit
mita
mitaj
mitchell
mito
mitochondrial
mitoj
mitologia
mitologiaj
mitologio
mitte
mitteilungen
mittelalter
mittelhochdeutsch
mitterrand
mizera
mizero
mizeron
mj
mk
mky
ml
mlada
mln
mly
mm
mme
mn
mo
mobile
mobilizo
moc
mod
moda
mode
model
modela
modelo
modeloj
modelojn
modelon
models
modena
modeno
modera
moderaj
modere
moderklimataj
modern
moderna
modernaj
modernajn
modernan
moderne
modernigo
modernisma
modernismo
modesta
modeste
modifi
modifis
modifita
modifitaj
modifo
modifoj
modo
modra
module
modulo
moe
moers
mogola
moha
mohamed
mohamedo
mohammad
mohammed
moi
moid
moire
moires
moj
mojo
mokis
mol
mola
molaj
molbase
moldava
moldavio
mole
molecular
molekula
molekulaj
molekulo
molekuloj
molie
molina
moll
molna
molotov
moltke
moluskoj
momanto
moment
momente
momento
momentoj
momenton
mon
mona
monah
monakejo
monako
monarh
monarkio
monarko
monarkoj
monastero
monata
monate
monato
monatoj
monatojn
monaton
monbileto
monbiletoj
mond
monda
mondadori
mondaj
mondan
mondc
monde
mondfama
mondial
mondmilito
mondmilitoj
mondmiliton
mondo
mondoj
mondon
mondopartoj
mondpokalo
monero
moneroj
monerojn
money
mongola
mongolaj
mongolio
mongoloj
monica
monika
monk
monmouth
mono
monografio
monographs
monon
monopolo
monopolon
monotipa
monroe
mons
monsieur
monstro
monstroj
mont
monta
montagne
montagut
montaj
montan
montana
montano
montara
montaraj
montararbaroj
montarbaroj
montargis
montaro
montaroj
montaron
montauban
montbe
monte
montedio
montenegro
montes
monteta
montetaj
montetaro
monteto
montetoj
monteton
montevideo
montfort
montgomery
monthly
monti
montiel
montigny
montmartre
monto
montoc
montoj
montojn
monton
montopasejo
montopinto
montopintoj
montparnasse
montpasejo
montpellier
montrado
montranta
montrante
montras
montrata
montre
montrealo
montreuil
montreux
montri
montrig
montris
montrita
montritaj
montro
montros
montru
montserrat
monument
monumenta
monumentaj
monumento
monumentoj
monumentojn
monumenton
monuments
monunuo
monza
moon
moore
mor
mora
moral
morala
moralaj
moralajn
moralan
morale
morales
moralo
moran
morato
morava
moravia
moraviasilezia
moravio
moravska
morbihan
more
moreau
morel
morelos
morena
moreno
moret
morfologio
morgan
morgau
morgen
morges
mori
morin
moriskoj
moritz
mormona
morning
moro
moroj
morojn
morphological
morphology
morris
morrison
mort
morta
mortaj
mortanta
mortas
morte
morti
mortig
mortiga
mortigante
mortigas
mortigi
mortigis
mortigita
mortigitaj
mortigo
mortigos
mortigu
mortinta
mortintaj
mortintan
mortinto
mortintoj
mortintojn
mortis
morto
mortoj
mortojn
morton
mortopuno
mortos
mortpafis
mortpafita
mortpuno
mortu
mos
moscow
mosel
moselle
moseo
moser
moses
moskeo
moskeoj
moskeon
moskva
moskvaj
moskvo
moskvon
moson
mosonmagyaro
most
motetoj
mother
motilal
motion
motivo
motivoj
motivojn
motivon
moto
motor
motora
motoro
motoroj
motoron
motors
mots
motte
moudon
moukol
moulin
moulins
mount
mountain
mountains
mouse
moutier
mouvement
movada
movado
movadoj
movadojn
movadon
movas
movebla
moveblaj
movement
movements
movi
movie
movies
movig
movimento
movimentoj
movis
movita
movo
movoj
movojn
movokvanto
movon
moyen
mozaiko
mozaikoj
mozambiko
mozart
mozelo
mozilla
mozo
mp
mpc
mpios
mr
mrkos
mrs
ms
msm
mt
mta
mtv
mu
much
mudeh
muel
muelejo
muelejoj
muelejon
muerte
mug
muh
muhammad
mujer
mujeres
mukac
mulhouse
mulo
mult
multa
multaj
multajn
multan
multas
multe
multegaj
multege
multekosta
multekostaj
multenombra
multenombraj
multenombrajn
multenombro
multfoje
multig
multimediajn
multiple
multipliko
multiterritorial
multjara
multlingva
multnombra
multnombraj
multnombrajn
multo
multon
multrimedaj
mumbajo
mumio
mun
mundi
mundo
munich
munici
municio
municipa
municipaj
municipal
municipan
municiparo
municipios
municipo
municipoj
municipojn
municipon
munka
munkena
munkeno
muntado
muntita
mur
mura
murat
murcia
murcio
murder
murdi
murdis
murdisto
murdita
murditaj
murdo
murdoj
murdon
murego
muregoj
mures
muri
murmuris
muro
muroj
murojn
muron
murpentraj
murphy
murray
mus
musa
muse
museen
museo
museum
museums
music
musica
musical
musicians
musik
musique
musko
muskoj
muskola
muskolo
muskoloj
muslim
muso
musoj
musono
muss
mussolini
must
mustac
mustafa
muta
mutaj
mutter
muy
muzea
muzeo
muzeoj
muzeologo
muzeon
muzeum
muzik
muzika
muzikaj
muzikajn
muzikakademio
muzikalbumo
muzikalo
muzikan
muzikarta
muzike
muzikgrupo
muzikilo
muzikiloj
muzikinstruisto
muzikis
muzikisto
muzikistoj
muzikistojn
muziklernejo
muziknotoj
muziko
muzikoj
muzikologo
muzikon
muzo
mv
mw
mx
my
myers
mys
mystery
myth
mythologie
mythology
myths
mɐ
n
na
nabla
nac
nach
nachrichten
nacht
naci
nacia
naciaj
naciajn
nacian
nacie
nacieco
naciecoj
naciisma
naciismaj
naciismo
naciistoj
nacilingvaj
nacio
nacioj
naciojn
nacion
nacional
nacisocialisma
nad
nada
nadj
nadjvarado
nadlo
nafta
nafto
naftogasa
nafton
nag
nagano
nagasaki
nagel
nagoya
nagy
nagyba
nagyenyed
nagyka
nagykanizsa
nagyko
nagylexikon
nagyszombat
nagyva
nah
nahe
nai
naiva
naja
najbara
najbaraj
najbarajn
najbaras
najbare
najbareco
najbaro
najbaroj
najtingalo
nak
nakamura
nam
nambla
name
namen
names
namibia
namibio
nan
nana
nancy
nankai
nankino
nano
nanoj
nantes
naoh
naomi
nap
naplo
napoca
napola
napole
napoleon
napoleona
napoleonaj
napoleono
napoli
napolo
nara
narcos
narrative
nas
nasa
nash
nask
naskas
naski
naskig
naskigis
naskis
naskita
naskitaj
nasko
naskoloko
nassau
nat
natalia
natalo
nathalie
nathan
nation
national
nationale
nationalism
nations
native
nato
natria
natrian
natrio
natur
natura
naturae
naturaj
naturajn
natural
naturalis
naturalismo
naturalist
naturalisto
naturan
nature
naturelle
naturmemorindaj
naturo
naturon
naturparko
naturprotekto
naturrezervejo
naturscienca
natursciencisto
natursciencoj
nau
nauc
naumburg
nauro
nava
naval
navaro
navarro
navas
navigado
navigebla
navigis
navigisto
navo
navoj
navon
navy
nay
naza
nazaire
nazareto
nazi
nazia
naziaj
naziismo
nazioj
nazionale
nazo
nazon
nb
nbc
nberg
nc
ncbi
nchen
nchez
ncia
ncipe
nd
ndb
nde
ndel
nden
nder
ndez
ndi
ndia
ndice
ndig
ndo
ndome
ndor
ndose
ndung
ndy
ne
nea
neakceptebla
neanima
neantau
near
nearktisa
neas
neat
neatendita
neatendite
nebraska
nebrasko
nebst
nebula
nebulo
nebulozo
neburg
nec
necerta
necerteco
necesa
necesaj
necesajn
necesan
necesas
necese
necesejo
necesejoj
necesis
neceso
neceson
neckar
nedau
nederland
nederlanda
nederlandaj
nederlandan
nederlandanoj
nederlande
nederlandlingva
nederlando
nederlandon
nederlandse
neebla
neeble
need
neegalaj
nees
neevitebla
neeviteble
nefinita
neformala
neformale
neg
negativa
negativaj
negativajn
negativan
negative
negocado
negocisto
negocistoj
negoco
negocoj
negra
negranda
negro
nehmen
nehru
nei
neil
neill
neis
nek
nekapabla
neklara
nekompleta
nekonata
nekonataj
nekonatan
nekredebla
nekrologo
nekropolo
nekutima
nekutimaj
nekutime
nel
neleg
nell
nella
nelly
nelog
nelonge
nelson
nem
nematuruloj
nemes
nemoveblaj
nemzeti
nemzetko
nen
nenia
neniaj
neniajn
neniam
nenian
nenie
neniel
neniig
neniigi
neniigis
neniigita
neniigo
nenio
neniom
nenion
neniu
neniuj
neniujn
neniun
neo
neodys
neoficiala
neoficiale
neolitika
neolitiko
neologismo
neordinare
neorganika
neotropical
neotropisa
nepal
nepala
nepalo
nepara
nepino
neplenag
nepo
nepoj
nepolaraj
nepomuk
nepomuka
nepra
nepras
nepre
neprofunda
neprofundaj
neptuno
ner
neregula
neregulaj
nerekta
nerekte
nerila
nero
nerono
neruda
nerva
nervo
nervoj
nes
nesala
nescio
nesolvebla
nest
nestamasulo
nestas
nesting
nesto
nestoj
nestojn
neston
nestumas
nesufic
net
netau
nete
netflix
netherlands
neti
neto
netransitiva
netus
network
neu
neue
neuen
neuer
neues
neuf
neuilly
neumann
neurbaj
neustadt
neuwied
nev
nevada
nevado
never
nevers
neves
nevidebla
neville
nevino
nevo
nevole
nevter
new
newcastle
newman
newport
news
newsletter
newton
next
ney
nez
nf
nfeld
nffy
ng
nga
ngc
nge
ngel
ngen
nger
ngo
nguye
nguyen
ngyo
nh
nha
ni
nia
niai
niaj
niajn
nian
nic
nica
niccolo
nice
nicholas
nicholson
nicht
nichts
nick
nico
nicola
nicolae
nicolai
nicolas
nicolaus
nicole
nie
nieder
niel
niels
nielsen
niemeyer
nien
nietzsche
nig
nigel
niger
nigeria
night
nigra
nigraj
nigrajn
nigrakapa
nigran
nigre
nigreca
nigrecaj
nigro
nigrula
nigrulo
nigruloj
nigsberg
nigstuhl
niigata
nij
nijmegen
nik
nika
nikaragvo
nikelo
nikita
niko
nikola
nikolai
nikolaj
nikolajevic
nikolao
nikolaus
nil
nilo
nils
nimfo
nimfoj
nimo
nin
nina
nine
nineteenth
ning
nino
nintendo
nio
nippon
nis
nishi
nisou
nist
nitra
nitrata
nitrato
nitrito
nitro
nitrogena
nitrogeno
niva
nivelo
niveloj
nivelojn
nivelon
nixon
niz
nj
nja
njan
nk
nka
nkvd
nky
nl
nm
nmu
nn
nne
nnen
nner
no
noa
noah
noam
nobel
nobela
nobelaj
nobelaro
nobeldomo
nobelo
nobeloj
nobelpremiita
nobelprize
nobeluloj
nobla
noblaj
noble
noc
noch
noche
nocio
nocioj
nocion
nodo
nodoj
noe
noel
noir
noire
noisy
noj
nok
nokta
noktaj
noktan
nokte
nokto
noktoj
noktomezo
nokton
nom
noma
nomadaj
nomado
nomadoj
nomante
nomas
nomata
nomataj
nomatajn
nomatan
nomatas
nombra
nombraj
nombrajn
nombras
nombre
nombrig
nombris
nombro
nombroj
nombrojn
nombron
nombroteorio
nome
nomen
nomenclature
nomenklaturo
nomi
nomig
nomiga
nomigas
nomigis
nomigo
nominativo
nomis
nomita
nomitaj
nomitan
nomitis
nomo
nomoj
nomojn
nomon
nomordo
nomos
noms
nomumas
nomumi
nomumig
nomumis
nomumita
nomumitaj
nomumitis
nomumo
nomumon
nomvarianto
non
nonila
nor
nora
norbert
nord
norda
nordafriko
nordaj
nordamerika
nordamerikaj
nordameriko
nordan
norde
norden
nordgermana
nordhausen
nordia
nordj
nordnordoriento
nordo
nordokcidenta
nordokcidentaj
nordokcidente
nordokcidento
nordon
nordorienta
nordoriente
nordorienten
nordoriento
nordrejn
norfolk
norma
normaj
normala
normalaj
normalan
normale
norman
normanda
normandie
normandio
normiga
normigita
normigo
normo
normoj
normojn
normon
norte
north
northern
northumbria
northwest
norton
norvega
norvegaj
norvege
norvegio
norvegujo
nos
nostra
not
nota
notacio
notario
notas
note
notes
nothing
noti
notice
noticias
notinda
notindaj
notindas
notinde
notis
notita
noto
notoj
notojn
noton
notre
notu
nou
nous
nouveau
nouvelle
nouvelles
nov
nova
novaj
novajn
novan
nove
novel
novela
novelaro
novelisto
novelo
noveloj
novelojn
november
novembra
novembre
novembro
novgorod
novgoroda
novgorodo
novgotika
novgvineo
novi
novjara
novjorka
novjorkio
novjorko
novklasika
novklasikismo
novlando
novo
novosti
novsudkimrio
novy
novzelanda
novzelando
now
nowak
nowy
np
npiv
npm
nr
nro
ns
nsa
nsdap
nska
nske
nsky
nsson
nste
nster
nstler
nszky
nt
nta
ntara
nter
nther
nto
ntu
ntul
nu
nuanco
nuancoj
nuancojn
nuancon
nubo
nuboj
nuclear
nuda
nudaj
nudeco
nuestra
nuestro
nuestros
nueva
nuevo
nuit
nuits
nuklea
nukleaj
nuklean
nukleo
nuko
nukon
nuksoj
nul
nula
nuligi
nuligis
nuligita
nuligitaj
nuligo
nuligon
nulo
nuloj
num
number
numbers
numeralo
numeraloj
numero
numeroj
numerojn
numeron
nummer
nun
nuna
nunaj
nunan
nunca
nune
nuntempa
nuntempaj
nuntempan
nuntempe
nuntempo
nuova
nuovo
nuptis
nupto
nur
nura
nuraj
nuran
nure
nurenbergo
nuro
nuroj
nursingulara
nus
nutra
nutrado
nutraj
nutras
nutri
nutrindustrio
nutris
nutrition
nutro
nutrondustrio
nuvel
nuvɛl
nv
ny
nya
nyai
nye
nyei
nyek
nyelv
nyelven
nyes
nyi
nyitra
nyncke
nyok
nyon
nyos
nyu
nyugat
nyv
nyve
nyvkiado
nyvta
nz
nɐ
o
oa
oah
oak
oakland
oaktoro
oara
oaxaca
oazo
ob
obama
obc
obeas
obei
obeis
obelisko
obeo
ober
oberhausen
oberlando
obituary
obj
object
objektiva
objektivo
objekto
objektoj
objektojn
objekton
oblasto
oble
oblikva
obra
obras
observa
observado
observanto
observantoj
observas
observata
observataj
observations
observatorio
observatorioj
observatorion
observatory
observejo
observer
observi
observis
observita
observitaj
observo
observoj
observojn
obstakloj
obstina
obstine
obteni
obtenis
oc
oca
occidental
occita
occitanie
ocean
oceana
oceanaj
oceanio
oceano
oceanoj
oceanon
ocentro
och
ocl
oclc
october
od
oda
odas
ode
odenwald
oder
odesa
odeso
odiseado
odiseo
odo
odore
odorheiu
odorigagento
odoro
odoron
odra
odro
odyssey
oeste
of
ofara
ofendo
ofensivo
ofensivon
oferas
oferi
oferis
ofero
oferoj
oferojn
oferon
ofertas
oferti
ofertis
oferto
off
offenbach
office
official
ofica
oficejo
oficejoj
oficejojn
oficejon
oficial
oficiala
oficialaj
oficialajn
oficialan
oficiale
oficialig
oficialuloj
oficina
oficiro
oficiroj
oficirojn
oficis
oficisto
oficistoj
ofico
oficoj
oficon
oficperiodo
oforo
oft
ofta
oftaj
oftajn
oftas
ofte
ofteco
og
ographie
oguno
oh
ohio
ohne
ohr
ohrdruf
oi
oil
ois
oise
oiseaux
oita
oj
oja
ojas
ojc
oje
ojis
ojn
ojo
ojon
ojos
oju
ok
oka
okajama
okangula
okato
okayama
okazadis
okazaj
okazanta
okazantaj
okazas
okaze
okazi
okazigas
okazigi
okazigis
okazigita
okazigitaj
okazigo
okazinta
okazintaj
okazis
okazo
okazoj
okazon
okazonta
okazos
okazu
okazus
okcident
okcidenta
okcidentaj
okcidentajn
okcidentan
okcidente
okcidenten
okcidenteu
okcidento
okcitana
okcitane
okcitanio
okdek
okedro
okedroj
oklahoma
oklahomo
oklatera
oko
okolado
oksalato
oksfordo
oksidado
oksidig
oksidigagentoj
oksidigo
oksido
oksigenatomoj
oksigeno
oksigenon
okt
oktanata
oktanato
oktila
okto
oktober
oktobra
oktobre
oktobro
okula
okulfrapa
okulo
okuloj
okulojn
okulon
okulringo
okulvitroj
okuma
okupacio
okupado
okupanta
okupantoj
okupas
okupata
okupataj
okupi
okupig
okupis
okupita
okupitaj
okupo
okupoj
ol
ola
olaf
olando
old
olda
oldenburg
oldr
ole
olea
oleg
oleo
oleoj
oleon
olero
oles
olga
oli
olimpia
olimpiaj
olimpiano
olimpika
olimpikaj
olimpikan
olimpiko
olimpikoj
olimpo
oliv
oliva
olivarboj
olive
oliveira
oliver
olivia
olivier
olivoj
olivoleo
olof
ologie
olomouc
ols
olson
olsztyn
olt
olten
olympia
olympic
om
omag
omano
omar
ombro
ombroj
ombron
omega
omiya
omnia
omo
on
ona
onard
once
onda
ondo
ondoj
ondojn
ondolongo
ondr
one
onelook
ong
oni
onia
onidire
onidiro
onidiroj
onin
onklino
onklo
online
only
ono
onoj
ons
ont
onta
ontaj
ontario
onubo
oo
ooizumi
oomoto
op
opa
opac
opava
ope
opel
open
oper
opera
operacia
operacio
operacioj
operaciojn
operacion
operacisimbolo
operaciumo
operaciumoj
operaco
operacoj
operacon
operation
operatorname
operatoro
operejo
operetkantisto
opereto
operetoj
operetoteatro
operkantistino
operkantisto
opero
operoj
operojn
operon
ophile
opinias
opiniis
opinio
opinioj
opiniojn
opinion
opold
oponis
oportuna
oportune
opossum
opozicia
opoziciaj
opozicio
opozicion
ops
optika
optikaj
optiko
optimismo
opus
or
ora
oradea
oraj
orajn
orakolo
oral
oran
orang
orange
oratio
oratorio
oratoro
orba
orbe
orbita
orbitaj
orbitan
orbitanta
orbitas
orbito
orbitoj
orbitojn
orbiton
orchestra
orda
ordbok
orden
ordena
ordeno
ordenoj
ordenon
order
ordigi
ordigis
ordigita
ordigitaj
ordigo
ordinara
ordinaraj
ordinaran
ordinare
ordlista
ordo
ordoj
ordon
ordonas
ordoni
ordonis
ordono
ordonoj
ordonojn
ordonon
ordre
ore
oregon
oregono
orejo
orelo
oreloj
orelojn
orelon
oresto
orf
orfejo
orfeo
orfis
orfoj
org
organ
organic
organika
organikaj
organisation
organismo
organismoj
organiza
organizado
organizadon
organizaj
organizanto
organizantoj
organizas
organizata
organization
organizi
organizig
organizis
organizita
organizitaj
organizo
organizoj
organizojn
organizon
organo
organoj
organojn
organon
orgenisto
orgenkonstruisto
orgeno
orgenoj
orgenon
orh
ori
orient
orienta
orientaj
orientajn
oriental
orientales
orientalis
orientalisa
orientalisto
orientan
oriente
orienten
orienteu
orientig
orientita
oriento
origeno
origin
origina
originaj
original
originala
originalaj
originalajn
originalan
originale
originalo
originan
originas
origine
origines
originig
originis
origino
originoj
originon
origins
orio
oriono
oris
orkestra
orkestrestro
orkestro
orkestroj
orkestron
orla
orlando
orle
orleano
orleans
orlici
ornama
ornamado
ornamaj
ornamas
ornami
ornamis
ornamita
ornamitaj
ornamo
orne
ornithologists
ornithology
ornitologia
ornitologio
ornitologo
oro
oroj
oron
orosha
orosz
ors
orsay
orsza
ort
orta
ortangula
ortega
ortiz
orto
ortodoksa
ortodoksaj
ortodoksismo
ortodoksuloj
ortografia
ortografio
ortografion
orwell
orðabo
os
osa
osaka
osako
osamu
oscar
osea
oseo
oseoj
oseon
oseta
osetio
osijek
osiris
oskar
oskaro
oslo
oslovaka
oslovakaj
oslovakio
osmana
osnabru
oso
osoj
ost
osta
ostag
osto
ostoj
ostojn
ostrava
ostro
ostrobotnio
ostrov
ostwald
oswald
oszk
oszka
ot
ota
otakar
otavo
otelo
otero
other
oto
otomana
otomanaj
otomanoj
otra
otras
otro
otros
ott
otto
ottoman
ou
ouen
ouest
our
out
ov
ova
ovala
ovalaj
ovario
ovas
ovce
over
overview
ovi
ovice
ovidio
oviedo
ovig
ovis
ovita
ovo
ovodemetado
ovoj
ovojn
ovon
ovsky
owen
own
oxford
oz
ozo
p
pa
paa
pablo
pac
paca
pacaj
pacan
pace
pacheco
pacienco
paciento
pacientoj
pacific
pacifika
pacifikaj
pacifiko
packontrakto
paco
pacon
pactraktato
paderborn
padilha
pado
padoj
padova
padovo
padre
pafado
pafaj
pafekzekutis
pafi
pafilo
pafiloj
pafis
pafistoj
pafita
pafmortigis
pafmortigita
pafo
pag
pagana
paganaj
paganoj
pagas
pagasts
page
pages
pagi
pagis
pagita
pagitaj
pago
pagoj
pagon
pagos
pahlavi
pai
pain
painting
paintings
paix
pajlo
pakaj
pakeo
pakistan
pakistana
pakistano
pakto
pakton
pal
pala
palaca
palace
palacio
palacios
palaco
palacoj
palacon
palais
palaj
palatinata
palatinato
palatino
palau
palazzo
pale
palearktisa
palencio
paleolitiko
paleontologio
paleontologo
palermo
palestina
palestinaj
palestinanoj
palestine
palestino
palestrina
palgrave
palig
palisa
pallas
palm
palma
palmer
palmo
palmoj
palo
palomar
pama
pamela
pan
panama
panamo
panc
pandemio
panelo
paneloj
pang
panglos
panhispa
panicum
panjo
panlex
pannonhalma
pano
panon
panorama
panoramo
pantalono
panteono
panthera
paolo
pap
papa
papado
papago
papagoj
papaj
papan
paper
papera
paperaj
paperback
papero
paperoj
paperon
papers
papilio
papilioj
papiruso
papo
papoj
papon
papp
papua
papuo
par
para
parabolo
paradise
paradizo
parado
paradokso
paragrafo
paragvajo
parai
paraibo
paraj
paralela
paralelaj
paralele
paralelo
parametro
parametroj
paramount
parana
paranao
paras
parazito
parazitoj
parc
parcelojn
parchim
pardo
pardoni
pardono
pardonon
pardonu
pardubice
pardubicky
pare
parenca
parencaj
parencas
parenceco
parenco
parencoj
parencojn
pari
parig
paris
pariza
parizaj
parizo
parizon
park
parka
parker
parkinson
parko
parkoj
parkon
parks
parlamenta
parlamentaj
parlamentan
parlamentano
parlamentanoj
parlamentejo
parlamento
parlamentoj
parlamenton
parler
parliament
parma
parmo
parnaso
paro
parodio
paroh
paroj
parojn
paroko
parola
parolado
paroladoj
paroladojn
paroladon
parolaj
parolanta
parolantaj
parolante
parolanto
parolantoj
parolantojn
parolas
parolata
parolataj
parole
paroli
parolis
parolisto
parolita
parolmaniero
parolo
paroloj
parolojn
parolon
parolos
parolu
paron
parque
pars
part
parta
partaj
partan
parte
partei
parti
partia
partiaj
partial
partianoj
participo
partido
partiestro
partikla
partiklo
partikloj
partikulara
partikulare
partio
partioj
partiojn
partion
partituro
partituroj
partizana
partizanoj
partneraj
partnereco
partnero
partneroj
parto
partoj
partojn
parton
partoprenantaj
partoprenante
partoprenanto
partoprenantoj
partoprenantojn
partoprenas
partopreni
partoprenintaj
partoprenintoj
partoprenis
partopreno
partoprenon
partoprenos
party
paruliedoj
parulio
paruo
parus
pas
pasa
pasado
pasag
pasaj
pasante
pasas
pascal
pascual
pasejo
paserina
pasero
paseroformaj
paseroj
pasi
pasia
pasie
pasigas
pasigi
pasigis
pasinta
pasintaj
pasintan
pasinteco
pasinto
pasio
pasioj
pasion
pasiono
pasis
pasiva
paska
paskalo
pasko
paso
pasos
pasporta
pasporto
pass
passage
passau
passe
passer
passion
past
pasteur
pasto
pastor
pastoro
pastra
pastrana
pastraro
pastrig
pastro
pastroj
pastrojn
pastron
pat
patagonio
patento
patentoj
patenton
pater
path
patients
pato
patra
patria
patriarko
patrice
patricia
patrick
patrimonio
patrina
patrino
patrinoj
patrinon
patrio
patriota
patriotismo
patrioto
patriotoj
patro
patroj
patron
patrona
patroneco
patronino
patrono
patronoj
patronomo
patrujo
patrujon
patterns
pau
paul
paula
pauli
pauline
paulista
paulo
paulus
pavel
pavilono
pavio
pavo
paweł
pax
pay
payerne
payne
pays
paz
pbs
pc
pcf
pd
pdf
pe
pea
peace
peak
pearl
pearson
pec
pech
peco
pecoj
pecojn
pecon
pedagogia
pedagogiaj
pedagogian
pedagogio
pedagogo
pedofilio
pedro
peer
pegazo
pego
pejzag
pek
pekina
pekino
peko
pekoj
pekon
pelas
pelhr
peli
pelikano
pelikanoj
pelis
peloponezo
pelvo
pembinaan
pen
pena
penado
penas
pendanta
pendantaj
pendas
pendidikan
pendigis
pendis
pendolo
pene
penelope
penetras
penetri
penetris
pengembangan
penguin
penguins
peni
penis
peniso
penn
pennsylvania
penny
peno
penoj
pensado
pensadon
pensante
pensaro
pensas
pense
pensi
pensiero
pensigas
pensiig
pensilvanio
pensioj
pension
pensis
pensiulig
pensmaniero
penso
pensoj
pensojn
penson
pensu
pensulo
pensuloj
penta
pentekosto
pento
pentradis
pentrado
pentradon
pentraj
pentrarto
pentras
pentri
pentris
pentristino
pentristo
pentristoj
pentrita
pentritaj
people
peoples
pepper
pequen
per
pera
perado
peranto
perceptas
percepti
percepto
perche
percy
perdas
perdi
perdig
perdis
perdita
perditaj
perditan
perdo
perdoj
perdojn
perdon
perdos
perdriko
pere
pereinta
pereira
pereis
pereo
pereos
perfekta
perfektaj
perfektan
perfekte
perfekteco
perfektig
perfidis
perfido
performance
perforta
perfortaj
perforte
perforto
perforton
peri
periferio
perimetro
period
perioda
periodaj
periode
periodo
periodoj
periodojn
periodon
peris
perkins
perlo
perloj
permane
permanenta
permesante
permesas
permesata
permesi
permesilo
permesis
permesita
permesitaj
permeso
permeson
permesos
permesu
pernambuko
pero
peroksido
perrache
perrin
perry
pers
persa
persaj
persan
perse
persekutado
persekutas
persekutata
persekutataj
persekuti
persekutis
persekuto
persekutoj
perseo
perseus
persia
persian
persio
perso
persoj
person
persona
personaj
personajn
personal
personan
personaro
persone
personeco
personecoj
personecon
personen
personensuche
personigo
persono
personoj
personojn
personon
perspective
perspectives
perspektivo
perspektivoj
perspektivon
persvadi
persvadis
perto
perturbo
perturboj
peru
perua
peruo
pes
pesilo
peso
pest
pesti
pesticidoj
pesto
pet
petaloj
petante
petas
pete
petegas
petegis
peter
peterburga
peterburgo
petermannia
peters
petersberg
petersen
peterson
peti
petis
petit
petite
peto
petoj
peton
petr
petra
petrelo
petreloj
petrels
petri
petro
petrolo
petrov
petrovic
petrovice
petrus
pettiford
petu
pez
peza
pezaj
pezajn
pezan
pezas
peze
pezis
pezo
pezoj
pezon
pf
pfa
pfalz
pfeiffer
pfen
pfer
pflanzen
pg
pgae
pgc
ph
phalacrocorax
phane
pharmaceutical
phd
phe
phi
phil
philadelphia
philip
philipp
philippe
philips
phillip
phillips
philosophical
philosophie
philosophy
phoenix
photo
photos
php
phylloscopus
phylogenetic
phylogenetics
phylogeny
phys
physical
physics
physik
physiology
pi
pia
piana
pianistino
pianisto
piano
pianokonc
pianon
piazza
pib
pic
pica
picasso
picea
piceo
pico
picture
pictures
pie
pieco
pied
piede
piedirado
piedirantoj
piediri
piedo
piedoj
piedojn
piedon
piedpilkisto
piedra
piemonto
pier
pierce
piero
pierre
pies
pieter
pietro
pig
pigmentoj
pigo
piko
pilar
pilastroj
pilato
pilgrima
pilgrimado
pilgrimantoj
pilgrimejo
pilgrimloko
pilieroj
pilko
pilkon
piloto
pilotoj
pim
pin
pinar
pinaroj
pinay
pinc
pindaro
pine
ping
pingloj
pingveno
pingvenoj
pinjine
pinjino
pink
pino
pinoj
pinta
pintaj
pinte
pinto
pintoj
pintojn
pinton
pinus
pio
pioneer
pionira
pioniro
pioniroj
pios
piotr
piper
pipilo
pipio
pipro
piramida
piramido
piramidoj
pirato
piratoj
pireneoj
piro
piron
piroska
pis
pisa
pistoiese
pisuerga
pitagoro
pitono
pitoreska
pitt
pittsburgh
piu
piv
pizarro
pizo
piłsudski
pj
pjongjango
pjotr
pk
pl
pla
plac
place
places
placo
placoj
placon
plado
pladoj
plafono
plag
plago
plain
plaine
plan
plana
planado
planas
planata
planck
plane
planeda
planedaj
planedetoj
planedo
planedoj
planedojn
planedon
planet
planeta
planetario
planetary
planets
plani
planis
planita
planitaj
planko
plankon
planlingvo
planlingvoj
planning
plano
planoj
planojn
planon
plant
planta
plantado
plantaj
plantarum
plantejoj
plantis
plantita
plantitaj
planto
plantoj
plantojn
planton
plantoscienco
plants
plasta
plastaj
plastikaj
plasto
plata
plataj
platbeka
plate
platform
platformo
platformoj
plato
platoj
platojn
platona
platono
platz
plau
play
plays
playstation
plaza
ple
plebiscito
pledis
pleistoceno
plej
pleja
plejag
pleje
plejmultaj
plejmulto
plejmulton
plejofte
plejparte
plejparto
plejparton
plena
plenag
plenaj
plenajn
plenan
plendas
plendis
plendo
plendoj
plene
plenig
plenigas
plenigi
plenigis
plenigita
plenkreska
plenkreskaj
plenkreskis
plenkreskulo
plenkreskuloj
plennome
plenuma
plenumado
plenumante
plenumas
plenumi
plenumig
plenumis
plenumita
plenumitaj
plenumo
plenumon
plenumos
plenumu
ples
pleu
plezuro
plezuron
pli
plia
pliag
pliaj
pliajn
plialtig
plialtigi
plialtigis
plialtigita
plialtigo
plian
plibonig
plibonigas
plibonigi
plibonigis
plibonigita
plibonigo
plibonigoj
plibonigon
plie
plifortig
plifortigas
plifortigi
plifortigis
plifortigita
plifortigo
pligrandig
pligrandigas
pligrandigi
pligrandigis
pligrandigita
pligrandigo
pliig
pliigas
pliigi
pliigis
pliigita
pliigo
plilarg
plilongig
plilongigita
plilongigo
plimulte
plimultig
plimulto
plimulton
plinio
plioceno
pliposte
pliric
plivastig
plo
plon
plong
ploras
plori
ploris
ploro
plos
plotino
plu
plua
pluaj
pluajn
pluan
pluas
pludau
plue
pluen
pluigis
pluis
plulernis
plumaro
plumaron
plumba
plumbo
plumnomo
plumo
plumoj
plumojn
pluraj
plurajn
plural
plurala
plurale
pluralo
plurc
pluredro
pluredroj
plurfoje
plurjara
plurlatera
plurlatero
plurlingva
plurmediaj
plurnombra
plurnombro
plus
pluse
plutarko
plutono
pluva
pluvarbaro
pluvarbaroj
pluvas
pluvivis
pluvo
pluvoj
pluvokvanto
pluvon
pluvsezono
plzen
pm
pmc
pmeg
pmid
pn
pnas
pneu
png
pnud
po
poacoj
poblacio
poc
poche
pocket
poco
pod
pode
podhorsky
podlah
poe
poemaro
poemas
poemo
poemoj
poemojn
poemon
poems
poentoj
poentojn
poesi
poet
poeta
poetiko
poetino
poeto
poetoj
poeton
poetry
poezia
poeziaj
poezio
poezion
pogromo
poincare
point
pointe
poitiers
poj
pokalo
pokalon
pol
pola
polaj
polajn
polan
poland
polar
pole
polemika
polemiko
polemikon
polga
poli
polic
polica
policaj
policano
policanoj
police
policejo
policisto
policistoj
polico
policon
policy
poligloto
polimeroj
polinezio
polinomo
polis
polish
politeknika
politekniko
political
politics
politik
politika
politikaj
politikajn
politikan
politike
politikistino
politikisto
politikistoj
politiko
politikoj
politikojn
politikon
politique
politische
pollando
pollandon
polo
poloj
polojn
polonia
polska
polski
polskie
polskiego
polsko
poluado
polujo
poluo
polusa
polusaj
poluso
polusoj
polvo
pomeria
pomerio
pomo
pomoj
pompa
pompejo
pompeo
pompidou
pongra
pons
pont
ponta
pontarlier
ponte
pontifika
ponto
pontoj
pontojn
ponton
poole
pop
pope
poplo
poploj
popmuziko
popol
popola
popolaj
popolajn
popolan
popolanoj
popolkantoj
popolmuziko
popolnombrado
popolo
popoloj
popolojn
popolon
poprad
populacio
populacioj
populaciojn
populacion
popular
populara
popularaj
popularajn
popularan
populare
populareco
popularecon
popularig
popularigis
popularigo
populat
population
populations
por
porc
porcelano
porcio
pordego
pordegoj
pordegon
pordisto
pordo
pordoj
pordojn
pordon
porfirio
porinfana
porinfanaj
porinstruista
porjunulara
porkaj
porkido
porko
porkoj
porque
port
porta
portal
portalo
portanta
portantaj
portante
portanto
portantoj
portas
portata
porte
portebla
portempa
portempe
porter
porti
portiko
portis
portita
portitaj
portland
porto
portos
portrait
portreto
portretoj
portretojn
portreton
portu
portugal
portugala
portugalaj
portugalan
portugale
portugalio
portugaloj
portugalujo
portuguesa
portuguese
poruba
pos
posedaj
posedanto
posedantoj
posedas
posedata
posedi
posedis
posedo
posedon
position
possible
post
posta
postaj
postajn
postan
poste
posteno
postenoj
postenojn
postenon
posteulo
posteuloj
postlasaj
postlasis
postlasitaj
postmilita
postmilite
postmorta
postmorte
postparolo
postrestaj
postrestis
posttagmeze
posttagmezo
postulante
postulas
postulata
postuli
postulis
postulita
postulo
postuloj
postulojn
postulon
postvivis
pot
potenca
potencaj
potencan
potence
potencialo
potenco
potencoj
potencojn
potencon
potenculoj
potential
poto
potok
potosi
potsdam
potter
poul
pour
pova
povante
povas
povi
povintus
povis
povo
povoj
povojn
povon
povos
povu
povumo
povus
powell
power
powiat
pozicio
pozicioj
poziciojn
pozicion
pozidono
pozitiva
pozitivaj
pozitivajn
pozitivan
pozitive
poznan
poznano
pozo
pozono
pozsony
pp
ppen
ppr
pr
pra
praa
praaj
praarbaro
praavo
prachatice
practical
practice
prades
prado
prag
praga
prago
praha
prahistoria
prahistoriaj
prahistorio
prairie
praktika
praktikado
praktikaj
praktikajn
praktikan
praktikas
praktikata
praktike
praktiki
praktikis
praktiko
praktikoj
praktikojn
praktikon
pralog
pramo
prams
pranepo
prapatro
prapatroj
prato
pratt
praulo
prauloj
prava
pravas
pravda
prave
pravec
pravigas
pravigi
pravigo
praxis
praz
prc
pre
precipa
precipaj
precipe
precipitaj
preciza
precizaj
precizajn
precizan
precize
precizeco
predado
predantoj
predikado
predikanto
predikejo
prediki
predikis
predikisto
prediko
predikoj
predo
predoj
predojn
predon
prefektejo
prefekto
prefektujo
preferas
preferata
preferataj
prefere
preferis
prefero
prefikso
prefiksoj
preg
preis
prelato
preleganto
prelegis
prelego
prelegoj
prelegojn
prelegon
prelongo
preludo
premas
premi
premie
premier
premieris
premiero
premiita
premiitaj
premiito
premiitoj
premio
premioj
premiojn
premion
premis
premita
premo
premoj
premon
prenante
prenas
preni
prenila
prenis
prenita
prenitaj
preno
prenos
prentice
prenu
preparado
preparaj
preparas
preparata
prepari
preparig
preparis
preparita
preparitaj
preparo
preparoj
preposto
prepozicio
prepozicioj
pres
presa
presado
presaj
presbiterejo
prescott
presejo
presejon
present
presi
president
presidente
presis
presisto
presita
presitaj
preskau
presl
presley
preso
press
presse
presses
prestig
prestige
preston
preta
pretaj
pretas
preteksto
pretendas
pretendis
pretendo
pretendoj
preter
preterfluas
preteriras
preterito
preterpasas
preterpasis
pretig
pretigi
pretigis
pretigita
pretigo
pretis
preto
preventi
prevention
prevento
prey
prez
prezenca
prezenco
prezentado
prezentadoj
prezentadon
prezentaj
prezentanta
prezentante
prezentas
prezentata
prezentataj
prezenti
prezentig
prezentis
prezentisto
prezentita
prezentitaj
prezento
prezentoj
prezenton
prezentu
prezidanta
prezidanteco
prezidantino
prezidanto
prezidantoj
prezidanton
prezidas
prezidenta
prezidentaj
prezidentan
prezidenteco
prezidento
prezidentoj
prezidenton
prezidis
prezo
prezoj
prezojn
prezon
pri
priamo
price
pride
pridisputata
prie
priestley
prijug
prilaborado
prilaboras
prilaborata
prilabori
prilaboris
prilaborita
prilaboritaj
prilaboro
prima
primara
primaraj
primary
primaso
primatoj
prime
primer
primera
primitiva
primitivaj
primo
primoj
primus
princa
prince
princess
princeton
princino
principe
principles
principo
principoj
principojn
principon
princlando
princlandoj
princo
princoj
princon
print
printempa
printempe
printempo
printing
priorejo
prioro
pripensas
pripensi
pripensis
prirabis
pris
priserc
priservas
priservata
priskribanta
priskribante
priskribas
priskribata
priskribi
priskribis
priskribita
priskribitaj
priskribo
priskriboj
priskribojn
priskribon
prisma
prismo
prismoj
pristudis
pritakso
pritraktas
pritrakti
pritraktis
privat
privata
privataj
privatajn
privatan
private
privatprofesoro
privatuloj
privilegio
privilegioj
privilegiojn
privilegion
prix
prize
prizono
prizonuloj
prizorgado
prizorgas
prizorgi
prizorgis
prizorgo
pro
probabla
probable
probablo
proble
problem
problema
problemo
problemoj
problemojn
problemon
problems
procedo
procedoj
procedon
proceduro
proceduroj
proceedings
procelariedoj
procelarioformaj
procentaj
procento
procentoj
procentojn
procesio
proceso
procesoj
proceson
procesoro
procesoroj
process
processes
processing
procezo
procezoj
procezojn
procezon
prod
production
productions
products
produkta
produktado
produktadon
produktaj
produktanta
produktante
produktanto
produktantoj
produktas
produktata
produktataj
produktejo
produkti
produktig
produktis
produktisto
produktita
produktitaj
produkto
produktoj
produktojn
produkton
produktoro
produto
prof
profana
profesia
profesiaj
profesian
profesie
profesio
profesioj
profesion
profesiuloj
profesorig
profesorino
profesoro
profesoroj
profesoron
professor
profetaj
profeto
profetoj
profile
profilo
profita
profitante
profitas
profite
profiti
profitis
profito
profitoj
profiton
profunda
profundaj
profundajn
profundan
profunde
profundeco
profundo
profundon
program
programa
programado
programaro
programeroj
programisto
programlingvo
programlingvoj
programme
programo
programoj
programojn
programon
progresas
progresema
progresis
progreso
progresoj
progreson
progress
project
projekcio
projekt
projektis
projektita
projekto
projektoj
projektojn
projekton
proklamas
proklamis
proklamita
proklamo
prokrasti
prokrastis
prokrastita
prokrasto
proks
proksima
proksimaj
proksimajn
proksiman
proksimas
proksime
proksimeco
proksimig
proksimo
proksimulo
proksimuma
proksimume
prokuroro
proleta
proletaro
proletoj
prologo
promenado
promenejo
promeni
promesas
promesis
promesita
promeso
promesoj
promeson
prometeo
promocii
promociis
promociita
promocio
pron
pronomo
pronomoj
prononcas
prononcata
prononco
prononcon
prononcu
propaganda
propagandaj
propagandi
propagandis
propagandisto
propagando
propagandon
propanolo
proparolanto
properties
propila
propilena
propionata
propionato
proponante
proponas
proponi
proponis
proponita
proponitaj
propono
proponoj
proponojn
proponon
proporcia
proporcie
proporcio
proporcioj
proporcion
propozicio
propra
propraj
proprajn
propran
propre
propreco
proprecoj
proprecojn
proprieto
propulsion
prosper
prospera
prosperas
prosperis
prospero
prosperon
proste
protagonisto
protection
protein
proteino
proteinoj
protekta
protektado
protektanto
protektas
protektata
protektataj
protekti
protektis
protektita
protektitaj
protekto
protekton
protektorato
protestanta
protestantaj
protestantisma
protestantismo
protestantoj
proteste
protesti
protestis
protesto
protestoj
protestojn
protokolo
protokoloj
protonoj
prototipo
proust
provante
provas
provenc
provence
provenco
proverbaro
proverbo
proverboj
provi
providenco
provinca
provincaj
province
provincia
provincial
provinco
provincoj
provincojn
provincon
provis
provizado
provizas
provizi
provizis
provizita
provizo
provizoj
provizora
provizoraj
provizoran
provizore
provo
provoj
provojn
provokis
provon
provu
proza
prozaj
prozo
pru
prudenta
prudente
prudento
prunus
prus
prusa
prusia
prusio
prusujo
pruvaro
pruvas
pruvi
pruvig
pruvis
pruvita
pruvo
pruvoj
pruvojn
pruvon
przez
ps
psalmaro
psalmo
psalmoj
pseu
psi
psih
psika
psikaj
psikiatria
psikiatrio
psikiatro
psiko
psikoanalizo
psikologia
psikologiaj
psikologio
psikologo
psikoterapio
psoe
psychologie
psychology
pt
pterodroma
ptolemeo
pu
puatuo
pub
pubchem
publ
public
publication
publications
publicisto
publika
publikaj
publikajn
publikan
publike
publikig
publikigaj
publikigas
publikigi
publikigis
publikigita
publikigitaj
publikigo
publikigon
publikis
publikita
publiko
publikon
publique
published
publishers
publishing
puc
puccini
puck
puebla
pueblo
puente
puerta
puerto
pues
puf
puffinus
pufino
pugno
pugo
pulitzer
pulma
pulmo
pulmoj
pulse
pulso
pulvo
pulvoro
pumpilo
puna
pundo
pundoj
puni
punis
punita
punkt
punkto
punktoj
punktojn
punkton
puno
punoj
punon
punta
punto
pupo
pupoj
pupteatro
pura
puraj
puran
pure
pureco
purigado
purigi
purigo
puro
purple
purpura
purpuraj
purpurea
pus
put
putin
puto
putoj
putrig
puttana
puy
pv
py
pyre
python
pzo
pʁɔ
q
qa
qatar
qi
qin
qing
qquad
qu
qua
quad
quae
quality
quam
quand
quantum
quarterly
quartet
quatre
que
quedlinburg
queen
queensland
quelle
quellen
quentin
quercus
quesnoy
quest
question
questions
qui
quie
quien
quijote
quincy
quinn
quintana
quintanilla
quisling
quo
r
ra
rabado
rabe
rabeno
rabi
rabis
rabisto
rabistoj
rabobirdo
rabobirdoj
rac
race
rachel
racia
racie
racine
racio
rad
rada
radaro
radi
radia
radiado
radiadon
radiaj
radical
radika
radikala
radikalaj
radikale
radikalo
radiko
radikoj
radikojn
radikon
radio
radioaktiva
radioamatoroj
radioj
radiostacio
radiostacioj
radiuso
radno
rado
radoj
radom
radon
rados
raf
rafael
rafaelo
rafinita
rag
rah
rahman
rai
rail
railway
rain
rainer
raire
raj
rajdado
rajdanto
rajdis
rajn
rajtas
rajtigis
rajtigita
rajtis
rajto
rajtoj
rajtojn
rajton
raketo
raketoj
rakonta
rakontado
rakontanto
rakontaro
rakontas
rakonti
rakontis
rakontisto
rakontita
rakonto
rakontoj
rakontojn
rakonton
rakontos
rakontu
rakovni
ral
rale
ralf
ralph
ram
rama
ramaros
rami
ramiro
ramo
ramon
ramos
ramsay
ran
rana
ranc
rance
rand
randa
rande
rando
randoj
random
randon
range
rangiga
rangigo
rangle
rango
rangoj
rangojn
rangon
ranko
rano
ranoj
ranojn
ranta
ranto
ranunculus
rao
raoul
raphael
rapid
rapida
rapidaj
rapidajn
rapidan
rapidas
rapide
rapideco
rapidecon
rapidege
rapidis
rapido
rapidon
rapidu
raportaj
raportas
raporti
raportis
raportisto
raportita
raportitaj
raporto
raportoj
raportojn
raporton
rapperswil
raptors
rara
raraj
rard
rare
ras
rasa
rasismo
rasmussen
raso
rasoj
rat
rate
ration
ratites
rato
ratoj
ratp
rature
rau
rault
raum
raven
raveno
ravino
ravinoj
raw
ray
raymond
razia
razio
rb
rba
rbara
rc
rca
rchen
rd
rda
rde
rdenas
rdi
rdo
rdoba
rdonyi
rdos
re
rea
reactions
read
reader
reading
reagan
reagas
reage
reagi
reagis
reago
reagoj
reagojn
reagon
reakcia
reakciaj
reakcias
reakcio
reakcioj
reakiri
reakiris
reaktoro
real
reala
realaj
realan
reale
realeco
realig
realigas
realigi
realigis
realigita
realigitaj
realigo
realigon
realisma
realismo
reality
realnome
realo
realon
reaperis
rearang
reason
reato
rebecca
rec
recensa
recent
recenzo
recenzoj
recenzojn
recepto
receptoj
recherche
recherches
recht
rechtschreibung
recife
reciproka
reciprokaj
reciprokan
reciproke
recitativo
recklinghausen
reclam
reclams
reconquista
record
recordings
records
red
redakcio
redaktado
redakti
redaktis
redaktisto
redaktita
redakto
redaktorino
redaktoro
redaktoroj
rede
reden
rediris
redon
redonas
redoni
redonis
redonita
redono
reds
reduktado
reduktas
redukti
reduktig
reduktigo
reduktis
reduktita
redukto
ree
reed
reela
reelaj
reeldonita
reeldono
reelektita
reen
reenkarnig
reeves
ref
refarig
referas
referenca
referencas
referencata
reference
references
referenci
referencis
referencitaj
referenco
referencoj
referendumo
reflections
refleksiva
reflektas
reflekto
refoje
refondig
refondis
refondita
reform
reforma
reformacio
reformation
reformi
reformisto
reformita
reformo
reformoj
reformojn
reformon
refres
reg
rega
regado
regadon
reganta
regantaj
reganto
regantoj
regas
regata
regataj
rege
regensburg
regento
reggio
regi
regia
regimento
regina
reginald
regio
region
regiona
regionaj
regionajn
regional
regionan
regione
regiono
regionoj
regionojn
regionon
regions
regis
registara
registaraj
registaran
registaro
registaroj
registarojn
registaron
register
registrado
registradoj
registraj
registras
registri
registrig
registris
registrita
registritaj
registro
registroj
registrojn
registron
regita
regna
regno
regnoj
regnon
rego
regon
regopovoj
regotempo
regu
regula
regulado
regulaj
regulajn
regulan
regularo
regularoj
regularon
regule
reguligas
reguligi
reguligita
reguligo
regulo
reguloj
regulojn
regulon
regyha
rehungarig
rei
reich
reichenbach
reichstag
reid
reihe
reims
reina
reinbek
reine
reiner
reinhard
reinhardt
reinhold
reinmuth
reiras
reiri
reiris
reiru
reis
reise
rej
rejkjaviko
rejn
rejna
rejnlando
rejno
rek
reklamado
reklamo
reklamoj
rekomencig
rekomencis
rekomendas
rekomendi
rekomendis
rekomendo
rekomendoj
rekompenco
rekompencon
rekonas
rekonata
rekonebla
rekoneblaj
rekoneblas
rekoni
rekonis
rekonita
rekonkeris
rekonkero
rekono
rekonon
rekonsciig
rekonstruado
rekonstrui
rekonstruig
rekonstruis
rekonstruita
rekonstruitaj
rekonstruo
rekonstruon
rekontrolita
rekordo
rekordoj
rekordon
rekta
rektaj
rektajn
rektan
rektangula
rekte
rekto
rektoro
rekuperig
rekuperis
rekviemo
rel
related
relation
relations
relationship
relationships
relativa
relativan
relative
relativeco
release
relevig
reliefas
reliefo
reliefoj
religia
religiaj
religiajn
religian
religie
religio
religioj
religion
religions
religious
religiuloj
relikvoj
relog
reloj
rem
rembrandt
reme
rememoras
rememorigas
rememoris
rememoro
rememoroj
remo
remparo
remparoj
ren
rena
renaissance
renard
renaskig
renate
renato
renaud
renault
renco
rendsburg
rene
renesanca
renesancaj
renesanco
renkontas
renkonte
renkonti
renkontig
renkontis
renkonto
renkontoj
rennes
rennsteig
reno
renoj
renoma
renomaj
renomig
renomita
renomon
renovig
renovigaj
renovigi
renovigis
renovigita
renovigitaj
renovigo
renreiter
renversi
renversig
renversis
renverso
reo
reokupis
repacig
repertuaro
report
reports
repreni
reprenis
represita
represo
reprezalioj
reprezenta
reprezentado
reprezentaj
reprezentanta
reprezentantaj
reprezentante
reprezentanto
reprezentantoj
reprezentantojn
reprezentas
reprezentata
reprezentataj
reprezenti
reprezentig
reprezentis
reprezentita
reprezentitaj
reprezento
reprint
reproductive
reprodukta
reproduktado
reproduktaj
reproduktan
reproduktanta
reproduktantaj
reprodukti
reproduktig
reptiles
reptilioj
repu
republic
republik
repus
reputacio
reputacion
requiem
rer
rericevis
rerum
res
resanig
research
reserc
reserve
resistance
resolution
resonanco
resonancoj
resource
resources
resp
respegulas
respektas
respektata
respekti
respektis
respektiva
respektivaj
respektive
respekto
respekton
responda
respondas
responde
respondeca
respondecaj
respondecas
respondecis
respondeco
respondecon
respondecredaktoro
respondeculo
respondeculoj
respondi
respondis
respondo
respondoj
respondojn
respondon
respondos
responsa
response
responsis
respublika
respublikana
respublikano
respublikanoj
respubliko
respublikoj
respublikon
resta
restadejo
restadis
restado
restaj
restanta
restantaj
restante
restarigi
restarigis
restarigita
restarigo
restas
restau
resti
restinta
restintaj
restis
resto
restoj
reston
restoracio
restoracioj
restos
restu
restus
results
resumas
resume
resumo
resurekto
resursoj
ret
reta
retablo
retaj
retajn
retarkivo
rete
retejo
retejoj
retejon
retenas
reteni
retenis
retirig
retiris
retiro
reto
retoj
retojn
reton
retoriko
retpag
retpos
retradio
retrieved
retrovi
retrovis
retrovita
return
returne
reu
reunio
reunuig
reuss
reuters
reuß
rev
revelacio
revenante
revenas
reveng
reveni
revenigi
reveninta
reveninte
revenis
reveno
revenon
revenos
revenu
review
reviews
revis
revised
revista
revivig
revivigi
revivigis
revivigo
reviziis
reviziita
revizio
revizoro
revo
revoj
revolucia
revoluciaj
revolucian
revolucio
revolucioj
revolucion
revoluciulo
revoluciuloj
revolution
revolutionary
revue
revuo
revuoj
revuojn
revuon
rex
rey
reyes
reykjavi
reynolds
reysol
rez
reza
rezerva
rezervejo
rezervejoj
rezervita
rezervo
rezervoj
rezervujo
rezidejo
rezidis
rezignas
rezigni
rezignis
rezigno
rezino
rezista
rezistado
rezistanco
rezisti
rezistis
rezisto
rezistomovado
reziston
rezolucio
rezolucion
rezonado
rezso
rezulta
rezultanta
rezultas
rezultato
rezulte
rezulti
rezultig
rezultigas
rezultigis
rezultis
rezulto
rezultoj
rezultojn
rezulton
rf
rfi
rg
rga
rgen
rger
rgio
rgu
rgy
rgyi
rh
rhein
rheinland
rhely
rhelyi
rhin
rho
rhodes
rhythm
ri
ria
ribbentrop
ribeira
ribeiro
ribela
ribelaj
ribelantoj
ribelig
ribelis
ribelo
ribeloj
ribelon
ribeluloj
ribera
ribes
ric
rica
ricardo
ricci
rice
ricevante
ricevanto
ricevas
ricevi
ricevinta
ricevinte
ricevinto
ricevis
ricevita
ricevitaj
ricevo
ricevos
ricevu
rich
richard
richards
richardson
richelieu
richmond
richter
ricio
rick
rico
ricz
rida
ridas
ridetante
ridetis
rideto
ridge
ridi
ridinda
ridis
rido
rie
ried
riemann
rien
ries
rieure
rifo
rifoj
rifug
rifuzas
rifuzi
rifuzis
rifuzita
rifuzo
rig
riga
rigardante
rigardas
rigardata
rigardataj
rigardi
rigardis
rigardita
rigardo
rigardoj
rigardon
rigardu
rigas
right
rightarrow
rights
rigi
rigida
rigidaj
rigis
rigo
rigoletto
rigon
rigora
rigu
rih
rik
rika
rikardo
riko
rikoltis
rikolto
rilata
rilataj
rilatajn
rilatanta
rilatas
rilate
rilati
rilatis
rilato
rilatoj
rilatojn
rilaton
rilatumo
rim
rimarkas
rimarki
rimarkigas
rimarkigis
rimarkinda
rimarkindaj
rimarkindajn
rimarkindan
rimarkindas
rimarkinde
rimarkis
rimarko
rimarkoj
rimarku
rimavska
rime
rimedo
rimedoj
rimedojn
rimedon
rimini
rimo
rimoj
rin
rinc
rinco
rinda
rinde
ring
ringa
ringen
ringer
ringo
ringoj
ringojn
ringon
rino
rinocero
rio
rioh
rioja
riparado
ripari
riparita
riparo
ripetado
ripetas
ripetata
ripete
ripeti
ripetig
ripetis
ripetita
ripido
ripley
ripova
ripozas
ripoze
ripozejo
ripozejoj
ripozi
ripozis
ripozo
ripozon
riproc
rique
ris
rise
rising
risk
riskas
riski
risko
riskoj
riskon
risorto
risso
risto
rita
ritaj
ritanio
rite
ritma
ritmo
ritmoj
ritmon
rito
ritoj
ritojn
ritter
ritz
riva
rivaleco
rivalo
rivas
rive
rivelas
river
rivera
riveraj
riverbordo
riverbus
riverego
rivereto
riveretoj
rivero
riveroj
riverojn
riveron
rivers
riverside
rivie
riviera
rizo
rizzoli
rj
rk
rka
rke
rkheim
rko
rkus
rl
rlap
rlitz
rm
rma
rme
rmegye
rmend
rmil
rn
rna
rnberg
rne
rner
rngen
rni
rno
rnye
ro
road
rob
robbins
robert
roberto
roberts
robertson
robin
robinson
robo
roboto
robotoj
roc
roca
rocca
rocha
roche
rochefort
rochelle
rochester
rock
rockefeller
rocky
rod
roda
rodano
rodezio
rodin
rodni
rodolfo
rodri
rodrigo
rodrigues
rodriguez
rog
roger
rogers
roh
rohr
roi
rois
roj
rojas
rojn
rojo
rojoj
rok
roka
rokaj
rokenrolo
rokgrupo
rokmuzika
rokmuziko
roko
rokoj
rokon
roku
rokycany
roland
rolas
role
rolf
roli
rolis
roll
rolland
rolle
rolling
rolls
rolo
roloj
rolojn
rolon
rolulo
roluloj
rolulojn
rolulon
roly
rolyi
rom
roma
romain
romaj
roman
romana
romanc
romance
romani
romanika
romanikaj
romaniko
romanisto
romanjo
romano
romanoj
romanojn
romanon
romantika
romantikaj
romantikismo
romantisma
romantismo
romaoj
rombo
rome
romeo
romero
romia
romiaj
romiajn
romian
romianoj
romio
romkatolika
romkatolikisma
romo
romon
rompas
rompi
rompig
rompis
rompita
rompitaj
rompo
romsze
ron
ronald
rond
ronda
rondaj
rondan
ronde
rondeto
rondiro
rondo
rondoj
rondon
rong
room
roosevelt
root
roots
ropa
ropaj
ropajn
ropan
ropano
ropanoj
ropo
ropon
roque
roro
ros
rosa
rosario
rosas
rose
rosen
rosenberg
roses
rosi
roso
rospatak
ross
rossetti
rossi
rossini
rosso
rostand
rostita
rostock
rostov
rot
rota
rotacia
rotacianta
rotacio
rote
roterdamo
roth
rothschild
roti
roto
rotondo
rotten
rotterdam
rottweil
rouen
rouge
rough
round
rouse
rousseau
route
routledge
roux
rov
rovido
row
rowohlt
roy
royal
royale
roz
roza
rozario
rozkolora
rozkoloraj
rozo
rozoj
rp
rpa
rper
rpr
rquez
rr
rrez
rs
rsa
rsasa
rse
rsfsr
rspb
rst
rsulat
rt
rta
rte
rtel
rten
rter
rterbuch
rth
rtner
rto
rton
rttemberg
ru
ruando
rubaj
rubando
ruben
rubens
rubloj
rublojn
rubo
rubriko
ruby
rudi
rudolf
rudolfo
rudolph
rudolstadt
rue
rufa
rufus
rug
ruhr
ruina
ruinaj
ruinig
ruinigis
ruinigita
ruino
ruinoj
ruinojn
ruiz
rulaj
rule
rules
rulig
ruls
rulseg
rum
ruma
rumana
rumanaj
rumane
rumania
rumanihungara
rumanio
rumanoj
rumanuja
rumanujo
rumex
run
rundfunk
rung
rupert
ruprecht
rura
ruraj
rural
rus
rusa
rusaj
rusajn
rusan
ruse
rush
rusia
rusiaj
rusian
rusio
rusion
ruslanda
ruslando
ruslingva
ruso
rusoj
russell
russia
russian
rust
rusujo
ruta
rutene
rutenoj
rutgers
ruth
rutherford
ruz
ruza
rv
rva
rve
rvi
rw
ry
ryan
rybni
rychnov
ryo
ryszard
rz
rza
rzburg
rze
s
sa
saale
saalfeld
saalfelden
saarbru
saarburg
saba
sabate
sabato
sabaton
sabina
sabine
sabla
sablaj
sablo
sablokolora
sablokoloraj
sablos
sabo
sac
sacerdoto
sacerdotoj
sache
sachs
sachsen
sack
sacra
sacre
sacred
sad
saddam
sadie
safety
sag
saga
sagan
sagao
sage
sagen
sago
sagoj
sah
sahara
saharo
sai
said
saint
sainte
saintes
saints
saito
saj
sajo
saka
sako
sakon
sakovojo
sakrala
sakramento
sakramentoj
sakristio
saksa
saksia
saksio
saksofonisto
saksofono
saksoj
sal
sala
saladino
salaj
salajro
salajroj
salajron
salamanca
salamanko
salamon
salas
salato
salazar
salcburga
salcburgio
salcburgo
sale
salem
salerno
sales
salgo
salikata
salikato
saliko
salinas
salisbury
salix
salle
sally
salmo
salo
saloj
salome
salomon
salomono
salomonoj
salon
salonego
salono
salonoj
salonon
salt
saltas
salti
saltis
salto
salutas
saluti
salutis
saluto
saluton
salvador
salvadoro
salvatore
salzburg
salzburger
sam
sama
samag
samaj
samajn
saman
samara
samario
samaro
samas
samba
samband
sambo
same
samea
samgenranoj
samideano
samideanoj
samjare
samkiel
samloke
sammaniere
sammlung
samnoma
samnomaj
samnoman
samnomata
samo
samon
samoo
samseksema
samseksemaj
samseksemo
samseksemuloj
samtage
samtempa
samtempaj
samtempe
samtempulo
samtempuloj
samtitola
samu
samuel
san
sana
sanaj
sanatorio
sanc
sancho
sancti
sand
sanders
sandra
sandro
sandvic
sanfrecce
sang
sanga
sangaj
sango
sangon
sanig
sankt
sankta
sanktaj
sanktajn
sanktan
sankteco
sanktejo
sanktejoj
sanktejon
sanktulino
sanktulo
sanktuloj
sano
sanon
sans
sanskrita
sanskrite
sanskrito
sanstato
sant
santa
santana
santander
santandero
santi
santiago
santo
santos
sanyo
sanz
sao
saob
saol
sapere
sapiens
sapigo
sapo
sapporo
sar
sara
sarah
sarajevo
sardio
sargatal
sargsjan
sarino
sarkozy
sarlando
sars
sarthe
sartre
sas
sasanida
saskac
sat
satano
satelita
satelito
satelitoj
satellite
satira
satiraj
satiro
satmaro
sato
satoru
sats
satu
saturita
saturn
saturno
sau
saud
sauda
sauer
saul
saunders
saussure
sava
savage
savannah
savano
savanoj
savanto
savas
save
savi
savig
savigny
savinto
savis
savita
savitaj
savo
savoie
savojo
savon
savos
savoue
savoy
savu
say
says
sb
sc
scala
scale
scar
scarecrow
sce
scenaristo
scenaro
scenaron
sceneja
scenejo
scenejoj
scenejon
sceno
scenoj
scenojn
scenon
scents
sch
scha
sche
schelte
schen
schengen
schiff
schiller
schimp
schindler
schla
schlegel
schleswig
schleyer
schlo
schloss
schloß
schlu
schmadel
schmalkalden
schmid
schmidt
schmitt
schmitz
schneider
schnell
scho
schon
school
schools
schopenhauer
schott
schriften
schro
schu
schubert
schule
schuller
schultz
schulz
schulze
schumann
schuster
schwa
schwartz
schwarz
schwarzburg
schwarze
schwarzenberg
schwarzschild
schweitzer
schweiz
schweizer
schwerin
sci
sciante
sciaro
scias
sciata
scienc
scienca
sciencaj
sciencajn
sciencan
science
sciences
sciencfikcia
sciencfikcio
sciencisto
sciencistoj
scienco
sciencoj
sciencojn
sciencon
scienculo
scienculoj
scientific
scientist
scientists
scii
sciig
sciigas
sciigi
sciigis
sciigo
sciigoj
sciigon
sciis
scio
scioj
sciojn
scion
scios
scipovas
scipovis
sciu
sciuro
scius
score
scotland
scott
scottish
screen
scsaba
scuola
sd
se
sea
seabirds
sean
search
season
seatlo
seattle
sebastia
sebastian
sebastiano
sebastopolo
sebert
sebestye
sebio
sec
secesio
second
secret
secrets
section
secuiesc
secundum
security
sed
sedimentaj
sedimentoj
sedlec
sedlo
see
seele
seen
seg
segedo
segmento
segmentoj
segovia
segovio
segura
sehen
sehr
sei
seiji
sein
seine
seinem
seinen
seiner
seit
seite
seiten
sejm
sejmo
sejno
sejs
sejuo
sek
seka
sekaj
sekajn
sekalo
sekan
sekcio
sekcioj
sekciojn
sekcion
sekco
sekeco
sekelj
seki
sekig
sekigita
sekigitaj
sekreta
sekretaj
sekretan
sekretariejo
sekretariino
sekretario
sekrete
sekreto
sekretoj
sekreton
seksa
seksaj
seksajn
seksan
sekse
sekseco
sekso
seksoj
sekson
seksumado
sekto
sektoj
sektoro
sektoroj
sektoron
sekulara
sekundara
sekundo
sekundoj
sekundojn
sekura
sekuraj
sekuran
sekure
sekureca
sekurecaj
sekureco
sekurecon
sekurigi
sekurigis
sekva
sekvaj
sekvajn
sekvan
sekvanta
sekvantaj
sekvantajn
sekvantan
sekvantaro
sekvante
sekvanto
sekvantoj
sekvas
sekvata
sekve
sekvenco
sekvi
sekvis
sekvita
sekvo
sekvoj
sekvojn
sekvos
sekvu
sel
sela
selbst
selected
selection
selektado
selekto
seleno
seleu
self
selg
selmecba
selo
selon
selten
sem
semajna
semajne
semajnfino
semajngazeto
semajno
semajnoj
semajnojn
semajnon
semana
semestro
semi
semily
seminario
seminarioj
seminarion
semmelweis
semo
semoj
semojn
semon
sen
senarbarigo
senata
senatano
senatanoj
senato
senbatale
senc
sence
senco
sencon
sendai
sendang
sendas
sendependa
sendependaj
sendependajn
sendependan
sendepende
sendependeco
sendependecon
sendependig
sendependigo
sendependo
sendependon
sendi
sendis
sendita
senditaj
sendito
sendos
sendu
sendube
senegala
senegalio
senegalo
seneko
senescepte
senfina
senfinaj
senfine
seng
senhalte
senhidratigo
senhoma
senhomig
senigita
seniluziig
seninterrompe
senior
senjora
senjorlando
senjoro
senjoroj
senjorujo
senkolora
senkoloraj
senkondic
senkulpa
senlaboreco
senlima
senlog
senmakula
senmorta
senmorteco
senmova
senmove
sennacieca
sennaciismo
sennaciulo
sennoma
sennombraj
sennombrajn
senpaga
senpagaj
senpagan
senpage
senpera
senpere
senpintigita
senprobleme
senprokraste
senrajtaj
sens
sense
sensencaj
sensignifa
senso
sensoj
sensukcesa
sensukcese
sent
senta
sentante
sentas
sentema
sentencoj
senti
sentis
sento
sentoj
sentojn
senton
senutila
senvertebruloj
senvertebrulojn
senvoc
sep
sepa
sepaloj
separas
separata
separataj
separig
sepdek
sepjara
sepsiszentgyo
sept
september
septembre
septembro
septuaginto
sepu
sepultita
sequence
sequences
ser
sera
serba
serbaj
serbe
serbio
serboj
serc
serena
serg
serge
sergei
sergej
sergio
seria
serie
series
serinus
serio
serioj
seriojn
serion
serioza
seriozaj
seriozan
serioze
serpento
serpentoj
serra
serrani
serrano
serva
servado
servanta
servante
servanto
servantoj
servas
servata
serve
servi
service
services
servilo
serviloj
servis
servistino
servisto
servistoj
servita
servo
servoj
servojn
servon
servu
servuteco
ses
sesa
sesdek
sesio
seslatera
set
setlado
setlantoj
setlejo
setlejoj
setlejojn
setlejon
setlig
setlis
seu
seuil
seulo
sevan
seven
severa
severaj
severan
severe
severin
severo
sevilla
sevilo
sex
sexual
seymour
sezona
sezonaj
sezone
sezono
sezonoj
sezonon
sf
sfa
sfera
sfero
sferoj
sforza
sg
sganarelo
sh
sha
shackleton
shadow
shah
shakespeare
shall
shanghai
shannon
sharp
sharpe
shaw
she
sheet
sheets
sheffield
sheila
shelley
sherman
shi
shimizu
shin
ship
shirley
sho
shoemaker
shoghi
shonan
short
should
show
shtml
shu
si
sia
siaflanke
siaj
siajn
sian
siatempe
siavice
siberia
siberio
sibio
sibiu
sibley
sic
sica
sich
sicilia
sicilio
sid
sidanta
sidante
sidas
side
sidejo
sidejoj
sidejon
sident
sidi
sidig
siding
sidis
sidloko
sidlokoj
sidlokojn
sidnejo
sidney
sie
siebenbu
sieg
siegen
siegfried
siehe
siemens
siempre
sienkiewicz
sieno
sieraleono
sierra
sig
sigelo
sigismondo
siglo
sigma
sigmund
sign
signal
signalo
signaloj
signalojn
signalon
signas
signifa
signifaj
signifajn
signifan
signifanta
signifante
signifas
signife
signifi
significance
signifis
signifo
signifoj
signifojn
signifon
signifus
signis
signita
signo
signoj
signojn
signolingvo
signon
sik
siklo
sikorski
sil
sila
silabo
silaboj
silence
silent
silenta
silentas
silente
silentis
silento
silenton
silentu
silezia
sileziaj
silezio
silicio
silikatoj
silka
silko
silla
silva
silver
silvestre
silvestro
silvia
silviedoj
silvio
sim
sima
simbad
simbola
simbolaj
simbolan
simbolas
simbole
simbolismo
simbolo
simboloj
simbolojn
simbolon
simetria
simetriaj
simetrio
simetrion
simferopolo
simfonia
simfonio
simfonioj
simfonion
simila
similaj
similajn
similan
similas
simile
simileco
similecon
similis
simio
simioj
simme
simo
simon
simone
simono
simpatio
simpation
simpla
simplaj
simplajn
simplan
simple
simpleco
simpligita
simpozio
simpson
simptomo
simptomoj
simptomojn
simulado
sin
sina
sinagogo
sinagogon
sinajo
sinatra
since
sincera
sincere
sinclair
sind
sindedic
sindikata
sindikato
sindikatoj
sindromo
sine
sing
singapore
singapuro
singarde
singen
singer
singh
single
singlong
singular
singulara
singulare
singularo
sinjorejo
sinjorino
sinjorinoj
sinjoro
sinjoroj
sinjoron
sinkis
sinmortigo
sinn
sinne
sino
sinodo
sinonimo
sinonimoj
sinsekva
sinsekvaj
sinsekve
sinsekvo
sinsekvon
sint
sintakso
sinteno
sintenoj
sintenojn
sintenon
sinteza
sintezaj
sintezo
sintezoj
sio
sipos
sir
sirakuzo
sire
siria
siriaj
sirio
siro
sis
sistema
sistemaj
sisteman
sisteme
sistemo
sistemoj
sistemojn
sistemon
sister
site
sites
sito
situa
situacio
situacioj
situaciojn
situacion
situanta
situantaj
situantas
situante
situas
situation
situejo
situis
situo
situon
sive
six
size
sj
sjo
sjuniko
sk
ska
skaftfell
skalara
skalo
skaloj
skandalo
skandalon
skandinava
skandinavaj
skandinavio
skarabo
skaraboj
skatolo
ske
skec
skeleto
skemo
skemoj
skermisto
sketado
ski
skiado
skie
skiego
skij
skinner
skio
skipo
skira
skismo
skizis
skizo
skizoj
sklaveco
sklavecon
sklavino
sklavo
sklavoj
sklavojn
sko
skolo
skoloj
skolon
skolta
skoltoj
skota
skotaj
skotio
skotlando
skoto
skotoj
skriba
skribado
skribaj
skribante
skribas
skribata
skribe
skribi
skribig
skribis
skribisto
skribistoj
skribita
skribitaj
skribitan
skribite
skribmaniero
skribmencio
skribo
skriboj
skribon
skribsistemo
skribu
sku
skuis
skulptaj
skulptarto
skulptisto
skulptistoj
skulptita
skulptitaj
skultanto
skultantoj
skultas
skulti
skultis
skultu
skurg
skvamoj
skvaro
sky
skyla
skyview
sl
sla
slatina
slava
slavaj
slave
slavoj
slenzk
slenzkra
slim
slipo
sloan
slogano
slovaka
slovakaj
slovake
slovakia
slovakio
slovakoj
slovena
slovene
slovenia
slovenio
slovenoj
slovenska
slupsko
sm
sma
small
smart
smarty
smetana
smith
smithsonian
smolensk
sn
sna
sncf
sne
snow
so
soares
sobe
sobieski
sobota
sobre
soc
soci
socia
sociaj
sociajn
social
sociala
socialaj
socialdemokrata
socialdemokratia
socialdemokratoj
sociale
socialism
socialisma
socialismaj
socialisman
socialismo
socialismon
socialist
socialista
socialistaj
socialisto
socialistoj
socian
socie
sociedad
societa
societies
societo
societoj
societon
society
socio
socioj
sociologia
sociologio
sociologo
sociology
socion
socorro
sofia
sofio
sofoklo
software
sohn
sojlo
sojuz
sok
soklo
sokol
sokolov
sokrato
sol
sola
solaj
solan
solanum
solar
soldata
soldataro
soldataroj
soldatig
soldato
soldatoj
soldatojn
sole
soleca
soleco
soledad
soleil
solena
solenaj
solenan
solene
soli
solid
solida
solidaj
solidareco
solidig
solido
solidoj
solisto
soll
solo
solomon
soloturno
solr
solvado
solvaj
solvanto
solvantoj
solvas
solvebla
solvi
solvig
solvis
solvita
solvitaj
solvo
solvoj
solvojn
solvon
som
somalia
somalio
some
someone
somera
someraj
someran
somere
somermeznokta
somero
someroj
someron
somerset
something
somlo
somme
sommer
somogy
somogyi
son
sona
sonas
sonata
sonato
sonatoj
sondern
sondershausen
sondilo
sondisko
sonetoj
song
songs
sonia
sonis
sonja
sonne
sonny
sono
sonoj
sonojn
sonon
sonora
sonorilejo
sonorilo
sonoriloj
sonorilostablo
sonorilturo
sonregistraj
sons
sont
sony
soo
sophia
sophie
sopiras
sopiris
sopiro
sopra
soprano
sopron
sor
sorbato
sorbonne
sorbono
sorc
soria
sorio
soros
sorto
sorton
sos
sosnowiec
soto
sou
soul
sound
source
sources
sous
sousa
south
southeast
southern
souza
sovag
sovet
soveta
sovetaj
sovetan
sovetia
sovetiaj
sovetio
soveto
sovetoj
sovetrespubliko
sovetunia
sovetunio
sovetunion
soviet
sowie
soy
sp
spa
spaca
spacaj
space
spacewatch
spaco
spacoj
spacojn
spacon
spain
spanish
sparrow
sparrows
sparto
spd
spe
speak
specia
special
speciala
specialaj
specialajn
specialan
speciale
specialig
specialisto
specialistoj
species
specifa
specifaj
specifajn
specifan
specife
specifications
specimena
specimeno
specimenoj
specimenojn
specio
specioj
speciojn
specion
speco
specoj
specojn
specon
speech
speed
spegulas
spegulo
speguloj
spektakla
spektaklo
spektakloj
spektaklojn
spektaklon
spektantaro
spektanto
spektantoj
spekti
spektra
spektro
spektroskopio
spencer
sperta
spertaj
spertas
sperti
spertis
sperto
spertoj
spertojn
sperton
spertulo
spertuloj
speyer
spicio
spico
spicoj
spider
spiegel
spiel
spielberg
spino
spinoza
spionado
spiono
spira
spirado
spiri
spirit
spirita
spiritaj
spiritan
spirite
spiriteco
spiritisma
spiritismo
spirito
spiritoj
spiriton
spiro
spis
spite
split
spo
spock
spontanea
sport
sporta
sportaj
sportejo
sportisto
sportistoj
sportistojn
sporto
sportoj
sporton
sports
spoto
spp
spra
sprache
sprachen
spree
spring
springer
springfield
springs
sprita
spritaj
spuro
spuroj
spurojn
sq
sqrt
square
sr
sri
srilanko
sro
ss
ssa
sse
ssel
sseldorf
ssen
sser
ssing
ssr
ssy
st
sta
staat
stabanaro
stabila
stabilaj
stabilan
stabileco
stabilecon
stabilig
stabo
stachys
stacidomo
stacidomoj
stacidomon
stacio
stacioj
staciojn
stacion
stade
stadio
stadioj
stadiono
stadt
stafeto
staff
stag
stage
stalin
stalingrado
stalinismo
stalino
stalo
stamenoj
stamm
stampis
stampita
stan
stana
stand
standard
standardo
standards
stanford
stango
stangoj
stanislao
stanislas
stanislav
stanislavo
stanisław
stanley
stano
star
stara
staranta
starantaj
starante
staras
stare
stari
starig
starigas
starigi
starigis
starigita
starigitaj
starigitis
starigo
starigon
staris
stark
staro
staron
stars
start
startas
startis
starto
stary
stas
stat
stata
state
statement
states
statika
station
statistical
statistics
statistika
statistikaj
statistike
statistikisto
statistiko
statistikoj
statisztikai
stato
statoids
statoj
staton
statuaro
statuo
statuoj
statuojn
statuon
status
statuso
statuson
statuta
statuto
statutoj
statuton
stau
ste
steel
steele
stefan
stefano
steffen
stehen
steht
stein
steinberg
steiner
stek
stela
stelaj
stelamaso
steleo
stella
stelle
stelo
steloj
stelojn
stelon
stels
stelulis
stelulo
steluloj
sten
stendal
stenografio
step
stepa
stepan
stepanovic
stephan
stephanie
stephen
stephens
stepo
stepoj
ster
sterko
sterling
stern
sternaj
sterreich
sterreichische
sterreichischen
sterreichischer
steve
steven
stevens
stevenson
steward
stewart
sti
stica
stichwort
stico
stiftung
stila
stilaj
stile
still
stilo
stiloj
stilojn
stilon
stimuli
stipendio
stipendiojn
stipendion
stirio
stirpo
stm
sto
stochowa
stock
stockholm
stojan
stokado
stokejo
stokholmo
stomako
stone
stones
stop
store
storia
stories
storm
story
str
stra
strabono
straj
strakonice
strala
stralazia
stralia
straliaj
stralio
strando
strandoj
stranga
strangaj
strangajn
strangan
strange
strasbg
strasbourg
strasburgo
strata
strategia
strategiaj
strategian
strategie
strategies
strategio
strategioj
strategion
strategy
strateto
strato
stratoj
stratojn
straton
strauss
strauß
stravinski
straße
strebas
strebis
strebo
streboj
strec
streda
street
streketo
streko
strekoj
stri
stria
striaj
strieca
striecaj
strieco
strigo
strigoj
striita
striko
strikoj
strikta
striktaj
strikte
strio
strioj
striojn
strion
stro
strobiloj
strofo
strofoj
stroj
strong
structure
structures
struggle
strujo
struktura
strukturaj
strukturo
strukturoj
strukturojn
strukturon
struto
strutoformaj
sts
stu
stuart
studa
studadis
studado
studadon
studaj
studante
studantoj
studas
studata
student
studenta
studentaj
studentino
studento
studentoj
studentojn
students
studi
studia
studie
studien
studies
studio
studioj
studion
studios
studis
studita
studitaj
studium
studjaro
studo
studoj
studojn
studon
studvojag
study
stulta
stultaj
stultulo
sturm
sturmo
sturno
stutgarto
stuttgart
style
su
sua
sub
suba
subac
subaj
subajn
subakve
subakvig
suban
subaro
subc
subdistrikto
subdividita
subdivido
sube
suben
subfamilio
subflugiloj
subg
subgenro
subgrupo
subgubernio
subig
subita
subite
subjektiva
subjekto
subjektoj
subklaso
subkolonelo
subkontinento
submara
submars
submeti
submetig
submetis
submetita
submetitaj
subministro
submunicipo
subordo
subotica
subpremado
subpremi
subpremis
subpremita
subpremo
subregiono
subs
subsahara
subskribi
subskribis
subskribita
subskribitaj
subskribo
subsp
subspecio
subspecioj
subspeciojn
substance
substances
substanco
substancoj
substancojn
substancon
substantiv
substantiva
substantivo
substantivoj
substantivs
substrekas
substrekis
subtekstoj
subtena
subtenante
subtenanto
subtenantoj
subtenas
subtenata
subtenataj
subteni
subtenis
subtenita
subteno
subtenon
subtera
subteraj
subteran
subtere
subtila
subtitolo
subtitoloj
subtropika
subtropikaj
subtropikan
subuloj
subvencioj
suc
success
such
sud
suda
sudafrika
sudafriko
sudaj
sudamerika
sudamerikaj
sudameriko
sudan
sudana
sudano
sudbohemia
sude
suden
sudkorea
sudmoravia
sudo
sudokcidenta
sudokcidente
[...]
