!
"
#
##a
##aa
##ab
##ac
##ad
##ae
##af
##ag
##ah
##ai
##aj
##ak
##al
##am
##an
##ao
##ap
##aq
##ar
##as
##at
##au
##av
##aw
##ax
##ay
##az
##b
##ba
##bb
##bc
##bd
##be
##bf
##bg
##bh
##bi
##bj
##bk
##bl
##bm
##bn
##bo
##bp
##bq
##br
##bs
##bt
##bu
##bv
##bw
##bx
##by
##bz
##c
##ca
##cb
##cc
##cd
##ce
##cf
##cg
##ch
##ci
##cj
##ck
##cl
##cm
##cn
##co
##cp
##cq
##cr
##cs
##ct
##cu
##cv
##cw
##cx
##cy
##cz
##d
##da
##db
##dc
##dd
##de
##df
##dg
##dh
##di
##dj
##dk
##dl
##dm
##dn
##do
##dp
##dq
##dr
##ds
##dt
##du
##dv
##dw
##dx
##dy
##dz
##e
##ea
##eb
##ec
##ed
##ee
##ef
##eg
##eh
##ei
##ej
##ek
##el
##em
##en
##eo
##ep
##eq
##er
##es
##et
##eu
##ev
##ew
##ex
##ey
##ez
##f
##fa
##fb
##fc
##fd
##fe
##ff
##fg
##fh
##fi
##fj
##fk
##fl
##fm
##fn
##fo
##fp
##fq
##fr
##fs
##ft
##fu
##fv
##fw
##fx
##fy
##fz
##g
##ga
##gb
##gc
##gd
##ge
##gf
##gg
##gh
##gi
##gj
##gk
##gl
##gm
##gn
##go
##gp
##gq
##gr
##gs
##gt
##gu
##gv
##gw
##gx
##gy
##gz
##h
##ha
##hb
##hc
##hd
##he
##hf
##hg
##hh
##hi
##hj
##hk
##hl
##hm
##hn
##ho
##hp
##hq
##hr
##hs
##ht
##hu
##hv
##hw
##hx
##hy
##hz
##i
##ia
##ib
##ic
##id
##ie
##if
##ig
##ih
##ii
##ij
##ik
##il
##im
##in
##io
##ip
##iq
##ir
##is
##it
##iu
##iv
##iw
##ix
##iy
##iz
##j
##ja
##jb
##jc
##jd
##je
##jf
##jg
##jh
##ji
##jj
##jk
##jl
##jm
##jn
##jo
##jp
##jq
##jr
##js
##jt
##ju
##jv
##jw
##jx
##jy
##jz
##k
##ka
##kb
##kc
##kd
##ke
##kf
##kg
##kh
##ki
##kj
##kk
##kl
##km
##kn
##ko
##kp
##kq
##kr
##ks
##kt
##ku
##kv
##kw
##kx
##ky
##kz
##l
##la
##lb
##lc
##ld
##le
##lf
##lg
##lh
##li
##lj
##lk
##ll
##lm
##ln
##lo
##lp
##lq
##lr
##ls
##lt
##lu
##lv
##lw
##lx
##ly
##lz
##m
##ma
##mb
##mc
##md
##me
##mf
##mg
##mh
##mi
##mj
##mk
##ml
##mm
##mn
##mo
##mp
##mq
##mr
##ms
##mt
##mu
##mv
##mw
##mx
##my
##mz
##n
##na
##nb
##nc
##nd
##ne
##nf
##ng
##nh
##ni
##nj
##nk
##nl
##nm
##nn
##no
##np
##nq
##nr
##ns
##nt
##nu
##nv
##nw
##nx
##ny
##nz
##o
##oa
##ob
##oc
##od
##oe
##of
##og
##oh
##oi
##oj
##ok
##ol
##om
##on
##oo
##op
##oq
##or
##os
##ot
##ou
##ov
##ow
##ox
##oy
##oz
##p
##pa
##pb
##pc
##pd
##pe
##pf
##pg
##ph
##pi
##pj
##pk
##pl
##pm
##pn
##po
##pp
##pq
##pr
##ps
##pt
##pu
##pv
##pw
##px
##py
##pz
##q
##qa
##qb
##qc
##qd
##qe
##qf
##qg
##qh
##qi
##qj
##qk
##ql
##qm
##qn
##qo
##qp
##qq
##qr
##qs
##qt
##qu
##qv
##qw
##qx
##qy
##qz
##r
##ra
##rb
##rc
##rd
##re
##rf
##rg
##rh
##ri
##rj
##rk
##rl
##rm
##rn
##ro
##rp
##rq
##rr
##rs
##rt
##ru
##rv
##rw
##rx
##ry
##rz
##s
##sa
##sb
##sc
##sd
##se
##sf
##sg
##sh
##si
##sj
##sk
##sl
##sm
##sn
##so
##sp
##sq
##sr
##ss
##st
##su
##sv
##sw
##sx
##sy
##sz
##t
##ta
##tb
##tc
##td
##te
##tf
##tg
##th
##ti
##tj
##tk
##tl
##tm
##tn
##to
##tp
##tq
##tr
##ts
##tt
##tu
##tv
##tw
##tx
##ty
##tz
##u
##ua
##ub
##uc
##ud
##ue
##uf
##ug
##uh
##ui
##uj
##uk
##ul
##um
##un
##uo
##up
##uq
##ur
##us
##ut
##uu
##uv
##uw
##ux
##uy
##uz
##v
##va
##vb
##vc
##vd
##ve
##vf
##vg
##vh
##vi
##vj
##vk
##vl
##vm
##vn
##vo
##vp
##vq
##vr
##vs
##vt
##vu
##vv
##vw
##vx
##vy
##vz
##w
##wa
##wb
##wc
##wd
##we
##wf
##wg
##wh
##wi
##wj
##wk
##wl
##wm
##wn
##wo
##wp
##wq
##wr
##ws
##wt
##wu
##wv
##ww
##wx
##wy
##wz
##x
##xa
##xb
##xc
##xd
##xe
##xf
##xg
##xh
##xi
##xj
##xk
##xl
##xm
##xn
##xo
##xp
##xq
##xr
##xs
##xt
##xu
##xv
##xw
##xx
##xy
##xz
##y
##ya
##yb
##yc
##yd
##ye
##yf
##yg
##yh
##yi
##yj
##yk
##yl
##ym
##yn
##yo
##yp
##yq
##yr
##ys
##yt
##yu
##yv
##yw
##yx
##yy
##yz
##z
##za
##zb
##zc
##zd
##ze
##zf
##zg
##zh
##zi
##zj
##zk
##zl
##zm
##zn
##zo
##zp
##zq
##zr
##zs
##zt
##zu
##zv
##zw
##zx
##zy
##zz
$
%
&
'
(
)
*
+
,
-
.
/
0
00
000
0004
001
002
003
004
0044
005
006
007
008
009
01
010
011
012
013
017
017473
02
020
03
030
033
04
040
044
05
050
05506
06
067
07
070
072
08
083
09
090
0a
0b
0c
0d
0e
0f
0g
0h
0i
0j
0k
0l
0m
0n
0o
0p
0q
0r
0s
0t
0u
0v
0w
0x
0y
0z
1
10
100
1000
10000
1001
1002
1007
101
1010
1015
1016
1017
102
1020
103
1030
1038
104
1040
1046
105
1050
1054
106
1060
1066
107
1070
1071
1073
108
1080
1086
109
1090
1093
1095
1098
11
110
1100
111
1110
1111
1113
1115
112
1120
1125
1126
113
1130
1131
1136
1138
114
1140
1146
1148
115
1150
1155
1156
116
1160
117
1170
1175
1177
118
1180
1185
1186
119
1190
1198
12
120
1200
1201
1204
1209
121
1210
1212
1213
1214
1215
1217
1219
122
1220
1221
1225
1226
1227
1228
1229
123
1230
1232
1234
1235
1237
1238
124
1240
1241
1242
1243
1244
1246
1247
1248
1249
125
1250
1252
1253
1254
1255
1256
1257
1258
126
1260
1261
1263
1264
1265
1267
1268
127
1270
1271
1272
1273
1274
1275
1276
1278
1279
128
1280
1282
1283
1284
1285
1288
1289
129
1290
1291
1292
1294
1295
1296
1297
1298
1299
13
130
1300
1301
1302
1303
1304
1305
1306
1307
1308
1309
131
1310
1311
1312
1314
1315
1316
1317
1318
1319
132
1320
1321
1322
1323
1324
1325
1326
1327
1328
1329
133
1330
1331
1332
1333
1334
1335
1336
1337
134
1340
1341
1342
1344
1345
1346
1347
1348
1349
135
1350
1351
1352
1353
1355
1356
1357
1358
136
1360
1361
1364
1365
1368
1369
137
1370
1371
1374
1375
1377
1378
1379
138
1380
1381
1382
1383
1385
1386
1387
1388
1389
139
1390
1391
1392
1393
1394
1395
1396
1397
1398
1399
14
140
1400
1401
1402
1403
1404
1405
1406
1407
1408
1409
141
1410
1412
1413
1414
1415
1417
1418
1419
142
1420
1421
1422
1423
1424
1425
1427
1428
1429
143
1430
1431
1433
1434
1435
1436
1437
1438
1439
144
1440
1441
1442
1443
1444
1445
1446
1447
1448
1449
145
1450
1451
1452
1453
1454
1455
1456
1457
1458
1459
146
1460
1461
1462
1463
1464
1465
1466
1467
1468
1469
147
1470
1471
1472
1473
1474
1475
1476
1477
1478
1479
148
1480
1481
1482
1483
1484
1485
1486
1487
1488
1489
149
1490
1491
1492
1493
1494
1495
1496
1497
1498
1499
15
150
1500
1501
1502
1503
1504
1505
1506
1507
1508
1509
151
1510
1511
1512
1513
1514
1515
1516
1517
1518
1519
152
1520
1521
1522
1523
1524
1525
1526
1527
1528
1529
153
1530
1531
1532
1533
1534
1535
1536
1537
1538
1539
154
1540
1541
1542
1543
1544
1545
1546
1547
1548
1549
155
1550
1551
1552
1553
1554
1555
1556
1557
1558
1559
156
1560
1561
1562
1563
1564
1565
1566
1567
1568
1569
157
1570
1571
1572
1573
1574
1575
1576
1577
1578
1579
158
1580
1581
1582
1583
1584
1585
1586
1587
1588
1589
159
1590
1591
1592
1593
1594
1595
1596
1597
1598
1599
16
160
1600
1601
1602
1603
1604
1605
1606
1607
1608
1609
161
1610
1611
1612
1613
1614
1615
1616
1617
1618
1619
162
1620
1621
1622
1623
1624
1625
1626
1627
1628
1629
163
1630
1631
1632
1633
1634
1635
1636
1637
1638
1639
164
1640
1641
1642
1643
1644
1645
1646
1647
1648
1649
165
1650
1651
1652
1653
1654
1655
1656
1657
1658
1659
166
1660
1661
1662
1663
1664
1665
1666
1667
1668
1669
167
1670
1671
1672
1673
1674
1675
1676
1677
1678
1679
168
1680
1681
1682
1683
1684
1685
1686
1687
1688
1689
169
1690
1691
1692
1693
1694
1695
1696
16967
1697
1698
1699
17
170
1700
1701
1702
1703
1704
1705
1706
1707
1708
1709
171
1710
1711
1712
1713
1714
1715
1716
1717
1718
1719
172
1720
1721
1722
1723
1724
1725
1726
1727
1728
1729
173
1730
1731
1732
1733
1734
1735
1736
1737
1738
1739
174
1740
1741
1742
1743
1744
1745
1746
1747
1748
1749
175
1750
1751
1752
1753
1754
1755
1756
1757
1758
1759
176
1760
1761
1762
1763
1764
1765
1766
1767
1768
1769
177
1770
1771
1772
1773
1774
1775
1776
1777
1778
1779
178
1780
1781
1782
1783
1784
1785
1786
1787
1788
1789
179
1790
1791
1792
1793
1794
1795
1796
1797
1798
1799
18
180
1800
1801
1802
1803
1804
1805
1806
1807
1808
1809
181
1810
1811
1812
1813
1814
1815
1816
1817
1818
1819
182
1820
1821
1822
1823
1824
1825
1826
1827
1828
1829
183
1830
1831
1832
1833
1834
1835
1836
1837
1838
1839
184
1840
1841
1842
1843
1844
1845
1846
1847
1848
1849
185
1850
1851
1852
1853
1854
1855
1856
1857
1858
1859
186
1860
1861
1862
1863
1864
1865
1866
1867
1868
1869
187
1870
1871
1872
1873
1874
1875
1876
1877
1878
1879
188
1880
1881
1882
1883
1884
1885
1886
1887
1888
1889
189
1890
1891
1892
1893
1894
1895
1896
1897
1898
1899
19
190
1900
1901
1902
1903
1904
1905
1906
1907
1908
1909
191
1910
1911
1912
1913
1914
1915
1916
1917
1918
1919
192
1920
1921
1922
1923
1924
1925
1926
1927
1928
1929
193
1930
1931
1932
1933
1934
1935
1936
1937
1938
1939
194
1940
1941
1942
1943
1944
1945
1946
1947
1948
1949
195
1950
1951
1952
1953
1954
1955
1956
1957
1958
1959
196
1960
1961
1962
1963
1964
1965
1966
1967
1968
1969
197
1970
1971
1972
1973
1974
1975
1976
1977
1978
1979
198
1980
1981
1982
1983
1984
1985
1986
1987
1988
1989
199
1990
1991
1992
1993
1994
1995
1996
1997
1998
1999
1a
1b
1c
1d
1e
1f
1g
1h
1i
1j
1k
1l
1m
1n
1o
1p
1q
1r
1s
1t
1u
1v
1w
1x
1y
1z
2
20
200
2000
20000
2001
2002
2003
2004
2005
2006
2007
2008
2009
201
2010
2011
2012
2013
2014
2015
2016
2017
2018
2019
202
2020
2021
2022
2023
2024
2025
2026
2027
2028
2029
203
2030
2031
2032
2033
2034
2035
2036
2037
2038
2039
204
2040
2041
2042
2043
2044
2045
2046
2047
2048
2049
205
2050
2051
2052
2053
2054
2055
2056
2057
2058
2059
206
2060
2061
2062
2063
2064
2065
2066
2067
2068
2069
207
2070
2071
2072
2073
2074
2075
2076
2077
2078
2079
208
2080
2081
2082
2083
2084
2085
2086
2087
2088
2089
209
2090
2091
2092
2093
2094
2095
2096
2097
2098
2099
21
210
2100
211
212
213
214
215
216
217
218
219
22
220
2200
221
222
223
224
225
226
227
228
229
23
230
2307
231
232
233
234
235
236
237
238
239
24
240
2400
241
242
243
244
245
246
247
248
249
25
250
2500
251
252
253
254
255
256
257
258
259
26
260
2600
261
262
263
264
265
266
267
268
269
27
270
271
272
273
274
275
276
277
278
279
28
280
281
282
283
284
285
286
287
288
289
29
290
291
292
293
294
295
296
297
298
299
2a
2b
2c
2d
2e
2f
2g
2h
2i
2j
2k
2l
2m
2n
2o
2p
2q
2r
2s
2t
2u
2v
2w
2x
2y
2z
3
30
300
3000
301
302
303
304
305
306
307
308
309
31
310
311
312
313
314
315
316
3166
317
318
319
32
320
321
322
323
324
325
326
327
328
329
33
330
331
332
333
334
335
336
337
338
339
34
340
341
342
343
344
345
346
347
348
349
35
350
3500
351
352
353
354
355
356
357
358
359
36
360
361
362
363
364
365
366
367
368
369
36960
37
370
371
372
373
374
375
376
377
378
379
38
380
381
382
383
384
385
386
387
388
389
39
390
391
392
393
394
395
396
397
398
399
3a
3b
3c
3d
3e
3f
3g
3h
3i
3j
3k
3l
3m
3n
3o
3p
3q
3r
3s
3t
3u
3v
3w
3x
3y
3z
4
40
400
4000
401
402
403
404
405
406
407
408
409
41
410
411
412
413
414
415
416
417
418
419
42
420
421
4217
422
423
424
425
426
427
428
429
43
430
431
432
433
434
435
436
437
438
439
44
440
441
442
443
444
445
446
447
448
449
45
450
451
452
453
454
455
456
457
458
459
46
460
461
462
463
464
465
466
467
468
469
47
470
471
472
473
474
475
476
477
478
479
48
480
481
482
483
484
485
486
487
488
489
49
490
491
492
493
494
495
496
497
498
499
4a
4b
4c
4d
4e
4f
4g
4h
4i
4j
4k
4l
4m
4n
4o
4p
4q
4r
4s
4t
4u
4v
4w
4x
4y
4z
5
50
500
5000
501
502
503
504
505
506
507
508
509
51
510
511
512
513
514
515
516
517
518
519
52
520
521
522
523
524
525
526
527
528
529
53
530
531
532
533
534
535
536
537
538
539
54
540
541
542
543
544
545
546
547
548
549
55
550
551
552
553
554
555
556
557
558
559
56
560
561
562
563
564
565
566
567
568
569
57
570
571
572
573
574
575
576
577
578
579
58
580
581
582
583
584
585
586
587
588
589
59
590
591
592
593
594
595
596
597
598
599
5a
5b
5c
5d
5e
5f
5g
5h
5i
5j
5k
5l
5m
5n
5o
5p
5q
5r
5s
5t
5u
5v
5w
5x
5y
5z
6
60
600
6000
601
602
603
604
605
606
607
608
609
61
610
611
612
613
614
615
616
617
618
619
62
620
621
622
623
624
625
626
627
628
629
63
630
631
632
633
634
635
636
637
638
639
64
640
641
642
643
644
645
646
647
648
649
65
650
651
652
653
654
655
656
657
658
659
66
660
661
662
664
665
666
667
668
669
67
670
671
672
673
674
675
676
677
678
679
68
680
681
682
683
684
685
686
687
688
689
69
690
691
693
694
695
699
6a
6b
6c
6d
6e
6f
6g
6h
6i
6j
6k
6l
6m
6n
6o
6p
6q
6r
6s
6t
6u
6v
6w
6x
6y
6z
7
70
700
7000
701
702
703
704
705
706
707
709
71
710
711
712
713
7136
714
715
716
717
718
72
720
721
722
7227
724
725
726
727
729
73
730
7303
731
732
733
734
735
736
737
74
740
741
742
743
744
745
747
75
750
751
752
753
754
755
756
757
758
759
76
760
763
764
765
767
768
77
770
774
775
777
78
780
781
782
783
784
785
786
787
79
790
792
793
795
7954
796
7a
7b
7c
7d
7e
7f
7g
7h
7i
7j
7k
7l
7m
7n
7o
7p
7q
7r
7s
7t
7u
7v
7w
7x
7y
7z
8
80
800
8000
8001
801
8014
802
804
805
806
808
809
81
810
811
812
814
815
816
817
82
820
821
825
829
83
830
833
835
84
840
841
842
843
844
845
849
85
850
852
853
854
855
858
86
860
861
862
863
864
867
869
87
870
87334
874
875
876
877
878
88
880
882
883
884
885
886
887
888
89
890
894
895
896
8a
8b
8c
8d
8e
8f
8g
8h
8i
8j
8k
8l
8m
8n
8o
8p
8q
8r
8s
8t
8u
8v
8w
8x
8y
8z
9
90
900
9000
905
906
907
91
910
911
91409
915
917
918300
919
92
920
922
924
925
93
930
933
935
936
939
94
940
945
946
95
950
951
954
955
956
958
96
960
962
963
965
965096742
966
967
968
97
970
972
973
975
976
978
979
98
980
981
983
985
987
988
99
990
991
996
997
999
9a
9b
9c
9d
9e
9f
9g
9h
9i
9j
9k
9l
9m
9n
9o
9p
9q
9r
9s
9t
9u
9v
9w
9x
9y
9z
:
;
<
=
>
?
@
[
[CLS]
[MASK]
[PAD]
[SEP]
[UNK]
\
]
^
_
`
a
a0
a1
a2
a3
a4
a5
a6
a7
a8
a9
aa
aachen
aan
aaron
ab
aba
abajo
abandonis
abasida
abasiri
abatejo
abatejon
abatino
abato
abauj
abbas
abbe
abc
abd
abdikis
abdiko
abdu
abdul
abdullah
abe
abel
abelo
abeloj
aber
abgerufen
abhazio
abi
abies
abio
abismo
abiturienta
abiturientis
ableitung
aboco
abonantoj
aborto
about
abraham
abram
abruco
abrupte
absido
absoluta
absolutan
absolute
abstract
abstrakta
abstraktaj
absurda
abu
abunda
abundaj
abundas
abunde
abundo
ac
aca
acacia
academia
academic
academie
academy
accademia
access
accessed
accipiter
according
account
acero
acetas
acetata
acetato
aceti
acetis
acetita
aceto
acetoacetato
acetono
ach
achille
acid
acida
acidaj
acido
acidoj
acidon
acrocephalus
across
acs
act
acta
actes
action
activity
ad
ada
adalberto
adam
adamo
adams
adapti
adaptigi
adaptigis
adaptigo
adaptis
adaptita
adaptitaj
adapto
adatok
adb
adda
additives
ade
adelaide
adelajdo
adele
adepto
adeptoj
adiau
adiauo
adicio
adigo
adipato
adjektivo
adjektivoj
adjektivs
adjunkto
adler
administra
administracia
administraciaj
administracie
administracio
administrado
administradon
administraj
administrajn
administran
administranto
administrantoj
administras
administrata
administration
administre
administrejo
administri
administris
admiralo
admiri
admiris
admiro
adoleskantoj
adolf
adolfo
adolph
adolphe
adopti
adoptis
adoptita
adopto
adorado
adorno
adoru
adresaro
adresita
adreso
adresoj
adreson
adrian
adriano
adriatika
adrien
advanced
advances
adventures
adverbo
adverboj
advokatan
advokato
advokatoj
ady
ae
aer
aera
aeraj
aerarmeo
aere
aero
aeron
af
afabla
afable
afero
aferoj
aferojn
aferon
affairs
afgana
afganio
afghanistan
afiksoj
afiso
afisoj
afonso
africa
african
afrik
afrika
afrikaj
afrikan
afrikanoj
afriko
afrikon
afrique
afro
afrodito
afrotropisa
after
ag
aga
agadas
agadi
agadis
agado
agadoj
agadojn
agadon
again
against
agaj
aganta
agante
aganto
agantoj
agas
age
agency
agent
agentejo
agentejoj
agento
agentoj
ages
agi
agis
aglo
agloj
aglomerajo
agnes
agnoskas
agnoskata
agnoskataj
agnoski
agnoskis
agnoskita
agnoskitaj
agnosko
agnoskon
ago
agoj
agojn
agon
agordo
agostini
agostino
agoston
agrabla
agrablan
agrable
agrara
agreement
agreso
agricola
agricultural
agriculture
agrikultura
agrikulturaj
agrikulturan
agrikulturo
agrikulturon
agro
agroj
agrokulturo
agronomo
agu
agua
aguilar
aguirre
agustin
ah
ahilo
ahmad
ahmed
ahrweiler
ai
aid
aida
aidoso
aigle
aime
ain
air
airbus
aires
airlines
airport
ais
aisne
aiud
aix
aj
ajlo
ajn
ajna
ajnaj
ajnan
ajo
ajoj
ajojn
ak
akada
akademia
akademiaj
akademian
akademiano
akademie
akademiens
akademio
akademioj
akademion
akademiuloj
akbar
akceli
akcelo
akcento
akceptas
akceptata
akceptebla
akcepti
akceptis
akceptita
akceptitaj
akcepto
akcepton
akceptos
akceptu
akcia
akcidento
akcidentoj
akcioj
akcipitredoj
akcipitro
akira
akirante
akiras
akiri
akiris
akirita
akiritaj
akiro
akita
akitania
akiten
akitɛn
akompanas
akompanata
akompanataj
akompani
akompanis
akompano
akordo
akordoj
akordon
akos
akra
akraj
akrajn
akran
akre
akrilato
akronimo
akropolo
aksiomo
aksiomoj
akso
aksoj
akta
aktiva
aktivado
aktivaj
aktivajoj
aktivan
aktivas
aktive
aktiveco
aktivecoj
aktivecojn
aktivecon
aktivis
aktivisto
aktivulino
aktivulo
aktivuloj
akto
aktoj
aktora
aktorado
aktoradon
aktoran
aktorino
aktoris
aktoro
aktoroj
aktuala
aktualaj
aktualajoj
aktualan
aktuale
aktualo
akurate
akustika
akuta
akuzas
akuzativa
akuzativo
akuzis
akuzita
akuzitaj
akuzo
akuzoj
akuzojn
akva
akvaj
akvajn
akvejoj
akvino
akvitanio
akvo
akvobarajo
akvobirdoj
akvodislimo
akvofalo
akvofaloj
akvoj
akvojn
akvokolekta
akvon
akvonivelo
akvorezervejo
akvorezervujo
akvovojo
al
ala
alabamo
aladar
alagoaso
alain
alajos
alan
alaska
alasko
alba
albacete
alban
albana
albanio
albanoj
albany
albatroso
albatrosoj
albert
alberta
alberti
alberto
albin
albirex
albis
albordigis
albrecht
album
albumo
albumoj
albumojn
albumon
alcala
alcalde
alcantara
aldo
aldona
aldonaj
aldonajn
aldonajo
aldonajoj
aldonan
aldonante
aldonas
aldone
aldoni
aldonigas
aldonigis
aldonis
aldonita
aldonitaj
aldono
aldonoj
aldonu
aldrich
ale
alegre
alejandro
aleksander
aleksandr
aleksandra
aleksandrio
aleksandro
aleksandrovic
aleksej
alemana
alemane
aleo
ales
alessandro
alex
alexander
alexandra
alexandre
alexandria
alexis
alfa
alfabeta
alfabeto
alfabetoj
alfabeton
alfluanto
alfluantoj
alfluas
alfluo
alfons
alfonso
alfred
alfredo
alfrontas
alfronti
alfrontis
algebra
algebro
algeria
algerio
algero
algo
algoj
algoritmo
algoritmoj
ali
alia
aliaflanke
aliaj
aliajn
alian
aliancano
aliancanoj
aliancigis
alianco
aliancon
alianza
alice
alicia
alicio
alie
alien
aliflanke
aligas
alighieri
aligi
aligintoj
aligis
aligita
aligo
aligon
alikaze
alikonstruita
alila
alilanda
alilandaj
aliloke
alimaniere
alineo
alinome
alinomita
aliras
alirebla
alireblaj
aliri
aliris
alirita
alirite
aliro
aliron
aliuloj
alivorte
aljugis
aljugita
alkala
alkohola
alkoholo
alkoholoj
alkondukis
alkonstruigis
all
alla
allah
allami
allan
alle
allegro
allen
allende
aller
alles
allgemeine
alliance
allier
alligita
allmovie
allmusic
alloga
allogajo
allogajoj
allogas
allogi
allogis
alma
almanako
almeida
almenau
almeria
almerio
alo
aloe
alois
aloj
alojo
alojoj
alonso
alp
alpa
alpaj
alpes
alpha
alphonse
alpoj
alportas
alporti
alportis
alportita
alportitaj
alportos
alportu
alprenas
alpreni
alprenis
alproksimigas
alproksimigi
alproksimigis
alproksimigo
als
also
alt
alta
altaj
altaja
altajn
altajo
altajoj
altalanos
altamira
altan
altara
altaro
altaroj
altaron
altas
alte
altebenajo
altebenajoj
alteco
altecoj
altecon
alten
altenburg
altenkirchen
alter
alterigis
alterna
alternas
alternativa
alternativaj
alternativan
alternative
alternativo
alterne
althochdeutsch
altigas
altigi
altigis
altigita
altigo
altiras
altiri
altiris
altitudo
altitudoj
altlerneja
altlernejo
altlernejoj
altlernejon
altmark
altnivela
alto
altoj
alton
altranga
altrangaj
altranguloj
altvalora
altvaloraj
aludas
alude
aludi
aludis
aludo
aludoj
aluminia
aluminio
alvarez
alvaro
alvenas
alveni
alveninta
alvenintaj
alveninte
alvenis
alveno
alvenon
alvenos
alves
alveturejo
alvokas
alvoki
alvokis
alvoko
alvokoj
alvokon
always
alzaco
am
ama
amadeo
amadeus
amalia
amand
amanda
amantino
amanto
amantoj
amara
amas
amasa
amasaj
amasan
amase
amasigis
amaskomunikiloj
amaso
amasoj
amason
amata
amatino
amato
amatora
amatoraj
amatoran
amatoroj
amazon
amazona
amazonio
amazono
ambasadejo
ambasadoro
ambasadoroj
ambau
ambauflanke
ambicia
ambrozio
ame
amen
america
american
americana
americas
amerika
amerikaj
ameriko
amerikon
amfibioj
amfiteatro
ami
amiens
amigos
amika
amikaj
amikaro
amike
amikeco
amikecon
amikigis
amikino
amiko
amikoj
amikojn
amikon
amila
amino
aminoacidoj
aminoj
amir
amis
amnestio
amo
amon
among
amonia
amoniako
amonio
amont
amor
amora
amore
amoro
amos
amour
ampleksa
ampleksaj
ampleksajn
ampleksan
ampleksas
amplekse
ampleksigis
ampleksis
amplekso
amplekson
amplitudo
amsterdam
amsterdamo
amt
amu
amundsen
amuza
amy
an
ana
analfabetoj
analitiko
analiza
analizas
analizi
analizis
analizo
analizoj
analizon
analoga
analoge
analogio
analoj
analyse
analysis
anarchism
anarchist
anarki
anarkiisma
anarkiismo
anarkiisto
anarkiistoj
anaro
anas
anaso
anasoj
anatolij
anatolio
anatomia
anatomie
anatomio
anatomy
ancient
and
anda
andalucia
andalus
andaluza
andaluzio
andante
andere
anderen
anders
andersen
anderson
andes
andoj
andor
andoro
andra
andrade
andranik
andras
andrassy
andre
andrea
andreas
andreescu
andrej
andreo
andres
andrew
andrews
android
andromedo
andrzej
andy
anekdotoj
aneksis
aneksita
anekso
anemio
ang
ange
angel
angela
angeles
angeleso
angelo
angeloj
angels
anger
angers
angiospermae
angiospermoj
angla
anglaj
anglajn
anglalingva
anglalingvaj
anglalingve
anglan
angle
anglia
anglikana
anglio
anglion
anglo
angloj
anglosaksa
anglujo
angol
angola
angolo
angula
angulo
anguloj
angulon
anhalt
anhalto
anhidrido
anigis
anima
animacia
animacio
animal
animala
animalo
animaloj
animalojn
animals
animation
anime
animeo
animo
animoj
animojn
animon
anino
anita
anizila
anjuo
ankau
ankorau
ann
anna
annales
annals
anne
annette
anni
annie
anno
annual
ano
anoj
anojn
anoncas
anonci
anoncis
anoncita
anonco
anoncoj
anonima
anonime
anos
another
ans
anselmo
ansero
anseroj
anstatau
anstatauante
anstatauanto
anstatauas
anstatauata
anstataue
anstataui
anstatauigas
anstatauigi
anstatauigis
anstatauigita
anstatauigitaj
anstatauigo
anstatauis
anstatauita
ant
antal
antarctic
antarctica
antarkta
antarkto
antau
antaua
antauaj
antauajn
antauajo
antauan
antauas
antaucambro
antaue
antauen
antauenigi
antauenigis
antauenigo
antauis
antaujugoj
antaulasta
antaunelonge
antaunomo
antaunomoj
antaunomon
antauparolo
antaupomerio
antauromia
antauulo
antauuloj
antauurbo
antauurboj
antauvidas
antauvidi
antauvidis
antauvidita
ante
anteno
antenoj
antes
anthony
anthropology
anti
antibakteriajn
antifungajn
antikva
antikvaj
antikvajn
antikvajoj
antikvan
antikve
antikveco
antikvo
antiloj
antiohio
antiquity
antisemitismo
antoine
antoinette
antologia
antologio
anton
antoni
antonia
antonimoj
antonin
antonino
antonio
antono
antony
antranilato
antropologia
antropologio
antropologo
antverpeno
antwerpen
any
ao
aosta
ap
aparataro
aparato
aparatoj
aparatojn
aparaton
aparta
apartaj
apartajn
apartajo
apartamento
apartan
aparte
apartenajo
apartenanta
apartenantaj
apartenas
aparteni
apartenis
aparteno
apartenu
apartigas
apartigi
apartigilo
apartigis
apartigita
apartigitaj
apartigo
apenau
apencelo
aperanta
aperas
aperi
aperigas
aperigi
aperigis
aperinta
aperintaj
aperis
apero
aperoj
aperon
aperos
aperturo
aplikado
aplikajo
aplikajoj
aplikas
aplikata
aplikataj
apliki
aplikigas
aplikis
aplikita
apliko
aplikoj
apoganta
apogante
apogas
apogi
apogis
apogita
apogo
apogon
apokalipso
apolda
apollo
apolodoro
apolona
apolono
apopleksio
apostola
apostolo
apostoloj
apotekisto
apoteko
apoteozo
apple
application
applications
applied
approach
apr
apres
april
aprile
aprilo
apro
aprobas
aprobi
aprobis
aprobita
aprobo
aprobon
apud
apuda
apudaj
apudan
apude
apulio
aq
aqui
aquila
aquitaine
aquitania
ar
ara
arab
araba
arabaj
araban
arabe
arabia
arabic
arabio
araboj
arad
arado
aragon
aragona
aragono
aramea
aranda
araneoj
arangado
arangas
arangi
arangis
arangisto
arangita
arangitaj
arango
arangoj
arangojn
arangon
arany
araujo
arauo
arba
arbara
arbaraj
arbaristo
arbaro
arbaroj
arbarojn
arbaron
arbedo
arbedoj
arbeit
arbitra
arbitracio
arbo
arboj
arbojn
arbon
arboselo
arbustaro
arbustaroj
arbusto
arbustoj
arc
arch
archaeological
archaeology
archibald
architecture
architektur
archiv
archive
archived
archives
arcinstrumentoj
arckvarteto
arco
arctic
ard
arda
arde
ardea
ardeo
ardeoj
are
area
arealo
areas
arena
arenas
areno
areo
areoj
areojn
areon
arestis
arestita
arestitaj
arestitoj
aresto
arevalo
argent
argenta
argentaj
argentajn
argentan
argentina
argentino
argento
argenton
argilaj
argilo
argo
argonautoj
argovio
argumentas
argumentis
argumento
argumentoj
argumentojn
arhitekto
arhitekturo
arhivo
ari
ariane
arida
aridaj
ariel
arigas
arigis
ario
aristotelo
aritmetiko
arizona
arizono
ark
arkadio
arkadoj
arkaika
arkansaso
arkeologia
arkeologiaj
arkeologio
arkeologo
arkeologoj
arkiduko
arkiepiskopo
arkimedo
arkipelago
arkitekto
arkitektoj
arkitektura
arkitekturaj
arkitekturan
arkitekturo
arkitekturon
arkive
arkivejo
arkivigite
arkivisto
arkivita
arkivo
arkivoj
arko
arkoj
arkon
arkta
arkto
arles
armand
armando
arme
armea
armeaj
armeajn
armean
armee
armeestro
armen
armena
armenaj
armenajn
armenan
armene
armenia
armenian
armenio
armenion
armenoj
armeo
armeoj
armeojn
armeon
armilaro
armilejo
armilo
armiloj
armilojn
armilon
armin
armistico
armita
armitaj
armor
arms
armstrong
army
arnaud
arne
arno
arnold
arnstadt
aro
aroj
arojn
aromata
aron
arondismento
arondismentoj
around
arp
arpad
arpitane
arriba
arrondiment
arrondissement
arroyo
ars
art
arta
artaj
artajn
artajo
artajoj
artajojn
artan
arte
artefaktoj
artefarita
artefaritaj
artefaritan
artemisia
artemiso
artes
artgalerio
arthalo
arthistoriisto
arthur
article
articles
artikel
artikolo
artikoloj
artikolojn
artikolon
artikon
artileria
artilerio
artist
artista
artistino
artistkolonio
artisto
artistoj
artistojn
artists
arto
artoj
artojn
arton
artportal
arts
artur
arturo
arundo
arvor
as
asc
ascendo
aschaffenburg
asean
asekuro
asembleo
asertante
asertas
aserti
asertis
aserto
asertoj
aserton
asi
asia
asiago
asian
asimilado
asiria
asirianoj
asirio
asistanto
asizo
aso
asocia
asociacion
asociaj
asociata
asociita
asociitaj
asocio
asocioj
asociojn
asocion
asp
aspects
aspektas
aspekti
aspektis
aspekto
aspektoj
aspektojn
aspekton
asplenium
aspx
assessment
associated
association
asteroid
asteroida
asteroidaj
asteroido
asteroidoj
asteroidojn
asteroidon
asteroids
astragalus
astro
astrofizika
astrofizikisto
astrofiziko
astroj
astrologio
astronomia
astronomiaj
astronomian
astronomical
astronomie
astronomino
astronomio
astronomion
astronomo
astronomoj
astronomon
astronomy
asturio
asuncion
at
ata
atakanto
atakas
ataki
atakis
atakita
atakitaj
atako
atakoj
atakojn
atakon
ataturk
ateismo
ateisto
ateliero
atelieron
atena
atenco
atencoj
atendante
atendas
atendi
atendis
atendu
ateno
atentas
atente
atenti
atentigas
atentigi
atentigis
atentis
atento
atenton
atentu
atestajoj
atestanto
atestantoj
atestas
atestis
atestita
atesto
atestoj
ateston
athens
atiko
atingante
atingas
atingebla
atingeblaj
atingeblas
atingi
atingis
atingita
atingo
atingoj
atingojn
atingos
atlanta
atlantic
atlantika
atlantikaj
atlantiko
atlantique
atlantiques
atlantis
atlas
atlaso
atletiko
atleto
atletoj
atmosfera
atmosfero
atmosferon
atolo
atom
atoma
atomaj
atomnumero
atomo
atomoj
atribuas
atribuata
atribui
atribuis
atribuita
atribuitaj
atribuite
atributoj
atsushi
attack
attila
au
aube
aubin
auch
auckland
audante
audas
aude
audebla
audi
audigas
audigis
audinte
audio
audis
audu
audubon
auf
aufbau
aufl
auflage
aug
auge
augsburg
augsburgo
august
augusta
auguste
augusteno
augustin
augusto
augustus
auk
auld
aups
aurel
aurelio
aurora
auroro
aus
auschwitz
ausgabe
auskultantoj
auskultas
auskulti
auskultis
auskultu
auspicio
ausstellung
austen
austerlitz
austin
austra
austraj
australa
australazia
australia
australiaj
australian
australio
australis
austria
austriaj
austrian
austrio
austro
austroj
austrujo
ausvico
aut
auta
author
authority
authororder
autismo
auto
autobiografio
autobiography
autobusa
autobuso
autobusoj
autocaroj
autoj
autojn
autokodo
automata
automate
automobila
automobilo
automobiloj
auton
autonoma
autonomaj
autonomeco
autonomecon
autonomio
autonomion
autorino
autoris
autoritata
autoritato
autoritatoj
autoritaton
autoritatuloj
autoro
autoroj
autoron
autososeo
autososeoj
autovojo
autovojoj
autre
autres
autuna
autune
autuno
auvergne
auvernjo
aux
auxerre
av
available
avallon
avancis
avangarda
avangardo
avant
avantago
avantagoj
avantagojn
avantagon
avaroj
ave
avec
aventura
aventuro
aventuroj
aventurojn
avenue
avenuo
averaga
averagan
average
averago
avertas
averti
avertis
averto
aves
avesnes
avesnois
aviada
aviadila
aviadilo
aviadiloj
aviadilojn
aviadilon
aviado
avian
aviceno
avignon
avila
avilo
avino
avispa
aviv
avivo
avo
aw
award
awards
away
ax
axel
ay
ayuntamiento
az
azeno
azera
azerbajgana
azerbajgano
azia
aziaj
azio
aziz
azorin
aztekoj
azul
azur
aɪ
aʊ
b
b0
b1
b2
b3
b4
b5
b6
b7
b8
b9
ba
baal
baar
bab
baba
babel
babes
babilona
babilonia
babilono
baby
bach
back
backa
bacon
bacs
bad
badajoz
badan
baden
badeno
bagdado
baghy
baha
bahaa
bahaanoj
bahamoj
bahasa
bahia
bahio
bahn
bai
baia
baile
bailey
bains
baja
bajkalo
bajo
bajtoj
bakalauro
baker
bakterio
bakterioj
bakuo
bal
balado
baladoj
balassagyarmat
balatonfured
balatono
balazs
baldau
baldaua
baldaue
baldueno
baldvin
baldwin
baleno
balenoj
baleta
baletisto
baleto
balint
balkana
balkanio
balkono
ball
balla
ballet
balo
balogh
balono
balota
balotado
balotadoj
balotadon
baloto
balotoj
baloton
balotsistemo
balta
baltaj
baltimore
balzac
bamberg
ban
banarsidass
banato
banco
band
banda
bande
bandego
banden
bandestro
bando
bandoj
bandon
banejo
banejoj
bang
bangladeso
bani
bank
banka
bankisto
banko
bankoj
bankroto
banks
banloko
banner
bano
banska
banu
banuso
baptista
baptiste
baptisto
baptita
bapto
bar
barabas
barack
barajlago
barajo
baranya
barata
barataj
barato
barbado
barbara
barbo
barbosa
barbulo
barcelona
barcelono
barco
bardejov
barejno
bareloj
barenreiter
bari
barilo
bariloj
barita
baritono
barker
barna
barnes
baro
baroj
baroka
barokaj
barokan
barokigis
baroko
baron
barono
baronoj
barra
barre
barrett
barrio
barros
barry
bars
bart
barth
bartha
barthelemy
bartholdy
bartok
bartolome
bartolomeo
barton
bas
base
based
basel
baseno
basenoj
basenon
basgitaro
basic
basie
basin
basis
basisto
baso
bass
bastonetoj
bastono
bastonoj
bastonon
bat
batalado
batalanta
batalanto
batalantoj
batalas
batali
bataliono
batalionoj
batalis
batalkampo
batalo
bataloj
batalojn
batalon
batas
bath
bathori
bathory
bati
batis
batista
bato
batoj
baton
batthyany
battista
battle
bau
bauer
bauhaus
baum
baume
baur
bautzen
bavara
bavaria
bavario
bay
bayer
bayern
bayreuth
baza
bazaj
bazajn
bazan
bazaro
bazata
baze
bazelo
bazigas
bazigis
baziliko
bazilo
bazita
bazitaj
bazitan
bazlernejo
bazlernejon
bazo
bazoj
bazojn
bazon
bb
bbc
bc
bd
bde
be
bea
beach
bear
beat
beata
beatles
beatrice
beatrico
beau
beaufort
beaufront
beaumont
beaune
beautiful
beauty
beauvoir
beaux
bebo
beboj
bebon
beck
becker
bed
bedauras
bedaurinde
bedauris
bedeutung
bee
been
beer
beethoven
before
begin
begonia
behavior
behavioral
behaviour
behind
bei
beijing
beim
being
beispiel
beitrag
beitrage
bejruto
bekes
bekescsaba
beko
bekobazo
bekoj
bekojn
bekon
bel
bela
belaj
belajn
belan
belarta
belartaj
belartoj
bele
beleco
belecon
belega
belegaj
belegan
belegt
belem
beletra
beletro
belfort
belfrido
belga
belgaj
belgio
belgujo
belinzono
belizo
bell
bella
belle
belles
bellini
bellmare
bello
belmont
belo
belorusa
beloruse
belorusio
belov
belulino
belvedere
belvedero
ben
benavente
bendo
bendoj
bene
benedek
benedetto
benedict
benediktana
benediktanoj
benedikto
benes
benesov
bengala
bengalio
bengalo
beni
benino
benito
benjamin
benko
benkoj
bennett
benny
beno
benoit
benson
benth
benu
benz
benzeno
benzila
benzino
benzoata
benzoato
beogrado
ber
berbera
berberis
bercht
bereg
berenica
berg
bergamo
bergen
berger
bergerac
bergman
bericht
berkeley
berlin
berlina
berliner
berlino
berlinon
bermudo
bern
berna
bernard
bernardino
bernardo
bernd
berndt
bernhard
bernhardt
bernkastel
berno
bernstein
bero
beroj
berojn
berria
berry
bert
berta
bertalan
bertha
bertilo
bertolt
bertrand
berveling
besancon
besar
beschreibung
beslano
besonders
besser
besson
best
besta
bestaj
bestkuracisto
besto
bestogardeno
bestoj
bestojn
bestokuracisto
beston
bestoscienco
bet
beta
bethlen
beto
betono
better
betty
betula
betulo
between
bewegung
beyond
bezirk
bezonas
bezonata
bezonataj
bezonis
bezono
bezonoj
bezonojn
bezonon
bezonos
bf
bg
bh
bi
biała
bible
biblia
bibliaj
biblio
bibliografia
bibliografio
bibliography
biblion
biblioteca
biblioteka
bibliotekisto
biblioteko
bibliotekoj
bibliotekon
bibliotheca
bibliothek
bibliotheque
bibopo
bicikla
biciklado
biciklisto
biciklo
bicikloj
biden
bielefeld
bielo
bien
bieno
bienoj
bienojn
bienon
bienulo
bierfarejo
biero
bieron
big
bihan
bihar
bihor
bila
bilbao
bild
bilda
bilder
bildigas
bildigita
bildigo
bildliteraturo
bildo
bildoj
bildojn
bildon
bildung
bileto
biletoj
bileton
bill
billboard
billie
billy
bin
bingen
bio
biochemistry
biodiverseco
biodiversity
biogeography
biografia
biografiaj
biografieto
biografio
biografioj
biografion
biographical
biographie
biography
biokemiisto
biokemio
biologia
biologiaj
biological
biologie
biologio
biologo
biology
biome
biotechnology
biotopo
bir
bird
birda
birdlife
birdo
birdoj
birdojn
birdon
birdospecio
birdospecioj
birds
birdumo
birkenfeld
birma
birmingham
birmo
biro
birth
bis
bisaua
bishop
bismarck
bistrita
bita
bitburg
bitte
bizanca
bizancaj
bizanco
bizet
bj
bjalistoko
bk
bl
black
blackwell
blair
blaise
blake
blanc
blanca
blanche
blanco
blanka
blankaj
blankajn
blankan
blanke
blankeca
blankecaj
blanko
blankuloj
blansko
blas
blatter
blaue
blazono
blazonoj
blazonon
bleiben
bli
blind
blinda
blindaj
blinduloj
bloch
block
blog
blogger
blogo
blois
blokado
bloko
blokoj
blood
bloom
bloomington
bloomsbury
blovas
blovinstrumentoj
blu
blua
bluaj
bluan
blue
blues
blum
blume
bluo
bluso
bm
bmatrix
bn
bo
boa
board
boato
boatoj
boaton
bob
bobby
boca
bocage
bochum
bock
bocvano
boden
bodenlago
bodo
bodrog
body
boeing
bofilo
bofrato
bogdan
bogota
bogoto
bohema
bohemia
bohemio
bohlau
bohm
bois
boiss
boksisto
bol
boleslao
boleslav
bolesław
boletin
bolivar
bolivia
bolivio
bologna
bolonjo
bolsevika
bolsevikoj
bolyai
bomba
bombado
bombardadis
bombardado
bombaviadiloj
bombay
bombo
bomboj
bon
bona
bonaero
bonaj
bonajn
bonan
bonaparte
bond
bone
boneco
bonega
bonegaj
bonegan
bonege
bonfara
bonfarto
bonifaco
bonkora
bonkvalita
bonkvalitaj
bonn
bonno
bono
bonon
bonvenigis
bonvolu
book
books
bopatro
bor
borde
bordeaux
bordo
bordoj
bordojn
bordon
bordozo
borel
borges
borgo
boris
boriso
born
borneo
borngen
boros
borso
borsod
borysiewicz
bos
bosch
bosco
bose
bosko
bosnia
bosnio
boston
bostono
bot
botanical
botanika
botanikisto
botaniko
botany
botelo
boteloj
both
botreleo
bouches
boulder
boulogne
boulton
bourbon
bourg
bourges
bourgogne
bovido
bovino
bovinoj
bovisto
bovo
bovoj
bovojn
bowell
box
boy
boyd
boyer
boys
bozen
bp
bq
br
brabanto
brad
bradley
braga
brahms
brain
brako
brakoj
brakojn
brakon
brancetoj
branco
brancoj
brancojn
brancon
brand
brandenburg
brandenburgio
brando
brandon
brandt
brasiko
brasil
brasileira
brasileiro
brasov
brasovo
brasso
bratislava
bratislavo
brauerei
braun
braunschweig
brava
brave
bravo
brazil
brazila
brazilaj
braziljo
brazilo
brecht
breclav
breda
bredado
breeding
breisgau
breizh
bremen
bremeno
bremsi
brescia
breslau
breso
brest
bretagne
breto
breton
bretona
bretone
bretonio
breve
brevier
breviero
brezno
brian
bridge
brief
briefe
brien
brieuc
brigado
bright
brigitte
briko
brikoj
brila
brilaj
brilan
brilanta
brilas
brile
brilis
brill
brilo
bringen
briofitoj
bristol
brit
brita
britain
britaj
britajn
britan
britannica
britia
britio
brition
british
brito
britoj
britton
britujo
brive
brno
broadcasting
broadcom
broadway
brockhaus
brod
brody
brojo
broklino
bromido
bromo
bronisław
bronza
bronzaj
bronzajn
bronzan
bronzepoko
bronzo
brooke
brooklyn
brooks
bros
brosuro
brosuroj
brosuron
brothers
brown
browne
browser
browsing
bruce
bruck
bruckner
bruder
brugg
brugo
brulado
brulajo
brulas
bruldetruis
brulema
bruligi
bruligis
bruligita
bruligitaj
bruligo
brulis
brun
bruna
brunaj
brunajn
brunan
bruneca
brunecaj
brunejo
bruno
brunsvigo
brunswick
bruntal
bruo
bruon
brusela
bruselo
brusto
bruston
brutaro
bruto
brutobredado
brutoj
bruxelles
bryan
bryant
bryophyta
bryophytae
bs
bt
bu
bubo
buch
buchanan
buchner
buck
bud
buda
budapest
budapesta
budapesto
buddha
buddhism
buddhist
buddy
budejovice
budhisma
budhismaj
budhismo
budho
budo
buenos
buffalo
bufo
bugeto
building
buk
bukarest
bukaresto
buleo
bulgara
bulgaraj
bulgare
bulgario
bulgaroj
bull
bulle
bulletin
bulonjo
bulteno
bultenon
bulthuis
bulvardo
bund
bunta
buntpego
burbono
bureau
buren
burg
burga
burgaj
burgaro
burgdorf
burgejo
burgen
burgenland
burgenlando
burger
burgo
burgoj
burgon
burgonj
burgonja
burgonjo
burgonoj
burgos
burgoso
burke
burkino
burns
buroo
burton
burundo
bus
busa
busch
bush
business
buslinio
buslinioj
buso
busoj
buson
busto
but
butano
butanolo
buteo
buterata
buterato
butero
butiko
butikoj
butila
butler
butono
butterfly
buxwv
bv
bw
bwv
bx
by
bydgoszcz
byrd
byron
bystrica
bz
bə
c
c0
c1
c2
c3
c4
c5
c6
c7
c8
c9
ca
caballero
cabeza
cabrera
caceres
cada
cadiz
cado
caen
caesar
cafe
cage
cagreno
cajkovskij
cako
calais
calatrava
calderon
calern
cali
california
call
called
callicarpa
calvados
calvin
camacho
camara
cambelano
cambra
cambrai
cambrego
cambresis
cambridge
cambro
cambroj
cambrojn
cambron
cameron
camille
camino
camp
campaign
campanjo
campbell
campina
campinas
campionado
campioneco
campiono
campionumo
campo
campos
camus
can
canada
canadensis
canadian
canal
canavese
cancer
cannes
cano
canon
canoo
canterbury
canto
canton
cao
cap
cape
capek
capelo
capelon
capital
capitro
capitroj
capitron
capo
captain
car
cara
carduelis
care
carentoj
caribbean
carl
carla
carlo
carlos
carma
carmen
carmo
carnegie
carnot
caro
caroj
carol
carolina
caroline
carolyn
caron
carpentisto
carr
carroll
cart
carta
carter
cartier
carto
carton
carvalho
cas
casa
casado
casas
case
cases
cashundoj
casi
casisto
casistoj
caso
caspar
cassini
castel
castello
castilla
castillo
castle
castro
cat
catalina
catalogue
catalunya
catania
catarina
catherine
catholic
cattolica
causa
cause
caussols
cave
cavendish
cay
cb
cbs
cc
ccd
cd
cdc
cdeli
cdot
cdots
cdu
ce
cea
cebaot
cecena
cecenio
cecenoj
cech
cecil
cecile
cecilia
cedi
cedis
cedro
ceestantoj
ceestas
ceesti
ceestis
ceesto
ceeston
cef
cefa
cefaj
cefajn
cefaltaro
cefan
cefangelo
cefe
cefenirejo
cefepiskopo
cefinstruisto
cefkomandanto
cefkuracisto
cefloko
cefministro
cefministroj
cefministron
cefo
cefoj
cefpago
cefplaco
cefred
cefredaktoro
cefrolis
cefrolo
cefrolulo
cefsekretario
cefsidejo
cefurba
cefurbo
cefurboj
cefurbon
cefverko
cefvilago
cefvojo
cefvojoj
cegled
ceha
cehaj
cehan
cehe
cehio
cehoj
cehoslovaka
cehoslovakaj
cehoslovakio
cehov
ceinture
cel
cela
celanta
celantaj
celante
celas
cele
celebrado
celebras
celebrata
celebri
celebris
celi
celis
celita
cell
celldomolk
celle
celo
celoj
celojn
celon
cemara
cemento
cemizo
ceno
cenoj
cenon
censa
censita
censo
census
cent
centauro
center
centimetroj
centimetrojn
centjara
cento
centoj
centojn
centr
centra
centraj
central
centralo
centraloj
centrameriko
centran
centre
centrita
centro
centroj
centron
centrum
centuries
century
cenzuro
cepo
ceramikajoj
ceramikisto
ceramiko
cerba
cerbo
cerbon
cerealoj
ceremonia
ceremonio
ceremonioj
ceremonion
cerezo
cerko
cerl
cerna
cernih
cerro
certa
certaj
certajn
certan
certas
certe
certeco
certigas
certigi
certigis
cervantes
cervo
cervoj
cesar
cesare
cesas
cesi
cesigi
cesigis
cesigita
cesigo
cesis
ceska
ceske
cesky
ceso
cesu
cetera
ceteraj
ceterajn
cetere
cetero
cevala
cevalo
cevaloj
cevalojn
cevalon
cezareo
cezaro
cf
cg
cgi
ch
cha
challenge
cham
chamberlain
chambers
champagne
champs
chan
chance
chandler
chang
change
changes
changing
channel
chapel
chapelle
chaplin
chapman
chapter
characteristics
charente
charles
charlie
charlotte
charlottenburg
chartres
chase
chateau
chateauneuf
chatel
chatillon
chaucer
chaux
chavez
che
cheb
checklist
chelsea
chembk
chemblink
chemical
chemicalland
chemicals
chemie
chemin
chemins
chemistry
chemnet
chemnitz
chemsrc
chen
cher
chess
chester
chez
chi
chiapas
chiba
chicago
chico
chief
chiesa
chihuahua
child
children
chile
china
chinese
ching
chinon
chirac
chisholm
choice
chomsky
chopin
chr
chris
christ
christi
christian
christiane
christianity
christie
christina
christine
christmas
christoph
christophe
christopher
chronicle
chronik
chronology
chrudim
chu
chuck
chulilla
church
churchill
ci
cia
ciaj
ciajn
ciam
ciama
ciamverda
ciamverdaj
cian
cianido
cianoacetato
cicero
cicerono
ciconia
cid
cie
ciel
ciela
cielaj
cieliro
cielo
cielon
cien
ciencia
ciencias
cies
cifereca
ciferecaj
ciferecita
cifero
ciferoj
ciferojn
cifoje
cigana
ciganoj
cigno
cignoj
cikago
cikla
ciklo
cikloheksila
cikloj
ciklon
ciklopentila
cikonio
cikonioj
cilia
cilindra
cilindro
cilio
cima
cin
cina
cinaj
cinamata
cinamato
cinamila
cinan
cincinnati
cinco
cindro
cindroj
cine
cinema
cinia
cinio
cinion
cino
cinoj
cinujo
cio
cion
circ
circle
circular
circus
cirila
cirile
cirilo
cirkau
cirkaua
cirkauaj
cirkauajo
cirkauajoj
cirkauajon
cirkauanta
cirkauantaj
cirkauas
cirkauata
cirkaue
cirkauis
cirkauita
cirkauitaj
cirkaukalkulata
cirkaukalkulita
cirkauo
cirkauurbo
cirkla
cirklo
cirkloj
cirko
cirkonstanco
cirkonstancoj
cirkonstancojn
cirkulado
cirkulas
cirkvito
cirkvitoj
ciro
cis
cisjordanio
cit
citadelo
citaja
citajo
citajoj
citas
cite
citi
cities
citis
citita
cititaj
citronelila
citrus
citta
city
citypopulation
ciu
ciuc
ciudad
ciuflanke
ciufoje
ciuj
ciujara
ciujaraj
ciujaran
ciujare
ciujn
ciukaze
ciumonate
ciun
ciuokaze
ciusemajne
ciutaga
ciutagaj
ciutagan
ciutage
civil
civila
civilaj
civilan
civilizacio
civilizacioj
civilization
civilizo
civilizoj
civiluloj
civita
civitana
civitanaj
civitaneco
civitanecon
civitano
civitanoj
civitanojn
civito
cj
ck
cl
clair
claire
clara
clare
clarence
clarendon
clark
clarke
class
classic
classical
classics
classification
claude
claudia
claudio
claudius
claus
clay
clayton
clemens
clement
clemente
clements
clermont
clerodendrum
clethra
cleveland
clifford
climate
clinical
clinton
clio
close
cloud
club
cluj
cm
cn
cnn
cnrs
cnt
co
coast
coastal
coburg
cochem
code
codex
cohen
cohn
coi
cokolado
col
cola
cold
cole
coleman
colette
colin
coll
collected
collection
collections
college
collegium
collier
collins
coloj
colombia
colon
colonia
colonial
color
colorado
coltrane
columba
columbia
columbus
com
comba
come
comedie
comes
comets
comics
coming
comite
comme
comment
commentary
commerce
commission
committee
common
commons
commonwealth
communaute
commune
communes
communication
communications
communities
community
como
compagnie
companion
company
comparative
comparison
compendium
complete
complex
composition
compostela
compounds
comprehensive
computer
comte
comunidad
con
conan
concepcion
concept
concepts
concert
concerto
concise
conde
condor
conference
conflict
congo
congress
connexions
connor
conrad
consadole
conscience
conseil
conservation
constant
constantin
constitution
construction
contemporary
content
conteo
context
continental
contra
contre
control
convention
cook
cool
coonabarabran
cooper
cop
corazon
corbusier
cordillera
cordoba
cornelis
cornelius
cornell
corona
coronavirus
corporation
corps
corpus
correze
corsetti
cortes
corvus
cos
cosa
costa
cote
cotes
cotton
could
council
count
countries
country
county
cours
course
court
cov
covid
cox
coxeter
cp
cq
cr
craig
crawford
crazy
crc
creation
creative
creek
cremona
creuse
crime
crisis
cristina
cristo
cristobal
critica
critical
critique
croix
cromwell
cronica
crosby
cross
crown
cruz
crypturellus
cs
csaba
csak
csardaskiralyno
cseh
csiki
csikszereda
csiky
csokonai
csongor
csongrad
ct
cu
cual
cuando
cuatro
cuba
cuenca
cultura
cultural
culture
cultures
cum
cunamo
cuneo
cunha
cunningham
cup
cura
curie
current
curtis
cut
cv
cw
cx
cxd
cy
cyr
cyrano
cyril
cz
czesław
cœur
d
d0
d1
d2
d3
d4
d5
d6
d7
d8
d9
da
dachau
dagestano
dahl
dai
daily
dakaro
dako
dakoto
dal
dalai
dale
dali
dallas
dalmatio
dam
damagas
damagi
damagis
damagita
damagitaj
damago
damagoj
damagojn
damagon
damasko
dame
dames
damiano
damit
damo
dan
dana
danaj
dancado
dancas
dance
danci
dancis
dancistino
dancisto
dancistoj
danco
dancoj
dancon
dane
dangera
dangeraj
dangeran
dangero
dangeroj
dangeron
daniel
daniela
daniele
danio
dank
dankas
danke
danki
dankis
danko
dankon
dann
danny
danoj
dans
dante
danuba
danubo
danujo
danuta
daphne
dar
daring
dario
dark
darmstadt
darwin
das
dass
data
database
datamuse
datas
date
datenoj
datigas
datita
dativo
dato
datoj
daton
datreveno
datrevenon
datumas
datumbazo
datumoj
datumojn
daura
dauraj
dauran
dauranta
dauras
daure
dauri
daurigas
daurigi
daurigis
daurigo
dauripova
dauris
dauro
dauron
dauros
davao
dave
david
davido
davidson
davies
davis
davos
dawn
dawson
dax
day
days
daß
db
dc
dcysc
dd
ddr
de
dead
deak
deal
dean
death
debato
debatoj
debehogne
deborah
debrecen
debreceno
debussy
debuta
debutis
debuto
dec
december
decembre
decembro
decida
decidan
decidas
decide
decidi
decidigis
decidis
decidita
decido
decidoj
decidojn
decidon
deciduaj
decin
decline
dedicas
dedicata
dedici
dedicis
dedicita
dedicitaj
dedicitan
dedico
dee
deep
defend
defenda
defendaj
defendanto
defendantoj
defendas
defendi
defendis
defendo
defendon
defense
definition
definitiva
definitivan
definitive
defio
degli
dei
dej
dejo
dejoris
dek
deka
dekadencis
dekadenco
dekano
dekdu
dekdua
dekduedro
dekkvin
deklaracio
deklarante
deklaras
deklari
deklaris
deklarita
deklaritaj
deklaro
deklaroj
deklaron
deklinacio
dekliva
deklivaro
deklivo
deklivoj
deko
dekoj
dekojn
dekomenca
dekomence
dekoraciisto
dekoracio
dekretis
dekreto
dekretoj
dekreton
deksesuma
dekstra
dekstraj
dekstran
dekstre
dekstren
dekstro
dekuma
dekunu
dekunua
del
dela
delaunay
delegacio
delegita
delegitaro
delegito
delegitoj
delemonto
delfeno
delfenoj
delhi
delhio
delikata
delikataj
dell
della
delle
delonge
delta
delto
dem
demandas
demandi
demandis
demando
demandoj
demandojn
demandon
demetas
demetrio
demisiis
demisio
democracy
democratic
demografia
demokrata
demokrataj
demokratia
demokratiaj
demokratie
demokratio
demokration
demokratoj
demono
demonoj
den
denaska
denaskaj
denaske
dendroica
denes
denis
denn
dennis
denova
denove
densa
densaj
densan
dense
denseco
denso
dento
dentoj
dentojn
departamento
departementa
departementejo
departementestro
departemento
departementoj
departementon
department
dependa
dependaj
dependas
depende
dependeco
dependis
deponejo
deportado
deportis
deportita
deportitaj
depost
depresio
deputita
deputitaj
deputito
deputitoj
der
derby
derbyshire
derek
derivajo
derivajoj
derivas
derivita
derivitaj
des
descartes
description
desde
desegnado
desegnajo
desegnajoj
desegni
desegnis
desegnisto
desegnita
desegnitaj
desegno
desegnoj
desenvolvimento
desert
design
desire
despues
dessau
destinita
destinitaj
destino
det
details
detala
detalaj
detalan
detale
detalo
detaloj
detalojn
detektivo
deteni
determinas
determinativkompositum
determini
determinis
determinita
detlev
detroit
detrojto
detruado
detruas
detrui
detruigis
detruis
detruita
detruitaj
detruo
detruon
deu
deus
deutsch
deutsche
deutschen
deutscher
deutsches
deutschland
deutschlands
deux
deva
devas
development
devena
devenaj
devenanta
devenantaj
devenas
devene
deveni
devenis
deveno
devenon
devi
deviga
devigaj
devigan
devigas
devigata
devigataj
devige
devigi
devigis
devigita
devigitaj
devigo
devil
devis
devizo
devo
devoj
devojn
devon
devos
devus
dezajnita
dezajno
dezember
dezerta
dezertaj
dezerto
dezertoj
dezirante
deziras
dezirata
deziris
deziro
deziroj
dezirojn
deziron
dezirus
dezso
df
dg
dh
di
dia
diabeto
diablo
diagnozo
diagramo
diaj
diajo
diajoj
diakono
dialektiko
dialekto
dialektoj
dialektojn
dialekton
dialogo
dialogoj
diamanto
diamantoj
diametro
diametroj
diametron
diamond
dian
diana
diane
dianthus
diario
dias
diasporo
diaz
diccionario
dich
dick
dickens
dictionary
dictionnaire
did
diderot
didier
die
dieco
diego
dies
diese
diesem
dieser
dieses
diet
dieter
dieto
dietrich
dietterle
dieu
diez
difektita
difekto
difektoj
diferenca
diferencaj
diferencajn
diferencas
diference
diferenciala
diferencigas
diferencigi
diferencigo
diferenco
diferencoj
diferencojn
diferencon
different
difina
difinas
difini
difinis
difinita
difinitaj
difinitajn
difinitan
difino
difinoj
difinon
digesta
digimon
digital
digitales
digitalisat
digno
digo
digoj
diino
diinoj
dijo
dijon
dika
dikaj
dikan
dikeco
diktatoreco
diktatoro
diktaturo
dil
diligente
diluvo
dimance
dimanco
dimancon
dimensia
dimensiaj
dimensio
dimensioj
dimension
din
dinamika
dinamiko
dinan
dinastio
dinastioj
dinastion
dinosauroj
dio
diocezo
diodoro
dioj
diojn
dioksido
dion
dionizo
dios
diospyros
dipatrino
diplomatia
diplomatiaj
diplomatiajn
diplomatio
diplomatique
diplomato
diplomatoj
diplomigis
diplomita
diplomitigis
diplomo
diplomojn
diplomon
diputacion
dir
dirajo
dirante
diras
direct
director
directory
direkcio
direkta
direktado
direktas
direkte
direkti
direktis
direktisto
direktita
direktitaj
direktivo
direkto
direktoj
direkton
direktoraro
direktorino
direktoro
direktoroj
diri
dirigento
dirinte
diris
dirita
diritaj
dirite
dirk
diro
diros
diru
dirus
dis
disa
disaj
discentra
disciplino
disciplinoj
disciplo
disciploj
discovery
disde
disdivido
disdonas
disdonis
disdono
dise
disease
diseases
disertacio
disertajo
diservo
diservoj
disfalanta
disfalis
disfalo
disigas
disigi
disigis
disigita
disigitaj
disigo
disigon
diskeldonejo
disko
diskoj
diskojn
diskon
diskonigi
diskonigis
diskreta
diskriminacio
diskurso
diskutado
diskutas
diskuti
diskutis
diskuto
diskutoj
diskuton
disney
dispartigo
display
displaystyle
disponas
disponebla
disponeblaj
disponeblas
disponigas
disponigi
disponigis
disponis
dispono
dispozicio
disputata
disputo
disputoj
disputon
diss
dissendo
dissertatio
dissertation
dissolvita
dissolvo
distance
distanco
distancoj
distancojn
distancon
distas
distinga
distingaj
distingan
distingas
distingeblaj
distingi
distingigas
distingigis
distingilo
distingis
distingita
distingo
distingon
distra
distribuado
distribuadon
distribuita
distribuo
distribution
district
distrikta
distriktaj
distriktaro
distriktcefurbo
distriktejo
distrikto
distriktoj
distriktojn
distrikton
distro
disvastigado
disvastigas
disvastigata
disvastigi
disvastiginta
disvastigis
disvastigita
disvastigitaj
disvastigo
disvastigon
disvolvado
disvolvas
disvolvi
disvolvigas
disvolvigi
disvolvigis
disvolvigita
disvolvigitaj
disvolvigo
disvolvigon
disvolvis
disvolvita
disvolvo
ditriho
diveni
diversa
diversaj
diversajn
diverse
diverseco
diversecon
diversity
diversloke
diversmaniere
dividas
dividata
dividi
dividigas
dividigis
dividis
dividita
dividitaj
divido
dividoj
dividon
division
divizio
divorcis
divorco
dix
dixon
dizajno
dizionario
dizzy
dj
djordj
djula
dk
dl
dla
dlr
dm
dmg
dmitrij
dn
dna
dnb
do
doboka
dobra
doc
docento
doch
doctor
documents
does
dog
dogmo
dogmoj
doho
doi
doktor
doktorecon
doktorig
doktorigis
doktorigo
doktoro
doktrino
doktrinoj
doktrinon
dokumenta
dokumentado
dokumentaj
dokumentaro
dokumentas
dokumente
dokumentita
dokumentitaj
dokumento
dokumentoj
dokumentojn
dokumenton
dol
dolaro
dolaroj
dolarojn
dolca
dolcaj
dolcan
dolce
dole
dolina
dolni
dolny
dolora
dolores
doloro
doloroj
doloron
dom
doma
domain
domajno
domaro
domaroj
domazlice
dombovar
dome
domego
domenico
dometo
dometoj
domin
domina
dominado
dominanta
dominanto
dominas
domingo
domini
dominika
dominikanoj
dominiko
dominique
dominis
domino
domo
domoj
domojn
domokos
domon
don
dona
donaci
donacis
donacita
donaco
donacoj
donacojn
donacon
donald
donante
donas
donata
donau
donde
donecka
dong
doni
donis
donita
donitaj
donitan
donna
donne
dono
donos
donu
donus
door
dora
dordogne
dorf
doria
doris
dormanta
dormas
dormi
dormis
dormo
dornoj
dorothea
dorothy
dorsa
dorse
dorso
dorson
dort
dortmund
dos
dosiero
dosieroj
dosierojn
dostojevskij
dot
dots
double
doubs
douglas
douro
dove
dover
down
doyle
dozo
dozsa
dp
dq
dr
dragon
drake
drako
drama
dramaturgo
dramisto
dramo
dramoj
dramojn
dramon
dramverkisto
draste
drato
dream
dreams
drei
dresden
dresdeno
drezen
drinkejo
drive
dro
drogo
drogoj
droit
drome
dronis
drsc
drug
drugs
drumisto
ds
dt
dtv
du
dua
duafoje
duaj
duala
duan
duaranga
duarangaj
duarte
duba
dubai
dubajo
dubas
dubi
dubinda
dubis
dubler
dublin
dublino
dubo
dubois
duboj
duc
ducent
duck
ducks
duda
dudas
dudek
dudeka
dudekedro
duden
dudenredaktion
dudenverlag
due
duelo
duero
duetaga
duetila
dufoje
duformismo
duisburg
dujara
duka
duke
dukino
duklando
duklandon
duko
dukoj
dukotiledonaj
dulingva
dulingvaj
dulitera
dum
dumao
dumas
dume
dumfluge
dumlonge
dumnokte
dumont
dumtage
dumtempe
dumviva
dumvive
dun
dunaujvaros
duncan
duncker
dungado
dungigis
dungis
dungita
dungitaj
dungito
dungitoj
dunn
dunoj
duo
duobla
duoblaj
duoblan
duoble
duobligis
duoksido
duoksidon
duon
duona
duonakso
duonan
duonarbaroj
duone
duonfrato
duoninsula
duoninsulo
duoninsulon
duono
duonon
duonronda
duopa
duope
duopo
dupont
dur
dura
duran
durand
durante
durch
durchgesehene
durer
durham
during
durkheim
duseldorfo
dusseldorf
dutch
duuma
dv
dvd
dvorak
dw
dx
dy
dylan
dynamics
dz
də
dʁelwaʁ
e
e0
e1
e2
e3
e4
e5
e6
e7
e8
e9
ea
eagle
earl
early
earth
east
eastern
easy
eau
eb
ebena
ebenaj
ebenajo
ebenajoj
ebenajon
ebeno
ebenoj
eberhard
ebla
eblaj
eblajn
eblan
eblas
eble
ebleco
eblecoj
eblecojn
eblecon
ebligante
ebligas
ebligi
ebligis
eblis
eblo
ebloj
eblojn
eblon
eblus
ebooks
ebria
ebro
ebur
eburo
ec
echo
eck
eckernforde
ecmiadzin
eco
ecoj
ecojn
ecole
ecological
ecology
econ
economic
economica
economics
economist
economy
ed
edda
eddie
ede
eden
eder
edgar
edge
edicion
ediciones
edicions
edikto
edinburgh
edinburgo
edipo
edison
edit
edited
edith
edition
editions
editor
editora
editore
editorial
editors
edizioni
edmond
edmund
edo
edouard
edro
edroj
eds
edu
eduard
eduardo
educacion
education
educational
eduka
edukado
edukadon
edukaj
edukejo
eduki
edukigis
edukis
edukisto
edukita
edukitaj
eduko
edukon
edvard
edward
edwards
edwin
edzeco
edzigi
edziginta
edzigis
edzigo
edzinigi
edziniginta
edzinigis
edzinigo
edzino
edzinoj
edzinojn
edzinon
edzo
edzon
ee
een
ef
efektiva
efektive
efektivigas
efektivigi
efektivigis
efektivigita
efektivigo
efekto
efektoj
effect
effects
effendi
efika
efikaj
efikan
efikas
efike
efikeco
efikecon
efikis
efiko
efikoj
efikojn
efikon
efraim
eg
ega
egala
egalaj
egalajn
egalan
egalas
egale
egaleco
egalecon
ege
egea
eger
egg
egidio
egipta
egiptaj
egiptia
egiptio
egiption
egipto
egiptoj
egiptujo
eglise
ego
egon
egy
egyesulet
egypt
egyptian
eh
ehime
eho
ehrlich
ei
eichsfeld
eifel
eiffel
eight
ein
einaudi
eine
einem
einen
einer
eines
einfuhrung
einige
einmal
einstein
eintrag
eisenach
eisenberg
eisenstein
ej
ejo
ejoj
ejon
ek
ekaperis
ekas
ekde
ekestas
ekestinta
ekestis
ekesto
ekflugas
ekfunkciis
ekgravis
ekhavas
ekhavi
ekhavis
eki
ekigis
ekinstruis
ekinteresigis
ekipajo
ekipajoj
ekipita
ekipitaj
ekiris
ekis
ekkoni
ekkonis
ekkriis
eklaboris
eklernis
eklezia
ekleziaj
ekleziajn
eklezian
ekleziejo
eklezio
eklezioj
eklezion
ekleziuloj
eklipso
eklogis
eko
ekologia
ekologiaj
ekologie
ekologio
ekonomia
ekonomiaj
ekonomiajn
ekonomian
ekonomie
ekonomika
ekonomikaj
ekonomikisto
ekonomiko
ekonomio
ekonomioj
ekonomion
ekoprovinco
ekoregiono
ekoregionoj
ekosistemo
ekosistemoj
ekozono
ekparolis
ekpensis
ekposedis
ekprenis
ekrano
ekregis
ekrigardis
eks
eksa
eksaj
ekscias
ekscii
eksciis
eksigis
eksigita
eksigo
eksklavo
ekskluziva
ekskluzive
ekskurso
ekskursoj
eksonis
ekspansio
ekspedicio
ekspedicioj
ekspedicion
eksperimenta
eksperimentaj
eksperimentis
eksperimento
eksperimentoj
eksperimentojn
eksplicite
eksplodigis
eksplodis
eksplodo
eksplodoj
ekspluatado
eksponitaj
eksportado
eksporto
ekspozicia
ekspoziciejo
ekspoziciis
ekspozicio
ekspozicioj
ekspoziciojn
ekspozicion
ekspreso
ekstaris
ekster
ekstera
eksteraj
eksterajn
eksterajo
eksteran
eksterdistrikta
ekstere
eksteren
eksterlanda
eksterlandaj
eksterlandajn
eksterlandanoj
eksterlande
eksterlanden
eksterlando
ekstermejo
ekstero
eksterordinara
eksterordinaraj
eksterordinaran
eksterordinare
eksterteranoj
ekstrema
ekstremaduro
ekstremaj
ekstreme
ekstremo
ekstudis
ekumena
ekuzis
ekvacio
ekvacioj
ekvacion
ekvadoro
ekvalidis
ekvatora
ekvatoro
ekverkis
ekvidas
ekvidis
ekvilibra
ekvilibro
ekvilibron
ekvivalenta
ekvivalentaj
ekvivalento
ekz
ekzakta
ekzakte
ekzamenas
ekzameni
ekzamenis
ekzamenitaj
ekzameno
ekzamenoj
ekzamenojn
ekzamenon
ekzekutis
ekzekutita
ekzekutitaj
ekzekuto
ekzemple
ekzemplero
ekzempleroj
ekzemplerojn
ekzempleron
ekzemplo
ekzemploj
ekzemplojn
ekzemplon
ekzercado
ekzercaro
ekzerco
ekzercoj
ekzila
ekziligis
ekzilita
ekzilo
ekzistado
ekzistadon
ekzistanta
ekzistantaj
ekzistantajn
ekzistantan
ekzistas
ekzisti
ekzistis
ekzisto
ekziston
ekzistus
el
elasta
elb
elba
elbo
eld
elde
eldiris
eldiro
eldona
eldonado
eldonadon
eldonajo
eldonajoj
eldonas
eldonata
eldonejo
eldonejoj
eldonejon
eldoni
eldonigis
eldoninto
eldonis
eldonisto
eldonistoj
eldonita
eldonitaj
eldonkvanto
eldono
eldonoj
eldonojn
eldonon
eleanor
election
electric
electronic
elefanto
elefantoj
eleganta
elek
elekta
elektado
elektas
elektata
elekti
elektigis
elektis
elektisto
elektita
elektitaj
elektitoj
elekto
elektodistrikto
elektoj
elektojn
elekton
elektra
elektraj
elektrajn
elektran
elektrejo
elektro
elektromagneta
elektron
elektrona
elektronika
elektronikaj
elektroniko
elektrono
elektronoj
elektrotekniko
elektu
elementa
elementaj
elemento
elementoj
elementojn
elementon
elements
elemer
elena
eleonora
elet
elete
eletrajzi
elfluas
elfluejo
elfluo
elfosado
elfosadoj
elfosis
elfosita
elgermanigita
elhispanigita
eli
elias
eligas
eligi
eligis
eligo
elija
elimini
eliot
eliras
elirejo
eliri
eliris
eliro
eliros
elirpunkto
eliru
elisa
elisabeth
elito
eliza
elizabeta
elizabeth
elizabeto
elke
elkreskis
ella
ellaboris
ellaborita
elle
ellen
ellernis
ellersiek
ellington
elliot
elliott
ellis
elmigrado
elmigri
elmigrintoj
elmigris
elmontras
elmontris
elnestigo
elo
elovigo
elp
elparolitaj
elparolo
elparolu
elpasis
elpensis
elpensita
elpostenigita
elprenis
elsa
else
elsendas
elsendfluo
elsendis
elsendita
elsendo
elsendoj
elsevier
elsipigis
elso
elspezis
elspezoj
elspezojn
elst
elstara
elstaraj
elstarajn
elstaran
elstaras
elstare
elstarigis
elstaris
elsutebla
elsuti
elsutita
elte
eltenas
elteni
eltenis
eltiri
eltiris
eltrovi
eltrovis
eltrovo
elvira
elvis
elvokas
em
ema
emanuel
emanuelo
emas
ember
emberizo
emblemo
emeriko
emerita
emeritigis
emeritigo
emerson
emfazas
emfazi
emfazis
emfazo
emi
emil
emile
emilia
emilio
emily
eminenta
eminentaj
eminentuloj
emirlando
emirlandoj
emiro
emis
emma
emmanuel
emmanuelle
emme
emmy
emo
emocia
emocio
emocioj
emociojn
emon
emperor
empire
ems
emscher
emu
emuo
en
ena
enamigas
enamigis
enciclo
enciclopedia
encikliko
enciklopedia
enciklopedio
enciklopedioj
encyclopaedia
encyclopedia
encyclopædia
end
endangered
endangerigita
endangerigitaj
endangerita
endangeritaj
endate
ende
endemia
endemiaj
endemio
endre
ene
enen
eneo
energia
energiaj
energie
energio
energioj
energion
energy
enestanta
enestas
enfant
enfants
enfluas
enfluejo
enfluo
eng
engagigis
engagigo
engagita
engel
engels
engineering
engl
england
englisch
english
enhavanta
enhavantaj
enhavante
enhavas
enhavi
enhavis
enhavo
enhavoj
enhavon
enigi
enigis
enigita
enigma
enigmo
enigo
eniko
enirante
eniras
enirejo
enirejoj
enirejon
eniri
eniris
eniro
eniron
eniru
enkadre
enkarcerigita
enkarnigo
enketado
enketo
enketoj
enklavo
enkonduka
enkondukas
enkonduki
enkondukis
enkondukita
enkondukitaj
enkonduko
enkondukon
enlanda
enlandaj
enlandan
enlande
enlightenment
enlogantaro
enlogantoj
enlogantojn
enmetas
enmeti
enmetis
enmetita
enmetitaj
enmeto
enmigrado
enmigrantoj
enmigrintoj
eno
enorma
enormajn
enorman
enprizonigita
enrete
enrico
enrique
ensemble
ensemblo
ensembloj
ensemblon
enskribita
enskribo
enspezo
enspezofontoj
enspezoj
enspezojn
enspezon
entajpu
entenanta
entenas
enteni
entenis
enterigis
enterigita
enterigo
enterprise
entertainment
entjera
entjero
entjeroj
ento
entoj
entombigis
entombigita
entombigitaj
entombigo
entomologo
entre
entrepreni
entreprenis
entreprenisto
entreprenistoj
entrepreno
entreprenoj
entreprenojn
entreprenon
entry
entstehung
entute
entuziasma
entuziasme
entuziasmo
entwicklung
enurbaj
enverguro
environment
environmental
enyedi
enzimo
enzimoj
enzyklopadie
eo
eoru
eotvos
ep
eperjes
epidemio
epidemioj
epifanio
episkopa
episkopejo
episkopo
episkopoj
episkopon
episkopujo
epistolo
epistoloj
epiteto
epizodo
epizodoj
epoko
epokoj
epokon
epopeo
eposo
epsilon
eq
er
era
erao
erara
eraras
erare
eraris
eraro
eraroj
erarojn
eraron
erasmo
erasmus
ercmontaro
erco
erde
erdely
erdelyi
erdos
eredmenyei
erevano
erfurt
erfurta
erfurter
erfurto
ergane
erhard
eric
erich
eridano
erik
erika
eriko
erinnerungen
eritreo
erkel
erlangen
ermitejo
ermito
ernest
ernesto
erno
ernst
ero
eroj
erojn
eron
erotika
erozio
erst
erste
ersten
ertl
erudiciulo
erupcio
erupcioj
ervin
erweiterte
erwin
erzahlungen
erzsebet
erzsi
es
esa
escepta
escepte
escepto
esceptoj
escobar
escorial
escuela
ese
eseisto
esenca
esencaj
esence
esenco
esencon
eseo
eseoj
eseojn
eskapi
eskapis
esko
eso
esp
espana
espanol
espanola
espasa
esperancki
esperanta
esperantaj
esperantajn
esperantan
esperante
esperantigata
esperantigis
esperantigita
esperantigite
esperantigo
esperantismo
esperantist
esperantista
esperantistaj
esperantistan
esperantistaro
esperantiste
esperantistigis
esperantistino
esperantisto
esperantistoj
esperantistojn
esperantlingva
esperantlingvaj
esperantlingve
esperanto
esperantologio
esperantomuzeo
esperanton
esperantujo
esperas
esperi
esperis
espero
esperoj
esperon
espirito
esplora
esplorado
esploradon
esploraj
esploras
esplori
esploris
esploristo
esploristoj
esplorita
esploro
esploroj
esplorojn
esploron
esprima
esprimas
esprimi
esprimis
esprimita
esprimitaj
esprimo
esprimoj
esprimojn
esprimon
esprimu
esprit
essai
essay
essays
essen
essential
essex
essonne
est
esta
estaba
establado
establi
establigis
establis
establita
establitaj
establo
estadas
estadistica
estado
estajo
estajoj
estanta
estantaj
estante
estas
este
esteban
ester
esterhazy
esterigo
estero
esteroj
estetika
estetiko
esther
esti
estienne
estigante
estigas
estigi
estiginta
estigis
estigo
estimata
estimativas
estimo
estimon
estingigis
estinta
estintaj
estinte
estis
esto
estona
estone
estonio
estonta
estontaj
estontan
estonte
estonteco
estontecon
estonto
estos
estrado
estrarano
estraranoj
estraro
estraron
estras
estrata
estre
estreco
estri
estrino
estris
estrita
estritaj
estro
estroj
estron
estu
estuaro
estudio
estudios
estulo
estuloj
estus
eszter
esztergom
et
eta
etaga
etago
etagoj
etagojn
etagon
etaj
etajn
etan
etanolo
etapo
etapoj
etat
etc
ete
etenda
etendas
etende
etendi
etendigas
etendigis
etendigo
etendis
etendita
etendo
etendon
eterna
eternan
eterne
eterneco
eternulo
eternulon
etero
eteroj
ethics
ethnic
ethnologue
etienne
etika
etikaj
etikedo
etiko
etila
etimologia
etimologie
etimologio
etimologion
etiopa
etiopia
etiopio
etna
etnaj
etne
etno
etnografia
etnografio
etnografo
etnoj
etoso
etoson
etre
etruska
etterem
etude
etudes
etwas
etymologisches
eu
eufrato
eugen
eugene
eugenia
eugenila
eugenio
eugeno
euklida
euklido
euler
eulera
eur
eurazia
eurazio
eure
euripido
euro
euroj
eurojn
europa
europaea
europaische
europaj
europajn
europan
europano
europanoj
europe
european
europo
europon
eurovido
eusebio
euska
euske
euskio
ev
eva
evaluation
evangelia
evangeliisto
evangelio
evangelioj
evangelion
evans
eve
evelyn
even
evening
evento
eventoj
eventojn
eventon
events
eventuala
eventualaj
eventuale
ever
every
everything
evidence
evidenta
evidentaj
evidente
evidentigas
evidentigis
evitante
evitas
eviti
evitis
evitu
evo
evolua
evoluado
evoluas
evolucio
evolui
evoluigas
evoluigi
evoluigis
evoluigita
evoluigo
evoluinta
evoluintaj
evoluis
evoluismo
evoluo
evoluoj
evoluon
evolution
evolutionary
ew
ewa
ex
exchange
exhibition
exo
exp
expedition
experience
experimental
exploration
explorer
expo
express
extinct
extra
extragalactic
ey
eye
eyes
ez
ezra
f
f0
f1
f2
f3
f4
f5
f6
f7
f8
f9
fa
fabelo
fabeloj
fabelojn
faber
fabian
fabio
fabloj
fabrikado
fabrikanto
fabrikas
fabriki
fabrikis
fabrikita
fabrikitaj
fabriko
fabrikoj
fabrikon
face
facebook
facila
facilan
facile
facileco
faciligas
faciligi
faciligis
fact
factbook
facto
factory
facts
factsheet
fadeno
fadenoj
fago
fair
faire
fait
faith
fajna
fajnaj
fajne
fajra
fajro
fajroestingista
fajron
faka
fakaj
fakdelegito
fako
fakoj
fakojn
fakon
fakta
fakte
fakto
faktoj
faktojn
fakton
faktoro
faktoroj
fakulo
fakuloj
fakultato
fakultatoj
fakultaton
fakverkisto
falas
falco
falcon
fali
faligi
faligis
falinta
falintaj
falintoj
falis
falk
falko
falkoj
fall
falls
falo
falon
falos
falsa
falsaj
false
falu
fam
fama
famaj
famajn
faman
famas
fame
famigis
familia
familiaj
familiajn
familian
familianoj
familianon
familiara
familie
families
familinomo
familinomoj
familio
familioj
familiojn
familion
family
famis
famkonata
famo
famon
famous
famuloj
fan
fanny
fantasy
fantazia
fantazio
fantomo
fantomoj
fao
far
faraday
farado
farante
faraono
faras
farata
farataj
farbo
fare
fari
farigante
farigas
farigi
fariginta
farigis
farigos
farigu
farigus
farinta
farinte
faris
farita
faritaj
faritajn
faritan
faritis
farkas
farm
farmacia
farmaciajoj
farmacio
farmer
farmistoj
farmo
farmoj
farnezila
faro
faroj
faros
fartas
faru
faruno
farus
fasado
fasadoj
fasadon
fasisma
fasismo
fasistoj
fasko
fast
fat
fatala
father
fatima
fauna
fauno
faure
faust
fausto
favora
favoraj
favoran
favoras
favore
favoris
favoro
favoron
fay
fayard
fazanedoj
fazano
fazanoj
fazekas
fazo
fazoj
fazon
fb
fbi
fc
fd
fe
fear
feather
features
feb
febro
februar
februare
februaro
february
federacia
federaciaj
federacian
federacio
federacioj
federacion
federal
federala
federation
federico
feeding
feher
feino
fejer
fekete
fekunda
fekundaj
fekundeco
fel
feld
felica
felicaj
felican
felice
felico
felicon
feliks
felikso
felipe
felix
fellini
felo
female
feminisma
feminismo
femme
femmes
fen
fenaroli
fendo
fendoj
fenestro
fenestroj
fenestrojn
fenestron
fenetila
fenica
fenikso
fenil
fenila
fenilacetato
fenilpropionato
fenolo
fenomeno
fenomenoj
fenomenojn
fenomenon
fer
fera
feraj
ferdeko
ferdinand
ferdinando
ferenc
ferencz
ferenczy
ferepoko
ferguson
feria
feriejo
ferio
ferioj
ferma
fermas
fermat
fermentado
fermi
fermigis
fermis
fermita
fermitaj
fermo
fernand
fernandes
fernandez
fernando
fero
feroa
feron
ferooj
ferrara
ferrari
ferreira
ferrer
fervoja
fervojaj
fervojan
fervojista
fervojistoj
fervojlinio
fervojo
fervojoj
fervojon
fervora
fervore
fervoro
fest
festa
festas
festata
festeno
festi
festis
festival
festivalo
festivaloj
festivalon
festlibro
festo
festoj
festojn
feston
festotago
festotagoj
festschrift
fettes
feuda
feudo
fez
ff
fg
fh
fi
fia
fiancino
fianco
fiaskis
fiasko
fiat
fibro
fibroj
fiction
fidas
fide
fidel
fidela
fidelaj
fidele
fideleco
fideluloj
fidi
fidinda
fidindaj
fidis
fido
fidon
field
fields
fiera
fiere
fiero
fifa
fifama
fig
figaro
fight
figio
figura
figure
figures
figuro
figuroj
figurojn
figuron
figursenca
fikcia
fikciaj
fikcio
fiksa
fiksaj
fiksas
fikse
fiksi
fiksis
fiksita
fiksitaj
filadelfio
filantropo
file
files
filharmonio
filia
filino
filinoj
filinojn
filinon
filio
filioj
filip
filipina
filipinoj
filipo
filippo
filistoj
fille
film
filma
filmado
filmaj
filmajn
filman
filmeto
filmetoj
filmfestivalo
filmis
filmisto
filmita
filmo
filmoj
filmojn
filmon
filmregisoro
films
filo
filoj
filojn
filologia
filologio
filologion
filologo
filon
filosofia
filozofia
filozofiaj
filozofiajn
filozofian
filozofio
filozofioj
filozofion
filozofo
filozofoj
filtrilo
fin
fina
finaj
finajo
finajoj
finajon
final
finalist
finalistino
finalisto
finaliston
finalo
finan
financa
financado
financaj
financajn
financan
finance
financi
financial
financis
financita
financo
financoj
finas
find
findbestscript
fine
finfine
fingro
fingroj
fingrojn
fingron
fini
finia
finigas
finigi
finigis
finigo
finigos
fininte
finis
finistere
finita
finitaj
finkonstruita
finkonstruo
finn
finna
finnaj
finne
finnlanda
finnlando
finnoj
fino
finoj
finon
finstacio
finstudis
fire
firefox
firenze
firma
firman
firmao
firmaoj
firmaon
firme
firmo
first
fischer
fish
fisher
fiskaptado
fiskaptista
fiskaptistoj
fislago
fiso
fisoj
fisojn
fison
fitzgerald
five
fizika
fizikaj
fizikajn
fizikan
fizike
fizikisto
fizikistoj
fiziko
fizikon
fiziologio
fiziologo
fj
fjodor
fjordo
fk
fl
flag
flago
flagoj
flagon
flagstaff
flagtenanto
flamengo
flamenko
flammarion
flamo
flamoj
flandra
flandraj
flandrio
flanka
flankaj
flanke
flanken
flanko
flankoj
flankojn
flankon
flankovojo
flankovojoj
flankrivero
flauro
flava
flavaj
flavajn
flavan
flavbeka
flaveca
flavecaj
flavio
flavor
flegado
flegis
flegistino
fleisch
fleksebla
fleming
flensburg
fletcher
flight
flor
flora
florado
floraj
floranta
floras
florenca
florence
florenco
flores
florian
floriano
florida
florido
floris
floro
floroj
florojn
floto
floyd
flua
fluanta
fluas
flue
fluejo
flug
flugado
fluganta
flugantaj
flugas
flughaveno
flughavenoj
flughavenon
flugi
flugilo
flugiloj
flugilojn
flugilplumoj
flugis
flugkompanio
flugo
flugoj
flugojn
flugon
fluis
fluo
fluoj
fluon
fluorido
fluoro
fluoroacetato
fluto
flutoj
flying
fm
fn
fo
focus
fodor
foiro
foiroj
foje
fojfoje
fojo
fojoj
fojojn
fojon
fokusigas
fokuso
foldes
foldrajzi
folge
folia
foliaj
foliarbaroj
foliaro
folio
folioj
foliojn
folk
folklora
folkloro
fonda
fondado
fondajo
fondajon
fondas
fondata
fondi
fondigis
fondigo
fondinta
fondinto
fondintoj
fondis
fondita
fonditaj
fonditis
fondo
fondon
fonds
fondumo
fonduso
fone
fonetika
fonetiko
fono
font
fonta
fontaine
fontana
fontano
fontas
fonto
fontoj
fontojn
fonton
food
foods
football
for
fora
foraging
foraj
forbes
forbruligis
forbrulis
force
forces
ford
fore
foreign
forest
forestas
foresto
forests
foret
forever
forgesas
forgesi
forgesis
forgesita
forgesu
forgisto
forigas
forigi
forigis
forigita
forigitaj
forigo
forigon
forigu
foriras
foriri
foriris
foriro
foriru
forjetis
forko
forkuras
forkuri
forkuris
forlasas
forlasi
forlasis
forlasita
forlasitaj
forlaso
forlasu
form
forma
formacio
formado
formadon
formaj
formala
formalaj
formalan
formale
formantaj
formante
formas
formata
formation
formato
forme
formi
formiata
formiato
formigas
formigi
formigis
formigo
formikoj
formis
formita
formitaj
formo
formoj
formojn
formon
formortinta
formortintaj
formortis
formorto
formulis
formulo
formuloj
formulon
forno
fornoj
forpasinta
forpasis
forpaso
forpeli
forpelis
forpelita
forpelitaj
forpelo
forportis
forpreni
forprenis
forschungen
forst
forstado
forster
fort
forta
fortaj
fortajn
fortan
forte
forteco
fortigi
fortigis
fortika
fortikaj
fortikajo
fortikajoj
fortikajojn
fortikajon
fortikan
fortikigita
forto
fortoj
fortojn
forton
fortreso
fortuna
fortune
forum
forumo
forveturis
fosajo
fosfato
fosfora
fosforo
fosilia
fosiliaj
fosilioj
fossil
foster
fostoj
fotado
fotaj
fotaro
fotilo
fotis
fotisto
fotita
foto
fotografio
fotoj
fotojn
foton
fotosintezo
foucault
found
foundation
foundations
fountain
four
fourier
fourth
fox
fp
fq
fr
fra
frac
fradeko
frage
fragmento
fragmentoj
fragrance
frakasis
frakcio
frakcioj
framasona
framasono
franc
franca
francais
francaise
francaj
francajn
francan
france
frances
francesca
francesco
franche
francia
francilio
francio
francion
francis
francisco
franciska
franciskana
franciskano
franciskanoj
francisko
franciszek
franck
franckonteo
franclingva
franclingvaj
franclingve
franco
francois
francoise
francoj
francolinus
francujo
frank
franka
frankfurt
frankfurta
frankfurter
frankfurto
frankisma
franklin
franko
frankoj
frankolino
frankonio
frans
frantisek
franz
frapas
frapi
frapinstrumentaro
frapinstrumentisto
frapis
frapo
fraser
fraskote
frata
frataro
frateco
fratino
fratinoj
fratinon
frato
fratoj
fratojn
fraton
frau
frauen
fraulino
fraulinoj
fraza
frazeologio
frazo
frazoj
frazojn
frazon
fred
freddie
frederic
frederick
frederik
frederiko
free
freedom
freeman
frei
freiberg
freiburg
freie
freiheit
freiherr
freimut
frekvenco
frekvencoj
frekventis
fremda
fremdaj
fremdajn
fremdan
fremdlingva
fremdulo
fremduloj
french
freneza
frenezo
frente
fresa
fresaj
fresan
frese
fresh
fresko
freskoj
freskojn
fresno
freud
freund
freunde
frey
freytag
frg
friburga
friburgo
frick
frida
friedman
friedrich
friend
friends
frigo
frigyes
fringedoj
fripono
frisa
frislando
fritz
from
fromago
fromm
front
fronta
fronte
frontera
fronto
fronton
frost
frosto
frotado
frua
fruaj
fruajn
fruan
frue
fruit
frukto
fruktodona
fruktoj
fruktojn
frukton
frumatene
frunto
frunton
fry
frydek
fs
ft
ftalata
ftalato
fu
fuchs
fue
fuente
fuentes
fugas
fugi
fugis
fugo
fuhrer
fukuoka
fulda
full
fuller
fulmo
fulop
fumo
fun
function
functional
fund
fundacion
fundamenta
fundamentaj
fundamentajn
fundamentan
fundamente
fundamento
fundamentoj
fundamentojn
fundamenton
funde
fundo
funebra
funebraj
funebro
funf
fungo
fungoj
funikularo
funkcia
funkciado
funkciadon
funkciaj
funkcianta
funkciantaj
funkcias
funkcii
funkciigas
funkciigi
funkciigis
funkciis
funkcio
funkcioj
funkciojn
funkcion
funkciulo
funkciuloj
fuorto
fur
furfurila
furioza
furoris
futbal
futbala
futbalas
futbalis
futbalisto
futbalklubo
futbalo
futbalon
futoj
futura
future
futuro
fuzio
fv
fw
fx
fy
fz
fɛɐ
g
g0
g1
g2
g3
g4
g5
g6
g7
g8
g9
ga
gaal
gabono
gabor
gabriel
gabriela
gabriele
gabriella
gabrielli
gabrielo
gaela
gaetano
gagarin
gaillarde
gaja
gajaj
gaje
gajnas
gajni
gajninto
gajnis
gajno
gakarto
gal
gala
galaksio
galaksioj
gale
galega
galegio
galeno
galeria
galerie
galerio
galerioj
galicio
galilei
galileo
gall
gallery
gallica
gallimard
gallo
gallus
galo
gama
gamas
gamba
gambio
gamboj
game
games
gamma
gamo
gamon
gan
ganao
gandhi
gang
ganga
gangalo
gango
ganz
gao
gap
gar
garantias
garantii
garantiis
garbejo
garcia
gard
garda
gardas
garde
garden
gardena
gardenisto
gardeno
gardenoj
gardenon
gardens
gardi
gardis
gardistaro
gardisto
gardistoj
gardner
gardonyi
gardu
gare
gares
garibaldi
garland
garnier
garnizono
garolo
garonne
garrett
garten
gary
garzanti
gas
gasa
gaso
gasoj
gason
gaspar
gaspard
gastejo
gastejoj
gastiganto
gastigantoj
gastigas
gastigi
gastigis
gastis
gasto
gastoj
gastojn
gaston
gate
gates
gaula
gaulio
gaulle
gauss
gay
gaza
gazdasagi
gazeta
gazetara
gazetaro
gazeto
gazetoj
gazetojn
gazeton
gazette
gazetteer
gb
gc
gd
gdansk
gdansko
gdr
gdynia
ge
gea
geamikoj
geastronomoj
geavoj
geben
geburtstag
gedichte
gedioj
geedza
geedzeco
geedziga
geedzigis
geedzigo
geedzigoj
geedzigon
geedzoj
gefiloj
gefilojn
gefratoj
gegen
gegenwart
gehen
gehrels
geht
geisei
geist
gej
geja
gejaj
gejoj
gejunuloj
geld
gelernantoj
gellert
gelogantoj
gemeinde
gemelaj
gemeloj
gemo
gemoj
gen
genado
genas
gendarmoj
gender
gene
genealogia
genealogio
genera
generacio
generacioj
generacion
generado
general
generala
generalaj
generalajn
generalan
generale
generaligita
generalo
generaloj
generalon
generas
generation
generi
generis
generita
genesis
genetic
genetics
genetika
genetikaj
genetike
genetiko
geneva
geneve
genevieve
genevo
genezo
geni
genia
genio
genis
genitivo
genius
geno
genocide
genocido
genoj
genova
genovo
genra
genraro
genro
genroj
genrojn
genron
gent
gentila
gentile
gento
gentoj
genuoj
genus
geo
geodss
geoffrey
geografia
geografiaj
geografian
geografico
geografie
geografio
geografo
geographic
geographical
geographie
geography
geologia
geologiaj
geological
geologie
geologio
geologo
geology
geometria
geometriaj
geometrio
geopedia
georg
george
georges
georgi
georgia
georgij
georgio
georgo
gepatra
gepatroj
gepatrojn
ger
gera
gerais
gerajso
gerald
geranila
gerard
gerardo
gerd
gerda
geregoj
gergely
gerhard
gerilanoj
germain
german
germana
germanaj
germanajn
germanan
germandevena
germane
germania
germanio
germanion
germanlando
germanlingva
germanlingvaj
germanlingvan
germanlingve
germanlingvio
germano
germanoj
germanojn
germanujo
germany
germo
germplasm
gero
gerrit
gertrud
geschichte
geschichten
gesellschaft
gesinjoroj
gestapo
gesto
gestoj
gestudentoj
get
geto
geza
gf
gg
gh
gheorghe
gheorgheni
gi
gia
giacomo
giaj
giajn
gian
giant
gibbs
gibraltaro
gibson
gibt
gibutio
gießen
gifu
giganta
gigantaj
giganto
gigantoj
gil
gilbert
gilberto
gildo
giles
gilgames
gill
gilles
gillespie
gilmour
gimnastiko
gimnazia
gimnazio
gimnazioj
gimnaziojn
gimnazion
gin
ging
giordano
giorgio
giovanni
gipso
girl
girls
girolamo
gironde
gis
gisdatigita
gismorte
gisnuna
gitaristo
gitaro
gitaroj
gitaron
giulio
giuseppe
give
gj
gjumri
gk
gl
glacero
glaceroj
glacia
glaciepoko
glacihokeisto
glacio
glando
glandoj
glano
glaruso
glasgovo
glasgow
glaso
glason
glass
glat
glata
glataj
glavo
glavoj
glavon
gleichen
glenn
gli
gliese
glikolo
globa
global
globalspecies
globe
globo
globon
glora
gloria
gloro
gloron
glory
glosbe
gloso
glossary
gluck
glukozo
glutamato
glutarato
gm
gmbh
gmelin
gn
gnu
go
gob
gobierno
god
godollo
gods
goes
goethe
goeto
gogh
gogol
goias
going
goja
gojas
gojaso
goje
gojis
gojo
gojon
gold
goldberg
golden
goldman
golf
golfa
golfeto
golfo
golfon
gomes
gomez
gomor
goncalo
gone
gong
gonzaga
gonzalez
gonzalo
good
goodman
google
gora
gorbacov
gordon
gorgareo
gorgo
gorgon
gorkij
gorlitz
got
gota
gotamo
gotao
gotha
gotika
gotikaj
gotiko
gotoj
gott
gottes
gottfried
gottingen
gottlieb
gottlob
gotz
gould
gov
government
goya
gp
gq
gr
grabowski
grace
gracia
graco
grad
grado
gradoj
gradojn
gradon
graf
grafa
grafejo
grafeo
grafika
grafikajo
grafikajoj
grafikistino
grafikisto
grafiko
grafino
graflando
graflandoj
grafo
grafoj
graham
grajnoj
gramatika
gramatikaj
gramatiko
gramatikon
grammar
grammatik
grammy
gramoj
gramojn
grampus
gran
granada
granado
grand
granda
grandaj
grandajn
grandan
grandas
grandbieno
grandduklando
grandduko
grande
grandeco
grandecon
grandega
grandegaj
grandegajn
grandegan
grandense
grandes
grandigis
grandioza
grandkvante
grandmajstro
grando
grandoj
grandon
grandparte
grands
grandskala
grandskale
grandurbo
grandurboj
grandvilago
granito
grant
grasa
graso
grass
grasset
grau
grava
gravaj
gravajn
gravan
gravas
grave
graveco
gravecon
graveda
gravedeco
gravega
graves
gravis
gravita
gravito
gravo
gravon
gravuloj
gravurajoj
gravuristo
gray
graz
great
greater
greatest
grebo
greco
gredos
greece
greek
green
greene
greenwich
greenwood
greg
gregor
gregoria
gregorio
gregory
greifswald
grek
greka
grekaj
grekajn
grekan
greke
grekio
greko
grekoj
grekokatolika
grekujo
grenado
grenejo
greno
grenoble
grenon
greta
grey
grigorij
grimm
grimpado
grimpi
grin
gripo
griza
grizaj
grizajn
grizan
grizbruna
grizeca
grizono
grodno
groeneveld
groningen
gronlando
gros
grosjean
gross
groto
grotoj
ground
group
groups
grove
growth
groß
große
großen
großer
großes
gruber
grun
grund
grunda
grundo
grundoj
grundon
grunwald
gruo
gruoj
grupa
grupigas
grupigitaj
grupigo
grupigoj
grupo
grupoj
grupojn
grupon
gruppe
gruyter
gs
gt
gu
guadalajara
guadalupe
guardia
guardian
guas
guberniestro
gubernio
gubernioj
gueret
guerra
guerre
guerrero
guevara
guglo
gui
guia
guide
guidechem
guides
guido
guillaume
guillermo
guinea
guinness
guis
guitar
gujano
gulf
gun
gunma
gunnar
gunter
gunther
guo
gupta
gusta
gustaf
gustaj
gustan
gustatempe
gustav
gustave
gustavo
guste
gustigagento
gusto
guston
gusztav
gut
gute
gutenberg
gutersloh
gutierrez
guto
guy
guzman
gv
gvadalaharo
gvardio
gvatemalo
gvida
gvidado
gvidadon
gvidaj
gvidanta
gvidantaro
gvidanto
gvidantoj
gvidas
gvidata
gvidataj
gvidi
gvidilo
gvidis
gvidita
gviditaj
gvidlibro
gvido
gvineo
gw
gx
gy
gyaloglo
gymnasium
gyongyos
gyor
gyorgy
gyorgyi
gyozo
gyula
gyulafehervar
gz
h
h0
h1
h2
h3
h4
h5
h6
h7
h8
h9
ha
haag
haas
habana
habe
haben
habia
habilitigis
habitat
habitato
habitatoj
habitatoperdo
habsburga
habsburgo
habsburgoj
hacer
hachette
hacia
had
hadriano
haeno
hagen
hago
hahn
hai
haitio
hajdelbergo
hajdu
hakilo
hal
halasz
halberstadt
hale
haleakala
half
hall
halle
haller
halo
haloj
halt
haltas
haltejo
haltejoj
halten
halti
haltigi
haltigis
haltigita
haltis
halto
haltu
ham
hamburg
hamburga
hamburgo
hamilton
hamlet
hamleto
hammer
hammond
hampshire
hampton
han
hana
hancock
hand
handbook
handbuch
handel
handikapuloj
hankai
hankyu
hanlando
hanna
hannah
hannover
hanns
hano
hanojo
hanovro
hans
hansa
hansen
hanshin
haoso
happy
har
hara
harald
hararo
hararon
harco
harcourt
hard
harding
hardy
harghita
hari
harkivo
harlow
harmonia
harmonie
harmonio
haro
haroj
harojn
harold
harom
harper
harpercollins
harpo
harriet
harris
harrison
harry
hart
hartmann
hartmut
harvard
harvey
harz
has
hasan
hassan
hast
hasta
hastings
hat
hatte
hatten
haus
haut
hautajo
haute
hautes
hauto
hauton
hauts
havaja
havajo
havajoj
havajojn
havajon
havano
havanta
havantaj
havante
havas
have
havebla
haveblaj
haveblas
havel
haven
havena
haveno
havenoj
havenon
havenurbo
havi
havigas
havigi
havigis
havis
havlickuv
havos
havre
havu
havus
hawaii
hawk
hawkins
hay
haydn
hayes
haz
hazarda
hazardaj
hazarde
hazardo
hb
hc
hcl
hd
he
head
health
heart
heath
heaven
hebejo
hebrea
hebreaj
hebrean
hebree
hebreoj
hebrew
hector
heft
hegedus
hegel
hegemonia
hegemonias
hegemonio
hegoj
heide
heidegger
heidelberg
heidi
heikkila
heiligen
heiligenstadt
heimat
heine
heinrich
heinz
hejdelbergo
hejma
hejmaj
hejmas
hejme
hejmen
hejmenveninta
hejmenvenis
hejmigas
hejmlando
hejmo
hejmoj
hejmon
hejmpago
hejmregiono
hejmurbo
hejtado
heksanoato
heksila
hektaroj
hektarojn
hektoro
hela
helaj
helan
helbruna
held
hele
helen
helena
helene
helenisma
helenisto
heleno
helga
helge
helgriza
helikoptero
helin
heliumo
hell
heller
helm
helmut
help
helpa
helpante
helpanto
helpantoj
helpas
helpata
helpe
helpi
helpis
helpita
helplingvo
helpo
helpon
helpos
helpu
helsinki
helsinko
helveta
helynevkonyve
hemia
hemio
hemisfero
hen
henares
henderson
hendrik
henning
henri
henriette
henrik
henriko
henry
henryk
hepato
hepburn
heptanoato
heptila
her
hera
heraklo
herald
herault
herausgegeben
herb
herba
herbejo
herbejoj
herbeno
herbert
herbo
herboj
hercegovino
herder
here
hereda
heredajbiblioteko
heredajo
heredajoj
heredajon
heredanto
heredantoj
heredis
heredo
heredonto
herezo
heritage
herkulo
herkunft
herman
hermann
hernan
hernandez
hernando
herne
hero
heroa
herodo
herodoto
heroes
heroino
heroldo
heroo
herooj
herr
herrera
herrmann
herrn
herschel
herve
herz
herzberg
herzog
hesio
hess
hesse
hessen
het
heute
heves
heziodo
hezitis
hf
hg
hh
hi
hibrido
hibridoj
hidalgo
hidrargo
hidraulika
hidro
hidrogena
hidrogeno
hidroksido
hidroksila
hidroksilaj
hidrolizo
hier
hierarkio
hierau
hieronimo
hieronymus
higeno
higgins
high
higher
higieno
hilaire
hilbert
hilda
hildburghausen
hildegard
hildesheim
hill
hills
him
himalaja
himalajo
himmel
himmler
himno
himnoj
himnon
hin
hind
hinda
hindaj
hindeuropa
hindeuropaj
hindia
hindio
hindocinio
hindu
hindua
hinduismo
hindujo
hinduoj
hiota
hiperbola
hiperkubo
hiperpluredro
hiperpluredroj
hipolito
hipoteza
hipotezo
hipotezoj
hipotezon
hippolyte
hirlap
hiroki
hiroshi
hiroshima
hirosimo
hirsch
hirt
hirundo
his
hispana
hispanaj
hispanan
hispane
hispania
hispanio
hispanion
hispanlingva
hispanlingvaj
hispano
hispanoj
hispanujo
hist
histo
histoire
histoj
historia
historiae
historiaj
historiajn
historian
historic
historica
historical
historico
historie
historiisto
historiistoj
historio
historiografio
historioj
historiojn
historion
historique
historische
historischen
history
hitchcock
hitler
hitlero
hits
hiv
hivatal
hj
hjogo
hk
hl
hlestakov
hm
hms
hn
ho
hobojo
hoc
hoch
hodiau
hodiaua
hodiauaj
hodiauan
hodler
hodmezovasarhely
hodonin
hoepli
hof
hoffman
hoffmann
hofmann
hohe
hokajdo
hokuto
holanda
holando
holero
holger
holiday
holivudo
holland
hollyhock
hollywood
holmes
holocaust
holokausto
holstein
holstinio
holt
holy
holz
hom
homa
homaj
homajn
homamaso
homan
homaranismo
homaro
homaron
hombre
home
homepage
homero
homme
hommes
homo
homogena
homoj
homojn
homon
honda
honduro
honesta
hong
hongkongo
honkongo
honolulu
honor
honora
honoraj
honoran
honoras
honore
honori
honorigis
honorigita
honoris
honorita
honoro
honoron
hont
honto
hook
hooker
hope
hopkins
hor
hora
horace
horacio
horaro
hordeo
hordo
hore
horejo
horizontala
horizontalaj
horizontale
horizonte
horizonto
horlogo
horlogoj
hormono
hormonoj
horn
horni
horo
horoj
horojn
horon
horse
horst
horthy
horvath
hory
horzono
hospital
hospitalo
hospitaloj
hospitalon
host
hot
hotel
hotelo
hoteloj
hotelon
houghton
house
houston
houten
how
howard
howe
hoy
hoyo
hozzaferes
hp
hq
hr
hradec
hradiste
hrsg
hs
ht
htm
html
http
https
hu
huang
hubble
huber
hubert
hudson
hugh
hughes
hugo
hui
hull
human
humana
humanisma
humanismo
humanisto
humanitara
humano
humblot
humboldt
hume
humida
humidaj
humideco
humidejoj
humoro
humphrey
humura
humuristo
humuro
hund
hundo
hundoj
hundojn
hundon
hundred
hunedoara
hung
hungara
hungaraj
hungarajn
hungaran
hungardevena
hungare
hungaria
hungarian
hungariga
hungario
hungarion
hungarlando
hungarlingva
hungarlingve
hungaro
hungaroj
hungarujo
hungarujon
hungary
hunoj
hunsruck
hunt
hunter
hunyad
hunyadi
hus
husanoj
hussein
hut
hutton
huygens
hv
hw
hx
hy
hyde
hz
i
i0
i1
i2
i3
i4
i5
i6
i7
i8
i9
ia
iafoje
iaj
iajn
iam
iama
iamaj
iaman
iamaniere
ian
iana
iasi
iata
iau
iauc
ib
iba
ibera
iberia
iberio
ibge
ibis
ibiso
ibm
ibn
ibrahim
ibsen
ic
icao
ice
ich
id
ida
idaho
idaro
idaron
idea
ideala
idealo
idealoj
idearo
ideas
ident
identa
identaj
identeco
identecon
identification
identigas
identigi
identigis
identigita
identigitaj
identigo
identities
identity
ideo
ideoj
ideojn
ideologia
ideologiaj
ideologio
ideologioj
ideologion
ideon
ido
idoj
idojn
idolo
idon
ie
ieee
iej
iel
ies
ieyasu
if
ifa
ifef
ifigenio
ig
igante
igas
igi
igis
ign
ignac
ignacio
ignaco
ignacy
ignaz
igor
igos
igu
igus
ih
ihm
ihn
ihr
ihre
ihren
ihrer
ii
iii
ij
ijk
ijob
ik
ikono
ikonoj
ikso
iktero
ikue
il
ilaro
ildiko
ile
ilei
ili
ilia
iliado
iliaj
iliajn
ilian
ilin
ilinojo
ilinojso
ilja
iljic
ill
ille
illes
illinois
illustrated
ilm
ilmenau
ilo
iloj
ilojn
ilon
ilona
ilustrajo
ilustrajoj
ilustras
ilustris
ilustristo
ilustrita
iluzio
im
imagas
image
images
imagi
imagis
imago
imamo
imdb
imf
imitado
imitas
imiti
imitis
immanuel
immer
impact
imperativo
imperia
imperiaj
imperial
imperian
imperiestra
imperiestraj
imperiestrino
imperiestro
imperiestroj
imperiestron
imperiismo
imperio
imperioj
imperion
impeto
implicas
implications
implikas
implikita
impona
imponaj
imponan
important
imposto
impostoj
impostojn
imposton
impresa
impresionismo
impresis
impreso
impresoj
impreson
improvizado
impulso
imre
in
ina
inaj
inan
inauguris
inaugurita
inauguro
inc
incendio
incendioj
incidento
including
inda
indas
indekso
independence
independent
index
india
indian
indiana
indianaj
indianao
indiano
indianoj
indice
indico
indicoj
indiferenta
indigena
indigenaj
indigenajn
indigenan
indigenoj
indikante
indikas
indikata
indiki
indikilo
indikis
indikita
indikitaj
indiko
indikoj
individua
individuaj
individuajn
individuan
individue
individuo
individuoj
individuojn
indo
indolo
indonesia
indonezia
indonezio
indre
indukto
induso
industri
industria
industriaj
industrial
industrian
industriarta
industrie
industriigo
industriisto
industrio
industrioj
industrion
industry
ine
inegi
ines
infana
infanago
infanagon
infanaj
infaneco
infangardeno
infano
infanoj
infanojn
infanon
infanteria
infanterio
infektigo
infekto
infektoj
infero
infinitivo
inflacio
inflamo
influa
influaj
influas
influata
influence
influi
influis
influita
influitaj
influo
influoj
influojn
influon
info
informa
informacion
informadiko
informado
informaro
informas
information
informationen
informationssystem
informi
informilo
informis
informita
informkesto
informo
informoj
informojn
informon
infraruga
infrastrukturo
infty
ing
ingenierado
ingenierarto
ingeniero
ingenieroj
ingenra
ingo
ingredienco
ingrediencoj
ingredients
ingrid
ingusio
iniciate
iniciatinto
iniciatis
iniciatita
iniciativo
iniciato
iniciatoj
inkaa
inkaoj
inklino
inkludante
inkludas
inklude
inkludi
inkludis
inkludita
inkluditaj
inkluzivante
inkluzivas
inkluzive
inkluzivi
inkluzivis
inkluzivita
inko
inkvizicio
inn
innsbruck
ino
inocento
inoj
inon
inorganic
ins
insee
insekto
insektoj
insektojn
insel
inside
insigno
insistas
insistis
inskipp
inspektoro
inspirigis
inspiris
inspirita
inspiritaj
inspiro
inspiron
instagram
instalado
instalajo
instalajoj
instalajojn
instali
instaligis
instalis
instalita
instalitaj
instanco
instancoj
instigas
instigi
instigis
instigo
institucia
institucio
institucioj
instituciojn
institucion
institut
institute
institution
instituto
institutoj
instituton
instrua
instruado
instruadon
instruan
instruas
instruata
instrui
instruis
instruista
instruistino
instruisto
instruistoj
instruistojn
instruiston
instruita
instruitaj
instrukcio
instrukcioj
instrumenta
instrumento
instrumentoj
instrumentojn
instrumenton
instruo
instruoj
instruojn
instruon
insula
insulaj
insularo
insuleto
insuletoj
insulo
insuloj
insulojn
insulon
insurekcio
int
integra
integralo
integrigis
integrigo
integrita
integritaj
intel
intelekta
intelektaj
intelekto
intelektulo
intelektuloj
inteligenta
inteligentaj
inteligenteco
inteligento
intelligence
intenca
intencas
intence
intencis
intencita
intenco
intencoj
intencon
intensa
intensaj
intensan
intense
intenseco
inter
interaga
interagado
interago
interagoj
interalie
interesa
interesaj
interesajn
interesan
interesas
interese
interesigas
interesigis
interesis
interesita
intereso
interesoj
interesojn
intereson
interfaco
interkonsentis
interkonsento
interkonsentoj
interkonsenton
interkultura
interlaken
interligo
interligon
interlingua
interlingvao
interlingvistiko
interna
internacia
internaciaj
internaciajn
internacian
internacie
internaciismo
internacio
internacional
internaj
internajn
internan
international
internationale
interne
internen
internet
interno
internon
interparolado
interparolo
interparoloj
interpretado
interpretas
interpretation
interpreti
interpretis
interpretisto
interpretita
interpreto
interpretoj
interreta
interretaj
interrete
interretejo
interreto
interrilato
interrilatoj
interrompis
interrompita
interrompo
interrompoj
intersange
intersangi
intersangis
intersango
intersangoj
intersangon
intertempe
interurba
intervalo
intervaloj
interveni
intervenis
interveno
intervenon
interview
intervjuo
intervjuoj
intesto
intezet
intima
intime
into
intrigo
introduction
inunditaj
inundo
inundoj
invadi
invadis
invado
invadoj
invadon
inventinto
inventis
inventisto
inventita
invento
inversa
inverse
inverso
investado
invitas
invitis
invitita
invititaj
invito
inviton
io
iok
iom
ioma
ioman
iome
iomete
ion
iovao
iowa
ip
ipac
ipernity
iq
ir
ira
iradis
irado
iraka
irako
iran
irana
iranaj
irano
iranta
irante
iranymagyarorszag
iraq
iras
ireland
iren
irena
irene
ireneo
iri
irigacio
irina
iris
irish
iriso
irisoj
irlanda
irlandaj
irlando
irma
iro
irodalmi
irodalom
irok
iron
ironie
ironio
iros
iru
irving
is
isa
isaac
isaak
isabel
isabella
isabelle
isae
isbn
isere
isidoro
isidro
isla
islam
islama
islamaj
islaman
islamanoj
islamic
islamo
islamon
island
islanda
islandanoj
islando
islands
isle
islenzk
islenzkra
ismael
ismail
iso
isola
isonzo
israel
israela
israelaj
israelo
issn
issue
issues
ist
istanbulo
istituto
istmo
isto
istoj
istvan
iszdb
it
ita
itala
italaj
italajn
italan
itale
italia
italian
italiana
italiano
italigita
italio
italion
itallingva
italo
italoj
italujo
italy
ithaca
itinero
itineroj
ito
its
iu
iucn
iufoje
iuj
iujn
iulia
iun
iv
ivan
ivano
ivanov
ivanovic
ivanovna
ivo
iw
iwata
ix
iy
iz
izabela
izoamila
izobuterato
izobutila
izocianato
izoftalato
izola
izolita
izolitaj
izopropila
izotopo
izotopoj
izovalerato
izrael
izraelidoj
izraelo
j
j0
j1
j2
j3
j4
j5
j6
j7
j8
j9
ja
jablonec
jacek
jack
jackie
jackson
jacob
jacobi
jacobs
jacobus
jacopo
jacqueline
jacques
jagelona
jager
jahr
jahrbuch
jahre
jahren
jahrhundert
jahrhunderts
jaime
jak
jakab
jako
jakob
jakoba
jakobo
jakovlev
jakub
jalisco
jalto
jam
jama
jamagata
jamajka
jamajko
jamanasi
james
jan
jana
jane
janeiro
janejrio
janejro
janet
janko
janos
januar
januara
januare
januaro
january
janus
janusz
japan
japana
japanaj
japanan
japane
japanese
japania
japanio
japanion
japanoj
japanujo
japonica
jar
jara
jaraga
jaragaj
jaraj
jaran
jaras
jarcenta
jarcento
jarcentoj
jarcentojn
jarcenton
jardeko
jardekoj
jardekojn
jardekon
jardin
jare
jarigo
jarkolekto
jarlibro
jarmilo
jarmiloj
jaro
jaroj
jarojn
jaromir
jaron
jaroslav
jarosław
jarulo
jaruloj
jason
jaudo
java
javier
javo
jay
jaz
jaza
jazmuzikisto
jazmuzikistoj
jazo
jazon
jazz
jb
jc
jd
je
jean
jeanne
jef
jeff
jefferson
jeffrey
jehovo
jehuda
jemand
jemandem
jemanden
jemeno
jen
jena
jenaj
jenajn
jenan
jene
jenkins
jennifer
jenny
jeno
jenon
jens
jensen
jeppe
jeremia
jeremy
jerez
jerome
jeronimo
jerry
jersey
jerusalem
jerusalema
jerusalemo
jerusalemon
jerzejo
jerzy
jes
jesaja
jesenik
jesse
jessica
jesu
jesuo
jesuon
jesus
jet
jetas
jeti
jetis
jetita
jeto
jetzt
jeune
jewish
jews
jezuita
jezuito
jezuitoj
jf
jg
jh
ji
jicin
jida
jihlava
jim
jimenez
jimmy
jin
jindrich
jiri
jj
jk
jl
jm
jn
jo
joachim
joan
joao
joaquim
joaquin
jodido
jodo
jodoacetato
joe
joel
jog
jogo
joh
johan
johana
johanesburgo
johann
johanna
johannes
johano
johanon
johansson
john
johnny
johns
johnson
johnston
joint
jojef
jokai
jokohamo
jon
jona
jonas
jonathan
jones
jong
jono
jonoj
jordan
jordanio
jordi
jorf
jorg
jorge
jorkio
jorko
jos
jose
josef
josep
joseph
josephine
joshua
josif
josip
josuo
jour
journal
journey
jours
joy
joyce
jozef
jozefo
jozsef
jp
jpg
jpl
jq
jr
js
jsessionid
jstor
jt
ju
juan
juana
juarez
jubilea
jubileo
jubilo
jud
juda
judaj
judajn
judan
judaso
judicial
judismo
judit
judith
judo
judoj
judojn
judujo
juga
jugado
jugas
jugejo
jugend
jugi
jugis
jugistaro
jugisto
jugistoj
jugita
jugo
jugoj
jugon
jugoslava
jugoslavia
jugoslavianoj
jugoslavio
juhasz
jukatano
jul
jules
juli
julia
julian
juliano
julich
julie
julien
julieta
juliette
julio
julius
july
jump
jun
juna
junage
junago
junaj
junajn
junan
junano
june
juneco
jung
junge
juni
junie
junio
junior
junipero
junta
junto
junula
junulara
junularaj
junularan
junularo
junulino
junulinoj
junulo
junuloj
junulojn
junulon
jupiter
jupitera
jupiteraj
jupitero
jupo
jura
juraj
jurajn
juran
juras
jurasa
juraso
juravljova
jure
jurgen
juri
jurij
jurio
juris
jurisdikcia
jurisdikcio
jurisdikcion
juristo
jurkomunumo
jurnalismo
jurnalistino
jurnalisto
jurnalistoj
jurnalo
jurnaloj
jurnalon
juro
juron
jus
jusa
jusaj
juse
juss
just
justa
juste
justeco
justecon
justica
justice
justico
justin
justiniano
justo
justulo
justus
jutlando
jutubo
juveloj
juventus
jv
jw
jx
jy
jyvaskyla
jz
k
k0
k1
k2
k3
k4
k5
k6
k7
k8
k9
ka
kabano
kabanoj
kabaredo
kabe
kabineto
kablo
kabloj
kabo
kabulo
kaburbo
kaco
kaczynski
kadar
kadavro
kadavroj
kadavrojn
kadavron
kadenco
kadizo
kadre
kadro
kadroj
kadron
kafejo
kafejoj
kafka
kafo
kafon
kahelaro
kahelaroj
kai
kairo
kaiser
kaiserslautern
kaj
kajero
kajeroj
kajo
kajoj
kal
kalabrio
kalcia
kalcio
kaldrono
kaledonio
kalendaro
kalendaron
kaleso
kaleza
kalgario
kali
kalia
kalidro
kaliflando
kalifo
kalifornia
kalifornio
kaligrafio
kaliko
kaliningrado
kalio
kalkato
kalko
kalkostono
kalkulado
kalkulas
kalkulata
kalkuli
kalkulis
kalkulita
kalkulitaj
kalkulo
kalkuloj
kalkulon
kalman
kalmar
kalocsa
kalocsay
kaluga
kalvario
kalvinana
kalvinanoj
kam
kama
kamarado
kamaradoj
kambogo
kameloj
kamen
kamenice
kameno
kameraisto
kamerao
kamero
kameruno
kamionoj
kampa
kampadejo
kampanilo
kampanio
kampanjo
kampanjoj
kampanjon
kampara
kamparaj
kamparana
kamparanaj
kamparano
kamparanoj
kamparo
kampf
kampo
kampoj
kampojn
kampon
kampurbo
kampuso
kamus
kan
kanabo
kanada
kanadaj
kanado
kanagaua
kanalo
kanaloj
kanalon
kanariaj
kanario
kanarioj
kanbirdo
kanceliero
kancero
kandelo
kandid
kandidatigis
kandidatis
kandidato
kandidatoj
kandidatojn
kandidaton
kane
kaneda
kanjono
kankro
kann
kano
kanona
kanonaj
kanoniko
kanono
kanonoj
kanopeo
kansai
kansas
kansaso
kant
kantabra
kantabrio
kantadis
kantado
kantadon
kantante
kantaro
kantas
kantata
kantato
kantatoj
kantautoro
kanti
kantis
kantistino
kantisto
kantistoj
kantita
kanto
kantoj
kantojn
kantokonkurso
kanton
kantona
kantoncefurbo
kantono
kantonoj
kantoro
kanzono
kanzonoj
kaoso
kap
kapabla
kapablaj
kapablas
kapableco
kapablis
kapablo
kapabloj
kapablojn
kapablon
kapacito
kapelestro
kapeleto
kapelmajstro
kapelo
kapeloj
kapelon
kapitalisma
kapitalismo
kapitalo
kapitalon
kapitano
kapitolo
kapitulacis
kapitulaco
kapitulo
kapo
kapoj
kapojn
kapon
kaposvar
kappa
kapro
kaproj
kapsulo
kaptado
kaptas
kapti
kaptis
kaptita
kaptitaj
kaptiteco
kaptitoj
kaptiveco
kapto
kapvorto
kara
karabaho
karacio
karaj
karakaso
karaktera
karakteraj
karakteriza
karakterizaj
karakterizajo
karakterizajoj
karakterizajojn
karakterizan
karakterizas
karakterizata
karakterize
karakterizigas
karakterizis
karakterizita
karakterizitaj
karakterizo
karakterizoj
karaktero
karakteroj
karakterojn
karakteron
karavano
karbo
karbon
karbona
karbonan
karbonato
karbono
karcero
kardelo
kardinalo
kardinaloj
karel
karelio
karen
kariba
karibio
kariero
karieron
karikaturisto
karin
karintio
karitato
karl
karlo
karlovy
karlsruhe
karnavalo
karno
karnon
karoj
karol
karolina
karolino
karolo
karoly
karolyi
karpata
karpatoj
kartago
karte
kartezio
karto
kartografo
kartoj
kartojn
karton
kartvela
kartvele
kartvelio
karvina
kasa
kasas
kase
kaselo
kashiwa
kasi
kasigis
kasis
kasisto
kasita
kasitaj
kasko
kasmiro
kaso
kaspar
kaspia
kassa
kassel
kastela
kasteleto
kastelo
kasteloj
kastelon
kastilia
kastilio
kat
kata
katalin
katalizilo
katalog
katalogo
kataluna
katalunaj
katalune
katalunio
katanio
katarina
katarino
kataro
katastra
katastro
katastrofa
katastrofo
katastrofoj
kate
katedrala
katedralo
katedraloj
katedralon
katedrestro
katedro
katedron
kategorio
kategorioj
kategoriojn
kategorion
katekismo
katerina
katerino
katharina
katherine
kathleen
katin
kato
katoj
katolika
katolikaj
katolikan
katolikismo
katoliko
katolikoj
katolikoso
katona
katowice
katz
kaucuko
kaufmann
kaukaza
kaukazio
kaukazo
kaunas
kauno
kauzante
kauzas
kauzata
kauze
kauzi
kauzis
kauzita
kauzitaj
kauzo
kauzoj
kauzojn
kauzon
kava
kavajo
kavalerio
kavalira
kavaliro
kavaliroj
kaverno
kavernoj
kavo
kavoj
kawasaki
kay
kazaha
kazahio
kazan
kazano
kaze
kazerno
kazimierz
kazimiro
kazo
kazoj
kazojn
kazon
kazuro
kb
kbbi
kc
kcpg
kd
ke
kea
kebekio
kebudayaan
kecskemet
kecua
keihan
keikyu
kein
keine
keith
kelemen
keleti
keli
kelka
kelkaj
kelkajn
kelkan
kelkcent
kelke
kelkfoje
keller
kelly
kelnero
kelo
keloj
kelta
keltaj
keltoj
kemal
kembrigo
kemdikbud
kementerian
kemeny
kemia
kemiaj
kemiajn
kemiajoj
kemian
kemie
kemiisto
kemiistoj
kemio
kemion
ken
kenja
kenjo
kennedy
kenneth
kenny
kent
kentucky
kentukio
kenya
kepes
kepler
keplero
ker
kermeso
kern
kerna
kerno
kernoj
kernon
kertesz
kesto
keston
keszthely
ket
kevin
key
keynes
kezonurbo
kf
kg
kgb
kh
khan
ki
kia
kiado
kiaj
kiajn
kial
kialo
kialoj
kialojn
kialon
kiam
kiamaniere
kian
kiburgo
kicsoda
kid
kie
kiel
kielce
kien
kierkegaard
kies
kieva
kievo
kihoto
kilikio
kill
killed
kilogramoj
kilogramojn
kilometra
kilometro
kilometroj
kilometrojn
kilometron
kim
kimra
kimrio
kin
kina
kinarto
kind
kinder
kindheit
kineja
kinejaj
kinejo
kinejoj
king
kingdom
kings
kino
kintetsu
kio
kiom
kion
kioto
kipro
kiraly
kirasita
kirchberg
kirche
kirchner
kirgizio
kirk
kirko
kirkoj
kirkon
kirurgio
kirurgo
kis
kisfaludy
kisis
kiso
kiss
kita
kitab
kitami
kito
kitt
kiu
kiuj
kiujn
kiun
kj
kk
kl
klado
klagenfurt
klaipeda
klako
klano
klanoj
klara
klaraj
klaran
klaras
klare
klareco
klarigas
klarigi
klarigis
klarigita
klarigo
klarigoj
klarigojn
klarigon
klarneto
klas
klasado
klasifikado
klasifikita
klasifikitaj
klasifiko
klasigo
klasika
klasikaj
klasikajn
klasikan
klasikisma
klasikismo
klasita
klasitaj
klaso
klasoj
klasojn
klason
klatovy
klaus
klavaro
klavaroj
klaviceno
klavo
klavoj
klein
kleine
kleinen
kleiner
kleist
klemento
kleopatra
klera
kleraj
klereco
kleriga
klerigado
klerigo
klerikaro
kleriko
klerikoj
klerismo
klerulo
kleruloj
klet
kleve
kliento
klientoj
klifo
klifoj
klimata
klimataj
klimato
klimatoj
klimaton
klin
klinangulo
klineco
klingo
klinigis
klinika
kliniko
klinis
klinita
klopodante
klopodas
klopodi
klopodis
klopodo
klopodoj
klopodojn
klopodon
klorida
klorido
kloro
kloroformiato
kloroformo
kloster
klostro
kluba
klubejo
klubo
kluboj
klubon
klujo
kluzo
km
kn
knabineto
knabino
knabinoj
knabinon
knabo
knaboj
knabon
knight
knopf
know
knowledge
known
knox
ko
koalicio
kobayashi
kobe
koblenz
koburgo
koch
koci
kocsis
kodaly
kodekso
kodnumero
kodo
kodoj
kodojn
kodon
koeficiento
koeficientoj
kofu
kohera
kohl
kohler
koimbro
koincidas
koincido
koiro
koko
kokoformaj
kokoj
kol
kola
kolapsis
kolapso
kolbe
kolegio
kolegioj
kolegion
kolego
kolegoj
kolektado
kolektajo
kolektanto
kolektas
kolekti
kolektigis
kolektis
kolektita
kolektitaj
kolektiva
kolektive
kolektivo
kolekto
kolektoj
kolektojn
kolekton
kolera
kolere
kolerigis
kolero
koleron
kolhozo
kolimbo
kolizio
kolkato
koln
kolo
kolojvaro
kolombedoj
kolombia
kolombio
kolombo
kolomboj
kolon
kolonelo
kolonia
koloniaj
kolonianoj
koloniigo
koloniismo
koloniistoj
kolonio
kolonioj
koloniojn
kolonion
kolonja
kolonjo
kolono
kolonoj
kolora
koloradio
kolorado
koloraj
koloro
koloroj
kolorojn
koloron
kolozs
kolozsvar
kolozsvari
kolumbio
kolumbo
kolumno
kolumnoj
kolumo
kom
komandanto
komandantoj
komandis
komando
komarko
komarkoj
komarno
komarom
kombinajo
kombinajoj
kombinas
kombini
kombinis
kombinita
kombinitaj
kombino
komedia
komediisto
komedio
komedioj
komenca
komencaj
komencan
komencante
komencantoj
komencas
komence
komenci
komenciganta
komencigas
komencigis
komencigo
komencis
komencita
komenco
komencoj
komencon
komencos
komentario
komentis
komento
komentoj
komerca
komercado
komercaj
komercajn
komercan
komerce
komercisto
komercistoj
komerco
komercon
kometo
kometoj
kometon
komforta
komika
komikisto
komisaro
komisiis
komisiita
komisiito
komisio
komisiono
komisionoj
komisionon
komitatano
komitatanoj
komitato
komitatoj
komitaton
kommen
kommersant
kommt
komoroj
komp
kompakta
kompanio
kompanioj
kompanion
kompara
komparas
komparativo
kompare
komparebla
kompari
komparis
komparo
komparu
kompatinda
kompato
kompense
kompensi
kompetenta
kompilajo
kompilis
kompilita
kompleksa
kompleksaj
kompleksajn
kompleksan
komplekseco
komplekso
kompleksoj
komplekson
komplemento
kompleta
kompletaj
kompletan
komplete
kompletigas
kompletigi
kompletigis
kompletigita
kompletigo
komplika
komplikaj
komploto
komponado
komponajo
komponajoj
komponajojn
komponanto
komponantoj
komponas
komponi
komponis
komponistino
komponisto
komponistoj
komponita
komponitaj
kompono
komprenas
komprenata
komprenebla
kompreneble
kompreni
komprenis
komprenita
kompreno
komprenon
komprenos
komprenu
kompromiso
komputado
komputiko
komputila
komputilaj
komputilo
komputiloj
komputilon
komputis
komuna
komunaj
komunajn
komunajo
komunan
komune
komunejo
komunika
komunikado
komunikadon
komunikas
komuniki
komunikilo
komunikiloj
komunikis
komuniko
komunio
komunisma
komunismaj
komunismo
komunista
komunistaj
komunisto
komunistoj
komunuma
komunumaj
komunumaro
komunumaroj
komunumdatumoj
komunumo
komunumoj
komunumojn
komunumon
komunumoparto
komunumopartoj
komunumparto
kon
konas
konata
konataj
konatajn
konatan
konatas
konate
konatigi
konatigis
koncedis
koncentrejo
koncentrejoj
koncentrigas
koncentrigis
koncentrigo
koncentrita
koncepto
konceptoj
konceptojn
koncepton
koncerna
koncernaj
koncernas
koncerne
koncernis
koncerta
koncertejo
koncertis
koncerto
koncertoj
koncertojn
koncerton
koncilio
koncipigo
konciza
kondamnas
kondamnis
kondamnita
kondamnitaj
kondamno
kondensiga
kondice
kondico
kondicoj
kondicojn
kondicon
kondratjev
kondukanta
kondukante
kondukas
konduki
kondukis
kondukita
kondukos
konduta
kondutas
konduti
kondutis
konduto
kondutoj
konduton
koneksa
konekso
konekta
konektas
konektikuto
konektita
konektitaj
konekto
konekton
konfederacio
konferenco
konferencoj
konferencon
konfesas
konfesi
konfesio
konfesioj
konfesis
konfeso
konfidis
konfido
konfirmas
konfirmi
konfirmis
konfirmita
konfirmitaj
konfirmo
konfiskis
konflikto
konfliktoj
konfliktojn
konflikton
konforma
konformas
konforme
konfuceo
konfuzi
konfuzita
konfuzo
konfuzon
konfuzu
kong
konga
kongo
kongregacio
kongresa
kongresanoj
kongresejo
kongreso
kongresoj
kongresojn
kongreson
kongrua
kongruas
kongrue
kongruo
koni
koniferaj
koniferoj
konig
konigis
konigsberg
konigstuhl
konis
konita
konjekto
konjugacio
konkeri
konkeris
konkerita
konkeritaj
konkero
konkeroj
konkludas
konkludi
konkludis
konkludo
konkludoj
konkludojn
konko
konkoj
konkorde
konkordo
konkreta
konkretaj
konkrete
konkurado
konkuras
konkurenco
konkuris
konkuro
konkurso
konkursoj
konkursojn
konkurson
konnen
konnte
kono
konoj
konojn
konon
konrad
konrado
konscia
konscias
konscie
konscienco
konsciis
konscio
konscion
konsekris
konsekrita
konsekro
konsekvence
konsekvenco
konsekvencoj
konsekvencojn
konsentas
konsenti
konsentis
konsento
konsenton
konservada
konservado
konservante
konservas
konservata
konservataj
konservativa
konservativaj
konservativuloj
konservatorio
konservi
konservigas
konservigis
konservis
konservita
konservitaj
konservo
konsiderante
konsideras
konsiderata
konsiderataj
konsideratas
konsideri
konsiderigas
konsiderinda
konsiderindan
konsiderinde
konsideris
konsiderita
konsideritaj
konsidero
konsideroj
konsideru
konsilantaro
konsilanto
konsilantoj
konsilas
konsiliano
konsilio
konsilioj
konsilion
konsilis
konsilisto
konsilo
konsiloj
konsilojn
konsilon
konsistanta
konsistantaj
konsistante
konsistas
konsisti
konsistigas
konsistigis
konsistis
konsisto
konsiston
konsonanto
konsonantoj
konspira
konspiro
konstanca
konstanco
konstanta
konstantaj
konstantan
konstante
konstanteno
konstantin
konstantino
konstantinopolo
konstanto
konstatas
konstati
konstatis
konstato
konstelacio
konstituas
konstitucia
konstituciaj
konstitucio
konstitucion
konstituis
konstru
konstrua
konstruado
konstruadon
konstruaj
konstruajo
konstruajoj
konstruajojn
konstruajon
konstruas
konstruata
konstruataj
konstrui
konstruigas
konstruigis
konstruis
konstruisto
konstruita
konstruitaj
konstruitis
konstruo
konstruon
konsulo
konsuloj
konsulti
konsultita
konsumado
konsumantoj
konsumas
konsumo
kontakti
kontaktis
kontakto
kontaktoj
kontaktojn
kontakton
kontenta
kontentigas
kontentigi
kontentigis
konteo
kontinenta
kontinentaj
kontinento
kontinentoj
kontinua
kontinue
konto
kontoj
kontrabaso
kontrakto
kontraktoj
kontrakton
kontrasta
kontrastas
kontraste
kontrasto
kontrau
kontraua
kontrauaj
kontrauas
kontraubatali
kontraue
kontraui
kontrauis
kontraulega
kontraulegaj
kontraulege
kontrauo
kontraupapo
kontraustaras
kontraustari
kontraustaris
kontraustaro
kontrauturkaj
kontrauulo
kontrauuloj
kontribuanto
kontribuas
kontribui
kontribuinta
kontribuis
kontribuo
kontribuoj
kontribuojn
kontribuon
kontrolado
kontrolas
kontrolata
kontroli
kontrolis
kontrolita
kontrolitaj
kontrolo
kontrolon
konuso
konveksa
konveksaj
konvena
konvenaj
konvenan
konvenas
konvencia
konvencio
konvencioj
konvencion
konvene
konvento
konversacio
konversations
konvertado
konverti
konvertigis
konvertigo
konvertita
konverto
konvinki
konvinkigis
konvinkis
konvinkita
konvinko
konyvkiado
konzerno
kooperativa
kooperativo
koordinatoj
kopenhago
koperniko
kopf
kopii
kopio
kopioj
kopiojn
kopion
kopirajto
koppen
kopta
kor
kora
korako
koran
korano
korbo
kordinstrumentoj
kordo
kordobo
kordoj
kordojn
kordovo
kore
korea
koreaj
korean
koree
koreio
korekta
korekti
korektita
koreografo
koresponda
korespondado
korespondanta
korespondanto
korespondas
korespondis
koridoro
koridoroj
korintanoj
korinto
korjenkov
kormend
kormorano
kormoranoj
kornel
korner
kornico
korno
kornoj
kornvalo
koro
koroj
korojn
koron
korpa
korpaj
korpo
korpoj
korpojn
korpon
korporacio
korpuso
korsiko
kortega
kortego
kortegon
korto
kortoj
korton
kortumo
korunk
koruptado
korupto
koruso
korvedoj
korvo
korvoj
kos
kosciuszko
kosice
kosma
kosmaj
kosmetikajoj
kosmo
kosmologio
kosmonauto
kosmopramo
kosmosipo
kosmosondilo
kosmostacio
kosmoteleskopo
kosovo
kossuth
kosta
kostariko
kostas
kostis
kosto
kostoj
kostojn
koston
kostumo
kostumoj
koszeg
kot
kota
kotapedia
kotavaa
kotavao
koto
kotono
koturno
kovacs
kovado
kovas
kovats
koverto
kovrajo
kovrante
kovras
kovrata
kovri
kovrilo
kovriloj
kovris
kovrita
kovritaj
kowalska
kozakoj
kozigazgatasi
kozma
kozponti
kozyra
kp
kq
kr
krado
kraft
kraj
krajono
krakova
krakovo
krakow
kral
kralove
kramer
krampoj
kranio
krasis
kraso
krasso
kratero
krateroj
kraus
krause
krea
kreado
kreadon
kreajo
kreajoj
kreante
kreanto
kreas
kreata
kredante
kredantoj
kredas
kredeble
kredi
kredis
kredo
kredoj
kredojn
kredon
kredu
krei
kreigas
kreigis
kreinto
kreintoj
kreis
kreita
kreitaj
kreitajoj
kreiva
kreko
kremlo
kremo
kremono
kreo
kreola
kreon
krepusko
kreskado
kreskajoj
kreskanta
kreskantaj
kreskantan
kreskas
kreski
kreskigas
kreskigi
kreskigis
kreskis
kresko
kreskon
kresto
krestomatio
kretaceo
kreto
kreuz
kreuznach
krias
krieg
kriis
krima
krime
krimea
krimeo
krimo
krimoj
krimojn
krimon
krimulo
krimuloj
krio
krioj
kripto
kristala
kristalo
kristaloj
kristana
kristanaj
kristanajn
kristanan
kristanigo
kristanisma
kristanismo
kristanismon
kristano
kristanoj
kristiano
kristina
kristnaska
kristnasko
kristo
kristof
kristoforo
kriston
kriterio
kriterioj
kriteriojn
kriterion
kritik
kritika
kritikaj
kritikan
kritikantoj
kritikas
kritikata
kritike
kritiki
kritikis
kritikisto
kritikistoj
kritikita
kritiko
kritikoj
kritikojn
kritikon
kriza
krizo
krizoj
krizon
kroata
kroate
kroatio
kroatoj
krokodilo
krokodiloj
krom
kroma
kromaj
kromajn
kroman
krome
kromenonila
kromeriz
kromnomita
kromnomo
kromnomon
kronado
kronenberger
kronigis
kronika
kronikisto
kroniko
kronikoj
kronita
krono
kronoj
kronologio
kronon
kronprinco
kronvirusa
kronviruso
kropotkin
krucas
krucifikso
krucigas
krucigo
krucmilito
krucmilitoj
kruco
krucoj
krucon
kruda
krudaj
krude
krudmaterialoj
kruela
kruelaj
kruele
krueleco
kruger
krumlov
krupp
kruro
kruroj
krurojn
krustulojn
kruta
krutaj
krzysztof
ks
kt
ktp
ku
kuala
kuba
kubaj
kubo
kubrick
kug
kuglo
kuhn
kuirado
kuirarto
kuirejo
kuiri
kuiristo
kuirita
kuiritaj
kuirlibro
kuko
kukolo
kukullo
kulminas
kulminis
kulmino
kulminon
kulpa
kulpigis
kulpo
kulpon
kultado
kultivado
kultivaroj
kultivas
kultivata
kultivataj
kultivi
kultivis
kultivo
kulto
kulton
kultur
kultura
kulturaj
kulturajn
kulturan
kulturdomo
kulture
kulturheredajo
kulturo
kulturoj
kulturojn
kulturon
kuma
kumamoto
kumar
kun
kuna
kunautoro
kune
kunegond
kunfandigis
kunfandigo
kunfluejo
kunfluo
kunfondinto
kunfondis
kunhavas
kunhelpi
kunigas
kunigi
kunigis
kunigita
kunigitaj
kunigo
kuniklo
kunikloj
kunkreinto
kunlabora
kunlaborado
kunlaboradon
kunlaborantaj
kunlaborantino
kunlaboranto
kunlaborantoj
kunlaboras
kunlabore
kunlabori
kunlaboris
kunlaboro
kunlaboron
kunligas
kunligita
kunligitaj
kunligo
kunmalkovris
kunmetajo
kunmetajoj
kunmetita
kunmetitaj
kunmeto
kunordiganto
kunordigis
kunordigo
kunportas
kunportis
kunsidis
kunsido
kunsidoj
kunst
kunstdenkmaler
kunste
kunteksto
kuntekstoj
kunth
kunulautoro
kunulo
kunuloj
kunurba
kunvenas
kunvenejo
kunvenis
kunveno
kunvenoj
kunvenojn
kunvenon
kunverkis
kunvivado
kunvokis
kunzler
kupolo
kupoloj
kupra
kupro
kuraca
kuracado
kuracejo
kuraci
kuracilo
kuraciloj
kuracista
kuracistan
kuracistino
kuracisto
kuracistoj
kuraciston
kuracloko
kurado
kuraga
kuragas
kurage
kuragigi
kuragigis
kuragis
kurago
kuragon
kuranta
kuras
kuratoro
kurba
kurbo
kurboj
kurda
kurdoj
kurejo
kurento
kurenton
kuri
kuriero
kurio
kuris
kuro
kurosawa
kurso
kursoj
kursojn
kurson
kurt
kurta
kurteno
kurz
kurzo
kusanta
kusas
kusejo
kusejoj
kusel
kusi
kusigis
kusiro
kusis
kutima
kutimaj
kutimajn
kutiman
kutimaro
kutimas
kutime
kutimis
kutimo
kutimoj
kutimojn
kutimon
kutna
kuvajto
kuzino
kuzo
kv
kvadrata
kvadrataj
kvadratajn
kvadratkilometra
kvadratkilometroj
kvadrato
kvadratoj
kvalita
kvalito
kvalitoj
kvalitojn
kvaliton
kvankam
kvanto
kvantoj
kvantojn
kvanton
kvantuma
kvar
kvara
kvaran
kvardek
kvaredro
kvaredroj
kvarfoje
kvarono
kvaronoj
kvaropo
kvartalo
kvartaloj
kvartalojn
kvartalon
kvarteto
kvazau
kvenko
kverelo
kvereloj
kverkaroj
kverko
kverkoj
kvieta
kviete
kvin
kvina
kvinan
kvincent
kvinciferaj
kvindek
kvinjara
kvinopo
kvinslando
kvinto
kvociento
kw
kx
ky
kyoto
kyuko
kz
l
l0
l1
l2
l3
l4
l5
l6
l7
l8
l9
la
lab
labem
labirinto
labor
labora
laborado
laborajo
laborajoj
laboranta
laborantaj
laborante
laboranto
laborantoj
laboras
laboratorio
laboratorioj
laboratorion
laboratory
laborejo
laborejoj
laborgrupo
labori
laboris
laborista
laboristaj
laboristaro
laboristo
laboristoj
laboristojn
laborkapabla
laboro
laboroj
laborojn
laboron
labour
lac
laca
lacerto
lactuca
lada
laden
ladislao
ladislav
lado
lady
laga
lagaro
lage
lageto
lagetoj
lago
lagoj
lagojn
lagon
lagopo
lagrange
laguna
laguno
lahn
laika
laikoj
lajos
lakatos
lake
lakeo
lakta
laktato
lakto
lakton
lam
lama
lamao
lambda
lambert
lampo
lampoj
lan
lana
lanas
lancaster
lanci
lancis
lancita
lanco
land
landa
landaj
landan
landau
lande
landes
landkreis
landlima
landlimo
landlimoj
landlimojn
landlimon
lando
landoj
landojn
landokodo
landon
landoparto
landparto
landscape
landvojo
lane
lang
lange
langensalza
langer
langle
lango
langon
language
languages
langue
langues
lanio
lano
lanterno
lanti
lanugo
lao
laon
laoso
lap
lapenna
lapok
lara
larga
largaj
largajn
largan
largas
large
largeco
largest
largo
lariko
larmoj
larmojn
larry
lars
larus
larvoj
las
lasante
lasas
lasi
lasis
lasita
laslo
lasos
lassen
last
lasta
lastaj
lastajn
lastan
lastatempa
lastatempaj
lastatempe
laste
lastfoje
lasu
laszlo
lat
late
later
latero
lateroj
latin
latina
latinaj
latinamerika
latinameriko
latinan
latine
latinida
latinidaj
latinlingva
latinliterigo
latino
latio
latitudo
latva
latve
latvia
latvijas
latvio
lau
laudas
laudata
laudire
laudis
laudo
laueble
lauenburg
laufen
laugrade
laulega
laulege
laulitere
laulonga
laulonge
laura
laureato
laurence
laurenco
laurent
lauro
lausajne
lausanne
lauta
laute
lauter
lauvice
lauvole
lauvorta
lauvorte
lauzano
laval
lavey
lavi
law
lawrence
laws
lazar
lazare
lazaro
lazne
lazura
lb
lc
ld
ldots
le
lea
leader
league
lear
learning
leben
lebens
lech
leciono
lecionoj
lecionojn
lecture
lectures
led
leda
ledo
lee
lefebvre
left
lega
legacy
legado
legadon
legaj
legajoj
legal
legales
legante
leganto
legantoj
legantojn
legaro
legas
legata
legato
legdona
lege
legebla
legeblaj
legeblas
legend
legenda
legendo
legendoj
legendon
leger
legi
legilo
legio
legioj
legion
legis
legita
lego
legofara
legoj
legojn
legomo
legomoj
legomojn
legon
legu
lehar
lehmann
lehrbuch
lei
leibniz
leicester
leiden
leigh
leipzig
leipziger
lejdeno
lejzer
lekciis
lekciisto
leksikono
lektoro
lemano
lemmon
len
lena
lencburgo
lengua
lengyel
lenin
leningrada
leningrado
lenino
lenso
lenta
lenz
leo
leon
leona
leonard
leonardo
leone
leonhard
leonid
leono
leonoj
leopold
leopoldo
leporo
lepsika
lepsiko
leq
lernado
lernadon
lernantino
lernanto
lernantoj
lernantojn
lernas
lerneja
lernejaj
lernejan
lernejanoj
lernejestro
lernejo
lernejoj
lernejojn
lernejon
lerni
lernis
lernojaro
lernolibro
lernolibroj
lernolibrojn
lernolibron
lernu
leroy
lerta
lertaj
lerte
lerteco
les
leslie
lessing
lester
leszek
let
letero
leteroj
leterojn
leteron
letras
letter
letters
lettres
letzte
letzten
leur
leutenanto
lev
levante
levas
level
levente
levi
levice
levidoj
levigas
levigi
levigis
levigo
levigu
levin
levis
levita
levy
lewis
lex
lexicon
lexikon
ley
lf
lg
lh
lhota
li
lia
liaj
liajn
lian
lib
libana
libano
liber
libera
liberaj
liberajn
liberal
liberala
liberalaj
liberalismo
liberaluloj
liberan
liberation
libere
liberec
liberecana
liberecbatalo
libereco
liberecoj
liberecon
liberiga
liberigas
liberigi
liberigis
liberigita
liberigitaj
liberigo
liberigon
liberio
libero
liberon
libertad
liberte
liberty
libervola
libia
libio
libra
librairie
libraro
library
libre
librejo
libreto
libreton
libri
libro
libroj
librojn
libron
libros
libroservo
librovendejo
licenco
liceo
licht
lichtenberg
lidia
lido
lidoj
lie
liebe
lied
lieder
liego
life
lifto
liga
liganta
ligas
ligata
lige
light
ligi
ligigas
ligigis
ligilo
ligiloj
ligilojn
ligilon
ligis
ligita
ligitaj
ligitajn
ligna
lignaj
lignajn
lignan
ligne
ligno
lignon
ligo
ligoj
ligojn
ligon
ligurio
lihtenstejno
like
likva
likvajo
likvidis
likvido
likvo
lili
lilio
liliomfi
lille
lilli
lillo
lim
lima
limas
limburg
limburgo
lime
limigas
limigi
limigis
limigita
limigitaj
limigitan
limigo
limigoj
limited
limits
limo
limoges
limogio
limogo
limoj
limojn
limon
limpasejo
lin
lina
linalila
lincoln
linda
lindau
linden
lindl
line
linear
lineara
lineo
lingua
linguistic
linguistica
linguistics
lingva
lingvaj
lingvajn
lingvajo
lingvan
lingvaro
lingve
lingvistika
lingvistiko
lingvisto
lingvistoj
lingvo
lingvoj
lingvojn
lingvon
lingvoscienco
lingvouzo
linia
linio
linioj
liniojn
linion
link
linko
links
linnaeus
linne
lino
lins
linukso
linux
linz
lion
lionel
liono
lipa
lipo
lipoj
lipot
lippe
liptovsky
lirika
liriko
liro
lisa
lisboa
lisbono
list
lista
liste
listigas
listigis
listigita
listigitaj
listita
listo
listoj
liston
liszt
lit
litera
literary
literatur
literatura
literaturaj
literaturajn
literaturan
literature
literaturhistoriisto
literaturo
literaturoj
literaturon
literkombino
litero
literoj
literojn
literon
literumado
literumita
lito
litoj
litomerice
litomysl
liton
litova
litovaj
litove
litovio
litovoj
litro
litroj
little
liturgia
liturgiaj
liturgio
liu
live
liverado
liveras
liveri
liveris
liverpool
lives
living
livre
lj
ljubljana
ljudmila
lk
lkk
ll
llah
lloyd
lm
ln
lo
lobo
loc
local
locarno
loch
locke
lockheed
locuintelor
lodge
lodi
lodzo
log
logado
logan
loganta
logantaj
logantaro
logantaroj
logantaron
loganto
logantoj
logantojn
logas
logata
logataj
logdenso
logdenson
logdomo
logdomoj
logejnombrado
logejo
logejoj
logejojn
logejon
logi
logic
logigo
logika
logikaj
logike
logiko
logio
logis
logita
logloko
loglokoj
logos
loir
loire
loiret
lojala
loka
lokaj
lokajn
lokan
lokanoj
lokas
lokata
loke
lokhistoriisto
lokigas
lokigi
lokigis
lokigita
lokigitaj
lokigo
lokis
lokita
lokitaj
loknomo
loknomoj
loknomvortaro
loko
lokoj
lokojn
lokomotivo
lokomotivoj
lokon
loksidigis
loktrova
lokuloj
lola
lombardio
london
londona
londono
londonon
londres
lonely
loneos
long
longa
longaj
longajn
longan
longas
longatempe
longdaura
longdauraj
longdistanca
longdistancaj
longe
longeco
longecon
longitudo
longo
longoj
longon
longrightarrow
longtempa
longtempe
longvosta
look
lookup
lope
lopez
lorand
lorca
lord
lordo
loreno
lorenz
lorenzo
lori
lorinc
los
lost
lot
lothar
lotus
lou
louis
louise
louisiana
louny
loup
lourdes
love
loveno
low
lowe
lowell
lower
lp
lq
lr
ls
lt
ltd
lu
lua
luarlandoj
luaro
lubeck
lublin
luc
luca
lucas
luce
lucerno
lucia
luciano
lucie
lucien
lucio
lucius
lucky
lucy
ludado
ludadon
ludanta
ludante
ludanto
ludantoj
ludas
ludata
ludataj
ludejo
ludi
ludilo
ludiloj
ludis
ludisto
ludita
ludmila
ludo
ludoj
ludojn
ludon
ludoviko
ludwig
ludwigslust
ludwik
luftwaffe
lugano
lugoj
lui
luigi
luis
luisa
luise
luiso
luiz
luiziano
luka
lukacs
lukas
luke
luko
luksa
luksaj
luksemburga
luksemburgio
luksemburgo
luktado
luktas
lukti
luktis
lukto
luktoj
lukton
lulilo
luma
lumaj
lumiere
lumo
lumoj
lumon
lumturo
luna
lunar
lund
lunde
lundo
luneburg
luno
lunoj
lunon
lupeno
lupo
lupoj
lupus
lupuso
lure
luterana
luteranoj
lutermano
lutero
luther
lutz
luvro
lux
luz
luzacio
luzono
lv
lviva
lvivo
lvovo
lw
lwaʁ
lx
ly
lynch
lynn
lynx
lyon
lz
m
m0
m1
m2
m3
m4
m5
m6
m7
m8
m9
ma
mac
macdonald
machado
machen
machine
macht
macmillan
macon
mad
madach
madagaskara
madagaskaro
madame
madchen
made
madejro
madeleine
madison
madonna
madono
madre
madrid
madrida
madrido
mae
maestro
mafio
mag
magazeno
magazin
magazine
magazino
magda
magdalena
magdeburg
magia
magiaj
magic
magiisto
magio
magistrato
magistrigis
magistro
magna
magnato
magneta
magnetaj
magnezio
magnitudo
magnus
magyar
magyarorszag
magyarorszagon
mahler
mahmud
mai
maigret
mail
main
maine
mainz
mais
maison
maistre
maizo
maj
maja
majaa
majaoj
maje
majenco
majesta
majno
majo
major
majora
majoritato
majorko
majoro
majstra
majstro
majstroj
majstroverko
majuskla
majusklo
makao
makbeto
make
makedona
makedonio
making
makiso
mako
maks
maksim
maksimiliano
maksimuma
maksimuman
maksimume
maksimumo
makulo
makuloj
makulojn
makulon
makzelo
mal
mala
malabunda
malaga
malago
malagrabla
malaja
malajzio
malakceptas
malakceptis
malakceptita
malakcepto
malalta
malaltaj
malaltajn
malaltan
malalte
malaltebenajo
malaltigas
malaltigi
malaltigis
malaltigo
malamas
malamika
malamikaj
malamikeco
malamiko
malamikoj
malamikojn
malamikon
malamo
malamon
malantau
malantaua
malantauaj
malantaue
malantauen
malantauo
malaperas
malaperi
malaperinta
malaperintaj
malaperis
malapero
malaperos
malaria
malario
malavio
malbela
malbeno
malbona
malbonaj
malbonajn
malbonan
malbone
malbonigis
malbono
malbonon
malbork
malborko
malcolm
maldekstra
maldekstraj
maldekstran
maldekstre
maldekstren
maldekstro
maldensa
maldense
maldika
maldikaj
male
malebenajo
malebligas
malebligi
malebligis
malegaleco
malespero
malfacila
malfacilaj
malfacilajoj
malfacilajojn
malfacilan
malfacilas
malfacile
malfacileco
malfaciligas
malfavoraj
malfelica
malfelico
malfelicon
malferma
malfermaj
malferman
malfermas
malferme
malfermi
malfermigas
malfermigis
malfermis
malfermita
malfermitaj
malfermo
malfermu
malfinia
malfondigis
malfondis
malfondita
malfondo
malforta
malfortaj
malfortan
malforte
malfortigis
malfrua
malfruaj
malfrue
malfrugotika
malgaja
malgoja
malgojo
malgranda
malgrandaj
malgrandajn
malgrandan
malgrau
malgrava
malgusta
malguste
malhela
malhelaj
malhelajn
malhelan
malhelbruna
malhelbrunaj
malhele
malhelgriza
malhelgrizaj
malhelpas
malhelpi
malhelpis
malhelpo
mali
malica
malik
malio
maljuna
maljunaj
maljunan
maljuneco
maljunigo
maljunulino
maljunulo
maljunuloj
maljusta
maljusteco
malkapablo
malkasado
malkasas
malkase
malkasis
malkiel
malklara
malkomponigas
malkonsento
malkonstruis
malkonstruita
malkonstruo
malkovras
malkovri
malkovrinto
malkovrintoj
malkovris
malkovrita
malkovritaj
malkovro
malkovroj
malkovron
malkreskas
malkreskis
malkresko
mallarga
mallargaj
mallargan
mallauta
mallaute
malliberejo
malliberejoj
malliberejon
malliberigis
malliberigita
malliberigitaj
malliberigo
mallibero
malliberulo
malliberuloj
malliberulojn
mallonga
mallongaj
mallongajn
mallongan
mallongdaura
mallonge
mallongigita
mallongigite
mallongigo
mallongigoj
mallongtempe
malluma
mallumo
malmola
malmolaj
malmulta
malmultaj
malmultajn
malmultan
malmulte
malmultekosta
malmultekostaj
malmulto
malneta
malnov
malnova
malnovaj
malnovajn
malnovaltgermana
malnovan
malo
malobeo
malofta
maloftaj
malofte
malordo
malpaco
malpermesas
malpermesata
malpermesi
malpermesis
malpermesita
malpermesitaj
malpermesite
malpermeso
malpermeson
malpeza
malpezaj
malplej
malplena
malplenaj
malpli
malpliigas
malpliigi
malpliigis
malpliigo
malpliigon
malplimulto
malplimultoj
malprofunda
malproksima
malproksimaj
malproksime
malproksimen
malpura
malrapida
malrapide
malrica
malricaj
malriceco
malriculoj
malsaga
malsama
malsamaj
malsamajn
malsaman
malsamas
malsame
malsana
malsanaj
malsanigis
malsano
malsanoj
malsanojn
malsanon
malsanulejo
malsanulejoj
malsanulo
malsanuloj
malsata
malsatas
malsatego
malsatis
malsato
malsaton
malseka
malsekaj
malsimilaj
malsimile
malstabila
malstabilaj
malsukcesa
malsukcese
malsukcesis
malsukceso
malsupera
malsupra
malsupraj
malsupran
malsupre
malsupren
malsupreniras
malsupreniris
malta
malto
maltrankvila
malvarma
malvarmaj
malvarman
malvarme
malvarmigo
malvarmo
malvasta
malvenkis
malvenko
malvenkon
malvera
maly
mama
mammals
mamulo
mamuloj
mamulojn
man
mana
management
mancha
manche
manchester
manco
mancurio
mandato
mandaton
mandela
mane
manfred
manga
mangado
mangajo
mangajoj
mangajojn
mangajon
mangante
mangao
mangas
mangata
mangataj
mangebla
mangeblaj
mangi
mangigas
mangis
mango
mangoj
mangon
mangos
mangrovoj
mangu
manhatano
manhattan
maniero
manieroj
manierojn
manieron
manifestaciantoj
manifestacio
manifestacioj
manifestation
manifesto
manika
manilo
manipulado
manitobo
mankas
mankis
manko
mankoj
mankon
manlibro
mann
manner
mannheim
mano
manoj
manojn
manon
manos
manpilkado
mans
mansfeld
mantelo
mantelon
manual
manuel
manuskripto
manuskriptoj
manuskriptojn
manuskripton
many
mao
maoria
map
mapo
mapoj
mapojn
mapon
maps
mar
mara
maraglo
marais
maraj
maramaros
maran
mararmea
mararmeo
maratono
marbirdo
marbirdoj
marborda
marbordaj
marbordo
marbordoj
marbordon
marburg
marc
marca
marcaj
marcel
marcello
marcelo
march
marche
marco
marcoj
marcos
marcus
marde
mardo
mare
marek
marfluo
margaret
margareta
margarita
margit
margrafo
marguerite
mari
maria
marian
mariana
marianne
mariano
marianoj
marie
marilando
marilyn
marin
marina
marine
marino
marinos
mario
marion
marista
maristo
maristoj
maritime
maritimes
marius
mariusz
marjorie
mark
markas
markata
markataj
market
marki
markis
markita
markitaj
markizino
markizo
marko
markoj
markojn
markolo
markon
marks
marksisma
marksismo
markso
markt
markus
marlene
marmora
marmoro
marne
marnivelo
maro
maroj
maroka
maroko
maron
maros
marosvasarhely
marques
marquez
marriage
mars
marsa
marsado
marsalo
marsan
marsas
marseille
marsejlo
marshall
marsi
marsis
marso
marson
marsrenkonta
marston
mart
marta
marte
martelo
marten
marteno
martha
marti
martial
martie
martin
martinez
martini
martino
martins
martiro
martiroj
marto
marton
marvin
marx
mary
maryland
marz
mas
masa
masacuseco
masago
masakris
masakro
masakroj
masaryk
masina
masino
masinoj
masinojn
masiva
masivo
maskla
masklaj
masklo
maskloj
masko
maskoj
maso
masoj
mason
masonistoj
mass
massachusetts
massimo
masson
master
masters
mastrino
mastro
mastroj
mastrumado
mat
mata
matco
matcoj
matcojn
mate
matematika
matematikaj
matematikan
matematike
matematikisto
matematikistoj
matematiko
matematikon
matena
matene
matenmango
mateno
matenon
mateo
mater
materia
materiaj
material
materiala
materialo
materialoj
materialojn
materialon
materials
materio
mateszalka
math
mathbb
mathbf
mathcal
mathematical
mathematics
mathfrak
mathias
mathieu
mathilde
mathrm
mathsf
mathworld
matiaso
matilda
matildo
matisse
mato
matrico
matricoj
matrix
matsumoto
matt
matteo
matter
matthaus
matthew
matthias
matura
maturaj
matureco
maturigas
maturigis
maturigo
matyas
maubeuge
maui
maura
maurice
mauricio
maurico
mauritanio
mauro
mauroj
mauthausen
mauzoleo
max
maxim
maximilian
maximus
maxwell
may
maya
mayen
mayenne
mayer
maynard
mayo
mayor
mayr
maziero
mazovio
mb
mbox
mc
mccarthy
mccoy
mcd
mcdonald
mcfarland
mcg
mcgraw
mcnaught
md
me
mean
meaning
meblaro
mebloj
meblojn
mecenato
med
medal
medalo
medaloj
medalojn
medalon
medellin
media
mediaj
medica
medical
medici
medicina
medicinaj
medicinajn
medicinal
medicinan
medicine
medicinisto
medicino
medicinon
medico
medieval
medikamento
medikamentoj
medina
medino
medio
medioj
medion
meditado
mediteranea
mediteraneaj
mediteraneo
mediterranean
medizin
meer
meeting
meg
mehr
meier
mein
meine
meinen
meiner
meiningen
meist
meister
meißen
mejloj
mejlojn
mejor
mek
mekanika
mekanikaj
mekaniko
mekanismo
mekanismoj
mekko
meklenburga
meklenburgo
meksika
meksikaj
meksikio
meksiko
meksikurbo
mel
melanie
melbourne
melburno
melchior
meleagro
melinda
melissa
melo
melodia
melodio
melodioj
melodion
mem
members
membiografio
membraj
membrano
membraro
membras
membreco
membrecon
membrigis
membrino
membris
membro
membroj
membrojn
membrostatoj
meme
memkompreneble
memmortigis
memmortigo
memoire
memoires
memoirs
memor
memorajo
memorajoj
memoras
memore
memorejo
memori
memoria
memorial
memoriam
memoriga
memorigas
memorigi
memorigis
memorindajo
memoris
memoro
memoroj
memoron
memortabulo
memortago
memoru
memory
memphis
memportreto
memstara
memstaraj
memstaran
memstare
memstarigis
men
mencias
menciata
mencii
menciigis
menciinda
menciindaj
menciindas
menciis
menciita
menciitaj
mencio
mencioj
mencion
mendelssohn
mendes
mendis
mendo
mendoza
mensa
mensaj
mensch
menschen
mense
menso
mensogo
menson
mental
mentila
mentono
mentoris
mentoro
mep
mer
mercedes
mercia
merck
mercury
mere
merida
meridiano
merimee
meritas
meritis
merito
meritoj
merkata
merkato
merkatoj
merkaton
merkel
merkrede
merkredo
merkuro
merr
merriam
mes
mesa
mesago
mesagoj
mesagojn
mesagon
mesino
mesio
mesnil
meso
mesoj
meson
messier
messina
mesto
meszaros
met
meta
metabolo
metafiziko
metaforo
metakrilato
metal
metala
metalaj
metalo
metaloj
metalroko
metalurgio
metamorfozoj
metano
metanolo
metante
metas
meteologia
meteologio
meteoroj
meteorstonoj
method
methods
meti
metia
metiejo
metiisto
metiistoj
metil
metila
metio
metioj
metion
metis
metita
metitaj
metodo
metodoj
metodojn
metodon
metoksila
metos
metra
metriko
metro
metroa
metroj
metrojn
metrolinio
metron
metroo
metropola
metropolitan
metropolitana
metropolo
metrostacio
metrostacioj
metu
metz
metzler
meurthe
meuse
mevo
mevoj
mexico
meyer
meyers
mez
meza
mezaj
mezalta
mezaltgermana
mezameriko
mezan
mezbohemia
meze
mezepoka
mezepokaj
mezepokan
mezepoko
mezeuropo
mezgranda
mezgrandaj
mezlando
mezlerneja
mezlernejo
mezlernejoj
mezlernejojn
mezlernejon
mezmontaro
meznombro
mezo
mezopotamio
mezoregiono
mezoregionoj
mezoriento
mezurado
mezuras
mezuri
mezuris
mezurita
mezuro
mezuroj
mezuron
mezurunuo
mezvarmaj
mf
mg
mh
mhz
mi
mia
miaj
miajn
miami
mian
miasta
miasto
mic
mica
mich
michael
michalovce
michał
michel
michelangelo
michele
michelle
michigan
michoacan
micigano
micjo
mickey
mickiewicz
microsoft
middle
midi
mie
mieczysław
mielo
mieno
miercurea
mifflin
migra
migrado
migranta
migrantaj
migrantoj
migras
migration
migratory
migris
miguel
mihaelo
mihai
mihail
mihajlovic
mihaly
mikaelo
mike
mikelangelo
mikena
miklos
miko
mikrobiologio
mikronezio
mikroregiono
mikroregionoj
mikroskopo
miksa
miksaj
miksajo
miksajon
miksas
miksi
miksigas
miksita
miksitaj
mikso
mikulas
mil
mila
milan
milano
milda
mildaj
mildan
milde
mildigi
miles
miliardo
miliardoj
miliardojn
milico
milimetroj
miliono
milionoj
milionojn
milionon
milit
milita
militado
militaj
militajn
militan
militar
military
milite
militestro
militfortoj
militiro
militis
militista
militistaj
militistan
militistaro
militisto
militistoj
militkaptito
militkaptitoj
militkrimoj
milito
militoj
militojn
militon
militservis
militservo
mill
millennium
miller
million
mills
milo
miloj
milojn
milos
milton
milvo
min
mina
minacas
minacata
minacataj
minacis
minaco
minacoj
minacon
minado
minami
minas
mind
mindanao
minden
mine
mineja
minejo
minejoj
minerala
mineralaj
mineralo
mineralogio
mineralogo
mineraloj
minesoto
ming
mingus
minh
mini
minimuma
minimuman
minimume
minimumo
minister
ministeria
ministerio
ministerioj
ministoj
ministraro
ministrejo
ministro
ministroj
ministron
ministry
minnaja
minnesota
mino
minoj
minoo
minor
minora
minoritataj
minoritato
minoritatoj
minoro
minsko
mint
minus
minuskla
minuskle
minuta
minuto
minutoj
minutojn
mio
mioceno
mir
mira
mirakla
miraklo
mirakloj
miranda
mireille
mirinda
mirindajoj
mirinde
miris
miro
miroslav
mirror
mirza
mis
mise
misiisto
misiistoj
misio
misioj
mision
misisipio
misisipo
miskolc
miss
missa
mission
mississippi
missouri
mistek
mistera
misteraj
mistero
misteroj
mistika
mistikismo
mistikulo
misurio
misuzo
mit
mita
mitaj
mitchell
mito
mitochondrial
mitoj
mitologia
mitologiaj
mitologio
mitte
mitteilungen
mittelalter
mittelhochdeutsch
mitterrand
mizera
mizero
mj
mk
ml
mlada
mln
mm
mn
mo
mobile
mod
moda
mode
model
modela
modelo
modeloj
modelojn
modelon
models
modena
modeno
modera
moderaj
modere
moderklimataj
modern
moderna
modernaj
modernajn
modernan
moderne
modernigo
modernismo
modesta
modifi
modifis
modifita
modifitaj
modifo
modifoj
modo
module
modulo
moers
mogola
mohacs
mohamed
mohamedo
mohammad
mohammed
moi
moid
mojo
mol
mola
molaj
molbase
moldava
moldavio
molecular
molekula
molekulaj
molekulo
molekuloj
moliere
molina
moll
moller
molnar
molotov
moltke
moluskoj
moment
momente
momento
momentoj
momenton
mon
mona
monaha
monaheja
monahejo
monahejoj
monahejon
monahinejo
monahino
monahinoj
monaho
monahoj
monakejo
monako
monarhio
monarkio
monarko
monarkoj
monastero
monata
monate
monato
monatoj
monatojn
monaton
monbileto
monbiletoj
mond
monda
mondadori
mondaj
mondan
mondcampiono
monde
mondfama
mondial
mondmilito
mondmilitoj
mondmiliton
mondo
mondoj
mondon
mondpokalo
monero
moneroj
monerojn
money
mongola
mongolaj
mongolio
mongoloj
monica
monika
monk
monmouth
mono
monografio
monographs
monon
monopolo
monotipa
monroe
mons
monsieur
monstro
mont
monta
montagne
montagut
montaj
montana
montano
montara
montaraj
montararbaroj
montarbaroj
montaro
montaroj
montaron
montbeliard
monte
montedio
montenegro
montes
monteta
montetaro
monteto
montetoj
montevideo
montfort
montgomery
monthly
montigny
montmartre
monto
montoceno
montoj
montojn
monton
montopasejo
montopinto
montopintoj
montparnasse
montpasejo
montpellier
montranta
montrante
montras
montrata
montreal
montrealo
montreuil
montri
montrigas
montrigis
montris
montrita
montritaj
montro
montros
montru
monumenta
monumento
monumentoj
monumentojn
monumenton
monuments
monunuo
moon
moore
mor
mora
moral
morala
moralaj
moralan
morale
morales
moralo
morato
morava
moravia
moraviasilezia
moravio
moravska
morbihan
more
moreau
morel
morena
moreno
morfologio
morgan
morgau
morgen
morges
mori
moric
moricz
moritz
morning
moro
moroj
morphology
morris
morrison
mort
morta
mortanta
mortas
morte
morti
mortiga
mortigante
mortigas
mortigi
mortigis
mortigita
mortigitaj
mortigo
mortigos
mortigu
mortinta
mortintaj
mortinto
mortintoj
mortintojn
mortis
morto
mortoj
mortojn
morton
mortopuno
mortos
mortpafita
mortpuno
mortu
mos
moscow
mosel
moselle
moseo
moser
moses
moskeo
moskeoj
moskva
moskvaj
moskvo
moskvon
moson
mosonmagyarovar
most
mosto
mother
motilal
motion
motivo
motivoj
motivojn
motivon
moto
motor
motoro
motoroj
motoron
motte
moukol
moulin
mount
mountain
mountains
moutier
mouvement
movado
movadoj
movadojn
movadon
movas
movebla
moveblaj
movement
movi
movie
movies
moviganta
movigas
movigi
movigis
movigo
movimento
movimentoj
movis
movita
movo
movoj
movojn
movon
moyen
mozaiko
mozambiko
mozart
mozelo
mozes
mozilla
mp
mpc
mpios
mq
mr
mrkos
mrs
ms
msm
mt
mta
mtv
mu
much
mudehara
muelejo
muelejoj
muerte
muhammad
muhlhausen
mujer
mujeres
mulheim
mulhouse
mull
muller
mult
multa
multaj
multajn
multan
multas
multe
multegaj
multege
multekosta
multekostaj
multenombra
multenombraj
multenombrajn
multenombro
multfoje
multimediajn
multipliko
multiterritorial
multjara
multlingva
multnombra
multnombraj
multnombrajn
multo
multon
multrimedaj
mumbajo
mun
munchen
mundi
mundo
munich
municio
municipa
municipaj
municipal
municipan
municiparo
municipio
municipios
municipo
municipoj
municipojn
municipon
munkena
munkeno
munoz
munster
muntado
muntita
mur
mura
murat
murcia
murcio
murder
murdi
murdis
murdisto
murdita
murditaj
murdo
murdoj
murdon
murego
muregoj
mures
muri
murmuris
muro
muroj
murojn
muron
murpentrajoj
murphy
murray
mus
musa
musee
museo
museum
museums
music
musica
musical
musicians
musik
musique
muskaptuledoj
muskaptulo
musko
muskoj
muskola
muskolo
muskoloj
muslim
muso
musoj
musono
muss
mussen
mussolini
must
mustafa
muta
mutaj
mutter
muy
muzea
muzeo
muzeoj
muzeologo
muzeon
muzeum
muzik
muzika
muzikaj
muzikajn
muzikajo
muzikajoj
muzikakademio
muzikalbumo
muzikalo
muzikan
muzikarta
muzike
muzikgrupo
muzikilo
muzikiloj
muzikinstruisto
muzikis
muzikisto
muzikistoj
muzikistojn
muziklernejo
muziknotoj
muziko
muzikoj
muzikon
muzo
mv
mw
mx
my
myers
mystery
myth
mythology
mz
n
n0
n1
n2
n3
n4
n5
n6
n7
n8
n9
na
nabla
nach
nachrichten
nacht
nacia
naciaj
naciajn
nacian
nacie
nacieco
naciisma
naciismaj
naciismo
naciistoj
nacilingvaj
nacio
nacioj
naciojn
nacion
nacional
nad
nada
nadj
nafta
nafto
naftogasa
nafton
nagado
nagano
nagas
nagasaki
nagejo
nagel
nagi
nagoya
nagy
nagybanya
nagyenyed
nagykanizsa
nagylexikon
nagyszombat
nagyvarad
nahe
naiva
najbara
najbaraj
najbaras
najbare
najbareco
najbaro
najbaroj
najtingalo
nakamura
nam
nambla
name
namen
names
namibio
nan
nana
nancy
nandor
nankai
nankino
nano
nanoj
nantes
nao
naomi
nap
naplo
napoca
napola
napoleon
napoleona
napoleonaj
napoleono
napoli
napolo
nara
narcos
narrative
nas
nasa
nash
nask
naskas
naski
naskigas
naskigdato
naskiginta
naskigintaj
naskigis
naskigloko
naskigo
naskigoj
naskigon
naskigtago
naskigurbo
naskis
naskita
naskitaj
nasko
nassau
nat
natalia
natalo
nathalie
nathan
nation
national
nationale
nationalism
nations
native
nato
natria
natrian
natrio
natur
natura
naturae
naturaj
naturajn
natural
naturalist
naturalisto
naturan
nature
naturmemorindajo
naturo
naturon
naturparko
naturprotekto
naturrezervejo
naturscienca
natursciencisto
natursciencoj
nau
naua
naucno
naudek
naumburg
nava
naval
navaro
navarro
navas
navigado
navigisto
navo
navoj
navon
navy
nazaire
nazareto
nazi
nazia
naziaj
naziismo
nazioj
nazionale
nazo
nazon
nb
nbc
nc
ncbi
nd
ndb
ne
nea
neanima
near
neas
neat
neatendita
neatendite
nebrasko
nebulo
nebulozo
necerta
necerteco
necesa
necesaj
necesajn
necesan
necesas
necese
necesejo
necesis
neceso
neceson
neckar
nederland
nederlanda
nederlandaj
nederlandan
nederlandanoj
nederlande
nederlandlingva
nederlando
nederlandon
nederlandse
neebla
neeble
need
nees
neevitebla
nefinita
neformala
neformale
nega
negas
negativa
negativaj
negativajn
negativan
negative
nego
negocado
negocisto
negoco
negocoj
negra
negro
nehmen
nehru
nei
neil
neill
neis
nek
nekapabla
neklara
nekompleta
nekonata
nekonataj
nekonatan
nekrologo
nekropolo
nekutima
nekutimaj
nekutime
nel
nell
nella
nelogata
nelonge
nelson
nem
nematuruloj
nemes
nemeth
nemzeti
nemzetkozi
nen
nenia
neniam
nenian
nenie
neniel
neniigi
neniigis
neniigita
neniigo
nenio
neniom
nenion
neniu
neniuj
neniujn
neniun
neo
neodys
neoficiala
neoficiale
neolitiko
neologismo
neordinare
neorganika
neotropical
neotropisa
nepala
nepalo
nepara
nepino
nepo
nepoj
nepomuk
nepomuka
nepra
nepre
neptuno
neregula
neregulaj
nerekta
nerekte
nerila
nero
nerono
nerva
nervo
nervoj
nesolvebla
nest
nestamasulo
nestas
nesting
nesto
nestoj
nestojn
neston
nestor
nestumas
nesufica
net
netflix
netherlands
neto
netransitiva
network
neu
neue
neuen
neues
neuilly
neumann
neusatelo
neustadt
neutra
neutrala
neutralaj
neutralan
neutrale
neutraleco
neutronoj
neuwied
nevada
nevado
never
neves
nevidebla
neville
nevino
nevo
nevole
nevter
new
newcastle
newman
newport
news
newsletter
newton
next
nf
ng
ngc
nguyen
nh
ni
nia
niaj
niajn
nian
nica
niccolo
nice
nicholas
nicholson
nicht
nichts
nick
nico
nicoj
nicola
nicolae
nicolai
nicolas
nicolaus
nicole
nie
nieder
niels
nielsen
nietzsche
nigel
niger
nigeria
nigerio
nigero
night
nigra
nigraj
nigrajn
nigrakapa
nigran
nigre
nigreca
nigrecaj
nigro
nigrula
nigruloj
niigata
nijnij
nikaragvo
nikelo
nikita
niko
nikola
nikolai
nikolaj
nikolajevic
nikolao
nikolaus
nilo
nils
nimfo
nimfoj
nin
nina
nine
nineteenth
nino
nintendo
nisou
nist
nitra
nitrata
nitrato
nitro
nitrogena
nitrogeno
nivelo
niveloj
nivelojn
nivelon
nj
nk
nkvd
nl
nm
nn
no
noa
nobel
nobela
nobelaj
nobelaro
nobeldomo
nobelo
nobeloj
nobelpremiita
nobeluloj
nobla
noblaj
noble
noch
noche
nocio
nocioj
nocion
nodo
nodoj
noel
nograd
noi
noir
noisy
nok
nokta
noktaj
nokte
nokto
noktoj
noktomezo
nokton
nom
nomadaj
nomadoj
nomas
nomata
nomataj
nomatajn
nomatan
nomatas
nombra
nombraj
nombrajn
nombras
nombre
nombrigas
nombris
nombro
nombroj
nombrojn
nombron
nome
nomenclature
nomenklaturo
nomi
nomiga
nomigas
nomigi
nomigis
nomigo
nominativo
nomis
nomita
nomitaj
nomitan
nomitis
nomo
nomoj
nomojn
nomon
nomos
nomumas
nomumi
nomumigis
nomumis
nomumita
nomumitaj
nomumitis
nomumo
nomumon
nomvarianto
non
nor
nora
norbert
nord
norda
nordafriko
nordaj
nordamerika
nordamerikaj
nordameriko
nordan
norde
norden
nordgermana
nordhausen
nordia
nordo
nordokcidenta
nordokcidentaj
nordokcidente
nordokcidento
nordorienta
nordoriente
nordoriento
nordrejn
norfolk
norma
normaj
normala
normalaj
normalan
normale
norman
normandio
normiga
normo
normoj
normojn
norte
north
northern
northumbria
norton
norvega
norvegaj
norvege
norvegio
nos
not
notacio
notario
notas
note
notes
nothing
noti
noticias
notinda
notinde
notis
notita
noto
notoj
notojn
noton
notre
notu
nou
nous
nouveau
nouvelle
nouvelles
nov
nova
novaj
novajn
novajo
novajoj
novajojn
novajon
novak
novan
nove
novel
novela
novelaro
novelisto
novelo
noveloj
novelojn
november
novembra
novembre
novembro
novgorod
novgoroda
novgorodo
novgotika
novgvineo
novi
novjara
novjorka
novjorkio
novjorko
novklasika
novlando
novo
novsudkimrio
novy
novzelanda
novzelando
now
nowy
np
npiv
npm
nq
nr
nro
ns
nsdap
nt
nu
nuanco
nuancoj
nuancojn
nuancon
nubo
nuboj
nuclear
nuda
nudaj
nuestra
nuestros
nueva
nuevo
nuit
nuklea
nukleaj
nukleo
nuko
nuksoj
nula
nuligi
nuligis
nuligita
nuligitaj
nuligo
nulo
num
number
numbers
numeralo
numeraloj
numero
numeroj
numerojn
numeron
nummer
nun
nuna
nunaj
nunan
nune
nunez
nuntempa
nuntempaj
nuntempan
nuntempe
nuntempo
nuova
nuovo
nupto
nur
nura
nuraj
nuran
nure
nurenbergo
nurnberg
nursingulara
nutra
nutrado
nutraj
nutrajo
nutrajoj
nutrajojn
nutrajon
nutras
nutri
nutris
nutrition
nutro
nutrondustrio
nuvel
nuvɛl
nv
nw
nx
ny
nyelven
nyiregyhaza
nyitra
nyncke
nyon
nz
o
o0
o1
o2
o3
o4
o5
o6
o7
o8
o9
oa
oahako
oak
oakland
oaxaca
oazo
ob
obama
obcina
obeas
obei
obeis
obelisko
obeo
ober
oberhausen
obituary
object
objektiva
objektivo
objekto
objektoj
objektojn
objekton
oble
obra
obras
observa
observado
observanto
observantoj
observas
observata
observations
observatorio
observatorioj
observatorion
observatory
observi
observis
observita
observitaj
observo
observoj
observojn
obstina
obtenis
oc
oca
occidental
occitania
occitanie
ocean
oceana
oceanaj
oceanio
oceano
oceanoj
oceanon
och
ocl
oclc
october
od
oda
odas
odenwald
oder
odeso
odiseado
odiseo
odo
odon
odorheiu
odorigagento
odoro
odoron
odro
oe
oeste
of
ofensivo
ofensivon
oferas
oferi
oferis
ofero
oferoj
oferojn
oferon
ofertas
oferti
ofertis
oferto
off
offenbach
office
official
oficejo
oficejoj
oficejon
oficial
oficiala
oficialaj
oficialajn
oficialan
oficiale
oficialigis
oficialuloj
oficina
oficiro
oficiroj
oficis
oficisto
oficistoj
ofico
oficoj
oficon
oficperiodo
oft
ofta
oftaj
oftas
ofte
ofteco
og
oh
ohio
ohne
oi
oil
oise
oiseaux
oita
oj
ojn
ojos
ok
oka
okajama
okato
okayama
okazajo
okazajoj
okazajojn
okazanta
okazantaj
okazas
okaze
okazi
okazigas
okazigi
okazigis
okazigita
okazigitaj
okazigo
okazinta
okazintaj
okazintajo
okazintajoj
okazis
okazo
okazoj
okazon
okazos
okazu
okazus
okcident
okcidenta
okcidentaj
okcidentajn
okcidentan
okcidente
okcidenten
okcidento
okcitana
okcitane
okcitanio
okdek
okedro
oklahoma
oklahomo
oksalato
oksfordo
oksidado
oksidigagentoj
oksidigo
oksido
oksigeno
oksigenon
okt
oktila
oktober
oktobra
oktobre
oktobro
okulfrapa
okulo
okuloj
okulojn
okulon
okulringo
okupacio
okupado
okupantoj
okupas
okupata
okupataj
okupi
okupiganta
okupigas
okupigi
okupigis
okupigo
okupis
okupita
okupitaj
okupo
ol
olah
old
oldenburg
oldrich
ole
olea
oleg
oleo
oleoj
oleon
olga
olimpia
olimpiaj
olimpika
olimpikaj
olimpiko
olimpikoj
oliva
olivarboj
oliveira
oliver
olivier
olivoleo
olomouc
olson
olsztyn
olt
olten
olympia
olympic
om
omagas
omage
omagis
omago
omano
omar
ombro
ombroj
ombron
omega
omiya
omnia
on
once
onda
ondo
ondoj
ondojn
ondolongo
ondrejov
one
onelook
oni
onia
onidire
onidiroj
onin
onklino
onklo
online
only
ono
ont
ontario
onubo
oo
ooizumi
oomoto
op
opa
opac
opava
opel
open
oper
opera
operacio
operacioj
operaciojn
operacion
operacisimbolo
operaciumo
operaco
operacoj
operation
operatorname
operatoro
operejo
opereto
operetoteatro
operkantistino
operkantisto
opero
operoj
operojn
operon
opinias
opiniis
opinio
opinioj
opiniojn
opinion
oponis
oportuna
opozicia
opoziciaj
opozicio
opozicion
opstina
optika
optikaj
optiko
opus
oq
or
ora
oradea
oraj
orajn
oran
oranga
orange
orango
oratio
oratorio
oratoro
orban
orbe
orbita
orbitaj
orbitan
orbitanta
orbitas
orbito
orbitoj
orbiton
orchestra
orda
ordbok
orden
ordeno
ordenoj
ordenon
order
ordigi
ordigita
ordigitaj
ordigo
ordinara
ordinaraj
ordinare
ordlista
ordo
ordoj
ordon
ordonas
ordonis
ordono
ordonoj
ordonojn
ordonon
ordre
oregon
oregono
orelo
oreloj
orelojn
orelon
oresto
orf
orfejo
orfeo
orfiso
org
organic
organika
organikaj
organisation
organismo
organismoj
organiza
organizado
organizadon
organizaj
organizajo
organizajoj
organizajojn
organizajon
organizanto
organizantoj
organizas
organizata
organization
organizi
organizis
organizita
organizitaj
organizo
organizoj
organizojn
organizon
organo
organoj
organon
orgenisto
orgeno
orgenoj
orgenon
orient
orienta
orientaj
orientajn
oriental
orientales
orientalis
orientalisa
orientalisto
orientan
oriente
orienten
orientigas
orientigis
orientigo
orientita
oriento
origeno
origin
origina
originaj
original
originala
originalaj
originalajn
originalan
originale
originalo
originan
originas
origine
originigis
originis
origino
originoj
originon
origins
oriono
orkeny
orkestra
orkestrestro
orkestro
orkestroj
orkestron
orlando
orleano
orleans
orlici
ornama
ornamado
ornamaj
ornamajo
ornamajoj
ornamajojn
ornamas
ornamis
ornamita
ornamitaj
ornamo
orne
ornithologists
ornithology
ornitologia
ornitologio
ornitologo
oro
oron
oroshaza
orszagos
ort
orta
ortega
ortiz
ortodoksa
ortodoksaj
ortodoksismo
ortografia
ortografio
orwell
orðabok
os
osaka
osako
oscar
oseta
osetio
osijek
osiris
oskar
oskaro
oslo
osmana
osnabruck
ost
ostagoj
osterreich
osterreichische
osterreichischen
osto
ostoj
ostojn
ostrava
ostrov
ostwald
oswald
oszk
oszkar
ot
ota
otakar
otavo
other
oto
otomana
otomanaj
otomanoj
otra
otro
otros
ott
otto
ottoman
ou
ouen
ouest
our
out
ov
ovala
ovario
over
overview
ovidio
oviedo
ovo
ovodemetado
ovoj
ovojn
ovon
ow
owen
own
ox
oxford
oy
oz
p
p0
p1
p2
p3
p4
p5
p6
p7
p8
p9
pa
pablo
pac
paca
pacaj
pacan
pace
pacheco
pacienco
paciento
pacientoj
pacific
pacifika
pacifikaj
pacifiko
pacjo
package
packontrakto
paco
pacon
paderborn
pado
padoj
padovo
padre
pafado
pafekzekutis
pafi
pafilo
pafiloj
pafis
pafmortigis
pafmortigita
pafo
pag
paga
pagan
pagana
paganaj
pagaro
pagas
pagasts
page
pages
pagi
pagina
pagis
pagita
pago
pagoj
pagojn
pagon
pagos
pain
painting
pais
paix
pajlo
pakistan
pakistana
pakistano
pakto
pakton
pal
pala
palaca
palace
palacio
palaco
palacoj
palacon
palais
palaj
palatinata
palatinato
palatino
palazzo
palearktisa
palencio
paleolitiko
paleontologio
paleontologo
palermo
palestina
palestinaj
palestinanoj
palestine
palestino
palestrina
palgrave
pallas
palm
palma
palmer
palmo
palmoj
palomar
pamatky
pamela
pan
panama
panamo
pandemio
paneloj
pangabo
panhispanico
panicum
panjo
panlex
pano
panon
panorama
panoramo
pantalono
panteono
panthera
paolo
pap
papa
papago
papagoj
papaj
papan
paper
papera
paperback
papero
paperoj
paperon
papers
papilio
papilioj
papiruso
papo
papoj
papon
papp
papuo
par
para
parabolo
paradise
paradizo
parado
paradokso
paragrafo
paragvajo
paraibo
paraj
paralela
paralelaj
paralele
paralelo
parametro
parametroj
paramo
parana
paranao
parazitoj
parc
parcelojn
parchim
pardo
pardono
pardonon
pardonu
pardubice
pardubicky
pare
parenca
parencaj
parenceco
parenco
parencoj
parigado
parigas
paris
pariza
parizaj
parizo
parizon
park
parka
parker
parkinson
parko
parkoj
parkon
parks
parlamenta
parlamentaj
parlamentan
parlamentano
parlamentanoj
parlamentejo
parlamento
parlamentoj
parlamenton
parliament
parma
parmo
parnaso
paro
parodio
paroha
parohejo
parohestro
paroho
parohoj
paroj
parojn
parola
parolado
paroladoj
paroladojn
paroladon
parolanta
parolantaj
parolante
parolanto
parolantoj
parolas
parolata
parolataj
parole
paroli
parolis
parolo
paroloj
parolojn
parolon
parolos
parolu
paron
parque
pars
part
parta
partaj
partan
parte
partei
parti
partia
partiaj
partial
partianoj
participo
partido
partiestro
partikla
partiklo
partikloj
partikulara
partikulare
partio
partioj
partiojn
partion
partituro
partizana
partizanoj
partneraj
partnereco
partnero
partneroj
parto
partoj
partojn
parton
partoprenantaj
partoprenanto
partoprenantoj
partoprenantojn
partoprenas
partopreni
partoprenintoj
partoprenis
partopreno
partoprenon
party
parulio
paruo
pas
pasa
pasado
pasagera
pasageraj
pasageroj
pasagerojn
pasante
pasao
pasas
pascal
pasejo
paserina
pasero
paseroformaj
paseroj
pasi
pasia
pasigas
pasigi
pasigis
pasinta
pasintaj
pasinteco
pasinto
pasio
pasion
pasiono
pasis
pasiva
paska
pasko
paso
pasoj
pasojn
pason
pasos
pasporta
pasporto
pass
passau
passer
passion
past
pastado
pastajoj
pastejoj
pasteur
pastisto
pastistoj
pasto
pastor
pastoro
pastra
pastrana
pastraro
pastrigis
pastro
pastroj
pastron
pat
patagonio
patento
patenton
pater
pato
patra
patria
patriarko
patrice
patricia
patrick
patrimonio
patrina
patrino
patrinoj
patrinon
patrio
patriota
patriotismo
patriotoj
patro
patroj
patron
patrona
patroneco
patronino
patrono
patronoj
patronomo
patrujo
patrujon
patterns
pau
paul
paula
pauli
pauline
paulio
paulista
paulo
paulus
pauzanio
pauzo
pavel
pavilono
pavio
pavo
paweł
pax
payne
pays
paz
pazmany
pb
pbs
pc
pcf
pd
pdf
pe
peace
peak
pearl
pearson
pech
peco
pecoj
pecojn
pecon
pecs
pedagogia
pedagogiaj
pedagogian
pedagogio
pedagogo
pedofilio
pedro
peer
pegazo
pego
pejzaga
pejzago
pejzagoj
pejzagojn
pejzagon
pekina
pekino
peko
pekoj
pelhrimov
pelikano
pelikanoj
pelis
peloponezo
pembinaan
pen
pena
penado
penas
pendanta
pendantaj
pendas
pendidikan
pendis
pendolo
pene
penelope
penetras
penetri
penetris
pengembangan
penguin
penguins
peninsula
penis
peniso
penn
pennsylvania
penny
peno
penoj
pensado
pensante
pensaro
pensas
pensi
pensiero
pensilvanio
pensis
pensiuligis
pensiuligo
pensmaniero
penso
pensoj
pensojn
penson
pensu
pensuloj
pentekosto
pentradis
pentrado
pentradon
pentrajo
pentrajoj
pentrajojn
pentrajon
pentrarto
pentri
pentris
pentristino
pentristo
pentristoj
pentrita
pentritaj
people
peoples
per
perado
peranto
perceptas
percepto
perche
percy
perdas
perdi
perdigas
perdigis
perdis
perdita
perditaj
perdo
perdoj
perdojn
perdon
perdos
perdriko
pere
pereinta
pereira
pereis
pereo
pereos
perez
perfekta
perfektaj
perfektan
perfekte
perfekteco
perfido
performance
perforta
perfortaj
perforte
perforto
perforton
peri
periferio
perimetro
period
perioda
periodajo
periodajoj
periode
periodo
periodoj
periodojn
periodon
peris
perkins
perlo
perloj
permane
permanenta
permesante
permesas
permesata
permesi
permesilo
permesis
permesita
permesitaj
permeso
permeson
permesos
permesu
pero
peron
perrin
perry
persa
persaj
persan
perse
persekutado
persekutas
persekuti
persekutis
persekuto
persekutoj
perseo
perseus
persian
persio
persoj
person
persona
personaj
personajn
personal
personan
personaro
persone
personeco
personecoj
personecon
personensuche
personigo
persono
personoj
personojn
personon
perspective
perspectives
perspektivo
perspektivoj
perturbo
perturboj
peru
perua
peruo
pesilo
peso
pest
pesti
pesto
petaloj
petante
petas
pete
petegis
peter
peterburga
peterburgo
petermannia
peters
peterson
peti
petis
petit
petite
peto
petofi
petoj
peton
petr
petra
petrelo
petreloj
petrels
petri
petro
petrolo
petrov
petrovic
petrovice
petrus
pettiford
peza
pezaj
pezajn
pezan
pezas
pezis
pezo
pezoj
pezon
pf
pfalz
pfeiffer
pflanzen
pg
pgc
ph
phalacrocorax
phd
phi
phil
philadelphia
philip
philipp
philippe
phillip
phillips
philosophical
philosophie
philosophy
phoenix
photo
photos
php
phylogenetic
phylogenetics
phylogeny
physical
physics
physiology
pi
pia
pianistino
pianisto
piano
pianon
piazza
pib
pic
picasso
piceo
pico
picture
pictures
pie
pieco
pied
piede
piedirado
piedirantoj
piediri
piedo
piedoj
piedojn
piedon
piedpilkisto
piemonto
pier
pierce
piero
pierre
pieter
pietro
pigo
piko
pilar
pilastroj
pilato
pilgrima
pilgrimado
pilgrimantoj
pilgrimejo
pilgrimloko
pilieroj
pilko
pilkon
piloto
pilotoj
pim
pin
pinaroj
pine
pingloj
pingveno
pingvenoj
pinjine
pinjino
pink
pino
pinoj
pinta
pintaj
pinte
pinto
pintoj
pintojn
pinton
pinus
pinyin
pio
pionira
pioniro
pioniroj
piotr
piper
pipro
piramido
piramidoj
piratoj
pireneoj
piron
piroska
pisa
pisek
pistoiese
pitagoro
pitoreska
pittsburgh
piu
piv
pizarro
pizo
piłsudski
pj
pjongjango
pjotr
pk
pl
placa
placas
place
places
placis
placo
placoj
placon
plado
pladoj
plafono
plago
plagoj
plain
plaine
plan
planado
planas
planata
planck
plane
planeda
planedaj
planedetoj
planedo
planedoj
planedon
planet
planeta
planetario
planetary
planets
planis
planita
planitaj
planko
plankon
planlingvo
planlingvoj
planning
plano
planoj
planojn
planon
plant
planta
plantaj
plantarum
plantejoj
plantis
plantita
planto
plantoj
plantojn
planton
plantoscienco
plants
plasta
plastaj
plasto
plata
plataj
platajo
plate
platform
platformo
platformoj
plato
platoj
platojn
platono
platz
play
plays
plaza
pledis
pleistoceno
plej
pleja
pleje
plejmultaj
plejmulto
plejofte
plejparte
plejparto
plejparton
plena
plenaj
plenajn
plenan
plendas
plendis
plendo
plendoj
plene
plenigas
plenigi
plenigis
plenigita
plenkreska
plenkreskaj
plenkreskulo
plenkreskuloj
plennome
plenuma
plenumado
plenumas
plenumi
plenumigis
plenumis
plenumita
plenumitaj
plenumo
plenumos
plenumu
plezuro
plezuron
pli
plia
pliaga
pliaj
pliajn
plialtigas
plialtigi
plialtigis
plialtigo
plian
plibonigas
plibonigi
plibonigis
plibonigita
plibonigo
plibonigoj
plibonigon
plie
plifortigas
plifortigi
plifortigis
plifortigo
pligrandigas
pligrandigi
pligrandigis
pligrandigita
pligrandigo
pliiganta
pliigas
pliigi
pliigis
pliigita
pliigo
pliigon
plilongigita
plilongigo
plimulte
plimulto
plimulton
plinio
plioceno
pliposte
plon
ploras
ploris
ploro
plu
plua
pluaj
pluajn
pluan
pluas
plue
pluen
pluis
plulernis
plumaro
plumaron
plumbo
plumnomo
plumo
plumoj
plumojn
pluraj
plurajn
plural
plurala
plurale
pluralo
plurcelo
pluredro
pluredroj
plurfoje
plurjara
plurlatero
plurlingva
plurmediaj
plurnombra
plurnombro
plus
plutarko
plutono
pluva
pluvarbaro
pluvarbaroj
pluvas
pluvo
pluvoj
pluvokvanto
plzen
pm
pmc
pmeg
pmid
pn
pnas
pnud
po
poblacion
poche
pocket
poco
pod
podhorsky
poe
poemaro
poemo
poemoj
poemojn
poemon
poems
poentoj
poentojn
poesia
poesie
poet
poeta
poetino
poeto
poetoj
poeton
poetry
poezia
poeziaj
poeziajoj
poezio
poezion
pogromo
poincare
point
pointe
poitiers
pokalo
pokalon
pol
pola
polaj
polajn
polan
poland
polar
pole
polemika
polemiko
polgar
polica
policaj
policano
policanoj
police
policejo
policisto
policistoj
polico
policy
poligloto
polinezio
polinomo
polish
politeknika
politekniko
politica
political
politics
politik
politika
politikaj
politikajn
politikan
politike
politikistino
politikisto
politikistoj
politiko
politikoj
politikojn
politikon
politique
politische
pollando
pollandon
polo
poloj
polojn
polonia
polska
polski
polskie
polsko
poluado
polujo
poluo
polusa
polusaj
poluso
polusoj
polvo
pomeria
pomerio
pomo
pomoj
pompejo
pompeo
pompidou
pons
pont
pontarlier
ponte
pontifika
ponto
pontoj
pontojn
ponton
poole
poor
pop
pope
poplo
popmuziko
popol
popola
popolaj
popolan
popolanoj
popolmuziko
popolnombrado
popolo
popoloj
popolojn
popolon
poprad
populacio
populacioj
populaciojn
populacion
popular
populara
popularaj
popularan
populare
populareco
popularecon
popularigis
popularigo
populatiei
population
populations
por
porcelano
pordego
pordegoj
pordegon
pordo
pordoj
pordojn
pordon
porfirio
porinfana
porinfanaj
porinstruista
porjunulara
porkido
porko
porkoj
porque
port
porta
portal
portalo
portanta
portante
portanto
portas
portata
porte
portebla
portempa
portempe
porter
porti
portis
portita
portland
porto
portrait
portreto
portretoj
portretojn
portreton
portu
portugal
portugala
portugalaj
portugalan
portugale
portugalio
portugaloj
portugalujo
poruba
posedajo
posedajoj
posedajojn
posedajon
posedanto
posedantoj
posedas
posedata
posedi
posedis
posedo
posedon
position
poso
possible
post
posta
postaj
postajn
postan
postautolinio
poste
postelefonoj
posteno
postenoj
postenojn
postenon
posteulo
posteuloj
postkarto
postkodo
postkodoj
postlasis
postmarko
postmarkoj
postmilita
postmorta
postmorte
posto
postrestis
posttagmeze
posttagmezo
postulante
postulas
postulata
postuli
postulis
postulita
postulo
postuloj
postulojn
postulon
postvivis
pot
potenca
potencaj
potencan
potence
potencialo
potenco
potencoj
potencon
poto
potok
potsdam
potter
poul
pour
pova
povas
povi
povis
povo
povoj
povojn
povon
povos
povu
povumo
povus
powell
power
powiat
pozicio
pozicioj
poziciojn
pozicion
pozidono
pozitiva
pozitivaj
pozitivajn
pozitivan
pozitive
poznan
poznano
pozo
pozsony
pp
pq
pr
pra
praa
praaj
praarbaro
prachatice
practical
practice
pradeso
prado
praga
prago
praha
prahistoria
prahistoriaj
prahistorio
prairie
praktika
praktikado
praktikaj
praktikajn
praktikan
praktikas
praktikata
praktike
praktiki
praktikis
praktiko
praktikoj
praktikojn
praktikon
pramo
prapatro
prapatroj
pratt
praulo
prauloj
prava
pravas
pravda
prave
pravec
pravigas
pravigi
pravigo
praxis
pre
precipa
precipaj
precipe
precipitajo
precipitajoj
preciza
precizaj
precizajn
precizan
precize
precizeco
predado
predantoj
predikejo
predikis
predikisto
prediko
predikoj
predo
predoj
predojn
predon
prefektejo
prefekto
prefektujo
preferas
preferata
preferataj
prefere
preferis
prefero
prefikso
prefiksoj
pregado
pregas
pregeja
pregejo
pregejoj
pregejojn
pregejon
pregi
pregis
prego
pregoj
pregon
preis
prelato
preleganto
prelegis
prelego
prelegoj
prelegojn
prelongo
premas
premi
premier
premiere
premieris
premiero
premiita
premiito
premio
premioj
premiojn
premion
premis
premita
premo
premoj
premon
premysl
prenante
prenas
preni
prenis
prenita
prenitaj
preno
prenos
prenu
preparado
preparas
preparata
prepari
preparis
preparita
preparitaj
preparo
preposto
prepozicio
prepozicioj
prerov
pres
presado
presajoj
presbiterejo
prescott
presejo
presejon
present
presi
president
presidente
presis
presisto
presita
presitaj
preskau
presl
presley
presov
press
presse
presses
prestiga
prestigaj
prestige
prestigo
prestigon
preston
preta
pretaj
pretas
preteksto
pretendas
pretendis
preter
preterfluas
preteriras
preterito
preterpasas
preterpasis
pretigas
pretigi
pretigis
pretis
preto
preventi
prevention
prez
prezenca
prezenco
prezentado
prezentadoj
prezentadon
prezentanta
prezentante
prezentas
prezentata
prezentataj
prezenti
prezentigas
prezentigis
prezentis
prezentisto
prezentita
prezentitaj
prezento
prezentoj
prezidanta
prezidanteco
prezidantino
prezidanto
prezidantoj
prezidanton
prezidenta
prezidentaj
prezidentan
prezidenteco
prezidento
prezidentoj
prezidenton
prezidis
prezo
prezoj
prezon
pri
priamo
pribram
price
pridisputata
prie
prilaborado
prilaboras
prilaborata
prilabori
prilaboris
prilaborita
prilaboritaj
prilaboro
prima
primara
primaraj
primary
primaso
primatoj
prime
primer
primera
primitiva
primitivaj
primo
primoj
primus
princa
prince
princeton
princino
principe
principles
principo
principoj
principojn
principon
princlando
princlandoj
princo
princoj
princon
print
printempa
printempe
printempo
printing
prioro
pripensi
pripensis
prirabis
priservata
priskribas
priskribata
priskribi
priskribis
priskribita
priskribitaj
priskribo
priskriboj
priskribon
prisma
prismo
prismoj
pristudis
pritraktas
pritrakti
pritraktis
privat
privata
privataj
privatajn
privatan
private
privatprofesoro
privilegio
privilegioj
privilegiojn
privilegion
prix
prize
prizono
prizonuloj
prizorgado
prizorgas
prizorgi
prizorgis
prizorgo
pro
probabla
probable
probablo
problem
problema
probleme
problemo
problemoj
problemojn
problemon
problems
procedo
procedoj
proceduro
proceduroj
proceedings
procelarioformaj
procentajoj
procento
procentoj
procentojn
procesio
proceso
procesoj
proceson
procesoro
procesoroj
process
processes
processing
procezo
procezoj
procezojn
procezon
production
productions
products
produkta
produktado
produktadon
produktajo
produktajoj
produktanta
produktante
produktanto
produktantoj
produktas
produktata
produktataj
produktejo
produkti
produktigas
produktigis
produktis
produktisto
produktita
produktitaj
produkto
produktoj
produktojn
produkton
produktoro
produto
prof
profesia
profesiaj
profesian
profesie
profesio
profesioj
profesion
profesiuloj
profesorigis
profesorino
profesoro
profesoroj
profesoron
professor
profeto
profetoj
profile
profilo
profitante
profitas
profite
profiti
profitis
profito
profiton
profunda
profundaj
profundajn
profundan
profunde
profundeco
profundo
profundon
program
programa
programado
programaro
programisto
programlingvo
programlingvoj
programme
programo
programoj
programojn
programon
progresas
progresema
progresis
progreso
progresoj
progreson
progress
project
projekcio
projekt
projektis
projektita
projekto
projektoj
projektojn
projekton
proklamis
proklamita
proklamo
prokrasti
prokrastis
prokrastita
prokrasto
proks
proksima
proksimaj
proksimajn
proksiman
proksimas
proksime
proksimeco
proksimigas
proksimigis
proksimo
proksimuma
proksimume
prokuroro
proleta
proletaro
prologo
promenado
promenejo
promeni
promesas
promesis
promesita
promeso
promesoj
promeson
prometeo
promocii
promociis
promociita
promocio
pron
pronomo
pronomoj
prononcata
prononco
prononcon
prononcu
propaganda
propagandi
propagandis
propagando
propagandon
proparolanto
properties
propila
propilena
propionato
proponas
proponi
proponis
proponita
proponitaj
propono
proponoj
proponojn
proponon
proporcia
proporcie
proporcio
proporcioj
proporcion
propozicio
propra
propraj
proprajn
proprajo
proprajoj
proprajojn
propran
propre
propreco
proprecoj
proprecojn
proprieto
prosper
prospera
prosperis
prospero
prosperon
prostejov
protagonisto
protection
proteino
proteinoj
protekta
protektado
protektanto
protektas
protektata
protektataj
protekti
protektis
protektita
protektitaj
protekto
protekton
protektorato
protestanta
protestantaj
protestantisma
protestantismo
protestantoj
protesti
protestis
protesto
protestoj
protestojn
protokolo
protokoloj
prototipo
proust
provante
provas
provenca
provence
provenco
proverbaro
proverbo
proverboj
provi
providenco
provinca
provincaj
province
provincia
provincial
provinco
provincoj
provincojn
provincon
provis
provizado
provizas
provizi
provizis
provizita
provizo
provizora
provizoraj
provizoran
provizore
provo
provoj
provojn
provokis
provon
proza
prozo
prudenta
prudento
prum
prunus
prusa
prusia
prusio
prusujo
pruvaro
pruvas
pruvi
pruvis
pruvita
pruvo
pruvoj
pruvojn
pruvon
ps
psalmaro
psalmo
psalmoj
pseudo
pseudonimo
pseudonomo
psi
psika
psikaj
psikiatrio
psikiatro
psiko
psikoanalizo
psikologia
psikologiaj
psikologio
psikologo
psikoterapio
psoe
psychology
pt
pterodroma
ptolemeo
pu
puatuo
pub
pubchem
public
publication
publications
publicisto
publico
publika
publikaj
publikajn
publikajo
publikajoj
publikan
publike
publikigas
publikigi
publikigis
publikigita
publikigitaj
publikigo
publikis
publikita
publiko
publikon
published
publishers
publishing
puccini
puco
pucon
puebla
pueblo
puente
puerta
puerto
pues
puffinus
pufino
pugo
pulitzer
pulma
pulmo
pulmoj
pulse
pulvo
pulvoro
pumpilo
puna
pundo
pundoj
puni
punis
punkto
punktoj
punktojn
punkton
puno
punoj
punon
punta
punto
pupo
pupoj
pupteatro
pura
puraj
puran
pure
pureco
purigado
purigi
purigo
purple
purpura
purpuraj
purpurea
pusis
puskin
puso
put
putin
puto
putoj
puttana
puy
pv
pw
px
py
pyrenees
python
pz
pʁɔ
q
q0
q1
q2
q3
q4
q5
q6
q7
q8
q9
qa
qb
qc
qd
qe
qf
qg
qh
qi
qin
qing
qj
qk
ql
qm
qn
qo
qp
qq
qquad
qr
qs
qt
qu
quad
quae
quality
quam
quarterly
quartet
quatre
que
quebec
queen
quelle
quellen
quentin
quercus
quest
question
questions
qui
quien
quijote
quincy
quinn
quintana
quisling
quo
qv
qw
qx
qy
qz
r
r0
r1
r2
r3
r4
r5
r6
r7
r8
r9
ra
raba
rabado
rabeno
rabisto
rabistoj
rabobirdo
rabobirdoj
race
rachel
racia
racine
racio
racz
rad
rada
radia
radiado
radiaj
radical
radika
radikala
radikalaj
radikalo
radiko
radikoj
radikojn
radikon
radio
radioaktiva
radioamatoroj
radioj
radiostacio
radiuso
rado
radoj
raf
rafael
rafaelo
rahman
rai
railway
rain
rainer
raj
rajdado
rajdanto
rajtas
rajtigis
rajtigita
rajtis
rajto
rajtoj
rajtojn
rajton
raketo
raketoj
rakoczi
rakonta
rakontado
rakontanto
rakontaro
rakontas
rakonti
rakontis
rakontisto
rakontita
rakonto
rakontoj
rakontojn
rakonton
rakontu
rakosi
rakovnik
ralf
ralph
ram
rama
ramirez
ramon
ramos
ran
rana
rance
rand
rande
rando
randoj
random
randon
range
rangle
rango
rangoj
rangon
rano
ranoj
ranunculus
raoul
raphael
rapid
rapida
rapidaj
rapidan
rapidas
rapide
rapideco
rapidecon
rapidege
rapidis
rapido
rapidon
raportas
raporti
raportis
raportisto
raportita
raporto
raportoj
raportojn
raporton
rapperswil
rara
raraj
rare
ras
rasa
rasismo
rasmussen
raso
rasoj
rat
rato
ratoj
ratp
raul
raum
raven
raveno
ravino
ray
raymond
rb
rc
rca
rd
re
rea
reactions
read
reader
reading
reagan
reagas
reage
reagi
reagis
reago
reagoj
reagon
reakcia
reakciajo
reakcias
reakcio
reakcioj
reakiri
reakiris
real
reala
realaj
realan
reale
realeco
realigas
realigi
realigis
realigita
realigitaj
realigo
realigon
realisma
realismo
reality
realnome
realo
realon
reaperis
reason
rebecca
recensamantul
recent
recenzo
recenzoj
recenzojn
recepto
receptoj
recherche
recherches
recht
rechtschreibung
recife
reciproka
reciprokan
reciproke
reclam
reconquista
record
recordings
records
red
redakcio
redaktado
redakti
redaktis
redaktisto
redaktita
redakto
redaktorino
redaktoro
redaktoroj
rediris
redon
redonas
redoni
redonis
redonita
reds
reduktado
reduktas
redukti
reduktigis
reduktigo
reduktis
reduktita
redukto
ree
reed
reela
reelaj
reeldonita
reeldono
reelektita
reen
ref
referenca
referencas
referencata
reference
references
referenci
referencitaj
referenco
referencoj
referendumo
refleksiva
reflektas
refoje
refondigis
refondis
reform
reforma
reformacio
reformation
reformatus
reformi
reformisto
reformita
reformo
reformoj
reformojn
reformon
reg
rega
regado
regadon
regaj
regan
reganta
regantaj
reganto
regantoj
regas
regata
regataj
regeco
regensburg
regento
reggio
regi
regidino
regido
regimento
regimo
regimoj
regimon
regina
reginald
regino
reginon
regio
region
regiona
regionaj
regionajn
regional
regionan
regiono
regionoj
regionojn
regionon
regions
regis
regisorado
regisorino
regisoris
regisorita
regisoro
regisoroj
registara
registaraj
registaran
registaro
registaroj
registaron
register
registrado
registrajo
registrajoj
registras
registri
registris
registrita
registritaj
registro
registroj
registrojn
regita
reglando
reglandoj
reglandon
regna
regno
regnoj
regnon
rego
regoj
regojn
regon
regopovoj
regotempo
regula
regulaj
regulajn
regulan
regularo
regularon
regule
reguligi
reguligita
reguligo
regulo
reguloj
regulojn
regulon
rehungarigis
rei
reich
reichenbach
reichstag
reid
reihe
reims
reina
reinbek
reine
reiner
reinhard
reinhardt
reinhold
reinmuth
reiras
reiri
reiris
reiru
reis
reise
rejkjaviko
rejn
rejna
rejnlando
rejno
reka
reklamado
reklamo
reklamoj
rekomencis
rekomendas
rekomendis
rekomendo
rekompenco
rekompencon
rekonas
rekonata
rekonebla
rekoneblaj
rekoneblas
rekoni
rekonis
rekonita
rekonkeris
rekonkero
rekono
rekonon
rekonstruado
rekonstrui
rekonstruigis
rekonstruis
rekonstruita
rekonstruo
rekontrolita
rekordo
rekordoj
rekordon
rekta
rektaj
rektan
rektangula
rekte
rekto
rektoro
rekviemo
related
relation
relations
relationship
relationships
relativa
relative
relativeco
release
reliefas
reliefo
reliefoj
religia
religiaj
religiajn
religian
religie
religio
religioj
religion
religions
religious
relikvoj
relogado
reloj
rememoras
rememorigas
rememoris
rememoro
rememoroj
remparo
remparoj
remy
ren
renaissance
renaskigo
renate
renato
renault
rendsburg
rene
renesanca
renesancaj
renesanco
renkontas
renkonte
renkonti
renkontigas
renkontigi
renkontigis
renkontigo
renkontigoj
renkontigojn
renkontigon
renkontis
renkonto
renkontoj
rennes
rennsteig
reno
renoj
renoma
renomaj
renomita
renomon
renovigaj
renovigi
renovigis
renovigita
renovigo
reo
reokupis
repacigo
repertuaro
report
reports
repreni
reprenis
represita
represo
reprezalioj
reprezenta
reprezentado
reprezentanta
reprezentante
reprezentanto
reprezentantoj
reprezentantojn
reprezentas
reprezentata
reprezentataj
reprezenti
reprezentis
reprezentita
reprezentitaj
reprezento
reprint
reproductive
reprodukta
reproduktado
reproduktaj
reproduktan
reproduktigas
reproduktigi
reptilioj
republic
republica
republik
republique
reputacio
reputacion
requiem
rer
rericevis
rerum
res
resanigis
resanigo
research
reserve
resistance
resolution
resonanco
resource
resources
resp
respegulas
respektas
respektata
respekti
respektis
respektiva
respektivaj
respektive
respekto
respekton
responda
respondas
responde
respondeca
respondecaj
respondecas
respondecis
respondeco
respondecon
respondeculo
respondi
respondis
respondo
respondoj
respondojn
respondon
responsa
response
respublika
respublikana
respublikano
respublikanoj
respubliko
respublikoj
respublikon
restadejo
restadis
restado
restajo
restajoj
restajojn
restajon
restanta
restantaj
restante
restarigi
restarigis
restarigita
restarigo
restas
restaurado
restaurita
resti
restinta
restintaj
restis
resto
restoj
reston
restoracio
restoracioj
restos
restu
restus
results
resume
resumo
resurekto
resursoj
ret
reta
retablo
retaj
retajn
retarkivo
rete
retejo
retejoj
retejon
retenas
reteni
retenis
retirigi
retirigis
retirigo
retirigon
retiris
retiro
reto
retoj
reton
retoriko
retpagaro
retpago
retpagoj
retradio
retrieved
retrovi
retrovis
retrovita
return
returne
reunio
reunuigo
reuss
reuters
reuß
rev
revelacio
revenante
revenas
reveni
revenigi
reveninta
reveninte
revenis
reveno
revenon
revenos
revenu
review
reviews
revis
revised
revista
revivigi
revivigis
revivigo
reviziita
revizio
revo
revoj
revolucia
revoluciaj
revolucian
revolucio
revolucioj
revolucion
revoluciulo
revoluciuloj
revolution
revolutionary
revue
revuo
revuoj
revuojn
revuon
rex
rey
reyes
reykjavik
reynolds
reysol
reza
rezervejo
rezervejoj
rezervita
rezervo
rezervujo
rezidejo
rezignas
rezigni
rezignis
rezigno
rezino
rezista
rezistado
rezisti
rezistis
rezisto
rezistomovado
reziston
rezolucio
rezolucion
rezonado
rezso
rezulta
rezultanta
rezultas
rezulte
rezulti
rezultigas
rezultigis
rezultis
rezulto
rezultoj
rezultojn
rezulton
rf
rg
rh
rhein
rheinland
rhin
rho
rhodes
rhon
rhone
rhythm
ri
ria
ribeiro
ribela
ribelantoj
ribelis
ribelo
ribeloj
ribelon
ribeluloj
ribera
rica
ricaj
ricajn
ricajoj
rican
ricardo
rice
riceco
ricecon
ricevante
ricevanto
ricevas
ricevi
ricevinta
ricevinte
ricevinto
ricevis
ricevita
ricevitaj
ricevo
ricevos
ricevu
rich
richard
richards
richardson
richelieu
richmond
richter
ricigis
rick
rico
riculo
riculoj
ridas
ridetis
rideto
ridge
ridis
rido
ried
riemann
ries
rifo
rifoj
rifugejo
rifugintoj
rifugis
rifuzas
rifuzi
rifuzis
rifuzita
rifuzo
riga
rigardante
rigardas
rigardata
rigardataj
rigardi
rigardis
rigardita
rigardo
rigardoj
rigardon
rigardu
right
rightarrow
rights
rigida
rigidaj
rigo
rigora
rikardo
riko
rikolto
rilata
rilataj
rilatajn
rilatanta
rilatas
rilate
rilati
rilatis
rilato
rilatoj
rilatojn
rilaton
rilatumo
rim
rimarkas
rimarki
rimarkigas
rimarkigis
rimarkinda
rimarkindaj
rimarkindajn
rimarkindan
rimarkindas
rimarkinde
rimarkis
rimarko
rimarkoj
rimarku
rimavska
rimedo
rimedoj
rimedojn
rimedon
rimini
rimoj
ring
ringo
ringoj
ringon
rino
rinocero
rio
rios
ripari
riparita
ripetado
ripetas
ripete
ripeti
ripetis
ripetita
ripley
ripozas
ripozejo
ripozejoj
ripozi
ripozis
ripozo
ripozon
riprocis
rise
rising
risk
riskas
risko
riskoj
riskon
rita
ritma
ritmo
ritmoj
ritmon
rito
ritoj
ritojn
ritter
riva
rivaleco
rivalo
river
rivera
riveraj
riverbordo
riverego
rivereto
riveretoj
rivero
riveroj
riverojn
riveron
riverside
riviere
rizo
rj
rk
rl
rm
rmil
rn
rna
ro
road
rob
robbins
robert
roberto
roberts
robertson
robin
robinson
robo
roboto
robotoj
roca
rocha
roche
rochefort
rochelle
rock
rockefeller
rod
rodano
rodezio
rodolfo
rodrigo
rodrigues
rodriguez
roger
rogers
roho
rohr
roi
roj
rojas
rojo
rojoj
rok
roka
rokaj
rokajoj
rokenrolo
rokgrupo
rokmuzika
rokmuziko
roko
rokoj
rokon
roku
rokycany
roland
rolas
role
rolf
rolinta
rolis
roll
rolle
rolling
rolo
roloj
rolojn
rolon
rolulo
roluloj
rolulojn
rom
roma
romain
romaj
roman
romana
romanca
romance
romania
romaniai
romanika
romanisto
romanjo
romano
romanoj
romanojn
romanon
romantika
romantikismo
romantisma
romantismo
rombo
rome
romeo
romero
romia
romiaj
romian
romianoj
romio
romkatolika
romo
romon
rompas
rompi
rompigis
rompis
rompita
rompitaj
rompo
romulo
ron
ronald
ronda
rondaj
rondeto
rondo
rondoj
rondon
room
roosevelt
root
roots
roque
ros
rosa
rosario
rosas
rose
rosen
rosenberg
ross
rossetti
rossi
rossini
rostand
rostock
rot
rotacia
rotacianta
rotacio
rote
roterdamo
roth
rothschild
roti
roto
rotten
rotterdam
rouen
rouge
rough
round
rousseau
route
routledge
roux
row
rowohlt
roy
royal
royale
roza
rozario
rozkolora
rozkoloraj
roznava
rozo
rozoj
rozsa
rp
rpr
rq
rr
rs
rsfsr
rspb
rt
ru
ruando
rubando
ruben
rubens
rubloj
rubo
rubriko
rudiger
rudolf
rudolfo
rudolph
rudolstadt
rue
rufus
rug
ruga
rugaj
rugajn
rugan
ruge
rugeca
rugecaj
rugecbruna
rugen
rugo
ruhr
ruina
ruinigis
ruinigita
ruino
ruinoj
ruinojn
ruiz
rule
rum
rumana
rumanaj
rumane
rumania
rumanio
rumanoj
rumanuja
rumanujo
rumex
run
rupert
rura
ruraj
rural
rus
rusa
rusaj
rusajn
rusan
ruse
rush
rusia
rusiaj
rusian
rusio
rusion
ruslando
ruslingva
ruso
rusoj
russell
russia
russian
rusujo
rutene
rutenoj
ruth
rutherford
ruza
rv
rw
rx
ry
ryan
ryszard
rz
s
s0
s1
s2
s3
s4
s5
s6
s7
s8
s9
sa
saale
saalfeld
saalfelden
saarbrucken
saba
sabate
sabato
sabaton
sabine
sabla
sablaj
sablo
sablokolora
sablokoloraj
sablono
sablonoj
sablonon
sablostono
sabo
sacerdoto
sacerdotoj
sache
sachs
sachsen
sacra
sacred
sad
safety
safhauzo
safido
safo
safoj
safojn
saga
sagaj
sagan
sagao
sage
sageco
sagen
sago
sagoj
sagon
sagulo
saguloj
sah
sahara
saharo
saharov
saho
said
saint
sainte
saintes
saints
sajna
sajnas
sajne
sajnis
saka
sako
sakolimpiko
sakon
sakovojo
sakrala
sakramento
sakristio
saksa
saksia
saksio
saksofonisto
saksofono
saksoj
saktabulo
sakto
sal
sala
salaj
salajro
salajroj
salajron
salamanca
salamanko
salamon
salato
salcburga
salcburgio
salcburgo
sale
salem
salerno
sales
salgotarjan
salikata
salikato
saliko
salinas
salix
salle
salmo
salo
saloj
salome
salomon
salomono
salomonoj
salon
salonego
salono
salonoj
salonon
salt
saltas
salti
saltis
salto
salutas
salutis
saluto
saluton
salvador
salvadoro
salvatore
salzburg
sam
sama
samaj
samajn
saman
samara
samaro
samas
samba
samband
same
samea
samideano
samideanoj
samjare
samkiel
samloke
sammaniere
sammlung
samnoma
samnomaj
samnoman
samo
samon
samoo
samseksema
samseksemo
samseksemuloj
samtage
samtempa
samtempaj
samtempe
samtempulo
samtempuloj
samu
samuel
san
sana
sanaj
sanchez
sanco
sancoj
sancon
sancti
sand
sanders
sandor
sandra
sanfrecce
sang
sanga
sangado
sangaj
sangante
sangas
sangi
sangigas
sangigi
sangigis
sangigo
sangigoj
sangis
sangita
sangitaj
sango
sangoj
sangojn
sangon
sangu
sanhajo
sankt
sankta
sanktaj
sanktajn
sanktan
sankteco
sanktejo
sanktejon
sanktulino
sanktulo
sanktuloj
sano
sanon
sans
sanskrita
sanskrite
sanskrito
sanstato
sant
santa
santana
santander
santandero
santiago
santo
santos
sanyo
sao
saob
saol
saone
sapere
sapigo
sapo
sapporo
sara
sarah
sarajevo
sardio
sargatal
sargita
sargitaj
sargo
sargoj
sargon
sargsjan
sari
sarino
sarkozy
sarlando
saros
sarospatak
sars
sarthe
sartre
sarvar
sas
sasanida
sat
satano
satantoj
satas
satata
satataj
satelita
satelito
satelitoj
satellite
satira
satiro
satis
satmaro
sato
satoraljaujhely
sats
satu
saturita
saturn
saturno
satus
sauco
saud
sauda
sauer
saul
saussure
sava
savage
savano
savanoj
savanto
savas
save
savi
savinto
savis
savita
savitaj
savo
savoie
savojo
savon
savoue
savoy
savu
say
says
sazavou
sb
sc
scala
scale
scenaristo
scenaro
scenaron
scene
sceneja
scenejo
scenejoj
scenejon
sceno
scenoj
scenojn
scenon
scents
schelte
schengen
schiff
schiller
schlegel
schleswig
schleyer
schloss
schlosser
schloß
schmadel
schmalkalden
schmid
schmidt
schmitt
schmitz
schneider
schnell
schon
schonberg
schone
school
schools
schopenhauer
schott
schriften
schroder
schubert
schule
schulz
schulze
schumann
schuster
schutz
schwabisch
schwartz
schwarz
schwarzburg
schwarzenberg
schwarzschild
schweitzer
schweiz
schweizer
schwerin
sci
sciante
sciaro
scias
sciata
scienc
scienca
sciencaj
sciencajn
sciencan
science
sciences
sciencfikcia
sciencfikcio
sciencisto
sciencistoj
scienco
sciencoj
sciencojn
sciencon
scienculo
scienculoj
scientific
scientist
scientists
scii
sciigas
sciigi
sciigis
sciigo
sciigoj
sciis
scio
scioj
sciojn
scion
scios
scipovas
scipovis
sciu
scius
score
scotland
scott
scottish
scripts
scuola
sd
se
sea
seabirds
sean
search
season
seatlo
seattle
sebastian
sebastiano
sebastien
sebastopolo
sebert
sebestyen
sec
secesio
second
secret
secrets
section
secuiesc
security
sed
sedimentoj
see
seen
segedo
segmento
segmentoj
sego
segoj
segojn
segon
segovia
segovio
segura
sehen
sehr
sei
seiji
sein
seine
seinem
seinen
seiner
seit
seite
seiten
sejla
sejm
sejmo
sejno
sejseloj
sejuo
sek
seka
sekaj
sekajn
sekalo
sekan
sekcio
sekcioj
sekciojn
sekcion
sekco
sekeco
sekelj
seki
sekigita
sekigitaj
sekreta
sekretaj
sekretan
sekretariejo
sekretariino
sekretario
sekrete
sekreto
sekreton
seksa
seksaj
seksajn
seksan
sekse
sekseco
sekso
seksoj
sekson
sekspiro
seksumado
sekto
sektoro
sektoroj
sekulara
sekundara
sekundo
sekundoj
sekundojn
sekura
sekuraj
sekure
sekureca
sekurecaj
sekureco
sekurecon
sekurigi
sekurigis
sekva
sekvaj
sekvajn
sekvan
sekvanta
sekvantaj
sekvantajn
sekvantan
sekvante
sekvanto
sekvantoj
sekvas
sekvata
sekve
sekvenco
sekvi
sekvis
sekvita
sekvo
sekvoj
sekvojn
sekvos
sekvu
sel
sela
selbst
selected
selection
selektado
selekto
self
selmecbanya
selo
seloj
selon
selten
sem
semajna
semajne
semajnfino
semajngazeto
semajno
semajnoj
semajnojn
semajnon
semi
semida
semily
seminario
seminarioj
seminarion
semmelweis
semo
semoj
semojn
sen
senarbarigo
senatano
senatanoj
senato
sencesa
sencese
senco
sencon
sendai
sendas
sendependa
sendependaj
sendependan
sendepende
sendependeco
sendependecon
sendependigis
sendependigo
sendependo
sendi
sendis
sendita
senditaj
sendito
sendos
sendu
sendube
senegalo
senescepte
senfina
senfinaj
senfine
senhoma
senhomigis
senigita
seninterrompe
senior
senjorlando
senjoro
senjoroj
senjorujo
senkolora
senkoloraj
senkulpa
senlaboreco
senlima
senlogigo
senmakula
senmorteco
senmova
senmove
sennacieca
sennaciismo
sennaciulo
sennoma
sennombraj
sennombrajn
senor
senora
senpaga
senpagaj
senpagan
senpage
senpera
senpere
senpintigita
senprokraste
senrajtaj
sens
sensanga
sense
senso
sensoj
sensukcese
sent
sentas
sentema
senti
sentis
sento
sentoj
sentojn
senton
senvertebruloj
senvertebrulojn
senvoca
sep
sepa
sepaloj
separas
separata
separataj
sepdek
sepjara
sepsiszentgyorgy
sept
september
septembre
septembro
septuaginto
sepultita
sequence
sequences
ser
sera
serba
serbaj
serbe
serbio
serboj
sercado
sercante
sercas
serce
serci
sercilo
sercis
serco
sercoj
sercu
serena
serge
sergei
sergej
sergento
sergio
seria
serie
series
serinus
serio
serioj
seriojn
serion
serioza
seriozaj
seriozan
serioze
serpento
serpentoj
serra
serrania
serrano
serva
servado
servanta
servanto
servantoj
servas
servata
serve
servi
service
services
servilo
serviloj
servis
servistino
servisto
servistoj
servo
servoj
servojn
servon
servu
ses
sesa
sesdek
sesio
set
sete
setlado
setlantoj
setlejo
setlejoj
setlejon
setligis
setlis
seu
seuil
seulo
sevan
sevcenko
seven
severa
severaj
severan
severe
severin
severo
sevilla
sevilo
sevres
sex
sexual
seymour
sezono
sezonoj
sf
sfantu
sfera
sfero
sferoj
sforza
sg
sganarelo
sh
shackleton
shadow
shah
shakespeare
sharp
shaw
she
sheet
sheets
sheffield
shelley
sherman
shi
shimizu
shin
shirley
shoemaker
shoghi
shonan
short
should
show
shtml
si
sia
siaflanke
siaj
siajn
sian
siatempe
siavice
siberia
siberio
sibio
sibiu
sibley
sic
sich
sicilia
sicilio
sicuano
sid
sidanta
sidante
sidas
side
sidejo
sidejoj
sidejon
sidi
sidigis
siding
sidis
sidloko
sidlokoj
sidlokojn
sidnejo
sidney
sie
siecle
sieg
siegfried
siegis
siego
siegon
siehe
siemens
siempre
sienkiewicz
sieno
sieraleono
sierra
siga
sigelo
sigismondo
siglo
sigma
sigmund
sign
signal
signalo
signaloj
signalojn
signalon
signas
signifa
signifaj
signifajn
signifan
signifanta
signifante
signifas
signife
signifi
signifis
signifo
signifoj
signifojn
signifon
signifus
signis
signita
signo
signoj
signojn
signolingvo
signon
siklos
sikorski
sil
sila
silabo
silaboj
sildo
sildoj
silence
silent
silenta
silentas
silente
silentis
silento
silezia
sileziaj
silezio
silicio
silikatoj
silka
silko
silla
silva
silver
silvestre
silvestro
silvia
silviedoj
silvio
sim
sima
simbad
simbola
simbolaj
simbolan
simbolas
simbole
simbolismo
simbolo
simboloj
simbolojn
simbolon
simeon
simetria
simetriaj
simetrio
simferopolo
simfonia
simfonio
simfonioj
simila
similaj
similajn
similajoj
similan
similas
simile
simileco
similecon
similis
simio
simioj
simo
simon
simone
simono
simpatio
simpation
simpla
simplaj
simplajn
simplan
simple
simpleco
simpligita
simpozio
simpson
simptomoj
simptomojn
simulado
sin
sina
sinagogo
sinagogon
sinajo
sinatra
since
sincera
sincere
sinclair
sind
sindikata
sindikato
sindikatoj
sindromo
sine
sing
singapore
singapuro
singer
singh
single
singlong
singular
singulara
singularo
sinjorino
sinjorinoj
sinjoro
sinjoroj
sinjoron
sinkis
sinko
sinmortigo
sinne
sino
sinodo
sinonimo
sinonimoj
sinsekva
sinsekvaj
sinsekve
sinsekvo
sinsekvon
sint
sintakso
sinteno
sintenoj
sintenon
sinteza
sintezo
sintezoj
sio
siofok
sip
sipa
sipanaro
sipanoj
siparo
sipo
sipoj
sipojn
sipon
sir
sirakuzo
siria
siriaj
sirio
sirmi
sirmo
siro
sistema
sisteme
sistemo
sistemoj
sistemojn
sistemon
site
sites
sito
situa
situacio
situacioj
situaciojn
situacion
situanta
situantaj
situantas
situante
situas
situation
situejo
situis
situo
situon
sive
six
size
sizuoka
sj
sjuniko
sk
skaftfell
skala
skalara
skalo
skandalo
skandalon
skandinavio
skarabo
skaraboj
skatolo
skeleto
skemo
sketado
skiado
skipo
skismo
skizo
skizoj
sklaveco
sklavecon
sklavino
sklavo
sklavoj
sklavojn
skolo
skoloj
skolta
skoltoj
skota
skotaj
skotio
skotlando
skoto
skriba
skribado
skribaj
skribajo
skribajoj
skribajojn
skribante
skribas
skribata
skribe
skribi
skribis
skribisto
skribita
skribitaj
skribitan
skribite
skribmaniero
skribmencio
skribo
skriboj
skribon
skribsistemo
skribu
skriptojn
skuis
skulptajo
skulptajoj
skulptajojn
skulptarto
skulptisto
skulptistoj
skulptita
skvamoj
sky
skyview
sl
slava
slavaj
slave
slavoj
slesvigo
slipo
slogano
slosila
slosilaj
slosilnumero
slosilo
slosilon
slovaka
slovakaj
slovake
slovakia
slovakio
slovakoj
slovena
slovene
slovenia
slovenio
slovenoj
slupsko
sm
small
smart
smith
smithsonian
smolensk
sn
sncf
snow
snuro
snuroj
so
sobota
sobre
soc
soci
socia
sociaj
sociajn
social
sociala
socialaj
socialdemokrata
socialdemokratia
socialdemokratoj
sociale
socialism
socialisma
socialismaj
socialismo
socialismon
socialist
socialista
socialistaj
socialisto
socialistoj
socian
socie
sociedad
societa
societe
societo
societoj
societon
society
socio
socioj
sociologia
sociologio
sociologo
sociology
socion
socorro
sofia
sofio
sofoklo
soforo
software
sohn
sojlo
sojuz
soklo
soko
sokolov
sokrato
sol
sola
solaj
solan
solar
soldata
soldataro
soldataroj
soldatigis
soldato
soldatoj
soldatojn
sole
soleca
soleco
soleil
solena
solene
solida
solidaj
solidajo
solidareco
solido
solidoj
solisto
soll
solo
solomon
soloturno
solr
solvado
solvajo
solvajoj
solvanto
solvantoj
solvas
solvebla
solvi
solvis
solvita
solvo
solvoj
solvojn
solvon
som
somalia
somalio
some
somera
someraj
someran
somere
somermeznokta
somero
someroj
someron
somerset
something
somme
sommer
somogy
somogyi
son
sona
sonas
sonata
sonato
sonatoj
sondershausen
sondilo
sonetoj
song
songis
songo
songoj
songs
sonia
sonis
sonja
sonny
sono
sonoj
sonojn
sonon
sonora
sonorilejo
sonorilo
sonoriloj
sonorilostablo
sonorilturo
sonregistrajoj
sons
sont
sony
sophia
sophie
sopiris
sopiro
sopra
soprano
sopron
sor
sorbato
sorbonne
sorbono
sorcistino
sorcistinoj
sorcisto
sorio
soros
sorto
sorton
sos
soseo
soseoj
sosoj
soto
soul
sound
source
sources
sous
sousa
south
southern
souza
sovaga
sovagaj
sovet
soveta
sovetaj
sovetan
sovetia
sovetiaj
sovetio
soveto
sovetoj
sovetrespubliko
sovetunia
sovetunio
sovetunion
soviet
sowie
soy
sp
spaca
space
spacewatch
spaco
spacoj
spacon
spain
spanish
spari
sparrow
sparrows
sparto
spd
speak
specia
special
speciala
specialaj
specialajn
specialajo
specialan
speciale
specialigis
specialisto
specialistoj
species
specifa
specifaj
specifajn
specifan
specife
specimena
specimeno
specimenoj
specimenojn
specio
specioj
speciojn
specion
speco
specoj
specojn
specon
speech
spegulas
spegulo
speguloj
spektakla
spektaklo
spektakloj
spektaklojn
spektaklon
spektantaro
spektanto
spektantoj
spekti
spektra
spektro
spektroskopio
spencer
sperta
spertaj
spertas
sperti
spertis
sperto
spertoj
spertojn
sperton
spertulo
spertuloj
speyer
spicoj
spiegel
spiel
spino
spionado
spiono
spirado
spiri
spirit
spirita
spiritaj
spiritan
spirite
spiritisma
spiritismo
spirito
spiritoj
spiriton
spiro
spite
spock
sport
sporta
sportaj
sportejo
sportisto
sportistoj
sportistojn
sporto
sportoj
sports
spoto
spp
sprache
sprachen
spraket
spree
spring
springer
springfield
springs
spuro
spuroj
spurojn
spuron
sq
sqrt
square
sr
sranko
sri
srilanko
ss
ssr
st
stabanaro
stabila
stabilaj
stabilan
stabileco
stabilecon
stabo
stachys
stacidomo
stacidomoj
stacidomon
stacio
stacioj
staciojn
stacion
stade
stadio
stadioj
stadiono
stadt
stafeto
staff
stage
stala
stalin
stalinismo
stalino
stalo
stamenoj
stampis
stampita
stan
stand
standard
standardo
standards
stanford
stango
stangoj
stanislao
stanislas
stanislav
stanislavo
stanisław
stanley
stano
star
stara
staranta
starantaj
starante
staras
stare
stari
starigas
starigi
starigis
starigita
starigitaj
starigitis
starigo
starigon
starigu
staris
stark
stars
start
startas
startis
starto
stary
stat
stata
stataj
statajn
statan
statanecon
state
states
statestro
statestroj
station
statistical
statistics
statistika
statistikaj
statistike
statistiko
statistikoj
statisztikai
statlimo
statministro
stato
statoids
statoj
statojn
staton
statsekretario
statuaro
statuo
statuoj
statuojn
statuon
status
statuso
statuson
statuto
statutoj
statuton
steel
steele
stefan
stefano
stehen
steht
stein
steiner
stela
stelaj
stelamaso
steleo
steli
stelis
stelisto
stelistoj
stella
stelo
steloj
stelojn
stelon
stelulis
stelulo
steluloj
sten
stendal
stenografio
step
stepa
stepan
stepanovic
stephan
stephane
stephanie
stephen
stepo
stepoj
sterko
stern
sternajo
sterno
steve
steven
stevens
stevenson
steward
stewart
stichwort
stiftung
stila
stilaj
stile
still
stilo
stiloj
stilojn
stilon
stimuli
stipendio
stipendiojn
stipendion
stirio
stm
stock
stockholm
stofo
stojan
stokado
stokholmo
stomako
stona
stonaj
stonan
stone
stonepoko
stonminejo
stono
stonoj
stonojn
stonon
stop
storia
stories
storm
stormo
stormoj
story
str
strakonice
strando
strandoj
stranga
strangaj
strangan
strange
strasbg
strasbourg
strasburgo
strata
strategia
strategiaj
strategian
strategie
strategio
strateto
strato
stratoj
stratojn
straton
strauss
strauß
stravinski
straße
strebas
strebis
streboj
strecita
streco
street
streketo
streko
strieca
striecaj
strieco
strigo
strigoj
striko
strikoj
strikta
strikte
strio
strioj
striojn
strion
strobiloj
strofo
strofoj
strong
structure
struggle
struktura
strukturaj
strukturo
strukturoj
strukturojn
strukturon
struto
strutoformaj
sts
stuart
stuck
studado
studadon
studante
studantoj
studas
student
studenta
studentaj
studento
studentoj
studentojn
students
studi
studia
studien
studies
studio
studioj
studios
studis
studita
studjaro
studo
studoj
studojn
studon
studvojagis
study
stulta
stuparo
stuparon
stupo
stupoj
sturm
sturmo
sturno
stutgarto
stuttgart
style
su
sua
suarez
sub
suba
subaj
subajn
suban
subaro
subciela
subdistrikto
subdividita
subdivido
sube
suben
subfamilio
subflugiloj
subgenro
subgrupo
subgubernio
subigis
subita
subite
subjekto
subjektoj
subkontinento
submara
submarsipo
submetis
submetita
submetitaj
subministro
submunicipo
subordo
subotica
subpremado
subpremi
subpremis
subpremita
subpremo
subregiono
subsahara
subskribi
subskribis
subskribita
subskribo
subsp
subspecio
subspecioj
subspeciojn
substances
substanco
substancoj
substancojn
substancon
substantiv
substantivo
substantivoj
substantivs
substata
substato
substatoj
substrekas
substrekis
subtena
subtenanto
subtenantoj
subtenas
subtenata
subtenataj
subteni
subtenis
subtenita
subteno
subtenon
subtera
subteraj
subtere
subtropika
subtropikaj
subuloj
subvencioj
success
such
sud
suda
sudafrika
sudafriko
sudaj
sudamerika
sudamerikaj
sudameriko
sudan
sudana
sudano
sudbohemia
sude
suden
sudliche
sudmoravia
sudo
sudokcidenta
sudokcidente
sudokcidento
sudorienta
sudoriente
sudoriento
sudtirolo
suferas
suferi
suferis
sufero
suferoj
sufica
sufican
suficas
sufice
suficis
sufikso
sufiksoj
sugar
sugestas
sugestis
sugesto
suhrkamp
sui
suisse
suite
suito
sukcedanto
sukcedis
sukcedo
sukcesa
sukcesaj
sukcesan
sukcesas
sukcese
sukcesi
sukcesis
sukceso
sukcesoj
sukcesojn
sukceson
sukcesos
sukerkano
sukero
suko
sul
sula
sulaveso
suldas
suldigas
suldo
suldoj
sulfata
sulfato
sulfido
sulfura
sulfuro
sulla
sullivan
sulpice
sultan
sultanlando
sultano
sultro
sultroj
sultrojn
sum
suma
sumatro
sumava
sume
summa
summary
summer
summers
sumo
sumon
sumperk
sun
suna
sunaj
sunda
sunday
sung
sunlumo
suno
sunon
sunsistemo
sunsubiro
suo
suoj
suojn
sup
super
supera
superaj
superan
superas
supereco
superecon
superfamilio
superi
superintendanto
superior
superis
superjaro
superjaroj
superlativo
supermara
superokula
superrigardo
superulo
supervivis
suplemento
supo
supozas
supozata
supozataj
supozeble
supozi
supozigas
supozis
supozita
supozo
supozoj
supozu
supplement
support
supra
supraj
suprajn
suprajo
supran
supre
suprema
supren
supreniras
supreniris
supro
sur
surbaze
surcouf
surdiskigis
surduloj
surfaca
surface
surfaco
surfacoj
surfacon
surgrunde
surhavas
surinamo
surloka
surloke
surprize
surprizo
surrete
surrey
surskribo
surskriboj
surstrate
surtera
surteraj
surtere
surterigis
surtronigis
survey
survival
survivis
survoje
sus
susan
susanne
suso
suspektis
suspekto
sussex
sutherland
suto
sutra
sutton
suverena
suvereneco
suverenecon
suvereno
suzanne
suzuki
sv
svabio
svahila
sveda
svedaj
svedan
svede
svedio
svedoj
svedujo
svelta
sven
svensk
svenska
svico
svingo
svisa
svisaj
svisan
svisio
svislando
svisujo
svitavy
svoboda
sw
sweet
swift
swing
swisstopo
sword
sx
sy
sydney
sylvia
sylvie
symbol
symphony
symposium
syndrome
synthesis
system
systema
systematic
systematics
systems
sz
szabadka
szabo
szabolcs
szalay
szamara
szarvas
szasz
szatmar
szatmarnemeti
szczecin
szechenyi
szeged
szekely
szekelyudvarhely
szekesfehervar
szekszard
szemely
szemle
szent
szentendre
szentes
szentgyorgyi
szep
szepes
szeptember
szerelem
szigetvar
szigligeti
szilagy
szilagyi
szilard
szinhaz
szinhazmuveszeti
szo
szolnok
szombathely
szoreny
szucs
słowniczek
słownik
słupsk
sɐ
sɑ
sɛ
t
t0
t1
t2
t3
t4
t5
t6
t7
t8
t9
ta
tabako
tabelo
tabeloj
tabernaklo
table
tablo
tablon
tabor
tabulo
tabuloj
tachov
tacito
tacmento
tacmentoj
tadeo
tadeusz
tag
taga
tagaloge
tage
taggazeto
tagigo
tagikio
taglibro
tagmango
tagmeze
tagmezo
tago
tagoj
tagojn
tagon
tai
taj
taja
tajdo
tajlanda
tajlando
tajloro
tajo
tajpu
tajvana
tajvano
takacs
takao
takashi
take
takeshi
taksado
taksas
taksata
taksi
taksio
taksis
taksita
taksitaj
takso
taksoj
taksono
taksonoj
taksonomia
taksonomio
taktiko
takto
taktoj
tal
talavera
tale
talent
talenta
talento
talentoj
talenton
tales
talino
talio
talk
talmudo
tam
tamara
tamas
tamasi
tambien
tamburo
tamburoj
tamen
tamila
tan
tanaka
tang
tangas
tango
tanjɔ
tanjə
tanko
tankoj
tanto
tanulmanyok
tanzania
tanzanio
tao
tapiso
tapisoj
tar
tara
targu
tarn
tarnow
tarsasag
tarso
tarsulat
tartu
tartufo
taschenbuch
tasko
taskoj
taskojn
taskon
tasmanio
taso
tata
tatabanya
tatara
tatare
tataroj
tate
tatoeba
tatra
tatroj
tau
tauga
taugaj
taugajn
taugan
taugas
tauge
taunus
tauro
tautenburg
tavolo
tavoloj
tavolojn
tavolon
taxonomic
taxonomy
taylor
tb
tbiliso
tc
td
te
tea
teaching
team
teama
teamo
teamoj
teamon
teams
teatra
teatraj
teatrajn
teatrajo
teatrajoj
teatrajojn
teatrajon
teatran
teatrejo
teatrestro
teatro
teatroj
teatron
tebo
tech
technical
technik
techniques
technology
ted
teddy
tegmenta
tegmento
tegmentoj
tegmenton
teherano
tehnika
tehniko
teil
tejo
teknika
teknikaj
teknikajn
teknikan
teknike
teknikisto
tekniko
teknikoj
teknikojn
teknikon
teknikuniversitato
teknologia
teknologio
teknologioj
teknologion
teksajo
teksajoj
teksaso
teksta
tekstas
tekstila
teksto
tekstoj
tekstojn
tekston
tel
telefona
telefonkodo
telefonnumeroj
telefono
telefonoj
telefonprefikso
telegrafo
telegraph
teleki
telekomunikado
telescope
teleskopo
teleskopoj
teleskopon
televid
televida
televidaj
televidan
televidkanalo
televido
televidserio
televidserioj
television
televizia
televiziaj
televizio
telfero
tell
tema
temaro
temas
temes
temesvar
temesvaro
temi
temis
temo
temoj
temojn
temon
tempa
tempe
temperaturo
temperaturoj
temperaturon
templanoj
templates
temple
templo
temploj
templon
tempo
tempoj
tempojn
tempon
tempopaso
temps
ten
tenante
tenas
tenata
tendaro
tendaroj
tendaron
tendencas
tendenco
tendencoj
tendencojn
tendencon
tendo
tenerife
tenesio
teni
tenilo
tenis
teniso
tenita
tennessee
tenoro
tensio
tenu
teo
teodoro
teologia
teologiaj
teologian
teologio
teologion
teologo
teologoj
teon
teoremo
teoria
teoriaj
teorie
teoriisto
teorio
teorioj
teoriojn
teorion
teplice
ter
tera
teraj
teran
terapio
teraso
terasoj
tereftalato
teren
tereno
terenoj
terenojn
terenon
teresa
teretago
tereza
terglobo
teritoria
teritoriaj
teritorio
teritorioj
teritoriojn
teritorion
terkrusto
terlango
term
termala
terme
termika
terminaro
termino
terminoj
terminojn
terminologia
terminologio
terminon
termo
termodinamiko
terms
tero
teroj
terojn
teron
terorisma
terorismo
teroristoj
teroro
terpomo
terpomoj
terra
terre
terrenkonta
terrible
territorial
terror
terry
tersupraja
tersuprajoj
tersurfaco
tertremo
tertremoj
terura
teruraj
teruran
terure
teruro
tes
tesaloniko
tesinio
tesla
test
testado
testament
testamento
testamenton
testi
testo
testoj
testudo
testudoj
texas
text
texte
texts
tezo
tezoj
tezon
tf
tg
tgv
th
thalia
thames
than
that
the
theater
theatre
their
them
then
theo
theodor
theodore
theologie
theology
theophile
theorie
theory
there
therese
thesaurus
these
theta
they
thierry
thing
things
think
third
this
thomas
thompson
thomson
thon
thor
those
thought
threatened
three
through
thun
thuringen
thuringer
ti
tia
tiaj
tiajn
tial
tialo
tialoj
tiam
tiama
tiamaj
tiaman
tiamaniere
tiame
tian
tiberio
tibeta
tibeto
tibor
ticha
tichy
ticino
tie
tiea
tieaj
tiean
tiel
tiele
tiempo
tien
tiene
tierra
ties
tiger
tigo
tigoj
tigro
til
tilio
till
tim
timante
timas
time
times
timi
timis
timisoara
timo
timon
timoro
timoteo
timothy
timu
timur
tin
tina
tinamo
tinamoj
tinamous
tio
tiom
tion
tipa
tipaj
tipajn
tipan
tipe
tipo
tipoj
tipojn
tipologio
tipon
tirano
tiras
tiri
tiris
tiro
tirolo
tiso
tisza
titanic
titano
titel
title
tito
titolita
titolitan
titolo
titoloj
titolojn
titolon
titolrolo
titulara
tiu
tiucele
tiuepoke
tiuj
tiujare
tiujn
tiukadre
tiukaze
tiun
tiuokaze
tiurilate
tiusence
tiutempa
tiutempaj
tiutempe
tivadar
tj
tjumena
tjumeno
tjurka
tjurkaj
tk
tl
tm
tn
to
tobago
tobias
tobio
tobolsko
tochka
tod
today
todd
todo
todos
together
togolando
tokaido
tokaj
tokantinso
tokio
toksa
tokugawa
tokyo
tokyu
toledo
toleras
toleremo
toleri
tolkien
tolna
tolo
tolstoj
tom
tomas
tomaso
tomasz
tomato
tomatoes
tomatoj
tomb
tombeja
tombejo
tombejoj
tombejon
tombo
tomboj
tombojn
tombon
tombostono
tombostonoj
tome
tommaso
tommy
tomo
tompa
ton
tonalo
tonalto
tondro
toni
toniko
tonkin
tono
tonoj
tonojn
tonon
tony
too
top
topologia
topologio
tor
torao
torda
torento
torfo
torino
tormes
toro
torok
toronto
toros
torre
torres
tortenete
torturo
torun
toskanio
tosu
tot
total
totala
totalan
totale
totalo
toth
tottori
toulouse
tour
tours
tous
tout
towards
tower
town
townsend
toxic
toxicology
tp
tpl
tq
tr
tra
trabo
traboj
tracking
tractatus
trad
trade
tradicia
tradiciaj
tradiciajn
tradician
tradicie
tradicio
tradicioj
tradiciojn
tradicion
tradition
traditional
traditions
tradukado
tradukajo
tradukajoj
tradukas
tradukebla
traduki
tradukinto
tradukis
tradukistino
tradukisto
tradukistoj
tradukita
tradukitaj
traduko
tradukoj
tradukojn
tradukon
tradukvortaro
trafas
trafi
trafik
trafika
trafikas
trafiko
trafikon
trafikvojoj
trafis
trafita
trafitaj
trafluas
tragedia
tragedio
tragika
trail
train
traira
trairas
trairi
trairis
traite
trajne
trajnlinio
trajno
trajnoj
trajnojn
trajnon
trajto
trajtoj
trajtojn
trakio
trako
trakoj
trakonstruigis
trakonstruita
traktado
traktadoj
traktadon
traktajo
traktajoj
traktas
traktata
traktataj
traktato
traktatoj
traktaton
trakti
traktis
traktita
tram
trama
tramo
tramoj
tramtrajno
tramtransporto
tramvojo
trancas
tranci
trancilo
trancita
tranco
trankvila
trankvilaj
trankvile
trankvilo
trans
transactions
transdanubio
transdonas
transdoni
transdonis
transdonita
transdonitaj
transdono
transesterigo
transformado
transformas
transformi
transformigas
transformigis
transformigo
transformis
transformita
transformo
transformoj
transigo
transilien
transilvania
transilvanio
transira
transiras
transirejo
transiri
transiris
transiro
transiron
transitiva
transkarpata
translated
translation
translogigis
translokigi
translokigis
translokigita
translokigo
translokita
transmara
transmaraj
transneptunaj
transpasis
transport
transporta
transportado
transportas
transporti
transportis
transportita
transportitaj
transporto
transportoj
transporton
transportreto
transprenas
transpreni
transprenis
transprenita
transpreno
transskribo
transversa
traokula
trapasas
trapasata
trapasejo
trapasi
trapasis
travel
travers
travidebla
travivajoj
travivas
travivi
travivis
tre
treatment
trebic
trebova
treccani
tree
treege
trees
trejnado
trejnadon
trejnis
trejnisto
trek
tremis
trencin
trencsen
trends
trentino
trento
tres
treviro
trevor
trezorejo
trezoro
trezoroj
trezorojn
trezoron
tri
tria
trian
triangula
triangulaj
triangulo
trianguloj
trianon
tribo
triboj
tribunalo
tribunaloj
tribune
tricent
tridek
tridekjara
trie
trier
triesto
trifoje
trijara
trilogio
tringo
trinidad
trinidado
trinita
trinity
trinkajo
trinkajoj
trinkakvo
trinkas
trinkejo
trinkejoj
trinki
trinkis
trio
triobla
triono
trionoj
trionon
triopa
triopo
tristan
tritiko
triumfa
triumfo
triunuo
trnava
tro
troa
troan
trois
troja
trojan
trojanoj
trojo
trombono
trompi
trompis
trompo
trono
tronon
tropical
tropika
tropikaj
tropikan
tropikoj
trotuaro
trovajoj
trovas
trovata
trovataj
trovebla
troveblaj
troveblas
trovi
troviganta
trovigantaj
trovigas
trovigi
trovigis
trovis
trovita
trovitaj
trovo
trovos
trovu
troyes
trudi
trudis
true
trujillo
truman
trump
trumpetisto
trumpeto
trumpetoj
trunko
trunkoj
truo
truoj
truojn
truon
trupo
trupoj
trupojn
trupon
trust
truth
ts
tsutomu
tt
ttt
tu
tuberkulozo
tubingen
tubo
tuboj
tucker
tucson
tudor
tuj
tuja
tujan
tuje
tuko
tula
tuluzo
tumulto
tumultoj
tun
tunde
tundro
tunelo
tuneloj
tunizia
tunizio
tunizo
tunoj
tunojn
tur
turda
turdo
turdus
turfalko
turgovio
turing
turingia
turingio
turisma
turismaj
turismo
turista
turistoj
turistojn
turk
turka
turkaj
turkan
turke
turkey
turkio
turkish
turkmenio
turkoj
turku
turkujo
turn
turna
turnado
turnante
turnas
turneis
turneo
turner
turni
turnigas
turnigis
turnigo
turniro
turniroj
turnis
turnita
turno
turnu
turo
turoj
turojn
turon
turto
tusas
tusi
tusis
tuso
tut
tuta
tutaj
tutajn
tutajo
tutan
tute
tuthispanlingvuja
tutjare
tutlanda
tutlandan
tutlande
tutmonda
tutmondaj
tutmondan
tutmonde
tutmondigo
tuto
tuton
tutrusia
tv
tw
twain
twentieth
twenty
twitter
two
tx
ty
tyler
type
tz
tʁə
u
u0
u1
u2
u3
u4
u5
u6
u7
u8
u9
ua
uae
uakajama
ub
ubb
uber
ubertragen
ubuntu
uc
uccle
ud
udo
ue
uea
ueber
ueda
uefa
uesac
uf
ufa
ug
ugando
ugc
uh
uherske
ui
uj
ujezd
ujhorodo
ujo
ujoj
ujpest
ujsag
uk
ukraina
ukrainaj
ukrainan
ukraine
ukrainia
ukrainio
ukrainion
ukraino
ukrainoj
uksi
ul
ulm
ulmer
ulo
uloj
ulrich
ulrike
ultima
ultra
um
uma
umar
umberto
umelecke
umgangssprachlich
umgebung
ump
un
una
und
under
understanding
une
unesco
unesko
ung
unger
ungoj
uni
unia
unicef
uniforma
uniformaj
uniformo
unika
unikaj
unikan
unike
unikodo
unio
union
unit
unitariisma
united
univ
universal
universala
universalaj
universalan
universale
universalworterbuch
universe
universidad
universidade
universitat
universitata
universitataj
universitatan
universitato
universitatoj
universitatojn
universitaton
universite
university
universo
universon
uno
uns
unser
unsere
unter
untersuchungen
unu
unua
unuafoje
unuaj
unuajn
unuan
unuanime
unuaranga
unuarangaj
unuavice
unue
unueca
unuecan
unueco
unuecon
unuetaga
unuflanke
unufoje
unuforma
unuformaj
unuigas
unuigi
unuiginta
unuigintaj
unuigis
unuigita
unuigitaj
unuigo
unuigon
unuj
unujara
ununava
ununombro
ununura
ununuran
unuo
unuoj
unuojn
unuon
unuopa
unuopaj
unuopajn
unuopajo
unuope
unuopuloj
unusola
unusolan
uo
up
uparrow
update
upon
upper
uppsala
upsalo
uq
ur
uragano
uralo
urania
uranio
urano
urata
urb
urba
urbaj
urbajn
urban
urbano
urbanoj
urbaro
urbego
urbegoj
urbestraro
urbestro
urbestroj
urbeto
urbetoj
urbeton
urbigis
urbo
urbocentro
urbocentroj
urbodistrikto
urbodomo
urboj
urbojn
urbokerno
urbokvartalo
urbon
urboparto
urbopartoj
urborajton
urbotipa
urdua
ureo
urga
urge
uri
urino
urio
url
ursino
urso
ursoj
ursula
ursus
urugvaja
urugvajo
us
usa
usd
usda
use
used
uses
usgs
using
usona
usonaj
usonajn
usonan
usonano
usonanoj
usono
usonon
uss
ussel
ussr
usted
uster
usti
ut
utaho
utc
utca
utf
utgafa
utila
utilaj
utilas
utileco
utili
utiligas
utiligata
utiligi
utiligis
utiligita
utiligitaj
utiligo
utilis
utilo
utilon
utnoa
utopia
utopio
utrecht
utrehto
utsi
utunk
uu
uv
uverturo
uw
uwe
ux
uy
uz
uzado
uzadon
uzanta
uzantaj
uzante
uzanto
uzantoj
uzas
uzata
uzataj
uzatajn
uzatan
uzatas
uzbeka
uzbekio
uzebla
uzeblaj
uzeblas
uzi
uzigas
uzigis
uzino
uzinoj
uzis
uzita
uzitaj
uzo
uzoj
uzon
uzos
uzu
v
v0
v1
v2
v3
v4
v5
v6
v7
v8
v9
va
vac
vaclav
vadbirdoj
vaganta
vaganto
vagonaro
vagono
vagonoj
vagy
vah
vaisala
vajda
vajmara
vajmaro
vakcino
vakso
vakuo
val
vala
valadolido
valbarajo
valcea
valdes
vale
valea
valence
valencia
valencio
valentin
valentino
valerato
valeria
valerie
valery
valezo
valida
validaj
validas
validis
valladolid
valle
vallee
vallejo
valles
valley
valo
valogatott
valois
valoj
valon
valora
valoraj
valorajn
valoran
valoras
valoro
valoroj
valorojn
valoron
value
valuta
valuto
valutoj
valverde
valvo
van
vana
vancouver
vando
vane
vango
vangoj
vankuvero
vanuatuo
vaporo
vaporsipo
var
vara
varbis
varepsilon
varga
vargas
varia
variablo
variabloj
variado
variaj
variajn
variajo
variajoj
variantaj
varianto
variantoj
varias
variation
varieco
varii
variis
vario
varioj
variolo
varion
varma
varmaj
varman
varme
varmega
varmegaj
varmego
varmegye
varmigas
varmigo
varmio
varmo
varmon
varo
varoj
varojn
varphi
varsovia
varsovio
varstacidomo
vary
vas
vasa
vasari
vasco
vasilij
vasingtonio
vasingtono
vasta
vastaj
vastajn
vastan
vaste
vastigis
vater
vatikana
vatikano
vaucluse
vauda
vaudo
vaughan
vaux
vaz
vazo
vazoj
vazquez
vb
vc
vcc
vd
ve
vec
veda
vega
vegalta
vegas
vegetajaro
vegetala
vegetarano
vegetarismo
vegetation
veit
vejnoj
vekas
veki
vekigis
vekigo
vekis
vektora
vektoro
vektoroj
velazquez
velikij
velka
velke
velky
velo
ven
venanta
venas
venceslao
vendado
vendas
vendata
vendataj
vendee
vendejo
vendejoj
vendi
vendigis
vendis
vendisto
vendita
venditaj
vendo
vendoj
vendome
vendrede
vendredo
venecia
venecio
venena
venenaj
veneno
veneto
venezia
venezuela
venezuelo
venge
vengi
vengo
vengon
veni
venigi
venigis
veninta
venintaj
venis
venka
venkas
venki
venkinta
venkinto
venkintoj
venkis
venkita
venkitaj
venko
venkoj
venkon
venkos
veno
venonta
venontaj
venontan
venos
vent
venta
ventego
ventforet
vento
ventoj
venton
ventro
ventron
ventura
venu
venus
venuso
ver
vera
veracruz
veraj
verajn
veraltet
veran
veras
verb
verba
[...]
