!
"
#
##0
##1
##10
##11
##12
##13
##14
##15
##16
##17
##18
##19
##2
##20
##21
##22
##23
##24
##25
##26
##27
##28
##29
##3
##30
##31
##32
##33
##34
##35
##36
##37
##38
##39
##4
##40
##41
##42
##43
##44
##45
##46
##47
##48
##49
##5
##50
##51
##52
##53
##54
##55
##56
##57
##58
##59
##6
##60
##61
##62
##63
##64
##65
##66
##67
##68
##69
##7
##70
##71
##72
##73
##74
##75
##76
##77
##78
##79
##8
##80
##81
##82
##83
##84
##85
##86
##87
##88
##89
##9
##90
##91
##92
##93
##94
##95
##96
##97
##98
##99
$
%
&
'
(
)
*
+
,
-
.
/
0
00
000
0000
000000
0001
001
002
003
005
007
008
009
01
010
012
013
017
01745329252
019
02
03
030
031
04
05
06
07
08
09
1
10
100
1000
10000
1000000
1005
101
101325
1014
1016
1017
1018
102
1024
1026
103
10308
1034
1035
1037
1039
104
1040
1042
1044
1046
105
1050
1054
1055
1058
1059
1066
1069
107
1070
1071
1074
1077
108
1080
1081
1082
109
1093
11
110
1100
1101
1102
1106
111
112
1125
1126
1127
113
1130
1138
1139
114
1142
1145
115
1154
1156
116
1162
1163
117
118
1180
1185
1186
119
1190
12
120
1200
1204
1206
1225
123
1234
123456
123456789
124
125
1250
126
1261
1266
127
1270
128
1280
1282
129
1292
1296
13
130
1301
1305
1306
1308
131
1314
1318
132
1328
133
1331
1349
135
1350
1368
1369
1370
1371
138
1387
1388
139
1390
1399
14
140
1400
141
1410
1412
1422
1427
1429
143
1437
144
145
1453
1457
1458
1461
1469
1470
1471
1479
148
1485
149
1492
1498
15
150
1500
1502
1516
152
1521
1526
153
1536
154
1549
1558
1571
1572
1573
158
1580
1582
1586
1589
15919
15924
16
160
1600
1603
1620
1629
1634
164
1640
1644
165
1654
166
1674
168
1688
169
1690
1695
17
170
1700
1701
1704
1707
1713
1714
1720
1728
1733
1735
1736
1745
175
1751
1752
1754
1757
1758
1759
176
1763
1764
1767
1775
1778
1782
179
1792
1795
18
180
1801
1802
1803
1804
1813
1814
1818
182
1830
1839
184
1842
1848
185
1852
1853
1857
1858
1860
1861
1863
1865
1867
1868
187
1870
1871
1872
1873
1874
1878
1883
1884
1886
1888
189
1890
1897
1899
19
190
1900
1901
1903
1904
1905
1906
1907
1908
1909
191
1910
1911
1912
1913
1914
1915
1917
1918
1919
192
1920
1921
1922
1923
1925
1926
1927
1928
1929
193
1930
1931
1932
1933
1934
1935
1936
1939
194
1940
1941
1942
1943
1944
1945
1946
1947
1948
1949
195
1950
1951
1952
1953
1954
1955
1956
1957
1958
1959
196
1960
1961
1962
1963
1964
1965
1966
1967
1968
1969
1970
1971
1972
1973
1974
1975
1976
1977
1978
1979
198
1980
1981
1982
1983
1984
1985
1986
1987
1988
1989
199
1990
1991
1992
1993
1994
1995
1996
1997
1998
1999
2
20
200
2000
2001
2002
2003
2004
2005
2006
2007
2008
2009
201
2010
2011
2012
2013
2014
2015
2016
2017
2018
2019
202
2020
2021
2022
2023
204
206
207
208
21
210
2107
212
216
217
22
220
221
224
226
23
230
233
234
235
236
238
24
240
244
245
248
25
250
252
2524
253
255
256
26
260
264
265
27
270
275
28
280
284
29
290
3
30
300
301
303
304
305
308
309
31
315
31557600
31635
3166
316846592
32
320
32424
33
332
336
34
343
344
35
350
352
355
36
360
3600
364
37
373
375
378
379
38
380
39
390
396
398
4
40
400
404
407
41
410
412
42
420
422
424
428
43
432
4327
434
44
45
450
453
456
457
46
460
469
47
48
480
49
5
50
500
501
502
503
51
518
52
524
525
529
53
531
534
54
544
55
550
56
562
57
570
58
580
581
585
59
599
6
60
600
602
602176487
61
610
618
62
621
63
639
64
640
65
650
66
660
668
67
68
684
69
690
695
698
7
70
700
701
705
709
71
711
712
72
720
728
73
732
734
739
74
740
748
75
750
751
752
753
758
76
77
775
78
785411784
789
79
8
80
800
802
80665
81
82
828
83
8316846592
84
842
843
85
850
854
856
86
8601
87
88
883
89
9
90
900
905
907
91
910
911
92
93
930
935
94
947
95
950
96
960
961
97
976
978
9781787011991
9788170993810
9788180697999
979
98
980
987
989
99
997
999
9999
:
;
<
=
>
?
@
\
^
_
`
a
aa
aaa
aag
aai
aan
aap
ab
aba
abandon
abbr
abbrev
abbreviate
abbreviated
abbreviation
abbreviations
abbrn
abc
abdul
abe
abigail
ability
abkai
abkhaz
able
aboriginal
abortion
about
above
abovebelow
aboveclass
abovestyle
abp
abraham
abs
absence
absent
absolute
abstract
abu
abuse
ac
acacia
acade
academia
academic
academy
acanthocarpus
acc
acceleration
accents
accept
acceptable
acceptance
accepted
accepts
access
accessdate
accessed
accessibility
accessible
accession
accidental
accompanied
according
accordingly
account
accountcreator
accounts
accuracy
accurate
accurately
ace
achaemenid
acharius
acharya
ache
achieve
achieved
achievement
acid
acquired
acquisition
acre
acres
across
act
acting
action
actions
activate
active
activists
activities
activity
actor
actors
actress
actresses
acts
actual
actually
ad
ada
adam
adams
adapt
adb
add
addcalendar
addcat
addclass
added
addiction
adding
addition
additional
additionally
additions
addnamed
addon
addoption
address
addressed
addresses
adds
adi
aditya
adivaani
adivasi
adj
adjacent
adjectival
adjust
adjusted
adm
admin
administered
administration
administrative
administrator
administrators
admins
adminship
ado
adopted
ads
adsl
adult
advance
advanced
advantages
advertising
advice
advised
advisor
advisors
adyghe
ae
aerial
af
afb
afc
afd
affairs
affect
affected
affects
affiliate
affiliates
affiliations
affricate
afghan
afghanistan
africa
african
afrikaans
afro
after
ag
again
against
agardh
age
agency
agent
agents
ages
ago
agree
agreement
agricultural
agriculture
agta
ah
ahead
ahmed
ahmedabad
ahom
ahref
ai
aid
aided
aids
aim
aimed
aims
ain
ainu
air
aircraft
airdate
airport
airports
ais
aise
aiswa
aizawl
aizi
aja
ak
aka
akademi
akan
akane
akbar
akkadian
al
ala
alabama
alan
alappuzha
alaska
alba
albania
albanian
albeit
albert
albetudu
album
alcohol
alert
aleut
alexa
alexander
alfred
algae
algarum
algebra
algeria
algerian
algonquian
algorithm
algorithms
ali
alias
aliases
aliaseslist
aliasesp
alighieri
align
alignclasses
aligned
alignment
alive
all
allahabad
allcat
alldone
alliance
allindiaaseca
allow
allowblankparams
allowed
allowing
allows
allowsmall
alma
almost
alo
alone
along
alongside
alpha
alphabet
alphabetic
alphabetical
alphabetically
alphabets
alphascale
already
also
alt
alta
altai
altaic
alter
alternate
alternative
alternatively
alternativemap
alternatives
although
altlbl
altname
alttot
alttype
altvalue
alu
alumni
alveolar
alveolo
always
am
ama
amar
amazon
ambala
ambassador
ambedkar
ambiguity
ambiguous
ambox
amended
america
american
americas
amharic
ami
amid
amis
amit
amn
among
amount
amp
ampersand
amrita
amritsar
amsterdam
amuzgo
an
ana
anacardium
analysis
analyze
anand
anarchism
anatomical
anatomy
ancash
ancestor
anchor
anchors
ancient
and
andaman
andersen
anderson
andhra
andlist
andrew
android
andy
ang
angal
angel
angela
angeles
angiosperms
angle
anglo
angola
ani
anil
animal
animalia
animals
animation
anjali
anjou
ann
anne
anniversary
anno
annotated
annotation
annotations
announce
announced
announces
annual
annum
anonymous
another
ans
answer
answers
ant
antarctica
anterior
anthem
anthology
anthony
anthropology
anti
antibody
antidisestablishmentarianism
antigua
anton
antonian
ants
antu
anu
anus
any
anylang
anyone
anything
anyway
anywhere
ao
ap
apa
apache
apart
apg
api
apo
apostrophe
apostrophes
app
apparently
appear
appearance
appearances
appeared
appearing
appears
append
appendchild
appended
appending
appendix
appends
apple
apples
applicable
application
applications
applied
applies
apply
applying
appoint
appointed
approach
approaches
appropriate
approval
approved
approx
approximant
approximate
approximated
approximately
approximation
apps
apr
april
apsrtc
aquatic
ar
ara
arab
arabia
arabian
arabic
aragon
aragonese
aramaic
arbitrary
arc
arch
archaeological
archaeology
archaic
archery
architect
architectural
architecture
archive
archived
archivedate
archiveis
archives
archiveurl
archiving
arctic
are
area
areas
areaunit
aren
arg
argentina
argkeys
arglist
argname
argnumber
args
argsbirth
argscount
argsdeath
argsi
argsk
argskey
argsparam
argsprefix
argstable
argsv
argument
arguments
ari
aria
aristotle
arithmetic
ariyalur
arizona
arjuna
arm
arma
armed
armenia
armenian
armn
arms
armstrong
army
aromanian
around
arp
arr
arranged
arrangement
array
arrays
arrow
arrows
ars
art
artery
arthur
article
articles
articleshow
articulation
artificial
artist
artists
arts
artsakh
aruba
arunachal
arxiv
aryan
as
asbox
ascii
aseca
asha
ashe
ashram
ashton
ashwani
asi
asia
asian
asiatic
asin
ask
asked
asmat
asp
aspect
aspects
aspirin
aspx
assam
assamese
assemble
assembleoutput
assembly
assert
assessment
assessor
assets
assign
assigned
assignment
assistance
assistant
associated
association
assume
assumed
assumes
assuming
assyrian
ast
astacus
asterids
asteroid
astronomical
astronomy
asturian
asturiana
asu
asuri
at
ata
atc
atcvet
atha
athens
athlete
athletes
athletics
ati
atlantic
atlas
atm
atmosphere
atom
atomic
atta
attached
attack
attacks
attempt
attempts
attend
attention
attila
attr
attractions
attribs
attribute
attributed
attributeerror
attributes
attribution
attrs
au
auc
aud
audio
audiovisual
aug
august
augustus
aum
aur
aurangabad
auritra
aus
austin
australia
australian
austria
austrian
austro
austroasiatic
austronesian
author
authorcite
authored
authorities
authority
authorlink
authorlist
authormask
authorn
authors
auto
autoconfirmed
autofill
autofillid
autofillprop
automated
automatic
automatically
autonomous
autoreview
autotaxobox
autotaxon
autotaxontype
autotype
autovalue
autowikibrowser
autumn
auxiliary
av
ava
availability
available
avar
average
avg
aviation
aviz
avn
avoid
avoided
avoids
awa
awami
award
awarded
awardees
awards
aware
awareness
away
awb
awyu
axis
ay
aymara
ayta
az
azad
azerbaijan
azerbaijani
b
ba
bab
baba
babar
babasaheb
babu
baby
bach
bachchan
back
background
backgroundcolor
backgrounds
backs
backtranslate
backward
backwards
bacteria
bad
bada
badge
badges
badminton
baga
bagerhat
bageshwar
bagh
bagmati
bagri
bags
bah
baha
bahadur
bahamas
bahasa
bahraich
bahrain
bai
bainouk
bal
balasore
bali
balinese
ball
baloch
balochi
balochistan
balochistanpolice
baltic
bambara
bamboo
ban
banana
bananas
bananasargs
band
banda
bandar
bandarban
bandipur
banerjee
banga
bangalore
bangkok
bangla
bangladesh
bangladeshi
banjan
bank
banks
banned
banner
banners
bannertemplate
baptist
bar
barack
barak
barargs
barbox
barbuda
barcelona
bardhaman
bare
bareli
barhi
bari
baripada
barlabelcellstring
barn
barrel
barrels
bars
barwidth
bas
basa
base
baseball
baseconvert
based
baseline
basemap
bases
basestyle
baseurl
bashkir
basho
basic
basically
basics
basin
basis
basketball
baskey
basque
bassa
basu
bat
bata
batak
bati
battery
batting
battle
battles
batu
bau
bauer
baul
bavaria
bavarian
bay
baz
bazar
bb
bba
bbc
bbl
bc
bce
bcp
bcrec
bd
bdi
be
beach
bear
beat
beating
became
because
become
becomes
becoming
bee
been
bees
before
began
begin
beginner
beginners
beginning
begins
behalf
behave
behavior
behaviour
behind
bei
beijing
being
beja
bel
belarusian
belgian
belgium
belief
believe
belize
belkermak
bell
belly
belong
belongs
below
belowclass
belowstyle
ben
bench
benefit
beng
bengal
bengali
benin
ber
berawan
berber
berlin
beside
best
bet
beta
better
between
beverage
beyond
bf
bg
bgcolor
bgd
bgn
bh
bhagat
bhaji
bharat
bharatanatyam
bharati
bharatiya
bharatnatyam
bharatpur
bhasa
bhaskar
bhatt
bhavan
bhawan
bhi
bhojpuri
bhopal
bhoti
bhubaneswar
bhulekh
bhushan
bhutan
bi
biao
bibcode
bible
bibliographic
bibliography
bicycle
bidayuh
bie
big
bigger
biggest
bih
bihar
bihari
bijapur
bijendra
bikol
bilabial
bilingual
bill
billiard
billion
billions
bin
bina
binomial
bio
biodata
biodiversity
biographical
biographies
biography
biological
biology
biopic
biorxiv
biota
birbhum
bird
birds
birth
birthday
birthplace
births
birthsplitcount
bishnupriya
bislama
bit
bitstream
biz
bjp
bl
black
blacklist
bladder
blank
blanks
blasi
blench
blind
block
blocked
blocks
blog
blogs
blogspot
blood
bloomberg
blue
blurb
blurbobj
bm
bn
bo
board
boats
bob
bodies
bodo
body
bodyclass
bodyrow
bodystyle
boilerplate
boiling
boishakh
bokaro
bokma
bol
bold
bolded
boldfacing
bolding
bolivia
bolivian
bollywood
bolpur
bom
bombay
bon
bonaparte
bond
bone
bontok
bonus
boo
book
bookdata
books
booksources
boolean
bopomofo
bor
border
bordered
borders
borderstyle
borges
born
boro
borough
bose
bosnia
bosnian
boss
boston
bot
botanical
botanist
botany
both
bother
bots
botswana
bottom
boulder
bound
boundaries
bourbon
bow
bowling
box
boxargs
boxes
boxing
boxtable
boxtype
boy
bozo
bp
bpmf
bps
br
bra
braces
bracket
bracketed
brackets
braganza
brain
branch
branches
branchlengthstyle
branchstyle
brand
brands
brazil
brazilian
bre
break
breaking
breaks
breakthrough
breast
breathing
breton
brgf
bridge
bridges
brief
briefly
brill
bring
britain
britannica
british
broad
broadcast
broadcasting
broken
bronze
broom
brother
brought
brown
browse
browser
browsers
bru
bruce
brunei
bs
bsh
bst
btc
btu
bu
bua
buc
buddha
buddhism
buddhist
budget
buffer
buffers
bug
bugs
build
buildargs
builder
building
buildings
built
builtin
bulgaria
bulgarian
bullet
bulleted
bulletin
bullets
bump
bumps
bun
bunu
bureau
bureaucrat
bureaucrats
burgundy
burial
buriat
buried
burkina
burma
burmese
burundi
buryat
bus
bushel
business
businesspeople
businesswomen
but
butea
butter
button
buttonimage
buttons
buyang
bwf
by
byron
byte
bytes
byzantine
c
ca
cabinet
cable
cache
cached
cadet
caicos
cairo
cal
calculate
calculated
calculates
calculation
calculations
calcutta
calendar
calendarbox
calendargroup
calendars
california
caliphate
call
callback
called
caller
calling
callparserfunction
calls
callsign
calorie
calories
cambodia
cambrian
cambridge
came
camel
camera
cameroon
camp
campaign
campaignbox
campanulids
campbell
can
canada
canadian
canal
canberra
cancel
cancer
candidate
candidates
candidatus
cannot
canonical
cans
cantonese
canvas
cao
cap
capacity
cape
capet
capetian
capital
capitalised
capitalism
capitalization
capitalize
capitalized
capitals
capra
caps
captain
captains
caption
captions
captionstyle
capture
captured
captures
car
carbon
card
cardinal
care
career
caribbean
carl
carnatic
carolina
carolingian
carter
cartography
cas
cascade
cascading
case
cases
cashew
cast
caste
castile
castle
casualties
cat
catalan
catalana
catalog
catalogue
catch
categories
categorisation
categorise
categorization
categorize
categorized
categorizing
category
categoryhandler
categorylink
catholic
catname
cats
cattitle
caucasian
cause
caused
causes
causing
cb
cbb
cbc
cbs
cbse
cc
ccc
ccd
cd
cda
cdc
ce
ceb
cebuano
ceil
cel
celebrating
celebration
celebrity
cell
cellprops
cells
celsius
celtic
cemetery
census
censusindia
cent
center
centered
centers
centimeter
centimetre
centimetres
central
centre
centres
centrifugal
centrolenidae
centuries
century
ceo
cephbase
ceremony
certain
certificate
cervantes
cet
ceylon
cf
cfb
cfg
cgi
ch
cha
chad
chagatai
chain
chained
chaining
chains
chairman
chairperson
chakma
challenge
challenged
cham
chamber
chamorro
champa
champion
champions
championship
championships
chan
chance
chanchlani
chand
chandigarh
chandra
chang
change
changed
changes
changetype
changing
channel
channels
chapel
chaplin
chapter
chapters
chapterurl
char
character
characteristics
characters
charan
charge
charity
charles
charlie
chars
chart
charter
chartmarks
charts
charttype
chartvis
chat
chatino
chatterjee
chavacano
chawla
che
chebi
chechen
check
checkdigit
checked
checker
checking
checks
checkself
checksum
checktype
checktypefornamedarg
checktypemulti
checkuser
checkusers
chekhov
chem
chembl
chembox
chemical
chemicals
chemistry
chemspiderid
chen
chennai
cher
cherokee
chess
chewa
cheyenne
chhattisgarh
chi
chicago
chichewa
chicken
chief
chiefs
chiki
child
childbirth
childhood
childnumber
children
chile
chilika
chin
china
chinantec
chinese
chip
chittagong
chn
cho
choctaw
choice
chomsky
chontal
choose
choosing
chopra
choreographers
chosen
chowk
chr
chris
christ
christian
christianity
christmas
christopher
chrome
chronicle
chronological
chronology
chu
chunk
church
churchill
chutney
chuvash
ci
cia
ciaaw
cid
cine
cinema
circa
circle
circuit
circulation
circumference
circumstances
circus
cis
citation
citationclass
citations
cite
cited
citediv
citemain
citemore
citeparams
citeq
citeref
cites
citeseerx
citeselect
citetb
citetemplate
citetoolbar
citeweb
cities
citing
citizen
citizenship
citoid
citrus
city
civil
civilian
civilization
cjk
cl
clade
clades
cladestring
cladogram
cladograms
claim
claimcommands
claimed
claims
clarendon
clarification
clarify
clarity
class
classes
classic
classical
classics
classification
classified
classinfo
classis
classmethods
classname
classstring
claudian
claudius
clause
clauses
clean
cleannumber
cleanup
clear
clearly
cleveland
click
clickable
clicked
clicking
clicks
client
climate
clinical
clip
clips
clock
clone
close
closed
closely
closer
closing
clothing
cloud
clouds
cls
clskey
club
clubs
cluster
clutter
cm
cmbox
cmn
cms
cmt
cn
cnn
cnr
co
coa
coach
coast
coastal
coat
coatla
coauthors
coburg
cocos
code
coded
codepoint
codes
coding
coercion
coffee
coins
col
colclass
cold
colhead
colin
collaboration
collaborative
collapse
collapsed
collapsible
collapsibles
collect
collected
collection
collections
collective
collector
collectorate
college
colleges
collins
colloquial
colombia
colombo
colon
colonial
colonies
colons
color
colorado
colored
colorfield
colors
colorscale
colour
colours
cols
colspan
colstyle
columbia
columbus
column
columns
com
comb
combatant
combatants
combination
combinations
combine
combined
combining
combo
combos
come
comedians
comedy
comes
comic
coming
comma
command
commander
commanders
commands
commas
commelinids
comment
commentary
comments
commerce
commercial
commission
commissioner
committee
committees
common
commonly
commons
commonssitelink
commonwealth
communication
communications
communis
communist
communities
community
commuter
como
comorian
comoros
comp
compact
companies
companion
company
comparative
compare
compared
comparedisplay
comparelink
compares
compareurl
comparing
comparison
comparisons
compass
compatibility
compatible
competed
competing
competition
competitions
competitors
compiled
complete
completed
completely
complex
compliance
complicated
comply
component
components
composed
composers
composite
composition
compound
comprehensive
compressed
compresssparsearray
comptox
compute
computer
computers
computing
con
concat
concatenate
concatenation
concave
concentrated
concentration
concept
concepts
concern
concerning
concerns
concise
condition
conditional
conditions
conduct
conducted
conf
confederation
conference
conferenceurl
confessions
config
configtables
configuration
configured
confirm
confirmed
conflict
conflicting
conflicts
confucius
confused
confusing
confusion
congo
congress
conjunction
connect
connected
connecting
connection
connections
conquered
consecutive
consensus
consent
conservation
consider
considered
consist
consistency
consistent
consistently
consisting
consists
console
consonant
consonants
consortium
constant
constantinian
constituencies
constituency
constitution
constitutional
constraint
construct
constructed
construction
consult
consumer
contact
contain
contained
container
containing
contains
contemporary
content
contentargs
contentindex
contentious
contents
contest
contestants
context
contiguous
continent
continents
continue
continued
continuous
contract
contracted
contrast
contribute
contributing
contribution
contributions
contributor
contributorlist
contributors
control
controlled
controlling
controls
controversial
controversy
convenience
convenient
convention
conventions
conversation
conversations
conversion
conversions
convert
converted
converter
converting
converts
convey
conveys
convinfobox
cook
cookie
cooperation
coor
coord
coordinate
coordinates
coordinatespec
coordination
coords
copied
copies
coptic
copy
copying
copyright
copytable
corbusier
cord
core
cornell
corner
cornish
coronavirus
corporate
corporation
corporations
corps
corpus
correct
corrected
corrections
correctly
correspond
correspondence
corresponding
corresponds
corridor
corruption
coruler
cos
cosmoglotta
costa
costs
could
council
count
counted
counter
counting
countries
country
counts
county
coup
course
courses
court
courtesy
cov
cover
coverage
covered
covering
covers
covid
cox
cp
cprt
cpu
cr
crab
crc
cream
create
created
createelement
createlink
creates
creating
creation
creative
creator
credit
credited
cree
creek
creole
creoles
crescent
crest
cricinfo
cricket
cricketer
cricketers
cricmatch
crime
crimean
crimes
criminal
crit
criteria
critical
critically
criticism
critics
croatia
croatian
crocodile
crop
cropped
crops
cross
crosses
croton
crown
crystal
cs
cscr
cse
csinha
css
csstext
csv
ct
ctas
ctx
cu
cuba
cubic
cuft
cuin
cuisine
cultural
culture
cultures
cumulative
cuneiform
cup
cur
curie
curlie
curly
currency
current
currentdate
currently
currenttitle
cursor
curstate
custom
customary
customized
customtoggles
cut
cuyd
cv
cvt
cwt
cy
cycle
cyclone
cypriot
cyprus
cyrillic
cyrl
cyrs
cyst
czech
d
da
daa
dab
dabs
dadra
dahar
dai
daily
dailymedid
daju
dakota
dal
dali
dalit
dall
dam
daman
damascus
dame
dan
dance
dancer
dancers
dances
dancing
dani
danish
dans
dante
dao
dar
dari
dark
darkmode
darwin
das
dash
dashboard
dashes
data
database
databases
datalength
datamodule
datarow
datastyle
datatype
datavalue
date
dated
dateformat
datein
datelist
datelisti
dateprecision
dates
datestr
datetime
dattes
daughter
dav
david
davis
daw
dawn
day
daylight
days
db
dc
dchb
dd
ddd
ddw
de
deaccent
dead
deadurl
deal
dealing
dear
death
deaths
deathsplitcount
debate
debug
debugging
debut
dec
decade
decat
deccan
december
decide
decided
deciding
deciduous
decimal
decimalprecision
decimals
decision
declaration
declare
declared
decode
decodewaybackdate
decoration
decrease
dedicated
deep
deepcopy
def
default
defaultns
defaults
defaultvalue
defaultword
defeat
defeated
defeating
defect
defence
defending
defense
deficiency
define
defined
defines
defining
definition
definitions
defunct
deg
degree
degrees
dehradun
dei
deignan
del
delaware
delay
delete
deleted
deleting
deletion
delhi
delim
delimit
delimiter
delimiters
delink
delisted
delivered
delivery
delta
dem
demand
demo
democracy
democratic
demographics
demonstrate
demonstrates
demonstration
demonym
demospace
den
dene
denmark
denominator
denote
denoting
dens
density
densityus
dental
dep
department
depend
dependencies
dependency
dependent
depending
depends
depicted
deprecated
depression
dept
depth
deputy
deputyminister
der
derived
des
desc
descartes
descended
descent
describe
described
describes
describing
description
descriptions
descriptive
desert
design
designated
designation
designations
designed
designers
desirable
desired
desk
desktop
despite
destination
destructive
destubbing
detail
detailed
details
detect
detected
detecting
detection
detects
determination
determine
determined
determines
determining
deu
deutsch
deutsche
dev
deva
devanagari
developed
developer
developers
developing
development
devi
device
devices
dew
dewas
df
dhaka
dhalai
dhanbad
dhar
dharma
dhimal
dhivehi
dhm
dhsodisha
dhule
dhyan
di
dia
diabetes
diacritics
diagonal
diagram
dialect
dialects
dialog
dialogs
diameter
diamond
diaspora
dickens
dictionaries
dictionary
dictionnaire
did
dida
die
died
diego
diet
dietrich
diff
differ
difference
differences
different
differently
differs
difficult
dig
digit
digital
digits
dil
dili
dilip
dim
dimensions
dimli
din
dinajpur
dinka
dinosaurs
dir
direct
directed
direction
directions
directives
directly
director
directorate
directors
directory
disabilities
disable
disabled
disables
disambig
disambiguation
disambiguator
disappeared
disaster
disc
discharge
discontinued
discouraged
discourse
discovered
discoveries
discovery
discuss
discussed
discussing
discussion
discussions
disease
diseases
disney
disorder
disorders
disp
dispersal
display
displayauthors
displayed
displaying
displays
displayspan
displaytitle
dispute
disputed
disputes
disqualified
disruptive
dissertation
dissolved
dist
distance
distinct
distinction
distinguish
distribution
district
districtcensus
districts
diu
div
diverse
diversity
divide
divided
divine
divisio
division
divisions
divs
dj
dk
dl
dll
dm
dmoz
dms
dmy
dna
dname
dng
do
doc
docket
docname
docpage
docpagebase
docs
docspace
doctitle
doctor
doctoral
doctorate
document
documentary
documentation
documented
documenting
documents
dodo
doe
does
doesn
dog
dogon
dogri
doha
doi
doing
dollar
dollars
dom
domain
domains
dome
domestic
dominion
don
done
dong
dora
doraemon
dos
dosa
dose
dot
dots
dotted
double
doubled
doubt
dow
down
downcase
download
downloadable
downloaded
downloads
dp
dq
dr
draft
drafting
dragon
drama
dravidian
draw
drawing
drawn
drbg
dream
drink
drive
dropdown
drug
drugbank
drugs
dry
ds
dst
dt
du
dual
dubai
duct
due
duke
dulo
dummy
dump
dunam
dunams
dungan
dup
duplicate
duplicated
duplicates
duration
durga
during
durrani
dusun
dutch
duty
dv
dvd
dx
dxv
dy
dynasties
dynasty
dynend
dynlink
dynstart
dystrophy
dz
dzongkha
e
ea
each
eagle
ear
earlier
earliest
early
earth
earthquake
ease
easier
easily
east
eastern
easy
eb
ebchecked
ebook
ec
ece
ecfcf
eci
economic
economics
economictimes
economy
ecr
ecuador
ed
ede
edge
edinburgh
edirne
edison
edit
editable
editathon
edited
editing
editintro
edition
editions
editlink
editor
editorial
editorlist
editors
editprot
editrequest
edits
edn
edo
eds
edu
education
educational
educators
edw
edward
edwards
ee
eee
ef
effect
effective
effectively
effects
efficiency
efficient
effort
efforts
eg
egypt
egyptian
eh
ei
eid
eight
eighth
einstein
eissn
either
ejective
ek
el
elaeagnus
ele
elected
election
elections
electric
electrical
electricity
electrified
electron
electronic
electronics
electronvolt
elem
element
elements
elengi
elephant
elevation
eleventh
eligible
eliminated
elizabeth
else
elseif
elsevier
elsewhere
em
ema
email
embargo
embargoed
embassy
embed
embedded
embedding
embera
emblem
emblica
embryology
emergency
emirates
emission
emit
emits
emoji
emperor
emperors
emphasis
empire
employees
empty
emyslid
en
ena
enable
enabled
enables
enclose
enclosed
encode
encoded
encodeuricomponent
encoding
encounter
encourage
encouraged
encyclopaedia
encyclopedia
encyclopedic
encyclopædia
end
endangered
endash
endashes
endbox
ended
ending
endocrine
ends
endtime
endtimey
endyear
energy
enforcement
eng
engage
engine
engineer
engineering
engines
england
english
engvar
enhanced
enough
ensign
ensure
ensures
enter
entered
entering
entertainment
entire
entirely
entities
entity
entityid
entrance
entries
entry
enum
enumerated
enumerator
env
envfuncs
environment
environmental
enwiki
eo
epa
epaper
epbc
epi
epic
epiglottal
episode
eq
equal
equality
equals
equation
equations
equatorial
equipment
equity
equivalent
equivalents
er
era
eradata
eras
erg
eric
ericoides
erik
erjiang
ernest
err
errend
errformat
errmiss
errns
error
errorcheck
errororentity
errorprinter
errors
errortext
errs
erzya
es
esc
escape
escaped
escapepattern
escstr
ese
espan
especially
esperanto
essay
essays
essential
essentially
est
esta
established
establishments
estate
estimate
estimated
estimates
estonia
estonian
et
etal
etc
ethi
ethics
ethiopia
ethiopian
ethnic
ethnologue
etymological
etymology
eu
euasterids
eudicots
eugene
euler
euro
europa
europe
european
eurosids
ev
evaluate
evaluates
evaluation
even
event
events
eventually
ever
everest
every
everyone
everything
evidence
evolution
ew
ewe
ex
exact
exactly
example
examples
exceed
excellent
except
exception
exceptions
exchange
exclamation
exclude
excluded
excluding
exec
executed
execution
executive
executives
exercise
exhaust
exhibition
exile
exist
existed
existence
existent
existing
exists
exit
exp
expand
expanded
expanding
expands
expandtemplate
expandtemplates
expansion
expected
expects
expecttype
expecttypes
expensive
experience
experienced
experiment
experimental
expiry
explain
explained
explains
explanation
explanations
explanatory
explicit
explicitly
exploration
explore
explorer
exponent
exponents
export
exported
exports
exposure
expr
express
expressed
expression
expressions
ext
extant
extend
extended
extendedascii
extendedconfirmed
extends
extension
extensions
extensiontag
extensive
extent
external
externally
extinct
extinction
extra
extraclasses
extract
extracted
extracts
extraneous
extras
extremely
eye
eyes
ez
f
fa
fabids
fabricius
face
facebook
faced
facial
facilities
facility
fact
factbook
factor
factors
factory
facts
factsheets
faculty
fagu
fahrenheit
fail
failed
failing
fails
failsafe
failure
fair
fairly
faith
fake
fali
fall
fallback
falling
fallingrain
falls
false
fam
fame
familia
familiar
families
family
famous
fan
fang
fao
faq
far
fargs
farm
farmer
farmers
faroese
farther
fas
fashion
faso
fast
faster
fasting
fat
fatal
fate
father
fault
favor
fax
fb
fc
fd
fda
fdate
fe
feasible
feature
featured
features
featuring
feb
february
fed
fedcup
federal
federation
feed
feedback
feel
feet
fehler
felis
felix
fellows
female
feminism
ferns
festival
festivals
fetch
fetched
fetches
fetchwikidataurl
fever
few
ff
fff
ffffff
fg
fi
fiba
fiction
fictional
field
fielding
fieldobj
fields
fieldsi
fifa
fifteen
fifth
fifty
fight
fighting
figure
figures
fiji
fijian
file
filename
files
filipino
fill
filled
filler
filling
film
filmfare
filmography
films
filter
final
finalize
finally
finalresult
finals
finance
financial
find
finder
finding
findlang
finds
findword
fine
finish
finished
finite
finland
finnish
finno
fire
firearm
firefox
firm
first
firstinitial
firstletter
firstn
firstpost
fiscal
fish
fistula
fit
fiu
five
fix
fixed
fixes
fixing
fj
fl
flag
flagcountry
flagged
flagicon
flagioc
flags
flap
flash
flat
flavian
flemish
flex
flexibility
flickr
flight
flip
flipped
float
floating
flood
floor
flora
florida
flow
flower
flowering
flowers
fly
flying
fm
fma
fmargs
fmbox
fmt
fn
fo
focus
focused
folk
folklore
follow
followed
following
follows
fon
font
fontcolor
fonts
fontsize
fontstyle
foo
food
foot
football
footer
footnote
footnoted
footnotes
for
forbes
forbidden
force
forced
forces
forecasts
foreign
forest
forests
foreword
forget
form
formal
formally
format
formatdate
formation
formations
formatlink
formatnum
formatparams
formatpropertyvalues
formats
formatspattern
formatstring
formatted
formatting
formed
former
formerly
formica
forms
formula
formulas
forsee
fort
forth
forty
forum
forward
forwarded
forwards
fossil
fossilrange
fossils
found
foundation
founded
founder
founding
fountain
four
fourth
fpvdate
fr
fra
frac
fracpart
fraction
fractional
fractions
fragment
frame
frameless
frameonly
framework
franc
franca
france
francis
francisco
frank
franz
free
freedom
freely
french
frequency
frequent
frequently
fricative
frida
friday
friedrich
friend
friendlies
friendly
friends
frisian
friulian
frog
from
front
frontier
frontline
fruit
fruits
fs
ft
ftin
fu
fuel
fuji
fulfulde
full
fullargs
fullname
fullpagename
fulltext
fullurl
fully
fun
func
funcname
function
functional
functionality
functionname
functions
fund
fungi
fur
furnish
further
fusion
futuna
future
futures
fw
fy
g
ga
gabon
gabriel
gadaba
gadget
gadgets
gaelic
gaga
gagauz
gaibandha
gaig
gain
gal
galaxy
galen
gali
galician
galleries
gallery
gallerybox
gallerylink
gallon
gallons
gamal
game
games
gammarus
gan
gana
ganda
gandhi
ganesh
ganga
gangtok
gap
gapnum
gaps
garbage
garci
garden
gardens
gargaon
garh
garuda
gary
gas
gate
gates
gateway
gather
gauge
gaulish
gave
gaw
gaya
gazette
gazetteer
gb
gbaya
gbe
gbr
gcomp
gd
gdp
ge
gel
gelao
gem
gen
gender
gene
genealogy
genera
general
generalcommands
generally
generaloptions
generate
generated
generates
generating
generation
generations
generic
genie
genomics
genre
genus
geo
geographic
geographical
geography
geohack
geojson
geological
geology
geomask
geometry
geor
georg
george
georgia
georgian
geoshape
german
germanic
germany
get
getargnums
getargs
getbeststatements
getbuffer
getcatforid
getcontent
getcontentlanguage
getcurrentframe
getcurrenttitle
getdate
getelementbyid
getelementsbytagname
getentity
getentityidforcurrentpage
getentityobject
getenvironment
getexpandedmessage
getinvocation
getlabel
getlocalizedtext
getmapparams
getmetatable
getmsg
getopt
getoption
getparameters
getparametervalue
getparammappings
getparent
getreferences
gets
getsitelink
gettemplateoutput
getting
gettitle
gettitleobject
gettitleqid
getty
getvalue
getvaluebyqual
gev
gfor
gh
ghale
ghana
ghanaian
ghar
ghosh
gi
giant
gif
gikuyu
gilbert
giles
gilgit
gill
giovanni
girl
girls
gis
gisodisha
git
give
given
gives
giving
gj
gje
gl
glag
glance
glass
glimpses
global
globalization
globally
globals
globe
glossary
glottal
glottalized
glow
glu
glyph
gm
gmatch
gmol
gmt
gn
gnd
gnu
go
goa
goal
goals
god
goes
goethe
gogh
going
golaghat
gold
golden
gondi
gone
gong
gonm
good
google
gopal
gor
gorakhpur
gordon
gost
got
gotha
gothic
gourd
gov
governance
governing
government
governmental
governor
governors
govpubs
govt
goya
gp
gpcm
gps
gr
grade
gradient
graduate
graduation
gram
grammar
grammy
grams
gran
grand
grandparent
grant
granted
granting
grants
graph
graphic
graphics
grass
grave
gravitational
gravity
gray
grc
great
greater
greatest
grebo
greece
greek
green
greenlandic
greetings
gregorian
gregory
grek
grey
grid
grossing
ground
group
grouped
grouping
groupn
groups
groupstyle
grow
growing
growth
gs
gsd
gsub
gt
gu
guam
guarani
guardian
guatemala
gue
guest
guiana
guidance
guide
guideline
guidelines
guides
guild
guinea
guitar
guiyang
gujarat
gujarati
gujari
gujr
gula
gulf
gulzar
gun
guns
guntur
guo
gupta
gur
guru
gutenberg
guwahati
guy
guyana
gv
gw
gwalior
gwoyeu
h
ha
haat
habsburg
hackathon
had
hafez
hai
haida
hair
haiti
haitian
haji
hajipur
hak
hakka
half
hall
han
hand
handbook
handle
handled
handler
handlers
handlersk
handles
handling
hands
hang
hanging
hangul
hani
hanja
hanoi
hanover
hans
hansda
hansdah
hanuman
hanyu
happen
happened
happening
happens
happy
har
hard
hardness
hari
haridwar
haripur
harmensz
harry
harvard
haryana
has
hasdak
hash
hatnote
hatnotes
hausa
have
haveli
haven
having
hawai
hawaii
hawaiian
haystack
hb
hc
hcard
hd
hdl
hdr
he
head
header
headers
headerstyle
heading
headings
headline
headquarters
health
hear
hearing
heart
heat
heavy
hebr
hebrew
hectare
hegel
height
heirs
held
helen
helium
hello
help
helper
helpful
helping
helps
hembram
hemisphere
hen
hence
henry
hepburn
her
heraclian
herald
herbert
here
heritage
herman
hernach
hernia
hero
herzegovina
hex
hexadecimal
hg
hh
hi
hibiscus
hidden
hide
hiding
hierarchical
hierarchically
hierarchy
hieroglyphs
high
higher
highest
highland
highlight
highlighted
highlights
highly
highway
hilbert
hill
hills
him
hima
himachal
himalayas
himself
hindi
hindko
hindu
hinduism
hindus
hindustan
hindustani
hindustantimes
hint
hip
hira
hiragana
his
historic
historical
histories
history
historylink
hit
hitler
hittite
hk
hl
hlist
hm
hmong
hms
hn
ho
hoan
hockey
hodgkin
hokkien
hokusai
hold
holder
holding
holds
hole
holiday
holidays
holocene
holstein
holy
homarus
home
homeaway
homepage
homo
honduras
hong
honor
honorary
honorific
honors
honour
honoured
honours
hooding
hooghly
hook
hooks
hop
hope
hor
horizontal
horse
horsepower
hospital
host
hosted
hostel
hosting
hostname
hosts
hot
hotcat
houlton
hour
hours
house
houses
housing
houston
hover
hovers
how
howard
however
howrah
hp
hpa
hq
hr
href
hs
hsn
ht
hth
htm
html
htmlhttps
http
https
hu
hua
huasteca
huave
hub
hudum
hue
huge
hugo
huishui
huitoto
hum
human
humidity
hun
hundred
hundredweight
hung
hungama
hungarian
hungary
huns
hunter
hunting
huraa
hus
hutup
hy
hybrid
hybridum
hyderabad
hydrogen
hyphen
hyphenated
hyphens
hz
i
ia
iabot
ian
iana
iarender
ias
iata
ib
ibn
ibox
ic
icao
icc
iccr
ice
icelandic
icn
icon
iconpre
iconprops
icons
iconscount
icontext
icontip
icontotal
iczn
id
ida
idea
ideally
ideas
idem
ident
identical
identification
identified
identifier
identifiers
identifies
identify
identifying
identities
identity
ideograph
ideology
ido
ids
idx
idxformat
ie
ietf
if
ifany
ife
iff
ifset
ifugao
ig
igbo
ignore
ignored
ignores
ii
iifa
iii
iit
ijo
ik
iki
il
ila
ile
ili
illegal
illinois
illustrate
illustrated
illustration
ilokano
iloko
iloveindia
im
image
imageargs
imagecelldiv
imageclass
imagediv
imageemptycell
imageemptycellstyle
imagefilename
imageleft
imageleftcell
imageright
imagerightcell
imagerightnone
images
imagesize
imagestyle
imax
imbox
imc
imdb
imf
img
imgsize
immediate
immediately
immutable
imp
impact
impaired
imperial
imperiled
impgal
implement
implementation
implemented
implements
implied
implosive
import
importance
important
imported
importscript
impossible
impoz
improper
improve
improved
improvement
improvements
improving
in
ina
inactive
inappropriate
inari
inarray
inc
inca
incertae
inch
inches
incl
include
included
includemetatable
includes
including
inclusion
inclusive
income
incomplete
inconsistent
incorporate
incorporated
incorrect
incorrectly
incr
increase
increased
increment
incrementablesfieldobj
incubator
ind
indef
indefinitely
indent
independence
independent
independently
index
indexed
indexes
indexing
india
indian
indiana
indianexpress
indiatimes
indiatoday
indic
indica
indicate
indicated
indicates
indicating
indication
indicator
indices
indigenous
indira
individual
individually
indo
indonesia
indonesian
indoor
indore
indus
industrial
industries
industry
ine
infant
infection
infectious
inferred
infinity
inflation
influence
influenced
influences
info
infobox
infoboxes
infoboxflag
infoboximage
infoboxstyle
inform
informal
informally
information
infraclassis
infrastructure
infrataxon
infrataxonrank
ing
ingush
inh
inhabitants
inherit
inheritance
inherits
inhtml
init
initial
initialise
initialize
initialized
initially
initials
initiative
initindex
inline
inlineerror
inlinered
inn
inner
innerhtml
inout
inp
input
inputs
inputyear
inr
inscriptions
insect
insects
insensitive
insert
inserted
inserting
insertion
inserts
inset
inside
insight
inspiration
inst
instagram
install
installed
instance
instances
instancesself
instead
institut
institute
institutes
institution
institutional
institutions
instruction
instructions
instrument
instruments
insurance
insurgents
int
intake
intangible
integer
integers
integral
integrated
integrity
intelligence
intended
intentional
inter
interact
interaction
interactive
interchangeable
interest
interested
interesting
interface
interior
interlanguage
interlingue
intermediate
internal
internally
international
internationale
internet
internetarchivebot
interpret
interpretation
interpreted
interval
intervention
interview
interviewer
interviewerlist
interviewers
interviews
interwiki
intestine
into
intoday
intro
introduce
introduced
introduction
introductory
introfragment
inuktitut
inv
invalid
invargs
invention
inverse
invert
inverted
investigation
invisible
invited
invocation
invocations
invoke
invoked
invoking
involved
involves
io
ioc
ion
ionization
ios
ip
ipa
ipac
ipairs
ipl
ipni
ips
iptv
ipv
ir
ira
iran
iranian
iraq
irc
ireland
irish
iron
is
isaac
isangle
isblank
isbn
isbns
iscomplex
isempty
isin
isinteger
isizulu
islam
islamic
island
islands
ismn
isn
isnan
isnegative
isnotblank
isnotempty
iso
isolation
isotopes
isplain
israel
israeli
isredirect
iss
issmall
issn
issubpage
issue
issued
issues
ist
istanbul
istemplatepage
isthmus
isu
isurl
isxn
it
ita
italian
italiana
italic
italicization
italicize
italicized
italicizepage
italicizes
italics
italictitle
italy
item
itemid
items
iterate
iterated
iterates
iteration
iterator
iterators
itftennis
iti
itneg
its
itself
iu
iucn
iupac
iv
ivoire
ivory
ix
iyo
j
ja
jaa
jack
jackfruit
jackson
jacksonian
jacques
jaggery
jagiellonian
jagran
jai
jain
jainism
jaipur
jakarta
jam
jamaica
jamaican
james
jamiat
jammu
jamnagar
jamshedpur
jan
jana
janata
janeiro
janta
january
japan
japanese
jatiya
jatiyo
java
javanese
javascript
jawaharlal
jazz
jd
je
jean
jeddah
jee
jersey
jerusalem
jesus
jewish
jfm
jharkhand
ji
jime
jin
jmol
jo
job
jobs
johann
johannes
johar
john
johnson
join
joined
joiner
joining
joins
joint
jonathan
jones
jong
jordan
jorge
jose
joseph
joshi
joule
journal
journalism
journalist
journals
journey
joy
joyce
jp
jpeg
jpg
jquery
jr
js
json
jsonencode
jsp
jstor
ju
jua
juan
jubilee
judeo
judge
judicial
juhi
jul
julian
julio
july
jun
junagadh
junction
june
jung
junior
junkia
junkiaceae
jupiter
jurchen
jurisdiction
jury
jus
just
justice
justinian
jyoti
jyutping
k
ka
kaapor
kaba
kabiye
kabyle
kadazan
kafka
kahlo
kai
kaili
kaipuleohone
kakching
kala
kalam
kalamandalam
kalapuya
kali
kalimantan
kalinga
kalmyk
kalpana
kam
kamus
kan
kana
kanchipuram
kandy
kangla
kanji
kanker
kannada
kanpur
kansas
kanum
kanuri
kao
kapadia
kapampangan
kapil
kapoor
kara
karabakh
karan
karen
kareng
karl
karnataka
karo
kartographer
kashi
kashmir
kashmiri
kashubian
kashyap
katakana
kathak
kathmandu
kaur
kaushal
kayah
kayan
kazakh
kazakhstan
kb
kcal
kcvelaga
ke
keep
keeping
keeps
kegg
kei
keller
ken
kendra
kenning
kenya
kept
ker
kerala
kern
kev
key
keyboard
keydocument
keypos
keys
keyword
keywords
kg
kgf
kha
kham
khan
khanate
khar
kharagpur
khasi
khel
khmer
kho
khu
khulna
ki
kia
kid
kids
kikongo
kikuyu
kill
killed
killings
kilo
kilogram
kilograms
kilometer
kilometers
kilometre
kilometres
kilotonne
kilowatt
kim
kind
kindly
kinds
king
kingdom
kingdoms
kings
kinnauri
kinyarwanda
kirundi
kisku
kiss
kit
kj
kk
kl
km
kmol
kn
knda
knee
kneeling
knockout
knot
know
knowledge
known
ko
kochi
koe
kohima
koi
kok
kol
koli
kolkata
kom
komi
kon
kong
kongo
konkani
kono
koraput
korea
korean
koro
kosovo
kota
kotava
kottayam
kovind
kpa
kpc
kpelle
kriol
krishna
krit
krumen
ks
ksrtc
kt
ku
kua
kuchipudi
kui
kuku
kullu
kumar
kung
kuo
kurdish
kurigram
kurumba
kushtia
kutch
kuwait
kv
kw
kwa
kwargs
kwh
ky
kya
kyo
kyrgyz
kyrgyzstan
kyu
kyujitai
l
la
lab
label
labeled
labelled
labelledlist
labelorid
labels
labelstyle
labial
labiodental
labor
laboratory
labour
lac
lack
lacks
laconia
ladakh
ladin
ladino
lady
laea
lag
lahore
lak
lake
lakes
lakota
lakshmi
lal
lala
lalitha
lalo
lalu
lama
lamiids
lamu
lancaster
land
landscape
lang
langcode
langobj
language
languages
lanka
lankan
lao
laoo
laos
large
larger
largest
largs
las
lasker
last
lastarg
lastauthoramp
lasthtml
lasting
lastn
lat
latd
late
later
lateral
latest
latifolia
latin
latitude
latminutes
latn
latter
latvia
latvian
lau
launch
launched
laurie
law
lawrence
laws
lay
laydate
layformat
layout
layouts
laysource
laysummary
layurl
laz
lazily
lazy
lb
lbf
lbfft
lbm
lbmol
lc
lccn
lcd
lcfirst
lcwt
ld
le
lead
leader
leaders
leadership
leading
leadout
leads
leaf
league
leap
learn
learners
learning
least
leave
leaves
leaving
lecture
led
lee
left
leg
legacy
legal
legally
legend
legends
legislative
legislature
leh
leiden
leipzig
lekate
lele
lemon
len
length
lengthy
lengua
lens
leo
leonardo
leone
leonid
leopard
les
leslie
lesotho
less
lesser
lessons
leste
let
letter
letterpos
letters
leukemia
level
levels
lexical
lexicon
lexicostatistical
lf
lg
lga
lh
lhamte
lhasa
lhs
li
lia
liability
lib
liberal
liberation
liberia
liberty
libraries
library
libraryutil
librivox
libsettings
libya
licence
license
licensed
licensing
lie
lies
lieutenant
life
lifestyle
ligand
light
ligurian
like
likely
lily
lim
lima
limb
limba
limbu
limburgish
limit
limitation
limitations
limited
limits
linb
lincoln
line
linear
lines
linescale
linewidth
linfo
lingala
lingua
linguist
linguistic
linguistics
linguolabial
link
linkbox
linkclasses
linkcurrent
linked
linking
linkn
linkprev
links
linktext
linktitle
linnaeus
linux
lion
lions
list
listclass
listed
listen
listing
listings
listk
listn
listnum
listparam
lists
liststyle
listtoset
listtotext
listtype
listusers
lisu
lit
liter
literacy
literal
literally
literary
literature
lithuania
lithuanian
litre
little
liv
live
liver
lives
living
lj
lk
ll
llc
llengua
lmc
lmz
ln
lo
load
loaddata
loaded
loader
loading
loads
loanword
lob
loc
local
localisation
localized
locally
locate
located
location
locations
locator
lock
locke
locmap
log
logged
logging
logic
login
logo
logos
logs
loi
lojban
lok
loma
lombard
lombards
lon
london
lonely
long
longer
longest
longitude
longmans
longmonth
lonminutes
look
looked
looking
looks
lookup
loop
loops
loose
lord
los
loser
losing
loss
losses
lost
lot
louis
louisiana
lov
love
loves
low
lower
lowercase
lowest
lowland
lp
lpg
lr
ls
lt
ltd
ltf
ltr
lts
lu
lua
luamain
luba
lucknow
lucky
ludwig
luganda
lui
luis
lum
lun
lunar
lung
luo
luri
luther
luxembourg
luxembourgish
luxemburg
lv
ly
lymphoma
lyricist
m
ma
maa
mab
mabel
mac
macau
macedonia
macedonian
mach
machine
machines
macos
macro
macrolanguage
mada
madagascar
made
madhopur
madhya
madison
madras
madrid
mag
magazine
magazines
magic
magnetic
magnitude
magnolia
magnoliids
mah
maha
maharaja
maharashtra
mahfouz
mahua
mai
maidu
mail
mailing
mailinglist
main
maina
maincat
mainly
mainsnak
mainspace
maint
maintain
maintained
maintaining
maintenance
maithili
maize
majhi
major
majority
mak
make
makecategorylink
makedata
makeinvokefunc
makeinvokefunction
makelist
maker
makes
makestartboxdata
makestartboxlinksdata
maketoolbar
makeurllink
makewikilink
makewikitexterror
makewrapper
makhuwa
making
mal
mala
malagasy
malaria
malawi
malay
malayalam
malayo
malaysia
malaysian
maldives
male
malformed
mali
malvids
mam
mama
mamang
mammals
mammillaria
man
manage
managed
management
manager
managerclubs
manageryears
manchester
manchu
manda
mandaic
mandal
mandals
mandarin
mandatory
mandela
mandi
manding
mandir
mango
mani
manik
maninkakan
manipur
manipuri
manjhi
manner
manobo
mantissa
manual
manually
manufacturer
manufacturers
manufacturing
manuscript
manuscripts
manx
many
mao
maori
map
mapframe
mapframes
mapless
mapname
mapped
mapping
mappings
maps
mapsize
mapsofindia
mar
mara
marandi
marathi
marc
marcel
march
marco
margin
margintext
marguments
mari
maria
marie
marilyn
marin
marine
marino
marinus
mario
maritime
mark
marked
marker
markers
market
marking
marks
marksize
markup
marlene
marndi
marriage
married
mars
marshall
marshallese
marti
martial
martin
marwari
marx
marxism
marxist
mary
mas
masala
masela
mashan
mask
mass
massachusetts
master
masters
match
matched
matches
matching
matchno
mater
material
materials
math
mathematical
mathematics
matisse
matter
matters
maulsari
mauritania
max
maxarg
maxdiff
maximum
maxlen
maxwell
may
maya
mayan
maybe
mayi
mayo
mayurbhanj
mayurbhanjpdf
mazatec
mb
mba
mbe
mbi
mbmix
mbo
mbox
mbpairs
mbq
mc
mca
mcal
mcc
mccune
mcg
mci
mcode
mcs
md
mdds
mdr
mdy
me
mean
meaning
meaningful
meanings
means
meant
measured
measurement
measures
meat
mecca
mechanism
med
medal
medalbox
medalists
medallists
medals
medaltabletop
media
mediatype
mediawiki
medical
medicinal
medicine
medieval
mediterranean
medium
medlineplus
meet
meeting
meetings
meets
meghalaya
mehra
mehsana
mein
mekong
mel
mela
melanau
melbourne
melon
melting
member
members
membership
mementos
memoized
memorial
memorials
memories
memory
men
menak
mende
menstruation
mental
mention
mentioned
menu
mer
mercury
mere
merely
merge
merged
merger
merging
meridian
merriam
mersin
mesh
mesopotamia
mesopotamian
message
messagebox
messageboxes
messagename
messages
messaging
messenia
met
meta
metaargs
metabolism
metadata
metaglobal
metaindex
metal
metamethod
metamethods
metatable
metatables
meter
meters
method
methods
metre
metres
metric
metro
metropolitan
mev
mexican
mexico
mf
mg
mh
mhatlist
mhatnote
mhz
mi
mia
miami
miao
michael
michelangelo
michigan
micro
microformat
microformats
microsoft
microvolt
mid
middle
middleinitial
mie
mien
mig
might
migratory
miguel
mike
mil
mile
miles
military
milk
milky
mill
millennium
miller
millilitre
million
millionaire
millions
mime
mimosa
mimusops
min
minar
mind
mindiff
minerals
minerva
ming
minguoyear
mini
minimal
minimum
mining
minister
ministerial
ministers
ministry
minor
minority
minus
minute
minutes
mirror
mirrors
mirza
mis
mishmi
mishra
misleading
mismatch
miss
missing
mission
mississippi
missouri
mistake
misuse
mit
mittal
miwok
mix
mixe
mixed
mixtec
mixtepec
mizoram
mj
mk
ml
mla
mlabelledlist
mlas
mln
mlym
mm
mmain
mmol
mn
mnc
mnong
mo
moa
mobile
mod
modal
mode
model
models
modern
modi
modification
modifications
modified
modifier
modify
module
modules
modulo
modulus
mohammad
mohan
mohawk
moi
moid
moksha
mol
molar
moldova
moldovan
mole
molecular
molecule
moles
molo
mom
moment
mon
monaco
monarchs
monday
money
mong
mongol
mongolia
mongolian
mongols
monitor
monitoring
mono
monobook
monoclonal
monocots
monographs
monospace
monospaced
monosperma
monroe
montage
month
monthly
months
monthtoggles
monument
monuments
moon
moons
mor
morcha
more
moreover
mori
moringa
morning
moroccan
morocco
morphology
mos
moscow
mosque
mosquito
most
mostly
mother
motilal
motion
motto
motu
mount
mountain
mountains
mouse
mouseover
move
moved
movement
moveprot
moves
movie
movies
moving
moz
mozambique
mozilla
mp
mpc
mph
mps
mqt
mr
mra
mredirect
mro
mrs
ms
msg
msgs
mshared
msi
msl
msm
msrtc
msw
mt
mtabletools
mtemplateinvocation
mtv
mtx
mu
much
mughal
muhammad
muji
mujibur
mukherjee
mult
multi
multilingual
multimedia
multiple
multiplication
multiplier
multiply
mumbai
mun
munda
municipal
municipalities
municipality
muria
murmu
murti
murut
muscle
muscular
muse
museo
museum
music
musical
musicbrainz
musician
musicians
muslim
muslims
must
muzaffarpur
mv
mw
mwe
my
myanmar
mycalendar
mylanguage
mymensingh
mypage
myr
mysore
mystery
mythology
myurl
n
na
nacional
nadia
nadu
naga
nagaland
nagam
nagar
nago
nagorno
nagpur
naguib
nahuatl
nai
nainital
naked
nam
nama
name
named
namedrefs
namelist
namely
names
namesi
namespace
namespaces
namibia
naming
nan
nandi
nanjing
naogaon
napoleon
nar
nara
narayan
narayana
narayanan
narendra
nari
narrow
nasa
nasal
natak
nath
nation
national
nationalgeographic
nationalism
nationality
nationalteam
nations
native
nato
natural
nature
natureserve
natya
nauru
nautical
nav
navajo
naval
navbar
navbox
navboxes
navel
navels
navframe
navigation
navigational
navy
nay
naypyidaw
nb
nba
nbk
nbsp
ncbi
ncc
nci
ncr
nd
nda
ndargs
ndate
nde
ndebele
nds
ndtv
ne
neapolitan
near
nearest
nearly
necessarily
necessary
nee
need
needed
needing
needle
needs
negative
nehru
nehwal
neighbourhoods
neither
nelson
nen
nend
nenddate
neo
nepal
nepalese
nepali
nervan
nerve
nested
nesting
net
netball
netflix
netherlands
network
neutral
never
new
newari
newer
newescape
newick
newindex
newindianexpress
newline
newlines
newly
newrawmessage
news
newsgroup
newsletter
newspaper
newspapers
newtitle
newton
next
nez
nfl
ng
nga
ngan
ngbaka
nge
ngo
ngua
ngyi
nh
ni
nia
nias
nic
nicaragua
nice
nickelodeon
nickname
nicknames
nicobar
nicobarese
niger
nigeria
nigerian
night
nih
nihon
nil
nilastab
nile
nilo
nilok
nils
nin
nine
ninka
ninth
nirmala
nisu
nit
nitai
nitrogen
nj
nkm
nl
nla
nlink
nlm
nm
nmi
nn
no
noa
noaa
noam
nobel
noble
nocat
nocomma
node
nodeargs
nodefunc
nodes
noeditsection
noexpiry
noflip
nom
nomatch
nomenclature
nominal
nominals
nominated
nominations
non
none
nonfunc
nonsense
noop
nooverlap
nopage
nopp
nor
noreplace
norfolk
normal
normally
norman
norse
north
northeast
northeastern
northern
northkorea
northwest
northwestern
norway
norwegian
nospace
not
notable
notably
notation
notations
note
noted
notes
nothing
notice
notices
notification
noto
notoc
notre
noufo
noun
nov
nova
novalue
novel
novelists
novels
november
novial
now
nowiki
nowikiinvocation
nowrap
nozomi
np
nps
nr
nrhp
nri
nrr
nrt
ns
nscategory
nsd
nso
nss
nstable
nsw
nt
nta
nte
nth
nto
ntr
nts
nu
nuclear
nucleic
nuco
nuk
null
num
number
numbered
numbering
numberof
numberol
numbers
numdot
nume
numeral
numerals
numerator
numeric
numerical
numerically
numerous
numforms
nums
numsep
numstr
numwidth
nut
nutrition
nuvola
nw
nxt
ny
nyanja
nynorsk
nytimes
nz
o
oaxaca
obama
obe
obituary
obj
object
objective
objects
obscure
observances
observatory
observed
obsolete
obtain
obtained
obvious
obviously
oc
occasionally
occidental
occitan
occupation
occur
occurred
occurrence
occurrences
occurs
ocean
oceania
och
ocinsoutput
oclc
oct
october
octopus
od
odd
odi
odia
odisha
odissi
oe
oecd
oed
of
off
offer
offering
offers
office
officer
officers
official
officially
offline
offset
ofi
often
og
oga
ogg
oh
ohio
oi
oil
oirat
ojibwa
ok
oklahoma
oko
okuhara
ol
ola
olac
old
older
oldest
oldestfossil
oldformhide
oldid
oleifera
oli
olive
olympiad
olympic
olympics
om
omargs
ombox
omi
omit
omitsep
omitted
omitting
omniglot
on
ona
once
one
onefivenine
onepage
ones
ong
ongoing
online
only
onlysourced
ontario
onto
ooduan
op
opacity
open
opened
opening
openlibrary
openoffice
openstreetmap
opera
operate
operated
operates
operating
operation
operations
operator
operators
opinion
opportunity
opposed
opposite
opposition
ops
opt
option
optional
optionally
options
optionsk
or
ora
oral
orange
orbit
orbital
ord
order
ordered
ordering
orders
ordinal
ordinary
ordinates
ordo
ordsuffix
oregon
org
organisation
organisations
organism
organisms
organization
organizational
organizations
organize
organized
organizers
organizing
ori
orient
oriental
orig
origargs
origdate
origin
original
originally
origink
origins
origyear
orissa
orissadiary
oriya
oro
oromo
orphan
orthographic
orthography
orya
os
osm
ossetian
ossetic
osti
other
others
otherwise
oto
otomi
ottoman
ou
ounce
our
out
outdoor
outer
outerradius
outie
outinfo
outline
outlook
outp
output
outputs
outside
outstr
outstring
outvalue
ovarian
ovary
over
overall
overflow
overlap
overlapcalc
overlapicons
overlapn
overlapparams
overlapprops
overlappropsi
overlaps
overlay
overlink
overridden
override
overrides
overseas
oversight
oversighter
oversighters
overview
overwrite
overwritten
owl
own
owned
owner
owners
ownership
oxford
oxidation
oxygen
oz
p
pa
pabna
pacific
package
pad
padding
paddy
padlock
padma
pag
page
pagename
pageobject
pages
pagetext
pagetype
pagetypes
pagoda
pahari
paharia
pahawh
pahlavi
pai
paid
pain
painters
painting
paintings
pair
paired
pairs
pak
pakistan
pakistani
pal
palace
palatal
palato
palau
palaung
palawano
pale
palestine
palestinian
pali
palit
palm
pam
pame
pan
panafrican
panafril
panama
panchayat
panchyati
panda
pandemic
pandit
panel
pangasinan
panjabi
pano
panorama
panthera
pao
paper
papers
papiamento
papua
papuan
par
para
paracetamol
paradisec
paragraph
paraguay
paraguayan
parallel
parallels
param
parameter
parameterfuncs
parameters
paramkey
paramorder
params
paramsp
parasite
parbhani
paren
parens
parent
parentargs
parentfirst
parentheses
parenthesis
parenthetical
parentonly
parents
parentt
pargs
paris
parishad
park
parking
parks
parliament
parliamentary
parm
parms
parmsi
parse
parsed
parsedformat
parseformat
parseinput
parseparam
parser
parsi
part
partial
partially
participant
participants
participate
participated
participating
participation
particular
particularly
parties
partly
partner
partners
partnership
partof
parts
party
paschim
pasco
pashai
pashayi
pashto
pass
passage
passed
passenger
passengers
passes
passing
past
paste
pasted
pasteur
pasting
pat
patel
patent
path
paths
patna
patnaik
pattern
patterns
patternspattern
paul
paulo
pav
pay
payment
pbs
pc
pca
pcall
pcgn
pd
pdb
pdf
pe
peace
peak
peer
peh
pen
pending
peng
penguin
peninsula
penis
pennsylvania
people
peoples
pepper
per
perc
percent
percentage
percentages
perfect
perform
performance
performances
performed
performer
performers
performing
performs
perhaps
periastron
perihelion
period
periodic
periodical
periodically
periods
permanent
permanently
permian
permission
permissions
permit
permitted
perry
persia
persian
persistentgrey
person
personal
personalities
personality
personnel
persons
perspective
perspectives
peru
peter
petersburg
pfo
pframe
pg
ph
pha
phaa
phabricator
phagspa
phase
phd
phen
phfs
phil
philip
philippine
philippines
phillips
philosopher
philosophers
philosophical
philosophy
pho
phoenician
phone
phoneme
phonemes
phones
phonetic
phonetics
phonology
photo
photocount
photograph
photographer
photographs
photography
photos
phowa
php
phra
phrase
phrasebook
phrases
phu
phylogenetic
phylum
physical
physicist
physics
pi
pic
picard
picasso
piccap
pick
picsize
picture
pictures
pid
pidgin
pidgins
pie
piece
pieces
pierre
pig
pillai
pilot
pink
pinus
pinyin
pipe
piped
pipes
pisin
pitch
pitha
pithoragarh
pittsburgh
pix
pixel
pixels
pj
pk
pl
place
placed
placeholder
placement
placeofburial
places
placing
plague
plain
plainlinks
plainlist
plainname
plains
plan
planck
plane
planet
planets
planned
planning
plant
plantae
plantagenet
plantilla
plants
plate
plateau
platform
platforms
plato
play
playback
played
player
playerid
players
playing
plays
plaza
pld
please
plosive
plot
plotmarks
plugins
plural
plus
pm
pmc
pmid
pmids
pn
pname
pneumoniae
pneumonoultramicroscopicsilicovolcanoconioses
png
pnum
po
pocket
podcast
poem
poems
poet
poetry
poets
pog
pohela
point
pointer
pointing
points
poj
pokhara
pol
poland
polar
pole
police
policies
policy
polish
political
politician
politicians
politics
polls
polo
poly
polygonatum
polynesia
polynesian
polytechnic
pomo
pond
pondicherry
pontic
pool
poor
pop
popnum
popoloca
popoluca
popular
populate
populated
populates
population
populations
popups
por
port
portal
portals
portfolio
portion
portions
portrait
portraits
portugal
portuguese
pos
position
positional
positions
positive
positives
posnq
possibilities
possible
possibly
post
postal
postalveolar
postcondition
posted
posterior
postfix
postgraduate
postpartum
postscript
pot
potala
potato
potential
potentially
potter
pound
pounds
pow
power
powerful
powers
pp
ppm
ppp
pr
pra
practice
practices
pradesh
prado
prakash
prakashan
prakrit
pranab
prange
prasad
prateeksha
prayer
prc
pre
prec
precede
preceded
precedence
precedes
preceding
precipitation
precise
precisely
precision
precondition
precursor
predecessor
predefined
predicted
prefectures
prefer
preferable
preferably
preference
preferences
preferred
prefix
prefixed
prefixedtext
prefixes
prefixindex
pregnancy
prehistoric
prehistory
preload
preloadtitle
premchand
premier
preparation
prepare
prepend
preprint
preprocess
preprocessdisplays
preprocesssinglearg
presence
present
presentation
presented
presenters
presenting
preservation
preserve
preserved
preserves
preserving
presidency
president
presidential
presidents
press
pressure
presume
presumed
pretty
preunit
prev
prevalenceclaim
prevendyear
prevent
preventing
prevention
prevents
preview
previewing
previous
previously
prevnum
prevrow
price
pride
primarily
primary
prime
prince
princely
princeton
principal
principles
print
printed
printf
printing
prints
printtitle
printworthy
prior
priority
private
prix
prize
prizes
pro
probably
problem
problems
procedure
proceedings
process
processed
processes
processing
produce
produced
producer
producers
produces
producing
product
production
productions
products
profession
professional
professor
profile
profiles
profit
program
programme
programmes
programming
programs
progress
progressive
project
projection
projects
prominent
promote
promotion
pron
prone
pronounce
pronounced
pronunciation
pronunciations
prop
propaganda
proper
properly
propersign
properties
property
propertyid
propertyvalue
proposal
proposals
propose
proposed
proprietary
props
prose
prospect
prospects
protect
protected
protectedkey
protection
protectionblurb
protectioncategories
protectiondate
protectionlevel
protectionlevels
protectionlog
protectionobj
protects
protein
proto
protocol
protruded
proust
prov
prove
proverbs
provide
provided
provides
providing
province
provinces
provincial
provisional
proxies
proxy
ps
pseudo
psi
psl
psp
psu
psychology
pt
pti
ptolemy
ptr
pts
pu
pub
pubchem
public
publication
publicationdate
publicationplace
publications
publique
publish
published
publisher
publishername
publishers
publishes
publishing
pubmed
pudica
puducherry
puebla
puerto
pump
pumpkin
punan
punct
punctuation
pune
punjab
punjabi
pura
puran
puraskar
pure
purely
purge
puri
purple
purpose
purposes
purudhul
pusat
push
pushkin
pushpin
pussycat
put
puts
pv
pvt
pwo
px
py
pyongyang
pyramidalis
python
pyu
q
qatar
qiandong
qid
qin
qing
qnumber
qt
qtr
qu
quadrillion
quadrimester
qual
qualid
qualification
qualified
qualifier
qualifierid
qualifiers
qualifierscount
qualify
quality
quals
quantity
quart
quarter
quarterfinal
quarterfinals
quarterly
que
quechua
queen
queensland
query
question
questions
qui
quichua
quick
quickly
quickpcall
quiet
quit
quite
quotation
quotations
quote
quotebox
quoted
quotepages
quotes
qur
quran
qux
r
ra
raaj
rabindranath
racing
rad
rada
radiation
radical
radio
radius
radiusscale
raghav
raghunath
rahman
rahul
rai
rail
railway
railways
rain
rainfall
rainforest
raipur
raise
raised
raj
raja
rajaji
rajashree
rajasthan
rajasthani
rajendra
rajiv
rajput
raju
ram
rama
raman
ramesh
ramjit
rampur
rana
ranchi
rand
random
rang
rangamati
range
ranges
rangpur
rani
rank
ranked
ranking
rankings
rankpos
ranks
rann
rao
raphael
rapid
rara
rare
rarely
rat
rate
rather
ratification
rating
ratio
rationale
ratna
rau
ravi
raw
rawequal
rawget
rawkeyself
rawls
rawset
rawvalue
ray
rcat
rcats
rd
re
reach
reached
reaches
reaching
read
readability
readable
reader
readers
reading
reads
ready
reak
real
reality
really
rear
reason
reasonably
reasons
rebecca
rebuild
receive
received
receives
recent
recentchanges
recently
reception
recipe
recipient
recipients
reclassified
recognised
recognition
recognizable
recognize
recognized
recommendation
recommendations
recommended
reconstruction
record
recorded
recording
recordings
records
recoveries
recreation
rectangular
recursive
recursively
red
reddy
redefinition
rediff
redir
redirect
redirected
redirects
redirecttitle
reduce
reduced
reduces
reducing
reduction
redundancy
redundant
reef
ref
refer
reference
referenced
references
referencetooltip
referenceurl
referencing
referendum
referred
referring
refers
reflect
reflections
reflist
reflisti
refname
refobj
reformat
reformatted
reformatting
refparts
refresh
refs
reftagurl
reftoolbar
reftoolbarbase
reftoolformarea
reg
regard
regarded
regarding
regardless
regards
regex
regexp
reggae
region
regional
regions
register
registered
registrant
registration
registry
regnal
regnum
regular
regularly
regulation
reischauer
rejang
reject
rejected
rel
related
relating
relation
relations
relationship
relationships
relative
relatively
relatives
release
released
releases
relegation
relevant
reliable
reliance
relief
religion
religions
religious
rely
rem
remain
remainder
remaining
remains
remap
rembrandt
remember
remnant
removal
removalnotice
remove
removeblanks
removecolon
removed
removeditem
removes
removing
renaissance
rename
renamed
renaming
render
rendered
rendering
renderpercombatant
renders
renderstartbox
rendertrackingcategories
rene
renumber
reorganisation
rep
repeat
repeated
repeating
repetition
repetitive
replace
replaced
replacedecimalmark
replacement
replaces
replacing
reply
report
reported
reports
repository
represent
representation
representative
representatives
represented
representing
represents
reprint
reprinted
republic
republican
republika
request
requested
requesting
requests
require
required
requirement
requirements
requires
requiring
rer
res
research
reserve
reserved
reset
resian
residence
residents
resigns
resistivity
resolution
resolve
resolved
resort
resource
resources
respect
respective
respectively
respiratory
response
responsible
rest
resting
restoration
restored
restricted
restriction
restrictions
result
resulti
resulting
results
resultval
resurrection
ret
retailer
reti
retired
retrieve
retrieved
retrieves
retrieving
retroflex
retrospect
return
returned
returning
returns
returnval
returnword
retval
reuse
reused
reusestr
rev
revealed
revenue
reverse
revert
reverted
reverting
reverts
review
reviewer
reviews
revised
revision
revisions
revived
revolution
rewa
rez
rfc
rfd
rft
rgb
rgba
rhodes
rhs
ri
ria
ric
rica
rice
rich
richard
rico
ride
rifle
right
rightmost
rights
rijn
rinfo
ring
rio
ripe
rise
rising
risk
rissubclass
rit
river
rivers
rk
rm
rmir
rmr
rn
rname
rnd
ro
roa
road
roads
robert
robot
robotics
robust
rock
rocky
rod
roger
roglai
role
roles
rollback
rom
roma
roman
romance
romani
romania
romanian
romanization
romanized
romano
romanov
romansh
romantic
romatzyh
rome
room
root
roots
rosa
rose
rosetta
rosids
rotation
rough
roughly
round
rounded
rounding
rounds
rousseau
route
routemap
routes
routledge
row
rowargs
rowcellstyle
rowclass
rowcount
rownum
rownumr
rownums
rowparams
rowprop
rowprops
rows
rowspan
rowstyle
roy
royal
rozaj
rpa
rr
rs
rt
rtext
rtl
rtm
ru
rubens
ruby
rugby
rule
ruled
ruler
rulerend
rulerlink
rulers
rulerstart
rules
run
rundi
runner
runners
running
runs
rup
rupee
rupnagar
rural
rus
russia
russian
rusyn
rutherford
rw
rwaai
rwanda
ryu
s
sa
saami
sabah
sabha
sacred
sad
safari
safe
safety
sagar
sah
sahara
saharan
sahib
sahitya
sahoo
sahu
sai
said
saigon
saina
saint
sake
sal
salary
sale
salish
sall
salt
salvador
sam
sama
samaj
samajalive
samaritan
samba
sambhal
sambit
same
samecontent
sami
samia
samman
samo
samoan
sample
samples
san
sanctuary
sand
sandbox
sandboxes
sandboxlinks
sandboxpreload
sandboxtitle
sangeet
sango
sangsad
sanjay
sans
sanskrit
sanskriti
santa
santal
santali
santals
santhal
santiago
sapiens
sar
sara
saraiki
saraswati
sardinian
saren
sargs
sari
sarjamda
sarojini
sarpanch
sars
sat
satellite
saturday
saturn
saudi
save
saved
saves
saving
savoy
saw
sawai
saxe
saxon
saxony
say
saying
says
sbargs
sbi
sbn
sbox
sc
scale
scaled
scales
scaling
scan
scanned
scanner
scar
scene
schedule
scheme
schleswig
scholar
scholars
scholarship
scholia
school
schools
science
sciences
scientific
scientist
scientists
sco
scope
score
scoreboxes
scored
scoresumbox
scorewidth
scotland
scots
scottish
scouting
scream
screen
screenshot
screenwriters
scribunto
script
scriptperiodical
scripts
scripttitle
scripture
scroll
sculpture
sd
sdh
se
sea
seal
sealang
search
searchable
searched
searchengvar
searches
searching
searchresult
season
seasons
seat
seats
sebastian
sec
second
secondary
seconds
secret
secretariat
secretary
secrets
sect
sectio
section
sectionname
sections
secular
secure
security
sedis
see
seed
seeded
seek
seeking
seem
seen
seg
segment
select
selected
selection
selective
selectively
selector
selectors
self
selfclosing
selfkey
selfref
semantically
semi
semicolon
semicolons
semiconductor
semitic
sen
sena
senate
send
senior
senoufo
sense
sensitive
sent
sentence
sentences
seoul
sep
separate
separated
separately
separating
separator
separators
sepc
seps
sept
september
seq
sequence
sequences
sequential
sequentially
ser
serbia
serbian
seri
serial
series
serif
serotype
serv
serve
served
server
servers
service
services
servicesindex
serviceyears
serving
sesotho
session
sessions
set
setattribute
setlink
setmetatable
setranks
sets
setting
settings
settlement
setup
setyear
setyearrange
seva
seven
seventh
several
severan
severe
sex
sexual
sf
sfinp
sfn
sg
sgs
sh
sha
shading
shadow
shah
shaheed
shakespeare
shakti
shakuntala
shall
shan
shanghai
shanghainese
shankar
shape
shaped
shapes
sharapova
share
shared
sharing
shark
sharma
she
sheet
sheets
sheikh
shekhar
shell
shi
shibu
shield
shift
shifted
shiki
shinjitai
ship
ships
shirt
shiva
sho
shona
shooter
shooters
shooting
short
shortcut
shortcuts
shortdesc
shortened
shorter
shortform
shorthand
shortlink
shortmonth
shortname
shorttag
shot
should
shouldn
show
showcode
showdata
showflag
showing
showinvalidtypeerror
shown
shows
showsymbols
showvalues
shp
shree
shri
shtml
shu
shy
si
sibe
siberian
sibi
sibilant
sic
sichuanese
sid
side
sidebar
sidwell
sierra
sig
sigfig
sign
signal
signature
signed
signes
significand
significant
significantly
signs
siima
sikar
sikh
sikhism
sikhs
sikkim
sil
silesian
silk
silver
similar
similarly
simon
simple
simpler
simplest
simplicity
simplified
simplify
simply
sin
sinan
since
sindh
sindhi
sindhu
sinensis
sing
singapore
singer
singers
singh
singhbhum
singko
single
singles
singular
sinh
sinha
sinhala
sinhalese
sino
sir
sister
sisters
site
sitelink
sites
sitting
situation
situations
six
sixth
sixty
size
sized
sizedefault
sizes
sizing
sk
sketch
ski
skill
skills
skin
skins
skip
skipped
skolt
sky
skyline
sl
sla
slang
slash
slavic
slavonic
slice
slideshow
slightly
sling
slogan
slot
slots
slovak
slovenia
slovenian
slow
slumdog
sm
sma
small
smaller
smallest
smallparam
smallpox
smart
smiles
smith
smithsonian
smt
sn
snak
snaks
snaksp
snaktype
sname
snapdate
snapshot
snow
so
soap
soc
soccer
social
socialism
socialist
societies
society
socio
sociology
sock
soft
software
sogdian
sohagini
sol
solar
soldiers
solely
solid
solomon
solubility
solution
som
somali
some
someone
something
sometimes
somevalue
somewhat
somewhere
son
song
songhai
songs
sonia
sonowal
sons
sony
soon
sopt
sora
sorbian
soren
sorry
sort
sortable
sorted
sorting
sortkey
sorts
sortspan
sotho
sou
soul
sound
sounds
source
sourced
sources
sourcing
south
southeast
southeastern
southern
southwest
southwestern
sovereign
soviet
sowvendra
sp
space
spaced
spaces
spacing
spain
span
spanish
spans
sparingly
sparseconcat
sparseipairs
speak
speaker
speakers
speaking
spec
special
specialist
specialized
species
speciesbox
specific
specifically
specification
specified
specifies
specify
specifying
spectrum
speech
speed
speedy
spell
spelled
spelling
spellings
sperm
spherical
spider
spin
spinach
spirit
spiritual
splat
split
splitting
spoken
sport
sports
sportspeople
sportsperson
sportswomen
spot
spotted
spouse
spring
springer
spy
sq
sqft
sqin
sqkm
sqmi
sqrt
squad
square
squared
sr
sranan
src
sri
sriniketan
ss
ssc
ssrn
ssss
st
sta
stability
stable
stack
stacked
stadium
staff
stage
stages
stalin
stamp
stand
standalone
standard
standardized
standards
standing
stands
stanford
star
stardust
starr
stars
start
startbox
started
starting
starts
starttime
starttimey
startyear
stat
state
stated
statedin
statement
statements
states
statesparameters
static
staticmethods
stating
station
stations
statistical
statistics
statistik
statoids
stats
statue
status
stay
std
stdinchi
stdinchikey
ste
steadiest
steady
steam
steel
stem
step
steps
steven
steward
stewards
stewart
stf
sti
stick
sticks
still
stlb
stm
stn
stock
stone
stones
stop
stops
storage
store
stored
stores
stories
storm
story
str
straight
strain
strait
straits
strange
strategic
strategy
stream
street
streets
strength
stress
strictly
string
strings
strip
stripmarker
stripmarkers
stripped
strips
striptonil
stroke
strokes
strokewidth
strong
strongly
strout
structural
structure
structured
structures
struggle
strung
sts
stt
stuart
stub
stubcats
stubs
student
students
studies
studio
study
stuff
style
styled
styles
stylestring
styling
su
sub
subanen
subbox
subboxes
subcategories
subcategory
subclade
subclass
subclasses
subclassis
subdiv
subdivision
subdivisionranks
subdivisions
subdivs
subfamily
subg
subgenus
subgroup
subgroups
subheader
subheaderargs
subheaderrowclass
subject
subjects
subjectspace
sublabel
submacrophylla
submit
suborder
subpage
subpages
subpagetext
subscribe
subscription
subsect
subsequent
subsequently
subser
subset
subsidiaries
subsidiary
subsp
subspecies
subst
substance
substances
substitute
substituted
substituteparameters
substitutes
substituting
substitution
substring
subtable
subtables
subtag
subtags
subtemplate
subtemplates
subtree
subtrees
subtype
subunit
suburban
subvar
success
successful
succession
successor
such
sudan
suez
suffered
suffice
sufficient
suffix
suffixed
sugar
suggest
suggested
suggestion
suggestions
suggests
sui
suicide
suis
suitable
sultan
sultanate
sum
summaries
summarize
summary
summer
summit
sun
sundanese
sunday
sung
sunil
sunita
sunset
sup
super
supercalifragilisticexpialidocious
superdomain
superfamilia
superfamily
superorder
superordo
superscript
superseding
superseries
supl
supplement
supplemental
supplementary
supplied
supply
support
supported
supporting
supports
supposed
suppress
suppressed
suppresses
suppression
supreme
sur
surat
sure
surface
surgery
suri
suriname
surname
surrounded
surrounding
surukuni
survey
sus
susan
sushma
sustainable
sv
sverker
svg
sw
swadesh
swahili
swami
swap
swargesh
swati
swazi
sweden
swedish
sweetbay
swimming
swiss
switch
switched
switcher
switches
switching
switzerland
swo
sydney
syed
syllable
sym
symbol
symbolmarks
symbols
symbolsshape
symshape
symsize
symstroke
syn
syndrome
synonym
synonyms
synopsis
syntax
syria
syriac
sysop
system
systems
t
ta
taa
tab
tabasco
table
tablei
tableinvocation
tables
tabletools
tabs
tabstop
tae
tag
tagalog
tagbanwa
tagcontent
tagged
tagging
tagline
tagname
tagore
tags
tahasilinfo
tahasilwebsite
tahitian
tai
tail
taiwan
taj
tajik
tajikistan
tak
take
taken
takes
taking
tal
tale
tales
talk
talking
talkpage
talkpagetitle
talktext
talktitle
tall
talu
taluka
talukas
tamak
tamang
tamazight
tamil
taml
tan
tang
tangut
tank
tanzania
tap
tapan
tara
tarahumara
target
targets
targettaxon
targettaxonrank
targettitle
targs
tas
task
tasks
tat
tata
tatar
taught
tax
taxa
taxobox
taxoboxes
taxon
taxonitalics
taxonomic
taxonomy
tay
taylor
tb
tbilisi
tbl
tbody
tc
tcoins
tcols
tcommon
td
tdata
te
tea
teacher
teachers
teaching
team
teams
teamsassoc
teamsi
tech
technical
technically
technique
techniques
technocad
technology
techreport
tee
teen
tehran
tehsil
tehsils
teke
telangana
telegraph
telegraphindia
telephone
telescope
television
tell
tells
telu
telugu
tem
temp
temperature
temperatures
templat
template
templateargs
templatecat
templatecategory
templatecategoryrequirename
templatedata
templateeditor
templateerrorcategory
templatename
templateoptions
templatepage
templatepar
templates
templatesort
templatestyles
templatetitle
temple
temples
temporarily
temporary
temppage
ten
tennis
tens
tenth
tenuis
teo
teochow
tepehua
tepehuan
ter
teresa
term
terminal
terminate
terminated
terminating
terminology
terms
terr
terracotta
territorial
territories
territory
terrorism
test
testament
testcase
testcases
testcaseslink
testcaseslinkdisplay
testcaseslinks
testcasespreload
testcasestitle
tested
testfunc
testing
testname
tests
tet
tetseo
tetum
tetun
tev
tex
texas
texhtml
text
textbook
textcell
textcelldiv
textfmt
textile
textoptions
texts
textspl
textstyle
textual
tey
tfrac
tft
tg
th
tha
thai
thailand
thakur
thakurgaon
than
thane
thanjavur
thank
thanks
thapa
tharu
that
the
theater
theatre
thehindu
their
them
theme
themes
themselves
then
theodosius
theorem
theory
there
thereafter
therefore
thermal
thermochemical
these
theses
thesis
they
thin
thing
things
think
third
thirty
thiruvananthapuram
this
thisera
thisvalue
thm
thomas
thon
those
though
thought
thousand
thousands
thread
threat
threatened
three
threshold
thriller
throne
through
throughout
throw
thu
thumb
thumbnail
thunder
thus
thuti
ti
tib
tibet
tibetan
tibt
tica
tick
ticker
ticket
tidyval
tie
ties
tig
tiger
tigris
tim
time
timecaption
timeline
times
timesofindia
timestamp
timestamps
timezone
timor
tin
tina
tip
tips
tirhut
tirupati
tissues
title
titlearg
titlebar
titleclass
titlecolspan
titled
titlelink
titlenote
titleobj
titleparts
titles
titlestyle
titletype
tiv
tiwa
tiwari
tj
tk
tl
tlapanec
tld
tls
tm
tmbox
tmp
tn
tname
tnt
to
toba
tobago
toc
today
todays
todo
together
toggle
togo
toi
tok
tokelau
toku
tokyo
told
tom
tomato
tomb
tomorrow
ton
tone
tones
tonga
tongo
tongue
tongyong
tonne
tonumber
too
took
tool
toolbar
toolkits
tools
tooltip
tooltipnode
tooltips
top
topic
topical
topics
tor
toro
toronto
torque
tostring
total
totals
totonac
tour
tourism
tourist
tournament
tournaments
tours
toward
towards
tower
town
towns
township
townships
toy
tp
tr
tra
trace
track
tracked
tracking
trackingcategories
trackingcats
tracks
trade
traded
trading
tradition
traditional
traditions
traffic
trail
trailer
trailing
train
training
trains
tram
trans
transclude
transcluded
transcludes
transcludesection
transcluding
transclusion
transclusions
transcript
transcription
transcriptions
transcripturl
transferred
transform
transformationtemplate
transforms
transit
transition
transl
translatable
translate
translated
translating
translation
translations
translator
translatorlist
translators
translit
transliterated
transliterating
transliteration
transparent
transperiodical
transport
transportation
transquote
transtitle
transwiki
trasta
travel
traveller
tre
treat
treated
treatment
treats
tree
trees
treeview
tri
triangle
tribal
tribe
tribes
tribune
tribus
tribute
trick
tridax
tried
trigger
trill
trillion
trim
trimarg
trimmed
trims
trinomial
triple
tripod
tripura
triqui
tro
tropical
trs
tru
true
trust
trustees
truth
try
trying
ts
tse
tsonga
tstyles
tsunami
tt
ttt
tu
tube
tudu
tuesday
tulu
tunebo
tunisian
tur
turkey
turkic
turkish
turkmen
turkmenistan
turks
turn
turned
turning
turnout
turns
tutorial
tutorials
tuvalu
tv
tw
twain
twelve
twenty
twi
twice
twitter
two
tx
txt
txtlang
typ
type
typed
typedata
typeerror
typelist
typeof
types
typical
typically
typing
typo
typographic
tyto
tz
tzu
u
ua
uc
ucayali
ucb
ucfirst
ucla
ucoc
ucode
uda
udai
udaipur
udate
udmurt
ug
uganda
ui
uig
ujjain
uk
ukipid
ukraine
ukrainian
ul
ulx
um
uma
umbilical
umbilicus
umi
un
una
unable
unabridged
unacademy
unauthorized
unavailable
unbalanced
unbulleted
uncategorized
uncertain
uncertainty
unchanged
unclosed
uncollapsed
unconverted
uncu
und
undeclared
undefined
under
underground
underneath
underscore
underscores
understand
understanding
understands
underwater
undesirable
undetermined
undo
unesco
unexpected
unfit
unfortunately
unicode
unification
unified
unify
unii
union
unions
uniq
unique
unit
unitcode
united
unitonly
units
unity
universal
universe
universita
universities
university
unix
unknown
unless
unlike
unlikely
unlinked
unmodified
unnamed
unnecessary
unni
unofficial
unp
unpack
unprintworthy
unprotected
unranked
unrecognized
unregistered
unreviewed
unrounded
unset
unsets
unsourced
unspaced
unspecified
unstripnowiki
unsupported
unsure
until
unused
unusual
unveiled
up
upazila
upazilas
upcoming
update
updated
updateperiod
updates
updating
upiaq
upl
upload
uploaded
uploading
uploads
upon
upper
uppercase
uppermost
upright
upsrtc
upwards
ur
ura
uranus
urban
urdu
ure
uri
url
urls
urlx
uru
uruguay
us
usa
usability
usable
usage
usan
usb
usd
usda
usdrygal
use
usecollapsibletextfields
used
useful
uselang
usename
usenet
user
userbox
username
usernames
users
uses
usgal
usgs
using
usoz
ustring
usual
usually
usurped
utable
utc
uterine
uterus
utf
util
utilities
utility
utkal
utm
uttar
uttarakhand
utype
uv
uvular
uyghur
uz
uzbek
uzbekistan
v
va
vaccine
vaginal
vague
vai
val
valencian
valentinian
valid
validate
validated
validates
validation
validity
valinfo
valley
valois
vals
value
valueerror
valuefunc
values
valuesarray
valuesi
valuetofind
van
vanc
vancouver
vandal
vandalism
vandals
vanuatu
vapor
var
varanasi
variable
variables
variant
variants
variation
variations
varies
varieties
variety
various
varname
vary
vase
vatican
vauthors
vb
vcard
vcite
ve
vector
ved
vedic
veditors
vein
vela
velar
velocity
venda
venezuela
venice
ventimiglia
venue
venus
veps
ver
verb
verde
verifiability
verifiable
verify
versa
version
versions
vertical
very
veteran
veterans
vi
via
viaf
vic
vice
victim
victims
victor
victoria
victory
video
videos
vidhan
vie
vienna
viet
vietnam
vietnamese
view
viewed
viewer
viewing
views
vii
viii
vijay
vijayawada
vikram
vila
village
villageinfo
villages
vincent
vinci
violations
violence
viral
virgin
virginia
virginiana
virtual
virus
viruses
vishnu
visibility
visible
vision
visit
visited
visiting
visitors
visual
visualeditor
visually
vname
vo
vocabulary
voice
voiced
voiceless
voices
vol
volapu
volleyball
voltaire
volume
volumes
volunteer
volunteers
von
vorlage
vote
voter
voters
voting
vowel
vowels
vro
vs
vte
vu
vulnerable
w
wa
wade
wai
waiba
wait
wales
wali
walk
walker
wall
walloon
walter
wan
wang
want
wanted
wantname
wantrow
wants
wappen
war
waray
wardha
warhol
warn
warner
warning
warnings
warnmsg
warrant
warrier
warring
warriors
wars
was
washington
wasn
wat
watch
watchlist
water
waterfall
watt
watut
wau
wave
wax
way
wayback
ways
wbbl
wbscte
wd
wdl
we
weak
weapon
weapons
weather
web
webarchive
webcitation
webcite
weber
webkit
webm
webpage
website
websites
webster
wedding
wednesday
week
weekly
weeks
wei
weight
weights
welcome
welf
welfare
well
wellington
welsh
went
were
west
westbengal
western
westminster
wet
wga
wgaction
wh
whale
what
whatever
wheat
wheel
when
whenever
where
whereas
whether
which
while
white
whitelist
whitespace
who
whole
wholestr
whom
whose
why
wichi
wide
widely
wider
width
wien
wife
wik
wiki
wikibase
wikibooks
wikicamp
wikicode
wikiconference
wikidata
wikidataurl
wikieditor
wikilink
wikilinked
wikilinks
wikimapia
wikimarkup
wikimedia
wikimedians
wikimeet
wikipedia
wikipedian
wikipedians
wikipedias
wikiproject
wikiprojects
wikiquote
wikis
wikisource
wikitable
wikitext
wikitongues
wikiversity
wikivoyage
wiktionary
wild
wildcard
wildlife
wilhelm
will
william
williams
wilson
win
wind
window
windows
windsor
wine
wing
winner
winners
winning
wins
winston
winter
wipro
wisconsin
wise
wish
wishes
with
within
without
wittelsbach
wl
wmf
wo
wocka
wolfgang
wolof
wom
woman
women
womens
won
wood
wooden
woods
word
wording
wordlist
wordmark
wordpress
words
work
workaround
worked
worker
workers
working
works
workshop
workshops
world
worldcat
worldcatid
worldwide
worth
worthy
would
wouldn
wounded
wp
wptextbox
wrap
wrapped
wrapper
wrapperargs
wrapperconfig
wrappers
wrapping
wraps
wright
write
writer
writers
writing
writings
written
wrong
wrote
ws
wt
wtatennis
wu
wuu
wwe
wwf
www
x
xal
xaxisformat
xbiz
xe
xej
xgrid
xhosa
xia
xian
xiang
xiao
xii
xin
xinjiang
xiv
xlate
xlo
xls
xml
xp
xtype
xuerui
xx
xxx
xxxx
xxxxors
y
ya
yak
yaka
yakut
yale
yali
yamaguchi
yamuna
yan
yang
yangum
yao
yard
yash
yau
yd
ye
year
yearbc
yearly
years
yellow
yemen
yerevan
yes
yesno
yet
ygrid
yi
yiddish
yield
yields
ying
yir
yj
ym
ymax
ymd
ymin
ymwd
yo
yoga
yogi
yong
york
yoruba
you
young
youngest
youngestfossil
your
yourself
youth
youthclubs
youthyears
youtube
youtubers
yr
yround
ytype
yu
yuan
yucatec
yue
yufei
yupik
yuri
yuva
yy
yyy
yyyy
z
za
zam
zambia
zapotec
zazaki
zbl
zealand
zee
zero
zeros
zh
zha
zhang
zhou
zhuang
zhuyin
zhzh
zia
zimbabwe
zinh
zj
zm
zmonth
zone
zones
zoo
zoodivisio
zoological
zoology
zoom
zoosectio
zoque
zotero
zquez
zu
zuk
zulu
zyyy
{
|
}
~

¡
¢
£
¥
¦
§
«
¬
­
®
°
±
²
³
´
µ
¶
·
¹
º
»
¼
½
¿
×
ß
æ
ð
÷
ø
þ
đ
ħ
ı
ĳ
ŀ
ł
ŋ
œ
ŧ
ſ
ƀ
ƃ
ƅ
ƈ
ƌ
ƒ
ƕ
ƙ
ƚ
ƛ
ƞ
ƣ
ƥ
ƨ
ƭ
ƴ
ƶ
ƹ
ƽ
ƿ
ǀ
ǁ
ǂ
ǃ
ǆ
ǉ
ǌ
ǝ
ǥ
ǳ
ȝ
ȡ
ȣ
ȥ
ȴ
ȵ
ȶ
ȷ
ȼ
ȿ
ɀ
ɂ
ɇ
ɉ
ɋ
ɍ
ɏ
ɐ
ɑ
ɒ
ɓ
ɔ
ɕ
ɖ
ɗ
ɘ
ə
ɚ
ɛ
ɛə
ɜ
ɝ
ɞ
ɟ
ɠ
ɡ
ɢ
ɣ
ɤ
ɥ
ɦ
ɧ
ɨ
ɩ
ɪ
ɪə
ɫ
ɬ
ɭ
ɮ
ɯ
ɰ
ɱ
ɲ
ɳ
ɴ
ɵ
ɶ
ɸ
ɹ
ɺ
ɻ
ɽ
ɾ
ʀ
ʁ
ʂ
ʃ
ʄ
ʇ
ʈ
ʉ
ʊ
ʊə
ʋ
ʌ
ʍ
ʎ
ʏ
ʐ
ʑ
ʒ
ʔ
ʕ
ʖ
ʗ
ʘ
ʙ
ʛ
ʜ
ʝ
ʞ
ʟ
ʠ
ʡ
ʢ
ʣ
ʤ
ʥ
ʦ
ʧ
ʨ
ʩ
ʪ
ʫ
ʬ
ʭ
ʰ
ʱ
ʲ
ʷ
ʹ
ʻ
ʼ
ʾ
ʿ
ˀ
ˈ
ˋ
ˌ
ː
ːˈ
ˑ
˔
˕
˖
˗
ˠ
ˡ
ˤ
˥
˦
˧
˨
˩
˭
̀
́
̂
̃
̄
̆
̇
̈
̉
̊
̋
̌
̍
̏
̑
̓
̚
̛
̜
̝
̞
̟
̠
̣
̤
̥
̦
̧
̨
̩
̪
̫
̬
̭
̮
̯
̰
̱
̳
̴
̸
̹
̺
̻
̼
̽
̿
͂
͆
͇
͍
͡
α
β
γ
ε
η
θ
μ
ν
ξ
ο
ρ
ς
σ
τ
χ
ω
а
б
в
з
и
к
м
с
т
у
х
ч
эдирне
ю
я
є
ְ
ִ
ֶ
ַ
ָ
ּ
ׂ
א
ט
י
ל
נ
ר
ש
،
ا
ب
بن
ح
خ
د
ر
س
ض
ع
ل
م
محمد
ن
و
ي
َ
ُ
ِ
ّ
ْ
ٓ
ٔ
ٕ
٫
ی
ހ
ނ
ރ
ބ
ކ
އ
ވ
މ
ދ
ތ
ލ
ގ
ސ
ޔ
ޖ
ޙ
ަ
ާ
ި
ީ
ު
ޫ
ެ
ޮ
ް
߬
߲
ँ
ं
ः
अ
अन
आ
इ
ई
ए
ओ
औ
और
क
ख
ग
घ
ङ
च
छ
ज
जन
झ
ञ
ट
ठ
ड
ण
त
तम
थ
द
ध
न
प
फ
ब
बर
भ
म
य
र
रत
रस
ल
व
वर
श
ष
स
ह
़
ा
ि
ी
ु
ू
ृ
े
ै
ॉ
ो
ौ
्
।
१
२००२
४
६
ঁ
ং
ঃ
অ
অক
অজ
অধ
অন
অপব
অব
অবদ
অবর
অবস
অভ
অর
অস
অসম
আ
আইএসব
আইড
আইপ
আগ
আছ
আন
আপন
আব
আর
আরও
আল
আহৰণ
ই
ইউআরএল
ইট
ইত
ইন
ইভ
ইম
ইল
ঈ
উ
উইক
উক
উচ
উজ
উত
উদ
উন
উপ
উপজ
উপপ
উপর
উল
উৎস
ঊ
ঋ
এ
এই
এক
একজন
একট
একল
এট
এন
এপ
এব
এমন
এর
ঐ
ও
ওআই
ওয
ঔ
ক
কঠ
কত
কথ
কন
কব
কম
কর
করছ
করণ
করত
করব
কল
খ
খক
খত
খন
গ
গগ
গণ
ঘ
ঘর
ঙ
চ
চক
চন
চল
ছ
ছদ
জ
জন
জর
ঝ
ঞ
ট
টট
ঠ
ড
ঢ
ণ
ত
তথ
তন
তব
তম
তর
থ
থম
দ
দক
দকদ
দন
ধ
ধর
ধরন
ন
নও
নক
নচ
নত
নথ
নদ
নব
নভ
নম
নয
প
পক
পত
পদ
পন
পপ
পর
পল
পস
ফ
ফল
ব
বক
বছর
বট
বন
বয
বর
বল
বস
বহ
বৰ
ভ
ম
মঞ
মড
মত
মধ
মন
মপ
ময
মসজ
য
যক
যত
যথ
যদ
যবহ
যম
যস
র
রইউআরএল
রক
রগ
রচ
রণ
রণত
রত
রথম
রদ
রদত
রদর
রধ
রন
রফ
রব
রভ
রম
রয
রশ
রস
রহ
রহশ
ল
লক
লগ
লন
শ
শক
শদ
শন
শব
ষ
ষক
ষণ
ষয
ষর
স
সক
সকল
সদস
সন
সব
সম
সময
সমস
সর
সহ
হ
হওয
হক
হত
হব
হয
হরণ
হল
়
া
ি
ী
ু
ূ
ৃ
ে
ৈ
্
ৎ
ৎক
ৗ
০
১
১০
১১
১২
১৩
১৪
১৫
১৬
১৮
২
২০
২০১১
২০১২
২০১৩
২৬
৩
৪
৫
৬
৭
৮
৯
ৰ
ৱ
৷
ਂ
ਏ
ਐ
ਕ
ਖ
ਗ
ਜ
ਤ
ਦ
ਨ
ਪ
ਬ
ਰ
ਲ
ਵ
ਸ
ਹ
਼
ਾ
ਿ
ੀ
ੁ
ੂ
ੇ
ੈ
ੋ
ੌ
੍
ੜ
ੰ
ੱ
ં
ક
ગ
છ
ત
દ
ન
મ
ય
લ
સ
ા
િ
ી
ુ
ે
ો
ૌ
્
ଁ
ଂ
ଅ
ଅନ
ଅଭ
ଆ
ଆନ
ଆର
ଇ
ଏ
ଏକ
ଏହ
ଓ
ଓଡ
କ
କଥ
କର
କଳ
ଖ
ଗ
ଘ
ଙ
ଚ
ଛ
ଜ
ଜନ
ଝ
ଞ
ଟ
ଠ
ଡ
ଢ
ଣ
ତ
ତର
ଥ
ଦ
ଧ
ନ
ନଭ
ନର
ପ
ଫ
ବ
ବନ
ବର
ଭ
ମ
ମନ
ମହ
ଯ
ର
ରଣ
ରତ
ଲ
ଳ
ଶ
ଶତ
ଷ
ସ
ସମ
ହ
଼
ା
ି
ୀ
ୁ
ୂ
ୃ
େ
୍
ୖ
ୗ
ୟ
ୟକ
୦
୨
୨୦୧୧
୫
୬
୮
ୱ
ୱର
க
ச
ஜ
த
ந
ன
ப
ம
ய
ர
ல
ள
ழ
வ
ஷ
ஸ
ா
ி
ீ
ு
ெ
ே
ை
்
ం
అ
క
గ
చ
జ
ట
డ
ణ
త
ద
ధ
న
ప
బ
మ
య
ర
ల
స
ా
ి
ు
ూ
ె
ే
ో
్
ಂ
ಕ
ಗ
ಜ
ಟ
ಡ
ತ
ದ
ನ
ಪ
ಬ
ರ
ಲ
ಳ
ಷ
ಾ
ಿ
ು
ೂ
ೆ
ೌ
್
ೕ
ം
ക
ച
പ
മ
യ
ര
ള
ാ
ി
ൂ
േ
്
ൽ
ක
ග
ට
ත
ද
න
ප
ම
ය
ර
ල
ව
ස
හ
්
ා
ැ
ි
ී
ු
ෙ
ฃ
ฅ
อ
ิ
ี
่
์
ຈ
ນ
ັ
໌
་
།
ག
ང
ཆ
ད
ན
བ
མ
ཚ
ཡ
ར
ལ
ས
ི
ུ
ོ
ྐ
ྒ
ྟ
ྦ
ྫ
ྱ
ྲ
က
ခ
င
စ
ည
တ
ဒ
န
နယ
ပ
ဗ
ဘ
မ
ယ
ရ
ဝ
သ
အ
ာ
ိ
ီ
ု
ူ
ေ
ဲ
ဳ
့
း
္
်
ျ
ြ
ွ
ှ
គ
ជ
ញ
ឌ
ណ
ន
ព
ភ
ម
រ
ស
ា
ិ
ី
ុ
េ
ែ
ំ
្
ᤠ
ᬶ
᭄
ᮔ
ᮥ
᮪
᱐
᱐᱐
᱐᱐᱐
᱐᱐᱑
᱐᱐᱒
᱐᱐᱔
᱐᱐᱕
᱐᱐᱖
᱐᱐᱗
᱐᱐᱘
᱐᱑
᱐᱑᱐
᱐᱑᱑
᱐᱑᱕
᱐᱑᱖
᱐᱑᱗
᱐᱑᱘
᱐᱑᱙
᱐᱒
᱐᱒᱒
᱐᱒᱓
᱐᱒᱖
᱐᱒᱗
᱐᱒᱙
᱐᱓
᱐᱓᱐
᱐᱓᱑
᱐᱓᱒
᱐᱓᱓
᱐᱓᱔
᱐᱓᱕
᱐᱓᱖
᱐᱓᱗
᱐᱓᱘
᱐᱔
᱐᱔᱐
᱐᱔᱑
᱐᱔᱒
᱐᱔᱓
᱐᱔᱘
᱐᱔᱙
᱐᱕
᱐᱕᱓
᱐᱕᱔
᱐᱕᱖
᱐᱕᱗
᱐᱕᱘
᱐᱖
᱐᱖᱐
᱐᱖᱑
᱐᱖᱓
᱐᱖᱔
᱐᱖᱗
᱐᱖᱙
᱐᱗
᱐᱗᱐
᱐᱗᱑
᱐᱗᱒
᱐᱗᱗
᱐᱗᱘
᱐᱘
᱐᱘᱐
᱐᱘᱑
᱐᱘᱒
᱐᱘᱔
᱐᱘᱕
᱐᱘᱖
᱐᱘᱗
᱐᱘᱘
᱐᱙
᱐᱙᱐
᱐᱙᱑
᱐᱙᱒
᱐᱙᱓
᱐᱙᱔
᱐᱙᱕
᱐᱙᱙
᱑
᱑᱐
᱑᱐᱐
᱑᱐᱐᱐
᱑᱐᱐᱐᱐
᱑᱐᱐᱔
᱑᱐᱐᱗
᱑᱐᱐᱘
᱑᱐᱑
᱑᱐᱑᱐
᱑᱐᱑᱑
᱑᱐᱑᱓
᱑᱐᱑᱖
᱑᱐᱒
᱑᱐᱒᱑
᱑᱐᱒᱒
᱑᱐᱓
᱑᱐᱔
᱑᱐᱕
᱑᱐᱕᱕
᱑᱐᱖
᱑᱐᱗
᱑᱐᱘
᱑᱐᱘᱘
᱑᱐᱙
᱑᱑
᱑᱑᱐
᱑᱑᱐᱐
᱑᱑᱑
᱑᱑᱒
᱑᱑᱓
᱑᱑᱔
᱑᱑᱕
᱑᱑᱖
᱑᱑᱗
᱑᱑᱘
᱑᱑᱙
᱑᱒
᱑᱒᱐
᱑᱒᱐᱐
᱑᱒᱑
᱑᱒᱒
᱑᱒᱒᱘
᱑᱒᱓
᱑᱒᱔
᱑᱒᱕
᱑᱒᱖
᱑᱒᱖᱑
᱑᱒᱖᱗
᱑᱒᱗
᱑᱒᱘
᱑᱒᱘᱙
᱑᱒᱙
᱑᱓
᱑᱓᱐
᱑᱓᱐᱐
᱑᱓᱑
᱑᱓᱒
᱑᱓᱓
᱑᱓᱔
᱑᱓᱕
᱑᱓᱖
᱑᱓᱗
᱑᱓᱘
᱑᱓᱙
᱑᱔
᱑᱔᱐
᱑᱔᱐᱐
᱑᱔᱑
᱑᱔᱒
᱑᱔᱓
᱑᱔᱔
᱑᱔᱕
᱑᱔᱖
᱑᱔᱗
᱑᱔᱘
᱑᱔᱙
᱑᱔᱙᱑
᱑᱕
᱑᱕᱐
᱑᱕᱐᱐
᱑᱕᱐᱕
᱑᱕᱑
᱑᱕᱑᱙
᱑᱕᱒
᱑᱕᱒᱖
᱑᱕᱓
᱑᱕᱔
᱑᱕᱔᱐
᱑᱕᱕
᱑᱕᱕᱕
᱑᱕᱕᱖
᱑᱕᱖
᱑᱕᱗
᱑᱕᱘
᱑᱕᱘᱕
᱑᱕᱙
᱑᱖
᱑᱖᱐
᱑᱖᱐᱐
᱑᱖᱑
᱑᱖᱒
᱑᱖᱓
᱑᱖᱔
᱑᱖᱕
᱑᱖᱖
᱑᱖᱗
᱑᱖᱘
᱑᱖᱘᱘
᱑᱖᱙
᱑᱗
᱑᱗᱐
᱑᱗᱐᱐
᱑᱗᱑
᱑᱗᱑᱒
᱑᱗᱑᱕
᱑᱗᱑᱙
᱑᱗᱒
᱑᱗᱓
᱑᱗᱓᱖
᱑᱗᱔
᱑᱗᱔᱐
᱑᱗᱕
᱑᱗᱕᱐
᱑᱗᱕᱒
᱑᱗᱕᱗
᱑᱗᱕᱘
᱑᱗᱖
᱑᱗᱖᱐
᱑᱗᱖᱒
᱑᱗᱖᱔
᱑᱗᱖᱕
᱑᱗᱗
᱑᱗᱗᱐
᱑᱗᱗᱑
᱑᱗᱗᱒
᱑᱗᱗᱕
᱑᱗᱗᱖
᱑᱗᱘
᱑᱗᱘᱐
᱑᱗᱘᱒
᱑᱗᱘᱓
᱑᱗᱘᱔
᱑᱗᱘᱕
᱑᱗᱘᱗
᱑᱗᱘᱙
᱑᱗᱙
᱑᱗᱙᱓
᱑᱗᱙᱕
᱑᱗᱙᱗
᱑᱗᱙᱙
᱑᱘
᱑᱘᱐
᱑᱘᱐᱐
᱑᱘᱐᱓
᱑᱘᱐᱕
᱑᱘᱐᱖
᱑᱘᱐᱙
᱑᱘᱑
᱑᱘᱑᱒
᱑᱘᱑᱓
᱑᱘᱑᱕
᱑᱘᱑᱖
᱑᱘᱑᱗
᱑᱘᱑᱘
᱑᱘᱒
᱑᱘᱒᱐
᱑᱘᱒᱑
᱑᱘᱒᱒
᱑᱘᱒᱔
᱑᱘᱒᱕
᱑᱘᱒᱖
᱑᱘᱒᱘
᱑᱘᱒᱙
᱑᱘᱓
᱑᱘᱓᱐
᱑᱘᱓᱑
᱑᱘᱓᱒
᱑᱘᱓᱓
᱑᱘᱓᱔
᱑᱘᱓᱕
᱑᱘᱓᱗
᱑᱘᱓᱙
᱑᱘᱔
᱑᱘᱔᱐
᱑᱘᱔᱒
᱑᱘᱔᱓
᱑᱘᱔᱕
᱑᱘᱔᱗
᱑᱘᱔᱙
᱑᱘᱕
᱑᱘᱕᱐
᱑᱘᱕᱑
᱑᱘᱕᱒
᱑᱘᱕᱓
᱑᱘᱕᱔
᱑᱘᱕᱕
᱑᱘᱕᱗
᱑᱘᱕᱘
᱑᱘᱕᱙
᱑᱘᱖
᱑᱘᱖᱐
᱑᱘᱖᱑
᱑᱘᱖᱒
᱑᱘᱖᱓
᱑᱘᱖᱔
᱑᱘᱖᱕
᱑᱘᱖᱖
᱑᱘᱖᱗
᱑᱘᱖᱘
᱑᱘᱖᱙
᱑᱘᱗
᱑᱘᱗᱐
᱑᱘᱗᱑
᱑᱘᱗᱒
᱑᱘᱗᱓
᱑᱘᱗᱔
᱑᱘᱗᱕
᱑᱘᱗᱖
᱑᱘᱗᱗
᱑᱘᱗᱘
᱑᱘᱗᱙
᱑᱘᱘
᱑᱘᱘᱐
᱑᱘᱘᱑
᱑᱘᱘᱒
᱑᱘᱘᱓
᱑᱘᱘᱔
᱑᱘᱘᱕
᱑᱘᱘᱖
᱑᱘᱘᱗
᱑᱘᱘᱘
᱑᱘᱘᱙
᱑᱘᱙
᱑᱘᱙᱐
᱑᱘᱙᱑
᱑᱘᱙᱒
᱑᱘᱙᱓
᱑᱘᱙᱔
᱑᱘᱙᱕
᱑᱘᱙᱖
᱑᱘᱙᱗
᱑᱘᱙᱘
᱑᱘᱙᱙
᱑᱙
᱑᱙᱐
᱑᱙᱐᱐
᱑᱙᱐᱑
᱑᱙᱐᱒
᱑᱙᱐᱓
᱑᱙᱐᱔
᱑᱙᱐᱕
᱑᱙᱐᱖
᱑᱙᱐᱗
᱑᱙᱐᱘
᱑᱙᱐᱙
᱑᱙᱑
᱑᱙᱑᱐
᱑᱙᱑᱑
᱑᱙᱑᱒
᱑᱙᱑᱓
᱑᱙᱑᱔
᱑᱙᱑᱕
᱑᱙᱑᱖
᱑᱙᱑᱗
᱑᱙᱑᱘
᱑᱙᱑᱙
᱑᱙᱒
᱑᱙᱒᱐
᱑᱙᱒᱑
᱑᱙᱒᱒
᱑᱙᱒᱓
᱑᱙᱒᱔
᱑᱙᱒᱕
᱑᱙᱒᱖
᱑᱙᱒᱗
᱑᱙᱒᱘
᱑᱙᱒᱙
᱑᱙᱓
᱑᱙᱓᱐
᱑᱙᱓᱑
᱑᱙᱓᱒
᱑᱙᱓᱓
᱑᱙᱓᱔
᱑᱙᱓᱕
᱑᱙᱓᱖
᱑᱙᱓᱗
᱑᱙᱓᱘
᱑᱙᱓᱙
᱑᱙᱔
᱑᱙᱔᱐
᱑᱙᱔᱑
᱑᱙᱔᱒
᱑᱙᱔᱓
᱑᱙᱔᱔
᱑᱙᱔᱕
᱑᱙᱔᱖
᱑᱙᱔᱗
᱑᱙᱔᱘
᱑᱙᱔᱙
᱑᱙᱕
᱑᱙᱕᱐
᱑᱙᱕᱑
᱑᱙᱕᱒
᱑᱙᱕᱓
᱑᱙᱕᱔
᱑᱙᱕᱕
᱑᱙᱕᱖
᱑᱙᱕᱗
᱑᱙᱕᱘
᱑᱙᱕᱙
᱑᱙᱖
᱑᱙᱖᱐
᱑᱙᱖᱑
᱑᱙᱖᱒
᱑᱙᱖᱓
᱑᱙᱖᱔
᱑᱙᱖᱕
᱑᱙᱖᱖
᱑᱙᱖᱗
᱑᱙᱖᱘
᱑᱙᱖᱙
᱑᱙᱗
᱑᱙᱗᱐
᱑᱙᱗᱑
᱑᱙᱗᱒
᱑᱙᱗᱓
᱑᱙᱗᱔
᱑᱙᱗᱕
᱑᱙᱗᱖
᱑᱙᱗᱗
᱑᱙᱗᱘
᱑᱙᱗᱙
᱑᱙᱘
᱑᱙᱘᱐
᱑᱙᱘᱑
᱑᱙᱘᱒
᱑᱙᱘᱓
᱑᱙᱘᱔
᱑᱙᱘᱕
᱑᱙᱘᱖
᱑᱙᱘᱗
᱑᱙᱘᱘
᱑᱙᱘᱙
᱑᱙᱙
᱑᱙᱙᱐
᱑᱙᱙᱑
᱑᱙᱙᱒
᱑᱙᱙᱓
᱑᱙᱙᱔
᱑᱙᱙᱕
᱑᱙᱙᱖
᱑᱙᱙᱗
᱑᱙᱙᱘
᱑᱙᱙᱙
᱒
᱒᱐
᱒᱐᱐
᱒᱐᱐᱐
᱒᱐᱐᱑
᱒᱐᱐᱒
᱒᱐᱐᱓
᱒᱐᱐᱔
᱒᱐᱐᱕
᱒᱐᱐᱖
᱒᱐᱐᱗
᱒᱐᱐᱘
᱒᱐᱐᱙
᱒᱐᱑
᱒᱐᱑᱐
᱒᱐᱑᱑
᱒᱐᱑᱒
᱒᱐᱑᱓
᱒᱐᱑᱔
᱒᱐᱑᱕
᱒᱐᱑᱖
᱒᱐᱑᱗
᱒᱐᱑᱘
᱒᱐᱑᱙
᱒᱐᱒
᱒᱐᱒᱐
᱒᱐᱒᱑
᱒᱐᱒᱒
᱒᱐᱒᱘
᱒᱐᱓
᱒᱐᱔
᱒᱐᱔᱖
᱒᱐᱕
᱒᱐᱕᱒
᱒᱐᱖
᱒᱐᱗
᱒᱐᱗᱒
᱒᱐᱘
᱒᱐᱙
᱒᱑
᱒᱑᱐
᱒᱑᱑
᱒᱑᱒
᱒᱑᱓
᱒᱑᱔
᱒᱑᱕
᱒᱑᱖
᱒᱑᱗
᱒᱑᱘
᱒᱑᱙
᱒᱒
᱒᱒᱐
᱒᱒᱑
᱒᱒᱒
᱒᱒᱓
᱒᱒᱔
᱒᱒᱕
᱒᱒᱖
᱒᱒᱗
᱒᱒᱘
᱒᱒᱙
᱒᱓
᱒᱓᱐
᱒᱓᱑
᱒᱓᱒
᱒᱓᱓
᱒᱓᱔
᱒᱓᱕
᱒᱓᱖
᱒᱓᱗
᱒᱓᱘
᱒᱓᱙
᱒᱔
᱒᱔᱐
᱒᱔᱑
᱒᱔᱒
᱒᱔᱓
᱒᱔᱔
᱒᱔᱕
᱒᱔᱖
᱒᱔᱗
᱒᱔᱘
᱒᱔᱙
᱒᱕
᱒᱕᱐
᱒᱕᱐᱐
᱒᱕᱑
᱒᱕᱒
᱒᱕᱓
᱒᱕᱔
᱒᱕᱕
᱒᱕᱖
᱒᱕᱗
᱒᱕᱘
᱒᱕᱙
᱒᱖
᱒᱖᱐
᱒᱖᱑
᱒᱖᱒
᱒᱖᱓
᱒᱖᱔
᱒᱖᱕
᱒᱖᱖
᱒᱖᱗
᱒᱖᱘
᱒᱖᱙
᱒᱗
᱒᱗᱐
᱒᱗᱑
᱒᱗᱒
᱒᱗᱓
᱒᱗᱔
᱒᱗᱕
᱒᱗᱖
᱒᱗᱗
᱒᱗᱘
᱒᱗᱙
᱒᱘
᱒᱘᱐
᱒᱘᱑
᱒᱘᱒
᱒᱘᱓
᱒᱘᱔
᱒᱘᱕
᱒᱘᱖
᱒᱘᱗
᱒᱘᱘
᱒᱘᱙
᱒᱙
᱒᱙᱐
᱒᱙᱑
᱒᱙᱒
᱒᱙᱓
᱒᱙᱔
᱒᱙᱕
᱒᱙᱖
᱒᱙᱗
᱒᱙᱘
᱒᱙᱙
᱓
᱓᱐
᱓᱐᱐
᱓᱐᱐᱐
᱓᱐᱑
᱓᱐᱒
᱓᱐᱓
᱓᱐᱔
᱓᱐᱕
᱓᱐᱖
᱓᱐᱗
᱓᱐᱘
᱓᱐᱙
᱓᱑
᱓᱑᱐
᱓᱑᱑
᱓᱑᱒
᱓᱑᱓
᱓᱑᱔
᱓᱑᱕
᱓᱑᱖
᱓᱑᱗
᱓᱑᱘
᱓᱑᱙
᱓᱒
᱓᱒᱐
᱓᱒᱑
᱓᱒᱒
᱓᱒᱓
᱓᱒᱔
᱓᱒᱕
᱓᱒᱖
᱓᱒᱗
᱓᱒᱘
᱓᱒᱙
᱓᱓
᱓᱓᱐
᱓᱓᱑
᱓᱓᱒
᱓᱓᱓
᱓᱓᱔
᱓᱓᱕
᱓᱓᱖
᱓᱓᱗
᱓᱓᱘
᱓᱓᱙
᱓᱔
᱓᱔᱐
᱓᱔᱑
᱓᱔᱒
᱓᱔᱓
᱓᱔᱔
᱓᱔᱕
᱓᱔᱖
᱓᱔᱗
᱓᱔᱘
᱓᱔᱙
᱓᱕
᱓᱕᱐
᱓᱕᱐᱐
᱓᱕᱑
᱓᱕᱒
᱓᱕᱓
᱓᱕᱔
᱓᱕᱕
᱓᱕᱖
᱓᱕᱗
᱓᱕᱘
᱓᱕᱙
᱓᱖
᱓᱖᱐
᱓᱖᱑
᱓᱖᱒
᱓᱖᱓
᱓᱖᱔
᱓᱖᱕
᱓᱖᱖
᱓᱖᱗
᱓᱖᱘
᱓᱗
᱓᱗᱐
᱓᱗᱑
᱓᱗᱒
᱓᱗᱓
᱓᱗᱔
᱓᱗᱕
᱓᱗᱖
᱓᱗᱗
᱓᱗᱘
᱓᱗᱙
᱓᱘
᱓᱘᱐
᱓᱘᱑
᱓᱘᱒
᱓᱘᱓
᱓᱘᱔
᱓᱘᱕
᱓᱘᱖
᱓᱘᱗
᱓᱘᱘
᱓᱘᱙
᱓᱙
᱓᱙᱐
᱓᱙᱑
᱓᱙᱒
᱓᱙᱓
᱓᱙᱔
᱓᱙᱕
᱓᱙᱖
᱓᱙᱗
᱓᱙᱘
᱓᱙᱙
᱔
᱔᱐
᱔᱐᱐
᱔᱐᱐᱐
᱔᱐᱑
᱔᱐᱒
᱔᱐᱓
᱔᱐᱔
᱔᱐᱕
᱔᱐᱖
᱔᱐᱗
᱔᱐᱘
᱔᱐᱙
᱔᱑
᱔᱑᱐
᱔᱑᱑
᱔᱑᱒
᱔᱑᱓
᱔᱑᱔
᱔᱑᱕
᱔᱑᱖
᱔᱑᱗
᱔᱑᱘
᱔᱑᱙
᱔᱒
᱔᱒᱐
᱔᱒᱑
᱔᱒᱒
᱔᱒᱓
᱔᱒᱔
᱔᱒᱕
᱔᱒᱖
᱔᱒᱗
᱔᱒᱘
᱔᱒᱙
᱔᱓
᱔᱓᱐
᱔᱓᱑
᱔᱓᱒
᱔᱓᱓
᱔᱓᱔
᱔᱓᱕
᱔᱓᱖
᱔᱓᱗
᱔᱓᱘
᱔᱓᱙
᱔᱔
᱔᱔᱐
᱔᱔᱑
᱔᱔᱒
᱔᱔᱓
᱔᱔᱔
᱔᱔᱕
᱔᱔᱗
᱔᱔᱘
᱔᱔᱙
᱔᱕
᱔᱕᱐
᱔᱕᱑
᱔᱕᱒
᱔᱕᱔
᱔᱕᱕
᱔᱕᱖
᱔᱕᱗
᱔᱕᱘
᱔᱕᱙
᱔᱖
᱔᱖᱐
᱔᱖᱑
᱔᱖᱒
᱔᱖᱓
᱔᱖᱔
᱔᱖᱕
᱔᱖᱖
᱔᱖᱗
᱔᱖᱘
᱔᱗
᱔᱗᱐
᱔᱗᱑
᱔᱗᱒
᱔᱗᱓
᱔᱗᱔
᱔᱗᱕
᱔᱗᱖
᱔᱗᱗
᱔᱗᱘
᱔᱗᱙
᱔᱘
᱔᱘᱐
᱔᱘᱑
᱔᱘᱒
᱔᱘᱓
᱔᱘᱔
᱔᱘᱕
᱔᱘᱖
᱔᱘᱗
᱔᱘᱘
᱔᱘᱙
᱔᱙
᱔᱙᱐
᱔᱙᱑
᱔᱙᱒
᱔᱙᱓
᱔᱙᱔
᱔᱙᱕
᱔᱙᱖
᱔᱙᱗
᱔᱙᱘
᱕
᱕᱐
᱕᱐᱐
᱕᱐᱐᱐
᱕᱐᱑
᱕᱐᱒
᱕᱐᱓
᱕᱐᱔
᱕᱐᱕
᱕᱐᱖
᱕᱐᱗
᱕᱐᱘
᱕᱐᱙
᱕᱑
᱕᱑᱐
᱕᱑᱑
᱕᱑᱒
᱕᱑᱓
᱕᱑᱔
᱕᱑᱕
᱕᱑᱗
᱕᱑᱘
᱕᱑᱙
᱕᱒
᱕᱒᱐
᱕᱒᱑
᱕᱒᱒
᱕᱒᱓
᱕᱒᱔
᱕᱒᱕
᱕᱒᱖
᱕᱒᱗
᱕᱒᱘
᱕᱒᱙
᱕᱓
᱕᱓᱐
᱕᱓᱑
᱕᱓᱒
᱕᱓᱓
᱕᱓᱔
᱕᱓᱕
᱕᱓᱖
᱕᱓᱗
᱕᱓᱘
᱕᱓᱙
᱕᱔
᱕᱔᱐
᱕᱔᱑
᱕᱔᱒
᱕᱔᱓
᱕᱔᱔
᱕᱔᱕
᱕᱔᱖
᱕᱔᱗
᱕᱔᱘
᱕᱔᱙
᱕᱕
᱕᱕᱐
᱕᱕᱑
᱕᱕᱒
᱕᱕᱔
᱕᱕᱕
᱕᱕᱖
᱕᱕᱗
᱕᱕᱘
᱕᱕᱙
᱕᱖
᱕᱖᱐
᱕᱖᱑
᱕᱖᱒
᱕᱖᱓
᱕᱖᱔
᱕᱖᱕
᱕᱖᱖
᱕᱖᱗
᱕᱖᱘
᱕᱖᱙
᱕᱗
᱕᱗᱐
᱕᱗᱑
᱕᱗᱒
᱕᱗᱓
᱕᱗᱔
᱕᱗᱕
᱕᱗᱖
᱕᱗᱗
᱕᱗᱘
᱕᱗᱙
᱕᱘
᱕᱘᱐
᱕᱘᱑
᱕᱘᱒
᱕᱘᱓
᱕᱘᱔
᱕᱘᱕
᱕᱘᱖
᱕᱘᱗
᱕᱘᱘
᱕᱘᱙
᱕᱙
᱕᱙᱐
᱕᱙᱑
᱕᱙᱒
᱕᱙᱓
᱕᱙᱔
᱕᱙᱕
᱕᱙᱖
᱕᱙᱗
᱕᱙᱘
᱕᱙᱙
᱖
᱖᱐
᱖᱐᱐
᱖᱐᱐᱐
᱖᱐᱑
᱖᱐᱒
᱖᱐᱓
᱖᱐᱔
᱖᱐᱕
᱖᱐᱖
᱖᱐᱘
᱖᱑
᱖᱑᱐
᱖᱑᱒
᱖᱑᱔
᱖᱑᱕
᱖᱑᱖
᱖᱑᱗
᱖᱑᱘
᱖᱑᱙
᱖᱒
᱖᱒᱐
᱖᱒᱑
᱖᱒᱒
᱖᱒᱓
᱖᱒᱔
᱖᱒᱕
᱖᱒᱖
᱖᱒᱗
᱖᱒᱘
᱖᱒᱙
᱖᱓
᱖᱓᱐
᱖᱓᱑
᱖᱓᱒
᱖᱓᱓
᱖᱓᱔
᱖᱓᱕
᱖᱓᱖
᱖᱓᱗
᱖᱓᱘
᱖᱓᱙
᱖᱔
᱖᱔᱐
᱖᱔᱑
᱖᱔᱒
᱖᱔᱓
᱖᱔᱔
᱖᱔᱕
᱖᱔᱖
᱖᱔᱘
᱖᱔᱙
᱖᱕
᱖᱕᱐
᱖᱕᱑
᱖᱕᱒
᱖᱕᱓
᱖᱕᱔
᱖᱕᱖
᱖᱕᱗
᱖᱕᱘
᱖᱕᱙
᱖᱖
᱖᱖᱐
᱖᱖᱑
᱖᱖᱓
᱖᱖᱔
᱖᱖᱕
᱖᱖᱗
᱖᱖᱘
᱖᱗
᱖᱗᱐
᱖᱗᱑
᱖᱗᱒
᱖᱗᱓
᱖᱗᱕
᱖᱗᱖
᱖᱗᱗
᱖᱗᱘
᱖᱗᱙
᱖᱘
᱖᱘᱐
᱖᱘᱑
᱖᱘᱒
᱖᱘᱓
᱖᱘᱔
᱖᱘᱖
᱖᱘᱘
᱖᱘᱙
᱖᱙
᱖᱙᱐
᱖᱙᱑
᱖᱙᱒
᱖᱙᱓
᱖᱙᱔
᱖᱙᱕
᱖᱙᱖
᱖᱙᱗
᱖᱙᱘
᱖᱙᱙
᱗
᱗᱐
᱗᱐᱐
᱗᱐᱐᱐
᱗᱐᱑
᱗᱐᱒
᱗᱐᱓
᱗᱐᱔
᱗᱐᱕
᱗᱐᱖
᱗᱐᱗
᱗᱐᱘
᱗᱐᱙
᱗᱑
᱗᱑᱐
᱗᱑᱑
᱗᱑᱒
᱗᱑᱓
᱗᱑᱔
᱗᱑᱕
᱗᱑᱖
᱗᱑᱗
᱗᱑᱘
᱗᱑᱙
᱗᱒
᱗᱒᱐
᱗᱒᱓
᱗᱒᱔
᱗᱒᱕
᱗᱒᱖
᱗᱒᱗
᱗᱒᱘
᱗᱓
᱗᱓᱐
᱗᱓᱑
᱗᱓᱒
᱗᱓᱓
᱗᱓᱔
᱗᱓᱖
᱗᱓᱘
᱗᱓᱙
᱗᱔
᱗᱔᱐
᱗᱔᱑
᱗᱔᱒
᱗᱔᱓
᱗᱔᱔
᱗᱔᱕
᱗᱔᱖
᱗᱔᱗
᱗᱔᱘
᱗᱕
᱗᱕᱐
᱗᱕᱑
᱗᱕᱒
᱗᱕᱓
᱗᱕᱔
᱗᱕᱕
᱗᱕᱖
᱗᱕᱗
᱗᱕᱘
᱗᱖
᱗᱖᱐
᱗᱖᱑
᱗᱖᱒
᱗᱖᱔
᱗᱖᱕
᱗᱖᱖
᱗᱖᱘
᱗᱗
᱗᱗᱐
᱗᱗᱑
᱗᱗᱒
᱗᱗᱓
᱗᱗᱔
᱗᱗᱕
᱗᱗᱖
᱗᱗᱗
᱗᱗᱘
᱗᱗᱙
᱗᱘
᱗᱘᱐
᱗᱘᱑
᱗᱘᱔
᱗᱘᱖
᱗᱘᱗
᱗᱘᱘
᱗᱘᱙
᱗᱙
᱗᱙᱐
᱗᱙᱑
᱗᱙᱒
᱗᱙᱓
᱗᱙᱔
᱗᱙᱗
᱗᱙᱙
᱘
᱘᱐
᱘᱐᱐
᱘᱐᱐᱐
᱘᱐᱑
᱘᱐᱔
᱘᱐᱕
᱘᱐᱖
᱘᱐᱗
᱘᱐᱘
᱘᱐᱙
᱘᱑
᱘᱑᱐
᱘᱑᱑
᱘᱑᱒
᱘᱑᱓
᱘᱑᱔
᱘᱑᱕
᱘᱑᱖
᱘᱑᱗
᱘᱑᱘
᱘᱑᱙
᱘᱒
᱘᱒᱐
᱘᱒᱒
᱘᱒᱓
᱘᱒᱔
᱘᱒᱖
᱘᱒᱗
᱘᱒᱙
᱘᱓
᱘᱓᱐
᱘᱓᱑
᱘᱓᱓
᱘᱓᱖
᱘᱓᱗
᱘᱓᱘
᱘᱓᱙
᱘᱔
᱘᱔᱐
᱘᱔᱑
᱘᱔᱓
᱘᱔᱔
᱘᱔᱕
᱘᱔᱗
᱘᱔᱘
᱘᱔᱙
᱘᱕
᱘᱕᱐
᱘᱕᱑
᱘᱕᱒
᱘᱕᱓
᱘᱕᱔
᱘᱕᱕
᱘᱕᱖
᱘᱕᱗
᱘᱕᱘
᱘᱕᱙
᱘᱖
᱘᱖᱐
᱘᱖᱑
᱘᱖᱒
᱘᱖᱓
᱘᱖᱔
᱘᱖᱕
᱘᱖᱗
᱘᱖᱘
᱘᱖᱙
᱘᱗
᱘᱗᱐
᱘᱗᱑
᱘᱗᱒
᱘᱗᱓
᱘᱗᱔
᱘᱗᱕
᱘᱗᱖
᱘᱗᱗
᱘᱗᱘
᱘᱗᱙
᱘᱘
᱘᱘᱐
᱘᱘᱑
᱘᱘᱒
᱘᱘᱓
᱘᱘᱔
᱘᱘᱕
᱘᱘᱖
᱘᱘᱗
᱘᱘᱘
᱘᱘᱙
᱘᱙
᱘᱙᱐
᱘᱙᱑
᱘᱙᱒
᱘᱙᱓
᱘᱙᱔
᱘᱙᱕
᱘᱙᱖
᱘᱙᱗
᱘᱙᱘
᱘᱙᱙
᱙
᱙᱐
᱙᱐᱐
᱙᱐᱑
᱙᱐᱒
᱙᱐᱓
᱙᱐᱔
᱙᱐᱕
᱙᱐᱖
᱙᱐᱗
᱙᱐᱘
᱙᱐᱙
᱙᱑
᱙᱑᱐
᱙᱑᱑
᱙᱑᱒
᱙᱑᱓
᱙᱑᱔
᱙᱑᱕
᱙᱑᱖
᱙᱑᱗
᱙᱑᱘
᱙᱑᱙
᱙᱒
᱙᱒᱐
᱙᱒᱑
᱙᱒᱒
᱙᱒᱓
᱙᱒᱔
᱙᱒᱕
᱙᱒᱖
᱙᱒᱗
᱙᱒᱘
᱙᱒᱙
᱙᱓
᱙᱓᱐
᱙᱓᱑
᱙᱓᱒
᱙᱓᱓
᱙᱓᱔
᱙᱓᱕
᱙᱓᱖
᱙᱓᱗
᱙᱓᱘
᱙᱓᱙
᱙᱔
᱙᱔᱐
᱙᱔᱑
᱙᱔᱒
᱙᱔᱓
᱙᱔᱔
᱙᱔᱕
᱙᱔᱖
᱙᱔᱗
᱙᱔᱘
᱙᱔᱙
᱙᱕
᱙᱕᱐
᱙᱕᱑
᱙᱕᱒
᱙᱕᱓
᱙᱕᱔
᱙᱕᱕
᱙᱕᱖
᱙᱕᱗
᱙᱕᱘
᱙᱕᱙
᱙᱖
᱙᱖᱐
᱙᱖᱑
᱙᱖᱒
᱙᱖᱓
᱙᱖᱔
᱙᱖᱖
᱙᱖᱗
᱙᱖᱘
᱙᱖᱙
᱙᱗
᱙᱗᱐
᱙᱗᱑
᱙᱗᱒
᱙᱗᱓
᱙᱗᱔
᱙᱗᱕
᱙᱗᱖
᱙᱗᱗
᱙᱗᱘
᱙᱗᱙
᱙᱘
᱙᱘᱐
᱙᱘᱑
᱙᱘᱒
᱙᱘᱓
᱙᱘᱔
᱙᱘᱕
᱙᱘᱖
᱙᱘᱗
᱙᱘᱘
᱙᱘᱙
᱙᱙
᱙᱙᱐
᱙᱙᱑
᱙᱙᱒
᱙᱙᱓
᱙᱙᱔
᱙᱙᱕
᱙᱙᱖
᱙᱙᱗
᱙᱙᱘
᱙᱙᱙
ᱚ
ᱚᱛ
ᱚᱛᱞᱟᱲᱟᱣ
ᱚᱛᱟ
ᱚᱛᱠᱚ
ᱚᱛᱢᱚᱱ
ᱚᱛᱦᱟᱥᱟ
ᱚᱛᱨᱮ
ᱚᱛᱩᱞ
ᱚᱛᱮ
ᱚᱛᱮᱛ
ᱚᱛᱱᱚ
ᱚᱛᱱᱚᱛ
ᱚᱛᱱᱚᱜ
ᱚᱛᱱᱮᱛ
ᱚᱛᱷᱚᱨᱤᱴᱤ
ᱚᱛᱼᱦᱟᱥᱟ
ᱚᱜ
ᱚᱜᱚᱥᱴ
ᱚᱜᱚᱥᱴᱚ
ᱚᱜᱚᱨᱛᱟᱞᱟ
ᱚᱜᱚᱨᱣᱟᱞ
ᱚᱜᱟᱥᱴᱟᱥ
ᱚᱜᱼᱟ
ᱚᱜᱽᱨᱚᱣᱟᱞ
ᱚᱜᱽᱱᱤ
ᱚᱝ
ᱚᱝᱜᱚ
ᱚᱝᱜᱚᱥ
ᱚᱝᱜᱚᱱ
ᱚᱝᱜᱩᱨ
ᱚᱝᱠᱟ
ᱚᱝᱠᱟᱱ
ᱚᱝᱠᱤᱛ
ᱚᱝᱥᱚ
ᱚᱝᱥᱚᱝ
ᱚᱝᱥᱟᱨ
ᱚᱞ
ᱚᱞᱚᱜ
ᱚᱞᱚᱜᱼᱟ
ᱚᱞᱚᱢᱯᱤᱠ
ᱚᱞᱚᱱᱫᱟᱡᱽ
ᱚᱞᱜᱟ
ᱚᱞᱞᱩ
ᱚᱞᱟ
ᱚᱞᱟᱛ
ᱚᱞᱟᱜ
ᱚᱞᱤ
ᱚᱞᱤᱜᱚᱰ
ᱚᱞᱤᱡ
ᱚᱞᱤᱢᱯᱤᱠ
ᱚᱞᱤᱯᱩᱨᱫᱩᱣᱟᱨ
ᱚᱞᱤᱵᱷᱤᱭᱟ
ᱚᱞᱪᱤᱠᱤ
ᱚᱞᱮ
ᱚᱞᱮᱝᱯᱤᱠ
ᱚᱞᱮᱢᱯᱤᱠ
ᱚᱞᱮᱫ
ᱚᱞᱴᱨᱟᱴᱮᱠ
ᱚᱞᱼᱛᱚᱞ
ᱚᱠᱚᱡ
ᱚᱠᱚᱭ
ᱚᱠᱚᱭᱟᱜ
ᱚᱠᱚᱭᱮ
ᱚᱠᱛᱚ
ᱚᱠᱛᱚᱨᱮ
ᱚᱠᱛᱚᱭ
ᱚᱠᱛᱟ
ᱚᱠᱛᱮ
ᱚᱠᱛᱳ
ᱚᱠᱟ
ᱚᱠᱟᱛᱮ
ᱚᱠᱟᱨᱮ
ᱚᱠᱟᱴᱟᱜ
ᱚᱠᱟᱼᱚᱠᱟ
ᱚᱠᱠᱤᱱᱮᱱᱤ
ᱚᱠᱥᱟᱭᱤᱰ
ᱚᱠᱥᱤᱡᱮᱱ
ᱚᱠᱥᱤᱴᱟᱱ
ᱚᱠᱥᱯᱷᱚᱨᱰ
ᱚᱠᱥᱯᱷᱳᱨᱰ
ᱚᱠᱪᱷᱟᱸᱥ
ᱚᱠᱴᱚᱯᱚᱥ
ᱚᱠᱴᱚᱵᱚᱨ
ᱚᱠᱴᱚᱵᱟᱨ
ᱚᱠᱴᱩᱵᱚᱨ
ᱚᱠᱴᱩᱵᱟᱨ
ᱚᱠᱴᱳᱵᱚᱨ
ᱚᱠᱵᱚᱨ
ᱚᱠᱷᱚᱭ
ᱚᱠᱷᱤᱞ
ᱚᱠᱷᱭᱚᱨᱟ
ᱚᱠᱷᱭᱚᱭ
ᱚᱡ
ᱚᱡᱚᱜ
ᱚᱡᱚᱭ
ᱚᱡᱚᱱ
ᱚᱡᱤᱛ
ᱚᱡᱮ
ᱚᱡᱷᱟ
ᱚᱡᱽᱨᱟ
ᱚᱢ
ᱚᱢᱚᱨ
ᱚᱢᱚᱨᱟᱵᱚᱛᱤ
ᱚᱢᱚᱨᱫᱟ
ᱚᱢᱚᱨᱱᱟᱛᱷ
ᱚᱢᱚᱱ
ᱚᱢᱚᱱᱚᱜ
ᱚᱢᱚᱱᱚᱜᱼᱟ
ᱚᱢᱚᱲ
ᱚᱢᱟᱞᱩ
ᱚᱢᱟᱱ
ᱚᱢᱤᱛ
ᱚᱢᱤᱛᱟᱵᱷ
ᱚᱢᱤᱨ
ᱚᱢᱨᱟᱵᱚᱛᱤ
ᱚᱢᱨᱤᱛ
ᱚᱢᱨᱤᱛᱟ
ᱚᱢᱨᱩᱛᱥᱚᱨ
ᱚᱢᱨᱮᱞᱤ
ᱚᱢᱩᱞ
ᱚᱢᱵᱚᱨ
ᱚᱢᱵᱟᱱᱤ
ᱚᱢᱵᱤᱠᱟ
ᱚᱢᱵᱮᱫᱽᱠᱚᱨ
ᱚᱣᱟᱝ
ᱚᱣᱟᱡᱮᱫᱽ
ᱚᱣᱟᱥᱤᱝᱴᱚᱱ
ᱚᱣᱟᱨ
ᱚᱣᱟᱨᱰ
ᱚᱣᱟᱨᱱ
ᱚᱣᱨᱚᱝᱜᱟᱵᱟᱫᱽ
ᱚᱥᱚᱞ
ᱚᱥᱚᱠ
ᱚᱥᱚᱢᱤᱭᱟ
ᱚᱥᱛᱤᱛᱣᱚ
ᱚᱥᱟᱨ
ᱚᱥᱟᱨᱟ
ᱚᱥᱟᱵᱷᱟᱵᱤᱠ
ᱚᱥᱣᱤᱱ
ᱚᱥᱣᱤᱱᱤ
ᱚᱥᱤᱛ
ᱚᱥᱤᱢ
ᱚᱥᱩᱨ
ᱚᱥᱳᱠ
ᱚᱥᱴᱚᱢᱤ
ᱚᱥᱴᱨᱚ
ᱚᱥᱴᱨᱤᱭᱟ
ᱚᱥᱴᱨᱮᱞᱤᱭᱟ
ᱚᱥᱴᱨᱮᱞᱤᱭᱟᱱ
ᱚᱥᱴᱨᱱᱮᱥᱤᱭᱟᱱ
ᱚᱥᱴᱨᱳᱱᱮᱥᱤᱭᱟᱱ
ᱚᱥᱴᱨᱳᱼᱮᱥᱤᱭᱟᱴᱤᱠ
ᱚᱦᱚ
ᱚᱦᱚᱢ
ᱚᱦᱚᱢᱚᱫᱟᱵᱟᱫᱽ
ᱚᱦᱚᱢᱫᱟᱵᱟᱫᱽ
ᱚᱦᱚᱫ
ᱚᱦᱢᱚᱫᱟᱵᱟᱫᱽ
ᱚᱦᱢᱚᱫᱽ
ᱚᱦᱢᱚᱫᱽᱱᱚᱜᱚᱨ
ᱚᱦᱬᱮ
ᱚᱧᱡᱚᱲᱤ
ᱚᱧᱪᱚᱞ
ᱚᱨ
ᱚᱨᱚᱝ
ᱚᱨᱚᱵᱤᱱᱫᱚ
ᱚᱨᱛᱷᱚᱜᱽᱨᱟᱯᱷᱤ
ᱚᱨᱛᱷᱜᱽᱨᱟᱯᱷᱤ
ᱚᱨᱜᱟᱱ
ᱚᱨᱜᱟᱱᱟᱭᱡᱮᱥᱚᱱ
ᱚᱨᱟ
ᱚᱨᱟᱜ
ᱚᱨᱟᱢ
ᱚᱨᱟᱶ
ᱚᱨᱡᱚ
ᱚᱨᱡᱩᱱ
ᱚᱨᱡᱩᱱᱟ
ᱚᱨᱤᱭᱟᱞᱩᱨ
ᱚᱨᱥᱚᱝ
ᱚᱨᱩᱬ
ᱚᱨᱩᱬᱟ
ᱚᱨᱩᱬᱟᱪᱚᱞ
ᱚᱨᱩᱬᱟᱪᱚᱲ
ᱚᱨᱩᱱ
ᱚᱨᱩᱱᱟᱪᱚᱞ
ᱚᱨᱩᱱᱫᱷᱚᱛᱤ
ᱚᱨᱩᱱᱰᱮᱞ
ᱚᱨᱪᱚᱱᱟ
ᱚᱨᱫᱷᱮᱠ
ᱚᱪᱚ
ᱚᱪᱚᱜ
ᱚᱪᱚᱞᱮᱱᱟ
ᱚᱪᱚᱫ
ᱚᱪᱚᱭ
ᱚᱪᱚᱭᱟ
ᱚᱪᱚᱭᱟᱭ
ᱚᱪᱚᱭᱮ
ᱚᱪᱚᱭᱮᱫ
ᱚᱪᱚᱭᱮᱱᱟ
ᱚᱪᱩ
ᱚᱪᱩᱭᱟ
ᱚᱪᱭᱩᱛᱟᱱᱚᱱᱫᱚ
ᱚᱫᱚ
ᱚᱫᱟ
ᱚᱫᱟᱢ
ᱚᱫᱷᱤᱠᱟᱨ
ᱚᱫᱷᱤᱠᱟᱨᱤ
ᱚᱫᱷᱤᱱᱤᱭᱚᱢ
ᱚᱫᱷᱤᱱᱤᱭᱟᱢ
ᱚᱭ
ᱚᱭᱟᱨᱠ
ᱚᱭᱥᱣᱚᱨᱭᱟ
ᱚᱭᱮᱞ
ᱚᱭᱮᱵᱟᱨ
ᱚᱯ
ᱚᱯᱚᱡᱤᱥᱚᱱ
ᱚᱯᱚᱨᱟᱡᱤᱛᱟ
ᱚᱯᱚᱨᱱᱟ
ᱚᱯᱦᱤᱥ
ᱚᱯᱨᱟᱡᱤᱛᱟ
ᱚᱯᱨᱟᱫᱷ
ᱚᱯᱨᱮᱞ
ᱚᱯᱨᱮᱥᱚᱱ
ᱚᱯᱨᱮᱴᱟᱨ
ᱚᱯᱮᱞ
ᱚᱯᱮᱨᱟ
ᱚᱯᱮᱨᱮᱴᱤᱝ
ᱚᱯᱮᱱ
ᱚᱯᱷ
ᱚᱯᱷᱚᱨ
ᱚᱯᱷᱤᱥ
ᱚᱯᱷᱤᱥᱚᱨ
ᱚᱯᱷᱤᱥᱟᱨ
ᱚᱯᱷᱤᱥᱤᱭᱟᱞ
ᱚᱯᱷᱤᱥᱤᱭᱟᱞᱤ
ᱚᱰᱚᱜ
ᱚᱰᱚᱠ
ᱚᱰᱚᱠᱚᱜ
ᱚᱰᱚᱠᱚᱜᱼᱟ
ᱚᱰᱚᱠᱟ
ᱚᱰᱤᱥᱚᱱ
ᱚᱰᱤᱥᱤ
ᱚᱰᱤᱭᱟ
ᱚᱰᱤᱭᱳ
ᱚᱰᱮ
ᱚᱱ
ᱚᱱᱚ
ᱚᱱᱚᱞ
ᱚᱱᱚᱞᱠᱚ
ᱚᱱᱚᱞᱤᱭᱟ
ᱚᱱᱚᱞᱤᱭᱟᱹ
ᱚᱱᱚᱞᱤᱭᱟᱹᱭ
ᱚᱱᱚᱥᱩᱭᱟ
ᱚᱱᱚᱨ
ᱚᱱᱚᱨᱥ
ᱚᱱᱚᱬᱦᱤᱭᱟ
ᱚᱱᱚᱬᱦᱤᱭᱟᱹ
ᱚᱱᱚᱬᱦᱤᱭᱟᱹᱭ
ᱚᱱᱚᱬᱦᱮ
ᱚᱱᱚᱬᱦᱮᱭ
ᱚᱱᱚᱬᱦᱮᱸ
ᱚᱱᱚᱱᱛᱚ
ᱚᱱᱚᱱᱛᱚᱯᱩᱨ
ᱚᱱᱚᱱᱛᱚᱯᱩᱨᱚᱢ
ᱚᱱᱚᱱᱛᱚᱱᱟᱜ
ᱚᱱᱚᱱᱛᱚᱱᱟᱜᱽ
ᱚᱱᱚᱱᱭᱟ
ᱚᱱᱚᱲᱦᱤᱭᱟ
ᱚᱱᱚᱲᱦᱤᱭᱟᱹ
ᱚᱱᱚᱲᱦᱮ
ᱚᱱᱚᱲᱦᱮᱸ
ᱚᱱᱛᱚᱨ
ᱚᱱᱛᱩ
ᱚᱱᱛᱮ
ᱚᱱᱞᱟᱤᱱ
ᱚᱱᱞᱟᱭᱤᱱ
ᱚᱱᱟ
ᱚᱱᱟᱛᱟᱭᱚᱢ
ᱚᱱᱟᱛᱮ
ᱚᱱᱟᱛᱮᱜᱮ
ᱚᱱᱟᱜᱮ
ᱚᱱᱟᱠᱚ
ᱚᱱᱟᱠᱚᱫᱚ
ᱚᱱᱟᱠᱤᱱ
ᱚᱱᱟᱠᱩ
ᱚᱱᱟᱨ
ᱚᱱᱟᱨᱥ
ᱚᱱᱟᱨᱮ
ᱚᱱᱟᱨᱮᱱᱟᱜ
ᱚᱱᱟᱫᱚ
ᱚᱱᱟᱭ
ᱚᱱᱠᱟ
ᱚᱱᱠᱟᱛᱮ
ᱚᱱᱠᱟᱜᱮ
ᱚᱱᱠᱟᱱ
ᱚᱱᱠᱟᱱᱟᱜ
ᱚᱱᱠᱩ
ᱚᱱᱡᱚᱲᱤ
ᱚᱱᱢᱟᱱ
ᱚᱱᱤ
ᱚᱱᱤᱛᱟ
ᱚᱱᱤᱞ
ᱚᱱᱦᱚᱬᱤᱭᱟᱹ
ᱚᱱᱦᱚᱬᱮ
ᱚᱱᱩ
ᱚᱱᱩᱜᱩᱲ
ᱚᱱᱩᱢᱚᱛᱤ
ᱚᱱᱩᱢᱟᱱ
ᱚᱱᱩᱥᱚᱫᱽ
ᱚᱱᱩᱥᱟᱨ
ᱚᱱᱩᱥᱠᱟ
ᱚᱱᱩᱥᱴᱷᱟᱱ
ᱚᱱᱩᱨᱟᱜ
ᱚᱱᱩᱨᱟᱜᱽ
ᱚᱱᱩᱨᱟᱫᱷᱟ
ᱚᱱᱩᱨᱫᱷᱚ
ᱚᱱᱩᱯᱚᱢᱟ
ᱚᱱᱩᱯᱟᱛ
ᱚᱱᱩᱵᱷᱩᱛᱤ
ᱚᱱᱪᱚᱞ
ᱚᱱᱪᱟᱞ
ᱚᱱᱬᱦᱮ
ᱚᱱᱭᱟᱱᱭᱚ
ᱚᱱᱮ
ᱚᱱᱰᱚᱠ
ᱚᱱᱰᱚᱠᱚᱜᱼᱟ
ᱚᱱᱰᱚᱨ
ᱚᱱᱰᱮ
ᱚᱱᱰᱮᱱ
ᱚᱱᱰᱮᱱᱟᱜ
ᱚᱲᱚᱝ
ᱚᱲᱟᱜ
ᱚᱲᱟᱜᱨᱮ
ᱚᱲᱠᱤ
ᱚᱲᱮᱡ
ᱚᱲᱮᱭᱤᱪᱚ
ᱚᱴᱚ
ᱚᱴᱚᱞ
ᱚᱴᱚᱨᱤᱴᱤ
ᱚᱴᱚᱱᱚᱢᱚᱥ
ᱚᱴᱚᱱᱚᱢᱟᱥ
ᱚᱴᱟᱝ
ᱚᱴᱣᱟᱞ
ᱚᱴᱴᱚᱢ
ᱚᱵ
ᱚᱵᱚᱛᱟᱨ
ᱚᱵᱚᱥᱛᱟ
ᱚᱵᱚᱥᱛᱟᱱ
ᱚᱵᱚᱥᱛᱷᱟ
ᱚᱵᱚᱫᱷ
ᱚᱵᱚᱫᱷᱤ
ᱚᱵᱟᱢᱟ
ᱚᱵᱤᱥ
ᱚᱵᱩ
ᱚᱵᱷᱚᱨ
ᱚᱵᱷᱚᱭ
ᱚᱵᱷᱚᱭᱟᱨᱚᱬᱭᱚ
ᱚᱵᱷᱚᱭᱱᱚᱜᱚᱨ
ᱚᱵᱷᱟᱨ
ᱚᱵᱷᱟᱵᱽ
ᱚᱵᱷᱤᱡᱤᱛ
ᱚᱵᱷᱤᱥᱮᱠ
ᱚᱵᱷᱤᱭᱟᱱ
ᱚᱵᱷᱤᱰ
ᱚᱵᱷᱤᱱᱚᱭ
ᱚᱵᱷᱤᱱᱚᱭᱮ
ᱚᱵᱷᱤᱱᱮᱛᱟ
ᱚᱵᱷᱤᱱᱮᱛᱨᱤ
ᱚᱵᱷᱭᱟᱥ
ᱚᱵᱽ
ᱚᱵᱽᱫᱟᱞᱤ
ᱚᱵᱽᱫᱩᱞ
ᱚᱵᱽᱫᱩᱞᱞᱟ
ᱚᱵᱽᱫᱩᱨ
ᱚᱶᱟᱝ
ᱚᱸᱡᱩ
ᱚᱸᱰᱚᱠ
ᱚᱸᱰᱚᱠᱚᱜᱼᱟ
ᱚᱸᱰᱮ
ᱚᱸᱰᱮᱜᱮ
ᱚᱸᱰᱮᱱ
ᱚᱸᱰᱮᱱᱟᱜ
ᱚᱸᱰᱮᱱᱠᱩ
ᱚᱸᱰᱮᱱᱤᱡ
ᱚᱸᱲᱟ
ᱛ
ᱛᱚ
ᱛᱚᱛᱠᱟᱞᱤᱱ
ᱛᱚᱛᱷᱭᱚ
ᱛᱚᱝᱜᱮ
ᱛᱚᱞ
ᱛᱚᱞᱟ
ᱛᱚᱞᱟᱥ
ᱛᱚᱞᱠᱷᱚ
ᱛᱚᱠᱚᱭ
ᱛᱚᱠᱷᱚᱱ
ᱛᱚᱢ
ᱛᱚᱢᱚᱱᱱᱟ
ᱛᱚᱢᱟᱨ
ᱛᱚᱣᱟ
ᱛᱚᱣᱟᱝ
ᱛᱚᱦᱚ
ᱛᱚᱦᱚᱥᱤᱞ
ᱛᱚᱦᱚᱨ
ᱛᱚᱦᱥᱤᱞ
ᱛᱚᱨ
ᱛᱚᱨᱚᱝᱜᱚ
ᱛᱚᱨᱚᱞ
ᱛᱚᱨᱚᱡ
ᱛᱚᱨᱟ
ᱛᱚᱨᱟᱣ
ᱛᱚᱨᱟᱣᱟ
ᱛᱚᱨᱟᱭ
ᱛᱚᱨᱡᱚᱢᱟ
ᱛᱚᱨᱡᱚᱢᱟᱭ
ᱛᱚᱨᱩᱱ
ᱛᱚᱨᱯᱟ
ᱛᱚᱭᱚᱢ
ᱛᱚᱯᱚᱞ
ᱛᱚᱯᱟ
ᱛᱚᱯᱟᱜ
ᱛᱚᱯᱷᱟᱛ
ᱛᱚᱱᱚᱲ
ᱛᱚᱱᱛᱚᱨᱚ
ᱛᱚᱱᱛᱨᱚ
ᱛᱚᱱᱫᱽᱨᱟ
ᱛᱚᱲ
ᱛᱚᱲᱟᱯᱟᱛᱤ
ᱛᱚᱲᱮ
ᱛᱚᱵᱩ
ᱛᱚᱵᱮ
ᱛᱚᱸᱜᱮ
ᱛᱚᱸᱡᱟᱵᱩᱨ
ᱛᱟ
ᱛᱟᱛᱟᱨ
ᱛᱟᱛᱣᱚ
ᱛᱟᱜᱟᱞᱚᱜᱽ
ᱛᱟᱝ
ᱛᱟᱝᱠᱷᱩᱞ
ᱛᱟᱞ
ᱛᱟᱞᱚᱢ
ᱛᱟᱞᱟ
ᱛᱟᱞᱟᱛᱮ
ᱛᱟᱞᱟᱢ
ᱛᱟᱞᱟᱢᱟ
ᱛᱟᱞᱟᱢᱟᱞᱟ
ᱛᱟᱞᱟᱣ
ᱛᱟᱞᱟᱨ
ᱛᱟᱞᱟᱨᱮ
ᱛᱟᱞᱟᱭᱮᱱ
ᱛᱟᱞᱟᱭᱮᱱᱟ
ᱛᱟᱞᱟᱱᱟ
ᱛᱟᱞᱠᱟ
ᱛᱟᱞᱠᱷᱟ
ᱛᱟᱞᱡᱷᱟᱨᱤ
ᱛᱟᱞᱢᱟ
ᱛᱟᱞᱤᱠᱟ
ᱛᱟᱞᱤᱵᱟᱱ
ᱛᱟᱞᱩᱠ
ᱛᱟᱞᱩᱠᱟ
ᱛᱟᱞᱮ
ᱛᱟᱞᱮᱨᱮ
ᱛᱟᱞᱱᱟ
ᱛᱟᱞᱵᱟᱜᱤᱪᱟ
ᱛᱟᱠ
ᱛᱟᱠᱚ
ᱛᱟᱠᱚᱣᱟ
ᱛᱟᱠᱤᱱ
ᱛᱟᱠᱤᱱᱟ
ᱛᱟᱠᱤᱱᱟᱜ
ᱛᱟᱠᱩᱣᱟ
ᱛᱟᱡ
ᱛᱟᱡᱤᱠ
ᱛᱟᱡᱤᱠᱤᱥᱛᱟᱱ
ᱛᱟᱡᱽ
ᱛᱟᱡᱽᱢᱚᱦᱚᱞ
ᱛᱟᱢ
ᱛᱟᱢᱞᱟ
ᱛᱟᱢᱞᱩᱠ
ᱛᱟᱢᱟ
ᱛᱟᱢᱟᱝ
ᱛᱟᱢᱟᱠ
ᱛᱟᱢᱟᱲ
ᱛᱟᱢᱤᱞ
ᱛᱟᱢᱤᱞᱤ
ᱛᱟᱢᱤᱞᱱᱟᱰᱩ
ᱛᱟᱢᱥᱟ
ᱛᱟᱢᱮᱝᱞᱚᱝ
ᱛᱟᱢᱵᱟ
ᱛᱟᱣ
ᱛᱟᱣᱟ
ᱛᱟᱣᱤ
ᱛᱟᱣᱦᱚᱞᱮ
ᱛᱟᱥᱟᱫ
ᱛᱟᱥᱮ
ᱛᱟᱦ
ᱛᱟᱦᱞᱮ
ᱛᱟᱦᱟ
ᱛᱟᱦᱟᱸ
ᱛᱟᱦᱥᱤᱞ
ᱛᱟᱦᱮ
ᱛᱟᱦᱮᱞᱮᱱᱟ
ᱛᱟᱦᱮᱠᱟᱱ
ᱛᱟᱦᱮᱠᱟᱱᱟ
ᱛᱟᱦᱮᱨ
ᱛᱟᱦᱮᱫ
ᱛᱟᱦᱮᱭᱮᱱᱟ
ᱛᱟᱦᱮᱱ
ᱛᱟᱦᱮᱱᱟ
ᱛᱟᱦᱮᱱᱟᱠᱚ
ᱛᱟᱦᱮᱱᱟᱭ
ᱛᱟᱦᱮᱱᱟᱱ
ᱛᱟᱦᱮᱱᱫ
ᱛᱟᱦᱮᱱᱼᱟ
ᱛᱟᱦᱮᱸ
ᱛᱟᱦᱮᱸᱜ
ᱛᱟᱦᱮᱸᱞᱮᱱ
ᱛᱟᱦᱮᱸᱞᱮᱱᱟ
ᱛᱟᱦᱮᱸᱞᱮᱱᱟᱭ
ᱛᱟᱦᱮᱸᱟᱭ
ᱛᱟᱦᱮᱸᱠᱟᱱ
ᱛᱟᱦᱮᱸᱠᱟᱱᱟ
ᱛᱟᱦᱮᱸᱠᱟᱱᱟᱭ
ᱛᱟᱦᱮᱸᱡ
ᱛᱟᱦᱮᱸᱫ
ᱛᱟᱦᱮᱸᱫᱚᱜ
ᱛᱟᱦᱮᱸᱭᱟ
ᱛᱟᱦᱮᱸᱭᱮᱱᱟ
ᱛᱟᱦᱮᱸᱱ
ᱛᱟᱦᱮᱸᱱᱚᱜ
ᱛᱟᱦᱮᱸᱱᱟ
ᱛᱟᱦᱮᱸᱱᱟᱠᱚ
ᱛᱟᱦᱮᱸᱱᱟᱭ
ᱛᱟᱦᱮᱸᱼᱟᱭ
ᱛᱟᱨ
ᱛᱟᱨᱟ
ᱛᱟᱨᱟᱜᱚᱸᱡᱽ
ᱛᱟᱨᱟᱥ
ᱛᱟᱨᱟᱥᱤᱧ
ᱛᱟᱨᱟᱭ
ᱛᱟᱨᱟᱭᱟ
ᱛᱟᱨᱟᱯᱤᱴᱷ
ᱛᱟᱨᱠᱚ
ᱛᱟᱨᱡᱚᱢᱟ
ᱛᱟᱨᱤᱠ
ᱛᱟᱨᱤᱱ
ᱛᱟᱨᱥᱣᱤᱱ
ᱛᱟᱨᱩᱵ
ᱛᱟᱨᱮ
ᱛᱟᱨᱮᱱ
ᱛᱟᱨᱯᱚᱨᱮ
ᱛᱟᱨᱱᱟ
ᱛᱟᱬᱟᱜ
ᱛᱟᱭ
ᱛᱟᱭᱚᱢ
ᱛᱟᱭᱚᱢᱛᱮ
ᱛᱟᱭᱚᱱ
ᱛᱟᱭᱟ
ᱛᱟᱭᱟᱜ
ᱛᱟᱭᱟᱢ
ᱛᱟᱭᱟᱱ
ᱛᱟᱭᱣᱟᱱ
ᱛᱟᱭᱮ
ᱛᱟᱭᱱᱚᱢ
ᱛᱟᱯ
ᱛᱟᱯᱞᱮᱡᱩᱝ
ᱛᱟᱯᱟᱢ
ᱛᱟᱯᱟᱥ
ᱛᱟᱯᱟᱦᱮᱱ
ᱛᱟᱯᱢᱟᱱ
ᱛᱟᱯᱤ
ᱛᱟᱱ
ᱛᱟᱱᱚᱨ
ᱛᱟᱱᱟ
ᱛᱟᱱᱟᱞ
ᱛᱟᱱᱟᱞᱟ
ᱛᱟᱱᱡᱟᱱᱤᱭᱟ
ᱛᱟᱱᱤᱭᱟ
ᱛᱟᱱᱥᱮᱱ
ᱛᱟᱱᱩᱥᱨᱤ
ᱛᱟᱲ
ᱛᱟᱲᱚᱥᱟᱨᱤ
ᱛᱟᱲᱟᱢ
ᱛᱟᱲᱟᱥ
ᱛᱟᱵᱚ
ᱛᱟᱵᱚᱱ
ᱛᱟᱵᱚᱱᱟ
ᱛᱟᱵᱮ
ᱛᱟᱵᱮᱨ
ᱛᱟᱵᱮᱱ
ᱛᱟᱵᱽᱞᱟ
ᱛᱟᱷᱮ
ᱛᱟᱷᱮᱸ
ᱛᱟᱸᱜᱤ
ᱛᱟᱸᱦᱟᱸ
ᱛᱟᱸᱦᱮ
ᱛᱟᱸᱦᱮᱠᱟᱱᱟ
ᱛᱟᱸᱦᱮᱫ
ᱛᱟᱸᱦᱮᱱ
ᱛᱟᱸᱦᱮᱱᱟ
ᱛᱟᱸᱦᱮᱸ
ᱛᱟᱸᱦᱮᱸᱠᱟᱱ
ᱛᱟᱸᱦᱮᱸᱠᱟᱱᱛᱟᱭᱟ
ᱛᱟᱸᱦᱮᱸᱠᱟᱱᱟ
ᱛᱟᱸᱦᱮᱸᱱ
ᱛᱟᱸᱦᱮᱸᱱᱟ
ᱛᱟᱸᱵᱟ
ᱛᱟᱹᱞᱠᱟ
ᱛᱟᱹᱞᱠᱟᱹ
ᱛᱟᱹᱞᱤᱢ
ᱛᱟᱹᱠᱤᱡ
ᱛᱟᱹᱠᱤᱱ
ᱛᱟᱹᱠᱤᱱᱟ
ᱛᱟᱹᱠᱤᱱᱟᱜ
ᱛᱟᱹᱠᱩ
ᱛᱟᱹᱢᱤᱞ
ᱛᱟᱹᱨᱤ
ᱛᱟᱹᱨᱤᱨᱮ
ᱛᱟᱹᱨᱤᱭᱟᱹ
ᱛᱟᱹᱨᱩᱵ
ᱛᱟᱹᱯᱩᱜ
ᱛᱟᱺᱜᱤ
ᱛᱤ
ᱛᱤᱛᱤ
ᱛᱤᱛᱮ
ᱛᱤᱛᱷᱤ
ᱛᱤᱜᱤ
ᱛᱤᱝᱜᱩ
ᱛᱤᱞ
ᱛᱤᱞᱠᱟ
ᱛᱤᱞᱠᱟᱹ
ᱛᱤᱞᱢᱤᱧ
ᱛᱤᱞᱭᱟ
ᱛᱤᱞᱮᱭᱟ
ᱛᱤᱠᱤ
ᱛᱤᱠᱤᱪᱷᱟᱹ
ᱛᱤᱠᱤᱱ
ᱛᱤᱠᱤᱱᱟᱜ
ᱛᱤᱠᱤᱱᱤᱡ
ᱛᱤᱠᱪᱷᱟ
ᱛᱤᱠᱪᱷᱟᱹ
ᱛᱤᱡᱩ
ᱛᱤᱢᱤᱱ
ᱛᱤᱢᱤᱱᱜᱟᱱ
ᱛᱤᱢᱳᱨ
ᱛᱤᱣᱟ
ᱛᱤᱣᱟᱨᱤ
ᱛᱤᱥ
ᱛᱤᱥᱛᱟ
ᱛᱤᱥᱟᱨ
ᱛᱤᱥᱨᱤ
ᱛᱤᱦᱤᱧ
ᱛᱤᱦᱤᱱ
ᱛᱤᱧ
ᱛᱤᱨ
ᱛᱤᱨᱛᱷᱚ
ᱛᱤᱨᱞᱟ
ᱛᱤᱨᱞᱟᱹ
ᱛᱤᱨᱞᱟᱹᱭ
ᱛᱤᱨᱟᱱᱟ
ᱛᱤᱨᱢᱤᱫ
ᱛᱤᱨᱤ
ᱛᱤᱨᱤᱞ
ᱛᱤᱨᱤᱭᱚ
ᱛᱤᱨᱦᱩᱛ
ᱛᱤᱨᱩᱢᱟᱞᱟ
ᱛᱤᱨᱩᱣᱚᱱᱚᱱᱛᱯᱩᱨᱚᱢ
ᱛᱤᱨᱩᱪᱤᱨᱟᱯᱚᱞᱞᱤ
ᱛᱤᱨᱩᱯᱚᱛᱛᱩᱨ
ᱛᱤᱨᱩᱯᱚᱛᱤ
ᱛᱤᱨᱩᱯᱟᱛᱤ
ᱛᱤᱨᱩᱯᱩᱨ
ᱛᱤᱨᱩᱱᱮᱞᱵᱷᱮᱞᱤ
ᱛᱤᱨᱩᱵᱚᱱᱱᱟᱢᱚᱞᱟᱭ
ᱛᱤᱨᱩᱵᱟᱨᱩᱨ
ᱛᱤᱨᱩᱵᱷᱟᱞᱞᱩᱨ
ᱛᱤᱨᱮ
ᱛᱤᱭᱚ
ᱛᱤᱭᱟ
ᱛᱤᱭᱟᱨᱤ
ᱛᱤᱭᱩᱜ
ᱛᱤᱱ
ᱛᱤᱱᱟ
ᱛᱤᱱᱟᱜ
ᱛᱤᱱᱟᱹᱜ
ᱛᱤᱱᱟᱹᱝ
ᱛᱤᱱᱤᱥᱩᱠᱤᱭᱟ
ᱛᱤᱱᱤᱱ
ᱛᱤᱱᱥᱩᱠᱤᱭᱟ
ᱛᱤᱵᱚᱛ
ᱛᱤᱵᱤᱞᱤᱥᱤ
ᱛᱤᱵᱮᱛᱟᱱ
ᱛᱤᱵᱵᱚᱛ
ᱛᱤᱵᱵᱚᱛᱤ
ᱛᱤᱵᱽᱵᱚᱛ
ᱛᱤᱵᱽᱵᱚᱛᱤ
ᱛᱤᱸᱜᱩ
ᱛᱤᱸᱜᱩᱭᱟ
ᱛᱤᱸᱜᱩᱱ
ᱛᱤᱸᱜᱩᱱᱟ
ᱛᱦᱮ
ᱛᱨᱤ
ᱛᱨᱤᱣᱮᱫᱤ
ᱛᱨᱤᱥᱟ
ᱛᱨᱤᱥᱩᱨ
ᱛᱨᱤᱪᱤ
ᱛᱨᱤᱭᱟ
ᱛᱨᱤᱯᱟᱴᱷᱤ
ᱛᱨᱤᱯᱩᱨᱟ
ᱛᱨᱤᱱᱚᱢᱩᱞ
ᱛᱨᱤᱵᱮᱫᱤ
ᱛᱨᱤᱵᱮᱱᱫᱨᱚᱢ
ᱛᱨᱤᱵᱷᱩᱵᱚᱱ
ᱛᱩ
ᱛᱩᱛᱩᱠᱩᱲᱤ
ᱛᱩᱞ
ᱛᱩᱞᱟ
ᱛᱩᱞᱟᱹ
ᱛᱩᱞᱟᱹᱡᱚᱠᱷᱟ
ᱛᱩᱞᱟᱹᱢ
ᱛᱩᱞᱟᱹᱣ
ᱛᱩᱞᱥᱤ
ᱛᱩᱞᱩ
ᱛᱩᱞᱩᱡ
ᱛᱩᱠᱟᱹ
ᱛᱩᱢ
ᱛᱩᱢᱟ
ᱛᱩᱢᱟᱸᱞ
ᱛᱩᱢᱟᱹᱞ
ᱛᱩᱢᱠᱩᱨ
ᱛᱩᱢᱤ
ᱛᱩᱢᱫᱟᱜ
ᱛᱩᱥᱟᱨ
ᱛᱩᱥᱤᱞ
ᱛᱩᱧ
ᱛᱩᱨ
ᱛᱩᱨᱚᱥᱠᱚ
ᱛᱩᱨᱟ
ᱛᱩᱨᱠᱢᱮᱱ
ᱛᱩᱨᱠᱢᱮᱱᱤᱥᱛᱟᱱ
ᱛᱩᱨᱠᱤ
ᱛᱩᱨᱠᱤᱠ
ᱛᱩᱨᱠᱤᱥ
ᱛᱩᱨᱤ
ᱛᱩᱨᱥᱤ
ᱛᱩᱨᱩᱭ
ᱛᱩᱨᱩᱭᱟᱜ
ᱛᱩᱨᱩᱭᱟᱱ
ᱛᱩᱨᱮ
ᱛᱩᱨᱵᱚᱛ
ᱛᱩᱫ
ᱛᱩᱭᱩ
ᱛᱩᱯᱤᱥᱟ
ᱛᱩᱯᱩ
ᱛᱩᱯᱩᱫ
ᱛᱩᱯᱩᱱ
ᱛᱩᱱ
ᱛᱩᱱᱠᱷᱤ
ᱛᱩᱱᱩᱢ
ᱛᱩᱲᱤ
ᱛᱩᱲᱩᱠ
ᱛᱭᱟ
ᱛᱮ
ᱛᱮᱛᱟᱝ
ᱛᱮᱛᱨᱮ
ᱛᱮᱛᱩᱞᱤᱭᱟ
ᱛᱮᱛᱩᱢ
ᱛᱮᱛᱮᱫ
ᱛᱮᱜ
ᱛᱮᱜᱮ
ᱛᱮᱜᱮᱠᱚ
ᱛᱮᱜᱮᱭ
ᱛᱮᱞ
ᱛᱮᱞᱜᱩ
ᱛᱮᱞᱟ
ᱛᱮᱞᱩᱜᱩ
ᱛᱮᱞᱮᱜᱩ
ᱛᱮᱞᱮᱝᱜᱟᱱᱟ
ᱛᱮᱞᱮᱭᱟ
ᱛᱮᱞᱮᱸᱜᱟᱱᱟ
ᱛᱮᱟᱨ
ᱛᱮᱠᱚ
ᱛᱮᱠᱚᱣᱟᱜ
ᱛᱮᱠᱤᱱ
ᱛᱮᱠᱩ
ᱛᱮᱠᱳ
ᱛᱮᱡ
ᱛᱮᱡᱚ
ᱛᱮᱡᱩ
ᱛᱮᱡᱽ
ᱛᱮᱡᱽᱯᱩᱨ
ᱛᱮᱢ
ᱛᱮᱢᱟ
ᱛᱮᱢᱟᱱ
ᱛᱮᱣᱟᱨ
ᱛᱮᱥᱟᱨ
ᱛᱮᱦᱚ
ᱛᱮᱦᱚᱸ
ᱛᱮᱦᱚᱸᱠᱚ
ᱛᱮᱦᱚᱸᱭ
ᱛᱮᱦᱨᱚᱛᱷᱩᱢ
ᱛᱮᱦᱨᱟᱱ
ᱛᱮᱦᱮ
ᱛᱮᱦᱮᱧ
ᱛᱮᱦᱮᱧᱟᱜ
ᱛᱮᱦᱮᱱ
ᱛᱮᱦᱮᱸ
ᱛᱮᱧ
ᱛᱮᱨᱚᱠᱷᱟᱫᱟ
ᱛᱮᱨᱟ
ᱛᱮᱨᱟᱝ
ᱛᱮᱨᱤ
ᱛᱮᱨᱮ
ᱛᱮᱫ
ᱛᱮᱫᱚ
ᱛᱮᱭ
ᱛᱮᱭᱟᱜ
ᱛᱮᱭᱟᱨ
ᱛᱮᱭᱟᱨᱚᱜ
ᱛᱮᱭᱟᱨᱚᱜᱼᱟ
ᱛᱮᱭᱟᱨᱟ
ᱛᱮᱭᱟᱨᱟᱜ
ᱛᱮᱭᱟᱨᱟᱠᱟᱱ
ᱛᱮᱭᱟᱨᱮᱱᱟ
ᱛᱮᱭᱟᱨᱻᱟ
ᱛᱮᱭᱮ
ᱛᱮᱱ
ᱛᱮᱱᱟᱜ
ᱛᱮᱱᱠᱟᱥᱤ
ᱛᱮᱱᱩ
ᱛᱮᱱᱩᱜᱷᱟᱴ
ᱛᱮᱴᱮᱡ
ᱛᱮᱵᱚ
ᱛᱮᱵᱚᱱ
ᱛᱮᱸᱜᱮᱱ
ᱛᱮᱹᱞᱮᱜᱩ
ᱛᱮᱹᱞᱮᱹᱜᱩ
ᱛᱳ
ᱛᱳᱣᱟ
ᱛᱵᱮ
ᱛᱷᱚᱠ
ᱛᱷᱚᱠᱨᱮ
ᱛᱷᱚᱢᱟᱥ
ᱛᱷᱚᱨ
ᱛᱷᱚᱨᱟ
ᱛᱷᱚᱭ
ᱛᱷᱚᱯᱟ
ᱛᱷᱚᱯᱮ
ᱛᱷᱚᱱ
ᱛᱷᱚᱱᱚᱛ
ᱛᱷᱚᱲᱟ
ᱛᱷᱟ
ᱛᱷᱟᱠ
ᱛᱷᱟᱢ
ᱛᱷᱟᱢᱜᱟᱹᱫᱤ
ᱛᱷᱟᱢᱜᱟᱹᱰᱤ
ᱛᱷᱟᱢᱟᱠᱩᱨ
ᱛᱷᱟᱨ
ᱛᱷᱟᱨᱢᱟᱞ
ᱛᱷᱟᱨᱩ
ᱛᱷᱟᱨᱰ
ᱛᱷᱟᱭ
ᱛᱷᱟᱭᱞᱟᱸᱰ
ᱛᱷᱟᱭᱞᱮᱱᱰ
ᱛᱷᱟᱯᱚᱱ
ᱛᱷᱟᱯᱚᱱᱟᱜ
ᱛᱷᱟᱯᱚᱱᱤᱭᱟ
ᱛᱷᱟᱯᱚᱱᱤᱭᱟᱹ
ᱛᱷᱟᱯᱟ
ᱛᱷᱟᱯᱱᱟ
ᱛᱷᱟᱯᱱᱟᱣ
ᱛᱷᱟᱱ
ᱛᱷᱟᱱᱚᱛ
ᱛᱷᱟᱱᱟ
ᱛᱷᱟᱱᱤᱛ
ᱛᱷᱟᱹᱨᱤ
ᱛᱷᱟᱹᱭᱞᱟᱹᱜ
ᱛᱷᱟᱹᱭᱟᱹ
ᱛᱷᱟᱹᱯᱱᱤᱛ
ᱛᱷᱤ
ᱛᱷᱤᱛ
ᱛᱷᱤᱛᱤ
ᱛᱷᱤᱢ
ᱛᱷᱤᱢᱯᱩ
ᱛᱷᱤᱣᱨᱤ
ᱛᱷᱤᱨ
ᱛᱷᱤᱭᱚᱥᱚᱯᱷᱤᱠᱟᱞ
ᱛᱷᱤᱭᱚᱨᱚᱢ
ᱛᱷᱤᱭᱚᱨᱤ
ᱛᱷᱤᱭᱮᱴᱚᱨ
ᱛᱷᱤᱭᱮᱴᱟᱨ
ᱛᱷᱨᱤ
ᱛᱷᱨᱤᱞᱟᱨ
ᱛᱷᱩᱛᱤ
ᱛᱷᱩᱞᱤ
ᱛᱷᱩᱠᱟ
ᱛᱷᱩᱠᱟᱹᱢ
ᱛᱷᱩᱠᱩᱢ
ᱛᱷᱩᱢ
ᱛᱷᱩᱨᱟᱹᱭ
ᱛᱷᱮᱠᱮ
ᱛᱷᱮᱱ
ᱛᱷᱮᱱᱤ
ᱜ
ᱜᱚ
ᱜᱚᱛᱚᱢ
ᱜᱚᱜ
ᱜᱚᱜᱚ
ᱜᱚᱜᱚᱡ
ᱜᱚᱜᱚᱣᱟᱜ
ᱜᱚᱜᱚᱭ
ᱜᱚᱜᱚᱱᱟ
ᱜᱚᱜᱲᱚ
ᱜᱚᱜᱲᱚᱭᱤᱡ
ᱜᱚᱜᱽᱲᱚ
ᱜᱚᱝ
ᱜᱚᱝᱜᱚ
ᱜᱚᱝᱜᱟ
ᱜᱚᱝᱜᱟᱫᱷᱚᱨ
ᱜᱚᱝᱜᱷᱚᱨ
ᱜᱚᱝᱠᱮ
ᱜᱚᱞ
ᱜᱚᱞᱜᱚᱴ
ᱜᱚᱞᱟ
ᱜᱚᱞᱟᱜᱷᱟᱴ
ᱜᱚᱞᱟᱯ
ᱜᱚᱞᱢᱩᱨᱤ
ᱜᱚᱞᱯᱚ
ᱜᱚᱞᱯᱷ
ᱜᱚᱞᱰ
ᱜᱚᱞᱰᱮᱱ
ᱜᱚᱠᱷᱞᱮ
ᱜᱚᱡ
ᱜᱚᱡᱚᱜ
ᱜᱚᱡᱚᱞ
ᱜᱚᱡᱚᱯᱚᱛᱤ
ᱜᱚᱡᱟ
ᱜᱚᱡᱮ
ᱜᱚᱡᱽ
ᱜᱚᱢ
ᱜᱚᱢᱚᱦ
ᱜᱚᱢᱛᱤ
ᱜᱚᱢᱠᱮ
ᱜᱚᱢᱠᱮᱭ
ᱜᱚᱢᱠᱮᱭᱟᱜ
ᱜᱚᱢᱤᱭᱟ
ᱜᱚᱢᱦᱟ
ᱜᱚᱢᱦᱮᱲ
ᱜᱚᱢᱵᱩᱡᱚ
ᱜᱚᱢᱵᱷᱤᱨ
ᱜᱚᱣ
ᱜᱚᱣᱛᱚᱢ
ᱜᱚᱣᱛᱟᱢ
ᱜᱚᱣᱟ
ᱜᱚᱣᱟᱞᱯᱟᱲᱟ
ᱜᱚᱣᱟᱞᱯᱟᱲᱤᱭᱟ
ᱜᱚᱣᱨᱚ
ᱜᱚᱣᱨᱚᱵᱽ
ᱜᱚᱣᱨᱤ
ᱜᱚᱣᱨᱤᱯᱩᱨ
ᱜᱚᱣᱩᱛᱚᱢ
ᱜᱚᱣᱩᱨᱤ
ᱜᱚᱥᱚ
ᱜᱚᱥᱟᱬᱮ
ᱜᱚᱥᱟᱭ
ᱜᱚᱥᱟᱸᱭ
ᱜᱚᱥᱣᱟᱢᱤ
ᱜᱚᱥᱥᱟᱢᱤ
ᱜᱚᱥᱴᱤ
ᱜᱚᱦᱚᱲ
ᱜᱚᱦᱟᱸᱭ
ᱜᱚᱦᱩᱢ
ᱜᱚᱧᱡᱚ
ᱜᱚᱧᱡᱟᱢ
ᱜᱚᱧᱡᱽ
ᱜᱚᱨᱚ
ᱜᱚᱨᱚᱡ
ᱜᱚᱨᱚᱡᱽ
ᱜᱚᱨᱚᱱ
ᱜᱚᱨᱚᱵ
ᱜᱚᱨᱚᱵᱽ
ᱜᱚᱨᱟᱠᱷᱯᱩᱨ
ᱜᱚᱨᱟᱠᱷᱱᱟᱛᱷ
ᱜᱚᱨᱠᱷᱟ
ᱜᱚᱨᱤᱥ
ᱜᱚᱨᱤᱭᱟᱵᱚᱸᱫᱽ
ᱜᱚᱨᱩ
ᱜᱚᱨᱩᱰᱚ
ᱜᱚᱪ
ᱜᱚᱫ
ᱜᱚᱫᱚᱜ
ᱜᱚᱫᱚᱜᱼᱟ
ᱜᱚᱫᱟ
ᱜᱚᱫᱟᱜᱟᱲᱤ
ᱜᱚᱫᱟᱢ
ᱜᱚᱫᱟᱣᱟᱨᱤ
ᱜᱚᱫᱟᱵᱚᱨᱤ
ᱜᱚᱬᱚ
ᱜᱚᱬᱦᱚᱱ
ᱜᱚᱬᱮᱥ
ᱜᱚᱭᱚᱱ
ᱜᱚᱭᱟ
ᱜᱚᱭᱮᱛᱷᱤ
ᱜᱚᱯᱚᱡ
ᱜᱚᱯᱚᱲᱚ
ᱜᱚᱯᱟᱞ
ᱜᱚᱯᱟᱞᱜᱚᱧᱡᱽ
ᱜᱚᱯᱟᱞᱜᱚᱸᱡᱽ
ᱜᱚᱯᱟᱞᱯᱩᱨ
ᱜᱚᱯᱤ
ᱜᱚᱯᱤᱱᱟᱛᱷ
ᱜᱚᱰ
ᱜᱚᱰᱟ
ᱜᱚᱰᱪᱤᱨᱚᱞᱤ
ᱜᱚᱰᱮᱛ
ᱜᱚᱰᱰᱟ
ᱜᱚᱱ
ᱜᱚᱱᱚ
ᱜᱚᱱᱚᱛᱟᱱᱛᱨᱤᱠ
ᱜᱚᱱᱚᱝ
ᱜᱚᱱᱚᱝᱟᱱ
ᱜᱚᱱᱚᱴᱷᱚᱱ
ᱜᱚᱱᱮᱥ
ᱜᱚᱱᱮᱥᱟᱱ
ᱜᱚᱱᱰᱟ
ᱜᱚᱱᱰᱤ
ᱜᱚᱱᱰᱤᱭᱟ
ᱜᱚᱲ
ᱜᱚᱲᱚ
ᱜᱚᱲᱚᱜ
ᱜᱚᱲᱚᱢ
ᱜᱚᱲᱚᱣᱟᱱ
ᱜᱚᱲᱚᱥᱚᱦᱚᱫ
ᱜᱚᱲᱚᱭ
ᱜᱚᱲᱚᱭᱤᱡ
ᱜᱚᱲᱟ
ᱜᱚᱲᱟᱭ
ᱜᱚᱲᱦᱚᱱ
ᱜᱚᱴ
ᱜᱚᱴᱟ
ᱜᱚᱴᱟᱜ
ᱜᱚᱴᱟᱜᱩᱴᱤ
ᱜᱚᱴᱟᱝ
ᱜᱚᱴᱟᱝᱻᱟᱜ
ᱜᱚᱴᱟᱞ
ᱜᱚᱴᱟᱭ
ᱜᱚᱴᱟᱯᱟᱲᱟ
ᱜᱚᱴᱟᱱ
ᱜᱚᱴᱮᱜ
ᱜᱚᱴᱮᱡ
ᱜᱚᱴᱮᱱ
ᱜᱚᱴᱮᱱᱵᱟᱨᱜᱽ
ᱜᱚᱴᱷᱚᱱ
ᱜᱚᱵᱚᱞ
ᱜᱚᱵᱤᱱᱫᱚᱜᱚᱸᱡᱽ
ᱜᱚᱵᱤᱸᱫᱽ
ᱜᱚᱵᱤᱸᱫᱽᱯᱩᱨ
ᱜᱚᱵᱮᱥᱚᱱᱟ
ᱜᱚᱵᱷᱚᱨᱢᱮᱱᱴ
ᱜᱚᱵᱷᱚᱨᱱᱚᱨ
ᱜᱚᱸᱜᱟ
ᱜᱚᱸᱜᱷᱚᱨ
ᱜᱚᱸᱡᱽ
ᱜᱚᱸᱫᱤᱭᱟ
ᱜᱚᱸᱰ
ᱜᱚᱸᱰᱤ
ᱜᱚᱸᱲᱚᱸ
ᱜᱞᱚᱵᱟᱞ
ᱜᱞᱳᱵᱟᱞ
ᱜᱞᱳᱵᱽ
ᱜᱟ
ᱜᱟᱛᱟᱠ
ᱜᱟᱛᱮ
ᱜᱟᱛᱮᱜ
ᱜᱟᱛᱮᱣ
ᱜᱟᱛᱮᱧ
ᱜᱟᱛᱮᱨᱮ
ᱜᱟᱛᱮᱭ
ᱜᱟᱛᱷᱟᱣ
ᱜᱟᱜ
ᱜᱟᱜᱟ
ᱜᱟᱜᱟᱣᱩᱡᱽ
ᱜᱟᱜᱟᱨᱤᱱ
ᱜᱟᱝ
ᱜᱟᱝᱜᱟ
ᱜᱟᱝᱜᱟᱱᱚᱜᱚᱨ
ᱜᱟᱝᱜᱩᱞᱤ
ᱜᱟᱝᱱᱟᱹᱭ
ᱜᱟᱝᱱᱤ
ᱜᱟᱝᱴᱚᱠ
ᱜᱟᱞ
ᱜᱟᱞᱚᱪ
ᱜᱟᱞᱚᱪᱤᱭᱟ
ᱜᱟᱞᱚᱪᱤᱭᱟᱹ
ᱜᱟᱞᱟᱝ
ᱜᱟᱞᱢᱟᱨᱟᱣ
ᱜᱟᱞᱤ
ᱜᱟᱞᱤᱥᱤᱭᱟᱱ
ᱜᱟᱞᱮ
ᱜᱟᱞᱮᱨᱤ
ᱜᱟᱞᱮᱱ
ᱜᱟᱠᱷᱩᱲᱤᱭᱟ
ᱜᱟᱡᱟᱲ
ᱜᱟᱡᱤᱭᱟᱵᱟᱫᱽ
ᱜᱟᱡᱤᱯᱩᱨ
ᱜᱟᱢ
ᱜᱟᱢᱟ
ᱜᱟᱢᱟᱢ
ᱜᱟᱢᱟᱢᱤᱭᱟᱹ
ᱜᱟᱢᱵᱤᱭᱟ
ᱜᱟᱣᱯᱟᱞᱤᱠᱟ
ᱜᱟᱥ
ᱜᱟᱥᱟᱣ
ᱜᱟᱦ
ᱜᱟᱦᱤᱨ
ᱜᱟᱨ
ᱜᱟᱨᱚ
ᱜᱟᱨᱚᱡ
ᱜᱟᱨᱜᱤ
ᱜᱟᱨᱜᱽ
ᱜᱟᱨᱞ
ᱜᱟᱨᱞᱥ
ᱜᱟᱨᱤᱵᱽ
ᱜᱟᱨᱰ
ᱜᱟᱨᱰᱮᱱ
ᱜᱟᱩᱯᱟᱞᱤᱠᱟ
ᱜᱟᱪᱷᱤ
ᱜᱟᱫᱮᱞ
ᱜᱟᱬᱟ
ᱜᱟᱭ
ᱜᱟᱭᱚᱛᱨᱤ
ᱜᱟᱭᱛᱨᱤ
ᱜᱟᱭᱛᱳᱱᱰᱮ
ᱜᱟᱭᱟ
ᱜᱟᱭᱟᱱ
ᱜᱟᱭᱟᱱᱟ
ᱜᱟᱭᱤᱰ
ᱜᱟᱭᱱᱟᱦᱟ
ᱜᱟᱭᱱᱟᱦᱤᱭᱟᱹ
ᱜᱟᱭᱵᱟᱱᱫᱷᱟ
ᱜᱟᱯᱟ
ᱜᱟᱯᱟᱛᱮ
ᱜᱟᱯᱟᱞ
ᱜᱟᱯᱟᱞᱢᱟᱨᱟᱣ
ᱜᱟᱰ
ᱜᱟᱰᱟ
ᱜᱟᱰᱟᱠᱚ
ᱜᱟᱰᱟᱵᱟ
ᱜᱟᱰᱤ
ᱜᱟᱰᱮᱱ
ᱜᱟᱱ
ᱜᱟᱱᱚᱜ
ᱜᱟᱱᱚᱜᱼᱟ
ᱜᱟᱱᱟᱜ
ᱜᱟᱱᱟᱝ
ᱜᱟᱱᱦᱟᱣ
ᱜᱟᱱᱫᱷᱤ
ᱜᱟᱱᱫᱷᱤᱡᱤ
ᱜᱟᱱᱫᱷᱤᱭᱟᱜ
ᱜᱟᱱᱫᱷᱤᱱᱚᱜᱚᱨ
ᱜᱟᱱᱮ
ᱜᱟᱲ
ᱜᱟᱲᱣᱟ
ᱜᱟᱲᱣᱟᱞ
ᱜᱟᱲᱣᱟᱞᱤ
ᱜᱟᱴᱟᱝ
ᱜᱟᱵᱚᱱ
ᱜᱟᱵᱟᱬ
ᱜᱟᱵᱟᱱ
ᱜᱟᱵᱟᱱᱚᱜ
ᱜᱟᱵᱟᱱᱤᱭᱟᱹ
ᱜᱟᱵᱤ
ᱜᱟᱵᱮ
ᱜᱟᱶ
ᱜᱟᱶᱛᱟ
ᱜᱟᱶᱛᱟᱭ
ᱜᱟᱸ
ᱜᱟᱸᱛᱟᱠ
ᱜᱟᱸᱜᱟ
ᱜᱟᱸᱫᱷᱤ
ᱜᱟᱹᱠᱦᱩᱲ
ᱜᱟᱹᱠᱩᱲ
ᱜᱟᱹᱠᱷᱩᱬᱤᱭᱟᱹ
ᱜᱟᱹᱠᱷᱩᱲ
ᱜᱟᱹᱠᱷᱩᱲᱤᱭᱟᱹ
ᱜᱟᱹᱦᱞᱟᱹ
ᱜᱟᱹᱦᱤᱨ
ᱜᱟᱹᱦᱤᱸᱨ
ᱜᱟᱹᱨᱤ
ᱜᱟᱹᱨᱥᱟᱹᱨ
ᱜᱟᱹᱫᱤ
ᱜᱟᱹᱬᱤ
ᱜᱟᱹᱭ
ᱜᱟᱹᱭᱱᱟᱹᱦᱟᱨ
ᱜᱟᱹᱭᱱᱟᱹᱦᱟᱹᱨ
ᱜᱟᱹᱰᱤ
ᱜᱟᱹᱱᱟᱹᱴ
ᱜᱟᱹᱱᱫᱷᱟᱹᱨᱤ
ᱜᱟᱹᱱᱫᱷᱤ
ᱜᱟᱹᱲᱤ
ᱜᱟᱺᱦᱤᱨ
ᱜᱟᱺᱫᱷᱤ
ᱜᱟᱺᱴ
ᱜᱟᱺᱵᱷᱟᱹᱨᱤᱭᱟᱹ
ᱜᱣᱟᱞᱤᱭᱚᱨ
ᱜᱣᱟᱫᱚᱨ
ᱜᱣᱟᱫᱟᱨ
ᱜᱣᱟᱴᱮᱢᱟᱞᱟ
ᱜᱤ
ᱜᱤᱛ
ᱜᱤᱛᱟ
ᱜᱤᱛᱟᱧᱡᱚᱞᱤ
ᱜᱤᱛᱤᱞ
ᱜᱤᱛᱤᱠᱟᱨ
ᱜᱤᱛᱤᱡ
ᱜᱤᱞ
ᱜᱤᱞᱜᱤᱛ
ᱜᱤᱞᱰ
ᱜᱤᱡ
ᱜᱤᱧ
ᱜᱤᱨ
ᱜᱤᱨᱟ
ᱜᱤᱨᱟᱹ
ᱜᱤᱨᱟᱹᱵᱟᱥ
ᱜᱤᱨᱟᱹᱵᱟᱹᱥᱤ
ᱜᱤᱨᱡᱟ
ᱜᱤᱨᱡᱟᱹ
ᱜᱤᱨᱤ
ᱜᱤᱨᱤᱡᱟ
ᱜᱤᱨᱤᱥ
ᱜᱤᱨᱤᱰᱤᱦ
ᱜᱤᱫ
ᱜᱤᱫᱟ
ᱜᱤᱫᱟᱨ
ᱜᱤᱫᱟᱹᱨ
ᱜᱤᱫᱤ
ᱜᱤᱫᱨᱟ
ᱜᱤᱫᱨᱟᱹ
ᱜᱤᱫᱨᱟᱹᱭ
ᱜᱤᱫᱽᱨᱟ
ᱜᱤᱫᱽᱨᱟᱹ
ᱜᱤᱫᱽᱨᱟᱹᱠᱚ
ᱜᱤᱫᱽᱨᱟᱹᱭ
ᱜᱤᱭᱟ
ᱜᱤᱭᱟᱫᱟ
ᱜᱤᱰᱤ
ᱜᱤᱱ
ᱜᱤᱱᱤ
ᱜᱤᱱᱱᱤ
ᱜᱤᱴᱟᱨ
ᱜᱨᱚᱛᱷ
ᱜᱨᱚᱴ
ᱜᱨᱚᱸᱛᱷ
ᱜᱨᱟᱡᱩᱭᱮᱴ
ᱜᱨᱟᱢ
ᱜᱨᱟᱢᱯᱚᱧᱪᱟᱭᱮᱛ
ᱜᱨᱟᱢᱯᱚᱸᱪᱟᱭᱚᱛ
ᱜᱨᱟᱯᱷ
ᱜᱨᱟᱱᱰ
ᱜᱨᱟᱱᱴ
ᱜᱨᱟᱸᱰ
ᱜᱨᱤᱠ
ᱜᱨᱤᱥ
ᱜᱨᱤᱱ
ᱜᱨᱩᱯ
ᱜᱨᱮᱜᱚᱨᱤᱭᱟᱱ
ᱜᱨᱮᱡᱩᱣᱮᱥᱚᱱ
ᱜᱨᱮᱡᱩᱭᱮᱴ
ᱜᱨᱮᱡᱩᱮᱴ
ᱜᱨᱮᱰ
ᱜᱨᱮᱱᱟᱭᱤᱴ
ᱜᱨᱮᱴ
ᱜᱨᱮᱴᱟᱨ
ᱜᱨᱮᱸᱰ
ᱜᱩ
ᱜᱩᱛᱤ
ᱜᱩᱜᱚᱞ
ᱜᱩᱜᱩᱞ
ᱜᱩᱜᱳᱞ
ᱜᱩᱞ
ᱜᱩᱞᱟ
ᱜᱩᱞᱟᱢ
ᱜᱩᱞᱟᱵᱽ
ᱜᱩᱞᱟᱹᱭ
ᱜᱩᱞᱟᱹᱯ
ᱜᱩᱞᱡᱟᱨᱤᱞᱟᱞ
ᱜᱩᱞᱤ
ᱜᱩᱞᱵᱚᱨᱜᱟ
ᱜᱩᱡᱟᱨᱟᱛᱤ
ᱜᱩᱡᱟᱨᱤ
ᱜᱩᱡᱨᱟᱛᱤ
ᱜᱩᱡᱨᱟᱞ
ᱜᱩᱡᱨᱟᱴ
ᱜᱩᱡᱨᱟᱴᱤ
ᱜᱩᱡᱩᱜ
ᱜᱩᱡᱽᱨᱟᱛ
ᱜᱩᱡᱽᱨᱟᱛᱤ
ᱜᱩᱡᱽᱨᱟᱴ
ᱜᱩᱡᱽᱨᱟᱴᱤ
ᱜᱩᱢᱞᱟ
ᱜᱩᱢᱟᱱᱤ
ᱜᱩᱣᱟ
ᱜᱩᱣᱟᱝᱡᱚᱣ
ᱜᱩᱣᱟᱢ
ᱜᱩᱣᱟᱦᱟᱴᱤ
ᱜᱩᱣᱟᱨᱟᱱᱤ
ᱜᱩᱣᱟᱹ
ᱜᱩᱥᱴᱤ
ᱜᱩᱦᱟ
ᱜᱩᱦᱤᱨᱟᱢ
ᱜᱩᱦᱩᱢ
ᱜᱩᱨ
ᱜᱩᱨᱚᱜ
ᱜᱩᱨᱜᱟᱶ
ᱜᱩᱨᱡᱟᱨ
ᱜᱩᱨᱤᱡ
ᱜᱩᱨᱩ
ᱜᱩᱨᱩᱛ
ᱜᱩᱨᱩᱜᱟᱶ
ᱜᱩᱨᱩᱜᱨᱟᱢ
ᱜᱩᱨᱩᱝ
ᱜᱩᱨᱩᱠᱩᱞ
ᱜᱩᱨᱩᱢᱩᱠᱷᱤ
ᱜᱩᱨᱩᱣᱟᱜ
ᱜᱩᱨᱩᱫᱟᱥᱯᱩᱨ
ᱜᱩᱨᱩᱫᱣᱟᱨᱟ
ᱜᱩᱨᱩᱭ
ᱜᱩᱨᱫᱟᱥᱯᱩᱨ
ᱜᱩᱬ
ᱜᱩᱭ
ᱜᱩᱭᱮᱫᱟ
ᱜᱩᱯᱛ
ᱜᱩᱯᱛᱚ
ᱜᱩᱯᱛᱟ
ᱜᱩᱯᱤ
ᱜᱩᱯᱷᱟ
ᱜᱩᱰ
ᱜᱩᱰᱤ
ᱜᱩᱰᱩ
ᱜᱩᱰᱰᱤ
ᱜᱩᱰᱱᱟᱹ
ᱜᱩᱱ
ᱜᱩᱱᱟ
ᱜᱩᱱᱟᱱ
ᱜᱩᱱᱢᱟᱱ
ᱜᱩᱱᱩᱱ
ᱜᱩᱱᱰᱞᱤ
ᱜᱩᱱᱰᱟ
ᱜᱩᱱᱰᱤ
ᱜᱩᱱᱴᱩᱨ
ᱜᱩᱲ
ᱜᱩᱲᱜᱟᱶ
ᱜᱩᱲᱟᱵᱟᱱᱫᱷᱟ
ᱜᱩᱲᱤ
ᱜᱩᱴ
ᱜᱩᱴᱳᱵᱽ
ᱜᱩᱴᱺ
ᱜᱩᱸᱰᱟ
ᱜᱩᱸᱰᱟᱹ
ᱜᱩᱸᱴ
ᱜᱭᱟᱱ
ᱜᱭᱟᱱᱯᱩᱨ
ᱜᱮ
ᱜᱮᱛᱟ
ᱜᱮᱛᱟᱹ
ᱜᱮᱞ
ᱜᱮᱞᱟᱜ
ᱜᱮᱞᱟᱝ
ᱜᱮᱞᱟᱨᱤ
ᱜᱮᱞᱟᱱᱟᱜ
ᱜᱮᱞᱢᱤᱫ
ᱜᱮᱞᱤᱠ
ᱜᱮᱞᱮ
ᱜᱮᱞᱮᱨᱤ
ᱜᱮᱞᱯᱩᱱ
ᱜᱮᱞᱯᱮ
ᱜᱮᱞᱵᱟᱨ
ᱜᱮᱠᱚ
ᱜᱮᱠᱤᱱ
ᱜᱮᱡ
ᱜᱮᱡᱮᱨ
ᱜᱮᱡᱮᱴ
ᱜᱮᱡᱽ
ᱜᱮᱢ
ᱜᱮᱢᱚᱬ
ᱜᱮᱢᱤᱫ
ᱜᱮᱢᱥ
ᱜᱮᱥ
ᱜᱮᱥᱟᱥᱟᱭ
ᱜᱮᱥᱟᱭ
ᱜᱮᱥᱮᱨᱢᱟ
ᱜᱮᱥᱴ
ᱜᱮᱨ
ᱜᱮᱨᱤᱧᱡᱟ
ᱜᱮᱫ
ᱜᱮᱭ
ᱜᱮᱭᱟ
ᱜᱮᱭᱟᱭ
ᱜᱮᱭᱟᱱ
ᱜᱮᱭᱮ
ᱜᱮᱯ
ᱜᱮᱯᱮ
ᱜᱮᱰᱮ
ᱜᱮᱱᱮᱨᱟᱞ
ᱜᱮᱴ
ᱜᱮᱵᱚ
ᱜᱮᱵᱚᱱ
ᱜᱮᱵᱟᱨ
ᱜᱮᱵᱷᱟᱨᱟ
ᱜᱮᱼ
ᱜᱮᱼᱥᱟᱭ
ᱜᱮᱼᱥᱮᱨᱢᱟ
ᱜᱳ
ᱜᱳᱞ
ᱜᱳᱞᱟᱯᱤ
ᱜᱳᱞᱰ
ᱜᱳᱞᱰᱮᱱ
ᱜᱳᱢᱚᱛᱤ
ᱜᱳᱢᱚᱥᱛᱟ
ᱜᱳᱣᱛᱚᱢ
ᱜᱳᱣᱟ
ᱜᱳᱣᱟᱞᱯᱟᱨᱟ
ᱜᱳᱥᱟᱸᱭ
ᱜᱳᱥᱣᱟᱢᱤ
ᱜᱳᱥᱴᱷᱤ
ᱜᱳᱨᱟᱪᱟᱸᱫᱽ
ᱜᱳᱨᱠᱷᱟ
ᱜᱳᱨᱤ
ᱜᱳᱨᱤᱭᱟ
ᱜᱳᱨᱩᱢ
ᱜᱳᱫᱟᱵᱚᱨᱤ
ᱜᱳᱯᱚᱵᱚᱱᱫᱷᱩ
ᱜᱳᱯᱚᱵᱚᱱᱫᱷᱩᱱᱚᱜᱚᱨ
ᱜᱳᱯᱛᱟ
ᱜᱳᱯᱟᱞ
ᱜᱳᱯᱟᱞᱜᱚᱸᱡᱽ
ᱜᱳᱯᱟᱞᱯᱩᱨ
ᱜᱳᱯᱟᱲᱯᱩᱨ
ᱜᱳᱯᱤ
ᱜᱳᱯᱤᱠᱟᱱᱫᱟᱨ
ᱜᱳᱯᱤᱱᱟᱛᱷ
ᱜᱳᱰᱰᱟ
ᱜᱳᱱᱰᱤ
ᱜᱳᱴᱟ
ᱜᱳᱵᱤᱱᱫᱚ
ᱜᱷᱚᱞ
ᱜᱷᱚᱥ
ᱜᱷᱚᱥᱬᱟ
ᱜᱷᱚᱥᱱᱟ
ᱜᱷᱚᱨ
ᱜᱷᱚᱨᱚ
ᱜᱷᱚᱨᱟᱱᱟ
ᱜᱷᱚᱬᱪᱟ
ᱜᱷᱚᱱ
ᱜᱷᱚᱱᱚ
ᱜᱷᱚᱱᱥᱭᱟᱢ
ᱜᱷᱚᱱᱴᱟ
ᱜᱷᱚᱲᱟᱜᱷᱟᱴ
ᱜᱷᱚᱴᱚᱱ
ᱜᱷᱚᱴᱚᱱᱟ
ᱜᱷᱚᱴᱟᱣ
ᱜᱷᱚᱴᱱᱟ
ᱜᱷᱟ
ᱜᱷᱟᱛᱟᱠ
ᱜᱷᱟᱜᱷᱨᱟ
ᱜᱷᱟᱝᱜᱽᱨᱟ
ᱜᱷᱟᱣ
ᱜᱷᱟᱥ
ᱜᱷᱟᱨ
ᱜᱷᱟᱨᱚᱡ
ᱜᱷᱟᱨᱚᱡᱽ
ᱜᱷᱟᱨᱚᱧᱡᱽ
ᱜᱷᱟᱨᱚᱪ
ᱜᱷᱟᱨᱚᱸᱡ
ᱜᱷᱟᱨᱚᱸᱡᱤᱭᱟ
ᱜᱷᱟᱨᱚᱸᱡᱤᱭᱟᱹ
ᱜᱷᱟᱨᱚᱸᱡᱽ
ᱜᱷᱟᱨᱚᱸᱧᱡᱽ
ᱜᱷᱟᱨᱟᱱᱟ
ᱜᱷᱟᱨᱸᱡᱽ
ᱜᱷᱟᱱᱟ
ᱜᱷᱟᱱᱮ
ᱜᱷᱟᱱᱴᱟ
ᱜᱷᱟᱲᱣᱟ
ᱜᱷᱟᱴ
ᱜᱷᱟᱴᱚᱱ
ᱜᱷᱟᱴᱟᱞ
ᱜᱷᱟᱴᱤ
ᱜᱷᱟᱴᱥᱤᱞᱟ
ᱜᱷᱟᱴᱥᱤᱞᱟᱹ
ᱜᱷᱟᱴᱱᱟ
ᱜᱷᱟᱸᱥ
ᱜᱷᱟᱸᱨᱚᱡ
ᱜᱷᱟᱸᱨᱚᱡᱽ
ᱜᱷᱟᱸᱨᱚᱧᱡᱽ
ᱜᱷᱟᱹᱞ
ᱜᱷᱟᱹᱲᱤ
ᱜᱷᱟᱹᱲᱤᱠ
ᱜᱷᱟᱹᱲᱤᱡ
ᱜᱷᱟᱹᱴᱤ
ᱜᱷᱩᱨᱞᱟᱹ
ᱜᱷᱩᱨᱞᱟᱹᱣ
ᱜᱷᱩᱲᱤ
ᱜᱷᱩᱴᱩ
ᱜᱷᱩᱸᱴ
ᱜᱷᱮᱨᱟ
ᱜᱷᱮᱨᱟᱣ
ᱜᱷᱮᱸᱭ
ᱜᱷᱳᱥ
ᱜᱷᱳᱥᱟᱞ
ᱜᱷᱳᱥᱳᱱᱟ
ᱜᱹ
ᱜᱽᱞᱚᱵᱽ
ᱜᱽᱞᱳᱵᱟᱞ
ᱜᱽᱨᱚᱴ
ᱜᱽᱨᱟᱢ
ᱜᱽᱨᱟᱢᱤ
ᱜᱽᱨᱟᱯᱷ
ᱜᱽᱨᱤᱠ
ᱜᱽᱨᱤᱣᱟ
ᱜᱽᱨᱤᱥ
ᱜᱽᱨᱤᱱ
ᱜᱽᱨᱩᱯ
ᱜᱽᱨᱮᱡᱩᱣᱮᱴ
ᱜᱽᱨᱮᱡᱩᱭᱮᱥᱚᱱ
ᱜᱽᱨᱮᱰ
ᱜᱽᱨᱮᱴ
ᱜᱽᱨᱮᱸᱰ
ᱝ
ᱝᱚ
ᱝᱜᱤᱧ
ᱝᱨᱮ
ᱞ
ᱞᱚ
ᱞᱚᱛᱟ
ᱞᱚᱜ
ᱞᱚᱜᱚ
ᱞᱚᱜᱚᱱ
ᱞᱚᱜᱽ
ᱞᱚᱝ
ᱞᱚᱝᱜᱤᱪᱩᱰ
ᱞᱚᱝᱜᱤᱴᱭᱩᱰ
ᱞᱚᱝᱞᱮᱝ
ᱞᱚᱝᱠᱟ
ᱞᱚᱞᱚ
ᱞᱚᱞᱚᱣᱟ
ᱞᱚᱞᱚᱥᱚᱝ
ᱞᱚᱞᱚᱦᱟᱛᱟᱝ
ᱞᱚᱞᱤᱛ
ᱞᱚᱞᱤᱛᱟ
ᱞᱚᱞᱤᱛᱯᱩᱨ
ᱞᱚᱠ
ᱞᱚᱠᱚ
ᱞᱚᱠᱚᱨ
ᱞᱚᱠᱟᱞ
ᱞᱚᱠᱠᱷᱚᱱ
ᱞᱚᱠᱠᱷᱤᱯᱩᱨ
ᱞᱚᱠᱥᱚᱵᱷᱟ
ᱞᱚᱠᱥᱢᱤ
ᱞᱚᱠᱥᱢᱤᱯᱩᱨ
ᱞᱚᱠᱮᱥᱚᱱ
ᱞᱚᱠᱱᱚᱣ
ᱞᱚᱠᱷᱚᱱ
ᱞᱚᱠᱷᱢᱚᱬ
ᱞᱚᱠᱷᱢᱤ
ᱞᱚᱠᱷᱤ
ᱞᱚᱠᱷᱤᱢᱯᱩᱨ
ᱞᱚᱠᱷᱤᱥᱚᱨᱟᱭ
ᱞᱚᱠᱷᱭᱚᱬ
ᱞᱚᱠᱷᱱᱚᱣ
ᱞᱚᱢᱡᱩᱝ
ᱞᱚᱢᱤᱛᱤ
ᱞᱚᱢᱵᱟᱰᱤ
ᱞᱚᱣ
ᱞᱚᱣᱟ
ᱞᱚᱣᱟᱨ
ᱞᱚᱥ
ᱞᱚᱥᱚᱫ
ᱞᱚᱥᱴ
ᱞᱚᱦ
ᱞᱚᱦᱚᱫ
ᱞᱚᱦᱟᱜᱚᱲᱟ
ᱞᱚᱦᱟᱨᱫᱟᱜᱟ
ᱞᱚᱦᱤᱛ
ᱞᱚᱦᱨᱟ
ᱞᱚᱧᱪ
ᱞᱚᱨᱟᱞᱟᱭ
ᱞᱚᱨᱮᱱ
ᱞᱚᱨᱰ
ᱞᱚᱨᱱᱤᱝ
ᱞᱚᱪᱷᱚᱱ
ᱞᱚᱪᱷᱱᱟ
ᱞᱚᱫᱚᱢ
ᱞᱚᱫᱷ
ᱞᱚᱫᱽᱢᱟ
ᱞᱚᱭᱚᱝ
ᱞᱚᱱᱰᱚᱱ
ᱞᱚᱴᱚᱢ
ᱞᱚᱴᱟ
ᱞᱚᱵᱷ
ᱞᱚᱵᱷᱟᱣ
ᱞᱚᱵᱽ
ᱞᱚᱵᱽᱥ
ᱞᱚᱸᱜ
ᱞᱚᱸᱪ
ᱞᱟ
ᱞᱟᱛᱟ
ᱞᱟᱛᱟᱨ
ᱞᱟᱛᱤᱱ
ᱞᱟᱛᱩᱨ
ᱞᱟᱛᱮᱦᱟᱨ
ᱞᱟᱛᱵᱷᱤᱭᱟ
ᱞᱟᱛᱵᱷᱤᱭᱟᱱ
ᱞᱟᱜ
ᱞᱟᱜᱚᱥ
ᱞᱟᱜᱟ
ᱞᱟᱜᱟᱛ
ᱞᱟᱜᱟᱛᱚᱜ
ᱞᱟᱜᱟᱛᱟᱨ
ᱞᱟᱜᱟᱜ
ᱞᱟᱜᱟᱜᱼᱟ
ᱞᱟᱜᱟᱣ
ᱞᱟᱜᱟᱣᱜ
ᱞᱟᱜᱟᱣᱜᱼᱟ
ᱞᱟᱜᱟᱣᱟ
ᱞᱟᱜᱟᱣᱟᱜ
ᱞᱟᱜᱟᱶ
ᱞᱟᱜᱤᱛ
ᱞᱟᱜᱤᱫ
ᱞᱟᱜᱩ
ᱞᱟᱜᱮ
ᱞᱟᱜᱵᱷᱟᱜ
ᱞᱟᱜᱽᱪᱟᱨ
ᱞᱟᱜᱽᱬᱮ
ᱞᱟᱝ
ᱞᱟᱝᱛᱤᱛᱤ
ᱞᱟᱞ
ᱞᱟᱞᱚᱪ
ᱞᱟᱞᱜᱚᱲ
ᱞᱟᱞᱟ
ᱞᱟᱞᱢᱚᱱᱤᱨᱦᱟᱴ
ᱞᱟᱞᱤᱛᱯᱩᱨ
ᱞᱟᱞᱤᱥ
ᱞᱟᱞᱩ
ᱞᱟᱞᱮ
ᱞᱟᱞᱯᱩᱨ
ᱞᱟᱠ
ᱞᱟᱠᱚ
ᱞᱟᱠᱛᱤ
ᱞᱟᱠᱛᱤᱜ
ᱞᱟᱠᱛᱤᱭᱟ
ᱞᱟᱠᱛᱤᱭᱟᱱ
ᱞᱟᱠᱪᱟᱨ
ᱞᱟᱠᱪᱟᱨᱮᱛ
ᱞᱟᱠᱷ
ᱞᱟᱠᱷᱭᱟᱫᱤᱯ
ᱞᱟᱠᱷᱱᱟᱣ
ᱞᱟᱡ
ᱞᱟᱡᱟᱣ
ᱞᱟᱢᱟ
ᱞᱟᱢᱯᱩᱨ
ᱞᱟᱣ
ᱞᱟᱣᱚᱥ
ᱞᱟᱥ
ᱞᱟᱥᱤᱛ
ᱞᱟᱥᱮᱨ
ᱞᱟᱦᱚᱨ
ᱞᱟᱦᱚᱨᱤ
ᱞᱟᱦᱟ
ᱞᱟᱦᱟᱛᱮ
ᱞᱟᱦᱟᱜ
ᱞᱟᱦᱟᱨᱮ
ᱞᱟᱦᱟᱭ
ᱞᱟᱦᱟᱱᱛᱤ
ᱞᱟᱦᱟᱸ
ᱞᱟᱦᱳᱣᱰ
ᱞᱟᱦᱳᱨ
ᱞᱟᱨᱢᱟ
ᱞᱟᱨᱤ
ᱞᱟᱨᱩᱛ
ᱞᱟᱪᱷᱟ
ᱞᱟᱪᱷᱟᱱ
ᱞᱟᱪᱷᱢᱤ
ᱞᱟᱫ
ᱞᱟᱫᱟᱠᱷ
ᱞᱟᱫᱟᱠᱷᱤ
ᱞᱟᱫᱮ
ᱞᱟᱫᱮᱱ
ᱞᱟᱭ
ᱞᱟᱭᱚᱝ
ᱞᱟᱭᱞᱟ
ᱞᱟᱭᱞᱟᱠᱪᱟᱨ
ᱞᱟᱭᱟ
ᱞᱟᱭᱤᱠ
ᱞᱟᱭᱤᱯᱷ
ᱞᱟᱭᱤᱱ
ᱞᱟᱭᱤᱴ
ᱞᱟᱭᱤᱵᱽ
ᱞᱟᱭᱥᱮᱱᱥ
ᱞᱟᱭᱵᱨᱮᱨᱤ
ᱞᱟᱭᱵᱮᱨᱤᱭᱟ
ᱞᱟᱭᱵᱽᱨᱮᱨᱤ
ᱞᱟᱯᱩᱝ
ᱞᱟᱯᱷᱟᱝ
ᱞᱟᱰᱷᱟᱹᱭ
ᱞᱟᱱ
ᱞᱟᱱᱟ
ᱞᱟᱱᱟᱭ
ᱞᱟᱱᱫᱟ
ᱞᱟᱲ
ᱞᱟᱲᱟ
ᱞᱟᱲᱟᱣ
ᱞᱟᱲᱟᱣᱱᱟ
ᱞᱟᱲᱦᱟᱹᱭ
ᱞᱟᱲᱪᱟᱲ
ᱞᱟᱲᱪᱟᱲᱚᱜ
ᱞᱟᱲᱪᱟᱲᱮᱫ
ᱞᱟᱲᱪᱟᱲᱼᱮᱫ
ᱞᱟᱲᱪᱟᱲᱼᱮᱫᱟ
ᱞᱟᱴᱟ
ᱞᱟᱴᱤᱪᱩᱰ
ᱞᱟᱴᱤᱱ
ᱞᱟᱴᱤᱴᱭᱩᱰ
ᱞᱟᱴᱩ
ᱞᱟᱴᱷᱟ
ᱞᱟᱵᱷ
ᱞᱟᱵᱽ
ᱞᱟᱸᱜᱟ
ᱞᱟᱸᱫᱟ
ᱞᱟᱸᱫᱽ
ᱞᱟᱹᱜᱤ
ᱞᱟᱹᱜᱤᱛ
ᱞᱟᱹᱜᱤᱫ
ᱞᱟᱹᱜᱤᱫᱚᱜ
ᱞᱟᱹᱜᱤᱫᱛᱮ
ᱞᱟᱹᱜᱤᱫᱼᱮ
ᱞᱟᱹᱜᱤᱫᱽ
ᱞᱟᱹᱜᱤᱰ
ᱞᱟᱹᱜᱤᱱ
ᱞᱟᱹᱜᱩ
ᱞᱟᱹᱜᱩᱫ
ᱞᱟᱹᱞᱟᱹᱭᱟᱜ
ᱞᱟᱹᱠᱛᱤ
ᱞᱟᱹᱠᱛᱤᱜ
ᱞᱟᱹᱠᱛᱤᱜᱼᱟ
ᱞᱟᱹᱠᱛᱤᱭᱟ
ᱞᱟᱹᱠᱛᱤᱭᱟᱱ
ᱞᱟᱹᱠᱛᱤᱭᱟᱱᱟ
ᱞᱟᱹᱠᱛᱤᱭᱟᱱᱟᱜ
ᱞᱟᱹᱠᱪᱟᱨ
ᱞᱟᱹᱣᱠᱟᱹ
ᱞᱟᱹᱭ
ᱞᱟᱹᱭᱚᱜ
ᱞᱟᱹᱭᱟ
ᱞᱟᱹᱭᱤᱱ
ᱞᱟᱹᱭᱼᱟ
ᱞᱟᱹᱰᱩ
ᱞᱟᱹᱰᱷᱟᱹᱭ
ᱞᱟᱹᱱᱟᱹᱭ
ᱞᱟᱹᱲᱦᱟᱭ
ᱞᱟᱹᱲᱦᱟᱹᱭ
ᱞᱟᱹᱴᱩ
ᱞᱟᱹᱴᱷᱩ
ᱞᱟᱹᱵᱤᱫ
ᱞᱠᱟ
ᱞᱤ
ᱞᱤᱛᱷᱤᱭᱚᱢ
ᱞᱤᱛᱷᱩᱣᱟᱱᱤᱭᱟ
ᱞᱤᱛᱷᱩᱣᱟᱱᱤᱭᱟᱱ
ᱞᱤᱜ
ᱞᱤᱜᱽ
ᱞᱤᱝ
ᱞᱤᱝᱜᱚᱨᱟᱡᱽ
ᱞᱤᱝᱜᱤ
ᱞᱤᱝᱜᱤᱱ
ᱞᱤᱝᱜᱩᱣᱟ
ᱞᱤᱝᱜᱽ
ᱞᱤᱝᱠ
ᱞᱤᱝᱠᱚᱱ
ᱞᱤᱞ
ᱞᱤᱞᱟ
ᱞᱤᱞᱟᱣᱚᱛᱤ
ᱞᱤᱠ
ᱞᱤᱠᱷᱚᱱ
ᱞᱤᱢᱟ
ᱞᱤᱢᱤᱴᱮᱰ
ᱞᱤᱢᱵᱩ
ᱞᱤᱥᱟ
ᱞᱤᱥᱩ
ᱞᱤᱥᱴ
ᱞᱤᱥᱴᱤ
ᱞᱤᱥᱴᱭ
ᱞᱤᱧ
ᱞᱤᱧᱡᱤ
ᱞᱤᱧᱡᱤᱱ
ᱞᱤᱪᱟ
ᱞᱤᱪᱟᱹᱲ
ᱞᱤᱪᱩ
ᱞᱤᱫᱟ
ᱞᱤᱫᱤᱭᱟ
ᱞᱤᱭᱚ
ᱞᱤᱭᱚᱱ
ᱞᱤᱭᱚᱱᱟᱨᱫᱚ
ᱞᱤᱭᱟ
ᱞᱤᱯᱤ
ᱞᱤᱰ
ᱞᱤᱰᱚᱨ
ᱞᱤᱰᱟᱨ
ᱞᱤᱰᱤᱝ
ᱞᱤᱱ
ᱞᱤᱱᱟ
ᱞᱤᱱᱮᱭᱚᱥ
ᱞᱤᱲᱟ
ᱞᱤᱴᱚᱱ
ᱞᱤᱴᱟ
ᱞᱤᱴᱟᱹ
ᱞᱤᱴᱤᱞ
ᱞᱤᱴᱤᱯᱟᱲᱟ
ᱞᱤᱴᱮᱨᱮᱪᱚᱨ
ᱞᱤᱴᱮᱨᱮᱪᱟᱨ
ᱞᱤᱵᱤᱭᱟ
ᱞᱤᱸᱜᱤ
ᱞᱤᱸᱜᱤᱱ
ᱞᱤᱸᱜᱤᱱᱟ
ᱞᱤᱸᱜᱤᱱᱟᱜ
ᱞᱤᱸᱜᱽ
ᱞᱤᱸᱠ
ᱞᱤᱸᱡᱤ
ᱞᱤᱸᱡᱤᱜ
ᱞᱤᱸᱡᱤᱱ
ᱞᱤᱸᱡᱤᱱᱟ
ᱞᱩ
ᱞᱩᱛᱩᱨ
ᱞᱩᱛᱷᱟᱨ
ᱞᱩᱜ
ᱞᱩᱜᱩ
ᱞᱩᱜᱲᱤ
ᱞᱩᱜᱷᱩᱵᱩᱨᱩ
ᱞᱩᱜᱽᱲᱤ
ᱞᱩᱜᱽᱲᱤᱜ
ᱞᱩᱝᱞᱮᱭ
ᱞᱩᱞᱩ
ᱞᱩᱠᱟᱥ
ᱞᱩᱠᱥᱮᱢᱵᱟᱨᱜᱽ
ᱞᱩᱠᱷᱤ
ᱞᱩᱢ
ᱞᱩᱢᱟᱹᱝ
ᱞᱩᱢᱵᱤᱱᱤ
ᱞᱩᱣᱟᱱᱰᱟ
ᱞᱩᱥᱟᱠᱟ
ᱞᱩᱥᱤᱭᱟ
ᱞᱩᱫᱷᱤᱭᱟᱱᱟ
ᱞᱩᱭᱤᱥ
ᱞᱩᱯ
ᱞᱩᱴ
ᱞᱩᱴᱤ
ᱞᱩᱵᱷᱟᱣ
ᱞᱮ
ᱞᱮᱛ
ᱞᱮᱛᱟᱨ
ᱞᱮᱛᱟᱲ
ᱞᱮᱛᱮ
ᱞᱮᱜ
ᱞᱮᱜᱟ
ᱞᱮᱜᱮ
ᱞᱮᱜᱮᱡ
ᱞᱮᱜᱻᱟ
ᱞᱮᱜᱻᱟᱭ
ᱞᱮᱜᱼᱟ
ᱞᱮᱜᱼᱟᱭ
ᱞᱮᱜᱽ
ᱞᱮᱝᱜᱟ
ᱞᱮᱞᱟᱛᱮ
ᱞᱮᱟ
ᱞᱮᱟᱭ
ᱞᱮᱠ
ᱞᱮᱠᱚ
ᱞᱮᱠᱛᱮ
ᱞᱮᱠᱟ
ᱞᱮᱠᱟᱛᱮ
ᱞᱮᱠᱟᱛᱮᱜᱮ
ᱞᱮᱠᱟᱛᱮᱠᱚ
ᱞᱮᱠᱟᱛᱮᱭ
ᱞᱮᱠᱟᱜᱮ
ᱞᱮᱠᱟᱠᱚ
ᱞᱮᱠᱟᱢ
ᱞᱮᱠᱟᱨᱮ
ᱞᱮᱠᱟᱭ
ᱞᱮᱠᱟᱱ
ᱞᱮᱠᱟᱱᱟ
ᱞᱮᱠᱟᱱᱟᱜ
ᱞᱮᱠᱟᱱᱤᱡ
ᱞᱮᱠᱦᱟ
ᱞᱮᱠᱪᱟᱨ
ᱞᱮᱠᱪᱟᱨᱟᱨ
ᱞᱮᱠᱷ
ᱞᱮᱠᱷᱚᱠ
ᱞᱮᱠᱷᱟ
ᱞᱮᱠᱷᱟᱛᱮ
ᱞᱮᱠᱷᱟᱜ
ᱞᱮᱠᱷᱟᱜᱩᱴ
ᱞᱮᱠᱷᱟᱜᱼᱟ
ᱞᱮᱠᱷᱟᱠᱚ
ᱞᱮᱠᱷᱟᱡ
ᱞᱮᱠᱷᱟᱥᱤᱫ
ᱞᱮᱠᱷᱟᱭᱟ
ᱞᱮᱠᱷᱟᱭᱮᱫ
ᱞᱮᱠᱷᱟᱱ
ᱞᱮᱠᱷᱤ
ᱞᱮᱡᱟ
ᱞᱮᱥᱚᱛᱷᱚ
ᱞᱮᱥᱞᱤ
ᱞᱮᱥᱳᱛᱷᱳ
ᱞᱮᱦ
ᱞᱮᱫ
ᱞᱮᱫᱟ
ᱞᱮᱫᱟᱭ
ᱞᱮᱫᱟᱹᱭ
ᱞᱮᱫᱤᱭᱟ
ᱞᱮᱫᱮ
ᱞᱮᱫᱮᱭᱟ
ᱞᱮᱫᱮᱭᱟᱠᱚ
ᱞᱮᱫᱮᱭᱟᱭ
ᱞᱮᱫᱼᱟ
ᱞᱮᱫᱼᱟᱭ
ᱞᱮᱭ
ᱞᱮᱭᱞᱟ
ᱞᱮᱭᱟ
ᱞᱮᱭᱟᱨ
ᱞᱮᱮᱟ
ᱞᱮᱯᱪᱟ
ᱞᱮᱰᱟ
ᱞᱮᱰᱤ
ᱞᱮᱱ
ᱞᱮᱱᱛᱟᱦᱮᱸᱫ
ᱞᱮᱱᱛᱮ
ᱞᱮᱱᱟ
ᱞᱮᱱᱟᱭ
ᱞᱮᱱᱠᱷᱟᱱ
ᱞᱮᱱᱤᱱ
ᱞᱮᱱᱳᱣᱳ
ᱞᱮᱴᱚ
ᱞᱮᱴᱤᱱ
ᱞᱮᱵᱚᱞ
ᱞᱮᱵᱚᱨ
ᱞᱮᱵᱟᱞ
ᱞᱮᱵᱟᱨ
ᱞᱮᱵᱟᱱᱚᱱ
ᱞᱮᱵᱩ
ᱞᱮᱵᱮᱞ
ᱞᱮᱵᱮᱫ
ᱞᱮᱵᱷᱟᱞ
ᱞᱮᱵᱷᱮᱞ
ᱞᱮᱸᱜᱟ
ᱞᱮᱸᱰ
ᱞᱮᱹᱜᱤᱫ
ᱞᱮᱼᱟ
ᱞᱳ
ᱞᱳᱜᱳ
ᱞᱳᱠ
ᱞᱳᱠᱚ
ᱞᱳᱠᱟᱞ
ᱞᱳᱠᱥᱚᱵᱷᱟ
ᱞᱳᱠᱮᱥᱟᱱ
ᱞᱳᱠᱷᱟᱱᱰᱮ
ᱞᱳᱠᱷᱱᱚᱣ
ᱞᱳᱢᱮ
ᱞᱳᱦᱟᱱᱤ
ᱞᱳᱦᱤᱛ
ᱞᱳᱦᱨᱟ
ᱞᱳᱦᱨᱟᱥ
ᱞᱳᱦᱰᱤ
ᱞᱳᱫᱷᱤ
ᱞᱳᱭᱠᱟᱣ
ᱞᱳᱱ
ᱟ
ᱟᱛ
ᱟᱛᱚ
ᱟᱛᱚᱠᱚ
ᱟᱛᱚᱨᱮ
ᱟᱛᱚᱨᱮᱱ
ᱟᱛᱛᱚᱥᱚᱢᱚᱨᱯᱚᱱ
ᱟᱛᱛᱟᱢ
ᱟᱛᱟ
ᱟᱛᱟᱝ
ᱟᱛᱟᱨ
ᱟᱛᱢᱟ
ᱟᱛᱤᱛᱷᱤ
ᱟᱛᱨᱟ
ᱟᱛᱨᱟᱭ
ᱟᱛᱩ
ᱟᱛᱩᱜ
ᱟᱛᱮ
ᱟᱛᱮᱜ
ᱟᱛᱮᱫ
ᱟᱛᱮᱱ
ᱟᱛᱱᱟᱜ
ᱟᱛᱳ
ᱟᱛᱷᱞᱮᱴ
ᱟᱛᱷᱞᱮᱴᱤᱠᱥ
ᱟᱛᱷᱮᱱᱥ
ᱟᱛᱷᱽᱞᱮᱴ
ᱟᱜ
ᱟᱜᱚᱥᱴ
ᱟᱜᱚᱥᱴᱚ
ᱟᱜᱚᱨ
ᱟᱜᱟ
ᱟᱜᱟᱢ
ᱟᱜᱟᱥᱴ
ᱟᱜᱩ
ᱟᱜᱩᱭᱟ
ᱟᱜᱷᱟ
ᱟᱜᱷᱟᱛ
ᱟᱜᱷᱟᱬ
ᱟᱜᱼᱟ
ᱟᱜᱽ
ᱟᱜᱽᱨᱟ
ᱟᱝ
ᱟᱝᱜᱚᱪ
ᱟᱝᱜᱟ
ᱟᱝᱜᱟᱢᱤ
ᱟᱝᱜᱽᱨᱮᱡᱽ
ᱟᱝᱞᱚᱝ
ᱟᱞ
ᱟᱞᱚ
ᱟᱞᱚᱠᱚ
ᱟᱞᱚᱢ
ᱟᱞᱚᱢᱜᱤᱨ
ᱟᱞᱚᱢᱰᱟᱝᱜᱟ
ᱟᱞᱚᱭ
ᱟᱞᱚᱯᱮ
ᱟᱞᱛᱟᱭ
ᱟᱞᱜᱟ
ᱟᱞᱜᱟᱛᱮ
ᱟᱞᱞᱟ
ᱟᱞᱞᱟᱜ
ᱟᱞᱞᱟᱦ
ᱟᱞᱞᱟᱦᱟᱵᱟᱫᱽ
ᱟᱞᱟ
ᱟᱞᱟᱜ
ᱟᱞᱟᱜᱽ
ᱟᱞᱟᱝ
ᱟᱞᱟᱠ
ᱟᱞᱟᱢ
ᱟᱞᱟᱥᱠᱟ
ᱟᱞᱟᱦᱟᱵᱟᱫᱽ
ᱟᱞᱟᱫᱟ
ᱟᱞᱟᱭ
ᱟᱞᱟᱯᱯᱩᱡᱷᱟ
ᱟᱞᱟᱱ
ᱟᱞᱠᱟ
ᱟᱞᱡᱤᱭᱟᱨᱥ
ᱟᱞᱡᱮᱨᱤᱭᱟ
ᱟᱞᱡᱮᱹᱨᱤᱭᱟ
ᱟᱞᱢᱚᱲᱟ
ᱟᱞᱣᱟᱨ
ᱟᱞᱤ
ᱟᱞᱤᱜᱚᱲ
ᱟᱞᱤᱨᱟᱡᱽᱯᱩᱨ
ᱟᱞᱤᱭᱟ
ᱟᱞᱤᱯᱩᱨ
ᱟᱞᱤᱯᱩᱨᱫᱩᱣᱟᱨ
ᱟᱞᱤᱯᱷ
ᱟᱞᱤᱵᱟᱜᱽ
ᱟᱞᱩ
ᱟᱞᱮ
ᱟᱞᱮᱠᱡᱟᱱᱰᱟᱨ
ᱟᱞᱮᱭᱟᱜ
ᱟᱞᱮᱯᱯᱳ
ᱟᱞᱯᱷᱟ
ᱟᱞᱯᱷᱨᱮᱰ
ᱟᱞᱳ
ᱟᱞᱳᱠ
ᱟᱞᱵᱚᱢ
ᱟᱞᱵᱚᱨᱴ
ᱟᱞᱵᱟᱨᱴ
ᱟᱞᱵᱮᱱᱤᱭᱟ
ᱟᱞᱵᱮᱱᱤᱭᱟᱱ
ᱟᱞᱵᱷᱟ
ᱟᱟ
ᱟᱠ
ᱟᱠᱚ
ᱟᱠᱚᱞᱟ
ᱟᱠᱚᱣᱟ
ᱟᱠᱚᱣᱟᱜ
ᱟᱠᱚᱨᱤᱱ
ᱟᱠᱚᱨᱥᱚᱱ
ᱟᱠᱚᱭᱤᱡ
ᱟᱠᱚᱴ
ᱟᱠᱛᱚ
ᱟᱠᱛᱟᱨ
ᱟᱠᱟ
ᱟᱠᱟᱛ
ᱟᱠᱟᱜ
ᱟᱠᱟᱜᱼᱟ
ᱟᱠᱟᱞ
ᱟᱠᱟᱣ
ᱟᱠᱟᱣᱟᱫ
ᱟᱠᱟᱣᱫᱮᱭᱟ
ᱟᱠᱟᱥ
ᱟᱠᱟᱥᱵᱟᱱᱤ
ᱟᱠᱟᱨ
ᱟᱠᱟᱫ
ᱟᱠᱟᱫᱟ
ᱟᱠᱟᱫᱟᱠᱤᱱ
ᱟᱠᱟᱫᱟᱭ
ᱟᱠᱟᱫᱢᱤ
ᱟᱠᱟᱫᱤᱭᱟ
ᱟᱠᱟᱫᱮ
ᱟᱠᱟᱫᱮᱢᱤ
ᱟᱠᱟᱫᱮᱭᱟ
ᱟᱠᱟᱫᱼᱟ
ᱟᱠᱟᱫᱼᱟᱭ
ᱟᱠᱟᱭ
ᱟᱠᱟᱰᱮᱢᱤ
ᱟᱠᱟᱱ
ᱟᱠᱟᱱᱟ
ᱟᱠᱟᱱᱟᱜ
ᱟᱠᱟᱱᱟᱠᱚ
ᱟᱠᱟᱱᱟᱭ
ᱟᱠᱟᱱᱤᱡ
ᱟᱠᱠᱮᱞᱯᱩᱨ
ᱟᱠᱤᱞ
ᱟᱠᱤᱱ
ᱟᱠᱤᱱᱟᱜ
ᱟᱠᱤᱱᱤᱡ
ᱟᱠᱥᱚᱱ
ᱟᱠᱨᱚᱢᱚᱬ
ᱟᱠᱨᱚᱢᱚᱱ
ᱟᱠᱨᱟᱢ
ᱟᱠᱨᱤᱝ
ᱟᱠᱨᱤᱧ
ᱟᱠᱫᱟ
ᱟᱠᱱᱟ
ᱟᱠᱴ
ᱟᱠᱴᱚᱨ
ᱟᱠᱴᱤᱝ
ᱟᱠᱴᱨᱮᱥ
ᱟᱠᱵᱚᱨ
ᱟᱠᱵᱚᱨᱯᱩᱨ
ᱟᱠᱷᱚᱨ
ᱟᱠᱷᱤ
ᱟᱠᱷᱤᱞ
ᱟᱠᱷᱤᱨᱮ
ᱟᱠᱷᱨᱤᱧ
ᱟᱠᱷᱲᱟ
ᱟᱠᱷᱽᱲᱟ
ᱟᱡ
ᱟᱡᱚᱢ
ᱟᱡᱛᱮ
ᱟᱡᱜ
ᱟᱡᱜᱮ
ᱟᱡᱟ
ᱟᱡᱟᱜ
ᱟᱡᱟᱢᱜᱚᱲ
ᱟᱡᱟᱨ
ᱟᱡᱟᱨᱤᱭᱟ
ᱟᱡᱟᱨᱤᱭᱟᱹ
ᱟᱡᱟᱨᱵᱟᱭᱡᱟᱱ
ᱟᱡᱟᱨᱵᱟᱭᱡᱟᱱᱤ
ᱟᱡᱟᱫ
ᱟᱡᱟᱫᱽ
ᱟᱡᱟᱱ
ᱟᱡᱟᱱᱟ
ᱟᱡᱤᱛ
ᱟᱡᱤᱜ
ᱟᱡᱤᱡ
ᱟᱡᱨᱤᱱ
ᱟᱡᱨᱮᱱ
ᱟᱡᱫᱚ
ᱟᱡᱽ
ᱟᱡᱽᱢᱤ
ᱟᱡᱽᱢᱤᱨ
ᱟᱡᱽᱢᱮᱨ
ᱟᱢ
ᱟᱢᱚᱞ
ᱟᱢᱞᱟ
ᱟᱢᱟ
ᱟᱢᱟᱛᱭᱟ
ᱟᱢᱟᱜ
ᱟᱢᱟᱡᱚᱱ
ᱟᱢᱟᱨ
ᱟᱢᱢᱟ
ᱟᱢᱢᱟᱱ
ᱟᱢᱤ
ᱟᱢᱤᱨ
ᱟᱢᱤᱨᱟᱛ
ᱟᱢᱤᱱᱚ
ᱟᱢᱥᱴᱚᱨᱰᱮᱢ
ᱟᱢᱨᱚᱦᱟ
ᱟᱢᱨᱟᱣᱟᱛᱤ
ᱟᱢᱨᱤᱛᱟ
ᱟᱢᱨᱤᱛᱥᱚᱨ
ᱟᱢᱨᱤᱠᱟ
ᱟᱢᱨᱤᱠᱟᱱ
ᱟᱢᱩᱱᱰᱥᱮᱱ
ᱟᱢᱫᱚ
ᱟᱢᱫᱟ
ᱟᱢᱫᱟᱡᱚᱜ
ᱟᱢᱫᱟᱡᱽ
ᱟᱢᱫᱟᱱᱤᱠᱟᱨᱚᱠ
ᱟᱢᱮᱢ
ᱟᱢᱮᱨᱤᱠᱟ
ᱟᱢᱮᱨᱤᱠᱟᱱ
ᱟᱢᱮᱨᱤᱠᱤ
ᱟᱢᱮᱨᱤᱠᱤᱭᱟᱹ
ᱟᱢᱮᱴ
ᱟᱢᱮᱴᱤᱭᱟᱹ
ᱟᱢᱮᱴᱷᱤ
ᱟᱢᱯᱟᱭᱟᱨ
ᱟᱢᱲᱟᱯᱟᱲᱟ
ᱟᱢᱵᱟᱞᱟ
ᱟᱢᱵᱟᱡᱳᱲᱟ
ᱟᱢᱵᱟᱱᱤ
ᱟᱢᱵᱤᱠᱟᱯᱩᱨ
ᱟᱢᱵᱮᱫᱠᱚᱨ
ᱟᱢᱵᱮᱫᱽᱠᱚᱨ
ᱟᱢᱵᱮᱰᱠᱚᱨ
ᱟᱢᱵᱮᱰᱠᱟᱨ
ᱟᱢᱵᱷᱩᱣᱟ
ᱟᱣ
ᱟᱣᱚᱨᱰ
ᱟᱣᱛᱟᱱ
ᱟᱣᱟᱢᱤ
ᱟᱣᱟᱢᱤᱞᱤᱜᱽ
ᱟᱣᱟᱨᱰ
ᱟᱣᱟᱨᱰᱥ
ᱟᱣᱟᱫᱷ
ᱟᱣᱟᱭᱤ
ᱟᱣᱟᱰ
ᱟᱣᱢᱟ
ᱟᱣᱥᱟᱛ
ᱟᱣᱨᱚᱝᱜᱟᱵᱟᱫᱽ
ᱟᱣᱨᱟᱝᱜᱟ
ᱟᱣᱨᱟᱝᱜᱟᱵᱟᱫᱽ
ᱟᱣᱩᱴ
ᱟᱣᱫᱷᱤ
ᱟᱣᱴ
ᱟᱤ
ᱟᱤᱱ
ᱟᱥ
ᱟᱥᱚᱞ
ᱟᱥᱚᱠ
ᱟᱥᱚᱠᱟᱭ
ᱟᱥᱚᱠᱟᱭᱛᱮ
ᱟᱥᱚᱠᱱᱚᱜᱚᱨ
ᱟᱥᱚᱯᱷ
ᱟᱥᱚᱱ
ᱟᱥᱚᱱᱠᱚ
ᱟᱥᱛᱮ
ᱟᱥᱛᱷᱟᱱᱟ
ᱟᱥᱜᱟᱵᱟᱛ
ᱟᱥᱞᱤ
ᱟᱥᱟ
ᱟᱥᱟᱢ
ᱟᱥᱟᱢᱤ
ᱟᱥᱟᱢᱤᱥ
ᱟᱥᱟᱢᱤᱥᱺ
ᱟᱥᱟᱢᱤᱭᱟ
ᱟᱥᱟᱢᱤᱭᱟᱹ
ᱟᱥᱟᱱ
ᱟᱥᱟᱱᱥᱚᱞ
ᱟᱥᱟᱱᱥᱳᱞ
ᱟᱥᱟᱲ
ᱟᱥᱠᱟ
ᱟᱥᱤᱥ
ᱟᱥᱤᱯᱷ
ᱟᱥᱤᱯᱷᱟᱵᱟᱫᱽ
ᱟᱥᱨᱚᱢ
ᱟᱥᱨᱟ
ᱟᱥᱨᱟᱢ
ᱟᱥᱨᱟᱭ
ᱟᱥᱩᱛᱳᱥ
ᱟᱥᱩᱞ
ᱟᱥᱩᱨᱤ
ᱟᱥᱮ
ᱟᱥᱮᱠᱟ
ᱟᱥᱮᱢᱵᱞᱤ
ᱟᱥᱮᱢᱵᱽᱞᱤ
ᱟᱥᱮᱱ
ᱟᱥᱯᱛᱟᱞ
ᱟᱥᱯᱟᱛᱟᱞ
ᱟᱥᱲᱟ
ᱟᱥᱲᱟᱢ
ᱟᱥᱲᱟᱭ
ᱟᱥᱳᱥᱤᱭᱮᱥᱚᱱ
ᱟᱥᱴᱨᱮᱞᱤᱭᱟ
ᱟᱦ
ᱟᱦᱚᱢ
ᱟᱦᱚᱢᱮᱫ
ᱟᱦᱚᱢᱮᱫᱽ
ᱟᱦᱞᱟ
ᱟᱦᱟᱨ
ᱟᱦᱢᱚᱫᱯᱩᱨ
ᱟᱦᱤᱞᱭᱟᱵᱟᱭ
ᱟᱦᱩᱢ
ᱟᱦᱳᱢ
ᱟᱧ
ᱟᱧᱡᱚᱢ
ᱟᱨ
ᱟᱨᱚ
ᱟᱨᱚᱛᱤ
ᱟᱨᱚᱵ
ᱟᱨᱚᱵᱤᱠ
ᱟᱨᱚᱵᱤᱭᱟᱱ
ᱟᱨᱚᱵᱽ
ᱟᱨᱟ
ᱟᱨᱟᱜ
ᱟᱨᱟᱠᱟᱱ
ᱟᱨᱟᱢ
ᱟᱨᱟᱨᱤᱭᱟ
ᱟᱨᱟᱬ
ᱟᱨᱟᱵᱚᱲᱤ
ᱟᱨᱟᱵᱤᱠ
ᱟᱨᱟᱵᱽ
ᱟᱨᱠ
ᱟᱨᱠᱚ
ᱟᱨᱠᱢᱮᱰᱤᱥ
ᱟᱨᱠᱤᱴᱮᱠᱪᱚᱨ
ᱟᱨᱠᱴᱤᱠ
ᱟᱨᱡᱚ
ᱟᱨᱡᱟᱣ
ᱟᱨᱡᱟᱣᱚᱜ
ᱟᱨᱡᱟᱣᱟ
ᱟᱨᱡᱟᱣᱟᱱ
ᱟᱨᱡᱤ
ᱟᱨᱡᱩᱱ
ᱟᱨᱡᱮᱱᱴᱤᱱᱟ
ᱟᱨᱢᱟᱱᱤ
ᱟᱨᱢᱤ
ᱟᱨᱢᱤᱫ
ᱟᱨᱢᱥᱴᱨᱚᱝ
ᱟᱨᱢᱮᱱᱤᱭᱟ
ᱟᱨᱢᱮᱱᱤᱭᱟᱱ
ᱟᱨᱣᱟᱞ
ᱟᱨᱤ
ᱟᱨᱤᱥᱟ
ᱟᱨᱥᱟᱞ
ᱟᱨᱥᱤ
ᱟᱨᱥᱴ
ᱟᱨᱦᱚ
ᱟᱨᱦᱚᱸ
ᱟᱨᱦᱚᱸᱭ
ᱟᱨᱩ
ᱟᱨᱩᱬᱟ
ᱟᱨᱩᱱ
ᱟᱨᱫᱚᱲᱦᱟ
ᱟᱨᱫᱟᱥ
ᱟᱨᱭᱚ
ᱟᱨᱭᱟ
ᱟᱨᱭᱟᱱ
ᱟᱨᱮ
ᱟᱨᱮᱥᱴ
ᱟᱨᱮᱨᱮ
ᱟᱨᱮᱭᱟᱜ
ᱟᱨᱳᱨᱟ
ᱟᱨᱳᱯ
ᱟᱨᱴ
ᱟᱨᱴᱤᱠᱮᱞ
ᱟᱨᱴᱤᱠᱮᱹᱞ
ᱟᱨᱴᱤᱥᱴ
ᱟᱨᱴᱥ
ᱟᱨᱵᱟᱝ
ᱟᱨᱵᱟᱝᱠᱷᱟᱱ
ᱟᱨᱵᱟᱝᱢᱟ
ᱟᱨᱵᱟᱱ
ᱟᱨᱵᱤ
ᱟᱨᱹ
ᱟᱪᱚ
ᱟᱪᱟᱨ
ᱟᱪᱟᱨᱡᱚ
ᱟᱪᱟᱨᱭᱚ
ᱟᱪᱟᱨᱭᱟ
ᱟᱪᱠᱟ
ᱟᱪᱩᱨ
ᱟᱪᱮᱛ
ᱟᱪᱮᱛᱟᱱᱤ
ᱟᱪᱮᱛᱤᱭᱟ
ᱟᱪᱮᱛᱤᱭᱟᱹ
ᱟᱪᱮᱦ
ᱟᱪᱮᱫ
ᱟᱪᱮᱫᱤᱭᱟᱹ
ᱟᱪᱷ
ᱟᱪᱷᱮ
ᱟᱫ
ᱟᱫᱚ
ᱟᱫᱚᱜ
ᱟᱫᱚᱞ
ᱟᱫᱚᱢ
ᱟᱫᱚᱢᱫᱤᱜᱷᱤ
ᱟᱫᱚᱣᱟ
ᱟᱫᱚᱨᱥᱚ
ᱟᱫᱟ
ᱟᱫᱟᱞᱚᱛ
ᱟᱫᱟᱢ
ᱟᱫᱟᱨᱥ
ᱟᱫᱤ
ᱟᱫᱤᱛᱢᱟᱨᱤ
ᱟᱫᱤᱛᱤ
ᱟᱫᱤᱛᱭᱚ
ᱟᱫᱤᱛᱭᱟ
ᱟᱫᱤᱛᱯᱩᱨ
ᱟᱫᱤᱞ
ᱟᱫᱤᱞᱟᱵᱟᱫᱽ
ᱟᱫᱤᱵᱟᱥᱤ
ᱟᱫᱮ
ᱟᱫᱮᱥ
ᱟᱫᱮᱨ
ᱟᱫᱮᱭᱟ
ᱟᱫᱷᱟ
ᱟᱫᱷᱟᱨ
ᱟᱫᱷᱟᱨᱤᱛ
ᱟᱫᱷᱟᱱ
ᱟᱫᱷᱩᱱᱤᱠ
ᱟᱫᱷᱭᱟᱛᱢᱤᱠ
ᱟᱫᱼᱟ
ᱟᱫᱽ
ᱟᱫᱽᱢᱤ
ᱟᱫᱽᱣᱟ
ᱟᱫᱽᱨᱟ
ᱟᱬᱜᱚ
ᱟᱬᱜᱚᱭᱟ
ᱟᱬᱜᱚᱱ
ᱟᱬᱜᱚᱱᱟ
ᱟᱬᱜᱟᱛ
ᱟᱭ
ᱟᱭᱚ
ᱟᱭᱚᱛᱚᱱ
ᱟᱭᱚᱜᱽ
ᱟᱭᱚᱡᱟᱱ
ᱟᱭᱚᱫᱷᱭᱟ
ᱟᱭᱚᱱ
ᱟᱭᱛᱟᱱ
ᱟᱭᱞᱮᱱᱰ
ᱟᱭᱞᱮᱸᱰ
ᱟᱭᱟ
ᱟᱭᱟᱛ
ᱟᱭᱟᱜ
ᱟᱭᱟᱢ
ᱟᱭᱟᱢᱟ
ᱟᱭᱟᱨ
ᱟᱭᱟᱨᱞᱮᱱᱰ
ᱟᱭᱟᱨᱞᱮᱸᱰ
ᱟᱭᱟᱨᱥᱤ
ᱟᱭᱠᱚᱱ
ᱟᱭᱡᱚᱞ
ᱟᱭᱢᱟ
ᱟᱭᱢᱟᱜᱟᱱ
ᱟᱭᱢᱟᱨᱟ
ᱟᱭᱢᱟᱭ
ᱟᱭᱤ
ᱟᱭᱤᱞᱮᱸᱰ
ᱟᱭᱤᱥᱞᱮᱱᱰ
ᱟᱭᱤᱥᱞᱮᱱᱰᱤᱠ
ᱟᱭᱤᱮᱮᱥ
ᱟᱭᱤᱱ
ᱟᱭᱤᱱᱥᱴᱟᱭᱤᱱ
ᱟᱭᱤᱴᱤ
ᱟᱭᱥᱟ
ᱟᱭᱥᱟᱠ
ᱟᱭᱥᱤᱥᱤ
ᱟᱭᱥᱮ
ᱟᱭᱨᱚᱱ
ᱟᱭᱨᱤᱥ
ᱟᱭᱨᱮᱥ
ᱟᱭᱩᱥᱢᱟᱱ
ᱟᱭᱩᱨ
ᱟᱭᱩᱨᱛᱮ
ᱟᱭᱩᱨᱣᱮᱫᱟ
ᱟᱭᱩᱨᱤᱭᱟᱹ
ᱟᱭᱩᱨᱵᱮᱫᱤᱠ
ᱟᱭᱩᱨᱵᱮᱫᱽ
ᱟᱭᱩᱵ
ᱟᱭᱩᱵᱽ
ᱟᱭᱮ
ᱟᱭᱮᱥᱟ
ᱟᱭᱮᱥᱳ
ᱟᱭᱮᱭᱟᱨᱣᱟᱫᱤ
ᱟᱭᱯᱤᱮᱞ
ᱟᱭᱱᱚᱢ
ᱟᱭᱳ
ᱟᱭᱳᱣᱟᱜ
ᱟᱭᱳᱭ
ᱟᱭᱳᱼᱵᱟᱵᱟ
ᱟᱭᱴᱤ
ᱟᱮ
ᱟᱯ
ᱟᱯᱚᱱ
ᱟᱯᱜᱨᱮᱰ
ᱟᱯᱟ
ᱟᱯᱟᱛ
ᱟᱯᱟᱛᱟᱜ
ᱟᱯᱟᱛᱮᱫ
ᱟᱯᱟᱨ
ᱟᱯᱟᱱ
ᱟᱯᱟᱱᱟᱨ
ᱟᱯᱤᱱ
ᱟᱯᱨᱤᱞ
ᱟᱯᱨᱤᱠᱟ
ᱟᱯᱨᱮᱞ
ᱟᱯᱮ
ᱟᱯᱮᱭᱟᱜ
ᱟᱯᱱᱟ
ᱟᱯᱱᱟᱨ
ᱟᱯᱱᱟᱨᱟ
ᱟᱯᱱᱟᱨᱟᱜ
ᱟᱯᱴᱮ
ᱟᱯᱷ
ᱟᱯᱷᱚᱫᱽ
ᱟᱯᱷᱜᱟᱱ
ᱟᱯᱷᱜᱟᱱᱤᱥᱛᱟᱱ
ᱟᱯᱷᱟᱨ
ᱟᱯᱷᱨᱤᱠᱟ
ᱟᱯᱷᱨᱤᱠᱟᱱ
ᱟᱯᱷᱨᱳᱼᱮᱥᱤᱭᱟᱴᱤᱠ
ᱟᱯᱷᱮᱭᱟᱨᱥ
ᱟᱯᱷᱱᱟᱨ
ᱟᱰᱚ
ᱟᱰᱟ
ᱟᱰᱤ
ᱟᱰᱤᱜᱟᱱ
ᱟᱰᱮ
ᱟᱰᱮᱯᱟᱥᱮ
ᱟᱰᱵᱷᱟᱱᱤ
ᱟᱱ
ᱟᱱᱚᱱᱫ
ᱟᱱᱚᱱᱫᱚ
ᱟᱱᱚᱱᱫᱤᱵᱟᱭᱤ
ᱟᱱᱚᱱᱫᱽ
ᱟᱱᱚᱸᱫᱽ
ᱟᱱᱛᱚᱨᱡᱟᱛᱤᱠ
ᱟᱱᱛᱮ
ᱟᱱᱜᱟᱲᱟ
ᱟᱱᱟ
ᱟᱱᱟᱜ
ᱟᱱᱟᱜᱚᱱᱟ
ᱟᱱᱟᱝ
ᱟᱱᱟᱞᱟᱭᱥᱤᱥ
ᱟᱱᱟᱡ
ᱟᱱᱟᱡᱽ
ᱟᱱᱟᱴ
ᱟᱱᱟᱸᱫᱽ
ᱟᱱᱡᱩᱢ
ᱟᱱᱤ
ᱟᱱᱤᱞ
ᱟᱱᱤᱡ
ᱟᱱᱤᱢᱮᱴᱮᱰ
ᱟᱱᱤᱥᱟ
ᱟᱱᱩ
ᱟᱱᱩᱥᱩᱪᱤᱛ
ᱟᱱᱩᱯᱯᱩᱨ
ᱟᱱᱫ
ᱟᱱᱫᱚᱞᱚᱱ
ᱟᱱᱫᱚᱞᱟᱱ
ᱟᱱᱫᱚᱲ
ᱟᱱᱫᱟᱡᱽ
ᱟᱱᱫᱟᱢᱟᱱ
ᱟᱱᱫᱨᱚ
ᱟᱱᱫᱮᱥ
ᱟᱱᱫᱳᱞᱚᱱ
ᱟᱱᱫᱳᱞᱳᱱ
ᱟᱱᱫᱷᱟ
ᱟᱱᱫᱷᱨᱚ
ᱟᱱᱫᱷᱨᱟ
ᱟᱱᱫᱽᱨᱚ
ᱟᱱᱫᱽᱨᱟ
ᱟᱱᱰ
ᱟᱱᱰᱟᱢᱟᱱ
ᱟᱱᱰᱟᱨ
ᱟᱱᱰᱟᱨᱜᱽᱨᱮᱡᱩᱭᱮᱴ
ᱟᱱᱰᱤᱨᱥᱮᱱ
ᱟᱱᱰᱨᱚᱭᱮᱰ
ᱟᱱᱱᱟ
ᱟᱱᱴᱟᱨᱠᱚᱴᱤᱠᱟ
ᱟᱱᱴᱤ
ᱟᱲᱟ
ᱟᱲᱟᱜ
ᱟᱲᱟᱝ
ᱟᱲᱟᱝᱚᱜ
ᱟᱲᱟᱝᱛᱮ
ᱟᱲᱟᱥ
ᱟᱲᱥᱟ
ᱟᱲᱮ
ᱟᱲᱮᱛᱮ
ᱟᱲᱮᱨᱮ
ᱟᱴ
ᱟᱴᱚᱭᱟᱨᱤ
ᱟᱴᱜᱷᱚᱨᱤᱭᱟ
ᱟᱴᱞᱟᱱᱴᱟ
ᱟᱴᱞᱟᱱᱴᱤᱠ
ᱟᱴᱞᱟᱱᱴᱤᱠᱼᱠᱚᱝᱜᱳ
ᱟᱴᱟᱞ
ᱟᱴᱟᱠ
ᱟᱴᱠᱟᱣ
ᱟᱴᱠᱟᱨ
ᱟᱴᱠᱩᱲᱟᱹ
ᱟᱴᱤᱥᱴ
ᱟᱴᱮᱛ
ᱟᱴᱮᱫ
ᱟᱴᱴᱟᱢ
ᱟᱵ
ᱟᱵᱚ
ᱟᱵᱚᱜ
ᱟᱵᱚᱣᱟᱜ
ᱟᱵᱚᱥᱛᱟ
ᱟᱵᱚᱱ
ᱟᱵᱚᱱᱟ
ᱟᱵᱟᱨ
ᱟᱵᱟᱫ
ᱟᱵᱟᱫᱤ
ᱟᱵᱟᱫᱽ
ᱟᱵᱤᱵᱽ
ᱟᱵᱩ
ᱟᱵᱩᱜᱤᱫᱟ
ᱟᱵᱩᱞ
ᱟᱵᱫᱩᱞ
ᱟᱵᱷᱟ
ᱟᱵᱷᱤᱭᱟᱱ
ᱟᱵᱷᱤᱱᱟᱭ
ᱟᱵᱷᱤᱱᱮᱛᱟ
ᱟᱵᱷᱭᱟᱨᱚᱱᱭ
ᱟᱵᱽ
ᱟᱵᱽᱜᱮ
ᱟᱵᱽᱨᱟᱦᱟᱢ
ᱟᱵᱽᱫᱩᱞ
ᱟᱸ
ᱟᱸᱛ
ᱟᱸᱜᱚᱡ
ᱟᱸᱜᱚᱪ
ᱟᱸᱜᱤᱵᱷᱟᱨ
ᱟᱸᱠ
ᱟᱸᱠᱷᱤ
ᱟᱸᱡᱚᱢ
ᱟᱸᱡᱚᱢᱚᱜ
ᱟᱸᱡᱚᱢᱚᱜᱼᱟ
ᱟᱸᱡᱚᱢᱟ
ᱟᱸᱡᱽᱞᱮ
ᱟᱸᱥ
ᱟᱸᱫᱚᱲ
ᱟᱸᱫᱮ
ᱟᱸᱫᱳᱲ
ᱟᱸᱫᱷᱟ
ᱟᱸᱫᱷᱨᱚ
ᱟᱸᱫᱷᱨᱚᱯᱨᱚᱫᱮᱥ
ᱟᱸᱰᱮ
ᱟᱸᱰᱮᱯᱟᱥᱮ
ᱟᱸᱴ
ᱟᱸᱴᱮ
ᱟᱹᱛ
ᱟᱹᱛᱠᱤᱨ
ᱟᱹᱛᱤᱧ
ᱟᱹᱛᱩ
ᱟᱹᱛᱩᱜ
ᱟᱹᱛᱩᱨᱮ
ᱟᱹᱛᱳ
ᱟᱹᱜᱤᱞ
ᱟᱹᱜᱤᱵᱷᱟᱨ
ᱟᱹᱜᱩ
ᱟᱹᱜᱩᱜ
ᱟᱹᱜᱩᱣᱟᱹᱱ
ᱟᱹᱜᱩᱭ
ᱟᱹᱜᱩᱭᱟ
ᱟᱹᱜᱩᱭᱫᱟ
ᱟᱹᱜᱩᱭᱮᱫ
ᱟᱹᱞᱤᱧ
ᱟᱹᱞᱩ
ᱟᱹᱠᱤᱞ
ᱟᱹᱠᱤᱞᱟᱱ
ᱟᱹᱠᱤᱱ
ᱟᱹᱠᱤᱱᱟ
ᱟᱹᱠᱤᱱᱟᱜ
ᱟᱹᱠᱤᱱᱤᱡ
ᱟᱹᱠᱩ
ᱟᱹᱠᱩᱣᱟᱜ
ᱟᱹᱠᱷ
ᱟᱹᱠᱷᱨᱤᱧ
ᱟᱹᱡᱤ
ᱟᱹᱢᱟᱹᱞᱤ
ᱟᱹᱢᱟᱹᱞᱤᱭᱟᱹ
ᱟᱹᱢᱟᱹᱞᱮᱛ
ᱟᱹᱣᱨᱤ
ᱟᱹᱥᱩᱞ
ᱟᱹᱥᱩᱞᱚᱜ
ᱟᱹᱧ
ᱟᱹᱨᱡᱤ
ᱟᱹᱨᱤ
ᱟᱹᱨᱤᱪᱟᱹᱞᱤ
ᱟᱹᱨᱤᱭᱟᱹ
ᱟᱹᱨᱥᱤ
ᱟᱹᱨᱩ
ᱟᱹᱨᱩᱜ
ᱟᱹᱨᱩᱭ
ᱟᱹᱨᱩᱯᱷᱮᱨᱟᱣ
ᱟᱹᱨᱩᱵ
ᱟᱹᱪᱩ
ᱟᱹᱪᱩᱨ
ᱟᱹᱪᱩᱨᱚᱜ
ᱟᱹᱪᱩᱨᱟ
ᱟᱹᱪᱷᱤᱢ
ᱟᱹᱫᱟᱹᱭ
ᱟᱹᱫᱤ
ᱟᱹᱫᱤᱢ
ᱟᱹᱫᱤᱵᱟᱥᱤ
ᱟᱹᱫᱤᱵᱟᱹᱥᱤ
ᱟᱹᱫᱷᱩᱱᱤᱠ
ᱟᱹᱭᱟᱹᱛ
ᱟᱹᱭᱠᱟᱹᱜ
ᱟᱹᱭᱠᱟᱹᱜᱼᱟ
ᱟᱹᱭᱠᱟᱹᱣ
ᱟᱹᱭᱠᱟᱹᱣᱜ
ᱟᱹᱭᱠᱟᱹᱣᱜᱼᱟ
ᱟᱹᱭᱠᱟᱹᱣᱟ
ᱟᱹᱭᱤᱱ
ᱟᱹᱭᱩᱨ
ᱟᱹᱭᱩᱨᱤᱡ
ᱟᱹᱭᱩᱨᱤᱭᱟᱹ
ᱟᱹᱭᱩᱵ
ᱟᱹᱭᱫᱟᱹᱨ
ᱟᱹᱭᱫᱟᱹᱨᱤ
ᱟᱹᱭᱫᱟᱹᱨᱤᱭ
ᱟᱹᱭᱳ
ᱟᱹᱯᱤᱥ
ᱟᱹᱯᱤᱱ
ᱟᱹᱯᱱᱟᱹᱛ
ᱟᱹᱰᱤ
ᱟᱹᱰᱤᱜᱟᱱ
ᱟᱹᱰᱤᱜᱮ
ᱟᱹᱰᱤᱠᱚᱢ
ᱟᱹᱰᱤᱭ
ᱟᱹᱰᱤᱭᱮ
ᱟᱹᱱ
ᱟᱹᱱᱟᱠᱟᱱ
ᱟᱹᱱᱟᱨᱤ
ᱟᱹᱱᱟᱹᱨᱤ
ᱟᱹᱱᱤᱡ
ᱟᱹᱲ
ᱟᱹᱲᱟ
ᱟᱹᱲᱟᱹ
ᱟᱹᱲᱤᱥ
ᱟᱹᱵᱤ
ᱟᱹᱵᱤᱱ
ᱟᱹᱵᱤᱱᱟᱜ
ᱟᱺ
ᱟᱺᱜᱤᱵᱷᱟ
ᱟᱺᱜᱤᱵᱷᱟᱨ
ᱟᱺᱜᱤᱵᱷᱟᱹᱨᱤᱭᱟᱹ
ᱟᱺᱠ
ᱟᱺᱭᱥᱟ
ᱠ
ᱠᱚ
ᱠᱚᱛᱮ
ᱠᱚᱛᱷᱚᱠ
ᱠᱚᱛᱷᱚᱠᱚᱞᱤ
ᱠᱚᱛᱷᱟ
ᱠᱚᱜ
ᱠᱚᱜᱮ
ᱠᱚᱜᱮᱭᱟ
ᱠᱚᱜᱼᱟ
ᱠᱚᱜᱼᱢᱟ
ᱠᱚᱝ
ᱠᱚᱝᱜᱚ
ᱠᱚᱝᱜᱚᱱᱟ
ᱠᱚᱝᱜᱨᱮᱥ
ᱠᱚᱝᱜᱳ
ᱠᱚᱝᱜᱽᱨᱮᱥ
ᱠᱚᱝᱠᱚᱬ
ᱠᱚᱝᱠᱚᱬᱤ
ᱠᱚᱝᱠᱟ
ᱠᱚᱝᱠᱨᱤᱴ
ᱠᱚᱝᱥᱟᱵᱚᱛᱤ
ᱠᱚᱞ
ᱠᱚᱞᱚᱠᱟᱛᱟ
ᱠᱚᱞᱚᱢ
ᱠᱚᱞᱚᱢᱚᱱᱰᱞᱚᱢ
ᱠᱚᱞᱚᱢᱵᱚ
ᱠᱚᱞᱚᱢᱵᱟᱥ
ᱠᱚᱞᱚᱢᱵᱤᱭᱟ
ᱠᱚᱞᱚᱨᱥ
ᱠᱚᱞᱚᱱᱤ
ᱠᱚᱞᱞᱟᱠᱩᱨᱤᱪᱤ
ᱠᱚᱞᱞᱟᱢ
ᱠᱚᱞᱞᱮᱡ
ᱠᱚᱞᱟ
ᱠᱚᱞᱟᱠᱟᱨ
ᱠᱚᱞᱟᱢ
ᱠᱚᱞᱟᱢᱚᱱᱰᱚᱞᱚᱢ
ᱠᱚᱞᱟᱨ
ᱠᱚᱞᱟᱨᱠᱚᱰ
ᱠᱚᱞᱠᱟᱛᱛᱟ
ᱠᱚᱞᱠᱟᱛᱟ
ᱠᱚᱞᱤ
ᱠᱚᱞᱤᱝ
ᱠᱚᱞᱤᱭᱟᱵᱚᱨ
ᱠᱚᱞᱥᱟ
ᱠᱚᱞᱦᱟᱯᱩᱨ
ᱠᱚᱞᱦᱟᱱ
ᱠᱚᱞᱪᱚᱨ
ᱠᱚᱞᱪᱚᱨᱟᱞ
ᱠᱚᱞᱭᱟᱬ
ᱠᱚᱞᱮ
ᱠᱚᱞᱮᱠᱴᱚᱨ
ᱠᱚᱞᱮᱡ
ᱠᱚᱞᱮᱡᱤᱭᱮᱴ
ᱠᱚᱞᱮᱡᱽ
ᱠᱚᱞᱮᱨᱮ
ᱠᱚᱞᱯᱚᱱᱟ
ᱠᱚᱟᱜ
ᱠᱚᱠ
ᱠᱚᱠᱚ
ᱠᱚᱠᱚᱨ
ᱠᱚᱠᱚᱭ
ᱠᱚᱠᱥᱵᱟᱡᱟᱨ
ᱠᱚᱠᱮᱥᱟᱥ
ᱠᱚᱠᱮᱥᱤᱭᱟᱱ
ᱠᱚᱠᱲᱟᱡᱷᱟᱲ
ᱠᱚᱠᱵᱚᱨᱚᱠ
ᱠᱚᱡᱷᱤᱠᱚᱰ
ᱠᱚᱢ
ᱠᱚᱢᱚᱛᱟ
ᱠᱚᱢᱚᱜ
ᱠᱚᱢᱚᱜᱼᱟ
ᱠᱚᱢᱚᱞ
ᱠᱚᱢᱚᱞᱟ
ᱠᱚᱢᱚᱨᱚᱥ
ᱠᱚᱢᱚᱨᱥ
ᱠᱚᱢᱚᱨᱥᱤᱭᱟᱞ
ᱠᱚᱢᱚᱱ
ᱠᱚᱢᱚᱱᱣᱮᱞᱛᱷ
ᱠᱚᱢᱚᱲᱟ
ᱠᱚᱢᱞᱟ
ᱠᱚᱢᱟ
ᱠᱚᱢᱟᱞ
ᱠᱚᱢᱟᱣ
ᱠᱚᱢᱟᱨᱟᱢ
ᱠᱚᱢᱟᱨᱥ
ᱠᱚᱢᱟᱨᱥᱤᱭᱟᱞ
ᱠᱚᱢᱟᱱᱰᱚᱨ
ᱠᱚᱢᱤ
ᱠᱚᱢᱤᱣᱱᱤᱠᱮᱥᱚᱱ
ᱠᱚᱢᱤᱣᱱᱤᱥᱴ
ᱠᱚᱢᱤᱥᱚᱱ
ᱠᱚᱢᱤᱥᱚᱱᱚᱨ
ᱠᱚᱢᱤᱥᱚᱱᱟᱨ
ᱠᱚᱢᱤᱥᱱᱚᱨ
ᱠᱚᱢᱤᱭᱩᱱᱤᱠᱮᱥᱚᱱ
ᱠᱚᱢᱤᱭᱩᱱᱥ
ᱠᱚᱢᱤᱱᱤᱥᱴ
ᱠᱚᱢᱤᱴᱤ
ᱠᱚᱢᱩᱱᱤᱠᱮᱥᱚᱱ
ᱠᱚᱢᱩᱱᱤᱥᱴ
ᱠᱚᱢᱩᱱᱤᱴᱤ
ᱠᱚᱢᱭᱩᱱᱤᱥᱴ
ᱠᱚᱢᱭᱩᱱᱤᱴᱤ
ᱠᱚᱢᱮ
ᱠᱚᱢᱮᱨᱥᱤᱭᱟᱞ
ᱠᱚᱢᱮᱰᱤ
ᱠᱚᱢᱮᱰᱤᱭᱟᱱ
ᱠᱚᱢᱯᱚᱱᱤ
ᱠᱚᱢᱯᱞᱮᱠᱥ
ᱠᱚᱢᱯᱟᱣᱩᱱᱰ
ᱠᱚᱢᱯᱟᱱᱤ
ᱠᱚᱢᱯᱟᱹᱱᱤ
ᱠᱚᱢᱯᱤᱭᱩᱴᱟᱨ
ᱠᱚᱢᱯᱤᱴᱤᱥᱚᱱ
ᱠᱚᱢᱯᱤᱴᱤᱥᱟᱱ
ᱠᱚᱢᱯᱩᱴᱚᱨ
ᱠᱚᱢᱯᱩᱴᱟᱨ
ᱠᱚᱢᱯᱭᱩᱴᱚᱨ
ᱠᱚᱢᱯᱭᱩᱴᱟᱨ
ᱠᱚᱢᱯᱮᱴᱤᱥᱚᱱ
ᱠᱚᱣᱟ
ᱠᱚᱣᱟᱜ
ᱠᱚᱣᱟᱨ
ᱠᱚᱣᱟᱭ
ᱠᱚᱣᱤᱛᱟ
ᱠᱚᱣᱥᱚᱞ
ᱠᱚᱣᱨ
ᱠᱚᱣᱭᱟ
ᱠᱚᱥ
ᱠᱚᱥᱛᱩᱨᱤ
ᱠᱚᱥᱛᱩᱨᱵᱟ
ᱠᱚᱥᱟ
ᱠᱚᱥᱤ
ᱠᱚᱥᱤᱠᱟ
ᱠᱚᱥᱭᱚᱯ
ᱠᱚᱥᱮᱨᱩᱠ
ᱠᱚᱥᱴ
ᱠᱚᱥᱴᱚ
ᱠᱚᱥᱴᱟ
ᱠᱚᱥᱴᱟᱞ
ᱠᱚᱥᱵᱟ
ᱠᱚᱦᱚ
ᱠᱚᱦᱚᱸ
ᱠᱚᱦᱚᱸᱭ
ᱠᱚᱦᱚᱸᱰᱟ
ᱠᱚᱦᱤᱢᱟ
ᱠᱚᱧ
ᱠᱚᱧᱮ
ᱠᱚᱧᱮᱭᱟᱭ
ᱠᱚᱧᱮᱼᱥᱟᱢᱟᱝ
ᱠᱚᱧᱮᱼᱮᱛᱚᱢ
ᱠᱚᱧᱮᱼᱯᱟᱪᱮ
ᱠᱚᱨ
ᱠᱚᱨᱚ
ᱠᱚᱨᱚᱛᱚᱭᱟ
ᱠᱚᱨᱚᱢ
ᱠᱚᱨᱚᱢᱪᱟᱸᱫᱽ
ᱠᱚᱨᱚᱱ
ᱠᱚᱨᱚᱱᱟ
ᱠᱚᱨᱚᱱᱰᱤᱦ
ᱠᱚᱨᱚᱲ
ᱠᱚᱨᱛᱟᱞ
ᱠᱚᱨᱟ
ᱠᱚᱨᱟᱣ
ᱠᱚᱨᱟᱣᱟ
ᱠᱚᱨᱟᱪᱤ
ᱠᱚᱨᱟᱯᱩᱴ
ᱠᱚᱨᱟᱱ
ᱠᱚᱨᱠᱩ
ᱠᱚᱨᱣᱟ
ᱠᱚᱨᱤ
ᱠᱚᱨᱤᱢ
ᱠᱚᱨᱤᱢᱜᱚᱸᱡᱽ
ᱠᱚᱨᱤᱢᱱᱚᱜᱚᱨ
ᱠᱚᱨᱤᱢᱱᱟᱜᱟᱨ
ᱠᱚᱨᱤᱥᱢᱟ
ᱠᱚᱨᱤᱭᱟ
ᱠᱚᱨᱤᱭᱳᱜᱽᱨᱟᱯᱷᱚᱨ
ᱠᱚᱨᱤᱰᱚᱨ
ᱠᱚᱨᱤᱱ
ᱠᱚᱨᱥ
ᱠᱚᱨᱨᱟ
ᱠᱚᱨᱩᱨ
ᱠᱚᱨᱮ
ᱠᱚᱨᱮᱜᱮᱠᱚ
ᱠᱚᱨᱮᱠᱚ
ᱠᱚᱨᱮᱠᱷᱚᱱ
ᱠᱚᱨᱮᱦᱚᱸ
ᱠᱚᱨᱮᱭ
ᱠᱚᱨᱮᱭᱟᱜ
ᱠᱚᱨᱮᱱ
ᱠᱚᱨᱮᱱᱟᱜ
ᱠᱚᱨᱯᱚᱨᱮᱥᱚᱱ
ᱠᱚᱨᱯᱚᱨᱮᱴ
ᱠᱚᱨᱯᱳᱨᱮᱥᱚᱱ
ᱠᱚᱨᱰ
ᱠᱚᱨᱱᱚᱞ
ᱠᱚᱨᱱᱟᱞ
ᱠᱚᱨᱱᱟᱴᱚᱠ
ᱠᱚᱨᱱᱟᱴᱚᱠᱚ
ᱠᱚᱨᱱᱟᱴᱚᱠᱤ
ᱠᱚᱨᱱᱮᱞ
ᱠᱚᱨᱳᱱᱟ
ᱠᱚᱨᱳᱱᱟᱵᱷᱟᱭᱨᱟᱥ
ᱠᱚᱨᱴ
ᱠᱚᱨᱵᱟ
ᱠᱚᱨᱵᱩᱡᱤᱭᱟᱨ
ᱠᱚᱪ
ᱠᱚᱪᱞᱚᱱ
ᱠᱚᱪᱟ
ᱠᱚᱪᱤ
ᱠᱚᱫᱚ
ᱠᱚᱫᱚᱢ
ᱠᱚᱫᱚᱨ
ᱠᱚᱬ
ᱠᱚᱭ
ᱠᱚᱭᱚᱜ
ᱠᱚᱭᱛᱷᱚᱞ
ᱠᱚᱭᱞᱟ
ᱠᱚᱭᱞᱟᱥ
ᱠᱚᱭᱟ
ᱠᱚᱭᱟᱢᱵᱚᱴᱩᱨ
ᱠᱚᱭᱟᱢᱵᱟᱴᱩᱨ
ᱠᱚᱭᱤᱡ
ᱠᱚᱭᱨᱟ
ᱠᱚᱭᱮ
ᱠᱚᱭᱮᱞ
ᱠᱚᱭᱮᱠ
ᱠᱚᱭᱮᱸ
ᱠᱚᱯ
ᱠᱚᱯᱚᱨ
ᱠᱚᱯᱟᱲ
ᱠᱚᱯᱤᱞ
ᱠᱚᱯᱩᱨ
ᱠᱚᱯᱯᱟᱞ
ᱠᱚᱯᱷᱤ
ᱠᱚᱰ
ᱠᱚᱰᱟᱜᱩ
ᱠᱚᱰᱟᱣᱟ
ᱠᱚᱰᱟᱨᱢᱟ
ᱠᱚᱱ
ᱠᱚᱱᱚ
ᱠᱚᱱᱚᱠ
ᱠᱚᱱᱚᱠᱚ
ᱠᱚᱱᱚᱰᱚ
ᱠᱚᱱᱟ
ᱠᱚᱱᱟᱰᱟ
ᱠᱚᱱᱠᱟᱱᱤ
ᱠᱚᱱᱤᱠᱟ
ᱠᱚᱱᱥᱚᱨᱴ
ᱠᱚᱱᱥᱟᱨᱴ
ᱠᱚᱱᱥᱮᱯᱴ
ᱠᱚᱱᱫᱷᱚᱢᱟᱲ
ᱠᱚᱱᱯᱷᱚᱨᱮᱱᱥ
ᱠᱚᱱᱯᱷᱩᱥᱤᱭᱚᱥ
ᱠᱚᱱᱰᱚᱠᱴ
ᱠᱚᱱᱰᱤᱥᱚᱱ
ᱠᱚᱱᱰᱳᱢ
ᱠᱚᱱᱱᱚᱰ
ᱠᱚᱱᱱᱚᱰᱚ
ᱠᱚᱱᱱᱚᱲ
ᱠᱚᱱᱴᱨᱚᱞ
ᱠᱚᱱᱴᱨᱚᱞᱮᱰ
ᱠᱚᱱᱴᱨᱳᱞ
ᱠᱚᱱᱴᱮᱱᱚᱨ
ᱠᱚᱱᱵᱷᱮᱱᱥᱚᱱ
ᱠᱚᱱᱵᱷᱮᱸᱴ
ᱠᱚᱲ
ᱠᱚᱲᱜᱚᱢ
ᱠᱚᱲᱟ
ᱠᱚᱲᱟᱠᱟᱨ
ᱠᱚᱲᱟᱢ
ᱠᱚᱲᱟᱦᱟᱱᱰᱤ
ᱠᱚᱲᱟᱭ
ᱠᱚᱲᱤᱝᱜᱚ
ᱠᱚᱲᱯᱚᱱᱟ
ᱠᱚᱴ
ᱠᱚᱴᱚᱠ
ᱠᱚᱴᱚᱱ
ᱠᱚᱴᱞᱤ
ᱠᱚᱴᱟ
ᱠᱚᱴᱟᱵ
ᱠᱚᱴᱤ
ᱠᱚᱴᱫᱣᱟᱨ
ᱠᱚᱴᱴᱟᱭᱟᱢ
ᱠᱚᱴᱷᱟᱜᱩᱰᱮᱢ
ᱠᱚᱴᱷᱟᱨᱤ
ᱠᱚᱴᱷᱮ
ᱠᱚᱴᱷᱮᱱ
ᱠᱚᱵᱚᱨᱚᱛᱤ
ᱠᱚᱵᱟᱰᱤ
ᱠᱚᱵᱤ
ᱠᱚᱵᱤᱛᱟ
ᱠᱚᱵᱤᱨ
ᱠᱚᱵᱤᱱᱤ
ᱠᱚᱵᱤᱱᱫᱽ
ᱠᱚᱵᱷᱚᱨ
ᱠᱚᱵᱷᱤ
ᱠᱚᱵᱽᱡᱟ
ᱠᱚᱶᱟ
ᱠᱚᱶᱟᱜ
ᱠᱚᱸᱛᱟᱭ
ᱠᱚᱸᱜᱨᱮᱥ
ᱠᱚᱸᱜᱮᱨᱮᱥ
ᱠᱚᱸᱜᱽᱨᱮᱥ
ᱠᱚᱸᱠᱬᱤ
ᱠᱚᱸᱡᱮ
ᱠᱚᱸᱥᱟ
ᱠᱚᱸᱥᱟᱵᱚᱛᱤ
ᱠᱚᱸᱧᱮ
ᱠᱚᱸᱭ
ᱠᱚᱸᱭᱮ
ᱠᱚᱸᱭᱮᱸ
ᱠᱚᱸᱭᱮᱼᱯᱟᱪᱮ
ᱠᱚᱸᱭᱰᱟ
ᱠᱚᱺ
ᱠᱛᱤ
ᱠᱛᱤᱜ
ᱠᱛᱤᱜᱼᱟ
ᱠᱛᱤᱭᱟ
ᱠᱛᱤᱭᱟᱱ
ᱠᱜᱚᱱ
ᱠᱞᱚᱨᱠ
ᱠᱞᱚᱵ
ᱠᱞᱚᱵᱽ
ᱠᱞᱟᱥ
ᱠᱞᱟᱥᱤᱠ
ᱠᱞᱟᱥᱤᱠᱚᱞ
ᱠᱞᱟᱥᱤᱠᱟᱞ
ᱠᱞᱟᱥᱤᱠᱮᱞ
ᱠᱞᱟᱭᱤᱰ
ᱠᱞᱟᱵ
ᱠᱞᱟᱵᱽ
ᱠᱞᱤᱱ
ᱠᱞᱤᱱᱤᱠ
ᱠᱞᱤᱱᱤᱠᱟᱞ
ᱠᱟ
ᱠᱟᱛ
ᱠᱟᱛᱟ
ᱠᱟᱛᱟᱞᱟᱱ
ᱠᱟᱛᱟᱨ
ᱠᱟᱛᱟᱨᱮ
ᱠᱟᱛᱟᱲ
ᱠᱟᱛᱦᱟ
ᱠᱟᱛᱮ
ᱠᱟᱛᱮᱜ
ᱠᱟᱛᱮᱜᱮ
ᱠᱟᱛᱮᱡ
ᱠᱟᱛᱮᱡᱽ
ᱠᱟᱛᱮᱢ
ᱠᱟᱛᱮᱫ
ᱠᱟᱛᱮᱭ
ᱠᱟᱛᱮᱭᱮ
ᱠᱟᱛᱮᱱ
ᱠᱟᱛᱷᱚᱞᱤᱠ
ᱠᱟᱛᱷᱟ
ᱠᱟᱛᱷᱟᱠ
ᱠᱟᱛᱷᱟᱠᱚ
ᱠᱟᱛᱷᱟᱨᱮ
ᱠᱟᱛᱷᱟᱭ
ᱠᱟᱛᱷᱤᱠᱩᱱᱰ
ᱠᱟᱛᱷᱤᱠᱩᱸᱫ
ᱠᱟᱜ
ᱠᱟᱜᱚᱡ
ᱠᱟᱜᱚᱡᱤᱭᱟᱹ
ᱠᱟᱜᱚᱡᱽ
ᱠᱟᱜᱼᱟ
ᱠᱟᱝᱜᱽᱲᱟ
ᱠᱟᱝᱜᱽᱲᱤ
ᱠᱟᱝᱞᱟ
ᱠᱟᱝᱠᱮᱨ
ᱠᱟᱞ
ᱠᱟᱞᱟ
ᱠᱟᱞᱟᱛ
ᱠᱟᱞᱟᱠᱚᱨ
ᱠᱟᱞᱟᱠᱟᱨ
ᱠᱟᱞᱟᱢ
ᱠᱟᱞᱟᱭ
ᱠᱟᱞᱟᱱ
ᱠᱟᱞᱟᱱᱤᱫᱷᱤ
ᱠᱟᱞᱠᱟ
ᱠᱟᱞᱠᱟᱛᱛᱟ
ᱠᱟᱞᱠᱤ
ᱠᱟᱞᱤ
ᱠᱟᱞᱤᱜᱚᱸᱡᱽ
ᱠᱟᱞᱤᱜᱷᱟᱴ
ᱠᱟᱞᱤᱠᱚᱴ
ᱠᱟᱞᱤᱠᱟᱴ
ᱠᱟᱞᱤᱢᱟᱱᱛᱟᱱ
ᱠᱟᱞᱤᱢᱯᱚᱝ
ᱠᱟᱞᱤᱫᱟᱥ
ᱠᱟᱞᱤᱭᱟ
ᱠᱟᱞᱤᱯᱷᱚᱨᱱᱤᱭᱟ
ᱠᱟᱞᱤᱵᱳᱸᱜᱟ
ᱠᱟᱞᱪᱟᱨ
ᱠᱟᱞᱪᱟᱨᱟᱞ
ᱠᱟᱞᱮ
ᱠᱟᱞᱮᱠᱴᱚᱨ
ᱠᱟᱞᱮᱡᱽ
ᱠᱟᱞᱮᱱᱰᱟᱨ
ᱠᱟᱞᱱᱟ
ᱠᱟᱠᱚ
ᱠᱟᱠᱚᱛᱤ
ᱠᱟᱠᱚᱣᱟ
ᱠᱟᱠᱚᱨᱟ
ᱠᱟᱠᱟ
ᱠᱟᱠᱤ
ᱠᱟᱠᱤᱱᱟᱰᱟ
ᱠᱟᱠᱪᱤᱝ
ᱠᱟᱠᱲᱟ
ᱠᱟᱠᱷᱟᱱᱟᱜ
ᱠᱟᱡᱚᱞ
ᱠᱟᱡᱟᱠ
ᱠᱟᱡᱟᱠᱥᱛᱟᱱ
ᱠᱟᱡᱟᱠᱷ
ᱠᱟᱡᱤ
ᱠᱟᱡᱽ
ᱠᱟᱢ
ᱠᱟᱢᱞᱟ
ᱠᱟᱢᱟᱞ
ᱠᱟᱢᱟᱠᱷᱭᱟ
ᱠᱟᱢᱟᱣ
ᱠᱟᱢᱟᱨ
ᱠᱟᱢᱟᱰ
ᱠᱟᱢᱠᱟᱡᱽ
ᱠᱟᱢᱤ
ᱠᱟᱢᱤᱦᱚᱨᱟ
ᱠᱟᱢᱤᱱᱤ
ᱠᱟᱢᱨᱟ
ᱠᱟᱢᱨᱩᱯ
ᱠᱟᱢᱨᱩᱯᱤ
ᱠᱟᱢᱪᱟᱴᱠᱟ
ᱠᱟᱢᱮᱝ
ᱠᱟᱢᱮᱨᱩᱱ
ᱠᱟᱢᱮᱰᱤ
ᱠᱟᱢᱰᱟᱨᱟ
ᱠᱟᱢᱵᱚᱰᱤᱭᱟ
ᱠᱟᱢᱵᱚᱰᱤᱭᱟᱱ
ᱠᱟᱣ
ᱠᱟᱣᱟ
ᱠᱟᱣᱟᱜ
ᱠᱟᱣᱟᱨ
ᱠᱟᱣᱩᱞ
ᱠᱟᱣᱩᱱᱥᱤᱞ
ᱠᱟᱣᱰᱤ
ᱠᱟᱣᱱᱤᱭᱟ
ᱠᱟᱣᱱᱥᱤᱞ
ᱠᱟᱥᱚᱨᱜᱚᱰ
ᱠᱟᱥᱛᱨᱚ
ᱠᱟᱥᱛᱩᱨᱵᱟ
ᱠᱟᱥᱜᱚᱸᱡᱽ
ᱠᱟᱥᱟ
ᱠᱟᱥᱟᱨ
ᱠᱟᱥᱟᱨᱤ
ᱠᱟᱥᱠᱚᱢ
ᱠᱟᱥᱠᱤ
ᱠᱟᱥᱠᱳᱢ
ᱠᱟᱥᱢᱟᱨ
ᱠᱟᱥᱢᱤᱨ
ᱠᱟᱥᱢᱤᱨᱤ
ᱠᱟᱥᱤ
ᱠᱟᱥᱤᱯᱩᱨ
ᱠᱟᱥᱯᱤᱭᱟᱱ
ᱠᱟᱥᱱᱤ
ᱠᱟᱥᱴ
ᱠᱟᱥᱴᱤᱝ
ᱠᱟᱦᱟᱞᱩ
ᱠᱟᱦᱟᱨᱳᱞ
ᱠᱟᱦᱟᱬᱤ
ᱠᱟᱦᱟᱱᱤ
ᱠᱟᱦᱤᱱᱤ
ᱠᱟᱦᱱᱤ
ᱠᱟᱨ
ᱠᱟᱨᱚᱢ
ᱠᱟᱨᱚᱱ
ᱠᱟᱨᱚᱱᱛᱮ
ᱠᱟᱨᱚᱲ
ᱠᱟᱨᱛᱤᱠ
ᱠᱟᱨᱜᱚ
ᱠᱟᱨᱜᱟᱲ
ᱠᱟᱨᱜᱤᱞ
ᱠᱟᱨᱞ
ᱠᱟᱨᱞᱟ
ᱠᱟᱨᱟᱜᱟᱨ
ᱠᱟᱨᱟᱢ
ᱠᱟᱨᱟᱢᱤ
ᱠᱟᱨᱟᱣ
ᱠᱟᱨᱟᱪᱤ
ᱠᱟᱨᱟᱬ
ᱠᱟᱨᱟᱱ
ᱠᱟᱨᱟᱴᱮ
ᱠᱟᱨᱟᱵᱟᱠᱷ
ᱠᱟᱨᱠᱟ
ᱠᱟᱨᱠᱟᱨᱤ
ᱠᱟᱨᱠᱤ
ᱠᱟᱨᱠᱷᱟᱱᱟ
ᱠᱟᱨᱢᱮᱞ
ᱠᱟᱨᱤᱜᱚᱞ
ᱠᱟᱨᱤᱜᱩᱨᱤ
ᱠᱟᱨᱤᱭᱟᱨ
ᱠᱟᱨᱩᱱ
ᱠᱟᱨᱮ
ᱠᱟᱨᱮᱝ
ᱠᱟᱨᱮᱱ
ᱠᱟᱨᱯᱮᱴ
ᱠᱟᱨᱰ
ᱠᱟᱨᱱᱟᱴᱟᱠ
ᱠᱟᱨᱱᱟᱴᱟᱠᱟ
ᱠᱟᱨᱳᱞᱤ
ᱠᱟᱨᱴᱟᱨ
ᱠᱟᱨᱴᱩᱱ
ᱠᱟᱨᱵᱚᱱ
ᱠᱟᱨᱵᱟᱨ
ᱠᱟᱨᱵᱤ
ᱠᱟᱨᱵᱳᱱᱮᱴ
ᱠᱟᱩᱱᱥᱤᱞ
ᱠᱟᱪᱟ
ᱠᱟᱪᱤᱱ
ᱠᱟᱪᱪᱷ
ᱠᱟᱪᱷᱟ
ᱠᱟᱪᱷᱟᱨ
ᱠᱟᱪᱷᱮ
ᱠᱟᱫ
ᱠᱟᱫᱚᱢᱵᱤᱱᱤ
ᱠᱟᱫᱟ
ᱠᱟᱫᱟᱜᱼᱟ
ᱠᱟᱫᱟᱢ
ᱠᱟᱫᱮ
ᱠᱟᱫᱮᱭᱟ
ᱠᱟᱫᱼᱟ
ᱠᱟᱬ
ᱠᱟᱬᱟ
ᱠᱟᱭ
ᱠᱟᱭᱛᱮ
ᱠᱟᱭᱟ
ᱠᱟᱭᱟᱦ
ᱠᱟᱭᱢᱩᱨ
ᱠᱟᱭᱤᱱ
ᱠᱟᱭᱥᱟᱨ
ᱠᱟᱭᱨᱚ
ᱠᱟᱭᱨᱟ
ᱠᱟᱭᱨᱳ
ᱠᱟᱭᱩᱱᱥᱤᱞ
ᱠᱟᱭᱫᱟ
ᱠᱟᱭᱰᱮᱱ
ᱠᱟᱯ
ᱠᱟᱯᱤᱞ
ᱠᱟᱯᱩᱨ
ᱠᱟᱯᱳᱨ
ᱠᱟᱯᱴᱮᱱ
ᱠᱟᱯᱷᱤ
ᱠᱟᱰᱟ
ᱠᱟᱰᱟᱯᱟ
ᱠᱟᱱ
ᱠᱟᱱᱛ
ᱠᱟᱱᱛᱚ
ᱠᱟᱱᱛᱟᱦᱮᱸᱫ
ᱠᱟᱱᱛᱟᱭᱟ
ᱠᱟᱱᱛᱤ
ᱠᱟᱱᱛᱮ
ᱠᱟᱱᱟ
ᱠᱟᱱᱟᱜ
ᱠᱟᱱᱟᱠᱚ
ᱠᱟᱱᱟᱠᱤᱱ
ᱠᱟᱱᱟᱠᱩ
ᱠᱟᱱᱟᱢ
ᱠᱟᱱᱟᱨᱟ
ᱠᱟᱱᱟᱭ
ᱠᱟᱱᱟᱭᱟ
ᱠᱟᱱᱟᱭᱮ
ᱠᱟᱱᱟᱰᱟ
ᱠᱟᱱᱟᱰᱤᱭᱟᱱ
ᱠᱟᱱᱟᱺ
ᱠᱟᱱᱟᱼ
ᱠᱟᱱᱣᱟ
ᱠᱟᱱᱦᱟ
ᱠᱟᱱᱦᱟᱭᱟ
ᱠᱟᱱᱦᱩ
ᱠᱟᱱᱩᱱ
ᱠᱟᱱᱫᱟᱦᱟᱨ
ᱠᱟᱱᱫᱤ
ᱠᱟᱱᱭᱟ
ᱠᱟᱱᱭᱟᱠᱩᱢᱟᱨᱤ
ᱠᱟᱱᱮ
ᱠᱟᱱᱯᱩᱨ
ᱠᱟᱱᱰᱤᱰᱮᱴ
ᱠᱟᱱᱰᱨᱟ
ᱠᱟᱱᱱᱟᱰᱟ
ᱠᱟᱱᱱᱟᱲ
ᱠᱟᱱᱱᱟᱲᱟ
ᱠᱟᱱᱱᱩᱨ
ᱠᱟᱱᱱᱳᱡᱽ
ᱠᱟᱱᱴᱚᱱᱢᱮᱱᱴ
ᱠᱟᱱᱴᱟ
ᱠᱟᱱᱴᱨᱤ
ᱠᱟᱱᱴᱷᱟᱲ
ᱠᱟᱲᱚ
ᱠᱟᱲᱟ
ᱠᱟᱲᱤ
ᱠᱟᱲᱤᱫᱟᱥ
ᱠᱟᱲᱮ
ᱠᱟᱴ
ᱠᱟᱴᱟ
ᱠᱟᱴᱟᱣ
ᱠᱟᱴᱠᱚᱢ
ᱠᱟᱴᱣᱟ
ᱠᱟᱴᱤᱡ
ᱠᱟᱴᱤᱦᱟᱨ
ᱠᱟᱴᱮ
ᱠᱟᱴᱱᱤ
ᱠᱟᱴᱳᱣᱟ
ᱠᱟᱴᱷ
ᱠᱟᱴᱷᱚᱵᱷᱟᱨᱤᱭᱟ
ᱠᱟᱴᱷᱟ
ᱠᱟᱴᱷᱢᱟᱱᱰᱩ
ᱠᱟᱴᱷᱢᱟᱸᱰᱩ
ᱠᱟᱴᱷᱩᱣᱟ
ᱠᱟᱵᱟ
ᱠᱟᱵᱟᱭ
ᱠᱟᱵᱤᱞᱟ
ᱠᱟᱵᱤᱨ
ᱠᱟᱵᱩᱞ
ᱠᱟᱵᱮᱨᱤ
ᱠᱟᱵᱽᱡᱟ
ᱠᱟᱶᱱᱥᱤᱞ
ᱠᱟᱸᱛ
ᱠᱟᱸᱛᱷᱤ
ᱠᱟᱸᱜᱽᱨᱮᱥ
ᱠᱟᱸᱠᱮ
ᱠᱟᱸᱥᱟ
ᱠᱟᱸᱪ
ᱠᱟᱸᱪᱤᱯᱩᱨᱚᱢ
ᱠᱟᱸᱰᱟ
ᱠᱟᱸᱰᱮ
ᱠᱟᱹᱞᱤ
ᱠᱟᱹᱞᱨᱤᱯᱟᱹᱭᱟᱹᱴᱴᱩ
ᱠᱟᱹᱠᱤ
ᱠᱟᱹᱡ
ᱠᱟᱹᱡᱽᱣᱟᱹ
ᱠᱟᱹᱢᱤ
ᱠᱟᱹᱢᱤᱠᱚ
ᱠᱟᱹᱢᱤᱠᱛᱚ
ᱠᱟᱹᱢᱤᱠᱩ
ᱠᱟᱹᱢᱤᱠᱩᱛᱟᱭ
ᱠᱟᱹᱢᱤᱥᱟᱲᱟ
ᱠᱟᱹᱢᱤᱦᱚᱨᱟ
ᱠᱟᱹᱢᱤᱦᱚᱨᱟᱭ
ᱠᱟᱹᱢᱤᱦᱩᱨᱟ
ᱠᱟᱹᱢᱤᱨᱮ
ᱠᱟᱹᱢᱤᱭ
ᱠᱟᱹᱢᱤᱭᱟ
ᱠᱟᱹᱢᱤᱭᱟᱭ
ᱠᱟᱹᱢᱤᱭᱟᱱ
ᱠᱟᱹᱢᱤᱭᱟᱹ
ᱠᱟᱹᱢᱤᱭᱟᱹᱭ
ᱠᱟᱹᱢᱤᱭᱤᱡ
ᱠᱟᱹᱢᱤᱭᱮ
ᱠᱟᱹᱢᱤᱭᱮᱫ
ᱠᱟᱹᱢᱤᱱᱟᱝ
ᱠᱟᱹᱢᱨᱩᱯ
ᱠᱟᱹᱢᱨᱩᱯᱤ
ᱠᱟᱹᱢᱭᱟᱹ
ᱠᱟᱹᱣᱰᱤ
ᱠᱟᱹᱣᱰᱤᱟᱹᱨᱤ
ᱠᱟᱹᱣᱰᱤᱭ
ᱠᱟᱹᱣᱰᱤᱭᱟᱹᱨᱤ
ᱠᱟᱹᱥᱢᱤᱨ
ᱠᱟᱹᱥᱢᱤᱨᱤ
ᱠᱟᱹᱥᱱᱤ
ᱠᱟᱹᱦᱟᱹᱱᱤ
ᱠᱟᱹᱦᱤᱱᱤ
ᱠᱟᱹᱦᱱᱤ
ᱠᱟᱹᱨᱜᱟᱲ
ᱠᱟᱹᱨᱜᱟᱹᱲ
ᱠᱟᱹᱨᱠᱷᱟᱱᱟ
ᱠᱟᱹᱨᱤ
ᱠᱟᱹᱭ
ᱠᱟᱹᱭᱫᱷᱤ
ᱠᱟᱹᱯᱤ
ᱠᱟᱹᱱᱟᱹᱧ
ᱠᱟᱹᱱᱦᱩ
ᱠᱟᱹᱱᱩᱱ
ᱠᱟᱹᱲᱤ
ᱠᱟᱹᱲᱵᱩᱝ
ᱠᱟᱹᱴᱤᱡ
ᱠᱟᱹᱴᱤᱡᱤᱡ
ᱠᱟᱹᱴᱤᱡᱽ
ᱠᱟᱹᱴᱩᱵ
ᱠᱟᱹᱴᱷᱤ
ᱠᱟᱹᱶᱰᱤ
ᱠᱟᱺᱦᱤᱥ
ᱠᱟᱺᱦᱩᱸ
ᱠᱠᱚ
ᱠᱣᱟᱞᱤᱯᱷᱟᱭᱟᱨ
ᱠᱣᱟᱴᱚᱨ
ᱠᱣᱟᱴᱨᱚᱪᱤ
ᱠᱣᱤᱱ
ᱠᱣᱮᱫᱟ
ᱠᱣᱮᱴᱟ
ᱠᱤ
ᱠᱤᱝ
ᱠᱤᱝᱜᱽᱥ
ᱠᱤᱝᱥ
ᱠᱤᱝᱰᱚᱢ
ᱠᱤᱞ
ᱠᱤᱞᱚ
ᱠᱤᱞᱚᱢᱤᱴᱚᱨ
ᱠᱤᱞᱚᱢᱤᱴᱟᱨ
ᱠᱤᱞᱚᱢᱤᱴᱟᱹᱨ
ᱠᱤᱞᱟ
ᱠᱤᱞᱟᱢᱤᱴᱚᱨ
ᱠᱤᱞᱟᱱ
ᱠᱤᱞᱢᱟᱱ
ᱠᱤᱞᱮ
ᱠᱤᱞᱳ
ᱠᱤᱞᱳᱢᱤᱴᱚᱨ
ᱠᱤᱞᱳᱢᱤᱴᱟᱨ
ᱠᱤᱢ
ᱠᱤᱢᱤ
ᱠᱤᱣᱩᱞ
ᱠᱤᱣᱵᱟ
ᱠᱤᱥ
ᱠᱤᱥᱚᱨ
ᱠᱤᱥᱚᱨᱜᱚᱧᱡᱽ
ᱠᱤᱥᱛᱩᱣᱟᱨ
ᱠᱤᱥᱟ
ᱠᱤᱥᱟᱬ
ᱠᱤᱥᱟᱱ
ᱠᱤᱥᱟᱱᱜᱚᱸᱡᱽ
ᱠᱤᱥᱟᱹᱬ
ᱠᱤᱥᱟᱹᱲ
ᱠᱤᱥᱠᱩ
ᱠᱤᱥᱱᱤ
ᱠᱤᱥᱳᱨ
ᱠᱤᱥᱳᱨᱜᱚᱸᱡᱽ
ᱠᱤᱨᱚᱱ
ᱠᱤᱨᱛᱚᱱ
ᱠᱤᱨᱛᱤ
ᱠᱤᱨᱜᱤᱡᱽ
ᱠᱤᱨᱜᱤᱡᱽᱥᱛᱟᱱ
ᱠᱤᱨᱟᱸᱛ
ᱠᱤᱨᱤᱥᱛᱟᱱ
ᱠᱤᱨᱤᱧ
ᱠᱤᱨᱤᱧᱟ
ᱠᱤᱨᱤᱭᱟ
ᱠᱤᱨᱤᱭᱟᱹᱭ
ᱠᱤᱨᱤᱵᱩᱨᱩ
ᱠᱤᱨᱥᱤ
ᱠᱤᱨᱱᱟᱦᱟᱨ
ᱠᱤᱪᱦᱤ
ᱠᱤᱪᱨᱤᱡ
ᱠᱤᱪᱨᱤᱪ
ᱠᱤᱪᱷᱤ
ᱠᱤᱪᱷᱩ
ᱠᱤᱪᱷᱩᱜᱟᱱ
ᱠᱤᱪᱷᱩᱫᱤᱱ
ᱠᱤᱫᱟ
ᱠᱤᱫᱤᱧ
ᱠᱤᱫᱤᱭᱟ
ᱠᱤᱭᱟ
ᱠᱤᱭᱟᱨᱟ
ᱠᱤᱭᱟᱹ
ᱠᱤᱭᱮ
ᱠᱤᱯᱪᱟᱠ
ᱠᱤᱯᱷᱤᱨᱮ
ᱠᱤᱱ
ᱠᱤᱱᱛᱩ
ᱠᱤᱱᱟ
ᱠᱤᱱᱟᱜ
ᱠᱤᱱᱟᱭ
ᱠᱤᱱᱟᱹ
ᱠᱤᱱᱤᱡ
ᱠᱤᱱᱥᱟᱥᱟ
ᱠᱤᱱᱱᱳᱨ
ᱠᱤᱴ
ᱠᱤᱵᱚᱨᱰ
ᱠᱤᱵᱳᱨᱰ
ᱠᱤᱸᱜ
ᱠᱤᱹᱢᱤᱹ
ᱠᱦᱚᱱ
ᱠᱦᱟᱱ
ᱠᱨᱚᱢ
ᱠᱨᱚᱢᱚᱡᱚᱢ
ᱠᱨᱚᱥ
ᱠᱨᱚᱥᱤᱝ
ᱠᱨᱟᱭᱢᱤᱭᱟᱱ
ᱠᱨᱟᱭᱤᱢ
ᱠᱨᱟᱱᱛᱤ
ᱠᱨᱟᱱᱛᱤᱭᱚ
ᱠᱨᱟᱸᱛᱤ
ᱠᱨᱟᱼᱫᱟᱭ
ᱠᱨᱤ
ᱠᱨᱤᱛᱤ
ᱠᱨᱤᱛᱨᱤᱢ
ᱠᱨᱤᱠ
ᱠᱨᱤᱠᱮᱴ
ᱠᱨᱤᱠᱮᱴᱟᱨ
ᱠᱨᱤᱠᱮᱴᱟᱨᱠᱚ
ᱠᱨᱤᱢ
ᱠᱨᱤᱢᱤᱱᱟᱞ
ᱠᱨᱤᱥ
ᱠᱨᱤᱥᱚᱠ
ᱠᱨᱤᱥᱛᱟᱱ
ᱠᱨᱤᱥᱢᱟᱥ
ᱠᱨᱤᱥᱤ
ᱠᱨᱤᱥᱫᱟᱭᱟᱱᱛᱤ
ᱠᱨᱤᱥᱱᱚ
ᱠᱨᱤᱥᱱᱚᱠᱩᱞᱤ
ᱠᱨᱤᱥᱱᱚᱱ
ᱠᱨᱤᱥᱱᱚᱱᱚᱜᱚᱨ
ᱠᱨᱤᱥᱱᱟ
ᱠᱨᱤᱥᱱᱟᱜᱤᱨᱤ
ᱠᱨᱤᱥᱱᱟᱱ
ᱠᱨᱤᱥᱴᱟᱱ
ᱠᱨᱤᱥᱴᱤᱭᱟᱱ
ᱠᱨᱤᱭᱟ
ᱠᱨᱤᱴᱤᱠ
ᱠᱨᱤᱴᱤᱠᱟᱞ
ᱠᱨᱤᱴᱤᱠᱥ
ᱠᱨᱩᱡᱽ
ᱠᱨᱩᱥ
ᱠᱨᱩᱥᱱᱚ
ᱠᱨᱩᱥᱱᱟ
ᱠᱨᱮᱭᱳᱞ
ᱠᱨᱮᱰᱤᱴ
ᱠᱨᱳᱥᱤᱝ
ᱠᱨᱳᱥᱤᱱ
ᱠᱨᱳᱭᱮᱥᱤᱭᱟ
ᱠᱨᱳᱭᱮᱥᱤᱭᱟᱱ
ᱠᱩ
ᱠᱩᱛᱚᱵᱽ
ᱠᱩᱜ
ᱠᱩᱝ
ᱠᱩᱝᱠᱟᱹᱞ
ᱠᱩᱞ
ᱠᱩᱞᱜᱟᱢ
ᱠᱩᱞᱞᱩ
ᱠᱩᱞᱟ
ᱠᱩᱞᱟᱹᱭ
ᱠᱩᱞᱤ
ᱠᱩᱞᱤᱟᱱᱟ
ᱠᱩᱞᱤᱱ
ᱠᱩᱞᱦᱤ
ᱠᱩᱞᱯᱚᱛᱤ
ᱠᱩᱠ
ᱠᱩᱠᱞᱤ
ᱠᱩᱠᱢᱩ
ᱠᱩᱠᱤ
ᱠᱩᱠᱩ
ᱠᱩᱠᱲᱩ
ᱠᱩᱠᱷᱤ
ᱠᱩᱡᱩ
ᱠᱩᱢᱟᱣᱩᱸ
ᱠᱩᱢᱟᱣᱱᱤ
ᱠᱩᱢᱟᱨ
ᱠᱩᱢᱟᱨᱠᱷᱟᱞᱤ
ᱠᱩᱢᱟᱨᱤ
ᱠᱩᱢᱟᱨᱯᱩᱨ
ᱠᱩᱢᱠᱩᱢ
ᱠᱩᱢᱤᱞᱞᱟ
ᱠᱩᱢᱤᱴᱤ
ᱠᱩᱢᱩᱫᱤᱱᱤ
ᱠᱩᱢᱩᱴ
ᱠᱩᱢᱯᱟ
ᱠᱩᱢᱯᱟᱹᱱᱤ
ᱠᱩᱢᱲᱩ
ᱠᱩᱢᱵᱲᱩ
ᱠᱩᱢᱵᱽᱲᱩ
ᱠᱩᱣᱟ
ᱠᱩᱣᱟᱜ
ᱠᱩᱣᱟᱞᱟ
ᱠᱩᱣᱟᱭᱛ
ᱠᱩᱣᱮᱛ
ᱠᱩᱥᱛᱤ
ᱠᱩᱥᱟᱹᱞ
ᱠᱩᱥᱢᱤ
ᱠᱩᱥᱤ
ᱠᱩᱥᱤᱜ
ᱠᱩᱥᱤᱭᱟᱜ
ᱠᱩᱥᱤᱭᱟᱜᱼᱟ
ᱠᱩᱥᱤᱭᱟᱫ
ᱠᱩᱥᱤᱭᱟᱱ
ᱠᱩᱥᱤᱱᱚᱜᱚᱨ
ᱠᱩᱥᱩᱢ
ᱠᱩᱥᱩᱢᱠᱩᱢᱟᱨᱤ
ᱠᱩᱥᱩᱢᱤ
ᱠᱩᱥᱴᱤᱭᱟ
ᱠᱩᱦᱲᱟᱹ
ᱠᱩᱧ
ᱠᱩᱨ
ᱠᱩᱨᱜᱽ
ᱠᱩᱨᱟᱱ
ᱠᱩᱨᱢᱟᱞᱤ
ᱠᱩᱨᱢᱤ
ᱠᱩᱨᱤ
ᱠᱩᱨᱩ
ᱠᱩᱨᱩᱝ
ᱠᱩᱨᱩᱠᱷ
ᱠᱩᱨᱩᱠᱷᱮᱛᱨᱚ
ᱠᱩᱨᱩᱢᱩᱴᱩ
ᱠᱩᱨᱩᱢᱩᱴᱩᱭᱟ
ᱠᱩᱨᱩᱯ
ᱠᱩᱨᱫᱤᱥ
ᱠᱩᱨᱱᱩᱞ
ᱠᱩᱨᱵᱟᱱᱤ
ᱠᱩᱪ
ᱠᱩᱪᱟᱹᱭ
ᱠᱩᱪᱤ
ᱠᱩᱪᱤᱯᱩᱰᱤ
ᱠᱩᱪᱤᱯᱩᱲᱤ
ᱠᱩᱪᱪᱷᱤ
ᱠᱩᱪᱷ
ᱠᱩᱫ
ᱠᱩᱫᱩᱢ
ᱠᱩᱬᱟᱞ
ᱠᱩᱬᱤ
ᱠᱩᱭᱞᱟᱹ
ᱠᱩᱭᱞᱤ
ᱠᱩᱭᱟ
ᱠᱩᱭᱤᱱ
ᱠᱩᱭᱮᱛ
ᱠᱩᱯᱣᱟᱲᱟ
ᱠᱩᱯᱩᱞᱤ
ᱠᱩᱰᱟᱹᱢ
ᱠᱩᱰᱤ
ᱠᱩᱰᱰᱟᱞᱳᱨ
ᱠᱩᱱᱟ
ᱠᱩᱱᱟᱞ
ᱠᱩᱱᱟᱹᱢᱤ
ᱠᱩᱱᱤ
ᱠᱩᱲᱟ
ᱠᱩᱲᱟᱭ
ᱠᱩᱲᱟᱹᱭ
ᱠᱩᱲᱢᱟᱞᱤ
ᱠᱩᱲᱤ
ᱠᱩᱲᱤᱜᱨᱟᱢ
ᱠᱩᱲᱤᱫ
ᱠᱩᱲᱤᱭ
ᱠᱩᱲᱤᱭᱟᱜ
ᱠᱩᱲᱩᱠᱷ
ᱠᱩᱴᱟᱹᱢ
ᱠᱩᱴᱤ
ᱠᱩᱴᱤᱭᱟᱴᱴᱚᱢ
ᱠᱩᱴᱴᱤ
ᱠᱩᱴᱷᱤ
ᱠᱩᱴᱷᱤᱱ
ᱠᱩᱵᱮᱛ
ᱠᱩᱸᱭ
ᱠᱩᱸᱭᱰᱤ
ᱠᱩᱸᱰ
ᱠᱩᱸᱵᱟ
ᱠᱩᱸᱵᱟᱹ
ᱠᱩᱸᱵᱽᱲᱩ
ᱠᱭᱟ
ᱠᱭᱟᱱᱵᱮᱨᱟ
ᱠᱭᱩ
ᱠᱭᱩᱨᱤ
ᱠᱭᱩᱵᱤᱠ
ᱠᱮ
ᱠᱮᱛ
ᱠᱮᱛᱚᱱ
ᱠᱮᱛᱨᱚ
ᱠᱮᱛᱮ
ᱠᱮᱛᱷᱚᱞᱤᱠ
ᱠᱮᱛᱷᱟᱞᱤᱠ
ᱠᱮᱛᱷᱨᱤᱱ
ᱠᱮᱜ
ᱠᱮᱜᱼᱟ
ᱠᱮᱜᱼᱟᱭ
ᱠᱮᱝᱜᱟᱨᱩ
ᱠᱮᱞᱟᱜᱷᱟᱜᱷ
ᱠᱮᱞᱟᱨ
ᱠᱮᱞᱤᱯᱷᱳᱨᱱᱤᱭᱟ
ᱠᱮᱞᱥᱤᱭᱟᱢ
ᱠᱮᱞᱩᱪᱚᱨᱚᱬ
ᱠᱮᱞᱮᱱᱰᱚᱨ
ᱠᱮᱞᱮᱱᱰᱟᱨ
ᱠᱮᱟ
ᱠᱮᱟᱟ
ᱠᱮᱟᱭ
ᱠᱮᱠᱷᱟ
ᱠᱮᱡ
ᱠᱮᱡᱤ
ᱠᱮᱡᱽᱨᱤᱣᱟᱞ
ᱠᱮᱢᱤᱠᱟᱞ
ᱠᱮᱢᱤᱥᱴᱨᱤ
ᱠᱮᱢᱨᱟ
ᱠᱮᱢᱮᱨᱟ
ᱠᱮᱢᱮᱨᱩᱱ
ᱠᱮᱢᱯ
ᱠᱮᱢᱯᱟᱥ
ᱠᱮᱢᱯᱳᱥ
ᱠᱮᱢᱵᱨᱤᱡᱽ
ᱠᱮᱢᱵᱳᱰᱤᱭᱟ
ᱠᱮᱣ
ᱠᱮᱥ
ᱠᱮᱥᱚᱨᱤ
ᱠᱮᱥᱚᱵᱽ
ᱠᱮᱥᱨᱤ
ᱠᱮᱥᱮᱴ
ᱠᱮᱨᱚᱞ
ᱠᱮᱨᱚᱞᱟ
ᱠᱮᱨᱚᱲ
ᱠᱮᱨᱞᱟ
ᱠᱮᱨᱟᱞᱟ
ᱠᱮᱨᱟᱲᱟ
ᱠᱮᱨᱠᱮᱴᱴᱟ
ᱠᱮᱨᱤ
ᱠᱮᱨᱤᱭᱚᱨ
ᱠᱮᱨᱤᱭᱟᱨ
ᱠᱮᱨᱤᱵᱤᱭᱟᱱ
ᱠᱮᱨᱮᱠᱴᱚᱨ
ᱠᱮᱨᱮᱥᱛᱟᱱ
ᱠᱮᱪ
ᱠᱮᱪᱟᱜ
ᱠᱮᱪᱮᱫ
ᱠᱮᱫ
ᱠᱮᱫᱟ
ᱠᱮᱫᱟᱢ
ᱠᱮᱫᱟᱨ
ᱠᱮᱫᱟᱭ
ᱠᱮᱫᱤᱭᱟ
ᱠᱮᱫᱮ
ᱠᱮᱫᱮᱭᱟ
ᱠᱮᱫᱮᱭᱟᱭ
ᱠᱮᱫᱼᱟ
ᱠᱮᱫᱼᱟᱭ
ᱠᱮᱭᱞᱟᱥ
ᱠᱮᱭᱟ
ᱠᱮᱭᱟᱜ
ᱠᱮᱯ
ᱠᱮᱯᱤᱴᱟᱞ
ᱠᱮᱯᱴᱮᱱ
ᱠᱮᱰᱮᱴ
ᱠᱮᱱ
ᱠᱮᱱᱟ
ᱠᱮᱱᱟᱞ
ᱠᱮᱱᱤᱭᱟ
ᱠᱮᱱᱥᱚᱨ
ᱠᱮᱱᱥᱟᱨ
ᱠᱮᱱᱫᱨᱚ
ᱠᱮᱱᱫᱩᱡᱷᱚᱨ
ᱠᱮᱱᱫᱽᱨᱚ
ᱠᱮᱱᱫᱽᱨᱤᱭᱚ
ᱠᱮᱱᱮᱞ
ᱠᱮᱱᱰᱤ
ᱠᱮᱱᱰᱤᱰᱮᱴ
ᱠᱮᱲᱩᱪᱚᱨᱚᱬ
ᱠᱮᱴᱜᱚᱨᱤ
ᱠᱮᱴᱮᱜᱚᱨᱤ
ᱠᱮᱴᱮᱡ
ᱠᱮᱴᱮᱡᱚᱜ
ᱠᱮᱴᱮᱡᱼᱟ
ᱠᱮᱴᱮᱡᱽ
ᱠᱮᱵᱚᱞ
ᱠᱮᱵᱤᱱᱮᱴ
ᱠᱮᱶᱡᱷᱚᱨ
ᱠᱮᱶᱴᱟ
ᱠᱮᱸᱥᱟᱨ
ᱠᱮᱸᱫᱽᱨᱚ
ᱠᱮᱸᱫᱽᱨᱟᱯᱚᱰᱟ
ᱠᱮᱸᱯ
ᱠᱮᱸᱴ
ᱠᱮᱸᱵᱽᱨᱤᱡᱽ
ᱠᱮᱹ
ᱠᱱᱟ
ᱠᱳ
ᱠᱳᱞ
ᱠᱳᱞᱟ
ᱠᱳᱞᱟᱨ
ᱠᱳᱞᱠᱟᱛᱟ
ᱠᱳᱞᱤᱭᱟ
ᱠᱳᱞᱮᱡᱽ
ᱠᱳᱠ
ᱠᱳᱠᱟ
ᱠᱳᱠᱥᱚᱵᱷᱟ
ᱠᱳᱢᱯᱟᱱᱤ
ᱠᱳᱣᱟ
ᱠᱳᱣᱟᱜ
ᱠᱳᱥᱟᱢᱵᱤ
ᱠᱳᱥᱤ
ᱠᱳᱥᱳᱵᱷᱳ
ᱠᱳᱥᱴ
ᱠᱳᱦᱞᱤ
ᱠᱳᱨ
ᱠᱳᱨᱟᱞᱚᱥ
ᱠᱳᱨᱟᱯᱩᱴ
ᱠᱳᱨᱟᱱ
ᱠᱳᱨᱠᱩ
ᱠᱳᱨᱣᱟ
ᱠᱳᱨᱤᱭᱚᱜᱨᱟᱯᱷᱤ
ᱠᱳᱨᱤᱭᱟ
ᱠᱳᱨᱤᱭᱟᱱ
ᱠᱳᱨᱥ
ᱠᱳᱨᱰ
ᱠᱳᱨᱳᱱᱟ
ᱠᱳᱨᱴ
ᱠᱳᱪ
ᱠᱳᱪᱠᱚ
ᱠᱳᱭᱟᱜ
ᱠᱳᱭᱨᱟᱞᱟ
ᱠᱳᱭᱮᱞ
ᱠᱳᱯ
ᱠᱳᱰ
ᱠᱳᱰᱟ
ᱠᱳᱰᱮ
ᱠᱳᱴ
ᱠᱳᱴᱟ
ᱠᱳᱴᱤ
ᱠᱳᱵᱤ
ᱠᱳᱵᱷᱤᱰ
ᱠᱷ
ᱠᱷᱚ
ᱠᱷᱚᱛ
ᱠᱷᱚᱜᱮᱱ
ᱠᱷᱚᱞ
ᱠᱷᱚᱠᱥᱟ
ᱠᱷᱚᱡ
ᱠᱷᱚᱡᱚᱜ
ᱠᱷᱚᱡᱟ
ᱠᱷᱚᱡᱩᱨᱟᱦᱚ
ᱠᱷᱚᱡᱽ
ᱠᱷᱚᱢᱚᱛᱟ
ᱠᱷᱚᱢᱢᱚᱢ
ᱠᱷᱚᱢᱮᱨ
ᱠᱷᱚᱣᱟᱭ
ᱠᱷᱚᱧᱡᱟ
ᱠᱷᱚᱨᱚᱪ
ᱠᱷᱚᱨᱤᱭᱟᱨ
ᱠᱷᱚᱨᱥᱚᱶᱟ
ᱠᱷᱚᱨᱪᱟ
ᱠᱷᱚᱨᱫᱟ
ᱠᱷᱚᱨᱴᱷᱟ
ᱠᱷᱚᱫᱟ
ᱠᱷᱚᱫᱽ
ᱠᱷᱚᱭ
ᱠᱷᱚᱭᱨᱤ
ᱠᱷᱚᱭᱭᱟᱢ
ᱠᱷᱚᱱ
ᱠᱷᱚᱱᱛᱚ
ᱠᱷᱚᱱᱛᱟᱯᱚᱰᱟ
ᱠᱷᱚᱱᱜᱮ
ᱠᱷᱚᱱᱟ
ᱠᱷᱚᱱᱟᱜ
ᱠᱷᱚᱱᱫᱽᱨᱚᱝ
ᱠᱷᱚᱱᱮ
ᱠᱷᱚᱱᱰ
ᱠᱷᱚᱲᱚᱜᱽᱯᱩᱨ
ᱠᱷᱚᱴᱟ
ᱠᱷᱚᱵᱚᱨ
ᱠᱷᱚᱵᱚᱨᱤᱭᱟᱹ
ᱠᱷᱚᱸᱡᱟ
ᱠᱷᱚᱸᱫᱽᱨᱚᱝ
ᱠᱷᱚᱸᱫᱽᱨᱚᱫᱽ
ᱠᱷᱚᱸᱫᱽᱨᱚᱱ
ᱠᱷᱚᱸᱫᱽᱨᱚᱸᱫᱤᱭᱟ
ᱠᱷᱚᱸᱫᱽᱨᱚᱸᱫᱽ
ᱠᱷᱚᱸᱰ
ᱠᱷᱚᱸᱰᱠᱚ
ᱠᱷᱚᱸᱰᱣᱟ
ᱠᱷᱚᱸᱰᱮ
ᱠᱷᱟ
ᱠᱷᱟᱛᱟ
ᱠᱷᱟᱛᱤᱨ
ᱠᱷᱟᱛᱨᱟ
ᱠᱷᱟᱛᱩᱱ
ᱠᱷᱟᱛᱲᱟ
ᱠᱷᱟᱜᱟᱨᱤᱭᱟ
ᱠᱷᱟᱜᱽᱨᱟᱪᱷᱚᱲᱤ
ᱠᱷᱟᱜᱽᱲᱟᱪᱷᱚᱲᱤ
ᱠᱷᱟᱞᱤ
ᱠᱷᱟᱞᱤᱞᱟᱵᱟᱫᱽ
ᱠᱷᱟᱞᱤᱯᱷᱟ
ᱠᱷᱟᱡ
ᱠᱷᱟᱡᱩᱨᱟᱦᱚ
ᱠᱷᱟᱡᱽᱱᱟ
ᱠᱷᱟᱢ
ᱠᱷᱟᱢᱟᱨ
ᱠᱷᱟᱥ
ᱠᱷᱟᱥᱤ
ᱠᱷᱟᱨᱜᱚᱱ
ᱠᱷᱟᱨᱟ
ᱠᱷᱟᱨᱟᱯ
ᱠᱷᱟᱨᱩᱱ
ᱠᱷᱟᱨᱮᱱ
ᱠᱷᱟᱫᱟᱱ
ᱠᱷᱟᱰᱤ
ᱠᱷᱟᱰᱤᱭᱟ
ᱠᱷᱟᱱ
ᱠᱷᱟᱱᱜᱮ
ᱠᱷᱟᱱᱟ
ᱠᱷᱟᱱᱟᱜ
ᱠᱷᱟᱱᱥᱟᱢᱟ
ᱠᱷᱟᱱᱫᱮᱥ
ᱠᱷᱟᱱᱫᱮᱥᱤ
ᱠᱷᱟᱱᱮ
ᱠᱷᱟᱱᱮᱢ
ᱠᱷᱟᱱᱰᱟᱣ
ᱠᱷᱟᱱᱰᱟᱣᱮᱫ
ᱠᱷᱟᱱᱰᱩ
ᱠᱷᱟᱱᱱᱟ
ᱠᱷᱟᱲᱟᱝ
ᱠᱷᱟᱲᱤᱭᱟ
ᱠᱷᱟᱴᱚ
ᱠᱷᱟᱴᱟᱣ
ᱠᱷᱟᱸ
ᱠᱷᱟᱸᱡᱚ
ᱠᱷᱟᱸᱰᱟ
ᱠᱷᱟᱸᱰᱟᱣ
ᱠᱷᱟᱸᱰᱣᱟ
ᱠᱷᱟᱸᱰᱣᱤ
ᱠᱷᱟᱹᱛᱤᱨ
ᱠᱷᱟᱹᱛᱤᱨᱟᱜ
ᱠᱷᱟᱹᱞᱤ
ᱠᱷᱟᱹᱡᱟᱹᱲᱤ
ᱠᱷᱟᱹᱣᱴᱤᱭᱟᱹ
ᱠᱷᱟᱹᱨᱟᱹᱭ
ᱠᱷᱟᱹᱲᱤ
ᱠᱷᱟᱹᱲᱤᱭᱟ
ᱠᱷᱟᱹᱴᱣᱟᱹᱱ
ᱠᱷᱤ
ᱠᱷᱤᱛᱤ
ᱠᱷᱤᱞᱚᱱᱰ
ᱠᱷᱤᱞᱚᱱᱰᱤᱭᱟ
ᱠᱷᱤᱞᱚᱸᱰ
ᱠᱷᱤᱞᱟᱯᱷ
ᱠᱷᱤᱞᱟᱰᱤ
ᱠᱷᱤᱞᱟᱱ
ᱠᱷᱤᱞᱟᱹᱰᱤᱭᱟᱹ
ᱠᱷᱤᱞᱟᱹᱲᱤ
ᱠᱷᱤᱞᱟᱹᱴ
ᱠᱷᱤᱡᱩᱨ
ᱠᱷᱤᱨᱤ
ᱠᱷᱤᱪᱤᱝ
ᱠᱷᱤᱪᱲᱤ
ᱠᱷᱤᱫᱤ
ᱠᱷᱤᱱ
ᱠᱷᱤᱲᱠᱤ
ᱠᱷᱨᱤᱥᱴᱚ
ᱠᱷᱨᱤᱥᱴᱟᱱ
ᱠᱷᱨᱤᱥᱴᱟᱵᱽᱫᱚ
ᱠᱷᱨᱤᱥᱴᱤᱭᱟᱱ
ᱠᱷᱨᱤᱧ
ᱠᱷᱩᱛᱤ
ᱠᱷᱩᱜ
ᱠᱷᱩᱞᱟ
ᱠᱷᱩᱞᱟᱹ
ᱠᱷᱩᱞᱱᱟ
ᱠᱷᱩᱡᱽᱫᱟᱨ
ᱠᱷᱩᱥᱤ
ᱠᱷᱩᱨᱟᱭ
ᱠᱷᱩᱨᱟᱱᱟ
ᱠᱷᱩᱨᱟᱹ
ᱠᱷᱩᱨᱫᱽ
ᱠᱷᱩᱱᱴᱟ
ᱠᱷᱩᱱᱴᱟᱹᱣ
ᱠᱷᱩᱱᱴᱤ
ᱠᱷᱩᱲ
ᱠᱷᱩᱴ
ᱠᱷᱩᱵ
ᱠᱷᱩᱸᱴᱤ
ᱠᱷᱭᱟ
ᱠᱷᱭᱟᱹᱛ
ᱠᱷᱮᱛ
ᱠᱷᱮᱛᱞᱟᱞ
ᱠᱷᱮᱛᱨᱚ
ᱠᱷᱮᱞ
ᱠᱷᱮᱞᱚᱰ
ᱠᱷᱮᱞᱚᱰᱟᱹᱱᱤ
ᱠᱷᱮᱞᱚᱰᱤᱭᱟᱹ
ᱠᱷᱮᱞᱚᱰᱸ
ᱠᱷᱮᱞᱚᱱᱰ
ᱠᱷᱮᱞᱚᱱᱰᱤᱭᱟᱹ
ᱠᱷᱮᱞᱚᱸᱰ
ᱠᱷᱮᱞᱚᱸᱰᱟ
ᱠᱷᱮᱞᱚᱸᱰᱟᱹᱱᱤ
ᱠᱷᱮᱞᱚᱸᱰᱤᱭᱟ
ᱠᱷᱮᱞᱚᱸᱰᱤᱭᱟᱹ
ᱠᱷᱮᱞᱟᱨᱤ
ᱠᱷᱮᱞᱣᱟᱹᱨᱤ
ᱠᱷᱮᱢᱟᱣ
ᱠᱷᱮᱢᱮᱨ
ᱠᱷᱮᱨ
ᱠᱷᱮᱨᱣᱟᱞ
ᱠᱷᱮᱨᱣᱟᱲ
ᱠᱷᱮᱨᱤ
ᱠᱷᱮᱭᱟᱞ
ᱠᱷᱮᱲᱟ
ᱠᱷᱱ
ᱠᱷᱳᱥᱤ
ᱠᱷᱳᱨᱴᱷᱟ
ᱠᱷᱳᱱ
ᱠᱷᱳᱱᱟᱜ
ᱠᱷᱳᱴᱟᱝ
ᱠᱹ
ᱡ
ᱡᱚ
ᱡᱚᱛᱚ
ᱡᱚᱛᱚᱞᱮᱠᱟᱱ
ᱡᱚᱛᱚᱠᱷᱚᱡ
ᱡᱚᱛᱚᱠᱷᱚᱱ
ᱡᱚᱛᱚᱣᱟᱜ
ᱡᱚᱛᱚᱥ
ᱡᱚᱛᱚᱨᱮ
ᱡᱚᱛᱚᱱ
ᱡᱚᱛᱟ
ᱡᱚᱛᱤᱱ
ᱡᱚᱛᱷᱚ
ᱡᱚᱛᱷᱟᱛ
ᱡᱚᱛᱷᱟᱛᱟᱱᱟᱜ
ᱡᱚᱜ
ᱡᱚᱜᱚ
ᱡᱚᱜᱚᱛ
ᱡᱚᱜᱚᱛᱥᱤᱝᱯᱩᱨ
ᱡᱚᱜᱚᱠᱷᱚᱸᱰ
ᱡᱚᱜᱚᱯᱟᱨᱥᱮᱛ
ᱡᱚᱜᱚᱱ
ᱡᱚᱜᱚᱱᱟᱛᱷ
ᱡᱚᱜᱚᱱᱱᱟᱛᱷ
ᱡᱚᱜᱚᱱᱱᱟᱛᱷᱻᱟᱜ
ᱡᱚᱜᱚᱼᱠᱷᱚᱸᱰ
ᱡᱚᱜᱜᱚᱛᱟ
ᱡᱚᱜᱟᱡᱚᱜᱽ
ᱡᱚᱜᱟᱣ
ᱡᱚᱜᱟᱲ
ᱡᱚᱜᱮᱥᱣᱚᱨ
ᱡᱚᱜᱼᱟ
ᱡᱚᱜᱽ
ᱡᱚᱜᱽᱛᱤᱭᱟᱞ
ᱡᱚᱜᱽᱡᱤᱛ
ᱡᱚᱜᱽᱢᱟᱺᱡᱷᱤ
ᱡᱚᱜᱽᱫᱚᱞᱯᱩᱨ
ᱡᱚᱜᱽᱫᱤᱥ
ᱡᱚᱜᱽᱫᱤᱥᱯᱩᱨ
ᱡᱚᱜᱽᱭᱚᱸ
ᱡᱚᱝ
ᱡᱚᱝᱟ
ᱡᱚᱝᱠᱷᱟ
ᱡᱚᱝᱥᱚᱱ
ᱡᱚᱞ
ᱡᱚᱞᱚᱱ
ᱡᱚᱞᱚᱱᱫᱷᱚᱨ
ᱡᱚᱞᱛᱚᱨᱚᱝ
ᱡᱚᱞᱟ
ᱡᱚᱞᱯᱟᱭ
ᱡᱚᱞᱯᱟᱭᱜᱩᱲᱤ
ᱡᱚᱞᱰᱷᱟᱠᱟ
ᱡᱚᱠᱦᱚᱱ
ᱡᱚᱠᱷᱚᱡ
ᱡᱚᱠᱷᱚᱱ
ᱡᱚᱠᱷᱟ
ᱡᱚᱠᱷᱟᱜ
ᱡᱚᱠᱷᱟᱱ
ᱡᱚᱠᱷᱮᱡ
ᱡᱚᱠᱷᱮᱡᱽ
ᱡᱚᱡ
ᱡᱚᱡᱚ
ᱡᱚᱡᱚᱢ
ᱡᱚᱡᱚᱱᱟ
ᱡᱚᱡᱤᱨᱟ
ᱡᱚᱡᱽ
ᱡᱚᱢ
ᱡᱚᱢᱚᱞᱟ
ᱡᱚᱢᱚᱠ
ᱡᱚᱢᱟ
ᱡᱚᱢᱟᱜ
ᱡᱚᱢᱢᱟ
ᱡᱚᱢᱢᱩ
ᱡᱚᱢᱤ
ᱡᱚᱢᱤᱫᱟᱨ
ᱡᱚᱢᱥᱤᱢ
ᱡᱚᱢᱧᱩ
ᱡᱚᱢᱩᱭ
ᱡᱚᱢᱩᱱᱟ
ᱡᱚᱢᱮᱴᱨᱤ
ᱡᱚᱢᱯ
ᱡᱚᱢᱵᱤ
ᱡᱚᱢᱻᱟ
ᱡᱚᱢᱼᱟ
ᱡᱚᱣᱟᱦᱚᱨ
ᱡᱚᱣᱟᱦᱚᱨᱞᱟᱞ
ᱡᱚᱣᱟᱱ
ᱡᱚᱣᱨᱟ
ᱡᱚᱥ
ᱡᱚᱥᱚᱨ
ᱡᱚᱥᱤ
ᱡᱚᱥᱤᱯᱩᱨ
ᱡᱚᱥᱮ
ᱡᱚᱥᱮᱯᱷ
ᱡᱚᱥᱯᱩᱨ
ᱡᱚᱥᱳᱨ
ᱡᱚᱥᱴᱤᱥ
ᱡᱚᱦᱚᱜ
ᱡᱚᱦᱟᱨ
ᱡᱚᱦᱟᱱ
ᱡᱚᱦᱟᱱᱟᱵᱟᱫᱽ
ᱡᱚᱦᱟᱱᱥᱵᱟᱨᱜᱽ
ᱡᱚᱦᱱ
ᱡᱚᱨ
ᱡᱚᱨᱚ
ᱡᱚᱨᱚᱜ
ᱡᱚᱨᱡ
ᱡᱚᱨᱡᱤᱭᱟ
ᱡᱚᱨᱡᱤᱭᱟᱱ
ᱡᱚᱨᱡᱽ
ᱡᱚᱨᱢᱟᱱ
ᱡᱚᱨᱢᱟᱱᱤ
ᱡᱚᱨᱢᱟᱱᱤᱠ
ᱡᱚᱨᱤ
ᱡᱚᱨᱥᱤ
ᱡᱚᱨᱦᱟᱴ
ᱡᱚᱨᱩᱨᱤ
ᱡᱚᱨᱰᱟᱱ
ᱡᱚᱨᱱᱚᱞ
ᱡᱚᱨᱱᱟᱞᱤᱥᱴ
ᱡᱚᱫᱤ
ᱡᱚᱫᱩᱱᱟᱛᱷ
ᱡᱚᱫᱷᱟ
ᱡᱚᱫᱷᱯᱩᱨ
ᱡᱚᱭ
ᱡᱚᱭᱚ
ᱡᱚᱭᱚᱛᱤ
ᱡᱚᱭᱚᱛᱮ
ᱡᱚᱭᱚᱱᱛᱚ
ᱡᱚᱭᱚᱱᱛᱤ
ᱡᱚᱭᱚᱱᱛᱤᱭᱟ
ᱡᱚᱭᱜᱟᱸᱣ
ᱡᱚᱭᱟ
ᱡᱚᱭᱤᱨᱟᱢ
ᱡᱚᱭᱨᱟᱢ
ᱡᱚᱭᱫᱮᱵᱽ
ᱡᱚᱭᱮᱱ
ᱡᱚᱭᱮᱱᱛᱤᱭᱟ
ᱡᱚᱭᱮᱸᱴ
ᱡᱚᱭᱯᱟᱞ
ᱡᱚᱭᱯᱨᱚᱠᱟᱥ
ᱡᱚᱭᱯᱩᱨ
ᱡᱚᱭᱯᱩᱨᱦᱟᱴ
ᱡᱚᱭᱱ
ᱡᱚᱭᱱᱚ
ᱡᱚᱯᱚᱢ
ᱡᱚᱯᱚᱲᱟᱣ
ᱡᱚᱯᱚᱴᱮᱫ
ᱡᱚᱯᱨᱟᱣ
ᱡᱚᱯᱲᱟᱣ
ᱡᱚᱱ
ᱡᱚᱱᱚ
ᱡᱚᱱᱚᱛᱟ
ᱡᱚᱱᱚᱜ
ᱡᱚᱱᱚᱠ
ᱡᱚᱱᱚᱠᱯᱩᱨ
ᱡᱚᱱᱚᱡᱟᱛᱤ
ᱡᱚᱱᱚᱢ
ᱡᱚᱱᱚᱱᱤ
ᱡᱚᱱᱚᱲ
ᱡᱚᱱᱚᱲᱟ
ᱡᱚᱱᱚᱲᱟᱣ
ᱡᱚᱱᱛᱚᱨ
ᱡᱚᱱᱛᱟ
ᱡᱚᱱᱛᱨᱚ
ᱡᱚᱱᱛᱩ
ᱡᱚᱱᱜᱟᱶ
ᱡᱚᱱᱟ
ᱡᱚᱱᱟᱨᱫᱷᱚᱱ
ᱡᱚᱱᱡᱟ
ᱡᱚᱱᱢᱚ
ᱡᱚᱱᱢᱟᱥᱴᱚᱢᱤ
ᱡᱚᱱᱤ
ᱡᱚᱱᱥ
ᱡᱚᱱᱥᱚᱱ
ᱡᱚᱱᱰᱨᱟ
ᱡᱚᱲ
ᱡᱚᱲᱚᱱᱫᱷᱚᱨ
ᱡᱚᱲᱟ
ᱡᱚᱲᱟᱜ
ᱡᱚᱲᱟᱜᱼᱟ
ᱡᱚᱲᱟᱣ
ᱡᱚᱲᱟᱣᱜᱼᱟ
ᱡᱚᱲᱟᱣᱟ
ᱡᱚᱲᱟᱣᱟᱜ
ᱡᱚᱲᱟᱣᱼᱟ
ᱡᱚᱴᱟᱣ
ᱡᱚᱴᱮᱫ
ᱡᱚᱵᱚᱛ
ᱡᱚᱵᱚᱨ
ᱡᱚᱵᱟ
ᱡᱚᱵᱟᱦᱚᱨ
ᱡᱚᱵᱟᱦᱚᱨᱞᱟᱞ
ᱡᱚᱵᱟᱵᱽ
ᱡᱚᱵᱮ
ᱡᱚᱵᱽ
ᱡᱚᱵᱽᱥ
ᱡᱚᱵᱽᱨᱟ
ᱡᱚᱶᱜᱤᱠ
ᱡᱚᱸᱠᱥᱚᱱ
ᱡᱚᱸᱠᱥᱟᱱ
ᱡᱚᱸᱰᱨᱟ
ᱡᱚᱻ
ᱡᱟ
ᱡᱟᱛᱤ
ᱡᱟᱛᱤᱣ
ᱡᱟᱛᱤᱥᱚᱝᱜᱷᱚ
ᱡᱟᱛᱤᱭ
ᱡᱟᱛᱤᱭᱚ
ᱡᱟᱛᱤᱭᱟ
ᱡᱟᱛᱤᱭᱟᱹᱨᱤ
ᱡᱟᱛᱤᱭᱳ
ᱡᱟᱛᱤᱳ
ᱡᱟᱛᱨᱟ
ᱡᱟᱛᱮ
ᱡᱟᱜ
ᱡᱟᱜᱚᱨ
ᱡᱟᱜᱟ
ᱡᱟᱜᱟᱛ
ᱡᱟᱜᱟᱠᱚ
ᱡᱟᱜᱟᱨᱮ
ᱡᱟᱜᱟᱭ
ᱡᱟᱜᱤᱨ
ᱡᱟᱜᱮᱫᱟᱨᱟᱢ
ᱡᱟᱝ
ᱡᱟᱝᱜᱟ
ᱡᱟᱝᱜᱮ
ᱡᱟᱝᱥᱟᱱ
ᱡᱟᱞ
ᱡᱟᱞᱜᱟᱶ
ᱡᱟᱞᱟ
ᱡᱟᱞᱟᱞᱟᱵᱟᱫᱽ
ᱡᱟᱞᱟᱢ
ᱡᱟᱞᱟᱯᱩᱨᱤ
ᱡᱟᱞᱱᱟ
ᱡᱟᱞᱳᱨ
ᱡᱟᱠ
ᱡᱟᱠᱟᱛ
ᱡᱟᱠᱟᱨᱛᱟ
ᱡᱟᱠᱤ
ᱡᱟᱠᱤᱨ
ᱡᱟᱡᱟ
ᱡᱟᱡᱟᱵᱚᱨᱚ
ᱡᱟᱡᱽ
ᱡᱟᱡᱽᱯᱩᱨ
ᱡᱟᱢ
ᱡᱟᱢᱛᱟᱲᱟ
ᱡᱟᱢᱟ
ᱡᱟᱢᱟᱞ
ᱡᱟᱢᱟᱞᱯᱩᱨ
ᱡᱟᱢᱟᱭ
ᱡᱟᱢᱟᱭᱠᱟ
ᱡᱟᱢᱟᱱ
ᱡᱟᱢᱢᱩ
ᱡᱟᱢᱤᱭᱟ
ᱡᱟᱢᱤᱱ
ᱡᱟᱢᱥᱮᱫᱯᱩᱨ
ᱡᱟᱢᱥᱮᱫᱽᱡᱤ
ᱡᱟᱢᱥᱮᱫᱽᱯᱩᱨ
ᱡᱟᱢᱩ
ᱡᱟᱢᱩᱭ
ᱡᱟᱢᱫᱟ
ᱡᱟᱢᱱᱚᱜᱚᱨ
ᱡᱟᱢᱵᱤᱭᱟ
ᱡᱟᱣ
ᱡᱟᱣᱜᱮ
ᱡᱟᱣᱟ
ᱡᱟᱣᱟᱭ
ᱡᱟᱣᱨᱟ
ᱡᱟᱣᱨᱟᱜ
ᱡᱟᱥᱛᱤ
ᱡᱟᱥᱤᱰᱤᱦ
ᱡᱟᱥᱴᱤᱥ
ᱡᱟᱦᱟ
ᱡᱟᱦᱟᱝᱜᱤᱨ
ᱡᱟᱦᱟᱡ
ᱡᱟᱦᱟᱡᱽ
ᱡᱟᱦᱟᱨᱮ
ᱡᱟᱦᱟᱭ
ᱡᱟᱦᱟᱱ
ᱡᱟᱦᱟᱱᱟᱜ
ᱡᱟᱦᱟᱸ
ᱡᱟᱦᱟᱸᱛᱤᱱᱟᱹᱜ
ᱡᱟᱦᱟᱸᱛᱮ
ᱡᱟᱦᱟᱸᱞᱮᱠᱟ
ᱡᱟᱦᱟᱸᱨᱮ
ᱡᱟᱦᱟᱸᱫᱚ
ᱡᱟᱦᱟᱸᱭ
ᱡᱟᱦᱟᱸᱭᱟᱜ
ᱡᱟᱦᱟᱸᱱ
ᱡᱟᱦᱟᱸᱱᱟᱜ
ᱡᱟᱦᱟᱸᱴᱟᱜ
ᱡᱟᱦᱤᱨ
ᱡᱟᱦᱮᱨ
ᱡᱟᱧᱡᱽᱜᱤᱨ
ᱡᱟᱨ
ᱡᱟᱨᱜᱮ
ᱡᱟᱨᱟ
ᱡᱟᱨᱢᱟᱱ
ᱡᱟᱨᱢᱟᱱᱤ
ᱡᱟᱨᱢᱟᱱᱤᱠ
ᱡᱟᱨᱢᱩᱱᱰᱤ
ᱡᱟᱨᱣᱟ
ᱡᱟᱨᱣᱟᱜ
ᱡᱟᱨᱤ
ᱡᱟᱨᱤᱰᱤᱦ
ᱡᱟᱨᱩᱲᱟ
ᱡᱟᱨᱯᱟ
ᱡᱟᱨᱱᱟᱞᱤᱡᱚᱢ
ᱡᱟᱨᱱᱟᱞᱤᱥᱴ
ᱡᱟᱫᱚᱵᱽ
ᱡᱟᱫᱩ
ᱡᱟᱫᱩᱜᱚᱰᱟ
ᱡᱟᱫᱩᱜᱷᱚᱨ
ᱡᱟᱭ
ᱡᱟᱭᱛᱮᱫ
ᱡᱟᱭᱜᱟ
ᱡᱟᱭᱜᱟᱭ
ᱡᱟᱭᱟ
ᱡᱟᱭᱟᱜᱟ
ᱡᱟᱭᱡᱩᱜ
ᱡᱟᱭᱡᱩᱜᱽ
ᱡᱟᱭᱮᱫ
ᱡᱟᱭᱱ
ᱡᱟᱯᱟᱜ
ᱡᱟᱯᱟᱜᱚᱜ
ᱡᱟᱯᱟᱜᱚᱜᱼᱟ
ᱡᱟᱯᱟᱱ
ᱡᱟᱯᱟᱱᱤ
ᱡᱟᱯᱟᱱᱤᱡ
ᱡᱟᱯᱟᱱᱤᱡᱽ
ᱡᱟᱯᱩᱫ
ᱡᱟᱯᱷᱚᱨ
ᱡᱟᱯᱷᱚᱨᱟᱵᱟᱫᱽ
ᱡᱟᱯᱷᱨᱤ
ᱡᱟᱯᱷᱱᱟ
ᱡᱟᱱ
ᱡᱟᱱᱚᱠᱤ
ᱡᱟᱱᱛᱟ
ᱡᱟᱱᱟ
ᱡᱟᱱᱟᱝ
ᱡᱟᱱᱟᱢ
ᱡᱟᱱᱟᱢᱚᱜ
ᱡᱟᱱᱟᱢᱞᱮᱱᱟ
ᱡᱟᱱᱟᱢᱺ
ᱡᱟᱱᱟᱰ
ᱡᱟᱱᱟᱱ
ᱡᱟᱱᱟᱱᱟᱝ
ᱡᱟᱱᱣᱟ
ᱡᱟᱱᱣᱟᱨ
ᱡᱟᱱᱣᱟᱨᱤ
ᱡᱟᱱᱤ
ᱡᱟᱱᱥᱠᱟᱨ
ᱡᱟᱱᱦᱮ
ᱡᱟᱱᱩᱟᱨᱤ
ᱡᱟᱱᱩᱢ
ᱡᱟᱱᱩᱣᱟᱨᱤ
ᱡᱟᱱᱩᱭᱟᱨᱤ
ᱡᱟᱲᱟᱣ
ᱡᱟᱴ
ᱡᱟᱴᱟ
ᱡᱟᱴᱟᱜ
ᱡᱟᱵᱟᱞᱯᱩᱨ
ᱡᱟᱵᱷᱟ
ᱡᱟᱵᱷᱟᱱᱤᱥ
ᱡᱟᱵᱷᱤᱭᱚᱨ
ᱡᱟᱶᱟᱭ
ᱡᱟᱸᱜᱟ
ᱡᱟᱸᱜᱟᱭ
ᱡᱟᱸᱜᱮ
ᱡᱟᱸᱠᱥᱚᱱ
ᱡᱟᱸᱦᱟ
ᱡᱟᱸᱦᱟᱭ
ᱡᱟᱸᱦᱟᱸ
ᱡᱟᱸᱦᱟᱸᱨᱮ
ᱡᱟᱸᱦᱟᱸᱭ
ᱡᱟᱸᱦᱟᱸᱱ
ᱡᱟᱸᱦᱟᱸᱱᱟᱜ
ᱡᱟᱸᱵᱤᱨ
ᱡᱟᱹ
ᱡᱟᱹᱛ
ᱡᱟᱹᱛᱤ
ᱡᱟᱹᱛᱤᱭᱟᱨᱤ
ᱡᱟᱹᱛᱤᱭᱟᱹᱨᱤ
ᱡᱟᱹᱛᱨᱤ
ᱡᱟᱹᱛᱨᱤᱭᱟᱹ
ᱡᱟᱹᱛᱭᱟᱹᱨᱤ
ᱡᱟᱹᱞᱤ
ᱡᱟᱹᱡᱟᱹᱛᱨᱤᱭᱟᱹ
ᱡᱟᱹᱢᱢᱩ
ᱡᱟᱹᱢᱩ
ᱡᱟᱹᱥᱛᱤ
ᱡᱟᱹᱥᱛᱤᱭ
ᱡᱟᱹᱥᱛᱤᱭᱟ
ᱡᱟᱹᱦᱤᱨ
ᱡᱟᱹᱨᱤ
ᱡᱟᱹᱨᱩᱢ
ᱡᱟᱹᱨᱩᱲ
ᱡᱟᱹᱨᱩᱲᱟ
ᱡᱟᱹᱨᱩᱲᱟᱱ
ᱡᱟᱹᱫᱩ
ᱡᱟᱹᱯᱤᱫ
ᱡᱟᱹᱯᱩᱫ
ᱡᱟᱹᱱᱤ
ᱡᱟᱹᱱᱤᱡ
ᱡᱟᱹᱱᱩᱢ
ᱡᱟᱹᱲ
ᱡᱟᱹᱲᱤ
ᱡᱟᱹᱲᱤᱭᱟ
ᱡᱟᱹᱵᱽᱲᱤ
ᱡᱟᱺᱵᱤᱨ
ᱡᱤ
ᱡᱤᱛ
ᱡᱤᱛᱟ
ᱡᱤᱛᱟᱹ
ᱡᱤᱛᱟᱹᱣ
ᱡᱤᱛᱠᱟ
ᱡᱤᱛᱠᱟᱨ
ᱡᱤᱛᱠᱟᱹᱨ
ᱡᱤᱛᱠᱟᱹᱨᱚᱜ
ᱡᱤᱛᱠᱟᱹᱨᱤᱭᱟᱹ
ᱡᱤᱛᱤᱞᱛᱷᱟᱱ
ᱡᱤᱛᱮᱱᱫᱨᱚ
ᱡᱤᱞ
ᱡᱤᱞᱞᱟ
ᱡᱤᱞᱞᱟᱹ
ᱡᱤᱞᱟ
ᱡᱤᱞᱟᱭ
ᱡᱤᱞᱟᱹ
ᱡᱤᱞᱤᱝ
ᱡᱤᱞᱤᱧ
ᱡᱤᱞᱤᱧᱟ
ᱡᱤᱠᱤᱨ
ᱡᱤᱢ
ᱡᱤᱢᱤ
ᱡᱤᱢᱵᱟᱵᱩᱭᱮ
ᱡᱤᱣ
ᱡᱤᱣᱚᱱ
ᱡᱤᱣᱟᱹᱞᱤ
ᱡᱤᱣᱟᱹᱫ
ᱡᱤᱣᱤ
ᱡᱤᱣᱤᱫ
ᱡᱤᱣᱤᱭ
ᱡᱤᱣᱤᱭᱟᱱ
ᱡᱤᱣᱤᱱ
ᱡᱤᱣᱤᱵ
ᱡᱤᱣᱤᱵᱟ
ᱡᱤᱣᱤᱵᱟᱹᱛᱤ
ᱡᱤᱣᱮᱫ
ᱡᱤᱣᱱᱤ
ᱡᱤᱥᱩ
ᱡᱤᱥᱩᱢᱟᱹᱥᱤ
ᱡᱤᱥᱩᱣᱟᱜ
ᱡᱤᱦᱚᱞ
ᱡᱤᱨᱟ
ᱡᱤᱨᱟᱹᱣ
ᱡᱤᱨᱟᱹᱣᱜ
ᱡᱤᱨᱤᱵᱟᱢ
ᱡᱤᱨᱳ
ᱡᱤᱭᱚᱢ
ᱡᱤᱭᱚᱱ
ᱡᱤᱭᱚᱱᱤ
ᱡᱤᱭᱚᱱᱮ
ᱡᱤᱭᱟ
ᱡᱤᱭᱟᱝ
ᱡᱤᱭᱟᱞᱤ
ᱡᱤᱭᱟᱱ
ᱡᱤᱭᱟᱹᱛ
ᱡᱤᱭᱟᱹᱞᱤ
ᱡᱤᱭᱟᱹᱞᱤᱭᱟᱜ
ᱡᱤᱭᱟᱹᱲ
ᱡᱤᱭᱤᱱ
ᱡᱤᱭᱳ
ᱡᱤᱭᱳᱞᱚᱡᱤ
ᱡᱤᱭᱳᱱ
ᱡᱤᱯ
ᱡᱤᱰᱤᱯᱤ
ᱡᱤᱱ
ᱡᱤᱱᱛᱤ
ᱡᱤᱱᱟ
ᱡᱤᱱᱤᱥ
ᱡᱤᱱᱫᱮᱜᱤ
ᱡᱤᱱᱫᱽ
ᱡᱤᱵ
ᱡᱤᱵᱚᱱ
ᱡᱤᱵᱟᱬᱩ
ᱡᱤᱵᱤ
ᱡᱤᱵᱩᱛᱤ
ᱡᱤᱵᱽ
ᱡᱤᱸᱣᱤᱫ
ᱡᱤᱹ
ᱡᱩ
ᱡᱩᱛ
ᱡᱩᱛᱟ
ᱡᱩᱛᱨᱟᱹᱣ
ᱡᱩᱛᱩᱜ
ᱡᱩᱛᱩᱜᱼᱟ
ᱡᱩᱜ
ᱡᱩᱜᱟᱹᱲ
ᱡᱩᱜᱤ
ᱡᱩᱜᱽ
ᱡᱩᱜᱽᱥᱟᱞᱚᱭ
ᱡᱩᱜᱽᱨᱮ
ᱡᱩᱞ
ᱡᱩᱞᱚᱡᱤ
ᱡᱩᱞᱟ
ᱡᱩᱞᱟᱭ
ᱡᱩᱞᱟᱹᱭ
ᱡᱩᱞᱤ
ᱡᱩᱞᱤᱭᱟᱥ
ᱡᱩᱞᱤᱭᱟᱱ
ᱡᱩᱞᱩ
ᱡᱩᱞᱩᱜ
ᱡᱩᱞᱭ
ᱡᱩᱞᱯᱷᱤᱠᱟᱨ
ᱡᱩᱠ
ᱡᱩᱠᱛᱚ
ᱡᱩᱠᱛᱚᱨᱟᱥᱴᱨᱚ
ᱡᱩᱠᱛᱤ
ᱡᱩᱡᱷᱟ
ᱡᱩᱢ
ᱡᱩᱢᱤᱫ
ᱡᱩᱢᱤᱫᱽ
ᱡᱩᱣᱟ
ᱡᱩᱣᱟᱝ
ᱡᱩᱣᱟᱱ
ᱡᱩᱣᱟᱹᱱ
ᱡᱩᱥ
ᱡᱩᱥᱴᱤᱥ
ᱡᱩᱦᱤ
ᱡᱩᱦᱩ
ᱡᱩᱦᱩᱲᱟᱹᱣ
ᱡᱩᱨ
ᱡᱩᱨᱟᱭ
ᱡᱩᱨᱤ
ᱡᱩᱨᱩᱢᱩᱴᱩ
ᱡᱩᱨᱫᱷᱟᱹ
ᱡᱩᱫᱟ
ᱡᱩᱫᱟᱹ
ᱡᱩᱫᱤ
ᱡᱩᱰᱟᱣ
ᱡᱩᱰᱤᱭᱟ
ᱡᱩᱰᱳ
ᱡᱩᱱ
ᱡᱩᱱᱛᱩ
ᱡᱩᱱᱟᱜᱚᱲ
ᱡᱩᱱᱤᱭᱚᱨ
ᱡᱩᱱᱤᱭᱟᱨ
ᱡᱩᱱᱩᱱ
ᱡᱩᱲᱟ
ᱡᱩᱲᱟᱣ
ᱡᱩᱲᱟᱹᱣ
ᱡᱩᱲᱟᱹᱭ
ᱡᱩᱲᱟᱹᱭᱟ
ᱡᱩᱲᱤ
ᱡᱩᱲᱩ
ᱡᱩᱴᱤ
ᱡᱩᱴᱤᱡ
ᱡᱩᱵᱚ
ᱡᱩᱵᱤᱱ
ᱡᱭᱚᱛᱤ
ᱡᱮ
ᱡᱮᱛᱞᱮᱫ
ᱡᱮᱛᱮ
ᱡᱮᱜᱮᱛ
ᱡᱮᱜᱮᱛᱟ
ᱡᱮᱜᱮᱛᱟᱨᱤ
ᱡᱮᱜᱮᱛᱟᱹᱨᱤ
ᱡᱮᱜᱮᱛᱤᱭᱟᱹ
ᱡᱮᱜᱮᱛᱤᱭᱟᱹᱨᱤ
ᱡᱮᱜᱮᱛᱵᱤᱨᱫᱟᱹᱜᱟᱲ
ᱡᱮᱜᱮᱫ
ᱡᱮᱜᱮᱸᱫ
ᱡᱮᱞ
ᱡᱮᱞᱞᱟ
ᱡᱮᱞᱟ
ᱡᱮᱞᱟᱨ
ᱡᱮᱞᱤᱧ
ᱡᱮᱞᱮᱝ
ᱡᱮᱞᱮᱠ
ᱡᱮᱞᱮᱠᱟ
ᱡᱮᱞᱮᱠᱟᱺ
ᱡᱮᱞᱮᱠᱟᱼ
ᱡᱮᱞᱮᱧ
ᱡᱮᱠᱷᱟ
ᱡᱮᱡᱟ
ᱡᱮᱡᱟᱛᱟᱹᱨᱤ
ᱡᱮᱡᱟᱛᱤᱭᱟᱹᱨᱤ
ᱡᱮᱡᱟᱹᱛᱤᱭᱟᱹᱨᱤ
ᱡᱮᱢᱚᱱ
ᱡᱮᱢᱥ
ᱡᱮᱢᱮ
ᱡᱮᱦᱩᱛᱩ
ᱡᱮᱦᱮᱛᱚ
ᱡᱮᱦᱮᱞ
ᱡᱮᱨᱤ
ᱡᱮᱨᱩᱥᱟᱞᱤᱢ
ᱡᱮᱨᱮᱲ
ᱡᱮᱫᱽᱫᱟ
ᱡᱮᱭᱞ
ᱡᱮᱭᱠᱤ
ᱡᱮᱭᱥᱟᱞᱢᱮᱨ
ᱡᱮᱭᱱ
ᱡᱮᱱ
ᱡᱮᱱᱚᱥ
ᱡᱮᱱᱟ
ᱡᱮᱱᱟᱨᱮᱞ
ᱡᱮᱱᱨᱟᱞ
ᱡᱮᱱᱮᱞᱤᱭᱟ
ᱡᱮᱱᱮᱨᱚ
ᱡᱮᱱᱮᱨᱟᱞ
ᱡᱮᱱᱮᱵᱷᱟ
ᱡᱮᱴ
ᱡᱮᱴᱞᱤ
ᱡᱮᱴᱷᱟ
ᱡᱮᱵᱤᱭᱟᱨ
ᱡᱮᱵᱽᱨᱟ
ᱡᱮᱸ
ᱡᱮᱸᱜᱮᱫ
ᱡᱳ
ᱡᱳᱜᱟᱡᱳᱜ
ᱡᱳᱞᱤ
ᱡᱳᱣᱱᱯᱩᱨ
ᱡᱳᱥᱤ
ᱡᱳᱥᱮᱯᱷ
ᱡᱳᱦᱚᱨ
ᱡᱳᱦᱟᱨ
ᱡᱳᱨ
ᱡᱳᱭᱱᱳ
ᱡᱳᱭᱱᱴ
ᱡᱳᱱ
ᱡᱳᱱᱤ
ᱡᱳᱱᱯᱩᱨ
ᱡᱳᱵᱟ
ᱡᱷᱚᱛᱚ
ᱡᱷᱚᱛᱚᱠᱷᱚᱱ
ᱡᱷᱚᱛᱳ
ᱡᱷᱚᱜ
ᱡᱷᱚᱞᱚᱠ
ᱡᱷᱚᱦ
ᱡᱷᱚᱨᱚᱱ
ᱡᱷᱚᱬ
ᱡᱷᱚᱱ
ᱡᱷᱚᱵᱽ
ᱡᱷᱟ
ᱡᱷᱟᱞ
ᱡᱷᱟᱞᱟᱠ
ᱡᱷᱟᱞᱠᱟᱣ
ᱡᱷᱟᱞᱠᱟᱣᱜ
ᱡᱷᱟᱞᱣᱟᱲ
ᱡᱷᱟᱞᱨᱟᱯᱟᱴᱟᱱ
ᱡᱷᱟᱞᱫᱟ
ᱡᱷᱟᱡᱽᱡᱟᱨ
ᱡᱷᱟᱨ
ᱡᱷᱟᱨᱠᱟᱸᱰ
ᱡᱷᱟᱨᱠᱷᱚᱱᱰ
ᱡᱷᱟᱨᱠᱷᱚᱸᱰ
ᱡᱷᱟᱨᱠᱷᱟᱱᱰ
ᱡᱷᱟᱨᱤᱭᱟ
ᱡᱷᱟᱨᱥᱩᱜᱩᱰᱟ
ᱡᱷᱟᱨᱯᱚᱠᱷᱚᱨᱤᱭᱟ
ᱡᱷᱟᱨᱱᱟ
ᱡᱷᱟᱯᱟ
ᱡᱷᱟᱯᱴᱟᱣ
ᱡᱷᱟᱱᱰᱟ
ᱡᱷᱟᱲ
ᱡᱷᱟᱲᱜᱨᱟᱢ
ᱡᱷᱟᱲᱜᱽᱨᱟᱢ
ᱡᱷᱟᱲᱟ
ᱡᱷᱟᱲᱠᱷᱚᱱᱰ
ᱡᱷᱟᱲᱠᱷᱚᱸᱰ
ᱡᱷᱟᱴᱠᱟ
ᱡᱷᱟᱵᱩᱣᱟ
ᱡᱷᱟᱸᱣᱟᱨ
ᱡᱷᱟᱸᱥᱤ
ᱡᱷᱟᱹᱞ
ᱡᱷᱟᱹᱞᱟᱜ
ᱡᱷᱟᱹᱞᱤ
ᱡᱷᱟᱹᱯᱱᱤ
ᱡᱷᱤ
ᱡᱷᱤᱜ
ᱡᱷᱤᱝᱜᱟᱹ
ᱡᱷᱤᱞ
ᱡᱷᱤᱡ
ᱡᱷᱤᱦ
ᱡᱷᱤᱱᱟᱭᱤᱫᱚᱦ
ᱡᱷᱤᱱᱟᱭᱫᱚᱦᱚ
ᱡᱷᱩᱢᱨᱤ
ᱡᱷᱩᱨ
ᱡᱷᱩᱱᱠᱟᱹ
ᱡᱷᱩᱱᱡᱷᱩᱱᱩ
ᱡᱷᱩᱲ
ᱡᱷᱮᱞᱚᱢ
ᱡᱷᱮᱸᱴ
ᱡᱽ
ᱡᱽᱭᱳᱛᱤ
ᱢ
ᱢᱚ
ᱢᱚᱛ
ᱢᱚᱛᱚ
ᱢᱚᱛᱚᱵᱟᱫᱽ
ᱢᱚᱛᱛᱮ
ᱢᱚᱛᱞᱚᱵᱽ
ᱢᱚᱛᱟ
ᱢᱚᱛᱣᱟᱱᱤ
ᱢᱚᱛᱤ
ᱢᱚᱛᱤᱞᱟᱞ
ᱢᱚᱛᱤᱦᱟᱨᱤ
ᱢᱚᱛᱨᱚ
ᱢᱚᱛᱨᱤ
ᱢᱚᱛᱷᱩᱨᱟ
ᱢᱚᱜᱚᱞ
ᱢᱚᱜᱚᱫᱷ
ᱢᱚᱜᱚᱫᱷᱤ
ᱢᱚᱜᱟ
ᱢᱚᱝ
ᱢᱚᱝᱜᱚᱞ
ᱢᱚᱝᱜᱚᱞᱤᱭᱟ
ᱢᱚᱝᱜᱚᱞᱤᱭᱟᱱ
ᱢᱚᱝᱞᱟ
ᱢᱚᱝᱥᱮᱱ
ᱢᱚᱞ
ᱢᱚᱞᱚᱝ
ᱢᱚᱞᱞᱟᱦᱟᱴ
ᱢᱚᱞᱞᱤᱠᱟ
ᱢᱚᱞᱟᱞᱟ
ᱢᱚᱞᱟᱭᱟᱞᱚᱢ
ᱢᱚᱞᱤᱠ
ᱢᱚᱞᱤᱠᱟ
ᱢᱚᱞᱭᱟᱞᱚᱢ
ᱢᱚᱠᱚᱠᱥᱟᱝ
ᱢᱚᱠᱚᱨ
ᱢᱚᱠᱟ
ᱢᱚᱠᱠᱟ
ᱢᱚᱡ
ᱢᱚᱡᱟ
ᱢᱚᱡᱟᱠ
ᱢᱚᱡᱩᱢᱫᱟᱨ
ᱢᱚᱡᱽ
ᱢᱚᱡᱽᱛᱮ
ᱢᱚᱢᱚ
ᱢᱚᱢᱚᱛᱟ
ᱢᱚᱢᱛᱟ
ᱢᱚᱢᱛᱟᱡᱽ
ᱢᱚᱢᱞᱟ
ᱢᱚᱢᱤᱛ
ᱢᱚᱣᱡᱟ
ᱢᱚᱣᱡᱽᱟ
ᱢᱚᱣᱨᱤᱛᱟᱱᱤᱭᱟ
ᱢᱚᱣᱨᱭᱚ
ᱢᱚᱣᱨᱭᱟ
ᱢᱚᱥᱚᱞ
ᱢᱚᱥᱚᱞᱟ
ᱢᱚᱥᱚᱞᱥ
ᱢᱚᱥᱚᱡᱤᱫ
ᱢᱚᱥᱞᱟ
ᱢᱚᱥᱟᱞᱟ
ᱢᱚᱥᱟᱱ
ᱢᱚᱥᱟᱵᱩᱱᱤ
ᱢᱚᱥᱠᱚ
ᱢᱚᱥᱠᱳ
ᱢᱚᱥᱡᱤᱫ
ᱢᱚᱥᱡᱤᱫᱽ
ᱢᱚᱥᱤᱦᱟ
ᱢᱚᱥᱤᱱ
ᱢᱚᱦᱚᱛ
ᱢᱚᱦᱚᱞ
ᱢᱚᱦᱚᱞᱞᱟ
ᱢᱚᱦᱚᱠᱩᱢᱟ
ᱢᱚᱦᱚᱢᱚᱫᱽ
ᱢᱚᱦᱚᱢᱢᱚᱫᱽ
ᱢᱚᱦᱚᱨ
ᱢᱚᱦᱚᱱ
ᱢᱚᱦᱚᱱᱛᱚ
ᱢᱚᱦᱚᱱᱫᱟᱥ
ᱢᱚᱦᱚᱱᱯᱩᱨ
ᱢᱚᱦᱚᱵᱩᱵᱟᱵᱟᱫᱽ
ᱢᱚᱦᱞᱟ
ᱢᱚᱦᱟ
ᱢᱚᱦᱟᱛᱢᱟ
ᱢᱚᱦᱟᱞᱚᱭᱟ
ᱢᱚᱦᱟᱞᱤ
ᱢᱚᱦᱟᱠᱟᱥ
ᱢᱚᱦᱟᱠᱟᱥᱪᱟᱨᱤ
ᱢᱚᱦᱟᱠᱩᱢᱟ
ᱢᱚᱦᱟᱡᱚᱱ
ᱢᱚᱦᱟᱢᱟᱭᱟ
ᱢᱚᱦᱟᱢᱢᱚᱫᱽ
ᱢᱚᱦᱟᱥᱚᱵᱷᱟ
ᱢᱚᱦᱟᱨᱟᱡᱟ
ᱢᱚᱦᱟᱨᱟᱡᱽ
ᱢᱚᱦᱟᱨᱟᱡᱽᱜᱚᱸᱡᱽ
ᱢᱚᱦᱟᱨᱟᱥᱴᱨᱚ
ᱢᱚᱦᱟᱨᱟᱱᱤ
ᱢᱚᱦᱟᱨᱥᱴᱨᱚ
ᱢᱚᱦᱟᱫᱚᱨᱮᱭᱟ
ᱢᱚᱦᱟᱫᱮᱣ
ᱢᱚᱦᱟᱫᱮᱥ
ᱢᱚᱦᱟᱫᱮᱵ
ᱢᱚᱦᱟᱫᱮᱵᱽ
ᱢᱚᱦᱟᱫᱮᱵᱽᱯᱩᱨ
ᱢᱚᱦᱟᱯᱟᱛᱨᱚ
ᱢᱚᱦᱟᱱ
ᱢᱚᱦᱟᱱᱚᱫᱤ
ᱢᱚᱦᱟᱱᱛᱤ
ᱢᱚᱦᱟᱵᱤᱨ
ᱢᱚᱦᱟᱵᱤᱫᱫᱟᱞᱚᱭ
ᱢᱚᱦᱟᱵᱤᱫᱽᱫᱟᱞᱚᱭ
ᱢᱚᱦᱟᱵᱤᱫᱽᱭᱟᱞᱚᱭ
ᱢᱚᱦᱟᱵᱷᱟᱨᱚᱛ
ᱢᱚᱦᱠᱩᱢᱟ
ᱢᱚᱦᱢᱚᱫᱽ
ᱢᱚᱦᱤᱞᱟ
ᱢᱚᱦᱤᱣᱟᱞ
ᱢᱚᱦᱤᱥᱟᱥᱩᱨ
ᱢᱚᱦᱤᱥᱩᱨ
ᱢᱚᱦᱤᱱᱤ
ᱢᱚᱦᱤᱱᱤᱟᱴᱴᱚᱢ
ᱢᱚᱦᱩᱞᱰᱤᱦᱟ
ᱢᱚᱦᱩᱠᱢᱟ
ᱢᱚᱦᱩᱣᱟ
ᱢᱚᱦᱮᱥ
ᱢᱚᱦᱮᱥᱯᱩᱨ
ᱢᱚᱦᱮᱱᱫᱨᱚ
ᱢᱚᱦᱮᱱᱫᱽᱨᱚ
ᱢᱚᱦᱮᱱᱫᱽᱨᱚᱜᱚᱲ
ᱢᱚᱦᱰᱟ
ᱢᱚᱦᱳᱱ
ᱢᱚᱦᱵᱩᱵᱽᱱᱟᱜᱟᱨ
ᱢᱚᱧᱡᱽ
ᱢᱚᱧᱪᱚ
ᱢᱚᱨᱚᱠᱠᱳ
ᱢᱚᱨᱟᱨᱤ
ᱢᱚᱨᱟᱫᱟᱵᱟᱫᱽ
ᱢᱚᱨᱟᱱ
ᱢᱚᱨᱟᱴᱷᱟ
ᱢᱚᱨᱟᱴᱷᱤ
ᱢᱚᱨᱡᱟᱫᱟ
ᱢᱚᱨᱤ
ᱢᱚᱨᱤᱥᱚᱥ
ᱢᱚᱨᱤᱥᱟᱥ
ᱢᱚᱨᱥᱤ
ᱢᱚᱨᱥᱵᱤ
ᱢᱚᱨᱪᱟ
ᱢᱚᱨᱭᱚ
ᱢᱚᱨᱳᱠᱠᱳ
ᱢᱚᱨᱵᱤ
ᱢᱚᱪᱟ
ᱢᱚᱫᱚᱨ
ᱢᱚᱫᱚᱱ
ᱢᱚᱫᱤ
ᱢᱚᱫᱤᱱᱟ
ᱢᱚᱫᱷᱩ
ᱢᱚᱫᱷᱩᱢᱤᱛᱟ
ᱢᱚᱫᱷᱩᱥᱩᱫᱚᱱ
ᱢᱚᱫᱷᱩᱯᱩᱨ
ᱢᱚᱫᱷᱩᱵᱚᱱᱤ
ᱢᱚᱫᱷᱭᱚ
ᱢᱚᱫᱷᱭᱚᱢ
ᱢᱚᱫᱽᱨᱟᱥ
ᱢᱚᱫᱽᱨᱟᱥᱟ
ᱢᱚᱬᱤ
ᱢᱚᱬᱤᱯᱩᱨ
ᱢᱚᱬᱤᱯᱩᱨᱤ
ᱢᱚᱬᱮ
ᱢᱚᱬᱮᱜᱮᱞ
ᱢᱚᱬᱮᱭᱟᱜ
ᱢᱚᱭᱛᱷᱤᱞᱤ
ᱢᱚᱭᱢᱚᱱᱥᱤᱝᱦᱚ
ᱢᱚᱭᱤ
ᱢᱚᱭᱤᱫᱟ
ᱢᱚᱭᱩᱨ
ᱢᱚᱭᱩᱨᱟᱠᱠᱷᱤ
ᱢᱚᱭᱩᱨᱫᱚᱨ
ᱢᱚᱭᱩᱨᱮᱥᱥᱚᱨ
ᱢᱚᱭᱩᱨᱵᱷᱚᱸᱡ
ᱢᱚᱭᱩᱨᱵᱷᱚᱸᱡᱽ
ᱢᱚᱭᱫᱟᱱ
ᱢᱚᱰᱚᱨᱱ
ᱢᱚᱰᱞᱤᱝ
ᱢᱚᱰᱟᱞ
ᱢᱚᱰᱤᱠᱮᱨᱤ
ᱢᱚᱰᱮᱞ
ᱢᱚᱰᱮᱞᱤᱝ
ᱢᱚᱱ
ᱢᱚᱱᱚ
ᱢᱚᱱᱚᱛ
ᱢᱚᱱᱚᱢᱚᱛᱤ
ᱢᱚᱱᱚᱫᱤᱨ
ᱢᱚᱱᱛᱤᱨᱤ
ᱢᱚᱱᱛᱨᱚᱱᱟᱞᱚᱭ
ᱢᱚᱱᱛᱨᱟᱞᱚᱭ
ᱢᱚᱱᱛᱨᱟᱱᱟᱞᱚᱭ
ᱢᱚᱱᱛᱨᱟᱲᱚᱭ
ᱢᱚᱱᱛᱨᱤ
ᱢᱚᱱᱛᱨᱤᱥᱟᱲᱟ
ᱢᱚᱱᱛᱨᱤᱭ
ᱢᱚᱱᱛᱨᱤᱭᱮ
ᱢᱚᱱᱡᱩ
ᱢᱚᱱᱢᱚᱦᱚᱱ
ᱢᱚᱱᱤ
ᱢᱚᱱᱤᱨᱟᱢ
ᱢᱚᱱᱤᱨᱟᱢᱯᱩᱨ
ᱢᱚᱱᱤᱯᱩᱨ
ᱢᱚᱱᱤᱯᱩᱨᱤ
ᱢᱚᱱᱥᱟ
ᱢᱚᱱᱨᱳ
ᱢᱚᱱᱩ
ᱢᱚᱱᱫᱤᱨ
ᱢᱚᱱᱮ
ᱢᱚᱱᱮᱨ
ᱢᱚᱱᱮᱨᱮ
ᱢᱚᱱᱮᱭ
ᱢᱚᱱᱮᱭᱟ
ᱢᱚᱱᱰᱚᱞ
ᱢᱚᱱᱰᱚᱯ
ᱢᱚᱱᱰᱚᱲ
ᱢᱚᱱᱰᱚᱲᱤ
ᱢᱚᱱᱳᱡ
ᱢᱚᱱᱳᱡᱽ
ᱢᱚᱱᱴᱮᱱᱤᱜᱨᱳ
ᱢᱚᱲᱮ
ᱢᱚᱴ
ᱢᱚᱴᱚᱠ
ᱢᱚᱴᱚᱨ
ᱢᱚᱴᱟ
ᱢᱚᱴᱟᱜ
ᱢᱚᱴᱩ
ᱢᱚᱴᱷ
ᱢᱚᱴᱷᱚ
ᱢᱚᱴᱷᱮ
ᱢᱚᱵᱟᱭᱤᱞ
ᱢᱚᱸᱛᱨᱤ
ᱢᱚᱸᱜᱚᱞ
ᱢᱚᱸᱡᱽ
ᱢᱚᱸᱪ
ᱢᱚᱸᱫᱤᱨ
ᱢᱚᱸᱰᱞᱤ
ᱢᱚᱸᱰᱤ
ᱢᱛ
ᱢᱛᱹ
ᱢᱟ
ᱢᱟᱛ
ᱢᱟᱛᱟ
ᱢᱟᱛᱟᱞ
ᱢᱟᱛᱠᱚᱢ
ᱢᱟᱛᱨᱚ
ᱢᱟᱛᱨᱟ
ᱢᱟᱛᱷᱩᱨ
ᱢᱟᱜ
ᱢᱟᱜᱟᱫᱷ
ᱢᱟᱜᱣᱟᱭ
ᱢᱟᱜᱩᱨᱟ
ᱢᱟᱜᱷ
ᱢᱟᱜᱷᱚᱨ
ᱢᱟᱜᱽ
ᱢᱟᱜᱽᱥᱤ
ᱢᱟᱝ
ᱢᱟᱞ
ᱢᱟᱞᱚᱛᱤ
ᱢᱟᱞᱚᱭ
ᱢᱟᱞᱚᱭᱟᱞᱚᱢ
ᱢᱟᱞᱚᱭᱥᱤᱭᱟ
ᱢᱟᱞᱚᱭᱮᱥᱤᱭᱟ
ᱢᱟᱞᱚᱭᱼᱯᱚᱞᱤᱱᱮᱥᱤᱭᱟᱱ
ᱢᱟᱞᱚᱴ
ᱢᱟᱞᱚᱴᱚᱜ
ᱢᱟᱞᱛᱳ
ᱢᱟᱞᱞᱟ
ᱢᱟᱞᱟ
ᱢᱟᱞᱟᱜᱟᱥᱤ
ᱢᱟᱞᱟᱭ
ᱢᱟᱞᱟᱭᱚᱞᱚᱢ
ᱢᱟᱞᱟᱭᱚᱢ
ᱢᱟᱞᱟᱭᱟᱞᱚᱢ
ᱢᱟᱞᱟᱭᱟᱞᱟᱢ
ᱢᱟᱞᱟᱭᱟᱢ
ᱢᱟᱞᱟᱯᱯᱩᱨᱚᱢ
ᱢᱟᱞᱟᱯᱯᱩᱨᱟᱢ
ᱢᱟᱞᱟᱵᱟᱨ
ᱢᱟᱞᱠᱟᱱᱜᱤᱨᱤ
ᱢᱟᱞᱠᱳᱣᱟ
ᱢᱟᱞᱣᱟ
ᱢᱟᱞᱣᱟᱨ
ᱢᱟᱞᱤ
ᱢᱟᱞᱤᱠ
ᱢᱟᱞᱤᱱᱤ
ᱢᱟᱞᱦᱚᱛᱨᱟ
ᱢᱟᱞᱦᱟᱱ
ᱢᱟᱞᱦᱳᱛᱨᱟ
ᱢᱟᱞᱩᱠᱩ
ᱢᱟᱞᱫᱟ
ᱢᱟᱞᱫᱤᱣ
ᱢᱟᱞᱫᱤᱣᱮᱥ
ᱢᱟᱞᱫᱤᱯ
ᱢᱟᱞᱫᱤᱵᱷᱤᱭᱟᱱ
ᱢᱟᱞᱮ
ᱢᱟᱞᱮᱥᱤᱭᱟ
ᱢᱟᱞᱴᱟ
ᱢᱟᱞᱴᱤ
ᱢᱟᱞᱴᱤᱥ
ᱢᱟᱞᱵᱷᱩᱢᱤ
ᱢᱟᱠᱟᱣ
ᱢᱟᱠᱥ
ᱢᱟᱠᱥᱣᱮᱞ
ᱢᱟᱡᱟ
ᱢᱟᱡᱟᱨ
ᱢᱟᱡᱤᱥᱴᱨᱮᱴ
ᱢᱟᱡᱩᱞᱤ
ᱢᱟᱡᱩᱨᱚ
ᱢᱟᱡᱷᱤ
ᱢᱟᱡᱷᱮ
ᱢᱟᱢᱚ
ᱢᱟᱢᱚᱛ
ᱢᱟᱢᱞᱟ
ᱢᱟᱢᱟ
ᱢᱟᱣ
ᱢᱟᱣᱞᱟᱢᱭᱤᱱ
ᱢᱟᱣᱨᱤ
ᱢᱟᱣᱩᱥ
ᱢᱟᱣᱩᱱᱴ
ᱢᱟᱣᱩᱸᱴ
ᱢᱟᱥ
ᱢᱟᱥᱟᱞᱟ
ᱢᱟᱥᱟᱞᱤᱭᱟᱹ
ᱢᱟᱥᱟᱞᱥ
ᱢᱟᱥᱠ
ᱢᱟᱥᱡᱤᱫᱽ
ᱢᱟᱥᱤᱱ
ᱢᱟᱥᱨᱟᱯᱷᱤ
ᱢᱟᱥᱮ
ᱢᱟᱥᱴᱚᱨ
ᱢᱟᱥᱴᱟᱨ
ᱢᱟᱥᱴᱟᱨᱥ
ᱢᱟᱦᱚᱞ
ᱢᱟᱦᱚᱵᱟ
ᱢᱟᱦᱛᱚ
ᱢᱟᱦᱞᱤ
ᱢᱟᱦᱟ
ᱢᱟᱦᱟᱛᱢᱟ
ᱢᱟᱦᱟᱛᱳ
ᱢᱟᱦᱟᱡᱚᱱ
ᱢᱟᱦᱟᱥᱟᱢᱩᱱᱫᱽ
ᱢᱟᱦᱟᱨᱟᱡᱟ
ᱢᱟᱦᱟᱨᱟᱡᱽ
ᱢᱟᱦᱟᱨᱟᱥᱴᱨᱚ
ᱢᱟᱦᱟᱨᱤ
ᱢᱟᱦᱟᱫᱚᱨᱭᱟ
ᱢᱟᱦᱟᱫᱤᱯ
ᱢᱟᱦᱟᱫᱮᱥ
ᱢᱟᱦᱟᱱ
ᱢᱟᱦᱟᱱᱚᱜᱚᱨ
ᱢᱟᱦᱟᱱᱚᱫᱤ
ᱢᱟᱦᱟᱱᱟᱜᱟᱨ
ᱢᱟᱦᱟᱵᱤᱫᱫᱟᱞᱚᱭ
ᱢᱟᱦᱟᱵᱤᱫᱽᱭᱟᱞᱚᱭ
ᱢᱟᱦᱟᱵᱷᱟᱨᱚᱛ
ᱢᱟᱦᱟᱸ
ᱢᱟᱦᱟᱸᱨᱤ
ᱢᱟᱦᱟᱸᱨᱮ
ᱢᱟᱦᱤ
ᱢᱟᱦᱤᱛ
ᱢᱟᱦᱮ
ᱢᱟᱦᱮᱛᱟ
ᱢᱟᱦᱮᱥ
ᱢᱟᱦᱮᱥᱯᱩᱨ
ᱢᱟᱦᱮᱨ
ᱢᱟᱦᱯᱷᱩᱡᱽ
ᱢᱟᱨᱜᱟᱨᱮᱴ
ᱢᱟᱨᱜᱷᱮᱨᱤᱴᱟ
ᱢᱟᱨᱜᱽ
ᱢᱟᱨᱟ
ᱢᱟᱨᱟᱛᱷᱚᱱ
ᱢᱟᱨᱟᱜ
ᱢᱟᱨᱟᱝ
ᱢᱟᱨᱟᱝᱟ
ᱢᱟᱨᱟᱝᱤᱡ
ᱢᱟᱨᱟᱝᱵᱩᱨᱩ
ᱢᱟᱨᱟᱝᱼᱟ
ᱢᱟᱨᱟᱢ
ᱢᱟᱨᱟᱣ
ᱢᱟᱨᱟᱱᱜ
ᱢᱟᱨᱟᱱᱰᱤ
ᱢᱟᱨᱟᱲ
ᱢᱟᱨᱟᱴᱷᱟ
ᱢᱟᱨᱟᱴᱷᱣᱟᱰᱟ
ᱢᱟᱨᱟᱴᱷᱣᱟᱲᱟ
ᱢᱟᱨᱟᱴᱷᱤ
ᱢᱟᱨᱟᱸ
ᱢᱟᱨᱠ
ᱢᱟᱨᱠᱚ
ᱢᱟᱨᱠᱤᱱ
ᱢᱟᱨᱠᱥ
ᱢᱟᱨᱠᱥᱤᱥᱴ
ᱢᱟᱨᱠᱥᱵᱟᱫᱤ
ᱢᱟᱨᱠᱥᱵᱟᱫᱽ
ᱢᱟᱨᱠᱮᱴ
ᱢᱟᱨᱠᱮᱴᱤᱝ
ᱢᱟᱨᱣᱟᱲᱤ
ᱢᱟᱨᱣᱤ
ᱢᱟᱨᱤ
ᱢᱟᱨᱤᱪ
ᱢᱟᱨᱤᱭᱟ
ᱢᱟᱨᱤᱱᱳ
ᱢᱟᱨᱥᱟᱞ
ᱢᱟᱨᱥᱢᱮᱞᱚ
ᱢᱟᱨᱥᱮᱞ
ᱢᱟᱨᱪ
ᱢᱟᱨᱮ
ᱢᱟᱨᱮᱭᱟ
ᱢᱟᱨᱮᱭᱟᱜ
ᱢᱟᱨᱮᱱ
ᱢᱟᱨᱮᱱᱟᱜ
ᱢᱟᱨᱴᱤᱱ
ᱢᱟᱪ
ᱢᱟᱪᱮᱛ
ᱢᱟᱪᱮᱛᱟᱱᱤ
ᱢᱟᱪᱮᱛᱟᱹᱱᱤ
ᱢᱟᱪᱮᱫ
ᱢᱟᱪᱷᱞᱤᱯᱟᱴᱱᱟᱢ
ᱢᱟᱪᱷᱟ
ᱢᱟᱫ
ᱢᱟᱫᱟᱜᱟᱥᱠᱟᱨ
ᱢᱟᱫᱟᱨ
ᱢᱟᱫᱟᱨᱤᱯᱩᱨ
ᱢᱟᱫᱨᱟᱥᱟ
ᱢᱟᱫᱨᱤᱫᱽ
ᱢᱟᱫᱩᱨᱟᱭ
ᱢᱟᱫᱩᱨᱤ
ᱢᱟᱫᱫᱷᱚᱢᱤᱠ
ᱢᱟᱫᱷᱚᱯᱩᱨ
ᱢᱟᱫᱷᱚᱵ
ᱢᱟᱫᱷᱚᱵᱽ
ᱢᱟᱫᱷᱣᱟᱱ
ᱢᱟᱫᱷᱩ
ᱢᱟᱫᱷᱩᱨᱤ
ᱢᱟᱫᱷᱩᱯᱩᱨ
ᱢᱟᱫᱷᱭᱚᱢ
ᱢᱟᱫᱷᱭᱚᱢᱤᱠ
ᱢᱟᱫᱷᱮᱯᱩᱨᱟ
ᱢᱟᱫᱽᱨᱟᱥ
ᱢᱟᱫᱽᱨᱤᱫᱽ
ᱢᱟᱫᱽᱫᱷᱚᱢᱤᱠ
ᱢᱟᱬᱛᱮ
ᱢᱟᱬᱜᱷᱟᱹᱴᱤ
ᱢᱟᱬᱟ
ᱢᱟᱬᱟᱝ
ᱢᱟᱬᱮ
ᱢᱟᱭ
ᱢᱟᱭᱛᱷᱤᱞᱤ
ᱢᱟᱭᱟ
ᱢᱟᱭᱟᱝ
ᱢᱟᱭᱟᱢ
ᱢᱟᱭᱟᱫᱷᱚᱨ
ᱢᱟᱭᱟᱱᱢᱟᱨ
ᱢᱟᱭᱠᱨᱚᱥᱚᱯᱴ
ᱢᱟᱭᱠᱨᱳᱵᱟᱭᱚᱞᱚᱡᱤ
ᱢᱟᱭᱠᱮᱞ
ᱢᱟᱭᱠᱮᱞᱟᱝᱡᱮᱞᱚ
ᱢᱟᱭᱡᱤᱣ
ᱢᱟᱭᱤ
ᱢᱟᱭᱤᱞ
ᱢᱟᱭᱥᱩᱨ
ᱢᱟᱭᱩᱱᱴ
ᱢᱟᱭᱮᱞ
ᱢᱟᱭᱱᱚ
ᱢᱟᱭᱱᱚᱨ
ᱢᱟᱭᱱᱤᱡᱽ
ᱢᱟᱭᱴᱷᱟᱱ
ᱢᱟᱯᱟᱧᱡᱤ
ᱢᱟᱰᱟᱝ
ᱢᱟᱰᱣᱟ
ᱢᱟᱰᱨᱟᱥ
ᱢᱟᱰᱨᱤᱰ
ᱢᱟᱰᱮᱨ
ᱢᱟᱱ
ᱢᱟᱱᱚᱛ
ᱢᱟᱱᱚᱛᱟᱱ
ᱢᱟᱱᱚᱛᱮ
ᱢᱟᱱᱚᱠ
ᱢᱟᱱᱚᱣ
ᱢᱟᱱᱚᱥ
ᱢᱟᱱᱚᱥᱤ
ᱢᱟᱱᱛᱟᱨ
ᱢᱟᱱᱛᱟᱨᱤ
ᱢᱟᱱᱜᱚ
ᱢᱟᱱᱟ
ᱢᱟᱱᱟᱜ
ᱢᱟᱱᱟᱞᱤ
ᱢᱟᱱᱟᱢᱟ
ᱢᱟᱱᱟᱣ
ᱢᱟᱱᱟᱣᱚᱜ
ᱢᱟᱱᱟᱣᱜ
ᱢᱟᱱᱟᱣᱟ
ᱢᱟᱱᱟᱣᱮᱫ
ᱢᱟᱱᱟᱣᱮᱫᱼᱟ
ᱢᱟᱱᱟᱣᱮᱭᱟ
ᱢᱟᱱᱟᱣᱼᱟ
ᱢᱟᱱᱟᱶ
ᱢᱟᱱᱟᱶᱟ
ᱢᱟᱱᱠᱟᱪᱚᱨ
ᱢᱟᱱᱢᱤ
ᱢᱟᱱᱣᱟ
ᱢᱟᱱᱤ
ᱢᱟᱱᱤᱞᱟ
ᱢᱟᱱᱤᱠ
ᱢᱟᱱᱤᱠᱜᱚᱸᱡᱽ
ᱢᱟᱱᱤᱯᱩᱨ
ᱢᱟᱱᱤᱯᱩᱨᱤ
ᱢᱟᱱᱥᱤᱝ
ᱢᱟᱱᱥᱤᱠ
ᱢᱟᱱᱩ
ᱢᱟᱱᱪᱤᱛᱟᱹᱨ
ᱢᱟᱱᱫᱟ
ᱢᱟᱱᱫᱟᱨ
ᱢᱟᱱᱫᱟᱨᱤᱱ
ᱢᱟᱱᱫᱤᱨ
ᱢᱟᱱᱮ
ᱢᱟᱱᱰᱟᱞ
ᱢᱟᱱᱰᱟᱞᱟᱭ
ᱢᱟᱱᱰᱟᱨ
ᱢᱟᱱᱰᱟᱨᱤᱱ
ᱢᱟᱱᱰᱤ
ᱢᱟᱱᱰᱩ
ᱢᱟᱱᱰᱮᱞᱟ
ᱢᱟᱱᱰᱮᱨ
ᱢᱟᱱᱵᱟᱡᱟᱨ
ᱢᱟᱱᱵᱷᱩᱢ
ᱢᱟᱱᱶᱟ
ᱢᱟᱲᱚᱛᱤ
ᱢᱟᱲᱟᱝ
ᱢᱟᱲᱤᱱᱤ
ᱢᱟᱳᱵᱟᱫᱤ
ᱢᱟᱴ
ᱢᱟᱴᱤᱥᱤ
ᱢᱟᱴᱴ
ᱢᱟᱴᱷ
ᱢᱟᱶᱴ
ᱢᱟᱶᱴᱮᱱ
ᱢᱟᱸ
ᱢᱟᱸᱜᱽᱞᱚᱨ
ᱢᱟᱸᱜᱽᱞᱳᱨ
ᱢᱟᱸᱡᱟᱱ
ᱢᱟᱸᱡᱷᱤ
ᱢᱟᱸᱫ
ᱢᱟᱸᱫᱽᱥᱚᱨ
ᱢᱟᱸᱰᱞᱟ
ᱢᱟᱸᱰᱣᱟ
ᱢᱟᱸᱰᱤ
ᱢᱟᱸᱰᱭᱟ
ᱢᱟᱸᱱᱢᱤ
ᱢᱟᱹ
ᱢᱟᱹᱞᱤ
ᱢᱟᱹᱞᱤᱠ
ᱢᱟᱹᱡᱷᱤ
ᱢᱟᱹᱢᱟᱹ
ᱢᱟᱹᱢᱤ
ᱢᱟᱹᱥᱤ
ᱢᱟᱹᱦᱤᱛ
ᱢᱟᱹᱧᱡᱩᱨ
ᱢᱟᱹᱧᱡᱽᱦᱤ
ᱢᱟᱹᱨᱤᱪ
ᱢᱟᱹᱨᱰᱤ
ᱢᱟᱹᱪᱤ
ᱢᱟᱹᱫᱽ
ᱢᱟᱹᱭ
ᱢᱟᱹᱭᱡᱤᱣ
ᱢᱟᱹᱭᱤᱞ
ᱢᱟᱹᱱ
ᱢᱟᱹᱱᱟᱱ
ᱢᱟᱹᱱᱢᱤ
ᱢᱟᱹᱱᱢᱤᱠᱚ
ᱢᱟᱹᱱᱢᱤᱭᱟᱜ
ᱢᱟᱹᱱᱤᱡ
ᱢᱟᱺ
ᱢᱟᱺᱡᱦᱤ
ᱢᱟᱺᱡᱷᱤ
ᱢᱟᱺᱦᱤᱛ
ᱢᱟᱺᱨᱰᱤ
ᱢᱟᱺᱭ
ᱢᱟᱺᱰᱤ
ᱢᱟᱺᱱ
ᱢᱤ
ᱢᱤᱛ
ᱢᱤᱛᱟ
ᱢᱤᱛᱨᱚ
ᱢᱤᱛᱨᱟ
ᱢᱤᱛᱷᱤᱞᱟ
ᱢᱤᱛᱷᱩᱱ
ᱢᱤᱜ
ᱢᱤᱞ
ᱢᱤᱞᱚᱱ
ᱢᱤᱞᱞᱤᱭᱚᱱ
ᱢᱤᱞᱞᱤᱭᱟᱱ
ᱢᱤᱞᱟ
ᱢᱤᱞᱟᱣ
ᱢᱤᱞᱟᱹᱣ
ᱢᱤᱞᱠ
ᱢᱤᱞᱤ
ᱢᱤᱞᱤᱢᱤᱴᱚᱨ
ᱢᱤᱞᱤᱢᱤᱴᱟᱨ
ᱢᱤᱞᱤᱭᱚᱱ
ᱢᱤᱞᱤᱭᱟ
ᱢᱤᱞᱤᱭᱟᱱ
ᱢᱤᱞᱤᱭᱳᱱ
ᱢᱤᱞᱤᱴᱟᱨᱤ
ᱢᱤᱠᱟᱛᱤ
ᱢᱤᱠᱤᱨ
ᱢᱤᱡᱚ
ᱢᱤᱡᱚᱨᱟᱢ
ᱢᱤᱡᱳ
ᱢᱤᱢᱟᱝᱥᱟ
ᱢᱤᱢᱤ
ᱢᱤᱢᱤᱫ
ᱢᱤᱣᱡᱤᱠ
ᱢᱤᱣᱡᱤᱭᱚᱢ
ᱢᱤᱣᱡᱤᱭᱟᱢ
ᱢᱤᱥ
ᱢᱤᱥᱚᱨ
ᱢᱤᱥᱚᱱ
ᱢᱤᱥᱚᱱᱟᱨᱤ
ᱢᱤᱥᱛᱨᱚ
ᱢᱤᱥᱟᱭᱤᱞ
ᱢᱤᱥᱟᱲᱟ
ᱢᱤᱥᱤ
ᱢᱤᱥᱤᱝ
ᱢᱤᱥᱤᱥᱤᱯᱤ
ᱢᱤᱥᱤᱱ
ᱢᱤᱥᱨᱚ
ᱢᱤᱥᱨᱟ
ᱢᱤᱥᱨᱟᱛ
ᱢᱤᱥᱨᱤ
ᱢᱤᱥᱮᱨᱟ
ᱢᱤᱥᱱᱚᱨᱤ
ᱢᱤᱥᱴᱚᱨ
ᱢᱤᱥᱴᱟᱨ
ᱢᱤᱦᱚᱨᱟ
ᱢᱤᱦᱤᱨ
ᱢᱤᱨ
ᱢᱤᱨᱛᱷᱤᱠᱟ
ᱢᱤᱨᱟ
ᱢᱤᱨᱟᱡᱽ
ᱢᱤᱨᱟᱴ
ᱢᱤᱨᱡᱟ
ᱢᱤᱨᱡᱟᱯᱩᱨ
ᱢᱤᱨᱤ
ᱢᱤᱨᱩ
ᱢᱤᱨᱪᱤ
ᱢᱤᱨᱮ
ᱢᱤᱨᱯᱩᱨ
ᱢᱤᱪᱤᱜᱟᱱ
ᱢᱤᱪᱷᱤᱞ
ᱢᱤᱫ
ᱢᱤᱫᱤᱱᱯᱩᱨ
ᱢᱤᱫᱥᱟᱭ
ᱢᱤᱫᱩᱜ
ᱢᱤᱫᱩᱱ
ᱢᱤᱫᱴᱟ
ᱢᱤᱫᱴᱟᱝ
ᱢᱤᱫᱴᱟᱹᱝ
ᱢᱤᱫᱴᱮᱱ
ᱢᱤᱫᱽ
ᱢᱤᱫᱽᱱᱟᱯᱩᱨ
ᱢᱤᱭ
ᱢᱤᱭᱟ
ᱢᱤᱭᱟᱱᱢᱟᱨ
ᱢᱤᱭᱩᱱᱤᱥᱤᱯᱟᱞᱤᱴᱤ
ᱢᱤᱭᱩᱱᱤᱥᱮᱯᱟᱞᱤᱴᱤ
ᱢᱤᱰ
ᱢᱤᱰᱤᱞ
ᱢᱤᱰᱤᱭᱟ
ᱢᱤᱰᱤᱭᱟᱢ
ᱢᱤᱱ
ᱢᱤᱱᱚᱛᱤ
ᱢᱤᱱᱟ
ᱢᱤᱱᱟᱝᱠᱟᱵᱟᱣ
ᱢᱤᱱᱟᱠᱥᱤ
ᱢᱤᱱᱟᱨ
ᱢᱤᱱᱟᱪᱷᱤ
ᱢᱤᱱᱤ
ᱢᱤᱱᱤᱥᱴᱚᱨ
ᱢᱤᱱᱤᱥᱴᱟᱨ
ᱢᱤᱱᱤᱥᱴᱨᱤ
ᱢᱤᱱᱤᱴ
ᱢᱤᱱᱩ
ᱢᱤᱴ
ᱢᱤᱴᱚᱨ
ᱢᱤᱴᱟ
ᱢᱤᱴᱟᱝ
ᱢᱤᱴᱟᱨ
ᱢᱤᱴᱟᱹᱨ
ᱢᱤᱴᱴᱟᱝ
ᱢᱤᱴᱷᱟ
ᱢᱤᱴᱷᱟᱯᱩᱠᱷᱩᱨ
ᱢᱤᱸᱣᱡᱤᱠ
ᱢᱨᱤᱱᱟᱞᱤᱱᱤ
ᱢᱨᱩ
ᱢᱩ
ᱢᱩᱛᱟ
ᱢᱩᱛᱟᱹᱱ
ᱢᱩᱛᱩᱞ
ᱢᱩᱛᱱᱤ
ᱢᱩᱜᱚᱞ
ᱢᱩᱜᱚᱞᱥᱚᱨᱟᱭ
ᱢᱩᱜᱟᱞ
ᱢᱩᱜᱩ
ᱢᱩᱜᱷᱚᱞ
ᱢᱩᱝ
ᱢᱩᱝᱜᱮᱞᱤ
ᱢᱩᱝᱜᱮᱨ
ᱢᱩᱞ
ᱢᱩᱞᱚᱠ
ᱢᱩᱞᱟ
ᱢᱩᱞᱤᱭᱟᱹ
ᱢᱩᱞᱩᱜ
ᱢᱩᱞᱩᱜᱩ
ᱢᱩᱞᱩᱠ
ᱢᱩᱠᱛᱚ
ᱢᱩᱠᱛᱤ
ᱢᱩᱠᱨᱩᱲ
ᱢᱩᱠᱩᱴ
ᱢᱩᱠᱮᱥ
ᱢᱩᱠᱷ
ᱢᱩᱠᱷᱚᱨᱡᱤ
ᱢᱩᱠᱷᱟᱨᱡᱤ
ᱢᱩᱠᱷᱤ
ᱢᱩᱠᱷᱤᱭᱟ
ᱢᱩᱠᱷᱤᱭᱟᱹ
ᱢᱩᱠᱷᱤᱭᱟᱹᱥᱟᱲᱟ
ᱢᱩᱠᱷᱭᱚ
ᱢᱩᱠᱷᱭᱟ
ᱢᱩᱠᱷᱭᱟᱹ
ᱢᱩᱡ
ᱢᱩᱡᱚᱯᱷᱚᱨᱯᱩᱨ
ᱢᱩᱡᱚᱯᱷᱚᱨᱱᱚᱜᱚᱨ
ᱢᱩᱡᱤᱵᱩᱨ
ᱢᱩᱡᱤᱵᱽ
ᱢᱩᱢᱵᱟᱭ
ᱢᱩᱢᱵᱟᱭᱤ
ᱢᱩᱢᱵᱟᱹᱭ
ᱢᱩᱥᱚᱞᱢᱟᱱ
ᱢᱩᱥᱛᱚᱯᱷᱟ
ᱢᱩᱥᱞᱟ
ᱢᱩᱥᱞᱟᱹ
ᱢᱩᱥᱞᱤᱢ
ᱢᱩᱥᱟ
ᱢᱩᱥᱟᱞᱢᱟᱱ
ᱢᱩᱥᱠᱤᱞ
ᱢᱩᱥᱤ
ᱢᱩᱦᱚᱢᱚᱫᱽ
ᱢᱩᱦᱚᱢᱢᱚᱫᱽ
ᱢᱩᱦᱟᱢᱢᱚᱫ
ᱢᱩᱦᱟᱢᱢᱚᱫᱽ
ᱢᱩᱦᱤᱛ
ᱢᱩᱦᱤᱛᱟᱱ
ᱢᱩᱦᱤᱢ
ᱢᱩᱦᱩᱞᱰᱷᱤᱭᱟᱹ
ᱢᱩᱦᱩᱨᱤ
ᱢᱩᱧᱪᱩᱯᱩᱨᱤ
ᱢᱩᱨ
ᱢᱩᱨᱛᱤ
ᱢᱩᱨᱛᱤᱭ
ᱢᱩᱨᱜᱟ
ᱢᱩᱨᱜᱟᱹᱱ
ᱢᱩᱨᱟᱨᱚᱭ
ᱢᱩᱨᱟᱹᱭ
ᱢᱩᱨᱢᱩ
ᱢᱩᱨᱢᱩᱣᱟᱜ
ᱢᱩᱨᱤ
ᱢᱩᱨᱥᱤᱫᱟᱵᱟᱫᱽ
ᱢᱩᱨᱦᱩ
ᱢᱩᱨᱩᱛ
ᱢᱩᱨᱩᱠ
ᱢᱩᱨᱩᱫ
ᱢᱩᱨᱩᱯ
ᱢᱩᱨᱮᱱᱟ
ᱢᱩᱪ
ᱢᱩᱪᱟ
ᱢᱩᱪᱟᱹᱫ
ᱢᱩᱪᱟᱹᱫᱚᱜ
ᱢᱩᱪᱟᱹᱫᱚᱜᱼᱟ
ᱢᱩᱪᱟᱹᱫᱽ
ᱢᱩᱫ
ᱢᱩᱫᱟᱹᱢ
ᱢᱩᱫᱨᱮ
ᱢᱩᱫᱽ
ᱢᱩᱫᱽᱨᱤ
ᱢᱩᱫᱽᱨᱮ
ᱢᱩᱫᱽᱫᱟ
ᱢᱩᱬ
ᱢᱩᱬᱩᱛ
ᱢᱩᱬᱩᱫ
ᱢᱩᱯᱷᱛᱤ
ᱢᱩᱰᱨᱩᱡ
ᱢᱩᱰᱩ
ᱢᱩᱱ
ᱢᱩᱱᱜᱟᱹ
ᱢᱩᱱᱤ
ᱢᱩᱱᱤᱢ
ᱢᱩᱱᱤᱥ
ᱢᱩᱱᱤᱥᱤᱯᱟᱞ
ᱢᱩᱱᱤᱥᱤᱯᱟᱞᱤᱴᱤ
ᱢᱩᱱᱤᱥᱤᱯᱟᱞᱴᱤ
ᱢᱩᱱᱤᱯᱩᱨᱤ
ᱢᱩᱱᱥᱤᱜᱚᱸᱡᱽ
ᱢᱩᱱᱥᱤᱯᱟᱞᱴᱤ
ᱢᱩᱱᱫᱤᱞ
ᱢᱩᱱᱫᱤᱨ
ᱢᱩᱱᱫᱽᱨᱤ
ᱢᱩᱱᱮᱛᱨᱚ
ᱢᱩᱱᱰᱟ
ᱢᱩᱱᱰᱟᱨᱤ
ᱢᱩᱱᱰᱟᱹ
ᱢᱩᱱᱱᱟ
ᱢᱩᱲ
ᱢᱩᱲᱩᱛ
ᱢᱩᱲᱩᱫ
ᱢᱩᱴ
ᱢᱩᱴᱩ
ᱢᱩᱴᱷᱟ
ᱢᱩᱴᱷᱟᱱ
ᱢᱩᱴᱷᱟᱹ
ᱢᱩᱴᱷᱟᱹᱱ
ᱢᱩᱵᱷᱢᱮᱱᱴ
ᱢᱩᱵᱷᱤ
ᱢᱩᱸ
ᱢᱩᱸᱫ
ᱢᱩᱸᱫᱤᱨ
ᱢᱩᱸᱫᱨᱤ
ᱢᱩᱸᱫᱽ
ᱢᱩᱸᱫᱽᱨᱤ
ᱢᱩᱸᱫᱽᱨᱮ
ᱢᱩᱸᱰᱟ
ᱢᱩᱸᱰᱟᱹ
ᱢᱩᱸᱰᱩ
ᱢᱭᱟᱱᱢᱟᱨ
ᱢᱭᱩᱡᱤᱠ
ᱢᱭᱩᱡᱤᱥᱤᱭᱟᱱ
ᱢᱭᱩᱡᱤᱭᱚᱢ
ᱢᱭᱩᱨᱵᱷᱸᱡᱽ
ᱢᱮ
ᱢᱮᱛ
ᱢᱮᱛᱟ
ᱢᱮᱛᱟᱜ
ᱢᱮᱛᱟᱜᱟᱜ
ᱢᱮᱛᱟᱜᱻᱟ
ᱢᱮᱛᱟᱜᱼᱟ
ᱢᱮᱛᱟᱠᱚ
ᱢᱮᱛᱟᱠᱚᱣᱟ
ᱢᱮᱛᱟᱣ
ᱢᱮᱛᱟᱣᱟᱜ
ᱢᱮᱛᱟᱣᱟᱜᱼᱟ
ᱢᱮᱛᱟᱣᱟᱠᱚ
ᱢᱮᱛᱟᱦᱟᱜ
ᱢᱮᱛᱟᱦᱟᱜᱼᱟ
ᱢᱮᱛᱟᱫ
ᱢᱮᱛᱟᱫᱮᱭᱟ
ᱢᱮᱛᱟᱭ
ᱢᱮᱛᱟᱭᱟ
ᱢᱮᱛᱮ
ᱢᱮᱜᱟ
ᱢᱮᱜᱟᱡᱤᱱ
ᱢᱮᱜᱟᱣᱟᱴ
ᱢᱮᱜᱟᱱ
ᱢᱮᱜᱷᱟᱞᱚᱭ
ᱢᱮᱜᱷᱟᱦᱟᱛᱩᱵᱩᱨᱩ
ᱢᱮᱜᱷᱱᱟ
ᱢᱮᱞ
ᱢᱮᱞᱟ
ᱢᱮᱞᱟᱝᱠᱤ
ᱢᱮᱞᱟᱱ
ᱢᱮᱞᱵᱳᱨᱱ
ᱢᱮᱠ
ᱢᱮᱠᱚᱝ
ᱢᱮᱠᱚᱨ
ᱢᱮᱠᱟᱱᱤᱠᱟᱞ
ᱢᱮᱠᱟᱱᱤᱠᱮᱞ
ᱢᱮᱠᱠᱟ
ᱢᱮᱠᱥ
ᱢᱮᱠᱥᱤᱠᱚ
ᱢᱮᱠᱥᱤᱠᱳ
ᱢᱮᱠᱷᱟᱱ
ᱢᱮᱡᱚᱨ
ᱢᱮᱡᱟᱨ
ᱢᱮᱡᱤᱠ
ᱢᱮᱢᱚᱨᱤ
ᱢᱮᱢᱚᱨᱤᱭᱟᱞ
ᱢᱮᱢᱚᱨᱤᱭᱟᱹᱞ
ᱢᱮᱢᱳᱨᱤᱭᱟᱞ
ᱢᱮᱢᱵᱚᱨ
ᱢᱮᱢᱵᱟᱨ
ᱢᱮᱥᱚᱯᱚᱴᱟᱢᱤᱭᱟ
ᱢᱮᱥᱟ
ᱢᱮᱥᱟᱜ
ᱢᱮᱥᱟᱜᱼᱟ
ᱢᱮᱥᱟᱞ
ᱢᱮᱥᱟᱣ
ᱢᱮᱥᱟᱭ
ᱢᱮᱥᱟᱭᱟ
ᱢᱮᱥᱟᱭᱮᱱᱟ
ᱢᱮᱥᱟᱶ
ᱢᱮᱥᱤ
ᱢᱮᱥᱤᱰᱳᱱᱤᱭᱟ
ᱢᱮᱥᱤᱰᱳᱱᱤᱭᱟᱱ
ᱢᱮᱥᱤᱱ
ᱢᱮᱥᱨᱟ
ᱢᱮᱥᱨᱮᱡ
ᱢᱮᱥᱮ
ᱢᱮᱥᱳᱯᱳᱴᱟᱢᱤᱭᱟ
ᱢᱮᱦᱛᱟ
ᱢᱮᱦᱥᱟᱱᱟ
ᱢᱮᱦᱨᱟ
ᱢᱮᱦᱮᱨ
ᱢᱮᱦᱮᱨᱯᱩᱨ
ᱢᱮᱨᱚᱢ
ᱢᱮᱨᱟ
ᱢᱮᱨᱟᱞ
ᱢᱮᱨᱟᱴ
ᱢᱮᱨᱤ
ᱢᱮᱨᱤᱞ
ᱢᱮᱨᱤᱡᱽ
ᱢᱮᱨᱤᱴ
ᱢᱮᱨᱥᱤᱱ
ᱢᱮᱨᱩ
ᱢᱮᱨᱮ
ᱢᱮᱪ
ᱢᱮᱪᱤ
ᱢᱮᱫ
ᱢᱮᱫᱚᱠ
ᱢᱮᱫᱤᱱᱤᱯᱩᱨ
ᱢᱮᱫᱤᱱᱤᱱᱚᱜᱚᱨ
ᱢᱮᱫᱦᱟ
ᱢᱮᱫᱷᱟ
ᱢᱮᱬᱦᱮᱫ
ᱢᱮᱬᱦᱮᱰ
ᱢᱮᱭ
ᱢᱮᱭᱚᱨ
ᱢᱮᱭᱛᱮᱭ
ᱢᱮᱭᱛᱷᱤᱞᱤ
ᱢᱮᱭᱞ
ᱢᱮᱭᱟ
ᱢᱮᱭᱟᱨ
ᱢᱮᱭᱥᱩᱨ
ᱢᱮᱭᱨᱤ
ᱢᱮᱭᱱ
ᱢᱮᱭᱱᱯᱩᱨᱤ
ᱢᱮᱯ
ᱢᱮᱰᱟᱞ
ᱢᱮᱰᱤᱠᱟᱞ
ᱢᱮᱰᱤᱠᱮᱞ
ᱢᱮᱰᱤᱥᱤᱱ
ᱢᱮᱰᱤᱭᱟ
ᱢᱮᱰᱤᱭᱟᱣᱤᱠᱤ
ᱢᱮᱰᱮᱞ
ᱢᱮᱱ
ᱢᱮᱱᱚᱜ
ᱢᱮᱱᱚᱜᱚᱜ
ᱢᱮᱱᱚᱜᱼᱟ
ᱢᱮᱱᱚᱠᱟ
ᱢᱮᱱᱚᱱ
ᱢᱮᱱᱛᱮ
ᱢᱮᱱᱛᱮᱠᱚ
ᱢᱮᱱᱛᱮᱫ
ᱢᱮᱱᱛᱮᱫᱚ
ᱢᱮᱱᱛᱮᱭ
ᱢᱮᱱᱛᱮᱭᱮ
ᱢᱮᱱᱜ
ᱢᱮᱱᱜᱟ
ᱢᱮᱱᱞᱮᱠᱷᱟᱱ
ᱢᱮᱱᱞᱮᱫᱟ
ᱢᱮᱱᱟ
ᱢᱮᱱᱟᱜ
ᱢᱮᱱᱟᱜᱟ
ᱢᱮᱱᱟᱜᱻᱟ
ᱢᱮᱱᱟᱜᱼᱟ
ᱢᱮᱱᱟᱜᱽᱟ
ᱢᱮᱱᱟᱠᱚ
ᱢᱮᱱᱟᱢᱟ
ᱢᱮᱱᱟᱭ
ᱢᱮᱱᱟᱭᱟ
ᱢᱮᱱᱠᱟ
ᱢᱮᱱᱠᱟᱷᱟᱱ
ᱢᱮᱱᱠᱦᱟᱱ
ᱢᱮᱱᱠᱷᱟᱱ
ᱢᱮᱱᱢᱮ
ᱢᱮᱱᱥᱚᱱ
ᱢᱮᱱᱥᱜ
ᱢᱮᱱᱫᱚ
ᱢᱮᱱᱮ
ᱢᱮᱱᱮᱛ
ᱢᱮᱱᱮᱛᱮ
ᱢᱮᱱᱮᱞᱟ
ᱢᱮᱱᱮᱠ
ᱢᱮᱱᱮᱡᱚᱨ
ᱢᱮᱱᱮᱡᱢᱮᱱᱴ
ᱢᱮᱱᱮᱡᱤᱝ
ᱢᱮᱱᱮᱡᱽᱢᱮᱱᱴ
ᱢᱮᱱᱮᱡᱽᱢᱮᱸᱴ
ᱢᱮᱱᱮᱫ
ᱢᱮᱱᱰᱮᱞᱮᱭᱮᱵᱷ
ᱢᱮᱱᱴᱚᱨ
ᱢᱮᱱᱼᱟ
ᱢᱮᱲᱟ
ᱢᱮᱲᱦᱮᱸᱫ
ᱢᱮᱴ
ᱢᱮᱴᱟ
ᱢᱮᱴᱟᱞ
ᱢᱮᱴᱟᱣ
ᱢᱮᱴᱟᱨ
ᱢᱮᱴᱨᱚ
ᱢᱮᱴᱨᱚᱯᱚᱞᱤᱴᱚᱱ
ᱢᱮᱴᱨᱤᱠ
ᱢᱮᱵᱟᱜ
ᱢᱮᱸ
ᱢᱮᱹ
ᱢᱮᱹᱭ
ᱢᱱ
ᱢᱳ
ᱢᱳᱜᱚᱞ
ᱢᱳᱞ
ᱢᱳᱞᱫᱳᱵᱷᱟ
ᱢᱳᱡᱟᱢᱵᱤᱠ
ᱢᱳᱣᱡᱟ
ᱢᱳᱣᱥᱩᱢᱤ
ᱢᱳᱥᱠᱳᱣ
ᱢᱳᱦᱚᱱ
ᱢᱳᱦᱟᱢᱢᱚᱫᱽ
ᱢᱳᱦᱟᱯᱟᱛᱨᱚ
ᱢᱳᱦᱟᱱᱛᱤ
ᱢᱳᱦᱤᱱᱤ
ᱢᱳᱦᱤᱱᱤᱭᱟᱴᱴᱚᱢ
ᱢᱳᱨ
ᱢᱳᱨᱚ
ᱢᱳᱨᱚᱝ
ᱢᱳᱨᱚᱰᱟ
ᱢᱳᱨᱟᱨᱡᱤ
ᱢᱳᱨᱪᱟ
ᱢᱳᱫᱤ
ᱢᱳᱰ
ᱢᱳᱰᱩᱞ
ᱢᱳᱰᱮᱞ
ᱢᱳᱱ
ᱢᱳᱱᱼᱠᱷᱚᱢᱮᱨ
ᱢᱳᱲᱮᱞᱜᱚᱸᱡᱽ
ᱢᱳᱴ
ᱢᱳᱴᱟ
ᱢᱳᱴᱩ
ᱢᱳᱴᱳᱨ
ᱢᱳᱵᱟᱭᱤᱞ
ᱢᱳᱹᱭᱛᱷᱤᱞᱤ
ᱣ
ᱣᱚᱜ
ᱣᱚᱠᱤᱞ
ᱣᱚᱨᱢᱟ
ᱣᱚᱨᱴᱮᱵᱚᱞ
ᱣᱚᱭᱜᱭᱟᱱᱤᱠ
ᱣᱜ
ᱣᱜᱼᱟ
ᱣᱟ
ᱣᱟᱜ
ᱣᱟᱞᱟ
ᱣᱟᱞᱰ
ᱣᱟᱞᱴ
ᱣᱟᱠᱚ
ᱣᱟᱠᱟᱱ
ᱣᱟᱠᱟᱱᱟ
ᱣᱟᱡᱟᱭᱱᱟ
ᱣᱟᱥᱤᱝᱴᱚᱱ
ᱣᱟᱥᱤᱝᱴᱳᱱ
ᱣᱟᱥᱤᱢ
ᱣᱟᱦ
ᱣᱟᱨ
ᱣᱟᱨᱞᱰ
ᱣᱟᱨᱟᱝ
ᱣᱟᱨᱟᱝᱜᱟᱞ
ᱣᱟᱨᱥ
ᱣᱟᱨᱥᱤ
ᱣᱟᱨᱩᱫᱽ
ᱣᱟᱨᱫᱷᱟ
ᱣᱟᱨᱰ
ᱣᱟᱫ
ᱣᱟᱭ
ᱣᱟᱭᱤᱰ
ᱣᱟᱭᱤᱵᱟ
ᱣᱟᱭᱱᱟᱰ
ᱣᱟᱱ
ᱣᱟᱱᱟᱥᱯᱟᱛᱤ
ᱣᱟᱴ
ᱣᱟᱴᱚᱨ
ᱣᱠᱟ
ᱣᱤ
ᱣᱤᱛᱷ
ᱣᱤᱜᱭᱟᱱ
ᱣᱤᱝ
ᱣᱤᱞᱤᱭᱚᱢ
ᱣᱤᱞᱤᱭᱟᱢ
ᱣᱤᱞᱤᱭᱟᱢᱥ
ᱣᱤᱠᱟᱥ
ᱣᱤᱠᱠᱤ
ᱣᱤᱠᱤ
ᱣᱤᱠᱤᱞᱤᱝᱠ
ᱣᱤᱠᱤᱢᱤᱰᱤᱭᱟ
ᱣᱤᱠᱤᱢᱩᱨᱟᱹᱭ
ᱣᱤᱠᱤᱢᱮᱰᱤᱭᱟ
ᱣᱤᱠᱤᱯᱤᱰᱤᱭᱟ
ᱣᱤᱠᱤᱯᱤᱰᱤᱭᱟᱱ
ᱣᱤᱠᱤᱯᱮᱰᱤᱭᱟ
ᱣᱤᱠᱤᱰᱟᱴᱟ
ᱣᱤᱠᱤᱰᱮᱴᱟ
ᱣᱤᱠᱨᱚᱢ
ᱣᱤᱠᱮᱴ
ᱣᱤᱠᱮᱴᱮ
ᱣᱤᱡ
ᱣᱤᱡᱚᱭ
ᱣᱤᱢᱮᱱ
ᱣᱤᱨ
ᱣᱤᱬᱟ
ᱣᱤᱯᱨᱳ
ᱣᱤᱰᱤᱭᱚ
ᱣᱤᱱᱥᱞᱮᱹᱴ
ᱣᱤᱱᱰᱚᱥ
ᱣᱨᱟ
ᱣᱨᱤ
ᱣᱩᱞ
ᱣᱭᱟᱯᱚᱠ
ᱣᱮ
ᱣᱮᱞᱛᱷ
ᱣᱮᱞᱤ
ᱣᱮᱞᱤᱝᱴᱚᱱ
ᱣᱮᱞᱥ
ᱣᱮᱥᱴ
ᱣᱮᱥᱴᱚᱨᱱ
ᱣᱮᱱ
ᱣᱮᱱᱟ
ᱣᱮᱵ
ᱣᱮᱵᱥᱟᱭᱤᱴ
ᱣᱮᱵᱽ
ᱣᱮᱵᱽᱥᱟᱭᱤᱴ
ᱣᱰᱤ
ᱣᱰᱤᱟ
ᱣᱳᱞᱠᱮᱱᱳ
ᱣᱳᱠᱷᱟ
ᱣᱻᱟ
ᱤ
ᱤᱛᱟᱞᱤ
ᱤᱛᱟᱹ
ᱤᱛᱤᱞ
ᱤᱛᱤᱦᱟᱥ
ᱤᱛᱩᱱ
ᱤᱛᱷᱤᱭᱳᱯᱤᱭᱟ
ᱤᱜᱽᱞᱩ
ᱤᱝᱜᱽᱞᱤᱥ
ᱤᱝᱜᱽᱞᱮᱱᱰ
ᱤᱝᱜᱽᱨᱟᱡᱤ
ᱤᱝᱜᱽᱨᱟᱹᱡᱤ
ᱤᱝᱜᱽᱨᱟᱹᱡᱽ
ᱤᱝᱞᱚᱸᱰ
ᱤᱝᱞᱟᱱᱰ
ᱤᱝᱞᱤᱥ
ᱤᱝᱞᱤᱥᱺ
ᱤᱝᱞᱮᱱᱰ
ᱤᱝᱠᱟ
ᱤᱝᱨᱟ
ᱤᱝᱨᱟᱡᱤ
ᱤᱝᱨᱟᱡᱽ
ᱤᱝᱨᱟᱹᱡᱤ
ᱤᱝᱨᱟᱹᱡᱤᱺ
ᱤᱝᱨᱟᱹᱡᱽ
ᱤᱝᱨᱮᱡ
ᱤᱝᱨᱮᱡᱤ
ᱤᱝᱨᱮᱡᱽ
ᱤᱞ
ᱤᱞᱞᱟᱦᱟᱵᱟᱫᱽ
ᱤᱞᱟ
ᱤᱞᱟᱠᱟ
ᱤᱞᱟᱢ
ᱤᱞᱟᱦᱟᱵᱟᱫᱽ
ᱤᱞᱟᱹᱠᱟ
ᱤᱞᱤᱢᱤᱱᱴ
ᱤᱞᱤᱢᱮᱱᱴ
ᱤᱞᱮᱠᱥᱚᱱ
ᱤᱞᱮᱠᱴᱨᱚᱱ
ᱤᱞᱮᱠᱴᱨᱚᱱᱤᱠ
ᱤᱞᱮᱠᱴᱨᱚᱱᱤᱠᱥ
ᱤᱞᱮᱠᱴᱨᱤᱠ
ᱤᱞᱮᱠᱴᱨᱤᱠᱟᱞ
ᱤᱞᱮᱠᱴᱨᱤᱯᱷᱤᱞᱰ
ᱤᱠᱚᱱᱚᱢᱤᱠᱥ
ᱤᱠᱟ
ᱤᱠᱟᱹ
ᱤᱠᱩᱣᱟᱰᱚᱨ
ᱤᱠᱳᱱᱳᱢᱤᱠᱥ
ᱤᱠᱵᱟᱞ
ᱤᱠᱷᱟ
ᱤᱠᱷᱟᱱ
ᱤᱠᱷᱟᱹᱱ
ᱤᱡ
ᱤᱡᱤᱯᱴ
ᱤᱡᱤᱯᱴᱤᱭᱟᱱ
ᱤᱡᱽ
ᱤᱡᱽᱨᱟᱭᱮᱞ
ᱤᱢᱟᱢ
ᱤᱢᱨᱟᱱ
ᱤᱢᱮᱞ
ᱤᱢᱯᱷᱟᱞ
ᱤᱣᱠᱨᱮᱱ
ᱤᱣᱠᱨᱮᱱᱤᱭᱟᱱ
ᱤᱣᱠᱨᱮᱱᱤᱭᱳ
ᱤᱣᱨᱟᱞᱤᱠ
ᱤᱣᱨᱳᱯ
ᱤᱣᱨᱳᱯᱤᱭᱚ
ᱤᱣᱨᱳᱯᱤᱭᱟᱱ
ᱤᱣᱱᱟᱭᱴᱮᱰ
ᱤᱣᱱᱤᱭᱚᱱ
ᱤᱣᱱᱤᱵᱷᱟᱨᱥ
ᱤᱥ
ᱤᱥᱚᱨ
ᱤᱥᱚᱭ
ᱤᱥᱛᱟᱱᱵᱩᱞ
ᱤᱥᱞᱟᱢ
ᱤᱥᱞᱟᱢᱟᱵᱟᱫᱽ
ᱤᱥᱞᱟᱢᱤ
ᱤᱥᱞᱟᱢᱤᱠ
ᱤᱥᱞᱟᱢᱤᱭᱟ
ᱤᱥᱞᱟᱢᱯᱩᱨ
ᱤᱥᱟ
ᱤᱥᱟᱠ
ᱤᱥᱟᱭ
ᱤᱥᱟᱱ
ᱤᱥᱟᱹᱭ
ᱤᱥᱠ
ᱤᱥᱠᱚᱱ
ᱤᱥᱠᱤᱞ
ᱤᱥᱠᱩᱞ
ᱤᱥᱢᱟᱭᱤᱞ
ᱤᱥᱢᱤᱞ
ᱤᱥᱣᱚᱨ
ᱤᱥᱤ
ᱤᱥᱤᱱ
ᱤᱥᱥᱚᱨ
ᱤᱥᱥᱚᱨᱫᱤ
ᱤᱥᱨᱚ
ᱤᱥᱨᱟᱭᱤᱞ
ᱤᱥᱨᱟᱭᱮᱞ
ᱤᱥᱨᱤ
ᱤᱥᱯᱟᱛ
ᱤᱥᱯᱤᱠᱟᱨ
ᱤᱥᱴ
ᱤᱥᱴᱚᱨᱱ
ᱤᱥᱴᱟᱨ
ᱤᱥᱴᱤᱞ
ᱤᱥᱴᱮᱥᱚᱱ
ᱤᱥᱴᱮᱱᱰ
ᱤᱥᱴᱮᱴ
ᱤᱦᱩᱫᱤ
ᱤᱧ
ᱤᱧᱟ
ᱤᱧᱟᱜ
ᱤᱧᱡᱤᱱ
ᱤᱧᱡᱤᱱᱤᱭᱚᱨ
ᱤᱧᱡᱤᱱᱤᱭᱚᱨᱤᱝ
ᱤᱧᱡᱤᱱᱤᱭᱟᱹᱨ
ᱤᱧᱪ
ᱤᱧᱪᱤ
ᱤᱨ
ᱤᱨᱚᱰ
ᱤᱨᱟ
ᱤᱨᱟᱠ
ᱤᱨᱟᱱ
ᱤᱨᱟᱱᱤ
ᱤᱨᱟᱱᱤᱭᱟᱱ
ᱤᱨᱟᱵᱚᱛᱤ
ᱤᱨᱟᱹᱞ
ᱤᱨᱟᱹᱞᱟᱜ
ᱤᱨᱟᱹᱞᱟᱱ
ᱤᱨᱤᱛᱨᱤᱭᱟ
ᱤᱨᱤᱞ
ᱤᱨᱯᱷᱟᱱ
ᱤᱪᱟ
ᱤᱪᱟᱹᱜ
ᱤᱪᱟᱹᱜᱜᱚᱲ
ᱤᱪᱟᱹᱨ
ᱤᱪᱪᱷᱟ
ᱤᱪᱷᱟ
ᱤᱫ
ᱤᱫᱤ
ᱤᱫᱤᱛᱮ
ᱤᱫᱤᱜ
ᱤᱫᱤᱜᱼᱟ
ᱤᱫᱤᱠᱟᱛᱮ
ᱤᱫᱤᱭ
ᱤᱫᱤᱭᱟ
ᱤᱫᱤᱭᱟᱛᱮ
ᱤᱫᱤᱭᱟᱛᱮᱫ
ᱤᱫᱤᱭᱮ
ᱤᱫᱤᱭᱮᱫ
ᱤᱫᱤᱭᱮᱭᱟ
ᱤᱫᱤᱭᱮᱱ
ᱤᱫᱤᱭᱮᱱᱟ
ᱤᱫᱽ
ᱤᱬᱤᱡ
ᱤᱭᱚᱨᱠ
ᱤᱭᱟ
ᱤᱭᱟᱥᱢᱤᱱ
ᱤᱭᱟᱨ
ᱤᱭᱟᱹ
ᱤᱭᱟᱹᱛᱮ
ᱤᱭᱩ
ᱤᱭᱩᱨᱚᱯ
ᱤᱭᱩᱨᱚᱯᱤᱭᱟᱱ
ᱤᱭᱩᱨᱳ
ᱤᱭᱩᱨᱳᱯ
ᱤᱭᱩᱨᱳᱯᱤᱭᱟᱱ
ᱤᱭᱩᱱᱤᱭᱚᱱ
ᱤᱭᱩᱱᱤᱭᱚᱱᱠᱚ
ᱤᱯᱤᱞ
ᱤᱯᱷᱮᱠᱴ
ᱤᱰᱞᱤ
ᱤᱰᱟᱦᱚ
ᱤᱰᱤ
ᱤᱰᱩᱠᱠᱤ
ᱤᱱ
ᱤᱱᱟ
ᱤᱱᱟᱹ
ᱤᱱᱟᱹᱜ
ᱤᱱᱟᱹᱦᱤᱞᱚᱜ
ᱤᱱᱠᱚᱢ
ᱤᱱᱠᱟ
ᱤᱱᱠᱟᱹ
ᱤᱱᱠᱭᱩᱵᱮᱴᱚᱨ
ᱤᱱᱡᱤᱱ
ᱤᱱᱡᱤᱱᱤᱭᱟᱨ
ᱤᱱᱡᱤᱱᱤᱭᱟᱨᱤᱝ
ᱤᱱᱤ
ᱤᱱᱤᱝᱥ
ᱤᱱᱤᱥᱤᱭᱮᱴᱤᱵᱷ
ᱤᱱᱥᱯᱮᱠᱴᱚᱨ
ᱤᱱᱥᱯᱮᱠᱴᱟᱨ
ᱤᱱᱥᱴᱟᱜᱽᱨᱟᱢ
ᱤᱱᱥᱴᱤᱪᱩᱴ
ᱤᱱᱥᱴᱤᱪᱭᱩᱴ
ᱤᱱᱥᱴᱤᱴᱤᱣᱩᱰ
ᱤᱱᱥᱴᱤᱴᱤᱣᱴ
ᱤᱱᱥᱴᱤᱴᱤᱭᱩᱰ
ᱤᱱᱥᱴᱤᱴᱤᱭᱩᱴ
ᱤᱱᱥᱴᱤᱴᱭᱩᱴ
ᱤᱱᱩᱭᱤᱴ
ᱤᱱᱪᱤ
ᱤᱱᱫᱚᱨ
ᱤᱱᱫᱤᱨᱟ
ᱤᱱᱫᱨᱚ
ᱤᱱᱫᱨᱟᱬᱤ
ᱤᱱᱫᱩ
ᱤᱱᱫᱩᱥ
ᱤᱱᱫᱳ
ᱤᱱᱫᱳᱱᱮᱥᱤᱭᱟ
ᱤᱱᱫᱳᱱᱮᱥᱤᱭᱟᱱ
ᱤᱱᱫᱳᱼᱟᱨᱡᱚ
ᱤᱱᱫᱳᱼᱤᱣᱨᱳᱯᱤᱭᱟᱱ
ᱤᱱᱫᱳᱼᱤᱨᱟᱱᱤᱭᱟᱱ
ᱤᱱᱫᱽᱨᱚ
ᱤᱱᱫᱽᱨᱟ
ᱤᱱᱮᱨᱡᱤ
ᱤᱱᱯᱷᱚᱨᱢᱮᱥᱚᱱ
ᱤᱱᱯᱷᱨᱟᱥᱴᱨᱚᱠᱪᱚᱨ
ᱤᱱᱯᱷᱳᱨᱢᱮᱥᱚᱱ
ᱤᱱᱰᱚ
ᱤᱱᱰᱚᱥᱴᱨᱤ
ᱤᱱᱰᱚᱥᱴᱨᱤᱡᱽ
ᱤᱱᱰᱚᱥᱴᱨᱤᱭᱟᱞ
ᱤᱱᱰᱚᱱᱮᱥᱤᱭᱟ
ᱤᱱᱰᱟᱥᱴᱨᱤ
ᱤᱱᱰᱟᱥᱴᱨᱤᱡᱽ
ᱤᱱᱰᱟᱥᱴᱨᱤᱭᱟᱞ
ᱤᱱᱰᱤᱜᱚ
ᱤᱱᱰᱤᱜᱳ
ᱤᱱᱰᱤᱡ
ᱤᱱᱰᱤᱡᱽ
ᱤᱱᱰᱤᱥᱴᱨᱤ
ᱤᱱᱰᱤᱭᱟ
ᱤᱱᱰᱤᱭᱟᱱ
ᱤᱱᱰᱳ
ᱤᱱᱰᱳᱱᱮᱥᱤᱭᱟ
ᱤᱱᱴᱚᱨ
ᱤᱱᱴᱚᱨᱯᱷᱮᱥ
ᱤᱱᱴᱚᱨᱱᱮᱥᱱᱚᱞ
ᱤᱱᱴᱚᱨᱱᱮᱥᱱᱟᱞ
ᱤᱱᱴᱚᱨᱱᱮᱴ
ᱤᱱᱴᱟᱨ
ᱤᱱᱴᱟᱨᱥᱤᱴᱤ
ᱤᱱᱴᱟᱨᱯᱮᱥ
ᱤᱱᱴᱟᱨᱯᱷᱮᱥ
ᱤᱱᱴᱟᱨᱱᱮᱥᱚᱱᱟᱞ
ᱤᱱᱴᱟᱨᱱᱮᱥᱱᱟᱞ
ᱤᱱᱴᱟᱨᱱᱮᱴ
ᱤᱱᱴᱤᱴᱭᱩᱴ
ᱤᱱᱴᱮᱞᱤᱡᱮᱱᱥ
ᱤᱲᱤ
ᱤᱴ
ᱤᱴᱟ
ᱤᱴᱟᱞᱤ
ᱤᱴᱟᱞᱤᱠ
ᱤᱴᱟᱞᱤᱭᱟᱱ
ᱤᱴᱟᱣᱟ
ᱤᱴᱟᱱᱚᱜᱚᱨ
ᱤᱴᱟᱹ
ᱤᱴᱠᱤ
ᱤᱵᱚᱱ
ᱤᱵᱱ
ᱤᱵᱷᱮᱱᱴ
ᱤᱵᱷᱮᱸᱴ
ᱤᱵᱽᱨᱟᱦᱤᱢ
ᱤᱵᱽᱱᱮ
ᱤᱸᱜᱨᱟᱡᱤ
ᱤᱸᱜᱽᱞᱚᱸᱰ
ᱤᱸᱜᱽᱞᱤᱥ
ᱤᱸᱜᱽᱨᱟ
ᱤᱸᱜᱽᱨᱟᱹᱡᱽ
ᱤᱸᱜᱽᱨᱮᱡᱽ
ᱤᱸᱝᱞᱤᱥ
ᱤᱸᱞᱤᱥ
ᱤᱸᱡᱟᱱ
ᱤᱸᱡᱤᱱᱤᱭᱚᱨ
ᱤᱸᱡᱤᱱᱤᱭᱚᱨᱤᱝ
ᱤᱸᱡᱤᱱᱤᱭᱟᱹᱨᱤᱝ
ᱤᱸᱪ
ᱤᱸᱫᱤᱨᱟ
ᱤᱸᱫᱽᱨᱟ
ᱤᱹ
ᱥ
ᱥᱚ
ᱥᱚᱛ
ᱥᱚᱛᱚ
ᱥᱚᱛᱚᱠ
ᱥᱚᱛᱛᱚ
ᱥᱚᱛᱟᱵᱫᱤ
ᱥᱚᱛᱟᱵᱽᱫᱤ
ᱥᱚᱛᱟᱵᱽᱫᱷᱤ
ᱥᱚᱛᱤ
ᱥᱚᱛᱨᱚ
ᱥᱚᱛᱨᱟ
ᱥᱚᱛᱭᱚ
ᱥᱚᱛᱭᱚᱡᱤᱛ
ᱥᱚᱛᱭᱚᱵᱷᱟᱢᱟ
ᱥᱚᱛᱭᱟ
ᱥᱚᱛᱭᱟᱜᱨᱚᱦᱚ
ᱥᱚᱛᱭᱟᱜᱽᱨᱚᱦᱚ
ᱥᱚᱜ
ᱥᱚᱜᱚᱨ
ᱥᱚᱜᱥᱮᱞᱮᱡ
ᱥᱚᱜᱥᱮᱴᱮᱡ
ᱥᱚᱝ
ᱥᱚᱝᱜᱚᱢ
ᱥᱚᱝᱜᱚᱴᱷᱚᱱ
ᱥᱚᱝᱜᱤᱛ
ᱥᱚᱝᱜᱮ
ᱥᱚᱝᱜᱷ
ᱥᱚᱝᱜᱷᱚ
ᱥᱚᱝᱜᱷᱚᱨᱥ
ᱥᱚᱝᱜᱷᱟ
ᱥᱚᱝᱜᱽᱨᱟᱢ
ᱥᱚᱝᱜᱽᱨᱟᱢᱯᱩᱨ
ᱥᱚᱝᱠᱚᱨ
ᱥᱚᱝᱠᱨᱟᱱᱛᱤ
ᱥᱚᱝᱠᱨᱤᱛ
ᱥᱚᱝᱢᱟ
ᱥᱚᱝᱥᱚᱫ
ᱥᱚᱝᱥᱚᱫᱤᱭᱟᱹ
ᱥᱚᱝᱥᱚᱫᱽ
ᱥᱚᱝᱥᱛᱷᱟ
ᱥᱚᱝᱥᱛᱷᱟᱱ
ᱥᱚᱝᱥᱟᱨ
ᱥᱚᱝᱥᱠᱨᱤᱛ
ᱥᱚᱝᱥᱩᱢᱩᱝ
ᱥᱚᱝᱵᱤᱫᱷᱟᱱ
ᱥᱚᱞᱚ
ᱥᱚᱞᱚᱢᱚᱱ
ᱥᱚᱞᱟᱨ
ᱥᱚᱞᱟᱯᱩᱨ
ᱥᱚᱞᱟᱱ
ᱥᱚᱞᱢᱟᱱ
ᱥᱚᱞᱤᱢ
ᱥᱚᱞᱤᱦᱟ
ᱥᱚᱞᱦᱟ
ᱥᱚᱞᱦᱮ
ᱥᱚᱞᱯᱷᱮᱴ
ᱥᱚᱠ
ᱥᱚᱠᱛᱚ
ᱥᱚᱠᱛᱤ
ᱥᱚᱠᱥᱮᱥ
ᱥᱚᱠᱨᱤᱭᱚ
ᱥᱚᱠᱨᱮᱴᱤᱥ
ᱥᱚᱠᱩᱱᱛᱚᱞᱟ
ᱥᱚᱠᱩᱱᱛᱚᱲᱟ
ᱥᱚᱠᱷ
ᱥᱚᱡᱷᱮ
ᱥᱚᱡᱽ
ᱥᱚᱢ
ᱥᱚᱢᱚᱥᱭᱟ
ᱥᱚᱢᱚᱥᱴᱤ
ᱥᱚᱢᱚᱥᱴᱷᱤ
ᱥᱚᱢᱚᱨᱛᱷᱚᱱ
ᱥᱚᱢᱚᱭ
ᱥᱚᱢᱚᱵᱷᱩᱢᱤ
ᱥᱚᱢᱟᱡ
ᱥᱚᱢᱟᱡᱤᱠ
ᱥᱚᱢᱟᱡᱽ
ᱥᱚᱢᱟᱡᱽᱵᱟᱫᱤ
ᱥᱚᱢᱟᱫᱷᱟᱱ
ᱥᱚᱢᱟᱫᱷᱤ
ᱥᱚᱢᱟᱱ
ᱥᱚᱢᱟᱱᱚᱜᱼᱟ
ᱥᱚᱢᱟᱱᱟ
ᱥᱚᱢᱠᱟᱞᱤᱱ
ᱥᱚᱢᱢᱟᱱ
ᱥᱚᱢᱢᱟᱱᱤᱛ
ᱥᱚᱢᱤ
ᱥᱚᱢᱤᱛᱤ
ᱥᱚᱢᱤᱨ
ᱥᱚᱢᱨᱟᱡᱽ
ᱥᱚᱢᱨᱟᱴ
ᱥᱚᱢᱩᱫᱟᱭ
ᱥᱚᱢᱮᱞᱚᱱ
ᱥᱚᱢᱯᱚᱛᱤ
ᱥᱚᱢᱯᱟᱫᱚᱠ
ᱥᱚᱢᱯᱩᱛᱤ
ᱥᱚᱢᱯᱩᱨᱩᱱ
ᱥᱚᱢᱱᱟᱛᱷ
ᱥᱚᱢᱵᱚᱛ
ᱥᱚᱢᱵᱚᱞᱯᱩᱨ
ᱥᱚᱢᱵᱚᱨ
ᱥᱚᱢᱵᱟᱫᱽ
ᱥᱚᱢᱵᱤᱫᱷᱟᱱ
ᱥᱚᱢᱵᱷᱚᱞ
ᱥᱚᱢᱵᱷᱚᱲ
ᱥᱚᱣ
ᱥᱚᱣᱨᱟᱥᱴᱨᱚ
ᱥᱚᱣᱫᱤ
ᱥᱚᱥᱚ
ᱥᱚᱥᱚᱞᱦᱟᱭᱤᱡ
ᱥᱚᱥᱛᱚᱨ
ᱥᱚᱥᱟᱞ
ᱥᱚᱥᱟᱭᱴᱤ
ᱥᱚᱥᱟᱱ
ᱥᱚᱥᱤ
ᱥᱚᱥᱤᱠᱚᱞᱟ
ᱥᱚᱥᱤᱭᱟᱞ
ᱥᱚᱥᱱᱚᱜ
ᱥᱚᱥᱴᱷᱤ
ᱥᱚᱦᱚ
ᱥᱚᱦᱚᱨ
ᱥᱚᱦᱚᱨᱟᱭ
ᱥᱚᱦᱚᱨᱤ
ᱥᱚᱦᱚᱨᱤᱭᱟᱹ
ᱥᱚᱦᱚᱨᱮ
ᱥᱚᱦᱚᱫ
ᱥᱚᱦᱚᱫᱤᱭᱟᱹ
ᱥᱚᱦᱟᱨ
ᱥᱚᱦᱟᱨᱚᱱᱯᱩᱨ
ᱥᱚᱦᱤᱫ
ᱥᱚᱦᱤᱫᱽ
ᱥᱚᱦᱨᱟᱭ
ᱥᱚᱦᱨᱤ
ᱥᱚᱦᱭᱟᱫᱽᱨᱤ
ᱥᱚᱦᱮᱛ
ᱥᱚᱦᱮᱫ
ᱥᱚᱦᱮᱫᱤᱭᱟ
ᱥᱚᱦᱮᱫᱤᱭᱟᱹ
ᱥᱚᱦᱮᱫᱮ
ᱥᱚᱧᱡᱚᱭ
ᱥᱚᱨ
ᱥᱚᱨᱚᱛ
ᱥᱚᱨᱚᱜᱽ
ᱥᱚᱨᱚᱠ
ᱥᱚᱨᱚᱠᱟᱨᱤ
ᱥᱚᱨᱚᱡᱤᱱᱤ
ᱥᱚᱨᱚᱥ
ᱥᱚᱨᱚᱥᱚᱛᱤ
ᱥᱚᱨᱚᱥᱣᱚᱛᱤ
ᱥᱚᱨᱚᱬ
ᱥᱚᱨᱛᱟᱡ
ᱥᱚᱨᱜᱚ
ᱥᱚᱨᱟᱭ
ᱥᱚᱨᱟᱭᱟᱦᱟᱴ
ᱥᱚᱨᱟᱵᱷᱟᱭᱤ
ᱥᱚᱨᱠᱟ
ᱥᱚᱨᱠᱟᱨ
ᱥᱚᱨᱠᱟᱨᱟᱜ
ᱥᱚᱨᱠᱟᱨᱤ
ᱥᱚᱨᱠᱟᱨᱤᱭᱟᱹ
ᱥᱚᱨᱠᱟᱨᱮ
ᱥᱚᱨᱠᱟᱨᱼᱟ
ᱥᱚᱨᱠᱟᱨᱼᱟᱜ
ᱥᱚᱨᱡᱚᱨᱤ
ᱥᱚᱨᱢᱟ
ᱥᱚᱨᱢᱟᱱ
ᱥᱚᱨᱢᱤᱞᱟ
ᱥᱚᱨᱤᱛᱟ
ᱥᱚᱨᱤᱭᱚᱛᱯᱩᱨ
ᱥᱚᱨᱤᱯᱷ
ᱥᱚᱨᱥᱚᱛᱤ
ᱥᱚᱨᱫᱟᱨ
ᱥᱚᱨᱮᱥ
ᱥᱚᱨᱮᱥᱟ
ᱥᱚᱨᱮᱥᱟᱱ
ᱥᱚᱨᱮᱱ
ᱥᱚᱨᱯᱚᱧᱪ
ᱥᱚᱨᱳᱡᱤᱱᱤ
ᱥᱚᱨᱴ
ᱥᱚᱨᱵᱚ
ᱥᱚᱨᱵᱚᱯᱚᱞᱞᱤ
ᱥᱚᱨᱵᱟᱱᱚᱱᱫᱚ
ᱥᱚᱨᱵᱷᱚᱨ
ᱥᱚᱨᱵᱷᱤᱥ
ᱥᱚᱨᱵᱷᱮ
ᱥᱚᱪᱤᱱ
ᱥᱚᱪᱤᱵ
ᱥᱚᱪᱤᱵᱽ
ᱥᱚᱫᱚᱥᱥᱚ
ᱥᱚᱫᱚᱥᱭᱚ
ᱥᱚᱫᱚᱨ
ᱥᱚᱫᱚᱨᱚᱜ
ᱥᱚᱫᱚᱨᱟ
ᱥᱚᱫᱚᱨᱟᱭ
ᱥᱚᱫᱚᱨᱤᱡ
ᱥᱚᱫᱚᱨᱮᱫ
ᱥᱚᱫᱚᱱ
ᱥᱚᱫᱤ
ᱥᱚᱫᱤᱭᱟ
ᱥᱚᱫᱽᱱᱤ
ᱥᱚᱭᱟᱵᱤᱱ
ᱥᱚᱭᱠᱤᱭᱟ
ᱥᱚᱭᱱᱤᱠ
ᱥᱚᱯ
ᱥᱚᱯᱚᱦᱚᱫ
ᱥᱚᱯᱛᱚᱢᱤ
ᱥᱚᱯᱛᱚᱨᱤ
ᱥᱚᱯᱳᱨᱴᱤᱝ
ᱥᱚᱯᱴᱟᱣᱟᱨ
ᱥᱚᱯᱴᱮᱭᱟᱨ
ᱥᱚᱯᱷᱚᱞ
ᱥᱚᱯᱷᱚᱞᱛᱟ
ᱥᱚᱯᱷᱴᱣᱮᱨ
ᱥᱚᱯᱷᱴᱣᱮᱭᱟᱨ
ᱥᱚᱰᱤᱭᱟᱢ
ᱥᱚᱱ
ᱥᱚᱱᱚᱛ
ᱥᱚᱱᱚᱣᱟᱞ
ᱥᱚᱱᱚᱫᱚᱨ
ᱥᱚᱱᱛᱚᱥ
ᱥᱚᱱᱛᱚᱨ
ᱥᱚᱱᱟ
ᱥᱚᱱᱟᱛᱚᱞᱟ
ᱥᱚᱱᱟᱛᱚᱱ
ᱥᱚᱱᱟᱞᱤ
ᱥᱚᱱᱟᱦᱟᱛᱩ
ᱥᱚᱱᱟᱨ
ᱥᱚᱱᱟᱨᱤ
ᱥᱚᱱᱟᱭ
ᱥᱚᱱᱡᱚᱭ
ᱥᱚᱱᱢᱟᱱ
ᱥᱚᱱᱤ
ᱥᱚᱱᱤᱛᱯᱩᱨ
ᱥᱚᱱᱤᱭᱟ
ᱥᱚᱱᱤᱯᱚᱛ
ᱥᱚᱱᱩ
ᱥᱚᱱᱫᱷᱭᱟ
ᱥᱚᱱᱮᱨ
ᱥᱚᱱᱮᱨᱥᱤᱫᱽ
ᱥᱚᱱᱮᱨᱮ
ᱥᱚᱱᱵᱷᱚᱫᱽᱨᱚ
ᱥᱚᱲᱚ
ᱥᱚᱲᱚᱠ
ᱥᱚᱲᱚᱢ
ᱥᱚᱲᱠᱚ
ᱥᱚᱲᱮ
ᱥᱚᱳᱡᱟ
ᱥᱚᱵ
ᱥᱚᱵᱚᱨ
ᱥᱚᱵᱚᱨᱱᱟᱠᱟ
ᱥᱚᱵᱚᱨᱱᱟᱠᱷᱟ
ᱥᱚᱵᱤᱛᱟ
ᱥᱚᱵᱦᱟ
ᱥᱚᱵᱫᱚ
ᱥᱚᱵᱰᱤᱵᱷᱤᱡᱚᱱ
ᱥᱚᱵᱷᱚᱭᱛᱟ
ᱥᱚᱵᱷᱟ
ᱥᱚᱵᱷᱟᱨᱮ
ᱥᱚᱵᱷᱟᱯᱚᱛᱤ
ᱥᱚᱵᱷᱤᱭᱮᱛ
ᱥᱚᱵᱷᱤᱭᱮᱴ
ᱥᱚᱵᱽ
ᱥᱚᱵᱽᱨᱩᱢ
ᱥᱚᱵᱽᱭᱚᱥᱟᱪᱤ
ᱥᱚᱵᱽᱰᱤᱵᱤᱡᱚᱱ
ᱥᱚᱵᱽᱰᱤᱵᱷᱤᱡᱚᱱ
ᱥᱚᱶᱫᱟ
ᱥᱚᱸᱛ
ᱥᱚᱸᱜᱚᱴᱷᱚᱱ
ᱥᱚᱸᱜᱤᱛ
ᱥᱚᱸᱜᱮ
ᱥᱚᱸᱜᱷ
ᱥᱚᱸᱠᱚᱨ
ᱥᱚᱸᱡᱚᱭ
ᱥᱚᱸᱥᱚᱫ
ᱥᱚᱸᱥᱚᱫᱽ
ᱥᱚᱸᱥᱛᱷᱟ
ᱥᱚᱸᱥᱛᱷᱟᱱ
ᱥᱚᱸᱥᱟᱨ
ᱥᱚᱸᱥᱠᱟᱨ
ᱥᱚᱸᱥᱠᱨᱤᱛ
ᱥᱚᱸᱥᱠᱨᱩᱛ
ᱥᱚᱸᱫᱤᱯᱟ
ᱥᱚᱸᱱᱥᱠᱨᱤᱛ
ᱥᱚᱸᱵᱟᱫᱽ
ᱥᱚᱸᱵᱤᱫᱷᱟᱱ
ᱥᱚᱹ
ᱥᱛᱚᱨ
ᱥᱛᱟᱨ
ᱥᱛᱤ
ᱥᱛᱨᱤ
ᱥᱛᱩᱯ
ᱥᱛᱷᱟᱭᱤ
ᱥᱛᱷᱤᱛᱤ
ᱥᱝᱥᱚᱫ
ᱥᱞᱟᱢ
ᱥᱞᱟᱵᱷᱤᱠ
ᱥᱞᱳᱜᱟᱱ
ᱥᱞᱳᱵᱷᱟᱠ
ᱥᱞᱳᱵᱷᱟᱠᱤᱭᱟ
ᱥᱞᱳᱵᱷᱮᱱ
ᱥᱞᱳᱵᱷᱮᱱᱤᱭᱟ
ᱥᱞᱳᱵᱷᱮᱱᱤᱭᱟᱱ
ᱥᱟ
ᱥᱟᱚᱢᱤ
ᱥᱟᱛ
ᱥᱟᱛᱚᱢ
ᱥᱟᱛᱞᱟᱜ
ᱥᱟᱛᱟᱢ
ᱥᱟᱛᱟᱨᱟ
ᱥᱟᱛᱟᱵᱟᱫᱤ
ᱥᱟᱛᱟᱵᱫᱤ
ᱥᱟᱛᱟᱵᱽᱫᱤ
ᱥᱟᱛᱠᱷᱤᱨᱟ
ᱥᱟᱛᱨᱮ
ᱥᱟᱛᱭᱟ
ᱥᱟᱛᱭᱮᱱᱫᱽᱨᱚ
ᱥᱟᱛᱮ
ᱥᱟᱛᱯᱩᱲᱟ
ᱥᱟᱛᱱᱟ
ᱥᱟᱛᱵᱟᱦᱚᱱ
ᱥᱟᱛᱷ
ᱥᱟᱛᱷᱟᱢ
ᱥᱟᱛᱷᱤ
ᱥᱟᱛᱷᱤᱭᱟ
ᱥᱟᱜ
ᱥᱟᱜᱚᱨ
ᱥᱟᱜᱟᱜ
ᱥᱟᱜᱟᱤᱝ
ᱥᱟᱜᱟᱨ
ᱥᱟᱜᱟᱲ
ᱥᱟᱜᱟᱲᱚᱢ
ᱥᱟᱜᱮ
ᱥᱟᱜᱮᱱ
ᱥᱟᱜᱮᱱᱚᱜ
ᱥᱟᱜᱷᱟᱴᱟ
ᱥᱟᱜᱽᱨᱟᱢ
ᱥᱟᱝ
ᱥᱟᱝᱜᱤᱛ
ᱥᱟᱝᱜᱤᱧ
ᱥᱟᱝᱜᱤᱧᱟ
ᱥᱟᱝᱜᱮ
ᱥᱟᱝᱜᱷᱟᱨ
ᱥᱟᱝᱜᱷᱟᱭ
ᱥᱟᱝᱞᱤ
ᱥᱟᱝᱠᱟᱨ
ᱥᱟᱝᱢᱟ
ᱥᱟᱝᱥᱚᱫᱽ
ᱥᱟᱝᱥᱠᱨᱤᱛ
ᱥᱟᱝᱦᱟᱭ
ᱥᱟᱝᱵᱟᱫᱤᱠ
ᱥᱟᱞ
ᱥᱟᱞᱚ
ᱥᱟᱞᱛᱟᱱᱟᱛ
ᱥᱟᱞᱟ
ᱥᱟᱞᱟᱜ
ᱥᱟᱞᱟᱢ
ᱥᱟᱞᱠᱷᱟᱱ
ᱥᱟᱞᱢᱟ
ᱥᱟᱞᱢᱟᱨᱟ
ᱥᱟᱞᱢᱟᱱ
ᱥᱟᱞᱤ
ᱥᱟᱞᱤᱠᱷᱟ
ᱥᱟᱞᱤᱱᱤ
ᱥᱟᱞᱨᱮ
ᱥᱟᱞᱮ
ᱥᱟᱞᱮᱢ
ᱥᱟᱞᱮᱨᱮ
ᱥᱟᱞᱵᱚᱱᱤ
ᱥᱟᱠᱚ
ᱥᱟᱠᱚᱢ
ᱥᱟᱠᱛᱤ
ᱥᱟᱠᱟᱢ
ᱥᱟᱠᱟᱢᱮ
ᱥᱟᱠᱣᱟ
ᱥᱟᱠᱤᱞ
ᱥᱟᱠᱤᱵᱽ
ᱥᱟᱠᱥᱤ
ᱥᱟᱠᱥᱮᱡᱽ
ᱥᱟᱠᱥᱮᱥ
ᱥᱟᱠᱥᱮᱱᱟ
ᱥᱟᱠᱨᱟᱛ
ᱥᱟᱠᱨᱮᱰ
ᱥᱟᱠᱲᱟ
ᱥᱟᱠᱳ
ᱥᱟᱠᱷᱟ
ᱥᱟᱠᱷᱤ
ᱥᱟᱠᱷᱤᱭᱟ
ᱥᱟᱠᱷᱭᱚᱨ
ᱥᱟᱠᱷᱭᱟᱹᱛ
ᱥᱟᱡᱟ
ᱥᱟᱡᱟᱣ
ᱥᱟᱡᱟᱣᱟ
ᱥᱟᱡᱟᱯᱩᱨ
ᱥᱟᱡᱽ
ᱥᱟᱢ
ᱥᱟᱢᱚᱞ
ᱥᱟᱢᱚᱨᱤᱠ
ᱥᱟᱢᱚᱱᱛᱚ
ᱥᱟᱢᱚᱴ
ᱥᱟᱢᱞᱤ
ᱥᱟᱢᱟ
ᱥᱟᱢᱟᱜ
ᱥᱟᱢᱟᱝ
ᱥᱟᱢᱟᱝᱼᱛᱟᱞᱢᱟ
ᱥᱟᱢᱟᱝᱼᱠᱚᱧᱮ
ᱥᱟᱢᱟᱝᱼᱠᱚᱸᱭᱮ
ᱥᱟᱢᱟᱝᱼᱯᱟᱪᱮ
ᱥᱟᱢᱟᱠᱷᱩᱱᱴᱟ
ᱥᱟᱢᱟᱡᱤᱠ
ᱥᱟᱢᱟᱡᱽ
ᱥᱟᱢᱟᱥᱛᱤᱯᱩᱨ
ᱥᱟᱢᱟᱪᱟᱨ
ᱥᱟᱢᱟᱱ
ᱥᱟᱢᱟᱱᱚᱢ
ᱥᱟᱢᱟᱱᱟᱢ
ᱥᱟᱢᱟᱱᱫᱽ
ᱥᱟᱢᱢᱟᱱᱤᱛ
ᱥᱟᱢᱢᱤ
ᱥᱟᱢᱤ
ᱥᱟᱢᱤᱛᱤ
ᱥᱟᱢᱤᱭᱟ
ᱥᱟᱢᱥᱩᱞ
ᱥᱟᱢᱨᱟᱡᱚ
ᱥᱟᱢᱨᱟᱡᱡᱚ
ᱥᱟᱢᱨᱟᱡᱽ
ᱥᱟᱢᱨᱟᱡᱽᱡᱚ
ᱥᱟᱢᱨᱟᱡᱽᱭᱚ
ᱥᱟᱢᱨᱟᱣ
ᱥᱟᱢᱨᱟᱴ
ᱥᱟᱢᱩᱛ
ᱥᱟᱢᱩᱫ
ᱥᱟᱢᱩᱫᱽ
ᱥᱟᱢᱩᱭᱮᱞ
ᱥᱟᱢᱮᱞᱟᱭ
ᱥᱟᱢᱱᱟ
ᱥᱟᱢᱲᱟᱣ
ᱥᱟᱢᱳᱣᱟᱱ
ᱥᱟᱢᱴᱟᱣ
ᱥᱟᱢᱵᱟ
ᱥᱟᱢᱵᱟᱣ
ᱥᱟᱢᱵᱲᱟᱣ
ᱥᱟᱢᱵᱽᱲᱟᱣ
ᱥᱟᱣ
ᱥᱟᱣᱛᱮ
ᱥᱟᱣᱛᱷ
ᱥᱟᱣᱟᱭ
ᱥᱟᱣᱩᱛᱷ
ᱥᱟᱣᱩᱱᱰ
ᱥᱟᱣᱫᱤ
ᱥᱟᱣᱱᱟ
ᱥᱟᱥ
ᱥᱟᱥᱚᱠ
ᱥᱟᱥᱚᱱ
ᱥᱟᱥᱚᱱᱚᱜ
ᱥᱟᱥᱚᱱᱤᱭᱟ
ᱥᱟᱥᱚᱱᱤᱭᱟᱹ
ᱥᱟᱥᱚᱱᱮᱫ
ᱥᱟᱥᱛᱚᱨ
ᱥᱟᱥᱛᱟ
ᱥᱟᱥᱛᱤ
ᱥᱟᱥᱛᱨᱚ
ᱥᱟᱥᱛᱨᱤ
ᱥᱟᱥᱛᱨᱤᱭ
ᱥᱟᱥᱛᱨᱤᱭᱚ
ᱥᱟᱥᱛᱷᱚ
ᱥᱟᱥᱟᱝ
ᱥᱟᱥᱟᱨᱟᱢ
ᱥᱟᱥᱟᱭ
ᱥᱟᱥᱟᱯᱲᱟᱣ
ᱥᱟᱥᱟᱯᱲᱟᱣᱤᱡ
ᱥᱟᱥᱤ
ᱥᱟᱥᱤᱛ
ᱥᱟᱥᱮᱛ
ᱥᱟᱦ
ᱥᱟᱦᱚ
ᱥᱟᱦᱚᱨ
ᱥᱟᱦᱚᱵ
ᱥᱟᱦᱟ
ᱥᱟᱦᱟᱜ
ᱥᱟᱦᱟᱣ
ᱥᱟᱦᱟᱥ
ᱥᱟᱦᱟᱨ
ᱥᱟᱦᱟᱨᱟ
ᱥᱟᱦᱟᱨᱥᱟ
ᱥᱟᱦᱟᱨᱮ
ᱥᱟᱦᱟᱭ
ᱥᱟᱦᱟᱱ
ᱥᱟᱦᱟᱵ
ᱥᱟᱦᱟᱵᱟᱫᱽ
ᱥᱟᱦᱟᱸᱥ
ᱥᱟᱦᱡᱟᱦᱟᱱ
ᱥᱟᱦᱡᱟᱦᱟᱸ
ᱥᱟᱦᱡᱟᱦᱟᱸᱯᱩᱨ
ᱥᱟᱦᱤ
ᱥᱟᱦᱤᱛ
ᱥᱟᱦᱤᱛᱛᱚ
ᱥᱟᱦᱤᱛᱭᱚ
ᱥᱟᱦᱤᱡ
ᱥᱟᱦᱤᱫᱽ
ᱥᱟᱦᱤᱵᱽ
ᱥᱟᱦᱤᱵᱽᱜᱚᱸᱡᱽ
ᱥᱟᱦᱨᱩᱠᱷ
ᱥᱟᱦᱩ
ᱥᱟᱦᱮᱫ
ᱥᱟᱦᱮᱵ
ᱥᱟᱦᱮᱵᱽ
ᱥᱟᱦᱮᱵᱽᱜᱚᱸᱡᱽ
ᱥᱟᱦᱯᱩᱨ
ᱥᱟᱦᱰᱚᱞ
ᱥᱟᱦᱱᱤ
ᱥᱟᱦᱴᱟ
ᱥᱟᱦᱴᱟᱠᱚ
ᱥᱟᱦᱴᱟᱨᱮ
ᱥᱟᱧᱪᱟᱣ
ᱥᱟᱨ
ᱥᱟᱨᱚᱡᱟ
ᱥᱟᱨᱚᱡᱽ
ᱥᱟᱨᱚᱥᱠᱚᱬᱟ
ᱥᱟᱨᱚᱫᱟ
ᱥᱟᱨᱚᱱ
ᱥᱟᱨᱚᱱᱰᱟ
ᱥᱟᱨᱚᱲᱟ
ᱥᱟᱨᱛᱮ
ᱥᱟᱨᱟ
ᱥᱟᱨᱟᱭᱠᱤ
ᱥᱟᱨᱠ
ᱥᱟᱨᱠᱚᱥ
ᱥᱟᱨᱠᱟᱥ
ᱥᱟᱨᱠᱟᱨ
ᱥᱟᱨᱠᱟᱨᱤ
ᱥᱟᱨᱠᱤᱴ
ᱥᱟᱨᱠᱮᱞ
ᱥᱟᱨᱡᱚᱢ
ᱥᱟᱨᱡᱟᱨᱤ
ᱥᱟᱨᱢᱟ
ᱥᱟᱨᱢᱤᱱ
ᱥᱟᱨᱣᱤᱥ
ᱥᱟᱨᱤ
ᱥᱟᱨᱤᱠᱟ
ᱥᱟᱨᱥ
ᱥᱟᱨᱥᱟ
ᱥᱟᱨᱥᱟᱣ
ᱥᱟᱨᱦᱟᱣ
ᱥᱟᱨᱦᱟᱣᱱᱟ
ᱥᱟᱨᱫᱟ
ᱥᱟᱨᱫᱟᱨ
ᱥᱟᱨᱮ
ᱥᱟᱨᱮᱡ
ᱥᱟᱨᱮᱡᱟᱜ
ᱥᱟᱨᱮᱡᱽ
ᱥᱟᱨᱮᱲ
ᱥᱟᱨᱱᱟ
ᱥᱟᱨᱴ
ᱥᱟᱨᱴᱤᱯᱷᱤᱠᱮᱴ
ᱥᱟᱨᱵᱤᱥ
ᱥᱟᱨᱵᱤᱭᱟ
ᱥᱟᱨᱵᱤᱭᱟᱱ
ᱥᱟᱨᱵᱷᱟᱨ
ᱥᱟᱨᱵᱷᱤᱥ
ᱥᱟᱨᱵᱷᱮ
ᱥᱟᱩᱛᱷ
ᱥᱟᱪᱟᱨᱦᱮ
ᱥᱟᱫᱚᱢ
ᱥᱟᱫᱟ
ᱥᱟᱫᱟᱨ
ᱥᱟᱫᱟᱱ
ᱥᱟᱫᱤ
ᱥᱟᱫᱩᱞᱞᱟᱯᱩᱨ
ᱥᱟᱫᱷᱚᱱ
ᱥᱟᱫᱷᱟᱨᱚᱬ
ᱥᱟᱫᱷᱟᱨᱚᱱ
ᱥᱟᱫᱷᱟᱬᱚᱱ
ᱥᱟᱫᱷᱤᱱ
ᱥᱟᱫᱷᱩ
ᱥᱟᱫᱷᱱᱟ
ᱥᱟᱫᱽᱨᱤ
ᱥᱟᱬᱮᱥ
ᱥᱟᱬᱮᱥᱤᱭᱟ
ᱥᱟᱬᱮᱥᱤᱭᱟᱹ
ᱥᱟᱬᱮᱥᱤᱭᱟᱹᱭ
ᱥᱟᱭ
ᱥᱟᱭᱚᱛ
ᱥᱟᱭᱚᱛᱛᱚᱥᱟᱥᱤᱛᱚ
ᱥᱟᱭᱛᱷᱤᱭᱟ
ᱥᱟᱭᱟᱝ
ᱥᱟᱭᱟᱱᱟᱜ
ᱥᱟᱭᱟᱸᱫ
ᱥᱟᱭᱠᱚᱞᱚᱡᱤ
ᱥᱟᱭᱠᱚᱨᱟ
ᱥᱟᱭᱠᱚᱲᱟ
ᱥᱟᱭᱠᱟᱨᱟ
ᱥᱟᱭᱠᱤᱞ
ᱥᱟᱭᱠᱮᱞ
ᱥᱟᱭᱠᱳᱞᱳᱡᱤ
ᱥᱟᱭᱢᱚᱱ
ᱥᱟᱭᱤ
ᱥᱟᱭᱤᱡᱽ
ᱥᱟᱭᱤᱰ
ᱥᱟᱭᱤᱱ
ᱥᱟᱭᱤᱱᱥ
ᱥᱟᱭᱤᱴ
ᱥᱟᱭᱥᱟᱞ
ᱥᱟᱭᱦᱟ
ᱥᱟᱭᱨᱟ
ᱥᱟᱭᱮᱱᱥ
ᱥᱟᱭᱯᱨᱟᱥ
ᱥᱟᱭᱱᱟ
ᱥᱟᱭᱱᱤᱠ
ᱥᱟᱭᱵᱮᱨᱤᱭᱟ
ᱥᱟᱭᱵᱮᱨᱤᱭᱟᱱ
ᱥᱟᱮᱬᱥ
ᱥᱟᱯᱞᱟᱭ
ᱥᱟᱯᱟ
ᱥᱟᱯᱟᱦᱟᱨ
ᱥᱟᱯᱟᱲᱟᱣ
ᱥᱟᱯᱟᱵ
ᱥᱟᱯᱟᱵᱽ
ᱥᱟᱯᱱᱟ
ᱥᱟᱯᱲᱟᱣ
ᱥᱟᱯᱲᱟᱣᱜ
ᱥᱟᱯᱲᱟᱣᱟ
ᱥᱟᱯᱲᱟᱣᱤᱡ
ᱥᱟᱯᱲᱮᱛ
ᱥᱟᱯᱲᱮᱫ
ᱥᱟᱯᱷᱟ
ᱥᱟᱯᱷᱟᱭ
ᱥᱟᱰᱮ
ᱥᱟᱰᱮᱭᱟ
ᱥᱟᱱ
ᱥᱟᱱᱛ
ᱥᱟᱱᱛᱚᱱᱩ
ᱥᱟᱱᱛᱟ
ᱥᱟᱱᱛᱟᱞ
ᱥᱟᱱᱛᱟᱞᱤ
ᱥᱟᱱᱛᱟᱲ
ᱥᱟᱱᱛᱟᱲᱟᱜ
ᱥᱟᱱᱛᱟᱲᱤ
ᱥᱟᱱᱛᱤ
ᱥᱟᱱᱛᱤᱱᱤᱠᱮᱛᱚᱱ
ᱥᱟᱱᱛᱷᱤ
ᱥᱟᱱᱟ
ᱥᱟᱱᱟᱜᱟᱲ
ᱥᱟᱱᱟᱢ
ᱥᱟᱱᱟᱢᱟᱜ
ᱥᱟᱱᱟᱥ
ᱥᱟᱱᱟᱥᱤ
ᱥᱟᱱᱟᱥᱤᱭᱟ
ᱥᱟᱱᱟᱥᱤᱭᱟᱹ
ᱥᱟᱱᱟᱭ
ᱥᱟᱱᱟᱭᱮ
ᱥᱟᱱᱟᱭᱮᱫ
ᱥᱟᱱᱟᱱᱟᱢ
ᱥᱟᱱᱤ
ᱥᱟᱱᱤᱭᱟ
ᱥᱟᱱᱥᱠᱨᱤᱛ
ᱥᱟᱱᱥᱠᱨᱤᱴ
ᱥᱟᱱᱯᱟᱠᱷᱚᱬᱟ
ᱥᱟᱲᱟ
ᱥᱟᱲᱮ
ᱥᱟᱴᱟᱣ
ᱥᱟᱴᱮᱞᱟᱭᱤᱴ
ᱥᱟᱵ
ᱥᱟᱵᱚᱜ
ᱥᱟᱵᱚᱨᱠᱟᱸᱴᱷᱟ
ᱥᱟᱵᱚᱨᱢᱚᱛᱤ
ᱥᱟᱵᱚᱱ
ᱥᱟᱵᱟ
ᱥᱟᱵᱟᱜ
ᱥᱟᱵᱤᱛᱨᱤ
ᱥᱟᱵᱤᱱᱟ
ᱥᱟᱵᱮ
ᱥᱟᱵᱮᱠ
ᱥᱟᱵᱰᱤᱵᱷᱤᱥᱟᱱ
ᱥᱟᱵᱷᱟ
ᱥᱟᱵᱷᱟᱵᱤᱠ
ᱥᱟᱵᱼᱰᱤᱵᱤᱡᱚᱱ
ᱥᱟᱵᱽ
ᱥᱟᱵᱽᱰᱤᱵᱤᱡᱚᱱ
ᱥᱟᱵᱽᱱᱩᱨ
ᱥᱟᱵᱽᱼᱰᱤᱵᱤᱡᱚᱱ
ᱥᱟᱶ
ᱥᱟᱶᱛᱟ
ᱥᱟᱶᱛᱟᱞ
ᱥᱟᱶᱛᱟᱨᱤ
ᱥᱟᱶᱛᱟᱨᱮ
ᱥᱟᱶᱛᱮ
ᱥᱟᱶᱛᱮᱭ
ᱥᱟᱶᱛᱮᱱ
ᱥᱟᱶᱟᱨ
ᱥᱟᱶᱦᱟ
ᱥᱟᱶᱦᱮᱫ
ᱥᱟᱶᱦᱮᱫᱤᱭᱟ
ᱥᱟᱶᱦᱮᱫᱤᱭᱟᱹ
ᱥᱟᱶᱨᱮ
ᱥᱟᱶᱮ
ᱥᱟᱶᱱᱟ
ᱥᱟᱶᱷᱮᱫ
ᱥᱟᱶᱼᱥᱟᱶ
ᱥᱟᱶᱼᱥᱟᱶᱛᱮ
ᱥᱟᱸ
ᱥᱟᱸᱛ
ᱥᱟᱸᱛᱤ
ᱥᱟᱸᱛᱨᱟ
ᱥᱟᱸᱛᱨᱟᱜᱟᱪᱷᱤ
ᱥᱟᱸᱜᱟᱛ
ᱥᱟᱸᱜᱤᱧ
ᱥᱟᱸᱜᱤᱧᱟ
ᱥᱟᱸᱜᱤᱱ
ᱥᱟᱸᱜᱮ
ᱥᱟᱸᱜᱷᱟᱨ
ᱥᱟᱸᱜᱷᱟᱨᱤᱭᱟ
ᱥᱟᱸᱜᱷᱟᱨᱤᱭᱟᱹ
ᱥᱟᱸᱠᱟᱨ
ᱥᱟᱸᱠᱷ
ᱥᱟᱸᱣ
ᱥᱟᱸᱥᱚᱫᱽ
ᱥᱟᱸᱥᱛᱷᱟ
ᱥᱟᱸᱥᱛᱷᱟᱱ
ᱥᱟᱸᱥᱠᱨᱤᱛ
ᱥᱟᱸᱥᱠᱨᱤᱛᱤ
ᱥᱟᱸᱥᱠᱨᱤᱴ
ᱥᱟᱸᱦᱤᱡ
ᱥᱟᱸᱪᱤ
ᱥᱟᱸᱫᱮᱥ
ᱥᱟᱸᱭ
ᱥᱟᱸᱵᱟᱣ
ᱥᱟᱸᱵᱽᱲᱟᱣ
ᱥᱟᱹᱛ
ᱥᱟᱹᱛᱮᱱ
ᱥᱟᱹᱜᱟᱭ
ᱥᱟᱹᱜᱟᱹᱭ
ᱥᱟᱹᱜᱟᱹᱭᱟᱱ
ᱥᱟᱹᱜᱤᱧ
ᱥᱟᱹᱜᱤᱱ
ᱥᱟᱹᱜᱩᱱ
ᱥᱟᱹᱝᱜᱤᱧ
ᱥᱟᱹᱞᱟᱹᱭ
ᱥᱟᱹᱠᱤᱞ
ᱥᱟᱹᱠᱷᱟᱹᱭᱟᱹᱛ
ᱥᱟᱹᱠᱷᱤ
ᱥᱟᱹᱠᱷᱤᱭᱟᱹᱛ
ᱥᱟᱹᱠᱷᱭᱟᱹᱛ
ᱥᱟᱹᱠᱷᱹᱭᱟᱹᱛ
ᱥᱟᱹᱢᱤᱞ
ᱥᱟᱹᱢᱩᱝ
ᱥᱟᱹᱢᱩᱫᱽ
ᱥᱟᱹᱢᱩᱸᱫᱽ
ᱥᱟᱹᱣᱲᱤ
ᱥᱟᱹᱦᱤᱛ
ᱥᱟᱹᱦᱤᱡ
ᱥᱟᱹᱦᱩ
ᱥᱟᱹᱨᱟᱹᱭᱠᱮᱞᱟ
ᱥᱟᱹᱨᱤ
ᱥᱟᱹᱨᱤᱭᱟᱜ
ᱥᱟᱹᱨᱤᱭᱮᱱᱟ
ᱥᱟᱹᱨᱩ
ᱥᱟᱹᱨᱫᱤ
ᱥᱟᱹᱫᱷᱤᱱ
ᱥᱟᱹᱫᱷᱩ
ᱥᱟᱹᱯᱲᱤ
ᱥᱟᱹᱱᱛᱤ
ᱥᱟᱹᱱᱟᱹᱧ
ᱥᱟᱹᱲᱤ
ᱥᱟᱹᱲᱤᱢ
ᱥᱟᱺᱜᱤᱧ
ᱥᱟᱺᱜᱤᱧᱟ
ᱥᱟᱺᱜᱤᱱ
ᱥᱟᱺᱦᱤᱡ
ᱥᱟᱺᱰᱤ
ᱥᱠᱚᱞᱟᱨ
ᱥᱠᱚᱞᱟᱨᱥᱤᱯ
ᱥᱠᱚᱨ
ᱥᱠᱚᱭᱟᱨ
ᱥᱠᱚᱴᱞᱮᱱᱰ
ᱥᱠᱚᱴᱤᱥ
ᱥᱠᱟ
ᱥᱠᱟᱣᱩᱴ
ᱥᱠᱟᱭᱨᱩᱴ
ᱥᱠᱤᱞ
ᱥᱠᱤᱵᱚᱞ
ᱥᱠᱨᱤᱯᱴ
ᱥᱠᱨᱤᱱ
ᱥᱠᱨᱮᱯ
ᱥᱠᱩᱞ
ᱥᱠᱳᱞᱟᱨᱥᱤᱯ
ᱥᱠᱳᱨ
ᱥᱢᱟᱨᱴ
ᱥᱢᱟᱨᱴᱯᱷᱚᱱ
ᱥᱢᱟᱨᱴᱯᱷᱳᱱ
ᱥᱢᱤᱛᱟ
ᱥᱢᱤᱛᱷ
ᱥᱢᱤᱛᱷᱟ
ᱥᱢᱨᱤᱛᱤ
ᱥᱢᱨᱩᱛᱤ
ᱥᱣᱚᱨᱟᱡᱽ
ᱥᱣᱚᱨᱩᱯ
ᱥᱣᱟᱛ
ᱥᱣᱟᱛᱤ
ᱥᱣᱟᱡᱤᱞᱮᱱᱰ
ᱥᱣᱟᱢᱤ
ᱥᱣᱟᱭᱤᱸ
ᱥᱣᱤᱫᱤᱥ
ᱥᱣᱤᱰᱮᱱ
ᱥᱣᱮᱛᱟ
ᱥᱤ
ᱥᱤᱛᱚᱞ
ᱥᱤᱛᱟ
ᱥᱤᱛᱟᱢᱚᱲᱤ
ᱥᱤᱛᱟᱨ
ᱥᱤᱛᱟᱨᱟ
ᱥᱤᱛᱟᱯᱩᱨ
ᱥᱤᱛᱟᱹ
ᱥᱤᱛᱟᱹᱯᱩᱨ
ᱥᱤᱛᱩᱝ
ᱥᱤᱛᱩᱢ
ᱥᱤᱛᱷᱟᱨᱚᱢᱚᱱ
ᱥᱤᱜᱽᱢᱳ
ᱥᱤᱝ
ᱥᱤᱝᱜᱚᱨ
ᱥᱤᱝᱜᱟᱨ
ᱥᱤᱝᱜᱟᱯᱩᱨ
ᱥᱤᱝᱦᱚ
ᱥᱤᱝᱦᱚᱞᱤ
ᱥᱤᱝᱦᱟ
ᱥᱤᱝᱦᱟᱥᱚᱱ
ᱥᱤᱝᱨᱚᱞᱤ
ᱥᱤᱝᱨᱟᱹᱭ
ᱥᱤᱝᱯᱷᱳ
ᱥᱤᱝᱵᱷᱩᱢ
ᱥᱤᱞ
ᱥᱤᱞᱚᱝ
ᱥᱤᱞᱚᱱ
ᱥᱤᱞᱞᱤ
ᱥᱤᱞᱟ
ᱥᱤᱞᱠ
ᱥᱤᱞᱣᱚᱨ
ᱥᱤᱞᱣᱟᱨ
ᱥᱤᱞᱤ
ᱥᱤᱞᱤᱜᱩᱲᱤ
ᱥᱤᱞᱤᱠᱟᱱ
ᱥᱤᱞᱪᱚᱨ
ᱥᱤᱞᱫᱟᱹ
ᱥᱤᱞᱮᱴ
ᱥᱤᱞᱮᱴᱤ
ᱥᱤᱞᱯᱚ
ᱥᱤᱞᱯᱚᱠᱚᱞᱟ
ᱥᱤᱞᱯᱟ
ᱥᱤᱞᱯᱤ
ᱥᱤᱞᱯᱤᱧ
ᱥᱤᱞᱵᱷᱟᱥᱟ
ᱥᱤᱠᱚᱱᱫᱚᱨ
ᱥᱤᱠᱟ
ᱥᱤᱠᱟᱨ
ᱥᱤᱠᱟᱨᱤᱯᱟᱲᱟ
ᱥᱤᱠᱟᱹᱨ
ᱥᱤᱠᱟᱹᱨᱤᱭᱟ
ᱥᱤᱠᱟᱹᱨᱤᱭᱟᱹ
ᱥᱤᱠᱠᱤᱢ
ᱥᱤᱠᱠᱷᱟ
ᱥᱤᱠᱤ
ᱥᱤᱠᱤᱢ
ᱥᱤᱠᱥᱛᱷ
ᱥᱤᱠᱨᱤᱛᱤ
ᱥᱤᱠᱬᱤᱡ
ᱥᱤᱠᱱᱟᱸᱛ
ᱥᱤᱠᱱᱟᱹᱛ
ᱥᱤᱠᱲᱤ
ᱥᱤᱠᱷ
ᱥᱤᱠᱷᱟ
ᱥᱤᱠᱷᱟᱱᱟᱹᱛ
ᱥᱤᱠᱷᱤᱛ
ᱥᱤᱠᱷᱱᱟ
ᱥᱤᱠᱷᱱᱟᱹᱛ
ᱥᱤᱠᱷᱱᱟᱹᱛᱟᱱ
ᱥᱤᱡ
ᱥᱤᱡᱚᱱ
ᱥᱤᱡᱟᱨ
ᱥᱤᱡᱟᱱ
ᱥᱤᱡᱮᱱ
ᱥᱤᱢ
ᱥᱤᱢᱚᱜᱟ
ᱥᱤᱢᱞᱟ
ᱥᱤᱢᱟ
ᱥᱤᱢᱟᱱᱟ
ᱥᱤᱢᱟᱸᱱᱟ
ᱥᱤᱢᱟᱹ
ᱥᱤᱢᱟᱹᱭ
ᱥᱤᱢᱟᱹᱱᱟ
ᱥᱤᱢᱮᱱᱴ
ᱥᱤᱢᱮᱸᱴ
ᱥᱤᱢᱰᱮᱜᱟ
ᱥᱤᱢᱱᱟ
ᱥᱤᱢᱲᱤᱯᱟᱲ
ᱥᱤᱣ
ᱥᱤᱣᱟᱱ
ᱥᱤᱣᱦᱚᱨ
ᱥᱤᱣᱩᱞ
ᱥᱤᱣᱲᱤ
ᱥᱤᱥ
ᱥᱤᱥᱟ
ᱥᱤᱥᱟᱭ
ᱥᱤᱥᱤᱨ
ᱥᱤᱥᱩ
ᱥᱤᱥᱴᱚᱢ
ᱥᱤᱥᱴᱟᱢ
ᱥᱤᱥᱴᱟᱨ
ᱥᱤᱥᱴᱮᱢ
ᱥᱤᱦᱚᱨ
ᱥᱤᱧ
ᱥᱤᱧᱚᱛ
ᱥᱤᱧᱚᱛᱤᱭᱟ
ᱥᱤᱧᱚᱛᱤᱭᱟᱹ
ᱥᱤᱧᱚᱴ
ᱥᱤᱧᱟᱛ
ᱥᱤᱧᱡᱚ
ᱥᱤᱧᱩᱛ
ᱥᱤᱧᱩᱛᱤᱭᱟ
ᱥᱤᱨ
ᱥᱤᱨᱚᱦᱤ
ᱥᱤᱨᱟ
ᱥᱤᱨᱟᱡᱽ
ᱥᱤᱨᱟᱡᱽᱜᱚᱸᱡᱽ
ᱥᱤᱨᱟᱹ
ᱥᱤᱨᱠᱟ
ᱥᱤᱨᱡᱚᱱ
ᱥᱤᱨᱡᱚᱱᱚᱜ
ᱥᱤᱨᱡᱚᱱᱤᱭᱟᱹ
ᱥᱤᱨᱡᱟ
ᱥᱤᱨᱡᱟᱣ
ᱥᱤᱨᱡᱟᱹᱣ
ᱥᱤᱨᱡᱟᱹᱣᱟ
ᱥᱤᱨᱤ
ᱥᱤᱨᱤᱞᱤᱠ
ᱥᱤᱨᱤᱡ
ᱥᱤᱨᱤᱡᱚᱜ
ᱥᱤᱨᱤᱡᱚᱞ
ᱥᱤᱨᱤᱡᱤᱭᱟᱹ
ᱥᱤᱨᱤᱡᱽ
ᱥᱤᱨᱤᱥ
ᱥᱤᱨᱤᱧ
ᱥᱤᱨᱤᱭᱟ
ᱥᱤᱨᱤᱭᱟᱞ
ᱥᱤᱨᱤᱭᱮᱞ
ᱥᱤᱨᱤᱱ
ᱥᱤᱨᱥᱟ
ᱥᱤᱨᱥᱤᱞᱟ
ᱥᱤᱨᱯᱟ
ᱥᱤᱨᱯᱟᱭ
ᱥᱤᱨᱯᱟᱹ
ᱥᱤᱨᱯᱟᱹᱠᱚ
ᱥᱤᱨᱯᱟᱹᱭ
ᱥᱤᱨᱯᱷᱟ
ᱥᱤᱨᱯᱷᱟᱹ
ᱥᱤᱨᱯᱷᱟᱹᱭ
ᱥᱤᱨᱰᱤ
ᱥᱤᱫ
ᱥᱤᱫᱚ
ᱥᱤᱫᱩ
ᱥᱤᱫᱫᱤᱠᱤ
ᱥᱤᱫᱫᱷᱟᱨᱛᱷᱚ
ᱥᱤᱫᱫᱷᱟᱱᱛᱚ
ᱥᱤᱫᱷ
ᱥᱤᱫᱷᱚ
ᱥᱤᱫᱷᱟ
ᱥᱤᱫᱷᱟᱨᱛᱷ
ᱥᱤᱫᱷᱟᱱᱛ
ᱥᱤᱫᱷᱟᱱᱛᱚ
ᱥᱤᱫᱷᱟᱹ
ᱥᱤᱫᱷᱤ
ᱥᱤᱫᱷᱩ
ᱥᱤᱫᱷᱭᱟᱱᱛᱚ
ᱥᱤᱫᱽ
ᱥᱤᱫᱽᱫᱤᱯᱮᱴ
ᱥᱤᱭᱟ
ᱥᱤᱭᱟᱝ
ᱥᱤᱭᱟᱞ
ᱥᱤᱭᱟᱞᱫᱟᱦ
ᱥᱤᱭᱟᱢ
ᱥᱤᱭᱩᱜ
ᱥᱤᱭᱮᱨᱟ
ᱥᱤᱯ
ᱥᱤᱯᱟᱦᱤᱡᱟᱞᱟ
ᱥᱤᱯᱟᱹᱦᱤ
ᱥᱤᱯᱤ
ᱥᱤᱯᱤᱝ
ᱥᱤᱯᱤᱵᱤᱞ
ᱥᱤᱯᱨᱟ
ᱥᱤᱰᱣᱮᱞ
ᱥᱤᱰᱤ
ᱥᱤᱰᱩᱞ
ᱥᱤᱰᱱᱤ
ᱥᱤᱱ
ᱥᱤᱱᱚ
ᱥᱤᱱᱟ
ᱥᱤᱱᱟᱹᱢ
ᱥᱤᱱᱡᱤᱭᱟᱝ
ᱥᱤᱱᱢᱟ
ᱥᱤᱱᱤ
ᱥᱤᱱᱤᱢᱟ
ᱥᱤᱱᱤᱭᱚᱨ
ᱥᱤᱱᱦᱟ
ᱥᱤᱱᱫᱩᱨ
ᱥᱤᱱᱫᱩᱨᱚ
ᱥᱤᱱᱫᱷ
ᱥᱤᱱᱫᱷᱤ
ᱥᱤᱱᱫᱷᱤᱭᱟ
ᱥᱤᱱᱫᱷᱩ
ᱥᱤᱱᱫᱷᱩᱫᱩᱨᱜᱽ
ᱥᱤᱱᱮ
ᱥᱤᱱᱮᱢᱟ
ᱥᱤᱱᱮᱢᱟᱨᱮ
ᱥᱤᱱᱮᱴ
ᱥᱤᱱᱮᱹᱢᱟ
ᱥᱤᱴ
ᱥᱤᱴᱟᱨᱤᱥᱴᱤ
ᱥᱤᱴᱤ
ᱥᱤᱵ
ᱥᱤᱵᱚ
ᱥᱤᱵᱟ
ᱥᱤᱵᱟᱞ
ᱥᱤᱵᱟᱞᱤᱠ
ᱥᱤᱵᱟᱡᱤ
ᱥᱤᱵᱤ
ᱥᱤᱵᱤᱞ
ᱥᱤᱵᱤᱞᱟ
ᱥᱤᱵᱤᱟᱭᱤ
ᱥᱤᱵᱩ
ᱥᱤᱵᱷ
ᱥᱤᱵᱷᱤᱞ
ᱥᱤᱵᱷᱤᱞᱤᱭᱟᱱ
ᱥᱤᱵᱷᱱᱤ
ᱥᱤᱵᱽ
ᱥᱤᱵᱽᱜᱚᱝᱜᱟ
ᱥᱤᱵᱽᱜᱚᱸᱡᱽ
ᱥᱤᱵᱽᱞᱤᱸᱜᱽ
ᱥᱤᱵᱽᱥᱟᱜᱚᱨ
ᱥᱤᱵᱽᱨᱟᱛᱨᱤ
ᱥᱤᱵᱽᱯᱩᱨᱤ
ᱥᱤᱸᱜ
ᱥᱤᱸᱜᱟᱨ
ᱥᱤᱸᱜᱟᱯᱩᱨ
ᱥᱤᱸᱜᱟᱲᱤᱭᱟ
ᱥᱤᱸᱜᱟᱲᱤᱭᱟᱹ
ᱥᱤᱸᱜᱟᱹᱲ
ᱥᱤᱸᱜᱤ
ᱥᱤᱸᱜᱮ
ᱥᱤᱸᱫᱩᱨ
ᱥᱤᱸᱫᱷ
ᱥᱤᱸᱫᱷᱤ
ᱥᱤᱹ
ᱥᱦᱮᱫ
ᱥᱨ
ᱥᱨᱚᱛ
ᱥᱨᱚᱫᱷᱟ
ᱥᱨᱚᱯᱷ
ᱥᱨᱟᱵᱚᱥᱛᱤ
ᱥᱨᱤ
ᱥᱨᱤᱛᱤ
ᱥᱨᱤᱞᱚᱝᱠᱟ
ᱥᱨᱤᱞᱚᱠᱥᱢᱤ
ᱥᱨᱤᱞᱚᱸᱠᱟ
ᱥᱨᱤᱠᱟᱠᱩᱞᱟᱢ
ᱥᱨᱤᱠᱟᱸᱛ
ᱥᱨᱤᱡᱚᱱ
ᱥᱨᱤᱡᱚᱱᱤᱭᱟᱹ
ᱥᱨᱤᱢᱚᱛᱤ
ᱥᱨᱤᱨᱟᱢ
ᱥᱨᱤᱨᱟᱢᱯᱩᱨ
ᱥᱨᱤᱫᱮᱵᱤ
ᱥᱨᱤᱯᱩᱨ
ᱥᱨᱤᱱᱚᱜᱚᱨ
ᱥᱨᱤᱱᱤᱠᱮᱛᱚᱱ
ᱥᱨᱤᱸᱠᱷᱚᱞᱟ
ᱥᱨᱤᱸᱠᱷᱞᱟ
ᱥᱨᱩᱛᱤ
ᱥᱨᱮᱥᱴᱚ
ᱥᱨᱮᱭᱟ
ᱥᱩ
ᱥᱩᱛᱟ
ᱥᱩᱛᱟᱹᱢ
ᱥᱩᱛᱤ
ᱥᱩᱛᱤᱭᱟ
ᱥᱩᱛᱨᱚ
ᱥᱩᱛᱨᱮᱛ
ᱥᱩᱛᱨᱮᱛᱮ
ᱥᱩᱛᱨᱮᱫ
ᱥᱩᱛᱩᱜ
ᱥᱩᱛᱩᱨ
ᱥᱩᱜᱟᱨ
ᱥᱩᱜᱩᱲ
ᱥᱩᱞ
ᱥᱩᱞᱚᱜ
ᱥᱩᱞᱚᱜᱽᱱᱟ
ᱥᱩᱞᱛᱟᱱ
ᱥᱩᱞᱛᱟᱱᱟ
ᱥᱩᱞᱛᱟᱱᱯᱩᱨ
ᱥᱩᱞᱟᱣᱮᱥᱤ
ᱥᱩᱞᱩᱠ
ᱥᱩᱠ
ᱥᱩᱠᱞᱚ
ᱥᱩᱠᱞᱟ
ᱥᱩᱠᱟᱯᱷᱟ
ᱥᱩᱠᱢᱟ
ᱥᱩᱠᱨᱤ
ᱥᱩᱠᱨᱤᱭᱚ
ᱥᱩᱠᱩᱢᱟᱨ
ᱥᱩᱠᱲᱚ
ᱥᱩᱠᱷ
ᱥᱩᱡᱟᱛᱟ
ᱥᱩᱡᱤ
ᱥᱩᱢᱚᱱ
ᱥᱩᱢᱟ
ᱥᱩᱢᱟᱛᱨᱟ
ᱥᱩᱢᱟᱱ
ᱥᱩᱢᱤ
ᱥᱩᱢᱤᱛᱨᱟ
ᱥᱩᱢᱩᱝ
ᱥᱩᱢᱮᱨᱤᱭᱟ
ᱥᱩᱢᱮᱫ
ᱥᱩᱥᱟ
ᱥᱩᱥᱟᱸᱛ
ᱥᱩᱥᱟᱹᱨ
ᱥᱩᱥᱟᱹᱨᱤᱭᱟᱹ
ᱥᱩᱥᱢᱟ
ᱥᱩᱥᱢᱤᱛᱟ
ᱥᱩᱥᱤᱞ
ᱥᱩᱥᱤᱞᱟ
ᱥᱩᱥᱩᱱ
ᱥᱩᱦᱤ
ᱥᱩᱨ
ᱥᱩᱨᱚᱛ
ᱥᱩᱨᱚᱡᱽ
ᱥᱩᱨᱚᱡᱽᱯᱩᱨ
ᱥᱩᱨᱜᱩᱡᱟ
ᱥᱩᱨᱟᱹᱡ
ᱥᱩᱨᱡᱚ
ᱥᱩᱨᱡᱟᱯᱩᱨᱤ
ᱥᱩᱨᱤ
ᱥᱩᱨᱤᱱᱟᱢ
ᱥᱩᱨᱥᱩᱯᱩᱨ
ᱥᱩᱨᱩᱜ
ᱥᱩᱨᱩᱞ
ᱥᱩᱨᱭᱟ
ᱥᱩᱨᱭᱟᱯᱮᱴ
ᱥᱩᱨᱮᱥ
ᱥᱩᱨᱮᱱᱫᱽᱨᱚ
ᱥᱩᱨᱼᱥᱩᱯᱩᱨ
ᱥᱩᱪᱚᱱᱟ
ᱥᱩᱪᱤ
ᱥᱩᱪᱤᱛᱨᱟ
ᱥᱩᱫᱟᱢᱟ
ᱥᱩᱫᱟᱱ
ᱥᱩᱫᱩ
ᱥᱩᱫᱷᱟ
ᱥᱩᱫᱷᱟᱹ
ᱥᱩᱫᱷᱟᱹᱨ
ᱥᱩᱫᱷᱨᱟ
ᱥᱩᱫᱷᱨᱟᱹᱣ
ᱥᱩᱫᱷᱩ
ᱥᱩᱫᱽ
ᱥᱩᱭ
ᱥᱩᱭᱟᱹ
ᱥᱩᱭᱡᱟᱨᱞᱮᱱᱰ
ᱥᱩᱭᱰᱤᱥ
ᱥᱩᱭᱰᱮᱱ
ᱥᱩᱯ
ᱥᱩᱯᱚᱣᱞ
ᱥᱩᱯᱚᱨ
ᱥᱩᱯᱚᱨᱥᱴᱟᱨ
ᱥᱩᱯᱟᱨ
ᱥᱩᱯᱟᱨᱤᱥ
ᱥᱩᱯᱟᱨᱯᱷᱟᱥᱴ
ᱥᱩᱯᱨᱤᱢ
ᱥᱩᱯᱩ
ᱥᱩᱯᱩᱛᱩᱜ
ᱥᱩᱯᱩᱨ
ᱥᱩᱯᱩᱨᱚᱜ
ᱥᱩᱯᱷᱤ
ᱥᱩᱯᱷᱤᱭᱟ
ᱥᱩᱰᱟᱱ
ᱥᱩᱱ
ᱥᱩᱱᱟ
ᱥᱩᱱᱟᱢᱜᱚᱧᱡᱽ
ᱥᱩᱱᱟᱢᱤ
ᱥᱩᱱᱟᱹᱨᱟᱢ
ᱥᱩᱱᱤᱛᱟ
ᱥᱩᱱᱤᱞ
ᱥᱩᱱᱥᱚᱨᱤ
ᱥᱩᱱᱥᱩᱱᱤ
ᱥᱩᱱᱩᱢ
ᱥᱩᱱᱫᱚᱨ
ᱥᱩᱱᱫᱚᱨᱜᱚᱰ
ᱥᱩᱱᱫᱚᱨᱜᱚᱸᱡᱽ
ᱥᱩᱱᱫᱚᱨᱤ
ᱥᱩᱱᱫᱚᱨᱵᱚᱱ
ᱥᱩᱱᱫᱟᱱᱤᱥ
ᱥᱩᱱᱱᱤ
ᱥᱩᱲᱤᱭᱟᱯᱚᱫᱟ
ᱥᱩᱴ
ᱥᱩᱴᱚᱨ
ᱥᱩᱴᱤᱝ
ᱥᱩᱵᱚᱨᱱᱟ
ᱥᱩᱵᱚᱱᱥᱤᱨᱤ
ᱥᱩᱵᱟᱥ
ᱥᱩᱵᱤᱥᱛᱟ
ᱥᱩᱵᱤᱫᱷᱟ
ᱥᱩᱵᱤᱫᱷᱟᱹ
ᱥᱩᱵᱷᱚᱯᱚᱞᱼᱞᱚᱵᱚ
ᱥᱩᱵᱷᱟ
ᱥᱩᱵᱷᱟᱥ
ᱥᱩᱵᱷᱤᱫᱟ
ᱥᱩᱵᱷᱤᱫᱷᱟ
ᱥᱩᱸᱫᱚᱨ
ᱥᱩᱸᱫᱽᱨᱤ
ᱥᱩᱸᱴ
ᱥᱭᱚᱯᱩᱨ
ᱥᱭᱟᱢ
ᱥᱭᱟᱢᱟ
ᱥᱮ
ᱥᱮᱛᱟ
ᱥᱮᱛᱟᱜ
ᱥᱮᱛᱩ
ᱥᱮᱛᱮᱧ
ᱥᱮᱛᱮᱫ
ᱥᱮᱜ
ᱥᱮᱝᱜᱮᱞ
ᱥᱮᱞ
ᱥᱮᱞᱤᱵᱨᱤᱴᱤ
ᱥᱮᱞᱤᱵᱽᱨᱤᱴᱤ
ᱥᱮᱞᱥ
ᱥᱮᱞᱥᱤᱟᱹᱥ
ᱥᱮᱞᱥᱤᱭᱚᱥ
ᱥᱮᱞᱥᱤᱭᱟᱥ
ᱥᱮᱞᱭᱩᱞᱚᱡᱽ
ᱥᱮᱞᱮᱫ
ᱥᱮᱞᱮᱫᱚᱜ
ᱥᱮᱞᱮᱫᱚᱜᱼᱟ
ᱥᱮᱞᱮᱫᱟ
ᱥᱮᱞᱮᱫᱟᱜ
ᱥᱮᱞᱮᱫᱤᱭᱟ
ᱥᱮᱞᱮᱫᱤᱭᱟᱹ
ᱥᱮᱞᱮᱫᱽ
ᱥᱮᱞᱮᱵ
ᱥᱮᱞᱯᱷ
ᱥᱮᱠᱚᱱᱰᱟᱨᱤ
ᱥᱮᱠᱥ
ᱥᱮᱠᱥᱚᱱ
ᱥᱮᱠᱥᱟᱱ
ᱥᱮᱠᱥᱩᱣᱟᱞ
ᱥᱮᱠᱥᱯᱤᱭᱚᱨ
ᱥᱮᱠᱨᱮᱴᱟᱨᱤ
ᱥᱮᱠᱮᱱᱰ
ᱥᱮᱠᱮᱱᱰᱟᱨᱤ
ᱥᱮᱠᱮᱸᱰ
ᱥᱮᱠᱴᱚᱨ
ᱥᱮᱠᱷ
ᱥᱮᱠᱷᱚᱨ
ᱥᱮᱠᱷᱟᱨ
ᱥᱮᱠᱷᱯᱩᱨᱟ
ᱥᱮᱡ
ᱥᱮᱢ
ᱥᱮᱢᱞᱮᱫ
ᱥᱮᱢᱞᱮᱫᱽ
ᱥᱮᱢᱟ
ᱥᱮᱢᱤ
ᱥᱮᱢᱤᱴᱤᱠ
ᱥᱮᱢᱮᱴᱤᱠ
ᱥᱮᱣ
ᱥᱮᱣᱟ
ᱥᱮᱥᱚ
ᱥᱮᱥᱚᱱ
ᱥᱮᱥᱟᱭ
ᱥᱮᱦᱮᱫ
ᱥᱮᱦᱮᱫᱟᱜ
ᱥᱮᱧᱪᱩᱨᱤ
ᱥᱮᱨ
ᱥᱮᱨᱟ
ᱥᱮᱨᱟᱱᱤ
ᱥᱮᱨᱢ
ᱥᱮᱨᱢᱟ
ᱥᱮᱨᱢᱟᱠᱤᱭᱟ
ᱥᱮᱨᱢᱟᱠᱤᱭᱟᱹ
ᱥᱮᱨᱢᱟᱨᱮ
ᱥᱮᱨᱢᱟᱭ
ᱥᱮᱨᱣᱟ
ᱥᱮᱨᱤᱡ
ᱥᱮᱨᱤᱡᱽ
ᱥᱮᱨᱤᱧ
ᱥᱮᱨᱤᱭᱟᱞ
ᱥᱮᱨᱪᱷᱤᱯ
ᱥᱮᱨᱮᱧ
ᱥᱮᱨᱮᱧᱟ
ᱥᱮᱨᱮᱧᱤᱡ
ᱥᱮᱨᱮᱧᱤᱭᱟ
ᱥᱮᱨᱮᱧᱤᱭᱟᱹ
ᱥᱮᱨᱮᱧᱤᱭᱟᱹᱭ
ᱥᱮᱨᱮᱧᱮ
ᱥᱮᱨᱯᱟ
ᱥᱮᱨᱯᱩᱨ
ᱥᱮᱪᱪᱷᱟᱯᱮᱭᱟᱫᱟ
ᱥᱮᱪᱮᱛ
ᱥᱮᱪᱮᱜ
ᱥᱮᱪᱮᱫ
ᱥᱮᱪᱮᱫᱚᱜ
ᱥᱮᱪᱮᱫᱤᱭᱟ
ᱥᱮᱪᱮᱫᱤᱭᱟᱹ
ᱥᱮᱫ
ᱥᱮᱫᱛᱮ
ᱥᱮᱫᱟᱜ
ᱥᱮᱫᱟᱭ
ᱥᱮᱫᱟᱭᱟᱜ
ᱥᱮᱬᱟ
ᱥᱮᱬᱟᱭ
ᱥᱮᱭᱚᱫᱽ
ᱥᱮᱭᱞᱤ
ᱥᱮᱭᱟ
ᱥᱮᱭᱟᱞᱚᱢ
ᱥᱮᱭᱟᱨ
ᱥᱮᱭᱢᱥᱚᱝ
ᱥᱮᱭᱱ
ᱥᱮᱭᱱᱴ
ᱥᱮᱯ
ᱥᱮᱯᱮᱧ
ᱥᱮᱯᱴᱮᱢᱵᱚᱨ
ᱥᱮᱰ
ᱥᱮᱰᱭᱩᱞ
ᱥᱮᱱ
ᱥᱮᱱᱚᱜ
ᱥᱮᱱᱚᱜᱟᱜ
ᱥᱮᱱᱚᱜᱟᱦ
ᱥᱮᱱᱚᱜᱼᱟ
ᱥᱮᱱᱛᱮ
ᱥᱮᱱᱟ
ᱥᱮᱱᱟᱜ
ᱥᱮᱱᱟᱭ
ᱥᱮᱱᱟᱯᱚᱛᱤ
ᱥᱮᱱᱟᱵᱟᱦᱤᱱᱤ
ᱥᱮᱱᱤᱴᱟᱨᱤ
ᱥᱮᱱᱥᱚᱥ
ᱥᱮᱱᱥᱟᱥ
ᱥᱮᱱᱪᱩᱨᱤ
ᱥᱮᱱᱫᱨᱟ
ᱥᱮᱱᱫᱽᱨᱟ
ᱥᱮᱱᱮᱜᱟᱞ
ᱥᱮᱱᱮᱞᱮᱫ
ᱥᱮᱱᱮᱨᱮᱧ
ᱥᱮᱱᱮᱪᱮᱫ
ᱥᱮᱱᱴ
ᱥᱮᱱᱴᱚᱨ
ᱥᱮᱱᱴᱟᱨ
ᱥᱮᱱᱴᱤᱜᱨᱮᱰ
ᱥᱮᱱᱴᱤᱢᱤᱴᱚᱨ
ᱥᱮᱱᱴᱨᱟᱞ
ᱥᱮᱲᱟ
ᱥᱮᱴ
ᱥᱮᱴᱞᱟᱭᱤᱴ
ᱥᱮᱴᱮᱞᱟᱭᱤᱴ
ᱥᱮᱴᱮᱞᱢᱮᱸᱴ
ᱥᱮᱴᱮᱡ
ᱥᱮᱴᱮᱨ
ᱥᱮᱴᱮᱨᱚ
ᱥᱮᱴᱮᱨᱚᱜ
ᱥᱮᱴᱮᱨᱚᱜᱼᱟ
ᱥᱮᱴᱮᱨᱟ
ᱥᱮᱴᱮᱨᱮᱱ
ᱥᱮᱴᱮᱨᱮᱱᱟ
ᱥᱮᱴᱴᱤ
ᱥᱮᱴᱷ
ᱥᱮᱵᱚᱠ
ᱥᱮᱵᱟ
ᱥᱮᱵᱟᱜ
ᱥᱮᱵᱟᱥᱴᱤᱭᱟᱱ
ᱥᱮᱵᱟᱭ
ᱥᱮᱵᱟᱭᱟ
ᱥᱮᱵᱩᱭᱟᱱᱳ
ᱥᱮᱵᱷᱮᱱ
ᱥᱮᱸᱛ
ᱥᱮᱸᱜᱮᱞ
ᱥᱮᱸᱫᱨᱟ
ᱥᱮᱸᱫᱷᱣᱟ
ᱥᱮᱸᱫᱽᱨᱟ
ᱥᱮᱸᱴ
ᱥᱮᱸᱴᱚᱨ
ᱥᱮᱸᱴᱟᱨ
ᱥᱮᱸᱴᱮᱨ
ᱥᱮᱹᱠᱷ
ᱥᱮᱹᱨᱮᱹᱧ
ᱥᱮᱹᱱ
ᱥᱯᱚᱨᱴᱥ
ᱥᱯᱟᱱᱤᱥ
ᱥᱯᱤᱠᱚᱨ
ᱥᱯᱤᱠᱟᱨ
ᱥᱯᱤᱱᱪᱚᱨ
ᱥᱯᱮᱥ
ᱥᱯᱮᱥᱟᱞ
ᱥᱯᱮᱥᱤᱭᱟᱞ
ᱥᱯᱮᱱ
ᱥᱯᱮᱱᱤᱥ
ᱥᱯᱳᱨᱴᱥ
ᱥᱯᱳᱴᱥ
ᱥᱱᱟᱛᱚᱠ
ᱥᱱᱟᱛᱟᱠ
ᱥᱱᱤ
ᱥᱱᱤᱜᱽᱫᱷᱟ
ᱥᱱᱮᱦᱟ
ᱥᱳ
ᱥᱳᱛᱷᱳ
ᱥᱳᱞᱠᱩᱯᱟ
ᱥᱳᱞᱳ
ᱥᱳᱢ
ᱥᱳᱢᱯᱮᱝ
ᱥᱳᱣᱫᱤ
ᱥᱳᱥᱟᱭᱴᱤ
ᱥᱳᱥᱤᱭᱟᱞ
ᱥᱳᱦᱱᱤ
ᱥᱳᱨ
ᱥᱳᱨᱚ
ᱥᱳᱨᱟ
ᱥᱳᱨᱟᱝ
ᱥᱳᱨᱮᱱ
ᱥᱳᱨᱵᱤᱭᱟᱱ
ᱥᱳᱭᱚᱫᱽᱯᱩᱨ
ᱥᱳᱭᱟᱦᱤᱞᱤ
ᱥᱳᱯ
ᱥᱳᱯᱤᱝ
ᱥᱳᱯᱤᱭᱟᱱ
ᱥᱳᱯᱷᱤᱭᱟ
ᱥᱳᱱ
ᱥᱳᱱᱟ
ᱥᱳᱱᱟᱢᱩᱠᱷᱤ
ᱥᱳᱱᱤ
ᱥᱳᱴᱤᱝ
ᱥᱳᱵᱷᱚ
ᱥᱳᱵᱷᱟ
ᱥᱳᱵᱷᱤᱭᱮᱛ
ᱥᱴ
ᱥᱴᱚᱞ
ᱥᱴᱚᱠ
ᱥᱴᱚᱨᱤ
ᱥᱴᱚᱱ
ᱥᱴᱟᱝᱰ
ᱥᱴᱟᱨ
ᱥᱴᱟᱭᱤᱞ
ᱥᱴᱟᱯᱷ
ᱥᱴᱟᱰᱤᱡᱽ
ᱥᱴᱟᱰᱤᱥ
ᱥᱴᱟᱰᱤᱭᱚᱢ
ᱥᱴᱟᱸᱰ
ᱥᱴᱤᱞ
ᱥᱴᱨᱚᱠ
ᱥᱴᱨᱚᱵᱮᱨᱤ
ᱥᱴᱨᱤᱢ
ᱥᱴᱨᱤᱴ
ᱥᱴᱩᱰᱤᱭᱚ
ᱥᱴᱩᱰᱤᱭᱩ
ᱥᱴᱩᱰᱤᱭᱳ
ᱥᱴᱩᱰᱮᱸᱴ
ᱥᱴᱮᱡ
ᱥᱴᱮᱡᱽ
ᱥᱴᱮᱣᱟᱨᱰ
ᱥᱴᱮᱥᱚᱱ
ᱥᱴᱮᱥᱟᱱ
ᱥᱴᱮᱯᱷᱤ
ᱥᱴᱮᱰᱤᱭᱚᱢ
ᱥᱴᱮᱰᱤᱭᱟᱢ
ᱥᱴᱮᱱᱰ
ᱥᱴᱮᱱᱰᱟᱨᱰ
ᱥᱴᱮᱴ
ᱥᱴᱮᱴᱟᱥᱴᱤᱠ
ᱥᱴᱮᱴᱥ
ᱥᱴᱮᱸᱰ
ᱥᱴᱳᱨᱤ
ᱥᱴᱳᱨᱤᱡᱽ
ᱥᱷᱟᱭᱛᱟᱱ
ᱦ
ᱦᱚ
ᱦᱚᱛᱚᱫ
ᱦᱚᱛᱮ
ᱦᱚᱛᱮᱛ
ᱦᱚᱛᱮᱛᱮ
ᱦᱚᱝ
ᱦᱚᱝᱠᱚᱝ
ᱦᱚᱞ
ᱦᱚᱞᱚᱝ
ᱦᱚᱞᱚᱧ
ᱦᱚᱞᱠᱟᱨ
ᱦᱚᱞᱤ
ᱦᱚᱞᱤᱣᱩᱰ
ᱦᱚᱞᱫᱣᱟᱱᱤ
ᱦᱚᱠ
ᱦᱚᱠᱚ
ᱦᱚᱠᱤ
ᱦᱚᱠᱤᱛ
ᱦᱚᱠᱫᱟᱨ
ᱦᱚᱡᱚᱢ
ᱦᱚᱡᱽᱨᱚᱛ
ᱦᱚᱢ
ᱦᱚᱢᱚᱨ
ᱦᱚᱢᱟᱞ
ᱦᱚᱢᱤᱨᱯᱩᱨ
ᱦᱚᱢᱥ
ᱦᱚᱥᱚᱱ
ᱦᱚᱥᱟᱸᱜᱟᱵᱟᱫᱽ
ᱦᱚᱥᱤᱭᱟᱨᱯᱩᱨ
ᱦᱚᱥᱮᱱ
ᱦᱚᱥᱯᱤᱴᱚᱞ
ᱦᱚᱥᱯᱤᱴᱟᱞ
ᱦᱚᱥᱴ
ᱦᱚᱥᱴᱤᱝ
ᱦᱚᱥᱴᱮᱞ
ᱦᱚᱦᱚ
ᱦᱚᱨ
ᱦᱚᱨᱚ
ᱦᱚᱨᱚᱜ
ᱦᱚᱨᱚᱜᱟ
ᱦᱚᱨᱚᱯ
ᱦᱚᱨᱚᱯᱯᱟ
ᱦᱚᱨᱟ
ᱦᱚᱨᱟᱭ
ᱦᱚᱨᱢᱚᱥᱟᱶᱟᱨ
ᱦᱚᱨᱢᱚᱱ
ᱦᱚᱨᱤ
ᱦᱚᱨᱤᱡᱚᱱ
ᱦᱚᱨᱤᱦᱚᱨ
ᱦᱚᱨᱤᱫᱣᱟᱨ
ᱦᱚᱨᱤᱭᱟᱬᱟ
ᱦᱚᱨᱤᱭᱟᱱᱟ
ᱦᱚᱨᱤᱭᱟᱱᱵᱷᱤ
ᱦᱚᱨᱤᱯᱩᱨ
ᱦᱚᱨᱤᱱᱟᱠᱩᱱᱰᱩ
ᱦᱚᱨᱫᱟ
ᱦᱚᱨᱭᱟᱬᱟ
ᱦᱚᱨᱮ
ᱦᱚᱨᱰᱟᱦᱟᱨ
ᱦᱚᱪᱚ
ᱦᱚᱪᱚᱜ
ᱦᱚᱪᱚᱭ
ᱦᱚᱪᱚᱭᱟ
ᱦᱚᱫ
ᱦᱚᱭ
ᱦᱚᱭᱚ
ᱦᱚᱭᱚᱜ
ᱦᱚᱭᱞᱚᱝ
ᱦᱚᱭᱦᱤᱥᱤᱫ
ᱦᱚᱭᱫᱟᱜ
ᱦᱚᱭᱮᱱᱟ
ᱦᱚᱭᱼᱦᱤᱥᱤᱫ
ᱦᱚᱯᱚᱱ
ᱦᱚᱯᱚᱱᱟᱜ
ᱦᱚᱯᱚᱱᱮ
ᱦᱚᱯᱚᱱᱮᱨᱟ
ᱦᱚᱰ
ᱦᱚᱱ
ᱦᱚᱱᱚᱛ
ᱦᱚᱱᱚᱛᱠᱚ
ᱦᱚᱱᱚᱨ
ᱦᱚᱱᱟᱛ
ᱦᱚᱱᱤ
ᱦᱚᱱᱩᱢᱟᱱ
ᱦᱚᱱᱫᱤᱠᱚᱭ
ᱦᱚᱱᱰᱩᱨᱟᱥ
ᱦᱚᱲ
ᱦᱚᱲᱚ
ᱦᱚᱲᱚᱢᱚ
ᱦᱚᱲᱜᱮ
ᱦᱚᱲᱞᱮᱠᱷᱟ
ᱦᱚᱲᱟ
ᱦᱚᱲᱟᱜ
ᱦᱚᱲᱠᱚ
ᱦᱚᱲᱠᱚᱣᱟᱜ
ᱦᱚᱲᱠᱩ
ᱦᱚᱲᱢᱚ
ᱦᱚᱲᱢᱚᱜ
ᱦᱚᱲᱢᱚᱥᱟᱶᱟᱨ
ᱦᱚᱲᱢᱚᱨᱮ
ᱦᱚᱲᱫᱚ
ᱦᱚᱲᱮ
ᱦᱚᱲᱮᱞ
ᱦᱚᱲᱮᱡ
ᱦᱚᱲᱼᱮᱞ
ᱦᱚᱴ
ᱦᱚᱴᱚ
ᱦᱚᱴᱚᱜ
ᱦᱚᱴᱮᱞ
ᱦᱚᱵᱚᱨ
ᱦᱚᱵᱤᱜᱚᱧᱡᱽ
ᱦᱚᱸ
ᱦᱚᱸᱠᱚ
ᱦᱚᱸᱭ
ᱦᱚᱸᱭᱮ
ᱦᱚᱸᱰᱟ
ᱦᱚᱸᱵᱚ
ᱦᱟ
ᱦᱟᱛ
ᱦᱟᱛᱚᱢ
ᱦᱟᱛᱟᱝ
ᱦᱟᱛᱟᱣ
ᱦᱟᱛᱟᱣᱟ
ᱦᱟᱛᱟᱶ
ᱦᱟᱛᱤᱳ
ᱦᱟᱛᱮᱛᱮ
ᱦᱟᱛᱷᱨᱚᱥ
ᱦᱟᱜ
ᱦᱟᱜᱼᱟ
ᱦᱟᱝᱜᱮᱨᱤ
ᱦᱟᱞ
ᱦᱟᱞᱚᱛ
ᱦᱟᱞᱟ
ᱦᱟᱞᱟᱛ
ᱦᱟᱞᱟᱝ
ᱦᱟᱞᱠᱟ
ᱦᱟᱞᱫᱟᱨ
ᱦᱟᱞᱫᱤᱭᱟ
ᱦᱟᱞᱮ
ᱦᱟᱠᱚ
ᱦᱟᱠᱚᱣᱟ
ᱦᱟᱠᱟᱫ
ᱦᱟᱠᱟᱫᱟ
ᱦᱟᱠᱟᱫᱼᱟ
ᱦᱟᱠᱟᱱ
ᱦᱟᱠᱟᱱᱟ
ᱦᱟᱠᱟᱱᱟᱭ
ᱦᱟᱠᱤᱢᱯᱩᱨ
ᱦᱟᱠᱩ
ᱦᱟᱡᱚᱛ
ᱦᱟᱡᱚᱝ
ᱦᱟᱡᱚᱨᱤᱠᱟ
ᱦᱟᱡᱟᱨ
ᱦᱟᱡᱟᱨᱤᱵᱟᱜᱽ
ᱦᱟᱡᱟᱨᱵᱟᱜᱽ
ᱦᱟᱡᱤᱯᱩᱨ
ᱦᱟᱡᱩᱜ
ᱦᱟᱢ
ᱦᱟᱢᱞᱟ
ᱦᱟᱢᱟᱞ
ᱦᱟᱢᱮᱰ
ᱦᱟᱢᱮᱴ
ᱦᱟᱣ
ᱦᱟᱣᱟ
ᱦᱟᱣᱟᱭ
ᱦᱟᱣᱟᱭᱟᱱ
ᱦᱟᱣᱥᱟ
ᱦᱟᱣᱩᱥ
ᱦᱟᱣᱩᱥᱯᱷᱩᱞ
ᱦᱟᱣᱮᱫ
ᱦᱟᱣᱲᱟ
ᱦᱟᱥᱚ
ᱦᱟᱥᱚᱞ
ᱦᱟᱥᱚᱱ
ᱦᱟᱥᱞᱟ
ᱦᱟᱥᱟ
ᱦᱟᱥᱟᱣ
ᱦᱟᱥᱟᱨᱮ
ᱦᱟᱥᱟᱭ
ᱦᱟᱥᱟᱱ
ᱦᱟᱥᱢᱤ
ᱦᱟᱥᱤᱞ
ᱦᱟᱥᱤᱱᱟ
ᱦᱟᱥᱯᱟᱛᱟᱞ
ᱦᱟᱦᱟᱲᱟ
ᱦᱟᱦᱟᱲᱟᱱ
ᱦᱟᱨ
ᱦᱟᱨᱚᱱ
ᱦᱟᱨᱛᱟ
ᱦᱟᱨᱟ
ᱦᱟᱨᱟᱜ
ᱦᱟᱨᱟᱜᱼᱟ
ᱦᱟᱨᱟᱢ
ᱦᱟᱨᱟᱣ
ᱦᱟᱨᱟᱦᱟᱨᱤ
ᱦᱟᱨᱟᱨᱟᱛᱟ
ᱦᱟᱨᱟᱵᱩᱨᱩ
ᱦᱟᱨᱠᱮᱛ
ᱦᱟᱨᱡᱮᱜᱳᱵᱷᱤᱱᱟ
ᱦᱟᱨᱤ
ᱦᱟᱨᱤᱭᱟᱱᱟ
ᱦᱟᱨᱦᱟᱲ
ᱦᱟᱨᱫᱚᱭ
ᱦᱟᱨᱫᱟ
ᱦᱟᱨᱰ
ᱦᱟᱨᱴ
ᱦᱟᱨᱵᱟᱨ
ᱦᱟᱩᱥ
ᱦᱟᱫ
ᱦᱟᱫᱮ
ᱦᱟᱫᱮᱭᱟ
ᱦᱟᱬᱟ
ᱦᱟᱭ
ᱦᱟᱭᱛᱤ
ᱦᱟᱭᱞᱟᱠᱟᱱᱫᱤ
ᱦᱟᱭᱟᱛ
ᱦᱟᱭᱟᱨ
ᱦᱟᱭᱠᱩ
ᱦᱟᱭᱣᱮ
ᱦᱟᱭᱤ
ᱦᱟᱭᱤᱠ
ᱦᱟᱭᱤᱥᱠᱩᱞ
ᱦᱟᱭᱨᱮ
ᱦᱟᱭᱫᱨᱟᱵᱟᱫᱽ
ᱦᱟᱭᱫᱽᱨᱟᱵᱟᱫ
ᱦᱟᱭᱫᱽᱨᱟᱵᱟᱫᱽ
ᱦᱟᱭᱰᱨᱚ
ᱦᱟᱭᱰᱨᱳᱡᱟᱱ
ᱦᱟᱭᱳᱭᱮ
ᱦᱟᱯᱛᱟ
ᱦᱟᱯᱛᱟᱠᱤᱭᱟ
ᱦᱟᱯᱛᱟᱠᱤᱭᱟᱹ
ᱦᱟᱯᱟ
ᱦᱟᱯᱟᱨᱟᱣ
ᱦᱟᱯᱟᱴᱤᱧ
ᱦᱟᱯᱟᱴᱤᱧᱚᱜ
ᱦᱟᱯᱩᱲ
ᱦᱟᱯᱮ
ᱦᱟᱯᱮᱱ
ᱦᱟᱯᱲᱟᱜ
ᱦᱟᱯᱲᱟᱢ
ᱦᱟᱯᱷᱤᱡᱽ
ᱦᱟᱰᱜᱟᱨ
ᱦᱟᱱ
ᱦᱟᱱᱚᱭ
ᱦᱟᱱᱛᱟᱨ
ᱦᱟᱱᱛᱟᱨᱚ
ᱦᱟᱱᱛᱟᱨᱟ
ᱦᱟᱱᱛᱮ
ᱦᱟᱱᱟ
ᱦᱟᱱᱤᱯᱷ
ᱦᱟᱱᱥ
ᱦᱟᱱᱥᱰᱤᱦᱟ
ᱦᱟᱱᱩᱢᱟᱱ
ᱦᱟᱱᱩᱢᱟᱱᱜᱟᱲ
ᱦᱟᱲ
ᱦᱟᱲᱟᱢ
ᱦᱟᱴ
ᱦᱟᱴᱟᱜ
ᱦᱟᱴᱟᱬ
ᱦᱟᱴᱤᱧ
ᱦᱟᱴᱤᱭᱟ
ᱦᱟᱴᱤᱭᱟᱸ
ᱦᱟᱴᱵᱟᱫᱽᱲᱟ
ᱦᱟᱵᱤᱡ
ᱦᱟᱵᱮᱞᱤ
ᱦᱟᱵᱮᱨᱤ
ᱦᱟᱵᱷᱟᱨᱰ
ᱦᱟᱵᱽ
ᱦᱟᱵᱽᱨᱟ
ᱦᱟᱵᱽᱲᱟ
ᱦᱟᱵᱽᱲᱟᱼᱪᱮᱱᱱᱟᱭ
ᱦᱟᱵᱽᱲᱟᱼᱫᱤᱞᱞᱤ
ᱦᱟᱵᱽᱲᱟᱼᱱᱟᱜᱽᱯᱩᱨᱼᱢᱩᱢᱵᱟᱭ
ᱦᱟᱸ
ᱦᱟᱸᱥ
ᱦᱟᱸᱥᱫᱟ
ᱦᱟᱸᱥᱫᱟᱜ
ᱦᱟᱸᱥᱯᱟᱛᱟᱞ
ᱦᱟᱸᱰᱮ
ᱦᱟᱹᱛᱤ
ᱦᱟᱹᱛᱤᱭᱟᱨ
ᱦᱟᱹᱛᱤᱭᱟᱹᱨ
ᱦᱟᱹᱛᱭᱟᱹᱨ
ᱦᱟᱹᱞᱤ
ᱦᱟᱹᱠᱩ
ᱦᱟᱹᱡᱩᱜ
ᱦᱟᱹᱡᱩᱜᱼᱟ
ᱦᱟᱹᱥᱩ
ᱦᱟᱹᱥᱩᱨ
ᱦᱟᱹᱨ
ᱦᱟᱹᱨᱠᱤᱬ
ᱦᱟᱹᱨᱤ
ᱦᱟᱹᱨᱤᱭᱟᱹᱲ
ᱦᱟᱹᱨᱭᱟᱹᱲ
ᱦᱟᱹᱬᱩ
ᱦᱟᱹᱯᱟᱹᱴᱤᱧ
ᱦᱟᱹᱯᱤᱫ
ᱦᱟᱹᱱ
ᱦᱟᱹᱱᱟᱹᱴᱤᱧ
ᱦᱟᱹᱱᱤ
ᱦᱟᱹᱱᱰᱤ
ᱦᱟᱹᱲᱤ
ᱦᱟᱹᱲᱤᱭᱟᱹᱲ
ᱦᱟᱹᱴᱤᱝ
ᱦᱟᱹᱴᱤᱧ
ᱦᱟᱹᱴᱤᱧᱚᱜ
ᱦᱟᱹᱴᱤᱧᱚᱜᱼᱟ
ᱦᱟᱹᱴᱤᱧᱟ
ᱦᱟᱹᱴᱤᱧᱟᱜ
ᱦᱟᱹᱵᱤᱡ
ᱦᱟᱹᱵᱤᱫ
ᱦᱟᱺᱥᱞᱤ
ᱦᱟᱺᱥᱩᱨ
ᱦᱟᱺᱰᱤ
ᱦᱤ
ᱦᱤᱛ
ᱦᱤᱛᱟᱹᱞ
ᱦᱤᱝᱜᱚᱞᱤ
ᱦᱤᱞ
ᱦᱤᱞᱚᱜ
ᱦᱤᱞᱟ
ᱦᱤᱞᱟᱜ
ᱦᱤᱞᱟᱹ
ᱦᱤᱞᱟᱹᱜ
ᱦᱤᱞᱟᱹᱣ
ᱦᱤᱞᱤ
ᱦᱤᱞᱤᱭᱟᱢ
ᱦᱤᱞᱥ
ᱦᱤᱞᱳ
ᱦᱤᱞᱳᱜ
ᱦᱤᱞᱵᱚᱨᱴ
ᱦᱤᱡᱩᱜ
ᱦᱤᱡᱩᱜᱼᱟ
ᱦᱤᱢ
ᱦᱤᱢᱚᱜᱞᱚᱵᱤᱱ
ᱦᱤᱢᱟᱞ
ᱦᱤᱢᱟᱞᱚᱭ
ᱦᱤᱢᱟᱪᱚᱞ
ᱦᱤᱢᱟᱪᱚᱲ
ᱦᱤᱥ
ᱦᱤᱥᱟ
ᱦᱤᱥᱟᱨ
ᱦᱤᱥᱟᱵ
ᱦᱤᱥᱟᱵᱽ
ᱦᱤᱥᱟᱹᱵ
ᱦᱤᱥᱟᱹᱵᱛᱮ
ᱦᱤᱥᱟᱹᱵᱛᱮᱠᱩ
ᱦᱤᱥᱟᱹᱵᱛᱮᱭ
ᱦᱤᱥᱟᱹᱵᱽ
ᱦᱤᱥᱤᱨ
ᱦᱤᱥᱤᱫ
ᱦᱤᱥᱥᱟ
ᱦᱤᱦᱤᱲᱤ
ᱦᱤᱨ
ᱦᱤᱨᱚ
ᱦᱤᱨᱚᱭᱤᱱ
ᱦᱤᱨᱚᱱᱯᱩᱨ
ᱦᱤᱨᱞᱟᱹ
ᱦᱤᱨᱟ
ᱦᱤᱨᱟᱞᱟᱞ
ᱦᱤᱨᱟᱹ
ᱦᱤᱨᱟᱹᱣ
ᱦᱤᱨᱤ
ᱦᱤᱨᱳ
ᱦᱤᱨᱳᱭᱤᱱ
ᱦᱤᱫᱤᱡ
ᱦᱤᱯᱤᱲ
ᱦᱤᱰᱤᱧ
ᱦᱤᱱ
ᱦᱤᱱᱟ
ᱦᱤᱱᱦᱟᱹ
ᱦᱤᱱᱫᱤ
ᱦᱤᱱᱫᱩ
ᱦᱤᱱᱫᱩᱥᱛᱟᱱ
ᱦᱤᱱᱫᱩᱥᱛᱟᱱᱤ
ᱦᱤᱲ
ᱦᱤᱲᱤᱡ
ᱦᱤᱲᱤᱧ
ᱦᱤᱲᱤᱧᱟ
ᱦᱤᱴ
ᱦᱤᱴᱞᱟᱨ
ᱦᱤᱵᱨᱩ
ᱦᱤᱵᱽᱨᱩ
ᱦᱤᱸᱜᱚᱱᱜᱷᱟᱴ
ᱦᱤᱸᱥ
ᱦᱤᱸᱥᱟ
ᱦᱤᱸᱥᱟᱹ
ᱦᱤᱸᱥᱤᱫ
ᱦᱤᱸᱥᱮ
ᱦᱤᱸᱫᱤ
ᱦᱤᱸᱫᱩ
ᱦᱤᱸᱫᱽ
ᱦᱤᱸᱰᱚᱱ
ᱦᱩ
ᱦᱩᱜ
ᱦᱩᱜᱚ
ᱦᱩᱜᱞᱤ
ᱦᱩᱜᱽᱞᱤ
ᱦᱩᱞ
ᱦᱩᱞᱜᱟ
ᱦᱩᱞᱜᱟᱹᱨᱤᱭᱟᱹ
ᱦᱩᱞᱟ
ᱦᱩᱞᱥᱟ
ᱦᱩᱞᱥᱟᱹᱭ
ᱦᱩᱞᱪᱩᱞ
ᱦᱩᱠᱩᱢ
ᱦᱩᱢᱞᱟ
ᱦᱩᱢᱟᱭᱩᱱ
ᱦᱩᱢᱟᱭᱩᱸ
ᱦᱩᱣᱟᱴᱥᱟᱯ
ᱦᱩᱥ
ᱦᱩᱥᱮᱭᱱ
ᱦᱩᱥᱮᱱ
ᱦᱩᱥᱮᱸᱱ
ᱦᱩᱫᱟ
ᱦᱩᱫᱟᱹ
ᱦᱩᱫᱤᱥ
ᱦᱩᱫᱩᱬ
ᱦᱩᱫᱩᱲ
ᱦᱩᱭ
ᱦᱩᱭᱜ
ᱦᱩᱭᱞᱮᱱ
ᱦᱩᱭᱞᱮᱱᱟ
ᱦᱩᱭᱟᱜ
ᱦᱩᱭᱟᱠᱟᱱ
ᱦᱩᱭᱟᱠᱟᱱᱟ
ᱦᱩᱭᱟᱫ
ᱦᱩᱭᱩ
ᱦᱩᱭᱩᱜ
ᱦᱩᱭᱩᱜᱻᱟ
ᱦᱩᱭᱩᱜᱼᱟ
ᱦᱩᱭᱮᱱ
ᱦᱩᱭᱮᱱᱟ
ᱦᱩᱭᱱᱟ
ᱦᱩᱯᱠᱟ
ᱦᱩᱰᱤᱝ
ᱦᱩᱰᱤᱧ
ᱦᱩᱰᱤᱧᱟ
ᱦᱩᱰᱤᱧᱤᱡ
ᱦᱩᱰᱩᱧ
ᱦᱩᱱᱟ
ᱦᱩᱱᱟᱹᱝ
ᱦᱩᱱᱟᱹᱨ
ᱦᱩᱱᱟᱹᱨᱤᱭᱟᱹ
ᱦᱩᱲ
ᱦᱩᱲᱟ
ᱦᱩᱲᱟᱹᱜ
ᱦᱩᱲᱩ
ᱦᱩᱵᱮᱭ
ᱦᱩᱵᱽᱞᱤ
ᱦᱩᱸ
ᱦᱩᱸᱰᱨᱩ
ᱦᱭᱩᱢᱟᱱ
ᱦᱮ
ᱦᱮᱜ
ᱦᱮᱜᱮᱞ
ᱦᱮᱞ
ᱦᱮᱞᱛᱷ
ᱦᱮᱞᱠᱟᱣ
ᱦᱮᱞᱢᱮᱞ
ᱦᱮᱞᱤᱯᱮᱰ
ᱦᱮᱞᱮ
ᱦᱮᱞᱮᱱ
ᱦᱮᱠᱚᱨ
ᱦᱮᱠᱴᱚᱨ
ᱦᱮᱡ
ᱦᱮᱡᱥᱮᱱ
ᱦᱮᱡᱩᱜ
ᱦᱮᱡᱽ
ᱦᱮᱡᱽᱥᱮᱱ
ᱦᱮᱢ
ᱦᱮᱢᱚᱱᱛ
ᱦᱮᱢᱚᱱᱛᱚ
ᱦᱮᱢᱞᱚᱛᱟ
ᱦᱮᱢᱟ
ᱦᱮᱢᱟᱞ
ᱦᱮᱢᱟᱞᱵᱩᱨᱩ
ᱦᱮᱢᱵᱨᱚᱢ
ᱦᱮᱢᱵᱽᱨᱚᱢ
ᱦᱮᱣᱟ
ᱦᱮᱥᱞᱟ
ᱦᱮᱥᱮᱱ
ᱦᱮᱨᱤᱴᱮᱡ
ᱦᱮᱨᱤᱴᱮᱡᱽ
ᱦᱮᱨᱮᱞ
ᱦᱮᱪ
ᱦᱮᱭ
ᱦᱮᱯᱨᱟᱣ
ᱦᱮᱯᱮᱨᱟᱣ
ᱦᱮᱰ
ᱦᱮᱰᱠᱣᱟᱴᱚᱨ
ᱦᱮᱰᱠᱩᱣᱟᱴᱚᱨ
ᱦᱮᱰᱠᱩᱣᱟᱴᱟᱨ
ᱦᱮᱰᱮᱡ
ᱦᱮᱰᱯᱷᱳᱱ
ᱦᱮᱱᱨᱤ
ᱦᱮᱱᱫᱮ
ᱦᱮᱱᱰᱵᱩᱠ
ᱦᱮᱲᱟᱜ
ᱦᱮᱲᱦᱮᱫ
ᱦᱮᱲᱮ
ᱦᱮᱲᱮᱢ
ᱦᱮᱸ
ᱦᱮᱸᱥᱟᱜ
ᱦᱮᱸᱫᱮ
ᱦᱮᱸᱵᱽᱨᱚᱢ
ᱦᱱᱤ
ᱦᱳ
ᱦᱳᱛᱟ
ᱦᱳᱞᱤ
ᱦᱳᱡᱟᱭ
ᱦᱳᱢ
ᱦᱳᱢᱤᱭᱳᱯᱮᱛᱷᱤᱠ
ᱦᱳᱥᱮᱱ
ᱦᱳᱥᱴ
ᱦᱳᱥᱴᱮᱞ
ᱦᱳᱭ
ᱦᱳᱱᱳᱞᱩᱞᱩ
ᱦᱳᱲᱳ
ᱦᱳᱴᱮᱞ
ᱦᱳᱸ
ᱧ
ᱧᱚᱜ
ᱧᱟᱢ
ᱧᱟᱢᱚᱜ
ᱧᱟᱢᱚᱜᱚᱜ
ᱧᱟᱢᱚᱜᱟ
ᱧᱟᱢᱚᱜᱻᱟ
ᱧᱟᱢᱚᱜᱼᱟ
ᱧᱟᱢᱟ
ᱧᱟᱢᱟᱭ
ᱧᱟᱢᱮᱫ
ᱧᱟᱢᱮᱭᱟ
ᱧᱟᱢᱮᱱᱟ
ᱧᱟᱧᱟᱢᱟ
ᱧᱟᱯᱟᱢ
ᱧᱟᱯᱟᱢᱚᱜ
ᱧᱟᱯᱟᱢᱟ
ᱧᱤᱛ
ᱧᱤᱛᱩᱢ
ᱧᱤᱛᱩᱢᱟᱱ
ᱧᱤᱨ
ᱧᱤᱫᱟ
ᱧᱤᱫᱟᱹ
ᱧᱤᱱᱫᱟ
ᱧᱤᱱᱫᱟᱹ
ᱧᱤᱸᱫᱟ
ᱧᱤᱸᱫᱟᱹ
ᱧᱩ
ᱧᱩᱛ
ᱧᱩᱛᱟᱹᱛ
ᱧᱩᱛᱩᱢ
ᱧᱩᱛᱩᱢᱚᱜ
ᱧᱩᱛᱩᱢᱛᱮ
ᱧᱩᱛᱩᱢᱟ
ᱧᱩᱛᱩᱢᱟᱜ
ᱧᱩᱛᱩᱢᱟᱭ
ᱧᱩᱛᱩᱢᱟᱱ
ᱧᱩᱛᱩᱢᱟᱱᱟᱜ
ᱧᱩᱛᱩᱢᱮ
ᱧᱩᱢ
ᱧᱩᱢᱚᱜ
ᱧᱩᱢᱚᱜᱚᱜ
ᱧᱩᱢᱟᱱ
ᱧᱩᱢᱦᱟᱞᱟᱝ
ᱧᱩᱢᱩᱜᱚᱜ
ᱧᱩᱣᱟᱜ
ᱧᱩᱦᱩᱢ
ᱧᱩᱧᱩ
ᱧᱩᱨ
ᱧᱩᱨᱩᱜ
ᱧᱩᱨᱩᱜᱼᱟ
ᱧᱩᱭ
ᱧᱩᱭᱟ
ᱧᱩᱱᱩᱢ
ᱧᱩᱴᱩᱢ
ᱧᱮ
ᱧᱮᱛᱚᱜ
ᱧᱮᱛᱮᱞ
ᱧᱮᱞ
ᱧᱮᱞᱚᱜ
ᱧᱮᱞᱚᱜᱚᱜ
ᱧᱮᱞᱚᱜᱼᱟ
ᱧᱮᱞᱛᱮ
ᱧᱮᱞᱟ
ᱧᱮᱞᱟᱜ
ᱧᱮᱞᱟᱢ
ᱧᱮᱞᱡᱚᱝ
ᱧᱮᱞᱢᱮ
ᱧᱮᱞᱮ
ᱧᱮᱞᱮᱞᱚᱢ
ᱧᱮᱞᱮᱫ
ᱧᱮᱢᱮᱞ
ᱧᱮᱧᱮᱞ
ᱧᱮᱧᱮᱞᱚᱢ
ᱧᱮᱧᱮᱞᱤᱭᱟ
ᱧᱮᱧᱮᱞᱤᱭᱟᱹ
ᱧᱮᱯᱮᱞ
ᱧᱮᱱᱮᱞ
ᱧᱮᱱᱮᱞᱚᱢ
ᱧᱹ
ᱨ
ᱨᱚ
ᱨᱚᱛᱚᱱ
ᱨᱚᱛᱞᱚᱢ
ᱨᱚᱛᱞᱟᱢ
ᱨᱚᱛᱱᱚ
ᱨᱚᱛᱱᱟᱜᱤᱨᱤ
ᱨᱚᱛᱷ
ᱨᱚᱛᱷᱚ
ᱨᱚᱜ
ᱨᱚᱜᱟ
ᱨᱚᱜᱷᱩ
ᱨᱚᱜᱷᱩᱱᱟᱛᱷ
ᱨᱚᱜᱷᱩᱱᱟᱛᱷᱯᱩᱨ
ᱨᱚᱜᱽ
ᱨᱚᱝ
ᱨᱚᱝᱜ
ᱨᱚᱝᱜᱟ
ᱨᱚᱝᱜᱤᱱ
ᱨᱚᱝᱟᱞᱤ
ᱨᱚᱝᱯᱩᱨ
ᱨᱚᱞ
ᱨᱚᱠ
ᱨᱚᱠᱚᱢ
ᱨᱚᱠᱛᱚ
ᱨᱚᱠᱟ
ᱨᱚᱠᱮᱴ
ᱨᱚᱡᱚ
ᱨᱚᱡᱚᱛ
ᱨᱚᱡᱟ
ᱨᱚᱡᱽ
ᱨᱚᱢ
ᱨᱚᱢᱚᱡ
ᱨᱚᱢᱚᱡᱽ
ᱨᱚᱢᱟᱱ
ᱨᱚᱢᱟᱱᱤᱭᱟ
ᱨᱚᱢᱟᱱᱴᱤᱠ
ᱨᱚᱢᱟᱸᱥ
ᱨᱚᱢᱡᱟᱱ
ᱨᱚᱢᱡᱷᱚᱢ
ᱨᱚᱢᱭᱟ
ᱨᱚᱢᱮᱥ
ᱨᱚᱥ
ᱨᱚᱥᱟᱭᱚᱱ
ᱨᱚᱥᱤᱫᱽ
ᱨᱚᱥᱤᱭᱟ
ᱨᱚᱦᱚᱢᱟᱱ
ᱨᱚᱦᱚᱨ
ᱨᱚᱦᱚᱭ
ᱨᱚᱦᱚᱭᱟ
ᱨᱚᱦᱚᱲ
ᱨᱚᱦᱛᱚᱠ
ᱨᱚᱦᱛᱟᱠ
ᱨᱚᱦᱛᱟᱥ
ᱨᱚᱦᱟ
ᱨᱚᱦᱢᱟᱱ
ᱨᱚᱦᱤᱢ
ᱨᱚᱧᱡᱤᱛ
ᱨᱚᱨᱚᱲ
ᱨᱚᱪᱚᱱᱟ
ᱨᱚᱫᱚᱨᱯᱷᱚᱨᱰ
ᱨᱚᱭ
ᱨᱚᱭᱟᱞ
ᱨᱚᱭᱮᱞ
ᱨᱚᱯᱚᱲ
ᱨᱚᱯᱚᱲᱟ
ᱨᱚᱰ
ᱨᱚᱰᱚᱡ
ᱨᱚᱱ
ᱨᱚᱱᱚᱲ
ᱨᱚᱱᱡᱚᱱ
ᱨᱚᱲ
ᱨᱚᱲᱚᱜ
ᱨᱚᱲᱚᱜᱚᱜ
ᱨᱚᱲᱟ
ᱨᱚᱲᱟᱜ
ᱨᱚᱲᱟᱝ
ᱨᱚᱲᱟᱱ
ᱨᱚᱲᱭᱚᱢ
ᱨᱚᱲᱮ
ᱨᱚᱲᱮᱫ
ᱨᱚᱲᱮᱫᱟ
ᱨᱚᱲᱼᱟ
ᱨᱚᱲᱼᱦᱚᱲ
ᱨᱚᱲᱼᱮᱫ
ᱨᱚᱲᱼᱮᱫᱟ
ᱨᱚᱴᱮ
ᱨᱚᱵᱚᱨᱴ
ᱨᱚᱵᱚᱴ
ᱨᱚᱵᱤ
ᱨᱚᱵᱤᱱ
ᱨᱚᱵᱤᱱᱟ
ᱨᱚᱵᱤᱱᱫᱚᱨᱚ
ᱨᱚᱵᱤᱱᱫᱨᱚ
ᱨᱚᱵᱤᱱᱫᱨᱚᱱᱟᱛᱷ
ᱨᱚᱵᱤᱱᱫᱽᱨᱚ
ᱨᱚᱵᱤᱱᱫᱽᱨᱚᱱᱟᱛᱷ
ᱨᱚᱶᱟ
ᱨᱛᱤ
ᱨᱜᱟᱲ
ᱨᱝ
ᱨᱟ
ᱨᱟᱛ
ᱨᱟᱛᱟ
ᱨᱟᱛᱟᱝ
ᱨᱟᱛᱤ
ᱨᱟᱛᱨᱤ
ᱨᱟᱛᱩ
ᱨᱟᱛᱱᱟᱢ
ᱨᱟᱛᱷ
ᱨᱟᱜ
ᱨᱟᱜᱟ
ᱨᱟᱜᱤ
ᱨᱟᱜᱤᱬᱤ
ᱨᱟᱜᱷᱚᱵ
ᱨᱟᱜᱽ
ᱨᱟᱝᱜᱟ
ᱨᱟᱝᱜᱟᱢᱟᱴᱤ
ᱨᱟᱝᱜᱟᱣ
ᱨᱟᱠᱟᱯ
ᱨᱟᱠᱟᱵ
ᱨᱟᱠᱟᱵᱚᱜ
ᱨᱟᱠᱟᱵᱚᱜᱼᱟ
ᱨᱟᱠᱟᱵᱟ
ᱨᱟᱠᱟᱵᱼᱟ
ᱨᱟᱠᱟᱵᱽ
ᱨᱟᱠᱮᱥ
ᱨᱟᱠᱷᱟ
ᱨᱟᱠᱷᱟᱤᱱ
ᱨᱟᱠᱷᱟᱵᱤᱨ
ᱨᱟᱠᱷᱤ
ᱨᱟᱡ
ᱨᱟᱡᱚᱜ
ᱨᱟᱡᱚᱥᱛᱟᱱ
ᱨᱟᱡᱚᱥᱛᱷᱟᱱ
ᱨᱟᱡᱚᱥᱛᱷᱟᱱᱤ
ᱨᱟᱡᱚᱥᱴᱤ
ᱨᱟᱡᱚᱥᱴᱷᱤ
ᱨᱟᱡᱜᱟᱲ
ᱨᱟᱡᱟ
ᱨᱟᱡᱟᱜ
ᱨᱟᱡᱟᱡᱤ
ᱨᱟᱡᱟᱣᱩᱞ
ᱨᱟᱡᱟᱦᱟᱜ
ᱨᱟᱡᱟᱨᱤ
ᱨᱟᱡᱟᱨᱤᱭᱟ
ᱨᱟᱡᱟᱨᱤᱭᱟᱹ
ᱨᱟᱡᱟᱨᱦᱟᱴ
ᱨᱟᱡᱟᱭ
ᱨᱟᱡᱟᱯᱟᱠᱥᱟ
ᱨᱟᱡᱟᱯᱩᱨ
ᱨᱟᱡᱟᱹᱨᱤ
ᱨᱟᱡᱡᱚ
ᱨᱟᱡᱤ
ᱨᱟᱡᱤᱵ
ᱨᱟᱡᱤᱵᱽ
ᱨᱟᱡᱤᱵᱽᱯᱩᱨ
ᱨᱟᱡᱩ
ᱨᱟᱡᱭᱚ
ᱨᱟᱡᱭᱚᱥᱚᱵᱷᱟ
ᱨᱟᱡᱮ
ᱨᱟᱡᱮᱥ
ᱨᱟᱡᱮᱱᱫᱨᱚ
ᱨᱟᱡᱮᱱᱫᱽᱨᱚ
ᱨᱟᱡᱱᱤᱛᱤ
ᱨᱟᱡᱱᱮᱛᱟ
ᱨᱟᱡᱳᱣᱨᱤ
ᱨᱟᱡᱽ
ᱨᱟᱡᱽᱛᱚᱱᱛᱨᱚ
ᱨᱟᱡᱽᱜᱚᱲ
ᱨᱟᱡᱽᱜᱟᱲ
ᱨᱟᱡᱽᱜᱤᱨ
ᱨᱟᱡᱽᱜᱷᱟᱴ
ᱨᱟᱡᱽᱟ
ᱨᱟᱡᱽᱟᱹᱨᱤ
ᱨᱟᱡᱽᱟᱹᱨᱤᱛ
ᱨᱟᱡᱽᱟᱹᱨᱤᱭᱟᱱ
ᱨᱟᱡᱽᱟᱹᱨᱤᱭᱟᱹ
ᱨᱟᱡᱽᱟᱹᱨᱤᱭᱟᱹᱭ
ᱨᱟᱡᱽᱠᱚᱴ
ᱨᱟᱡᱽᱠᱩᱢᱟᱨ
ᱨᱟᱡᱽᱠᱳᱴ
ᱨᱟᱡᱽᱡᱚ
ᱨᱟᱡᱽᱡᱚᱥᱚᱵᱷᱟ
ᱨᱟᱡᱽᱡᱚᱯᱟᱞ
ᱨᱟᱡᱽᱡᱚᱯᱟᱲ
ᱨᱟᱡᱽᱢᱚᱦᱚᱞ
ᱨᱟᱡᱽᱢᱩᱸᱫᱽᱨᱤ
ᱨᱟᱡᱽᱣᱚᱸᱥᱤ
ᱨᱟᱡᱽᱥᱛᱷᱟᱱ
ᱨᱟᱡᱽᱥᱟᱦᱤ
ᱨᱟᱡᱽᱥᱣᱟ
ᱨᱟᱡᱽᱥᱮᱠᱷᱚᱨ
ᱨᱟᱡᱽᱦᱚᱨ
ᱨᱟᱡᱽᱨᱟᱯᱟᱜ
ᱨᱟᱡᱽᱫᱩᱛ
ᱨᱟᱡᱽᱫᱷᱟᱱᱣᱟᱨ
ᱨᱟᱡᱽᱫᱷᱟᱱᱤ
ᱨᱟᱡᱽᱫᱷᱟᱹᱱᱤ
ᱨᱟᱡᱽᱭᱚ
ᱨᱟᱡᱽᱭᱚᱥᱚᱵᱷᱟ
ᱨᱟᱡᱽᱯᱟᱞ
ᱨᱟᱡᱽᱯᱟᱹᱨᱥᱤ
ᱨᱟᱡᱽᱯᱤᱯᱞᱟ
ᱨᱟᱡᱽᱯᱩᱛ
ᱨᱟᱡᱽᱯᱩᱨ
ᱨᱟᱡᱽᱰᱟᱦᱟᱨ
ᱨᱟᱡᱽᱰᱟᱦᱟᱨᱼ
ᱨᱟᱡᱽᱱᱚᱜᱚᱨ
ᱨᱟᱡᱽᱱᱟᱱᱫᱽᱜᱟᱶ
ᱨᱟᱡᱽᱱᱤ
ᱨᱟᱡᱽᱱᱤᱛᱤ
ᱨᱟᱡᱽᱱᱤᱛᱤᱠ
ᱨᱟᱡᱽᱱᱮᱛᱟ
ᱨᱟᱡᱽᱵᱚᱝᱥᱚ
ᱨᱟᱡᱽᱵᱚᱝᱥᱤ
ᱨᱟᱡᱽᱵᱟᱲᱤ
ᱨᱟᱡᱽᱼᱟ
ᱨᱟᱡᱽᱼᱟᱹᱨᱤ
ᱨᱟᱢ
ᱨᱟᱢᱚ
ᱨᱟᱢᱜᱚᱲ
ᱨᱟᱢᱟ
ᱨᱟᱢᱟᱭᱚᱬ
ᱨᱟᱢᱟᱭᱚᱱ
ᱨᱟᱢᱟᱱ
ᱨᱟᱢᱟᱱᱚᱱᱫᱚ
ᱨᱟᱢᱟᱱᱩᱡᱽᱜᱚᱸᱡᱽ
ᱨᱟᱢᱠᱨᱤᱥᱱᱚ
ᱨᱟᱢᱩ
ᱨᱟᱢᱪᱟᱸᱫᱽ
ᱨᱟᱢᱫᱟᱥ
ᱨᱟᱢᱫᱮᱵᱽ
ᱨᱟᱢᱯᱟᱞ
ᱨᱟᱢᱯᱩᱨ
ᱨᱟᱢᱯᱩᱨᱦᱟᱴ
ᱨᱟᱢᱱᱚᱜᱚᱨ
ᱨᱟᱢᱱᱟᱛᱷ
ᱨᱟᱢᱱᱟᱛᱷᱯᱩᱨᱚᱢ
ᱨᱟᱢᱵᱟᱱ
ᱨᱟᱢᱵᱽᱲᱟ
ᱨᱟᱣ
ᱨᱟᱣᱟᱞ
ᱨᱟᱣᱩᱛ
ᱨᱟᱣᱩᱛᱨᱟᱭ
ᱨᱟᱣᱩᱨᱠᱮᱞᱟ
ᱨᱟᱣᱳᱸᱰ
ᱨᱟᱥ
ᱨᱟᱥᱜᱳᱵᱤᱸᱫᱽᱯᱩᱨ
ᱨᱟᱥᱟ
ᱨᱟᱥᱟᱭᱱᱤᱠ
ᱨᱟᱥᱠᱟ
ᱨᱟᱥᱢᱤᱠᱟ
ᱨᱟᱥᱤᱠᱯᱩᱨ
ᱨᱟᱥᱤᱢᱚᱱᱤ
ᱨᱟᱥᱤᱭᱟ
ᱨᱟᱥᱤᱭᱟᱱ
ᱨᱟᱥᱮ
ᱨᱟᱥᱮᱞ
ᱨᱟᱥᱴᱨᱚ
ᱨᱟᱥᱴᱨᱚᱯᱚᱛᱤ
ᱨᱟᱥᱴᱨᱤᱭ
ᱨᱟᱥᱴᱨᱤᱭᱚ
ᱨᱟᱦᱟ
ᱨᱟᱦᱟᱭ
ᱨᱟᱦᱤ
ᱨᱟᱦᱩᱞ
ᱨᱟᱦᱮ
ᱨᱟᱦᱮᱲ
ᱨᱟᱧᱪᱤ
ᱨᱟᱨᱟ
ᱨᱟᱨᱟᱱ
ᱨᱟᱨᱟᱱᱤᱡ
ᱨᱟᱩᱨᱠᱮᱞᱟ
ᱨᱟᱪᱟ
ᱨᱟᱪᱟᱜ
ᱨᱟᱪᱱᱟ
ᱨᱟᱫᱟ
ᱨᱟᱫᱷᱟ
ᱨᱟᱫᱷᱟᱠᱨᱩᱥᱱᱚᱱ
ᱨᱟᱫᱷᱤᱠᱟ
ᱨᱟᱬᱟ
ᱨᱟᱬᱤ
ᱨᱟᱭ
ᱨᱟᱭᱜᱚᱰᱟ
ᱨᱟᱭᱜᱚᱲ
ᱨᱟᱭᱜᱚᱸᱡᱽ
ᱨᱟᱭᱜᱟᱲ
ᱨᱟᱭᱟ
ᱨᱟᱭᱟᱜ
ᱨᱟᱭᱤ
ᱨᱟᱭᱤᱴ
ᱨᱟᱭᱥᱮᱱ
ᱨᱟᱭᱦᱚᱨᱤ
ᱨᱟᱭᱨᱚᱝᱯᱩᱨ
ᱨᱟᱭᱨᱚᱢᱯᱩᱨ
ᱨᱟᱭᱨᱤᱛ
ᱨᱟᱭᱪᱩᱨ
ᱨᱟᱭᱯᱩᱨ
ᱨᱟᱭᱯᱷᱚᱞ
ᱨᱟᱭᱰᱤᱦ
ᱨᱟᱭᱵᱟᱨ
ᱨᱟᱭᱵᱟᱨᱮᱞᱤ
ᱨᱟᱯᱛᱤ
ᱨᱟᱯᱟᱜ
ᱨᱟᱯᱟᱡᱽ
ᱨᱟᱯᱟᱪᱟᱜ
ᱨᱟᱯᱩᱫ
ᱨᱟᱱ
ᱨᱟᱱᱟ
ᱨᱟᱱᱟᱜ
ᱨᱟᱱᱟᱜᱷᱟᱴ
ᱨᱟᱱᱟᱣᱚᱛ
ᱨᱟᱱᱤ
ᱨᱟᱱᱤᱠᱷᱮᱛ
ᱨᱟᱱᱤᱥᱚᱝᱠᱳᱞ
ᱨᱟᱱᱤᱥᱣᱚᱨ
ᱨᱟᱱᱤᱱᱚᱜᱚᱨ
ᱨᱟᱱᱮ
ᱨᱟᱱᱵᱮ
ᱨᱟᱲᱟ
ᱨᱟᱲᱟᱝ
ᱨᱟᱲᱟᱫᱩᱜ
ᱨᱟᱲᱮᱡ
ᱨᱟᱵᱚᱬ
ᱨᱟᱵᱚᱱ
ᱨᱟᱵᱟᱝ
ᱨᱟᱵᱤ
ᱨᱟᱵᱷᱟ
ᱨᱟᱸᱜᱟᱣ
ᱨᱟᱸᱪᱤ
ᱨᱟᱹᱜᱤ
ᱨᱟᱹᱜᱷᱩᱱᱟᱛ
ᱨᱟᱹᱜᱷᱩᱱᱟᱛᱷ
ᱨᱟᱹᱜᱷᱩᱵᱚᱨ
ᱨᱟᱹᱡᱤ
ᱨᱟᱹᱥ
ᱨᱟᱹᱥᱠᱟ
ᱨᱟᱹᱥᱠᱟᱹ
ᱨᱟᱹᱥᱠᱟᱹᱜ
ᱨᱟᱹᱥᱠᱟᱹᱭ
ᱨᱟᱹᱥᱤᱭᱟᱹ
ᱨᱟᱹᱥᱤᱭᱟᱹᱭ
ᱨᱟᱹᱧᱪᱤ
ᱨᱟᱹᱯᱩᱛ
ᱨᱟᱹᱯᱩᱫ
ᱨᱟᱹᱯᱩᱫᱚᱜ
ᱨᱟᱹᱱᱤ
ᱨᱟᱹᱱᱤᱜᱚᱸᱡᱽ
ᱨᱟᱹᱱᱤᱥᱚᱞ
ᱨᱟᱹᱲ
ᱨᱟᱺᱪᱤ
ᱨᱟᱺᱰᱤ
ᱨᱠᱚ
ᱨᱠᱷᱟᱱᱟ
ᱨᱡᱤ
ᱨᱡᱤᱢ
ᱨᱢᱩ
ᱨᱣ
ᱨᱣᱭᱟᱜ
ᱨᱤ
ᱨᱤᱛ
ᱨᱤᱛᱟ
ᱨᱤᱛᱤ
ᱨᱤᱛᱩ
ᱨᱤᱛᱮᱥ
ᱨᱤᱛᱷ
ᱨᱤᱝ
ᱨᱤᱞᱟ
ᱨᱤᱞᱟᱭᱚᱸᱥ
ᱨᱤᱞᱤᱡ
ᱨᱤᱞᱤᱡᱽ
ᱨᱤᱞᱤᱥ
ᱨᱤᱞᱤᱭᱟᱱᱥ
ᱨᱤᱠᱚᱨᱰ
ᱨᱤᱠᱟ
ᱨᱤᱠᱟᱹ
ᱨᱤᱠᱟᱹᱭᱟ
ᱨᱤᱠᱥᱟ
ᱨᱤᱠᱳᱨᱰ
ᱨᱤᱡ
ᱨᱤᱡᱚᱨᱵᱽ
ᱨᱤᱡᱚᱱ
ᱨᱤᱡᱟᱞᱴ
ᱨᱤᱡᱟᱨᱵᱽ
ᱨᱤᱡᱟᱱ
ᱨᱤᱡᱷᱟ
ᱨᱤᱡᱷᱟᱹᱣ
ᱨᱤᱢ
ᱨᱤᱢᱤ
ᱨᱤᱢᱤᱞ
ᱨᱤᱢᱮᱠ
ᱨᱤᱣᱟ
ᱨᱤᱥ
ᱨᱤᱥᱚᱨᱪ
ᱨᱤᱥᱛᱟ
ᱨᱤᱥᱟᱨᱪ
ᱨᱤᱥᱤ
ᱨᱤᱦᱤᱴ
ᱨᱤᱧ
ᱨᱤᱨᱤ
ᱨᱤᱨᱮ
ᱨᱤᱪ
ᱨᱤᱪᱟ
ᱨᱤᱪᱟᱨᱰ
ᱨᱤᱫ
ᱨᱤᱫᱟ
ᱨᱤᱫᱟᱹᱭ
ᱨᱤᱭᱚ
ᱨᱤᱭᱟ
ᱨᱤᱭᱟᱞᱤᱴᱤ
ᱨᱤᱭᱟᱥᱚᱛ
ᱨᱤᱭᱟᱥᱤ
ᱨᱤᱭᱟᱫᱽ
ᱨᱤᱭᱟᱱ
ᱨᱤᱭᱮᱞ
ᱨᱤᱭᱮᱞᱤᱴᱤ
ᱨᱤᱭᱮᱠᱥᱚᱱ
ᱨᱤᱭᱳ
ᱨᱤᱯᱚᱨᱴ
ᱨᱤᱯᱚᱴ
ᱨᱤᱯᱟᱵᱞᱤᱠ
ᱨᱤᱯᱟᱵᱽᱞᱤᱠ
ᱨᱤᱯᱳᱨᱴ
ᱨᱤᱯᱷᱩᱡᱤ
ᱨᱤᱱ
ᱨᱤᱱᱡ
ᱨᱤᱱᱤᱡ
ᱨᱤᱱᱤᱡᱽ
ᱨᱤᱱᱤᱱ
ᱨᱤᱴᱟᱭᱟᱨᱰ
ᱨᱥᱤ
ᱨᱩ
ᱨᱩᱛᱩ
ᱨᱩᱛᱷ
ᱨᱩᱜᱤ
ᱨᱩᱜᱤᱭᱟᱜ
ᱨᱩᱜᱲᱤᱰᱤ
ᱨᱩᱞ
ᱨᱩᱠᱢᱤᱬᱤ
ᱨᱩᱠᱷᱤᱭᱟ
ᱨᱩᱠᱷᱤᱭᱟᱹ
ᱨᱩᱠᱷᱭᱟᱹ
ᱨᱩᱡᱽᱵᱷᱮᱞᱴ
ᱨᱩᱢ
ᱨᱩᱣᱟ
ᱨᱩᱣᱟᱱᱰᱟ
ᱨᱩᱣᱟᱲ
ᱨᱩᱣᱟᱹ
ᱨᱩᱣᱟᱹᱜ
ᱨᱩᱣᱟᱹᱨ
ᱨᱩᱣᱟᱹᱲ
ᱨᱩᱣᱟᱹᱲᱚᱜ
ᱨᱩᱣᱟᱹᱲᱟ
ᱨᱩᱥ
ᱨᱩᱥᱤ
ᱨᱩᱥᱤᱠᱟ
ᱨᱩᱥᱤᱠᱟᱭ
ᱨᱩᱥᱤᱭᱟ
ᱨᱩᱥᱤᱭᱟᱱ
ᱨᱩᱦᱤᱭᱟ
ᱨᱩᱨᱟᱞ
ᱨᱩᱨᱩ
ᱨᱩᱨᱩᱭᱤᱡ
ᱨᱩᱪᱤ
ᱨᱩᱫᱨᱚᱢᱟ
ᱨᱩᱫᱽᱨᱚ
ᱨᱩᱫᱽᱨᱚᱯᱨᱚᱭᱟᱜᱽ
ᱨᱩᱫᱽᱨᱚᱯᱩᱨ
ᱨᱩᱭ
ᱨᱩᱭᱟ
ᱨᱩᱯ
ᱨᱩᱯᱛᱮ
ᱨᱩᱯᱟ
ᱨᱩᱯᱟᱹ
ᱨᱩᱯᱢᱟᱛᱤ
ᱨᱩᱯᱤ
ᱨᱩᱯᱥᱟ
ᱨᱩᱯᱨᱮ
ᱨᱩᱯᱩᱥᱤᱝ
ᱨᱩᱯᱪᱟᱸᱫᱽ
ᱨᱩᱯᱱᱚᱜᱚᱨ
ᱨᱩᱯᱷᱮᱨᱟᱣ
ᱨᱩᱱᱟ
ᱨᱩᱴ
ᱨᱩᱴᱤ
ᱨᱩᱵ
ᱨᱩᱵᱮᱱᱥ
ᱨᱩᱸᱰᱟᱹ
ᱨᱩᱻ
ᱨᱩᱻᱚᱨᱚᱝ
ᱨᱭ
ᱨᱭᱟ
ᱨᱮ
ᱨᱮᱛᱟ
ᱨᱮᱛᱟᱜ
ᱨᱮᱜᱤ
ᱨᱮᱜᱤᱥᱛᱟᱱ
ᱨᱮᱜᱩᱞᱟᱨ
ᱨᱮᱜᱮ
ᱨᱮᱜᱮᱠᱚ
ᱨᱮᱜᱮᱭ
ᱨᱮᱝᱜᱮᱡ
ᱨᱮᱝᱠ
ᱨᱮᱝᱠᱤᱝ
ᱨᱮᱞ
ᱨᱮᱞᱜᱟᱹᱰᱤ
ᱨᱮᱞᱟ
ᱨᱮᱞᱣᱮ
ᱨᱮᱞᱦᱚᱨ
ᱨᱮᱞᱮ
ᱨᱮᱞᱵᱟᱭ
ᱨᱮᱟᱜ
ᱨᱮᱠᱚ
ᱨᱮᱠᱚᱨᱰ
ᱨᱮᱠᱚᱰ
ᱨᱮᱠᱤᱱ
ᱨᱮᱠᱩ
ᱨᱮᱠᱳᱨᱰ
ᱨᱮᱠᱷᱟ
ᱨᱮᱡ
ᱨᱮᱡᱤᱢᱮᱱᱴ
ᱨᱮᱡᱤᱢᱮᱸᱴ
ᱨᱮᱡᱤᱥᱴᱟᱨ
ᱨᱮᱡᱮᱱᱥᱤ
ᱨᱮᱢ
ᱨᱮᱢᱟ
ᱨᱮᱢᱟᱜ
ᱨᱮᱢᱩᱬᱟ
ᱨᱮᱢᱳ
ᱨᱮᱣᱟᱲᱤ
ᱨᱮᱥ
ᱨᱮᱥᱢᱟ
ᱨᱮᱥᱤᱳ
ᱨᱮᱥᱴᱚᱨᱮᱸᱴ
ᱨᱮᱦᱚ
ᱨᱮᱦᱚᱸ
ᱨᱮᱦᱚᱸᱭ
ᱨᱮᱦᱟᱱᱟ
ᱨᱮᱦᱢᱟᱱ
ᱨᱮᱦᱮᱫ
ᱨᱮᱦᱮᱫᱽ
ᱨᱮᱧᱡᱽ
ᱨᱮᱪᱚ
ᱨᱮᱫ
ᱨᱮᱫᱚ
ᱨᱮᱫᱚᱭ
ᱨᱮᱬᱩ
ᱨᱮᱬᱩᱠᱟ
ᱨᱮᱭ
ᱨᱮᱭᱟ
ᱨᱮᱭᱟᱜ
ᱨᱮᱭᱟᱜᱽ
ᱨᱮᱭᱟᱝ
ᱨᱮᱭᱟᱦ
ᱨᱮᱭᱟᱲ
ᱨᱮᱭᱟᱲᱟ
ᱨᱮᱭᱥᱜ
ᱨᱮᱭᱮ
ᱨᱮᱯ
ᱨᱮᱯᱨᱤᱡᱮᱱᱴᱮᱥᱚᱱ
ᱨᱮᱯᱮᱪ
ᱨᱮᱯᱷᱟᱨᱤ
ᱨᱮᱰ
ᱨᱮᱰᱚᱨ
ᱨᱮᱰᱠᱨᱳᱥ
ᱨᱮᱰᱢᱤ
ᱨᱮᱰᱤ
ᱨᱮᱰᱤᱭᱚ
ᱨᱮᱰᱤᱭᱳ
ᱨᱮᱰᱰᱤ
ᱨᱮᱱ
ᱨᱮᱱᱜ
ᱨᱮᱱᱜᱟ
ᱨᱮᱱᱟ
ᱨᱮᱱᱟᱜ
ᱨᱮᱱᱟᱝ
ᱨᱮᱱᱟᱭ
ᱨᱮᱱᱤᱡ
ᱨᱮᱱᱥᱜ
ᱨᱮᱱᱩ
ᱨᱮᱴ
ᱨᱮᱵᱟ
ᱨᱮᱵᱟᱜ
ᱨᱮᱵᱮᱫ
ᱨᱮᱵᱮᱱ
ᱨᱮᱵᱷᱮᱱᱥᱟ
ᱨᱮᱸ
ᱨᱮᱸᱜᱮᱡ
ᱨᱮᱸᱜᱮᱸᱪ
ᱨᱮᱸᱠ
ᱨᱮᱸᱠᱤᱝ
ᱨᱮᱸᱡ
ᱨᱮᱸᱡᱽ
ᱨᱮᱹᱞ
ᱨᱮᱹᱞᱣᱮ
ᱨᱯᱟᱫᱟ
ᱨᱱᱟᱜ
ᱨᱳᱜᱽ
ᱨᱳᱝᱢᱮᱭ
ᱨᱳᱞ
ᱨᱳᱠ
ᱨᱳᱠᱮᱭᱟ
ᱨᱳᱡᱟ
ᱨᱳᱡᱽ
ᱨᱳᱢ
ᱨᱳᱢᱟᱱ
ᱨᱳᱢᱟᱱᱤ
ᱨᱳᱢᱟᱱᱤᱭᱟ
ᱨᱳᱢᱟᱱᱤᱭᱟᱱ
ᱨᱳᱢᱟᱱᱥ
ᱨᱳᱢᱟᱱᱴᱤᱠ
ᱨᱳᱣᱢᱟᱨᱤ
ᱨᱳᱥᱚᱱ
ᱨᱳᱥᱴᱳᱣ
ᱨᱳᱦᱛᱟᱥ
ᱨᱳᱦᱤᱛ
ᱨᱳᱦᱤᱝᱜᱟ
ᱨᱳᱭ
ᱨᱳᱭᱟᱞ
ᱨᱳᱰ
ᱩ
ᱩᱛᱚᱨ
ᱩᱛᱚᱨᱟᱠᱷᱚᱸᱰ
ᱩᱛᱚᱨᱠᱟᱥᱤ
ᱩᱛᱛᱚᱢ
ᱩᱛᱛᱚᱨ
ᱩᱛᱛᱚᱨᱟ
ᱩᱛᱛᱚᱨᱟᱠᱷᱚᱸᱰ
ᱩᱛᱛᱟ
ᱩᱛᱛᱟᱨ
ᱩᱛᱛᱟᱹᱨ
ᱩᱛᱟ
ᱩᱛᱟᱨ
ᱩᱛᱟᱹᱨ
ᱩᱛᱟᱹᱨᱚᱜ
ᱩᱛᱟᱹᱨᱤᱡ
ᱩᱛᱟᱹᱨᱼᱯᱟᱹᱪᱷᱤᱢ
ᱩᱛᱠᱚᱞ
ᱩᱛᱠᱚᱲ
ᱩᱛᱩ
ᱩᱛᱩᱭ
ᱩᱛᱱᱟ
ᱩᱛᱱᱟᱹᱣ
ᱩᱛᱱᱟᱹᱶ
ᱩᱛᱷᱱᱟ
ᱩᱛᱷᱱᱟᱹᱣ
ᱩᱜᱟᱱᱰᱟ
ᱩᱝᱠᱩ
ᱩᱞ
ᱩᱞᱞᱟᱯᱟᱲᱟ
ᱩᱞᱟ
ᱩᱞᱟᱱᱵᱟᱴᱚᱨ
ᱩᱞᱤᱯᱩᱨ
ᱩᱞᱦᱟᱥᱱᱚᱜᱚᱨ
ᱩᱞᱩᱜᱽ
ᱩᱞᱮᱠᱠᱷᱚ
ᱩᱞᱴᱟ
ᱩᱞᱴᱟᱹ
ᱩᱞᱴᱟᱹᱣ
ᱩᱞᱴᱤ
ᱩᱠᱤᱞ
ᱩᱠᱩ
ᱩᱠᱷᱨᱩᱞ
ᱩᱡᱟᱹᱲ
ᱩᱡᱡᱮᱱ
ᱩᱡᱩᱱ
ᱩᱡᱽᱡᱮᱱ
ᱩᱡᱽᱵᱮᱠ
ᱩᱡᱽᱵᱮᱠᱤᱥᱛᱟᱱ
ᱩᱢ
ᱩᱢᱚᱨ
ᱩᱢᱟ
ᱩᱢᱟᱨ
ᱩᱢᱟᱹᱨ
ᱩᱢᱤᱨᱫᱟ
ᱩᱢᱨᱤᱭᱟ
ᱩᱢᱩᱜ
ᱩᱢᱩᱞ
ᱩᱢᱩᱨ
ᱩᱢᱮᱞ
ᱩᱢᱮᱨ
ᱩᱢᱮᱨᱟᱱ
ᱩᱥᱛᱟᱫᱽ
ᱩᱥᱟ
ᱩᱥᱟᱨᱟ
ᱩᱥᱟᱹᱨᱟ
ᱩᱥᱟᱹᱫ
ᱩᱥᱠᱟ
ᱩᱥᱠᱟᱹᱣ
ᱩᱥᱢᱟᱱᱟᱵᱟᱫᱽ
ᱩᱥᱩᱞ
ᱩᱥᱩᱞᱟ
ᱩᱥᱩᱞᱟᱜ
ᱩᱦᱟᱱ
ᱩᱧᱩᱢ
ᱩᱨᱜᱩᱢ
ᱩᱨᱟᱹᱶ
ᱩᱨᱡᱟᱹ
ᱩᱨᱢᱤᱞᱟ
ᱩᱨᱤ
ᱩᱨᱤᱡ
ᱩᱨᱤᱪ
ᱩᱨᱩ
ᱩᱨᱩᱜᱩᱭᱮ
ᱩᱨᱩᱢ
ᱩᱨᱩᱢᱚᱜ
ᱩᱨᱫᱩ
ᱩᱨᱫᱷᱩ
ᱩᱨᱯᱷ
ᱩᱪᱟ
ᱩᱪᱟᱹᱱ
ᱩᱪᱟᱹᱲ
ᱩᱪᱟᱹᱲᱚᱜ
ᱩᱪᱟᱹᱲᱚᱜᱼᱟ
ᱩᱪᱟᱹᱲᱮᱱᱟ
ᱩᱪᱤᱛ
ᱩᱪᱩᱫ
ᱩᱪᱪᱚ
ᱩᱪᱷᱟ
ᱩᱪᱷᱟᱱ
ᱩᱪᱷᱟᱹᱱ
ᱩᱪᱷᱟᱹᱱᱚᱜ
ᱩᱫ
ᱩᱫᱚᱭ
ᱩᱫᱚᱭᱜᱤᱨᱤ
ᱩᱫᱚᱭᱯᱩᱨ
ᱩᱫᱚᱲᱟ
ᱩᱫᱜᱟ
ᱩᱫᱟ
ᱩᱫᱟᱭ
ᱩᱫᱟᱹᱞᱜᱩᱲᱤ
ᱩᱫᱤᱥ
ᱩᱫᱩᱜ
ᱩᱫᱩᱜᱟ
ᱩᱫᱩᱜᱤᱜ
ᱩᱫᱩᱜᱤᱡ
ᱩᱫᱩᱜᱤᱦ
ᱩᱫᱩᱜᱤᱭᱟ
ᱩᱫᱩᱜᱤᱭᱟᱹ
ᱩᱫᱩᱜᱽ
ᱩᱫᱫᱤᱱ
ᱩᱫᱮᱞᱟ
ᱩᱫᱷᱚᱢ
ᱩᱫᱷᱚᱢᱯᱩᱨ
ᱩᱫᱷᱣᱟ
ᱩᱫᱽ
ᱩᱫᱽᱜᱟ
ᱩᱫᱽᱜᱟᱣ
ᱩᱫᱽᱜᱟᱹᱣ
ᱩᱫᱽᱜᱟᱹᱨ
ᱩᱫᱽᱜᱤᱨ
ᱩᱫᱽᱫᱮᱥᱭᱚ
ᱩᱭᱜᱷᱩᱨ
ᱩᱭᱦᱟ
ᱩᱭᱦᱟᱨ
ᱩᱭᱦᱟᱹᱨ
ᱩᱭᱦᱟᱹᱨᱟ
ᱩᱯ
ᱩᱯᱚ
ᱩᱯᱚᱞ
ᱩᱯᱚᱡᱮᱞᱟ
ᱩᱯᱚᱡᱮᱞᱟᱠᱚ
ᱩᱯᱚᱢᱟᱦᱫᱮᱥ
ᱩᱯᱚᱫᱤᱯ
ᱩᱯᱚᱯᱨᱚᱢᱩᱠᱷ
ᱩᱯᱚᱱᱤᱵᱮᱥ
ᱩᱯᱟ
ᱩᱯᱟᱫᱷᱤ
ᱩᱯᱟᱭ
ᱩᱯᱟᱹᱞ
ᱩᱯᱟᱹᱥ
ᱩᱯᱟᱹᱭ
ᱩᱯᱠᱷᱚᱸᱰ
ᱩᱯᱨᱤᱭᱟ
ᱩᱯᱨᱩᱢ
ᱩᱯᱨᱩᱢᱚᱜ
ᱩᱯᱨᱮᱛᱤ
ᱩᱯᱩᱨᱩᱢ
ᱩᱯᱫᱚᱨᱭᱟ
ᱩᱯᱭᱟᱺᱥ
ᱩᱯᱮᱞ
ᱩᱯᱮᱱᱫᱽᱨᱚ
ᱩᱯᱱᱚᱜᱚᱨ
ᱩᱯᱱᱟᱜᱟᱨ
ᱩᱯᱲᱩᱢ
ᱩᱯᱳ
ᱩᱯᱳᱡᱤᱞᱟ
ᱩᱯᱳᱡᱮᱞᱟ
ᱩᱯᱳᱱᱟᱭᱥ
ᱩᱯᱳᱱᱭᱟᱥ
ᱩᱰ
ᱩᱰᱟ
ᱩᱰᱟᱹᱜ
ᱩᱰᱟᱹᱜᱼᱟ
ᱩᱰᱟᱹᱣ
ᱩᱰᱟᱹᱣᱜ
ᱩᱰᱟᱹᱱ
ᱩᱰᱟᱹᱱᱟᱰᱟ
ᱩᱰᱤ
ᱩᱰᱤᱥᱟ
ᱩᱰᱤᱭᱟ
ᱩᱰᱤᱭᱟᱹ
ᱩᱰᱩᱜ
ᱩᱰᱩᱜᱽ
ᱩᱰᱩᱝ
ᱩᱰᱩᱠ
ᱩᱰᱩᱠᱚᱜ
ᱩᱰᱩᱯᱤ
ᱩᱰᱷᱟ
ᱩᱰᱷᱟᱹᱣ
ᱩᱱ
ᱩᱱᱚᱠᱛᱚ
ᱩᱱᱟ
ᱩᱱᱟᱠᱚᱴᱤ
ᱩᱱᱟᱹᱜ
ᱩᱱᱠᱚ
ᱩᱱᱠᱟ
ᱩᱱᱠᱤᱱ
ᱩᱱᱠᱤᱱᱟᱜ
ᱩᱱᱠᱩ
ᱩᱱᱠᱩᱣᱟᱜ
ᱩᱱᱠᱩᱭ
ᱩᱱᱠᱷᱚᱱ
ᱩᱱᱡᱚᱠᱷᱟᱜ
ᱩᱱᱡᱚᱦᱚᱜ
ᱩᱱᱡᱷᱚᱜ
ᱩᱱᱡᱷᱚᱜᱤᱡ
ᱩᱱᱤ
ᱩᱱᱤᱜᱮ
ᱩᱱᱤᱠᱤᱱ
ᱩᱱᱤᱨᱤᱱ
ᱩᱱᱤᱨᱮᱱ
ᱩᱱᱤᱫᱚ
ᱩᱱᱤᱫᱚᱭ
ᱩᱱᱤᱭ
ᱩᱱᱤᱭᱟ
ᱩᱱᱤᱭᱟᱜ
ᱩᱱᱤᱭᱟᱹᱜ
ᱩᱱᱤᱭᱤᱡ
ᱩᱱᱤᱭᱮ
ᱩᱱᱨᱮ
ᱩᱱᱩ
ᱩᱱᱩᱢ
ᱩᱱᱩᱥᱟᱨ
ᱩᱱᱩᱥᱩᱞ
ᱩᱱᱩᱨᱩᱢ
ᱩᱱᱩᱫᱩᱜ
ᱩᱱᱩᱭᱦᱟᱹᱨ
ᱩᱱᱩᱯᱨᱩᱢ
ᱩᱱᱱᱚᱭᱚᱱ
ᱩᱱᱱᱟᱣ
ᱩᱱᱱᱤ
ᱩᱲᱤᱡ
ᱩᱲᱤᱥᱥᱟ
ᱩᱲᱤᱭᱟ
ᱩᱲᱫᱩ
ᱩᱴᱤ
ᱩᱴᱱᱟᱹᱣ
ᱩᱴᱷᱟᱹᱣ
ᱩᱴᱷᱱᱟᱹᱜ
ᱩᱴᱷᱱᱟᱹᱣ
ᱩᱵ
ᱩᱸᱴ
ᱪ
ᱪᱚ
ᱪᱚᱛᱩᱨᱵᱮᱫᱤ
ᱪᱚᱝ
ᱪᱚᱞ
ᱪᱚᱞᱚ
ᱪᱚᱞᱚᱛ
ᱪᱚᱞᱚᱪᱤᱛᱨᱚ
ᱪᱚᱞᱚᱪᱤᱛᱽᱨᱚ
ᱪᱚᱞᱚᱱ
ᱪᱚᱞᱟᱱ
ᱪᱚᱞᱤᱛ
ᱪᱚᱠ
ᱪᱚᱠᱟ
ᱪᱚᱠᱟᱜ
ᱪᱚᱠᱨᱚ
ᱪᱚᱠᱨᱚᱫᱷᱚᱨᱯᱩᱨ
ᱪᱚᱠᱨᱚᱵᱚᱨᱛᱤ
ᱪᱚᱢᱚᱱ
ᱪᱚᱢᱯᱟ
ᱪᱚᱢᱯᱟᱣᱚᱛ
ᱪᱚᱢᱯᱟᱨᱚᱱ
ᱪᱚᱢᱯᱷᱟᱭ
ᱪᱚᱢᱵᱚᱞ
ᱪᱚᱣᱠ
ᱪᱚᱣᱠᱟ
ᱪᱚᱣᱦᱟᱱ
ᱪᱚᱣᱩᱫᱷᱩᱨᱤ
ᱪᱚᱣᱫᱷᱚᱨᱤ
ᱪᱚᱣᱫᱷᱨᱤ
ᱪᱚᱣᱫᱷᱩᱨᱤ
ᱪᱚᱧᱪᱞᱟᱱᱤ
ᱪᱚᱨ
ᱪᱚᱨᱚᱠ
ᱪᱚᱨᱚᱠᱟ
ᱪᱚᱨᱚᱬ
ᱪᱚᱨᱚᱱ
ᱪᱚᱨᱠᱷᱤ
ᱪᱚᱨᱤ
ᱪᱚᱨᱤᱛ
ᱪᱚᱨᱤᱛᱨᱚ
ᱪᱚᱨᱪ
ᱪᱚᱨᱪᱟ
ᱪᱚᱭ
ᱪᱚᱭᱛᱚᱱᱭᱚ
ᱪᱚᱯᱚᱫ
ᱪᱚᱯᱨᱟ
ᱪᱚᱰᱷᱮᱭᱤ
ᱪᱚᱱᱫᱚᱱ
ᱪᱚᱱᱫᱚᱱᱠᱤᱭᱟᱨᱤ
ᱪᱚᱱᱫᱨᱚ
ᱪᱚᱱᱫᱨᱟ
ᱪᱚᱱᱫᱽᱨᱚ
ᱪᱚᱱᱫᱽᱨᱚᱭᱟᱱ
ᱪᱚᱱᱫᱽᱨᱚᱱ
ᱪᱚᱱᱰᱤ
ᱪᱚᱱᱰᱤᱜᱚᱰ
ᱪᱚᱱᱰᱤᱜᱚᱲ
ᱪᱚᱱᱰᱤᱞ
ᱪᱚᱲᱟᱣ
ᱪᱚᱲᱟᱣᱜ
ᱪᱚᱴ
ᱪᱚᱴᱚᱯᱟᱫᱷᱭᱟᱭ
ᱪᱚᱴᱟᱛ
ᱪᱚᱴᱨᱮ
ᱪᱚᱴᱴᱚᱜᱨᱟᱢ
ᱪᱚᱴᱴᱚᱜᱽᱨᱟᱢ
ᱪᱚᱸᱫᱟ
ᱪᱚᱸᱫᱨᱚ
ᱪᱚᱸᱫᱽᱨᱚ
ᱪᱚᱸᱫᱽᱨᱚᱯᱩᱨ
ᱪᱚᱸᱫᱽᱨᱚᱯᱩᱨᱟ
ᱪᱚᱸᱫᱽᱨᱟ
ᱪᱟ
ᱪᱟᱛᱚᱢ
ᱪᱟᱛᱨᱟ
ᱪᱟᱜ
ᱪᱟᱝᱜᱟ
ᱪᱟᱝᱜᱷᱟ
ᱪᱟᱝᱠᱤ
ᱪᱟᱞ
ᱪᱟᱞᱟ
ᱪᱟᱞᱟᱜ
ᱪᱟᱞᱟᱜᱟᱜ
ᱪᱟᱞᱟᱜᱼᱟ
ᱪᱟᱞᱟᱠ
ᱪᱟᱞᱟᱣ
ᱪᱟᱞᱟᱣᱟ
ᱪᱟᱞᱟᱣᱮᱱ
ᱪᱟᱞᱟᱣᱮᱱᱟ
ᱪᱟᱞᱟᱭ
ᱪᱟᱞᱟᱱ
ᱪᱟᱞᱩ
ᱪᱟᱞᱩᱠᱭᱚ
ᱪᱟᱞᱮᱫ
ᱪᱟᱞᱱᱤ
ᱪᱟᱠᱟ
ᱪᱟᱠᱟᱨ
ᱪᱟᱠᱢᱟ
ᱪᱟᱠᱤ
ᱪᱟᱠᱨᱤ
ᱪᱟᱠᱷᱟ
ᱪᱟᱢ
ᱪᱟᱢᱚᱞᱤ
ᱪᱟᱢᱚᱪ
ᱪᱟᱢᱨᱟᱡᱽᱱᱚᱜᱚᱨ
ᱪᱟᱢᱯᱟ
ᱪᱟᱢᱯᱟᱨᱚᱱ
ᱪᱟᱢᱯᱟᱨᱟᱱ
ᱪᱟᱢᱯᱤᱭᱚᱱ
ᱪᱟᱢᱯᱤᱭᱚᱱᱥᱤᱯ
ᱪᱟᱢᱯᱤᱭᱟᱱ
ᱪᱟᱢᱯᱤᱭᱟᱱᱥᱤᱯ
ᱪᱟᱢᱵᱟ
ᱪᱟᱣᱞᱟ
ᱪᱟᱣᱞᱮ
ᱪᱟᱥ
ᱪᱟᱥᱚᱜ
ᱪᱟᱥᱟ
ᱪᱟᱥᱵᱟᱥ
ᱪᱟᱦᱟ
ᱪᱟᱨ
ᱪᱟᱨᱜᱷᱟᱴ
ᱪᱟᱨᱞᱤ
ᱪᱟᱨᱞᱥ
ᱪᱟᱨᱞᱮᱥ
ᱪᱟᱨᱟ
ᱪᱟᱨᱠᱷᱟ
ᱪᱟᱨᱡᱽ
ᱪᱟᱨᱦᱟᱣ
ᱪᱟᱨᱪ
ᱪᱟᱨᱪᱟ
ᱪᱟᱨᱪᱟᱣ
ᱪᱟᱨᱪᱟᱭ
ᱪᱟᱨᱪᱤᱞ
ᱪᱟᱨᱮᱡ
ᱪᱟᱨᱴᱟᱨ
ᱪᱟᱪᱚ
ᱪᱟᱪᱞᱟᱜ
ᱪᱟᱪᱞᱟᱣ
ᱪᱟᱪᱞᱟᱣᱚᱜ
ᱪᱟᱪᱞᱟᱣᱜ
ᱪᱟᱪᱞᱟᱣᱟ
ᱪᱟᱪᱞᱟᱣᱤᱡ
ᱪᱟᱪᱞᱟᱣᱤᱭᱟ
ᱪᱟᱪᱞᱟᱣᱤᱭᱟᱹ
ᱪᱟᱪᱞᱟᱣᱭᱚᱜ
ᱪᱟᱪᱟᱞᱟᱣ
ᱪᱟᱪᱟᱞᱟᱣᱤᱭᱟᱹ
ᱪᱟᱪᱳ
ᱪᱟᱫᱚ
ᱪᱟᱫᱚᱨ
ᱪᱟᱭ
ᱪᱟᱭᱞᱚᱢ
ᱪᱟᱭᱤᱞᱰ
ᱪᱟᱭᱨᱮᱛ
ᱪᱟᱭᱱᱟ
ᱪᱟᱭᱱᱤ
ᱪᱟᱭᱱᱤᱡ
ᱪᱟᱭᱱᱤᱡᱽ
ᱪᱟᱭᱱᱤᱥ
ᱪᱟᱯ
ᱪᱟᱯᱚᱞ
ᱪᱟᱯᱟ
ᱪᱟᱯᱟᱞ
ᱪᱟᱯᱟᱫ
ᱪᱟᱯᱟᱭ
ᱪᱟᱯᱮ
ᱪᱟᱱ
ᱪᱟᱱᱚᱠᱠᱚ
ᱪᱟᱱᱚᱪ
ᱪᱟᱱᱟᱪ
ᱪᱟᱱᱥᱮᱞᱚᱨ
ᱪᱟᱱᱩ
ᱪᱟᱱᱫᱚ
ᱪᱟᱱᱫᱤᱯᱩᱨ
ᱪᱟᱱᱫᱽ
ᱪᱟᱱᱫᱽᱨᱟ
ᱪᱟᱱᱮᱞ
ᱪᱟᱱᱰᱤᱞ
ᱪᱟᱲ
ᱪᱟᱴ
ᱪᱟᱴᱟᱨᱡᱤ
ᱪᱟᱴᱟᱱᱤ
ᱪᱟᱴᱢᱚᱦᱚᱨ
ᱪᱟᱴᱱᱤ
ᱪᱟᱵᱟ
ᱪᱟᱵᱟᱜ
ᱪᱟᱵᱟᱜᱼᱟ
ᱪᱟᱵᱟᱭ
ᱪᱟᱵᱟᱭᱮᱱ
ᱪᱟᱵᱟᱭᱮᱱᱟ
ᱪᱟᱶᱟᱨ
ᱪᱟᱸᱜᱟ
ᱪᱟᱸᱜᱽᱞᱟᱸᱜᱽ
ᱪᱟᱸᱫ
ᱪᱟᱸᱫᱚ
ᱪᱟᱸᱫᱚᱠᱤᱭᱟᱹ
ᱪᱟᱸᱫᱚᱣᱟᱜ
ᱪᱟᱸᱫᱚᱭ
ᱪᱟᱸᱫᱟᱱ
ᱪᱟᱸᱫᱤ
ᱪᱟᱸᱫᱩ
ᱪᱟᱸᱫᱳ
ᱪᱟᱸᱫᱽ
ᱪᱟᱸᱫᱽᱯᱩᱨ
ᱪᱟᱸᱫᱽᱱᱤ
ᱪᱟᱸᱭᱵᱟᱥᱟ
ᱪᱟᱹᱛ
ᱪᱟᱹᱞᱤ
ᱪᱟᱹᱞᱩ
ᱪᱟᱹᱞᱩᱜ
ᱪᱟᱹᱠᱨᱤ
ᱪᱟᱹᱠᱨᱤᱭ
ᱪᱟᱹᱠᱩᱞᱤᱭᱟᱹ
ᱪᱟᱹᱢᱩᱪ
ᱪᱟᱹᱢᱯᱟᱹᱭ
ᱪᱟᱹᱣᱠᱟᱹ
ᱪᱟᱹᱥ
ᱪᱟᱹᱥᱤ
ᱪᱟᱹᱨᱤᱛ
ᱪᱟᱹᱨᱤᱛᱮ
ᱪᱟᱹᱭ
ᱪᱟᱹᱴᱟᱹᱭ
ᱪᱟᱹᱴᱟᱹᱱᱤ
ᱪᱤ
ᱪᱤᱛᱚᱞ
ᱪᱤᱛᱚᱞᱢᱟᱨᱤ
ᱪᱤᱛᱚᱨᱯᱩᱨ
ᱪᱤᱛᱛᱚᱨ
ᱪᱤᱛᱛᱚᱨᱚᱧᱡᱚᱱ
ᱪᱤᱛᱛᱚᱨᱜᱚᱲ
ᱪᱤᱛᱛᱚᱲᱜᱚᱲ
ᱪᱤᱛᱛᱩᱨ
ᱪᱤᱛᱟ
ᱪᱤᱛᱟᱨ
ᱪᱤᱛᱟᱨᱯᱩᱨ
ᱪᱤᱛᱟᱹᱨ
ᱪᱤᱛᱟᱹᱨᱠᱚ
ᱪᱤᱛᱟᱹᱨᱠᱩ
ᱪᱤᱛᱟᱹᱨᱤᱭᱟᱹ
ᱪᱤᱛᱟᱹᱨᱮ
ᱪᱤᱛᱣᱚᱱ
ᱪᱤᱛᱤ
ᱪᱤᱛᱨᱚ
ᱪᱤᱛᱨᱚᱠᱚ
ᱪᱤᱛᱨᱚᱠᱩᱴ
ᱪᱤᱛᱨᱚᱫᱩᱨᱜᱽ
ᱪᱤᱛᱨᱟ
ᱪᱤᱛᱨᱟᱹ
ᱪᱤᱞᱟᱨᱟᱭ
ᱪᱤᱞᱢᱟᱨᱤ
ᱪᱤᱞᱤ
ᱪᱤᱞᱤᱠᱟ
ᱪᱤᱠ
ᱪᱤᱠᱟ
ᱪᱤᱠᱟᱜᱳ
ᱪᱤᱠᱟᱹ
ᱪᱤᱠᱟᱹᱛᱮ
ᱪᱤᱠᱟᱹᱬ
ᱪᱤᱠᱠᱚᱵᱚᱞᱞᱟᱯᱩᱨ
ᱪᱤᱠᱢᱚᱜᱚᱞᱩᱨ
ᱪᱤᱠᱤ
ᱪᱤᱠᱤᱭ
ᱪᱤᱠᱮᱱ
ᱪᱤᱠᱷᱱᱟᱹ
ᱪᱤᱨ
ᱪᱤᱨᱜᱟ
ᱪᱤᱨᱜᱟᱹᱞ
ᱪᱤᱨᱟ
ᱪᱤᱨᱟᱝ
ᱪᱤᱨᱤᱨᱵᱚᱱᱫᱚᱨ
ᱪᱤᱨᱩ
ᱪᱤᱪᱤᱫᱤᱭᱟᱹ
ᱪᱤᱫ
ᱪᱤᱭᱟ
ᱪᱤᱭᱟᱹ
ᱪᱤᱯ
ᱪᱤᱯᱨᱩᱜ
ᱪᱤᱯᱨᱩᱡ
ᱪᱤᱯᱷ
ᱪᱤᱱ
ᱪᱤᱱᱛᱟ
ᱪᱤᱱᱛᱟᱹ
ᱪᱤᱱᱟ
ᱪᱤᱱᱟᱼᱛᱤᱵᱵᱚᱛᱤ
ᱪᱤᱱᱤ
ᱪᱤᱱᱥᱩᱨᱟ
ᱪᱤᱱᱦᱟ
ᱪᱤᱱᱦᱟᱣ
ᱪᱤᱱᱦᱟᱹ
ᱪᱤᱱᱦᱟᱹᱣ
ᱪᱤᱱᱦᱟᱹᱯ
ᱪᱤᱴᱷᱤ
ᱪᱤᱸᱪᱣᱟᱲ
ᱪᱤᱸᱰᱩ
ᱪᱩ
ᱪᱩᱝᱞᱤ
ᱪᱩᱞᱦᱟᱹ
ᱪᱩᱠᱛᱤ
ᱪᱩᱢᱵᱚᱠ
ᱪᱩᱣᱟᱰᱟᱝᱜᱟ
ᱪᱩᱣᱟᱹᱯᱟᱹᱬᱤ
ᱪᱩᱦᱩᱞ
ᱪᱩᱨ
ᱪᱩᱨᱚᱜ
ᱪᱩᱨᱟ
ᱪᱩᱨᱤᱛ
ᱪᱩᱨᱩ
ᱪᱩᱨᱩᱡ
ᱪᱩᱯᱤ
ᱪᱩᱯᱩᱫ
ᱪᱩᱱ
ᱪᱩᱱᱟ
ᱪᱩᱱᱟᱣ
ᱪᱩᱱᱩ
ᱪᱩᱱᱰᱤ
ᱪᱩᱲᱟᱪᱟᱸᱫᱽᱯᱩᱨ
ᱪᱩᱲᱤᱱ
ᱪᱩᱴᱤ
ᱪᱩᱴᱩᱬᱤ
ᱪᱮ
ᱪᱮᱛᱚᱱ
ᱪᱮᱛᱟᱱ
ᱪᱮᱛᱟᱱᱛᱮ
ᱪᱮᱛᱟᱱᱨᱮ
ᱪᱮᱛᱮ
ᱪᱮᱛᱮᱫᱤᱭᱟ
ᱪᱮᱛᱮᱫᱤᱭᱟᱹ
ᱪᱮᱛᱱᱟ
ᱪᱮᱞᱟ
ᱪᱮᱞᱟᱝ
ᱪᱮᱞᱮᱠᱟ
ᱪᱮᱠ
ᱪᱮᱠᱟ
ᱪᱮᱠᱟᱛᱮ
ᱪᱮᱠᱷᱚᱵᱽ
ᱪᱮᱢᱮᱫ
ᱪᱮᱢᱮᱫᱚᱜ
ᱪᱮᱢᱯᱤᱭᱟᱱ
ᱪᱮᱢᱯᱤᱭᱟᱱᱥᱤᱯ
ᱪᱮᱥ
ᱪᱮᱥᱴᱟ
ᱪᱮᱦᱨᱟ
ᱪᱮᱦᱨᱟᱦᱟ
ᱪᱮᱦᱨᱟᱱ
ᱪᱮᱨᱚ
ᱪᱮᱨᱟᱱ
ᱪᱮᱪᱮᱫ
ᱪᱮᱪᱮᱫᱤᱭᱟ
ᱪᱮᱪᱮᱱ
ᱪᱮᱫ
ᱪᱮᱫᱚᱜ
ᱪᱮᱫᱞᱮᱠᱟ
ᱪᱮᱫᱟ
ᱪᱮᱫᱟᱜ
ᱪᱮᱬᱮ
ᱪᱮᱭᱟᱨᱢᱮᱱ
ᱪᱮᱭᱟᱨᱯᱟᱨᱥᱟᱱ
ᱪᱮᱭᱱ
ᱪᱮᱭᱱᱚᱞ
ᱪᱮᱯᱞᱤᱱ
ᱪᱮᱱ
ᱪᱮᱱᱟᱞ
ᱪᱮᱱᱟᱭ
ᱪᱮᱱᱟᱵ
ᱪᱮᱱᱮᱞ
ᱪᱮᱱᱯᱩᱨ
ᱪᱮᱱᱱᱟ
ᱪᱮᱱᱱᱟᱭ
ᱪᱮᱱᱱᱟᱭᱤ
ᱪᱮᱴᱟᱨᱡᱤ
ᱪᱮᱴᱟᱱ
ᱪᱮᱴᱨᱟ
ᱪᱮᱸᱜᱚᱞᱯᱚᱴᱴᱩ
ᱪᱮᱸᱜᱷᱟ
ᱪᱮᱸᱬᱮ
ᱪᱳᱣᱫᱷᱩᱨᱤ
ᱪᱳᱫᱷᱚᱩᱨᱤ
ᱪᱳᱯᱨᱟ
ᱪᱳᱯᱰᱟ
ᱪᱷᱚ
ᱪᱷᱚᱛᱚᱨᱯᱩᱨ
ᱪᱷᱚᱛᱛᱤᱥᱜᱚᱲ
ᱪᱷᱚᱛᱤᱥᱜᱚᱰ
ᱪᱷᱚᱛᱤᱥᱜᱚᱲ
ᱪᱷᱚᱛᱤᱥᱜᱚᱲᱤ
ᱪᱷᱚᱛᱨᱚᱯᱚᱛᱤ
ᱪᱷᱚᱛᱨᱚᱯᱩᱨ
ᱪᱷᱚᱠ
ᱪᱷᱚᱣ
ᱪᱷᱚᱨᱚᱢ
ᱪᱷᱚᱬᱩᱣᱟ
ᱪᱷᱚᱴ
ᱪᱷᱚᱴᱟᱱᱟᱜᱽᱯᱩᱨ
ᱪᱷᱚᱴᱤ
ᱪᱷᱚᱴᱨᱟᱭ
ᱪᱷᱚᱵᱤ
ᱪᱷᱞᱟ
ᱪᱷᱟ
ᱪᱷᱟᱛ
ᱪᱷᱟᱛᱟ
ᱪᱷᱟᱛᱨᱚ
ᱪᱷᱟᱞ
ᱪᱷᱟᱢᱰᱟ
ᱪᱷᱟᱨᱟᱣ
ᱪᱷᱟᱬᱟᱣᱻᱟ
ᱪᱷᱟᱯ
ᱪᱷᱟᱯᱟ
ᱪᱷᱟᱯᱟᱜ
ᱪᱷᱟᱯᱨᱟ
ᱪᱷᱟᱰᱟ
ᱪᱷᱟᱰᱟᱣ
ᱪᱷᱟᱲᱟ
ᱪᱷᱟᱴᱠᱟ
ᱪᱷᱟᱵᱽᱱᱤ
ᱪᱷᱟᱸᱪ
ᱪᱷᱟᱸᱫᱟ
ᱪᱷᱟᱹᱨᱭᱟᱹᱣ
ᱪᱷᱟᱹᱴᱤᱭᱟᱹᱨ
ᱪᱷᱟᱹᱴᱭᱟᱹᱨ
ᱪᱷᱤᱛᱭᱟᱹᱣ
ᱪᱷᱤᱢ
ᱪᱷᱤᱸᱫᱽᱣᱟᱲᱟ
ᱪᱷᱩᱛ
ᱪᱷᱩᱨᱤ
ᱪᱷᱩᱴᱟ
ᱪᱷᱩᱴᱟᱣ
ᱪᱷᱩᱴᱟᱹᱣ
ᱪᱷᱩᱴᱠᱤ
ᱪᱷᱩᱴᱤ
ᱪᱷᱩᱵᱤ
ᱪᱷᱮᱛᱨᱚ
ᱪᱷᱮᱨ
ᱪᱷᱮᱱᱟ
ᱪᱷᱳᱴᱳᱱᱟᱜᱽᱯᱩᱨ
ᱫ
ᱫᱚ
ᱫᱚᱛᱚ
ᱫᱚᱛᱛᱚ
ᱫᱚᱛᱛᱟ
ᱫᱚᱜ
ᱫᱚᱝ
ᱫᱚᱞ
ᱫᱚᱞᱟᱱ
ᱫᱚᱞᱢᱟ
ᱫᱚᱞᱤᱛ
ᱫᱚᱠᱚ
ᱫᱚᱠᱟᱱ
ᱫᱚᱠᱤᱱ
ᱫᱚᱠᱩ
ᱫᱚᱠᱷᱚᱞ
ᱫᱚᱠᱷᱤᱬ
ᱫᱚᱠᱷᱤᱱ
ᱫᱚᱢ
ᱫᱚᱢᱚᱠ
ᱫᱚᱢᱚᱭᱚᱱᱛᱤ
ᱫᱚᱢᱚᱱ
ᱫᱚᱢᱟᱦᱤ
ᱫᱚᱢᱮ
ᱫᱚᱥ
ᱫᱚᱥᱚᱠ
ᱫᱚᱥᱚᱢ
ᱫᱚᱥᱚᱢᱤ
ᱫᱚᱥᱛ
ᱫᱚᱥᱟ
ᱫᱚᱥᱟᱨ
ᱫᱚᱥᱟᱨᱟᱜ
ᱫᱚᱥᱨᱚᱛᱷ
ᱫᱚᱦᱚ
ᱫᱚᱦᱚᱜ
ᱫᱚᱦᱚᱣ
ᱫᱚᱦᱚᱭ
ᱫᱚᱦᱚᱭᱟ
ᱫᱚᱦᱚᱭᱤᱡ
ᱫᱚᱦᱚᱭᱮᱫ
ᱫᱚᱦᱚᱲᱟ
ᱫᱚᱦᱟ
ᱫᱚᱦᱤ
ᱫᱚᱦᱨᱟ
ᱫᱚᱦᱲᱟ
ᱫᱚᱦᱲᱟᱭ
ᱫᱚᱨ
ᱫᱚᱨᱚᱝ
ᱫᱚᱨᱜᱟᱦ
ᱫᱚᱨᱠᱟᱨ
ᱫᱚᱨᱠᱟᱨᱚᱜ
ᱫᱚᱨᱠᱟᱨᱟ
ᱫᱚᱨᱡᱤ
ᱫᱚᱨᱤᱭᱟ
ᱫᱚᱨᱤᱵ
ᱫᱚᱨᱥᱚᱱ
ᱫᱚᱨᱭᱟ
ᱫᱚᱨᱮᱭᱟ
ᱫᱚᱨᱵᱟᱨ
ᱫᱚᱨᱵᱟᱨᱜᱟᱲ
ᱫᱚᱨᱵᱟᱨᱤᱭᱟᱹ
ᱫᱚᱨᱵᱷᱚᱝᱜᱟ
ᱫᱚᱭ
ᱫᱚᱭᱟ
ᱫᱚᱭᱮ
ᱫᱚᱯᱛᱚᱨ
ᱫᱚᱱ
ᱫᱚᱲ
ᱫᱚᱲᱚᱢ
ᱫᱚᱲᱦᱚ
ᱫᱚᱲᱦᱟ
ᱫᱚᱵᱚ
ᱫᱚᱵᱚᱱ
ᱫᱚᱵᱟᱹᱴᱤ
ᱫᱚᱵᱷᱟ
ᱫᱚᱵᱷᱟᱹᱴᱤᱭᱟᱹ
ᱫᱚᱸ
ᱫᱚᱸᱭ
ᱫᱟ
ᱫᱟᱛᱛᱟ
ᱫᱟᱛᱟ
ᱫᱟᱛᱤᱭᱟ
ᱫᱟᱜ
ᱫᱟᱜᱼᱡᱟᱹᱨᱤ
ᱫᱟᱜᱼᱡᱟᱹᱲᱤ
ᱫᱟᱜᱼᱮ
ᱫᱟᱜᱽ
ᱫᱟᱝ
ᱫᱟᱞ
ᱫᱟᱞᱚᱵ
ᱫᱟᱞᱟ
ᱫᱟᱠᱟ
ᱫᱟᱠᱳᱯ
ᱫᱟᱠᱷᱚᱞ
ᱫᱟᱠᱷᱤᱱ
ᱫᱟᱢ
ᱫᱟᱢᱚᱦ
ᱫᱟᱢᱚᱫᱚᱨ
ᱫᱟᱢᱚᱱ
ᱫᱟᱢᱟᱱ
ᱫᱟᱢᱩᱫᱚᱨ
ᱫᱟᱢᱩᱲᱦᱩᱫᱟ
ᱫᱟᱢᱯᱟᱲᱟ
ᱫᱟᱢᱳᱫᱚᱨ
ᱫᱟᱣ
ᱫᱟᱣᱚᱬᱜᱮᱨᱮ
ᱫᱟᱣᱟᱬ
ᱫᱟᱣᱮ
ᱫᱟᱥ
ᱫᱟᱥᱟᱠ
ᱫᱟᱥᱟᱨ
ᱫᱟᱥᱟᱸᱭ
ᱫᱟᱥᱱᱟ
ᱫᱟᱦ
ᱫᱟᱦᱚ
ᱫᱟᱦᱚᱫᱽ
ᱫᱟᱦᱤ
ᱫᱟᱦᱮ
ᱫᱟᱨ
ᱫᱟᱨᱟ
ᱫᱟᱨᱟᱢ
ᱫᱟᱨᱟᱢᱛᱮ
ᱫᱟᱨᱟᱢᱟ
ᱫᱟᱨᱟᱭ
ᱫᱟᱨᱟᱭᱛᱮ
ᱫᱟᱨᱟᱭᱟ
ᱫᱟᱨᱟᱭᱠᱟᱱ
ᱫᱟᱨᱡᱟ
ᱫᱟᱨᱡᱤᱞᱤᱝ
ᱫᱟᱨᱤ
ᱫᱟᱨᱥᱚᱱᱤᱠ
ᱫᱟᱨᱥᱟᱬ
ᱫᱟᱨᱦᱟ
ᱫᱟᱨᱫᱤᱠ
ᱫᱟᱨᱮ
ᱫᱟᱨᱮᱭ
ᱫᱟᱨᱮᱭᱟ
ᱫᱟᱨᱮᱭᱟᱜᱼᱟ
ᱫᱟᱨᱵᱷᱟᱝᱜᱟ
ᱫᱟᱪᱷᱤᱱ
ᱫᱟᱫᱟ
ᱫᱟᱫᱽᱨᱟ
ᱫᱟᱫᱽᱨᱤ
ᱫᱟᱬᱟ
ᱫᱟᱬᱟᱱ
ᱫᱟᱬᱟᱱᱟ
ᱫᱟᱬᱮ
ᱫᱟᱭ
ᱫᱟᱭᱟ
ᱫᱟᱭᱤᱛᱛᱚ
ᱫᱟᱭᱤᱠ
ᱫᱟᱭᱱᱤᱠ
ᱫᱟᱯᱟᱞ
ᱫᱟᱯᱟᱞᱟ
ᱫᱟᱯᱨᱟᱢ
ᱫᱟᱰᱤᱭᱟᱜ
ᱫᱟᱱ
ᱫᱟᱱᱛᱮᱣᱟᱰᱟ
ᱫᱟᱱᱟ
ᱫᱟᱱᱟᱝ
ᱫᱟᱱᱟᱯᱩᱨ
ᱫᱟᱱᱰᱤ
ᱫᱟᱲᱟ
ᱫᱟᱲᱟᱱ
ᱫᱟᱲᱟᱱᱤᱭᱟᱹ
ᱫᱟᱲᱟᱸ
ᱫᱟᱲᱮ
ᱫᱟᱲᱮᱛᱮ
ᱫᱟᱲᱮᱜ
ᱫᱟᱲᱮᱭ
ᱫᱟᱲᱮᱭᱟ
ᱫᱟᱲᱮᱭᱟᱜ
ᱫᱟᱲᱮᱭᱟᱜᱼᱟ
ᱫᱟᱲᱮᱭᱟᱜᱼᱟᱭ
ᱫᱟᱲᱮᱭᱟᱫ
ᱫᱟᱲᱮᱭᱟᱫᱟ
ᱫᱟᱲᱮᱭᱟᱫᱼᱟ
ᱫᱟᱲᱮᱭᱟᱭᱟ
ᱫᱟᱲᱮᱭᱟᱱ
ᱫᱟᱵ
ᱫᱟᱵᱚᱱ
ᱫᱟᱵᱟᱣ
ᱫᱟᱶ
ᱫᱟᱸᱥᱟᱭ
ᱫᱟᱸᱲᱟ
ᱫᱟᱹ
ᱫᱟᱹᱞ
ᱫᱟᱹᱠᱷᱤᱱ
ᱫᱟᱹᱭ
ᱫᱟᱹᱭᱠᱟᱹ
ᱫᱟᱹᱭᱤᱠ
ᱫᱟᱹᱭᱵᱷᱟᱨ
ᱫᱟᱹᱱᱢᱤ
ᱫᱟᱹᱲ
ᱫᱟᱹᱵᱤ
ᱫᱣᱤᱯ
ᱫᱤ
ᱫᱤᱜᱚᱝᱜᱚᱱᱟ
ᱫᱤᱜᱚᱱᱛᱚ
ᱫᱤᱜᱟᱢᱵᱚᱨ
ᱫᱤᱜᱷᱟ
ᱫᱤᱞ
ᱫᱤᱞᱞᱤ
ᱫᱤᱞᱞᱤᱼᱢᱩᱢᱵᱟᱭ
ᱫᱤᱞᱞᱤᱼᱦᱟᱵᱽᱲᱟ
ᱫᱤᱞᱞᱤᱼᱪᱮᱱᱱᱟᱭ
ᱫᱤᱞᱣᱟᱞᱮ
ᱫᱤᱞᱤ
ᱫᱤᱞᱤᱯ
ᱫᱤᱠ
ᱫᱤᱠᱥᱤᱛ
ᱫᱤᱠᱩ
ᱫᱤᱠᱷᱞᱟ
ᱫᱤᱠᱷᱤᱛ
ᱫᱤᱠᱷᱥᱤᱛ
ᱫᱤᱢ
ᱫᱤᱣ
ᱫᱤᱣᱟᱞᱤ
ᱫᱤᱣᱟᱱ
ᱫᱤᱣᱟᱱᱟ
ᱫᱤᱥ
ᱫᱤᱥᱚᱢ
ᱫᱤᱥᱚᱢᱮ
ᱫᱤᱥᱟ
ᱫᱤᱥᱟᱢ
ᱫᱤᱥᱟᱹ
ᱫᱤᱥᱟᱹᱛᱮ
ᱫᱤᱥᱟᱹᱢ
ᱫᱤᱥᱟᱹᱢᱠᱩ
ᱫᱤᱥᱟᱹᱩᱫᱩᱜ
ᱫᱤᱥᱟᱹᱩᱫᱩᱜᱤᱡ
ᱫᱤᱥᱟᱹᱭ
ᱫᱤᱥᱣᱟ
ᱫᱤᱥᱣᱟᱹ
ᱫᱤᱥᱩᱣᱟ
ᱫᱤᱥᱩᱣᱟᱹ
ᱫᱤᱥᱩᱣᱟᱹᱨᱤ
ᱫᱤᱥᱮᱢ
ᱫᱤᱥᱯᱩᱨ
ᱫᱤᱥᱼᱦᱩᱫᱤᱥ
ᱫᱤᱦᱮ
ᱫᱤᱫᱤ
ᱫᱤᱭᱟ
ᱫᱤᱯ
ᱫᱤᱯᱚᱠ
ᱫᱤᱯᱚᱨ
ᱫᱤᱯᱛᱤ
ᱫᱤᱯᱜᱩᱴ
ᱫᱤᱯᱟ
ᱫᱤᱯᱟᱸᱠᱚᱨ
ᱫᱤᱯᱠᱚ
ᱫᱤᱯᱤᱞ
ᱫᱤᱯᱤᱠᱟ
ᱫᱤᱯᱩ
ᱫᱤᱱ
ᱫᱤᱱᱚᱢ
ᱫᱤᱱᱟ
ᱫᱤᱱᱟᱜ
ᱫᱤᱱᱟᱡᱯᱩᱨ
ᱫᱤᱱᱟᱡᱽ
ᱫᱤᱱᱟᱡᱽᱯᱩᱨ
ᱫᱤᱱᱟᱢ
ᱫᱤᱱᱟᱸᱡᱽᱯᱩᱨ
ᱫᱤᱱᱟᱸᱢ
ᱫᱤᱱᱟᱹᱢ
ᱫᱤᱱᱮᱢ
ᱫᱤᱱᱮᱥ
ᱫᱤᱵᱚᱥ
ᱫᱤᱵᱟ
ᱫᱤᱵᱟᱝ
ᱫᱤᱵᱤ
ᱫᱤᱵᱽᱭᱟ
ᱫᱦᱚᱨᱚᱢ
ᱫᱨᱚᱣᱯᱚᱫᱤ
ᱫᱨᱟᱜᱷᱤᱢᱟᱝᱥᱚ
ᱫᱨᱟᱵᱤᱲ
ᱫᱨᱮ
ᱫᱩ
ᱫᱩᱛ
ᱫᱩᱜ
ᱫᱩᱜᱽ
ᱫᱩᱞ
ᱫᱩᱞᱞᱟ
ᱫᱩᱞᱟ
ᱫᱩᱞᱟᱹᱲ
ᱫᱩᱞᱟᱹᱲᱤᱭᱟᱹ
ᱫᱩᱠ
ᱫᱩᱠᱟᱱ
ᱫᱩᱠᱷ
ᱫᱩᱠᱷᱤᱨᱟᱢ
ᱫᱩᱠᱷᱤᱱ
ᱫᱩᱢᱠᱟᱹ
ᱫᱩᱣᱟ
ᱫᱩᱣᱟᱨ
ᱫᱩᱣᱟᱹᱨ
ᱫᱩᱥᱤ
ᱫᱩᱥᱨᱟᱹ
ᱫᱩᱦᱤ
ᱫᱩᱨ
ᱫᱩᱨᱜᱚ
ᱫᱩᱨᱜᱟ
ᱫᱩᱨᱜᱟᱯᱩᱨ
ᱫᱩᱨᱜᱟᱹ
ᱫᱩᱨᱜᱽ
ᱫᱩᱨᱟᱱᱤ
ᱫᱩᱨᱤᱵ
ᱫᱩᱨᱤᱵᱽ
ᱫᱩᱨᱤᱵᱽᱠᱚ
ᱫᱩᱨᱫᱚᱨᱥᱚᱱ
ᱫᱩᱫᱷ
ᱫᱩᱫᱷᱤ
ᱫᱩᱫᱷᱱᱚᱭ
ᱫᱩᱯᱩᱞᱟᱹᱲ
ᱫᱩᱯᱩᱲᱩᱵ
ᱫᱩᱯᱪᱟᱪᱤᱭᱟ
ᱫᱩᱯᱲᱩᱵ
ᱫᱩᱱᱤᱭᱟ
ᱫᱩᱱᱤᱭᱟᱹ
ᱫᱩᱱᱦᱩᱣᱟᱝ
ᱫᱩᱲᱩᱵ
ᱫᱩᱵᱟᱭ
ᱫᱩᱵᱮ
ᱫᱩᱵᱽᱨᱟᱡᱽᱯᱩᱨ
ᱫᱭᱟ
ᱫᱮ
ᱫᱮᱚᱞ
ᱫᱮᱞᱟ
ᱫᱮᱞᱤ
ᱫᱮᱠᱷᱟ
ᱫᱮᱠᱷᱟᱣ
ᱫᱮᱡ
ᱫᱮᱡᱚᱜ
ᱫᱮᱡᱽ
ᱫᱮᱣ
ᱫᱮᱣᱛᱟ
ᱫᱮᱣᱜᱚᱱ
ᱫᱮᱣᱜᱷᱚᱨ
ᱫᱮᱣᱞ
ᱫᱮᱣᱟ
ᱫᱮᱣᱟᱞ
ᱫᱮᱣᱟᱱ
ᱫᱮᱣᱤ
ᱫᱮᱣᱨᱤᱭᱟ
ᱫᱮᱣᱫᱟᱥ
ᱫᱮᱣᱱᱟᱜᱨᱤ
ᱫᱮᱣᱱᱟᱜᱽᱨᱤ
ᱫᱮᱥ
ᱫᱮᱥᱟᱭ
ᱫᱮᱥᱟᱭᱤ
ᱫᱮᱥᱢᱟᱧᱡᱷᱤ
ᱫᱮᱥᱢᱩᱠᱷ
ᱫᱮᱥᱤ
ᱫᱮᱥᱮ
ᱫᱮᱥᱯᱟᱱᱰᱮ
ᱫᱮᱦ
ᱫᱮᱦᱟᱛ
ᱫᱮᱨᱮᱧ
ᱫᱮᱫᱟᱨ
ᱫᱮᱭᱟ
ᱫᱮᱵ
ᱫᱮᱵᱚ
ᱫᱮᱵᱚᱛᱟ
ᱫᱮᱵᱚᱥᱨᱤ
ᱫᱮᱵᱟ
ᱫᱮᱵᱟᱥ
ᱫᱮᱵᱤ
ᱫᱮᱵᱤᱜᱚᱸᱡᱽ
ᱫᱮᱵᱤᱠᱟ
ᱫᱮᱵᱤᱭᱟᱜ
ᱫᱮᱵᱩ
ᱫᱮᱵᱽ
ᱫᱮᱵᱽᱛᱟ
ᱫᱮᱵᱽᱜᱚᱰ
ᱫᱮᱵᱽᱜᱩᱱ
ᱫᱮᱵᱽᱨᱟᱡᱽ
ᱫᱮᱵᱽᱱᱟᱜᱽᱨᱤ
ᱫᱮᱹ
ᱫᱮᱹᱵᱤ
ᱫᱯ
ᱫᱳ
ᱫᱳᱠᱟᱱ
ᱫᱳᱣᱞᱚᱫᱯᱩᱨ
ᱫᱳᱣᱥᱟ
ᱫᱳᱥ
ᱫᱳᱦᱟ
ᱫᱷᱚᱞᱯᱩᱨ
ᱫᱷᱚᱢᱛᱚᱨᱤ
ᱫᱷᱚᱢᱠᱟᱣ
ᱫᱷᱚᱨ
ᱫᱷᱚᱨᱚᱢ
ᱫᱷᱚᱨᱚᱢᱥᱟᱞᱟ
ᱫᱷᱚᱨᱚᱢᱮ
ᱫᱷᱚᱨᱚᱱ
ᱫᱷᱚᱨᱟᱢ
ᱫᱷᱚᱨᱢᱚ
ᱫᱷᱚᱨᱢᱚᱯᱩᱨᱤ
ᱫᱷᱚᱨᱢᱚᱱᱚᱜᱚᱨ
ᱫᱷᱚᱨᱢᱟ
ᱫᱷᱚᱨᱢᱤᱠ
ᱫᱷᱚᱨᱢᱮᱥ
ᱫᱷᱚᱨᱢᱮᱱᱫᱽᱨᱚ
ᱫᱷᱚᱨᱩᱣᱟ
ᱫᱷᱚᱨᱮ
ᱫᱷᱚᱱ
ᱫᱷᱚᱱᱠᱩᱴᱟ
ᱫᱷᱚᱱᱤ
ᱫᱷᱚᱱᱥᱤᱨᱤ
ᱫᱷᱚᱱᱩᱥ
ᱫᱷᱟ
ᱫᱷᱟᱛᱩ
ᱫᱷᱟᱞᱵᱷᱩᱢ
ᱫᱷᱟᱞᱵᱷᱩᱢᱜᱚᱲ
ᱫᱷᱟᱢ
ᱫᱷᱟᱢᱟᱞ
ᱫᱷᱟᱣ
ᱫᱷᱟᱣᱚᱱ
ᱫᱷᱟᱣᱮ
ᱫᱷᱟᱥᱟᱣ
ᱫᱷᱟᱨ
ᱫᱷᱟᱨᱚᱱᱟ
ᱫᱷᱟᱨᱛᱤ
ᱫᱷᱟᱨᱟ
ᱫᱷᱟᱨᱟᱣᱟᱦᱤᱠ
ᱫᱷᱟᱨᱟᱯᱩᱨᱚᱢ
ᱫᱷᱟᱨᱢᱤᱠ
ᱫᱷᱟᱨᱣᱟᱲ
ᱫᱷᱟᱨᱤ
ᱫᱷᱟᱨᱤᱡ
ᱫᱷᱟᱨᱮ
ᱫᱷᱟᱫᱤᱝ
ᱫᱷᱟᱯ
ᱫᱷᱟᱱ
ᱫᱷᱟᱱᱣᱟᱨ
ᱫᱷᱟᱱᱩᱥ
ᱫᱷᱟᱱᱵᱟᱫᱽ
ᱫᱷᱟᱵᱤ
ᱫᱷᱟᱵᱤᱡ
ᱫᱷᱟᱶ
ᱫᱷᱟᱸᱜᱚᱲ
ᱫᱷᱟᱹᱛᱩ
ᱫᱷᱟᱹᱣ
ᱫᱷᱟᱹᱨᱛᱤ
ᱫᱷᱟᱹᱨᱛᱤᱨᱮ
ᱫᱷᱟᱹᱨᱤ
ᱫᱷᱟᱹᱨᱤᱡ
ᱫᱷᱟᱹᱭ
ᱫᱷᱟᱹᱲ
ᱫᱷᱟᱹᱵᱤᱡ
ᱫᱷᱟᱹᱵᱤᱡᱟᱜ
ᱫᱷᱟᱹᱵᱤᱡᱽ
ᱫᱷᱤ
ᱫᱷᱤᱝ
ᱫᱷᱤᱢᱟᱞ
ᱫᱷᱤᱨ
ᱫᱷᱤᱨᱤ
ᱫᱷᱤᱨᱮᱱᱫᱨᱚᱱᱟᱛᱷ
ᱫᱷᱤᱭᱟᱱ
ᱫᱷᱨᱩᱵᱽ
ᱫᱷᱩ
ᱫᱷᱩᱞᱮ
ᱫᱷᱩᱢ
ᱫᱷᱩᱢᱟᱵᱚᱛᱤ
ᱫᱷᱩᱨᱟᱹᱣ
ᱫᱷᱩᱨᱟᱹᱣᱱᱟ
ᱫᱷᱩᱯ
ᱫᱷᱩᱱ
ᱫᱷᱩᱱᱚᱴ
ᱫᱷᱩᱲᱤ
ᱫᱷᱩᱵᱤ
ᱫᱷᱩᱵᱽᱲᱤ
ᱫᱷᱭᱟᱱ
ᱫᱷᱮᱢᱟᱡᱤ
ᱫᱷᱮᱭᱟᱱ
ᱫᱽ
ᱫᱽᱣᱟᱨᱠᱟ
ᱫᱽᱣᱤᱯ
ᱬ
ᱬᱤ
ᱭ
ᱭᱚᱜᱟ
ᱭᱚᱜᱤᱠ
ᱭᱚᱜᱽ
ᱭᱚᱝ
ᱭᱚᱠᱚᱦᱟᱢᱟ
ᱭᱚᱢᱚᱱ
ᱭᱚᱢᱩᱱᱟ
ᱭᱚᱢᱩᱱᱟᱱᱚᱜᱚᱨ
ᱭᱚᱥ
ᱭᱚᱦᱩᱫᱤ
ᱭᱚᱨᱠ
ᱭᱚᱵᱚᱛᱢᱟᱞ
ᱭᱞᱟᱞ
ᱭᱟ
ᱭᱟᱜ
ᱭᱟᱜᱼᱟ
ᱭᱟᱝ
ᱭᱟᱝᱜᱳᱱ
ᱭᱟᱠᱚ
ᱭᱟᱠᱩᱛ
ᱭᱟᱢᱤᱱᱤ
ᱭᱟᱥ
ᱭᱟᱨ
ᱭᱟᱨᱟᱱᱟ
ᱭᱟᱨᱰ
ᱭᱟᱩᱱᱠᱟᱹᱢᱤᱭᱟ
ᱭᱟᱫ
ᱭᱟᱫᱚᱵ
ᱭᱟᱫᱚᱵᱽ
ᱭᱟᱫᱽᱜᱤᱨ
ᱭᱟᱭ
ᱭᱟᱱ
ᱭᱟᱱᱟ
ᱭᱟᱸᱜᱽ
ᱭᱟᱹ
ᱭᱠᱟ
ᱭᱤ
ᱭᱤᱡ
ᱭᱤᱱ
ᱭᱥᱟ
ᱭᱥᱤ
ᱭᱨᱤ
ᱭᱩ
ᱭᱩᱛᱷ
ᱭᱩᱜᱫᱟᱱ
ᱭᱩᱠᱮ
ᱭᱩᱠᱳ
ᱭᱩᱣᱟ
ᱭᱩᱥᱩᱯᱷ
ᱭᱩᱨ
ᱭᱩᱨᱚᱯ
ᱭᱩᱨᱚᱯᱤᱭᱟᱱ
ᱭᱩᱨᱤᱡ
ᱭᱩᱨᱤᱭᱟ
ᱭᱩᱨᱮᱥᱤᱭᱟ
ᱭᱩᱨᱮᱱᱤᱭᱚᱢ
ᱭᱩᱨᱮᱱᱤᱭᱟᱢ
ᱭᱩᱨᱳᱯ
ᱭᱩᱨᱳᱯᱤᱭᱚᱱ
ᱭᱩᱮ
ᱭᱩᱱᱟᱭᱴᱮᱰ
ᱭᱩᱱᱟᱱ
ᱭᱩᱱᱟᱱᱤ
ᱭᱩᱱᱤᱠᱳᱰ
ᱭᱩᱱᱤᱭᱚᱱ
ᱭᱩᱱᱤᱴ
ᱭᱩᱱᱤᱵᱷᱚᱨᱥᱟᱞ
ᱭᱩᱱᱤᱵᱷᱚᱨᱥᱤᱴᱤ
ᱭᱩᱱᱤᱵᱷᱟᱨᱥᱤᱴᱤ
ᱭᱩᱱᱮᱥᱠᱚ
ᱭᱩᱱᱮᱥᱠᱳ
ᱭᱩᱴᱤᱥᱤ
ᱭᱩᱴᱭᱩᱵᱚᱨ
ᱭᱩᱴᱭᱩᱵᱽ
ᱭᱩᱵ
ᱭᱩᱵᱟ
ᱭᱫᱟ
ᱭᱮ
ᱭᱮᱝᱜᱳᱱ
ᱭᱮᱢᱮᱱ
ᱭᱮᱨ
ᱭᱮᱨᱮᱵᱷᱟᱱ
ᱭᱮᱫ
ᱭᱮᱫᱟ
ᱭᱮᱭᱟ
ᱭᱮᱱ
ᱭᱮᱱᱟ
ᱭᱮᱱᱟᱭ
ᱭᱳ
ᱭᱳᱜᱟ
ᱭᱳᱨᱠ
ᱮ
ᱮᱛ
ᱮᱛᱚᱢ
ᱮᱛᱚᱢᱼᱥᱟᱢᱟᱝ
ᱮᱛᱚᱢᱼᱯᱟᱪᱮ
ᱮᱛᱚᱦᱚᱵ
ᱮᱛᱚᱦᱚᱵᱚᱜ
ᱮᱛᱚᱦᱚᱵᱚᱜᱼᱟ
ᱮᱛᱚᱦᱚᱵᱽ
ᱮᱛᱟᱝ
ᱮᱛᱦᱚᱯ
ᱮᱛᱦᱚᱵ
ᱮᱛᱮᱫ
ᱮᱛᱷᱞᱮᱴᱤᱠ
ᱮᱛᱷᱮᱱᱥ
ᱮᱛᱷᱱᱳᱞᱚᱜᱽ
ᱮᱜ
ᱮᱜᱟᱸᱛ
ᱮᱝᱜᱟ
ᱮᱝᱜᱟᱛ
ᱮᱝᱜᱟᱛᱮᱫ
ᱮᱝᱜᱳᱞᱟ
ᱮᱝᱠᱚᱨ
ᱮᱞ
ᱮᱞᱟ
ᱮᱞᱟᱜ
ᱮᱞᱟᱝ
ᱮᱞᱟᱠᱟ
ᱮᱞᱟᱠᱟᱠᱚ
ᱮᱞᱟᱦᱟᱵᱟᱫᱽ
ᱮᱞᱟᱱ
ᱮᱞᱠᱷᱟ
ᱮᱞᱤᱠᱥ
ᱮᱞᱤᱥ
ᱮᱞᱥᱚᱝ
ᱮᱞᱩᱨᱩ
ᱮᱞᱮᱞ
ᱮᱞᱮᱠᱴᱨᱚᱱ
ᱮᱞᱮᱠᱷᱟ
ᱮᱞᱵᱚᱢ
ᱮᱞᱵᱟᱢ
ᱮᱞᱹ
ᱮᱟᱤᱭᱟᱱ
ᱮᱠ
ᱮᱠᱚᱨ
ᱮᱠᱚᱲ
ᱮᱠᱛᱟ
ᱮᱠᱞᱟ
ᱮᱠᱟ
ᱮᱠᱟᱞ
ᱮᱠᱟᱣᱚᱰ
ᱮᱠᱟᱣᱩᱰ
ᱮᱠᱟᱩᱸᱴ
ᱮᱠᱟᱫᱩᱥᱤ
ᱮᱠᱟᱫᱮᱢᱤ
ᱮᱠᱟᱭᱩᱱᱴᱮᱱᱥᱤ
ᱮᱠᱟᱰᱢᱤ
ᱮᱠᱟᱰᱮᱢᱤ
ᱮᱠᱟᱰᱮᱢᱤᱠ
ᱮᱠᱟᱲ
ᱮᱠᱠᱟ
ᱮᱠᱥ
ᱮᱠᱥᱚᱱ
ᱮᱠᱥᱟᱱ
ᱮᱠᱥᱮᱥ
ᱮᱠᱥᱯᱨᱮᱥ
ᱮᱠᱥᱯᱨᱮᱥᱵᱮ
ᱮᱠᱥᱯᱨᱮᱥᱼᱵᱮ
ᱮᱠᱨᱮᱰᱮᱴᱮᱥᱚᱱ
ᱮᱠᱩᱥᱮ
ᱮᱠᱮᱰᱢᱤ
ᱮᱠᱮᱰᱮᱢᱤ
ᱮᱠᱮᱱ
ᱮᱠᱴ
ᱮᱠᱴᱚᱨ
ᱮᱠᱴᱟᱨ
ᱮᱠᱴᱤᱝ
ᱮᱠᱴᱤᱵᱷ
ᱮᱠᱴᱤᱵᱷᱤᱴᱤ
ᱮᱠᱴᱤᱵᱽ
ᱮᱠᱴᱨᱮᱥ
ᱮᱠᱷᱞᱟ
ᱮᱠᱷᱮᱱ
ᱮᱡ
ᱮᱡᱤ
ᱮᱡᱩᱠᱮᱥᱚᱱ
ᱮᱡᱮᱱᱥᱤ
ᱮᱡᱮᱱᱴ
ᱮᱡᱮᱸᱥᱤ
ᱮᱡᱮᱸᱴ
ᱮᱡᱽ
ᱮᱢ
ᱮᱢᱚᱜ
ᱮᱢᱚᱜᱤᱡ
ᱮᱢᱚᱜᱼᱟ
ᱮᱢᱚᱱ
ᱮᱢᱟ
ᱮᱢᱟᱜ
ᱮᱢᱟᱞᱮ
ᱮᱢᱟᱠᱚ
ᱮᱢᱟᱠᱚᱣᱟ
ᱮᱢᱟᱣ
ᱮᱢᱟᱦᱟᱭ
ᱮᱢᱟᱦᱟᱭᱟ
ᱮᱢᱟᱫ
ᱮᱢᱟᱫᱮ
ᱮᱢᱟᱫᱮᱭᱟ
ᱮᱢᱟᱭ
ᱮᱢᱟᱭᱟ
ᱮᱢᱟᱱ
ᱮᱢᱟᱱᱛᱮᱭᱟᱜ
ᱮᱢᱟᱱᱟᱜ
ᱮᱢᱟᱱᱠᱚ
ᱮᱢᱤ
ᱮᱢᱤᱞ
ᱮᱢᱦᱟ
ᱮᱢᱦᱟᱸ
ᱮᱢᱮ
ᱮᱢᱮᱫ
ᱮᱢᱯᱤ
ᱮᱢᱵᱚᱨ
ᱮᱢᱵᱤᱮ
ᱮᱢᱵᱤᱵᱤᱮᱥ
ᱮᱢᱹ
ᱮᱢᱹᱮᱞᱹᱮᱹ
ᱮᱢᱹᱮᱹ
ᱮᱣ
ᱮᱣᱟᱨᱰ
ᱮᱣᱟᱨᱰᱥ
ᱮᱥ
ᱮᱥᱚᱥᱤᱭᱮᱥᱚᱱ
ᱮᱥᱛᱳᱱᱤᱭᱟ
ᱮᱥᱛᱳᱱᱤᱭᱟᱱ
ᱮᱥᱠᱟᱨ
ᱮᱥᱠᱩᱞᱟᱨᱥᱤᱯ
ᱮᱥᱤ
ᱮᱥᱤᱭᱚ
ᱮᱥᱤᱭᱟ
ᱮᱥᱤᱭᱟᱭ
ᱮᱥᱤᱭᱟᱱ
ᱮᱥᱤᱭᱟᱴᱤᱠ
ᱮᱥᱤᱭᱳ
ᱮᱥᱤᱰ
ᱮᱥᱥᱤ
ᱮᱥᱮᱥᱢᱮᱱᱴ
ᱮᱥᱮᱪ
ᱮᱥᱮᱫ
ᱮᱥᱮᱫᱟ
ᱮᱥᱮᱫᱽ
ᱮᱥᱯᱮᱨᱟᱱᱛᱳ
ᱮᱥᱯᱮᱱ
ᱮᱥᱯᱮᱱᱤᱥ
ᱮᱥᱳᱥᱤᱭᱮᱥᱚᱱ
ᱮᱥᱴᱤ
ᱮᱥᱴᱮᱥᱚᱱ
ᱮᱥᱴᱮᱴ
ᱮᱥᱹ
ᱮᱦᱚᱵ
ᱮᱦᱚᱵᱚᱜ
ᱮᱦᱚᱵᱚᱜᱼᱟ
ᱮᱦᱚᱵᱟ
ᱮᱦᱚᱵᱽ
ᱮᱦᱟᱵ
ᱮᱧᱡᱮᱞᱥ
ᱮᱨ
ᱮᱨᱚᱜ
ᱮᱨᱟ
ᱮᱨᱟᱛ
ᱮᱨᱟᱭ
ᱮᱨᱟᱵᱤᱠ
ᱮᱨᱟᱸᱰᱚᱢ
ᱮᱨᱤᱠ
ᱮᱨᱤᱥᱴᱚᱴᱚᱞ
ᱮᱨᱤᱭᱟ
ᱮᱨᱥᱟᱫᱽ
ᱮᱨᱮ
ᱮᱨᱮᱭᱟ
ᱮᱨᱮᱲ
ᱮᱨᱱᱟᱠᱩᱞᱚᱢ
ᱮᱨᱱᱟᱠᱩᱞᱟᱢ
ᱮᱪ
ᱮᱪᱹ
ᱮᱫ
ᱮᱫᱟ
ᱮᱫᱟᱭ
ᱮᱫᱢᱮ
ᱮᱫᱤᱡ
ᱮᱫᱼᱟ
ᱮᱫᱼᱟᱭ
ᱮᱫᱽᱨᱮ
ᱮᱭ
ᱮᱭᱞᱟᱱ
ᱮᱭᱟ
ᱮᱭᱟᱨ
ᱮᱭᱟᱨᱞᱟᱭᱤᱱᱥ
ᱮᱭᱟᱨᱞᱟᱭᱤᱸᱥ
ᱮᱭᱟᱨᱯᱚᱨᱴ
ᱮᱭᱟᱨᱯᱚᱴ
ᱮᱭᱟᱨᱴᱮᱞ
ᱮᱭᱟᱭ
ᱮᱭᱟᱭᱟᱜ
ᱮᱭᱤ
ᱮᱭᱤᱪ
ᱮᱭᱥᱚᱨᱭᱟ
ᱮᱭᱥᱣᱚᱨᱭᱟ
ᱮᱭᱦᱚᱵ
ᱮᱮᱪ
ᱮᱯ
ᱮᱯᱞᱟᱭᱤᱰ
ᱮᱯᱞᱤᱠᱮᱥᱚᱱ
ᱮᱯᱤᱥᱚᱰ
ᱮᱯᱤᱥᱳᱰ
ᱮᱯᱨᱤᱞ
ᱮᱯᱮᱢ
ᱮᱯᱮᱨᱦᱮᱸᱰᱮ
ᱮᱯᱯ
ᱮᱯᱷ
ᱮᱯᱷᱮᱢ
ᱮᱰ
ᱮᱰᱚ
ᱮᱰᱟ
ᱮᱰᱟᱞᱴ
ᱮᱰᱟᱢ
ᱮᱰᱢᱤᱱᱤᱥᱴᱨᱮᱥᱚᱱ
ᱮᱰᱣᱟᱨᱰ
ᱮᱰᱤ
ᱮᱰᱤᱥᱚᱱ
ᱮᱰᱤᱴᱚᱨ
ᱮᱰᱥ
ᱮᱰᱩᱠᱮᱥᱚᱱ
ᱮᱰᱩᱠᱮᱥᱟᱱ
ᱮᱰᱵᱷᱟᱱᱥ
ᱮᱰᱵᱷᱮᱴᱟᱡᱽ
ᱮᱰᱵᱷᱳᱠᱮᱴ
ᱮᱱ
ᱮᱱᱛᱮ
ᱮᱱᱛᱮᱨᱮᱦᱚᱸ
ᱮᱱᱛᱷᱟᱞᱯᱤ
ᱮᱱᱛᱷᱨᱚᱯᱚᱞᱚᱡᱤ
ᱮᱱᱟ
ᱮᱱᱟᱜ
ᱮᱱᱟᱝ
ᱮᱱᱟᱞ
ᱮᱱᱟᱢ
ᱮᱱᱟᱥ
ᱮᱱᱟᱭ
ᱮᱱᱟᱭᱮ
ᱮᱱᱟᱴᱚᱢᱤ
ᱮᱱᱟᱴᱳᱢᱤ
ᱮᱱᱠᱷᱟᱱ
ᱮᱱᱤ
ᱮᱱᱤᱢᱮᱥᱚᱱ
ᱮᱱᱥᱤᱟᱨ
ᱮᱱᱦᱚᱸ
ᱮᱱᱨᱮ
ᱮᱱᱨᱮᱦᱚᱸ
ᱮᱱᱮᱡ
ᱮᱱᱮᱡᱠᱚ
ᱮᱱᱮᱡᱤᱜ
ᱮᱱᱮᱡᱤᱡ
ᱮᱱᱮᱡᱤᱭᱟ
ᱮᱱᱮᱡᱤᱭᱟᱹ
ᱮᱱᱮᱡᱼᱟ
ᱮᱱᱮᱡᱼᱥᱮᱨᱮᱧ
ᱮᱱᱮᱡᱽ
ᱮᱱᱮᱢ
ᱮᱱᱮᱢᱤᱭᱟ
ᱮᱱᱮᱢᱤᱭᱟᱹ
ᱮᱱᱮᱢᱤᱭᱟᱹᱠᱚ
ᱮᱱᱮᱢᱮ
ᱮᱱᱮᱪ
ᱮᱱᱰ
ᱮᱱᱰᱟᱨᱥᱚᱱ
ᱮᱱᱰᱨᱩ
ᱮᱱᱰᱳᱨᱟ
ᱮᱱᱴᱚᱨᱴᱮᱱᱢᱮᱸᱴ
ᱮᱱᱴᱤ
ᱮᱱᱴᱤᱜᱩᱣᱟ
ᱮᱱᱴᱨᱮᱱᱥ
ᱮᱱᱹ
ᱮᱲᱮ
ᱮᱴ
ᱮᱴᱚᱞ
ᱮᱴᱚᱦᱚᱵ
ᱮᱴᱟ
ᱮᱴᱟᱜ
ᱮᱴᱟᱜᱟᱜ
ᱮᱴᱟᱜᱤᱡ
ᱮᱴᱟᱠ
ᱮᱴᱠᱮ
ᱮᱴᱠᱮᱴᱚᱬᱮ
ᱮᱴᱠᱮᱴᱚᱬᱮᱭ
ᱮᱴᱮᱫ
ᱮᱵᱤᱯᱤ
ᱮᱵᱷᱚᱨᱮᱡᱽ
ᱮᱵᱷᱚᱨᱮᱥᱴ
ᱮᱵᱷᱟᱨᱮᱡᱽ
ᱮᱵᱷᱮᱱ
ᱮᱸᱜᱟ
ᱮᱸᱜᱟᱛ
ᱮᱸᱜᱮᱞ
ᱮᱸᱰ
ᱮᱸᱰᱩᱨᱤ
ᱮᱹ
ᱯ
ᱯᱚ
ᱯᱚᱛᱚᱧᱡᱚᱲᱤ
ᱯᱚᱛᱚᱵ
ᱯᱚᱛᱚᱵᱽ
ᱯᱚᱛᱞᱩ
ᱯᱚᱛᱟᱠᱟ
ᱯᱚᱛᱟᱢ
ᱯᱚᱛᱟᱣ
ᱯᱚᱛᱤ
ᱯᱚᱛᱨᱚ
ᱯᱚᱛᱨᱤᱠᱟ
ᱯᱚᱛᱱᱤᱛᱚᱞᱟ
ᱯᱚᱛᱷᱟᱱᱟᱢᱛᱷᱤᱴᱴᱟ
ᱯᱚᱛᱷᱤ
ᱯᱚᱛᱷᱮᱨ
ᱯᱚᱝᱠᱚᱡᱽ
ᱯᱚᱞ
ᱯᱚᱞᱚ
ᱯᱚᱞᱚᱢ
ᱯᱚᱞᱚᱢᱮᱱ
ᱯᱚᱞᱚᱣ
ᱯᱚᱞᱞᱤ
ᱯᱚᱞᱟ
ᱯᱚᱞᱟᱥᱵᱟᱲᱤ
ᱯᱚᱞᱤ
ᱯᱚᱞᱤᱢᱟᱨ
ᱯᱚᱞᱤᱥ
ᱯᱚᱞᱤᱱᱮᱥᱤᱭᱟᱱ
ᱯᱚᱞᱤᱴᱤᱠᱟᱞ
ᱯᱚᱞᱤᱴᱤᱠᱥ
ᱯᱚᱞᱤᱴᱮᱠᱱᱤᱠ
ᱯᱚᱞᱤᱴᱮᱪᱱᱤᱠ
ᱯᱚᱠᱠᱷᱮ
ᱯᱚᱠᱳᱲᱟ
ᱯᱚᱠᱷᱚᱨᱟ
ᱯᱚᱡᱤᱥᱚᱱ
ᱯᱚᱣᱚᱱ
ᱯᱚᱣᱞ
ᱯᱚᱣᱨᱚᱥᱚᱵᱷᱟ
ᱯᱚᱣᱲᱤ
ᱯᱚᱥᱟᱜ
ᱯᱚᱥᱪᱤᱢ
ᱯᱚᱥᱪᱷᱤᱢ
ᱯᱚᱥᱴ
ᱯᱚᱥᱴᱟᱞ
ᱯᱚᱦᱟ
ᱯᱚᱧᱡᱟᱵ
ᱯᱚᱧᱡᱟᱵᱤ
ᱯᱚᱧᱡᱟᱵᱽ
ᱯᱚᱧᱡᱤᱠᱟ
ᱯᱚᱧᱪᱚ
ᱯᱚᱧᱪᱚᱜᱚᱲ
ᱯᱚᱧᱪᱟᱛ
ᱯᱚᱧᱪᱟᱪᱚᱛ
ᱯᱚᱧᱪᱟᱭᱚᱛ
ᱯᱚᱧᱪᱟᱭᱚᱛᱤ
ᱯᱚᱧᱪᱟᱭᱮᱛ
ᱯᱚᱧᱪᱟᱱᱚᱱ
ᱯᱚᱨ
ᱯᱚᱨᱚᱛᱤ
ᱯᱚᱨᱚᱠ
ᱯᱚᱨᱚᱢ
ᱯᱚᱨᱚᱢᱯᱚᱨᱟ
ᱯᱚᱨᱚᱵ
ᱯᱚᱨᱚᱵᱚᱜ
ᱯᱚᱨᱚᱵᱽ
ᱯᱚᱨᱛᱚᱱ
ᱯᱚᱨᱛᱤ
ᱯᱚᱨᱛᱩᱜᱟᱞ
ᱯᱚᱨᱛᱩᱜᱟᱞᱤᱭᱟ
ᱯᱚᱨᱛᱩᱜᱤᱡ
ᱯᱚᱨᱛᱩᱜᱤᱡᱽ
ᱯᱚᱨᱜᱚᱱᱟ
ᱯᱚᱨᱟᱭᱱᱤ
ᱯᱚᱨᱠᱟᱨ
ᱯᱚᱨᱡᱚᱴᱚᱱ
ᱯᱚᱨᱡᱟ
ᱯᱚᱨᱢᱚᱞᱟ
ᱯᱚᱨᱢᱟᱨ
ᱯᱚᱨᱢᱟᱬ
ᱯᱚᱨᱢᱟᱱ
ᱯᱚᱨᱤ
ᱯᱚᱨᱤᱠᱚᱞᱯᱚᱱᱟ
ᱯᱚᱨᱤᱠᱟᱴᱷᱟᱢᱳ
ᱯᱚᱨᱤᱡᱟ
ᱯᱚᱨᱤᱢᱚᱞ
ᱯᱚᱨᱤᱣᱚᱦᱚᱱ
ᱯᱚᱨᱤᱥᱚᱫ
ᱯᱚᱨᱤᱥᱚᱫᱽ
ᱯᱚᱨᱤᱦᱟᱨ
ᱯᱚᱨᱤᱪᱟᱞᱚᱠ
ᱯᱚᱨᱤᱪᱟᱞᱚᱱᱟ
ᱯᱚᱨᱤᱪᱟᱞᱚᱱᱟᱣ
ᱯᱚᱨᱤᱪᱷᱮᱫ
ᱯᱚᱨᱤᱰᱟ
ᱯᱚᱨᱤᱵᱚᱦᱚᱱ
ᱯᱚᱨᱤᱵᱟᱨ
ᱯᱚᱨᱤᱵᱮᱥ
ᱯᱚᱨᱥᱚᱱ
ᱯᱚᱨᱥᱟ
ᱯᱚᱨᱥᱟᱥᱚᱱ
ᱯᱚᱨᱥᱟᱥᱚᱱᱤᱠ
ᱯᱚᱨᱥᱤᱭᱟᱱ
ᱯᱚᱨᱥᱩᱨᱟᱢ
ᱯᱚᱨᱪᱟᱨ
ᱯᱚᱨᱫᱟ
ᱯᱚᱨᱫᱷᱟᱱ
ᱯᱚᱨᱭᱚᱴᱚᱱ
ᱯᱚᱨᱮ
ᱯᱚᱨᱯᱷᱩᱞᱞᱚ
ᱯᱚᱨᱯᱷᱳᱨᱢᱟᱱᱥ
ᱯᱚᱨᱱ
ᱯᱚᱨᱱᱚᱜᱽᱨᱟᱯᱷᱤ
ᱯᱚᱨᱱᱚᱜᱽᱨᱟᱯᱷᱤᱠ
ᱯᱚᱨᱱᱚᱢᱳᱪᱤ
ᱯᱚᱨᱴ
ᱯᱚᱨᱵᱚ
ᱯᱚᱨᱵᱚᱱᱫᱚᱨ
ᱯᱚᱨᱵᱟᱥ
ᱯᱚᱪᱷᱤᱢ
ᱯᱚᱫ
ᱯᱚᱫᱚᱠ
ᱯᱚᱫᱟᱨᱛᱷ
ᱯᱚᱫᱢᱚ
ᱯᱚᱫᱫᱟ
ᱯᱚᱫᱽ
ᱯᱚᱫᱽᱢᱚ
ᱯᱚᱫᱽᱢᱚᱥᱨᱤ
ᱯᱚᱫᱽᱢᱚᱵᱷᱩᱥᱚᱬ
ᱯᱚᱫᱽᱢᱟ
ᱯᱚᱫᱽᱢᱟᱯᱨᱤᱭᱟ
ᱯᱚᱫᱽᱢᱤᱱᱤ
ᱯᱚᱬᱟ
ᱯᱚᱭᱮᱱᱴ
ᱯᱚᱭᱮᱸᱴ
ᱯᱚᱯ
ᱯᱚᱯᱚᱱ
ᱯᱚᱯᱩᱞᱟᱨ
ᱯᱚᱰᱚ
ᱯᱚᱱ
ᱯᱚᱱᱚᱛ
ᱯᱚᱱᱚᱛᱤᱭᱟᱹ
ᱯᱚᱱᱚᱰ
ᱯᱚᱱᱚᱴ
ᱯᱚᱱᱟᱜ
ᱯᱚᱱᱡᱟᱵ
ᱯᱚᱱᱡᱟᱵᱤ
ᱯᱚᱱᱤᱨ
ᱯᱚᱱᱭᱟ
ᱯᱚᱱᱮᱭᱟ
ᱯᱚᱱᱰ
ᱯᱚᱱᱰᱟ
ᱯᱚᱱᱰᱤᱛ
ᱯᱚᱱᱰᱤᱪᱮᱨᱤ
ᱯᱚᱲᱦᱚᱱ
ᱯᱚᱴᱚᱢ
ᱯᱚᱴᱚᱢᱫᱟᱜ
ᱯᱚᱴᱚᱱᱟᱭᱚᱠ
ᱯᱚᱴᱟᱥᱤᱭᱟᱢ
ᱯᱚᱴᱠᱟ
ᱯᱚᱴᱩᱣᱭᱟᱠᱷᱟᱞᱤ
ᱯᱚᱴᱮᱞ
ᱯᱚᱴᱱᱟᱭᱚᱠ
ᱯᱚᱴᱱᱟᱭᱮᱠ
ᱯᱚᱴᱴᱚᱱᱟᱭᱚᱠ
ᱯᱚᱴᱷᱟᱱᱠᱚᱴ
ᱯᱚᱵᱞᱤᱠ
ᱯᱚᱵᱟ
ᱯᱚᱵᱤᱛᱨᱚ
ᱯᱚᱵᱽᱞᱤᱠ
ᱯᱚᱸᱛᱱᱚᱜᱚᱨ
ᱯᱚᱸᱡᱟᱵ
ᱯᱚᱸᱡᱟᱵᱤ
ᱯᱚᱸᱡᱟᱵᱽ
ᱯᱚᱸᱪᱟᱭᱚᱛ
ᱯᱚᱸᱰᱤᱛ
ᱯᱚᱸᱰᱮᱛ
ᱯᱞᱚᱥ
ᱯᱞᱚᱴ
ᱯᱞᱟᱥ
ᱯᱞᱟᱥᱴᱤᱠ
ᱯᱞᱟᱱ
ᱯᱞᱟᱱᱤᱝ
ᱯᱞᱟᱱᱴ
ᱯᱞᱟᱴᱚ
ᱯᱞᱟᱴᱯᱷᱚᱨ
ᱯᱞᱟᱴᱯᱷᱚᱨᱢ
ᱯᱞᱟᱸᱴ
ᱯᱞᱮ
ᱯᱞᱮᱭ
ᱯᱞᱮᱭᱟᱨ
ᱯᱞᱮᱭᱟᱹᱨ
ᱯᱞᱮᱱ
ᱯᱞᱮᱴ
ᱯᱞᱮᱴᱯᱷᱚᱨᱚᱢ
ᱯᱞᱮᱴᱯᱷᱚᱨᱢ
ᱯᱞᱮᱵᱮᱠ
ᱯᱟ
ᱯᱟᱛ
ᱯᱟᱛᱚᱨ
ᱯᱟᱛᱞᱟ
ᱯᱟᱛᱟ
ᱯᱟᱛᱟᱞ
ᱯᱟᱛᱨᱟᱛᱩ
ᱯᱟᱛᱨᱤᱠᱟ
ᱯᱟᱛᱲᱟ
ᱯᱟᱛᱷᱚᱨ
ᱯᱟᱛᱷᱟᱢ
ᱯᱟᱛᱷᱤᱵᱷᱚᱨᱟ
ᱯᱟᱜᱚᱞ
ᱯᱟᱜᱚᱲᱚ
ᱯᱟᱝᱥᱟ
ᱯᱟᱞ
ᱯᱟᱞᱚ
ᱯᱟᱞᱚᱱ
ᱯᱟᱞᱚᱱᱯᱩᱨ
ᱯᱟᱞᱜᱷᱟᱨ
ᱯᱟᱞᱟ
ᱯᱟᱞᱟᱠ
ᱯᱟᱞᱟᱠᱠᱟᱲ
ᱯᱟᱞᱟᱢᱩ
ᱯᱟᱞᱟᱣ
ᱯᱟᱞᱟᱱ
ᱯᱟᱞᱠᱚᱴ
ᱯᱟᱞᱠᱤ
ᱯᱟᱞᱣᱟᱞ
ᱯᱟᱞᱤ
ᱯᱟᱞᱤᱠᱟ
ᱯᱟᱞᱮ
ᱯᱟᱞᱮᱥ
ᱯᱟᱞᱮᱱ
ᱯᱟᱞᱴᱚᱱ
ᱯᱟᱞᱴᱟᱣ
ᱯᱟᱠ
ᱯᱟᱠᱚᱲ
ᱯᱟᱠᱟ
ᱯᱟᱠᱟᱲ
ᱯᱟᱠᱤᱥᱛᱟᱱ
ᱯᱟᱠᱤᱥᱛᱟᱱᱤ
ᱯᱟᱠᱤᱥᱛᱟᱱᱤᱭᱟᱹ
ᱯᱟᱠᱤᱥᱛᱷᱟᱱ
ᱯᱟᱠᱩᱲ
ᱯᱟᱠᱩᱲᱤᱭᱟᱹ
ᱯᱟᱠᱷᱤ
ᱯᱟᱡᱟ
ᱯᱟᱡᱷᱟᱲ
ᱯᱟᱢ
ᱯᱟᱣ
ᱯᱟᱣᱟᱨ
ᱯᱟᱣᱨᱟ
ᱯᱟᱣᱩᱞ
ᱯᱟᱥ
ᱯᱟᱥᱛᱚ
ᱯᱟᱥᱛᱟ
ᱯᱟᱥᱛᱩᱱ
ᱯᱟᱥᱛᱷᱚ
ᱯᱟᱥᱟ
ᱯᱟᱥᱣᱟᱱ
ᱯᱟᱥᱤᱜᱷᱟᱴ
ᱯᱟᱥᱪᱚᱨ
ᱯᱟᱥᱪᱷᱤᱢ
ᱯᱟᱥᱮ
ᱯᱟᱥᱮᱡ
ᱯᱟᱥᱮᱧᱡᱚᱨ
ᱯᱟᱥᱮᱱᱡᱚᱨ
ᱯᱟᱥᱱᱟᱣ
ᱯᱟᱥᱱᱟᱣᱚᱜ
ᱯᱟᱥᱱᱟᱣᱜ
ᱯᱟᱥᱱᱟᱶ
ᱯᱟᱥᱴᱟ
ᱯᱟᱦᱟᱨ
ᱯᱟᱦᱟᱨᱤ
ᱯᱟᱦᱟᱲ
ᱯᱟᱦᱟᱲᱤ
ᱯᱟᱦᱟᱲᱤᱭᱟ
ᱯᱟᱦᱟᱲᱯᱩᱨ
ᱯᱟᱦᱟᱴᱟ
ᱯᱟᱦᱤᱞ
ᱯᱟᱦᱴᱟ
ᱯᱟᱦᱴᱟᱭ
ᱯᱟᱧᱡᱟ
ᱯᱟᱧᱡᱟᱭ
ᱯᱟᱧᱡᱟᱭᱮᱫ
ᱯᱟᱧᱡᱟᱭᱮᱫᱟ
ᱯᱟᱧᱡᱟᱵᱤ
ᱯᱟᱧᱡᱟᱵᱽ
ᱯᱟᱧᱡᱽᱜᱩᱨ
ᱯᱟᱧᱪᱟ
ᱯᱟᱧᱪᱟᱭᱟᱛ
ᱯᱟᱧᱪᱮᱛ
ᱯᱟᱨ
ᱯᱟᱨᱚ
ᱯᱟᱨᱚᱢ
ᱯᱟᱨᱚᱢᱚᱜ
ᱯᱟᱨᱚᱢᱚᱜᱼᱟ
ᱯᱟᱨᱚᱢᱟ
ᱯᱟᱨᱚᱢᱮᱱ
ᱯᱟᱨᱚᱢᱯᱚᱨᱤᱠ
ᱯᱟᱨᱚᱥᱥᱚ
ᱯᱟᱨᱚᱥᱱᱟᱛᱷ
ᱯᱟᱨᱚᱲᱟᱠᱷᱮᱢᱩᱱᱰᱤ
ᱯᱟᱨᱜᱟᱱᱟ
ᱯᱟᱨᱜᱟᱱᱟᱠᱚ
ᱯᱟᱨᱞ
ᱯᱟᱨᱞᱟᱢᱮᱱᱴ
ᱯᱟᱨᱞᱤᱭᱟᱢᱮᱸᱴ
ᱯᱟᱨᱟ
ᱯᱟᱨᱟᱥᱱᱟᱛᱷ
ᱯᱟᱨᱟᱫᱤᱯ
ᱯᱟᱨᱟᱱᱤᱠ
ᱯᱟᱨᱟᱵ
ᱯᱟᱨᱟᱵᱽ
ᱯᱟᱨᱠ
ᱯᱟᱨᱠᱚᱢ
ᱯᱟᱨᱢᱟᱱᱩ
ᱯᱟᱨᱣᱟ
ᱯᱟᱨᱣᱤᱱ
ᱯᱟᱨᱤ
ᱯᱟᱨᱤᱥ
ᱯᱟᱨᱤᱥᱚᱫ
ᱯᱟᱨᱤᱥᱚᱫᱽ
ᱯᱟᱨᱥᱟᱞ
ᱯᱟᱨᱥᱟᱞᱚᱜ
ᱯᱟᱨᱥᱤ
ᱯᱟᱨᱥᱤᱭᱟᱱ
ᱯᱟᱨᱥᱮᱛ
ᱯᱟᱨᱥᱮᱛᱮ
ᱯᱟᱨᱥᱮᱫ
ᱯᱟᱨᱦᱟᱣ
ᱯᱟᱨᱦᱟᱲ
ᱯᱟᱨᱪᱟᱣ
ᱯᱟᱨᱫᱟ
ᱯᱟᱨᱮ
ᱯᱟᱨᱳ
ᱯᱟᱨᱴ
ᱯᱟᱨᱴᱤ
ᱯᱟᱨᱵᱚᱛᱤ
ᱯᱟᱨᱵᱚᱛᱤᱯᱩᱨ
ᱯᱟᱨᱵᱚᱛᱤᱯᱩᱨᱚᱢ
ᱯᱟᱨᱵᱚᱱ
ᱯᱟᱨᱵᱟᱛᱤ
ᱯᱟᱨᱵᱷᱟᱱᱤ
ᱯᱟᱪᱮ
ᱯᱟᱪᱮᱢ
ᱯᱟᱪᱮᱨᱮ
ᱯᱟᱪᱮᱭᱟᱭ
ᱯᱟᱪᱷᱤᱢ
ᱯᱟᱪᱷᱮ
ᱯᱟᱫᱢᱟ
ᱯᱟᱫᱩᱠᱳᱱ
ᱯᱟᱫᱽᱢᱟ
ᱯᱟᱬᱤᱜᱨᱟᱦᱤ
ᱯᱟᱬᱤᱜᱽᱨᱟᱦᱤ
ᱯᱟᱭ
ᱯᱟᱭᱛᱟᱨ
ᱯᱟᱭᱛᱷᱚᱱ
ᱯᱟᱭᱞᱚᱴ
ᱯᱟᱭᱤᱠ
ᱯᱟᱭᱤᱯ
ᱯᱟᱭᱤᱱ
ᱯᱟᱭᱥᱟ
ᱯᱟᱭᱨᱟ
ᱯᱟᱭᱨᱟᱜ
ᱯᱟᱯ
ᱯᱟᱯᱟᱥᱱᱟᱣ
ᱯᱟᱯᱟᱴ
ᱯᱟᱯᱟᱴᱤᱡ
ᱯᱟᱯᱟᱴᱤᱭᱟ
ᱯᱟᱯᱟᱴᱤᱭᱟᱹ
ᱯᱟᱯᱟᱴᱤᱭᱟᱹᱭ
ᱯᱟᱯᱩᱢ
ᱯᱟᱯᱩᱣᱟ
ᱯᱟᱯᱲᱤ
ᱯᱟᱰᱦᱟᱣ
ᱯᱟᱰᱷᱟᱣ
ᱯᱟᱱ
ᱯᱟᱱᱛᱮ
ᱯᱟᱱᱛᱷᱟ
ᱯᱟᱱᱟᱜᱚᱲ
ᱯᱟᱱᱟᱢᱟ
ᱯᱟᱱᱟᱦᱤ
ᱯᱟᱱᱣᱮᱞ
ᱯᱟᱱᱤᱯᱚᱛ
ᱯᱟᱱᱤᱯᱟᱛ
ᱯᱟᱱᱤᱱᱤ
ᱯᱟᱱᱥᱮᱢᱚᱞ
ᱯᱟᱱᱰᱚᱵᱽ
ᱯᱟᱱᱰᱟ
ᱯᱟᱱᱰᱩ
ᱯᱟᱱᱰᱭᱟ
ᱯᱟᱱᱰᱮ
ᱯᱟᱱᱱᱟ
ᱯᱟᱲᱟ
ᱯᱟᱲᱟᱜ
ᱯᱟᱲᱟᱜᱼᱟ
ᱯᱟᱲᱟᱣ
ᱯᱟᱲᱟᱣᱜ
ᱯᱟᱲᱟᱣᱜᱼᱟ
ᱯᱟᱲᱟᱣᱼᱟ
ᱯᱟᱲᱦᱟᱜ
ᱯᱟᱲᱦᱟᱣ
ᱯᱟᱲᱦᱟᱣᱚᱜ
ᱯᱟᱲᱦᱟᱣᱜ
ᱯᱟᱲᱦᱟᱣᱟ
ᱯᱟᱲᱦᱟᱣᱢᱮ
ᱯᱟᱲᱦᱟᱣᱮᱫ
ᱯᱟᱲᱷᱟᱣ
ᱯᱟᱴ
ᱯᱟᱴᱚᱣᱟᱨᱤ
ᱯᱟᱴᱚᱱ
ᱯᱟᱴᱞᱤᱯᱩᱛᱨᱟ
ᱯᱟᱴᱟ
ᱯᱟᱴᱟᱱ
ᱯᱟᱴᱤ
ᱯᱟᱴᱤᱞ
ᱯᱟᱴᱤᱭᱟᱞᱟ
ᱯᱟᱴᱨᱤ
ᱯᱟᱴᱮᱞ
ᱯᱟᱴᱱᱟ
ᱯᱟᱴᱱᱟᱭᱚᱠ
ᱯᱟᱴᱴᱤ
ᱯᱟᱴᱷ
ᱯᱟᱴᱷᱚᱠ
ᱯᱟᱴᱷᱟ
ᱯᱟᱴᱷᱟᱨ
ᱯᱟᱴᱷᱟᱬ
ᱯᱟᱴᱷᱟᱱ
ᱯᱟᱴᱷᱟᱱᱠᱚᱴ
ᱯᱟᱴᱷᱱᱟ
ᱯᱟᱵᱞᱤᱠ
ᱯᱟᱵᱱᱟ
ᱯᱟᱵᱽᱞᱤᱠ
ᱯᱟᱵᱽᱱᱟ
ᱯᱟᱸᱠᱷᱟ
ᱯᱟᱸᱡᱟ
ᱯᱟᱸᱡᱟᱭ
ᱯᱟᱸᱡᱟᱵᱤ
ᱯᱟᱸᱡᱟᱵᱽ
ᱯᱟᱸᱪ
ᱯᱟᱸᱪᱛᱷᱚᱨ
ᱯᱟᱸᱪᱟᱞᱤ
ᱯᱟᱸᱪᱟᱭᱟᱛ
ᱯᱟᱸᱪᱠᱩᱞᱟ
ᱯᱟᱸᱪᱢᱚᱦᱚᱞ
ᱯᱟᱸᱪᱣᱟᱲᱟ
ᱯᱟᱸᱪᱵᱤᱵᱤ
ᱯᱟᱹ
ᱯᱟᱹᱛᱤᱭᱟᱹᱣ
ᱯᱟᱹᱛᱭᱟᱣ
ᱯᱟᱹᱛᱭᱟᱹᱣ
ᱯᱟᱹᱛᱭᱟᱹᱶ
ᱯᱟᱹᱣᱨᱟᱹ
ᱯᱟᱹᱥᱤ
ᱯᱟᱹᱦᱤᱞ
ᱯᱟᱹᱧᱡᱤ
ᱯᱟᱹᱨᱟ
ᱯᱟᱹᱨᱣᱟᱹ
ᱯᱟᱹᱨᱤ
ᱯᱟᱹᱨᱤᱥ
ᱯᱟᱹᱨᱥᱤ
ᱯᱟᱹᱨᱥᱤᱛᱮ
ᱯᱟᱹᱨᱥᱤᱠᱚ
ᱯᱟᱹᱨᱥᱤᱭᱟᱱ
ᱯᱟᱹᱨᱥᱤᱭᱟᱹ
ᱯᱟᱹᱨᱩᱠᱷᱤᱭᱟᱹ
ᱯᱟᱹᱨᱩᱠᱷᱤᱭᱟᱹᱭ
ᱯᱟᱹᱪᱨᱤ
ᱯᱟᱹᱪᱷᱞᱟᱹ
ᱯᱟᱹᱪᱷᱟᱞᱟᱹ
ᱯᱟᱹᱪᱷᱤᱢ
ᱯᱟᱹᱭᱞᱟᱹ
ᱯᱟᱹᱭᱠᱚ
ᱯᱟᱹᱰᱟ
ᱯᱟᱹᱱᱟᱹᱨᱥᱤ
ᱯᱟᱹᱱᱟᱹᱨᱥᱤᱭᱟᱹ
ᱯᱟᱹᱱᱪᱤ
ᱯᱟᱹᱴᱷᱣᱟᱹ
ᱯᱟᱹᱴᱷᱩᱣᱟ
ᱯᱟᱹᱴᱷᱩᱣᱟᱹ
ᱯᱟᱹᱴᱷᱩᱭᱟᱹ
ᱯᱤ
ᱯᱤᱛ
ᱯᱤᱛᱚᱞ
ᱯᱤᱛᱟᱢᱵᱚᱨ
ᱯᱤᱛᱟᱹᱡᱽ
ᱯᱤᱛᱷᱚᱨᱜᱟᱲ
ᱯᱤᱞᱞᱟᱭ
ᱯᱤᱞᱞᱟᱭᱤ
ᱯᱤᱞᱟᱨ
ᱯᱤᱞᱟᱭᱤ
ᱯᱤᱞᱤᱵᱷᱤᱛ
ᱯᱤᱞᱪᱩ
ᱯᱤᱠ
ᱯᱤᱠᱟᱥᱳ
ᱯᱤᱠᱪᱟᱨᱥ
ᱯᱤᱠᱱᱤᱠ
ᱯᱤᱢᱯᱨᱤ
ᱯᱤᱥ
ᱯᱤᱥᱛᱚᱞ
ᱯᱤᱥᱟ
ᱯᱤᱥᱟᱣ
ᱯᱤᱥᱤᱱ
ᱯᱤᱥᱴᱚᱞ
ᱯᱤᱨ
ᱯᱤᱨᱚ
ᱯᱤᱨᱚᱡᱽᱯᱩᱨ
ᱯᱤᱨᱜᱚᱸᱡᱽ
ᱯᱤᱨᱜᱟᱪᱷᱟ
ᱯᱤᱨᱟᱢᱤᱰ
ᱯᱤᱪᱟᱭ
ᱯᱤᱪᱷᱟ
ᱯᱤᱪᱷᱟᱹ
ᱯᱤᱪᱷᱤ
ᱯᱤᱪᱷᱲᱟᱹ
ᱯᱤᱭᱚᱝᱤᱭᱟᱝ
ᱯᱤᱭᱟ
ᱯᱤᱮᱪᱰᱤ
ᱯᱤᱯᱚᱞᱥ
ᱯᱤᱯᱤᱲᱤ
ᱯᱤᱯᱩᱞ
ᱯᱤᱯᱩᱞᱥ
ᱯᱤᱱ
ᱯᱤᱱᱰᱟᱹ
ᱯᱤᱲ
ᱯᱤᱲᱤᱭᱟᱺᱝ
ᱯᱤᱲᱦᱤ
ᱯᱤᱴ
ᱯᱤᱴᱚᱨ
ᱯᱤᱴᱚᱨᱥᱵᱚᱨᱜᱽ
ᱯᱤᱴᱟᱨ
ᱯᱤᱴᱷᱟ
ᱯᱤᱴᱷᱟᱹ
ᱯᱤᱸᱠᱤ
ᱯᱤᱹ
ᱯᱦᱤᱞᱢ
ᱯᱨᱚ
ᱯᱨᱚᱛᱟᱯ
ᱯᱨᱚᱛᱟᱯᱜᱚᱲ
ᱯᱨᱚᱛᱤ
ᱯᱨᱚᱛᱤᱠᱨᱤᱭᱟ
ᱯᱨᱚᱛᱤᱢᱟ
ᱯᱨᱚᱛᱤᱥᱟᱛ
ᱯᱨᱚᱛᱤᱥᱴᱷᱟᱱ
ᱯᱨᱚᱛᱤᱱᱤᱫᱷᱤ
ᱯᱨᱚᱛᱤᱱᱤᱫᱷᱤᱛᱣᱚ
ᱯᱨᱚᱛᱤᱵᱷᱟ
ᱯᱨᱚᱛᱷᱚᱢ
ᱯᱨᱚᱛᱷᱟ
ᱯᱨᱚᱜᱨᱟᱢ
ᱯᱨᱚᱜᱽᱨᱟᱢ
ᱯᱨᱚᱜᱽᱨᱟᱢᱤᱝ
ᱯᱨᱚᱠᱚᱞᱯᱚ
ᱯᱨᱚᱠᱟᱥ
ᱯᱨᱚᱠᱟᱥᱚᱢ
ᱯᱨᱚᱠᱟᱨ
ᱯᱨᱚᱠᱨᱤᱛᱤ
ᱯᱨᱚᱠᱨᱤᱭᱟ
ᱯᱨᱚᱡᱟᱛᱚᱱᱛᱨᱚ
ᱯᱨᱚᱡᱟᱛᱟᱱᱛᱨᱤᱠ
ᱯᱨᱚᱡᱟᱛᱤ
ᱯᱨᱚᱡᱟᱹᱛᱤ
ᱯᱨᱚᱡᱩᱠᱛᱤ
ᱯᱨᱚᱡᱮᱠ
ᱯᱨᱚᱡᱮᱠᱴ
ᱯᱨᱚᱡᱮᱠᱴᱠᱚ
ᱯᱨᱚᱢᱟᱱ
ᱯᱨᱚᱢᱩᱠᱷ
ᱯᱨᱚᱥᱛᱟᱵᱽ
ᱯᱨᱚᱥᱟᱥᱚᱱ
ᱯᱨᱚᱥᱟᱥᱚᱱᱤᱠ
ᱯᱨᱚᱥᱟᱥᱚᱱᱤᱭᱟᱹ
ᱯᱨᱚᱥᱟᱫ
ᱯᱨᱚᱥᱟᱫᱽ
ᱯᱨᱚᱥᱟᱱᱛ
ᱯᱨᱚᱥᱟᱱᱛᱚ
ᱯᱨᱚᱥᱤᱠᱷᱚᱱ
ᱯᱨᱚᱥᱮᱱᱡᱤᱛ
ᱯᱨᱚᱦᱞᱟᱫᱽ
ᱯᱨᱚᱪᱚᱱᱰᱚ
ᱯᱨᱚᱪᱟᱨ
ᱯᱨᱚᱫᱚᱨᱥᱚᱱ
ᱯᱨᱚᱫᱤᱯ
ᱯᱨᱚᱫᱮᱥ
ᱯᱨᱚᱫᱷᱟᱱ
ᱯᱨᱚᱫᱷᱟᱱᱢᱚᱱᱛᱨᱤ
ᱯᱨᱚᱬᱚᱵᱽ
ᱯᱨᱚᱬᱟᱞᱤ
ᱯᱨᱚᱭᱟᱜᱽᱨᱟᱡᱽ
ᱯᱨᱚᱯᱷᱟᱭᱤᱞ
ᱯᱨᱚᱯᱷᱩᱞᱞᱚ
ᱯᱨᱚᱯᱷᱮᱥᱚᱨ
ᱯᱨᱚᱯᱷᱮᱥᱚᱱᱟᱞ
ᱯᱨᱚᱯᱷᱮᱥᱟᱨ
ᱯᱨᱚᱰᱚᱠᱥᱚᱱ
ᱯᱨᱚᱰᱚᱠᱴ
ᱯᱨᱚᱰᱟᱠᱥᱚᱱ
ᱯᱨᱚᱰᱟᱠᱥᱟᱱ
ᱯᱨᱚᱰᱟᱠᱴ
ᱯᱨᱚᱰᱤᱭᱩᱥᱟᱨ
ᱯᱨᱚᱰᱩᱥᱚᱨ
ᱯᱨᱚᱰᱭᱩᱥ
ᱯᱨᱚᱰᱭᱩᱥᱚᱨ
ᱯᱨᱚᱰᱭᱩᱥᱟᱨ
ᱯᱨᱚᱱᱟᱞᱤ
ᱯᱨᱚᱴᱤᱚᱢᱤᱠᱥ
ᱯᱨᱚᱴᱤᱱ
ᱯᱨᱚᱵᱟᱥᱤ
ᱯᱨᱚᱵᱷᱟ
ᱯᱨᱚᱵᱷᱟᱛ
ᱯᱨᱚᱵᱷᱟᱣ
ᱯᱨᱚᱵᱷᱤᱱᱥ
ᱯᱨᱚᱵᱷᱩ
ᱯᱨᱟᱛᱷᱚᱢᱤᱠ
ᱯᱨᱟᱜᱽ
ᱯᱨᱟᱠᱟᱥ
ᱯᱨᱟᱠᱨᱤᱛ
ᱯᱨᱟᱠᱨᱤᱛᱤᱠ
ᱯᱨᱟᱠᱨᱩᱛᱤᱠ
ᱯᱨᱟᱡᱟᱹᱛᱤ
ᱯᱨᱟᱢᱮᱭ
ᱯᱨᱟᱥᱟᱫᱽ
ᱯᱨᱟᱫᱤᱯ
ᱯᱨᱟᱫᱮᱥ
ᱯᱨᱟᱫᱷᱟᱱ
ᱯᱨᱟᱫᱷᱤᱠᱚᱨᱚᱱ
ᱯᱨᱟᱬ
ᱯᱨᱟᱭ
ᱯᱨᱟᱭᱟᱜᱽ
ᱯᱨᱟᱭᱢᱟᱨᱤ
ᱯᱨᱟᱭᱢᱮᱨᱤ
ᱯᱨᱟᱭᱤᱡ
ᱯᱨᱟᱭᱤᱢ
ᱯᱨᱟᱭᱫᱤᱯ
ᱯᱨᱟᱭᱵᱷᱮᱴ
ᱯᱨᱟᱱᱛᱤᱠ
ᱯᱨᱟᱵᱷᱮᱴ
ᱯᱨᱟᱸᱛ
ᱯᱨᱤ
ᱯᱨᱤᱛᱤ
ᱯᱨᱤᱛᱤᱞᱚᱛᱟ
ᱯᱨᱤᱛᱷᱤᱵᱤ
ᱯᱨᱤᱠᱥ
ᱯᱨᱤᱢᱤᱭᱚᱨ
ᱯᱨᱤᱢᱤᱭᱟᱨ
ᱯᱨᱤᱭᱚᱝᱠᱟ
ᱯᱨᱤᱭᱚᱫᱚᱨᱥᱤᱱᱤ
ᱯᱨᱤᱭᱟ
ᱯᱨᱤᱭᱳ
ᱯᱨᱤᱱᱥ
ᱯᱨᱤᱱᱥᱤᱯᱟᱞ
ᱯᱨᱩᱛᱷᱩᱢ
ᱯᱨᱭ
ᱯᱨᱮᱢ
ᱯᱨᱮᱢᱤ
ᱯᱨᱮᱥ
ᱯᱨᱮᱥᱚᱨ
ᱯᱨᱮᱥᱤᱰᱮᱱᱥᱤ
ᱯᱨᱮᱥᱤᱰᱮᱱᱴ
ᱯᱨᱮᱥᱤᱰᱮᱸᱴ
ᱯᱨᱮᱥᱤᱵᱮᱱᱴ
ᱯᱨᱮᱨᱚᱬᱟ
ᱯᱨᱳ
ᱯᱨᱳᱜᱨᱟᱢ
ᱯᱨᱳᱜᱽᱨᱟᱢᱤᱝ
ᱯᱨᱳᱡᱮᱠᱴ
ᱯᱨᱳᱥᱮᱥ
ᱯᱨᱳᱯᱷᱮᱥᱚᱨ
ᱯᱨᱳᱰᱚᱠᱥᱳᱱ
ᱯᱨᱳᱰᱩᱥᱚᱨ
ᱯᱨᱳᱴᱤᱱ
ᱯᱨᱳᱴᱮᱥᱴᱟᱱ
ᱯᱨᱳᱴᱳ
ᱯᱩ
ᱯᱩᱛᱨᱚ
ᱯᱩᱛᱩᱞ
ᱯᱩᱛᱷᱤ
ᱯᱩᱛᱷᱤᱭ
ᱯᱩᱜ
ᱯᱩᱜᱚᱜ
ᱯᱩᱞ
ᱯᱩᱞᱣᱟᱢᱟ
ᱯᱩᱞᱤ
ᱯᱩᱞᱤᱡᱚᱨ
ᱯᱩᱞᱤᱥ
ᱯᱩᱞᱤᱱ
ᱯᱩᱞᱩ
ᱯᱩᱠᱷᱚᱨᱤ
ᱯᱩᱠᱷᱨᱤ
ᱯᱩᱡᱟ
ᱯᱩᱡᱟᱨᱤ
ᱯᱩᱡᱟᱹ
ᱯᱩᱣᱚ
ᱯᱩᱥ
ᱯᱩᱥᱠᱤᱱ
ᱯᱩᱥᱤ
ᱯᱩᱥᱯᱟ
ᱯᱩᱥᱴᱟ
ᱯᱩᱥᱴᱟᱹᱣ
ᱯᱩᱥᱴᱤ
ᱯᱩᱧᱡᱤᱰᱷᱤᱯ
ᱯᱩᱧᱡᱤᱵᱟ
ᱯᱩᱧᱪ
ᱯᱩᱧᱪᱷ
ᱯᱩᱨ
ᱯᱩᱨᱚᱥᱠᱟᱨ
ᱯᱩᱨᱚᱱ
ᱯᱩᱨᱛᱜᱟᱞᱤ
ᱯᱩᱨᱟ
ᱯᱩᱨᱟᱣ
ᱯᱩᱨᱟᱬ
ᱯᱩᱨᱟᱱ
ᱯᱩᱨᱟᱹ
ᱯᱩᱨᱟᱹᱣ
ᱯᱩᱨᱟᱹᱣᱜᱼᱟ
ᱯᱩᱨᱟᱹᱯᱩᱨᱤ
ᱯᱩᱨᱠᱩᱛ
ᱯᱩᱨᱠᱩᱛᱤᱭᱟ
ᱯᱩᱨᱠᱷᱟ
ᱯᱩᱨᱢᱳᱞᱟ
ᱯᱩᱨᱤ
ᱯᱩᱨᱩ
ᱯᱩᱨᱩᱞᱤᱭᱟ
ᱯᱩᱨᱩᱞᱤᱭᱟᱹ
ᱯᱩᱨᱩᱥ
ᱯᱩᱨᱩᱥᱠᱟᱨ
ᱯᱩᱨᱩᱫᱷᱩᱞ
ᱯᱩᱨᱩᱱ
ᱯᱩᱨᱩᱵ
ᱯᱩᱨᱩᱵᱽ
ᱯᱩᱨᱱᱚ
ᱯᱩᱨᱱᱤᱢᱟ
ᱯᱩᱨᱱᱤᱭᱟ
ᱯᱩᱨᱵ
ᱯᱩᱨᱵᱚ
ᱯᱩᱪᱩᱡ
ᱯᱩᱪᱪᱷᱤᱢ
ᱯᱩᱪᱷᱤᱢ
ᱯᱩᱫ
ᱯᱩᱭᱞᱩ
ᱯᱩᱭᱥᱟ
ᱯᱩᱭᱥᱟᱹ
ᱯᱩᱭᱩᱞᱩ
ᱯᱩᱰ
ᱯᱩᱰᱩᱪᱮᱨᱤ
ᱯᱩᱱ
ᱯᱩᱱᱟ
ᱯᱩᱱᱟᱜ
ᱯᱩᱱᱟᱝ
ᱯᱩᱱᱟᱭ
ᱯᱩᱱᱟᱹᱜ
ᱯᱩᱱᱟᱹᱭ
ᱯᱩᱱᱤᱛ
ᱯᱩᱱᱤᱭᱟ
ᱯᱩᱱᱤᱭᱟᱹ
ᱯᱩᱱᱭᱟ
ᱯᱩᱱᱭᱟᱹ
ᱯᱩᱱᱮ
ᱯᱩᱱᱰ
ᱯᱩᱲᱤ
ᱯᱩᱲᱤᱭᱟᱹ
ᱯᱩᱲᱥᱟᱹ
ᱯᱩᱲᱥᱤ
ᱯᱩᱴᱠᱟᱹ
ᱯᱩᱴᱷᱤᱭᱟ
ᱯᱩᱸᱜᱤ
ᱯᱩᱸᱡᱤ
ᱯᱩᱸᱡᱤᱵᱟᱫᱽ
ᱯᱩᱸᱪᱷ
ᱯᱩᱸᱰ
ᱯᱭᱟᱨ
ᱯᱭᱟᱨᱤᱥ
ᱯᱮ
ᱯᱮᱜᱚᱢᱵᱚᱨ
ᱯᱮᱜᱮᱞ
ᱯᱮᱝᱜᱩᱭᱤᱱ
ᱯᱮᱞᱮ
ᱯᱮᱞᱮᱥ
ᱯᱮᱞᱮᱥᱴᱟᱭᱤᱱ
ᱯᱮᱠᱚᱬ
ᱯᱮᱡᱽ
ᱯᱮᱥᱟ
ᱯᱮᱥᱟᱫᱟᱨ
ᱯᱮᱥᱣᱟ
ᱯᱮᱥᱤ
ᱯᱮᱥᱤᱯᱷᱤᱠ
ᱯᱮᱥᱮᱧᱡᱟᱨ
ᱯᱮᱨ
ᱯᱮᱨᱚᱢᱵᱚᱞᱩᱨ
ᱯᱮᱨᱟ
ᱯᱮᱨᱟᱜᱩᱣᱟᱭ
ᱯᱮᱨᱤᱥ
ᱯᱮᱨᱩ
ᱯᱮᱨᱮᱡ
ᱯᱮᱨᱮᱡᱽ
ᱯᱮᱨᱮᱪ
ᱯᱮᱨᱮᱱ
ᱯᱮᱬᱮ
ᱯᱮᱭᱟ
ᱯᱮᱭᱟᱡᱽ
ᱯᱮᱭᱟᱨ
ᱯᱮᱭᱟᱸᱡᱽ
ᱯᱮᱭᱰ
ᱯᱮᱯᱚᱨ
ᱯᱮᱯᱟᱨ
ᱯᱮᱯᱥᱤ
ᱯᱮᱰ
ᱯᱮᱰᱟ
ᱯᱮᱱ
ᱯᱮᱱᱤᱥ
ᱯᱮᱱᱮ
ᱯᱮᱱᱴᱤᱝ
ᱯᱮᱲᱟ
ᱯᱮᱴᱟᱨᱣᱟᱨ
ᱯᱮᱴᱨᱚᱞᱤᱭᱟᱢ
ᱯᱮᱴᱨᱟ
ᱯᱮᱴᱮᱨ
ᱯᱮᱴᱮᱨᱵᱟᱨ
ᱯᱮᱴᱮᱨᱵᱟᱲᱮ
ᱯᱮᱸᱥᱤᱞ
ᱯᱮᱸᱫᱟ
ᱯᱮᱼᱜᱮ
ᱯᱱᱟ
ᱯᱳ
ᱯᱳᱞ
ᱯᱳᱞᱤᱥ
ᱯᱳᱞᱤᱴᱮᱠᱱᱤᱠ
ᱯᱳᱞᱮᱱᱰ
ᱯᱳᱞᱳ
ᱯᱳᱡᱤᱥᱚᱱ
ᱯᱳᱣᱨᱚᱥᱚᱵᱷᱟ
ᱯᱳᱣᱨᱳᱥᱚᱵᱷᱟ
ᱯᱳᱥ
ᱯᱳᱥᱴ
ᱯᱳᱥᱴᱠᱟᱨᱰ
ᱯᱳᱨᱛᱩᱜᱟᱞ
ᱯᱳᱨᱛᱩᱜᱤᱡᱽ
ᱯᱳᱨᱟ
ᱯᱳᱨᱴ
ᱯᱳᱨᱴᱟᱞ
ᱯᱳᱨᱵᱚᱱᱫᱚᱨ
ᱯᱳᱭᱞᱳ
ᱯᱳᱭᱟ
ᱯᱳᱯ
ᱯᱳᱱ
ᱯᱳᱱᱟ
ᱯᱳᱴᱚᱲᱚ
ᱯᱷ
ᱯᱷᱚᱠᱤᱨ
ᱯᱷᱚᱠᱤᱨᱦᱟᱴ
ᱯᱷᱚᱠᱥ
ᱯᱷᱚᱡᱚᱞ
ᱯᱷᱚᱥᱯᱷᱮᱴ
ᱯᱷᱚᱨ
ᱯᱷᱚᱨᱚᱠ
ᱯᱷᱚᱨᱟᱥᱤ
ᱯᱷᱚᱨᱢ
ᱯᱷᱚᱨᱢᱟᱴ
ᱯᱷᱚᱨᱤᱫᱟᱵᱟᱫᱽ
ᱯᱷᱚᱨᱤᱫᱯᱩᱨ
ᱯᱷᱚᱨᱤᱫᱽᱯᱩᱨ
ᱯᱷᱚᱨᱥ
ᱯᱷᱚᱨᱨᱩᱠᱷᱟᱵᱟᱫᱽ
ᱯᱷᱚᱨᱮᱱ
ᱯᱷᱚᱨᱰ
ᱯᱷᱚᱨᱴ
ᱯᱷᱚᱬᱤ
ᱯᱷᱚᱱ
ᱯᱷᱚᱱᱴ
ᱯᱷᱚᱴᱚ
ᱯᱷᱚᱴᱮᱞ
ᱯᱷᱚᱴᱮᱞᱚᱜ
ᱯᱷᱚᱸᱰ
ᱯᱷᱞᱟᱣᱤᱭᱟ
ᱯᱷᱞᱤᱢ
ᱯᱷᱞᱳᱨᱮᱱᱥ
ᱯᱷᱟ
ᱯᱷᱟᱛᱤᱢᱟ
ᱯᱷᱟᱛᱮᱦᱜᱚᱲ
ᱯᱷᱟᱛᱮᱦᱯᱩᱨ
ᱯᱷᱟᱞᱠᱮ
ᱯᱷᱟᱠᱤᱨ
ᱯᱷᱟᱡᱤᱞᱠᱟ
ᱯᱷᱟᱣᱩᱱᱰᱮᱥᱚᱱ
ᱯᱷᱟᱣᱩᱸᱰᱮᱥᱚᱱ
ᱯᱷᱟᱣᱱᱰᱮᱥᱚᱱ
ᱯᱷᱟᱥᱳ
ᱯᱷᱟᱥᱴ
ᱯᱷᱟᱨᱟᱠ
ᱯᱷᱟᱨᱟᱠᱠᱟ
ᱯᱷᱟᱨᱟᱰᱮ
ᱯᱷᱟᱨᱠᱟ
ᱯᱷᱟᱨᱢ
ᱯᱷᱟᱨᱣᱟᱨᱤ
ᱯᱷᱟᱨᱤᱭᱟ
ᱯᱷᱟᱨᱥᱤ
ᱯᱷᱟᱨᱥᱴ
ᱯᱷᱟᱨᱪᱟ
ᱯᱷᱟᱨᱮᱱᱦᱟᱭᱤᱴ
ᱯᱷᱟᱨᱱᱟ
ᱯᱷᱟᱨᱱᱟᱰᱤᱡᱽ
ᱯᱷᱟᱫᱟᱨ
ᱯᱷᱟᱭᱞᱟᱣ
ᱯᱷᱟᱭᱟᱨ
ᱯᱷᱟᱭᱡᱟᱵᱟᱫᱽ
ᱯᱷᱟᱭᱤᱱ
ᱯᱷᱟᱭᱫᱟ
ᱯᱷᱟᱭᱱᱟᱞ
ᱯᱷᱟᱭᱱᱟᱱᱥ
ᱯᱷᱟᱭᱵᱚᱨ
ᱯᱷᱟᱱᱰ
ᱯᱷᱟᱶᱰᱮᱥᱚᱱ
ᱯᱷᱟᱹᱜᱩᱱ
ᱯᱷᱟᱹᱠᱬᱟᱹᱜ
ᱯᱷᱟᱹᱫ
ᱯᱷᱟᱹᱫᱽ
ᱯᱷᱤᱞ
ᱯᱷᱤᱞᱚᱡᱚᱯᱤ
ᱯᱷᱤᱞᱚᱥᱚᱯᱷᱤ
ᱯᱷᱤᱞᱢ
ᱯᱷᱤᱞᱢᱚᱜᱨᱟᱯᱷᱤ
ᱯᱷᱤᱞᱢᱚᱜᱽᱨᱟᱯᱷᱤ
ᱯᱷᱤᱞᱢᱤ
ᱯᱷᱤᱞᱢᱥ
ᱯᱷᱤᱞᱢᱮ
ᱯᱷᱤᱞᱢᱯᱷᱮᱭᱚᱨ
ᱯᱷᱤᱞᱢᱯᱷᱮᱭᱟᱨ
ᱯᱷᱤᱞᱢᱳᱜᱽᱨᱟᱯᱷᱤ
ᱯᱷᱤᱞᱤᱢ
ᱯᱷᱤᱞᱤᱥᱛᱤᱱ
ᱯᱷᱤᱞᱤᱯ
ᱯᱷᱤᱞᱤᱯᱟᱭᱤᱱ
ᱯᱷᱤᱞᱤᱯᱤᱱᱥ
ᱯᱷᱤᱞᱤᱯᱤᱱᱳ
ᱯᱷᱤᱞᱤᱯᱥ
ᱯᱷᱤᱞᱰ
ᱯᱷᱤᱠᱥᱚᱱ
ᱯᱷᱤᱡᱤ
ᱯᱷᱤᱡᱤᱠᱟᱞ
ᱯᱷᱤᱡᱤᱠᱥ
ᱯᱷᱤᱡᱤᱥᱤᱭᱟᱱ
ᱯᱷᱤᱢ
ᱯᱷᱤᱢᱚᱜᱽᱨᱟᱯᱷᱤ
ᱯᱷᱤᱢᱮᱞ
ᱯᱷᱤᱨᱚᱡᱟᱵᱟᱫᱽ
ᱯᱷᱤᱨᱚᱡᱽ
ᱯᱷᱤᱨᱚᱡᱽᱯᱩᱨ
ᱯᱷᱤᱪᱚᱨ
ᱯᱷᱤᱪᱟᱨ
ᱯᱷᱤᱯᱟ
ᱯᱷᱤᱯᱢ
ᱯᱷᱤᱯᱷᱟ
ᱯᱷᱤᱱᱞᱟᱸᱰ
ᱯᱷᱤᱱᱤᱥ
ᱯᱷᱤᱴ
ᱯᱷᱨᱚᱢ
ᱯᱷᱨᱚᱱᱴ
ᱯᱷᱨᱟᱝᱠᱟ
ᱯᱷᱨᱟᱭᱟ
ᱯᱷᱨᱟᱭᱰᱮ
ᱯᱷᱨᱟᱱᱥ
ᱯᱷᱨᱟᱱᱥᱤᱥ
ᱯᱷᱨᱟᱱᱥᱤᱥᱠᱳ
ᱯᱷᱨᱟᱸᱥ
ᱯᱷᱨᱤ
ᱯᱷᱨᱤᱥᱤᱭᱟᱱ
ᱯᱷᱨᱤᱰᱚᱢ
ᱯᱷᱨᱮᱢ
ᱯᱷᱨᱮᱸᱪ
ᱯᱷᱩ
ᱯᱷᱩᱞ
ᱯᱷᱩᱞᱚ
ᱯᱷᱩᱞᱛᱚᱞᱟ
ᱯᱷᱩᱞᱟ
ᱯᱷᱩᱞᱟᱹᱣ
ᱯᱷᱩᱞᱮ
ᱯᱷᱩᱞᱮᱥᱚᱨᱤ
ᱯᱷᱩᱞᱵᱟᱬᱤ
ᱯᱷᱩᱞᱵᱟᱲᱤ
ᱯᱷᱩᱠᱚᱱ
ᱯᱷᱩᱡᱤ
ᱯᱷᱩᱥᱨᱚ
ᱯᱷᱩᱨᱜᱟ
ᱯᱷᱩᱨᱜᱟᱹᱞ
ᱯᱷᱩᱨᱜᱟᱹᱞᱮ
ᱯᱷᱩᱨᱪᱟᱹ
ᱯᱷᱩᱰ
ᱯᱷᱩᱱᱩᱨᱜᱟᱹᱞ
ᱯᱷᱩᱱᱴᱥᱚᱞᱤᱝ
ᱯᱷᱩᱲᱩᱜ
ᱯᱷᱩᱴ
ᱯᱷᱩᱴᱟᱹ
ᱯᱷᱩᱴᱟᱹᱣ
ᱯᱷᱩᱴᱮᱞ
ᱯᱷᱩᱴᱵᱚᱞ
ᱯᱷᱮᱞᱚᱥᱤᱯ
ᱯᱷᱮᱞᱳ
ᱯᱷᱮᱞᱳᱥᱤᱯ
ᱯᱷᱮᱠ
ᱯᱷᱮᱠᱟᱞᱴᱤ
ᱯᱷᱮᱠᱩᱞᱤᱴᱤ
ᱯᱷᱮᱠᱴᱨᱤ
ᱯᱷᱮᱢ
ᱯᱷᱮᱢᱚᱥ
ᱯᱷᱮᱢᱤᱞᱤ
ᱯᱷᱮᱢᱤᱱᱟ
ᱯᱷᱮᱢᱤᱱᱤᱡᱚᱢ
ᱯᱷᱮᱢᱤᱱᱤᱡᱤᱢ
ᱯᱷᱮᱢᱤᱱᱤᱥᱴ
ᱯᱷᱮᱣᱟ
ᱯᱷᱮᱥᱚᱱ
ᱯᱷᱮᱥᱴᱤᱣᱟᱞ
ᱯᱷᱮᱥᱴᱤᱵᱟᱞ
ᱯᱷᱮᱥᱴᱤᱵᱷᱟᱞ
ᱯᱷᱮᱥᱵᱩᱠ
ᱯᱷᱮᱨᱟᱣ
ᱯᱷᱮᱨᱤ
ᱯᱷᱮᱭᱟᱨ
ᱯᱷᱮᱭᱟᱨᱥ
ᱯᱷᱮᱭᱡᱟᱵᱟᱫᱽ
ᱯᱷᱮᱰ
ᱯᱷᱮᱰᱟᱛ
ᱯᱷᱮᱰᱮᱛ
ᱯᱷᱮᱰᱮᱨᱮᱥᱚᱱ
ᱯᱷᱮᱱ
ᱯᱷᱮᱴ
ᱯᱷᱮᱵᱟᱛ
ᱯᱷᱮᱵᱨᱩᱟᱨᱤ
ᱯᱷᱮᱵᱨᱩᱣᱟᱨᱤ
ᱯᱷᱮᱵᱨᱩᱭᱟᱨᱤ
ᱯᱷᱮᱵᱽᱣᱟᱨᱤ
ᱯᱷᱮᱵᱽᱨᱩᱣᱟᱨᱤ
ᱯᱷᱮᱵᱽᱨᱩᱭᱟᱨᱤ
ᱯᱷᱮᱹᱱᱤ
ᱯᱷᱳᱞᱠᱞᱳᱨ
ᱯᱷᱳᱞᱢ
ᱯᱷᱳᱨ
ᱯᱷᱳᱨᱡᱤ
ᱯᱷᱳᱨᱥ
ᱯᱷᱳᱨᱴ
ᱯᱷᱳᱱ
ᱯᱷᱳᱴᱮᱞ
ᱯᱷᱳᱴᱳ
ᱰ
ᱰᱚ
ᱰᱚᱜ
ᱰᱚᱜᱚᱨ
ᱰᱚᱜᱚᱨᱤᱭᱟᱹ
ᱰᱚᱜᱽ
ᱰᱚᱜᱽᱨᱟ
ᱰᱚᱜᱽᱨᱤ
ᱰᱚᱞᱟᱨ
ᱰᱚᱞᱤ
ᱰᱚᱞᱯᱷᱤᱱ
ᱰᱚᱠᱞᱟᱢ
ᱰᱚᱠᱩᱢᱮᱱᱴᱟᱨᱤ
ᱰᱚᱠᱭᱩᱢᱮᱱᱴᱟᱨᱤ
ᱰᱚᱠᱴᱚᱨ
ᱰᱚᱠᱴᱚᱨᱮᱴ
ᱰᱚᱢᱟᱨ
ᱰᱚᱢᱟᱱ
ᱰᱚᱢᱮᱥᱴᱤᱠ
ᱰᱚᱢᱵᱤᱵᱽᱞᱤ
ᱰᱚᱨᱮᱢᱚᱱ
ᱰᱚᱪ
ᱰᱚᱱ
ᱰᱚᱴ
ᱰᱚᱵᱚᱞ
ᱰᱚᱵᱤᱝ
ᱰᱚᱵᱷᱟᱞ
ᱰᱚᱹ
ᱰᱟ
ᱰᱟᱝ
ᱰᱟᱝᱜᱽᱨᱟ
ᱰᱟᱝᱜᱽᱨᱤ
ᱰᱟᱞᱤᱭᱟᱱ
ᱰᱟᱞᱴᱮᱱᱜᱚᱸᱡᱽ
ᱰᱟᱠ
ᱰᱟᱠᱚᱴᱟ
ᱰᱟᱠᱛᱚᱨ
ᱰᱟᱠᱛᱚᱨᱠᱷᱟᱱᱟ
ᱰᱟᱠᱛᱚᱨᱤ
ᱰᱟᱠᱛᱟᱨ
ᱰᱟᱠᱟᱛ
ᱰᱟᱠᱴᱚᱨ
ᱰᱟᱢ
ᱰᱟᱢᱚᱱ
ᱰᱟᱢᱟᱥᱠᱚᱥ
ᱰᱟᱢᱰᱟᱦᱮ
ᱰᱟᱣᱩᱱ
ᱰᱟᱦᱟᱨ
ᱰᱟᱦᱟᱨᱮ
ᱰᱟᱦᱟᱨᱰᱤ
ᱰᱟᱦᱤ
ᱰᱟᱨ
ᱰᱟᱨᱞᱤᱝ
ᱰᱟᱨᱠ
ᱰᱟᱨᱣᱤᱱ
ᱰᱟᱪ
ᱰᱟᱪᱽ
ᱰᱟᱭᱞᱚᱜᱽ
ᱰᱟᱭᱟᱠ
ᱰᱟᱭᱨᱮᱠᱴ
ᱰᱟᱭᱨᱮᱠᱴᱚᱨ
ᱰᱟᱭᱱᱮᱥᱚᱨ
ᱰᱟᱭᱳᱥᱮᱥ
ᱰᱟᱱᱤᱭᱮᱞ
ᱰᱟᱱᱥ
ᱰᱟᱱᱥᱚᱨ
ᱰᱟᱱᱰᱟ
ᱰᱟᱱᱴᱮ
ᱰᱟᱴᱟ
ᱰᱟᱵᱚᱞ
ᱰᱟᱵᱷᱟ
ᱰᱟᱸᱜᱽᱨᱟ
ᱰᱟᱸᱥ
ᱰᱟᱸᱰᱚᱢ
ᱰᱟᱸᱰᱟ
ᱰᱟᱸᱰᱵᱩᱥ
ᱰᱟᱹᱦᱤ
ᱰᱟᱹᱨ
ᱰᱟᱹᱰᱤ
ᱰᱟᱹᱱ
ᱰᱟᱺᱜᱩᱣᱟᱹᱯᱚᱥᱤ
ᱰᱟᱺᱜᱽᱨᱤ
ᱰᱤ
ᱰᱤᱜᱟᱱ
ᱰᱤᱜᱟᱹ
ᱰᱤᱜᱨᱤ
ᱰᱤᱜᱨᱤᱭ
ᱰᱤᱜᱮ
ᱰᱤᱜᱽᱨᱤ
ᱰᱤᱜᱽᱨᱤᱭ
ᱰᱤᱝᱰᱤᱜᱩᱞ
ᱰᱤᱞ
ᱰᱤᱞᱤ
ᱰᱤᱞᱤᱵᱨᱤ
ᱰᱤᱠᱥᱤᱱᱟᱨᱤ
ᱰᱤᱠᱥᱮᱱᱟᱨᱤ
ᱰᱤᱡᱟᱭᱤᱱ
ᱰᱤᱡᱟᱭᱱᱚᱨ
ᱰᱤᱡᱤᱴᱟᱞ
ᱰᱤᱡᱤᱴᱥ
ᱰᱤᱡᱮ
ᱰᱤᱢᱟ
ᱰᱤᱢᱟᱥᱟ
ᱰᱤᱢᱟᱯᱩᱨ
ᱰᱤᱣ
ᱰᱤᱥ
ᱰᱤᱥᱚᱢ
ᱰᱤᱥᱟᱞᱤᱱᱮᱥᱚᱱ
ᱰᱤᱥᱠ
ᱰᱤᱥᱤ
ᱰᱤᱥᱮᱢᱵᱚᱨ
ᱰᱤᱥᱱᱤ
ᱰᱤᱦᱤ
ᱰᱤᱨᱮᱠᱥᱚᱱ
ᱰᱤᱨᱮᱠᱴ
ᱰᱤᱨᱮᱠᱴᱚᱨ
ᱰᱤᱨᱮᱠᱴᱟᱨ
ᱰᱤᱯᱚ
ᱰᱤᱯᱞᱚᱢᱟ
ᱰᱤᱯᱞᱳᱢᱟ
ᱰᱤᱯᱟᱨᱴᱢᱮᱱᱴ
ᱰᱤᱯᱟᱹᱴ
ᱰᱤᱯᱩᱴᱤ
ᱰᱤᱯᱷᱟᱭᱤᱱ
ᱰᱤᱯᱷᱮᱱᱥ
ᱰᱤᱰᱤ
ᱰᱤᱰᱤᱦᱟᱴ
ᱰᱤᱱ
ᱰᱤᱵᱤᱡᱚᱱ
ᱰᱤᱵᱤᱡᱚᱱᱟᱞ
ᱰᱤᱵᱷᱟᱭᱤᱱ
ᱰᱤᱵᱷᱤᱡᱚᱱ
ᱰᱤᱵᱷᱤᱥᱟᱱ
ᱰᱤᱵᱽᱨᱩ
ᱰᱤᱵᱽᱨᱩᱜᱚᱲ
ᱰᱤᱸᱰᱚᱨᱤ
ᱰᱤᱹ
ᱰᱨ
ᱰᱨᱚᱯᱞᱮᱴ
ᱰᱨᱟᱜᱚᱱ
ᱰᱨᱟᱢᱟ
ᱰᱨᱟᱭᱤᱵᱽ
ᱰᱨᱟᱵᱷᱤᱰᱤᱭᱟᱱ
ᱰᱨᱤᱢ
ᱰᱨᱤᱢᱥ
ᱰᱨᱹ
ᱰᱩ
ᱰᱩᱝᱜᱚᱨᱯᱩᱨ
ᱰᱩᱝᱜᱽᱨᱤ
ᱰᱩᱝᱨᱤ
ᱰᱩᱞᱩᱝ
ᱰᱩᱠᱩᱨᱟ
ᱰᱩᱢᱨᱟ
ᱰᱩᱢᱨᱤ
ᱰᱩᱢᱨᱤᱭᱟᱹ
ᱰᱩᱢᱩᱨᱤᱭᱟ
ᱰᱩᱨᱮᱨ
ᱰᱩᱵᱟᱹ
ᱰᱩᱸᱜᱽᱨᱤ
ᱰᱮ
ᱰᱮᱜᱽᱨᱟ
ᱰᱮᱞ
ᱰᱮᱞᱤ
ᱰᱮᱞᱴᱟ
ᱰᱮᱠᱟ
ᱰᱮᱠᱠᱟᱱ
ᱰᱮᱢ
ᱰᱮᱢᱚᱜᱨᱟᱯᱷᱤᱠ
ᱰᱮᱢᱚᱜᱽᱨᱟᱯᱷᱤ
ᱰᱮᱢᱚᱜᱽᱨᱟᱯᱷᱤᱠ
ᱰᱮᱢᱚᱠᱨᱮᱴᱤᱠ
ᱰᱮᱢᱜᱽᱨᱟᱯᱷᱤᱠ
ᱰᱮᱣᱞᱚᱯ
ᱰᱮᱣᱞᱚᱯᱢᱮᱱᱴ
ᱰᱮᱣᱤᱰ
ᱰᱮᱥ
ᱰᱮᱥᱮᱢᱵᱚᱨ
ᱰᱮᱥᱴᱤᱱᱮᱥᱚᱱ
ᱰᱮᱦᱨᱟᱰᱩᱱ
ᱰᱮᱦᱮᱨ
ᱰᱮᱨᱟ
ᱰᱮᱭᱞᱤ
ᱰᱮᱭᱨᱤ
ᱰᱮᱯ
ᱰᱮᱯᱟᱨᱴᱢᱮᱱᱴ
ᱰᱮᱯᱩᱴᱤ
ᱰᱮᱯᱭᱩᱴᱤ
ᱰᱮᱱ
ᱰᱮᱱᱢᱟᱨᱠ
ᱰᱮᱱᱤᱥ
ᱰᱮᱱᱥ
ᱰᱮᱱᱥᱚᱨ
ᱰᱮᱱᱥᱤᱴᱤ
ᱰᱮᱱᱴᱟᱞ
ᱰᱮᱴᱟ
ᱰᱮᱴᱟᱵᱮᱡᱽ
ᱰᱮᱵᱞᱚᱯ
ᱰᱮᱵᱩᱴ
ᱰᱮᱵᱭᱩ
ᱰᱮᱵᱭᱩᱴ
ᱰᱮᱵᱷᱤᱰ
ᱰᱮᱵᱽᱭᱩ
ᱰᱳ
ᱰᱳᱜᱨᱤ
ᱰᱳᱜᱽᱨᱤ
ᱰᱳᱞᱟᱨ
ᱰᱳᱡᱽ
ᱰᱳᱢᱮᱱ
ᱰᱳᱨ
ᱰᱳᱰᱟ
ᱰᱳᱰᱳ
ᱰᱳᱴᱮᱞᱤ
ᱰᱷᱚᱝ
ᱰᱷᱚᱝᱜᱟ
ᱰᱷᱚᱞᱟᱱ
ᱰᱷᱚᱰᱟ
ᱰᱷᱚᱸᱜᱟ
ᱰᱷᱟ
ᱰᱷᱟᱝ
ᱰᱷᱟᱞ
ᱰᱷᱟᱠᱟ
ᱰᱷᱟᱠᱮᱥᱚᱨᱤ
ᱰᱷᱟᱰᱨᱟ
ᱰᱷᱟᱸᱪᱟ
ᱰᱷᱟᱹᱣ
ᱰᱷᱤᱝᱠᱤ
ᱰᱷᱤᱞᱣᱟᱹᱝ
ᱰᱷᱤᱨ
ᱰᱷᱤᱯ
ᱰᱷᱤᱯᱟᱹ
ᱰᱷᱮᱝᱠᱟ
ᱰᱷᱮᱝᱠᱟᱱᱟᱲ
ᱰᱷᱮᱞᱟᱠ
ᱰᱷᱮᱞᱠᱤ
ᱰᱷᱮᱣ
ᱰᱷᱮᱨ
ᱰᱷᱮᱨᱟ
ᱰᱷᱮᱶ
ᱰᱷᱳᱞ
ᱱ
ᱱᱚ
ᱱᱚᱛᱩᱱ
ᱱᱚᱛᱮ
ᱱᱚᱜ
ᱱᱚᱜᱚᱨ
ᱱᱚᱜᱚᱨᱯᱟᱞᱤᱠᱟ
ᱱᱚᱜᱟᱶ
ᱱᱚᱜᱼᱚᱭ
ᱱᱚᱜᱽᱢᱟ
ᱱᱚᱜᱽᱨᱤ
ᱱᱚᱝ
ᱱᱚᱝᱠᱟ
ᱱᱚᱝᱠᱟᱛᱮ
ᱱᱚᱝᱠᱟᱭ
ᱱᱚᱝᱠᱟᱱ
ᱱᱚᱝᱠᱟᱱᱟᱜ
ᱱᱚᱞᱦᱟᱴᱤ
ᱱᱚᱞᱵᱟᱲᱤ
ᱱᱚᱟ
ᱱᱚᱠᱞᱟᱠ
ᱱᱚᱠᱟ
ᱱᱚᱠᱥᱟ
ᱱᱚᱡᱚᱨ
ᱱᱚᱡᱨᱩᱞ
ᱱᱚᱡᱽᱨᱩᱞ
ᱱᱚᱢ
ᱱᱚᱢᱤᱱᱮᱥᱚᱱ
ᱱᱚᱢᱵᱚᱨ
ᱱᱚᱣ
ᱱᱚᱣᱟ
ᱱᱚᱣᱟᱜᱮ
ᱱᱚᱣᱟᱠᱚ
ᱱᱚᱣᱟᱠᱩ
ᱱᱚᱣᱟᱨᱮ
ᱱᱚᱣᱟᱭ
ᱱᱚᱣᱟᱵᱽ
ᱱᱚᱣᱥᱟᱨᱤ
ᱱᱚᱣᱭᱟ
ᱱᱚᱣᱮᱢᱵᱚᱨ
ᱱᱚᱥᱴᱚ
ᱱᱚᱦᱚᱨ
ᱱᱚᱨ
ᱱᱚᱨᱚᱢ
ᱱᱚᱨᱚᱥᱤᱝᱦᱚ
ᱱᱚᱨᱚᱥᱤᱢᱦᱟ
ᱱᱚᱨᱛᱷ
ᱱᱚᱨᱠᱷᱮᱲ
ᱱᱚᱨᱢᱚᱫᱟ
ᱱᱚᱨᱢᱟᱞ
ᱱᱚᱨᱢᱟᱫᱟ
ᱱᱚᱨᱣᱮ
ᱱᱚᱨᱣᱮᱡᱤᱭᱟᱱ
ᱱᱚᱨᱥᱤᱝ
ᱱᱚᱨᱥᱤᱝᱫᱤ
ᱱᱚᱨᱥᱤᱝᱯᱩᱨ
ᱱᱚᱨᱮᱱ
ᱱᱚᱨᱮᱱᱫᱨᱚ
ᱱᱚᱨᱮᱱᱫᱽᱨᱚ
ᱱᱚᱨᱵᱷ
ᱱᱚᱫᱤ
ᱱᱚᱫᱤᱭᱟ
ᱱᱚᱭᱟ
ᱱᱚᱭᱟᱜᱚᱰ
ᱱᱚᱭᱮᱰᱟ
ᱱᱚᱭᱱᱟ
ᱱᱚᱭᱱᱤᱛᱟᱞ
ᱱᱚᱮᱟ
ᱱᱚᱰ
ᱱᱚᱰᱤᱭᱟᱫᱽ
ᱱᱚᱰᱮ
ᱱᱚᱰᱮᱭ
ᱱᱚᱰᱮᱱ
ᱱᱚᱰᱮᱱᱟᱜ
ᱱᱚᱰᱰᱟ
ᱱᱚᱱ
ᱱᱚᱱᱚᱞ
ᱱᱚᱱᱟ
ᱱᱚᱱᱠᱟᱱ
ᱱᱚᱱᱫᱚ
ᱱᱚᱱᱫᱚᱞᱟᱞ
ᱱᱚᱱᱫᱟ
ᱱᱚᱱᱫᱤ
ᱱᱚᱱᱫᱤᱛᱟ
ᱱᱚᱱᱫᱤᱜᱨᱟᱢ
ᱱᱚᱱᱫᱤᱱᱤ
ᱱᱚᱱᱰᱮ
ᱱᱚᱱᱰᱮᱱ
ᱱᱚᱱᱰᱮᱱᱟᱜ
ᱱᱚᱲᱟᱭᱤᱞ
ᱱᱚᱳᱭᱟ
ᱱᱚᱴ
ᱱᱚᱴᱥ
ᱱᱚᱴᱵᱩᱠ
ᱱᱚᱵᱚ
ᱱᱚᱵᱚᱢᱤ
ᱱᱚᱵᱚᱨᱚᱝᱯᱩᱨ
ᱱᱚᱵᱟᱵᱽ
ᱱᱚᱵᱟᱵᱽᱜᱚᱸᱡᱽ
ᱱᱚᱵᱤ
ᱱᱚᱵᱤᱱ
ᱱᱚᱵᱮᱞ
ᱱᱚᱵᱮᱢᱵᱚᱨ
ᱱᱚᱵᱷᱮᱢᱵᱚᱨ
ᱱᱚᱶᱜᱟ
ᱱᱚᱶᱟ
ᱱᱚᱶᱟᱠᱚ
ᱱᱚᱶᱟᱨᱮ
ᱱᱚᱶᱟᱭ
ᱱᱚᱸᱠᱟ
ᱱᱚᱸᱠᱟᱱ
ᱱᱚᱸᱰᱮ
ᱱᱚᱸᱰᱮᱱ
ᱱᱚᱸᱰᱮᱱᱟᱜ
ᱱᱚᱸᱰᱮᱱᱠᱩ
ᱱᱛᱤ
ᱱᱟ
ᱱᱟᱛᱟᱞᱤᱭᱟ
ᱱᱟᱛᱟᱥᱟ
ᱱᱟᱛᱮ
ᱱᱟᱛᱷ
ᱱᱟᱜ
ᱱᱟᱜᱚᱨ
ᱱᱟᱜᱚᱨᱤᱠ
ᱱᱟᱜᱟ
ᱱᱟᱜᱟᱞᱟᱸᱰ
ᱱᱟᱜᱟᱞᱮᱱᱰ
ᱱᱟᱜᱟᱢ
ᱱᱟᱜᱟᱢᱟᱱ
ᱱᱟᱜᱟᱢᱟᱱᱟᱜ
ᱱᱟᱜᱟᱢᱤᱭᱟ
ᱱᱟᱜᱟᱢᱤᱭᱟᱹ
ᱱᱟᱜᱟᱢᱮᱛ
ᱱᱟᱜᱟᱨ
ᱱᱟᱜᱟᱨᱡᱩᱱ
ᱱᱟᱜᱟᱨᱤᱭᱟ
ᱱᱟᱜᱟᱨᱤᱭᱟᱹ
ᱱᱟᱜᱟᱨᱤᱭᱟᱹᱛᱮᱫ
ᱱᱟᱜᱟᱨᱯᱟᱞᱤᱠᱟ
ᱱᱟᱜᱟᱶ
ᱱᱟᱜᱮᱥᱥᱚᱨᱤ
ᱱᱟᱜᱯᱩᱨ
ᱱᱟᱜᱳᱣᱨ
ᱱᱟᱜᱳᱨᱱᱳ
ᱱᱟᱜᱽ
ᱱᱟᱜᱽᱨᱟᱦᱟ
ᱱᱟᱜᱽᱨᱤ
ᱱᱟᱜᱽᱨᱤᱠ
ᱱᱟᱜᱽᱫᱟ
ᱱᱟᱜᱽᱯᱩᱨ
ᱱᱟᱜᱽᱯᱩᱨᱤ
ᱱᱟᱝ
ᱱᱟᱝᱜᱨᱟᱦᱟ
ᱱᱟᱝᱜᱽᱨᱟᱦᱟ
ᱱᱟᱞ
ᱱᱟᱞᱚᱱᱫᱟ
ᱱᱟᱞᱜᱚᱱᱰᱟ
ᱱᱟᱞᱟ
ᱱᱟᱞᱟᱠᱚ
ᱱᱟᱞᱟᱱᱫᱟ
ᱱᱟᱞᱤ
ᱱᱟᱞᱦᱟ
ᱱᱟᱠᱚ
ᱱᱟᱠᱥᱟ
ᱱᱟᱠᱥᱟᱞ
ᱱᱟᱠᱷᱟ
ᱱᱟᱠᱷᱟᱨᱮ
ᱱᱟᱡᱤ
ᱱᱟᱡᱤᱨᱟ
ᱱᱟᱢ
ᱱᱟᱢᱚᱠ
ᱱᱟᱢᱚᱠᱠᱚᱞ
ᱱᱟᱢᱟᱠ
ᱱᱟᱢᱟᱡᱽ
ᱱᱟᱢᱠᱩᱢ
ᱱᱟᱢᱤᱵᱤᱭᱟ
ᱱᱟᱢᱮᱨᱤ
ᱱᱟᱢᱰᱟᱠ
ᱱᱟᱢᱵᱟᱨ
ᱱᱟᱣ
ᱱᱟᱣᱟ
ᱱᱟᱣᱟᱫᱟ
ᱱᱟᱣᱟᱰᱤᱦ
ᱱᱟᱥ
ᱱᱟᱥᱛᱟ
ᱱᱟᱥᱛᱤᱠ
ᱱᱟᱥᱟ
ᱱᱟᱥᱟᱣ
ᱱᱟᱥᱤᱠ
ᱱᱟᱥᱤᱨ
ᱱᱟᱥᱮ
ᱱᱟᱥᱮᱭᱟᱜ
ᱱᱟᱥᱮᱱᱟᱜ
ᱱᱟᱦᱟ
ᱱᱟᱦᱟᱜ
ᱱᱟᱦᱟᱪᱟᱨ
ᱱᱟᱦᱤᱸ
ᱱᱟᱦᱩᱨ
ᱱᱟᱦᱮᱞ
ᱱᱟᱨᱜᱤᱥ
ᱱᱟᱨᱟᱠ
ᱱᱟᱨᱟᱭᱚᱬ
ᱱᱟᱨᱟᱭᱚᱬᱤ
ᱱᱟᱨᱟᱭᱚᱱ
ᱱᱟᱨᱟᱭᱚᱱᱜᱚᱸᱡᱽ
ᱱᱟᱨᱟᱭᱚᱱᱯᱩᱨ
ᱱᱟᱨᱟᱭᱟᱬ
ᱱᱟᱨᱟᱭᱟᱱ
ᱱᱟᱨᱢᱟᱫᱟ
ᱱᱟᱨᱤ
ᱱᱟᱨᱥ
ᱱᱟᱨᱥᱤᱝ
ᱱᱟᱪ
ᱱᱟᱪᱚᱞ
ᱱᱟᱪᱚᱱᱤᱭᱟ
ᱱᱟᱪᱚᱱᱤᱭᱟᱹ
ᱱᱟᱪᱟᱨ
ᱱᱟᱫᱤᱭᱟ
ᱱᱟᱭ
ᱱᱟᱭᱚᱠ
ᱱᱟᱭᱚᱨ
ᱱᱟᱭᱟᱜᱨᱟᱢ
ᱱᱟᱭᱟᱠ
ᱱᱟᱭᱟᱨ
ᱱᱟᱭᱠᱟ
ᱱᱟᱭᱠᱮ
ᱱᱟᱭᱡᱟᱨ
ᱱᱟᱭᱡᱟᱨᱼᱠᱚᱝᱜᱳ
ᱱᱟᱭᱡᱮᱨᱤᱭᱟ
ᱱᱟᱭᱤᱠᱟ
ᱱᱟᱭᱤᱴ
ᱱᱟᱭᱤᱴᱥ
ᱱᱟᱭᱰᱩ
ᱱᱟᱭᱱᱟ
ᱱᱟᱯ
ᱱᱟᱯᱟᱢ
ᱱᱟᱯᱟᱭ
ᱱᱟᱯᱟᱭᱚᱜ
ᱱᱟᱯᱟᱭᱛᱮ
ᱱᱟᱯᱟᱭᱟ
ᱱᱟᱯᱤ
ᱱᱟᱯᱷᱟ
ᱱᱟᱰᱩ
ᱱᱟᱱ
ᱱᱟᱱᱚᱠ
ᱱᱟᱱᱟ
ᱱᱟᱱᱟᱠ
ᱱᱟᱱᱟᱦᱩᱱᱟᱹᱨ
ᱱᱟᱱᱟᱼᱦᱩᱱᱟᱹᱨ
ᱱᱟᱱᱠᱤ
ᱱᱟᱱᱤ
ᱱᱟᱱᱦᱟ
ᱱᱟᱱᱩᱨ
ᱱᱟᱱᱫᱩᱨᱵᱟᱨ
ᱱᱟᱱᱫᱮᱲ
ᱱᱟᱲᱠᱟ
ᱱᱟᱴᱚᱠ
ᱱᱟᱴᱚᱨ
ᱱᱟᱴᱟᱠ
ᱱᱟᱴᱭᱚ
ᱱᱟᱴᱭᱚᱢ
ᱱᱟᱴᱭᱟ
ᱱᱟᱴᱭᱟᱢ
ᱱᱟᱵᱷᱟᱡᱳ
ᱱᱟᱶ
ᱱᱟᱶᱟ
ᱱᱟᱶᱟᱥᱚᱦᱚᱨ
ᱱᱟᱶᱟᱱᱟᱜ
ᱱᱟᱸᱭ
ᱱᱟᱸᱲᱤ
ᱱᱟᱹᱜᱟᱹᱨᱤᱭᱟᱹ
ᱱᱟᱹᱠᱤᱡ
ᱱᱟᱹᱨᱠᱟᱹᱲ
ᱱᱟᱹᱨᱤ
ᱱᱟᱹᱬᱤ
ᱱᱟᱹᱭ
ᱱᱟᱹᱯᱤᱛ
ᱱᱟᱹᱲᱤ
ᱱᱟᱺᱬᱤ
ᱱᱟᱺᱭ
ᱱᱠᱚ
ᱱᱠᱳ
ᱱᱢᱤ
ᱱᱤ
ᱱᱤᱛ
ᱱᱤᱛᱚᱜ
ᱱᱤᱛᱚᱜᱟᱜ
ᱱᱤᱛᱚᱜᱤᱡ
ᱱᱤᱛᱚᱜᱼᱟ
ᱱᱤᱛᱚᱝ
ᱱᱤᱛᱚᱱᱟᱝ
ᱱᱤᱛᱟ
ᱱᱤᱛᱟᱜ
ᱱᱤᱛᱟᱝ
ᱱᱤᱛᱟᱭᱤ
ᱱᱤᱛᱤ
ᱱᱤᱛᱤᱢᱟᱞᱟ
ᱱᱤᱛᱤᱥ
ᱱᱤᱛᱭᱟᱱᱚᱱᱫᱚ
ᱱᱤᱜᱚᱢ
ᱱᱤᱜᱟᱢ
ᱱᱤᱞ
ᱱᱤᱞᱚᱢ
ᱱᱤᱞᱜᱤᱨᱤ
ᱱᱤᱞᱟᱢ
ᱱᱤᱞᱟᱢᱵᱚᱨ
ᱱᱤᱞᱤᱢᱟ
ᱱᱤᱞᱮ
ᱱᱤᱞᱯᱷᱟᱢᱟᱨᱤ
ᱱᱤᱞᱳᱼᱥᱟᱦᱟᱨᱟᱱ
ᱱᱤᱠᱚᱞᱟᱥ
ᱱᱤᱠᱚᱥᱤᱭᱟ
ᱱᱤᱠᱚᱵᱚᱨ
ᱱᱤᱠᱚᱵᱟᱨ
ᱱᱤᱠᱟᱨᱟᱜᱩᱣᱟ
ᱱᱤᱠᱮᱛᱚᱱ
ᱱᱤᱠᱳᱵᱟᱨ
ᱱᱤᱠᱳᱵᱟᱨᱤ
ᱱᱤᱠᱷᱤᱞ
ᱱᱤᱡ
ᱱᱤᱡᱚᱨ
ᱱᱤᱡᱚᱨᱟᱜ
ᱱᱤᱡᱟᱢ
ᱱᱤᱡᱟᱢᱟᱵᱟᱫᱽ
ᱱᱤᱡᱟᱹ
ᱱᱤᱡᱟᱹᱨᱟᱜ
ᱱᱤᱡᱤ
ᱱᱤᱡᱩᱛ
ᱱᱤᱡᱮ
ᱱᱤᱡᱮᱨ
ᱱᱤᱡᱮᱨᱟᱜ
ᱱᱤᱡᱽ
ᱱᱤᱢ
ᱱᱤᱢᱚᱪ
ᱱᱤᱢᱟᱲ
ᱱᱤᱢᱟᱲᱤ
ᱱᱤᱢᱰᱤᱦ
ᱱᱤᱣ
ᱱᱤᱣᱟ
ᱱᱤᱣᱟᱲᱤ
ᱱᱤᱣᱡᱤᱞᱟᱸᱰ
ᱱᱤᱣᱡᱤᱞᱮᱱᱰ
ᱱᱤᱣᱭᱚᱨᱠ
ᱱᱤᱣᱴᱚᱱ
ᱱᱤᱣᱴᱨᱮᱥᱚᱱ
ᱱᱤᱥᱟ
ᱱᱤᱥᱠᱨᱤᱭᱚ
ᱱᱤᱥᱪᱤᱛ
ᱱᱤᱥᱪᱤᱛᱚ
ᱱᱤᱦᱟᱨᱤᱠᱟ
ᱱᱤᱦᱟᱹᱛ
ᱱᱤᱦᱟᱹᱛᱤ
ᱱᱤᱧ
ᱱᱤᱨ
ᱱᱤᱨᱚᱱ
ᱱᱤᱨᱚᱲ
ᱱᱤᱨᱟ
ᱱᱤᱨᱟᱹᱭ
ᱱᱤᱨᱢᱚᱞ
ᱱᱤᱨᱢᱚᱞᱟ
ᱱᱤᱨᱢᱟᱛᱟ
ᱱᱤᱨᱢᱟᱞ
ᱱᱤᱨᱩᱯᱚᱢᱟ
ᱱᱤᱨᱫᱮᱥ
ᱱᱤᱨᱫᱮᱥᱟᱠ
ᱱᱤᱨᱫᱮᱥᱟᱵᱚᱞᱤ
ᱱᱤᱨᱳ
ᱱᱤᱨᱵᱟᱦᱤ
ᱱᱤᱨᱵᱟᱪᱚᱱ
ᱱᱤᱨᱵᱟᱪᱚᱱᱤ
ᱱᱤᱨᱵᱟᱪᱤᱛᱚ
ᱱᱤᱨᱵᱷᱚᱨ
ᱱᱤᱪᱚᱞ
ᱱᱤᱫᱮᱥᱚᱠ
ᱱᱤᱭ
ᱱᱤᱭᱚᱢ
ᱱᱤᱭᱚᱱᱛᱚᱨᱚᱠ
ᱱᱤᱭᱟ
ᱱᱤᱭᱟᱢ
ᱱᱤᱭᱟᱢᱚᱛᱯᱩᱨ
ᱱᱤᱭᱟᱸ
ᱱᱤᱭᱟᱹ
ᱱᱤᱭᱟᱹᱛᱮ
ᱱᱤᱭᱟᱹᱢ
ᱱᱤᱭᱩ
ᱱᱤᱭᱩᱡᱤᱞᱮᱱᱰ
ᱱᱤᱭᱩᱴᱚᱱ
ᱱᱤᱭᱮ
ᱱᱤᱱᱟ
ᱱᱤᱲᱚᱜᱤᱨᱤ
ᱱᱤᱴ
ᱱᱤᱵᱮᱫᱤᱛᱟ
ᱱᱤᱵᱷᱟᱣ
ᱱᱨᱤᱛᱭᱚ
ᱱᱨᱤᱛᱭᱟ
ᱱᱨᱩᱥᱤᱝᱦᱚᱱᱟᱛᱷ
ᱱᱩ
ᱱᱩᱜ
ᱱᱩᱠᱚ
ᱱᱩᱠᱤᱱ
ᱱᱩᱠᱤᱱᱟᱜ
ᱱᱩᱠᱩ
ᱱᱩᱠᱩᱣᱟᱜ
ᱱᱩᱣᱟ
ᱱᱩᱣᱟᱥ
ᱱᱩᱣᱟᱯᱚᱰᱟ
ᱱᱩᱥᱨᱚᱛ
ᱱᱩᱥᱨᱟᱛ
ᱱᱩᱨᱯᱩᱨ
ᱱᱩᱭ
ᱱᱩᱭᱟ
ᱱᱩᱭᱟᱜ
ᱱᱩᱭᱤᱡ
ᱱᱩᱭᱫᱚ
ᱱᱩᱱ
ᱱᱩᱱᱟᱹᱜ
ᱱᱩᱲᱤᱭᱟ
ᱱᱩᱲᱭᱟ
ᱱᱩᱶᱟ
ᱱᱫᱷᱤ
ᱱᱭᱩ
ᱱᱭᱩᱡᱽ
ᱱᱭᱩᱭᱚᱨᱠ
ᱱᱮ
ᱱᱮᱛᱚᱜ
ᱱᱮᱛᱟ
ᱱᱮᱛᱟᱡᱤ
ᱱᱮᱛᱟᱨ
ᱱᱮᱛᱟᱨᱟᱜ
ᱱᱮᱛᱟᱨᱦᱟᱴ
ᱱᱮᱛᱟᱭ
ᱱᱮᱛᱨᱚᱠᱚᱱᱟ
ᱱᱮᱜᱤ
ᱱᱮᱞ
ᱱᱮᱞᱥᱚᱱ
ᱱᱮᱞᱳᱨ
ᱱᱮᱠᱚᱯᱟ
ᱱᱮᱠᱥᱚᱥ
ᱱᱮᱢᱚᱥ
ᱱᱮᱣᱛᱟ
ᱱᱮᱣᱛᱟᱭ
ᱱᱮᱣᱟᱨ
ᱱᱮᱣᱟᱫᱟ
ᱱᱮᱥᱚᱱ
ᱱᱮᱥᱚᱱᱟᱞ
ᱱᱮᱥᱟᱱᱟᱞ
ᱱᱮᱥᱱᱚᱞ
ᱱᱮᱥᱱᱟᱞ
ᱱᱮᱦᱚᱨ
ᱱᱮᱦᱚᱸᱨ
ᱱᱮᱦᱟ
ᱱᱮᱦᱣᱟᱞ
ᱱᱮᱦᱨᱩ
ᱱᱮᱦᱨᱩᱣᱟᱜ
ᱱᱮᱦᱮᱨᱩ
ᱱᱮᱨᱚ
ᱱᱮᱪᱩᱨᱟᱞ
ᱱᱮᱫᱚᱨᱞᱟᱸᱰ
ᱱᱮᱫᱟᱨᱞᱮᱱᱰᱥ
ᱱᱮᱭ
ᱱᱮᱭᱟᱣ
ᱱᱮᱭᱱᱤ
ᱱᱮᱭᱱᱤᱛᱟᱞ
ᱱᱮᱯᱟᱞ
ᱱᱮᱯᱟᱞᱤ
ᱱᱮᱯᱟᱲ
ᱱᱮᱯᱟᱲᱤ
ᱱᱮᱯᱤᱭᱫᱟᱣ
ᱱᱮᱯᱳᱞᱤᱭᱚᱱ
ᱱᱮᱰᱟ
ᱱᱮᱴ
ᱱᱮᱴᱣᱚᱨᱠ
ᱱᱮᱴᱣᱟᱨᱠ
ᱱᱮᱴᱯᱷᱞᱤᱠᱥ
ᱱᱮᱴᱳ
ᱱᱮᱵᱮᱛᱟᱨ
ᱱᱮᱵᱷᱤ
ᱱᱮᱵᱽᱨᱟᱥᱠᱟ
ᱱᱮᱶᱛᱟ
ᱱᱮᱸᱰᱟ
ᱱᱮᱼᱦᱚᱲᱟᱜ
ᱱᱮᱼᱦᱟᱹᱞᱤ
ᱱᱰᱤ
ᱱᱳ
ᱱᱳᱣᱟ
ᱱᱳᱣᱟᱠᱷᱟᱞᱤ
ᱱᱳᱭᱟ
ᱱᱳᱴ
ᱱᱳᱴᱥ
ᱱᱳᱵᱮᱞ
ᱱᱳᱵᱷᱮᱞ
ᱱᱷᱟᱛᱮ
ᱱᱷᱟᱣᱟ
ᱱᱷᱟᱦᱟᱪᱟᱨ
ᱱᱷᱟᱰᱮ
ᱲ
ᱲᱚᱜ
ᱲᱛᱤ
ᱲᱟ
ᱲᱤ
ᱲᱤᱡ
ᱲᱤᱭᱟ
ᱲᱦᱟ
ᱲᱩ
ᱳ
ᱳᱞ
ᱳᱞᱤ
ᱳᱞᱤᱣᱩᱰ
ᱳᱠᱮ
ᱳᱢ
ᱳᱢᱟᱱ
ᱳᱢᱥᱠ
ᱳᱢᱪᱮᱨᱤ
ᱳᱢᱮᱱ
ᱳᱢᱮᱱᱥ
ᱳᱣᱟᱨᱰ
ᱳᱣᱟᱱ
ᱳᱥᱟᱠᱟ
ᱳᱥᱟᱢᱟ
ᱳᱨ
ᱳᱨᱳᱢᱳ
ᱳᱫᱤᱥᱟ
ᱳᱭᱟ
ᱳᱭᱟᱨᱰ
ᱳᱭᱮᱞᱥ
ᱳᱭᱮᱥᱴᱤᱱᱰᱤᱡᱽ
ᱳᱭᱮᱵᱽᱥᱟᱭᱤᱴ
ᱳᱯᱨᱳᱢ
ᱳᱯᱮᱠ
ᱳᱯᱮᱨᱟ
ᱳᱯᱮᱱ
ᱳᱯᱷ
ᱳᱯᱷᱤᱥ
ᱳᱰᱤᱥᱟ
ᱳᱰᱤᱥᱤ
ᱳᱰᱤᱭᱟ
ᱳᱰᱤᱭᱟᱹ
ᱳᱰᱳᱠ
ᱳᱱ
ᱳᱴᱚ
ᱳᱴᱳᱢᱟᱱ
ᱴ
ᱴᱚᱝᱠ
ᱴᱚᱝᱨᱟ
ᱴᱚᱞ
ᱴᱚᱞᱟ
ᱴᱚᱞᱟᱨᱮ
ᱴᱚᱞᱥᱴᱚᱭ
ᱴᱚᱞᱮᱢᱤ
ᱴᱚᱠᱤᱭᱳ
ᱴᱚᱠᱭᱚ
ᱴᱚᱢ
ᱴᱚᱢᱟᱥ
ᱴᱚᱨᱢᱤᱱᱟᱞ
ᱴᱚᱬᱮ
ᱴᱚᱭᱞᱮᱴ
ᱴᱚᱯ
ᱴᱚᱯᱚᱜᱨᱟᱯᱷᱤ
ᱴᱚᱯᱟ
ᱴᱚᱯᱟᱨ
ᱴᱚᱱ
ᱴᱚᱱᱟ
ᱴᱚᱱᱰᱚᱱ
ᱴᱚᱴᱷᱟ
ᱴᱚᱴᱷᱟᱠᱤᱭᱟ
ᱴᱚᱴᱷᱟᱠᱤᱭᱟᱹ
ᱴᱚᱴᱷᱟᱣᱟᱨᱤ
ᱴᱚᱴᱷᱟᱨᱤ
ᱴᱚᱴᱷᱟᱨᱮ
ᱴᱚᱴᱷᱟᱭ
ᱴᱚᱴᱷᱟᱹᱨᱤ
ᱴᱟ
ᱴᱟᱜ
ᱴᱟᱜᱳᱨ
ᱴᱟᱝ
ᱴᱟᱝᱜᱟᱭᱤᱞ
ᱴᱟᱠᱟ
ᱴᱟᱠᱟᱭ
ᱴᱟᱢᱟᱠ
ᱴᱟᱣᱟᱝ
ᱴᱟᱣᱟᱨ
ᱴᱟᱣᱩᱱ
ᱴᱟᱣᱩᱱᱥᱤᱯ
ᱴᱟᱣᱱ
ᱴᱟᱦᱮᱸ
ᱴᱟᱦᱮᱸᱫ
ᱴᱟᱨᱢᱤᱱᱚᱥ
ᱴᱟᱨᱢᱤᱱᱟᱞ
ᱴᱟᱨᱢᱤᱱᱟᱥ
ᱴᱟᱨᱦᱟᱣ
ᱴᱟᱩᱱ
ᱴᱟᱬᱟᱝ
ᱴᱟᱭ
ᱴᱟᱭᱚᱢ
ᱴᱟᱭᱜᱚᱨ
ᱴᱟᱭᱜᱟᱨ
ᱴᱟᱭᱤᱢ
ᱴᱟᱭᱤᱢᱥ
ᱴᱟᱭᱩᱱᱥᱤᱯ
ᱴᱟᱭᱴᱚᱞ
ᱴᱟᱭᱴᱮᱞ
ᱴᱟᱯᱩ
ᱴᱟᱱ
ᱴᱟᱲᱟᱝ
ᱴᱟᱴᱟ
ᱴᱟᱴᱟᱱᱚᱜᱚᱨ
ᱴᱟᱴᱠᱟ
ᱴᱟᱴᱷᱟ
ᱴᱟᱶ
ᱴᱟᱸᱜᱟ
ᱴᱟᱸᱜᱟᱥᱴᱟᱱ
ᱴᱟᱸᱰᱤ
ᱴᱟᱸᱶ
ᱴᱟᱹᱯᱩ
ᱴᱟᱹᱰᱤ
ᱴᱟᱹᱱᱰᱤ
ᱴᱟᱺᱰᱤ
ᱴᱣᱤᱴ
ᱴᱣᱤᱴᱚᱨ
ᱴᱤ
ᱴᱤᱝ
ᱴᱤᱠᱟ
ᱴᱤᱠᱟᱢᱜᱚᱲ
ᱴᱤᱠᱟᱹ
ᱴᱤᱠᱟᱹᱴ
ᱴᱤᱠᱤᱴ
ᱴᱤᱠᱮᱴ
ᱴᱤᱡ
ᱴᱤᱢ
ᱴᱤᱣᱤ
ᱴᱤᱥᱩ
ᱴᱤᱦᱨᱤ
ᱴᱤᱧ
ᱴᱤᱨ
ᱴᱤᱨᱟᱹ
ᱴᱤᱫ
ᱴᱤᱬᱤᱡ
ᱴᱤᱭᱟ
ᱴᱤᱭᱩᱵᱽ
ᱴᱤᱯᱤᱡ
ᱴᱤᱯᱷᱤᱱ
ᱴᱤᱰᱟᱹᱜ
ᱴᱤᱱ
ᱴᱤᱱᱟ
ᱴᱤᱲᱤᱡ
ᱴᱤᱴᱤᱞᱟᱜᱚᱰ
ᱴᱤᱴᱩ
ᱴᱤᱵᱤ
ᱴᱤᱵᱷᱤ
ᱴᱨᱚᱥᱴ
ᱴᱨᱚᱯᱤᱠᱟᱞ
ᱴᱨᱚᱯᱷᱤ
ᱴᱨᱟᱝᱠ
ᱴᱨᱟᱠ
ᱴᱨᱟᱡᱮᱰᱤ
ᱴᱨᱟᱥᱴ
ᱴᱨᱟᱭ
ᱴᱨᱟᱭᱵᱽ
ᱴᱨᱟᱯᱷᱤᱠ
ᱴᱨᱟᱱᱥᱯᱚᱨᱴ
ᱴᱨᱟᱸᱠ
ᱴᱨᱤ
ᱴᱨᱤᱢᱟᱨ
ᱴᱨᱩᱯ
ᱴᱨᱮᱞ
ᱴᱨᱮᱠ
ᱴᱨᱮᱥᱚᱱ
ᱴᱨᱮᱰ
ᱴᱨᱮᱱ
ᱴᱨᱮᱱᱤᱝ
ᱴᱩ
ᱴᱩᱞ
ᱴᱩᱞᱥ
ᱴᱩᱠᱩᱡ
ᱴᱩᱢᱟᱹᱞ
ᱴᱩᱣᱟᱹᱨ
ᱴᱩᱣᱮᱱᱥᱟᱝ
ᱴᱩᱥᱩ
ᱴᱩᱨ
ᱴᱩᱨᱤᱡᱚᱢ
ᱴᱩᱨᱤᱡᱤᱢ
ᱴᱩᱨᱤᱥᱴ
ᱴᱩᱨᱱᱟᱢᱮᱱᱴ
ᱴᱩᱨᱱᱟᱢᱮᱸᱴ
ᱴᱩᱭ
ᱴᱩᱭᱮᱱᱴᱤ
ᱴᱩᱯᱨᱤ
ᱴᱩᱰᱟ
ᱴᱩᱰᱟᱹᱜ
ᱴᱩᱰᱩ
ᱴᱩᱰᱮ
ᱴᱩᱱᱡᱤ
ᱴᱩᱴᱤ
ᱴᱩᱴᱩᱨᱤ
ᱴᱩᱸᱰᱟᱹᱜ
ᱴᱭᱟ
ᱴᱭᱩᱢᱟᱨ
ᱴᱭᱩᱨᱤᱝ
ᱴᱭᱩᱴᱳᱨᱤᱭᱟᱞ
ᱴᱮ
ᱴᱮᱜᱳᱨ
ᱴᱮᱞ
ᱴᱮᱞᱤ
ᱴᱮᱞᱤᱜᱨᱟᱯᱷ
ᱴᱮᱞᱤᱣᱤᱡᱟᱱ
ᱴᱮᱞᱤᱯᱷᱚᱱ
ᱴᱮᱞᱤᱯᱷᱤᱞᱢ
ᱴᱮᱞᱤᱯᱷᱳᱱ
ᱴᱮᱞᱤᱵᱤᱡᱚᱱ
ᱴᱮᱞᱤᱵᱤᱡᱟᱱ
ᱴᱮᱞᱤᱵᱷᱤᱡᱚᱱ
ᱴᱮᱞᱤᱵᱷᱤᱥᱚᱱ
ᱴᱮᱠ
ᱴᱮᱠᱟᱣ
ᱴᱮᱠᱥ
ᱴᱮᱠᱥᱟᱥ
ᱴᱮᱠᱥᱤ
ᱴᱮᱠᱥᱴᱟᱭᱤᱞ
ᱴᱮᱠᱱᱚᱞᱚᱡᱤ
ᱴᱮᱠᱱᱚᱞᱳᱡᱤ
ᱴᱮᱠᱱᱤᱠ
ᱴᱮᱠᱱᱤᱠᱟᱞ
ᱴᱮᱠᱱᱤᱠᱮᱞ
ᱴᱮᱠᱱᱳᱞᱳᱡᱤ
ᱴᱮᱥᱚᱱ
ᱴᱮᱥᱞᱟ
ᱴᱮᱥᱴ
ᱴᱮᱦᱟᱱᱰ
ᱴᱮᱦᱟᱸᱰ
ᱴᱮᱨᱤᱴᱚᱨᱤᱭᱟᱞ
ᱴᱮᱨᱮᱥᱟ
ᱴᱮᱨᱮᱱᱥ
ᱴᱮᱪᱱᱚᱞᱚᱡᱤ
ᱴᱮᱫ
ᱴᱮᱭᱞᱟᱨ
ᱴᱮᱱ
ᱴᱮᱱᱟᱜ
ᱴᱮᱱᱤᱥ
ᱴᱮᱵᱩᱞ
ᱴᱮᱸᱜᱚᱡ
ᱴᱮᱸᱠ
ᱴᱳ
ᱴᱳᱜᱳ
ᱴᱳᱠ
ᱴᱳᱠᱤᱭᱳ
ᱴᱳᱭᱮᱱᱴᱤ
ᱴᱷᱚᱛᱟ
ᱴᱷᱚᱱᱴᱟ
ᱴᱷᱚᱴᱷᱟ
ᱴᱷᱚᱸᱜᱟ
ᱴᱷᱟ
ᱴᱷᱟᱠᱨᱮ
ᱴᱷᱟᱠᱩᱨ
ᱴᱷᱟᱠᱩᱨᱜᱟᱶ
ᱴᱷᱟᱠᱮᱫ
ᱴᱷᱟᱣ
ᱴᱷᱟᱯᱚᱱ
ᱴᱷᱟᱱᱮ
ᱴᱷᱟᱶ
ᱴᱷᱟᱶᱨᱮ
ᱴᱷᱟᱶᱮ
ᱴᱷᱟᱸᱣ
ᱴᱷᱟᱹᱠᱩᱨ
ᱴᱷᱟᱹᱣᱠᱟ
ᱴᱷᱟᱹᱣᱠᱟᱹ
ᱴᱷᱟᱹᱣᱠᱟᱹᱜᱼᱟ
ᱴᱷᱟᱹᱣᱠᱟᱹᱱ
ᱴᱷᱟᱹᱭ
ᱴᱷᱟᱹᱶ
ᱴᱷᱟᱹᱶᱠᱟᱹ
ᱴᱷᱟᱺᱭ
ᱴᱷᱣᱟ
ᱴᱷᱤᱞᱤ
ᱴᱷᱤᱠ
ᱴᱷᱤᱠᱟ
ᱴᱷᱤᱠᱟᱹ
ᱴᱷᱩ
ᱴᱷᱩᱢᱨᱤ
ᱴᱷᱩᱣᱟ
ᱴᱷᱮᱞᱟᱣ
ᱴᱷᱮᱡ
ᱴᱷᱮᱨ
ᱴᱷᱮᱫ
ᱴᱷᱮᱱ
ᱴᱷᱮᱱᱠᱷᱚᱱ
ᱴᱷᱮᱱᱮ
ᱵ
ᱵᱚ
ᱵᱚᱛᱚᱞ
ᱵᱚᱛᱚᱨ
ᱵᱚᱛᱚᱨᱚᱜ
ᱵᱚᱛᱚᱨᱟᱱ
ᱵᱚᱜᱟ
ᱵᱚᱜᱤᱪᱟ
ᱵᱚᱜᱩᱲᱟ
ᱵᱚᱝ
ᱵᱚᱝᱜᱚ
ᱵᱚᱝᱜᱚᱯ
ᱵᱚᱝᱜᱚᱯᱚ
ᱵᱚᱝᱜᱚᱵᱚᱱᱫᱷᱩ
ᱵᱚᱝᱜᱟ
ᱵᱚᱝᱜᱟᱜ
ᱵᱚᱝᱜᱟᱞ
ᱵᱚᱝᱜᱟᱭ
ᱵᱚᱝᱜᱟᱭᱟ
ᱵᱚᱝᱥᱚ
ᱵᱚᱝᱥᱤ
ᱵᱚᱞ
ᱵᱚᱞᱚ
ᱵᱚᱞᱚᱜ
ᱵᱚᱞᱚᱠ
ᱵᱚᱞᱚᱨᱟᱢᱯᱩᱨ
ᱵᱚᱞᱚᱭᱮᱱ
ᱵᱚᱞᱚᱭᱮᱱᱟ
ᱵᱚᱞᱚᱱ
ᱵᱚᱞᱚᱱᱟ
ᱵᱚᱞᱞᱚᱵᱷ
ᱵᱚᱞᱞᱚᱵᱷᱚ
ᱵᱚᱞᱟᱝᱜᱤᱨ
ᱵᱚᱞᱠᱟᱱ
ᱵᱚᱞᱤ
ᱵᱚᱞᱤᱣᱩᱰ
ᱵᱚᱞᱤᱩᱰ
ᱵᱚᱞᱤᱵᱩᱰ
ᱵᱚᱞᱤᱵᱷᱤᱭᱟ
ᱵᱚᱞᱨᱟᱢᱯᱩᱨ
ᱵᱚᱞᱮ
ᱵᱚᱞᱰ
ᱵᱚᱞᱳᱪ
ᱵᱚᱞᱳᱪᱤᱥᱛᱟᱱ
ᱵᱚᱠᱚ
ᱵᱚᱠᱚᱛ
ᱵᱚᱠᱚᱧ
ᱵᱚᱠᱟᱨᱚ
ᱵᱚᱠᱥ
ᱵᱚᱠᱥᱚᱨ
ᱵᱚᱠᱥᱟᱨ
ᱵᱚᱠᱥᱤᱝ
ᱵᱚᱠᱨᱮᱥᱚᱨ
ᱵᱚᱠᱷᱛᱤᱭᱟᱨᱯᱩᱨ
ᱵᱚᱡᱟᱨ
ᱵᱚᱢ
ᱵᱚᱢᱰᱤᱞᱟ
ᱵᱚᱢᱵᱮ
ᱵᱚᱢᱵᱮᱭ
ᱵᱚᱣᱫᱷ
ᱵᱚᱣᱫᱷᱚ
ᱵᱚᱥ
ᱵᱚᱥᱚᱭ
ᱵᱚᱥᱚᱱᱛᱚ
ᱵᱚᱥᱚᱱᱛᱤ
ᱵᱚᱥᱛᱟ
ᱵᱚᱥᱛᱤ
ᱵᱚᱥᱠᱚᱫ
ᱵᱚᱥᱠᱚᱫᱚᱜ
ᱵᱚᱥᱠᱚᱫᱤᱭᱟᱹ
ᱵᱚᱥᱩ
ᱵᱚᱥᱩᱱᱫᱷᱚᱨᱟ
ᱵᱚᱥᱱᱤᱭᱟ
ᱵᱚᱥᱴᱚᱱ
ᱵᱚᱦᱚᱜ
ᱵᱚᱦᱚᱜᱧᱩᱢ
ᱵᱚᱦᱚᱨ
ᱵᱚᱦᱚᱨᱚᱢᱯᱩᱨ
ᱵᱚᱦᱚᱲᱫᱟ
ᱵᱚᱦᱟᱞ
ᱵᱚᱦᱢᱚᱱᱤ
ᱵᱚᱦᱤ
ᱵᱚᱦᱨᱟᱭᱤᱪ
ᱵᱚᱦᱩ
ᱵᱚᱦᱩᱜᱩᱱᱟ
ᱵᱚᱦᱮᱞ
ᱵᱚᱨ
ᱵᱚᱨᱚ
ᱵᱚᱨᱚᱜᱚᱰ
ᱵᱚᱨᱚᱝ
ᱵᱚᱨᱚᱢ
ᱵᱚᱨᱚᱯ
ᱵᱚᱨᱚᱯᱷ
ᱵᱚᱨᱚᱱ
ᱵᱚᱨᱜᱚ
ᱵᱚᱨᱜᱟᱢ
ᱵᱚᱨᱜᱩᱱᱟ
ᱵᱚᱨᱞᱤᱱ
ᱵᱚᱨᱟ
ᱵᱚᱨᱟᱛ
ᱵᱚᱨᱟᱠ
ᱵᱚᱨᱢᱚᱱ
ᱵᱚᱨᱢᱟ
ᱵᱚᱨᱢᱤ
ᱵᱚᱨᱢᱤᱥ
ᱵᱚᱨᱤᱥᱟᱞ
ᱵᱚᱨᱥᱚ
ᱵᱚᱨᱥᱟ
ᱵᱚᱨᱦᱚᱢᱯᱩᱨ
ᱵᱚᱨᱦᱟᱢᱯᱩᱨ
ᱵᱚᱨᱦᱤ
ᱵᱚᱨᱩᱣᱟ
ᱵᱚᱨᱩᱬ
ᱵᱚᱨᱫᱚᱞᱚᱭ
ᱵᱚᱨᱫᱷᱚᱢᱟᱱ
ᱵᱚᱨᱯᱮᱴᱟ
ᱵᱚᱨᱰ
ᱵᱚᱨᱱ
ᱵᱚᱨᱱᱚᱨᱥ
ᱵᱚᱨᱱᱟᱞᱟ
ᱵᱚᱨᱴᱷᱟᱠᱩᱨ
ᱵᱚᱨᱵᱚᱨᱟ
ᱵᱚᱪᱚᱱ
ᱵᱚᱪᱪᱚᱱ
ᱵᱚᱪᱷᱚᱨ
ᱵᱚᱫᱚᱞ
ᱵᱚᱫᱚᱞᱚᱜ
ᱵᱚᱫᱚᱞᱚᱜᱼᱟ
ᱵᱚᱫᱚᱞᱜᱟᱪᱷᱤ
ᱵᱚᱫᱚᱞᱟ
ᱵᱚᱫᱚᱨᱜᱚᱸᱡᱽ
ᱵᱚᱫᱟ
ᱵᱚᱫᱟᱭᱩᱝ
ᱵᱚᱫᱫᱷᱚ
ᱵᱚᱫᱽᱨᱟ
ᱵᱚᱫᱽᱨᱤᱱᱟᱛᱷ
ᱵᱚᱫᱽᱱᱟᱢ
ᱵᱚᱭ
ᱵᱚᱭᱚᱥ
ᱵᱚᱭᱤᱥᱟᱞᱤ
ᱵᱚᱭᱥᱟᱞᱤ
ᱵᱚᱭᱥᱟᱲᱤ
ᱵᱚᱭᱥᱤᱠ
ᱵᱚᱭᱥᱱᱚᱵᱚ
ᱵᱚᱭᱥᱱᱚᱵᱽ
ᱵᱚᱭᱦᱟ
ᱵᱚᱭᱦᱟᱭ
ᱵᱚᱭᱫᱤᱠ
ᱵᱚᱰ
ᱵᱚᱰᱚ
ᱵᱚᱰᱚᱞ
ᱵᱚᱰᱚᱞᱮᱱᱰ
ᱵᱚᱰᱚᱥᱟᱦᱤ
ᱵᱚᱰᱟ
ᱵᱚᱰᱟᱢ
ᱵᱚᱰᱟᱢᱛᱟ
ᱵᱚᱰᱟᱨ
ᱵᱚᱰᱡᱷᱚᱨᱚᱱ
ᱵᱚᱰᱤ
ᱵᱚᱰᱤᱝ
ᱵᱚᱰᱮ
ᱵᱚᱰᱱᱚᱜᱚᱨ
ᱵᱚᱰᱱᱮᱨᱟ
ᱵᱚᱰᱳᱫᱚᱨᱟ
ᱵᱚᱱ
ᱵᱚᱱᱚᱛ
ᱵᱚᱱᱚᱥᱯᱚᱛᱤ
ᱵᱚᱱᱚᱫᱚᱞ
ᱵᱚᱱᱟ
ᱵᱚᱱᱟᱨᱚᱥ
ᱵᱚᱱᱟᱨᱡᱤ
ᱵᱚᱱᱠᱟᱴᱤ
ᱵᱚᱱᱫᱚ
ᱵᱚᱱᱫᱚᱨ
ᱵᱚᱱᱫᱚᱱᱟ
ᱵᱚᱱᱫᱷᱩ
ᱵᱚᱱᱫᱽ
ᱵᱚᱲ
ᱵᱚᱲᱚ
ᱵᱚᱲᱚᱨᱟᱢ
ᱵᱚᱲᱚᱵᱷᱚᱫᱽᱨᱚ
ᱵᱚᱲᱟᱭᱜᱽᱮᱨᱟᱢ
ᱵᱚᱲᱠᱤ
ᱵᱚᱲᱦᱮ
ᱵᱚᱴ
ᱵᱚᱴᱟᱫᱽ
ᱵᱚᱴᱟᱱᱤ
ᱵᱚᱴᱤᱭᱟᱜᱷᱟᱴᱟ
ᱵᱚᱴᱱᱮᱰ
ᱵᱚᱴᱱᱮᱴ
ᱵᱚᱴᱷᱤᱱᱰᱟ
ᱵᱚᱵᱤ
ᱵᱚᱵᱤᱛᱟ
ᱵᱚᱵᱽᱞᱤ
ᱵᱚᱸᱜᱟ
ᱵᱚᱸᱜᱟᱛᱟᱞᱟ
ᱵᱚᱸᱜᱟᱦᱟᱜ
ᱵᱚᱸᱜᱟᱨᱮ
ᱵᱚᱸᱜᱟᱭ
ᱵᱚᱸᱜᱟᱭᱜᱟᱶ
ᱵᱚᱸᱜᱟᱭᱟ
ᱵᱚᱸᱜᱟᱵᱩᱨᱩ
ᱵᱚᱸᱥ
ᱵᱚᱸᱥᱚ
ᱵᱚᱸᱫ
ᱵᱚᱸᱫᱷ
ᱵᱚᱸᱫᱽ
ᱵᱚᱸᱰᱟ
ᱵᱞᱚᱠ
ᱵᱞᱟᱠ
ᱵᱞᱩ
ᱵᱞᱮᱭᱚᱨ
ᱵᱞᱮᱰᱟᱨ
ᱵᱟ
ᱵᱟᱛ
ᱵᱟᱛᱟᱣ
ᱵᱟᱛᱟᱣᱟ
ᱵᱟᱛᱟᱣᱮᱫ
ᱵᱟᱛᱤᱞ
ᱵᱟᱛᱷᱩᱣᱟ
ᱵᱟᱜ
ᱵᱟᱜᱟᱞᱠᱚᱴ
ᱵᱟᱜᱟᱣᱟ
ᱵᱟᱜᱟᱱ
ᱵᱟᱜᱢᱚᱛᱤ
ᱵᱟᱜᱤ
ᱵᱟᱜᱩᱱ
ᱵᱟᱜᱮ
ᱵᱟᱜᱮᱞᱠᱷᱚᱸᱰ
ᱵᱟᱜᱮᱥᱚᱨ
ᱵᱟᱜᱮᱨᱦᱟᱴ
ᱵᱟᱜᱳ
ᱵᱟᱜᱷ
ᱵᱟᱜᱷᱟ
ᱵᱟᱜᱷᱤ
ᱵᱟᱜᱷᱮᱞᱤ
ᱵᱟᱜᱽ
ᱵᱟᱜᱽᱟᱛᱤᱯᱟᱲᱟ
ᱵᱟᱜᱽᱢᱟᱨᱟ
ᱵᱟᱜᱽᱣᱟᱱ
ᱵᱟᱜᱽᱫᱟᱫᱽ
ᱵᱟᱜᱽᱯᱟᱛ
ᱵᱟᱜᱽᱰᱚᱜᱽᱨᱟ
ᱵᱟᱜᱽᱲᱤ
ᱵᱟᱝ
ᱵᱟᱝᱛᱮ
ᱵᱟᱝᱜᱞᱟᱫᱮᱥ
ᱵᱟᱝᱜᱟ
ᱵᱟᱝᱜᱟᱞ
ᱵᱟᱝᱜᱟᱞᱚᱨ
ᱵᱟᱝᱜᱟᱞᱤ
ᱵᱟᱝᱜᱟᱞᱳᱨ
ᱵᱟᱝᱜᱤᱨᱤᱯᱳᱥᱤ
ᱵᱟᱝᱜᱽᱞᱟ
ᱵᱟᱝᱜᱽᱨᱤᱯᱚᱥᱤ
ᱵᱟᱝᱞᱟ
ᱵᱟᱝᱞᱟᱫᱤᱥᱚᱢ
ᱵᱟᱝᱞᱟᱫᱤᱥᱟ
ᱵᱟᱝᱞᱟᱫᱤᱥᱟᱹᱢ
ᱵᱟᱝᱞᱟᱫᱮᱥ
ᱵᱟᱝᱞᱟᱫᱮᱥᱤ
ᱵᱟᱝᱟ
ᱵᱟᱝᱠᱚ
ᱵᱟᱝᱠᱟ
ᱵᱟᱝᱠᱷᱟᱡ
ᱵᱟᱝᱠᱷᱟᱱ
ᱵᱟᱝᱢᱟ
ᱵᱟᱝᱪᱟᱣ
ᱵᱟᱝᱼᱟ
ᱵᱟᱞ
ᱵᱟᱞᱚᱠ
ᱵᱟᱞᱚᱣᱫᱟ
ᱵᱟᱞᱚᱪ
ᱵᱟᱞᱚᱪᱤ
ᱵᱟᱞᱚᱪᱤᱥᱛᱟᱱ
ᱵᱟᱞᱚᱫᱽ
ᱵᱟᱞᱚᱱ
ᱵᱟᱞᱛᱤᱥᱛᱟᱱ
ᱵᱟᱞᱞᱤᱭᱟ
ᱵᱟᱞᱟ
ᱵᱟᱞᱟᱜᱷᱟᱴ
ᱵᱟᱞᱟᱡᱤ
ᱵᱟᱞᱟᱭᱟ
ᱵᱟᱞᱢᱤᱠᱤ
ᱵᱟᱞᱤ
ᱵᱟᱞᱤᱜᱮᱨᱤᱭᱟ
ᱵᱟᱞᱤᱠᱟ
ᱵᱟᱞᱤᱵᱷᱤᱭᱟ
ᱵᱟᱞᱩᱨᱜᱷᱟᱴ
ᱵᱟᱞᱮ
ᱵᱟᱞᱮᱥᱚᱨ
ᱵᱟᱞᱴᱤᱠ
ᱵᱟᱠᱚ
ᱵᱟᱠᱞᱟᱜ
ᱵᱟᱠᱣᱟᱨᱰ
ᱵᱟᱠᱤ
ᱵᱟᱠᱥᱟ
ᱵᱟᱠᱩ
ᱵᱟᱠᱩᱲᱟ
ᱵᱟᱠᱷᱚᱞ
ᱵᱟᱠᱷᱟᱱ
ᱵᱟᱠᱷᱨᱟ
ᱵᱟᱠᱷᱮᱬ
ᱵᱟᱡᱟᱣ
ᱵᱟᱡᱟᱣᱤᱡ
ᱵᱟᱡᱟᱨ
ᱵᱟᱡᱟᱱ
ᱵᱟᱡᱤ
ᱵᱟᱡᱤᱨᱟᱣ
ᱵᱟᱡᱮ
ᱵᱟᱡᱮᱴ
ᱵᱟᱡᱽ
ᱵᱟᱡᱽᱯᱮᱭᱤ
ᱵᱟᱡᱽᱱᱟ
ᱵᱟᱢ
ᱵᱟᱣᱞ
ᱵᱟᱣᱟᱥᱤᱨ
ᱵᱟᱣᱩᱞ
ᱵᱟᱥ
ᱵᱟᱥᱚᱱᱛᱤ
ᱵᱟᱥᱛᱟᱨ
ᱵᱟᱥᱛᱤ
ᱵᱟᱥᱟ
ᱵᱟᱥᱟᱜ
ᱵᱟᱥᱟᱝ
ᱵᱟᱥᱟᱣ
ᱵᱟᱥᱠ
ᱵᱟᱥᱠᱮ
ᱵᱟᱥᱠᱮᱴᱵᱚᱞ
ᱵᱟᱥᱤ
ᱵᱟᱥᱤᱭᱟ
ᱵᱟᱥᱩ
ᱵᱟᱥᱩᱜᱟᱶ
ᱵᱟᱥᱩᱠᱤᱱᱟᱛᱷ
ᱵᱟᱥᱩᱫᱮᱵᱽ
ᱵᱟᱥᱳ
ᱵᱟᱦᱚᱨᱟᱭᱤᱱ
ᱵᱟᱦᱚᱨᱮ
ᱵᱟᱦᱟ
ᱵᱟᱦᱟᱜ
ᱵᱟᱦᱟᱞ
ᱵᱟᱦᱟᱞᱤ
ᱵᱟᱦᱟᱢᱟᱥ
ᱵᱟᱦᱟᱨ
ᱵᱟᱦᱟᱫᱩᱨ
ᱵᱟᱦᱟᱭ
ᱵᱟᱦᱟᱱ
ᱵᱟᱦᱟᱱᱚᱜᱟ
ᱵᱟᱦᱟᱱᱟ
ᱵᱟᱦᱤ
ᱵᱟᱦᱤᱨᱤ
ᱵᱟᱦᱤᱱᱤ
ᱵᱟᱦᱨᱟᱜᱚᱰᱟ
ᱵᱟᱦᱨᱟᱭᱤᱱ
ᱵᱟᱦᱨᱮ
ᱵᱟᱦᱩ
ᱵᱟᱦᱮᱨ
ᱵᱟᱦᱱᱟ
ᱵᱟᱦᱱᱟᱨ
ᱵᱟᱧᱪᱟᱣ
ᱵᱟᱧᱪᱟᱣᱚᱜ
ᱵᱟᱧᱪᱟᱣᱜ
ᱵᱟᱨ
ᱵᱟᱨᱚ
ᱵᱟᱨᱚᱬᱟᱥᱤ
ᱵᱟᱨᱚᱱ
ᱵᱟᱨᱚᱵᱟᱴᱤ
ᱵᱟᱨᱛᱟ
ᱵᱟᱨᱜᱮᱞ
ᱵᱟᱨᱞᱟ
ᱵᱟᱨᱞᱤᱱ
ᱵᱟᱨᱟ
ᱵᱟᱨᱟᱠ
ᱵᱟᱨᱟᱠᱟᱨ
ᱵᱟᱨᱟᱢᱩᱞᱟ
ᱵᱟᱨᱟᱥᱟᱛ
ᱵᱟᱨᱟᱬᱚᱥᱤ
ᱵᱟᱨᱟᱬᱟᱥᱤ
ᱵᱟᱨᱟᱭᱟ
ᱵᱟᱨᱟᱯᱷ
ᱵᱟᱨᱟᱵᱚᱸᱠᱤ
ᱵᱟᱨᱟᱵᱟᱨᱤ
ᱵᱟᱨᱟᱵᱟᱹᱨᱤ
ᱵᱟᱨᱟᱸ
ᱵᱟᱨᱠᱟᱛᱩᱞᱞᱟ
ᱵᱟᱨᱠᱟᱠᱟᱱᱟ
ᱵᱟᱨᱠᱷᱟᱱ
ᱵᱟᱨᱢᱟ
ᱵᱟᱨᱤ
ᱵᱟᱨᱤᱠ
ᱵᱟᱨᱤᱯᱚᱫᱟ
ᱵᱟᱨᱦᱟᱨᱣᱟ
ᱵᱟᱨᱦᱟᱭᱤᱛ
ᱵᱟᱨᱦᱮ
ᱵᱟᱨᱩᱣᱟ
ᱵᱟᱨᱩᱱ
ᱵᱟᱨᱫᱩᱬᱩᱡ
ᱵᱟᱨᱭᱟ
ᱵᱟᱨᱮ
ᱵᱟᱨᱮᱛᱮ
ᱵᱟᱨᱮᱞᱤ
ᱵᱟᱨᱮᱠ
ᱵᱟᱨᱮᱭᱟ
ᱵᱟᱨᱰᱩ
ᱵᱟᱨᱳᱵᱤᱝ
ᱵᱟᱨᱵᱟᱨ
ᱵᱟᱨᱼᱯᱮ
ᱵᱟᱪᱱᱟᱣ
ᱵᱟᱪᱷᱚᱱ
ᱵᱟᱪᱷᱚᱱᱚᱜ
ᱵᱟᱪᱷᱟᱣ
ᱵᱟᱪᱷᱱᱟᱣ
ᱵᱟᱫ
ᱵᱟᱫᱚᱞ
ᱵᱟᱫᱚᱞᱤ
ᱵᱟᱫᱟᱞ
ᱵᱟᱫᱟᱢ
ᱵᱟᱫᱟᱢᱤ
ᱵᱟᱫᱟᱢᱯᱟᱦᱟᱰ
ᱵᱟᱫᱤ
ᱵᱟᱫᱥᱟᱦ
ᱵᱟᱫᱽ
ᱵᱟᱫᱽᱥᱟ
ᱵᱟᱫᱽᱥᱟᱦ
ᱵᱟᱫᱽᱲᱟ
ᱵᱟᱬᱛᱤ
ᱵᱟᱬᱤ
ᱵᱟᱭ
ᱵᱟᱭᱟᱨ
ᱵᱟᱭᱤ
ᱵᱟᱭᱤᱠ
ᱵᱟᱭᱤᱴ
ᱵᱟᱭᱤᱴᱥ
ᱵᱟᱭᱨᱚᱱ
ᱵᱟᱭᱨᱤ
ᱵᱟᱭᱯᱟᱥ
ᱵᱟᱭᱰᱮᱱ
ᱵᱟᱭᱵᱤᱞ
ᱵᱟᱭᱵᱮᱞ
ᱵᱟᱯ
ᱵᱟᱯᱞᱟ
ᱵᱟᱯᱞᱟᱜ
ᱵᱟᱯᱞᱟᱣ
ᱵᱟᱯᱞᱟᱭᱮᱱᱟ
ᱵᱟᱯᱟᱜ
ᱵᱟᱯᱟᱜᱽ
ᱵᱟᱯᱩ
ᱵᱟᱰᱚᱦᱤ
ᱵᱟᱰᱚᱦᱤᱭᱟ
ᱵᱟᱰᱚᱦᱤᱭᱟᱹ
ᱵᱟᱰᱟ
ᱵᱟᱰᱟᱭ
ᱵᱟᱰᱟᱭᱚ
ᱵᱟᱰᱟᱭᱚᱜ
ᱵᱟᱰᱟᱭᱚᱜᱼᱟ
ᱵᱟᱰᱟᱭᱟ
ᱵᱟᱰᱟᱭᱟᱜ
ᱵᱟᱰᱟᱭᱟᱠᱟᱱᱟ
ᱵᱟᱰᱟᱭᱟᱱ
ᱵᱟᱰᱟᱭᱡᱚᱝ
ᱵᱟᱰᱟᱭᱤᱡ
ᱵᱟᱰᱟᱭᱮ
ᱵᱟᱰᱟᱭᱮᱫ
ᱵᱟᱰᱟᱭᱮᱫᱼᱟ
ᱵᱟᱰᱟᱭᱮᱭᱟ
ᱵᱟᱰᱟᱭᱮᱱᱟ
ᱵᱟᱰᱤ
ᱵᱟᱰᱷᱟᱣ
ᱵᱟᱱ
ᱵᱟᱱᱚ
ᱵᱟᱱᱚᱜ
ᱵᱟᱱᱟ
ᱵᱟᱱᱟᱜ
ᱵᱟᱱᱟᱢ
ᱵᱟᱱᱟᱣ
ᱵᱟᱱᱟᱣᱜ
ᱵᱟᱱᱟᱣᱟᱜ
ᱵᱟᱱᱟᱣᱤᱡ
ᱵᱟᱱᱟᱦᱚᱲ
ᱵᱟᱱᱟᱨ
ᱵᱟᱱᱟᱨᱚᱥ
ᱵᱟᱱᱟᱨᱜᱷᱟᱴᱟ
ᱵᱟᱱᱟᱨᱟᱥ
ᱵᱟᱱᱟᱨᱡᱤ
ᱵᱟᱱᱟᱰᱟᱭ
ᱵᱟᱱᱡᱟᱨ
ᱵᱟᱱᱤ
ᱵᱟᱱᱤᱡᱽ
ᱵᱟᱱᱩ
ᱵᱟᱱᱩᱜ
ᱵᱟᱱᱩᱜᱼᱟ
ᱵᱟᱱᱪᱟᱣ
ᱵᱟᱱᱫᱚᱨᱵᱟᱱ
ᱵᱟᱱᱫᱟ
ᱵᱟᱱᱫᱤᱯᱩᱨ
ᱵᱟᱱᱫᱤᱯᱩᱨᱟ
ᱵᱟᱱᱫᱩᱝ
ᱵᱟᱱᱫᱮ
ᱵᱟᱱᱫᱳᱣᱟᱱ
ᱵᱟᱱᱫᱷᱟᱣ
ᱵᱟᱱᱫᱽ
ᱵᱟᱱᱴᱩ
ᱵᱟᱱᱴᱳᱭᱮᱰ
ᱵᱟᱲ
ᱵᱟᱲᱛᱤ
ᱵᱟᱲᱜᱮ
ᱵᱟᱲᱟ
ᱵᱟᱲᱟᱜ
ᱵᱟᱲᱟᱜᱼᱟ
ᱵᱟᱲᱟᱣ
ᱵᱟᱲᱟᱭ
ᱵᱟᱲᱟᱭᱚᱜ
ᱵᱟᱲᱟᱭᱚᱜᱼᱟ
ᱵᱟᱲᱟᱭᱟ
ᱵᱟᱲᱟᱭᱮᱫ
ᱵᱟᱲᱢᱮᱨ
ᱵᱟᱲᱣᱟᱱᱤ
ᱵᱟᱲᱤ
ᱵᱟᱲᱤᱡ
ᱵᱟᱲᱤᱡᱽ
ᱵᱟᱲᱦᱟᱜ
ᱵᱟᱲᱦᱟᱣ
ᱵᱟᱲᱦᱟᱣᱜ
ᱵᱟᱲᱮ
ᱵᱟᱲᱮᱛᱮ
ᱵᱟᱲᱳᱫᱟ
ᱵᱟᱲᱷᱟᱜ
ᱵᱟᱴᱚᱢ
ᱵᱟᱴᱟ
ᱵᱟᱵᱚ
ᱵᱟᱵᱚᱛ
ᱵᱟᱵᱚᱛᱛᱮ
ᱵᱟᱵᱚᱨ
ᱵᱟᱵᱚᱨᱱᱟᱢᱟ
ᱵᱟᱵᱚᱫ
ᱵᱟᱵᱚᱫᱽ
ᱵᱟᱵᱚᱱ
ᱵᱟᱵᱟ
ᱵᱟᱵᱟᱛ
ᱵᱟᱵᱟᱣᱟᱜ
ᱵᱟᱵᱟᱥᱟᱦᱮᱵᱽ
ᱵᱟᱵᱟᱦᱟᱜ
ᱵᱟᱵᱟᱨ
ᱵᱟᱵᱟᱭ
ᱵᱟᱵᱟᱱᱫᱷᱟᱣᱤᱡ
ᱵᱟᱵᱟᱼᱟᱜ
ᱵᱟᱵᱩ
ᱵᱟᱵᱮᱨ
ᱵᱟᱵᱽᱬᱮ
ᱵᱟᱵᱽᱱᱟ
ᱵᱟᱸ
ᱵᱟᱸᱜᱟᱞ
ᱵᱟᱸᱜᱟᱞᱤ
ᱵᱟᱸᱜᱟᱞᱳᱨ
ᱵᱟᱸᱜᱽᱞᱟ
ᱵᱟᱸᱜᱽᱞᱟᱫᱮᱥ
ᱵᱟᱸᱜᱽᱞᱳᱨ
ᱵᱟᱸᱠᱩᱲᱟ
ᱵᱟᱸᱠᱮ
ᱵᱟᱸᱡᱟᱨᱟ
ᱵᱟᱸᱥᱣᱟᱲᱟ
ᱵᱟᱸᱪᱟᱣ
ᱵᱟᱸᱫ
ᱵᱟᱸᱫᱮ
ᱵᱟᱸᱫᱷ
ᱵᱟᱸᱫᱷᱰᱤᱦ
ᱵᱟᱸᱫᱽ
ᱵᱟᱹ
ᱵᱟᱹᱛᱤ
ᱵᱟᱹᱛᱤᱞ
ᱵᱟᱹᱜᱤ
ᱵᱟᱹᱜᱤᱭᱟᱜ
ᱵᱟᱹᱜᱤᱭᱟᱫ
ᱵᱟᱹᱜᱤᱭᱟᱫᱟ
ᱵᱟᱹᱜᱤᱭᱟᱫᱼᱟ
ᱵᱟᱹᱜᱤᱱ
ᱵᱟᱹᱞᱤ
ᱵᱟᱹᱠᱤ
ᱵᱟᱹᱠᱤᱱ
ᱵᱟᱹᱠᱩ
ᱵᱟᱹᱠᱷᱩᱞ
ᱵᱟᱹᱠᱷᱳᱞ
ᱵᱟᱹᱡᱟᱹᱞ
ᱵᱟᱹᱥᱤ
ᱵᱟᱹᱥᱤᱸᱫᱟ
ᱵᱟᱹᱦᱤᱱᱤ
ᱵᱟᱹᱦᱩ
ᱵᱟᱹᱦᱩᱭ
ᱵᱟᱹᱧ
ᱵᱟᱹᱨᱛᱤ
ᱵᱟᱹᱨᱤ
ᱵᱟᱹᱨᱩ
ᱵᱟᱹᱨᱭᱟᱹᱛ
ᱵᱟᱹᱨᱯᱟᱫᱟ
ᱵᱟᱹᱨᱰᱩ
ᱵᱟᱹᱫᱤ
ᱵᱟᱹᱫᱽ
ᱵᱟᱹᱭ
ᱵᱟᱹᱭᱞᱤ
ᱵᱟᱹᱭᱥᱟᱹᱛ
ᱵᱟᱹᱭᱥᱟᱹᱠ
ᱵᱟᱹᱭᱥᱟᱹᱣ
ᱵᱟᱹᱭᱥᱤ
ᱵᱟᱹᱭᱦᱟᱹᱲ
ᱵᱟᱹᱭᱨᱤ
ᱵᱟᱹᱰ
ᱵᱟᱹᱰᱚᱜ
ᱵᱟᱹᱰᱼᱚᱜ
ᱵᱟᱹᱱᱤᱡ
ᱵᱟᱹᱱᱤᱡᱽ
ᱵᱟᱹᱱᱩᱜ
ᱵᱟᱹᱱᱩᱜᱼᱟ
ᱵᱟᱹᱲ
ᱵᱟᱹᱲᱛᱤ
ᱵᱟᱹᱲᱛᱤᱜ
ᱵᱟᱹᱲᱛᱤᱜᱟᱱ
ᱵᱟᱹᱲᱛᱤᱠᱟᱭ
ᱵᱟᱹᱲᱛᱤᱭ
ᱵᱟᱹᱲᱛᱤᱭᱟ
ᱵᱟᱹᱲᱜᱤ
ᱵᱟᱹᱲᱤ
ᱵᱟᱹᱲᱤᱡ
ᱵᱟᱹᱲᱤᱡᱚᱜ
ᱵᱟᱹᱲᱤᱡᱚᱜᱼᱟ
ᱵᱟᱹᱲᱤᱡᱽ
ᱵᱟᱹᱴᱤ
ᱵᱟᱹᱵᱩ
ᱵᱟᱹᱵᱩᱞᱟᱞ
ᱵᱟᱺᱫᱤ
ᱵᱟᱺᱫᱩᱠ
ᱵᱤ
ᱵᱤᱛ
ᱵᱤᱛᱚᱨᱠᱚ
ᱵᱤᱛᱛᱤ
ᱵᱤᱛᱟᱹᱣ
ᱵᱤᱛᱠᱤᱞ
ᱵᱤᱜ
ᱵᱤᱜᱜᱟᱱ
ᱵᱤᱜᱷᱟ
ᱵᱤᱜᱽ
ᱵᱤᱜᱽᱜᱟᱱ
ᱵᱤᱜᱽᱭᱟᱱ
ᱵᱤᱝ
ᱵᱤᱞ
ᱵᱤᱞᱚᱢ
ᱵᱤᱞᱟ
ᱵᱤᱞᱟᱢ
ᱵᱤᱞᱟᱥ
ᱵᱤᱞᱟᱥᱯᱩᱨ
ᱵᱤᱞᱟᱹᱛ
ᱵᱤᱞᱟᱹᱛᱤ
ᱵᱤᱞᱤ
ᱵᱤᱞᱤᱭᱚᱱ
ᱵᱤᱞᱤᱭᱟ
ᱵᱤᱞᱰᱤᱝ
ᱵᱤᱠᱟ
ᱵᱤᱠᱟᱥ
ᱵᱤᱠᱟᱨ
ᱵᱤᱠᱟᱱᱮᱨ
ᱵᱤᱠᱟᱹᱣ
ᱵᱤᱠᱨᱚᱢ
ᱵᱤᱠᱨᱟᱢ
ᱵᱤᱠᱨᱟᱢᱥᱤᱞᱟ
ᱵᱤᱠᱱᱟ
ᱵᱤᱠᱱᱟᱹᱣ
ᱵᱤᱠᱳᱞ
ᱵᱤᱡ
ᱵᱤᱡᱚᱨᱤ
ᱵᱤᱡᱚᱭ
ᱵᱤᱡᱚᱭᱟ
ᱵᱤᱡᱚᱭᱣᱟᱰᱟ
ᱵᱤᱡᱚᱭᱱᱚᱜᱚᱨ
ᱵᱤᱡᱚᱭᱱᱟᱜᱟᱨᱟᱢ
ᱵᱤᱡᱚᱲ
ᱵᱤᱡᱞᱤ
ᱵᱤᱡᱟᱛᱚᱲᱟ
ᱵᱤᱡᱟᱜ
ᱵᱤᱡᱟᱭ
ᱵᱤᱡᱟᱯᱩᱨ
ᱵᱤᱡᱟᱹᱛᱟᱲᱟ
ᱵᱤᱡᱤ
ᱵᱤᱡᱤᱝ
ᱵᱤᱡᱩ
ᱵᱤᱡᱮᱛᱟ
ᱵᱤᱡᱮᱯᱤ
ᱵᱤᱡᱱᱮᱥ
ᱵᱤᱡᱽ
ᱵᱤᱡᱽᱞᱤ
ᱵᱤᱡᱽᱱᱚᱨ
ᱵᱤᱡᱽᱱᱤ
ᱵᱤᱡᱽᱱᱮᱥ
ᱵᱤᱢᱚᱞ
ᱵᱤᱢᱟ
ᱵᱤᱢᱟᱱ
ᱵᱤᱥ
ᱵᱤᱥᱚᱭ
ᱵᱤᱥᱚᱯ
ᱵᱤᱥᱛᱟᱨ
ᱵᱤᱥᱛᱤ
ᱵᱤᱥᱟ
ᱵᱤᱥᱟᱞ
ᱵᱤᱥᱟᱠᱷᱟ
ᱵᱤᱥᱟᱠᱷᱟᱯᱟᱴᱱᱟᱢ
ᱵᱤᱥᱟᱨ
ᱵᱤᱥᱟᱱ
ᱵᱤᱥᱟᱹᱨ
ᱵᱤᱥᱠᱭᱴ
ᱵᱤᱥᱢᱟᱨᱠ
ᱵᱤᱥᱣᱚ
ᱵᱤᱥᱣᱚᱱᱟᱛᱷ
ᱵᱤᱥᱣᱟᱥ
ᱵᱤᱥᱤ
ᱵᱤᱥᱥᱚ
ᱵᱤᱥᱥᱚᱵᱤᱫᱫᱟᱞᱚᱭ
ᱵᱤᱥᱥᱚᱵᱤᱫᱽᱫᱟᱞᱚᱭ
ᱵᱤᱥᱥᱟᱥ
ᱵᱤᱥᱩᱱᱯᱩᱨ
ᱵᱤᱥᱩᱵᱚᱛ
ᱵᱤᱥᱬᱩ
ᱵᱤᱥᱮᱥ
ᱵᱤᱥᱱᱩ
ᱵᱤᱥᱱᱩᱣᱟᱜ
ᱵᱤᱥᱱᱩᱯᱨᱤᱭᱟ
ᱵᱤᱥᱱᱩᱯᱩᱨ
ᱵᱤᱥᱱᱮᱥ
ᱵᱤᱥᱲᱤ
ᱵᱤᱥᱳᱤ
ᱵᱤᱦᱟᱨ
ᱵᱤᱦᱟᱨᱤ
ᱵᱤᱦᱤᱛ
ᱵᱤᱦᱩ
ᱵᱤᱧ
ᱵᱤᱨ
ᱵᱤᱨᱚᱫᱷ
ᱵᱤᱨᱚᱫᱷᱤ
ᱵᱤᱨᱚᱫᱽ
ᱵᱤᱨᱜᱚᱸᱡᱽ
ᱵᱤᱨᱞᱟ
ᱵᱤᱨᱟ
ᱵᱤᱨᱟᱢᱯᱩᱨ
ᱵᱤᱨᱟᱥᱚᱛ
ᱵᱤᱨᱟᱨ
ᱵᱤᱨᱟᱴ
ᱵᱤᱨᱟᱴᱱᱚᱜᱚᱨ
ᱵᱤᱨᱡᱤᱭᱟ
ᱵᱤᱨᱡᱤᱭᱟᱹᱞᱤ
ᱵᱤᱨᱡᱩ
ᱵᱤᱨᱢᱚᱞ
ᱵᱤᱨᱤ
ᱵᱤᱨᱤᱛ
ᱵᱤᱨᱤᱛᱤᱭᱟ
ᱵᱤᱨᱤᱫ
ᱵᱤᱨᱥᱟ
ᱵᱤᱨᱥᱟᱹ
ᱵᱤᱨᱦᱚᱲ
ᱵᱤᱨᱩᱫ
ᱵᱤᱨᱩᱫᱷ
ᱵᱤᱨᱩᱫᱷᱤ
ᱵᱤᱨᱩᱫᱷᱨᱮ
ᱵᱤᱨᱩᱫᱷᱩᱱᱚᱜᱚᱨ
ᱵᱤᱨᱩᱫᱽ
ᱵᱤᱨᱫᱟ
ᱵᱤᱨᱫᱟᱜᱟᱲ
ᱵᱤᱨᱫᱟᱹ
ᱵᱤᱨᱫᱟᱹᱜᱟᱲ
ᱵᱤᱨᱫᱟᱹᱜᱟᱹᱲ
ᱵᱤᱨᱮᱱᱫᱽᱨᱚ
ᱵᱤᱨᱯᱩᱨ
ᱵᱤᱨᱱᱤ
ᱵᱤᱨᱳᱞ
ᱵᱤᱨᱳᱫᱷ
ᱵᱤᱨᱳᱫᱷᱤ
ᱵᱤᱨᱴᱤᱥ
ᱵᱤᱨᱵᱚᱞ
ᱵᱤᱨᱵᱟᱦᱟ
ᱵᱤᱨᱵᱟᱱᱴᱟ
ᱵᱤᱨᱵᱩᱨᱩ
ᱵᱤᱨᱵᱷᱟᱱᱴᱟ
ᱵᱤᱨᱵᱷᱩᱢ
ᱵᱤᱪ
ᱵᱤᱪᱟ
ᱵᱤᱪᱟᱨ
ᱵᱤᱪᱟᱹᱨ
ᱵᱤᱪᱟᱹᱨᱤᱭᱟᱹ
ᱵᱤᱫ
ᱵᱤᱫᱚᱨ
ᱵᱤᱫᱚᱨᱵᱷ
ᱵᱤᱫᱚᱨᱵᱷᱟ
ᱵᱤᱫᱟ
ᱵᱤᱫᱟᱨ
ᱵᱤᱫᱟᱹᱞ
ᱵᱤᱫᱟᱹᱨ
ᱵᱤᱫᱟᱹᱭ
ᱵᱤᱫᱤᱥᱟ
ᱵᱤᱫᱨᱚᱦ
ᱵᱤᱫᱩ
ᱵᱤᱫᱫᱟᱞᱚᱭ
ᱵᱤᱫᱫᱟᱥᱟᱜᱚᱨ
ᱵᱤᱫᱭᱟ
ᱵᱤᱫᱭᱟᱞᱚᱭ
ᱵᱤᱫᱮᱥ
ᱵᱤᱫᱮᱥᱤ
ᱵᱤᱫᱮᱥᱤᱭᱟᱹ
ᱵᱤᱫᱮᱦ
ᱵᱤᱫᱮᱦᱚ
ᱵᱤᱫᱷᱟᱭᱚᱠ
ᱵᱤᱫᱷᱟᱱ
ᱵᱤᱫᱷᱟᱱᱥᱚᱵᱷᱟ
ᱵᱤᱫᱷᱤ
ᱵᱤᱫᱽ
ᱵᱤᱫᱽᱨᱚᱦ
ᱵᱤᱫᱽᱭᱟ
ᱵᱤᱫᱽᱭᱟᱞᱚᱭ
ᱵᱤᱫᱽᱭᱟᱨᱛᱷᱤ
ᱵᱤᱫᱽᱭᱟᱯᱤᱴᱷ
ᱵᱤᱬᱟ
ᱵᱤᱭᱟᱥ
ᱵᱤᱭᱟᱨ
ᱵᱤᱮᱱᱟᱨ
ᱵᱤᱯᱚᱠᱷᱚ
ᱵᱤᱯᱚᱫᱽ
ᱵᱤᱯᱞᱚᱵᱽ
ᱵᱤᱯᱟᱥᱟ
ᱵᱤᱯᱤᱱ
ᱵᱤᱰ
ᱵᱤᱰᱟ
ᱵᱤᱰᱟᱹᱣ
ᱵᱤᱰᱤᱭᱚ
ᱵᱤᱱ
ᱵᱤᱱᱚᱫᱽ
ᱵᱤᱱᱚᱭ
ᱵᱤᱱᱚᱵᱟ
ᱵᱤᱱᱛᱤ
ᱵᱤᱱᱛᱤᱭᱟ
ᱵᱤᱱᱟ
ᱵᱤᱱᱟᱭᱚᱠ
ᱵᱤᱱᱟᱹ
ᱵᱤᱱᱤᱰ
ᱵᱤᱱᱤᱰᱟᱹᱣ
ᱵᱤᱱᱤᱰᱤᱭᱟ
ᱵᱤᱱᱤᱰᱮ
ᱵᱤᱱᱩᱨᱤᱭᱟᱹ
ᱵᱤᱱᱫᱩ
ᱵᱤᱱᱯᱩᱨ
ᱵᱤᱱᱳᱵᱟ
ᱵᱤᱱᱳᱵᱷᱟ
ᱵᱤᱲᱟᱥᱯᱩᱨ
ᱵᱤᱲᱤ
ᱵᱤᱴ
ᱵᱤᱴᱟ
ᱵᱤᱴᱟᱢᱤᱱ
ᱵᱤᱴᱤ
ᱵᱤᱵᱚᱨᱚᱱ
ᱵᱤᱵᱟ
ᱵᱤᱵᱟᱫᱽ
ᱵᱤᱵᱟᱹᱫ
ᱵᱤᱵᱟᱹᱫᱽ
ᱵᱤᱵᱤ
ᱵᱤᱵᱤᱥᱤ
ᱵᱤᱵᱮᱠ
ᱵᱤᱵᱮᱠᱟᱱᱚᱱᱫᱚ
ᱵᱤᱵᱷᱟᱜ
ᱵᱤᱵᱷᱟᱜᱽ
ᱵᱤᱵᱷᱩᱥᱚᱬ
ᱵᱤᱸᱫᱤ
ᱵᱤᱸᱫᱷᱭᱟ
ᱵᱤᱹ
ᱵᱤᱹᱮᱹ
ᱵᱨᱚᱡᱽ
ᱵᱨᱚᱢᱚᱯᱩᱛᱨᱚ
ᱵᱨᱚᱢᱦᱚᱯᱩᱛᱨᱚ
ᱵᱨᱚᱦᱢᱚ
ᱵᱨᱚᱦᱢᱚᱯᱩᱛᱨᱚ
ᱵᱨᱚᱰ
ᱵᱨᱚᱰᱼᱜᱮᱡᱽ
ᱵᱨᱟᱝᱪ
ᱵᱨᱟᱡᱟᱵᱷᱤᱞ
ᱵᱨᱟᱡᱤᱞ
ᱵᱨᱟᱣᱡᱟᱨ
ᱵᱨᱟᱦᱢᱚᱱ
ᱵᱨᱟᱦᱢᱚᱱᱵᱟᱲᱤᱭᱟ
ᱵᱨᱟᱦᱩᱭ
ᱵᱨᱟᱱᱰ
ᱵᱨᱟᱸᱰ
ᱵᱨᱤᱡᱽ
ᱵᱨᱤᱴᱤᱥ
ᱵᱨᱤᱴᱮᱱ
ᱵᱨᱩᱠᱨᱟᱴ
ᱵᱨᱩᱠᱨᱮᱴ
ᱵᱨᱩᱱᱟᱭ
ᱵᱨᱩᱱᱮᱭ
ᱵᱨᱮᱠ
ᱵᱨᱮᱰ
ᱵᱨᱳᱰ
ᱵᱩ
ᱵᱩᱛᱟᱹᱢ
ᱵᱩᱜᱤ
ᱵᱩᱜᱤᱭᱟ
ᱵᱩᱞ
ᱵᱩᱞᱚᱸᱫᱽᱥᱚᱦᱚᱨ
ᱵᱩᱞᱜᱮᱨᱤᱭᱟ
ᱵᱩᱞᱩᱝ
ᱵᱩᱞᱫᱷᱟᱱᱟ
ᱵᱩᱠ
ᱵᱩᱠᱤᱝ
ᱵᱩᱠᱥ
ᱵᱩᱡᱦᱟᱹᱣ
ᱵᱩᱡᱷᱟ
ᱵᱩᱡᱷᱟᱣ
ᱵᱩᱡᱷᱟᱹᱜ
ᱵᱩᱡᱷᱟᱹᱜᱼᱟ
ᱵᱩᱡᱷᱟᱹᱣ
ᱵᱩᱡᱷᱟᱹᱣᱚᱜ
ᱵᱩᱡᱷᱟᱹᱣᱚᱜᱼᱟ
ᱵᱩᱡᱷᱟᱹᱣᱜ
ᱵᱩᱡᱷᱟᱹᱣᱜᱼᱟ
ᱵᱩᱡᱷᱟᱹᱣᱟ
ᱵᱩᱡᱷᱟᱹᱣᱼᱟ
ᱵᱩᱡᱽ
ᱵᱩᱣᱟᱹᱝ
ᱵᱩᱥᱛᱤ
ᱵᱩᱥᱟᱹᱲ
ᱵᱩᱥᱩᱵ
ᱵᱩᱦᱤᱱ
ᱵᱩᱨ
ᱵᱩᱨᱠᱤᱱᱟ
ᱵᱩᱨᱤ
ᱵᱩᱨᱦᱚᱱᱯᱩᱨ
ᱵᱩᱨᱦᱟᱱᱯᱩᱨ
ᱵᱩᱨᱩ
ᱵᱩᱨᱩᱜ
ᱵᱩᱨᱩᱢᱟᱞᱟ
ᱵᱩᱨᱩᱫ
ᱵᱩᱨᱩᱱᱰᱤ
ᱵᱩᱫᱟᱹ
ᱵᱩᱫᱫᱷᱚ
ᱵᱩᱫᱷ
ᱵᱩᱫᱷᱚ
ᱵᱩᱫᱷᱚᱣᱟᱜ
ᱵᱩᱫᱷᱤ
ᱵᱩᱫᱷᱤᱥᱴ
ᱵᱩᱫᱽ
ᱵᱩᱫᱽᱫᱷᱚ
ᱵᱩᱭᱮᱱᱳᱥ
ᱵᱩᱯᱩᱡᱷᱟᱹᱣ
ᱵᱩᱰᱤ
ᱵᱩᱰᱦᱤ
ᱵᱩᱰᱷᱟ
ᱵᱩᱰᱷᱤ
ᱵᱩᱱ
ᱵᱩᱱᱤᱭᱟ
ᱵᱩᱱᱤᱭᱟᱹᱫ
ᱵᱩᱱᱤᱭᱟᱹᱫᱤ
ᱵᱩᱱᱤᱭᱟᱹᱫᱤᱭᱟᱹ
ᱵᱩᱱᱤᱭᱟᱹᱫᱽ
ᱵᱩᱱᱩᱢ
ᱵᱩᱱᱫᱤ
ᱵᱩᱱᱫᱮᱞᱠᱷᱚᱸᱰ
ᱵᱩᱱᱭᱟ
ᱵᱩᱱᱰᱩ
ᱵᱩᱲᱢᱩ
ᱵᱩᱴ
ᱵᱩᱴᱟ
ᱵᱩᱴᱟᱹ
ᱵᱩᱴᱟᱹᱨᱮ
ᱵᱩᱴᱷᱟ
ᱵᱩᱸᱫᱤ
ᱵᱩᱸᱫᱮᱞᱠᱷᱚᱸᱰ
ᱵᱩᱸᱫᱮᱞᱤ
ᱵᱭᱟᱥ
ᱵᱭᱟᱸᱠ
ᱵᱮ
ᱵᱮᱛᱞᱟ
ᱵᱮᱛᱟᱨ
ᱵᱮᱛᱣᱟ
ᱵᱮᱛᱤᱭᱟ
ᱵᱮᱛᱩᱞ
ᱵᱮᱛᱱᱚᱴᱤ
ᱵᱮᱜ
ᱵᱮᱜᱚᱢ
ᱵᱮᱜᱚᱨ
ᱵᱮᱜᱚᱨᱦᱚᱸ
ᱵᱮᱜᱟᱨ
ᱵᱮᱜᱩᱥᱚᱨᱟᱭ
ᱵᱮᱜᱩᱥᱟᱨᱟᱭ
ᱵᱮᱜᱷᱚᱴᱚᱱ
ᱵᱮᱜᱽ
ᱵᱮᱝᱜᱚᱞ
ᱵᱮᱝᱜᱚᱞᱤ
ᱵᱮᱝᱜᱟᱞᱩᱨᱩ
ᱵᱮᱝᱜᱟᱲ
ᱵᱮᱝᱠ
ᱵᱮᱝᱠᱚᱠ
ᱵᱮᱞ
ᱵᱮᱞᱚᱪᱤᱥᱛᱟᱱ
ᱵᱮᱞᱚᱱᱤᱭᱟ
ᱵᱮᱞᱜᱟᱢ
ᱵᱮᱞᱜᱷᱚᱨ
ᱵᱮᱞᱞᱟᱨᱤ
ᱵᱮᱞᱟ
ᱵᱮᱞᱟᱛᱤ
ᱵᱮᱞᱟᱨᱩᱥ
ᱵᱮᱞᱟᱨᱩᱥᱤᱭᱟᱱ
ᱵᱮᱞᱠᱩᱪᱤ
ᱵᱮᱞᱡᱤᱭᱚᱢ
ᱵᱮᱞᱡᱤᱭᱟᱢ
ᱵᱮᱞᱤ
ᱵᱮᱞᱮ
ᱵᱮᱞᱴ
ᱵᱮᱞᱵᱟᱨᱤ
ᱵᱮᱠ
ᱵᱮᱠᱟᱨ
ᱵᱮᱠᱠᱷᱟ
ᱵᱮᱠᱣᱟᱨᱰ
ᱵᱮᱡᱤᱝ
ᱵᱮᱡᱷᱟ
ᱵᱮᱡᱷᱟᱛᱩᱧ
ᱵᱮᱡᱽ
ᱵᱮᱢᱟᱨ
ᱵᱮᱢᱮᱛᱚᱨᱟ
ᱵᱮᱣᱦᱟᱨ
ᱵᱮᱣᱦᱟᱨᱚᱜ
ᱵᱮᱣᱦᱟᱨᱟ
ᱵᱮᱣᱦᱟᱨᱮᱫ
ᱵᱮᱣᱨᱟ
ᱵᱮᱥ
ᱵᱮᱥᱚᱜ
ᱵᱮᱥᱚᱨᱚ
ᱵᱮᱥᱚᱨᱠᱟᱨᱤ
ᱵᱮᱥᱚᱱ
ᱵᱮᱥᱤᱠ
ᱵᱮᱥᱤᱨ
ᱵᱮᱥᱤᱱ
ᱵᱮᱥᱨᱟ
ᱵᱮᱥᱴ
ᱵᱮᱦᱟ
ᱵᱮᱦᱟᱨ
ᱵᱮᱦᱮᱨᱟ
ᱵᱮᱨ
ᱵᱮᱨᱟᱠᱯᱩᱨ
ᱵᱮᱨᱟᱨ
ᱵᱮᱨᱢᱚ
ᱵᱮᱨᱤ
ᱵᱮᱨᱦᱟᱭ
ᱵᱮᱨᱮᱛ
ᱵᱮᱨᱮᱞ
ᱵᱮᱨᱮᱫ
ᱵᱮᱨᱮᱫᱤᱡ
ᱵᱮᱪ
ᱵᱮᱪᱞᱚᱨ
ᱵᱮᱪᱟᱞᱟᱨ
ᱵᱮᱫᱚ
ᱵᱮᱫᱤ
ᱵᱮᱫᱤᱠ
ᱵᱮᱫᱤᱭᱟ
ᱵᱮᱫᱽ
ᱵᱮᱭᱥᱟᱞᱤ
ᱵᱮᱭᱨᱩᱛ
ᱵᱮᱯᱟᱨ
ᱵᱮᱯᱟᱨᱤ
ᱵᱮᱯᱟᱨᱤᱭᱟ
ᱵᱮᱯᱟᱨᱤᱭᱟᱹ
ᱵᱮᱯᱟᱨᱼᱵᱟᱱᱤᱡᱽ
ᱵᱮᱯᱟᱨᱼᱵᱟᱹᱱᱤᱡᱽ
ᱵᱮᱯᱤ
ᱵᱮᱰ
ᱵᱮᱰᱟ
ᱵᱮᱰᱢᱤᱱᱴᱚᱱ
ᱵᱮᱱ
ᱵᱮᱱᱚᱨ
ᱵᱮᱱᱛᱱᱚᱴᱤ
ᱵᱮᱱᱟ
ᱵᱮᱱᱟᱜ
ᱵᱮᱱᱟᱜᱼᱟ
ᱵᱮᱱᱟᱡᱤᱨ
ᱵᱮᱱᱟᱣ
ᱵᱮᱱᱟᱣᱚᱜ
ᱵᱮᱱᱟᱣᱜ
ᱵᱮᱱᱟᱣᱜᱼᱟ
ᱵᱮᱱᱟᱣᱟ
ᱵᱮᱱᱟᱣᱟᱜ
ᱵᱮᱱᱟᱣᱤᱡ
ᱵᱮᱱᱟᱣᱤᱭᱟᱹ
ᱵᱮᱱᱟᱣᱮ
ᱵᱮᱱᱟᱣᱮᱫ
ᱵᱮᱱᱟᱣᱮᱱ
ᱵᱮᱱᱟᱣᱮᱱᱟ
ᱵᱮᱱᱟᱣᱼᱟ
ᱵᱮᱱᱟᱨ
ᱵᱮᱱᱟᱨᱡᱟᱣ
ᱵᱮᱱᱟᱨᱡᱤ
ᱵᱮᱱᱟᱯᱳᱞ
ᱵᱮᱱᱟᱶ
ᱵᱮᱱᱟᱶᱟ
ᱵᱮᱱᱤᱱ
ᱵᱮᱱᱩᱼᱠᱚᱝᱜᱳ
ᱵᱮᱱᱯᱷᱤᱠᱟ
ᱵᱮᱱᱰ
ᱵᱮᱲ
ᱵᱮᱲᱚ
ᱵᱮᱲᱟ
ᱵᱮᱲᱟᱨᱮ
ᱵᱮᱲᱟᱵᱷᱩᱢᱤ
ᱵᱮᱲᱦᱟᱭ
ᱵᱮᱴ
ᱵᱮᱴᱟ
ᱵᱮᱴᱤᱝ
ᱵᱮᱴᱥᱢᱮᱱ
ᱵᱮᱴᱨᱤ
ᱵᱮᱵᱚᱥᱛᱟ
ᱵᱮᱵᱚᱥᱛᱷᱟ
ᱵᱮᱵᱚᱥᱥᱟ
ᱵᱮᱵᱚᱦᱟᱨ
ᱵᱮᱵᱚᱦᱟᱨᱚᱜ
ᱵᱮᱵᱟᱥᱟᱭ
ᱵᱮᱵᱤ
ᱵᱮᱵᱤᱞᱚᱱ
ᱵᱮᱵᱥᱟ
ᱵᱮᱵᱦᱟᱨ
ᱵᱮᱵᱦᱟᱨᱚᱜ
ᱵᱮᱵᱦᱟᱨᱚᱜᱼᱟ
ᱵᱮᱵᱦᱟᱨᱮᱫᱽ
ᱵᱮᱵᱦᱟᱨᱼᱟ
ᱵᱮᱵᱮ
ᱵᱮᱵᱮᱱᱟᱣ
ᱵᱮᱵᱷᱟᱨ
ᱵᱮᱵᱷᱟᱨᱚᱜ
ᱵᱮᱵᱷᱟᱨᱚᱜᱼᱟ
ᱵᱮᱵᱷᱟᱨᱟ
ᱵᱮᱵᱷᱟᱨᱟᱜ
ᱵᱮᱵᱷᱟᱨᱤᱭᱟ
ᱵᱮᱵᱷᱟᱨᱤᱭᱟᱹ
ᱵᱮᱵᱷᱟᱨᱮᱜᱼᱟ
ᱵᱮᱵᱷᱟᱨᱮᱫ
ᱵᱮᱵᱷᱟᱨᱮᱫᱼᱟ
ᱵᱮᱵᱷᱟᱨᱲ
ᱵᱮᱵᱷᱟᱨᱼᱟ
ᱵᱮᱵᱷᱦᱟᱨ
ᱵᱮᱵᱽᱥᱟᱭ
ᱵᱮᱸᱛᱞᱩᱴᱤ
ᱵᱮᱸᱜᱚᱞ
ᱵᱮᱸᱜᱚᱞᱤ
ᱵᱮᱸᱜᱟᱲ
ᱵᱮᱸᱜᱽᱞᱚᱨ
ᱵᱮᱸᱜᱽᱞᱳᱨ
ᱵᱮᱸᱠ
ᱵᱮᱸᱪ
ᱵᱮᱸᱰ
ᱵᱮᱼᱥᱚᱨᱠᱟᱨᱤ
ᱵᱳᱛᱥᱳᱣᱟᱱᱟ
ᱵᱳᱝᱜᱟᱭᱜᱟᱶ
ᱵᱳᱞ
ᱵᱳᱞᱟᱨ
ᱵᱳᱞᱤᱝ
ᱵᱳᱞᱤᱣᱩᱰ
ᱵᱳᱞᱯᱩᱨ
ᱵᱳᱞᱯᱩᱨᱼᱥᱟᱱᱛᱤᱱᱤᱠᱮᱛᱚᱱ
ᱵᱳᱞᱯᱩᱨᱼᱥᱨᱤᱱᱤᱠᱮᱛᱚᱱ
ᱵᱳᱠᱥ
ᱵᱳᱢᱟᱱ
ᱵᱳᱢᱠᱮᱥ
ᱵᱳᱢᱵᱟᱭ
ᱵᱳᱢᱵᱮ
ᱵᱳᱥ
ᱵᱳᱨᱚᱱ
ᱵᱳᱨᱤᱭᱳ
ᱵᱳᱨᱰ
ᱵᱳᱨᱰᱽ
ᱵᱳᱨᱱᱤᱭᱳ
ᱵᱳᱨᱳ
ᱵᱳᱫᱫᱷᱚ
ᱵᱳᱫᱫᱷᱳ
ᱵᱳᱰ
ᱵᱳᱰᱤᱝ
ᱵᱳᱰᱳ
ᱵᱳᱱᱰᱟ
ᱵᱳᱱᱰᱳ
ᱵᱳᱸᱜᱟ
ᱵᱷ
ᱵᱷᱚᱜᱚᱛ
ᱵᱷᱚᱜᱚᱵᱚᱛᱤ
ᱵᱷᱚᱜᱚᱵᱟᱱ
ᱵᱷᱚᱜᱣᱟᱱ
ᱵᱷᱚᱜᱽ
ᱵᱷᱚᱜᱽᱣᱟᱱ
ᱵᱷᱚᱜᱽᱱᱟᱰᱤ
ᱵᱷᱚᱜᱽᱵᱟᱱ
ᱵᱷᱚᱝ
ᱵᱷᱚᱞᱞᱚᱵᱽᱵᱷᱟᱭ
ᱵᱷᱚᱞᱤᱵᱚᱞ
ᱵᱷᱚᱠᱛᱚ
ᱵᱷᱚᱠᱛᱟ
ᱵᱷᱚᱠᱛᱤ
ᱵᱷᱚᱡᱚᱱ
ᱵᱷᱚᱡᱟ
ᱵᱷᱚᱡᱯᱩᱨᱤ
ᱵᱷᱚᱡᱽ
ᱵᱷᱚᱡᱽᱯᱩᱨᱤ
ᱵᱷᱚᱣᱜᱚᱞᱤᱠ
ᱵᱷᱚᱥᱞᱮ
ᱵᱷᱚᱨ
ᱵᱷᱚᱨᱚᱛ
ᱵᱷᱚᱨᱚᱛᱯᱩᱨ
ᱵᱷᱚᱨᱚᱛᱱᱟᱛᱭᱚᱢ
ᱵᱷᱚᱨᱛᱤ
ᱵᱷᱚᱨᱥᱚᱱ
ᱵᱷᱚᱨᱥᱟ
ᱵᱷᱚᱨᱩᱪ
ᱵᱷᱚᱫᱽᱨᱚᱠ
ᱵᱷᱚᱫᱽᱨᱚᱠᱟᱲᱤ
ᱵᱷᱚᱭ
ᱵᱷᱚᱭᱨᱚᱵᱽ
ᱵᱷᱚᱭᱮᱥ
ᱵᱷᱚᱯᱟᱞ
ᱵᱷᱚᱯᱟᱲ
ᱵᱷᱚᱱᱰᱟᱨᱤ
ᱵᱷᱚᱲᱚᱠ
ᱵᱷᱚᱴ
ᱵᱷᱚᱴᱟᱨ
ᱵᱷᱚᱴᱟᱵᱷᱩᱴᱤ
ᱵᱷᱚᱴᱴᱤ
ᱵᱷᱚᱵᱚᱱ
ᱵᱷᱚᱵᱟᱱᱤ
ᱵᱷᱚᱸᱡᱚ
ᱵᱷᱚᱸᱡᱽ
ᱵᱷᱚᱸᱰᱟᱨᱟ
ᱵᱷᱞᱟᱫᱤᱢᱤᱨ
ᱵᱷᱞᱟᱫᱤᱵᱷᱚᱥᱛᱳᱠ
ᱵᱷᱟ
ᱵᱷᱟᱛ
ᱵᱷᱟᱜ
ᱵᱷᱟᱜᱚᱞ
ᱵᱷᱟᱜᱚᱞᱯᱩᱨ
ᱵᱷᱟᱜᱟᱣ
ᱵᱷᱟᱜᱤ
ᱵᱷᱟᱜᱤᱨᱚᱛᱷᱤ
ᱵᱷᱟᱜᱮ
ᱵᱷᱟᱜᱮᱭᱟ
ᱵᱷᱟᱜᱽ
ᱵᱷᱟᱜᱽᱣᱟᱱ
ᱵᱷᱟᱜᱽᱭᱚ
ᱵᱷᱟᱜᱽᱵᱚᱛ
ᱵᱷᱟᱞᱚᱵᱟᱥᱟ
ᱵᱷᱟᱞᱮ
ᱵᱷᱟᱠ
ᱵᱷᱟᱠᱮᱨ
ᱵᱷᱟᱡᱤ
ᱵᱷᱟᱡᱽᱯᱟ
ᱵᱷᱟᱣ
ᱵᱷᱟᱣᱮ
ᱵᱷᱟᱣᱱᱚᱜᱚᱨ
ᱵᱷᱟᱥᱚᱱ
ᱵᱷᱟᱥᱟ
ᱵᱷᱟᱥᱠᱚ
ᱵᱷᱟᱥᱠᱚᱨ
ᱵᱷᱟᱨ
ᱵᱷᱟᱨᱚᱛ
ᱵᱷᱟᱨᱚᱛᱤ
ᱵᱷᱟᱨᱚᱛᱤᱭᱚ
ᱵᱷᱟᱨᱚᱛᱤᱭᱟ
ᱵᱷᱟᱨᱚᱛᱤᱭᱟᱹ
ᱵᱷᱟᱨᱚᱛᱤᱳ
ᱵᱷᱟᱨᱚᱛᱱᱟᱴᱭᱚᱢ
ᱵᱷᱟᱨᱛᱤ
ᱵᱷᱟᱨᱛᱤᱭᱚ
ᱵᱷᱟᱨᱟᱛ
ᱵᱷᱟᱨᱤᱭᱟ
ᱵᱷᱟᱨᱥᱚᱱ
ᱵᱷᱟᱨᱥᱟᱱ
ᱵᱷᱟᱨᱮ
ᱵᱷᱟᱨᱱᱚ
ᱵᱷᱟᱨᱱᱰᱚ
ᱵᱷᱟᱫᱚᱨ
ᱵᱷᱟᱫᱮᱨ
ᱵᱷᱟᱫᱮᱨᱣᱟᱦ
ᱵᱷᱟᱭ
ᱵᱷᱟᱭᱤ
ᱵᱷᱟᱭᱤᱥ
ᱵᱷᱟᱭᱨᱚ
ᱵᱷᱟᱭᱨᱚᱥ
ᱵᱷᱟᱭᱨᱟᱥ
ᱵᱷᱟᱯ
ᱵᱷᱟᱰᱚᱦᱤ
ᱵᱷᱟᱱ
ᱵᱷᱟᱱᱰᱟᱨᱤ
ᱵᱷᱟᱱᱰᱟᱱ
ᱵᱷᱟᱱᱴᱟ
ᱵᱷᱟᱲᱟ
ᱵᱷᱟᱴ
ᱵᱷᱟᱴᱟ
ᱵᱷᱟᱴᱤᱭᱟ
ᱵᱷᱟᱴᱮ
ᱵᱷᱟᱴᱴᱟᱞ
ᱵᱷᱟᱵ
ᱵᱷᱟᱵᱛᱮ
ᱵᱷᱟᱵᱮ
ᱵᱷᱟᱵᱱᱟ
ᱵᱷᱟᱵᱽ
ᱵᱷᱟᱵᱽᱱᱟ
ᱵᱷᱟᱸᱜᱩᱲᱟ
ᱵᱷᱟᱸᱰᱟᱱ
ᱵᱷᱟᱹᱛᱤ
ᱵᱷᱟᱹᱛᱩᱪ
ᱵᱷᱟᱹᱜᱤ
ᱵᱷᱟᱹᱞᱟᱹᱭ
ᱵᱷᱟᱹᱨᱭᱟᱹ
ᱵᱷᱟᱹᱴᱤᱭᱟᱹ
ᱵᱷᱟᱹᱵᱤᱛ
ᱵᱷᱤ
ᱵᱷᱤᱛ
ᱵᱷᱤᱛᱛᱤ
ᱵᱷᱤᱛᱟᱹᱨ
ᱵᱷᱤᱛᱤ
ᱵᱷᱤᱛᱤᱨ
ᱵᱷᱤᱛᱨᱤ
ᱵᱷᱤᱛᱨᱤᱨᱮ
ᱵᱷᱤᱞ
ᱵᱷᱤᱞᱟᱭ
ᱵᱷᱤᱞᱣᱟᱲᱟ
ᱵᱷᱤᱞᱤ
ᱵᱷᱤᱞᱮᱡᱽ
ᱵᱷᱤᱠᱴᱚᱨ
ᱵᱷᱤᱠᱴᱚᱨᱤᱭᱟ
ᱵᱷᱤᱠᱴᱳᱨᱤᱭᱟ
ᱵᱷᱤᱢ
ᱵᱷᱤᱢᱨᱟᱣ
ᱵᱷᱤᱢᱯᱩᱨ
ᱵᱷᱤᱢᱵᱮᱨ
ᱵᱷᱤᱣᱟᱱᱤ
ᱵᱷᱤᱥᱚᱱ
ᱵᱷᱤᱥᱤᱴᱚᱨ
ᱵᱷᱤᱥᱮᱞᱮᱫ
ᱵᱷᱤᱥᱮᱞᱮᱫᱚᱜ
ᱵᱷᱤᱦᱟᱨ
ᱵᱷᱤᱧᱪᱤ
ᱵᱷᱤᱭᱮᱛᱱᱟᱢ
ᱵᱷᱤᱭᱮᱛᱱᱟᱢᱤ
ᱵᱷᱤᱭᱮᱱᱛᱤᱭᱮᱱ
ᱵᱷᱤᱭᱮᱱᱟ
ᱵᱷᱤᱭᱮᱴᱱᱟᱢ
ᱵᱷᱤᱰᱤ
ᱵᱷᱤᱰᱤᱭᱚ
ᱵᱷᱤᱰᱤᱭᱳ
ᱵᱷᱤᱰᱤᱳ
ᱵᱷᱤᱱᱟ
ᱵᱷᱤᱱᱟᱹ
ᱵᱷᱤᱱᱤ
ᱵᱷᱤᱱᱮ
ᱵᱷᱤᱱᱰᱤ
ᱵᱷᱤᱲ
ᱵᱷᱤᱲᱟᱹᱣ
ᱵᱷᱤᱴᱟ
ᱵᱷᱤᱴᱟᱢᱤᱱ
ᱵᱷᱤᱸᱰ
ᱵᱷᱤᱹ
ᱵᱷᱩ
ᱵᱷᱩᱛ
ᱵᱷᱩᱜ
ᱵᱷᱩᱜᱟᱹᱜ
ᱵᱷᱩᱞ
ᱵᱷᱩᱞᱟᱹᱣ
ᱵᱷᱩᱡᱟᱠᱷᱤᱭᱟ
ᱵᱷᱩᱡᱽ
ᱵᱷᱩᱢᱤ
ᱵᱷᱩᱢᱤᱠᱟ
ᱵᱷᱩᱢᱤᱡᱽ
ᱵᱷᱩᱥᱚᱬ
ᱵᱷᱩᱥᱚᱱ
ᱵᱷᱩᱥᱟᱣᱟᱞ
ᱵᱷᱩᱥᱟᱬ
ᱵᱷᱩᱨ
ᱵᱷᱩᱨᱛᱤ
ᱵᱷᱩᱨᱠᱟ
ᱵᱷᱩᱨᱠᱟᱹ
ᱵᱷᱩᱨᱠᱟᱹᱜ
ᱵᱷᱩᱨᱩᱝᱜᱟᱢᱟᱨᱤ
ᱵᱷᱩᱪᱩᱝᱰᱤᱦ
ᱵᱷᱩᱴ
ᱵᱷᱩᱴᱟᱱ
ᱵᱷᱩᱴᱟᱱᱤ
ᱵᱷᱩᱴᱤᱭᱟ
ᱵᱷᱩᱴᱴᱳ
ᱵᱷᱩᱵᱚᱱᱮᱥᱚᱨ
ᱵᱷᱩᱵᱚᱱᱮᱥᱣᱚᱨ
ᱵᱷᱩᱵᱱᱮᱥᱚᱨ
ᱵᱷᱩᱵᱽᱱᱮᱥᱚᱨ
ᱵᱷᱩᱵᱽᱱᱮᱥᱣᱚᱨ
ᱵᱷᱩᱸᱡᱤᱭᱟ
ᱵᱷᱩᱸᱭᱟᱸ
ᱵᱷᱭᱟᱠᱩᱨ
ᱵᱷᱮᱜᱟᱨ
ᱵᱷᱮᱜᱟᱨᱟ
ᱵᱷᱮᱜᱮᱫ
ᱵᱷᱮᱞᱞᱤ
ᱵᱷᱮᱞᱞᱳᱨ
ᱵᱷᱮᱞᱟ
ᱵᱷᱮᱞᱤ
ᱵᱷᱮᱡᱟ
ᱵᱷᱮᱡᱟᱣ
ᱵᱷᱮᱡᱟᱨ
ᱵᱷᱮᱡᱟᱨᱼᱵᱷᱮᱡᱟᱨ
ᱵᱷᱮᱡᱟᱭᱟ
ᱵᱷᱮᱨ
ᱵᱷᱮᱫᱽ
ᱵᱷᱮᱯᱮᱫ
ᱵᱷᱮᱰᱟ
ᱵᱷᱮᱱ
ᱵᱷᱮᱱᱟᱥ
ᱵᱷᱮᱱᱤᱥ
ᱵᱷᱮᱱᱮᱜᱟᱨ
ᱵᱷᱮᱱᱮᱡᱩᱭᱮᱞᱟ
ᱵᱷᱮᱲᱟᱢᱟᱨᱟ
ᱵᱷᱮᱲᱣᱟ
ᱵᱷᱮᱴᱤᱠᱟᱱ
ᱵᱷᱮᱵᱽᱨᱩᱣᱟᱨᱤ
ᱵᱷᱳᱜᱽ
ᱵᱷᱳᱞᱟ
ᱵᱷᱳᱞᱴᱟᱼᱠᱚᱝᱜᱳ
ᱵᱷᱳᱡᱯᱩᱨᱤ
ᱵᱷᱳᱡᱽᱯᱩᱨ
ᱵᱷᱳᱡᱽᱯᱩᱨᱤ
ᱵᱷᱳᱨ
ᱵᱷᱳᱨᱛᱤ
ᱵᱷᱳᱨᱳ
ᱵᱷᱳᱨᱳᱭ
ᱵᱷᱳᱯᱟᱞ
ᱵᱷᱳᱴ
ᱵᱽ
ᱵᱽᱞᱚᱠ
ᱵᱽᱞᱟᱠ
ᱵᱽᱞᱩ
ᱵᱽᱞᱮᱠ
ᱵᱽᱨᱚᱡᱚ
ᱵᱽᱨᱚᱢᱦᱟ
ᱵᱽᱨᱚᱦᱢᱚᱯᱩᱛᱨᱚ
ᱵᱽᱨᱚᱨ
ᱵᱽᱨᱟᱡᱤᱞ
ᱵᱽᱨᱟᱣᱡᱚᱨ
ᱵᱽᱨᱟᱥ
ᱵᱽᱨᱟᱦᱢᱤ
ᱵᱽᱨᱟᱱᱰ
ᱵᱽᱨᱟᱸᱰ
ᱵᱽᱨᱤᱡ
ᱵᱽᱨᱤᱱᱫᱟ
ᱵᱽᱨᱤᱴᱤᱥ
ᱵᱽᱨᱤᱴᱮᱱ
ᱶ
ᱶᱨᱤᱭᱟ
ᱷ
ᱷᱮ
ᱸ
ᱹ
ᱹᱹᱹ
ᱺ
ᱻ
ᱼ
ᱼᱞᱮᱱ
ᱼᱟ
ᱼᱼ
ᱽ
᱾
᱿
ᴳ
ᵇ
ᵈ
ᵊ
ᵍ
ᵏ
ᵐ
ᵑ
ᵖ
ᵗ
ᵝ
ᵬ
ᵭ
ᵮ
ᵯ
ᵰ
ᵱ
ᵲ
ᵳ
ᵴ
ᵵ
ᵶ
ᵹ
ᵻ
ᵽ
ᵿ
ᶎ
ᶑ
ᶜ
ᶡ
ᶢ
ᶣ
ᶬ
ᶮ
ᶯ
ᶰ
ỻ
ỽ
ỿ
​
‌
‍
‎
‐
‑
–
—
‖
‘
’
“
”
„
†
‡
•
…
‬
‰
′
″
‹
›
※
‼
⁄
⁠
⁵
⁶
⁷
⁽
⁾
ⁿ
€
₹
℈
ℍ
ℙ
ℝ
™
ⅎ
ⅰ
ⅱ
ⅲ
ⅳ
ⅴ
ⅵ
ⅶ
ⅷ
ⅸ
ⅹ
ⅺ
ⅻ
ⅼ
ⅽ
ⅾ
ⅿ
ↀ
ↄ
←
↑
→
↓
↔
↷
⇐
∂
∆
∇
−
∙
∞
∫
≥
⊕
⊤
⋅
③
④
⑦
▪
◌
●
☃
☉
☑
☒
☛
♠
♦
♪
✓
⟨
⟩
ⱡ
ⱥ
ⱦ
ⱨ
ⱪ
ⱬ
ⱱ
ⱳ
ⱶ
⺀
⺄
⺆
⺈
⺊
⺌
⺕
⺝
⺸
⺼
⿰
⿱
⿲
⿳
⿴
⿵
⿶
⿷
⿸
⿹
⿺
⿻
。
《
》
【
】
〢
か
き
し
と
な
に
の
ふ
ほ
ま
り
る
れ
わ
ん
゙
゚
ア
イ
ウ
カ
キ
ク
ケ
コ
ス
セ
タ
チ
ッ
ト
ナ
ニ
ノ
ハ
ヒ
フ
ホ
マ
ミ
ュ
ユ
ョ
ラ
リ
ル
ワ
ン
ー
ㄐ
ㄓ
ㄜ
ㄤ
ㄧ
㇁
㇂
㇄
㇇
㇈
㇉
㇓
㐁
㐄
㐅
㐌
㐫
㐬
㐭
㐮
㐱
㑒
㒵
㒸
㒼
㓁
㓞
㔾
㕛
㕣
㖾
㘝
㚅
㚇
㚔
㚘
㝉
㝡
㝴
㝵
㞋
㞢
㞷
㠩
㠭
㠯
㡀
㡭
㡿
㢲
㢴
㣇
㣺
㥯
㪅
㫄
㫐
㫒
㫺
㬅
㬎
㬥
㬰
㲋
㳄
㷠
㸒
㸚
㸦
㼌
㼲
㽞
㿟
䀠
䂞
䍃
䏍
䒑
䖍
䖒
䖝
䖵
䙴
䚻
䜌
䝿
䡛
䧹
䪞
一
丁
丂
七
丄
丅
丆
万
丈
三
上
下
丌
不
与
丏
丐
丑
专
且
丕
世
丘
丙
业
东
丝
丞
丢
丣
两
严
並
丨
丩
个
丫
丬
中
丮
丰
丱
串
丵
丶
丷
丸
丹
为
主
丽
丿
乀
乂
乃
久
乆
乇
么
义
之
乌
乍
乎
乏
乐
乑
乔
乖
乗
乘
乙
乚
乛
乜
九
乞
也
习
乡
乳
乾
亀
亅
了
亇
予
争
事
二
亍
于
亏
亐
云
互
亓
五
井
亘
亚
亜
亞
亟
亠
亡
亢
交
亥
亦
产
亨
亩
享
京
亭
亮
亯
亰
亲
亳
亶
亷
人
亻
亼
亾
仁
今
介
仌
从
仐
仑
仒
仓
仕
他
付
仝
代
令
以
任
企
伊
伏
伐
休
会
伯
但
位
住
何
佘
余
佛
作
佥
使
來
侈
侌
侖
侯
侵
便
俊
保
俞
信
修
倉
倍
候
倠
備
傣
僉
僕
儿
兀
允
兂
元
兄
充
兆
兇
先
光
兊
克
兌
免
兑
兒
兓
兔
党
兜
兟
入
內
全
兩
兪
八
公
六
兮
兰
共
关
兵
其
具
典
兹
兼
冀
冂
冃
冄
内
冈
冉
冊
冋
册
再
冎
冏
冐
冒
冓
冖
冗
冘
军
农
冝
冡
冥
冫
冬
冷
几
凡
凢
凵
凶
凷
凸
凹
出
函
凾
刀
刁
刂
刃
刄
刅
分
切
刍
刑
刕
刖
列
刘
则
初
別
利
别
到
制
刺
則
削
剌
前
剡
剽
劉
力
功
加
劦
助
劫
劳
劵
勃
勇
勉
勒
動
務
勞
勤
勹
勺
勻
勾
勿
匀
匂
包
匆
匈
匊
匋
匍
匕
化
北
匚
匝
匡
匪
匱
匸
匹
区
医
匽
匿
區
十
卂
千
卄
卅
卆
升
午
卉
半
卌
华
卑
卒
卓
单
卖
南
卜
卝
卞
占
卡
卢
卣
卤
卦
卩
卪
卬
卯
印
危
即
却
卵
卷
卸
卻
厂
厃
厄
历
厈
厉
厌
厓
厘
厚
原
厤
厥
厨
厭
厲
厶
厷
厸
去
厼
厽
叀
参
參
叅
又
叉
及
友
双
反
叐
发
叒
叔
叕
取
受
叚
叜
叟
口
古
句
另
叩
只
召
可
台
叱
史
右
叵
号
司
叹
吂
各
吅
合
吉
吊
吋
同
名
后
吏
向
吕
君
吝
吞
否
含
启
吳
吴
吹
吾
呂
呆
呈
告
员
呙
周
命
咅
和
咎
咠
咢
咨
咸
咼
哀
品
哉
員
哥
哲
唐
商
啇
問
啚
啬
啻
善
喜
喬
單
喿
嗇
嘉
噩
嚴
囊
囗
囘
囙
囚
四
回
囟
因
囧
囬
困
囱
図
囷
固
国
圂
圅
國
圍
圓
土
圡
圣
圥
在
圭
地
圶
圼
坐
坒
坚
坴
垂
垔
垚
埀
埃
埋
城
埶
執
基
堂
堅
堆
堇
堯
塞
墨
壘
士
壬
壯
声
壳
壴
壹
壺
壽
夂
处
夅
夆
备
変
夊
夋
夌
复
夏
夒
夕
外
夗
夘
多
夜
夢
大
夨
天
太
夫
夬
夭
央
失
夲
头
夷
夸
夹
夻
夾
奂
奄
奇
奈
奉
奎
奏
奐
契
奓
奔
奚
奞
奠
奢
奥
奭
女
奴
奻
好
如
妄
妙
妟
妥
妻
妾
姑
委
姜
威
娄
婁
婴
嬰
嬴
子
孑
孔
孕
孖
字
存
孚
孛
孝
孟
季
孤
学
孫
孱
學
宀
宁
宂
它
宅
宇
守
安
宋
完
宏
宓
宗
官
定
宛
宜
宝
客
宣
室
宮
宰
害
家
容
宾
宿
寄
寅
密
富
寒
寛
察
寧
審
寫
寬
寮
寸
对
寺
寻
寽
対
寿
封
尃
射
将
將
專
尉
尊
尋
尌
對
小
少
尒
尓
尔
尖
尗
尚
尞
尢
尣
尤
尧
尨
尭
就
尸
尹
尺
尻
尼
尽
尾
尿
局
居
屈
屋
屎
屏
屑
展
屖
屚
属
屠
屡
屬
屮
屯
屰
山
屵
屾
岁
岂
岑
岡
岩
岳
岸
峯
島
崇
崑
崔
崖
崙
崩
嵬
嶲
巂
巛
川
州
巟
巠
巢
巤
工
左
巧
巨
巩
巫
差
己
已
巳
巴
巷
巸
巽
巾
巿
帀
市
布
希
帚
帛
帝
带
師
席
帶
常
干
平
年
幵
并
幷
幸
幺
幻
幼
幽
幾
广
広
庄
床
底
店
庚
府
度
座
庫
庭
庶
康
庸
廉
廌
廛
廣
廩
廴
延
廷
建
廾
廿
开
弁
弃
弄
弇
弋
式
弓
弔
引
弗
弘
弜
弟
弥
弦
弱
張
強
强
彊
彌
彎
彐
彑
当
彔
录
彖
彗
彡
形
彥
彦
彧
彭
彳
役
彼
往
待
律
徒
得
徙
從
復
微
徳
徵
心
忄
必
忌
忍
志
応
忝
忠
忩
快
念
忽
忿
思
怠
急
怱
恆
恒
恩
恭
息
悉
患
悤
悲
悶
惠
惡
惢
愁
愈
意
愛
感
慈
慧
慮
慶
憂
憲
應
戀
戈
戉
戊
戋
戌
戍
戎
成
我
戒
戔
或
戚
戠
戢
截
戲
戶
户
戹
戼
戾
房
所
扁
扇
手
扌
才
打
托
执
承
折
拉
拜
拿
掌
推
提
摩
支
攴
攵
收
攸
改
放
政
敄
敏
敕
敖
敗
教
敝
敞
敢
散
敦
敫
敬
数
敷
數
斂
文
斉
斊
斗
斤
斥
斩
斬
斯
新
方
於
施
斿
旁
旋
族
无
旡
既
旣
日
旦
旧
旨
早
旬
旱
旲
时
旾
昆
昇
昌
昍
明
昏
易
昔
昗
昜
星
春
昬
昭
是
昱
昴
昷
時
晃
晋
晏
普
景
晶
智
暑
暦
暴
曇
曩
曰
曲
曳
更
曷
書
曹
曼
曾
替
最
朁
會
月
有
朋
服
朔
朕
朗
望
朝
木
朩
未
末
本
札
朮
术
朱
朵
朶
朿
杀
杏
杜
束
条
来
杨
東
杲
杳
松
析
林
枚
果
枝
枲
枼
某
柔
查
柬
柰
柴
栗
桀
桑
桼
梁
條
梟
梨
棘
棠
棥
森
楚
業
楽
榮
樂
樊
欠
次
欣
欮
欲
欶
欽
款
歆
歇
歛
止
正
此
步
武
歨
歪
歮
歯
歰
歲
歴
歷
歸
歹
歺
死
殳
段
殷
殸
殹
殺
殻
殿
毋
毌
母
每
毒
比
毕
毚
毛
毳
氏
氐
民
气
氣
水
氵
氶
氷
永
氺
氾
求
汝
汞
江
沃
沓
沙
沝
治
泉
法
波
泣
泥
泰
洛
洪
活
派
流
济
浦
浪
浮
海
淡
淮
清
渚
渠
港
湯
滿
漢
漸
灣
火
灬
灭
灰
灵
灷
炅
炎
炏
炗
炙
炭
為
烈
烏
烝
焉
無
焦
焱
然
煞
熊
熏
燕
營
燮
爪
爫
爭
爯
爰
爱
爲
爵
父
爻
爽
爾
爿
片
版
牙
牚
牛
牜
牟
牢
牧
物
牪
牽
犀
犬
犭
犮
狂
狄
狊
独
狺
猋
猒
猪
献
獻
玄
率
玉
王
玟
玨
珎
班
琴
瑟
瑩
瓜
瓦
甘
甚
生
産
用
甫
甬
田
由
甲
申
电
甶
男
甸
甹
画
甾
畀
界
畏
畐
留
畜
畟
畢
畧
畨
番
畫
異
畱
當
畺
畾
疊
疋
疌
疑
疒
疾
癶
癸
癹
発
登
發
白
百
皀
皃
的
皆
皇
皋
皐
皕
皮
皷
皿
盃
盆
盇
盈
益
盍
盎
监
盒
盖
盛
盡
監
盤
盧
目
直
相
盾
省
眇
眉
看
眔
眞
真
眷
眼
眾
着
睘
睪
睿
瞏
瞢
瞿
矍
矛
矞
矢
矣
知
矦
短
石
研
破
碎
磊
磨
示
礻
礼
社
神
祟
票
祭
禀
禁
禄
禅
福
禸
禹
禺
离
禽
禾
禿
秀
秃
秉
秋
科
秝
秦
移
稟
穀
穌
穴
究
穹
空
穿
突
窄
窒
立
竒
竜
竝
竟
章
童
竹
笑
笠
筆
等
答
箕
算
箴
節
篤
篭
米
粉
粛
粟
粤
粦
粲
糞
糸
糹
系
約
納
素
索
紫
累
細
絜
絫
絲
維
綿
線
縣
繇
纍
纟
经
缶
网
罒
罔
罕
罗
罙
罡
罢
罪
署
罷
羅
羊
羌
羍
美
羔
羕
羗
羞
羡
羣
群
義
羲
羸
羽
翁
翏
習
翕
翟
翠
翼
老
耂
考
者
耆
而
耎
耑
耒
耳
耴
耶
耷
聂
聊
聖
聚
聶
聿
肀
肃
肅
肉
肖
肙
肥
肩
肯
育
肴
胃
背
胡
胥
能
脊
脩
膚
臣
臤
臧
自
臬
臭
臯
臱
至
致
臺
臼
臽
臾
臿
舀
舂
舄
與
興
舉
舌
舍
舛
舜
舞
舟
般
艮
良
色
艸
艹
艾
芒
芔
芬
芮
花
芳
芺
芻
苔
苗
苟
若
苦
英
茶
茸
荅
草
荒
荣
荼
莆
莧
莫
莽
菆
菊
菐
華
萊
萬
落
葉
著
葛
董
葵
蒙
蒦
蒼
蓋
蓬
蓺
蔑
蔡
蕉
蕭
薄
薛
薦
薰
藍
藏
藥
蘭
虍
虎
虐
虒
虔
處
虖
虗
虘
虚
虛
虜
虞
虫
虽
蚤
蚩
蜀
蜜
蟲
蠡
血
行
衍
衛
衣
衤
表
衮
衰
袁
袞
褭
褱
襄
襾
西
覀
要
覃
見
規
覓
覧
親
観
覽
见
角
解
言
訁
訇
計
詞
話
詹
認
語
誩
諸
護
讠
讲
话
语
谷
豆
豈
豊
豐
豕
豖
豙
象
豦
豩
豪
豸
貇
貝
貞
貟
負
貢
貧
貪
貫
責
貳
貴
買
費
賁
資
賈
賏
賓
賔
賛
賞
賢
賣
質
賴
贊
贝
贡
责
贯
贲
贵
赖
赞
赤
赦
走
越
足
路
蹇
身
躬
車
軍
軎
軟
輦
车
辛
辜
辟
辥
辰
辱
農
辵
辶
边
达
过
近
连
迪
迷
追
退
送
逆
逐
通
速
造
逢
連
逮
進
遀
遂
過
道
達
遣
適
遷
遺
邊
邑
邕
那
邦
邪
郎
部
郭
都
鄉
酉
酋
配
酓
釆
采
里
重
野
量
金
釒
銀
銭
錢
钅
長
镸
长
門
閃
閉
開
閏
閑
閒
間
閔
閩
閵
閻
闌
门
间
闷
闽
阑
阜
阝
阿
降
陳
隆
隊
隋
隡
隨
隱
隶
隹
隺
隻
隼
隽
难
雀
雁
集
雈
雋
雍
雐
雔
雙
雚
雜
雝
離
難
雨
雩
雪
雲
零
雷
需
霍
霜
霝
霞
霸
靈
靑
青
非
靡
面
靣
革
韋
韓
韦
韭
韯
韱
音
頁
頃
項
須
頗
頡
頻
顛
页
風
风
飛
飞
食
飠
養
館
饃
饣
馍
首
香
馬
馮
駦
马
骨
高
髟
鬥
鬯
鬲
鬼
魚
魯
鮮
鱼
鲁
鳥
鳳
鸟
鹵
鹿
麃
麗
麥
麦
麻
黃
黄
黍
黎
黑
黒
黨
黹
黽
黾
鼎
鼓
鼠
鼻
齊
齋
齐
齒
齿
龍
龙
龜
龟
龠
龰
龱
龴
龵
龶
龷
龸
龹
ꜣ
ꜥ
ꜧ
ꜩ
ꜫ
ꜭ
ꜯ
ꜳ
ꜵ
ꜷ
ꜹ
ꜻ
ꜽ
ꜿ
ꝁ
ꝃ
ꝅ
ꝇ
ꝉ
ꝋ
ꝍ
ꝏ
ꝑ
ꝓ
ꝕ
ꝗ
ꝙ
ꝛ
ꝝ
ꝟ
ꝡ
ꝣ
ꝥ
ꝧ
ꝩ
ꝫ
ꝭ
ꝯ
ꝺ
ꝼ
ꝿ
ꞁ
ꞃ
ꞅ
ꞇ
ꞌ
ꞎ
ꞑ
ꞓ
ꞔ
ꞗ
ꞙ
ꞛ
ꞝ
ꞟ
ꞡ
ꞣ
ꞥ
ꞧ
ꞩ
ꞵ
ꞷ
ꞹ
ꞻ
ꞽ
ꞿ
ꟃ
ꟈ
ꟊ
ꟶ
꠆
ꠉ
ꠎ
ꠘ
ꠛ
ꠣ
ꠤ
ꦗ
ꦠ
ꦧ
ꦮ
ꦱ
ꦴ
ꭓ
ꭶ
ꭹ
ꭿ
ꮃ
ꮎ
ꮒ
ꮝ
ꮧ
ꮳ
ꮼ
ꯃ
ꯩ
者
艹
ﬀ
ﬞ
︠
︡
ﺟ
ﻗ
ﻮ
﻿
！
（
）
，
：
；
？
＠
［
＼
］
＾
＿
｀
ａ
ｂ
ｃ
ｄ
ｅ
ｆ
ｇ
ｈ
ｉ
ｊ
ｋ
ｌ
ｍ
ｎ
ｏ
ｐ
ｑ
ｒ
ｓ
ｔ
ｕ
ｖ
ｗ
ｘ
ｙ
ｚ
｛
｜
｝
～
｟
￼
𐌰
𐌹
𐡀
𐤀
𐤓
𑣁
𑣂
𑣉
𑣋
𑣌
𑣕
𑣗
𑣚
𑣜
𝓪
𝓭
𝓷
𝓻
𝓾
𝔹
𝕋
𝕒
𝕕
𝕖
𝕙
𝕚
𝕛
𝕝
𝕞
𝕟
𝕣
𝕤
𝕥
𝕦
𞤭
🍁
🏆
👉
😉
🙏
𠀁
𠀃
𠀆
𠀉
𠀎
𠀐
𠁁
𠁣
𠂆
𠂇
𠂈
𠂉
𠂊
𠂋
𠂎
𠂒
𠂔
𠂛
𠂡
𠂢
𠂤
𠂬
𠂭
𠂹
𠃊
𠃋
𠃌
𠃍
𠃎
𠃑
𠃓
𠃔
𠃜
𠄌
𠄎
𠄠
𠄢
𠆢
𠆥
𠇍
𠈌
𠌵
𠓜
𠔉
𠔥
𠔼
𠔽
𠔿
𠕀
𠕁
𠕋
𠘧
𠘨
𠙻
𠙼
𠚏
𠚒
𠚤
𠚪
𠣏
𠤎
𠤕
𠥓
𠦄
𠦑
𠦝
𠧒
𠧗
𠧪
𠩺
𠪚
𠫓
𠫔
𠫤
𠬛
𠬝
𠬞
𠬢
𠬤
𠬶
𠮛
𠮦
𠮷
𠯑
𠱠
𠳮
𠷎
𡈼
𡉀
𡉵
𡌥
𡍮
𡏳
𡕒
𡕩
𡕰
𡖅
𡗗
𡗜
𡘆
𡘤
𡧱
𡨄
𡩧
𡬠
𡭽
𡰣
𡰥
𡰪
𡰯
𡰱
𡷈
𡸁
𡿨
𡿩
𡿪
𡿺
𢀖
𢀛
𢀩
𢁙
𢆉
𢆰
𢆶
𢇁
𢇇
𢉖
𢌬
𢌿
𢏚
𢑑
𢑚
𢖻
𢙣
𢛳
𢦏
𢦒
𢧵
𢼄
𢾕
𣁋
𣄼
𣅀
𣅽
𣍘
𣎳
𣎵
𣏋
𣏼
𣗥
𣥂
𣥖
𣦵
𣦼
𣧄
𣪊
𣪠
𣬉
𣳾
𣶒
𤇾
𤊽
𤐫
𤓰
𤔔
𤕨
𤣩
𤰇
𤰔
𤰞
𤴓
𤴔
𤽄
𥁑
𥁕
𥃦
𥃩
𥃭
𥇡
𥑟
𥘅
𥘈
𥝢
𥫗
𥱡
𦈢
𦉪
𦉬
𦉼
𦍌
𦍒
𦎧
𦐇
𦓔
𦔮
𦘒
𦙃
𦚏
𦣝
𦣞
𦣻
𦥑
𦥔
𦥯
𦨉
𦭝
𦰩
𧆞
𧈧
𧘇
𧰨
𧴪
𧴮
𧵩
𧾷
𨸏
𨾴
𩙿
𩠐
𩫏
𩵋
𪉷
𪜀
𪟽
𪠲
𪩲
𫇦
𫔭
𫜸
𫝀
𫠣
𫠩
𫢉
𫥞
𫩏
𫩠
𫪡
𫲽
𫶧
𬀷
𬐘
𬗌
𬙙
𬛸
𬜯
𬟩
𬯁
𬴘
𬺻
𬼉
𬼖
𭀰
𭁈
𭁨
𭅰
𭑈
𭕄
𭗼
𭤨
𭥫
𭻾
𮅕
𮊿
𮍌
𮍏
𮓗
𮥼
𮧮
廾
𰀁
𰀄
𰀈
𰀉
𰀕
𰀠
𰀡
𰀢
𰀪
𰁜
𰃮
𰆊
𰆘
𰋙
𰕎
𰢴
𰧭
𰯲
00--
01--
02--
03--
04--
05--
06--
07--
08--
09--
10--
12--
13--
14--
15--
16--
17--
18--
20--
21--
22--
23--
24--
25--
26--
27--
28--
29--
30--
31--
32--
33--
34--
35--
36--
37--
38--
39--
40--
41--
4184--
42--
43--
44--
45--
47--
49--
50--
51--
52--
53--
54--
55--
56--
58--
59--
60--
61--
62--
63--
64--
65--
67--
68--
70--
71--
72--
74--
76--
77--
78--
79--
80--
82--
83--
85--
86--
87--
90--
91--
96--
978--
99--
a--
aa--
ab--
aba--
abc--
abs--
abu--
ac--
acc--
accom--
acro--
activ--
acu--
ad--
add--
adel--
adi--
adm--
ado--
advent--
ae--
aegy--
aero--
aest--
af--
ag--
age--
agglom--
aggr--
ah--
ai--
air--
aj--
ak--
al--
ala--
ali--
all--
alt--
am--
ama--
amp--
amund--
an--
ana--
analy--
and--
ang--
ani--
anno--
anom--
ant--
anti--
anu--
ao--
ap--
apa--
api--
apo--
app--
appre--
aqu--
ar--
ara--
arg--
args--
ari--
arr--
ars--
art--
aru--
as--
ash--
asht--
asp--
assass--
ast--
astro--
at--
attr--
au--
aur--
aus--
auto--
av--
aw--
awe--
ax--
ay--
ayur--
az--
b--
ba--
bab--
bad--
bagr--
bah--
bai--
bal--
ban--
bar--
bas--
base--
bat--
bay--
bb--
bc--
bd--
be--
beau--
bel--
ben--
ber--
best--
bg--
bh--
bhag--
bhi--
bhu--
bi--
bibl--
biblio--
big--
bin--
bio--
bir--
bish--
bl--
blissym--
blo--
bn--
bo--
body--
bol--
bold--
bom--
bon--
book--
bor--
bot--
bou--
br--
bra--
bre--
brig--
brit--
bro--
bs--
bu--
buff--
bug--
build--
bun--
bundel--
bur--
burd--
bus--
but--
bw--
by--
c--
ca--
cal--
call--
can--
cap--
car--
care--
cas--
cat--
cauc--
cc--
cd--
ce--
cel--
celeb--
cell--
cfg--
ch--
cha--
chakra--
che--
check--
chem--
chi--
child--
cho--
chu--
ci--
cir--
circu--
cite--
cl--
claim--
class--
cn--
co--
coa--
code--
cogn--
col--
com--
comme--
comp--
con--
concat--
corn--
coro--
cp--
cr--
cs--
ct--
cu--
cur--
current--
cv--
cvt--
cy--
cycl--
d--
da--
daa--
dab--
dal--
dam--
dan--
dar--
dark--
data--
date--
daw--
day--
dc--
dd--
de--
deba--
dec--
decil--
decode--
def--
default--
deg--
demo--
den--
des--
desc--
dha--
dho--
di--
dia--
diccion--
dict--
diff--
dig--
diks--
dim--
dipl--
disa--
disc--
display--
diss--
div--
dix--
dj--
dl--
dm--
do--
doc--
dolnos--
dom--
doug--
down--
dp--
dpbox--
dr--
drain--
ds--
dt--
du--
dup--
dur--
dy--
dz--
e--
ea--
ear--
earthly--
eb--
ec--
ecli--
econ--
ed--
edit--
edu--
ee--
ef--
effective--
eg--
eh--
ei--
ek--
el--
elect--
elim--
elli--
em--
empha--
emul--
en--
end--
endomet--
endorse--
eng--
env--
eo--
epi--
epidemio--
equi--
er--
era--
err--
es--
esc--
et--
eu--
euro--
ev--
ew--
ex--
exami--
exce--
excl--
exhi--
exp--
expec--
ext--
f--
fa--
faci--
fan--
far--
faz--
fb--
fc--
fd--
fe--
fed--
fern--
fert--
fetch--
ff--
fi--
file--
fill--
find--
first--
fiss--
fl--
flag--
flu--
fo--
foo--
for--
format--
fort--
fr--
fra--
frame--
frede--
free--
frie--
ft--
fu--
full--
fy--
g--
ga--
gal--
gan--
gar--
gas--
gau--
gb--
ge--
gen--
geo--
get--
getutc--
gh--
gi--
giga--
git--
giz--
gl--
gn--
go--
god--
gopi--
gor--
got--
gov--
gp--
gr--
gramma--
grand--
grav--
great--
grie--
gro--
group--
gs--
gt--
gu--
guang--
guara--
gun--
gur--
gw--
h--
ha--
had--
hai--
han--
hand--
hanno--
har--
hard--
has--
hash--
hau--
haza--
hazari--
hd--
he--
head--
heavenly--
help--
her--
hh--
hi--
hide--
hip--
his--
hl--
hm--
hn--
ho--
hop--
hor--
hot--
house--
hr--
hs--
ht--
html--
hu--
hua--
hum--
hurr--
hus--
hutt--
huy--
hy--
hydr--
hyper--
i--
ia--
ib--
ic--
icon--
id--
ie--
if--
ig--
ii--
ik--
il--
illu--
im--
image--
imp--
impri--
in--
inaug--
inc--
increa--
ind--
india--
indian--
ine--
influ--
info--
infra--
ing--
inju--
int--
integ--
inter--
inv--
inven--
io--
ip--
ir--
is--
isnum--
iso--
issu--
ist--
istem--
it--
iu--
iv--
ix--
iz--
j--
ja--
jall--
jam--
jan--
jar--
je--
jha--
ji--
jo--
json--
ju--
jud--
k--
ka--
kai--
kala--
kall--
kam--
kan--
kar--
kara--
kari--
kb--
ke--
ken--
ker--
key--
kg--
kh--
kha--
khe--
khi--
kho--
khu--
khy--
ki--
kilo--
kim--
kir--
kiri--
kit--
kl--
km--
kn--
ko--
koi--
kok--
kol--
kom--
kon--
kor--
kra--
kre--
kri--
kro--
kt--
ku--
kuni--
kw--
kwa--
ky--
l--
la--
label--
lac--
lak--
lal--
land--
lang--
last--
lat--
lax--
lb--
lccn--
le--
leaf--
left--
leg--
leh--
leo--
let--
lew--
lex--
lh--
li--
lib--
life--
light--
line--
link--
list--
lit--
ll--
lo--
load--
lod--
log--
lok--
lon--
long--
lookup--
lower--
lp--
ls--
lu--
lua--
ly--
m--
ma--
mac--
mad--
madu--
mag--
mah--
maha--
mai--
main--
mak--
make--
mal--
mam--
man--
map--
mar--
mara--
marga--
mark--
mary--
mas--
mask--
max--
maza--
mb--
mbe--
mc--
md--
me--
med--
medal--
medic--
mega--
mel--
men--
mer--
meso--
mess--
met--
meta--
meteoro--
mf--
mg--
mh--
mi--
micro--
mid--
mig--
mil--
min--
mira--
mis--
mit--
mix--
ml--
mm--
mn--
mo--
mod--
moha--
mohini--
mol--
mom--
mon--
mono--
mor--
morpho--
mos--
mou--
mp--
ms--
mt--
mtv--
mu--
multi--
mun--
munis--
mv--
mw--
my--
n--
na--
nam--
name--
nan--
nar--
nav--
naz--
nd--
ne--
nee--
neighb--
neo--
new--
news--
nex--
next--
ng--
nga--
nge--
ngo--
nh--
ni--
nic--
nil--
nine--
nj--
nku--
nn--
no--
node--
nom--
non--
nonil--
nor--
normal--
not--
nr--
nritya--
ns--
nt--
nu--
num--
nut--
ny--
nz--
o--
obs--
obser--
oc--
occas--
octil--
od--
odd--
of--
off--
og--
oh--
ok--
ol--
old--
olu--
om--
on--
one--
op--
open--
oppo--
or--
ord--
org--
orissa--
oro--
os--
osm--
ott--
ou--
out--
over--
oxy--
oz--
p--
pa--
pad--
pag--
pak--
pal--
pam--
pan--
par--
para--
param--
parse--
pass--
pat--
pav--
pay--
pe--
pen--
per--
person--
ph--
pha--
phary--
phono--
photo--
phu--
phy--
physi--
pi--
pic--
picto--
pie--
pili--
pl--
play--
pm--
pn--
pneu--
po--
pol--
pop--
port--
pos--
post--
pot--
pp--
pr--
pra--
pre--
preoc--
prerequi--
prev--
pri--
prim--
princ--
print--
pro--
prop--
ps--
psycho--
pu--
pur--
put--
px--
py--
q--
qu--
qui--
quintil--
quo--
quote--
r--
ra--
rac--
rad--
radio--
rai--
raj--
ram--
rama--
rank--
rankby--
rash--
rat--
raw--
rd--
re--
read--
rece--
red--
ref--
reg--
rel--
rem--
render--
rep--
req--
res--
respell--
rest--
result--
ret--
rev--
rhi--
rho--
ri--
rm--
ro--
road--
roos--
row--
rr--
rs--
rt--
ru--
rup--
rus--
s--
sa--
sah--
sai--
sal--
sam--
san--
sandbox--
sar--
sass--
sat--
sc--
scat--
sco--
sd--
se--
sea--
search--
sec--
second--
see--
self--
seme--
semi--
sen--
sep--
septil--
ser--
series--
set--
sextill--
sf--
sh--
sha--
she--
shi--
shiv--
sho--
show--
shu--
si--
sic--
sid--
sig--
sight--
sign--
sil--
sin--
sir--
site--
six--
sk--
skip--
sl--
sla--
sm--
small--
smart--
sn--
so--
soc--
socio--
sol--
som--
son--
sort--
sound--
sp--
spec--
spell--
spo--
spra--
sq--
squa--
sr--
sri--
ss--
st--
sta--
ste--
sti--
str--
strati--
strip--
stu--
su--
sub--
sum--
sun--
sup--
super--
sur--
sus--
sv--
svo--
sw--
sy--
sylh--
syll--
sylv--
sym--
syn--
t--
ta--
tab--
table--
tag--
tai--
tal--
tan--
tar--
tas--
taxon--
tb--
tc--
td--
te--
tea--
tele--
tem--
temp--
ten--
ter--
tetra--
tex--
text--
th--
tha--
the--
thir--
this--
thom--
thu--
thumb--
ti--
tim--
time--
tiru--
title--
tl--
tlaco--
tm--
tn--
to--
toc--
toi--
tok--
ton--
top--
tor--
tra--
trans--
tre--
tri--
trim--
true--
trun--
ts--
tt--
tu--
tung--
tur--
tw--
ty--
type--
typo--
u--
ua--
ud--
ug--
ui--
uk--
ul--
ultra--
um--
un--
una--
und--
under--
unit--
unp--
unz--
up--
upper--
ur--
uri--
url--
us--
use--
user--
uses--
uv--
v--
va--
vai--
val--
van--
vanno--
var--
varie--
ve--
veget--
ven--
vent--
ver--
veter--
vi--
vidy--
view--
viewedit--
vir--
vla--
vo--
vocabu--
vol--
vs--
vu--
w--
wa--
wai--
waka--
wan--
want--
war--
way--
wd--
we--
web--
wet--
wh--
wic--
wik--
wiki--
win--
wir--
wit--
with--
wo--
work--
world--
wp--
wu--
wy--
x--
xav--
xe--
xml--
xp--
xx--
y--
ya--
yaxis--
ye--
year--
yi--
yo--
yu--
z--
za--
zem--
zh--
zi--
zoo--
zoro--
zu--
æ--
đ--
ŋ--
ɔ--
ə--
ɡ--
ɪ--
м--
с--
т--
ا--
ال--
الس--
ب--
خ--
س--
ض--
ع--
م--
अ--
आ--
इ--
उ--
ए--
क--
ख--
ग--
च--
ज--
ड--
त--
द--
ध--
न--
प--
ब--
भ--
म--
य--
र--
ल--
व--
श--
स--
ह--
२००--
অ--
আ--
ই--
উ--
এ--
ও--
ক--
খ--
খক--
গ--
চ--
ছ--
জ--
ট--
ড--
ণ--
ত--
থ--
দ--
দক--
ধ--
ন--
প--
ফ--
ব--
ভ--
ম--
য--
র--
ল--
শ--
ষ--
স--
হ--
০--
১--
১৯--
২--
২০--
৩--
৭--
৮--
ৰ--
ৱ--
ଅ--
ଆ--
ଇ--
ଉ--
ଉପ--
ଏ--
କ--
ଖ--
ଗ--
ଚ--
ଜ--
ତ--
ଦ--
ନ--
ପ--
ବ--
ମ--
ର--
ଲ--
ଳ--
ଶ--
ଷ--
ସ--
ହ--
ୟ--
୦--
୧୯--
୧୯୯--
୨--
୨୦--
ୱ--
ᱚ--
ᱚᱛ--
ᱚᱛᱷ--
ᱚᱜ--
ᱚᱜᱽ--
ᱚᱝ--
ᱚᱞ--
ᱚᱞᱟ--
ᱚᱞᱤ--
ᱚᱠ--
ᱚᱠᱚ--
ᱚᱠᱟ--
ᱚᱠᱷ--
ᱚᱡ--
ᱚᱡᱽ--
ᱚᱢ--
ᱚᱢᱨᱟ--
ᱚᱣ--
ᱚᱥ--
ᱚᱥᱨ--
ᱚᱥᱴ--
ᱚᱦ--
ᱚᱦᱚ--
ᱚᱧ--
ᱚᱨ--
ᱚᱨᱛᱷ--
ᱚᱨᱛᱷᱚ--
ᱚᱨᱤ--
ᱚᱪ--
ᱚᱪᱚ--
ᱚᱫᱷ--
ᱚᱫᱷᱤ--
ᱚᱬ--
ᱚᱭ--
ᱚᱯ--
ᱚᱯᱚᱨ--
ᱚᱯᱟᱨᱮ--
ᱚᱯᱩᱨ--
ᱚᱯᱷ--
ᱚᱱ--
ᱚᱱᱚ--
ᱚᱱᱚᱱᱛ--
ᱚᱱᱟ--
ᱚᱱᱩ--
ᱚᱱᱫᱷ--
ᱚᱱᱱᱚ--
ᱚᱲ--
ᱚᱴᱚ--
ᱚᱵ--
ᱚᱵᱚ--
ᱚᱵᱷ--
ᱚᱵᱷᱤ--
ᱚᱵᱽ--
ᱚᱸ--
ᱚᱸᱡᱽ--
ᱚᱼ--
ᱛ--
ᱛᱚ--
ᱛᱚᱛ--
ᱛᱚᱞ--
ᱛᱚᱠ--
ᱛᱚᱢ--
ᱛᱚᱥ--
ᱛᱚᱨ--
ᱛᱚᱯ--
ᱛᱚᱱ--
ᱛᱟ--
ᱛᱟᱛ--
ᱛᱟᱞ--
ᱛᱟᱞᱟ--
ᱛᱟᱞᱟᱼ--
ᱛᱟᱠ--
ᱛᱟᱢ--
ᱛᱟᱣ--
ᱛᱟᱥ--
ᱛᱟᱦ--
ᱛᱟᱨ--
ᱛᱟᱨᱟ--
ᱛᱟᱭ--
ᱛᱟᱯ--
ᱛᱟᱱ--
ᱛᱟᱸ--
ᱛᱟᱹ--
ᱛᱤ--
ᱛᱤᱛ--
ᱛᱤᱞ--
ᱛᱤᱥ--
ᱛᱤᱨ--
ᱛᱤᱨᱤ--
ᱛᱤᱨᱩ--
ᱛᱤᱱ--
ᱛᱤᱵ--
ᱛᱥ--
ᱛᱦᱤ--
ᱛᱨᱤ--
ᱛᱩ--
ᱛᱩᱝ--
ᱛᱩᱢ--
ᱛᱩᱸ--
ᱛᱮ--
ᱛᱮᱞ--
ᱛᱮᱡ--
ᱛᱮᱦ--
ᱛᱮᱨ--
ᱛᱮᱱ--
ᱛᱮᱸ--
ᱛᱳ--
ᱛᱷ--
ᱛᱷᱚ--
ᱛᱷᱚᱨ--
ᱛᱷᱟ--
ᱛᱷᱟᱨ--
ᱛᱷᱟᱹ--
ᱛᱷᱤ--
ᱛᱷᱩ--
ᱛᱷᱮ--
ᱛᱷᱳ--
ᱜ--
ᱜᱚ--
ᱜᱚᱝᱜᱟ--
ᱜᱚᱞ--
ᱜᱚᱡ--
ᱜᱚᱢ--
ᱜᱚᱣ--
[...]
