!
"
#
##0
##1
##10
##11
##12
##13
##14
##15
##16
##17
##18
##19
##2
##20
##21
##22
##23
##24
##25
##26
##27
##28
##29
##3
##30
##31
##32
##33
##34
##35
##36
##37
##38
##39
##4
##40
##41
##42
##43
##44
##45
##46
##47
##48
##49
##5
##50
##51
##52
##53
##54
##55
##56
##57
##58
##59
##6
##60
##61
##62
##63
##64
##65
##66
##67
##68
##69
##7
##70
##71
##72
##73
##74
##75
##76
##77
##78
##79
##8
##80
##81
##82
##83
##84
##85
##86
##87
##88
##89
##9
##90
##91
##92
##93
##94
##95
##96
##97
##98
##99
$
%
&
'
(
)
*
+
,
-
.
/
0
00
000
0000
0003
001
002
004
005
007
01
013
0140
018
02
021
03
033
034889
04
046
05
050
052
059
06
07
074
08
083
087
09
092
097
0971
1
10
100
1000
1002
10050
1007
101
1016
1017
102
103
104
105
1057
106
10603
107
1075
108
1080
109
1093
11
110
1100
111
1111
1113
1116
1118
1119
112
1126
113
114
115
1154
116
117
1177
118
1186
119
12
120
1200
121
122
123
124
125
126
127
128
129
13
130
13000
1305
1308
131
1315
132
133
134
135
136
1368
137
1370
1371
138
139
1399
14
140
141
1410
1412
142
143
1437
144
145
146
147
1470
1471
148
1485
149
15
150
1500
151
1515
1516
152
1526
153
154
155
1558
156
157
158
1580
1589
159
16
160
1600
161
1617
162
1629
163
1630
1634
164
1640
1644
165
1650
1654
166
167
1670
168
169
17
170
1700
1701
1704
1707
1714
172
1720
173
174
175
1750
1752
1757
1759
176
1763
1764
177
178
1789
179
18
180
1800
18000
1801
1802
1803
1805
1814
1818
182
1824
183
1830
1832
1834
184
1842
1847
1848
185
1850
1852
1853
1857
1858
186
1861
1863
1865
1867
1868
187
1870
1871
1872
1873
1874
1875
1878
188
1883
1884
1885
1886
1887
1888
1889
189
1890
1892
1895
1896
1897
1898
1899
19
190
1900
1901
1902
1903
1904
1905
1906
1908
1909
191
1910
1911
1912
1913
1914
1915
1916
1917
1918
1919
192
1920
1921
1922
1923
1924
1925
1926
1928
1929
193
1930
1931
1932
1933
1934
1935
1936
1937
1938
1939
194
1940
1941
1942
1943
1944
1945
1946
1947
1948
1949
195
1950
1951
1952
1953
1954
1955
1956
1957
1958
1959
196
1960
1961
1962
1963
1964
1965
1966
1967
1968
1969
197
1970
1971
1972
1973
1974
1975
1976
1977
1978
1979
198
1980
1981
1982
1983
1984
1985
1986
1987
1988
1989
199
1990
1991
1992
1993
1994
1995
1996
1997
1998
1999
2
20
200
2000
20000
2001
2002
2003
2004
2005
2006
2007
2008
2009
201
2010
2011
2012
2013
2014
2015
2016
2017
2018
2019
202
2020
2021
2022
203
204
205
206
207
2075
208
209
21
210
2107
211
212
214
216
217
218
219
22
220
221
223
224
225
226
227
228
229
23
230
2307
231
232
233
235
236
237
239
24
240
242
243
244
245
246
247
248
249
25
250
251
252
2524
253
255
256
257
258
259
26
260
261
262
263
264
265
266
2667
267
269
27
270
271
272
273
274
275
278
28
280
281
282
283
284
285
286
287
29
290
291
297
3
30
300
3000
301
302
303
304
305
307
308
309
31
310
312
313
314
315
316
3166
317
318
319
32
32000
321
322
323
328
33
33000
332
333
335
336
338
339
34
34000
341
342
346
35
350
3500
351
352
353
355
357
36
360
361
363
364
365
366
367
37
370
372
373
374
375
377
379
38
380
381
383
389
39
390
393
394
395
398
4
40
400
401
402
404
405
408
41
410
411
412
415
4167
417
419
42
420
422
424
427
428
43
433
434
4387
44
445
447
45
450
453
457
46
460
469
47
470
47000
471
475
479
48
482
4833
489
49
495
5
50
500
501
502
505
51
516
517
518
52
520
52000
521
525
5281
53
533
534
535
54
540
55
550
55000
551
557
56
562
563
564
565
567
57
571
574
576
58
582
585
59
591
593194
595
596
598
6
60
600
602
61
618
62
625
626
627
63
632
633
637
639
64
640
642
65
651
66
661
665
6667
667
668
67
670
67000
672
6736
677
68
683
684
69
690
691
7
70
700
70000
7017
7022
705
708
709
7099
71
710
711
715
7167
717
72
720
7223
73
7387
739
74
740
74059
741
75
750
751
76
760
764
768
77
771
78
783
7835
786
79
7914
794
797
8
80
800
81
814
82
825
826
83
83000
8324
833
84
843
845
848
8493
85
850
85000
852
86
860
867
87
87000
88
883
886
89
890
897
9
90
900
9000
91
911
917
92
924
93
934
94
94000
95
950
955
96
960
967
97
978
9780978951702
9781787011991
9788170993810
9788180697999
98
980
981
983
984
989
99
994
999
:
;
<
=
>
?
@
[
\
]
^
_
`
a
aa
aai
aaj
aamir
aamna
aap
aarogya
aaron
aaryan
aashna
ab
ababa
abanindranath
abbreviation
abbreviations
abc
abdul
abe
abhay
abhinav
abhishek
abida
abigail
abish
abkhaz
abkhazia
abkhazian
ablaze
aboriginal
about
above
abp
abplive
abraham
abroad
abs
absolute
abstract
abu
abul
abuse
ac
acade
academi
academia
academic
academy
accents
access
accessdate
accessed
according
account
accounts
accreditation
accredited
accused
acetaminophen
acharius
acharya
achieved
achievement
achievements
acid
acquired
acquires
acquisition
across
act
acted
acting
action
active
activist
activists
activities
activity
actor
actors
actress
actresses
acts
acute
ad
ada
adam
adams
adaptation
adcc
add
added
addis
addition
additional
address
adherents
adi
adilabad
aditi
aditya
adityanath
adityapur
adivaani
adivasi
adivasis
adjacent
admin
administered
administration
administrative
admission
adolf
adopted
adrian
adult
adults
advanced
advances
advani
adventure
advice
advisory
adyghe
ae
aegypti
aero
aerospace
af
affair
affairs
affidavit
affiliated
afghan
afghanistan
africa
african
afrikaans
afro
aftab
after
ag
aga
again
against
agama
agardh
agartala
agarwal
agatha
age
aged
agencies
agency
agenda
agent
ages
aggarwal
agglomeration
agglomerations
agnes
ago
agp
agra
agrawal
agreement
agreements
agricultural
agriculture
agroforestry
ah
ahead
ahluwalia
ahmad
ahmed
ahmedabad
ahmednagar
ahom
ai
aiadmk
aicte
aid
aided
aids
ailaan
ailurus
aim
aims
air
aires
airport
airports
ais
aishwarya
aiswa
aiton
aiudf
aizawl
ajay
ajit
ajith
ajk
ajmer
ak
aka
akademi
akan
akane
akbar
akhil
akhilesh
akhtar
akkineni
akshara
akshay
akshaya
al
alam
alan
alappuzha
alaska
alba
albania
albanian
albert
albrecht
album
albums
aldo
alex
alexa
alexander
alexis
alfred
algae
algarum
algebra
algeria
ali
alia
alias
aliases
alif
aligarh
alighieri
alive
all
allah
allahabad
allen
alliance
allie
allied
allindiaaseca
allioni
allocation
allowed
allows
allu
alluvial
almanac
almora
almost
alo
alone
along
alongside
alpha
alphabet
alphabetical
alphabets
alpini
also
alsos
alt
altaic
alternative
alternatives
although
altitude
alumni
alwar
always
am
amala
amar
amaravati
amarujala
amazing
amazon
ambadih
ambala
ambani
ambassador
ambassadors
ambedkar
amendment
amendments
america
american
americas
amethi
amharic
ami
amid
amin
amir
amit
amita
amitabh
amjad
amman
amnesty
among
amp
amputee
amravati
amrita
amritsar
amroha
amsterdam
amul
amundsen
an
anal
analects
analysis
analyst
analytical
anand
ananda
anandabazar
anandiben
ananta
anantnag
ananya
anarchism
anatomy
ancestry
anchor
ancient
and
andaman
andersen
anderson
andes
andhra
andorra
andre
andrew
andrews
android
andy
angel
angela
angeles
angika
anglo
angola
ani
anil
anima
animal
animals
animated
animation
anisa
anita
anjali
anjana
anjou
anju
anjum
ankit
ankita
ann
anna
annals
anne
annexure
anniversary
annotated
announce
announced
announcement
announces
annual
another
anshuman
ansi
answers
ant
antagonist
antarctica
anterior
anthem
anthology
anthony
anthropological
anthropology
anti
antigua
antique
antiquity
anton
ants
anu
anugrah
anuj
anupama
anuradha
anurag
anushka
any
ao
ap
apa
aparna
apart
apertium
aph
apj
app
appearance
appearances
appeared
appendix
apple
application
applications
applied
apply
appointed
appointment
appoints
appreciation
approach
approval
approved
approves
approximately
apps
apr
april
apsrtc
apte
apu
apurvi
aquatic
ar
ara
arab
arabia
arabic
arak
arakan
aramaic
arber
arc
arch
archaeological
archaeology
archana
archer
archery
archieve
archimedes
architect
architectural
architecture
archival
archive
archived
archivedate
archives
archiveurl
arctic
are
area
areas
argentina
argument
arifin
aris
arisa
aristocratic
aristotle
arithmetic
ariyalur
arizona
arjun
arjuna
arkive
arm
arma
armani
armed
armenia
armenian
arms
army
arnab
arnold
aromanian
arora
around
arranged
arrest
ars
art
arthur
article
articles
articleshow
artificial
artist
artiste
artistes
artistic
artists
artocarpus
arts
artsakh
aruba
arun
aruna
arunachal
arundhati
arunima
arvind
arxiv
arya
aryan
aryennes
as
asansol
asante
asean
aseca
asha
ashgabat
ashish
ashok
ashraf
ashram
ashton
ashwani
ashwini
asia
asian
asiatic
asin
asked
asks
asp
aspect
aspects
aspx
assam
assamassembly
assamese
assault
assembly
assessment
assets
assistant
associated
associates
association
asteroid
asthana
astrazeneca
astronaut
astronomical
astronomy
asturian
asturiana
asuri
at
atal
atha
athens
athlete
athletes
athletics
atikamekw
atkins
atlantic
atlas
atm
atmospheric
atom
attack
attacks
attempt
attraction
attractions
attribute
attributed
atul
au
auction
audience
audio
auflage
aug
august
augustus
aung
aur
aurangabad
auritra
aurora
austin
australia
australian
austria
austrian
austro
austroasiatic
austronesian
authentic
author
authorities
authority
authorization
authorlink
authors
auto
autobiography
autocollapse
automated
automatic
autonomous
autonomy
autumn
available
avani
avar
avatar
avenue
average
averages
avian
aviation
avinash
avn
aw
awadhi
awaran
award
awarded
awardee
awardees
awards
awareness
awasthi
away
axis
ayarzagu
ayesha
aymara
ayurved
ayurveda
ayush
ayushmann
az
azad
azamgarh
azerbaijan
azerbaijani
b
ba
baaghi
baahubali
baat
bab
baba
babar
babasaheb
babu
babulal
baby
bach
bachchan
back
background
backward
bad
badampahar
badan
badgan
badminton
bag
bagdega
bagerhat
bageshwar
bagh
bagheli
bagri
bags
bahadur
bahadurgarh
bahamas
baharagora
bahasa
bahiri
bahraich
bahrain
bai
baig
baisali
bajpai
baker
baku
bal
bala
balan
balance
balangir
balasore
baleswar
bali
balika
balinese
baliye
ball
ballet
baloch
balochistan
balochistanpolice
balrampur
baltistan
bambara
ban
banana
banaras
banarsidass
band
bandar
bandarban
bandh
bandipur
bandit
bandung
banerjee
bang
banga
bangalore
bangkok
bangla
bangladesh
banglapedia
banjan
bank
banking
banks
bankura
banned
baptist
bar
barack
barak
baramulla
barat
barbara
barbuda
barcelona
bardhaman
bare
bareilly
bareli
bargarh
baripada
barmer
barn
baron
barrier
bartika
barua
basanti
base
based
baseline
bash
basho
basic
basics
basin
basis
baskaran
baskey
basque
bastion
basu
bat
bathinda
bathla
batteries
batting
battle
battles
bauer
baul
bay
bazar
bb
bbc
bbmp
bc
bcci
bce
bcrec
bd
be
beach
bear
beat
beaten
beating
beatles
beats
beautiful
beauty
became
because
become
becomes
becoming
bedi
bee
beed
been
beenamol
bees
before
began
begin
beginner
beginners
beginning
beginnings
begins
begum
behar
behari
behavior
behera
behind
behindwoods
beijing
being
beirut
belagavi
belarusian
belgaum
belgium
belief
beliefs
believe
belize
bell
bellary
belly
belong
belongs
below
belt
ben
benares
bench
benefits
bengal
bengali
bengaluru
benin
benjamin
benjamins
bennett
berger
berhampur
berkeley
berlin
bernard
berners
besra
best
beta
betla
bettel
better
betul
between
beyond
bf
bg
bh
bhagabati
bhagalpur
bhagat
bhagwat
bhai
bhaji
bhaker
bhaktivedanta
bhalla
bhanushali
bharat
bharata
bharatanatyam
bharatdwaj
bharati
bharatiya
bharatpur
bhargava
bharia
bharti
bhartiya
bharucha
bhasa
bhasha
bhaskar
bhat
bhate
bhatia
bhatt
bhattacharya
bhavan
bhavana
bhavnagar
bhawan
bhilai
bhilwara
bhim
bhimber
bhimrao
bhojpuri
bhopal
bhubaneswar
bhulekh
bhumika
bhushan
bhutan
bi
bibaha
bibcode
bibi
bible
biblical
bibliography
bicol
bid
big
bigg
biggest
bih
bihar
bihari
biharprabha
bihu
bijapur
bijnor
bijori
biju
bikaner
bikol
bilaspur
bilingual
bill
billboard
billion
billionaire
bills
bin
bio
biodata
biodiversity
biogas
biografiskt
biographical
biographies
biography
biological
biology
biopic
bioprofile
biosphere
biotechnology
bipin
bipolar
bir
birbal
birbhum
bird
birdlife
birds
birhor
birmingham
birsa
birsha
birth
birthday
birthplace
bishnubati
bishnupriya
bishnupur
bishop
bishwanath
bislama
bismarck
bissau
biswa
biswal
biswas
bit
bitstream
biz
bjd
bjp
bjym
bl
black
blackswan
blackwell
bladder
blair
blank
blasi
ble
blench
blessed
blica
blind
block
blocks
blog
blogs
blogspot
blood
bloomberg
bloomington
bloomsbury
blue
bmc
bmj
bn
bner
bo
board
bob
bobby
boca
bodding
bodies
bodo
bodoland
body
bogra
boishakh
bokaro
bokma
bol
bold
bolivia
bollywood
bollywoodhungama
bolpur
bombay
bombayla
bonaparte
bond
bone
book
booklet
books
booksources
boom
boost
border
borders
borges
born
borneo
boron
bose
boseman
bosnia
bosnian
boss
boston
bot
botad
botanic
botanical
botany
both
botswana
boulder
bound
boundaries
boundary
bourbon
bowling
bows
box
boxer
boxid
boxing
boxofficeindia
boy
boyfriend
boys
bps
br
bradley
brahma
brahmaputra
brahmi
brahmo
brain
branch
branches
brand
brandenburg
brands
brandt
brar
brasil
brass
brave
brazil
brazilian
break
breakfast
breaking
breaks
breeding
breizh
breton
brgf
brian
bridge
bridges
brief
brill
bring
brings
britain
britannia
britannica
british
broad
broadcast
broadcasting
brochure
broken
bronze
brookings
brother
brotherhood
brothers
brought
brown
browse
browser
browsers
bruce
brunei
bsnl
bsp
btc
bu
buddha
buddhism
buddhist
budget
buenos
build
building
buildings
built
bulandshahr
bulbul
bulgaria
bulgarian
bullet
bulletin
burden
burdwan
bureau
burhanpur
buri
buriat
burj
burkina
burma
burman
burmese
burn
burundi
buryat
bus
business
businessline
businesstoday
busy
but
butler
butter
butterflies
butterfly
button
buttons
buxar
buys
buzz
bwf
bwfbadminton
bwfworldchampionships
by
byron
bɑ
c
ca
cabinet
caccessdate
cachar
cadet
caesar
caillat
cairo
calcium
calcutta
calendar
calicut
california
caliphate
call
called
calling
calls
cambodia
cambodian
cambridge
came
camelus
cameo
camera
cameroon
camp
campaign
campbell
can
canada
canadian
canal
canberra
cancelled
cancer
candidate
candidates
cane
cannes
cannot
canon
cantonese
canvas
cap
capacity
cape
capital
capitalism
capitalist
capra
captain
captains
caption
capture
car
caravan
carbon
card
cards
care
career
caribbean
carl
carlo
carolina
carrying
carryminati
carter
carved
case
cases
cash
cashew
cast
castan
caste
castes
casting
castroviejo
cat
catalan
catalana
catalog
catalogue
catch
categories
category
catherine
catholic
catid
cats
caucasian
caucasus
cause
caused
causes
cave
caves
cb
cbignore
cbs
cbse
cc
ccl
cd
cdc
cdp
ce
cebuano
ceiling
celebrate
celebrated
celebrates
celebrating
celebration
celebrations
celebrities
celebrity
celebs
cell
cells
cement
cemetery
cengage
censo
census
censusindia
cent
centenary
center
centers
central
centre
centres
centrolenidae
centuries
century
cenus
ceremony
certificate
cervantes
ceylon
cf
cgi
ch
cha
chadwick
chai
chairman
chairperson
chaitanya
chakma
chakra
chakrabarti
chakraborty
chakravarti
challenge
challenges
cham
chamba
chamber
chambers
chamorro
champa
champai
champhai
champion
champions
championship
championships
chanakya
chance
chancellor
chanchlani
chand
chandaka
chandan
chandela
chandigarh
chandil
chandra
chandran
chandrapur
chandrasekhar
chandrayaan
chandrika
chang
change
changed
changer
changes
changing
channel
channels
chano
chanu
chapel
chaplin
chapra
chapter
chapterurl
character
characteristics
characters
charan
charge
charges
charity
charles
charlie
charlotte
chart
charter
charts
chasing
chat
chatra
chatrath
chatterjee
chatterji
chattopadhyay
chaturvedi
chaudhary
chauhan
chauth
chavacano
chawla
che
chechen
check
checker
chekhov
chemical
chemicals
chemist
chemistry
chemotherapy
chen
chennai
cherokee
chess
chessbase
chetan
cheyenne
chhattisgarh
chhillar
chhindwara
chi
chicago
chichewa
chief
chiefs
chiki
child
childhood
children
chile
chilika
chin
china
chinchwad
chinese
chinna
chisholm
chitarpur
chitra
chitrakoot
chittagong
chittoor
choctaw
choice
cholera
chomsky
chongqing
choose
chopra
choreographer
choreography
chosen
chota
chotanagpur
choudhary
choudhury
chowdhary
chowdhury
chris
christ
christian
christianity
christians
christmas
christophe
christopher
chrome
chronicle
chronological
chronology
chu
churachandpur
church
churchill
chuvash
ci
cia
cid
cine
cinema
cinemas
cineplot
cinestaan
circa
circassian
circle
circles
circuit
circulation
circus
cis
citaristi
citation
citations
cite
cited
cities
citing
citizen
citizens
citizenship
citrus
city
citypincode
citypopulation
civil
civilian
civilization
civilizational
civilizations
cj
cji
claim
claimed
claims
clarendon
clash
class
classes
classic
classical
classics
classification
classified
claudius
claus
clay
clean
cleanest
clear
cleared
clears
clerk
click
climat
climate
climatological
climb
clin
clinch
clinches
clinical
clinton
clio
clip
clipping
clips
clock
close
closer
clothing
cloud
clouds
club
cluster
cm
cms
cn
cnn
cnrs
co
coach
coal
coast
coastal
coat
coauthors
cochin
code
codes
coffee
coimbatore
coin
coins
coke
col
cola
cold
cole
coleman
colin
collapsed
collapsible
collar
collected
collection
collections
collector
collectorate
collectors
college
colleges
collins
colloquial
cologne
colombia
colombo
colonel
colonial
colonialism
colony
color
colorado
colorful
colors
colours
columbia
columbus
column
columns
com
comb
combat
combination
combined
combs
come
comeback
comedian
comedy
comes
comic
coming
comirnaty
command
commander
commentary
commerce
commercial
commission
commissioner
commissionerate
committee
commodity
common
commonly
commons
commonwealth
communal
communication
communications
communique
communist
communities
community
como
comoros
companies
companion
company
comparative
compare
compared
comparison
competition
compilation
compiled
completae
complete
completed
completely
completes
complex
components
composer
composition
comprehensive
comprising
compromise
computer
computing
con
concave
concept
concepts
concern
concerning
concert
concise
conclave
condition
conditioning
conditions
confederation
conference
conferred
confirmed
confirms
conflict
confucius
cong
congo
congress
connected
connecticut
connection
connections
connor
conquered
conquest
conscience
consecutive
consent
conservation
consider
considered
considers
consists
consolidated
consonant
consonants
consortium
constable
constance
constituencies
constituency
constituent
constituents
constitution
constitutional
construction
consulate
consultant
consumer
contact
containing
contains
contemporary
content
contest
contestant
context
continent
continue
continued
continues
continuum
contract
contribution
contributions
contributors
control
controlled
controversy
convent
convention
conversation
conversion
convert
converter
cooch
cook
cooking
cooper
cooperation
coord
coordinates
copy
corbett
corbusier
cord
core
cornell
cornish
cornwall
corona
coronavirus
corp
corporate
corporation
corporations
corps
corpus
correct
correspondence
correspondent
corresponding
corridor
corruption
cosmo
cosmoglotta
cost
costa
cotton
could
council
count
counter
counting
countries
country
countrymeters
counts
county
couple
course
courses
court
courtarchived
courts
cov
cover
coverage
covering
covid
cox
cpec
cpi
cpublisher
cr
crack
crafts
craig
crash
crazy
crc
cream
create
created
creates
creation
creative
credit
cree
creek
creole
crescent
crew
cricinfo
cricket
cricketarchive
cricketer
cricketers
crime
crimea
crimean
crimes
criminal
crisis
cristiano
critic
critical
criticism
critics
critique
croatia
croatian
crocodile
crocodylus
crop
crops
crore
cross
crosses
crown
crowned
cruz
cs
cse
ct
ctitle
cu
cuba
cuddalore
cuisine
cult
cultural
culture
cultures
cum
cunningham
cuny
cup
curie
curlie
currency
current
currently
currentnews
curriculum
custom
customs
cut
cuttack
cwebsite
cwg
cwork
cy
cycle
cyclone
cyear
cynthia
cyprus
cyrillic
cz
czech
d
da
dad
dada
dadra
dagar
dahar
dai
daily
dailyhunt
dailypioneer
dainik
dakota
dal
dalai
dalal
dali
dalit
dallas
dalma
dam
daman
damascus
damayanti
dame
damodar
dan
danapur
dance
dancer
dancers
dances
dancing
danger
dangerous
daniel
danish
dans
danseuse
dante
dari
darjeeling
dark
darshan
darshana
dartmouth
darussalam
darwin
das
dasa
dasgupta
dash
dashboard
dashrath
dassam
data
database
dataset
date
dated
dates
datia
dating
datta
daughter
daughters
dav
dave
david
davis
dawn
day
dayal
dayawanti
days
db
dc
dchb
dd
ddw
de
dead
deadurl
deaf
deal
dean
death
deaths
debagram
debashree
debasree
debate
debates
debut
debuts
dec
decadal
decade
decades
deccan
deccanchronicle
deccanherald
december
decided
decision
decker
decks
declaration
declarations
declared
declares
decline
decree
dedicated
deep
deepak
deepika
deer
default
defeat
defeated
defeating
defence
defending
defense
defined
definition
definitions
definitive
deforestation
degree
degrees
dehradun
deignan
del
delaware
delhi
delimitation
delivered
delivers
dell
della
delonix
delta
demand
demands
democracy
democratic
demographia
demographic
demographics
demography
demystifying
den
denied
denmark
dennis
densely
density
deo
deol
department
departments
dependent
depot
deprecated
dept
depth
deputy
der
derek
derived
des
desai
desalination
descartes
descending
descent
described
description
descriptions
descriptive
desert
desh
deshmukh
deshpande
desi
design
designed
designs
desirable
desire
desk
despite
desraj
destination
destinations
detail
detailed
details
determination
determined
deuli
deutsch
deutsche
deutscher
dev
devanagari
develop
developed
developers
developing
development
developmental
developments
deverakonda
devgn
devi
device
devika
devil
dewas
dey
df
dff
dha
dhabi
dhai
dhaka
dhalai
dhamtari
dhanbad
dhanush
dhar
dharitri
dharma
dharmendra
dharwad
dhawan
dhemaji
dhenkanal
dhirubhai
dhivehi
dhoni
dhsodisha
dhule
dhvani
dhyan
di
dia
dialect
dialectes
dialects
dialogues
diamond
diaries
diary
dibrugarh
diccionari
diccionario
dictionaries
dictionary
dictionnaire
did
didn
die
died
diego
dies
diet
dietrich
difference
differences
different
difficult
digangana
digha
digital
digitized
dignity
dikhhla
dikshit
dil
dilbar
dili
dilip
dimensions
din
dinajpur
dindigul
dinka
dinosaurs
diocese
dipak
diplomacy
diplomat
dipr
direct
directed
direction
directly
director
directorate
directors
directory
dis
disabilities
disambiguation
disaster
disc
discourse
discover
discovered
discoveries
discovery
discuss
discussion
disease
diseases
disha
disney
dispersal
display
displayed
displaystyle
dispur
dispute
disputed
dissanayake
dissertation
dist
distance
distinguished
distrct
distribution
distributors
district
districtcensus
districts
ditions
diu
diverse
diversity
divided
divine
division
divisional
divisions
divorce
divya
dixit
diya
dj
dk
dl
dlb
dm
dmk
dmoz
dna
dnaindia
do
doc
docs
doctor
doctorate
doctors
document
documentary
documentation
documenting
documents
doda
dodo
does
doesn
dog
dogra
dogri
doha
doi
doing
doll
dollar
dolphin
domain
domestic
dominant
dominate
dominated
don
donald
done
dong
doordarshan
doraemon
dordenma
dos
dosa
doses
dost
double
doubles
douglas
dover
down
download
downloadable
dp
dpr
dprk
dq
dr
draft
dragon
drainage
drama
dravidian
draw
drawing
drawings
draws
dream
dreams
dried
driem
drikpanchang
drink
drive
driving
dronacharya
dropped
drops
drug
drugs
dry
dryer
ds
dsal
du
dual
dubai
dubbed
dubey
dubyne
due
duke
dulal
dumka
dumri
dungarpur
dunhuang
dunya
duplicates
durg
durga
durgapur
during
durrani
dutch
dutee
duties
dutt
dutta
dvd
dy
dying
dynamics
dynasties
dynasty
dz
dzongkha
dɑ
dɪkʃənəri
e
each
eam
ear
earlier
earliest
early
earned
earth
earthquake
east
eastern
easy
eat
eb
ebchecked
eberhard
ebook
ec
ece
eci
eclipse
eco
ecological
ecology
economic
economics
economictimes
economist
economy
ecr
ecuador
ed
eda
eden
edge
edinburgh
edison
edit
edited
edition
editions
editor
editorial
editors
edits
eds
edu
educated
education
educational
edward
edwin
ee
eenadu
effect
effective
effects
efforts
egypt
egyptian
ei
eid
eight
eighteenth
eighth
einstein
ek
ekantipur
el
elder
eleanor
elected
election
elections
electoral
electric
electrical
electricity
electrification
electron
electronic
electronics
element
elements
elephant
elevated
elevation
eleventh
eliza
elizabeth
ellen
elsevier
eluru
ema
email
embassy
emerge
emerged
emergency
emile
eminent
emirates
emma
emotional
emperor
emperors
empire
employees
employment
empowerment
empty
en
ena
enc
encounter
encyclop
encyclopaedia
encyclopaedic
encyclopedia
encyclopædia
end
endangered
endowed
endowment
ends
energy
eng
engaged
engagement
engine
engineer
engineering
engines
england
english
enough
enquiry
enrico
enter
enterprises
enters
entertainment
entire
entrance
entrepreneur
entries
entry
environment
environmental
envis
ep
epaper
epic
epigraphy
episode
equal
equality
equatorial
equipment
equity
er
era
eric
erik
eritrea
ernest
ernst
ero
erode
error
erzya
es
esa
esc
esha
eske
espan
especially
esperanto
espn
espncricinfo
essay
essays
essential
est
esta
established
establishment
estadi
estate
estati
estd
estimate
estimated
estimates
estimation
estonia
estonian
et
etc
eternal
ethics
ethiopia
ethiopian
ethnic
ethnicity
ethnologue
etv
etymological
etymology
eu
eugene
euler
europa
europe
european
eurostat
evaluation
evans
even
evening
event
events
eventually
ever
everest
every
everyone
everything
evi
evidence
evolution
evolutionary
ewe
ex
examination
example
examples
exams
excel
excellence
excellency
excellent
excelsior
except
excerpt
exchange
excited
exciting
exclusive
executive
exercise
exhibit
exhibition
exhibitions
exile
exist
existence
existing
exit
expand
expanded
expands
expansion
expedition
expenditure
experience
experiment
experimental
expert
experts
explained
exploration
explore
exploring
exposure
express
expression
expressions
expressway
extended
extends
extension
extensive
extent
external
extinct
extinction
extra
extract
extracts
extreme
extremely
extremes
eye
eyes
f
fa
faber
face
facebook
faced
faces
facilities
facility
facing
fact
factbook
factors
factory
facts
factsheet
factsheets
faculty
fagu
failed
fails
failure
fair
fairy
faith
faizabad
fake
fakir
fall
falling
fallingrain
falls
false
fame
familiar
families
family
famine
famous
fan
fans
fao
faq
far
faraday
farewell
faridabad
faridpur
farm
farmer
farmers
farming
farncaise
faroese
fashion
faso
fast
fastest
fasting
fat
fate
fatehabad
fatehi
fatehpur
father
fatherhood
fauna
favourite
fazilka
fbi
fda
fe
fear
feast
feat
feature
featured
features
featuring
feb
february
federal
federation
feed
feeding
feel
feels
feet
felicitated
felis
felix
fellow
fellows
fellowship
female
femina
feminism
feminist
fennig
ferdinand
fermi
fernandes
fernandez
fernando
fest
festival
festivals
fever
few
ff
fi
fiction
fide
field
fielding
fields
fifa
fifteenth
fifth
fifty
fight
fighter
fighters
fighting
figure
figures
fih
fiji
fijian
file
files
filip
filipino
film
filmfare
filmibeat
filming
filmmaker
filmography
films
final
finale
finalist
finally
finals
finance
financial
find
finder
finds
fine
finish
finite
finland
finnish
finno
fir
fire
firearm
firefox
fires
firing
firm
firms
first
firstpost
fish
fisheries
fishes
fit
fitness
five
fj
fl
flag
flagged
flash
flickr
flight
flights
flood
floor
floors
flora
floral
florence
florida
flow
flower
flowering
flowers
fly
flying
fm
fmcg
focus
focused
fog
folk
folklore
follow
followed
following
follows
fondation
font
fonts
food
foods
foot
footage
football
footer
footnotes
footprint
footsteps
for
forbes
force
forces
ford
forecast
forecasts
foreign
forest
forests
forever
forget
forgotten
forkel
form
formal
formally
format
formation
formed
former
formerly
forms
fort
fortune
forty
forum
forward
fossil
fossils
found
foundation
foundations
founded
founder
founding
four
fourteenth
fourth
fr
fra
franc
franca
france
frances
francesco
franchise
francis
francisco
frank
frankfurt
franz
fraser
frederick
free
freedom
french
frequency
frequently
fresh
frey
frida
friday
friedman
friedrich
friend
friends
friendship
frisian
friulian
frog
from
front
frontier
frontiers
frontline
fruit
fruits
fs
fsi
ft
fu
fuji
fula
fulfulde
fulgens
full
fullorissa
fully
fun
function
functional
fund
funds
funny
furlan
further
fusion
future
futures
fy
g
ga
gabon
gabriel
gadchiroli
gaelic
gaga
gaganendranath
gagarin
gagauz
galaxy
gale
galega
galego
galen
galician
galilei
galileo
galleries
gallery
galwan
gamal
gambia
game
games
gametocyte
gan
gana
gandhi
gandhinagar
ganesan
ganesh
ganga
gangadhar
ganges
gangs
ganguly
gap
garci
garden
gardens
garg
gargi
garh
garhwa
garhwal
garhwali
garuda
gary
gas
gastric
gate
gateway
gauge
gaurav
gauri
gautam
gave
gay
gaya
gayathri
gayle
gazette
gazetteer
gazetteers
gb
gbd
gc
gdp
ge
geet
geeta
gen
gender
gene
genealogical
genealogy
genelia
genera
general
generally
generation
generic
genes
genesis
genetic
genetics
geneva
genius
genome
genomics
genus
geo
geobox
geodynamik
geoffrey
geographers
geographic
geographical
geography
geohive
geological
geology
geometry
geophysical
georg
george
georgetown
georgia
georgian
geos
geoscheme
geoscience
geospatial
gerhard
german
germanic
germany
germplasm
get
gets
getting
getty
ggkey
ghana
ghar
gharana
ghatsila
ghaziabad
ghazipur
ghosh
ghoshal
ghost
gi
giant
gift
gilaki
gilgit
ginger
ginni
giovanni
giri
giridih
girija
girish
girl
girlfriend
girls
gis
gisodisha
gita
gitanjali
give
given
gives
gk
glamour
glamsham
glance
glasgow
glass
glimpse
glimpses
global
globaldatalab
globalization
globally
globe
glorious
glory
glossary
glottolog
go
goa
goair
goal
goals
goan
god
godavari
godda
goddess
goddesses
goenka
goes
goethe
gogh
gogoi
goi
going
gokhale
golaghat
gold
golden
gondi
gondia
gone
good
goodearth
goodreads
goods
google
gopal
gopalganj
gopalpur
gopichand
gopinath
gorakhpur
gordon
gorkha
goswami
got
gothic
gourd
gov
governance
government
governmental
governments
governor
governors
govind
govinda
govpubs
govt
gowri
goya
goyal
gp
gr
grace
grade
gradually
graduate
graduation
graf
graham
gram
grama
grammaire
grammar
grammatical
grand
grandmother
grant
granted
grants
graph
graphs
grass
grave
gray
great
greater
greatest
greece
greek
green
greenwood
gregorian
gregory
grew
grey
grierson
grin
gross
grossers
grossing
ground
group
groups
grove
grover
grow
growing
grown
growth
gruyter
grylls
gu
guam
guangzhou
guarani
guardian
guatemala
guayasamin
guest
guez
guha
guiana
guidance
guide
guidelines
guides
guild
guinea
guinness
gujarat
gujarati
gujari
gulab
gulbarga
gulf
gulfnews
gulugula
gulzar
gumla
gun
guns
guntur
gupta
gurgaon
gurmukhi
guru
gurugram
gusain
gutenberg
guthrie
guv
guwahati
guy
guyana
gwadar
gwalior
gwillim
gyan
h
ha
haasan
habib
habitat
habsburg
had
hafez
hai
haing
hair
haiti
haitian
hajipur
hajni
hakka
haldar
half
hall
hamilton
hammarstro
hampi
hampshire
han
hand
handbook
handle
hands
hanoi
hans
hansda
hansdah
happened
happy
hapur
haque
hara
harald
harbor
harcourt
hard
hardoi
hare
hari
haridwar
haripur
harish
harmony
harold
harper
harpercollins
harris
harrison
harry
harshdeep
hartert
harv
harvard
harvey
haryana
has
hasan
haspelmath
hassan
hasty
hat
hathras
hausa
have
haveli
haven
having
hawai
hawaii
hawaiian
hazaribag
hazaribagh
hazarika
haze
hc
hd
hdi
hdl
he
head
headed
headline
headlines
headquarters
heads
health
healthcare
hear
hearing
heart
hearts
heat
heaven
heavy
hebrew
heena
hegel
heidelberg
height
held
helen
helicopter
helium
help
helped
helping
helps
hema
hemant
hemanta
hembram
hembrom
hemchandra
henry
heptulla
her
herald
herat
herbal
herbert
here
heritage
herman
hernia
hero
heroes
heroine
heroines
heropanti
herzegovina
het
hi
hidayatullah
hidden
hide
high
highbeam
higher
highest
highlight
highlights
highly
highway
highways
hike
hilbert
hill
hillary
hills
hilton
him
hima
himachal
himalaya
himalayan
himalayas
himanshu
himself
hind
hindi
hindu
hinduism
hinduonnet
hindus
hindustan
hindustani
hindustantimes
hingoli
hira
his
hisar
historian
historians
historic
historical
histories
history
hit
hitched
hitler
hits
hjkj
hk
hl
hluttaw
hmc
ho
hockey
hold
holding
holdings
holds
holi
holiday
holidayiq
holidays
hollywood
holy
home
homepage
homer
homo
hon
honduras
honey
hong
honolulu
honor
honorary
honored
honour
honoured
honours
hons
hooding
hooghly
hook
hoon
hope
hopes
hopkins
hor
horizons
hormuz
horse
hoshiarpur
hospital
hospitals
host
hosted
hostel
hosts
hot
hotel
hotstar
houlton
hour
hours
house
household
households
houses
housing
houston
how
howard
however
howrah
hq
hqs
hrsg
hs
ht
htm
html
http
https
hu
hub
hubli
huffington
huffingtonpost
huffpost
hugh
hugo
hugot
hum
huma
human
humanitarian
humanities
humayun
hume
hun
hundred
hundru
hungama
hungarian
hungary
hungerford
hunt
hunter
hunting
hurdles
hurst
husain
husband
hussain
hutpa
hutup
huynh
hyderabad
hydrogen
hydrology
hydrosphere
hymns
hypothesis
hyun
i
ia
iaaf
iaf
ian
ians
ias
iata
ibge
ibn
ibnlive
ibtimes
ic
icao
icar
icarus
icbse
icc
iccr
ice
icelandic
icon
id
idaho
idea
ideal
ideas
identification
identified
identifier
identities
identity
ideology
idlebrain
ido
ie
if
ifeng
igarh
igbo
ignored
ignou
ii
iifa
iii
iit
ik
il
ila
ileana
illegal
illinois
illustrated
illustrious
ilokano
iloko
iloveindia
im
image
images
imdb
imf
img
immigration
impact
imperial
imphal
implementation
importance
important
impressed
imran
in
ina
inactive
inari
inaugurated
inaugurates
inc
inca
incl
include
included
includes
including
inclusion
income
increase
increased
incredible
incredibleorissa
incubator
ind
independence
independent
index
india
indiaglitz
indian
indiana
indianexpress
indians
indiantelevision
indiantribalheritage
indiapress
indiarailinfo
indias
indiatimes
indiatoday
indiatvnews
indic
indica
indicate
indicators
indies
indigenous
indigo
indira
individual
indo
indonesia
indonesian
indore
indra
indrani
indu
indus
industrial
industries
industry
ine
inequality
infection
infections
infectious
inflibnet
inflorescence
influence
influential
info
infobase
infobox
infocad
informal
informatics
information
infotainment
infrared
infrastructure
ingush
inhabitants
ini
initial
initiative
initiatives
injured
injuries
inline
inner
innings
innovation
innovative
inorganic
input
inquiry
inr
inscription
inscriptions
insects
inside
insider
insight
inspector
inspiration
inspire
inspired
inspiring
instagram
instant
instead
institut
institute
institutes
institution
institutional
institutions
instituto
instrument
instruments
insurance
int
intake
intangible
integral
integrated
integrating
integration
intellectual
intellibriefs
intelligence
intensive
inter
interaction
interactive
interest
interesting
interface
interim
interior
interlingue
intermediate
internal
international
internationale
internet
interpretation
intervention
interview
interviews
into
intoday
introduced
introducing
introduction
introductory
inuktitut
invalid
invention
inventor
invest
investigation
investment
invited
involved
iny
ioc
ion
ios
iowa
ipa
iphone
ipl
ipni
ips
iqbal
ir
iran
irani
iranian
iraq
iraqi
irc
ireland
irfan
irfca
irish
iron
irrfan
irrigation
irvine
is
isaac
isbn
ishita
ishq
isizulu
iskcon
islam
islamabad
islamic
island
islands
isle
ismail
iso
israel
israeli
isro
issf
issn
issue
issues
ist
istanbul
istituto
it
italian
italiana
italic
italy
itel
item
itemid
items
iti
itihas
itis
its
itself
itunes
iu
iucn
iupac
iv
ivan
ivory
ix
iyengar
iyer
j
ja
jaa
jaan
jabalpur
jack
jackfruit
jackie
jackson
jacob
jacqueline
jacques
jaffrelot
jagan
jagat
jagdeep
jagdish
jaggery
jagir
jagran
jai
jaico
jail
jain
jainism
jaipur
jakarta
jalandhar
jalgaon
jallianwala
jalna
jalpaiguri
jama
jamaica
jamaican
jamal
james
jammu
jamnagar
jamshedpur
jan
jana
janaki
janata
jane
janeiro
janet
jangaon
janssen
janta
january
japan
japanese
jasidih
jason
jat
java
javanese
jawa
jawahar
jawaharlal
jay
jaya
jayalalitha
jayalalithaa
jayant
jayaram
jayesh
jazeera
jd
je
jean
jeddah
jee
jeena
jeevan
jeffrey
jehovah
jejich
jena
jennifer
jersey
jerusalem
jesus
jewish
jha
jhabua
jhalak
jhalawar
jhargram
jharia
jharkhad
jharkhand
jharsuguda
jhaveri
ji
jime
jimmy
jin
jing
jio
jk
jmm
jn
jnanpith
jnnurmwestbengal
jnu
jo
joan
joanna
job
jobs
jodhpur
jodi
johann
johannes
johannesburg
johar
john
johns
johnson
johnston
join
joined
joins
joint
jon
jonathan
jones
jong
jordan
jorge
jose
joseph
josh
joshi
joshua
joule
jouni
journal
journalism
journalist
journals
journey
journeys
joy
joyce
jp
jpeg
jpg
jpl
jr
jsp
jstor
ju
juan
jubilee
judge
judges
judicial
judiciary
juhi
jul
julia
julie
july
jump
jun
junagadh
junction
june
jung
jungle
junglee
junior
juniors
jupiter
just
justice
justin
jvm
jyothy
jyoti
k
ka
kabhi
kabir
kabiye
kabupaten
kabyle
kadapa
kafka
kahani
kahlo
kaif
kaipuleohone
kaithal
kajol
kakching
kakinada
kala
kalahandi
kalakar
kalakshetra
kalam
kalamandalam
kalan
kalerkantho
kali
kalidasa
kalimantan
kalinga
kalmyk
kalpana
kalpaz
kalsekar
kalyan
kamal
kamala
kamana
kamla
kamra
kamrup
kamus
kanak
kancheepuram
kanchipuram
kandahar
kangra
kangri
kanhaiya
kanho
kanhu
kanika
kannada
kannur
kanpur
kantho
kapadia
kapampangan
kapil
kapoor
kapur
kar
karabakh
karachi
karaikella
karan
kareena
karen
kargil
karim
karimganj
karimnagar
karki
karl
karma
karnaa
karnataka
kartik
karwa
kasahorow
kasba
kashi
kashipur
kashmir
kashmiri
kashmiris
kashubian
kashyap
kasturba
kasturi
kathak
kathakali
kathare
kathmandu
kathmandupost
kathua
katju
katrina
kaul
kaur
kaushal
kay
kazakhstan
kazi
kaziranga
kb
ke
keep
keeping
keeps
keetoowah
keith
keller
kelly
ken
kendra
kennedy
kenneth
kentucky
kenya
kept
ker
kerala
kernewek
keshari
kevin
kew
key
keyboard
kg
kgbv
kh
khabar
khali
khalifa
khammam
khan
khandwa
khanna
khanum
kharagpur
kharba
khargone
kharia
kharsawan
khasawan
khasi
khatra
khel
kheri
khiching
khmer
khokar
khowai
khu
khunti
khurana
khurd
khurrana
khushi
khuzdar
khwarizmi
khyber
ki
kiani
kiara
kick
kid
kids
kiel
kikongo
killa
killed
killing
kilometres
kim
kind
king
kingdom
kingdoms
kings
kinyarwanda
kiran
kirundi
kishore
kisku
kiss
kitchen
kite
kiya
klaus
klia
klimamittel
klimatafel
km
knee
kneeling
knot
know
knowindia
knowledge
known
ko
kochi
koda
koderma
koffee
koh
kohima
kohli
koili
koimoi
kokrajhar
kol
kolar
kolasib
kolhan
kolhapur
kolkata
kollam
kollywood
kom
komal
komi
kon
kong
kongo
konkani
koraput
korea
korean
kosovo
kota
kotava
kothari
kottayam
koul
kovind
kozhikode
kr
krishna
krishnan
kriti
krogh
ks
ksrtc
ku
kuala
kuch
kuchipudi
kuldiha
kulkarni
kullu
kuma
kumaon
kumaoni
kumar
kumaratunga
kumari
kumbh
kunal
kupwara
kurdish
kurnool
kurux
kutch
kuwait
ky
kya
kyi
kyrgyz
kyrgyzstan
kz
kə
l
la
lab
label
labor
laboratories
laboratory
labour
lac
lack
ladakh
laden
ladies
ladin
ladino
lady
lagos
lahore
lai
laid
laishram
lajpat
lak
lake
lakes
lakh
lakhan
lakhimpur
lakshadweep
lakshmi
lal
lala
lalita
lalitha
lalitpur
laloo
lalu
lama
lancet
land
lands
landscape
landscapes
lane
lang
language
languagegeek
languages
langue
langues
lanka
lankan
lao
laos
large
largest
larry
lars
las
lasker
last
lat
lata
late
latehar
later
latest
latgalian
latin
latitude
latter
latur
latvia
latvian
launch
launched
launcher
launches
laura
laureates
laurie
law
lawrence
laws
laxman
laxmi
laxmirani
lay
layer
lccn
le
lead
leader
leaders
leadership
leading
leads
league
leap
learn
learned
learner
learners
learning
least
leaves
lebanese
lebanon
lecture
lectures
led
lee
leena
left
leg
legacy
legal
legend
legendary
legends
legge
legislation
legislative
legislature
leh
leiden
leipzig
leisure
lekhara
lekhichi
leksikon
lemon
lena
lenghe
length
lengua
lenin
lenovo
lens
lentz
leo
leonard
leonardo
leone
leopard
les
leslie
lesotho
less
lesser
lessons
leste
let
letter
letters
leukemia
level
levels
lewis
lexical
lexico
lexicon
lexicostatistical
lexikon
lf
lg
li
lia
lib
liberalism
liberation
liberia
liberty
libraries
library
librivox
libya
liceale
license
lies
lieutenant
life
lifestyle
lifetime
light
ligurian
like
likely
lily
lima
limba
limbu
limburgish
limbuwan
limited
lincoln
linda
linden
line
lines
linga
lingala
lingu
lingua
linguasphere
linguist
linguistic
linguistics
linguistique
linguists
link
linked
linkedin
links
lion
lionel
lions
lippincott
lisa
list
listed
listen
listing
lists
lit
literacy
literally
literary
literate
literates
literature
literatures
lithium
lithuania
lithuanian
litteratures
little
liturgical
liu
live
lived
livehindustan
livelaw
livemint
liver
lives
living
liye
lk
ll
llc
llengua
lloyd
lo
loan
loanword
loc
local
located
location
locations
locke
locust
lodhi
log
logic
logo
lohana
lohardaga
lojban
lok
lokmat
loksabha
lombard
lome
london
lonely
long
longding
longer
longest
longitude
longman
longmans
look
looks
lord
lore
loren
los
loses
losing
loss
lost
lot
lothers
lotus
louis
louisiana
love
lovers
loves
loving
low
lower
lpg
ls
lt
ltd
lu
lua
luanda
lucas
lucia
lucknow
lucky
ludhiana
ludwig
luganda
luis
lulu
lumpur
lunar
lund
lung
lusaka
lust
luther
luxembourg
luxury
lv
lying
lymphoblastic
lyrical
lyricist
lyrics
lɑ
lə
m
ma
maa
mac
macau
macedonia
macedonian
machilipatnam
machine
machines
mackenzie
macmillan
macrotrends
mad
madagascar
madan
made
madhav
madhavan
madhopur
madhu
madhuri
madhya
madikeri
madras
madrid
madurai
mag
magahi
magazine
magazines
magic
magistrate
magnetic
magsi
mah
maha
mahabharata
mahadevan
mahajan
mahal
mahanta
mahapatra
maharaj
maharaja
maharashtra
mahatma
mahato
mahavidyalaya
mahe
mahendra
mahesh
maheshpur
mahfouz
mahi
mahila
maho
mahoba
mahotsav
mahto
mahua
mahuldiha
mai
maiden
mail
main
maina
maine
mainly
mainstream
maint
maintained
maintaining
maithili
maize
majesty
majhi
major
majority
majumdar
majuro
make
makemytrip
makers
makes
making
makkah
mala
malagasy
malappuram
malaria
malathi
malati
malavika
malay
malayala
malayalam
malaysia
maldives
male
malhotra
mali
malik
malini
mallama
malley
malta
maltese
maluku
malwa
mamang
mamata
mammalian
mammals
man
mana
managed
management
manager
managing
manasa
manasi
manbhum
manchester
mandal
mandals
mandanna
mandar
mandarin
mandela
mandi
mandir
mandu
mangal
mangalam
mangalore
mangeshkar
mango
mani
manila
manipur
manipuri
manish
manjhi
manju
manmohan
manohar
manoj
manorama
manoramaonline
mansingh
manu
manual
manufacturers
manufacturing
manuscript
manuscripts
manushi
manx
many
mao
maoist
maori
map
mapping
maps
mapsofindia
mar
mara
maradona
marandi
marathi
marathon
marc
marcel
march
marco
margaret
mari
maria
marie
marilyn
marin
marina
marine
marino
mario
maritime
mark
marked
market
marketing
markets
marks
markup
marlene
marndi
marriage
married
mars
marshall
marshallese
martial
martin
martyr
marx
marxism
mary
maryland
mas
masaan
masala
mashrafe
masica
masjid
mass
massachusetts
massacre
massive
master
masters
masti
mat
match
matches
material
materials
maternal
math
mathematical
mathematics
mathew
mathrubhumi
mathura
matisse
matter
matters
matthew
mature
maulana
mauritania
mauritius
max
maximum
maxwell
may
maya
mayawati
mayek
mayo
mayor
mayors
mayurbhanj
mayurbhanjpdf
mazumdar
mb
mba
mbbs
mc
mcfarland
mcgill
mcgraw
mci
md
mdds
me
mea
meacommunity
mean
meaning
means
meat
mecca
mechanical
mechanics
med
medak
medal
medallist
medals
media
mediacentre
medical
medication
medicinal
medicine
medicines
medieval
medina
medinipur
mediterranean
medium
meena
meenakshi
meera
meerut
meet
meeting
meets
meghalaya
mehbooba
mehra
mehsana
mehta
mein
meitei
meithei
mekong
mela
melbourne
melody
melton
member
members
membership
memoirs
memorial
memories
memory
memu
men
menlo
mennonite
menon
mens
menstruation
mental
mention
mentor
menurut
mercury
mere
merged
merger
meri
merriam
mersin
mesopotamia
message
messenger
meta
metal
meteorological
meteorologie
meteorology
methil
method
metre
metres
metro
metropolis
metropolitan
mexico
mh
mha
mhra
mhrd
mhz
mi
mia
michael
michelangelo
michelle
michigan
micro
microeconomics
microsoft
mid
middle
midnapore
mifune
migrants
miguel
mikael
mike
mil
mile
miles
militarev
military
milk
milky
mill
millennium
miller
million
mills
mime
mimosa
min
minahan
minati
mind
mindat
mine
mineral
mines
minh
mini
minimum
mining
minister
ministers
ministry
minor
minorities
minority
mint
minute
minutes
mirabai
mirabegron
mirror
mirza
mirzapur
mishra
misra
miss
missile
missing
mission
missionary
missions
mississippi
missouri
mit
mitha
mithila
mitra
mittal
mix
mixed
mizoram
mla
mlas
mm
mn
mo
mobile
mode
model
modeling
models
modern
moderna
modernity
modi
module
moga
mogao
mohali
mohamed
mohammad
mohammed
mohan
mohandas
mohanty
mohapatra
mohini
mohiuddin
moksha
moldova
molecular
molla
mom
moment
moments
mon
monaco
monday
monetary
money
moneycontrol
mongabay
mongol
mongolia
mongolian
mongols
monica
monika
monitor
monitoring
monograph
monoharpur
monolingual
monroe
monsoon
montana
montenegro
month
monthly
months
monument
monuments
mood
moon
moore
moradabad
moral
morcha
more
moresby
morgan
morning
morocco
morphological
morphology
mortality
mos
moscow
mosque
mosquito
most
mostly
mother
moti
motilal
motion
motu
mou
mount
mountain
mountaineer
mountaineering
mountains
mounted
mouth
move
movement
movements
moves
movie
movies
moving
mozilla
mp
mponline
mps
mr
mridula
mrna
mrs
mrudu
ms
msme
msn
msrtc
mt
mtime
mtv
mu
much
mufti
mugger
mughal
mughals
mughalsarai
muhammad
mukerjee
mukesh
mukherjee
mukhopadhyay
mukti
mukul
multi
multilingual
multilingualism
multimedia
multiple
multitree
mumbai
mun
munda
munger
muni
munich
municipal
municipalities
municipality
munisipality
muniyamma
murad
murali
muralidharan
murder
murmu
murray
murshidabad
murthy
musa
muscle
muse
museo
museum
museums
music
musical
musician
muslim
muslims
must
muzaffarnagar
muzaffarpur
mw
mx
my
myanmar
myneta
mysore
mystery
mysuru
myth
myths
mə
n
na
naa
naac
nach
nacional
nadda
nadia
nadiad
nadu
nag
naga
nagaland
nagam
nagar
nagarhole
nagarjuna
nagas
nagorno
nagpur
naguib
nai
naidu
nainital
nair
najma
nalanda
nalgonda
nam
name
named
namely
names
namibia
nancy
nanda
nandalal
nandankanan
nanded
nandi
nandini
napoleon
narasimha
narayan
narayana
narayanan
narendra
naresh
nargis
nari
narmada
narrative
narthaki
nas
nasa
nashik
nat
natak
natasha
nath
nation
national
nationalencyklopedin
nationalgeographic
nationalism
nationalist
nationality
nationals
nations
native
nato
natural
naturalist
nature
natya
nauru
navajo
naval
navami
navboxes
naveen
navel
navneet
navy
nawanshahr
nawazuddin
nay
nayak
nayar
nayika
naypyidaw
naypyitaw
nazir
nazrul
nb
nbsp
ncbi
ncc
nclm
ncr
nd
nda
ndtv
ndtvsports
ne
neapolitan
near
nearly
nebraska
ned
need
needed
needs
neelam
neelum
neemuch
nefta
negative
negi
neha
nehru
nehwal
neighbourhood
neighbouring
neil
nellore
nelson
neo
nepal
nepalese
nepali
neptune
nero
nerve
nervous
net
neta
netaji
netarhat
netease
netflix
netherlands
network
networking
nevada
never
neville
new
newar
newdistrictsformation
newindianexpress
newly
news
newsid
newsletter
newspaper
newspapers
newton
next
nexus
nez
ng
nga
ngan
ngel
ngo
ngua
nh
nha
nhai
nhs
ni
nia
nias
nic
nicaragua
nicholas
nick
nickelodeon
nickname
nicobar
nicobarese
nicolas
nicole
nicosia
nidhi
nigam
niger
nigeria
nighat
night
nightmoves
nights
nih
nikhil
nikita
nikki
nil
nilamani
nilamber
nilanjana
nile
nilgiris
nilo
nina
nine
ning
ninth
niosh
nirahua
niranjan
nirf
nirmal
nirmala
nit
nita
nitai
nitin
nitish
nitrogen
nizamabad
nkr
nl
nlm
nm
no
noaa
noam
nobel
nobelprize
noble
nod
node
noklak
nominal
nominated
nomination
nominations
nominee
nominees
non
nora
normals
norman
norske
north
northeast
northern
northwest
northwestern
norton
norway
norwegian
nosa
nostalgic
not
notable
note
noted
notes
nothing
notice
notification
notified
nottingham
nouns
nov
nova
novel
novelist
november
novial
now
nozomi
np
npr
nr
nri
nritya
nrutya
ns
nso
nss
nster
nsw
nta
ntr
nu
nuclear
nuduram
number
numbering
numbers
numeric
numerous
nur
nurvidya
nushrat
nutrition
nuwas
nxt
ny
nynorsk
nytimes
nz
nɑ
nə
o
oath
obama
obituaries
obituary
object
objects
observatory
observed
observer
observes
obtained
occasion
occidental
occitan
occupied
occurs
ocean
oceania
oceanic
oclc
oct
october
octopus
od
odi
odia
odiamoviedatabase
odisha
odishalive
odishas
odishasuntimes
odishatv
odissi
odiya
oecd
oed
of
off
offer
offered
offers
office
officer
officers
offices
official
officially
officials
often
og
oh
ohio
oi
oil
oka
oklahoma
okuhara
ol
ola
olac
olaf
olchiki
old
older
oldest
oli
ollywood
olympic
olympics
om
oman
omar
omc
omchery
omkar
omniglot
on
onam
once
one
onefivenine
oneindia
onepage
ones
oneworld
online
only
oo
op
opec
open
opening
openoffice
opens
openstreetmap
opera
operation
operational
operations
opinion
opposite
opposition
optical
option
or
ora
oral
orange
orbit
order
orders
oregon
org
organic
organisation
organization
organizations
organize
organized
ori
orient
oriental
origin
original
originally
origins
orissa
orissaannualreference
orissabarta
orissacinema
orissadiary
orissapost
oriya
ornamental
oromo
orthography
oruvan
os
osaka
oscar
osmanabad
ossetic
other
others
otto
ottoman
otv
ou
our
out
outgrowth
outline
outlook
outlookindia
outside
outstanding
over
overall
overseas
overview
owl
own
owned
oxford
oxygen
p
pa
pacific
pack
package
packed
pact
pad
paddy
padma
padmabhushanawardrecipients
padmapriya
padmashree
padmashri
padukone
page
pageants
pages
pagoda
pahari
pai
paid
pain
painted
painter
painting
paintings
pair
pak
pakistan
pakistani
pakora
pakur
pal
palace
palamu
palaniswami
palau
palestine
palestinian
palgrave
pali
palit
palkot
pallavi
palm
palustris
pan
panafrican
panafril
panama
panchayat
panchayath
panchayati
panchayats
pancholi
panchyati
panda
pandanallur
panday
pandey
pandit
panel
pangasinan
panigrahi
panipat
pankaj
panna
pannu
panorama
panoramic
pant
pao
paper
paperback
papers
papiamento
papua
par
para
paracetamol
parade
paradip
paradise
paradisec
paragraph
paraguay
parallel
paralympic
paralympics
parameter
parameters
parasite
parasol
paravai
parbhani
parents
paresh
parganas
paris
parishad
park
parks
parkvall
parliament
parliamentary
parrikar
part
partial
partially
participation
particular
parties
partition
partners
partnership
parts
party
parvathy
parveen
paschim
paschimi
pashto
pass
passed
passenger
passengers
passes
passing
passion
passport
past
pasteur
paswan
patamda
patan
patani
patanjali
patel
path
pathak
pathanamthitta
pathe
patiala
patient
patients
patil
patna
patnaik
patowary
patratu
patricia
patrick
patrika
pattanayak
pattern
patterns
paul
paulo
pauri
pav
pavitra
pawan
pay
pays
paz
pbs
pbscensus
pc
pca
pcmc
pco
pdf
pdfs
pe
peace
peak
pearl
pearson
peer
pen
penduduk
penguin
penh
peninsula
pennsylvania
people
peoples
pepper
pepsi
per
percent
percentage
perera
perfect
perform
performance
performances
performer
performing
perhaps
period
periodic
periods
permanent
perry
persia
persian
persicaria
person
personal
personalities
personality
persons
perspective
perspectives
peru
peter
petersburg
peterson
peterwar
petroleum
pew
pfizer
pg
ph
phalke
phanerocotyledonae
phase
phases
phd
phil
philadelphia
philanthropist
philip
philippine
philippines
phillips
philosopher
philosophical
philosophy
phnom
pho
phobia
phoenix
phogat
phone
phonemes
phonetic
phonetics
phonological
phonology
phool
phosphate
photo
photograph
photographic
photographs
photography
photos
php
phrasebook
phrases
phylogeny
physical
physicalaspects
physicist
physics
physiography
physiology
physiotherapist
pi
pib
pic
picard
picasso
picks
pics
picture
pictures
pid
pidgin
piedmontese
pierre
pigeon
pijush
pilgrimage
pillai
pilot
pimpri
pin
pincode
pink
pioneer
pioneering
pishin
pisin
pistol
pitamber
pitha
pithoragarh
pittsburgh
pk
pl
place
places
plague
plain
plan
planck
planet
planetary
planets
planned
planning
plans
plant
plantarum
plantis
plants
plastic
plate
plateau
platform
plato
play
playback
played
player
players
playing
plays
plaza
please
plural
pluralism
plus
pluto
pm
pmc
pmid
pmrda
png
po
poblacio
pocket
podi
poem
poems
poet
poetry
poets
pohela
point
points
pokharia
poland
polar
pole
poli
police
policies
policy
polish
political
politician
politics
polity
poll
polling
polls
polluted
pollution
polo
polska
polyester
polygonaceae
polytechnic
pona
pondicherry
ponnappa
pontic
pooja
poona
poonch
poor
pop
popat
popular
populated
population
populations
populstat
por
pori
porn
port
portal
portals
portfolios
portions
portrait
portraits
ports
portugal
portuguese
position
positions
positive
possible
possibly
post
postal
posted
poster
postgraduate
posts
postscript
pot
potala
potato
potential
potka
pound
pour
poverty
powell
power
powerful
powers
pp
ppen
ppp
pr
prabhas
prabhat
prabhatkhabar
prabhupada
practical
practice
practices
pradesh
pradhan
prado
prafulla
prague
praise
praises
prakash
prakashan
pramod
pranab
prasad
prashant
pratap
pratapgarh
prateeksha
pratibha
pratidin
praveen
pravic
pravopis
prayagraj
prayer
pre
pregnancy
prehistoric
prehistory
preliminary
prem
premier
premlata
preparation
prepared
present
presentation
presented
presents
preservation
presidency
president
presidential
presidentialism
presidents
press
presse
pressure
prestigious
prevention
preview
previous
pri
price
prices
pricing
pride
primary
prime
prince
princely
princess
princeton
principal
principle
principles
print
printed
printing
prints
prior
priority
private
prix
priya
priyanka
prize
prizes
pro
probably
problem
problems
proceedings
process
processing
produced
producer
product
production
productions
products
prof
profession
professional
professionals
professor
profile
profiles
profit
program
programme
programmes
programming
programs
progress
project
projections
projects
projekt
prominent
promise
promote
promoting
promotion
pron
prone
pronounced
pronouncing
pronouns
pronunciation
propaganda
proper
properties
property
proposal
proposed
prose
prospect
prospects
prosperi
protect
protected
protection
protest
protests
prothom
proto
protocol
proud
proust
prov
prove
proverbs
provide
provided
providence
provides
province
provinces
provincial
provinsi
provisional
ps
psychological
psychologist
psychology
pt
pti
pu
pub
public
publication
publications
publique
published
publisher
publishers
publishing
pudica
puducherry
puerto
puja
pulo
pulse
pulwama
punch
punctuation
pune
puneeth
punjab
punjabi
pura
puran
puraskar
purba
purbi
pure
puri
purnea
purnima
purpose
purposes
purulia
puruliya
pusarla
pusat
pushkin
pushp
pustak
put
puts
pv
pvt
px
pyaar
pyar
pyi
pyongyang
python
pɑ
q
qaeda
qatar
qin
qua
qualification
quality
quantum
quarter
quarterfinal
quarterfinals
quarterly
que
quechua
queen
queens
query
quest
question
questions
quetta
qui
quick
quickfacts
quint
quit
quits
quotations
quote
quotes
qur
quran
qureshi
r
ra
raaj
raazi
rabana
rabindra
rabindranath
rabri
race
rachel
rada
radar
radboud
radha
radhakrishnan
radhika
radhu
radical
radio
radioactive
rae
raghav
raghunath
ragini
rahat
rahi
rahman
rahul
rai
raichur
rail
railnews
railway
railways
rain
raina
rainfall
rainforest
rainforests
raipur
rairangpur
raise
raises
raising
raj
raja
rajadhyaksha
rajaji
rajan
rajasthan
rajasthani
rajat
raje
rajeev
rajendra
rajendran
rajesh
rajiv
rajkot
rajkumar
rajmahal
rajnath
rajpipla
rajput
rajrappa
raju
rajya
rakesh
rakhi
rakhine
raksha
ralph
ram
rama
ramachandran
ramadan
ramakrishna
ramakrishnan
raman
ramdev
ramesh
ramgarh
ramji
ramjit
ramkrishna
ramnath
rampur
rampurhat
ramsar
ramya
rana
ranaut
ranbir
ranchi
random
rang
rangamati
rangan
rangarajan
rangareddy
range
rangpur
rani
ranjan
ranjana
ranjit
rank
ranked
ranking
rankings
rankorder
ranks
rann
ranveer
rao
rape
raphael
rara
rare
rasa
rashid
rashmika
rashtrapati
rashtriya
rat
ratan
rate
rates
rath
ratio
ration
rationalisation
ratlam
ratna
ratnagiri
ratnam
raton
rau
raveena
ravi
ravindra
raw
rawat
ray
raya
rayagada
raza
rbi
rd
re
reach
reached
reaches
reaction
read
reader
readers
reading
readings
ready
real
reality
really
realm
reason
reasons
rebecca
rebellion
recalls
receive
received
receives
recent
reception
recipe
recipient
recipients
recital
recognised
recognition
recognized
recognizedhidden
recommended
reconstruction
record
recorded
recording
recordings
records
recreation
red
reddy
rediff
redir
redirect
redmi
reed
reel
reelnepal
reema
ref
refer
reference
references
referred
reflect
reflection
reflections
reform
reforms
refs
refugee
refugees
regarding
reggae
regia
region
regional
regionale
regione
regions
register
registered
registrar
registration
regular
regularly
regulatory
rehman
reid
reintegrationist
rekha
related
relation
relations
relationship
relationships
relatives
rele
release
released
releases
reliance
relief
religion
religions
religious
remains
remake
remarkable
rembrandt
remember
remembered
remembering
remembers
remnant
remo
remote
removal
removed
renaissance
renamed
rene
renewable
renewal
renu
renuka
reo
reorganisation
repeat
repec
replace
report
reporter
reports
repository
represent
representation
representative
representatives
reprint
reprinted
reptiles
repu
republic
republica
republik
republika
republished
request
required
requires
rer
res
research
researchers
reservation
reserve
reservoir
reshuffle
residence
resident
residential
residents
resignation
resigns
resilience
resistance
resolution
resorce
resort
resource
resources
respect
respectively
respiratory
response
responsible
rest
restaurant
restoration
result
resultados
results
resurrection
retains
retired
retirement
retrieved
retrospect
return
returns
reuters
rev
reveal
revealed
reveals
revenue
reverse
review
reviews
revised
revision
revisited
revista
revival
revoked
revolution
revolutionary
rewa
reward
rewari
reynolds
rhea
rhino
rhode
rhodes
rhythm
ri
ria
rica
rice
rich
richard
richest
richmond
rico
ride
rifle
right
rights
rimi
ring
rio
riot
riots
rise
rises
rishi
rishta
rising
risk
rita
riteish
ritual
rituals
rival
rivalry
rivals
river
rivers
riyadh
rk
rkmgec
rldens
rm
ro
roach
road
roads
robert
roberts
robin
robot
robotics
robots
robson
robust
rock
rocket
rockets
rodnostni
rodri
roger
rohingya
rohini
rohit
rohtak
role
roles
roma
roman
romance
romani
romania
romanian
romanization
romansh
romantic
rome
romero
ronald
ronaldo
room
roop
roosevelt
root
roots
rosaiah
rose
rosen
rosetta
roshan
rosy
rotation
rotten
rough
round
rousseau
route
routes
routledge
routray
row
rowman
roy
royal
roychoudhury
rquez
rs
rsp
rss
rsta
rtc
rterbuch
rto
ru
rubens
ruby
rukh
rukmini
rule
ruled
ruler
rulers
rules
ruling
run
runeberg
runner
running
runs
rupa
rupnagar
rural
rush
russell
russia
russian
rusyn
ruth
rutherford
rwaai
rwanda
ryan
s
sa
saada
saami
sabha
sachdev
sachin
sacred
sad
sadar
sadhana
safe
safety
saffron
sagar
sage
saha
sahara
saharan
saharanpur
saheb
sahib
sahibganj
sahitya
sahoo
sahu
sai
saibal
said
saif
saikia
sailesh
saina
saini
saint
sainthia
sakha
sakshi
salam
sale
salem
sales
salim
salman
salomon
salute
salvador
sam
samaj
samajalive
samanta
samantha
sambad
sambalpur
sambhal
sambit
same
sami
samia
samina
samiti
samman
sammilani
samoan
sample
samsad
samsung
samuel
san
sanctuaries
sanctuary
sandeep
sandhya
sang
sangakkara
sangeet
sangeetha
sangli
sangma
sango
sania
sanjay
sanju
sanjukta
sanon
sansad
sanskrit
sanskriti
sant
santa
santal
santali
santals
santhal
santhali
santhals
santiago
santiniketan
santosh
sara
sarabhai
sarah
saraikela
saraiki
sarala
saran
saraswati
sarbananda
sarda
sardinian
saren
sari
sarita
sarkar
sarma
sarnobat
saroj
sarojini
sarpanch
sars
sarukkai
sastri
sat
satellite
satish
satna
saturday
saturn
satya
satyajit
saudi
save
saving
savitha
savoy
saw
sawai
sawant
saxena
saxon
say
saying
says
sayyed
sbi
sc
scale
scanned
scar
scarecrow
scene
schedule
scheduled
scheme
scholar
scholars
scholarship
school
schools
schuster
sci
science
sciences
scientific
scientist
scientists
scope
score
scored
scotland
scots
scott
scottish
scout
scouting
screen
screened
screens
screw
script
scripts
scriptsource
scriptures
scroll
sculpture
sculptures
se
sea
sealang
sean
search
searchable
searchdetails
seas
season
seat
seats
sebastian
sec
second
secondary
secret
secretariat
secretary
secrets
section
sections
sector
security
see
seed
seeded
seek
seeking
seeks
seema
seen
sees
segment
select
selected
selection
self
semi
semiconductor
seminar
semitic
sen
sena
senahor
senapati
senate
send
sends
sengupta
senior
sensation
sensing
sensitive
sent
sentinel
sentinelassam
seoul
sep
separate
separator
sept
september
sequence
sequoia
ser
seraikela
seraikella
serbia
serbian
serbo
serchhip
serena
serial
serials
series
serious
serve
service
services
sesotho
session
set
seth
sethi
sets
setswana
setting
settle
settlement
settlements
setu
setup
seva
sevastopol
seven
seventh
several
severe
sex
sexual
sg
sh
shabnam
shadow
shah
shahane
shahid
shahin
shahmukhi
shailaja
shakespeare
shakib
shakti
shaktikanta
shakuntala
shall
shamli
shan
shanghai
shankar
shanti
shantiniketan
shape
shaped
sharad
sharda
share
shared
shares
sharif
sharing
sharma
sharman
sharmila
shashi
shashikala
shatru
she
sheet
sheikh
sheila
shekhar
shelter
sher
shetty
shi
shibu
shift
shifted
shifts
shikha
shillong
shilpa
shimla
shimoga
shines
shinn
ship
shipping
ships
shirt
shiv
shiva
shivamogga
shivaratri
shivdasani
shivpuri
sho
shodhganga
shona
shoot
shooter
shooters
shooting
shop
shopping
short
shot
should
show
showentertainmentnews
showing
shown
shows
shqipe
shraddha
shree
shrestha
shreya
shri
shriya
shroff
shruti
shtml
shuttler
shweta
shyam
shyamhari
si
siang
siberia
sibi
sic
siddha
siddharth
siddhartha
siddiqui
side
sidharth
sidho
sidhu
sido
sidwell
sierra
sify
sig
sign
signal
signals
signed
significance
significant
signs
sikar
sikh
sikhism
sikhs
sikkim
sil
silent
silicon
siliguri
silk
silli
silva
silvassa
silver
simdega
similar
simon
simons
simple
simply
sina
sinan
since
sindh
sindhi
sindhu
sinensis
singapore
singer
singers
singh
singha
singhbhum
singing
singko
single
singles
singrauli
sings
singular
sinha
sinhala
sinhalese
sino
sir
sirajul
sircar
sirisena
sister
sisters
sita
sitamarhi
sitara
site
sites
sitting
situation
situs
siva
siwan
six
sixteenth
sixth
sixty
size
sk
skbu
sketch
ski
skill
skills
skin
skip
sky
skyline
skyroot
sl
slams
slavery
slavic
slavonic
slideshow
sling
slocum
slope
slovak
slovenia
slovenian
slovenski
slum
sm
small
smallpox
smart
smita
smith
smitha
smithsonian
smriti
smruti
smt
snake
snedden
snow
so
sobre
soc
soccer
soccerway
social
socialism
socialist
societies
society
socio
sociolinguistic
sociology
sofia
software
sohu
soil
solan
solapur
solar
soldier
soldiers
soleimani
solid
solomon
solution
somali
some
someone
something
sometimes
somnath
son
sonakshi
sonal
sonam
song
songs
sonia
sonowal
sons
sony
soon
sophia
sophocles
sora
sorbian
soren
sorted
sotho
soul
sound
soundlisten
sounds
soup
source
sources
south
southeast
southern
souza
sovereign
sovereignty
soviet
sowvendra
sp
space
spain
span
spanish
sparrow
spatial
speak
speaker
speakers
speaking
speaks
special
specialist
species
specific
specifications
specified
speech
speed
spell
spelling
sphere
spider
spiders
spin
spinach
spirit
spiritual
split
spoken
sponsorship
sport
sports
sportskeeda
sportstar
spot
spotlight
spots
spouse
spra
sprachen
spread
spring
springer
sq
squad
square
sr
sranan
sranantongo
src
sri
sridevi
srikakulam
srikanth
srila
srinagar
sriniketan
srinivasan
sriram
srivastav
srivastava
srk
ss
ssc
st
sta
stability
stable
stad
stadium
staff
stage
stages
stake
stalin
stamps
stand
standard
standards
standing
stands
stanford
stanley
staple
star
stardom
stardust
starred
starrer
starring
stars
start
started
starting
starts
startup
stat
state
stateless
statement
statements
states
statesman
station
stations
statistic
statistical
statistics
statistik
statistique
statistiques
statoids
stats
statue
status
statutory
stay
std
steam
steel
steffi
stem
step
stephen
steps
sterling
steve
steven
stevenson
stewart
stica
sticks
still
stm
stmt
sto
stock
stone
stop
stopped
storage
store
stories
storm
story
straight
strait
straits
strategic
strategy
streaming
street
streets
strength
stress
strike
strikes
stroke
strong
structural
structure
structures
struggle
struggles
stuart
stub
student
students
studied
studies
studio
studios
study
stuff
stunned
stunning
stuti
style
su
sub
subarnarekha
subcontinent
subdistrict
subdivision
subdivisions
subhas
subhash
subject
subjects
subodh
subrahmanyam
subscription
subsequent
suburban
success
successful
successfully
succession
such
sucheta
suchi
sudan
sudha
sudhir
sudipta
suez
suffered
sufi
sugar
suggested
suicide
suite
sukumar
sulagna
sulekha
sulfide
sullivan
sultan
sultanate
sumatra
sumitra
summaries
summary
summer
summit
summits
sumona
sun
sundanese
sunday
sunder
sung
sunil
sunita
sunny
sunrise
sunset
suny
super
superintendent
superior
superseries
superstar
supply
support
supporting
supports
suppressed
supreme
sur
suraiya
surat
suresh
surface
surgery
surgical
suri
suriname
surprise
surrounding
survey
surveys
surya
suryavanshi
sus
susan
sushant
sushila
sushma
suspension
sustainable
sutaria
svenskt
svg
swachh
swadesh
swahili
swami
swaraj
swargesh
swati
swaziland
sweden
swedish
sweet
swimming
swiss
switch
switzerland
sworn
sydney
syed
syl
sylhet
syllabus
symbol
symbols
symphony
symposium
syndrome
synopsis
syntax
synthetic
syria
syriac
syste
system
systematic
systems
t
ta
taapsee
table
tablec
tables
tabu
tag
tagalog
tagore
tags
tahasilinfo
tahasilwebsite
tahitian
tai
taimur
taipei
taiwan
taj
tajik
tajikistan
tak
take
taken
takes
takia
taking
tal
talbot
taldangra
tale
talent
talented
tales
taliban
talk
talking
talks
tallest
taluka
taluks
talwar
tamannaah
tamil
tamilisai
tamilnadu
tamils
tandon
taneja
tang
tangail
tania
tank
tantric
tanuja
tanzania
taoism
tapan
tara
target
tarun
tashkent
taste
tata
tatanagar
tatar
taught
taw
tawang
tax
taxi
taxonomic
taxonomy
taylor
tbilisi
te
tea
teacher
teachers
teaching
team
teams
teaser
tech
technical
techniques
technocad
technological
technologies
technology
ted
tehelka
tehran
tehsil
tehsils
tej
telangana
telecommunication
telecommunications
telegraph
telegraphindia
television
tell
teller
tells
telly
tellychakkar
telugu
temperature
temperatures
template
templates
temple
temples
ten
tencent
tendulkar
tengah
tennis
tenth
ter
tere
teresa
term
terminology
terms
territorial
territories
territory
terror
terrorism
terry
test
testament
testcases
testing
tests
tetseo
tetum
tetun
tewari
texas
text
textbook
textbooks
textile
texts
tezpur
tga
th
tha
thai
thailand
thaker
thakur
than
thane
thanjavur
thapa
that
the
theater
theatre
thefreedictionary
theguardian
thehansindia
thehindu
thehindubusinessline
their
them
thematic
theme
themes
then
thenewsminute
theology
theorem
theories
theory
theprint
thequint
therapeutic
therapeutics
there
therefore
thesaurus
these
thesis
they
thimphu
thin
things
think
third
thirteenth
thirty
thiruvananthapuram
this
thomas
thomson
thoothukudi
those
though
thought
thoughts
thousand
thousands
thread
threat
threatened
three
thriller
thrissur
through
thu
thumb
thunder
thursday
thus
ti
tian
tibet
tibetan
tibeto
tica
ticket
ties
tiger
tigers
tigrinya
tiktok
tili
tilicho
till
tim
timber
time
timeanddate
timeline
times
timesalert
timesnownews
timesofindia
timor
tin
tina
tinsukia
tip
tips
tirane
tirhut
tirunelveli
tirupati
tiruppur
tissue
titan
title
titled
titles
titus
tiwari
tm
tmc
tn
tnn
to
tobacco
today
todays
todd
together
togo
toh
toi
tok
tokyo
told
toll
tollywood
tom
tomatoes
tomb
tomorrow
tones
tonga
tongo
tongue
tongues
tony
too
took
tool
tools
top
topic
topics
topography
tops
tor
tora
toronto
toshakhani
toshiro
total
totals
touch
tough
tour
tourism
tourist
tourists
tournament
tournaments
tournamentsoftware
tours
toward
towards
tower
town
towns
township
townships
toy
tp
tr
tra
tracing
track
tract
trade
trading
tradition
traditional
traditionally
traditions
traffic
tragedy
trail
trailer
train
trainer
training
trains
trans
transfer
transferred
transformation
transit
transition
translate
translated
translation
translations
translator
translit
transliteration
transport
transportation
trasta
travel
travelogue
travels
tre
treat
treatment
treaty
tree
trees
trek
trend
trending
trends
tri
trial
trials
triangle
tribal
tribals
tribe
tribes
tribunal
tribune
tribuneindia
tribute
tributes
trichy
trinamool
trip
tripathi
tripod
tripura
triumph
trivedi
trophy
tropical
troubled
tru
true
trueb
trust
truth
try
trying
ts
tsrtc
tsunami
tt
tu
tube
tudes
tudu
tuensang
tuesday
tulu
tum
tumkur
tur
turismo
turk
turkey
turkic
turkish
turkmen
turkmenistan
turks
turmeric
turn
turned
turning
turns
tutorial
tv
tw
twain
tweet
twelfth
twenty
twi
twice
twin
twitter
two
tylenol
type
types
tyto
tzu
tə
u
ua
uae
uc
ucb
uchicago
ucla
ud
udai
udaipur
udas
udaya
udham
udhampur
udhr
udmurt
udupi
ugc
ugric
ui
ujala
ujjain
uk
ukraine
ukrainian
ul
ulb
ultimate
uma
umar
umbilical
umbilicus
umi
un
una
unabridged
unacademy
uncle
und
under
undergraduate
underground
understanding
undp
unesco
ungegn
unhcr
uni
unicef
unicode
union
unions
unique
unit
united
units
unity
universal
universe
universita
universities
university
unknown
unlikely
unni
unp
unpo
unpublished
unrecognized
unreliable
unsung
until
unusual
unveiled
unveils
up
upa
upadhyay
upazila
upazilas
upcoming
update
updated
updates
upg
upiaq
upload
uploads
upper
upright
upsc
upsrtc
uralic
uranus
urban
urbanization
urdu
uri
url
urmila
uruguay
us
usa
usada
usage
usda
use
used
useful
user
users
uses
usgs
usha
using
usip
ussr
usually
ut
utara
utc
utkal
utkala
utm
uts
utsav
utsov
uttam
uttar
uttarakhand
uttaranchal
uttarkashi
uyghur
uz
uzbek
uzbekistan
v
va
vaccine
vacuum
vadodara
vaishali
vajpayee
validation
validity
valley
valois
valsad
value
values
valve
van
vandana
vanuatu
var
varanasi
variants
variation
variations
varieties
variety
various
varma
varsity
varun
vasai
vascular
vasundhara
vatican
vatsal
vc
vcs
ve
ved
vedic
veena
veer
veera
vegetarian
vegetation
vehicle
vehicles
vela
vella
vellore
venda
venezuela
venice
venkatesan
venture
ventures
venus
veps
verb
verbs
verde
verge
verlag
verma
vermont
versatile
version
versus
vertical
verve
very
veteran
veterans
vi
via
vic
vice
vicky
victim
victims
victor
victoria
victorian
victory
video
videos
vidhan
vidisha
vidya
vidyalaya
vidyarthi
vidyasagar
vidyut
vie
vienna
vientiane
vietnam
vietnamese
view
viewed
views
vihara
vii
viii
vijay
vijaya
vijayalakshmi
vijayanagara
vijayawada
vikarabad
vikas
vikram
vila
vilas
village
villageinfo
villages
villain
ville
vinayak
vincent
vinci
vintage
violence
vir
viral
virat
virginia
virtual
virudhunagar
virus
visakhapatnam
vishal
vishnu
visibility
visible
vision
visions
visit
visited
visitors
visits
visual
visva
viswanath
vita
vivek
vivekananda
vivid
vizag
vizianagaram
vmr
vo
vocabularies
vocabulary
voice
voices
vol
volapu
volcano
volleyball
vols
voltaire
volume
volumes
volunteer
volunteers
von
vote
voter
voters
votes
voting
vowel
vowels
voyage
vp
vs
vulnerable
vyasakabi
vyjayanthi
w
wa
waiba
waiting
wales
walk
walker
wall
wallace
walloon
walls
wals
walt
walter
wang
want
wanted
wants
war
warangal
waray
ward
wardha
wards
warhol
warm
warren
warring
warrior
warriors
wars
was
washington
wasseypur
waste
wat
watch
water
waterfall
waterfalls
waterloo
watershed
watt
wave
waves
wax
way
wayanad
wayback
ways
wb
wbscte
we
wealth
weapon
weather
weatherbase
web
webb
webcitation
weber
webindia
webpage
webportal
website
websites
webster
wedding
wednesday
week
weekly
weeks
weight
weightlifter
weightlifting
welcome
welfare
well
welle
wellington
wells
welsh
went
were
wesanthals
west
westbengal
western
westminster
wet
wetterdienst
wg
what
whc
wheat
wheel
when
where
whereas
whether
which
while
white
who
whole
whom
whos
whose
why
wicket
wide
widely
widow
width
wien
wife
wifistudy
wiki
wikibooks
wikidata
wikimapia
wikimedia
wikimedians
wikinews
wikipedia
wikipedias
wikiquote
wikisource
wikispecies
wikiversity
wikivoyage
wiktionary
wild
wildlife
wiley
wilhelm
will
willemen
william
williams
wilson
win
wind
window
windows
wine
wing
winner
winners
winning
wins
winston
winter
wipro
wire
wisdom
wise
wish
wishes
with
withdraws
within
without
witnesses
wittelsbach
witzel
wm
wo
wolfgang
wolfram
wolof
woman
women
womens
won
wonder
woo
wood
word
wordlist
wordpress
words
work
worked
worker
workers
working
works
workshop
workspace
world
worldbank
worldcat
worldpopulationreview
worlds
worldwide
worried
worship
worst
worth
would
wp
wraps
wrestler
wrestling
wright
write
writer
writereaddata
writers
writing
writings
written
wrote
ws
wsj
wt
wta
wu
wuhan
wwe
wwf
www
wyoming
x
xavier
xbiz
xhosa
xi
xia
xiaomi
xii
xiii
xinjiang
xiv
xix
xls
xlsx
xnepali
xrco
xuerui
xv
xxi
y
ya
yadav
yadgir
yahoo
yahya
yakut
yale
yamaguchi
yamuna
yangon
yash
yatra
ye
year
yearbook
years
yellow
yemen
yerevan
yes
yet
yi
yiddish
yihan
ying
yo
yoga
yogasundaram
yogi
yonex
york
yoru
yoruba
you
young
youngest
your
yourself
youth
youtube
youtuber
yrs
yu
yuan
yucineawards
yue
yufei
yumna
yuri
yuva
yuwa
z
za
zaidi
zail
zakir
zambia
zazaki
ze
zealand
zee
zeenews
zenodo
zentralanstalt
zero
zh
zhang
zhob
zhou
zhuang
zia
zide
zila
zilla
zimbabwe
zindagi
zip
ziya
zoe
zone
zoo
zoological
zoology
zoom
zquez
zu
zubaan
zubaida
zuk
zulu
{
|
}
~
£
§
©
«
®
°
²
´
·
º
»
½
¿
×
æ
÷
ø
đie
ı
ŋ
ɑ
ɔ
ə
ɛ
ɣ
ɪ
ɯ
ɲ
ɸ
ɽ
ɾ
ʃir
ʊ
ʔ
ʰ
ʱ
ʲ
ʹ
ʻ
ʼ
ʾ
ʿ
ˈ
ˌ
ː
ːˈ
ˤ
̀
́
̂
̃
̄
̆
̇
̈
̉
̊
̋
̌
̍
̓
̚
̛
̣
̥
̦
̧
̨
̪
̯
̱
̲
̳
͂
͡
α
β
γ
η
θ
ν
ο
ς
а
беларусь
в
г
государственныи
д
е
з
и
к
м
мов
н
на
населения
ни
о
по
республики
россии
русскии
с
скои
т
тили
у
украі
университет
федерации
х
ч
ю
я
язык
і
՝
ְ
ִ
ֶ
ַ
ָ
ּ
ׂ
א
ט
י
ל
נ
ר
ש
،
ا
الا
ب
باد
بن
ة
ت
خ
د
ر
س
ض
ضلع
ع
عبد
عيد
عید
ل
م
محمد
ن
و
ي
ً
َ
ُ
ِ
ّ
ْ
ٓ
ٔ
ٕ
ی
ے
۔
ހ
ނ
ރ
ބ
ކ
އ
ވ
މ
ދ
ތ
ލ
ގ
ސ
ޔ
ޖ
ޙ
ަ
ާ
ި
ީ
ު
ޫ
ެ
ޮ
ް
߬
߲
ँ
ं
ः
अ
अक
अगस
अध
अन
अब
अभ
अम
अर
आ
इ
इन
इम
इर
इल
इस
ई
उ
उन
उनक
उप
ए
एक
एग
एन
एम
एयर
ऑफ
ओ
ओल
औ
और
क
कम
कर
करण
कल
ख
ग
गर
घ
ङ
च
चन
छ
ज
जन
जप
जय
झ
ञ
ट
टर
ठ
ड
डक
ढ
ण
त
तक
तथ
तम
तर
तह
थ
द
दर
ध
धन
धर
न
नक
नगर
नगरप
नमन
नर
नस
नह
प
पण
पत
पद
पन
पर
पह
फ
ब
बन
बर
बह
भ
भण
म
मई
मन
मर
मल
मह
य
यक
यम
यर
यह
र
रक
रख
रघ
रत
रद
रध
रम
रस
रह
ल
लक
लग
लन
लय
ळ
व
वन
वर
वरण
श
शक
ष
स
सन
सभ
सम
सर
सरक
सह
ह
हत
हम
हर
़
ा
ि
ी
ु
ू
ृ
े
ै
ॉ
ो
ौ
्
।
१
१२
२
२००२
२००७
२००९
२०१२
२०१७
२०७३
२०७४
२७
४
५
६
७
८
९
ঁ
ং
ঃ
অ
অক
অধ
অন
অবস
অভ
অর
অসম
অৰ
আ
আইএসব
আগ
আগষ
আনন
আম
আর
আল
আশ
আহৰণ
আৰ
ই
ইউন
ইট
ইত
ইন
ইভ
ইমৰ
ঈ
ঈদ
উ
উইক
উজ
উদ
উন
উপজ
উম
উৎস
ঊ
ঋ
এ
এই
এক
একল
এন
এপ
এফ
এব
এম
এর
ঐ
ও
ওত
ওয
ঔ
ক
কক
কত
কথ
কব
কর
করণ
কল
কসভ
কৰ
খ
খন
গ
গড
গব
ঘ
ঘর
ঙ
চ
চক
চন
চল
চলচ
ছ
জ
জন
ঝ
ঞ
ট
ঠ
ড
ঢ
ণ
ণম
ণয
ত
তক
তথ
তন
তব
তর
তৰ
থ
দ
দক
দন
ধ
ধত
ধর
ন
নজর
নত
নদ
নব
নভ
নৱ
প
পক
পত
পদ
পর
ফ
ব
বঙ
বন
বব
বর
বল
বস
বৰ
ভ
ম
মত
মধ
মন
মহ
য
যক
যকর
যথ
যদ
র
রক
রণ
রত
রথম
রন
রব
রম
রয
রস
রহ
ল
লক
লয
শ
শক
শন
শব
ষ
ষণ
ষয
ষর
স
সব
সম
সময
সমষ
সর
হ
হয
হল
়
া
ি
ী
ু
ূ
ৃ
ে
ৈ
্
ৎ
ৗ
০
১
১০
১১
১২
১৪
১৫
১৬
১৮
২
২০
২০০৬
২০০৭
২০০৮
২০১০
২০১১
২০১২
২০১৩
২০১৪
২০১৫
২২
২৫
২৬
২৯
৩
৪
৫
৬
৭
৮
৮১
৯
৯৭৮
ৰ
ৰক
ৱ
৷
ਂ
ਆ
ਕ
ਖ
ਗ
ਜ
ਡ
ਤ
ਦ
ਨ
ਪ
ਬ
ਮ
ਰ
ਲ
ਵ
ਸ
ਹ
਼
ਾ
ਿ
ੀ
ੁ
ੂ
ੇ
ੈ
ੋ
ੌ
੍
ੜ
ੰ
ੱ
ં
ક
છ
ત
દ
ન
પ
મ
ય
ર
લ
સ
ા
િ
ી
ુ
ે
ો
્
ଁ
ଂ
ଅ
ଅକ
ଅଧ
ଅନ
ଅପ
ଅଭ
ଅମ
ଅର
ଅସ
ଆ
ଆକ
ଆନ
ଆର
ଆସ
ଇ
ଇଛ
ଇଥ
ଇନ
ଇଲ
ଈ
ଉ
ଉଡ
ଉତ
ଏ
ଏକ
ଏବ
ଏହ
ଓ
ଓଡ
ଓଲ
କ
କଟକ
କଥ
କନ
କମ
କର
କରଣ
କଲ
କଳ
ଖ
ଗ
ଗଛ
ଗର
ଗଲ
ଗଲର
ଘ
ଙ
ଚ
ଚନ
ଚଳଚ
ଛ
ଛନ
ଛବ
ଜ
ଜଗନ
ଜଙ
ଜନ
ଜର
ଜୟ
ଝ
ଞ
ଟ
ଟର
ଠ
ଡ
ଢ
ଣ
ତ
ତନ
ତମ
ତମନ
ତର
ଥ
ଦ
ଦର
ଧ
ଧର
ନ
ନଜର
ନନ
ନର
ପ
ପକ
ପଦ
ପନ
ପର
ପରଦ
ପରଲ
ଫ
ଫଳ
ବ
ବନ
ବର
ବସ
ବହ
ଭ
ଭବ
ମ
ମଧ
ମନ
ମର
ମହ
ଯ
ର
ରକ
ରଖ
ରଣ
ରତ
ରଥମ
ରଦର
ରବ
ରମ
ରର
ରସ
ରସଙ
ଲ
ଲକ
ଳ
ଳୟର
ଶ
ଶକ
ଶକଙ
ଶନ
ଶର
ଷ
ଷର
ସ
ସଙ
ସନ
ସମ
ସର
ସହ
ହ
ହର
଼
ା
ି
ୀ
ୁ
ୂ
ୃ
େ
୍
ୖ
ୗ
ୟ
ୟକ
ୟତ
ୟଦର
ୟର
୦
୧
୧୦
୧୨
୨
୨୦୧୧
୨୦୧୫
୩
୫
୬
୮
୯
ୱ
ୱନ
ୱପ
ୱର
க
ச
ஜ
ட
ண
த
ந
ன
ப
ம
ய
ர
ற
ல
ள
ழ
வ
வட
ஷ
ஸ
ா
ி
ீ
ு
ூ
ெ
ே
ை
்
ం
అ
క
గ
చ
జ
ట
డ
ణ
త
ద
న
ప
బ
భ
య
ర
ల
వ
స
ా
ి
ు
ూ
ె
ే
ో
్
ಂ
ಕ
ಗ
ಜ
ಟ
ಡ
ಣ
ತ
ದ
ನ
ಪ
ರ
ಲ
ಳ
ವ
ಷ
ಸ
ಾ
ಿ
ು
ೂ
ೆ
ೌ
್
ೕ
ം
ക
ഖ
ച
ഞ
ട
ഡ
ണ
ത
ന
പ
മ
യ
ര
റ
ല
ള
ഴ
വ
ശ
സ
ാ
ി
ീ
ു
ൂ
െ
േ
ൈ
്
ൻ
ൽ
ൾ
ක
ග
ට
ත
ද
න
ප
ම
ය
ර
ල
ව
ස
හ
්
ා
ැ
ි
ු
ෙ
ั
ิ
ี
ื
ู
้
ຈ
ນ
ັ
໌
་
།
ག
ང
ཆ
ད
ན
བ
མ
ཚ
ཡ
ར
ལ
ས
ི
ུ
ོ
ྐ
ྒ
ྟ
ྦ
ྫ
ྱ
ྲ
က
ခ
င
စ
ည
တ
ဒ
န
နယ
ပ
ဗ
ဘ
မ
ယ
ရ
ဝ
သ
သက
အ
ာ
ိ
ီ
ု
ူ
ေ
ဲ
ဳ
့
း
္
်
ျ
ြ
ွ
ှ
၊
ជ
ញ
ន
ព
ភ
ម
រ
ស
ា
ុ
េ
ែ
ំ
្
ᤠ
ᬶ
ᮔ
ᮥ
᮪
᱐
᱐᱐
᱐᱐᱐
᱐᱐᱑
᱐᱐᱒
᱐᱐᱓
᱐᱐᱔
᱐᱐᱕
᱐᱐᱖
᱐᱐᱗
᱐᱐᱘
᱐᱐᱙
᱐᱑
᱐᱑᱐
᱐᱑᱑
᱐᱑᱒
᱐᱑᱔
᱐᱑᱕
᱐᱑᱖
᱐᱑᱗
᱐᱑᱘
᱐᱑᱙
᱐᱒
᱐᱒᱐
᱐᱒᱒
᱐᱒᱓
᱐᱒᱔
᱐᱒᱕
᱐᱒᱖
᱐᱒᱗
᱐᱒᱘
᱐᱒᱙
᱐᱓
᱐᱓᱐
᱐᱓᱑
᱐᱓᱒
᱐᱓᱓
᱐᱓᱔
᱐᱓᱕
᱐᱓᱖
᱐᱓᱗
᱐᱓᱘
᱐᱔
᱐᱔᱐
᱐᱔᱑
᱐᱔᱒
᱐᱔᱓
᱐᱔᱗
᱐᱔᱘
᱐᱔᱙
᱐᱕
᱐᱕᱐
᱐᱕᱒
᱐᱕᱓
᱐᱕᱔
᱐᱕᱕
᱐᱕᱖
᱐᱕᱗
᱐᱕᱘
᱐᱕᱙
᱐᱖
᱐᱖᱐
᱐᱖᱑
᱐᱖᱒
᱐᱖᱓
᱐᱖᱔
᱐᱖᱖
᱐᱖᱗
᱐᱖᱙
᱐᱗
᱐᱗᱐
᱐᱗᱑
᱐᱗᱒
᱐᱗᱓
᱐᱗᱕
᱐᱗᱗
᱐᱗᱘
᱐᱘
᱐᱘᱐
᱐᱘᱑
᱐᱘᱒
᱐᱘᱔
᱐᱘᱕
᱐᱘᱖
᱐᱘᱗
᱐᱘᱘
᱐᱘᱙
᱐᱙
᱐᱙᱐
᱐᱙᱑
᱐᱙᱒
᱐᱙᱓
᱐᱙᱔
᱐᱙᱕
᱐᱙᱖
᱐᱙᱗
᱐᱙᱘
᱐᱙᱙
᱑
᱑᱐
᱑᱐᱐
᱑᱐᱐᱐
᱑᱐᱐᱐᱐
᱑᱐᱐᱒
᱑᱐᱐᱔
᱑᱐᱐᱕
᱑᱐᱐᱖
᱑᱐᱐᱗
᱑᱐᱐᱘
᱑᱐᱑
᱑᱐᱑᱐
᱑᱐᱑᱑
᱑᱐᱑᱓
᱑᱐᱑᱔
᱑᱐᱑᱖
᱑᱐᱑᱙
᱑᱐᱒
᱑᱐᱒᱐
᱑᱐᱒᱑
᱑᱐᱒᱒
᱑᱐᱒᱓
᱑᱐᱒᱙
᱑᱐᱓
᱑᱐᱓᱕
᱑᱐᱓᱖
᱑᱐᱔
᱑᱐᱔᱓
᱑᱐᱔᱕
᱑᱐᱔᱖
᱑᱐᱔᱘
᱑᱐᱕
᱑᱐᱕᱕
᱑᱐᱖
᱑᱐᱖᱒
᱑᱐᱖᱖
᱑᱐᱗
᱑᱐᱗᱔
᱑᱐᱘
᱑᱐᱘᱐
᱑᱐᱘᱓
᱑᱐᱘᱔
᱑᱐᱘᱖
᱑᱐᱘᱘
᱑᱐᱙
᱑᱑
᱑᱑᱐
᱑᱑᱐᱐
᱑᱑᱑
᱑᱑᱒
᱑᱑᱒᱗
᱑᱑᱓
᱑᱑᱓᱐
᱑᱑᱔
᱑᱑᱕
᱑᱑᱖
᱑᱑᱗
᱑᱑᱗᱐
᱑᱑᱘
᱑᱑᱙
᱑᱒
᱑᱒᱐
᱑᱒᱐᱐
᱑᱒᱑
᱑᱒᱑᱑
᱑᱒᱒
᱑᱒᱒᱘
᱑᱒᱓
᱑᱒᱔
᱑᱒᱔᱐
᱑᱒᱕
᱑᱒᱕᱐
᱑᱒᱕᱗
᱑᱒᱖
᱑᱒᱖᱑
᱑᱒᱖᱗
᱑᱒᱗
᱑᱒᱗᱖
᱑᱒᱘
᱑᱒᱘᱙
᱑᱒᱙
᱑᱓
᱑᱓᱐
᱑᱓᱐᱐
᱑᱓᱐᱔
᱑᱓᱐᱖
᱑᱓᱑
᱑᱓᱑᱒
᱑᱓᱒
᱑᱓᱓
᱑᱓᱓᱓
᱑᱓᱔
᱑᱓᱔᱙
᱑᱓᱕
᱑᱓᱖
᱑᱓᱗
᱑᱓᱘
᱑᱓᱙
᱑᱔
᱑᱔᱐
᱑᱔᱐᱐
᱑᱔᱑
᱑᱔᱒
᱑᱔᱒᱑
᱑᱔᱓
᱑᱔᱔
᱑᱔᱕
᱑᱔᱖
᱑᱔᱗
᱑᱔᱗᱑
᱑᱔᱘
᱑᱔᱘᱓
᱑᱔᱙
᱑᱔᱙᱒
᱑᱕
᱑᱕᱐
᱑᱕᱐᱐
᱑᱕᱐᱕
᱑᱕᱑
᱑᱕᱑᱖
᱑᱕᱑᱘
᱑᱕᱑᱙
᱑᱕᱒
᱑᱕᱒᱐
᱑᱕᱒᱓
᱑᱕᱒᱖
᱑᱕᱓
᱑᱕᱓᱐
᱑᱕᱓᱖
᱑᱕᱓᱙
᱑᱕᱔
᱑᱕᱔᱐
᱑᱕᱕
᱑᱕᱕᱕
᱑᱕᱕᱖
᱑᱕᱖
᱑᱕᱖᱔
᱑᱕᱖᱕
᱑᱕᱖᱙
᱑᱕᱗
᱑᱕᱘
᱑᱕᱘᱕
᱑᱕᱘᱙
᱑᱕᱙
᱑᱕᱙᱒
᱑᱖
᱑᱖᱐
᱑᱖᱐᱐
᱑᱖᱐᱖
᱑᱖᱑
᱑᱖᱑᱐
᱑᱖᱑᱒
᱑᱖᱑᱔
᱑᱖᱒
᱑᱖᱒᱓
᱑᱖᱒᱘
᱑᱖᱓
᱑᱖᱔
᱑᱖᱔᱐
᱑᱖᱔᱓
᱑᱖᱕
᱑᱖᱖
᱑᱖᱖᱐
᱑᱖᱖᱕
᱑᱖᱗
᱑᱖᱘
᱑᱖᱘᱘
᱑᱖᱙
᱑᱖᱙᱔
᱑᱗
᱑᱗᱐
᱑᱗᱐᱐
᱑᱗᱐᱗
᱑᱗᱑
᱑᱗᱑᱒
᱑᱗᱑᱕
᱑᱗᱑᱙
᱑᱗᱒
᱑᱗᱒᱓
᱑᱗᱒᱔
᱑᱗᱒᱘
᱑᱗᱓
᱑᱗᱓᱖
᱑᱗᱓᱗
᱑᱗᱔
᱑᱗᱔᱐
᱑᱗᱔᱗
᱑᱗᱕
᱑᱗᱕᱐
᱑᱗᱕᱒
᱑᱗᱕᱔
᱑᱗᱕᱕
᱑᱗᱕᱗
᱑᱗᱕᱘
᱑᱗᱖
᱑᱗᱖᱐
᱑᱗᱖᱒
᱑᱗᱖᱓
᱑᱗᱖᱔
᱑᱗᱖᱕
᱑᱗᱖᱙
᱑᱗᱗
᱑᱗᱗᱐
᱑᱗᱗᱑
᱑᱗᱗᱒
᱑᱗᱗᱕
᱑᱗᱗᱖
᱑᱗᱗᱘
᱑᱗᱗᱙
᱑᱗᱘
᱑᱗᱘᱐
᱑᱗᱘᱑
᱑᱗᱘᱒
᱑᱗᱘᱓
᱑᱗᱘᱔
᱑᱗᱘᱕
᱑᱗᱘᱗
᱑᱗᱘᱙
᱑᱗᱙
᱑᱗᱙᱐
᱑᱗᱙᱒
᱑᱗᱙᱓
᱑᱗᱙᱕
᱑᱗᱙᱖
᱑᱗᱙᱗
᱑᱗᱙᱙
᱑᱘
᱑᱘᱐
᱑᱘᱐᱐
᱑᱘᱐᱒
᱑᱘᱐᱓
᱑᱘᱐᱔
᱑᱘᱐᱕
᱑᱘᱐᱖
᱑᱘᱐᱙
᱑᱘᱑
᱑᱘᱑᱑
᱑᱘᱑᱒
᱑᱘᱑᱓
᱑᱘᱑᱔
᱑᱘᱑᱕
᱑᱘᱑᱖
᱑᱘᱑᱗
᱑᱘᱑᱘
᱑᱘᱑᱙
᱑᱘᱒
᱑᱘᱒᱐
᱑᱘᱒᱑
᱑᱘᱒᱒
᱑᱘᱒᱔
᱑᱘᱒᱕
᱑᱘᱒᱖
᱑᱘᱒᱗
᱑᱘᱒᱘
᱑᱘᱒᱙
᱑᱘᱓
᱑᱘᱓᱐
᱑᱘᱓᱑
᱑᱘᱓᱒
᱑᱘᱓᱓
᱑᱘᱓᱔
᱑᱘᱓᱕
᱑᱘᱓᱗
᱑᱘᱓᱘
᱑᱘᱓᱙
᱑᱘᱔
᱑᱘᱔᱐
᱑᱘᱔᱒
᱑᱘᱔᱓
᱑᱘᱔᱔
᱑᱘᱔᱕
᱑᱘᱔᱖
᱑᱘᱔᱗
᱑᱘᱔᱘
᱑᱘᱔᱙
᱑᱘᱕
᱑᱘᱕᱐
᱑᱘᱕᱑
᱑᱘᱕᱒
᱑᱘᱕᱓
᱑᱘᱕᱔
᱑᱘᱕᱕
᱑᱘᱕᱖
᱑᱘᱕᱗
᱑᱘᱕᱘
᱑᱘᱕᱙
᱑᱘᱖
᱑᱘᱖᱐
᱑᱘᱖᱑
᱑᱘᱖᱒
᱑᱘᱖᱓
᱑᱘᱖᱔
᱑᱘᱖᱕
᱑᱘᱖᱖
᱑᱘᱖᱗
᱑᱘᱖᱘
᱑᱘᱖᱙
᱑᱘᱗
᱑᱘᱗᱐
᱑᱘᱗᱑
᱑᱘᱗᱒
᱑᱘᱗᱓
᱑᱘᱗᱔
᱑᱘᱗᱕
᱑᱘᱗᱖
᱑᱘᱗᱗
᱑᱘᱗᱘
᱑᱘᱗᱙
᱑᱘᱘
᱑᱘᱘᱐
᱑᱘᱘᱑
᱑᱘᱘᱒
᱑᱘᱘᱓
᱑᱘᱘᱔
᱑᱘᱘᱕
᱑᱘᱘᱖
᱑᱘᱘᱗
᱑᱘᱘᱘
᱑᱘᱘᱙
᱑᱘᱙
᱑᱘᱙᱐
᱑᱘᱙᱑
᱑᱘᱙᱒
᱑᱘᱙᱓
᱑᱘᱙᱔
᱑᱘᱙᱕
᱑᱘᱙᱖
᱑᱘᱙᱗
᱑᱘᱙᱘
᱑᱘᱙᱙
᱑᱙
᱑᱙᱐
᱑᱙᱐᱐
᱑᱙᱐᱑
᱑᱙᱐᱒
᱑᱙᱐᱓
᱑᱙᱐᱔
᱑᱙᱐᱕
᱑᱙᱐᱖
᱑᱙᱐᱗
᱑᱙᱐᱘
᱑᱙᱐᱙
᱑᱙᱑
᱑᱙᱑᱐
᱑᱙᱑᱑
᱑᱙᱑᱒
᱑᱙᱑᱓
᱑᱙᱑᱔
᱑᱙᱑᱕
᱑᱙᱑᱖
᱑᱙᱑᱗
᱑᱙᱑᱘
᱑᱙᱑᱙
᱑᱙᱒
᱑᱙᱒᱐
᱑᱙᱒᱑
᱑᱙᱒᱒
᱑᱙᱒᱓
᱑᱙᱒᱔
᱑᱙᱒᱕
᱑᱙᱒᱖
᱑᱙᱒᱗
᱑᱙᱒᱘
᱑᱙᱒᱙
᱑᱙᱓
᱑᱙᱓᱐
᱑᱙᱓᱑
᱑᱙᱓᱒
᱑᱙᱓᱓
᱑᱙᱓᱔
᱑᱙᱓᱕
᱑᱙᱓᱖
᱑᱙᱓᱗
᱑᱙᱓᱘
᱑᱙᱓᱙
᱑᱙᱔
᱑᱙᱔᱐
᱑᱙᱔᱑
᱑᱙᱔᱒
᱑᱙᱔᱓
᱑᱙᱔᱔
᱑᱙᱔᱕
᱑᱙᱔᱖
᱑᱙᱔᱗
᱑᱙᱔᱘
᱑᱙᱔᱙
᱑᱙᱕
᱑᱙᱕᱐
᱑᱙᱕᱑
᱑᱙᱕᱒
᱑᱙᱕᱓
᱑᱙᱕᱔
᱑᱙᱕᱕
᱑᱙᱕᱖
᱑᱙᱕᱗
᱑᱙᱕᱘
᱑᱙᱕᱙
᱑᱙᱖
᱑᱙᱖᱐
᱑᱙᱖᱑
᱑᱙᱖᱒
᱑᱙᱖᱓
᱑᱙᱖᱔
᱑᱙᱖᱕
᱑᱙᱖᱖
᱑᱙᱖᱗
᱑᱙᱖᱘
᱑᱙᱖᱙
᱑᱙᱗
᱑᱙᱗᱐
᱑᱙᱗᱑
᱑᱙᱗᱒
᱑᱙᱗᱓
᱑᱙᱗᱔
᱑᱙᱗᱕
᱑᱙᱗᱖
᱑᱙᱗᱗
᱑᱙᱗᱘
᱑᱙᱗᱙
᱑᱙᱘
᱑᱙᱘᱐
᱑᱙᱘᱑
᱑᱙᱘᱒
᱑᱙᱘᱓
᱑᱙᱘᱔
᱑᱙᱘᱕
᱑᱙᱘᱖
᱑᱙᱘᱗
᱑᱙᱘᱘
᱑᱙᱘᱙
᱑᱙᱙
᱑᱙᱙᱐
᱑᱙᱙᱑
᱑᱙᱙᱒
᱑᱙᱙᱓
᱑᱙᱙᱔
᱑᱙᱙᱕
᱑᱙᱙᱖
᱑᱙᱙᱗
᱑᱙᱙᱘
᱑᱙᱙᱙
᱒
᱒᱐
᱒᱐᱐
᱒᱐᱐᱐
᱒᱐᱐᱑
᱒᱐᱐᱒
᱒᱐᱐᱓
᱒᱐᱐᱔
᱒᱐᱐᱕
᱒᱐᱐᱖
᱒᱐᱐᱗
᱒᱐᱐᱘
᱒᱐᱐᱙
᱒᱐᱑
᱒᱐᱑᱐
᱒᱐᱑᱑
᱒᱐᱑᱒
᱒᱐᱑᱓
᱒᱐᱑᱔
᱒᱐᱑᱕
᱒᱐᱑᱖
᱒᱐᱑᱗
᱒᱐᱑᱘
᱒᱐᱑᱙
᱒᱐᱒
᱒᱐᱒᱐
᱒᱐᱒᱑
᱒᱐᱒᱒
᱒᱐᱒᱔
᱒᱐᱒᱘
᱒᱐᱓
᱒᱐᱓᱐
᱒᱐᱓᱙
᱒᱐᱔
᱒᱐᱔᱖
᱒᱐᱕
᱒᱐᱕᱐
᱒᱐᱕᱒
᱒᱐᱕᱘
᱒᱐᱖
᱒᱐᱖᱒
᱒᱐᱖᱕
᱒᱐᱖᱘
᱒᱐᱗
᱒᱐᱗᱒
᱒᱐᱘
᱒᱐᱙
᱒᱑
᱒᱑᱐
᱒᱑᱐᱐
᱒᱑᱑
᱒᱑᱒
᱒᱑᱓
᱒᱑᱔
᱒᱑᱕
᱒᱑᱖
᱒᱑᱗
᱒᱑᱘
᱒᱑᱙
᱒᱒
᱒᱒᱐
᱒᱒᱑
᱒᱒᱒
᱒᱒᱓
᱒᱒᱔
᱒᱒᱕
᱒᱒᱖
᱒᱒᱗
᱒᱒᱘
᱒᱒᱙
᱒᱓
᱒᱓᱐
᱒᱓᱑
᱒᱓᱒
᱒᱓᱓
᱒᱓᱔
᱒᱓᱕
᱒᱓᱖
᱒᱓᱗
᱒᱓᱘
᱒᱓᱙
᱒᱔
᱒᱔᱐
᱒᱔᱐᱐
᱒᱔᱑
᱒᱔᱒
᱒᱔᱓
᱒᱔᱔
᱒᱔᱕
᱒᱔᱖
᱒᱔᱗
᱒᱔᱘
᱒᱔᱙
᱒᱕
᱒᱕᱐
᱒᱕᱐᱐
᱒᱕᱐᱐᱐
᱒᱕᱑
᱒᱕᱒
᱒᱕᱓
᱒᱕᱔
᱒᱕᱕
᱒᱕᱖
᱒᱕᱗
᱒᱕᱘
᱒᱕᱙
᱒᱖
᱒᱖᱐
᱒᱖᱑
᱒᱖᱒
᱒᱖᱓
᱒᱖᱔
᱒᱖᱕
᱒᱖᱖
᱒᱖᱗
᱒᱖᱗᱗
᱒᱖᱘
᱒᱖᱙
᱒᱗
᱒᱗᱐
᱒᱗᱑
᱒᱗᱒
᱒᱗᱓
᱒᱗᱔
᱒᱗᱕
᱒᱗᱖
᱒᱗᱗
᱒᱗᱘
᱒᱗᱙
᱒᱘
᱒᱘᱐
᱒᱘᱐᱐
᱒᱘᱑
᱒᱘᱒
᱒᱘᱓
᱒᱘᱔
᱒᱘᱕
᱒᱘᱖
᱒᱘᱗
᱒᱘᱘
᱒᱘᱙
᱒᱙
᱒᱙᱐
᱒᱙᱑
᱒᱙᱒
᱒᱙᱓
᱒᱙᱔
᱒᱙᱕
᱒᱙᱖
᱒᱙᱗
᱒᱙᱘
᱒᱙᱙
᱓
᱓᱐
᱓᱐᱐
᱓᱐᱐᱐
᱓᱐᱐᱐᱐
᱓᱐᱑
᱓᱐᱒
᱓᱐᱓
᱓᱐᱔
᱓᱐᱕
᱓᱐᱖
᱓᱐᱗
᱓᱐᱘
᱓᱐᱙
᱓᱑
᱓᱑᱐
᱓᱑᱑
᱓᱑᱒
᱓᱑᱓
᱓᱑᱔
᱓᱑᱕
᱓᱑᱖
᱓᱑᱗
᱓᱑᱘
᱓᱑᱙
᱓᱒
᱓᱒᱐
᱓᱒᱑
᱓᱒᱒
᱓᱒᱓
᱓᱒᱔
᱓᱒᱕
᱓᱒᱖
᱓᱒᱗
᱓᱒᱘
᱓᱒᱙
᱓᱓
᱓᱓᱐
᱓᱓᱐᱐
᱓᱓᱑
᱓᱓᱒
᱓᱓᱓
᱓᱓᱔
᱓᱓᱕
᱓᱓᱖
᱓᱓᱗
᱓᱓᱘
᱓᱓᱙
᱓᱔
᱓᱔᱐
᱓᱔᱑
᱓᱔᱒
᱓᱔᱓
᱓᱔᱔
᱓᱔᱕
᱓᱔᱖
᱓᱔᱗
᱓᱔᱘
᱓᱔᱙
᱓᱕
᱓᱕᱐
᱓᱕᱐᱐
᱓᱕᱑
᱓᱕᱒
᱓᱕᱓
᱓᱕᱔
᱓᱕᱕
᱓᱕᱖
᱓᱕᱗
᱓᱕᱘
᱓᱕᱙
᱓᱖
᱓᱖᱐
᱓᱖᱑
᱓᱖᱒
᱓᱖᱓
᱓᱖᱔
᱓᱖᱕
᱓᱖᱖
᱓᱖᱗
᱓᱖᱘
᱓᱖᱙
᱓᱗
᱓᱗᱐
᱓᱗᱑
᱓᱗᱒
᱓᱗᱓
᱓᱗᱔
᱓᱗᱕
᱓᱗᱖
᱓᱗᱗
᱓᱗᱘
᱓᱗᱙
᱓᱘
᱓᱘᱐
᱓᱘᱑
᱓᱘᱒
᱓᱘᱓
᱓᱘᱔
᱓᱘᱕
᱓᱘᱖
᱓᱘᱗
᱓᱘᱘
᱓᱘᱙
᱓᱙
᱓᱙᱐
᱓᱙᱑
᱓᱙᱒
᱓᱙᱓
᱓᱙᱔
᱓᱙᱕
᱓᱙᱖
᱓᱙᱗
᱓᱙᱘
᱓᱙᱙
᱔
᱔᱐
᱔᱐᱐
᱔᱐᱐᱐
᱔᱐᱑
᱔᱐᱒
᱔᱐᱓
᱔᱐᱔
᱔᱐᱕
᱔᱐᱖
᱔᱐᱗
᱔᱐᱘
᱔᱐᱙
᱔᱑
᱔᱑᱐
᱔᱑᱑
᱔᱑᱒
᱔᱑᱓
᱔᱑᱔
᱔᱑᱕
᱔᱑᱖
᱔᱑᱗
᱔᱑᱘
᱔᱑᱙
᱔᱒
᱔᱒᱐
᱔᱒᱑
᱔᱒᱒
᱔᱒᱓
᱔᱒᱔
᱔᱒᱕
᱔᱒᱖
᱔᱒᱗
᱔᱒᱘
᱔᱒᱙
᱔᱓
᱔᱓᱐
᱔᱓᱑
᱔᱓᱒
᱔᱓᱓
᱔᱓᱔
᱔᱓᱕
᱔᱓᱖
᱔᱓᱗
᱔᱓᱘
᱔᱓᱙
᱔᱔
᱔᱔᱐
᱔᱔᱑
᱔᱔᱒
᱔᱔᱓
᱔᱔᱔
᱔᱔᱕
᱔᱔᱖
᱔᱔᱗
᱔᱔᱘
᱔᱔᱙
᱔᱕
᱔᱕᱐
᱔᱕᱑
᱔᱕᱒
᱔᱕᱔
᱔᱕᱕
᱔᱕᱖
᱔᱕᱗
᱔᱕᱘
᱔᱕᱙
᱔᱖
᱔᱖᱐
᱔᱖᱑
᱔᱖᱒
᱔᱖᱓
᱔᱖᱔
᱔᱖᱕
᱔᱖᱖
᱔᱖᱗
᱔᱖᱘
᱔᱖᱙
᱔᱗
᱔᱗᱐
᱔᱗᱑
᱔᱗᱒
᱔᱗᱓
᱔᱗᱔
᱔᱗᱕
᱔᱗᱖
᱔᱗᱗
᱔᱗᱘
᱔᱗᱙
᱔᱘
᱔᱘᱐
᱔᱘᱑
᱔᱘᱒
᱔᱘᱓
᱔᱘᱔
᱔᱘᱕
᱔᱘᱖
᱔᱘᱗
᱔᱘᱘
᱔᱘᱙
᱔᱙
᱔᱙᱐
᱔᱙᱑
᱔᱙᱒
᱔᱙᱓
᱔᱙᱔
᱔᱙᱕
᱔᱙᱖
᱔᱙᱗
᱔᱙᱘
᱔᱙᱙
᱕
᱕᱐
᱕᱐᱐
᱕᱐᱐᱐
᱕᱐᱑
᱕᱐᱒
᱕᱐᱓
᱕᱐᱔
᱕᱐᱕
᱕᱐᱖
᱕᱐᱗
᱕᱐᱘
᱕᱐᱙
᱕᱑
᱕᱑᱐
᱕᱑᱑
᱕᱑᱒
᱕᱑᱓
᱕᱑᱔
᱕᱑᱕
᱕᱑᱖
᱕᱑᱗
᱕᱑᱘
᱕᱑᱙
᱕᱒
᱕᱒᱐
᱕᱒᱑
᱕᱒᱒
᱕᱒᱓
᱕᱒᱔
᱕᱒᱕
᱕᱒᱖
᱕᱒᱗
᱕᱒᱘
᱕᱒᱙
᱕᱓
᱕᱓᱐
᱕᱓᱑
᱕᱓᱒
᱕᱓᱓
᱕᱓᱔
᱕᱓᱕
᱕᱓᱖
᱕᱓᱗
᱕᱓᱘
᱕᱓᱙
᱕᱔
᱕᱔᱐
᱕᱔᱑
᱕᱔᱒
᱕᱔᱓
᱕᱔᱔
᱕᱔᱕
᱕᱔᱖
᱕᱔᱗
᱕᱔᱘
᱕᱔᱙
᱕᱕
᱕᱕᱐
᱕᱕᱑
᱕᱕᱒
᱕᱕᱓
᱕᱕᱔
᱕᱕᱕
᱕᱕᱖
᱕᱕᱗
᱕᱕᱘
᱕᱕᱙
᱕᱖
᱕᱖᱐
᱕᱖᱑
᱕᱖᱒
᱕᱖᱓
᱕᱖᱔
᱕᱖᱕
᱕᱖᱖
᱕᱖᱗
᱕᱖᱘
᱕᱖᱙
᱕᱗
᱕᱗᱐
᱕᱗᱑
᱕᱗᱒
᱕᱗᱓
᱕᱗᱔
᱕᱗᱕
᱕᱗᱖
᱕᱗᱗
᱕᱗᱘
᱕᱗᱙
᱕᱘
᱕᱘᱐
᱕᱘᱑
᱕᱘᱒
᱕᱘᱓
᱕᱘᱔
᱕᱘᱕
᱕᱘᱖
᱕᱘᱗
᱕᱘᱘
᱕᱘᱙
᱕᱙
᱕᱙᱐
᱕᱙᱑
᱕᱙᱒
᱕᱙᱓
᱕᱙᱔
᱕᱙᱕
᱕᱙᱖
᱕᱙᱗
᱕᱙᱘
᱕᱙᱙
᱖
᱖᱐
᱖᱐᱐
᱖᱐᱐᱐
᱖᱐᱑
᱖᱐᱒
᱖᱐᱓
᱖᱐᱔
᱖᱐᱕
᱖᱐᱖
᱖᱐᱗
᱖᱐᱘
᱖᱐᱙
᱖᱑
᱖᱑᱐
᱖᱑᱑
᱖᱑᱒
᱖᱑᱓
᱖᱑᱔
᱖᱑᱕
᱖᱑᱖
᱖᱑᱗
᱖᱑᱘
᱖᱑᱙
᱖᱒
᱖᱒᱐
᱖᱒᱑
᱖᱒᱒
᱖᱒᱓
᱖᱒᱔
᱖᱒᱕
᱖᱒᱖
᱖᱒᱗
᱖᱒᱘
᱖᱒᱙
᱖᱓
᱖᱓᱐
᱖᱓᱑
᱖᱓᱒
᱖᱓᱓
᱖᱓᱔
᱖᱓᱕
᱖᱓᱖
᱖᱓᱗
᱖᱓᱘
᱖᱓᱙
᱖᱔
᱖᱔᱐
᱖᱔᱑
᱖᱔᱒
᱖᱔᱓
᱖᱔᱔
᱖᱔᱕
᱖᱔᱖
᱖᱔᱗
᱖᱔᱘
᱖᱔᱙
᱖᱕
᱖᱕᱐
᱖᱕᱑
᱖᱕᱒
᱖᱕᱓
᱖᱕᱔
᱖᱕᱕
᱖᱕᱖
᱖᱕᱗
᱖᱕᱘
᱖᱕᱙
᱖᱖
᱖᱖᱐
᱖᱖᱑
᱖᱖᱒
᱖᱖᱓
᱖᱖᱔
᱖᱖᱕
᱖᱖᱗
᱖᱖᱘
᱖᱗
᱖᱗᱐
᱖᱗᱑
᱖᱗᱒
᱖᱗᱓
᱖᱗᱕
᱖᱗᱖
᱖᱗᱗
᱖᱗᱘
᱖᱗᱙
᱖᱘
᱖᱘᱐
᱖᱘᱑
᱖᱘᱒
᱖᱘᱓
᱖᱘᱔
᱖᱘᱕
᱖᱘᱖
᱖᱘᱗
᱖᱘᱘
᱖᱘᱙
᱖᱙
᱖᱙᱐
᱖᱙᱑
᱖᱙᱒
᱖᱙᱓
᱖᱙᱔
᱖᱙᱕
᱖᱙᱖
᱖᱙᱗
᱖᱙᱘
᱖᱙᱙
᱗
᱗᱐
᱗᱐᱐
᱗᱐᱐᱐
᱗᱐᱑
᱗᱐᱒
᱗᱐᱓
᱗᱐᱔
᱗᱐᱕
᱗᱐᱖
᱗᱐᱗
᱗᱐᱘
᱗᱐᱙
᱗᱑
᱗᱑᱐
᱗᱑᱑
᱗᱑᱒
᱗᱑᱓
᱗᱑᱔
᱗᱑᱕
᱗᱑᱖
᱗᱑᱗
᱗᱑᱘
᱗᱑᱙
᱗᱒
᱗᱒᱐
᱗᱒᱑
᱗᱒᱒
᱗᱒᱓
᱗᱒᱔
᱗᱒᱕
᱗᱒᱖
᱗᱒᱗
᱗᱒᱘
᱗᱓
᱗᱓᱐
᱗᱓᱑
᱗᱓᱒
᱗᱓᱓
᱗᱓᱔
᱗᱓᱕
᱗᱓᱖
᱗᱓᱗
᱗᱓᱘
᱗᱓᱙
᱗᱔
᱗᱔᱐
᱗᱔᱑
᱗᱔᱒
᱗᱔᱓
᱗᱔᱔
᱗᱔᱕
᱗᱔᱖
᱗᱔᱗
᱗᱔᱘
᱗᱔᱙
᱗᱕
᱗᱕᱐
᱗᱕᱑
᱗᱕᱒
᱗᱕᱓
᱗᱕᱔
᱗᱕᱕
᱗᱕᱖
᱗᱕᱗
᱗᱕᱘
᱗᱖
᱗᱖᱐
᱗᱖᱑
᱗᱖᱒
᱗᱖᱓
᱗᱖᱔
᱗᱖᱕
᱗᱖᱖
᱗᱖᱗
᱗᱖᱘
᱗᱖᱙
᱗᱗
᱗᱗᱐
᱗᱗᱑
᱗᱗᱒
᱗᱗᱓
᱗᱗᱔
᱗᱗᱕
᱗᱗᱖
᱗᱗᱗
᱗᱗᱘
᱗᱗᱙
᱗᱘
᱗᱘᱐
᱗᱘᱑
᱗᱘᱒
᱗᱘᱓
᱗᱘᱔
᱗᱘᱕
᱗᱘᱖
᱗᱘᱗
᱗᱘᱘
᱗᱘᱙
᱗᱙
᱗᱙᱐
᱗᱙᱑
᱗᱙᱒
᱗᱙᱓
᱗᱙᱔
᱗᱙᱕
᱗᱙᱗
᱗᱙᱙
᱘
᱘᱐
᱘᱐᱐
᱘᱐᱐᱐
᱘᱐᱑
᱘᱐᱒
᱘᱐᱔
᱘᱐᱕
᱘᱐᱖
᱘᱐᱗
᱘᱐᱘
᱘᱐᱙
᱘᱑
᱘᱑᱐
᱘᱑᱑
᱘᱑᱒
᱘᱑᱓
᱘᱑᱔
᱘᱑᱕
᱘᱑᱖
᱘᱑᱗
᱘᱑᱘
᱘᱑᱙
᱘᱒
᱘᱒᱐
᱘᱒᱑
᱘᱒᱒
᱘᱒᱓
᱘᱒᱔
᱘᱒᱖
᱘᱒᱗
᱘᱒᱘
᱘᱒᱙
᱘᱓
᱘᱓᱐
᱘᱓᱑
᱘᱓᱒
᱘᱓᱓
᱘᱓᱔
᱘᱓᱕
᱘᱓᱖
᱘᱓᱗
᱘᱓᱘
᱘᱓᱙
᱘᱔
᱘᱔᱐
᱘᱔᱑
᱘᱔᱒
᱘᱔᱓
᱘᱔᱔
᱘᱔᱕
᱘᱔᱖
᱘᱔᱗
᱘᱔᱘
᱘᱔᱙
᱘᱕
᱘᱕᱐
᱘᱕᱑
᱘᱕᱒
᱘᱕᱓
᱘᱕᱔
᱘᱕᱕
᱘᱕᱖
᱘᱕᱗
᱘᱕᱘
᱘᱕᱙
᱘᱖
᱘᱖᱐
᱘᱖᱑
᱘᱖᱒
᱘᱖᱓
᱘᱖᱔
᱘᱖᱕
᱘᱖᱖
᱘᱖᱗
᱘᱖᱘
᱘᱖᱙
᱘᱗
᱘᱗᱐
᱘᱗᱑
᱘᱗᱒
᱘᱗᱓
᱘᱗᱔
᱘᱗᱕
᱘᱗᱖
᱘᱗᱗
᱘᱗᱘
᱘᱗᱙
᱘᱘
᱘᱘᱐
᱘᱘᱑
᱘᱘᱒
᱘᱘᱓
᱘᱘᱔
᱘᱘᱕
᱘᱘᱖
᱘᱘᱗
᱘᱘᱘
᱘᱘᱙
᱘᱙
᱘᱙᱐
᱘᱙᱑
᱘᱙᱒
᱘᱙᱓
᱘᱙᱔
᱘᱙᱕
᱘᱙᱖
᱘᱙᱗
᱘᱙᱘
᱘᱙᱙
᱙
᱙᱐
᱙᱐᱐
᱙᱐᱐᱐
᱙᱐᱑
᱙᱐᱒
᱙᱐᱓
᱙᱐᱔
᱙᱐᱕
᱙᱐᱖
᱙᱐᱗
᱙᱐᱘
᱙᱐᱙
᱙᱑
᱙᱑᱐
᱙᱑᱑
᱙᱑᱒
᱙᱑᱓
᱙᱑᱔
᱙᱑᱕
᱙᱑᱖
᱙᱑᱗
᱙᱑᱘
᱙᱑᱙
᱙᱒
᱙᱒᱐
᱙᱒᱑
᱙᱒᱒
᱙᱒᱓
᱙᱒᱔
᱙᱒᱕
᱙᱒᱖
᱙᱒᱗
᱙᱒᱘
᱙᱒᱙
᱙᱓
᱙᱓᱐
᱙᱓᱑
᱙᱓᱒
᱙᱓᱓
᱙᱓᱔
᱙᱓᱕
᱙᱓᱖
᱙᱓᱗
᱙᱓᱘
᱙᱓᱙
᱙᱔
᱙᱔᱐
᱙᱔᱑
᱙᱔᱒
᱙᱔᱓
᱙᱔᱔
᱙᱔᱕
᱙᱔᱖
᱙᱔᱗
᱙᱔᱘
᱙᱔᱙
᱙᱕
᱙᱕᱐
᱙᱕᱑
᱙᱕᱒
᱙᱕᱓
᱙᱕᱔
᱙᱕᱕
᱙᱕᱖
᱙᱕᱗
᱙᱕᱘
᱙᱕᱙
᱙᱖
᱙᱖᱐
᱙᱖᱑
᱙᱖᱒
᱙᱖᱓
᱙᱖᱔
᱙᱖᱕
᱙᱖᱖
᱙᱖᱗
᱙᱖᱘
᱙᱖᱙
᱙᱗
᱙᱗᱐
᱙᱗᱑
᱙᱗᱒
᱙᱗᱓
᱙᱗᱔
᱙᱗᱕
᱙᱗᱖
᱙᱗᱗
᱙᱗᱘
᱙᱗᱙
᱙᱘
᱙᱘᱐
᱙᱘᱑
᱙᱘᱒
᱙᱘᱓
᱙᱘᱔
᱙᱘᱕
᱙᱘᱖
᱙᱘᱗
᱙᱘᱘
᱙᱘᱙
᱙᱙
᱙᱙᱐
᱙᱙᱑
᱙᱙᱒
᱙᱙᱓
᱙᱙᱔
᱙᱙᱕
᱙᱙᱖
᱙᱙᱗
᱙᱙᱘
᱙᱙᱙
ᱚ
ᱚᱛ
ᱚᱛᱚ
ᱚᱛᱞᱟᱲᱟᱣ
ᱚᱛᱟ
ᱚᱛᱟᱭ
ᱚᱛᱠᱚ
ᱚᱛᱢᱚᱱ
ᱚᱛᱤᱵᱚᱰᱤ
ᱚᱛᱦᱟᱥᱟ
ᱚᱛᱨᱮ
ᱚᱛᱩᱞ
ᱚᱛᱮ
ᱚᱛᱮᱛ
ᱚᱛᱱᱚ
ᱚᱛᱱᱚᱛ
ᱚᱛᱱᱚᱜ
ᱚᱛᱱᱮᱛ
ᱚᱛᱷᱚᱨᱤᱴᱤ
ᱚᱛᱼᱦᱟᱥᱟ
ᱚᱜ
ᱚᱜᱚᱢ
ᱚᱜᱚᱥᱴ
ᱚᱜᱚᱥᱴᱚ
ᱚᱜᱚᱨᱛᱟᱞᱟ
ᱚᱜᱚᱨᱣᱟᱞ
ᱚᱜᱟᱛᱷᱟ
ᱚᱜᱟᱥᱴᱟᱥ
ᱚᱜᱼᱟ
ᱚᱜᱽᱨᱚᱣᱟᱞ
ᱚᱜᱽᱱᱤ
ᱚᱝ
ᱚᱝᱜᱚ
ᱚᱝᱜᱚᱥ
ᱚᱝᱜᱚᱱ
ᱚᱝᱜᱩᱨ
ᱚᱝᱠᱚᱨ
ᱚᱝᱠᱟ
ᱚᱝᱠᱟᱱ
ᱚᱝᱠᱤᱛ
ᱚᱝᱥᱚ
ᱚᱝᱥᱚᱝ
ᱚᱝᱥᱟᱨ
ᱚᱝᱥᱩᱢᱟᱱ
ᱚᱞ
ᱚᱞᱚᱜ
ᱚᱞᱚᱜᱚᱜ
ᱚᱞᱚᱜᱼᱟ
ᱚᱞᱚᱝ
ᱚᱞᱚᱢᱯᱤᱠ
ᱚᱞᱚᱢᱯᱮᱭᱟᱰ
ᱚᱞᱚᱱᱫᱟᱡᱽ
ᱚᱞᱜᱟ
ᱚᱞᱝᱠᱨᱱ
ᱚᱞᱞᱩ
ᱚᱞᱟ
ᱚᱞᱟᱛ
ᱚᱞᱟᱜ
ᱚᱞᱟᱠᱟᱱ
ᱚᱞᱟᱢᱯᱤᱠ
ᱚᱞᱤ
ᱚᱞᱤᱜᱚᱰ
ᱚᱞᱤᱡ
ᱚᱞᱤᱢᱯᱤᱠ
ᱚᱞᱤᱢᱯᱤᱠᱥ
ᱚᱞᱤᱯᱩᱨᱫᱩᱣᱟᱨ
ᱚᱞᱤᱵᱷᱤᱭᱟ
ᱚᱞᱪᱤᱠᱤ
ᱚᱞᱮ
ᱚᱞᱮᱜ
ᱚᱞᱮᱝᱯᱤᱠ
ᱚᱞᱮᱢᱯᱤᱠ
ᱚᱞᱮᱫ
ᱚᱞᱮᱱᱟ
ᱚᱞᱰ
ᱚᱞᱴᱨᱟᱴᱮᱠ
ᱚᱞᱼᱛᱚᱞ
ᱚᱠ
ᱚᱠᱚ
ᱚᱠᱚᱡ
ᱚᱠᱚᱭ
ᱚᱠᱚᱭᱟᱜ
ᱚᱠᱚᱭᱮ
ᱚᱠᱛᱚ
ᱚᱠᱛᱚᱨᱮ
ᱚᱠᱛᱚᱭ
ᱚᱠᱛᱟ
ᱚᱠᱛᱮ
ᱚᱠᱛᱳ
ᱚᱠᱟ
ᱚᱠᱟᱛᱮ
ᱚᱠᱟᱨᱮ
ᱚᱠᱟᱴᱟᱜ
ᱚᱠᱟᱼᱚᱠᱟ
ᱚᱠᱠᱤᱱᱮᱱᱤ
ᱚᱠᱠᱷᱟᱝᱥᱚ
ᱚᱠᱥᱚᱭ
ᱚᱠᱥᱟᱭᱤᱰ
ᱚᱠᱥᱤᱡᱮᱱ
ᱚᱠᱥᱤᱴᱟᱱ
ᱚᱠᱥᱯᱷᱚᱨᱰ
ᱚᱠᱥᱯᱷᱳᱨᱰ
ᱚᱠᱪᱷᱟᱸᱥ
ᱚᱠᱴᱚᱯᱚᱥ
ᱚᱠᱴᱚᱯᱚᱥᱟᱜ
ᱚᱠᱴᱚᱵᱚᱨ
ᱚᱠᱴᱚᱵᱟᱨ
ᱚᱠᱴᱩᱵᱚᱨ
ᱚᱠᱴᱩᱵᱟᱨ
ᱚᱠᱴᱳᱵᱚᱨ
ᱚᱠᱵᱚᱨ
ᱚᱠᱷᱚᱭ
ᱚᱠᱷᱟᱝᱥᱚ
ᱚᱠᱷᱤᱞ
ᱚᱠᱷᱤᱲ
ᱚᱠᱷᱭᱚᱨᱟ
ᱚᱠᱷᱭᱚᱭ
ᱚᱠᱷᱭᱟᱝᱥᱚ
ᱚᱡ
ᱚᱡᱚᱜ
ᱚᱡᱚᱭ
ᱚᱡᱚᱱ
ᱚᱡᱚᱱᱛᱟ
ᱚᱡᱟ
ᱚᱡᱤᱛ
ᱚᱡᱮ
ᱚᱡᱷᱟ
ᱚᱡᱽ
ᱚᱡᱽᱨᱟ
ᱚᱡᱽᱨᱤᱥᱛᱟᱱ
ᱚᱢ
ᱚᱢᱚᱨ
ᱚᱢᱚᱨᱟᱵᱚᱛᱤ
ᱚᱢᱚᱨᱫᱟ
ᱚᱢᱚᱨᱯᱩᱨ
ᱚᱢᱚᱨᱱᱟᱛᱷ
ᱚᱢᱚᱱ
ᱚᱢᱚᱱᱚᱜ
ᱚᱢᱚᱱᱚᱜᱼᱟ
ᱚᱢᱚᱲ
ᱚᱢᱞᱟ
ᱚᱢᱟᱞᱩ
ᱚᱢᱟᱱ
ᱚᱢᱡᱚᱫᱽ
ᱚᱢᱢᱟ
ᱚᱢᱤᱛ
ᱚᱢᱤᱛᱟᱵᱷ
ᱚᱢᱤᱨ
ᱚᱢᱤᱱ
ᱚᱢᱨᱟᱵᱚᱛᱤ
ᱚᱢᱨᱟᱵᱟᱛᱤ
ᱚᱢᱨᱤᱛ
ᱚᱢᱨᱤᱛᱚ
ᱚᱢᱨᱤᱛᱟ
ᱚᱢᱨᱤᱛᱥᱚᱨ
ᱚᱢᱨᱩᱛᱚ
ᱚᱢᱨᱩᱛᱥᱚᱨ
ᱚᱢᱨᱮᱞᱤ
ᱚᱢᱩᱞ
ᱚᱢᱯᱟᱨᱟ
ᱚᱢᱵᱚᱨ
ᱚᱢᱵᱟᱞᱟ
ᱚᱢᱵᱟᱱᱤ
ᱚᱢᱵᱤᱠᱟ
ᱚᱢᱵᱮᱫᱽᱠᱚᱨ
ᱚᱣᱟᱝ
ᱚᱣᱟᱡᱮᱫᱽ
ᱚᱣᱟᱥᱤᱝᱴᱚᱱ
ᱚᱣᱟᱨ
ᱚᱣᱟᱨᱞᱰ
ᱚᱣᱟᱨᱰ
ᱚᱣᱟᱨᱱ
ᱚᱣᱟᱭᱢᱮᱠᱥ
ᱚᱣᱥᱚᱛ
ᱚᱣᱨᱚᱝᱜᱟᱵᱟᱫᱽ
ᱚᱣᱫᱷᱤ
ᱚᱥᱚᱞ
ᱚᱥᱚᱠ
ᱚᱥᱚᱢ
ᱚᱥᱚᱢᱤᱭᱟ
ᱚᱥᱛᱤᱛᱣᱚ
ᱚᱥᱟᱠᱟ
ᱚᱥᱟᱢᱟ
ᱚᱥᱟᱨ
ᱚᱥᱟᱨᱟ
ᱚᱥᱠᱟᱨ
ᱚᱥᱢᱟᱱᱤᱭᱟ
ᱚᱥᱣᱤᱱ
ᱚᱥᱣᱤᱱᱤ
ᱚᱥᱤᱛ
ᱚᱥᱤᱢ
ᱚᱥᱤᱨᱤᱭᱟ
ᱚᱥᱨᱩᱢᱳᱪᱚᱱ
ᱚᱥᱩᱨ
ᱚᱥᱩᱵᱤᱫᱷᱟ
ᱚᱥᱳᱠ
ᱚᱥᱳᱡᱽ
ᱚᱥᱴᱚᱢᱤ
ᱚᱥᱴᱨᱚ
ᱚᱥᱴᱨᱤᱭᱟ
ᱚᱥᱴᱨᱮᱞᱤᱭᱟ
ᱚᱥᱴᱨᱮᱞᱤᱭᱟᱱ
ᱚᱥᱴᱨᱱᱮᱥᱤᱭᱟᱱ
ᱚᱥᱴᱨᱳᱱᱮᱥᱤᱭᱟᱱ
ᱚᱥᱴᱨᱳᱼᱮᱥᱤᱭᱟᱴᱤᱠ
ᱚᱦᱚ
ᱚᱦᱚᱢ
ᱚᱦᱚᱢᱚᱫᱟᱵᱟᱫᱽ
ᱚᱦᱚᱢᱫᱟᱵᱟᱫᱽ
ᱚᱦᱚᱣᱟᱱ
ᱚᱦᱚᱫ
ᱚᱦᱢᱚᱫᱟᱵᱟᱫᱽ
ᱚᱦᱢᱚᱫᱽ
ᱚᱦᱢᱚᱫᱽᱱᱚᱜᱚᱨ
ᱚᱦᱤᱨ
ᱚᱦᱬᱮ
ᱚᱧᱡᱚᱱᱟ
ᱚᱧᱡᱚᱲᱤ
ᱚᱧᱪᱚᱞ
ᱚᱨ
ᱚᱨᱚᱝ
ᱚᱨᱚᱝᱤᱭᱟᱹ
ᱚᱨᱚᱵᱤᱱᱫᱚ
ᱚᱨᱛᱷᱚ
ᱚᱨᱛᱷᱚᱜᱽᱨᱟᱯᱷᱤ
ᱚᱨᱛᱷᱚᱰᱚᱠᱥ
ᱚᱨᱜᱟᱱ
ᱚᱨᱜᱟᱱᱟᱭᱡᱮᱥᱚᱱ
ᱚᱨᱟ
ᱚᱨᱟᱜ
ᱚᱨᱟᱢ
ᱚᱨᱟᱶ
ᱚᱨᱠᱚ
ᱚᱨᱡᱚ
ᱚᱨᱡᱩᱱ
ᱚᱨᱡᱩᱱᱟ
ᱚᱨᱤᱡᱤᱱ
ᱚᱨᱤᱭᱟᱞᱩᱨ
ᱚᱨᱤᱭᱮᱱᱴᱮᱰ
ᱚᱨᱤᱵᱚᱢ
ᱚᱨᱥᱚᱝ
ᱚᱨᱩᱬ
ᱚᱨᱩᱬᱟ
ᱚᱨᱩᱬᱟᱪᱚᱞ
ᱚᱨᱩᱬᱟᱪᱚᱲ
ᱚᱨᱩᱱ
ᱚᱨᱩᱱᱟᱪᱚᱞ
ᱚᱨᱩᱱᱫᱷᱚᱛᱤ
ᱚᱨᱩᱱᱰᱮᱞ
ᱚᱨᱪᱚᱱᱟ
ᱚᱨᱪᱤᱛᱟ
ᱚᱨᱪᱷᱟ
ᱚᱨᱫᱷᱮᱠ
ᱚᱨᱮᱜᱚᱱ
ᱚᱨᱰᱚᱨ
ᱚᱨᱱᱚᱵᱽ
ᱚᱨᱵᱤᱱᱫᱽ
ᱚᱪᱚ
ᱚᱪᱚᱜ
ᱚᱪᱚᱞ
ᱚᱪᱚᱞᱮᱱᱟ
ᱚᱪᱚᱫ
ᱚᱪᱚᱭ
ᱚᱪᱚᱭᱟ
ᱚᱪᱚᱭᱟᱭ
ᱚᱪᱚᱭᱮ
ᱚᱪᱚᱭᱮᱫ
ᱚᱪᱚᱭᱮᱱ
ᱚᱪᱚᱭᱮᱱᱟ
ᱚᱪᱩ
ᱚᱪᱩᱭᱟ
ᱚᱪᱭᱩᱛᱟᱱᱚᱱᱫᱚ
ᱚᱪᱮᱛ
ᱚᱫᱚ
ᱚᱫᱚᱞ
ᱚᱫᱟ
ᱚᱫᱟᱞᱚᱛ
ᱚᱫᱟᱢ
ᱚᱫᱷᱤᱠᱟᱨ
ᱚᱫᱷᱤᱠᱟᱨᱤ
ᱚᱫᱷᱤᱱ
ᱚᱫᱷᱤᱱᱤᱭᱚᱢ
ᱚᱫᱷᱤᱱᱤᱭᱟᱢ
ᱚᱫᱷᱤᱵᱮᱥᱚᱱ
ᱚᱫᱷᱭᱚᱪᱷ
ᱚᱬᱦᱮ
ᱚᱭ
ᱚᱭᱟᱨᱠ
ᱚᱭᱥᱣᱚᱨᱭᱟ
ᱚᱭᱮᱞ
ᱚᱭᱮᱵᱟᱨ
ᱚᱯ
ᱚᱯᱚᱡᱤᱥᱚᱱ
ᱚᱯᱚᱡᱤᱴ
ᱚᱯᱚᱨᱟᱡᱤᱛᱟ
ᱚᱯᱚᱨᱮᱴᱚᱨ
ᱚᱯᱚᱨᱱᱟ
ᱚᱯᱚᱱ
ᱚᱯᱟᱨᱮᱥᱚᱱ
ᱚᱯᱦᱤᱥ
ᱚᱯᱨᱟᱡᱤᱛᱟ
ᱚᱯᱨᱟᱫᱷ
ᱚᱯᱨᱮᱞ
ᱚᱯᱨᱮᱥᱚᱱ
ᱚᱯᱨᱮᱴᱟᱨ
ᱚᱯᱩᱨᱵᱚ
ᱚᱯᱩᱨᱵᱤ
ᱚᱯᱪᱟᱨᱤᱠ
ᱚᱯᱮᱞ
ᱚᱯᱮᱨᱟ
ᱚᱯᱮᱨᱮᱴᱤᱝ
ᱚᱯᱮᱱ
ᱚᱯᱷ
ᱚᱯᱷᱚᱨ
ᱚᱯᱷᱜᱷᱟᱱ
ᱚᱯᱷᱜᱷᱟᱱᱤ
ᱚᱯᱷᱜᱷᱟᱱᱤᱥᱛᱟᱱ
ᱚᱯᱷᱡᱚᱞ
ᱚᱯᱷᱤᱢ
ᱚᱯᱷᱤᱥ
ᱚᱯᱷᱤᱥᱚᱨ
ᱚᱯᱷᱤᱥᱟᱨ
ᱚᱯᱷᱤᱥᱤᱭᱟᱞ
ᱚᱯᱷᱤᱥᱤᱭᱟᱞᱤ
ᱚᱰᱚᱜ
ᱚᱰᱚᱜᱽ
ᱚᱰᱚᱠ
ᱚᱰᱚᱠᱚᱜ
ᱚᱰᱚᱠᱚᱜᱼᱟ
ᱚᱰᱚᱠᱟ
ᱚᱰᱚᱨ
ᱚᱰᱤᱥᱚᱱ
ᱚᱰᱤᱥᱤ
ᱚᱰᱤᱭᱟ
ᱚᱰᱤᱭᱳ
ᱚᱰᱮ
ᱚᱱ
ᱚᱱᱚ
ᱚᱱᱚᱛ
ᱚᱱᱚᱝᱜᱚᱵᱷᱤᱢᱚ
ᱚᱱᱚᱞ
ᱚᱱᱚᱞᱤᱭᱟ
ᱚᱱᱚᱞᱤᱭᱟᱹ
ᱚᱱᱚᱞᱤᱭᱟᱹᱭ
ᱚᱱᱚᱥᱩᱭᱟ
ᱚᱱᱚᱨ
ᱚᱱᱚᱨᱥ
ᱚᱱᱚᱬᱦᱤᱭᱟ
ᱚᱱᱚᱬᱦᱤᱭᱟᱹ
ᱚᱱᱚᱬᱦᱤᱭᱟᱹᱭ
ᱚᱱᱚᱬᱦᱮ
ᱚᱱᱚᱬᱦᱮᱭ
ᱚᱱᱚᱬᱦᱮᱸ
ᱚᱱᱚᱬᱮ
ᱚᱱᱚᱱᱛᱚ
ᱚᱱᱚᱱᱛᱚᱯᱩᱨ
ᱚᱱᱚᱱᱛᱚᱯᱩᱨᱚᱢ
ᱚᱱᱚᱱᱛᱚᱱᱟᱜ
ᱚᱱᱚᱱᱛᱚᱱᱟᱜᱽ
ᱚᱱᱚᱱᱛᱚᱵᱚᱨᱢᱟᱱ
ᱚᱱᱚᱱᱭᱟ
ᱚᱱᱚᱲᱚᱦᱮᱸ
ᱚᱱᱚᱲᱦᱤᱭᱟ
ᱚᱱᱚᱲᱦᱤᱭᱟᱹ
ᱚᱱᱚᱲᱦᱮ
ᱚᱱᱚᱲᱦᱮᱸ
ᱚᱱᱛᱚᱨ
ᱚᱱᱛᱮ
ᱚᱱᱞᱟᱭᱤᱱ
ᱚᱱᱟ
ᱚᱱᱟᱛᱟᱭᱚᱢ
ᱚᱱᱟᱛᱮ
ᱚᱱᱟᱛᱮᱜᱮ
ᱚᱱᱟᱜ
ᱚᱱᱟᱜᱮ
ᱚᱱᱟᱠᱚ
ᱚᱱᱟᱠᱚᱫᱚ
ᱚᱱᱟᱠᱤᱱ
ᱚᱱᱟᱠᱩ
ᱚᱱᱟᱨ
ᱚᱱᱟᱨᱥ
ᱚᱱᱟᱨᱮ
ᱚᱱᱟᱨᱮᱱᱟᱜ
ᱚᱱᱟᱫᱚ
ᱚᱱᱟᱭ
ᱚᱱᱠᱟ
ᱚᱱᱠᱟᱛᱮ
ᱚᱱᱠᱟᱜᱮ
ᱚᱱᱠᱟᱱ
ᱚᱱᱠᱟᱱᱟᱜ
ᱚᱱᱠᱤᱛᱟ
ᱚᱱᱠᱩ
ᱚᱱᱡᱚᱲᱤ
ᱚᱱᱢᱟᱱ
ᱚᱱᱤ
ᱚᱱᱤᱛᱟ
ᱚᱱᱤᱞ
ᱚᱱᱤᱢᱟ
ᱚᱱᱦᱚᱬᱤᱭᱟᱹ
ᱚᱱᱦᱚᱬᱮ
ᱚᱱᱩ
ᱚᱱᱩᱜᱩᱲ
ᱚᱱᱩᱠᱩᱞ
ᱚᱱᱩᱡᱽ
ᱚᱱᱩᱢᱚᱫᱚᱱ
ᱚᱱᱩᱢᱟᱱ
ᱚᱱᱩᱥᱟᱨ
ᱚᱱᱩᱥᱠᱟ
ᱚᱱᱩᱥᱩᱪᱤ
ᱚᱱᱩᱥᱩᱪᱤᱛ
ᱚᱱᱩᱥᱴᱷᱟᱱ
ᱚᱱᱩᱨᱟᱜ
ᱚᱱᱩᱨᱟᱜᱽ
ᱚᱱᱩᱨᱟᱫᱷᱟ
ᱚᱱᱩᱨᱫᱷᱚ
ᱚᱱᱩᱯ
ᱚᱱᱩᱯᱚᱢᱟ
ᱚᱱᱩᱯᱟᱛ
ᱚᱱᱩᱵᱷᱩᱛᱤ
ᱚᱱᱪᱚᱞ
ᱚᱱᱪᱟᱞ
ᱚᱱᱫᱷᱨᱚ
ᱚᱱᱬᱦᱮ
ᱚᱱᱭᱟᱱᱭᱚ
ᱚᱱᱮ
ᱚᱱᱰᱚᱠ
ᱚᱱᱰᱚᱠᱚᱜᱼᱟ
ᱚᱱᱰᱚᱨ
ᱚᱱᱰᱮ
ᱚᱱᱰᱮᱠᱷᱚᱱ
ᱚᱱᱰᱮᱱ
ᱚᱱᱰᱮᱱᱟᱜ
ᱚᱱᱱᱚᱯᱩᱨᱱᱟ
ᱚᱱᱱᱟ
ᱚᱱᱴᱤ
ᱚᱱᱵᱮ
ᱚᱱᱵᱷᱮᱞᱤᱝ
ᱚᱲᱚᱝ
ᱚᱲᱚᱝᱜᱟᱨ
ᱚᱲᱟ
ᱚᱲᱟᱜ
ᱚᱲᱟᱜᱨᱮ
ᱚᱲᱠᱤ
ᱚᱲᱮᱡ
ᱚᱲᱮᱭᱤᱪᱚ
ᱚᱴᱚ
ᱚᱴᱚᱞ
ᱚᱴᱚᱢᱚᱵᱟᱭᱤᱞ
ᱚᱴᱚᱢᱟᱱ
ᱚᱴᱚᱣᱟᱫ
ᱚᱴᱚᱨᱤᱴᱤ
ᱚᱴᱚᱱᱚᱢᱚᱥ
ᱚᱴᱚᱱᱚᱢᱟᱥ
ᱚᱴᱟ
ᱚᱴᱟᱝ
ᱚᱴᱣᱟᱞ
ᱚᱴᱴᱚᱢ
ᱚᱴᱷᱚᱨᱚᱱᱚᱲᱟ
ᱚᱵ
ᱚᱵᱚᱛᱟᱨ
ᱚᱵᱚᱥᱚᱨ
ᱚᱵᱚᱥᱛᱟ
ᱚᱵᱚᱥᱛᱟᱱ
ᱚᱵᱚᱥᱛᱷᱟ
ᱚᱵᱚᱫᱷ
ᱚᱵᱚᱫᱷᱤ
ᱚᱵᱚᱱᱛᱤᱠᱟ
ᱚᱵᱚᱱᱤ
ᱚᱵᱚᱱᱤᱱᱫᱽᱨᱚ
ᱚᱵᱟᱢᱟ
ᱚᱵᱤᱥ
ᱚᱵᱩ
ᱚᱵᱷᱚᱨ
ᱚᱵᱷᱚᱭ
ᱚᱵᱷᱚᱭᱱᱚᱜᱚᱨ
ᱚᱵᱷᱟᱨ
ᱚᱵᱷᱟᱵ
ᱚᱵᱷᱟᱵᱽ
ᱚᱵᱷᱤᱡᱟᱱ
ᱚᱵᱷᱤᱡᱤᱛ
ᱚᱵᱷᱤᱢᱚᱱᱭᱩ
ᱚᱵᱷᱤᱥᱟᱯ
ᱚᱵᱷᱤᱥᱮᱠ
ᱚᱵᱷᱤᱭᱟᱱ
ᱚᱵᱷᱤᱰ
ᱚᱵᱷᱤᱱᱚᱭ
ᱚᱵᱷᱤᱱᱚᱭᱮ
ᱚᱵᱷᱤᱱᱮᱛᱟ
ᱚᱵᱷᱤᱱᱮᱛᱟᱭ
ᱚᱵᱷᱤᱱᱮᱛᱨᱤ
ᱚᱵᱷᱭᱟᱥ
ᱚᱵᱽ
ᱚᱵᱽᱠᱷᱟᱡᱤᱭᱟ
ᱚᱵᱽᱫᱟᱞᱤ
ᱚᱵᱽᱫᱩᱞ
ᱚᱵᱽᱫᱩᱞᱞᱟ
ᱚᱵᱽᱫᱩᱨ
ᱚᱶᱟ
ᱚᱶᱟᱝ
ᱚᱸᱡᱩ
ᱚᱸᱡᱽᱞᱤ
ᱚᱸᱰᱚᱠ
ᱚᱸᱰᱚᱠᱚᱜᱼᱟ
ᱚᱸᱰᱮ
ᱚᱸᱰᱮᱜᱮ
ᱚᱸᱰᱮᱠᱷᱚᱱ
ᱚᱸᱰᱮᱭ
ᱚᱸᱰᱮᱱ
ᱚᱸᱰᱮᱱᱟᱜ
ᱚᱸᱰᱮᱱᱠᱩ
ᱚᱸᱰᱮᱱᱤᱡ
ᱚᱸᱲᱟ
ᱛ
ᱛᱚ
ᱛᱚᱛᱠᱟᱞᱤᱱ
ᱛᱚᱛᱷᱭᱚ
ᱛᱚᱝ
ᱛᱚᱝᱜᱮ
ᱛᱚᱞ
ᱛᱚᱞᱟ
ᱛᱚᱞᱟᱥ
ᱛᱚᱞᱠᱷᱚ
ᱛᱚᱞᱦᱚᱴᱤ
ᱛᱚᱠᱚᱭ
ᱛᱚᱠᱟ
ᱛᱚᱠᱨᱟᱲ
ᱛᱚᱠᱷᱚᱱ
ᱛᱚᱢ
ᱛᱚᱢᱚᱱᱱᱟ
ᱛᱚᱢᱞᱩᱠ
ᱛᱚᱢᱟᱨ
ᱛᱚᱢᱥᱟ
ᱛᱚᱣᱟ
ᱛᱚᱣᱟᱝ
ᱛᱚᱦᱚ
ᱛᱚᱦᱚᱛ
ᱛᱚᱦᱚᱥᱤᱞ
ᱛᱚᱦᱚᱨ
ᱛᱚᱦᱥᱤᱞ
ᱛᱚᱨ
ᱛᱚᱨᱚᱝ
ᱛᱚᱨᱚᱝᱜᱚ
ᱛᱚᱨᱚᱞ
ᱛᱚᱨᱚᱡ
ᱛᱚᱨᱚᱯᱷ
ᱛᱚᱨᱟ
ᱛᱚᱨᱟᱝ
ᱛᱚᱨᱟᱣ
ᱛᱚᱨᱟᱣᱜ
ᱛᱚᱨᱟᱣᱟ
ᱛᱚᱨᱟᱭ
ᱛᱚᱨᱡᱚᱢᱟ
ᱛᱚᱨᱡᱚᱢᱟᱭᱤᱡ
ᱛᱚᱨᱩᱱ
ᱛᱚᱨᱯᱟ
ᱛᱚᱨᱵᱩᱡᱽ
ᱛᱚᱫᱟᱨᱚᱛ
ᱛᱚᱭ
ᱛᱚᱭᱚᱢ
ᱛᱚᱭᱢᱩᱨ
ᱛᱚᱯ
ᱛᱚᱯᱚᱞ
ᱛᱚᱯᱚᱥᱥᱟ
ᱛᱚᱯᱚᱥᱭᱟ
ᱛᱚᱯᱟ
ᱛᱚᱯᱟᱜ
ᱛᱚᱯᱷᱟᱛ
ᱛᱚᱱᱚᱞ
ᱛᱚᱱᱚᱲ
ᱛᱚᱱᱛᱚᱨᱚ
ᱛᱚᱱᱛᱨᱚ
ᱛᱚᱱᱩᱡᱟ
ᱛᱚᱱᱫᱽᱨᱟ
ᱛᱚᱲ
ᱛᱚᱲᱟᱯᱟᱛᱤ
ᱛᱚᱲᱮ
ᱛᱚᱵᱩ
ᱛᱚᱵᱮ
ᱛᱚᱸᱛᱨᱚ
ᱛᱚᱸᱜᱮ
ᱛᱚᱸᱡᱟᱵᱩᱨ
ᱛᱟ
ᱛᱟᱛᱟᱨ
ᱛᱟᱛᱣᱚ
ᱛᱟᱜ
ᱛᱟᱜᱟᱞᱚᱜᱽ
ᱛᱟᱝ
ᱛᱟᱝᱠᱷᱩᱞ
ᱛᱟᱞ
ᱛᱟᱞᱚᱢ
ᱛᱟᱞᱟ
ᱛᱟᱞᱟᱛᱮ
ᱛᱟᱞᱟᱛᱮᱭ
ᱛᱟᱞᱟᱠ
ᱛᱟᱞᱟᱡᱩᱜᱽ
ᱛᱟᱞᱟᱢ
ᱛᱟᱞᱟᱢᱟ
ᱛᱟᱞᱟᱢᱟᱞᱟ
ᱛᱟᱞᱟᱣ
ᱛᱟᱞᱟᱨ
ᱛᱟᱞᱟᱨᱮ
ᱛᱟᱞᱟᱨᱮᱭ
ᱛᱟᱞᱟᱭᱤᱡ
ᱛᱟᱞᱟᱭᱮᱱ
ᱛᱟᱞᱟᱭᱮᱱᱟ
ᱛᱟᱞᱟᱱᱟ
ᱛᱟᱞᱟᱼᱢᱟᱞᱟ
ᱛᱟᱞᱠᱟ
ᱛᱟᱞᱠᱷᱟ
ᱛᱟᱞᱡᱷᱟᱨᱤ
ᱛᱟᱞᱢᱟ
ᱛᱟᱞᱤᱠᱟ
ᱛᱟᱞᱤᱵᱟᱱ
ᱛᱟᱞᱩᱠ
ᱛᱟᱞᱩᱠᱟ
ᱛᱟᱞᱮ
ᱛᱟᱞᱮᱨᱮ
ᱛᱟᱞᱰᱟᱝᱨᱟ
ᱛᱟᱞᱱᱟ
ᱛᱟᱠ
ᱛᱟᱠᱚ
ᱛᱟᱠᱚᱣᱟ
ᱛᱟᱠᱚᱣᱟᱜ
ᱛᱟᱠᱟ
ᱛᱟᱠᱤᱱ
ᱛᱟᱠᱤᱱᱟ
ᱛᱟᱠᱤᱱᱟᱜ
ᱛᱟᱠᱩ
ᱛᱟᱠᱩᱣᱟ
ᱛᱟᱡ
ᱛᱟᱡᱟ
ᱛᱟᱡᱤᱠ
ᱛᱟᱡᱤᱠᱤᱥᱛᱟᱱ
ᱛᱟᱡᱽ
ᱛᱟᱡᱽᱢᱚᱦᱚᱞ
ᱛᱟᱢ
ᱛᱟᱢᱞᱟ
ᱛᱟᱢᱞᱩᱠ
ᱛᱟᱢᱟ
ᱛᱟᱢᱟᱝ
ᱛᱟᱢᱟᱠ
ᱛᱟᱢᱟᱲ
ᱛᱟᱢᱤᱞ
ᱛᱟᱢᱤᱞᱤ
ᱛᱟᱢᱤᱞᱱᱟᱰᱩ
ᱛᱟᱢᱥᱟ
ᱛᱟᱢᱮᱝᱞᱚᱝ
ᱛᱟᱢᱵᱟ
ᱛᱟᱢᱵᱩ
ᱛᱟᱣ
ᱛᱟᱣᱟ
ᱛᱟᱣᱤ
ᱛᱟᱣᱦᱚᱞᱮ
ᱛᱟᱥᱟᱫ
ᱛᱟᱥᱠᱚᱸᱫᱽ
ᱛᱟᱥᱠᱤᱱ
ᱛᱟᱥᱤᱨ
ᱛᱟᱥᱮ
ᱛᱟᱦᱞᱮ
ᱛᱟᱦᱟ
ᱛᱟᱦᱟᱸ
ᱛᱟᱦᱥᱤᱞ
ᱛᱟᱦᱮ
ᱛᱟᱦᱮᱞᱮᱱᱟ
ᱛᱟᱦᱮᱠᱟᱱ
ᱛᱟᱦᱮᱠᱟᱱᱟ
ᱛᱟᱦᱮᱡ
ᱛᱟᱦᱮᱨ
ᱛᱟᱦᱮᱫ
ᱛᱟᱦᱮᱫᱽ
ᱛᱟᱦᱮᱭᱮᱱᱟ
ᱛᱟᱦᱮᱱ
ᱛᱟᱦᱮᱱᱚᱜ
ᱛᱟᱦᱮᱱᱟ
ᱛᱟᱦᱮᱱᱟᱠᱚ
ᱛᱟᱦᱮᱱᱟᱭ
ᱛᱟᱦᱮᱱᱟᱱ
ᱛᱟᱦᱮᱱᱫ
ᱛᱟᱦᱮᱱᱸᱜ
ᱛᱟᱦᱮᱱᱼᱟ
ᱛᱟᱦᱮᱸ
ᱛᱟᱦᱮᱸᱜ
ᱛᱟᱦᱮᱸᱞᱮᱱ
ᱛᱟᱦᱮᱸᱞᱮᱱᱟ
ᱛᱟᱦᱮᱸᱞᱮᱱᱟᱭ
ᱛᱟᱦᱮᱸᱟᱭ
ᱛᱟᱦᱮᱸᱠᱟᱱ
ᱛᱟᱦᱮᱸᱠᱟᱱᱟ
ᱛᱟᱦᱮᱸᱠᱟᱱᱟᱭ
ᱛᱟᱦᱮᱸᱡ
ᱛᱟᱦᱮᱸᱫ
ᱛᱟᱦᱮᱸᱫᱚᱜ
ᱛᱟᱦᱮᱸᱫᱽ
ᱛᱟᱦᱮᱸᱭᱟ
ᱛᱟᱦᱮᱸᱭᱮᱱᱟ
ᱛᱟᱦᱮᱸᱭᱮᱱᱟᱭ
ᱛᱟᱦᱮᱸᱱ
ᱛᱟᱦᱮᱸᱱᱚᱜ
ᱛᱟᱦᱮᱸᱱᱟ
ᱛᱟᱦᱮᱸᱱᱟᱜ
ᱛᱟᱦᱮᱸᱱᱟᱠᱚ
ᱛᱟᱦᱮᱸᱱᱟᱭ
ᱛᱟᱦᱮᱸᱱᱤᱡ
ᱛᱟᱦᱮᱸᱼᱟᱭ
ᱛᱟᱨ
ᱛᱟᱨᱚᱵ
ᱛᱟᱨᱟ
ᱛᱟᱨᱟᱜᱚᱸᱡᱽ
ᱛᱟᱨᱟᱜᱼᱟ
ᱛᱟᱨᱟᱥ
ᱛᱟᱨᱟᱥᱤᱝ
ᱛᱟᱨᱟᱥᱤᱧ
ᱛᱟᱨᱟᱭ
ᱛᱟᱨᱟᱭᱟ
ᱛᱟᱨᱟᱯᱤᱴᱷ
ᱛᱟᱨᱠᱚ
ᱛᱟᱨᱠᱚᱜ
ᱛᱟᱨᱡᱚᱢᱟ
ᱛᱟᱨᱣᱟᱲᱮ
ᱛᱟᱨᱤ
ᱛᱟᱨᱤᱠ
ᱛᱟᱨᱤᱠᱟ
ᱛᱟᱨᱤᱠᱷ
ᱛᱟᱨᱤᱱ
ᱛᱟᱨᱥᱣᱤᱱ
ᱛᱟᱨᱩᱵ
ᱛᱟᱨᱫᱷᱟᱢ
ᱛᱟᱨᱮ
ᱛᱟᱨᱮᱱ
ᱛᱟᱨᱯᱚᱨᱮ
ᱛᱟᱨᱱᱟ
ᱛᱟᱬᱟᱜ
ᱛᱟᱭ
ᱛᱟᱭᱚ
ᱛᱟᱭᱚᱢ
ᱛᱟᱭᱚᱢᱛᱮ
ᱛᱟᱭᱚᱱ
ᱛᱟᱭᱟ
ᱛᱟᱭᱟᱜ
ᱛᱟᱭᱟᱢ
ᱛᱟᱭᱟᱭ
ᱛᱟᱭᱟᱱ
ᱛᱟᱭᱣᱟᱱ
ᱛᱟᱭᱮ
ᱛᱟᱭᱯᱮ
ᱛᱟᱭᱱᱚᱢ
ᱛᱟᱯ
ᱛᱟᱯᱛᱤ
ᱛᱟᱯᱞᱮᱡᱩᱝ
ᱛᱟᱯᱟᱢ
ᱛᱟᱯᱟᱥ
ᱛᱟᱯᱢᱟᱱ
ᱛᱟᱯᱤ
ᱛᱟᱱ
ᱛᱟᱱᱚᱨ
ᱛᱟᱱᱟ
ᱛᱟᱱᱟᱞ
ᱛᱟᱱᱟᱞᱟ
ᱛᱟᱱᱟᱡᱤ
ᱛᱟᱱᱡᱟᱱᱤᱭᱟ
ᱛᱟᱱᱤᱭᱟ
ᱛᱟᱱᱤᱱᱛᱷᱟᱭᱨᱤ
ᱛᱟᱱᱥᱮᱱ
ᱛᱟᱱᱦᱟᱡᱤ
ᱛᱟᱱᱩᱥᱨᱤ
ᱛᱟᱲ
ᱛᱟᱲᱚᱥᱟᱨᱤ
ᱛᱟᱲᱟᱢ
ᱛᱟᱲᱟᱥ
ᱛᱟᱵ
ᱛᱟᱵᱚ
ᱛᱟᱵᱚᱱ
ᱛᱟᱵᱚᱱᱟ
ᱛᱟᱵᱮ
ᱛᱟᱵᱮᱨ
ᱛᱟᱵᱮᱱ
ᱛᱟᱵᱽᱞᱟ
ᱛᱟᱷᱮ
ᱛᱟᱷᱮᱸ
ᱛᱟᱸᱜᱤ
ᱛᱟᱸᱦᱟᱸ
ᱛᱟᱸᱦᱮ
ᱛᱟᱸᱦᱮᱠᱟᱱᱟ
ᱛᱟᱸᱦᱮᱫ
ᱛᱟᱸᱦᱮᱱ
ᱛᱟᱸᱦᱮᱱᱟ
ᱛᱟᱸᱦᱮᱸ
ᱛᱟᱸᱦᱮᱸᱠᱟᱱ
ᱛᱟᱸᱦᱮᱸᱠᱟᱱᱛᱟᱭᱟ
ᱛᱟᱸᱦᱮᱸᱠᱟᱱᱟ
ᱛᱟᱸᱦᱮᱸᱱ
ᱛᱟᱸᱦᱮᱸᱱᱟ
ᱛᱟᱸᱵᱟ
ᱛᱟᱹᱞᱠᱟ
ᱛᱟᱹᱞᱠᱟᱹ
ᱛᱟᱹᱞᱤᱢ
ᱛᱟᱹᱠᱤᱡ
ᱛᱟᱹᱠᱤᱱ
ᱛᱟᱹᱠᱤᱱᱟ
ᱛᱟᱹᱠᱤᱱᱟᱜ
ᱛᱟᱹᱠᱩ
ᱛᱟᱹᱠᱩᱣᱟ
ᱛᱟᱹᱢᱤᱞ
ᱛᱟᱹᱢᱩᱞᱤ
ᱛᱟᱹᱦᱩᱸ
ᱛᱟᱹᱨᱤ
ᱛᱟᱹᱨᱤᱠ
ᱛᱟᱹᱨᱤᱠᱷ
ᱛᱟᱹᱨᱤᱨᱮ
ᱛᱟᱹᱨᱤᱭᱟᱹ
ᱛᱟᱹᱨᱩᱵ
ᱛᱟᱹᱭ
ᱛᱟᱹᱯᱩᱜ
ᱛᱟᱺᱜᱤ
ᱛᱤ
ᱛᱤᱛᱤ
ᱛᱤᱛᱮ
ᱛᱤᱛᱷᱤ
ᱛᱤᱜᱤ
ᱛᱤᱜᱩ
ᱛᱤᱜᱽᱨᱤᱱᱤᱭᱟ
ᱛᱤᱝᱜᱩ
ᱛᱤᱞ
ᱛᱤᱞᱚᱠ
ᱛᱤᱞᱟᱠ
ᱛᱤᱞᱠᱟ
ᱛᱤᱞᱠᱟᱹ
ᱛᱤᱞᱢᱤᱧ
ᱛᱤᱞᱤᱪᱳ
ᱛᱤᱞᱭᱟ
ᱛᱤᱞᱮᱭᱟ
ᱛᱤᱠᱤ
ᱛᱤᱠᱤᱪᱷᱟᱹ
ᱛᱤᱠᱤᱱ
ᱛᱤᱠᱤᱱᱟᱜ
ᱛᱤᱠᱤᱱᱤᱡ
ᱛᱤᱠᱪᱷᱟ
ᱛᱤᱠᱪᱷᱟᱹ
ᱛᱤᱠᱪᱷᱟᱹᱜ
ᱛᱤᱡᱚᱱ
ᱛᱤᱡᱩ
ᱛᱤᱢᱤᱱ
ᱛᱤᱢᱤᱱᱜᱟᱱ
ᱛᱤᱢᱳᱨ
ᱛᱤᱣᱟ
ᱛᱤᱣᱟᱨᱤ
ᱛᱤᱣᱱᱤᱥᱤᱭᱟ
ᱛᱤᱥ
ᱛᱤᱥᱚᱜ
ᱛᱤᱥᱛᱟ
ᱛᱤᱥᱟᱨ
ᱛᱤᱥᱨᱤ
ᱛᱤᱥᱭᱟᱨᱚᱠᱥᱟ
ᱛᱤᱦᱤᱧ
ᱛᱤᱦᱤᱱ
ᱛᱤᱧ
ᱛᱤᱨ
ᱛᱤᱨᱛᱟᱹ
ᱛᱤᱨᱛᱷ
ᱛᱤᱨᱛᱷᱚ
ᱛᱤᱨᱞᱟ
ᱛᱤᱨᱞᱟᱹ
ᱛᱤᱨᱞᱟᱹᱭ
ᱛᱤᱨᱟᱝᱜᱟ
ᱛᱤᱨᱟᱯ
ᱛᱤᱨᱟᱱᱟ
ᱛᱤᱨᱟᱸᱫᱟᱡᱤ
ᱛᱤᱨᱢᱤᱫ
ᱛᱤᱨᱤ
ᱛᱤᱨᱤᱝ
ᱛᱤᱨᱤᱞ
ᱛᱤᱨᱤᱭᱚ
ᱛᱤᱨᱤᱭᱟᱹᱣ
ᱛᱤᱨᱤᱯᱩᱨᱟ
ᱛᱤᱨᱦᱩᱛ
ᱛᱤᱨᱦᱩᱴ
ᱛᱤᱨᱩᱢᱟᱞᱟ
ᱛᱤᱨᱩᱣᱚᱱᱚᱱᱛᱯᱩᱨᱚᱢ
ᱛᱤᱨᱩᱪᱤᱨᱟᱯᱚᱞᱞᱤ
ᱛᱤᱨᱩᱯᱚᱛᱛᱩᱨ
ᱛᱤᱨᱩᱯᱚᱛᱤ
ᱛᱤᱨᱩᱯᱟᱛᱤ
ᱛᱤᱨᱩᱯᱩᱨ
ᱛᱤᱨᱩᱱᱮᱞᱵᱷᱮᱞᱤ
ᱛᱤᱨᱩᱵᱚᱱᱱᱟᱢᱚᱞᱟᱭ
ᱛᱤᱨᱩᱵᱟᱨᱩᱨ
ᱛᱤᱨᱩᱵᱷᱟᱞᱞᱩᱨ
ᱛᱤᱨᱭᱟ
ᱛᱤᱨᱮ
ᱛᱤᱭ
ᱛᱤᱭᱚ
ᱛᱤᱭᱚᱜ
ᱛᱤᱭᱟ
ᱛᱤᱭᱟᱨᱤ
ᱛᱤᱭᱩᱜ
ᱛᱤᱱ
ᱛᱤᱱᱟ
ᱛᱤᱱᱟᱜ
ᱛᱤᱱᱟᱜᱵᱷᱩᱨ
ᱛᱤᱱᱟᱝ
ᱛᱤᱱᱟᱹᱜ
ᱛᱤᱱᱟᱹᱝ
ᱛᱤᱱᱤᱡ
ᱛᱤᱱᱤᱥᱩᱠᱤᱭᱟ
ᱛᱤᱱᱥᱩᱠᱤᱭᱟ
ᱛᱤᱵᱚᱛ
ᱛᱤᱵᱚᱛᱤ
ᱛᱤᱵᱤᱞᱤᱥᱤ
ᱛᱤᱵᱮᱛᱟᱱ
ᱛᱤᱵᱵᱚᱛ
ᱛᱤᱵᱵᱚᱛᱤ
ᱛᱤᱵᱵᱟᱛ
ᱛᱤᱵᱵᱟᱛᱤ
ᱛᱤᱵᱽᱵᱚᱛ
ᱛᱤᱵᱽᱵᱚᱛᱤ
ᱛᱤᱸᱜᱩ
ᱛᱤᱸᱜᱩᱭ
ᱛᱤᱸᱜᱩᱭᱟ
ᱛᱤᱸᱜᱩᱱ
ᱛᱤᱸᱜᱩᱱᱟ
ᱛᱥᱦᱮ
ᱛᱥᱦᱮᱱᱟ
ᱛᱦᱮ
ᱛᱦᱮᱸᱫ
ᱛᱨᱚᱝ
ᱛᱨᱤ
ᱛᱨᱤᱣᱮᱫᱤ
ᱛᱨᱤᱥᱟ
ᱛᱨᱤᱥᱩᱨ
ᱛᱨᱤᱪᱤ
ᱛᱨᱤᱬᱢᱩᱞ
ᱛᱨᱤᱭᱟ
ᱛᱨᱤᱯᱟᱴᱷᱤ
ᱛᱨᱤᱯᱩᱨᱟ
ᱛᱨᱤᱯᱩᱨᱤ
ᱛᱨᱤᱱᱚᱢᱩᱞ
ᱛᱨᱤᱵᱮᱫᱤ
ᱛᱨᱤᱵᱮᱱᱫᱨᱚᱢ
ᱛᱨᱤᱵᱷᱩᱵᱚᱱ
ᱛᱨᱩᱛᱤᱭᱟ
ᱛᱩ
ᱛᱩᱛᱩᱠᱩᱲᱤ
ᱛᱩᱝᱵᱷᱚᱫᱽᱨᱟ
ᱛᱩᱞ
ᱛᱩᱞᱟ
ᱛᱩᱞᱟᱢ
ᱛᱩᱞᱟᱹ
ᱛᱩᱞᱟᱹᱡᱚᱠᱷᱟ
ᱛᱩᱞᱟᱹᱢ
ᱛᱩᱞᱟᱹᱣ
ᱛᱩᱞᱤ
ᱛᱩᱞᱥᱤ
ᱛᱩᱞᱩ
ᱛᱩᱞᱩᱡ
ᱛᱩᱠᱟᱹ
ᱛᱩᱠᱷᱟᱹᱲ
ᱛᱩᱢ
ᱛᱩᱢᱟ
ᱛᱩᱢᱟᱸᱞ
ᱛᱩᱢᱟᱹᱞ
ᱛᱩᱢᱠᱩᱨ
ᱛᱩᱢᱤ
ᱛᱩᱢᱫᱟᱜ
ᱛᱩᱣᱮᱱᱥᱟᱝ
ᱛᱩᱥᱟᱨ
ᱛᱩᱥᱤᱞ
ᱛᱩᱧ
ᱛᱩᱨ
ᱛᱩᱨᱚᱥᱠᱚ
ᱛᱩᱨᱟ
ᱛᱩᱨᱠᱢᱮᱱ
ᱛᱩᱨᱠᱢᱮᱱᱤᱥᱛᱟᱱ
ᱛᱩᱨᱠᱤ
ᱛᱩᱨᱠᱤᱠ
ᱛᱩᱨᱠᱤᱥ
ᱛᱩᱨᱠᱤᱭᱟᱹ
ᱛᱩᱨᱤ
ᱛᱩᱨᱥᱤ
ᱛᱩᱨᱩᱭ
ᱛᱩᱨᱩᱭᱟᱜ
ᱛᱩᱨᱩᱭᱟᱱ
ᱛᱩᱨᱮ
ᱛᱩᱨᱵᱚᱛ
ᱛᱩᱫ
ᱛᱩᱭᱩ
ᱛᱩᱯᱤᱥᱟ
ᱛᱩᱯᱩ
ᱛᱩᱯᱩᱫ
ᱛᱩᱯᱩᱱ
ᱛᱩᱯᱷᱟᱱᱜᱚᱧᱡᱽ
ᱛᱩᱱ
ᱛᱩᱱᱠᱷᱤ
ᱛᱩᱱᱩᱢ
ᱛᱩᱲᱤ
ᱛᱩᱲᱩᱠ
ᱛᱩᱵᱷᱟᱱ
ᱛᱩᱸᱵᱟᱹ
ᱛᱭᱟ
ᱛᱮ
ᱛᱮᱛ
ᱛᱮᱛᱟᱝ
ᱛᱮᱛᱨᱮ
ᱛᱮᱛᱩᱞᱤᱭᱟ
ᱛᱮᱛᱩᱢ
ᱛᱮᱛᱮᱫ
ᱛᱮᱜ
ᱛᱮᱜᱤ
ᱛᱮᱜᱮ
ᱛᱮᱜᱮᱠᱚ
ᱛᱮᱜᱮᱭ
ᱛᱮᱞ
ᱛᱮᱞᱜᱩ
ᱛᱮᱞᱟ
ᱛᱮᱞᱤᱭᱟᱢᱩᱨᱟ
ᱛᱮᱞᱩᱜᱩ
ᱛᱮᱞᱮᱜᱩ
ᱛᱮᱞᱮᱝᱜᱟᱱᱟ
ᱛᱮᱞᱮᱭᱟ
ᱛᱮᱞᱮᱸᱜᱟᱱᱟ
ᱛᱮᱟᱨ
ᱛᱮᱠᱚ
ᱛᱮᱠᱚᱣᱟᱜ
ᱛᱮᱠᱤᱱ
ᱛᱮᱠᱩ
ᱛᱮᱠᱳ
ᱛᱮᱠᱷᱟᱱ
ᱛᱮᱡ
ᱛᱮᱡᱚ
ᱛᱮᱡᱩ
ᱛᱮᱡᱽ
ᱛᱮᱡᱽᱯᱩᱨ
ᱛᱮᱢ
ᱛᱮᱢᱟ
ᱛᱮᱢᱟᱱ
ᱛᱮᱣᱟᱨ
ᱛᱮᱥᱟᱨ
ᱛᱮᱥᱟᱨᱤᱡ
ᱛᱮᱦᱚ
ᱛᱮᱦᱚᱸ
ᱛᱮᱦᱚᱸᱠᱚ
ᱛᱮᱦᱚᱸᱭ
ᱛᱮᱦᱥᱤᱞ
ᱛᱮᱦᱨᱚᱛᱷᱩᱢ
ᱛᱮᱦᱨᱟᱱ
ᱛᱮᱦᱮ
ᱛᱮᱦᱮᱧ
ᱛᱮᱦᱮᱧᱟᱜ
ᱛᱮᱦᱮᱱ
ᱛᱮᱦᱮᱱᱟ
ᱛᱮᱦᱮᱸ
ᱛᱮᱧ
ᱛᱮᱧᱟᱝ
ᱛᱮᱨᱚᱠᱷᱟᱫᱟ
ᱛᱮᱨᱟ
ᱛᱮᱨᱟᱝ
ᱛᱮᱨᱟᱭ
ᱛᱮᱨᱤ
ᱛᱮᱨᱮ
ᱛᱮᱫ
ᱛᱮᱫᱚ
ᱛᱮᱭ
ᱛᱮᱭᱟᱜ
ᱛᱮᱭᱟᱨ
ᱛᱮᱭᱟᱨᱚᱜ
ᱛᱮᱭᱟᱨᱚᱜᱼᱟ
ᱛᱮᱭᱟᱨᱟ
ᱛᱮᱭᱟᱨᱟᱜ
ᱛᱮᱭᱟᱨᱟᱠᱟᱱ
ᱛᱮᱭᱟᱨᱮᱫᱼᱟ
ᱛᱮᱭᱟᱨᱮᱱ
ᱛᱮᱭᱟᱨᱮᱱᱟ
ᱛᱮᱭᱟᱨᱻᱟ
ᱛᱮᱭᱮ
ᱛᱮᱱ
ᱛᱮᱱᱟᱜ
ᱛᱮᱱᱟᱞᱤ
ᱛᱮᱱᱠᱟᱥᱤ
ᱛᱮᱱᱩ
ᱛᱮᱱᱩᱜᱷᱟᱴ
ᱛᱮᱴᱮᱡ
ᱛᱮᱵᱚ
ᱛᱮᱵᱚᱱ
ᱛᱮᱸᱜᱮᱱ
ᱛᱮᱹᱞᱮᱜᱩ
ᱛᱮᱹᱞᱮᱹᱜᱩ
ᱛᱳ
ᱛᱳᱢᱟᱨ
ᱛᱳᱣᱟ
ᱛᱳᱲᱤ
ᱛᱵᱮ
ᱛᱷᱚᱞ
ᱛᱷᱚᱠ
ᱛᱷᱚᱠᱨᱮ
ᱛᱷᱚᱢ
ᱛᱷᱚᱢᱟᱥ
ᱛᱷᱚᱨ
ᱛᱷᱚᱨᱟ
ᱛᱷᱚᱨᱢᱟᱞ
ᱛᱷᱚᱨᱢᱮᱠᱥ
ᱛᱷᱚᱨᱩᱨ
ᱛᱷᱚᱭ
ᱛᱷᱚᱯᱟ
ᱛᱷᱚᱯᱮ
ᱛᱷᱚᱱᱚᱛ
ᱛᱷᱚᱱᱚᱠ
ᱛᱷᱚᱲᱟ
ᱛᱷᱟ
ᱛᱷᱟᱠ
ᱛᱷᱟᱢ
ᱛᱷᱟᱢᱜᱟᱹᱫᱤ
ᱛᱷᱟᱢᱜᱟᱹᱰᱤ
ᱛᱷᱟᱢᱟᱠᱩᱨ
ᱛᱷᱟᱨ
ᱛᱷᱟᱨᱢᱚᱞ
ᱛᱷᱟᱨᱢᱟᱞ
ᱛᱷᱟᱨᱤ
ᱛᱷᱟᱨᱩ
ᱛᱷᱟᱨᱰ
ᱛᱷᱟᱭ
ᱛᱷᱟᱭᱞᱟᱸᱰ
ᱛᱷᱟᱭᱞᱮᱱᱰ
ᱛᱷᱟᱭᱞᱮᱸᱰ
ᱛᱷᱟᱭᱤ
ᱛᱷᱟᱯᱚᱱ
ᱛᱷᱟᱯᱚᱱᱤᱡ
ᱛᱷᱟᱯᱚᱱᱤᱭᱟ
ᱛᱷᱟᱯᱚᱱᱤᱭᱟᱹ
ᱛᱷᱟᱯᱚᱱᱤᱭᱟᱹᱭ
ᱛᱷᱟᱯᱟ
ᱛᱷᱟᱯᱱᱟ
ᱛᱷᱟᱯᱱᱟᱣ
ᱛᱷᱟᱱ
ᱛᱷᱟᱱᱚᱛ
ᱛᱷᱟᱱᱟ
ᱛᱷᱟᱱᱤᱛ
ᱛᱷᱟᱶ
ᱛᱷᱟᱹᱨᱤ
ᱛᱷᱟᱹᱭᱞᱟᱹᱜ
ᱛᱷᱟᱹᱭᱟᱹ
ᱛᱷᱟᱹᱯᱱᱤᱛ
ᱛᱷᱟᱹᱱᱤᱛ
ᱛᱷᱤ
ᱛᱷᱤᱛ
ᱛᱷᱤᱛᱤ
ᱛᱷᱤᱠ
ᱛᱷᱤᱢ
ᱛᱷᱤᱢᱯᱩ
ᱛᱷᱤᱣᱨᱤ
ᱛᱷᱤᱨ
ᱛᱷᱤᱭᱚᱨᱚᱢ
ᱛᱷᱤᱭᱚᱨᱤ
ᱛᱷᱤᱭᱮᱴᱚᱨ
ᱛᱷᱤᱭᱮᱴᱟᱨ
ᱛᱷᱤᱭᱳᱨᱤ
ᱛᱷᱤᱵᱤ
ᱛᱷᱨᱤ
ᱛᱷᱨᱤᱞᱚᱨ
ᱛᱷᱨᱤᱞᱟᱨ
ᱛᱷᱨᱤᱥᱩᱨ
ᱛᱷᱨᱳ
ᱛᱷᱩ
ᱛᱷᱩᱛᱤ
ᱛᱷᱩᱛᱷᱩᱠᱩᱰᱤ
ᱛᱷᱩᱞᱤ
ᱛᱷᱩᱠᱟ
ᱛᱷᱩᱠᱟᱹᱢ
ᱛᱷᱩᱠᱩᱢ
ᱛᱷᱩᱢ
ᱛᱷᱮᱠᱮ
ᱛᱷᱮᱱ
ᱛᱷᱮᱱᱤ
ᱜ
ᱜᱚ
ᱜᱚᱛᱚᱢ
ᱜᱚᱛᱤ
ᱜᱚᱛᱮ
ᱜᱚᱜ
ᱜᱚᱜᱚ
ᱜᱚᱜᱚᱡ
ᱜᱚᱜᱚᱣᱟᱜ
ᱜᱚᱜᱚᱭ
ᱜᱚᱜᱚᱱᱟ
ᱜᱚᱜᱮᱱᱫᱽᱨᱚ
ᱜᱚᱜᱲᱚ
ᱜᱚᱜᱲᱚᱭᱤᱡ
ᱜᱚᱜᱽᱲᱚ
ᱜᱚᱝ
ᱜᱚᱝᱜᱚ
ᱜᱚᱝᱜᱟ
ᱜᱚᱝᱜᱟᱪᱚᱲᱟ
ᱜᱚᱝᱜᱟᱫᱷᱚᱨ
ᱜᱚᱝᱜᱮ
ᱜᱚᱝᱜᱷᱚᱨ
ᱜᱚᱝᱠᱮ
ᱜᱚᱞ
ᱜᱚᱞᱜᱚᱴ
ᱜᱚᱞᱟ
ᱜᱚᱞᱟᱜᱷᱟᱴ
ᱜᱚᱞᱟᱯ
ᱜᱚᱞᱠᱚᱱᱰᱟ
ᱜᱚᱞᱢᱩᱨᱤ
ᱜᱚᱞᱯᱚ
ᱜᱚᱞᱯᱷ
ᱜᱚᱞᱰ
ᱜᱚᱞᱰᱮᱱ
ᱜᱚᱞᱵᱟᱦᱟᱨᱤ
ᱜᱚᱠᱷᱞᱮ
ᱜᱚᱡ
ᱜᱚᱡᱚᱜ
ᱜᱚᱡᱚᱞ
ᱜᱚᱡᱚᱯᱚᱛᱤ
ᱜᱚᱡᱚᱱᱤ
ᱜᱚᱡᱟ
ᱜᱚᱡᱟᱜ
ᱜᱚᱡᱮ
ᱜᱚᱡᱽ
ᱜᱚᱢ
ᱜᱚᱢᱚᱦ
ᱜᱚᱢᱛᱤ
ᱜᱚᱢᱠᱮ
ᱜᱚᱢᱠᱮᱭ
ᱜᱚᱢᱠᱮᱭᱟᱜ
ᱜᱚᱢᱠᱮᱭᱮ
ᱜᱚᱢᱤᱭᱟ
ᱜᱚᱢᱦᱟ
ᱜᱚᱢᱦᱮᱲ
ᱜᱚᱢᱯᱟᱦᱟ
ᱜᱚᱢᱵᱩᱡᱚ
ᱜᱚᱢᱵᱷᱤᱨ
ᱜᱚᱣ
ᱜᱚᱣᱛᱚᱢ
ᱜᱚᱣᱛᱟᱢ
ᱜᱚᱣᱟ
ᱜᱚᱣᱟᱞᱯᱟᱲᱟ
ᱜᱚᱣᱟᱞᱯᱟᱲᱤᱭᱟ
ᱜᱚᱣᱦᱟᱨ
ᱜᱚᱣᱨᱚ
ᱜᱚᱣᱨᱚᱵᱽ
ᱜᱚᱣᱨᱤ
ᱜᱚᱣᱨᱤᱜᱚᱧᱡᱽ
ᱜᱚᱣᱨᱤᱯᱩᱨ
ᱜᱚᱣᱩᱛᱚᱢ
ᱜᱚᱣᱩᱨᱤ
ᱜᱚᱥᱚ
ᱜᱚᱥᱟᱬᱮ
ᱜᱚᱥᱟᱭ
ᱜᱚᱥᱟᱸᱭ
ᱜᱚᱥᱣᱟᱢᱤ
ᱜᱚᱥᱥᱟᱢᱤ
ᱜᱚᱥᱴᱤ
ᱜᱚᱦᱚᱲ
ᱜᱚᱦᱟᱸᱭ
ᱜᱚᱦᱩᱢ
ᱜᱚᱧᱡᱚ
ᱜᱚᱧᱡᱟᱢ
ᱜᱚᱧᱡᱽ
ᱜᱚᱨ
ᱜᱚᱨᱚ
ᱜᱚᱨᱚᱡ
ᱜᱚᱨᱚᱡᱟᱱ
ᱜᱚᱨᱚᱡᱟᱱᱟᱜ
ᱜᱚᱨᱚᱡᱽ
ᱜᱚᱨᱚᱢ
ᱜᱚᱨᱚᱱ
ᱜᱚᱨᱚᱵ
ᱜᱚᱨᱚᱵᱟᱱ
ᱜᱚᱨᱚᱵᱽ
ᱜᱚᱨᱞ
ᱜᱚᱨᱟᱠᱷ
ᱜᱚᱨᱟᱠᱷᱯᱩᱨ
ᱜᱚᱨᱟᱠᱷᱱᱟᱛᱷ
ᱜᱚᱨᱟᱢ
ᱜᱚᱨᱠᱷᱟ
ᱜᱚᱨᱤᱥ
ᱜᱚᱨᱤᱭᱟᱵᱚᱸᱫᱽ
ᱜᱚᱨᱦᱚ
ᱜᱚᱨᱩ
ᱜᱚᱨᱩᱰᱚ
ᱜᱚᱪ
ᱜᱚᱫ
ᱜᱚᱫᱚᱜ
ᱜᱚᱫᱚᱜᱼᱟ
ᱜᱚᱫᱚᱨ
ᱜᱚᱫᱟ
ᱜᱚᱫᱟᱜᱟᱲᱤ
ᱜᱚᱫᱟᱢ
ᱜᱚᱫᱟᱣᱟᱨᱤ
ᱜᱚᱫᱟᱫᱷᱚᱨ
ᱜᱚᱫᱟᱵᱚᱨᱤ
ᱜᱚᱫᱤ
ᱜᱚᱫᱷᱨᱟ
ᱜᱚᱫᱽᱨᱟ
ᱜᱚᱬᱚ
ᱜᱚᱬᱚᱛᱚᱱᱛᱨᱚ
ᱜᱚᱬᱦᱚᱱ
ᱜᱚᱬᱮᱥ
ᱜᱚᱬᱰᱚᱠᱤ
ᱜᱚᱭ
ᱜᱚᱭᱚᱱ
ᱜᱚᱭᱟ
ᱜᱚᱭᱟᱞᱚᱱᱫᱚ
ᱜᱚᱭᱮᱛᱷᱤ
ᱜᱚᱯᱚᱡ
ᱜᱚᱯᱚᱲᱚ
ᱜᱚᱯᱟᱞ
ᱜᱚᱯᱟᱞᱜᱚᱧᱡᱽ
ᱜᱚᱯᱟᱞᱜᱚᱸᱡᱽ
ᱜᱚᱯᱟᱞᱯᱩᱨ
ᱜᱚᱯᱤ
ᱜᱚᱯᱤᱱᱟᱛᱷ
ᱜᱚᱰ
ᱜᱚᱰᱚᱜᱽ
ᱜᱚᱰᱟ
ᱜᱚᱰᱪᱤᱨᱚᱞᱤ
ᱜᱚᱰᱮᱛ
ᱜᱚᱰᱰᱟ
ᱜᱚᱱ
ᱜᱚᱱᱚ
ᱜᱚᱱᱚᱛᱟᱱᱛᱨᱤᱠ
ᱜᱚᱱᱚᱝ
ᱜᱚᱱᱚᱝᱟᱱ
ᱜᱚᱱᱚᱴᱷᱚᱱ
ᱜᱚᱱᱟᱝ
ᱜᱚᱱᱤ
ᱜᱚᱱᱮᱥ
ᱜᱚᱱᱮᱥᱟᱱ
ᱜᱚᱱᱰᱚᱠᱤ
ᱜᱚᱱᱰᱟ
ᱜᱚᱱᱰᱤ
ᱜᱚᱱᱰᱤᱭᱟ
ᱜᱚᱱᱴᱷᱮ
ᱜᱚᱲ
ᱜᱚᱲᱚ
ᱜᱚᱲᱚᱜ
ᱜᱚᱲᱚᱜᱼᱟ
ᱜᱚᱲᱚᱢ
ᱜᱚᱲᱚᱢᱵᱟ
ᱜᱚᱲᱚᱣᱟᱱ
ᱜᱚᱲᱚᱥᱚᱦᱚᱫ
ᱜᱚᱲᱚᱭ
ᱜᱚᱲᱚᱭᱤᱡ
ᱜᱚᱲᱜᱟᱶ
ᱜᱚᱲᱟ
ᱜᱚᱲᱟᱭ
ᱜᱚᱲᱦᱚᱱ
ᱜᱚᱲᱦᱚᱱᱤᱭᱟ
ᱜᱚᱴ
ᱜᱚᱴᱟ
ᱜᱚᱴᱟᱜ
ᱜᱚᱴᱟᱜᱩᱴᱤ
ᱜᱚᱴᱟᱜᱮ
ᱜᱚᱴᱟᱝ
ᱜᱚᱴᱟᱝᱻᱟᱜ
ᱜᱚᱴᱟᱝᱼᱟᱜ
ᱜᱚᱴᱟᱞ
ᱜᱚᱴᱟᱭ
ᱜᱚᱴᱟᱯᱟᱲᱟ
ᱜᱚᱴᱟᱱ
ᱜᱚᱴᱮᱜ
ᱜᱚᱴᱮᱝ
ᱜᱚᱴᱮᱡ
ᱜᱚᱴᱮᱱ
ᱜᱚᱴᱮᱱᱵᱟᱨᱜᱽ
ᱜᱚᱴᱷᱚᱱ
ᱜᱚᱵᱚᱞ
ᱜᱚᱵᱚᱨᱱᱚᱨ
ᱜᱚᱵᱤᱱᱫᱚᱜᱚᱸᱡᱽ
ᱜᱚᱵᱤᱸᱫᱽ
ᱜᱚᱵᱤᱸᱫᱽᱯᱩᱨ
ᱜᱚᱵᱮᱥᱚᱱᱟ
ᱜᱚᱵᱷᱚᱨᱢᱮᱱᱴ
ᱜᱚᱵᱷᱚᱨᱱᱚᱨ
ᱜᱚᱸᱜᱟ
ᱜᱚᱸᱜᱷᱚᱨ
ᱜᱚᱸᱡᱽ
ᱜᱚᱸᱫᱤᱭᱟ
ᱜᱚᱸᱰ
ᱜᱚᱸᱰᱟ
ᱜᱚᱸᱰᱤ
ᱜᱚᱸᱲᱚ
ᱜᱚᱸᱲᱚᱸ
ᱜᱞᱚᱵᱟᱞ
ᱜᱞᱟᱥᱜᱚ
ᱜᱞᱟᱥᱜᱳᱣ
ᱜᱞᱳᱵᱟᱞ
ᱜᱞᱳᱵᱽ
ᱜᱟ
ᱜᱟᱛᱟᱠ
ᱜᱟᱛᱤ
ᱜᱟᱛᱮ
ᱜᱟᱛᱮᱜ
ᱜᱟᱛᱮᱜᱼᱟ
ᱜᱟᱛᱮᱞᱮᱱᱟ
ᱜᱟᱛᱮᱠᱩ
ᱜᱟᱛᱮᱣ
ᱜᱟᱛᱮᱧ
ᱜᱟᱛᱮᱨᱮ
ᱜᱟᱛᱮᱭ
ᱜᱟᱛᱷᱟ
ᱜᱟᱛᱷᱟᱣ
ᱜᱟᱜ
ᱜᱟᱜᱟ
ᱜᱟᱜᱟᱣᱩᱡᱽ
ᱜᱟᱜᱟᱨᱤᱱ
ᱜᱟᱝ
ᱜᱟᱝᱜᱟ
ᱜᱟᱝᱜᱟᱱᱚᱜᱚᱨ
ᱜᱟᱝᱜᱩᱞᱤ
ᱜᱟᱝᱱᱟᱹᱭ
ᱜᱟᱝᱱᱤ
ᱜᱟᱝᱴᱚᱠ
ᱜᱟᱞ
ᱜᱟᱞᱚᱪ
ᱜᱟᱞᱚᱪᱤᱭᱟ
ᱜᱟᱞᱚᱪᱤᱭᱟᱹ
ᱜᱟᱞᱟᱝ
ᱜᱟᱞᱢᱟᱨᱟᱣ
ᱜᱟᱞᱣᱟᱱ
ᱜᱟᱞᱤ
ᱜᱟᱞᱤᱞᱤᱭᱚ
ᱜᱟᱞᱤᱥᱤᱭᱟᱱ
ᱜᱟᱞᱥ
ᱜᱟᱞᱮ
ᱜᱟᱞᱮᱱ
ᱜᱟᱡᱟᱲ
ᱜᱟᱡᱤ
ᱜᱟᱡᱤᱭᱟᱵᱟᱫᱽ
ᱜᱟᱡᱤᱯᱩᱨ
ᱜᱟᱡᱩᱨᱮᱞ
ᱜᱟᱢ
ᱜᱟᱢᱟ
ᱜᱟᱢᱟᱢ
ᱜᱟᱢᱟᱢᱤᱭᱟ
ᱜᱟᱢᱟᱢᱤᱭᱟᱹ
ᱜᱟᱢᱪᱷᱟ
ᱜᱟᱢᱵᱤᱭᱟ
ᱜᱟᱣ
ᱜᱟᱣᱨᱤᱯᱩᱨ
ᱜᱟᱣᱯᱟᱞᱤᱠᱟ
ᱜᱟᱥ
ᱜᱟᱥᱟᱣ
ᱜᱟᱦ
ᱜᱟᱦᱤᱨ
ᱜᱟᱨ
ᱜᱟᱨᱚ
ᱜᱟᱨᱚᱡ
ᱜᱟᱨᱜᱤ
ᱜᱟᱨᱜᱽ
ᱜᱟᱨᱞ
ᱜᱟᱨᱞᱥ
ᱜᱟᱨᱡᱤᱭᱟᱱ
ᱜᱟᱨᱤᱵᱽ
ᱜᱟᱨᱥᱤᱭᱟ
ᱜᱟᱨᱩᱰᱤᱭᱟ
ᱜᱟᱨᱫᱟ
ᱜᱟᱨᱮ
ᱜᱟᱨᱰ
ᱜᱟᱨᱰᱮᱱ
ᱜᱟᱨᱳ
ᱜᱟᱩᱯᱟᱞᱤᱠᱟ
ᱜᱟᱪᱷᱤ
ᱜᱟᱫᱮᱞ
ᱜᱟᱬᱟ
ᱜᱟᱭ
ᱜᱟᱭᱚᱛᱨᱤ
ᱜᱟᱭᱛᱨᱤ
ᱜᱟᱭᱛᱳᱱᱰᱮ
ᱜᱟᱭᱟ
ᱜᱟᱭᱟᱱ
ᱜᱟᱭᱟᱱᱟ
ᱜᱟᱭᱟᱱᱤᱭᱟ
ᱜᱟᱭᱟᱱᱤᱭᱟᱹ
ᱜᱟᱭᱤᱰ
ᱜᱟᱭᱤᱱ
ᱜᱟᱭᱱᱟᱦᱟ
ᱜᱟᱭᱱᱟᱦᱟᱨ
ᱜᱟᱭᱱᱟᱦᱟᱨᱤᱭᱟ
ᱜᱟᱭᱱᱟᱦᱤᱭᱟᱹ
ᱜᱟᱭᱵᱟᱱᱫᱷᱟ
ᱜᱟᱯᱟ
ᱜᱟᱯᱟᱛᱮ
ᱜᱟᱯᱟᱞ
ᱜᱟᱯᱟᱞᱢᱟᱨᱟᱣ
ᱜᱟᱰ
ᱜᱟᱰᱟ
ᱜᱟᱰᱟᱠᱚ
ᱜᱟᱰᱟᱵᱟ
ᱜᱟᱰᱤ
ᱜᱟᱰᱮᱱ
ᱜᱟᱰᱷᱟ
ᱜᱟᱱ
ᱜᱟᱱᱚᱜ
ᱜᱟᱱᱚᱜᱼᱟ
ᱜᱟᱱᱛᱷᱟᱨ
ᱜᱟᱱᱟ
ᱜᱟᱱᱟᱜ
ᱜᱟᱱᱟᱝ
ᱜᱟᱱᱦᱟᱣ
ᱜᱟᱱᱫᱮᱨᱵᱟᱞ
ᱜᱟᱱᱫᱷᱤ
ᱜᱟᱱᱫᱷᱤᱡᱤ
ᱜᱟᱱᱫᱷᱤᱭᱟᱜ
ᱜᱟᱱᱫᱷᱤᱱᱚᱜᱚᱨ
ᱜᱟᱱᱮ
ᱜᱟᱱᱮᱥ
ᱜᱟᱲ
ᱜᱟᱲᱣᱟ
ᱜᱟᱲᱣᱟᱞ
ᱜᱟᱲᱣᱟᱞᱤ
ᱜᱟᱴᱟᱝ
ᱜᱟᱴᱟᱱ
ᱜᱟᱵᱚᱱ
ᱜᱟᱵᱟ
ᱜᱟᱵᱟᱬ
ᱜᱟᱵᱟᱱ
ᱜᱟᱵᱟᱱᱚᱜ
ᱜᱟᱵᱟᱱᱤᱡ
ᱜᱟᱵᱟᱱᱤᱭᱟᱹ
ᱜᱟᱵᱤ
ᱜᱟᱵᱮ
ᱜᱟᱵᱽᱛᱚᱞᱤ
ᱜᱟᱵᱽᱨᱤᱭᱮᱞ
ᱜᱟᱶ
ᱜᱟᱶᱛᱟ
ᱜᱟᱶᱛᱟᱭ
ᱜᱟᱸ
ᱜᱟᱸᱛᱟᱠ
ᱜᱟᱸᱜᱟ
ᱜᱟᱸᱫᱷᱟᱨ
ᱜᱟᱸᱫᱷᱤ
ᱜᱟᱸᱰᱚ
ᱜᱟᱹᱠᱦᱩᱲ
ᱜᱟᱹᱠᱩᱲ
ᱜᱟᱹᱠᱷᱩᱬᱤᱭᱟᱹ
ᱜᱟᱹᱠᱷᱩᱲ
ᱜᱟᱹᱠᱷᱩᱲᱤᱭᱟᱹ
ᱜᱟᱹᱠᱷᱳᱲ
ᱜᱟᱹᱣᱨᱤ
ᱜᱟᱹᱦᱞᱟᱹ
ᱜᱟᱹᱦᱤᱨ
ᱜᱟᱹᱦᱤᱸᱨ
ᱜᱟᱹᱨᱤ
ᱜᱟᱹᱪᱷᱤ
ᱜᱟᱹᱫᱤ
ᱜᱟᱹᱬᱤ
ᱜᱟᱹᱭ
ᱜᱟᱹᱭᱱᱟᱹᱦᱟᱨ
ᱜᱟᱹᱭᱱᱟᱹᱦᱟᱹᱨ
ᱜᱟᱹᱰᱤ
ᱜᱟᱹᱱᱟᱹᱴ
ᱜᱟᱹᱱᱫᱷᱤ
ᱜᱟᱹᱲᱤ
ᱜᱟᱺᱦᱤᱨ
ᱜᱟᱺᱫᱷᱤ
ᱜᱟᱺᱴ
ᱜᱟᱺᱵᱷᱟᱹᱨᱤᱭᱟᱹ
ᱜᱣᱟᱞᱤᱭᱚᱨ
ᱜᱣᱟᱞᱤᱭᱟᱨ
ᱜᱣᱟᱫᱚᱨ
ᱜᱣᱟᱫᱟᱨ
ᱜᱣᱟᱴᱮᱢᱟᱞᱟ
ᱜᱤ
ᱜᱤᱛ
ᱜᱤᱛᱟ
ᱜᱤᱛᱟᱧᱡᱚᱞᱤ
ᱜᱤᱛᱟᱱᱡᱚᱞᱤ
ᱜᱤᱛᱤᱞ
ᱜᱤᱛᱤᱠᱟᱨ
ᱜᱤᱛᱤᱡ
ᱜᱤᱞ
ᱜᱤᱞᱜᱤᱛ
ᱜᱤᱞᱜᱤᱴ
ᱜᱤᱞᱟᱠᱤ
ᱜᱤᱞᱰ
ᱜᱤᱡ
ᱜᱤᱦ
ᱜᱤᱧ
ᱜᱤᱨ
ᱜᱤᱨᱟ
ᱜᱤᱨᱟᱹ
ᱜᱤᱨᱟᱹᱵᱟᱥ
ᱜᱤᱨᱟᱹᱵᱟᱥᱤ
ᱜᱤᱨᱟᱹᱵᱟᱹᱥᱤ
ᱜᱤᱨᱡᱟ
ᱜᱤᱨᱡᱟᱹ
ᱜᱤᱨᱤ
ᱜᱤᱨᱤᱡᱟ
ᱜᱤᱨᱤᱥ
ᱜᱤᱨᱤᱫᱷᱚᱨ
ᱜᱤᱨᱤᱰᱤᱦ
ᱜᱤᱫ
ᱜᱤᱫᱟ
ᱜᱤᱫᱟᱨ
ᱜᱤᱫᱟᱹᱨ
ᱜᱤᱫᱟᱹᱨᱟᱜ
ᱜᱤᱫᱤ
ᱜᱤᱫᱨᱟ
ᱜᱤᱫᱨᱟᱹ
ᱜᱤᱫᱨᱟᱹᱭ
ᱜᱤᱫᱽᱨᱟ
ᱜᱤᱫᱽᱨᱟᱹ
ᱜᱤᱫᱽᱨᱟᱹᱠᱚ
ᱜᱤᱫᱽᱨᱟᱹᱣᱟᱜ
ᱜᱤᱫᱽᱨᱟᱹᱦᱟᱜ
ᱜᱤᱫᱽᱨᱟᱹᱭ
ᱜᱤᱭᱟ
ᱜᱤᱭᱟᱫ
ᱜᱤᱭᱟᱫᱟ
ᱜᱤᱰᱤ
ᱜᱤᱱ
ᱜᱤᱱᱤ
ᱜᱤᱱᱤᱡᱽ
ᱜᱤᱱᱱᱤ
ᱜᱤᱴᱟᱨ
ᱜᱤᱵᱷᱟᱨ
ᱜᱨᱚᱛᱷ
ᱜᱨᱚᱴ
ᱜᱨᱚᱸᱛᱷ
ᱜᱨᱟᱡᱩᱭᱮᱴ
ᱜᱨᱟᱡᱩᱮᱴ
ᱜᱨᱟᱢ
ᱜᱨᱟᱢᱤᱬ
ᱜᱨᱟᱢᱯᱚᱧᱪᱟᱭᱮᱛ
ᱜᱨᱟᱢᱯᱚᱸᱪᱟᱭᱚᱛ
ᱜᱨᱟᱦᱟᱢ
ᱜᱨᱟᱯᱷ
ᱜᱨᱟᱱᱰ
ᱜᱨᱟᱱᱰᱥᱞᱟᱢ
ᱜᱨᱟᱱᱴ
ᱜᱨᱟᱸᱛᱷ
ᱜᱨᱟᱸᱛᱷᱤ
ᱜᱨᱟᱸᱰ
ᱜᱨᱟᱸᱴ
ᱜᱨᱤᱠ
ᱜᱨᱤᱥ
ᱜᱨᱤᱭᱮᱨᱥᱚᱱ
ᱜᱨᱤᱱ
ᱜᱨᱩᱯ
ᱜᱨᱮᱜᱚᱨᱤ
ᱜᱨᱮᱜᱚᱨᱤᱭᱟᱱ
ᱜᱨᱮᱡᱩᱣᱮᱥᱚᱱ
ᱜᱨᱮᱡᱩᱭᱮᱴ
ᱜᱨᱮᱡᱩᱮᱴ
ᱜᱨᱮᱣᱟᱞ
ᱜᱨᱮᱯᱛᱟᱨ
ᱜᱨᱮᱰ
ᱜᱨᱮᱱᱟᱭᱤᱴ
ᱜᱨᱮᱴ
ᱜᱨᱮᱴᱟᱨ
ᱜᱨᱮᱸᱰ
ᱜᱩ
ᱜᱩᱛᱤ
ᱜᱩᱜᱚᱞ
ᱜᱩᱜᱩᱞ
ᱜᱩᱜᱳᱞ
ᱜᱩᱞ
ᱜᱩᱞᱟ
ᱜᱩᱞᱟᱢ
ᱜᱩᱞᱟᱵᱽ
ᱜᱩᱞᱟᱹᱤ
ᱜᱩᱞᱟᱹᱭ
ᱜᱩᱞᱟᱹᱯ
ᱜᱩᱞᱟᱹᱯᱤ
ᱜᱩᱞᱡᱟᱨᱤᱞᱟᱞ
ᱜᱩᱞᱢᱤ
ᱜᱩᱞᱤ
ᱜᱩᱞᱥᱟᱱ
ᱜᱩᱞᱮᱯᱷ
ᱜᱩᱞᱵᱚᱨᱜᱟ
ᱜᱩᱡ
ᱜᱩᱡᱟᱨᱟᱛᱤ
ᱜᱩᱡᱟᱨᱤ
ᱜᱩᱡᱨᱟᱛ
ᱜᱩᱡᱨᱟᱛᱤ
ᱜᱩᱡᱨᱟᱞ
ᱜᱩᱡᱨᱟᱴ
ᱜᱩᱡᱨᱟᱴᱤ
ᱜᱩᱡᱩ
ᱜᱩᱡᱩᱜ
ᱜᱩᱡᱩᱜᱼᱟ
ᱜᱩᱡᱩᱨᱟᱴ
ᱜᱩᱡᱽᱨᱟ
ᱜᱩᱡᱽᱨᱟᱛ
ᱜᱩᱡᱽᱨᱟᱛᱤ
ᱜᱩᱡᱽᱨᱟᱴ
ᱜᱩᱡᱽᱨᱟᱴᱤ
ᱜᱩᱢᱞᱟ
ᱜᱩᱢᱟᱱᱤ
ᱜᱩᱢᱤᱭᱟ
ᱜᱩᱣᱟ
ᱜᱩᱣᱟᱝᱡᱚᱣ
ᱜᱩᱣᱟᱢ
ᱜᱩᱣᱟᱦᱟᱴᱤ
ᱜᱩᱣᱟᱨᱟᱱᱤ
ᱜᱩᱣᱟᱹ
ᱜᱩᱥᱴᱤ
ᱜᱩᱦᱟ
ᱜᱩᱦᱤᱨᱟᱢ
ᱜᱩᱦᱩᱢ
ᱜᱩᱨ
ᱜᱩᱨᱚᱜ
ᱜᱩᱨᱜᱟᱶ
ᱜᱩᱨᱡᱟᱨ
ᱜᱩᱨᱤᱡ
ᱜᱩᱨᱤᱡᱽ
ᱜᱩᱨᱦᱮᱴ
ᱜᱩᱨᱩ
ᱜᱩᱨᱩᱛ
ᱜᱩᱨᱩᱜᱟᱶ
ᱜᱩᱨᱩᱜᱨᱟᱢ
ᱜᱩᱨᱩᱝ
ᱜᱩᱨᱩᱝᱜ
ᱜᱩᱨᱩᱠᱩᱞ
ᱜᱩᱨᱩᱡᱤ
ᱜᱩᱨᱩᱢᱩᱠᱷᱤ
ᱜᱩᱨᱩᱣᱟᱜ
ᱜᱩᱨᱩᱪᱟᱨᱭᱟ
ᱜᱩᱨᱩᱫᱟᱥᱯᱩᱨ
ᱜᱩᱨᱩᱫᱣᱟᱨᱟ
ᱜᱩᱨᱩᱭ
ᱜᱩᱨᱫᱟᱥᱯᱩᱨ
ᱜᱩᱨᱺ
ᱜᱩᱫ
ᱜᱩᱬ
ᱜᱩᱬᱯᱩᱨ
ᱜᱩᱭ
ᱜᱩᱭᱟᱱᱟ
ᱜᱩᱭᱮᱫᱟ
ᱜᱩᱭᱰᱟ
ᱜᱩᱭᱱᱤᱭᱟ
ᱜᱩᱯᱛ
ᱜᱩᱯᱛᱚ
ᱜᱩᱯᱛᱟ
ᱜᱩᱯᱤ
ᱜᱩᱯᱤᱭᱟ
ᱜᱩᱯᱴ
ᱜᱩᱯᱷᱟ
ᱜᱩᱰ
ᱜᱩᱰᱤ
ᱜᱩᱰᱤᱛ
ᱜᱩᱰᱨᱟᱹᱣ
ᱜᱩᱰᱩ
ᱜᱩᱰᱰᱤ
ᱜᱩᱰᱱᱟᱹ
ᱜᱩᱱ
ᱜᱩᱱᱟ
ᱜᱩᱱᱟᱱ
ᱜᱩᱱᱢᱟᱱ
ᱜᱩᱱᱤᱡᱚᱱ
ᱜᱩᱱᱦᱟᱬ
ᱜᱩᱱᱩᱱ
ᱜᱩᱱᱰᱟ
ᱜᱩᱱᱰᱤ
ᱜᱩᱱᱰᱩᱨᱤᱭᱟᱹ
ᱜᱩᱱᱴᱩᱨ
ᱜᱩᱱᱴᱷᱤ
ᱜᱩᱲ
ᱜᱩᱲᱜᱟᱶ
ᱜᱩᱲᱟᱵᱟᱱᱫᱷᱟ
ᱜᱩᱲᱤ
ᱜᱩᱲᱫᱟᱹᱣ
ᱜᱩᱴ
ᱜᱩᱴᱤ
ᱜᱩᱴᱩ
ᱜᱩᱴᱳᱵᱽ
ᱜᱩᱴᱺ
ᱜᱩᱵᱵᱤ
ᱜᱩᱸᱰ
ᱜᱩᱸᱰᱟ
ᱜᱩᱸᱰᱟᱹ
ᱜᱩᱸᱴ
ᱜᱭᱟᱱ
ᱜᱭᱟᱱᱯᱤᱴᱷ
ᱜᱭᱟᱱᱯᱩᱨ
ᱜᱮ
ᱜᱮᱛᱟ
ᱜᱮᱛᱟᱹ
ᱜᱮᱛᱩᱨ
ᱜᱮᱛᱮ
ᱜᱮᱞ
ᱜᱮᱞᱛᱩᱨᱩᱭ
ᱜᱮᱞᱟᱜ
ᱜᱮᱞᱟᱝ
ᱜᱮᱞᱟᱠᱥᱤ
ᱜᱮᱞᱟᱱᱟᱜ
ᱜᱮᱞᱢᱤᱫ
ᱜᱮᱞᱤᱠ
ᱜᱮᱞᱥᱟᱭ
ᱜᱮᱞᱮ
ᱜᱮᱞᱯᱩᱱ
ᱜᱮᱞᱯᱮ
ᱜᱮᱞᱵᱟᱨ
ᱜᱮᱠᱚ
ᱜᱮᱠᱤᱱ
ᱜᱮᱠᱩ
ᱜᱮᱡ
ᱜᱮᱡᱮᱨ
ᱜᱮᱡᱮᱴ
ᱜᱮᱡᱽ
ᱜᱮᱢ
ᱜᱮᱢᱚᱬ
ᱜᱮᱢᱤᱫ
ᱜᱮᱢᱥ
ᱜᱮᱢᱮᱨ
ᱜᱮᱥ
ᱜᱮᱥᱟᱥᱟᱭ
ᱜᱮᱥᱟᱭ
ᱜᱮᱥᱮᱨᱢᱟ
ᱜᱮᱥᱴ
ᱜᱮᱦᱞᱳᱨ
ᱜᱮᱧ
ᱜᱮᱨ
ᱜᱮᱨᱟᱢ
ᱜᱮᱨᱟᱹᱞ
ᱜᱮᱨᱤᱧᱡᱟ
ᱜᱮᱫ
ᱜᱮᱫᱟ
ᱜᱮᱭ
ᱜᱮᱭᱟ
ᱜᱮᱭᱟᱠᱚ
ᱜᱮᱭᱟᱭ
ᱜᱮᱭᱟᱱ
ᱜᱮᱭᱮ
ᱜᱮᱯᱩᱱ
ᱜᱮᱯᱮ
ᱜᱮᱰᱮ
ᱜᱮᱱ
ᱜᱮᱱᱮᱨᱟᱞ
ᱜᱮᱴ
ᱜᱮᱵᱚ
ᱜᱮᱵᱚᱱ
ᱜᱮᱵᱟᱨ
ᱜᱮᱵᱷᱟᱨᱟ
ᱜᱮᱸᱜᱽᱥᱴᱟᱨ
ᱜᱮᱼ
ᱜᱮᱼᱥᱟᱭ
ᱜᱮᱼᱥᱮᱨᱢᱟ
ᱜᱳ
ᱜᱳᱜᱳ
ᱜᱳᱞ
ᱜᱳᱞᱟᱯᱤ
ᱜᱳᱞᱤ
ᱜᱳᱞᱰ
ᱜᱳᱞᱰᱮᱱ
ᱜᱳᱢᱚᱛᱤ
ᱜᱳᱢᱚᱥᱛᱟ
ᱜᱳᱢᱟᱱᱛᱚᱠ
ᱜᱳᱣᱛᱚᱢ
ᱜᱳᱣᱟ
ᱜᱳᱣᱟᱞᱛᱳᱲ
ᱜᱳᱣᱟᱞᱯᱟᱨᱟ
ᱜᱳᱥᱟᱸᱭ
ᱜᱳᱥᱣᱟᱢᱤ
ᱜᱳᱥᱴᱷᱤ
ᱜᱳᱨᱟᱪᱟᱸᱫᱽ
ᱜᱳᱨᱠᱷᱟ
ᱜᱳᱨᱤ
ᱜᱳᱨᱤᱭᱟ
ᱜᱳᱨᱩᱢ
ᱜᱳᱨᱩᱢᱚᱦᱤᱥᱟᱬᱤ
ᱜᱳᱫᱟᱵᱚᱨᱤ
ᱜᱳᱭᱟ
ᱜᱳᱯᱚᱵᱚᱱᱫᱷᱩ
ᱜᱳᱯᱚᱵᱚᱱᱫᱷᱩᱱᱚᱜᱚᱨ
ᱜᱳᱯᱛᱟ
ᱜᱳᱯᱟᱞ
ᱜᱳᱯᱟᱞᱚᱥᱣᱟᱢᱤ
ᱜᱳᱯᱟᱞᱜᱚᱸᱡᱽ
ᱜᱳᱯᱟᱞᱯᱩᱨ
ᱜᱳᱯᱟᱲᱯᱩᱨ
ᱜᱳᱯᱤ
ᱜᱳᱯᱤᱠᱟᱱᱫᱟᱨ
ᱜᱳᱯᱤᱱᱟᱛᱷ
ᱜᱳᱰ
ᱜᱳᱰᱰᱟ
ᱜᱳᱱᱰᱤ
ᱜᱳᱴᱟ
ᱜᱳᱵᱤᱱᱫᱚ
ᱜᱷᱚᱞ
ᱜᱷᱚᱥ
ᱜᱷᱚᱥᱚᱬᱟ
ᱜᱷᱚᱥᱬᱟ
ᱜᱷᱚᱥᱱᱟ
ᱜᱷᱚᱨ
ᱜᱷᱚᱨᱚ
ᱜᱷᱚᱨᱟᱱᱟ
ᱜᱷᱚᱨᱟᱱᱮ
ᱜᱷᱚᱱ
ᱜᱷᱚᱱᱚ
ᱜᱷᱚᱱᱥᱭᱟᱢ
ᱜᱷᱚᱱᱴᱟ
ᱜᱷᱚᱲᱟᱜᱷᱟᱴ
ᱜᱷᱚᱴᱚᱠ
ᱜᱷᱚᱴᱚᱱ
ᱜᱷᱚᱴᱚᱱᱟ
ᱜᱷᱚᱴᱟᱣ
ᱜᱷᱚᱴᱱᱟ
ᱜᱷᱟ
ᱜᱷᱟᱛ
ᱜᱷᱟᱛᱟᱠ
ᱜᱷᱟᱜᱩᱲᱤᱭᱟ
ᱜᱷᱟᱜᱷᱨᱟ
ᱜᱷᱟᱜᱷᱨᱤ
ᱜᱷᱟᱣ
ᱜᱷᱟᱥ
ᱜᱷᱟᱥᱟᱣ
ᱜᱷᱟᱨ
ᱜᱷᱟᱨᱚ
ᱜᱷᱟᱨᱚᱡ
ᱜᱷᱟᱨᱚᱡᱽ
ᱜᱷᱟᱨᱚᱧᱡᱤᱭᱟᱹ
ᱜᱷᱟᱨᱚᱧᱡᱽ
ᱜᱷᱟᱨᱚᱪ
ᱜᱷᱟᱨᱚᱱᱡᱽ
ᱜᱷᱟᱨᱚᱸᱡ
ᱜᱷᱟᱨᱚᱸᱡᱤᱭᱟ
ᱜᱷᱟᱨᱚᱸᱡᱤᱭᱟᱹ
ᱜᱷᱟᱨᱚᱸᱡᱽ
ᱜᱷᱟᱨᱚᱸᱧᱡᱽ
ᱜᱷᱟᱨᱟᱱᱟ
ᱜᱷᱟᱨᱟᱱᱮ
ᱜᱷᱟᱨᱸᱡᱽ
ᱜᱷᱟᱭᱚᱞ
ᱜᱷᱟᱱ
ᱜᱷᱟᱱᱟ
ᱜᱷᱟᱱᱮ
ᱜᱷᱟᱱᱴᱟ
ᱜᱷᱟᱲᱣᱟ
ᱜᱷᱟᱴ
ᱜᱷᱟᱴᱚ
ᱜᱷᱟᱴᱚᱱ
ᱜᱷᱟᱴᱟ
ᱜᱷᱟᱴᱟᱞ
ᱜᱷᱟᱴᱤ
ᱜᱷᱟᱴᱥᱤᱞᱟ
ᱜᱷᱟᱴᱥᱤᱞᱟᱹ
ᱜᱷᱟᱴᱱᱟ
ᱜᱷᱟᱸᱥ
ᱜᱷᱟᱸᱨᱚᱡ
ᱜᱷᱟᱸᱨᱚᱡᱽ
ᱜᱷᱟᱸᱨᱚᱧᱡᱽ
ᱜᱷᱟᱹᱞ
ᱜᱷᱟᱹᱨᱱᱤ
ᱜᱷᱟᱹᱲᱤ
ᱜᱷᱟᱹᱲᱤᱠ
ᱜᱷᱟᱹᱲᱤᱡ
ᱜᱷᱟᱹᱴᱤ
ᱜᱷᱤᱢᱤᱨᱮ
ᱜᱷᱩᱜᱩᱱᱤ
ᱜᱷᱩᱞᱟᱢ
ᱜᱷᱩᱨᱞᱟᱹ
ᱜᱷᱩᱨᱞᱟᱹᱣ
ᱜᱷᱩᱲ
ᱜᱷᱩᱲᱤ
ᱜᱷᱩᱴ
ᱜᱷᱩᱴᱩ
ᱜᱷᱩᱸᱴ
ᱜᱷᱮᱞᱚᱱᱰᱤᱭᱟᱹ
ᱜᱷᱮᱨᱟ
ᱜᱷᱮᱨᱟᱣ
ᱜᱷᱮᱨᱟᱨᱰᱤᱱᱤ
ᱜᱷᱮᱸᱭ
ᱜᱷᱮᱸᱴ
ᱜᱷᱳᱥ
ᱜᱷᱳᱥᱚᱬᱟ
ᱜᱷᱳᱥᱟᱞ
ᱜᱷᱳᱥᱳᱱᱟ
ᱜᱹ
ᱜᱼᱟ
ᱜᱽ
ᱜᱽᱞᱮᱱᱥ
ᱜᱽᱞᱮᱱᱰ
ᱜᱽᱞᱳᱨᱤᱭᱟ
ᱜᱽᱞᱳᱵᱟᱞ
ᱜᱽᱣᱟ
ᱜᱽᱣᱟᱞᱤᱭᱚᱨ
ᱜᱽᱣᱟᱞᱤᱭᱟᱨ
ᱜᱽᱣᱟᱫᱟᱨ
ᱜᱽᱨᱚᱦᱚ
ᱜᱽᱨᱚᱴ
ᱜᱽᱨᱟᱡᱩᱭᱮᱥᱚᱱ
ᱜᱽᱨᱟᱡᱩᱭᱮᱴ
ᱜᱽᱨᱟᱢ
ᱜᱽᱨᱟᱥᱱᱟᱞᱤ
ᱜᱽᱨᱟᱸᱴ
ᱜᱽᱨᱤᱠ
ᱜᱽᱨᱤᱥ
ᱜᱽᱨᱤᱱ
ᱜᱽᱨᱤᱱᱞᱮᱱᱰᱤᱠ
ᱜᱽᱨᱩᱯ
ᱜᱽᱨᱮᱡᱩᱣᱮᱴ
ᱜᱽᱨᱮᱡᱩᱭᱮᱥᱚᱱ
ᱜᱽᱨᱮᱯᱷᱟᱭᱤᱴ
ᱜᱽᱨᱮᱰ
ᱜᱽᱨᱮᱴ
ᱜᱽᱨᱮᱸᱰ
ᱜᱽᱭᱟᱱᱤ
ᱝ
ᱝᱚ
ᱝᱜᱟ
ᱝᱜᱤᱧ
ᱝᱨᱮ
ᱝᱩᱭᱮᱱ
ᱞ
ᱞᱚ
ᱞᱚᱛᱟ
ᱞᱚᱜ
ᱞᱚᱜᱚᱱ
ᱞᱚᱜᱽ
ᱞᱚᱜᱽᱵᱷᱚᱜᱽ
ᱞᱚᱝ
ᱞᱚᱝᱜᱤᱪᱩᱰ
ᱞᱚᱝᱜᱤᱴᱭᱩᱰ
ᱞᱚᱝᱞᱮᱝ
ᱞᱚᱝᱠᱟ
ᱞᱚᱝᱰᱤᱝ
ᱞᱚᱞᱚ
ᱞᱚᱞᱚᱣᱟ
ᱞᱚᱞᱚᱥᱚᱝ
ᱞᱚᱞᱚᱦᱟᱛᱟᱝ
ᱞᱚᱞᱤᱛ
ᱞᱚᱞᱤᱛᱟ
ᱞᱚᱞᱤᱛᱯᱩᱨ
ᱞᱚᱞᱤᱯᱚᱯ
ᱞᱚᱠ
ᱞᱚᱠᱚ
ᱞᱚᱠᱚᱨ
ᱞᱚᱠᱟ
ᱞᱚᱠᱟᱞ
ᱞᱚᱠᱠᱷᱚᱱ
ᱞᱚᱠᱠᱷᱤᱯᱩᱨ
ᱞᱚᱠᱥᱚᱵᱷᱟ
ᱞᱚᱠᱥᱟᱱ
ᱞᱚᱠᱥᱢᱤ
ᱞᱚᱠᱥᱢᱤᱠᱟᱸᱛ
ᱞᱚᱠᱥᱢᱤᱯᱩᱨ
ᱞᱚᱠᱱᱚᱣ
ᱞᱚᱠᱷᱚᱬ
ᱞᱚᱠᱷᱚᱱ
ᱞᱚᱠᱷᱢᱚᱬ
ᱞᱚᱠᱷᱢᱚᱱ
ᱞᱚᱠᱷᱢᱤ
ᱞᱚᱠᱷᱢᱤᱯᱩᱨ
ᱞᱚᱠᱷᱤ
ᱞᱚᱠᱷᱤᱢ
ᱞᱚᱠᱷᱤᱢᱯᱩᱨ
ᱞᱚᱠᱷᱤᱥᱚᱨᱟᱭ
ᱞᱚᱠᱷᱥᱢᱤ
ᱞᱚᱠᱷᱭᱚᱬ
ᱞᱚᱠᱷᱱᱚᱣ
ᱞᱚᱡᱤᱠ
ᱞᱚᱢᱡᱩᱝ
ᱞᱚᱢᱤᱛᱤ
ᱞᱚᱢᱵᱟᱰᱤ
ᱞᱚᱣ
ᱞᱚᱣᱟ
ᱞᱚᱣᱟᱨ
ᱞᱚᱥ
ᱞᱚᱥᱚ
ᱞᱚᱥᱚᱫ
ᱞᱚᱥᱴ
ᱞᱚᱦ
ᱞᱚᱦᱚᱜ
ᱞᱚᱦᱚᱫ
ᱞᱚᱦᱟᱜᱚᱲᱟ
ᱞᱚᱦᱟᱨᱫᱟᱜᱟ
ᱞᱚᱦᱤᱛ
ᱞᱚᱦᱨᱟ
ᱞᱚᱧᱪ
ᱞᱚᱨᱟᱞᱟᱭ
ᱞᱚᱨᱤ
ᱞᱚᱨᱮᱱ
ᱞᱚᱨᱰ
ᱞᱚᱨᱱᱤᱝ
ᱞᱚᱪᱷᱚᱱ
ᱞᱚᱪᱷᱢᱤ
ᱞᱚᱪᱷᱱᱟ
ᱞᱚᱫᱚᱢ
ᱞᱚᱫᱟᱢ
ᱞᱚᱫᱷ
ᱞᱚᱫᱷᱤ
ᱞᱚᱫᱽᱢᱟ
ᱞᱚᱭᱚᱝ
ᱞᱚᱱᱰᱚᱱ
ᱞᱚᱲᱤᱛᱟ
ᱞᱚᱴᱚᱢ
ᱞᱚᱴᱟ
ᱞᱚᱵᱷ
ᱞᱚᱵᱷᱟᱣ
ᱞᱚᱵᱽ
ᱞᱚᱸᱜ
ᱞᱚᱸᱪ
ᱞᱚᱸᱰᱚᱱ
ᱞᱜᱩᱲᱤ
ᱞᱟ
ᱞᱟᱛᱟ
ᱞᱟᱛᱟᱨ
ᱞᱟᱛᱤᱱ
ᱞᱟᱛᱩᱨ
ᱞᱟᱛᱮᱦᱟᱨ
ᱞᱟᱛᱵᱷᱤᱭᱟ
ᱞᱟᱛᱵᱷᱤᱭᱟᱱ
ᱞᱟᱜ
ᱞᱟᱜᱚᱥ
ᱞᱟᱜᱟ
ᱞᱟᱜᱟᱛ
ᱞᱟᱜᱟᱛᱚᱜ
ᱞᱟᱜᱟᱛᱚᱜᱼᱟ
ᱞᱟᱜᱟᱛᱟᱨ
ᱞᱟᱜᱟᱜ
ᱞᱟᱜᱟᱜᱼᱟ
ᱞᱟᱜᱟᱣ
ᱞᱟᱜᱟᱣᱜ
ᱞᱟᱜᱟᱣᱜᱼᱟ
ᱞᱟᱜᱟᱣᱟ
ᱞᱟᱜᱟᱣᱟᱜ
ᱞᱟᱜᱟᱶ
ᱞᱟᱜᱤᱛ
ᱞᱟᱜᱤᱫ
ᱞᱟᱜᱩ
ᱞᱟᱜᱮ
ᱞᱟᱜᱵᱷᱟᱜ
ᱞᱟᱜᱽᱪᱟᱨ
ᱞᱟᱜᱽᱬᱮ
ᱞᱟᱜᱽᱵᱷᱟᱜᱽ
ᱞᱟᱝ
ᱞᱟᱝᱛᱤᱛᱤ
ᱞᱟᱝᱜᱟ
ᱞᱟᱞ
ᱞᱟᱞᱚᱪ
ᱞᱟᱞᱚᱱ
ᱞᱟᱞᱟ
ᱞᱟᱞᱢᱚᱱᱤᱨᱦᱟᱴ
ᱞᱟᱞᱤᱛ
ᱞᱟᱞᱤᱛᱯᱩᱨ
ᱞᱟᱞᱩ
ᱞᱟᱞᱮ
ᱞᱟᱞᱯᱟᱹᱱᱤᱭᱟ
ᱞᱟᱞᱯᱩᱨ
ᱞᱟᱞᱱᱤ
ᱞᱟᱠ
ᱞᱟᱠᱚ
ᱞᱟᱠᱛᱤ
ᱞᱟᱠᱛᱤᱜ
ᱞᱟᱠᱛᱤᱭᱟ
ᱞᱟᱠᱛᱤᱭᱟᱱ
ᱞᱟᱠᱥ
ᱞᱟᱠᱥᱮᱢᱵᱟᱨᱜᱽ
ᱞᱟᱠᱪᱟᱨ
ᱞᱟᱠᱪᱟᱨᱤᱭᱟ
ᱞᱟᱠᱪᱟᱨᱮᱛ
ᱞᱟᱠᱷ
ᱞᱟᱠᱷᱭᱟᱫᱤᱯ
ᱞᱟᱠᱷᱱᱟᱣ
ᱞᱟᱡ
ᱞᱟᱡᱟᱣ
ᱞᱟᱡᱽᱯᱚᱛ
ᱞᱟᱢᱟ
ᱞᱟᱢᱯᱩᱨ
ᱞᱟᱣ
ᱞᱟᱣᱚᱥ
ᱞᱟᱥ
ᱞᱟᱥᱟ
ᱞᱟᱥᱟᱬ
ᱞᱟᱥᱠᱮᱨ
ᱞᱟᱥᱤᱛ
ᱞᱟᱥᱮᱨ
ᱞᱟᱦᱚᱨ
ᱞᱟᱦᱚᱨᱤ
ᱞᱟᱦᱟ
ᱞᱟᱦᱟᱛᱮ
ᱞᱟᱦᱟᱛᱮᱱ
ᱞᱟᱦᱟᱜ
ᱞᱟᱦᱟᱨᱮ
ᱞᱟᱦᱟᱨᱮᱜᱮ
ᱞᱟᱦᱟᱭ
ᱞᱟᱦᱟᱭᱮᱱᱟ
ᱞᱟᱦᱟᱱᱛᱤ
ᱞᱟᱦᱟᱸ
ᱞᱟᱦᱤᱨᱤ
ᱞᱟᱦᱨᱟᱜ
ᱞᱟᱦᱳᱣᱰ
ᱞᱟᱦᱳᱨ
ᱞᱟᱨᱟ
ᱞᱟᱨᱢᱟ
ᱞᱟᱨᱤ
ᱞᱟᱨᱩᱛ
ᱞᱟᱨᱮ
ᱞᱟᱪᱷᱟ
ᱞᱟᱪᱷᱟᱱ
ᱞᱟᱪᱷᱢᱤ
ᱞᱟᱫ
ᱞᱟᱫᱟᱠᱷ
ᱞᱟᱫᱟᱠᱷᱤ
ᱞᱟᱫᱮ
ᱞᱟᱫᱮᱱ
ᱞᱟᱭ
ᱞᱟᱭᱚᱝ
ᱞᱟᱭᱞᱟ
ᱞᱟᱭᱞᱟᱠᱪᱟᱨ
ᱞᱟᱭᱟ
ᱞᱟᱭᱤ
ᱞᱟᱭᱤᱠ
ᱞᱟᱭᱤᱯ
ᱞᱟᱭᱤᱯᱷ
ᱞᱟᱭᱤᱯᱷᱴᱟᱭᱤᱢ
ᱞᱟᱭᱤᱱ
ᱞᱟᱭᱤᱱᱥ
ᱞᱟᱭᱤᱴ
ᱞᱟᱭᱤᱵᱷ
ᱞᱟᱭᱤᱵᱽ
ᱞᱟᱭᱥᱮᱱᱥ
ᱞᱟᱭᱵᱨᱮᱨᱤ
ᱞᱟᱭᱵᱮᱨᱤᱭᱟ
ᱞᱟᱭᱵᱽᱨᱮᱨᱤ
ᱞᱟᱯᱚ
ᱞᱟᱯᱩᱝ
ᱞᱟᱯᱷᱟᱝ
ᱞᱟᱰᱷᱟᱹᱭ
ᱞᱟᱱ
ᱞᱟᱱᱟ
ᱞᱟᱱᱟᱭ
ᱞᱟᱱᱫᱟ
ᱞᱟᱲ
ᱞᱟᱲᱟ
ᱞᱟᱲᱟᱣ
ᱞᱟᱲᱟᱣᱱᱟ
ᱞᱟᱲᱟᱶ
ᱞᱟᱲᱠᱟ
ᱞᱟᱲᱦᱟᱭ
ᱞᱟᱲᱦᱟᱹᱭ
ᱞᱟᱲᱪᱟᱲ
ᱞᱟᱲᱪᱟᱲᱚᱜ
ᱞᱟᱲᱪᱟᱲᱮᱫ
ᱞᱟᱲᱪᱟᱲᱼᱮᱫ
ᱞᱟᱲᱪᱟᱲᱼᱮᱫᱟ
ᱞᱟᱴᱟ
ᱞᱟᱴᱠᱟᱣ
ᱞᱟᱴᱤᱪᱩᱰ
ᱞᱟᱴᱤᱱ
ᱞᱟᱴᱤᱴᱭᱩᱰ
ᱞᱟᱴᱩ
ᱞᱟᱴᱩᱨ
ᱞᱟᱴᱷᱟ
ᱞᱟᱴᱷᱮ
ᱞᱟᱵ
ᱞᱟᱵᱚᱬᱭᱚ
ᱞᱟᱵᱷ
ᱞᱟᱵᱽ
ᱞᱟᱸᱜᱟ
ᱞᱟᱸᱫᱟ
ᱞᱟᱸᱫᱽ
ᱞᱟᱹᱜᱤ
ᱞᱟᱹᱜᱤᱛ
ᱞᱟᱹᱜᱤᱛᱮ
ᱞᱟᱹᱜᱤᱜ
ᱞᱟᱹᱜᱤᱫ
ᱞᱟᱹᱜᱤᱫᱚᱜ
ᱞᱟᱹᱜᱤᱫᱛᱮ
ᱞᱟᱹᱜᱤᱫᱻᱮ
ᱞᱟᱹᱜᱤᱫᱼᱮ
ᱞᱟᱹᱜᱤᱫᱽ
ᱞᱟᱹᱜᱤᱰ
ᱞᱟᱹᱜᱤᱱ
ᱞᱟᱹᱜᱩ
ᱞᱟᱹᱜᱩᱫ
ᱞᱟᱹᱞᱟᱹᱭᱟᱜ
ᱞᱟᱹᱞᱤᱥ
ᱞᱟᱹᱠᱛᱤ
ᱞᱟᱹᱠᱛᱤᱜ
ᱞᱟᱹᱠᱛᱤᱜᱼᱟ
ᱞᱟᱹᱠᱛᱤᱭᱟ
ᱞᱟᱹᱠᱛᱤᱭᱟᱱ
ᱞᱟᱹᱠᱛᱤᱭᱟᱱᱟ
ᱞᱟᱹᱠᱛᱤᱭᱟᱱᱟᱜ
ᱞᱟᱹᱠᱪᱟᱨ
ᱞᱟᱹᱣᱠᱟᱹ
ᱞᱟᱹᱣᱲᱤᱭᱟᱹ
ᱞᱟᱹᱤᱫ
ᱞᱟᱹᱭ
ᱞᱟᱹᱭᱚᱜ
ᱞᱟᱹᱭᱟ
ᱞᱟᱹᱭᱤᱱ
ᱞᱟᱹᱭᱼᱟ
ᱞᱟᱹᱰᱩ
ᱞᱟᱹᱰᱷᱟᱹᱭ
ᱞᱟᱹᱱᱟᱹᱭ
ᱞᱟᱹᱲᱦᱟᱭ
ᱞᱟᱹᱲᱦᱟᱹᱭ
ᱞᱟᱹᱲᱦᱟᱹᱭᱟ
ᱞᱟᱹᱲᱦᱟᱹᱭᱤᱭᱟᱹ
ᱞᱟᱹᱴᱩ
ᱞᱟᱹᱴᱷᱩ
ᱞᱟᱹᱵᱤᱫ
ᱞᱟᱻ
ᱞᱠᱟ
ᱞᱢᱟᱱ
ᱞᱤ
ᱞᱤᱛᱷᱤᱭᱚᱢ
ᱞᱤᱛᱷᱩᱣᱟᱱᱤᱭᱟ
ᱞᱤᱛᱷᱩᱣᱟᱱᱤᱭᱟᱱ
ᱞᱤᱜ
ᱞᱤᱜᱽ
ᱞᱤᱝ
ᱞᱤᱝᱜᱚ
ᱞᱤᱝᱜᱚᱨᱟᱡᱽ
ᱞᱤᱝᱜᱤ
ᱞᱤᱝᱜᱤᱱ
ᱞᱤᱝᱜᱩᱣᱟ
ᱞᱤᱝᱜᱽ
ᱞᱤᱝᱠ
ᱞᱤᱝᱠᱚᱱ
ᱞᱤᱞ
ᱞᱤᱞᱟ
ᱞᱤᱞᱟᱣᱚᱛᱤ
ᱞᱤᱠ
ᱞᱤᱠᱟᱱ
ᱞᱤᱠᱣᱤᱰ
ᱞᱤᱠᱷᱚᱱ
ᱞᱤᱡᱟ
ᱞᱤᱡᱮᱱᱰ
ᱞᱤᱡᱮᱸᱰ
ᱞᱤᱢᱟ
ᱞᱤᱢᱤᱴᱮᱰ
ᱞᱤᱢᱵᱩ
ᱞᱤᱣᱟᱨ
ᱞᱤᱥᱟ
ᱞᱤᱥᱩ
ᱞᱤᱥᱴ
ᱞᱤᱥᱴᱤ
ᱞᱤᱧ
ᱞᱤᱧᱡᱤ
ᱞᱤᱧᱡᱤᱱ
ᱞᱤᱪᱟ
ᱞᱤᱪᱟᱹᱲ
ᱞᱤᱪᱩ
ᱞᱤᱫᱟ
ᱞᱤᱫᱤᱭᱟ
ᱞᱤᱭᱚ
ᱞᱤᱭᱚᱱ
ᱞᱤᱭᱚᱱᱟᱨᱫᱚ
ᱞᱤᱭᱟ
ᱞᱤᱭᱟᱝᱢᱟᱭ
ᱞᱤᱭᱮ
ᱞᱤᱯᱤ
ᱞᱤᱯᱷᱴ
ᱞᱤᱰ
ᱞᱤᱰᱚᱨ
ᱞᱤᱰᱟᱨ
ᱞᱤᱰᱤᱝ
ᱞᱤᱱ
ᱞᱤᱱᱟ
ᱞᱤᱱᱤᱭᱚᱥ
ᱞᱤᱱᱤᱭᱟᱨ
ᱞᱤᱱᱮᱭᱚᱥ
ᱞᱤᱲᱟ
ᱞᱤᱴ
ᱞᱤᱴᱚᱱ
ᱞᱤᱴᱟ
ᱞᱤᱴᱟᱹ
ᱞᱤᱴᱤᱞ
ᱞᱤᱴᱤᱯᱟᱲᱟ
ᱞᱤᱴᱮᱨᱮᱪᱚᱨ
ᱞᱤᱴᱮᱨᱮᱪᱟᱨ
ᱞᱤᱴᱴᱤᱯᱟᱲᱟ
ᱞᱤᱴᱷᱩᱨ
ᱞᱤᱵᱤᱭᱟ
ᱞᱤᱸᱜᱤ
ᱞᱤᱸᱜᱤᱱ
ᱞᱤᱸᱜᱤᱱᱟ
ᱞᱤᱸᱜᱤᱱᱟᱜ
ᱞᱤᱸᱜᱽ
ᱞᱤᱸᱠ
ᱞᱤᱸᱡᱤ
ᱞᱤᱸᱡᱤᱜ
ᱞᱤᱸᱡᱤᱱ
ᱞᱤᱸᱡᱤᱱᱟ
ᱞᱤᱸᱡᱤᱱᱟᱜ
ᱞᱤᱹᱴᱤᱹᱰᱤᱹ
ᱞᱩ
ᱞᱩᱛᱤ
ᱞᱩᱛᱩᱨ
ᱞᱩᱛᱷᱟᱨ
ᱞᱩᱜ
ᱞᱩᱜᱩ
ᱞᱩᱜᱲᱤ
ᱞᱩᱜᱷᱩᱵᱩᱨᱩ
ᱞᱩᱜᱽᱲᱤ
ᱞᱩᱜᱽᱲᱤᱜ
ᱞᱩᱝᱞᱮᱭ
ᱞᱩᱞᱩ
ᱞᱩᱠᱟᱥ
ᱞᱩᱠᱥᱮᱢᱵᱟᱨᱜᱤᱥ
ᱞᱩᱠᱥᱮᱢᱵᱟᱨᱜᱽ
ᱞᱩᱠᱷᱤ
ᱞᱩᱢ
ᱞᱩᱢᱟᱹᱝ
ᱞᱩᱢᱩᱝ
ᱞᱩᱢᱰᱤᱝ
ᱞᱩᱢᱵᱤᱱᱤ
ᱞᱩᱣᱟᱱᱰᱟ
ᱞᱩᱥᱟᱠᱟ
ᱞᱩᱥᱤᱭᱟ
ᱞᱩᱦᱩᱠ
ᱞᱩᱫᱷᱤᱭᱟᱱᱟ
ᱞᱩᱭ
ᱞᱩᱭᱤᱥ
ᱞᱩᱯ
ᱞᱩᱴ
ᱞᱩᱴᱤ
ᱞᱩᱵᱷᱟᱣ
ᱞᱩᱸᱰ
ᱞᱭᱟᱨ
ᱞᱮ
ᱞᱮᱛ
ᱞᱮᱛᱟᱛᱮ
ᱞᱮᱛᱟᱨ
ᱞᱮᱛᱟᱲ
ᱞᱮᱛᱮ
ᱞᱮᱜ
ᱞᱮᱜᱟ
ᱞᱮᱜᱮ
ᱞᱮᱜᱮᱡ
ᱞᱮᱜᱮᱢ
ᱞᱮᱜᱻᱟ
ᱞᱮᱜᱻᱟᱭ
ᱞᱮᱜᱻᱭᱟ
ᱞᱮᱜᱼᱟ
ᱞᱮᱜᱼᱟᱭ
ᱞᱮᱜᱽ
ᱞᱮᱝᱜᱟ
ᱞᱮᱝᱠᱟ
ᱞᱮᱞᱟᱛᱮ
ᱞᱮᱞᱤᱱ
ᱞᱮᱟ
ᱞᱮᱟᱭ
ᱞᱮᱠ
ᱞᱮᱠᱚ
ᱞᱮᱠᱛᱮ
ᱞᱮᱠᱟ
ᱞᱮᱠᱟᱛᱮ
ᱞᱮᱠᱟᱛᱮᱜᱮ
ᱞᱮᱠᱟᱛᱮᱠᱚ
ᱞᱮᱠᱟᱛᱮᱦᱚᱸᱭ
ᱞᱮᱠᱟᱛᱮᱫᱚ
ᱞᱮᱠᱟᱛᱮᱭ
ᱞᱮᱠᱟᱜᱮ
ᱞᱮᱠᱟᱠᱚ
ᱞᱮᱠᱟᱢ
ᱞᱮᱠᱟᱨᱮ
ᱞᱮᱠᱟᱭ
ᱞᱮᱠᱟᱱ
ᱞᱮᱠᱟᱱᱟ
ᱞᱮᱠᱟᱱᱟᱜ
ᱞᱮᱠᱟᱱᱟᱺ
ᱞᱮᱠᱟᱱᱤᱡ
ᱞᱮᱠᱟᱴᱮ
ᱞᱮᱠᱥ
ᱞᱮᱠᱥᱤ
ᱞᱮᱠᱦᱟ
ᱞᱮᱠᱦᱟᱱ
ᱞᱮᱠᱪᱚᱨ
ᱞᱮᱠᱪᱟᱨ
ᱞᱮᱠᱪᱟᱨᱟᱨ
ᱞᱮᱠᱷ
ᱞᱮᱠᱷᱚᱠ
ᱞᱮᱠᱷᱟ
ᱞᱮᱠᱷᱟᱛᱮ
ᱞᱮᱠᱷᱟᱜ
ᱞᱮᱠᱷᱟᱜᱩᱴ
ᱞᱮᱠᱷᱟᱜᱼᱟ
ᱞᱮᱠᱷᱟᱡ
ᱞᱮᱠᱷᱟᱥᱤᱫ
ᱞᱮᱠᱷᱟᱭ
ᱞᱮᱠᱷᱟᱭᱟ
ᱞᱮᱠᱷᱟᱭᱮᱫ
ᱞᱮᱠᱷᱟᱭᱮᱭᱟ
ᱞᱮᱠᱷᱟᱭᱮᱱᱟ
ᱞᱮᱠᱷᱟᱭᱱᱟ
ᱞᱮᱠᱷᱟᱱ
ᱞᱮᱠᱷᱤ
ᱞᱮᱡᱟ
ᱞᱮᱡᱤᱥᱞᱮᱴᱤᱵᱽ
ᱞᱮᱡᱮᱸᱰ
ᱞᱮᱣᱟᱴᱳᱨ
ᱞᱮᱣᱦᱟ
ᱞᱮᱥᱚᱛᱷᱚ
ᱞᱮᱥᱞᱤ
ᱞᱮᱥᱳᱛᱷᱳ
ᱞᱮᱦ
ᱞᱮᱦᱨᱤ
ᱞᱮᱧ
ᱞᱮᱫ
ᱞᱮᱫᱟ
ᱞᱮᱫᱟᱠᱚ
ᱞᱮᱫᱟᱭ
ᱞᱮᱫᱟᱹᱭ
ᱞᱮᱫᱤᱭᱟ
ᱞᱮᱫᱮ
ᱞᱮᱫᱮᱭᱟ
ᱞᱮᱫᱮᱭᱟᱠᱚ
ᱞᱮᱫᱮᱭᱟᱭ
ᱞᱮᱫᱼᱟ
ᱞᱮᱫᱼᱟᱭ
ᱞᱮᱭ
ᱞᱮᱭᱞᱟ
ᱞᱮᱭᱟ
ᱞᱮᱭᱟᱨ
ᱞᱮᱯᱪᱟ
ᱞᱮᱰ
ᱞᱮᱰᱟ
ᱞᱮᱰᱤ
ᱞᱮᱱ
ᱞᱮᱱᱛᱟᱦᱮᱸᱫ
ᱞᱮᱱᱛᱮ
ᱞᱮᱱᱟ
ᱞᱮᱱᱟᱭ
ᱞᱮᱱᱠᱷᱟᱱ
ᱞᱮᱱᱤᱱ
ᱞᱮᱱᱤᱱᱜᱨᱟᱰ
ᱞᱮᱱᱰ
ᱞᱮᱱᱰᱮᱫ
ᱞᱮᱱᱳᱣᱳ
ᱞᱮᱴ
ᱞᱮᱴᱚ
ᱞᱮᱴᱤᱱ
ᱞᱮᱵᱚᱞ
ᱞᱮᱵᱚᱨ
ᱞᱮᱵᱟᱞ
ᱞᱮᱵᱟᱨ
ᱞᱮᱵᱟᱱᱚᱱ
ᱞᱮᱵᱩ
ᱞᱮᱵᱮᱞ
ᱞᱮᱵᱮᱫ
ᱞᱮᱵᱮᱫᱟ
ᱞᱮᱵᱷᱟᱞ
ᱞᱮᱵᱷᱮᱞ
ᱞᱮᱵᱽ
ᱞᱮᱸ
ᱞᱮᱸᱜᱟ
ᱞᱮᱸᱡᱮᱨ
ᱞᱮᱸᱰ
ᱞᱮᱼᱟ
ᱞᱳ
ᱞᱳᱠ
ᱞᱳᱠᱚ
ᱞᱳᱠᱚᱱᱟᱛᱷ
ᱞᱳᱠᱟᱞ
ᱞᱳᱠᱥᱚᱵᱷᱟ
ᱞᱳᱠᱮᱥᱟᱱ
ᱞᱳᱠᱷᱟᱱᱰᱮ
ᱞᱳᱠᱷᱱᱚᱣ
ᱞᱳᱢᱮ
ᱞᱳᱥ
ᱞᱳᱦᱟᱱᱤ
ᱞᱳᱦᱤᱛ
ᱞᱳᱦᱨᱟ
ᱞᱳᱦᱨᱟᱥ
ᱞᱳᱦᱰᱤ
ᱞᱳᱨᱤ
ᱞᱳᱨᱮᱴᱳ
ᱞᱳᱫᱷᱤ
ᱞᱳᱭᱠᱟᱣ
ᱞᱳᱱ
ᱟ
ᱟᱛ
ᱟᱛᱚ
ᱟᱛᱚᱠᱚ
ᱟᱛᱚᱨᱮ
ᱟᱛᱚᱨᱮᱱ
ᱟᱛᱚᱸᱠᱵᱟᱫ
ᱟᱛᱛᱚᱥᱚᱢᱚᱨᱯᱚᱱ
ᱟᱛᱛᱟᱢ
ᱟᱛᱟ
ᱟᱛᱟᱝ
ᱟᱛᱟᱨ
ᱟᱛᱟᱨᱟ
ᱟᱛᱟᱭᱟ
ᱟᱛᱢᱟ
ᱟᱛᱤᱛᱷᱤ
ᱟᱛᱨᱟ
ᱟᱛᱨᱟᱭ
ᱟᱛᱨᱮ
ᱟᱛᱩ
ᱟᱛᱩᱜ
ᱟᱛᱮ
ᱟᱛᱮᱜ
ᱟᱛᱮᱫ
ᱟᱛᱮᱭ
ᱟᱛᱮᱱ
ᱟᱛᱱᱟᱜ
ᱟᱛᱳ
ᱟᱛᱷᱞᱮᱴ
ᱟᱛᱷᱞᱮᱴᱤᱠᱥ
ᱟᱛᱷᱮᱱᱥ
ᱟᱛᱷᱽᱞᱮᱴ
ᱟᱜ
ᱟᱜᱚᱥᱴ
ᱟᱜᱚᱥᱴᱚ
ᱟᱜᱚᱨ
ᱟᱜᱟ
ᱟᱜᱟᱢ
ᱟᱜᱟᱢᱤ
ᱟᱜᱟᱥᱴ
ᱟᱜᱟᱨᱚᱣᱟᱞ
ᱟᱜᱟᱰᱷ
ᱟᱜᱩ
ᱟᱜᱩᱭ
ᱟᱜᱩᱭᱟ
ᱟᱜᱩᱭᱫᱟ
ᱟᱜᱩᱱ
ᱟᱜᱷᱟ
ᱟᱜᱷᱟᱛ
ᱟᱜᱷᱟᱬ
ᱟᱜᱼᱟ
ᱟᱜᱽ
ᱟᱜᱽᱨᱟ
ᱟᱜᱽᱱᱤ
ᱟᱝ
ᱟᱝᱜᱚ
ᱟᱝᱜᱚᱪ
ᱟᱝᱜᱟ
ᱟᱝᱜᱟᱢᱤ
ᱟᱝᱜᱤᱠᱟ
ᱟᱝᱜᱽ
ᱟᱝᱜᱽᱨᱮᱡᱤ
ᱟᱝᱜᱽᱨᱮᱡᱽ
ᱟᱝᱞᱚᱝ
ᱟᱝᱞᱳᱼᱟᱯᱷᱜᱟᱱ
ᱟᱝᱠᱚᱨ
ᱟᱞ
ᱟᱞᱚ
ᱟᱞᱚᱠᱚ
ᱟᱞᱚᱢ
ᱟᱞᱚᱢᱚᱜᱤᱨ
ᱟᱞᱚᱢᱜᱤᱨ
ᱟᱞᱚᱢᱰᱟᱝᱜᱟ
ᱟᱞᱚᱪᱱᱟ
ᱟᱞᱚᱭ
ᱟᱞᱚᱯᱮ
ᱟᱞᱚᱵᱚ
ᱟᱞᱛᱟᱭ
ᱟᱞᱜᱟ
ᱟᱞᱜᱟᱛᱮ
ᱟᱞᱜᱟᱣᱟᱠᱟᱱ
ᱟᱞᱞᱟ
ᱟᱞᱞᱟᱜ
ᱟᱞᱞᱟᱦ
ᱟᱞᱞᱟᱦᱚ
ᱟᱞᱞᱟᱦᱟᱵᱟᱫᱽ
ᱟᱞᱞᱦᱟᱵᱟᱫᱽ
ᱟᱞᱟ
ᱟᱞᱟᱜ
ᱟᱞᱟᱜᱽ
ᱟᱞᱟᱝ
ᱟᱞᱟᱠ
ᱟᱞᱟᱢ
ᱟᱞᱟᱥᱠᱟ
ᱟᱞᱟᱦᱟᱵᱟᱫᱽ
ᱟᱞᱟᱨᱢᱮᱞ
ᱟᱞᱟᱫᱟ
ᱟᱞᱟᱭ
ᱟᱞᱟᱯᱯᱩᱡᱷᱟ
ᱟᱞᱟᱱ
ᱟᱞᱟᱸᱠᱟᱨ
ᱟᱞᱠᱟ
ᱟᱞᱡᱤᱭᱟᱨᱥ
ᱟᱞᱡᱮᱨᱤᱭᱟ
ᱟᱞᱡᱮᱹᱨᱤᱭᱟ
ᱟᱞᱢᱚᱲᱟ
ᱟᱞᱢᱟᱴᱤ
ᱟᱞᱣᱟᱨ
ᱟᱞᱤ
ᱟᱞᱤᱜᱚᱲ
ᱟᱞᱤᱨᱟᱡᱽᱯᱩᱨ
ᱟᱞᱤᱭᱟ
ᱟᱞᱤᱯ
ᱟᱞᱤᱯᱩᱨ
ᱟᱞᱤᱯᱩᱨᱫᱩᱣᱟᱨ
ᱟᱞᱤᱯᱷ
ᱟᱞᱤᱵᱟᱜᱽ
ᱟᱞᱥᱟᱨ
ᱟᱞᱩ
ᱟᱞᱩᱵᱷᱤᱭᱟᱞ
ᱟᱞᱮ
ᱟᱞᱮᱠᱡᱟᱱᱰᱟᱨ
ᱟᱞᱮᱠᱡᱟᱱᱰᱨᱤᱭᱟ
ᱟᱞᱮᱠᱥᱤᱥ
ᱟᱞᱮᱭᱟᱜ
ᱟᱞᱮᱯᱯᱳ
ᱟᱞᱯᱷᱟ
ᱟᱞᱯᱷᱨᱮᱰ
ᱟᱞᱳ
ᱟᱞᱵᱚᱢ
ᱟᱞᱵᱚᱨᱴ
ᱟᱞᱵᱟᱢᱟ
ᱟᱞᱵᱟᱨᱴ
ᱟᱞᱵᱮᱱᱤᱭᱟ
ᱟᱞᱵᱮᱱᱤᱭᱟᱱ
ᱟᱞᱵᱷᱟ
ᱟᱟ
ᱟᱟᱨ
ᱟᱠ
ᱟᱠᱚ
ᱟᱠᱚᱞᱟ
ᱟᱠᱚᱣᱟ
ᱟᱠᱚᱣᱟᱜ
ᱟᱠᱚᱨᱤᱱ
ᱟᱠᱚᱨᱥᱚᱱ
ᱟᱠᱚᱨᱮᱱ
ᱟᱠᱚᱭᱤᱡ
ᱟᱠᱚᱴ
ᱟᱠᱛᱚ
ᱟᱠᱛᱟᱨ
ᱟᱠᱛᱮ
ᱟᱠᱟ
ᱟᱠᱟᱛ
ᱟᱠᱟᱜ
ᱟᱠᱟᱜᱼᱟ
ᱟᱠᱟᱞ
ᱟᱠᱟᱟᱱᱟ
ᱟᱠᱟᱣ
ᱟᱠᱟᱣᱟ
ᱟᱠᱟᱣᱟᱫ
ᱟᱠᱟᱣᱟᱫᱼᱟ
ᱟᱠᱟᱣᱫᱮᱭᱟ
ᱟᱠᱟᱣᱱᱟ
ᱟᱠᱟᱥ
ᱟᱠᱟᱥᱵᱟᱱᱤ
ᱟᱠᱟᱨ
ᱟᱠᱟᱫ
ᱟᱠᱟᱫᱟ
ᱟᱠᱟᱫᱟᱠᱚ
ᱟᱠᱟᱫᱟᱠᱤᱱ
ᱟᱠᱟᱫᱟᱭ
ᱟᱠᱟᱫᱟᱹᱭ
ᱟᱠᱟᱫᱟᱺ
ᱟᱠᱟᱫᱢᱤ
ᱟᱠᱟᱫᱤ
ᱟᱠᱟᱫᱤᱡ
ᱟᱠᱟᱫᱤᱭᱟ
ᱟᱠᱟᱫᱮ
ᱟᱠᱟᱫᱮᱢᱤ
ᱟᱠᱟᱫᱮᱭᱟ
ᱟᱠᱟᱫᱼᱟ
ᱟᱠᱟᱫᱼᱟᱭ
ᱟᱠᱟᱭ
ᱟᱠᱟᱰᱮᱢᱤ
ᱟᱠᱟᱱ
ᱟᱠᱟᱱᱟ
ᱟᱠᱟᱱᱟᱜ
ᱟᱠᱟᱱᱟᱠᱚ
ᱟᱠᱟᱱᱟᱭ
ᱟᱠᱟᱱᱤᱡ
ᱟᱠᱠᱤᱱᱮᱱᱤ
ᱟᱠᱠᱮᱞᱯᱩᱨ
ᱟᱠᱢᱳᱞᱟ
ᱟᱠᱤᱞ
ᱟᱠᱤᱱ
ᱟᱠᱤᱱᱟᱜ
ᱟᱠᱤᱱᱤᱡ
ᱟᱠᱥᱚᱱ
ᱟᱠᱨᱚᱢᱚᱬ
ᱟᱠᱨᱚᱢᱚᱱ
ᱟᱠᱨᱟᱢ
ᱟᱠᱨᱤᱝ
ᱟᱠᱨᱤᱧ
ᱟᱠᱩᱣᱟᱜ
ᱟᱠᱫᱟ
ᱟᱠᱱᱟ
ᱟᱠᱴ
ᱟᱠᱴᱚᱨ
ᱟᱠᱴᱤᱝ
ᱟᱠᱴᱨᱮᱥ
ᱟᱠᱵᱚᱨ
ᱟᱠᱵᱚᱨᱯᱩᱨ
ᱟᱠᱵᱟᱨ
ᱟᱠᱷᱚᱨ
ᱟᱠᱷᱤ
ᱟᱠᱷᱤᱞ
ᱟᱠᱷᱤᱨᱮ
ᱟᱠᱷᱨᱤᱧ
ᱟᱠᱷᱲᱟ
ᱟᱠᱷᱲᱟᱨᱮ
ᱟᱠᱷᱲᱟᱭ
ᱟᱠᱷᱽᱲᱟ
ᱟᱡ
ᱟᱡᱚᱜ
ᱟᱡᱚᱢ
ᱟᱡᱛᱮ
ᱟᱡᱜ
ᱟᱡᱜᱮ
ᱟᱡᱟ
ᱟᱡᱟᱜ
ᱟᱡᱟᱢᱜᱚᱲ
ᱟᱡᱟᱨ
ᱟᱡᱟᱨᱤᱭᱟ
ᱟᱡᱟᱨᱤᱭᱟᱹ
ᱟᱡᱟᱨᱵᱟᱭᱡᱟᱱ
ᱟᱡᱟᱨᱵᱟᱭᱡᱟᱱᱤ
ᱟᱡᱟᱫ
ᱟᱡᱟᱫᱽ
ᱟᱡᱟᱭ
ᱟᱡᱟᱱ
ᱟᱡᱟᱱᱟ
ᱟᱡᱤ
ᱟᱡᱤᱛ
ᱟᱡᱤᱜ
ᱟᱡᱤᱡ
ᱟᱡᱤᱡᱽ
ᱟᱡᱨᱤᱱ
ᱟᱡᱨᱮᱱ
ᱟᱡᱫᱚ
ᱟᱡᱳᱫᱤᱭᱟᱹ
ᱟᱡᱽ
ᱟᱡᱽᱢᱤ
ᱟᱡᱽᱢᱤᱨ
ᱟᱡᱽᱢᱮᱨ
ᱟᱡᱽᱦᱟ
ᱟᱢ
ᱟᱢᱚ
ᱟᱢᱚᱞ
ᱟᱢᱛᱚᱨ
ᱟᱢᱜᱮ
ᱟᱢᱞᱟ
ᱟᱢᱟ
ᱟᱢᱟᱛᱭᱟ
ᱟᱢᱟᱜ
ᱟᱢᱟᱡᱚᱱ
ᱟᱢᱟᱨ
ᱟᱢᱟᱭ
ᱟᱢᱟᱱ
ᱟᱢᱢᱟ
ᱟᱢᱢᱟᱱ
ᱟᱢᱤ
ᱟᱢᱤᱛ
ᱟᱢᱤᱨ
ᱟᱢᱤᱨᱟᱛ
ᱟᱢᱤᱱ
ᱟᱢᱤᱱᱚ
ᱟᱢᱥᱴᱚᱨᱰᱮᱢ
ᱟᱢᱦᱟᱨᱤᱠ
ᱟᱢᱨᱚᱦᱟ
ᱟᱢᱨᱟᱣᱟᱛᱤ
ᱟᱢᱨᱟᱯᱟᱨᱟ
ᱟᱢᱨᱤᱛᱟ
ᱟᱢᱨᱤᱛᱥᱚᱨ
ᱟᱢᱨᱤᱠᱟ
ᱟᱢᱨᱤᱠᱟᱱ
ᱟᱢᱨᱮᱞᱤ
ᱟᱢᱩᱱᱰᱥᱮᱱ
ᱟᱢᱫᱚ
ᱟᱢᱫᱟ
ᱟᱢᱫᱟᱡᱚᱜ
ᱟᱢᱫᱟᱡᱽ
ᱟᱢᱮᱢ
ᱟᱢᱮᱨᱤᱠᱟ
ᱟᱢᱮᱨᱤᱠᱟᱱ
ᱟᱢᱮᱨᱤᱠᱤ
ᱟᱢᱮᱨᱤᱠᱤᱭᱟᱹ
ᱟᱢᱮᱴ
ᱟᱢᱮᱴᱟ
ᱟᱢᱮᱴᱤᱭᱟᱹ
ᱟᱢᱮᱴᱷᱤ
ᱟᱢᱯᱟᱭᱟᱨ
ᱟᱢᱱᱟᱨᱤ
ᱟᱢᱲᱟᱯᱟᱲᱟ
ᱟᱢᱵᱟᱞᱟ
ᱟᱢᱵᱟᱡᱳᱲᱟ
ᱟᱢᱵᱟᱥᱟᱰᱚᱨ
ᱟᱢᱵᱟᱥᱟᱰᱟᱨ
ᱟᱢᱵᱟᱦ
ᱟᱢᱵᱟᱱᱤ
ᱟᱢᱵᱤᱠᱟ
ᱟᱢᱵᱤᱠᱟᱯᱩᱨ
ᱟᱢᱵᱮᱨ
ᱟᱢᱵᱮᱫᱠᱚᱨ
ᱟᱢᱵᱮᱫᱽᱠᱚᱨ
ᱟᱢᱵᱮᱰᱠᱚᱨ
ᱟᱢᱵᱮᱰᱠᱟᱨ
ᱟᱢᱵᱷᱩᱣᱟ
ᱟᱣ
ᱟᱣᱚᱨᱰ
ᱟᱣᱛᱟᱱ
ᱟᱣᱟ
ᱟᱣᱟᱞ
ᱟᱣᱟᱢᱤ
ᱟᱣᱟᱢᱤᱞᱤᱜᱽ
ᱟᱣᱟᱢᱤᱞᱤᱠ
ᱟᱣᱟᱥᱛᱷᱟ
ᱟᱣᱟᱨ
ᱟᱣᱟᱨᱚᱱ
ᱟᱣᱟᱨᱰ
ᱟᱣᱟᱨᱰᱥ
ᱟᱣᱟᱫᱷ
ᱟᱣᱟᱭᱤ
ᱟᱣᱟᱰ
ᱟᱣᱢᱟ
ᱟᱣᱥᱟᱛ
ᱟᱣᱨᱚᱝᱜᱟᱵᱟᱫᱽ
ᱟᱣᱨᱟᱝᱜᱟ
ᱟᱣᱨᱟᱝᱜᱟᱵᱟᱫᱽ
ᱟᱣᱨᱟᱸᱜᱟᱵᱟᱫᱽ
ᱟᱣᱩᱴ
ᱟᱣᱫᱷᱤ
ᱟᱣᱴ
ᱟᱤ
ᱟᱤᱱ
ᱟᱥ
ᱟᱥᱚᱞ
ᱟᱥᱚᱠ
ᱟᱥᱚᱠᱟᱭ
ᱟᱥᱚᱠᱟᱭᱛᱮ
ᱟᱥᱚᱠᱱᱚᱜᱚᱨ
ᱟᱥᱚᱯᱷ
ᱟᱥᱚᱱ
ᱟᱥᱛᱮ
ᱟᱥᱛᱷᱟ
ᱟᱥᱛᱷᱟᱱᱟ
ᱟᱥᱜᱟᱵᱟᱛ
ᱟᱥᱞᱤ
ᱟᱥᱟ
ᱟᱥᱟᱢ
ᱟᱥᱟᱢᱤ
ᱟᱥᱟᱢᱤᱥ
ᱟᱥᱟᱢᱤᱥᱺ
ᱟᱥᱟᱢᱤᱭᱟ
ᱟᱥᱟᱢᱤᱭᱟᱹ
ᱟᱥᱟᱣ
ᱟᱥᱟᱥᱩᱱᱤ
ᱟᱥᱟᱨ
ᱟᱥᱟᱯᱩᱨᱱᱟ
ᱟᱥᱟᱱ
ᱟᱥᱟᱱᱥᱚᱞ
ᱟᱥᱟᱱᱥᱳᱞ
ᱟᱥᱟᱲ
ᱟᱥᱠᱟ
ᱟᱥᱢᱟᱱ
ᱟᱥᱤᱠ
ᱟᱥᱤᱠᱤ
ᱟᱥᱤᱥ
ᱟᱥᱤᱥᱴᱟᱱᱴ
ᱟᱥᱤᱥᱴᱟᱸᱴ
ᱟᱥᱤᱭᱟ
ᱟᱥᱤᱭᱟᱱ
ᱟᱥᱤᱯᱷ
ᱟᱥᱤᱯᱷᱟᱵᱟᱫᱽ
ᱟᱥᱨᱚᱢ
ᱟᱥᱨᱟ
ᱟᱥᱨᱟᱢ
ᱟᱥᱨᱟᱭ
ᱟᱥᱩᱛᱳᱥ
ᱟᱥᱩᱞ
ᱟᱥᱩᱨᱤ
ᱟᱥᱮ
ᱟᱥᱮᱠᱟ
ᱟᱥᱮᱢᱵᱞᱤ
ᱟᱥᱮᱢᱵᱽᱞᱤ
ᱟᱥᱮᱱ
ᱟᱥᱯᱛᱟᱞ
ᱟᱥᱯᱟᱛᱟᱞ
ᱟᱥᱲᱟ
ᱟᱥᱲᱟᱢ
ᱟᱥᱲᱟᱭ
ᱟᱥᱳᱥᱤᱭᱮᱥᱚᱱ
ᱟᱥᱴᱨᱮᱞᱤᱭᱟ
ᱟᱦ
ᱟᱦᱚᱢ
ᱟᱦᱚᱢᱮᱫ
ᱟᱦᱚᱢᱮᱫᱽ
ᱟᱦᱞᱟ
ᱟᱦᱟ
ᱟᱦᱟᱨ
ᱟᱦᱟᱨᱵᱚᱸᱫᱽ
ᱟᱦᱢᱚᱫᱯᱩᱨ
ᱟᱦᱢᱮᱫᱽ
ᱟᱦᱤᱨ
ᱟᱦᱥᱟᱱ
ᱟᱦᱩᱢ
ᱟᱦᱳᱢ
ᱟᱧ
ᱟᱧᱡᱚᱢ
ᱟᱧᱡᱟᱞᱤ
ᱟᱧᱪᱚᱞᱤᱠ
ᱟᱨ
ᱟᱨᱚ
ᱟᱨᱚᱛᱤ
ᱟᱨᱚᱯ
ᱟᱨᱚᱱ
ᱟᱨᱚᱵ
ᱟᱨᱚᱵᱤ
ᱟᱨᱚᱵᱤᱠ
ᱟᱨᱚᱵᱤᱭᱟ
ᱟᱨᱚᱵᱤᱭᱟᱱ
ᱟᱨᱚᱵᱽ
ᱟᱨᱛᱤ
ᱟᱨᱛᱷᱟᱨ
ᱟᱨᱟ
ᱟᱨᱟᱜ
ᱟᱨᱟᱝ
ᱟᱨᱟᱠᱟᱱ
ᱟᱨᱟᱢ
ᱟᱨᱟᱢᱵᱟᱜᱽ
ᱟᱨᱟᱨᱤᱭᱟ
ᱟᱨᱟᱬ
ᱟᱨᱟᱵᱚᱲᱤ
ᱟᱨᱟᱵᱟᱝ
ᱟᱨᱟᱵᱤᱠ
ᱟᱨᱟᱵᱽ
ᱟᱨᱟᱽ
ᱟᱨᱠ
ᱟᱨᱠᱚ
ᱟᱨᱠᱚᱴ
ᱟᱨᱠᱢᱮᱰᱤᱥ
ᱟᱨᱠᱤᱴᱮᱠ
ᱟᱨᱠᱤᱴᱮᱠᱪᱚᱨ
ᱟᱨᱠᱤᱴᱮᱠᱪᱟᱨ
ᱟᱨᱠᱴᱤᱠ
ᱟᱨᱡᱚ
ᱟᱨᱡᱟᱣ
ᱟᱨᱡᱟᱣᱚᱜ
ᱟᱨᱡᱟᱣᱜ
ᱟᱨᱡᱟᱣᱜᱼᱟ
ᱟᱨᱡᱟᱣᱟ
ᱟᱨᱡᱟᱣᱟᱜ
ᱟᱨᱡᱟᱣᱟᱱ
ᱟᱨᱡᱩᱱ
ᱟᱨᱡᱮᱱᱴᱤᱱᱟ
ᱟᱨᱢᱟᱱᱤ
ᱟᱨᱢᱤ
ᱟᱨᱢᱤᱫ
ᱟᱨᱢᱥᱴᱨᱚᱝ
ᱟᱨᱢᱮᱱᱤᱭᱟ
ᱟᱨᱢᱮᱱᱤᱭᱟᱱ
ᱟᱨᱢᱮᱱᱤᱭᱳ
ᱟᱨᱣᱟᱞ
ᱟᱨᱤ
ᱟᱨᱤᱥᱟ
ᱟᱨᱤᱥᱴᱚᱴᱚᱞ
ᱟᱨᱤᱭᱟ
ᱟᱨᱤᱭᱟᱞᱩᱨ
ᱟᱨᱥᱟᱞ
ᱟᱨᱥᱤ
ᱟᱨᱥᱴ
ᱟᱨᱦᱚ
ᱟᱨᱦᱚᱸ
ᱟᱨᱦᱚᱸᱭ
ᱟᱨᱩ
ᱟᱨᱩᱬ
ᱟᱨᱩᱬᱟ
ᱟᱨᱩᱱ
ᱟᱨᱩᱱᱤᱢᱟ
ᱟᱨᱩᱵ
ᱟᱨᱪᱟᱱᱟ
ᱟᱨᱪᱟᱱᱮ
ᱟᱨᱪᱱᱟ
ᱟᱨᱫᱚᱲᱦᱟ
ᱟᱨᱫᱟᱥ
ᱟᱨᱭᱚ
ᱟᱨᱭᱟ
ᱟᱨᱭᱟᱱ
ᱟᱨᱮ
ᱟᱨᱮᱞ
ᱟᱨᱮᱥᱴ
ᱟᱨᱮᱨᱮ
ᱟᱨᱮᱭᱟᱜ
ᱟᱨᱳᱨᱟ
ᱟᱨᱳᱯ
ᱟᱨᱳᱱ
ᱟᱨᱴ
ᱟᱨᱴᱤᱠᱮᱞ
ᱟᱨᱴᱤᱠᱮᱹᱞ
ᱟᱨᱴᱤᱥᱴ
ᱟᱨᱴᱥ
ᱟᱨᱴᱥᱟᱠᱷ
ᱟᱨᱵᱟᱜᱴᱝ
ᱟᱨᱵᱟᱝ
ᱟᱨᱵᱟᱝᱠᱷᱟᱱ
ᱟᱨᱵᱟᱝᱢᱟ
ᱟᱨᱵᱟᱡᱽ
ᱟᱨᱵᱟᱱ
ᱟᱨᱵᱤ
ᱟᱨᱹ
ᱟᱪᱚ
ᱟᱪᱚᱭᱮᱱᱟ
ᱟᱪᱟᱨ
ᱟᱪᱟᱨᱡᱚ
ᱟᱪᱟᱨᱭᱚ
ᱟᱪᱟᱨᱭᱟ
ᱟᱪᱠᱟ
ᱟᱪᱤᱵᱷᱢᱮᱸᱴ
ᱟᱪᱩᱨ
ᱟᱪᱮᱛ
ᱟᱪᱮᱛᱟᱱᱤ
ᱟᱪᱮᱛᱤᱭᱟ
ᱟᱪᱮᱛᱤᱭᱟᱹ
ᱟᱪᱮᱛᱤᱭᱟᱹᱭ
ᱟᱪᱮᱦ
ᱟᱪᱮᱦᱱᱮᱥ
ᱟᱪᱮᱫ
ᱟᱪᱮᱫᱚᱜ
ᱟᱪᱮᱫᱤᱭᱟᱹ
ᱟᱪᱷ
ᱟᱪᱷᱮ
ᱟᱫ
ᱟᱫᱚ
ᱟᱫᱚᱜ
ᱟᱫᱚᱞ
ᱟᱫᱚᱢ
ᱟᱫᱚᱢᱫᱤᱜᱷᱤ
ᱟᱫᱚᱣᱟ
ᱟᱫᱚᱨ
ᱟᱫᱚᱨᱥ
ᱟᱫᱚᱨᱥᱚ
ᱟᱫᱟ
ᱟᱫᱟᱞᱚᱛ
ᱟᱫᱟᱢ
ᱟᱫᱟᱨᱥ
ᱟᱫᱟᱭ
ᱟᱫᱢᱤ
ᱟᱫᱤ
ᱟᱫᱤᱛᱢᱟᱨᱤ
ᱟᱫᱤᱛᱤ
ᱟᱫᱤᱛᱭᱚ
ᱟᱫᱤᱛᱭᱟ
ᱟᱫᱤᱛᱯᱩᱨ
ᱟᱫᱤᱜᱷᱮ
ᱟᱫᱤᱞ
ᱟᱫᱤᱞᱟᱵᱟᱫᱽ
ᱟᱫᱤᱭᱟ
ᱟᱫᱤᱵᱟᱥᱤ
ᱟᱫᱤᱵᱟᱹᱥᱤ
ᱟᱫᱮ
ᱟᱫᱮᱥ
ᱟᱫᱮᱨ
ᱟᱫᱮᱭᱟ
ᱟᱫᱷᱚᱱᱤᱠ
ᱟᱫᱷᱟ
ᱟᱫᱷᱟᱨ
ᱟᱫᱷᱟᱨᱤᱛ
ᱟᱫᱷᱟᱱ
ᱟᱫᱷᱤᱠᱟᱨ
ᱟᱫᱷᱤᱠᱟᱨᱤ
ᱟᱫᱷᱤᱠᱟᱨᱤᱠ
ᱟᱫᱷᱩᱱᱤᱠ
ᱟᱫᱷᱭᱟᱛᱢᱤᱠ
ᱟᱫᱸᱤ
ᱟᱫᱼᱟ
ᱟᱫᱽ
ᱟᱫᱽᱢᱤ
ᱟᱫᱽᱣᱟ
ᱟᱫᱽᱨᱟ
ᱟᱬᱜᱚ
ᱟᱬᱜᱚᱭᱟ
ᱟᱬᱜᱚᱱ
ᱟᱬᱜᱚᱱᱟ
ᱟᱬᱜᱟᱛ
ᱟᱬᱜᱳ
ᱟᱭ
ᱟᱭᱚ
ᱟᱭᱚᱛᱚᱱ
ᱟᱭᱚᱜᱽ
ᱟᱭᱚᱡᱟᱱ
ᱟᱭᱚᱫᱷᱭᱟ
ᱟᱭᱚᱭ
ᱟᱭᱚᱱ
ᱟᱭᱛᱟᱱ
ᱟᱭᱞᱮᱱᱰ
ᱟᱭᱞᱮᱸᱰ
ᱟᱭᱟ
ᱟᱭᱟᱛ
ᱟᱭᱟᱜ
ᱟᱭᱟᱝ
ᱟᱭᱟᱢ
ᱟᱭᱟᱢᱟ
ᱟᱭᱟᱨ
ᱟᱭᱟᱨᱞᱟᱸᱰ
ᱟᱭᱟᱨᱞᱮᱱᱰ
ᱟᱭᱟᱨᱥᱤ
ᱟᱭᱟᱱ
ᱟᱭᱠᱚᱱ
ᱟᱭᱡᱚᱞ
ᱟᱭᱡᱮᱠ
ᱟᱭᱢᱟ
ᱟᱭᱢᱟᱜᱟᱱ
ᱟᱭᱢᱟᱨᱟ
ᱟᱭᱢᱟᱭ
ᱟᱭᱤ
ᱟᱭᱤᱞᱮᱸᱰ
ᱟᱭᱤᱥᱞᱟᱸᱰ
ᱟᱭᱤᱥᱞᱮᱱᱰ
ᱟᱭᱤᱥᱞᱮᱱᱰᱤᱠ
ᱟᱭᱤᱥᱤᱥᱤ
ᱟᱭᱤᱮᱮᱥ
ᱟᱭᱤᱰᱤᱭᱟ
ᱟᱭᱤᱱ
ᱟᱭᱤᱱᱥᱴᱟᱭᱤᱱ
ᱟᱭᱤᱴᱤ
ᱟᱭᱥᱟ
ᱟᱭᱥᱟᱠ
ᱟᱭᱥᱤᱥᱤ
ᱟᱭᱥᱮ
ᱟᱭᱨᱚᱱ
ᱟᱭᱨᱤᱥ
ᱟᱭᱨᱮᱥ
ᱟᱭᱩ
ᱟᱭᱩᱥᱢᱟᱱ
ᱟᱭᱩᱨ
ᱟᱭᱩᱨᱛᱮ
ᱟᱭᱩᱨᱣᱮᱫᱟ
ᱟᱭᱩᱨᱤᱭᱟᱹ
ᱟᱭᱩᱨᱵᱮᱫᱤᱠ
ᱟᱭᱩᱨᱵᱮᱫᱽ
ᱟᱭᱩᱵ
ᱟᱭᱩᱵᱽ
ᱟᱭᱭᱟᱨ
ᱟᱭᱮ
ᱟᱭᱮᱥᱟ
ᱟᱭᱮᱥᱳ
ᱟᱭᱮᱭᱟᱨᱣᱟᱫᱤ
ᱟᱭᱯᱤᱮᱞ
ᱟᱭᱰᱤᱭᱟ
ᱟᱭᱱᱚᱢ
ᱟᱭᱳ
ᱟᱭᱳᱣᱟᱜ
ᱟᱭᱳᱭ
ᱟᱭᱳᱼᱵᱟᱵᱟ
ᱟᱭᱴᱚᱢ
ᱟᱭᱴᱤ
ᱟᱭᱵᱷᱚᱨᱤ
ᱟᱭᱹ
ᱟᱭᱹᱮᱹ
ᱟᱮ
ᱟᱯ
ᱟᱯᱚᱞ
ᱟᱯᱚᱱ
ᱟᱯᱜᱨᱮᱰ
ᱟᱯᱞᱤᱠᱮᱥᱚᱱ
ᱟᱯᱟ
ᱟᱯᱟᱛ
ᱟᱯᱟᱛᱟᱜ
ᱟᱯᱟᱛᱮ
ᱟᱯᱟᱛᱮᱫ
ᱟᱯᱟᱨ
ᱟᱯᱟᱱ
ᱟᱯᱟᱱᱟᱨ
ᱟᱯᱠᱮ
ᱟᱯᱤᱱ
ᱟᱯᱨᱤᱞ
ᱟᱯᱨᱤᱠᱟ
ᱟᱯᱨᱮᱞ
ᱟᱯᱨᱮᱱᱴᱤᱥ
ᱟᱯᱮ
ᱟᱯᱮᱞ
ᱟᱯᱮᱭᱟ
ᱟᱯᱮᱭᱟᱜ
ᱟᱯᱯ
ᱟᱯᱱᱟ
ᱟᱯᱱᱟᱨ
ᱟᱯᱱᱟᱨᱟ
ᱟᱯᱱᱟᱨᱟᱜ
ᱟᱯᱱᱮ
ᱟᱯᱳᱥ
ᱟᱯᱴᱮ
ᱟᱯᱷ
ᱟᱯᱷᱚᱥᱟᱱᱟ
ᱟᱯᱷᱚᱫᱽ
ᱟᱯᱷᱛᱟᱵᱽ
ᱟᱯᱷᱜᱟᱱ
ᱟᱯᱷᱜᱟᱱᱤᱥᱛᱟᱱ
ᱟᱯᱷᱜᱟᱱᱤᱥᱛᱷᱟᱱ
ᱟᱯᱷᱟᱨ
ᱟᱯᱷᱤ
ᱟᱯᱷᱨᱤᱠᱟ
ᱟᱯᱷᱨᱤᱠᱟᱱ
ᱟᱯᱷᱨᱤᱠᱟᱱᱥ
ᱟᱯᱷᱨᱳ
ᱟᱯᱷᱨᱳᱼᱮᱥᱤᱭᱟᱴᱤᱠ
ᱟᱯᱷᱮᱭᱟᱨᱥ
ᱟᱯᱷᱱᱟᱨ
ᱟᱰᱚ
ᱟᱰᱚᱜ
ᱟᱰᱟ
ᱟᱰᱤ
ᱟᱰᱤᱜᱟᱱ
ᱟᱰᱮ
ᱟᱰᱮᱯᱟᱥᱮ
ᱟᱰᱰᱟ
ᱟᱰᱵᱷᱟᱱᱤ
ᱟᱱ
ᱟᱱᱚ
ᱟᱱᱚᱱᱫ
ᱟᱱᱚᱱᱫᱚ
ᱟᱱᱚᱱᱫᱤᱵᱟᱭᱤ
ᱟᱱᱚᱱᱫᱽ
ᱟᱱᱚᱱᱫᱽᱯᱩᱨ
ᱟᱱᱚᱸᱫᱽ
ᱟᱱᱛᱚᱨᱡᱟᱛᱤᱠ
ᱟᱱᱛᱣᱤᱨᱯ
ᱟᱱᱛᱮ
ᱟᱱᱜᱞᱟᱫᱮᱥᱦ
ᱟᱱᱜᱟᱲᱟ
ᱟᱱᱟ
ᱟᱱᱟᱜ
ᱟᱱᱟᱜᱚᱱᱟ
ᱟᱱᱟᱝ
ᱟᱱᱟᱞᱟᱭᱥᱤᱥ
ᱟᱱᱟᱡ
ᱟᱱᱟᱡᱽ
ᱟᱱᱟᱢ
ᱟᱱᱟᱨ
ᱟᱱᱟᱭ
ᱟᱱᱟᱱ
ᱟᱱᱟᱱᱫᱽ
ᱟᱱᱟᱴ
ᱟᱱᱟᱸᱫᱽ
ᱟᱱᱡᱟᱭᱤᱭᱟ
ᱟᱱᱡᱩᱢ
ᱟᱱᱣᱟᱨ
ᱟᱱᱣᱟᱨᱟ
ᱟᱱᱤ
ᱟᱱᱤᱞ
ᱟᱱᱤᱡ
ᱟᱱᱤᱥᱟ
ᱟᱱᱩ
ᱟᱱᱩᱥᱚᱸᱫᱷᱟᱱ
ᱟᱱᱩᱥᱩᱪᱤᱛ
ᱟᱱᱩᱥᱮᱦᱚ
ᱟᱱᱩᱯᱯᱩᱨ
ᱟᱱᱩᱵᱷᱟᱣ
ᱟᱱᱫ
ᱟᱱᱫᱚᱞᱚᱱ
ᱟᱱᱫᱚᱞᱟᱱ
ᱟᱱᱫᱚᱲ
ᱟᱱᱫᱚᱲᱚᱱ
ᱟᱱᱫᱟᱡᱽ
ᱟᱱᱫᱟᱢᱟᱱ
ᱟᱱᱫᱨᱚ
ᱟᱱᱫᱮᱥ
ᱟᱱᱫᱳᱞᱚᱱ
ᱟᱱᱫᱳᱞᱳᱱ
ᱟᱱᱫᱷᱟ
ᱟᱱᱫᱷᱨᱚ
ᱟᱱᱫᱷᱨᱟ
ᱟᱱᱫᱽᱨᱚ
ᱟᱱᱫᱽᱨᱟ
ᱟᱱᱮ
ᱟᱱᱮᱡ
ᱟᱱᱰ
ᱟᱱᱰᱟᱢᱟᱱ
ᱟᱱᱰᱟᱨ
ᱟᱱᱰᱟᱨᱜᱨᱮᱡᱩᱭᱮᱴ
ᱟᱱᱰᱟᱨᱜᱽᱨᱮᱡᱩᱭᱮᱴ
ᱟᱱᱰᱤᱨᱥᱮᱱ
ᱟᱱᱰᱨᱚᱭᱮᱰ
ᱟᱱᱰᱷᱨᱚ
ᱟᱱᱱᱟ
ᱟᱱᱴᱟᱨᱠᱚᱴᱤᱠᱟ
ᱟᱱᱴᱤ
ᱟᱲᱜᱚ
ᱟᱲᱟ
ᱟᱲᱟᱜ
ᱟᱲᱟᱜᱟ
ᱟᱲᱟᱝ
ᱟᱲᱟᱝᱚᱜ
ᱟᱲᱟᱝᱛᱮ
ᱟᱲᱟᱥ
ᱟᱲᱠᱝ
ᱟᱲᱥᱟ
ᱟᱲᱮ
ᱟᱲᱮᱛᱮ
ᱟᱲᱮᱨᱮ
ᱟᱴ
ᱟᱴᱚᱢᱤᱠ
ᱟᱴᱚᱭᱟᱨᱤ
ᱟᱴᱜᱷᱚᱨᱤᱭᱟ
ᱟᱴᱞᱟᱱᱴᱟ
ᱟᱴᱞᱟᱱᱴᱤᱠ
ᱟᱴᱟᱞ
ᱟᱴᱟᱠ
ᱟᱴᱠᱟᱣ
ᱟᱴᱠᱟᱨ
ᱟᱴᱠᱟᱨᱚᱜ
ᱟᱴᱠᱤᱱᱥ
ᱟᱴᱤᱥᱴ
ᱟᱴᱮᱛ
ᱟᱴᱮᱫ
ᱟᱴᱴᱟᱢ
ᱟᱴᱷᱣᱟᱨ
ᱟᱵ
ᱟᱵᱚ
ᱟᱵᱚᱜ
ᱟᱵᱚᱣᱟᱜ
ᱟᱵᱚᱥᱛᱟ
ᱟᱵᱚᱱ
ᱟᱵᱚᱱᱟ
ᱟᱵᱚᱱᱟᱜ
ᱟᱵᱟ
ᱟᱵᱟᱨ
ᱟᱵᱟᱫ
ᱟᱵᱟᱫᱟ
ᱟᱵᱟᱫᱤ
ᱟᱵᱟᱫᱽ
ᱟᱵᱤᱫᱟ
ᱟᱵᱤᱵᱽ
ᱟᱵᱩ
ᱟᱵᱩᱜᱤᱫᱟ
ᱟᱵᱩᱞ
ᱟᱵᱫᱩᱞ
ᱟᱵᱫᱩᱥ
ᱟᱵᱫᱩᱨ
ᱟᱵᱮᱫᱚᱱ
ᱟᱵᱷᱟ
ᱟᱵᱷᱤᱥᱮᱠ
ᱟᱵᱷᱤᱭᱟᱱ
ᱟᱵᱷᱤᱱᱚᱭ
ᱟᱵᱷᱤᱱᱟᱭ
ᱟᱵᱷᱤᱱᱤᱛ
ᱟᱵᱷᱤᱱᱮᱛᱟ
ᱟᱵᱷᱭᱟᱨᱚᱱᱭ
ᱟᱵᱽ
ᱟᱵᱽᱜᱮ
ᱟᱵᱽᱠᱷᱟᱡᱽ
ᱟᱵᱽᱨᱟᱦᱚᱢ
ᱟᱵᱽᱨᱟᱦᱟᱢ
ᱟᱵᱽᱫᱩᱞ
ᱟᱵᱽᱫᱩᱨ
ᱟᱸ
ᱟᱸᱛ
ᱟᱸᱛᱮᱥ
ᱟᱸᱜᱚᱡ
ᱟᱸᱜᱚᱪ
ᱟᱸᱜᱤᱵᱷᱟᱨ
ᱟᱸᱠ
ᱟᱸᱠᱟᱣ
ᱟᱸᱠᱷᱤ
ᱟᱸᱡᱚᱢ
ᱟᱸᱡᱚᱢᱚᱜ
ᱟᱸᱡᱚᱢᱚᱜᱼᱟ
ᱟᱸᱡᱚᱢᱟ
ᱟᱸᱡᱽᱞᱮ
ᱟᱸᱥ
ᱟᱸᱥᱚᱜᱼᱟ
ᱟᱸᱫᱚᱲ
ᱟᱸᱫᱮ
ᱟᱸᱫᱮᱭᱟᱹ
ᱟᱸᱫᱳᱲ
ᱟᱸᱫᱷᱟ
ᱟᱸᱫᱷᱨᱚ
ᱟᱸᱫᱷᱨᱚᱯᱨᱚᱫᱮᱥ
ᱟᱸᱫᱷᱨᱟ
ᱟᱸᱯᱟᱸᱲᱤ
ᱟᱸᱰᱤ
ᱟᱸᱰᱮ
ᱟᱸᱰᱮᱯᱟᱥᱮ
ᱟᱸᱴ
ᱟᱸᱴᱮ
ᱟᱹ
ᱟᱹᱛ
ᱟᱹᱛᱠᱤᱨ
ᱟᱹᱛᱤᱧ
ᱟᱹᱛᱩ
ᱟᱹᱛᱩᱜ
ᱟᱹᱛᱩᱨᱟᱬᱜᱚ
ᱟᱹᱛᱩᱨᱮ
ᱟᱹᱛᱩᱱ
ᱟᱹᱛᱳ
ᱟᱹᱜ
ᱟᱹᱜᱤᱞ
ᱟᱹᱜᱤᱵᱷᱟᱨ
ᱟᱹᱜᱩ
ᱟᱹᱜᱩᱜ
ᱟᱹᱜᱩᱣᱟᱱ
ᱟᱹᱜᱩᱣᱟᱹᱱ
ᱟᱹᱜᱩᱭ
ᱟᱹᱜᱩᱭᱟ
ᱟᱹᱜᱩᱭᱫᱟ
ᱟᱹᱜᱩᱭᱮᱫ
ᱟᱹᱜᱩᱭᱮᱫᱟ
ᱟᱹᱞᱤᱧ
ᱟᱹᱞᱩ
ᱟᱹᱞᱵᱮᱨᱳᱱᱤ
ᱟᱹᱠᱚᱣᱟᱜ
ᱟᱹᱠᱟᱭᱨᱟᱹᱥ
ᱟᱹᱠᱤᱞ
ᱟᱹᱠᱤᱞᱟᱱ
ᱟᱹᱠᱤᱞᱢᱟᱱ
ᱟᱹᱠᱤᱱ
ᱟᱹᱠᱤᱱᱟ
ᱟᱹᱠᱤᱱᱟᱜ
ᱟᱹᱠᱤᱱᱤᱡ
ᱟᱹᱠᱩ
ᱟᱹᱠᱩᱣᱟᱜ
ᱟᱹᱠᱷ
ᱟᱹᱠᱷᱨᱤᱧ
ᱟᱹᱠᱷᱨᱤᱧᱟ
ᱟᱹᱠᱷᱨᱤᱧᱤᱡ
ᱟᱹᱠᱷᱨᱤᱧᱼᱟ
ᱟᱹᱡᱤ
ᱟᱹᱢᱟᱹᱞᱤ
ᱟᱹᱢᱟᱹᱞᱤᱭᱟᱹ
ᱟᱹᱢᱟᱹᱞᱮᱛ
ᱟᱹᱣᱨᱤ
ᱟᱹᱣᱲᱤ
ᱟᱹᱥᱩᱞ
ᱟᱹᱥᱩᱞᱚᱜ
ᱟᱹᱧ
ᱟᱹᱨᱡᱤ
ᱟᱹᱨᱤ
ᱟᱹᱨᱤᱪᱟᱹᱞᱤ
ᱟᱹᱨᱤᱭᱟᱹ
ᱟᱹᱨᱥᱤ
ᱟᱹᱨᱩ
ᱟᱹᱨᱩᱜ
ᱟᱹᱨᱩᱯᱷᱮᱨᱟᱣ
ᱟᱹᱨᱩᱵ
ᱟᱹᱨᱩᱵᱟ
ᱟᱹᱪᱩ
ᱟᱹᱪᱩᱨ
ᱟᱹᱪᱩᱨᱚᱜ
ᱟᱹᱪᱩᱨᱚᱜᱼᱟ
ᱟᱹᱪᱩᱨᱟ
ᱟᱹᱪᱷᱤᱢ
ᱟᱹᱫᱟᱹᱭ
ᱟᱹᱫᱤ
ᱟᱹᱫᱤᱢ
ᱟᱹᱫᱤᱵᱟᱥᱤ
ᱟᱹᱫᱤᱵᱟᱹᱥᱤ
ᱟᱹᱫᱷᱩᱱᱤᱠ
ᱟᱹᱫᱽ
ᱟᱹᱭᱟᱹᱛ
ᱟᱹᱭᱠᱟᱣ
ᱟᱹᱭᱠᱟᱹᱜ
ᱟᱹᱭᱠᱟᱹᱜᱼᱟ
ᱟᱹᱭᱠᱟᱹᱣ
ᱟᱹᱭᱠᱟᱹᱣᱜ
ᱟᱹᱭᱠᱟᱹᱣᱜᱼᱟ
ᱟᱹᱭᱠᱟᱹᱣᱟ
ᱟᱹᱭᱤᱱ
ᱟᱹᱭᱩᱨ
ᱟᱹᱭᱩᱨᱤᱡ
ᱟᱹᱭᱩᱨᱤᱭᱟᱹ
ᱟᱹᱭᱩᱨᱮᱫ
ᱟᱹᱭᱩᱵ
ᱟᱹᱭᱫᱟᱹᱨ
ᱟᱹᱭᱫᱟᱹᱨᱤ
ᱟᱹᱭᱫᱟᱹᱨᱤᱭ
ᱟᱹᱭᱳ
ᱟᱹᱯᱟᱹᱱ
ᱟᱹᱯᱤᱥ
ᱟᱹᱯᱤᱱ
ᱟᱹᱯᱱᱟᱹᱛ
ᱟᱹᱰᱤ
ᱟᱹᱰᱤᱜᱟᱱ
ᱟᱹᱰᱤᱜᱮ
ᱟᱹᱰᱤᱜᱮᱭ
ᱟᱹᱰᱤᱭ
ᱟᱹᱰᱤᱭᱮ
ᱟᱹᱱ
ᱟᱹᱱᱟᱠᱟᱱ
ᱟᱹᱱᱟᱨᱤ
ᱟᱹᱱᱟᱹᱨᱤ
ᱟᱹᱱᱠᱟ
ᱟᱹᱱᱤᱡ
ᱟᱹᱱᱩᱡ
ᱟᱹᱱᱯᱟᱹ
ᱟᱹᱱᱰᱤᱭᱟᱹ
ᱟᱹᱲ
ᱟᱹᱲᱟ
ᱟᱹᱲᱟᱹ
ᱟᱹᱲᱟᱹᱭ
ᱟᱹᱲᱟᱹᱵᱟᱺᱫᱤ
ᱟᱹᱲᱤᱥ
ᱟᱹᱲᱩ
ᱟᱹᱴ
ᱟᱹᱵᱤ
ᱟᱹᱵᱤᱱ
ᱟᱺ
ᱟᱺᱜᱤᱵᱷᱟ
ᱟᱺᱜᱤᱵᱷᱟᱨ
ᱟᱺᱜᱤᱵᱷᱟᱹᱨᱤᱭᱟᱹ
ᱟᱺᱠ
ᱟᱺᱠᱷ
ᱟᱺᱰᱤᱭᱟ
ᱠ
ᱠᱚ
ᱠᱚᱛᱮ
ᱠᱚᱛᱷᱚᱠ
ᱠᱚᱛᱷᱚᱠᱚᱞᱤ
ᱠᱚᱛᱷᱟ
ᱠᱚᱜ
ᱠᱚᱜᱮ
ᱠᱚᱜᱮᱭᱟ
ᱠᱚᱜᱼᱟ
ᱠᱚᱝ
ᱠᱚᱝᱜᱚ
ᱠᱚᱝᱜᱚᱱᱟ
ᱠᱚᱝᱜᱨᱮᱥ
ᱠᱚᱝᱜᱳ
ᱠᱚᱝᱜᱽᱨᱮᱥ
ᱠᱚᱝᱠᱚᱬ
ᱠᱚᱝᱠᱚᱬᱤ
ᱠᱚᱝᱠᱟ
ᱠᱚᱝᱠᱟᱞᱤᱛᱚᱞᱟ
ᱠᱚᱝᱠᱨᱤᱴ
ᱠᱚᱝᱥᱟᱵᱚᱛᱤ
ᱠᱚᱞ
ᱠᱚᱞᱚᱠᱟᱛᱟ
ᱠᱚᱞᱚᱢ
ᱠᱚᱞᱚᱢᱚᱱᱰᱞᱚᱢ
ᱠᱚᱞᱚᱢᱵᱚ
ᱠᱚᱞᱚᱢᱵᱚᱥ
ᱠᱚᱞᱚᱢᱵᱟᱥ
ᱠᱚᱞᱚᱢᱵᱤᱭᱟ
ᱠᱚᱞᱚᱨᱥ
ᱠᱚᱞᱚᱱ
ᱠᱚᱞᱚᱱᱤ
ᱠᱚᱞᱚᱱᱤᱭᱟᱞ
ᱠᱚᱞᱞᱟᱠᱩᱨᱤᱪᱤ
ᱠᱚᱞᱞᱟᱢ
ᱠᱚᱞᱞᱟᱱᱤ
ᱠᱚᱞᱞᱮᱡ
ᱠᱚᱞᱟ
ᱠᱚᱞᱟᱠᱟᱨ
ᱠᱚᱞᱟᱠᱷᱮᱛᱨᱚ
ᱠᱚᱞᱟᱢ
ᱠᱚᱞᱟᱢᱚᱱᱰᱚᱞᱚᱢ
ᱠᱚᱞᱟᱨ
ᱠᱚᱞᱠᱚᱛᱟ
ᱠᱚᱞᱠᱟᱛᱛᱟ
ᱠᱚᱞᱠᱟᱛᱟ
ᱠᱚᱞᱠᱟᱛᱟᱭ
ᱠᱚᱞᱡᱟ
ᱠᱚᱞᱤ
ᱠᱚᱞᱤᱝ
ᱠᱚᱞᱤᱝᱜᱚ
ᱠᱚᱞᱤᱭᱟᱵᱚᱨ
ᱠᱚᱞᱥᱟ
ᱠᱚᱞᱦᱟ
ᱠᱚᱞᱦᱟᱯᱩᱨ
ᱠᱚᱞᱦᱟᱱ
ᱠᱚᱞᱪᱚᱨ
ᱠᱚᱞᱪᱚᱨᱟᱞ
ᱠᱚᱞᱭᱟᱬ
ᱠᱚᱞᱭᱟᱱ
ᱠᱚᱞᱭᱟᱱᱤ
ᱠᱚᱞᱭᱟᱱᱤᱠᱩᱴᱴᱤ
ᱠᱚᱞᱮ
ᱠᱚᱞᱮᱠᱴᱚᱨ
ᱠᱚᱞᱮᱡ
ᱠᱚᱞᱮᱡᱤᱭᱮᱴ
ᱠᱚᱞᱮᱡᱽ
ᱠᱚᱞᱮᱥᱴᱨᱚᱞ
ᱠᱚᱞᱮᱨᱮ
ᱠᱚᱞᱯᱚᱱᱟ
ᱠᱚᱞᱯᱷᱤᱞᱰᱥ
ᱠᱚᱞᱳᱱᱤ
ᱠᱚᱟ
ᱠᱚᱟᱜ
ᱠᱚᱠ
ᱠᱚᱠᱚ
ᱠᱚᱠᱚᱨ
ᱠᱚᱠᱚᱭ
ᱠᱚᱠᱥᱵᱟᱡᱟᱨ
ᱠᱚᱠᱨᱟᱡᱷᱟᱨ
ᱠᱚᱠᱨᱟᱡᱷᱟᱲ
ᱠᱚᱠᱮᱥᱟᱥ
ᱠᱚᱠᱮᱥᱤᱭᱟᱱ
ᱠᱚᱠᱲᱟᱡᱷᱟᱲ
ᱠᱚᱠᱵᱚᱨᱚᱠ
ᱠᱚᱡᱷᱤᱠᱚᱰ
ᱠᱚᱢ
ᱠᱚᱢᱚᱛᱟ
ᱠᱚᱢᱚᱜ
ᱠᱚᱢᱚᱜᱼᱟ
ᱠᱚᱢᱚᱞ
ᱠᱚᱢᱚᱞᱟ
ᱠᱚᱢᱚᱨᱚᱥ
ᱠᱚᱢᱚᱨᱥ
ᱠᱚᱢᱚᱨᱥᱤᱭᱟᱞ
ᱠᱚᱢᱚᱱ
ᱠᱚᱢᱚᱱᱣᱮᱞᱛᱷ
ᱠᱚᱢᱚᱱᱥ
ᱠᱚᱢᱚᱲᱟ
ᱠᱚᱢᱜᱮ
ᱠᱚᱢᱞᱟ
ᱠᱚᱢᱟ
ᱠᱚᱢᱟᱞ
ᱠᱚᱢᱟᱣ
ᱠᱚᱢᱟᱨᱟᱢ
ᱠᱚᱢᱟᱨᱥ
ᱠᱚᱢᱟᱨᱥᱤᱭᱟᱞ
ᱠᱚᱢᱟᱱᱰᱚᱨ
ᱠᱚᱢᱟᱱᱰᱟᱨ
ᱠᱚᱢᱡᱚᱨ
ᱠᱚᱢᱤ
ᱠᱚᱢᱤᱠ
ᱠᱚᱢᱤᱣᱱᱤᱠᱮᱥᱚᱱ
ᱠᱚᱢᱤᱣᱱᱤᱥᱴ
ᱠᱚᱢᱤᱥᱚᱱ
ᱠᱚᱢᱤᱥᱚᱱᱚᱨ
ᱠᱚᱢᱤᱥᱚᱱᱟᱨ
ᱠᱚᱢᱤᱥᱱᱚᱨ
ᱠᱚᱢᱤᱥᱳᱱ
ᱠᱚᱢᱤᱭᱩᱱᱤᱠᱮᱥᱚᱱ
ᱠᱚᱢᱤᱭᱩᱱᱥ
ᱠᱚᱢᱤᱱᱤᱥᱴ
ᱠᱚᱢᱤᱴᱤ
ᱠᱚᱢᱩᱱᱤᱠᱮᱥᱚᱱ
ᱠᱚᱢᱩᱱᱤᱥᱴ
ᱠᱚᱢᱭᱩᱱᱤᱥᱴ
ᱠᱚᱢᱭᱩᱱᱤᱴᱤ
ᱠᱚᱢᱮ
ᱠᱚᱢᱮᱨᱥᱤᱭᱟᱞ
ᱠᱚᱢᱮᱰᱤ
ᱠᱚᱢᱮᱰᱤᱭᱟᱱ
ᱠᱚᱢᱮᱱᱴᱮᱴᱚᱨ
ᱠᱚᱢᱯᱚᱱᱤ
ᱠᱚᱢᱯᱞᱮᱠᱥ
ᱠᱚᱢᱯᱞᱮᱱ
ᱠᱚᱢᱯᱟᱣᱩᱱᱰ
ᱠᱚᱢᱯᱟᱱᱤ
ᱠᱚᱢᱯᱟᱹᱱᱤ
ᱠᱚᱢᱯᱤᱭᱩᱴᱟᱨ
ᱠᱚᱢᱯᱤᱴᱤᱥᱚᱱ
ᱠᱚᱢᱯᱩᱴᱚᱨ
ᱠᱚᱢᱯᱩᱴᱟᱨ
ᱠᱚᱢᱯᱭᱩᱴᱚᱨ
ᱠᱚᱢᱯᱭᱩᱴᱟᱨ
ᱠᱚᱢᱯᱮᱴᱤᱥᱚᱱ
ᱠᱚᱢᱱᱤᱭᱚᱥᱴ
ᱠᱚᱣᱟ
ᱠᱚᱣᱟᱜ
ᱠᱚᱣᱟᱨ
ᱠᱚᱣᱟᱭ
ᱠᱚᱣᱟᱴᱟᱨ
ᱠᱚᱣᱤᱛᱟ
ᱠᱚᱣᱥᱚᱞ
ᱠᱚᱣᱨ
ᱠᱚᱣᱭᱟ
ᱠᱚᱣᱱ
ᱠᱚᱥ
ᱠᱚᱥᱚᱢ
ᱠᱚᱥᱚᱣᱴᱤ
ᱠᱚᱥᱛᱩᱨᱤ
ᱠᱚᱥᱛᱩᱨᱵᱟ
ᱠᱚᱥᱟ
ᱠᱚᱥᱤ
ᱠᱚᱥᱤᱠᱟ
ᱠᱚᱥᱭᱚᱯ
ᱠᱚᱥᱮᱨᱩᱠ
ᱠᱚᱥᱴ
ᱠᱚᱥᱴᱚ
ᱠᱚᱥᱴᱟ
ᱠᱚᱥᱴᱟᱞ
ᱠᱚᱥᱵᱟ
ᱠᱚᱦ
ᱠᱚᱦᱚ
ᱠᱚᱦᱚᱸ
ᱠᱚᱦᱚᱸᱭ
ᱠᱚᱦᱚᱸᱰᱟ
ᱠᱚᱦᱤᱢᱟ
ᱠᱚᱦᱤᱵᱚ
ᱠᱚᱧᱮ
ᱠᱚᱧᱮᱭᱟᱭ
ᱠᱚᱧᱮᱼᱥᱟᱢᱟᱝ
ᱠᱚᱧᱮᱼᱮᱛᱚᱢ
ᱠᱚᱧᱮᱼᱯᱟᱪᱮ
ᱠᱚᱨ
ᱠᱚᱨᱚ
ᱠᱚᱨᱚᱛᱚᱭᱟ
ᱠᱚᱨᱚᱢ
ᱠᱚᱨᱚᱢᱪᱟᱨᱤ
ᱠᱚᱨᱚᱢᱪᱟᱸᱫᱽ
ᱠᱚᱨᱚᱱ
ᱠᱚᱨᱚᱱᱟ
ᱠᱚᱨᱚᱱᱰᱤ
ᱠᱚᱨᱚᱱᱰᱤᱦ
ᱠᱚᱨᱚᱲ
ᱠᱚᱨᱚᱵᱤ
ᱠᱚᱨᱛᱟᱞ
ᱠᱚᱨᱟ
ᱠᱚᱨᱟᱛ
ᱠᱚᱨᱟᱣ
ᱠᱚᱨᱟᱣᱟ
ᱠᱚᱨᱟᱪᱤ
ᱠᱚᱨᱟᱯᱩᱴ
ᱠᱚᱨᱟᱱ
ᱠᱚᱨᱟᱱᱮ
ᱠᱚᱨᱟᱲ
ᱠᱚᱨᱠᱩ
ᱠᱚᱨᱢᱚ
ᱠᱚᱨᱢᱟ
ᱠᱚᱨᱣᱟ
ᱠᱚᱨᱤ
ᱠᱚᱨᱤᱢ
ᱠᱚᱨᱤᱢᱜᱚᱸᱡᱽ
ᱠᱚᱨᱤᱢᱱᱚᱜᱚᱨ
ᱠᱚᱨᱤᱢᱱᱟᱜᱟᱨ
ᱠᱚᱨᱤᱥᱢᱟ
ᱠᱚᱨᱤᱭᱚᱜᱨᱟᱯᱷᱚᱨ
ᱠᱚᱨᱤᱭᱚᱜᱽᱨᱟᱯᱷᱟᱨ
ᱠᱚᱨᱤᱭᱚᱜᱽᱨᱟᱯᱷᱤ
ᱠᱚᱨᱤᱭᱟ
ᱠᱚᱨᱤᱭᱟᱱ
ᱠᱚᱨᱤᱭᱳᱜᱨᱟᱯᱷᱳᱨ
ᱠᱚᱨᱤᱭᱳᱜᱽᱨᱟᱯᱷᱚᱨ
ᱠᱚᱨᱤᱰᱚᱨ
ᱠᱚᱨᱤᱱ
ᱠᱚᱨᱤᱱᱟ
ᱠᱚᱨᱥ
ᱠᱚᱨᱨᱟ
ᱠᱚᱨᱩᱨ
ᱠᱚᱨᱮ
ᱠᱚᱨᱮᱜᱮ
ᱠᱚᱨᱮᱠᱚ
ᱠᱚᱨᱮᱠᱷᱚᱱ
ᱠᱚᱨᱮᱦᱚᱸ
ᱠᱚᱨᱮᱫᱚ
ᱠᱚᱨᱮᱭ
ᱠᱚᱨᱮᱭᱟᱜ
ᱠᱚᱨᱮᱱ
ᱠᱚᱨᱮᱱᱟᱜ
ᱠᱚᱨᱯᱚᱨᱮᱥᱚᱱ
ᱠᱚᱨᱯᱚᱨᱮᱴ
ᱠᱚᱨᱯᱳᱨᱮᱥᱚᱱ
ᱠᱚᱨᱰ
ᱠᱚᱨᱱᱚᱞ
ᱠᱚᱨᱱᱟ
ᱠᱚᱨᱱᱟᱞ
ᱠᱚᱨᱱᱟᱞᱤ
ᱠᱚᱨᱱᱟᱰ
ᱠᱚᱨᱱᱟᱴᱚᱠ
ᱠᱚᱨᱱᱟᱴᱚᱠᱚ
ᱠᱚᱨᱱᱟᱴᱚᱠᱤ
ᱠᱚᱨᱱᱮᱞ
ᱠᱚᱨᱳᱱᱟ
ᱠᱚᱨᱳᱱᱟᱵᱷᱟᱭᱨᱟᱥ
ᱠᱚᱨᱴ
ᱠᱚᱨᱵᱟ
ᱠᱚᱨᱵᱩᱡᱤᱭᱟᱨ
ᱠᱚᱨᱵᱮᱴ
ᱠᱚᱪ
ᱠᱚᱪᱚ
ᱠᱚᱪᱚᱞᱚᱸᱰ
ᱠᱚᱪᱞᱚᱱ
ᱠᱚᱪᱟ
ᱠᱚᱪᱤ
ᱠᱚᱪᱩᱣᱟ
ᱠᱚᱫᱚ
ᱠᱚᱫᱚᱠᱚ
ᱠᱚᱫᱚᱢ
ᱠᱚᱫᱚᱨ
ᱠᱚᱫᱚᱭ
ᱠᱚᱬ
ᱠᱚᱬᱟᱨᱠ
ᱠᱚᱬᱟᱨᱠᱚ
ᱠᱚᱭ
ᱠᱚᱭᱚᱜ
ᱠᱚᱭᱛᱷᱚᱞ
ᱠᱚᱭᱞᱟ
ᱠᱚᱭᱞᱟᱥ
ᱠᱚᱭᱞᱟᱧᱪᱟᱞ
ᱠᱚᱭᱟ
ᱠᱚᱭᱟᱜ
ᱠᱚᱭᱟᱢᱵᱚᱴᱩᱨ
ᱠᱚᱭᱟᱢᱵᱟᱴᱩᱨ
ᱠᱚᱭᱤᱡ
ᱠᱚᱭᱨᱟ
ᱠᱚᱭᱮ
ᱠᱚᱭᱮᱞ
ᱠᱚᱭᱮᱠ
ᱠᱚᱭᱮᱸ
ᱠᱚᱭᱱᱟ
ᱠᱚᱭᱲᱟᱥ
ᱠᱚᱮᱟ
ᱠᱚᱮᱟᱜ
ᱠᱚᱯ
ᱠᱚᱯᱚᱨ
ᱠᱚᱯᱛᱟᱱ
ᱠᱚᱯᱟᱰᱤᱭᱟ
ᱠᱚᱯᱟᱲ
ᱠᱚᱯᱤᱞ
ᱠᱚᱯᱤᱲᱟᱥ
ᱠᱚᱯᱩᱨ
ᱠᱚᱯᱯᱟᱞ
ᱠᱚᱯᱷᱤ
ᱠᱚᱰ
ᱠᱚᱰᱚᱯᱯᱟ
ᱠᱚᱰᱟᱜᱩ
ᱠᱚᱰᱟᱣᱟ
ᱠᱚᱰᱟᱨᱢᱟ
ᱠᱚᱱ
ᱠᱚᱱᱚ
ᱠᱚᱱᱚᱠ
ᱠᱚᱱᱚᱠᱚ
ᱠᱚᱱᱚᱰᱚ
ᱠᱚᱱᱟ
ᱠᱚᱱᱟᱰᱟ
ᱠᱚᱱᱠᱟᱱᱤ
ᱠᱚᱱᱤᱠᱟ
ᱠᱚᱱᱥᱚᱨᱴ
ᱠᱚᱱᱥᱟᱨᱴ
ᱠᱚᱱᱥᱤᱞ
ᱠᱚᱱᱥᱮᱯᱴ
ᱠᱚᱱᱦᱳᱯᱚᱛᱨᱟ
ᱠᱚᱱᱨᱟᱰ
ᱠᱚᱱᱫᱷᱚᱢᱟᱲ
ᱠᱚᱱᱭᱟ
ᱠᱚᱱᱮᱠᱴᱤᱠᱟᱴ
ᱠᱚᱱᱯᱷᱚᱨᱮᱱᱥ
ᱠᱚᱱᱯᱷᱩᱥᱤᱭᱚᱥ
ᱠᱚᱱᱰᱟ
ᱠᱚᱱᱰᱤᱥᱚᱱ
ᱠᱚᱱᱰᱳᱢ
ᱠᱚᱱᱱᱚᱰ
ᱠᱚᱱᱱᱚᱰᱚ
ᱠᱚᱱᱱᱚᱲ
ᱠᱚᱱᱱᱟ
ᱠᱚᱱᱱᱟᱲ
ᱠᱚᱱᱴᱨᱚᱞ
ᱠᱚᱱᱴᱨᱚᱞᱮᱰ
ᱠᱚᱱᱴᱨᱳᱞ
ᱠᱚᱱᱴᱮᱠᱴ
ᱠᱚᱱᱴᱮᱱᱚᱨ
ᱠᱚᱱᱵᱷᱮᱱᱚᱨ
ᱠᱚᱱᱵᱷᱮᱱᱥᱚᱱ
ᱠᱚᱱᱵᱷᱮᱱᱴ
ᱠᱚᱱᱵᱷᱮᱸᱴ
ᱠᱚᱲ
ᱠᱚᱲᱜᱚᱢ
ᱠᱚᱲᱟ
ᱠᱚᱲᱟᱠᱟᱨ
ᱠᱚᱲᱟᱢ
ᱠᱚᱲᱟᱣᱟᱜ
ᱠᱚᱲᱟᱦᱟᱱᱰᱤ
ᱠᱚᱲᱟᱭ
ᱠᱚᱲᱤᱝᱜᱚ
ᱠᱚᱲᱯᱚᱱᱟ
ᱠᱚᱴ
ᱠᱚᱴᱚᱠ
ᱠᱚᱴᱚᱱ
ᱠᱚᱴᱞᱤ
ᱠᱚᱴᱟ
ᱠᱚᱴᱟᱵ
ᱠᱚᱴᱤ
ᱠᱚᱴᱫᱣᱟᱨ
ᱠᱚᱴᱴᱟᱭᱟᱢ
ᱠᱚᱴᱷᱟᱜᱩᱰᱮᱢ
ᱠᱚᱴᱷᱟᱨᱤ
ᱠᱚᱴᱷᱮ
ᱠᱚᱴᱷᱮᱫ
ᱠᱚᱴᱷᱮᱱ
ᱠᱚᱵᱚᱨᱚᱛᱤ
ᱠᱚᱵᱟᱰᱤ
ᱠᱚᱵᱡ
ᱠᱚᱵᱤ
ᱠᱚᱵᱤᱛᱟ
ᱠᱚᱵᱤᱨ
ᱠᱚᱵᱤᱱᱫᱽ
ᱠᱚᱵᱷᱚᱨ
ᱠᱚᱵᱷᱤ
ᱠᱚᱵᱽᱡᱟ
ᱠᱚᱶᱟ
ᱠᱚᱶᱟᱜ
ᱠᱚᱷᱱ
ᱠᱚᱸ
ᱠᱚᱸᱜᱨᱮᱥ
ᱠᱚᱸᱜᱮᱨᱮᱥ
ᱠᱚᱸᱜᱽᱨᱮᱥ
ᱠᱚᱸᱠᱚᱬ
ᱠᱚᱸᱠᱨᱤᱴ
ᱠᱚᱸᱠᱬᱤ
ᱠᱚᱸᱡᱮ
ᱠᱚᱸᱥᱟ
ᱠᱚᱸᱥᱟᱵᱚᱛᱤ
ᱠᱚᱸᱧᱮ
ᱠᱚᱸᱪ
ᱠᱚᱸᱭ
ᱠᱚᱸᱭᱮ
ᱠᱚᱸᱭᱮᱸ
ᱠᱚᱸᱭᱮᱼᱥᱟᱢᱟᱝ
ᱠᱚᱸᱭᱮᱼᱯᱟᱪᱮ
ᱠᱚᱸᱭᱰᱟ
ᱠᱚᱸᱰ
ᱠᱚᱺ
ᱠᱛᱤ
ᱠᱛᱤᱜ
ᱠᱛᱤᱜᱼᱟ
ᱠᱛᱤᱭᱟ
ᱠᱛᱤᱭᱟᱱ
ᱠᱜᱚᱱ
ᱠᱞᱚᱨᱠ
ᱠᱞᱚᱵ
ᱠᱞᱚᱵᱽ
ᱠᱞᱟᱥ
ᱠᱞᱟᱥᱤᱠ
ᱠᱞᱟᱥᱤᱠᱚᱞ
ᱠᱞᱟᱥᱤᱠᱟᱞ
ᱠᱞᱟᱥᱤᱠᱮᱞ
ᱠᱞᱟᱥᱤᱯᱷᱤᱰ
ᱠᱞᱟᱨᱠ
ᱠᱞᱟᱭᱤᱰ
ᱠᱞᱟᱵ
ᱠᱞᱟᱵᱽ
ᱠᱞᱤᱱ
ᱠᱞᱤᱱᱤᱠ
ᱠᱞᱤᱱᱤᱠᱟᱞ
ᱠᱞᱤᱱᱴᱚᱱ
ᱠᱟ
ᱠᱟᱛ
ᱠᱟᱛᱟ
ᱠᱟᱛᱟᱞᱟᱱ
ᱠᱟᱛᱟᱨ
ᱠᱟᱛᱟᱨᱮ
ᱠᱟᱛᱟᱭ
ᱠᱟᱛᱟᱲ
ᱠᱟᱛᱡᱩ
ᱠᱟᱛᱣᱟᱨ
ᱠᱟᱛᱦᱟ
ᱠᱟᱛᱮ
ᱠᱟᱛᱮᱜ
ᱠᱟᱛᱮᱜᱮ
ᱠᱟᱛᱮᱠᱚ
ᱠᱟᱛᱮᱡ
ᱠᱟᱛᱮᱡᱽ
ᱠᱟᱛᱮᱢ
ᱠᱟᱛᱮᱫ
ᱠᱟᱛᱮᱭ
ᱠᱟᱛᱮᱭᱮ
ᱠᱟᱛᱮᱱ
ᱠᱟᱛᱷᱚᱞᱤᱠ
ᱠᱟᱛᱷᱟ
ᱠᱟᱛᱷᱟᱠ
ᱠᱟᱛᱷᱟᱡ
ᱠᱟᱛᱷᱟᱨᱮ
ᱠᱟᱛᱷᱟᱭ
ᱠᱟᱛᱷᱤᱠᱩᱱᱰ
ᱠᱟᱛᱷᱤᱠᱩᱸᱫ
ᱠᱟᱜ
ᱠᱟᱜᱚᱡ
ᱠᱟᱜᱚᱡᱤᱭᱟᱹ
ᱠᱟᱜᱚᱡᱽ
ᱠᱟᱜᱼᱟ
ᱠᱟᱝᱜᱽᱲᱟ
ᱠᱟᱝᱜᱽᱲᱤ
ᱠᱟᱝᱞᱟ
ᱠᱟᱝᱠᱮᱨ
ᱠᱟᱞ
ᱠᱟᱞᱚᱴ
ᱠᱟᱞᱟ
ᱠᱟᱞᱟᱛ
ᱠᱟᱞᱟᱠᱚᱨ
ᱠᱟᱞᱟᱠᱟᱨ
ᱠᱟᱞᱟᱢ
ᱠᱟᱞᱟᱢᱟᱱ
ᱠᱟᱞᱟᱭ
ᱠᱟᱞᱟᱱ
ᱠᱟᱞᱟᱱᱤᱫᱷᱤ
ᱠᱟᱞᱠᱟ
ᱠᱟᱞᱠᱟᱛᱛᱟ
ᱠᱟᱞᱠᱤ
ᱠᱟᱞᱢᱤᱠ
ᱠᱟᱞᱤ
ᱠᱟᱞᱤᱜᱚᱸᱡᱽ
ᱠᱟᱞᱤᱜᱷᱟᱴ
ᱠᱟᱞᱤᱠᱚᱴ
ᱠᱟᱞᱤᱠᱟ
ᱠᱟᱞᱤᱠᱟᱯᱩᱨ
ᱠᱟᱞᱤᱠᱟᱴ
ᱠᱟᱞᱤᱢᱟᱱᱛᱟᱱ
ᱠᱟᱞᱤᱢᱯᱚᱝ
ᱠᱟᱞᱤᱫᱟᱥ
ᱠᱟᱞᱤᱭᱟ
ᱠᱟᱞᱤᱯᱷᱚᱨᱱᱤᱭᱟ
ᱠᱟᱞᱤᱯᱷᱳᱨᱱᱤᱭᱟ
ᱠᱟᱞᱤᱵᱳᱸᱜᱟ
ᱠᱟᱞᱥᱤᱭᱚᱢ
ᱠᱟᱞᱪᱟᱨ
ᱠᱟᱞᱪᱟᱨᱟᱞ
ᱠᱟᱞᱪᱤᱱᱤ
ᱠᱟᱞᱭᱟᱱᱤ
ᱠᱟᱞᱮ
ᱠᱟᱞᱮᱠᱴᱚᱨ
ᱠᱟᱞᱮᱠᱴᱟᱨ
ᱠᱟᱞᱮᱡᱽ
ᱠᱟᱞᱮᱱᱰᱟᱨ
ᱠᱟᱞᱮᱸᱰᱚᱨ
ᱠᱟᱞᱱᱟ
ᱠᱟᱞᱵᱷᱮᱨ
ᱠᱟᱟᱲᱟ
ᱠᱟᱠᱚ
ᱠᱟᱠᱚᱛᱤ
ᱠᱟᱠᱚᱣᱟ
ᱠᱟᱠᱚᱨᱟ
ᱠᱟᱠᱟ
ᱠᱟᱠᱤ
ᱠᱟᱠᱤᱱᱟᱰᱟ
ᱠᱟᱠᱪᱤᱝ
ᱠᱟᱠᱮᱥᱚᱥ
ᱠᱟᱠᱲᱟ
ᱠᱟᱠᱳᱰᱠᱚᱨ
ᱠᱟᱠᱷᱟᱱᱟᱜ
ᱠᱟᱡᱚᱞ
ᱠᱟᱡᱚᱞᱟᱜ
ᱠᱟᱡᱟᱠ
ᱠᱟᱡᱟᱠᱥᱛᱟᱱ
ᱠᱟᱡᱟᱠᱷ
ᱠᱟᱡᱤ
ᱠᱟᱡᱤᱯᱩᱨ
ᱠᱟᱡᱽ
ᱠᱟᱢ
ᱠᱟᱢᱛᱟᱯᱩᱨᱤ
ᱠᱟᱢᱞᱟ
ᱠᱟᱢᱟᱞ
ᱠᱟᱢᱟᱞᱟ
ᱠᱟᱢᱟᱠᱷᱭᱟ
ᱠᱟᱢᱟᱣ
ᱠᱟᱢᱟᱨ
ᱠᱟᱢᱟᱨᱠᱷᱚᱱᱫᱚ
ᱠᱟᱢᱟᱨᱮᱰᱰᱤ
ᱠᱟᱢᱟᱰ
ᱠᱟᱢᱟᱱ
ᱠᱟᱢᱠᱟᱡᱽ
ᱠᱟᱢᱤ
ᱠᱟᱢᱤᱦᱚᱨᱟ
ᱠᱟᱢᱤᱭᱟ
ᱠᱟᱢᱤᱱᱤ
ᱠᱟᱢᱨᱟ
ᱠᱟᱢᱨᱟᱱ
ᱠᱟᱢᱨᱩᱯ
ᱠᱟᱢᱨᱩᱯᱤ
ᱠᱟᱢᱪᱟᱴᱠᱟ
ᱠᱟᱢᱮᱝ
ᱠᱟᱢᱮᱨᱩᱱ
ᱠᱟᱢᱮᱰᱤ
ᱠᱟᱢᱯᱩᱪᱤᱭᱟ
ᱠᱟᱢᱰᱟᱨᱟ
ᱠᱟᱢᱵᱚᱰᱤᱭᱟ
ᱠᱟᱢᱵᱚᱰᱤᱭᱟᱱ
ᱠᱟᱣ
ᱠᱟᱣᱟ
ᱠᱟᱣᱟᱜ
ᱠᱟᱣᱟᱨ
ᱠᱟᱣᱟᱨᱫᱷᱟ
ᱠᱟᱣᱩᱞ
ᱠᱟᱣᱩᱱᱥᱤᱞ
ᱠᱟᱣᱭᱚ
ᱠᱟᱣᱰᱤ
ᱠᱟᱣᱱᱤᱭᱟ
ᱠᱟᱣᱱᱥᱤᱞ
ᱠᱟᱣᱱᱪᱤᱞ
ᱠᱟᱣᱱᱴᱤ
ᱠᱟᱥᱚᱨᱜᱚᱰ
ᱠᱟᱥᱛᱨᱚ
ᱠᱟᱥᱛᱩᱨᱵᱟ
ᱠᱟᱥᱜᱚᱸᱡᱽ
ᱠᱟᱥᱟ
ᱠᱟᱥᱟᱢ
ᱠᱟᱥᱟᱨ
ᱠᱟᱥᱟᱨᱤ
ᱠᱟᱥᱠᱚᱢ
ᱠᱟᱥᱠᱤ
ᱠᱟᱥᱢᱟᱨ
ᱠᱟᱥᱢᱤᱨ
ᱠᱟᱥᱢᱤᱨᱤ
ᱠᱟᱥᱤ
ᱠᱟᱥᱤᱯᱩᱨ
ᱠᱟᱥᱩᱵᱤᱭᱟᱱ
ᱠᱟᱥᱭᱚᱯ
ᱠᱟᱥᱯᱤᱭᱟᱱ
ᱠᱟᱥᱱᱤ
ᱠᱟᱥᱴ
ᱠᱟᱥᱴᱚᱢ
ᱠᱟᱥᱴᱤᱝ
ᱠᱟᱦᱟᱞᱩ
ᱠᱟᱦᱟᱨᱚ
ᱠᱟᱦᱟᱨᱚᱞ
ᱠᱟᱦᱟᱨᱳᱞ
ᱠᱟᱦᱟᱬᱤ
ᱠᱟᱦᱟᱱᱤ
ᱠᱟᱦᱤᱨᱟ
ᱠᱟᱦᱤᱱᱤ
ᱠᱟᱦᱱᱤ
ᱠᱟᱨ
ᱠᱟᱨᱚᱢ
ᱠᱟᱨᱚᱬ
ᱠᱟᱨᱚᱱ
ᱠᱟᱨᱚᱱᱛᱮ
ᱠᱟᱨᱚᱲ
ᱠᱟᱨᱚᱵᱟᱨ
ᱠᱟᱨᱛᱤᱠ
ᱠᱟᱨᱜᱚ
ᱠᱟᱨᱜᱟᱲ
ᱠᱟᱨᱜᱤᱞ
ᱠᱟᱨᱞ
ᱠᱟᱨᱞᱟ
ᱠᱟᱨᱟᱜᱟᱨ
ᱠᱟᱨᱟᱠᱟᱞᱯᱟᱠ
ᱠᱟᱨᱟᱠᱟᱥ
ᱠᱟᱨᱟᱡᱽ
ᱠᱟᱨᱟᱢ
ᱠᱟᱨᱟᱢᱤ
ᱠᱟᱨᱟᱣ
ᱠᱟᱨᱟᱦᱤ
ᱠᱟᱨᱟᱪᱤ
ᱠᱟᱨᱟᱬ
ᱠᱟᱨᱟᱱ
ᱠᱟᱨᱟᱴᱮ
ᱠᱟᱨᱟᱵᱟᱠᱷ
ᱠᱟᱨᱠᱟ
ᱠᱟᱨᱠᱟᱨᱤ
ᱠᱟᱨᱠᱤ
ᱠᱟᱨᱠᱷᱟᱱᱟ
ᱠᱟᱨᱢᱟ
ᱠᱟᱨᱢᱮᱞ
ᱠᱟᱨᱣᱟᱨ
ᱠᱟᱨᱤ
ᱠᱟᱨᱤᱜᱚᱞ
ᱠᱟᱨᱤᱭᱟᱨ
ᱠᱟᱨᱤᱱᱟ
ᱠᱟᱨᱩᱱ
ᱠᱟᱨᱮ
ᱠᱟᱨᱮᱝ
ᱠᱟᱨᱮᱞᱤᱭᱟᱱ
ᱠᱟᱨᱮᱠᱴᱟᱨ
ᱠᱟᱨᱮᱱ
ᱠᱟᱨᱮᱱᱟᱜ
ᱠᱟᱨᱯᱮᱴ
ᱠᱟᱨᱰ
ᱠᱟᱨᱱᱟᱞ
ᱠᱟᱨᱱᱟᱴᱚᱠ
ᱠᱟᱨᱱᱟᱴᱟᱠ
ᱠᱟᱨᱱᱟᱴᱟᱠᱟ
ᱠᱟᱨᱱᱟᱴᱤᱠ
ᱠᱟᱨᱳᱞᱤ
ᱠᱟᱨᱴᱟᱨ
ᱠᱟᱨᱴᱩᱱ
ᱠᱟᱨᱵᱚᱱ
ᱠᱟᱨᱵᱚᱱᱤᱠ
ᱠᱟᱨᱵᱚᱱᱮᱴ
ᱠᱟᱨᱵᱟᱨ
ᱠᱟᱨᱵᱤ
ᱠᱟᱨᱵᱳᱱᱮᱴ
ᱠᱟᱩᱰᱤ
ᱠᱟᱩᱱᱥᱤᱞ
ᱠᱟᱪᱟ
ᱠᱟᱪᱟᱨ
ᱠᱟᱪᱟᱨᱤ
ᱠᱟᱪᱤᱱ
ᱠᱟᱪᱨᱟ
ᱠᱟᱪᱪᱷ
ᱠᱟᱪᱷᱟ
ᱠᱟᱪᱷᱟᱨ
ᱠᱟᱪᱷᱤ
ᱠᱟᱪᱷᱮ
ᱠᱟᱫ
ᱠᱟᱫᱚᱢᱵᱤᱱᱤ
ᱠᱟᱫᱟ
ᱠᱟᱫᱟᱜᱼᱟ
ᱠᱟᱫᱟᱢ
ᱠᱟᱫᱟᱭ
ᱠᱟᱫᱩᱣᱟᱬᱤ
ᱠᱟᱫᱮ
ᱠᱟᱫᱮᱨ
ᱠᱟᱫᱮᱭᱟ
ᱠᱟᱫᱼᱟ
ᱠᱟᱬ
ᱠᱟᱬᱟ
ᱠᱟᱭ
ᱠᱟᱭᱛᱮ
ᱠᱟᱭᱟ
ᱠᱟᱭᱟᱦ
ᱠᱟᱭᱢᱩᱨ
ᱠᱟᱭᱤᱱ
ᱠᱟᱭᱥᱟᱨ
ᱠᱟᱭᱨᱚ
ᱠᱟᱭᱨᱟ
ᱠᱟᱭᱨᱟᱵᱚᱱᱤ
ᱠᱟᱭᱨᱳ
ᱠᱟᱭᱩᱱᱥᱤᱞ
ᱠᱟᱭᱫᱟ
ᱠᱟᱭᱰᱮᱱ
ᱠᱟᱯ
ᱠᱟᱯᱟᱢᱯᱟᱝᱜᱟᱱ
ᱠᱟᱯᱤᱞ
ᱠᱟᱯᱩᱨ
ᱠᱟᱯᱳᱨ
ᱠᱟᱯᱴᱮᱱ
ᱠᱟᱯᱷᱤ
ᱠᱟᱰᱟ
ᱠᱟᱰᱟᱯᱟ
ᱠᱟᱰᱮᱡ
ᱠᱟᱱ
ᱠᱟᱱᱚᱱ
ᱠᱟᱱᱛ
ᱠᱟᱱᱛᱚ
ᱠᱟᱱᱛᱟᱦᱮᱸᱫ
ᱠᱟᱱᱛᱟᱭᱟ
ᱠᱟᱱᱛᱤ
ᱠᱟᱱᱛᱮ
ᱠᱟᱱᱟ
ᱠᱟᱱᱟᱜ
ᱠᱟᱱᱟᱠᱚ
ᱠᱟᱱᱟᱠᱤᱱ
ᱠᱟᱱᱟᱠᱩ
ᱠᱟᱱᱟᱢ
ᱠᱟᱱᱟᱨᱟ
ᱠᱟᱱᱟᱭ
ᱠᱟᱱᱟᱭᱟ
ᱠᱟᱱᱟᱭᱮ
ᱠᱟᱱᱟᱰᱟ
ᱠᱟᱱᱟᱰᱤᱭᱟᱱ
ᱠᱟᱱᱟᱱ
ᱠᱟᱱᱟᱺ
ᱠᱟᱱᱟᱼ
ᱠᱟᱱᱣᱟ
ᱠᱟᱱᱥᱟᱥ
ᱠᱟᱱᱦᱟ
ᱠᱟᱱᱦᱟᱭᱟ
ᱠᱟᱱᱦᱩ
ᱠᱟᱱᱩᱨᱤ
ᱠᱟᱱᱩᱱ
ᱠᱟᱱᱩᱱᱜᱳ
ᱠᱟᱱᱪᱤᱯᱩᱨᱚᱢ
ᱠᱟᱱᱫᱟᱦᱟᱨ
ᱠᱟᱱᱫᱤ
ᱠᱟᱱᱭ
ᱠᱟᱱᱭᱟ
ᱠᱟᱱᱭᱟᱠᱩᱢᱟᱨᱤ
ᱠᱟᱱᱮ
ᱠᱟᱱᱯᱩᱨ
ᱠᱟᱱᱰᱤᱰᱮᱴ
ᱠᱟᱱᱰᱨᱟ
ᱠᱟᱱᱱᱟᱰᱟ
ᱠᱟᱱᱱᱟᱲ
ᱠᱟᱱᱱᱟᱲᱟ
ᱠᱟᱱᱱᱩᱨ
ᱠᱟᱱᱱᱳᱡᱽ
ᱠᱟᱱᱴᱚᱱᱢᱮᱱᱴ
ᱠᱟᱱᱴᱟ
ᱠᱟᱱᱴᱨᱚᱞ
ᱠᱟᱱᱴᱨᱤ
ᱠᱟᱱᱴᱷᱟᱲ
ᱠᱟᱲᱚ
ᱠᱟᱲᱟ
ᱠᱟᱲᱤ
ᱠᱟᱲᱤᱫᱟᱥ
ᱠᱟᱲᱤᱭᱟ
ᱠᱟᱲᱪᱟᱲᱼᱮᱫᱟ
ᱠᱟᱲᱮ
ᱠᱟᱴ
ᱠᱟᱴᱟ
ᱠᱟᱴᱟᱣ
ᱠᱟᱴᱠᱚᱢ
ᱠᱟᱴᱣᱟ
ᱠᱟᱴᱤᱡ
ᱠᱟᱴᱤᱦᱟᱨ
ᱠᱟᱴᱮ
ᱠᱟᱴᱱᱤ
ᱠᱟᱴᱳᱣᱟ
ᱠᱟᱴᱷ
ᱠᱟᱴᱷᱚᱢᱟᱰᱳᱣ
ᱠᱟᱴᱷᱚᱵᱷᱟᱨᱤᱭᱟ
ᱠᱟᱴᱷᱜᱚᱫᱟᱢ
ᱠᱟᱴᱷᱟ
ᱠᱟᱴᱷᱢᱟᱱᱰᱩ
ᱠᱟᱴᱷᱢᱟᱸᱰᱩ
ᱠᱟᱴᱷᱤᱭᱟᱣᱟᱲ
ᱠᱟᱴᱷᱩᱣᱟ
ᱠᱟᱵᱟ
ᱠᱟᱵᱟᱭ
ᱠᱟᱵᱟᱭᱤᱞ
ᱠᱟᱵᱤᱞ
ᱠᱟᱵᱤᱞᱟ
ᱠᱟᱵᱤᱨ
ᱠᱟᱵᱩᱞ
ᱠᱟᱵᱩᱭ
ᱠᱟᱵᱭᱚ
ᱠᱟᱵᱮᱨᱤ
ᱠᱟᱵᱷᱤ
ᱠᱟᱵᱽᱡᱟ
ᱠᱟᱶᱱᱥᱤᱞ
ᱠᱟᱷᱹᱛᱤᱨ
ᱠᱟᱸᱛ
ᱠᱟᱸᱛᱷᱤ
ᱠᱟᱸᱜᱽᱨᱮᱥ
ᱠᱟᱸᱠᱮ
ᱠᱟᱸᱥᱟ
ᱠᱟᱸᱥᱤᱨᱟᱢ
ᱠᱟᱸᱪ
ᱠᱟᱸᱪᱤᱯᱩᱨᱚᱢ
ᱠᱟᱸᱰᱟ
ᱠᱟᱸᱰᱮ
ᱠᱟᱹᱛᱤ
ᱠᱟᱹᱞᱤ
ᱠᱟᱹᱞᱨᱤᱯᱟᱹᱭᱟᱹᱴᱴᱩ
ᱠᱟᱹᱠᱤ
ᱠᱟᱹᱡ
ᱠᱟᱹᱡᱽᱣᱟᱹ
ᱠᱟᱹᱢᱤ
ᱠᱟᱹᱢᱤᱜ
ᱠᱟᱹᱢᱤᱠᱚ
ᱠᱟᱹᱢᱤᱠᱛᱚ
ᱠᱟᱹᱢᱤᱠᱩ
ᱠᱟᱹᱢᱤᱣᱠᱟᱫᱟ
ᱠᱟᱹᱢᱤᱥᱟᱲᱟ
ᱠᱟᱹᱢᱤᱦᱚᱨᱟ
ᱠᱟᱹᱢᱤᱦᱚᱨᱟᱭ
ᱠᱟᱹᱢᱤᱦᱩᱨᱟ
ᱠᱟᱹᱢᱤᱨᱮ
ᱠᱟᱹᱢᱤᱭ
ᱠᱟᱹᱢᱤᱭᱟ
ᱠᱟᱹᱢᱤᱭᱟᱜ
ᱠᱟᱹᱢᱤᱭᱟᱭ
ᱠᱟᱹᱢᱤᱭᱟᱱ
ᱠᱟᱹᱢᱤᱭᱟᱹ
ᱠᱟᱹᱢᱤᱭᱟᱹᱭ
ᱠᱟᱹᱢᱤᱭᱤᱡ
ᱠᱟᱹᱢᱤᱭᱮ
ᱠᱟᱹᱢᱤᱭᱮᱫ
ᱠᱟᱹᱢᱤᱱᱟᱝ
ᱠᱟᱹᱢᱨᱩᱯ
ᱠᱟᱹᱢᱨᱩᱯᱤ
ᱠᱟᱹᱢᱭᱟᱹ
ᱠᱟᱹᱣᱰᱤ
ᱠᱟᱹᱣᱰᱤᱟᱱ
ᱠᱟᱹᱣᱰᱤᱟᱹᱨᱤ
ᱠᱟᱹᱣᱰᱤᱭ
ᱠᱟᱹᱣᱰᱤᱭᱟᱹᱨᱤ
ᱠᱟᱹᱣᱰᱤᱼᱟᱹᱨᱤ
ᱠᱟᱹᱥᱢᱤᱨ
ᱠᱟᱹᱥᱢᱤᱨᱤ
ᱠᱟᱹᱥᱱᱤ
ᱠᱟᱹᱦᱟᱹᱱᱤ
ᱠᱟᱹᱦᱤᱞ
ᱠᱟᱹᱦᱤᱱᱤ
ᱠᱟᱹᱦᱩ
ᱠᱟᱹᱦᱱᱤ
ᱠᱟᱹᱨᱜᱟᱲ
ᱠᱟᱹᱨᱜᱟᱹᱲ
ᱠᱟᱹᱨᱠᱷᱟᱱᱟ
ᱠᱟᱹᱨᱤ
ᱠᱟᱹᱨᱫᱷᱟᱹᱱᱤ
ᱠᱟᱹᱪᱷᱤ
ᱠᱟᱹᱭ
ᱠᱟᱹᱭᱫᱷᱤ
ᱠᱟᱹᱯᱤ
ᱠᱟᱹᱱᱟᱹᱧ
ᱠᱟᱹᱱᱦᱩ
ᱠᱟᱹᱱᱩ
ᱠᱟᱹᱱᱩᱱ
ᱠᱟᱹᱲᱢᱤ
ᱠᱟᱹᱲᱤ
ᱠᱟᱹᱲᱵᱩᱝ
ᱠᱟᱹᱴᱤᱜ
ᱠᱟᱹᱴᱤᱡ
ᱠᱟᱹᱴᱤᱡᱟᱜ
ᱠᱟᱹᱴᱤᱡᱤᱡ
ᱠᱟᱹᱴᱤᱡᱽ
ᱠᱟᱹᱴᱩᱵ
ᱠᱟᱹᱴᱩᱵᱽ
ᱠᱟᱹᱴᱷᱤ
ᱠᱟᱹᱶᱰᱤ
ᱠᱟᱺᱣᱨᱤ
ᱠᱟᱺᱦᱤᱥ
ᱠᱟᱺᱦᱩᱸ
ᱠᱠᱚ
ᱠᱣᱟᱴᱚᱨ
ᱠᱣᱟᱴᱨᱚᱪᱤ
ᱠᱣᱤᱱ
ᱠᱣᱮᱫᱟ
ᱠᱣᱮᱴᱟ
ᱠᱤ
ᱠᱤᱜᱟᱞᱤ
ᱠᱤᱝ
ᱠᱤᱝᱜᱽᱥ
ᱠᱤᱝᱥ
ᱠᱤᱝᱰᱚᱢ
ᱠᱤᱞ
ᱠᱤᱞᱚ
ᱠᱤᱞᱚᱜᱨᱟᱢ
ᱠᱤᱞᱚᱢᱤᱴᱚᱨ
ᱠᱤᱞᱚᱢᱤᱴᱟᱨ
ᱠᱤᱞᱚᱢᱤᱴᱟᱹᱨ
ᱠᱤᱞᱟ
ᱠᱤᱞᱟᱢᱤᱴᱚᱨ
ᱠᱤᱞᱟᱱ
ᱠᱤᱞᱢᱟᱱ
ᱠᱤᱞᱤ
ᱠᱤᱞᱳ
ᱠᱤᱞᱳᱢᱤᱴᱚᱨ
ᱠᱤᱞᱳᱢᱤᱴᱟᱨ
ᱠᱤᱠ
ᱠᱤᱠᱤᱨ
ᱠᱤᱠᱩᱭᱩ
ᱠᱤᱢ
ᱠᱤᱢᱤ
ᱠᱤᱢᱤᱱ
ᱠᱤᱣᱩᱞ
ᱠᱤᱣᱵᱟ
ᱠᱤᱥ
ᱠᱤᱥᱚᱨ
ᱠᱤᱥᱚᱨᱜᱚᱧᱡᱽ
ᱠᱤᱥᱚᱨᱜᱚᱸᱡᱽ
ᱠᱤᱥᱛᱩᱣᱟᱨ
ᱠᱤᱥᱟ
ᱠᱤᱥᱟᱬ
ᱠᱤᱥᱟᱱ
ᱠᱤᱥᱟᱱᱜᱚᱸᱡᱽ
ᱠᱤᱥᱟᱸᱲ
ᱠᱤᱥᱟᱹᱬ
ᱠᱤᱥᱟᱹᱲ
ᱠᱤᱥᱟᱺᱲ
ᱠᱤᱥᱠᱩ
ᱠᱤᱥᱤᱢ
ᱠᱤᱥᱱᱤ
ᱠᱤᱥᱳᱨ
ᱠᱤᱥᱳᱨᱜᱚᱸᱡᱽ
ᱠᱤᱥᱷᱚᱨᱟᱣᱟᱥᱛᱷᱟ
ᱠᱤᱨᱚᱬ
ᱠᱤᱨᱚᱱ
ᱠᱤᱨᱛᱚᱱ
ᱠᱤᱨᱛᱤ
ᱠᱤᱨᱛᱷᱤ
ᱠᱤᱨᱜᱤᱡᱽ
ᱠᱤᱨᱜᱤᱡᱽᱥᱛᱟᱱ
ᱠᱤᱨᱟᱛ
ᱠᱤᱨᱟᱬ
ᱠᱤᱨᱟᱱᱟ
ᱠᱤᱨᱟᱸᱛ
ᱠᱤᱨᱤᱥᱛᱟᱱ
ᱠᱤᱨᱤᱧ
ᱠᱤᱨᱤᱧᱟ
ᱠᱤᱨᱤᱭᱟ
ᱠᱤᱨᱤᱭᱟᱹᱭ
ᱠᱤᱨᱤᱵᱩᱨᱩ
ᱠᱤᱨᱥᱤ
ᱠᱤᱨᱭᱟ
ᱠᱤᱨᱭᱟᱹᱭ
ᱠᱤᱨᱱᱟᱦᱟᱨ
ᱠᱤᱪᱚᱠᱮᱥᱣᱚᱨᱤ
ᱠᱤᱪᱦᱤ
ᱠᱤᱪᱨᱤᱡ
ᱠᱤᱪᱨᱤᱪ
ᱠᱤᱪᱩᱣᱟ
ᱠᱤᱪᱷᱤ
ᱠᱤᱪᱷᱩ
ᱠᱤᱪᱷᱩᱜᱟᱱ
ᱠᱤᱪᱷᱩᱫᱤᱱ
ᱠᱤᱫᱟ
ᱠᱤᱫᱤᱢ
ᱠᱤᱫᱤᱧ
ᱠᱤᱫᱤᱭᱟ
ᱠᱤᱭᱟ
ᱠᱤᱭᱟᱨᱟ
ᱠᱤᱭᱟᱱᱤ
ᱠᱤᱭᱟᱹ
ᱠᱤᱭᱮ
ᱠᱤᱯᱪᱟᱠ
ᱠᱤᱯᱷᱤᱨᱮ
ᱠᱤᱰᱱᱤ
ᱠᱤᱱ
ᱠᱤᱱᱛᱩ
ᱠᱤᱱᱟ
ᱠᱤᱱᱟᱜ
ᱠᱤᱱᱟᱭ
ᱠᱤᱱᱟᱵᱟᱞᱩ
ᱠᱤᱱᱟᱹ
ᱠᱤᱱᱤᱡ
ᱠᱤᱱᱥᱟᱥᱟ
ᱠᱤᱱᱫᱚ
ᱠᱤᱱᱭᱟᱨᱣᱟᱱᱰᱟ
ᱠᱤᱱᱰᱟᱨ
ᱠᱤᱱᱱᱚᱨ
ᱠᱤᱱᱱᱳᱨ
ᱠᱤᱲᱟ
ᱠᱤᱴ
ᱠᱤᱵᱳᱨᱰ
ᱠᱤᱸᱜ
ᱠᱤᱹᱢᱤ
ᱠᱤᱹᱢᱤᱹ
ᱠᱦᱚᱱ
ᱠᱦᱚᱱᱮ
ᱠᱦᱟᱛᱤᱨ
ᱠᱦᱟᱱ
ᱠᱨᱚᱢ
ᱠᱨᱚᱢᱚᱡᱚᱢ
ᱠᱨᱚᱥ
ᱠᱨᱚᱥᱤᱝ
ᱠᱨᱟ
ᱠᱨᱟᱭ
ᱠᱨᱟᱭᱢᱤᱭᱟᱱ
ᱠᱨᱟᱭᱤᱢ
ᱠᱨᱟᱱᱛᱤ
ᱠᱨᱟᱱᱛᱤᱭᱚ
ᱠᱨᱟᱸᱛᱤ
ᱠᱨᱤ
ᱠᱨᱤᱛᱤ
ᱠᱨᱤᱛᱨᱤᱢ
ᱠᱨᱤᱠ
ᱠᱨᱤᱠᱮᱴ
ᱠᱨᱤᱠᱮᱴᱚᱨ
ᱠᱨᱤᱠᱮᱴᱟᱨ
ᱠᱨᱤᱢ
ᱠᱨᱤᱢᱤᱱᱟᱞ
ᱠᱨᱤᱥ
ᱠᱨᱤᱥᱚᱠ
ᱠᱨᱤᱥᱛᱟᱱ
ᱠᱨᱤᱥᱟᱱ
ᱠᱨᱤᱥᱢᱟᱥ
ᱠᱨᱤᱥᱤ
ᱠᱨᱤᱥᱫᱟᱭᱟᱱᱛᱤ
ᱠᱨᱤᱥᱱᱚ
ᱠᱨᱤᱥᱱᱚᱠᱩᱞᱤ
ᱠᱨᱤᱥᱱᱚᱱ
ᱠᱨᱤᱥᱱᱚᱱᱚᱜᱚᱨ
ᱠᱨᱤᱥᱱᱟ
ᱠᱨᱤᱥᱱᱟᱜᱤᱨᱤ
ᱠᱨᱤᱥᱱᱟᱢᱩᱨᱛᱤ
ᱠᱨᱤᱥᱱᱟᱱ
ᱠᱨᱤᱥᱴ
ᱠᱨᱤᱥᱴᱟᱱ
ᱠᱨᱤᱥᱴᱤᱭᱟᱱ
ᱠᱨᱤᱭᱟ
ᱠᱨᱤᱭᱟᱹ
ᱠᱨᱤᱴᱤᱠ
ᱠᱨᱤᱴᱤᱠᱟᱞ
ᱠᱨᱤᱴᱤᱠᱥ
ᱠᱨᱩᱡᱽ
ᱠᱨᱩᱥ
ᱠᱨᱩᱥᱱᱚ
ᱠᱨᱩᱥᱱᱟ
ᱠᱨᱮᱠ
ᱠᱨᱮᱭᱳᱞ
ᱠᱨᱮᱰᱤᱴ
ᱠᱨᱳᱥ
ᱠᱨᱳᱥᱤᱝ
ᱠᱨᱳᱥᱤᱱ
ᱠᱨᱳᱭᱮᱥᱤᱭᱟ
ᱠᱨᱳᱭᱮᱥᱤᱭᱟᱱ
ᱠᱩ
ᱠᱩᱛᱚᱵᱽ
ᱠᱩᱛᱩᱵᱽ
ᱠᱩᱜ
ᱠᱩᱝ
ᱠᱩᱝᱠᱟᱹᱞ
ᱠᱩᱞ
ᱠᱩᱞᱜᱟᱢ
ᱠᱩᱞᱞᱩ
ᱠᱩᱞᱟ
ᱠᱩᱞᱟᱹᱭ
ᱠᱩᱞᱤ
ᱠᱩᱞᱤᱟᱱᱟ
ᱠᱩᱞᱤᱠ
ᱠᱩᱞᱤᱱ
ᱠᱩᱞᱦᱤ
ᱠᱩᱞᱫᱤᱯ
ᱠᱩᱞᱯᱚᱛᱤ
ᱠᱩᱞᱴᱤᱠᱨᱤ
ᱠᱩᱠ
ᱠᱩᱠᱞᱤ
ᱠᱩᱠᱢᱩ
ᱠᱩᱠᱢᱩᱭ
ᱠᱩᱠᱤ
ᱠᱩᱠᱩ
ᱠᱩᱠᱲᱩ
ᱠᱩᱠᱷᱤ
ᱠᱩᱡᱩ
ᱠᱩᱡᱩᱨ
ᱠᱩᱡᱽ
ᱠᱩᱢᱟᱣᱩᱱ
ᱠᱩᱢᱟᱣᱩᱱᱤ
ᱠᱩᱢᱟᱣᱩᱸ
ᱠᱩᱢᱟᱣᱱᱤ
ᱠᱩᱢᱟᱨ
ᱠᱩᱢᱟᱨᱠᱷᱟᱞᱤ
ᱠᱩᱢᱟᱨᱤ
ᱠᱩᱢᱟᱨᱯᱩᱨ
ᱠᱩᱢᱠᱩᱢ
ᱠᱩᱢᱤᱞᱞᱟ
ᱠᱩᱢᱤᱨᱫᱟᱦᱟ
ᱠᱩᱢᱤᱴᱤ
ᱠᱩᱢᱩᱫᱤᱱᱤ
ᱠᱩᱢᱩᱴ
ᱠᱩᱢᱮ
ᱠᱩᱢᱯᱟ
ᱠᱩᱢᱯᱟᱹᱱᱤ
ᱠᱩᱢᱲᱩ
ᱠᱩᱢᱵᱲᱩ
ᱠᱩᱢᱵᱽᱲᱩ
ᱠᱩᱣᱟ
ᱠᱩᱣᱟᱜ
ᱠᱩᱣᱟᱞᱟ
ᱠᱩᱣᱟᱭᱛ
ᱠᱩᱣᱟᱴᱚᱨ
ᱠᱩᱣᱮᱛ
ᱠᱩᱥ
ᱠᱩᱥᱛᱤ
ᱠᱩᱥᱟᱹᱞ
ᱠᱩᱥᱢᱤ
ᱠᱩᱥᱤ
ᱠᱩᱥᱤᱜ
ᱠᱩᱥᱤᱭᱟᱜ
ᱠᱩᱥᱤᱭᱟᱜᱼᱟ
ᱠᱩᱥᱤᱭᱟᱫ
ᱠᱩᱥᱤᱭᱟᱫᱟ
ᱠᱩᱥᱤᱭᱟᱱ
ᱠᱩᱥᱤᱱᱚᱜᱚᱨ
ᱠᱩᱥᱩᱢ
ᱠᱩᱥᱩᱢᱠᱩᱢᱟᱨᱤ
ᱠᱩᱥᱩᱢᱤ
ᱠᱩᱥᱴᱤᱭᱟ
ᱠᱩᱦᱲᱟᱹ
ᱠᱩᱧ
ᱠᱩᱨ
ᱠᱩᱨᱜᱽ
ᱠᱩᱨᱟᱱ
ᱠᱩᱨᱢᱟᱞᱤ
ᱠᱩᱨᱢᱤ
ᱠᱩᱨᱣᱟᱹ
ᱠᱩᱨᱤ
ᱠᱩᱨᱩ
ᱠᱩᱨᱩᱝ
ᱠᱩᱨᱩᱠᱷ
ᱠᱩᱨᱩᱠᱷᱮᱛᱨᱚ
ᱠᱩᱨᱩᱢᱩᱴᱩ
ᱠᱩᱨᱩᱢᱩᱴᱩᱭᱟ
ᱠᱩᱨᱩᱯ
ᱠᱩᱨᱫᱤᱥ
ᱠᱩᱨᱫᱽ
ᱠᱩᱨᱯᱟᱹᱱᱤᱭᱟ
ᱠᱩᱨᱱᱩᱞ
ᱠᱩᱨᱵᱟᱱᱤ
ᱠᱩᱪ
ᱠᱩᱪᱟᱹᱭ
ᱠᱩᱪᱤ
ᱠᱩᱪᱤᱯᱩᱰᱤ
ᱠᱩᱪᱤᱯᱩᱲᱤ
ᱠᱩᱪᱪᱷᱤ
ᱠᱩᱪᱵᱤᱦᱟᱨ
ᱠᱩᱪᱷ
ᱠᱩᱫ
ᱠᱩᱫᱤᱭᱟᱴᱴᱟᱢ
ᱠᱩᱫᱩᱢ
ᱠᱩᱫᱽ
ᱠᱩᱬᱟᱞ
ᱠᱩᱬᱤ
ᱠᱩᱭᱞᱟ
ᱠᱩᱭᱞᱟᱹ
ᱠᱩᱭᱞᱤ
ᱠᱩᱭᱟ
ᱠᱩᱭᱤᱱ
ᱠᱩᱭᱮᱛ
ᱠᱩᱯ
ᱠᱩᱯᱣᱟᱲᱟ
ᱠᱩᱯᱩᱞᱤ
ᱠᱩᱰᱟᱹᱢ
ᱠᱩᱰᱤ
ᱠᱩᱰᱰᱟᱞᱳᱨ
ᱠᱩᱱᱟ
ᱠᱩᱱᱟᱞ
ᱠᱩᱱᱟᱹᱢᱤ
ᱠᱩᱱᱤ
ᱠᱩᱱᱰᱚ
ᱠᱩᱱᱰᱩ
ᱠᱩᱲᱟ
ᱠᱩᱲᱟᱭ
ᱠᱩᱲᱟᱹᱣ
ᱠᱩᱲᱟᱹᱭ
ᱠᱩᱲᱢᱟᱞᱤ
ᱠᱩᱲᱤ
ᱠᱩᱲᱤᱜᱨᱟᱢ
ᱠᱩᱲᱤᱫ
ᱠᱩᱲᱤᱭ
ᱠᱩᱲᱤᱭᱟ
ᱠᱩᱲᱤᱭᱟᱜ
ᱠᱩᱲᱦᱟᱹ
ᱠᱩᱲᱩᱠᱷ
ᱠᱩᱲᱪᱟᱹ
ᱠᱩᱴ
ᱠᱩᱴᱟᱢ
ᱠᱩᱴᱟᱹᱢ
ᱠᱩᱴᱟᱹᱥᱤ
ᱠᱩᱴᱤ
ᱠᱩᱴᱤᱭᱟᱴᱴᱚᱢ
ᱠᱩᱴᱱᱤᱛᱤ
ᱠᱩᱴᱴᱤ
ᱠᱩᱴᱷᱤ
ᱠᱩᱴᱷᱤᱱ
ᱠᱩᱵᱮᱛ
ᱠᱩᱶᱟᱹᱨ
ᱠᱩᱸᱫᱽᱨᱟ
ᱠᱩᱸᱭ
ᱠᱩᱸᱭᱰᱤ
ᱠᱩᱸᱰ
ᱠᱩᱸᱰᱟ
ᱠᱩᱸᱵᱟ
ᱠᱩᱸᱵᱟᱹ
ᱠᱩᱸᱵᱽᱲᱩ
ᱠᱫᱚ
ᱠᱭᱟ
ᱠᱭᱟᱢᱯᱚᱥ
ᱠᱭᱟᱱᱵᱮᱨᱟ
ᱠᱭᱤ
ᱠᱭᱩ
ᱠᱭᱩᱨᱤ
ᱠᱭᱩᱵᱤᱠ
ᱠᱮ
ᱠᱮᱛ
ᱠᱮᱛᱚᱱ
ᱠᱮᱛᱨᱚ
ᱠᱮᱛᱮ
ᱠᱮᱛᱷᱚᱞᱤᱠ
ᱠᱮᱛᱷᱟᱞᱤᱠ
ᱠᱮᱛᱷᱨᱤᱱ
ᱠᱮᱜ
ᱠᱮᱜᱼᱟ
ᱠᱮᱜᱼᱟᱭ
ᱠᱮᱝᱜᱟᱨᱩ
ᱠᱮᱞᱟᱥ
ᱠᱮᱞᱟᱨ
ᱠᱮᱞᱤ
ᱠᱮᱞᱤᱯᱷᱚᱨᱱᱤᱭᱟ
ᱠᱮᱞᱤᱯᱷᱳᱨᱱᱤᱭᱟ
ᱠᱮᱞᱥᱤᱭᱟᱢ
ᱠᱮᱞᱩᱪᱚᱨᱚᱬ
ᱠᱮᱞᱮᱡᱽ
ᱠᱮᱞᱮᱱᱰᱚᱨ
ᱠᱮᱞᱮᱱᱰᱟᱨ
ᱠᱮᱞᱴᱤᱠ
ᱠᱮᱟ
ᱠᱮᱟᱟ
ᱠᱮᱟᱭ
ᱠᱮᱠᱟ
ᱠᱮᱠᱟᱛᱮ
ᱠᱮᱠᱟᱱ
ᱠᱮᱠᱤ
ᱠᱮᱠᱮ
ᱠᱮᱠᱷᱟ
ᱠᱮᱠᱷᱟᱱ
ᱠᱮᱡ
ᱠᱮᱡᱤ
ᱠᱮᱡᱽᱨᱤᱣᱟᱞ
ᱠᱮᱢ
ᱠᱮᱢᱤᱠᱟᱞ
ᱠᱮᱢᱤᱠᱮᱞ
ᱠᱮᱢᱤᱥᱴᱨᱤ
ᱠᱮᱢᱨᱟ
ᱠᱮᱢᱮᱨᱟ
ᱠᱮᱢᱮᱨᱩᱱ
ᱠᱮᱢᱯ
ᱠᱮᱢᱯᱚᱥ
ᱠᱮᱢᱯᱟᱥ
ᱠᱮᱢᱯᱳᱥ
ᱠᱮᱢᱳᱛᱷᱮᱨᱟᱯᱤ
ᱠᱮᱢᱵᱨᱤᱡᱽ
ᱠᱮᱢᱵᱳᱰᱤᱭᱟ
ᱠᱮᱣ
ᱠᱮᱣᱟ
ᱠᱮᱥ
ᱠᱮᱥᱚᱨᱤ
ᱠᱮᱥᱚᱵ
ᱠᱮᱥᱚᱵᱽ
ᱠᱮᱥᱚᱵᱽᱯᱩᱨ
ᱠᱮᱥᱤᱭᱟᱨᱤ
ᱠᱮᱥᱨᱤ
ᱠᱮᱥᱮᱴ
ᱠᱮᱥᱳᱵ
ᱠᱮᱨᱚᱞ
ᱠᱮᱨᱚᱞᱟ
ᱠᱮᱨᱚᱲ
ᱠᱮᱨᱞᱟ
ᱠᱮᱨᱟᱞᱟ
ᱠᱮᱨᱟᱲᱟ
ᱠᱮᱨᱠᱮᱴᱴᱟ
ᱠᱮᱨᱢᱟᱱᱤ
ᱠᱮᱨᱤ
ᱠᱮᱨᱤᱭᱚᱨ
ᱠᱮᱨᱤᱭᱟᱨ
ᱠᱮᱨᱤᱵᱤᱭᱟᱱ
ᱠᱮᱨᱮᱠᱴᱚᱨ
ᱠᱮᱨᱮᱠᱴᱟᱨ
ᱠᱮᱨᱮᱥᱛᱟᱱ
ᱠᱮᱪ
ᱠᱮᱪᱟᱜ
ᱠᱮᱪᱩᱣᱟ
ᱠᱮᱪᱮᱫ
ᱠᱮᱫ
ᱠᱮᱫᱟ
ᱠᱮᱫᱟᱢ
ᱠᱮᱫᱟᱨ
ᱠᱮᱫᱟᱭ
ᱠᱮᱫᱤᱭᱟ
ᱠᱮᱫᱮ
ᱠᱮᱫᱮᱭᱟ
ᱠᱮᱫᱮᱭᱟᱭ
ᱠᱮᱫᱼᱟ
ᱠᱮᱫᱼᱟᱭ
ᱠᱮᱭᱞᱟᱥ
ᱠᱮᱭᱟ
ᱠᱮᱭᱟᱜ
ᱠᱮᱭᱟᱭ
ᱠᱮᱭᱫᱤ
ᱠᱮᱯ
ᱠᱮᱯᱟᱥᱤᱴᱤ
ᱠᱮᱯᱤ
ᱠᱮᱯᱤᱴᱟᱞ
ᱠᱮᱯᱤᱴᱮᱞᱥ
ᱠᱮᱯᱮᱥᱤᱴᱤ
ᱠᱮᱯᱴᱚᱱ
ᱠᱮᱯᱴᱮᱱ
ᱠᱮᱯᱷ
ᱠᱮᱰᱮᱴ
ᱠᱮᱱ
ᱠᱮᱱᱟ
ᱠᱮᱱᱟᱞ
ᱠᱮᱱᱟᱨᱟᱢ
ᱠᱮᱱᱤᱭᱟ
ᱠᱮᱱᱥᱚᱨ
ᱠᱮᱱᱥᱟᱨ
ᱠᱮᱱᱫᱚᱨᱚ
ᱠᱮᱱᱫᱨᱚ
ᱠᱮᱱᱫᱩᱡᱷᱚᱨ
ᱠᱮᱱᱫᱽᱨᱚ
ᱠᱮᱱᱫᱽᱨᱤᱭᱚ
ᱠᱮᱱᱮᱞ
ᱠᱮᱱᱮᱴᱮᱡ
ᱠᱮᱱᱰᱤ
ᱠᱮᱱᱰᱤᱰᱮᱴ
ᱠᱮᱱᱴᱤᱱ
ᱠᱮᱲᱩᱪᱚᱨᱚᱬ
ᱠᱮᱲᱩᱪᱚᱨᱚᱱ
ᱠᱮᱴᱜᱚᱨᱤ
ᱠᱮᱴᱮᱜᱚᱨᱤ
ᱠᱮᱴᱮᱡ
ᱠᱮᱴᱮᱡᱚᱜ
ᱠᱮᱴᱮᱡᱼᱟ
ᱠᱮᱴᱮᱡᱽ
ᱠᱮᱵᱚᱞ
ᱠᱮᱵᱤᱱᱮᱴ
ᱠᱮᱵᱷᱤᱴᱤ
ᱠᱮᱶᱡᱷᱚᱨ
ᱠᱮᱶᱴᱟ
ᱠᱮᱸᱥᱟᱨ
ᱠᱮᱸᱫᱩᱡᱷᱚᱨ
ᱠᱮᱸᱫᱽᱨᱚ
ᱠᱮᱸᱫᱽᱨᱟᱯᱚᱰᱟ
ᱠᱮᱸᱯ
ᱠᱮᱸᱴ
ᱠᱮᱸᱵᱽᱨᱤᱡᱽ
ᱠᱮᱹ
ᱠᱯ
ᱠᱱᱟ
ᱠᱳ
ᱠᱳᱛᱷᱟᱚ
ᱠᱳᱝᱠᱳᱱᱤ
ᱠᱳᱞ
ᱠᱳᱞᱟ
ᱠᱳᱞᱟᱥᱤᱵᱽ
ᱠᱳᱞᱟᱨ
ᱠᱳᱞᱠᱟᱛᱟ
ᱠᱳᱞᱤᱭᱟ
ᱠᱳᱞᱮᱡᱽ
ᱠᱳᱠ
ᱠᱳᱠᱟ
ᱠᱳᱢᱚᱞ
ᱠᱳᱢᱚᱱᱥ
ᱠᱳᱢᱤ
ᱠᱳᱢᱤᱼᱡᱟᱭᱨᱤᱭᱟᱱ
ᱠᱳᱢᱮᱰᱤ
ᱠᱳᱢᱯᱟᱱᱤ
ᱠᱳᱢᱯᱭᱩᱴᱚᱨ
ᱠᱳᱣᱟ
ᱠᱳᱣᱟᱜ
ᱠᱳᱥᱚᱞ
ᱠᱳᱥᱟᱢᱵᱤ
ᱠᱳᱥᱤ
ᱠᱳᱥᱳᱵᱷᱳ
ᱠᱳᱥᱴ
ᱠᱳᱦᱞᱤ
ᱠᱳᱦᱤᱱᱩᱨ
ᱠᱳᱨ
ᱠᱳᱨᱟ
ᱠᱳᱨᱟᱯᱩᱴ
ᱠᱳᱨᱟᱱ
ᱠᱳᱨᱠᱩ
ᱠᱳᱨᱣᱟ
ᱠᱳᱨᱤᱭᱚᱜᱨᱟᱯᱷᱚᱨ
ᱠᱳᱨᱤᱭᱚᱜᱨᱟᱯᱷᱤ
ᱠᱳᱨᱤᱭᱟ
ᱠᱳᱨᱤᱭᱟᱱ
ᱠᱳᱨᱤᱭᱳ
ᱠᱳᱨᱤᱭᱳᱜᱨᱟᱯᱷᱚᱨ
ᱠᱳᱨᱥ
ᱠᱳᱨᱮ
ᱠᱳᱨᱯᱥ
ᱠᱳᱨᱰ
ᱠᱳᱨᱳᱱᱟ
ᱠᱳᱨᱴ
ᱠᱳᱪ
ᱠᱳᱪᱤᱱ
ᱠᱳᱭᱟ
ᱠᱳᱭᱟᱜ
ᱠᱳᱭᱤᱞᱤ
ᱠᱳᱭᱨᱟᱞᱟ
ᱠᱳᱭᱮᱞ
ᱠᱳᱯ
ᱠᱳᱰ
ᱠᱳᱰᱟ
ᱠᱳᱰᱮ
ᱠᱳᱲᱟᱠᱩ
ᱠᱳᱴ
ᱠᱳᱴᱟ
ᱠᱳᱴᱤ
ᱠᱳᱴᱪᱟᱸᱫᱯᱩᱨ
ᱠᱳᱴᱷᱟ
ᱠᱳᱵᱤ
ᱠᱳᱵᱷ
ᱠᱳᱵᱷᱤᱰ
ᱠᱷ
ᱠᱷᱚ
ᱠᱷᱚᱛ
ᱠᱷᱚᱜᱮᱱ
ᱠᱷᱚᱝ
ᱠᱷᱚᱞ
ᱠᱷᱚᱞᱤ
ᱠᱷᱚᱞᱤᱯᱷᱟ
ᱠᱷᱚᱠᱥᱟ
ᱠᱷᱚᱡ
ᱠᱷᱚᱡᱚᱜ
ᱠᱷᱚᱡᱟ
ᱠᱷᱚᱡᱟᱣ
ᱠᱷᱚᱡᱩᱨᱟᱦᱚ
ᱠᱷᱚᱡᱽ
ᱠᱷᱚᱢ
ᱠᱷᱚᱢᱚᱛᱟ
ᱠᱷᱚᱢᱢᱚᱢ
ᱠᱷᱚᱢᱮᱨ
ᱠᱷᱚᱣᱟᱭ
ᱠᱷᱚᱧᱡᱟ
ᱠᱷᱚᱨᱚᱪ
ᱠᱷᱚᱨᱤᱭᱟᱨ
ᱠᱷᱚᱨᱥᱚᱶᱟ
ᱠᱷᱚᱨᱪᱚ
ᱠᱷᱚᱨᱪᱟ
ᱠᱷᱚᱨᱫᱟ
ᱠᱷᱚᱨᱴᱷᱟ
ᱠᱷᱚᱫᱟ
ᱠᱷᱚᱫᱟᱜ
ᱠᱷᱚᱫᱮ
ᱠᱷᱚᱫᱽ
ᱠᱷᱚᱭ
ᱠᱷᱚᱭᱨᱤ
ᱠᱷᱚᱭᱭᱟᱢ
ᱠᱷᱚᱱ
ᱠᱷᱚᱱᱛᱚ
ᱠᱷᱚᱱᱜᱮ
ᱠᱷᱚᱱᱟ
ᱠᱷᱚᱱᱟᱜ
ᱠᱷᱚᱱᱫᱽᱨᱚᱝ
ᱠᱷᱚᱱᱫᱽᱨᱚᱱ
ᱠᱷᱚᱱᱮ
ᱠᱷᱚᱱᱰ
ᱠᱷᱚᱱᱰᱚ
ᱠᱷᱚᱲᱚᱜᱽᱯᱩᱨ
ᱠᱷᱚᱵᱚᱨ
ᱠᱷᱚᱵᱚᱨᱠᱟᱜᱚᱡ
ᱠᱷᱚᱵᱚᱨᱤᱭᱟᱹ
ᱠᱷᱚᱸᱡᱟ
ᱠᱷᱚᱸᱫᱽᱨᱚᱝ
ᱠᱷᱚᱸᱫᱽᱨᱚᱫᱽ
ᱠᱷᱚᱸᱫᱽᱨᱚᱱ
ᱠᱷᱚᱸᱫᱽᱨᱚᱸᱫᱤᱭᱟ
ᱠᱷᱚᱸᱫᱽᱨᱚᱸᱫᱽ
ᱠᱷᱚᱸᱰ
ᱠᱷᱚᱸᱰᱠᱚ
ᱠᱷᱚᱸᱰᱣᱟ
ᱠᱷᱚᱸᱰᱮ
ᱠᱷᱟ
ᱠᱷᱟᱛᱟ
ᱠᱷᱟᱛᱤᱨ
ᱠᱷᱟᱛᱨᱟ
ᱠᱷᱟᱛᱩᱱ
ᱠᱷᱟᱛᱲᱟ
ᱠᱷᱟᱜ
ᱠᱷᱟᱜᱟᱨᱤᱭᱟ
ᱠᱷᱟᱜᱽᱨᱟᱪᱷᱚᱲᱤ
ᱠᱷᱟᱜᱽᱲᱟᱪᱷᱚᱲᱤ
ᱠᱷᱟᱞᱟᱜ
ᱠᱷᱟᱞᱤ
ᱠᱷᱟᱞᱤᱞᱟᱵᱟᱫᱽ
ᱠᱷᱟᱞᱤᱯᱷᱟ
ᱠᱷᱟᱞᱫᱩᱱ
ᱠᱷᱟᱞᱮᱫᱟ
ᱠᱷᱟᱞᱮᱫᱽ
ᱠᱷᱟᱠᱤ
ᱠᱷᱟᱡ
ᱠᱷᱟᱡᱩᱨᱟᱦᱚ
ᱠᱷᱟᱡᱽᱱᱟ
ᱠᱷᱟᱢ
ᱠᱷᱟᱢᱟᱢ
ᱠᱷᱟᱢᱟᱨ
ᱠᱷᱟᱥ
ᱠᱷᱟᱥᱤ
ᱠᱷᱟᱨᱚᱵᱮᱲᱚ
ᱠᱷᱟᱨᱜᱚᱱ
ᱠᱷᱟᱨᱟ
ᱠᱷᱟᱨᱟᱜ
ᱠᱷᱟᱨᱟᱯ
ᱠᱷᱟᱨᱟᱵᱽ
ᱠᱷᱟᱨᱩᱱ
ᱠᱷᱟᱨᱮᱱ
ᱠᱷᱟᱫᱟᱱ
ᱠᱷᱟᱫᱤ
ᱠᱷᱟᱭᱵᱚᱨ
ᱠᱷᱟᱭᱵᱟᱨ
ᱠᱷᱟᱰᱤ
ᱠᱷᱟᱰᱤᱭᱟ
ᱠᱷᱟᱱ
ᱠᱷᱟᱱᱚᱢ
ᱠᱷᱟᱱᱜᱮ
ᱠᱷᱟᱱᱟ
ᱠᱷᱟᱱᱟᱜ
ᱠᱷᱟᱱᱤᱡ
ᱠᱷᱟᱱᱤᱡᱽ
ᱠᱷᱟᱱᱥᱟᱢᱟ
ᱠᱷᱟᱱᱫᱮᱥ
ᱠᱷᱟᱱᱫᱮᱥᱤ
ᱠᱷᱟᱱᱮ
ᱠᱷᱟᱱᱮᱢ
ᱠᱷᱟᱱᱰᱟ
ᱠᱷᱟᱱᱰᱟᱣ
ᱠᱷᱟᱱᱰᱟᱣᱮᱫ
ᱠᱷᱟᱱᱰᱩ
ᱠᱷᱟᱱᱱᱟ
ᱠᱷᱟᱲᱟᱝ
ᱠᱷᱟᱲᱤᱭᱟ
ᱠᱷᱟᱴᱚ
ᱠᱷᱟᱴᱚᱛᱮ
ᱠᱷᱟᱴᱟᱣ
ᱠᱷᱟᱸ
ᱠᱷᱟᱸᱡᱚ
ᱠᱷᱟᱸᱰᱟ
ᱠᱷᱟᱸᱰᱟᱣ
ᱠᱷᱟᱸᱰᱣᱟ
ᱠᱷᱟᱸᱰᱣᱤ
ᱠᱷᱟᱹᱛᱤᱨ
ᱠᱷᱟᱹᱛᱤᱨᱟᱜ
ᱠᱷᱟᱹᱞᱤ
ᱠᱷᱟᱹᱞᱤᱯᱷᱟ
ᱠᱷᱟᱹᱡᱟᱹᱲᱤ
ᱠᱷᱟᱹᱣᱴᱤᱭᱟᱹ
ᱠᱷᱟᱹᱨᱟᱹᱭ
ᱠᱷᱟᱹᱰᱤ
ᱠᱷᱟᱹᱲᱤ
ᱠᱷᱟᱹᱲᱤᱭᱟ
ᱠᱷᱟᱹᱴᱣᱟᱹᱱ
ᱠᱷᱟᱺᱰᱤᱡ
ᱠᱷᱣᱟᱡᱟ
ᱠᱷᱤ
ᱠᱷᱤᱛᱤ
ᱠᱷᱤᱞ
ᱠᱷᱤᱞᱚᱱᱰ
ᱠᱷᱤᱞᱚᱱᱰᱤᱭᱟ
ᱠᱷᱤᱞᱚᱱᱰᱤᱭᱟᱹ
ᱠᱷᱤᱞᱚᱲ
ᱠᱷᱤᱞᱚᱸᱰ
ᱠᱷᱤᱞᱟ
ᱠᱷᱤᱞᱟᱯᱷ
ᱠᱷᱤᱞᱟᱰᱤ
ᱠᱷᱤᱞᱟᱱ
ᱠᱷᱤᱞᱟᱲᱤ
ᱠᱷᱤᱞᱟᱹᱰᱤᱭᱟᱹ
ᱠᱷᱤᱞᱟᱹᱲᱤ
ᱠᱷᱤᱞᱟᱹᱴ
ᱠᱷᱤᱞᱰᱩ
ᱠᱷᱤᱡᱟᱹᱲᱤ
ᱠᱷᱤᱡᱩᱨ
ᱠᱷᱤᱥᱴᱟᱵᱫᱚ
ᱠᱷᱤᱨᱤ
ᱠᱷᱤᱪᱤᱝ
ᱠᱷᱤᱪᱲᱤ
ᱠᱷᱤᱫᱤ
ᱠᱷᱤᱱ
ᱠᱷᱤᱲᱠᱤ
ᱠᱷᱨᱤᱥᱛᱟᱱ
ᱠᱷᱨᱤᱥᱴ
ᱠᱷᱨᱤᱥᱴᱚ
ᱠᱷᱨᱤᱥᱴᱟᱱ
ᱠᱷᱨᱤᱥᱴᱟᱵᱽᱫᱚ
ᱠᱷᱨᱤᱥᱴᱤᱭᱟᱱ
ᱠᱷᱨᱤᱧ
ᱠᱷᱩᱛᱤ
ᱠᱷᱩᱜ
ᱠᱷᱩᱞ
ᱠᱷᱩᱞᱟ
ᱠᱷᱩᱞᱟᱹ
ᱠᱷᱩᱞᱱᱟ
ᱠᱷᱩᱡᱽᱫᱟᱨ
ᱠᱷᱩᱥᱤ
ᱠᱷᱩᱨᱟᱭ
ᱠᱷᱩᱨᱟᱱᱟ
ᱠᱷᱩᱨᱟᱹ
ᱠᱷᱩᱨᱤ
ᱠᱷᱩᱨᱥᱤᱫᱽ
ᱠᱷᱩᱨᱫᱽ
ᱠᱷᱩᱫᱟ
ᱠᱷᱩᱫᱟᱹᱭ
ᱠᱷᱩᱫᱤᱨᱟᱢ
ᱠᱷᱩᱫᱽ
ᱠᱷᱩᱱᱴᱟ
ᱠᱷᱩᱱᱴᱟᱹᱣ
ᱠᱷᱩᱱᱴᱤ
ᱠᱷᱩᱲ
ᱠᱷᱩᱴ
ᱠᱷᱩᱵ
ᱠᱷᱩᱸᱫᱽᱲᱤ
ᱠᱷᱩᱸᱴᱤ
ᱠᱷᱭᱟ
ᱠᱷᱭᱟᱞ
ᱠᱷᱮᱛ
ᱠᱷᱮᱛᱞᱟᱞ
ᱠᱷᱮᱛᱨᱚ
ᱠᱷᱮᱛᱨᱤᱭᱚ
ᱠᱷᱮᱞ
ᱠᱷᱮᱞᱚᱰ
ᱠᱷᱮᱞᱚᱰᱟᱹᱱᱤ
ᱠᱷᱮᱞᱚᱰᱤᱭᱟᱹ
ᱠᱷᱮᱞᱚᱰᱤᱭᱟᱹᱭ
ᱠᱷᱮᱞᱚᱰᱸ
ᱠᱷᱮᱞᱚᱱᱰ
ᱠᱷᱮᱞᱚᱱᱰᱤᱭᱟ
ᱠᱷᱮᱞᱚᱱᱰᱤᱭᱟᱹ
ᱠᱷᱮᱞᱚᱸᱰ
ᱠᱷᱮᱞᱚᱸᱰᱟ
ᱠᱷᱮᱞᱚᱸᱰᱟᱹᱱᱤ
ᱠᱷᱮᱞᱚᱸᱰᱤᱭᱟ
ᱠᱷᱮᱞᱚᱸᱰᱤᱭᱟᱹ
ᱠᱷᱮᱞᱚᱸᱰᱤᱭᱟᱹᱭ
ᱠᱷᱮᱞᱚᱹᱰ
ᱠᱷᱮᱞᱟ
ᱠᱷᱮᱞᱟᱨᱤ
ᱠᱷᱮᱞᱣᱟᱹᱨᱤ
ᱠᱷᱮᱡᱟ
ᱠᱷᱮᱢᱟᱣ
ᱠᱷᱮᱢᱟᱣᱟ
ᱠᱷᱮᱢᱮᱨ
ᱠᱷᱮᱨ
ᱠᱷᱮᱨᱣᱟᱞ
ᱠᱷᱮᱨᱣᱟᱲ
ᱠᱷᱮᱨᱣᱟᱲᱤ
ᱠᱷᱮᱨᱤ
ᱠᱷᱮᱭᱟᱞ
ᱠᱷᱮᱰᱟ
ᱠᱷᱮᱱ
ᱠᱷᱮᱲᱟ
ᱠᱷᱱ
ᱠᱷᱳᱥᱤ
ᱠᱷᱳᱨᱴᱷᱟ
ᱠᱷᱳᱭᱨᱟᱣ
ᱠᱷᱳᱱ
ᱠᱷᱳᱱᱟᱜ
ᱠᱷᱳᱴᱟᱝ
ᱠᱷᱹᱛᱤᱨ
ᱠᱹ
ᱡ
ᱡᱚ
ᱡᱚᱛ
ᱡᱚᱛᱚ
ᱡᱚᱛᱚᱛᱮ
ᱡᱚᱛᱚᱞᱮᱠᱟᱱ
ᱡᱚᱛᱚᱠᱷᱚᱡ
ᱡᱚᱛᱚᱠᱷᱚᱱ
ᱡᱚᱛᱚᱣᱟᱜ
ᱡᱚᱛᱚᱥ
ᱡᱚᱛᱚᱨᱮ
ᱡᱚᱛᱚᱭ
ᱡᱚᱛᱚᱱ
ᱡᱚᱛᱛᱤ
ᱡᱚᱛᱟ
ᱡᱚᱛᱤᱥ
ᱡᱚᱛᱤᱱ
ᱡᱚᱛᱷᱚ
ᱡᱚᱛᱷᱟᱛ
ᱡᱚᱜ
ᱡᱚᱜᱚ
ᱡᱚᱜᱚᱛ
ᱡᱚᱜᱚᱛᱥᱤᱝᱯᱩᱨ
ᱡᱚᱜᱚᱠᱷᱚᱸᱰ
ᱡᱚᱜᱚᱯᱟᱨᱥᱮᱛ
ᱡᱚᱜᱚᱱ
ᱡᱚᱜᱚᱱᱚᱜᱚᱨ
ᱡᱚᱜᱚᱱᱟᱛᱷ
ᱡᱚᱜᱚᱱᱟᱛᱷᱯᱩᱨ
ᱡᱚᱜᱚᱱᱱᱟᱛᱷ
ᱡᱚᱜᱚᱱᱱᱟᱛᱷᱻᱟᱜ
ᱡᱚᱜᱚᱼᱠᱷᱚᱸᱰ
ᱡᱚᱜᱟ
ᱡᱚᱜᱟᱡᱚᱜᱽ
ᱡᱚᱜᱟᱣ
ᱡᱚᱜᱟᱲ
ᱡᱚᱜᱤᱨ
ᱡᱚᱜᱼᱟ
ᱡᱚᱜᱽ
ᱡᱚᱜᱽᱛᱤᱭᱟᱞ
ᱡᱚᱜᱽᱡᱤᱛ
ᱡᱚᱜᱽᱢᱟᱺᱡᱷᱤ
ᱡᱚᱜᱽᱫᱚᱞᱯᱩᱨ
ᱡᱚᱜᱽᱫᱤᱥ
ᱡᱚᱜᱽᱫᱤᱥᱯᱩᱨ
ᱡᱚᱜᱽᱫᱤᱯ
ᱡᱚᱜᱽᱭᱚᱸ
ᱡᱚᱝ
ᱡᱚᱝᱜᱤᱯᱩᱨ
ᱡᱚᱝᱟ
ᱡᱚᱝᱟᱱ
ᱡᱚᱝᱠᱷᱟ
ᱡᱚᱝᱥᱚᱱ
ᱡᱚᱝᱲᱟᱣ
ᱡᱚᱝᱼᱟ
ᱡᱚᱞ
ᱡᱚᱞᱚᱱ
ᱡᱚᱞᱚᱱᱫᱷᱚᱨ
ᱡᱚᱞᱛᱚᱨᱚᱝ
ᱡᱚᱞᱟ
ᱡᱚᱞᱯᱟᱭ
ᱡᱚᱞᱯᱟᱭᱜᱩᱲᱤ
ᱡᱚᱞᱰᱷᱟᱠᱟ
ᱡᱚᱠᱤ
ᱡᱚᱠᱦᱚᱱ
ᱡᱚᱠᱦᱟᱜ
ᱡᱚᱠᱷᱚᱡ
ᱡᱚᱠᱷᱚᱱ
ᱡᱚᱠᱷᱟ
ᱡᱚᱠᱷᱟᱜ
ᱡᱚᱠᱷᱟᱡ
ᱡᱚᱠᱷᱟᱭ
ᱡᱚᱠᱷᱟᱱ
ᱡᱚᱠᱷᱮᱡ
ᱡᱚᱠᱷᱮᱡᱽ
ᱡᱚᱡ
ᱡᱚᱡᱚ
ᱡᱚᱡᱚᱢ
ᱡᱚᱡᱚᱱᱟ
ᱡᱚᱡᱟᱛᱤ
ᱡᱚᱡᱤᱨᱟ
ᱡᱚᱡᱽ
ᱡᱚᱡᱽᱱᱟ
ᱡᱚᱢ
ᱡᱚᱢᱚᱜ
ᱡᱚᱢᱚᱞᱟ
ᱡᱚᱢᱚᱠ
ᱡᱚᱢᱟ
ᱡᱚᱢᱟᱜ
ᱡᱚᱢᱟᱞᱯᱩᱨ
ᱡᱚᱢᱠᱷᱚᱸᱰᱤ
ᱡᱚᱢᱢᱟ
ᱡᱚᱢᱢᱩ
ᱡᱚᱢᱤ
ᱡᱚᱢᱤᱫᱟᱨ
ᱡᱚᱢᱤᱱ
ᱡᱚᱢᱤᱱᱫᱟᱨ
ᱡᱚᱢᱥᱤᱢ
ᱡᱚᱢᱧᱩ
ᱡᱚᱢᱩᱭ
ᱡᱚᱢᱩᱱᱟ
ᱡᱚᱢᱮ
ᱡᱚᱢᱮᱫ
ᱡᱚᱢᱮᱴᱨᱤ
ᱡᱚᱢᱯ
ᱡᱚᱢᱵᱤ
ᱡᱚᱢᱻᱟ
ᱡᱚᱢᱼᱟ
ᱡᱚᱢᱼᱧᱩ
ᱡᱚᱣᱟᱦᱚᱨ
ᱡᱚᱣᱟᱦᱚᱨᱞᱟᱞ
ᱡᱚᱣᱟᱱ
ᱡᱚᱣᱨᱟ
ᱡᱚᱥ
ᱡᱚᱥᱚᱨ
ᱡᱚᱥᱤ
ᱡᱚᱥᱤᱯᱩᱨ
ᱡᱚᱥᱮᱯᱷ
ᱡᱚᱥᱯᱩᱨ
ᱡᱚᱥᱳᱨ
ᱡᱚᱥᱴ
ᱡᱚᱥᱴᱤᱥ
ᱡᱚᱦᱚ
ᱡᱚᱦᱚᱜ
ᱡᱚᱦᱚᱜᱟᱜ
ᱡᱚᱦᱚᱜᱤᱡ
ᱡᱚᱦᱚᱨ
ᱡᱚᱦᱚᱨᱞᱟᱞ
ᱡᱚᱦᱟ
ᱡᱚᱦᱟᱨ
ᱡᱚᱦᱟᱱ
ᱡᱚᱦᱟᱱᱟᱵᱟᱫᱽ
ᱡᱚᱦᱟᱱᱥᱵᱟᱨᱜᱽ
ᱡᱚᱦᱟᱸᱫᱟᱨ
ᱡᱚᱦᱱ
ᱡᱚᱨ
ᱡᱚᱨᱚ
ᱡᱚᱨᱚᱜ
ᱡᱚᱨᱡ
ᱡᱚᱨᱡᱤᱭᱟ
ᱡᱚᱨᱡᱤᱭᱟᱱ
ᱡᱚᱨᱡᱽ
ᱡᱚᱨᱢᱟᱱ
ᱡᱚᱨᱢᱟᱱᱤ
ᱡᱚᱨᱢᱟᱱᱤᱠ
ᱡᱚᱨᱤ
ᱡᱚᱨᱥᱤ
ᱡᱚᱨᱦᱟᱴ
ᱡᱚᱨᱫᱟ
ᱡᱚᱨᱫᱟᱱ
ᱡᱚᱨᱰᱟᱱ
ᱡᱚᱨᱱᱚᱞ
ᱡᱚᱨᱱᱟᱞᱤᱥᱴ
ᱡᱚᱫ
ᱡᱚᱫᱤ
ᱡᱚᱫᱩᱢᱚᱬᱤ
ᱡᱚᱫᱩᱱᱟᱛᱷ
ᱡᱚᱫᱷᱟ
ᱡᱚᱫᱷᱯᱩᱨ
ᱡᱚᱭ
ᱡᱚᱭᱚ
ᱡᱚᱭᱚᱛᱤ
ᱡᱚᱭᱚᱛᱮ
ᱡᱚᱭᱚᱥᱚᱝᱠᱚᱨ
ᱡᱚᱭᱚᱥᱨᱤ
ᱡᱚᱭᱚᱫᱮᱵᱽ
ᱡᱚᱭᱚᱱ
ᱡᱚᱭᱚᱱᱛᱚ
ᱡᱚᱭᱚᱱᱛᱤ
ᱡᱚᱭᱚᱱᱛᱤᱭᱟ
ᱡᱚᱭᱚᱸᱛ
ᱡᱚᱭᱜᱟᱸᱣ
ᱡᱚᱭᱟ
ᱡᱚᱭᱤᱨᱟᱢ
ᱡᱚᱭᱨᱟᱢ
ᱡᱚᱭᱫᱮᱵᱽ
ᱡᱚᱭᱮᱥ
ᱡᱚᱭᱮᱱ
ᱡᱚᱭᱮᱱᱛᱤᱭᱟ
ᱡᱚᱭᱮᱱᱴ
ᱡᱚᱭᱮᱸᱴ
ᱡᱚᱭᱯᱟᱞ
ᱡᱚᱭᱯᱨᱚᱠᱟᱥ
ᱡᱚᱭᱯᱩᱨ
ᱡᱚᱭᱯᱩᱨᱦᱟᱴ
ᱡᱚᱭᱱ
ᱡᱚᱭᱱᱚ
ᱡᱚᱭᱱᱚᱜᱚᱨ
ᱡᱚᱯᱚᱢ
ᱡᱚᱯᱚᱲᱟᱣ
ᱡᱚᱯᱚᱴᱮᱫ
ᱡᱚᱯᱨᱟᱣ
ᱡᱚᱯᱲᱟᱣ
ᱡᱚᱱ
ᱡᱚᱱᱚ
ᱡᱚᱱᱚᱛ
ᱡᱚᱱᱚᱛᱟ
ᱡᱚᱱᱚᱜ
ᱡᱚᱱᱚᱜᱚᱬᱚᱱᱟ
ᱡᱚᱱᱚᱠ
ᱡᱚᱱᱚᱠᱯᱩᱨ
ᱡᱚᱱᱚᱡᱟ
ᱡᱚᱱᱚᱡᱟᱛᱤ
ᱡᱚᱱᱚᱢ
ᱡᱚᱱᱚᱱᱤ
ᱡᱚᱱᱚᱲ
ᱡᱚᱱᱚᱲᱟ
ᱡᱚᱱᱚᱲᱟᱣ
ᱡᱚᱱᱛᱚᱨ
ᱡᱚᱱᱛᱟ
ᱡᱚᱱᱛᱨᱚ
ᱡᱚᱱᱛᱩ
ᱡᱚᱱᱜᱟᱶ
ᱡᱚᱱᱟ
ᱡᱚᱱᱟᱞ
ᱡᱚᱱᱟᱨᱫᱷᱚᱱ
ᱡᱚᱱᱡᱟ
ᱡᱚᱱᱢᱚ
ᱡᱚᱱᱢᱟᱥᱴᱚᱢᱤ
ᱡᱚᱱᱤ
ᱡᱚᱱᱥ
ᱡᱚᱱᱥᱚᱱ
ᱡᱚᱱᱦᱟ
ᱡᱚᱱᱰᱨᱟ
ᱡᱚᱱᱱᱚᱛ
ᱡᱚᱲ
ᱡᱚᱲᱚᱱᱫᱷᱚᱨ
ᱡᱚᱲᱟ
ᱡᱚᱲᱟᱜ
ᱡᱚᱲᱟᱜᱼᱟ
ᱡᱚᱲᱟᱣ
ᱡᱚᱲᱟᱣᱜᱼᱟ
ᱡᱚᱲᱟᱣᱟ
ᱡᱚᱲᱟᱣᱟᱜ
ᱡᱚᱲᱟᱣᱼᱟ
ᱡᱚᱲᱤ
ᱡᱚᱲᱮᱥᱚᱨ
ᱡᱚᱴᱟᱣ
ᱡᱚᱴᱮᱫ
ᱡᱚᱵᱚᱛ
ᱡᱚᱵᱚᱨ
ᱡᱚᱵᱟ
ᱡᱚᱵᱟᱦᱚᱨ
ᱡᱚᱵᱟᱦᱚᱨᱞᱟᱞ
ᱡᱚᱵᱟᱱ
ᱡᱚᱵᱟᱵᱽ
ᱡᱚᱵᱮ
ᱡᱚᱵᱽ
ᱡᱚᱵᱽᱥ
ᱡᱚᱵᱽᱨᱟ
ᱡᱚᱶᱜᱤᱠ
ᱡᱚᱸᱠᱥᱚᱱ
ᱡᱚᱸᱠᱥᱟᱱ
ᱡᱚᱸᱰᱨᱟ
ᱡᱚᱻ
ᱡᱟ
ᱡᱟᱛ
ᱡᱟᱛᱤ
ᱡᱟᱛᱤᱣ
ᱡᱟᱛᱤᱥᱚᱝᱜᱷᱚ
ᱡᱟᱛᱤᱭ
ᱡᱟᱛᱤᱭᱚ
ᱡᱟᱛᱤᱭᱟ
ᱡᱟᱛᱤᱭᱟᱹᱨᱤ
ᱡᱟᱛᱤᱭᱳ
ᱡᱟᱛᱤᱳ
ᱡᱟᱛᱨᱟ
ᱡᱟᱛᱮ
ᱡᱟᱜ
ᱡᱟᱜᱚᱨ
ᱡᱟᱜᱟ
ᱡᱟᱜᱟᱛ
ᱡᱟᱜᱟᱨᱮ
ᱡᱟᱜᱟᱫᱷᱨᱤ
ᱡᱟᱜᱟᱭ
ᱡᱟᱜᱤᱨ
ᱡᱟᱜᱮᱛ
ᱡᱟᱜᱮᱫᱟᱨᱟᱢ
ᱡᱟᱜᱽ
ᱡᱟᱝ
ᱡᱟᱝᱜᱟ
ᱡᱟᱝᱜᱟᱭ
ᱡᱟᱝᱜᱮ
ᱡᱟᱝᱥᱟᱱ
ᱡᱟᱞ
ᱡᱟᱞᱜᱟᱶ
ᱡᱟᱞᱟ
ᱡᱟᱞᱟᱞ
ᱡᱟᱞᱟᱞᱟᱵᱟᱫᱽ
ᱡᱟᱞᱟᱢ
ᱡᱟᱞᱟᱯᱩᱨᱤ
ᱡᱟᱞᱥᱟ
ᱡᱟᱞᱱᱟ
ᱡᱟᱞᱳᱨ
ᱡᱟᱞᱳᱱ
ᱡᱟᱠ
ᱡᱟᱠᱟᱛ
ᱡᱟᱠᱟᱨᱛᱟ
ᱡᱟᱠᱤ
ᱡᱟᱠᱤᱨ
ᱡᱟᱡ
ᱡᱟᱡᱟ
ᱡᱟᱡᱟᱵᱚᱨᱚ
ᱡᱟᱡᱽ
ᱡᱟᱡᱽᱯᱩᱨ
ᱡᱟᱢ
ᱡᱟᱢᱛᱟᱲᱟ
ᱡᱟᱢᱟ
ᱡᱟᱢᱟᱜ
ᱡᱟᱢᱟᱞ
ᱡᱟᱢᱟᱞᱯᱩᱨ
ᱡᱟᱢᱟᱭ
ᱡᱟᱢᱟᱭᱠᱟ
ᱡᱟᱢᱟᱭᱤᱠᱟ
ᱡᱟᱢᱟᱱ
ᱡᱟᱢᱢᱩ
ᱡᱟᱢᱤᱭᱟ
ᱡᱟᱢᱤᱱ
ᱡᱟᱢᱤᱱᱤ
ᱡᱟᱢᱤᱱᱫᱟᱨ
ᱡᱟᱢᱥᱮᱫᱯᱩᱨ
ᱡᱟᱢᱥᱮᱫᱽᱡᱤ
ᱡᱟᱢᱥᱮᱫᱽᱯᱩᱨ
ᱡᱟᱢᱩ
ᱡᱟᱢᱩᱭ
ᱡᱟᱢᱩᱱᱟ
ᱡᱟᱢᱫᱟ
ᱡᱟᱢᱱᱚᱜᱚᱨ
ᱡᱟᱢᱳᱨᱤᱱ
ᱡᱟᱢᱵᱚᱱᱤ
ᱡᱟᱢᱵᱤᱭᱟ
ᱡᱟᱣ
ᱡᱟᱣᱜᱮ
ᱡᱟᱣᱟ
ᱡᱟᱣᱟᱭ
ᱡᱟᱣᱟᱱ
ᱡᱟᱣᱨᱟ
ᱡᱟᱣᱨᱟᱜ
ᱡᱟᱣᱨᱟᱜᱼᱟ
ᱡᱟᱣᱨᱟᱭᱟ
ᱡᱟᱥᱛᱤ
ᱡᱟᱥᱤᱰᱤᱦ
ᱡᱟᱥᱴᱤᱥ
ᱡᱟᱦᱟ
ᱡᱟᱦᱟᱝᱜᱤᱨ
ᱡᱟᱦᱟᱡ
ᱡᱟᱦᱟᱡᱽ
ᱡᱟᱦᱟᱨ
ᱡᱟᱦᱟᱨᱮ
ᱡᱟᱦᱟᱫᱚ
ᱡᱟᱦᱟᱭ
ᱡᱟᱦᱟᱭᱮ
ᱡᱟᱦᱟᱱ
ᱡᱟᱦᱟᱱᱟᱜ
ᱡᱟᱦᱟᱱᱟᱨᱟ
ᱡᱟᱦᱟᱸ
ᱡᱟᱦᱟᱸᱛᱤᱱᱟᱹᱜ
ᱡᱟᱦᱟᱸᱛᱮ
ᱡᱟᱦᱟᱸᱜᱤᱨ
ᱡᱟᱦᱟᱸᱞᱮᱠᱟ
ᱡᱟᱦᱟᱸᱨᱮ
ᱡᱟᱦᱟᱸᱫᱚ
ᱡᱟᱦᱟᱸᱭ
ᱡᱟᱦᱟᱸᱭᱟᱜ
ᱡᱟᱦᱟᱸᱭᱮ
ᱡᱟᱦᱟᱸᱱ
ᱡᱟᱦᱟᱸᱱᱟᱜ
ᱡᱟᱦᱟᱸᱴᱟᱜ
ᱡᱟᱦᱤᱨ
ᱡᱟᱦᱮᱨ
ᱡᱟᱧᱡᱽᱜᱤᱨ
ᱡᱟᱨ
ᱡᱟᱨᱜᱮ
ᱡᱟᱨᱟ
ᱡᱟᱨᱠ
ᱡᱟᱨᱢᱟᱱ
ᱡᱟᱨᱢᱟᱱᱤ
ᱡᱟᱨᱢᱟᱱᱤᱠ
ᱡᱟᱨᱢᱩᱱᱰᱤ
ᱡᱟᱨᱣᱟ
ᱡᱟᱨᱣᱟᱜ
ᱡᱟᱨᱤ
ᱡᱟᱨᱤᱰᱤᱦ
ᱡᱟᱨᱥᱤ
ᱡᱟᱨᱩᱲᱟ
ᱡᱟᱨᱯᱟ
ᱡᱟᱨᱱᱟᱞᱤᱡᱚᱢ
ᱡᱟᱨᱱᱟᱞᱤᱡᱟᱢ
ᱡᱟᱨᱱᱟᱞᱤᱥᱴ
ᱡᱟᱩᱜᱟ
ᱡᱟᱫᱚᱵ
ᱡᱟᱫᱚᱵᱽ
ᱡᱟᱫᱩ
ᱡᱟᱫᱩᱜᱚᱰᱟ
ᱡᱟᱫᱩᱜᱷᱚᱨ
ᱡᱟᱭ
ᱡᱟᱭᱜᱟ
ᱡᱟᱭᱜᱟᱨᱮ
ᱡᱟᱭᱜᱟᱭ
ᱡᱟᱭᱟ
ᱡᱟᱭᱟᱜᱟ
ᱡᱟᱭᱡᱩᱜ
ᱡᱟᱭᱡᱩᱜᱽ
ᱡᱟᱭᱮᱫ
ᱡᱟᱭᱱ
ᱡᱟᱯᱞᱟ
ᱡᱟᱯᱟᱜ
ᱡᱟᱯᱟᱜᱚᱜ
ᱡᱟᱯᱟᱜᱚᱜᱼᱟ
ᱡᱟᱯᱟᱱ
ᱡᱟᱯᱟᱱᱤ
ᱡᱟᱯᱟᱱᱤᱡ
ᱡᱟᱯᱟᱱᱤᱡᱽ
ᱡᱟᱯᱩᱫ
ᱡᱟᱯᱷᱚᱨ
ᱡᱟᱯᱷᱚᱨᱟᱵᱟᱫᱽ
ᱡᱟᱯᱷᱨᱤ
ᱡᱟᱯᱷᱱᱟ
ᱡᱟᱰᱟ
ᱡᱟᱰᱟᱢ
ᱡᱟᱱ
ᱡᱟᱱᱚᱠᱤ
ᱡᱟᱱᱛᱟ
ᱡᱟᱱᱟ
ᱡᱟᱱᱟᱜ
ᱡᱟᱱᱟᱝ
ᱡᱟᱱᱟᱢ
ᱡᱟᱱᱟᱢᱚᱜ
ᱡᱟᱱᱟᱢᱞᱮᱱᱟ
ᱡᱟᱱᱟᱢᱡᱟᱛ
ᱡᱟᱱᱟᱢᱤᱡ
ᱡᱟᱱᱟᱢᱺ
ᱡᱟᱱᱟᱣᱟᱨ
ᱡᱟᱱᱟᱭ
ᱡᱟᱱᱟᱱ
ᱡᱟᱱᱟᱱᱟᱝ
ᱡᱟᱱᱠᱤ
ᱡᱟᱱᱣᱟ
ᱡᱟᱱᱣᱟᱨ
ᱡᱟᱱᱣᱟᱨᱤ
ᱡᱟᱱᱤ
ᱡᱟᱱᱤᱡ
ᱡᱟᱱᱥᱠᱟᱨ
ᱡᱟᱱᱦᱮ
ᱡᱟᱱᱩᱟᱨᱤ
ᱡᱟᱱᱩᱟᱨᱭ
ᱡᱟᱱᱩᱢ
ᱡᱟᱱᱩᱣᱟᱨᱤ
ᱡᱟᱱᱩᱭᱟᱨᱤ
ᱡᱟᱱᱳᱣᱟᱨ
ᱡᱟᱱᱶᱟᱨ
ᱡᱟᱲᱟ
ᱡᱟᱲᱟᱣ
ᱡᱟᱴ
ᱡᱟᱴᱟ
ᱡᱟᱴᱟᱜ
ᱡᱟᱴᱟᱠᱩᱞ
ᱡᱟᱵ
ᱡᱟᱵᱟᱞᱯᱩᱨ
ᱡᱟᱵᱷᱟ
ᱡᱟᱵᱷᱟᱱᱤᱥ
ᱡᱟᱵᱷᱤᱭᱚᱨ
ᱡᱟᱵᱷᱮᱨᱤ
ᱡᱟᱶᱟᱭ
ᱡᱟᱶᱟᱭᱟᱜ
ᱡᱟᱶᱲᱟ
ᱡᱟᱷᱟᱸ
ᱡᱟᱸᱜᱟ
ᱡᱟᱸᱜᱟᱭ
ᱡᱟᱸᱜᱮ
ᱡᱟᱸᱠᱥᱚᱱ
ᱡᱟᱸᱣᱟᱸᱭ
ᱡᱟᱸᱦᱟ
ᱡᱟᱸᱦᱟᱭ
ᱡᱟᱸᱦᱟᱸ
ᱡᱟᱸᱦᱟᱸᱨᱮ
ᱡᱟᱸᱦᱟᱸᱭ
ᱡᱟᱸᱦᱟᱸᱱᱟᱜ
ᱡᱟᱸᱵᱤᱨ
ᱡᱟᱹ
ᱡᱟᱹᱛ
ᱡᱟᱹᱛᱤ
ᱡᱟᱹᱛᱤᱠᱩ
ᱡᱟᱹᱛᱤᱭᱟᱜ
ᱡᱟᱹᱛᱤᱭᱟᱨᱤ
ᱡᱟᱹᱛᱤᱭᱟᱹᱨ
ᱡᱟᱹᱛᱤᱭᱟᱹᱨᱤ
ᱡᱟᱹᱛᱨᱤ
ᱡᱟᱹᱛᱨᱤᱭᱟᱹ
ᱡᱟᱹᱛᱭᱟᱹᱨᱤ
ᱡᱟᱹᱞᱤ
ᱡᱟᱹᱡᱟᱹᱛᱤᱭᱟᱹᱨᱤ
ᱡᱟᱹᱡᱟᱹᱛᱨᱤᱭᱟᱹ
ᱡᱟᱹᱢᱢᱩ
ᱡᱟᱹᱢᱩ
ᱡᱟᱹᱥᱛᱤ
ᱡᱟᱹᱥᱛᱤᱭ
ᱡᱟᱹᱥᱛᱤᱭᱟ
ᱡᱟᱹᱦᱤᱨ
ᱡᱟᱹᱨᱤ
ᱡᱟᱹᱨᱩᱢ
ᱡᱟᱹᱨᱩᱲ
ᱡᱟᱹᱨᱩᱲᱟ
ᱡᱟᱹᱨᱩᱲᱟᱱ
ᱡᱟᱹᱫᱩ
ᱡᱟᱹᱬᱤ
ᱡᱟᱹᱯᱤᱫ
ᱡᱟᱹᱯᱩᱫ
ᱡᱟᱹᱯᱩᱫᱟ
ᱡᱟᱹᱱᱤ
ᱡᱟᱹᱱᱤᱡ
ᱡᱟᱹᱱᱩᱢ
ᱡᱟᱹᱲ
ᱡᱟᱹᱲᱤ
ᱡᱟᱹᱲᱤᱭᱟ
ᱡᱟᱹᱲᱩᱲ
ᱡᱟᱹᱵᱽᱲᱤ
ᱡᱟᱺᱵᱤᱨ
ᱡᱢᱢ
ᱡᱤ
ᱡᱤᱛ
ᱡᱤᱛᱟ
ᱡᱤᱛᱟᱣ
ᱡᱤᱛᱟᱹ
ᱡᱤᱛᱟᱹᱣ
ᱡᱤᱛᱠᱟ
ᱡᱤᱛᱠᱟᱨ
ᱡᱤᱛᱠᱟᱹᱨ
ᱡᱤᱛᱠᱟᱹᱨᱚᱜ
ᱡᱤᱛᱠᱟᱹᱨᱚᱜᱼᱟ
ᱡᱤᱛᱠᱟᱹᱨᱤᱭᱟᱹ
ᱡᱤᱛᱠᱟᱹᱨᱮ
ᱡᱤᱛᱤ
ᱡᱤᱛᱤᱞ
ᱡᱤᱛᱤᱞᱛᱷᱟᱱ
ᱡᱤᱛᱩ
ᱡᱤᱛᱮᱱᱫᱨᱚ
ᱡᱤᱜᱽ
ᱡᱤᱞ
ᱡᱤᱞᱞᱟ
ᱡᱤᱞᱞᱟᱹ
ᱡᱤᱞᱟ
ᱡᱤᱞᱟᱭ
ᱡᱤᱞᱟᱸᱰ
ᱡᱤᱞᱟᱹ
ᱡᱤᱞᱤᱝ
ᱡᱤᱞᱤᱧ
ᱡᱤᱞᱤᱧᱜᱟᱨ
ᱡᱤᱞᱤᱧᱟ
ᱡᱤᱠᱤᱨ
ᱡᱤᱢ
ᱡᱤᱢᱟ
ᱡᱤᱢᱢᱤ
ᱡᱤᱢᱤ
ᱡᱤᱢᱮᱭᱞ
ᱡᱤᱢᱵᱟᱵᱩᱭᱮ
ᱡᱤᱣ
ᱡᱤᱣᱚᱱ
ᱡᱤᱣᱟᱱ
ᱡᱤᱣᱟᱹᱞᱤ
ᱡᱤᱣᱟᱹᱫ
ᱡᱤᱣᱟᱹᱫᱽ
ᱡᱤᱣᱤ
ᱡᱤᱣᱤᱫ
ᱡᱤᱣᱤᱫᱚᱜ
ᱡᱤᱣᱤᱭ
ᱡᱤᱣᱤᱭᱟᱱ
ᱡᱤᱣᱤᱱ
ᱡᱤᱣᱤᱵᱟ
ᱡᱤᱣᱤᱵᱟᱹᱛᱤ
ᱡᱤᱣᱮᱫ
ᱡᱤᱣᱱᱤ
ᱡᱤᱥᱩ
ᱡᱤᱥᱩᱢᱟᱹᱥᱤ
ᱡᱤᱥᱩᱣᱟᱜ
ᱡᱤᱦᱚᱞ
ᱡᱤᱨᱟ
ᱡᱤᱨᱟᱣ
ᱡᱤᱨᱟᱹ
ᱡᱤᱨᱟᱹᱣ
ᱡᱤᱨᱟᱹᱣᱜ
ᱡᱤᱨᱤᱵᱟᱢ
ᱡᱤᱨᱳ
ᱡᱤᱫ
ᱡᱤᱭᱚ
ᱡᱤᱭᱚᱱ
ᱡᱤᱭᱚᱱᱤ
ᱡᱤᱭᱚᱱᱨᱮ
ᱡᱤᱭᱚᱱᱮ
ᱡᱤᱭᱟ
ᱡᱤᱭᱟᱝ
ᱡᱤᱭᱟᱞᱤ
ᱡᱤᱭᱟᱨᱚᱛ
ᱡᱤᱭᱟᱱ
ᱡᱤᱭᱟᱹᱛ
ᱡᱤᱭᱟᱹᱞᱤ
ᱡᱤᱭᱟᱹᱞᱤᱭᱟᱜ
ᱡᱤᱭᱟᱹᱲ
ᱡᱤᱭᱤ
ᱡᱤᱭᱤᱱ
ᱡᱤᱭᱳ
ᱡᱤᱭᱳᱞᱚᱡᱤ
ᱡᱤᱭᱳᱱ
ᱡᱤᱯ
ᱡᱤᱯᱟᱹᱵᱚᱸᱫᱽ
ᱡᱤᱰᱤᱯᱤ
ᱡᱤᱱ
ᱡᱤᱱᱛᱤ
ᱡᱤᱱᱟ
ᱡᱤᱱᱤᱥ
ᱡᱤᱱᱫᱟᱞ
ᱡᱤᱱᱫᱮᱜᱤ
ᱡᱤᱱᱫᱽ
ᱡᱤᱱᱱᱟ
ᱡᱤᱱᱴᱟ
ᱡᱤᱲᱤᱫ
ᱡᱤᱴᱤ
ᱡᱤᱵ
ᱡᱤᱵᱚᱱ
ᱡᱤᱵᱚᱱᱚ
ᱡᱤᱵᱚᱱᱮ
ᱡᱤᱵᱟᱬᱩ
ᱡᱤᱵᱤ
ᱡᱤᱵᱩᱛᱤ
ᱡᱤᱵᱽ
ᱡᱤᱸᱣᱤᱫ
ᱡᱤᱸᱫᱟᱜᱤ
ᱡᱤᱹ
ᱡᱩ
ᱡᱩᱛ
ᱡᱩᱛᱟ
ᱡᱩᱛᱨᱟᱹᱣ
ᱡᱩᱛᱩᱜ
ᱡᱩᱛᱩᱜᱼᱟ
ᱡᱩᱛᱷᱤᱠᱟ
ᱡᱩᱜ
ᱡᱩᱜᱟᱱᱛᱚᱨ
ᱡᱩᱜᱟᱹᱲ
ᱡᱩᱜᱤ
ᱡᱩᱜᱼᱟ
ᱡᱩᱜᱽ
ᱡᱩᱜᱽᱥᱟᱞᱚᱭ
ᱡᱩᱜᱽᱨᱮ
ᱡᱩᱝ
ᱡᱩᱞ
ᱡᱩᱞᱚᱡᱤ
ᱡᱩᱞᱟ
ᱡᱩᱞᱟᱭ
ᱡᱩᱞᱟᱹᱭ
ᱡᱩᱞᱤ
ᱡᱩᱞᱤᱭᱟ
ᱡᱩᱞᱤᱭᱟᱥ
ᱡᱩᱞᱤᱭᱟᱱ
ᱡᱩᱞᱩ
ᱡᱩᱞᱩᱜ
ᱡᱩᱞᱩᱜᱼᱟ
ᱡᱩᱞᱩᱢ
ᱡᱩᱞᱭ
ᱡᱩᱞᱯᱷᱤᱠᱚᱨ
ᱡᱩᱞᱯᱷᱤᱠᱟᱨ
ᱡᱩᱠ
ᱡᱩᱠᱚᱨᱵᱚᱨᱜᱽ
ᱡᱩᱠᱛᱚ
ᱡᱩᱠᱛᱚᱨᱟᱥᱴᱨᱚ
ᱡᱩᱠᱛᱤ
ᱡᱩᱡᱷᱟ
ᱡᱩᱡᱷᱟᱹᱨ
ᱡᱩᱢ
ᱡᱩᱢᱞᱟ
ᱡᱩᱢᱟᱭ
ᱡᱩᱢᱤ
ᱡᱩᱢᱤᱫ
ᱡᱩᱢᱤᱫᱚᱜ
ᱡᱩᱢᱤᱫᱽ
ᱡᱩᱣᱟ
ᱡᱩᱣᱟᱝ
ᱡᱩᱣᱟᱱ
ᱡᱩᱣᱟᱹᱱ
ᱡᱩᱥᱴᱤᱥ
ᱡᱩᱦᱤ
ᱡᱩᱦᱩ
ᱡᱩᱦᱩᱲᱟ
ᱡᱩᱦᱩᱲᱟᱹᱣ
ᱡᱩᱨ
ᱡᱩᱨᱟᱭ
ᱡᱩᱨᱤ
ᱡᱩᱨᱤᱜ
ᱡᱩᱨᱫᱷᱟᱹ
ᱡᱩᱨᱮ
ᱡᱩᱫᱟ
ᱡᱩᱫᱟᱹ
ᱡᱩᱫᱤ
ᱡᱩᱫᱫᱷᱚ
ᱡᱩᱫᱷᱚ
ᱡᱩᱭᱟᱞ
ᱡᱩᱰᱟᱣ
ᱡᱩᱰᱤᱭᱟ
ᱡᱩᱰᱳ
ᱡᱩᱱ
ᱡᱩᱱᱛᱩ
ᱡᱩᱱᱟᱜᱚᱰ
ᱡᱩᱱᱟᱜᱚᱲ
ᱡᱩᱱᱟᱜᱳᱰ
ᱡᱩᱱᱤᱭᱚᱨ
ᱡᱩᱱᱤᱭᱟᱨ
ᱡᱩᱱᱦᱮᱵᱚᱴᱚ
ᱡᱩᱱᱩᱱ
ᱡᱩᱲᱟ
ᱡᱩᱲᱟᱣ
ᱡᱩᱲᱟᱹᱣ
ᱡᱩᱲᱟᱹᱭ
ᱡᱩᱲᱟᱹᱭᱟ
ᱡᱩᱲᱤ
ᱡᱩᱲᱩ
ᱡᱩᱴ
ᱡᱩᱴᱤ
ᱡᱩᱴᱤᱡ
ᱡᱩᱵᱚ
ᱡᱩᱵᱤᱱ
ᱡᱩᱵᱮᱭᱫᱟ
ᱡᱩᱵᱽᱞᱤ
ᱡᱩᱶᱟᱹᱱ
ᱡᱭᱚᱛᱤ
ᱡᱭᱚᱛᱤᱥ
ᱡᱭᱚᱛᱤᱨᱞᱤᱝ
ᱡᱭᱳᱛᱤ
ᱡᱭᱳᱛᱥᱱᱟ
ᱡᱮ
ᱡᱮᱛᱞᱮᱫ
ᱡᱮᱛᱮ
ᱡᱮᱜᱮ
ᱡᱮᱜᱮᱛ
ᱡᱮᱜᱮᱛᱟ
ᱡᱮᱜᱮᱛᱟᱨᱤ
ᱡᱮᱜᱮᱛᱟᱹᱨᱤ
ᱡᱮᱜᱮᱛᱤᱭᱟᱹ
ᱡᱮᱜᱮᱛᱤᱭᱟᱹᱨᱤ
ᱡᱮᱜᱮᱛᱵᱤᱨᱫᱟᱹᱜᱟᱲ
ᱡᱮᱜᱮᱛᱼᱵᱤᱨᱫᱟᱹᱜᱟᱲ
ᱡᱮᱜᱮᱫ
ᱡᱮᱜᱮᱸᱛ
ᱡᱮᱜᱮᱸᱫ
ᱡᱮᱞ
ᱡᱮᱞᱞᱟ
ᱡᱮᱞᱟ
ᱡᱮᱞᱟᱨ
ᱡᱮᱞᱤ
ᱡᱮᱞᱤᱧ
ᱡᱮᱞᱮᱝ
ᱡᱮᱞᱮᱠ
ᱡᱮᱞᱮᱠᱟ
ᱡᱮᱞᱮᱠᱟᱺ
ᱡᱮᱞᱮᱠᱟᱼ
ᱡᱮᱞᱮᱧ
ᱡᱮᱠ
ᱡᱮᱠᱥᱯᱳ
ᱡᱮᱠᱷᱟ
ᱡᱮᱡᱟ
ᱡᱮᱡᱟᱛᱟᱹᱨᱤ
ᱡᱮᱡᱟᱛᱤᱭᱟᱹᱨᱤ
ᱡᱮᱡᱟᱹᱛᱤᱭᱟᱹᱨᱤ
ᱡᱮᱢᱚᱱ
ᱡᱮᱢᱛᱤ
ᱡᱮᱢᱥ
ᱡᱮᱢᱮ
ᱡᱮᱥᱤ
ᱡᱮᱥᱩᱭᱤᱴ
ᱡᱮᱦᱮᱞ
ᱡᱮᱨᱤ
ᱡᱮᱨᱩᱡᱟᱞᱮᱢ
ᱡᱮᱨᱩᱥᱟᱞᱤᱢ
ᱡᱮᱨᱮᱫ
ᱡᱮᱨᱮᱲ
ᱡᱮᱫᱽᱫᱟ
ᱡᱮᱭᱞ
ᱡᱮᱭᱠ
ᱡᱮᱭᱠᱤ
ᱡᱮᱭᱥᱟᱞᱢᱮᱨ
ᱡᱮᱭᱫᱤ
ᱡᱮᱭᱱ
ᱡᱮᱯᱤ
ᱡᱮᱯᱷᱟᱨᱥᱚᱱ
ᱡᱮᱱ
ᱡᱮᱱᱚ
ᱡᱮᱱᱚᱥ
ᱡᱮᱱᱟ
ᱡᱮᱱᱟᱨᱮᱞ
ᱡᱮᱱᱤᱯᱷᱟᱨ
ᱡᱮᱱᱨᱟᱞ
ᱡᱮᱱᱮᱞᱤᱭᱟ
ᱡᱮᱱᱮᱨᱚ
ᱡᱮᱱᱮᱨᱟᱞ
ᱡᱮᱱᱮᱵᱷᱟ
ᱡᱮᱱᱰᱚᱨ
ᱡᱮᱱᱳᱣᱟ
ᱡᱮᱴ
ᱡᱮᱴᱞᱤ
ᱡᱮᱴᱷᱟ
ᱡᱮᱵᱤᱭᱟᱨ
ᱡᱮᱵᱤᱭᱟᱨᱥ
ᱡᱮᱵᱷᱤᱭᱟᱨ
ᱡᱮᱵᱷᱤᱭᱟᱨᱥ
ᱡᱮᱵᱽᱨᱟ
ᱡᱮᱸ
ᱡᱮᱸᱜᱮᱫ
ᱡᱮᱹ
ᱡᱮᱼᱡᱟᱹᱛᱤᱭᱟᱹᱨᱤ
ᱡᱳ
ᱡᱳᱛᱷᱤ
ᱡᱳᱜᱟᱡᱳᱜ
ᱡᱳᱞᱟ
ᱡᱳᱞᱤ
ᱡᱳᱣᱱᱯᱩᱨ
ᱡᱳᱥ
ᱡᱳᱥᱤ
ᱡᱳᱥᱮᱯᱷ
ᱡᱳᱦᱚᱨ
ᱡᱳᱦᱚᱨᱟ
ᱡᱳᱦᱟᱨ
ᱡᱳᱦᱟᱱᱥᱚᱱ
ᱡᱳᱦᱩᱨ
ᱡᱳᱨ
ᱡᱳᱭᱱᱳ
ᱡᱳᱭᱱᱴ
ᱡᱳᱰᱤ
ᱡᱳᱱ
ᱡᱳᱱᱤ
ᱡᱳᱱᱥ
ᱡᱳᱱᱯᱩᱨ
ᱡᱳᱵᱟ
ᱡᱷᱚᱛᱚ
ᱡᱷᱚᱛᱚᱠᱷᱚᱱ
ᱡᱷᱚᱛᱟ
ᱡᱷᱚᱛᱩ
ᱡᱷᱚᱛᱳ
ᱡᱷᱚᱜ
ᱡᱷᱚᱞᱚᱠ
ᱡᱷᱚᱞᱟ
ᱡᱷᱚᱢ
ᱡᱷᱚᱢᱚᱨ
ᱡᱷᱚᱦ
ᱡᱷᱚᱨᱚᱱ
ᱡᱷᱚᱬ
ᱡᱷᱚᱱ
ᱡᱷᱚᱵᱽ
ᱡᱷᱟ
ᱡᱷᱟᱞ
ᱡᱷᱟᱞᱟᱠ
ᱡᱷᱟᱞᱠᱟᱣ
ᱡᱷᱟᱞᱠᱟᱣᱜ
ᱡᱷᱟᱞᱠᱟᱴᱷᱤ
ᱡᱷᱟᱞᱣᱟᱨ
ᱡᱷᱟᱞᱣᱟᱲ
ᱡᱷᱟᱞᱫᱟ
ᱡᱷᱟᱠ
ᱡᱷᱟᱡᱡᱟᱨ
ᱡᱷᱟᱡᱽᱡᱟᱨ
ᱡᱷᱟᱨ
ᱡᱷᱟᱨᱠᱟᱸᱰ
ᱡᱷᱟᱨᱠᱷᱚᱱᱰ
ᱡᱷᱟᱨᱠᱷᱚᱸᱰ
ᱡᱷᱟᱨᱠᱷᱟᱱᱰ
ᱡᱷᱟᱨᱤᱭᱟ
ᱡᱷᱟᱨᱥᱩᱜᱩᱰᱟ
ᱡᱷᱟᱨᱯᱚᱠᱷᱚᱨᱤᱭᱟ
ᱡᱷᱟᱨᱱᱟ
ᱡᱷᱟᱯᱟ
ᱡᱷᱟᱯᱴᱟᱣ
ᱡᱷᱟᱱᱚ
ᱡᱷᱟᱱᱰᱟ
ᱡᱷᱟᱱᱴᱤ
ᱡᱷᱟᱲ
ᱡᱷᱟᱲᱜᱨᱟᱢ
ᱡᱷᱟᱲᱜᱽᱨᱟᱢ
ᱡᱷᱟᱲᱟ
ᱡᱷᱟᱲᱠᱷᱚᱱᱰ
ᱡᱷᱟᱲᱠᱷᱚᱸᱰ
ᱡᱷᱟᱴᱠᱟ
ᱡᱷᱟᱵᱩᱣᱟ
ᱡᱷᱟᱸᱥᱤ
ᱡᱷᱟᱹᱞ
ᱡᱷᱟᱹᱞᱤ
ᱡᱷᱤ
ᱡᱷᱤᱜ
ᱡᱷᱤᱞ
ᱡᱷᱤᱞᱞᱤ
ᱡᱷᱤᱡ
ᱡᱷᱤᱡᱚᱜ
ᱡᱷᱤᱡᱽ
ᱡᱷᱤᱦ
ᱡᱷᱤᱯᱤᱨ
ᱡᱷᱤᱱᱟᱭᱤᱫᱚᱦ
ᱡᱷᱤᱱᱟᱭᱫᱚᱦ
ᱡᱷᱤᱱᱟᱭᱫᱚᱦᱚ
ᱡᱷᱩᱢᱚᱨ
ᱡᱷᱩᱢᱨᱤ
ᱡᱷᱩᱣᱟᱝ
ᱡᱷᱩᱨ
ᱡᱷᱩᱨᱤ
ᱡᱷᱩᱱᱠᱟᱹ
ᱡᱷᱩᱱᱡᱷᱩᱱᱩ
ᱡᱷᱩᱲ
ᱡᱷᱮᱞ
ᱡᱷᱮᱞᱚᱢ
ᱡᱷᱮᱴ
ᱡᱷᱮᱸᱴ
ᱡᱽ
ᱡᱽᱭᱚᱛᱤ
ᱡᱽᱭᱳᱛᱤ
ᱢ
ᱢᱚ
ᱢᱚᱛ
ᱢᱚᱛᱚ
ᱢᱚᱛᱚᱵᱟᱫᱽ
ᱢᱚᱛᱛᱮ
ᱢᱚᱛᱞᱚᱵᱽ
ᱢᱚᱛᱣᱟᱱᱤ
ᱢᱚᱛᱤ
ᱢᱚᱛᱤᱞᱟᱞ
ᱢᱚᱛᱤᱦᱟᱨᱤ
ᱢᱚᱛᱨᱚ
ᱢᱚᱛᱨᱤ
ᱢᱚᱛᱫᱟᱛᱟ
ᱢᱚᱛᱷᱩᱨᱟ
ᱢᱚᱜᱚᱞ
ᱢᱚᱜᱚᱦᱤ
ᱢᱚᱜᱚᱨ
ᱢᱚᱜᱚᱫᱷ
ᱢᱚᱜᱚᱫᱷᱤ
ᱢᱚᱜᱟ
ᱢᱚᱜᱮ
ᱢᱚᱜᱽ
ᱢᱚᱝ
ᱢᱚᱝᱚᱞᱫᱳᱭ
ᱢᱚᱝᱜᱚᱞ
ᱢᱚᱝᱜᱚᱞᱤᱭᱟ
ᱢᱚᱝᱜᱚᱞᱤᱭᱟᱱ
ᱢᱚᱝᱜᱚᱞᱭᱟᱱ
ᱢᱚᱝᱞᱟ
ᱢᱚᱝᱥᱮᱱ
ᱢᱚᱞ
ᱢᱚᱞᱚᱝ
ᱢᱚᱞᱞᱚ
ᱢᱚᱞᱞᱟᱦᱟᱴ
ᱢᱚᱞᱞᱤᱠᱟ
ᱢᱚᱞᱟ
ᱢᱚᱞᱟᱞᱟ
ᱢᱚᱞᱟᱭᱟᱞᱚᱢ
ᱢᱚᱞᱤᱠ
ᱢᱚᱞᱤᱠᱟ
ᱢᱚᱞᱭᱟᱞᱚᱢ
ᱢᱚᱞᱴᱤ
ᱢᱚᱠᱚᱠᱥᱟᱝ
ᱢᱚᱠᱚᱣᱟᱱᱯᱩᱨ
ᱢᱚᱠᱚᱧ
ᱢᱚᱠᱚᱨ
ᱢᱚᱠᱚᱨᱫᱚᱢᱟ
ᱢᱚᱠᱟ
ᱢᱚᱠᱠᱟ
ᱢᱚᱡ
ᱢᱚᱡᱟ
ᱢᱚᱡᱟᱠ
ᱢᱚᱡᱤᱵᱽᱱᱚᱜᱚᱨ
ᱢᱚᱡᱩᱢᱫᱟᱨ
ᱢᱚᱡᱮ
ᱢᱚᱡᱷᱤ
ᱢᱚᱡᱽ
ᱢᱚᱡᱽᱛᱮ
ᱢᱚᱢᱚ
ᱢᱚᱢᱚᱛᱟ
ᱢᱚᱢᱚᱛᱟᱡᱽ
ᱢᱚᱢᱛᱟ
ᱢᱚᱢᱛᱟᱡᱽ
ᱢᱚᱢᱞᱟ
ᱢᱚᱢᱤᱛ
ᱢᱚᱣ
ᱢᱚᱣᱡᱟ
ᱢᱚᱣᱡᱽᱟ
ᱢᱚᱣᱨᱤᱛᱟᱱᱤᱭᱟ
ᱢᱚᱣᱨᱭᱚ
ᱢᱚᱣᱨᱭᱟ
ᱢᱚᱥᱚᱞ
ᱢᱚᱥᱚᱞᱟ
ᱢᱚᱥᱚᱞᱥ
ᱢᱚᱥᱚᱡᱤᱫ
ᱢᱚᱥᱛᱤ
ᱢᱚᱥᱞᱟ
ᱢᱚᱥᱟᱞ
ᱢᱚᱥᱟᱞᱟ
ᱢᱚᱥᱟᱱ
ᱢᱚᱥᱟᱵᱩᱱᱤ
ᱢᱚᱥᱠᱚ
ᱢᱚᱥᱠᱳ
ᱢᱚᱥᱡᱤᱫ
ᱢᱚᱥᱡᱤᱫᱽ
ᱢᱚᱥᱤᱦᱟ
ᱢᱚᱥᱤᱱ
ᱢᱚᱥᱩᱨᱤ
ᱢᱚᱦᱚᱛ
ᱢᱚᱦᱚᱛᱟᱱ
ᱢᱚᱦᱚᱛᱟᱵᱽ
ᱢᱚᱦᱚᱛᱢᱟ
ᱢᱚᱦᱚᱛᱣᱚ
ᱢᱚᱦᱚᱛᱯᱩᱨᱩᱱ
ᱢᱚᱦᱚᱞ
ᱢᱚᱦᱚᱞᱞᱟ
ᱢᱚᱦᱚᱠᱩᱢᱟ
ᱢᱚᱦᱚᱢᱚᱫ
ᱢᱚᱦᱚᱢᱚᱫᱽ
ᱢᱚᱦᱚᱢᱢᱚᱫᱽ
ᱢᱚᱦᱚᱢᱢᱚᱫᱽᱯᱩᱨ
ᱢᱚᱦᱚᱥᱤᱱ
ᱢᱚᱦᱚᱨ
ᱢᱚᱦᱚᱨᱥᱤ
ᱢᱚᱦᱚᱱ
ᱢᱚᱦᱚᱱᱛᱚ
ᱢᱚᱦᱚᱱᱫᱟᱥ
ᱢᱚᱦᱚᱱᱯᱩᱨ
ᱢᱚᱦᱚᱵᱩᱵᱟᱵᱟᱫᱽ
ᱢᱚᱦᱞᱟ
ᱢᱚᱦᱟ
ᱢᱚᱦᱟᱛᱢᱟ
ᱢᱚᱦᱟᱞᱤ
ᱢᱚᱦᱟᱠᱟᱥ
ᱢᱚᱦᱟᱠᱟᱥᱪᱟᱨᱤ
ᱢᱚᱦᱟᱠᱩᱢᱟ
ᱢᱚᱦᱟᱡᱚᱱ
ᱢᱚᱦᱟᱡᱚᱱᱤ
ᱢᱚᱦᱟᱢᱟᱭᱟ
ᱢᱚᱦᱟᱢᱢᱚᱫᱽ
ᱢᱚᱦᱟᱥᱚᱲᱚᱠ
ᱢᱚᱦᱟᱥᱚᱵᱷᱟ
ᱢᱚᱦᱟᱥᱟᱜᱚᱨ
ᱢᱚᱦᱟᱥᱣᱮᱛᱟ
ᱢᱚᱦᱟᱨᱟᱡᱟ
ᱢᱚᱦᱟᱨᱟᱡᱽ
ᱢᱚᱦᱟᱨᱟᱡᱽᱜᱚᱸᱡᱽ
ᱢᱚᱦᱟᱨᱟᱥᱴᱨᱚ
ᱢᱚᱦᱟᱨᱟᱥᱴᱨᱚᱣᱟᱫᱤ
ᱢᱚᱦᱟᱨᱟᱱᱤ
ᱢᱚᱦᱟᱨᱥᱴᱨᱚ
ᱢᱚᱦᱟᱫᱚᱨᱮᱭᱟ
ᱢᱚᱦᱟᱫᱮᱣ
ᱢᱚᱦᱟᱫᱮᱥ
ᱢᱚᱦᱟᱫᱮᱵ
ᱢᱚᱦᱟᱫᱮᱵᱽ
ᱢᱚᱦᱟᱫᱮᱵᱽᱯᱩᱨ
ᱢᱚᱦᱟᱯᱚᱨᱤᱱᱤᱨᱵᱟᱬ
ᱢᱚᱦᱟᱯᱟᱛᱨᱚ
ᱢᱚᱦᱟᱱ
ᱢᱚᱦᱟᱱᱚᱜᱚᱨ
ᱢᱚᱦᱟᱱᱚᱫᱤ
ᱢᱚᱦᱟᱱᱛᱤ
ᱢᱚᱦᱟᱱᱛᱤᱻᱟᱜ
ᱢᱚᱦᱟᱱᱟᱫᱤ
ᱢᱚᱦᱟᱱᱟᱭᱚᱠ
ᱢᱚᱦᱟᱵᱤᱦᱟᱨ
ᱢᱚᱦᱟᱵᱤᱨ
ᱢᱚᱦᱟᱵᱤᱫᱫᱟᱞᱚᱭ
ᱢᱚᱦᱟᱵᱤᱫᱽᱫᱟᱞᱚᱭ
ᱢᱚᱦᱟᱵᱤᱫᱽᱭᱟᱞᱚᱭ
ᱢᱚᱦᱟᱵᱷᱟᱨᱚᱛ
ᱢᱚᱦᱠᱩᱢᱟ
ᱢᱚᱦᱢᱚᱫᱽ
ᱢᱚᱦᱢᱩᱫᱽ
ᱢᱚᱦᱤᱛ
ᱢᱚᱦᱤᱞᱟ
ᱢᱚᱦᱤᱣᱟᱞ
ᱢᱚᱦᱤᱥᱟᱜᱚᱨ
ᱢᱚᱦᱤᱥᱟᱥᱩᱨ
ᱢᱚᱦᱤᱥᱩᱨ
ᱢᱚᱦᱤᱱᱤ
ᱢᱚᱦᱤᱱᱤᱟᱴᱴᱚᱢ
ᱢᱚᱦᱩ
ᱢᱚᱦᱩᱞᱰᱤᱦᱟ
ᱢᱚᱦᱩᱠᱢᱟ
ᱢᱚᱦᱩᱣᱟ
ᱢᱚᱦᱮᱥ
ᱢᱚᱦᱮᱥᱚᱨ
ᱢᱚᱦᱮᱥᱯᱩᱨ
ᱢᱚᱦᱮᱱᱫᱨᱚ
ᱢᱚᱦᱮᱱᱫᱽᱨᱚ
ᱢᱚᱦᱮᱱᱫᱽᱨᱚᱜᱚᱲ
ᱢᱚᱦᱰᱟ
ᱢᱚᱦᱳᱛᱥᱚᱵᱽ
ᱢᱚᱦᱳᱱ
ᱢᱚᱦᱵᱩᱵᱽᱱᱟᱜᱟᱨ
ᱢᱚᱧᱡᱽ
ᱢᱚᱧᱪᱚ
ᱢᱚᱨ
ᱢᱚᱨᱚᱠᱠᱳ
ᱢᱚᱨᱚᱱ
ᱢᱚᱨᱜᱟᱱ
ᱢᱚᱨᱟᱨᱤ
ᱢᱚᱨᱟᱫᱟᱵᱟᱫᱽ
ᱢᱚᱨᱟᱱ
ᱢᱚᱨᱟᱴᱷᱟ
ᱢᱚᱨᱟᱴᱷᱤ
ᱢᱚᱨᱡᱟᱫᱟ
ᱢᱚᱨᱤ
ᱢᱚᱨᱤᱥᱚᱥ
ᱢᱚᱨᱤᱥᱟᱥ
ᱢᱚᱨᱤᱥᱤᱭᱚᱥ
ᱢᱚᱨᱤᱱᱰᱟ
ᱢᱚᱨᱥᱤ
ᱢᱚᱨᱥᱵᱤ
ᱢᱚᱨᱪᱟ
ᱢᱚᱨᱭᱚ
ᱢᱚᱨᱰᱚᱨ
ᱢᱚᱨᱳᱠᱠᱳ
ᱢᱚᱨᱵᱤ
ᱢᱚᱪ
ᱢᱚᱪᱟ
ᱢᱚᱫᱚᱨ
ᱢᱚᱫᱚᱱ
ᱢᱚᱫᱚᱱᱯᱩᱨ
ᱢᱚᱫᱤ
ᱢᱚᱫᱤᱱᱟ
ᱢᱚᱫᱩᱨᱟᱭ
ᱢᱚᱫᱫᱷᱚ
ᱢᱚᱫᱷᱩ
ᱢᱚᱫᱷᱩᱠᱚᱨ
ᱢᱚᱫᱷᱩᱢᱤᱛᱟ
ᱢᱚᱫᱷᱩᱥᱩᱫᱚᱱ
ᱢᱚᱫᱷᱩᱨ
ᱢᱚᱫᱷᱩᱯᱩᱨ
ᱢᱚᱫᱷᱩᱵᱚᱱᱤ
ᱢᱚᱫᱷᱭᱚ
ᱢᱚᱫᱷᱭᱚᱢ
ᱢᱚᱫᱷᱭᱚᱯᱨᱚᱫᱮᱥ
ᱢᱚᱫᱽᱨᱟᱥ
ᱢᱚᱫᱽᱨᱟᱥᱟ
ᱢᱚᱫᱽᱭᱚ
ᱢᱚᱬᱤ
ᱢᱚᱬᱤᱯᱩᱨ
ᱢᱚᱬᱤᱯᱩᱨᱤ
ᱢᱚᱬᱮ
ᱢᱚᱬᱮᱜᱮᱞ
ᱢᱚᱬᱮᱠᱚ
ᱢᱚᱬᱮᱭᱟᱜ
ᱢᱚᱭᱛᱷᱟᱞᱤ
ᱢᱚᱭᱛᱷᱤᱞᱤ
ᱢᱚᱭᱢᱚᱱᱥᱤᱝᱦᱚ
ᱢᱚᱭᱤ
ᱢᱚᱭᱤᱞᱟᱫᱩᱛᱷᱩᱨᱟᱭ
ᱢᱚᱭᱤᱫᱟ
ᱢᱚᱭᱩᱨ
ᱢᱚᱭᱩᱨᱟᱠᱠᱷᱤ
ᱢᱚᱭᱩᱨᱤ
ᱢᱚᱭᱩᱨᱫᱚᱨ
ᱢᱚᱭᱩᱨᱮᱥᱥᱚᱨ
ᱢᱚᱭᱩᱨᱵᱷᱚᱸᱡ
ᱢᱚᱭᱩᱨᱵᱷᱚᱸᱡᱽ
ᱢᱚᱭᱫᱟᱱ
ᱢᱚᱰ
ᱢᱚᱰᱚᱞ
ᱢᱚᱰᱚᱨᱱ
ᱢᱚᱰᱟᱞ
ᱢᱚᱰᱟᱨᱱ
ᱢᱚᱰᱤᱠᱮᱨᱤ
ᱢᱚᱰᱮᱞ
ᱢᱚᱰᱮᱞᱤᱝ
ᱢᱚᱱ
ᱢᱚᱱᱚ
ᱢᱚᱱᱚᱛ
ᱢᱚᱱᱚᱢᱚᱛᱤ
ᱢᱚᱱᱚᱫᱤᱨ
ᱢᱚᱱᱚᱱᱚᱭᱚᱱᱮ
ᱢᱚᱱᱛᱚ
ᱢᱚᱱᱛᱟᱨᱤ
ᱢᱚᱱᱛᱤᱨᱤ
ᱢᱚᱱᱛᱨᱚ
ᱢᱚᱱᱛᱨᱚᱱᱟᱞᱚᱭ
ᱢᱚᱱᱛᱨᱟᱞᱚᱭ
ᱢᱚᱱᱛᱨᱟᱱᱟᱞᱚᱭ
ᱢᱚᱱᱛᱨᱟᱲᱚᱭ
ᱢᱚᱱᱛᱨᱤ
ᱢᱚᱱᱛᱨᱤᱥᱟᱲᱟ
ᱢᱚᱱᱛᱨᱤᱭ
ᱢᱚᱱᱛᱨᱤᱭᱟᱜ
ᱢᱚᱱᱛᱨᱤᱭᱮ
ᱢᱚᱱᱟᱝ
ᱢᱚᱱᱟᱞᱤ
ᱢᱚᱱᱟᱞᱤᱥᱟ
ᱢᱚᱱᱡᱩ
ᱢᱚᱱᱡᱷᱚᱱᱯᱩᱨ
ᱢᱚᱱᱢᱚᱦᱚᱱ
ᱢᱚᱱᱢᱳᱦᱚᱱ
ᱢᱚᱱᱤ
ᱢᱚᱱᱤᱠᱟ
ᱢᱚᱱᱤᱥ
ᱢᱚᱱᱤᱥᱟ
ᱢᱚᱱᱤᱨᱟᱢ
ᱢᱚᱱᱤᱨᱟᱢᱯᱩᱨ
ᱢᱚᱱᱤᱯᱩᱨ
ᱢᱚᱱᱤᱯᱩᱨᱤ
ᱢᱚᱱᱤᱴᱚᱨ
ᱢᱚᱱᱥᱟ
ᱢᱚᱱᱥᱤᱠ
ᱢᱚᱱᱨᱳ
ᱢᱚᱱᱩ
ᱢᱚᱱᱫᱤᱨ
ᱢᱚᱱᱮ
ᱢᱚᱱᱮᱛᱮ
ᱢᱚᱱᱮᱨ
ᱢᱚᱱᱮᱨᱮ
ᱢᱚᱱᱮᱭ
ᱢᱚᱱᱮᱭᱟ
ᱢᱚᱱᱮᱭᱟᱱ
ᱢᱚᱱᱯᱩᱨᱟ
ᱢᱚᱱᱰᱚᱞ
ᱢᱚᱱᱰᱚᱯ
ᱢᱚᱱᱰᱚᱲ
ᱢᱚᱱᱰᱚᱲᱤ
ᱢᱚᱱᱳᱡ
ᱢᱚᱱᱳᱡᱽ
ᱢᱚᱱᱳᱦᱚᱨ
ᱢᱚᱱᱴᱮᱱᱤᱜᱨᱳ
ᱢᱚᱲᱮ
ᱢᱚᱴ
ᱢᱚᱴᱚ
ᱢᱚᱴᱚᱠ
ᱢᱚᱴᱚᱨ
ᱢᱚᱴᱚᱨᱥᱟᱭᱠᱮᱞ
ᱢᱚᱴᱟ
ᱢᱚᱴᱟᱜ
ᱢᱚᱴᱟᱢᱩᱴᱤ
ᱢᱚᱴᱤ
ᱢᱚᱴᱩ
ᱢᱚᱴᱷ
ᱢᱚᱴᱷᱚ
ᱢᱚᱴᱷᱮ
ᱢᱚᱵᱟᱤᱞ
ᱢᱚᱵᱟᱭᱤᱞ
ᱢᱚᱶᱞᱚᱵᱷᱤ
ᱢᱚᱸᱛᱨᱟᱞᱚᱭ
ᱢᱚᱸᱛᱨᱤ
ᱢᱚᱸᱜᱚᱞ
ᱢᱚᱸᱡᱽ
ᱢᱚᱸᱦᱰᱟ
ᱢᱚᱸᱪ
ᱢᱚᱸᱫᱤᱨ
ᱢᱚᱸᱰᱞᱤ
ᱢᱚᱸᱰᱤ
ᱢᱚᱸᱴᱟᱱᱟ
ᱢᱛ
ᱢᱛᱹ
ᱢᱟ
ᱢᱟᱛ
ᱢᱟᱛᱚᱝᱜᱤᱱᱤ
ᱢᱟᱛᱟ
ᱢᱟᱛᱟᱞ
ᱢᱟᱛᱠᱚᱢ
ᱢᱟᱛᱨᱚ
ᱢᱟᱛᱨᱟ
ᱢᱟᱛᱷᱤᱣ
ᱢᱟᱛᱷᱩᱨ
ᱢᱟᱜ
ᱢᱟᱜᱟ
ᱢᱟᱜᱟᱡᱤᱱ
ᱢᱟᱜᱟᱣ
ᱢᱟᱜᱟᱨ
ᱢᱟᱜᱟᱫᱷ
ᱢᱟᱜᱣᱟᱭ
ᱢᱟᱜᱩᱨᱟ
ᱢᱟᱜᱮ
ᱢᱟᱜᱷ
ᱢᱟᱜᱷᱚᱨ
ᱢᱟᱜᱽ
ᱢᱟᱜᱽᱥᱤ
ᱢᱟᱝ
ᱢᱟᱞ
ᱢᱟᱞᱚᱛᱤ
ᱢᱟᱞᱚᱭ
ᱢᱟᱞᱚᱭᱟᱞᱚᱢ
ᱢᱟᱞᱚᱭᱥᱤᱭᱟ
ᱢᱟᱞᱚᱭᱮᱥᱤᱭᱟ
ᱢᱟᱞᱚᱭᱼᱯᱚᱞᱤᱱᱮᱥᱤᱭᱟᱱ
ᱢᱟᱞᱚᱯᱩᱨᱚᱢ
ᱢᱟᱞᱚᱴ
ᱢᱟᱞᱚᱴᱚᱜ
ᱢᱟᱞᱛᱳ
ᱢᱟᱞᱞᱟ
ᱢᱟᱞᱞᱤᱠᱟ
ᱢᱟᱞᱟ
ᱢᱟᱞᱟᱜᱟᱥᱤ
ᱢᱟᱞᱟᱥᱟᱭ
ᱢᱟᱞᱟᱥᱤᱭᱟ
ᱢᱟᱞᱟᱭ
ᱢᱟᱞᱟᱭᱚᱞᱚᱢ
ᱢᱟᱞᱟᱭᱚᱢ
ᱢᱟᱞᱟᱭᱟ
ᱢᱟᱞᱟᱭᱟᱞᱚᱢ
ᱢᱟᱞᱟᱭᱟᱞᱟᱢ
ᱢᱟᱞᱟᱭᱟᱞᱤ
ᱢᱟᱞᱟᱭᱟᱢ
ᱢᱟᱞᱟᱯᱯᱩᱨᱚᱢ
ᱢᱟᱞᱟᱯᱯᱩᱨᱟᱢ
ᱢᱟᱞᱟᱵᱟᱨ
ᱢᱟᱞᱠᱟᱱᱜᱤᱨᱤ
ᱢᱟᱞᱠᱳᱣᱟ
ᱢᱟᱞᱣᱟ
ᱢᱟᱞᱣᱟᱨ
ᱢᱟᱞᱤ
ᱢᱟᱞᱤᱠ
ᱢᱟᱞᱤᱱᱤ
ᱢᱟᱞᱦᱚᱛᱨᱟ
ᱢᱟᱞᱦᱟᱱ
ᱢᱟᱞᱦᱳᱛᱨᱟ
ᱢᱟᱞᱩᱠᱩ
ᱢᱟᱞᱫᱟ
ᱢᱟᱞᱫᱤᱣ
ᱢᱟᱞᱫᱤᱣᱮᱥ
ᱢᱟᱞᱫᱤᱯ
ᱢᱟᱞᱫᱤᱵᱷᱤᱭᱟᱱ
ᱢᱟᱞᱭᱟᱞᱟᱢ
ᱢᱟᱞᱮ
ᱢᱟᱞᱮᱥᱤᱭᱟ
ᱢᱟᱞᱴᱟ
ᱢᱟᱞᱴᱤ
ᱢᱟᱞᱴᱤᱥ
ᱢᱟᱞᱵᱤ
ᱢᱟᱞᱵᱷᱩᱢᱤ
ᱢᱟᱠ
ᱢᱟᱠᱟᱣ
ᱢᱟᱠᱥ
ᱢᱟᱠᱥᱣᱮᱞ
ᱢᱟᱠᱷᱚᱱᱞᱟᱞ
ᱢᱟᱡᱚᱞᱤ
ᱢᱟᱡᱟ
ᱢᱟᱡᱟᱨ
ᱢᱟᱡᱤᱣ
ᱢᱟᱡᱤᱥᱴᱨᱮᱴ
ᱢᱟᱡᱩᱞᱤ
ᱢᱟᱡᱩᱨᱚ
ᱢᱟᱡᱷᱤ
ᱢᱟᱡᱷᱮ
ᱢᱟᱢᱚ
ᱢᱟᱢᱚᱛ
ᱢᱟᱢᱚᱱᱤ
ᱢᱟᱢᱞᱟ
ᱢᱟᱢᱟ
ᱢᱟᱢᱟᱝ
ᱢᱟᱢᱤᱱᱟ
ᱢᱟᱢᱩᱞᱤ
ᱢᱟᱢᱩᱱ
ᱢᱟᱣ
ᱢᱟᱣᱚᱵᱟᱫᱤ
ᱢᱟᱣᱞᱟᱢᱭᱤᱱ
ᱢᱟᱣᱨᱤ
ᱢᱟᱣᱩᱥ
ᱢᱟᱣᱩᱱᱴ
ᱢᱟᱣᱩᱸᱴ
ᱢᱟᱣᱵᱟᱫᱤ
ᱢᱟᱤ
ᱢᱟᱥ
ᱢᱟᱥᱛᱩᱝ
ᱢᱟᱥᱟᱞᱟ
ᱢᱟᱥᱟᱞᱤᱭᱟᱹ
ᱢᱟᱥᱟᱞᱥ
ᱢᱟᱥᱟᱱᱡᱳᱨ
ᱢᱟᱥᱠ
ᱢᱟᱥᱡᱤᱫᱽ
ᱢᱟᱥᱤ
ᱢᱟᱥᱤᱠ
ᱢᱟᱥᱤᱱ
ᱢᱟᱥᱨᱟᱯᱷᱤ
ᱢᱟᱥᱩᱫᱽ
ᱢᱟᱥᱮ
ᱢᱟᱥᱴᱚᱨ
ᱢᱟᱥᱴᱟᱨ
ᱢᱟᱥᱴᱟᱨᱥ
ᱢᱟᱦᱚᱞ
ᱢᱟᱦᱚᱵᱟ
ᱢᱟᱦᱛᱚ
ᱢᱟᱦᱞᱤ
ᱢᱟᱦᱞᱮ
ᱢᱟᱦᱟ
ᱢᱟᱦᱟᱛᱢᱟ
ᱢᱟᱦᱟᱛᱤ
ᱢᱟᱦᱟᱛᱳ
ᱢᱟᱦᱟᱞ
ᱢᱟᱦᱟᱞᱤ
ᱢᱟᱦᱟᱠᱟᱵᱽᱭᱚ
ᱢᱟᱦᱟᱡᱚᱱ
ᱢᱟᱦᱟᱥᱟᱢᱩᱱᱫᱽ
ᱢᱟᱦᱟᱥᱤᱵᱽᱨᱟᱛᱨᱤ
ᱢᱟᱦᱟᱨᱟᱡᱟ
ᱢᱟᱦᱟᱨᱟᱡᱽ
ᱢᱟᱦᱟᱨᱟᱥᱴᱨᱚ
ᱢᱟᱦᱟᱨᱟᱱᱤ
ᱢᱟᱦᱟᱨᱤ
ᱢᱟᱦᱟᱫᱚᱨᱭᱟ
ᱢᱟᱦᱟᱫᱤᱯ
ᱢᱟᱦᱟᱫᱮᱥ
ᱢᱟᱦᱟᱱ
ᱢᱟᱦᱟᱱᱚᱜᱚᱨ
ᱢᱟᱦᱟᱱᱚᱜᱽᱨᱤ
ᱢᱟᱦᱟᱱᱚᱜᱽᱨᱤᱭ
ᱢᱟᱦᱟᱱᱚᱫᱤ
ᱢᱟᱦᱟᱱᱛ
ᱢᱟᱦᱟᱱᱟᱜᱟᱨ
ᱢᱟᱦᱟᱱᱟᱫᱤ
ᱢᱟᱦᱟᱵᱤᱨ
ᱢᱟᱦᱟᱵᱤᱫᱫᱟᱞᱚᱭ
ᱢᱟᱦᱟᱵᱤᱫᱽᱭᱟᱞᱚᱭ
ᱢᱟᱦᱟᱵᱷᱟᱨᱚᱛ
ᱢᱟᱦᱟᱸ
ᱢᱟᱦᱟᱸᱨᱤ
ᱢᱟᱦᱟᱸᱨᱮ
ᱢᱟᱦᱢᱩᱫᱽ
ᱢᱟᱦᱤ
ᱢᱟᱦᱤᱛ
ᱢᱟᱦᱤᱞᱟ
ᱢᱟᱦᱩᱣᱟ
ᱢᱟᱦᱮ
ᱢᱟᱦᱮᱛᱟ
ᱢᱟᱦᱮᱥ
ᱢᱟᱦᱮᱥᱯᱩᱨ
ᱢᱟᱦᱮᱨ
ᱢᱟᱦᱮᱱᱫᱽᱨᱚ
ᱢᱟᱦᱯᱷᱩᱡᱽ
ᱢᱟᱧᱡᱟᱱ
ᱢᱟᱨ
ᱢᱟᱨᱛᱷᱟ
ᱢᱟᱨᱜᱟᱨᱮᱴ
ᱢᱟᱨᱜᱤ
ᱢᱟᱨᱜᱷᱮᱨᱤᱴᱟ
ᱢᱟᱨᱜᱽ
ᱢᱟᱨᱞᱮᱱᱮ
ᱢᱟᱨᱟ
ᱢᱟᱨᱟᱛᱷᱚᱱ
ᱢᱟᱨᱟᱜ
ᱢᱟᱨᱟᱝ
ᱢᱟᱨᱟᱝᱚᱜ
ᱢᱟᱨᱟᱝᱛᱮᱫᱚ
ᱢᱟᱨᱟᱝᱟ
ᱢᱟᱨᱟᱝᱤᱡ
ᱢᱟᱨᱟᱝᱵᱩᱨᱩ
ᱢᱟᱨᱟᱝᱼᱟ
ᱢᱟᱨᱟᱢ
ᱢᱟᱨᱟᱣ
ᱢᱟᱨᱟᱨ
ᱢᱟᱨᱟᱯᱷᱟᱨᱤ
ᱢᱟᱨᱟᱱᱜ
ᱢᱟᱨᱟᱱᱰᱤ
ᱢᱟᱨᱟᱲ
ᱢᱟᱨᱟᱴᱷᱟ
ᱢᱟᱨᱟᱴᱷᱣᱟᱲᱟ
ᱢᱟᱨᱟᱴᱷᱤ
ᱢᱟᱨᱟᱸ
ᱢᱟᱨᱠ
ᱢᱟᱨᱠᱚ
ᱢᱟᱨᱠᱚᱥ
ᱢᱟᱨᱠᱤᱱ
ᱢᱟᱨᱠᱥ
ᱢᱟᱨᱠᱥᱤᱥᱴ
ᱢᱟᱨᱠᱥᱵᱟᱫᱤ
ᱢᱟᱨᱠᱥᱵᱟᱫᱽ
ᱢᱟᱨᱠᱮᱡᱽ
ᱢᱟᱨᱠᱮᱴ
ᱢᱟᱨᱠᱮᱴᱤᱝ
ᱢᱟᱨᱠᱷᱟᱱ
ᱢᱟᱨᱢᱟ
ᱢᱟᱨᱣᱟᱦ
ᱢᱟᱨᱣᱟᱲᱤ
ᱢᱟᱨᱣᱤ
ᱢᱟᱨᱤ
ᱢᱟᱨᱤᱪ
ᱢᱟᱨᱤᱭᱟ
ᱢᱟᱨᱤᱭᱳᱯᱳᱞ
ᱢᱟᱨᱤᱱᱟ
ᱢᱟᱨᱤᱱᱳ
ᱢᱟᱨᱥ
ᱢᱟᱨᱥᱟᱞ
ᱢᱟᱨᱥᱟᱞᱤ
ᱢᱟᱨᱥᱢᱮᱞᱚ
ᱢᱟᱨᱥᱮᱞ
ᱢᱟᱨᱩᱛᱤ
ᱢᱟᱨᱪ
ᱢᱟᱨᱮ
ᱢᱟᱨᱮᱭᱟ
ᱢᱟᱨᱮᱭᱟᱜ
ᱢᱟᱨᱮᱱ
ᱢᱟᱨᱮᱱᱟᱜ
ᱢᱟᱨᱮᱹ
ᱢᱟᱨᱰᱤ
ᱢᱟᱨᱴᱤᱱ
ᱢᱟᱨᱵᱚᱞ
ᱢᱟᱩᱱᱴ
ᱢᱟᱩᱱᱴᱮᱱ
ᱢᱟᱪ
ᱢᱟᱪᱮᱛ
ᱢᱟᱪᱮᱛᱟᱱᱤ
ᱢᱟᱪᱮᱛᱟᱹᱱᱤ
ᱢᱟᱪᱮᱫ
ᱢᱟᱪᱷᱞᱤᱯᱟᱴᱱᱟᱢ
ᱢᱟᱪᱷᱟ
ᱢᱟᱫ
ᱢᱟᱫᱟᱜᱟᱥᱠᱟᱨ
ᱢᱟᱫᱟᱨ
ᱢᱟᱫᱟᱨᱤᱯᱩᱨ
ᱢᱟᱫᱨᱟᱥᱟ
ᱢᱟᱫᱨᱤᱫᱽ
ᱢᱟᱫᱩᱨᱟ
ᱢᱟᱫᱩᱨᱟᱭ
ᱢᱟᱫᱩᱨᱤ
ᱢᱟᱫᱩᱨᱤᱥ
ᱢᱟᱫᱩᱨᱮᱥ
ᱢᱟᱫᱫᱷᱚᱢᱤᱠ
ᱢᱟᱫᱮ
ᱢᱟᱫᱷᱚᱢᱤᱠ
ᱢᱟᱫᱷᱚᱯᱩᱨ
ᱢᱟᱫᱷᱚᱵ
ᱢᱟᱫᱷᱚᱵᱤ
ᱢᱟᱫᱷᱚᱵᱽ
ᱢᱟᱫᱷᱣᱟᱱ
ᱢᱟᱫᱷᱩ
ᱢᱟᱫᱷᱩᱨᱤ
ᱢᱟᱫᱷᱩᱯᱩᱨ
ᱢᱟᱫᱷᱩᱵᱟᱞᱟ
ᱢᱟᱫᱷᱩᱵᱟᱱ
ᱢᱟᱫᱷᱩᱵᱟᱱᱤ
ᱢᱟᱫᱷᱭᱚᱢ
ᱢᱟᱫᱷᱭᱚᱢᱤᱠ
ᱢᱟᱫᱷᱮ
ᱢᱟᱫᱷᱮᱯᱩᱨᱟ
ᱢᱟᱫᱽᱨᱟᱥ
ᱢᱟᱫᱽᱨᱟᱥᱟ
ᱢᱟᱫᱽᱨᱤᱫᱽ
ᱢᱟᱫᱽᱫᱷᱚᱢᱤᱠ
ᱢᱟᱬ
ᱢᱟᱬᱛᱮ
ᱢᱟᱬᱜᱷᱟᱹᱴᱤ
ᱢᱟᱬᱟ
ᱢᱟᱬᱟᱝ
ᱢᱟᱬᱟᱝᱨᱮ
ᱢᱟᱬᱮ
ᱢᱟᱭ
ᱢᱟᱭᱛᱷᱤᱞᱤ
ᱢᱟᱭᱟ
ᱢᱟᱭᱟᱝ
ᱢᱟᱭᱟᱢ
ᱢᱟᱭᱟᱫᱷᱚᱨ
ᱢᱟᱭᱟᱱᱢᱟᱨ
ᱢᱟᱭᱟᱵᱚᱛᱤ
ᱢᱟᱭᱠᱨᱚᱥᱚᱯᱴ
ᱢᱟᱭᱠᱨᱳᱱᱮᱥᱤᱭᱟ
ᱢᱟᱭᱠᱨᱳᱵᱟᱭᱚᱞᱚᱡᱤ
ᱢᱟᱭᱠᱮᱞ
ᱢᱟᱭᱠᱮᱞᱟᱝᱡᱮᱞᱚ
ᱢᱟᱭᱡᱤᱣ
ᱢᱟᱭᱡᱤᱣᱮ
ᱢᱟᱭᱤ
ᱢᱟᱭᱤᱞ
ᱢᱟᱭᱤᱠ
ᱢᱟᱭᱥᱩᱨ
ᱢᱟᱭᱩᱱᱴ
ᱢᱟᱭᱮᱞ
ᱢᱟᱭᱮᱠ
ᱢᱟᱭᱱᱚ
ᱢᱟᱭᱱᱚᱨ
ᱢᱟᱭᱱᱤᱡᱽ
ᱢᱟᱭᱱᱤᱸᱡ
ᱢᱟᱭᱳ
ᱢᱟᱭᱴᱷᱟᱱ
ᱢᱟᱯᱟᱧᱡᱤ
ᱢᱟᱰᱟ
ᱢᱟᱰᱟᱝ
ᱢᱟᱰᱣᱟ
ᱢᱟᱰᱨᱟᱣ
ᱢᱟᱰᱨᱟᱥ
ᱢᱟᱰᱨᱤᱰ
ᱢᱟᱰᱮᱨ
ᱢᱟᱱ
ᱢᱟᱱᱚᱛ
ᱢᱟᱱᱚᱛᱟᱱ
ᱢᱟᱱᱚᱛᱮ
ᱢᱟᱱᱚᱠ
ᱢᱟᱱᱚᱡ
ᱢᱟᱱᱚᱣ
ᱢᱟᱱᱚᱣᱟ
ᱢᱟᱱᱚᱥ
ᱢᱟᱱᱚᱥᱤ
ᱢᱟᱱᱚᱦᱟᱨ
ᱢᱟᱱᱚᱦᱟᱨᱯᱩᱨ
ᱢᱟᱱᱛᱟᱨ
ᱢᱟᱱᱛᱟᱨᱤ
ᱢᱟᱱᱜᱚ
ᱢᱟᱱᱟ
ᱢᱟᱱᱟᱜ
ᱢᱟᱱᱟᱜᱼᱟ
ᱢᱟᱱᱟᱞᱤ
ᱢᱟᱱᱟᱢ
ᱢᱟᱱᱟᱢᱟ
ᱢᱟᱱᱟᱣ
ᱢᱟᱱᱟᱣᱚᱜ
ᱢᱟᱱᱟᱣᱜ
ᱢᱟᱱᱟᱣᱟ
ᱢᱟᱱᱟᱣᱟᱜ
ᱢᱟᱱᱟᱣᱮ
ᱢᱟᱱᱟᱣᱮᱫ
ᱢᱟᱱᱟᱣᱮᱫᱼᱟ
ᱢᱟᱱᱟᱣᱮᱭᱟ
ᱢᱟᱱᱟᱣᱻᱟ
ᱢᱟᱱᱟᱣᱼᱟ
ᱢᱟᱱᱟᱶ
ᱢᱟᱱᱟᱶᱟ
ᱢᱟᱱᱠᱟᱪᱚᱨ
ᱢᱟᱱᱢᱤ
ᱢᱟᱱᱣᱟ
ᱢᱟᱱᱣᱟᱨᱤ
ᱢᱟᱱᱤ
ᱢᱟᱱᱤᱞᱟ
ᱢᱟᱱᱤᱠ
ᱢᱟᱱᱤᱠᱜᱚᱸᱡᱽ
ᱢᱟᱱᱤᱯᱩᱨ
ᱢᱟᱱᱤᱯᱩᱨᱤ
ᱢᱟᱱᱥᱤᱝ
ᱢᱟᱱᱥᱤᱠ
ᱢᱟᱱᱩ
ᱢᱟᱱᱩᱥ
ᱢᱟᱱᱩᱥᱤ
ᱢᱟᱱᱩᱭᱮᱞ
ᱢᱟᱱᱪᱤᱛᱟᱹᱨ
ᱢᱟᱱᱫᱟ
ᱢᱟᱱᱫᱟᱨ
ᱢᱟᱱᱫᱟᱨᱤᱱ
ᱢᱟᱱᱫᱤᱨ
ᱢᱟᱱᱭᱚᱛᱟ
ᱢᱟᱱᱮ
ᱢᱟᱱᱮᱛ
ᱢᱟᱱᱰᱟᱞ
ᱢᱟᱱᱰᱟᱞᱟᱭ
ᱢᱟᱱᱰᱟᱨ
ᱢᱟᱱᱰᱟᱨᱤᱱ
ᱢᱟᱱᱰᱤ
ᱢᱟᱱᱰᱩ
ᱢᱟᱱᱰᱮᱞᱟ
ᱢᱟᱱᱰᱮᱨ
ᱢᱟᱱᱱᱟ
ᱢᱟᱱᱵᱟᱡᱟᱨ
ᱢᱟᱱᱵᱷᱩᱢ
ᱢᱟᱱᱶᱟ
ᱢᱟᱲᱚᱛᱤ
ᱢᱟᱲᱟᱜ
ᱢᱟᱲᱟᱝ
ᱢᱟᱲᱟᱭ
ᱢᱟᱲᱤᱱᱤ
ᱢᱟᱳᱵᱟᱫᱤ
ᱢᱟᱴ
ᱢᱟᱴᱤᱥᱤ
ᱢᱟᱴᱴ
ᱢᱟᱴᱷ
ᱢᱟᱶᱴ
ᱢᱟᱶᱴᱮᱱ
ᱢᱟᱸ
ᱢᱟᱸᱜᱽᱞᱚᱨ
ᱢᱟᱸᱜᱽᱞᱳᱨ
ᱢᱟᱸᱡᱟᱱ
ᱢᱟᱸᱡᱷᱤ
ᱢᱟᱸᱦᱟ
ᱢᱟᱸᱨᱤᱪ
ᱢᱟᱸᱫ
ᱢᱟᱸᱫᱽᱥᱚᱨ
ᱢᱟᱸᱭ
ᱢᱟᱸᱯᱟᱧᱡᱤ
ᱢᱟᱸᱰᱞᱟ
ᱢᱟᱸᱰᱟᱞ
ᱢᱟᱸᱰᱣᱟ
ᱢᱟᱸᱰᱤ
ᱢᱟᱸᱰᱩ
ᱢᱟᱸᱰᱭᱟ
ᱢᱟᱸᱱᱢᱤ
ᱢᱟᱹ
ᱢᱟᱹᱞᱤ
ᱢᱟᱹᱞᱤᱠ
ᱢᱟᱹᱡᱷᱤ
ᱢᱟᱹᱢᱤ
ᱢᱟᱹᱥᱤ
ᱢᱟᱹᱥᱨᱤ
ᱢᱟᱹᱦᱤᱛ
ᱢᱟᱹᱦᱤᱫ
ᱢᱟᱹᱧᱡᱩᱨ
ᱢᱟᱹᱧᱡᱽᱦᱤ
ᱢᱟᱹᱨᱤᱪ
ᱢᱟᱹᱨᱰᱤ
ᱢᱟᱹᱪᱤ
ᱢᱟᱹᱪᱤᱭ
ᱢᱟᱹᱫᱟᱹᱲᱤᱭᱟᱹ
ᱢᱟᱹᱫᱽ
ᱢᱟᱹᱭ
ᱢᱟᱹᱭᱡᱤᱣ
ᱢᱟᱹᱭᱤᱞ
ᱢᱟᱹᱱ
ᱢᱟᱹᱱᱟᱱ
ᱢᱟᱹᱱᱢᱤ
ᱢᱟᱹᱱᱢᱤᱭᱟᱜ
ᱢᱟᱹᱱᱤᱡ
ᱢᱟᱹᱱᱰᱤ
ᱢᱟᱺ
ᱢᱟᱺᱡᱦᱤ
ᱢᱟᱺᱡᱷᱤ
ᱢᱟᱺᱦᱤᱛ
ᱢᱟᱺᱨᱰᱤ
ᱢᱟᱺᱭ
ᱢᱟᱺᱰᱤ
ᱢᱟᱺᱱ
ᱢᱢ
ᱢᱤ
ᱢᱤᱛ
ᱢᱤᱛᱟ
ᱢᱤᱛᱨᱚ
ᱢᱤᱛᱨᱟ
ᱢᱤᱛᱷᱤᱞᱟ
ᱢᱤᱛᱷᱤᱞᱤ
ᱢᱤᱛᱷᱩᱱ
ᱢᱤᱜ
ᱢᱤᱜᱴᱟᱹᱝ
ᱢᱤᱝ
ᱢᱤᱞ
ᱢᱤᱞᱚᱱ
ᱢᱤᱞᱞᱤᱭᱚᱱ
ᱢᱤᱞᱞᱤᱭᱟᱱ
ᱢᱤᱞᱟ
ᱢᱤᱞᱟᱣ
ᱢᱤᱞᱟᱱ
ᱢᱤᱞᱟᱹᱣ
ᱢᱤᱞᱠ
ᱢᱤᱞᱤ
ᱢᱤᱞᱤᱢᱤᱴᱚᱨ
ᱢᱤᱞᱤᱢᱤᱴᱟᱨ
ᱢᱤᱞᱤᱭᱚᱱ
ᱢᱤᱞᱤᱭᱟ
ᱢᱤᱞᱤᱭᱟᱱ
ᱢᱤᱞᱤᱭᱳᱱ
ᱢᱤᱞᱤᱴᱟᱨᱤ
ᱢᱤᱞᱤᱴᱨᱤ
ᱢᱤᱞᱥ
ᱢᱤᱞᱮ
ᱢᱤᱠᱟᱛᱤ
ᱢᱤᱠᱤᱨ
ᱢᱤᱡᱚ
ᱢᱤᱡᱚᱨᱟᱢ
ᱢᱤᱡᱤ
ᱢᱤᱡᱳ
ᱢᱤᱡᱳᱨᱟᱢ
ᱢᱤᱢᱟᱝᱥᱟ
ᱢᱤᱢᱤ
ᱢᱤᱢᱤᱫ
ᱢᱤᱢᱤᱫᱴᱟᱝ
ᱢᱤᱣᱡᱤᱠ
ᱢᱤᱣᱡᱤᱭᱚᱢ
ᱢᱤᱣᱡᱤᱭᱟᱢ
ᱢᱤᱥ
ᱢᱤᱥᱚᱨ
ᱢᱤᱥᱚᱱ
ᱢᱤᱥᱚᱱᱚᱨᱤ
ᱢᱤᱥᱚᱱᱟᱨᱤ
ᱢᱤᱥᱛᱨᱚ
ᱢᱤᱥᱟ
ᱢᱤᱥᱟᱭᱤᱞ
ᱢᱤᱥᱟᱲᱟ
ᱢᱤᱥᱤ
ᱢᱤᱥᱤᱝ
ᱢᱤᱥᱤᱥᱤᱯᱤ
ᱢᱤᱥᱤᱱ
ᱢᱤᱥᱨᱚ
ᱢᱤᱥᱨᱟ
ᱢᱤᱥᱨᱟᱛ
ᱢᱤᱥᱨᱟᱭ
ᱢᱤᱥᱨᱤ
ᱢᱤᱥᱮᱨᱟ
ᱢᱤᱥᱱᱟᱨᱤ
ᱢᱤᱥᱴᱚᱨ
ᱢᱤᱥᱴᱟᱨ
ᱢᱤᱥᱴᱤ
ᱢᱤᱦᱚᱨᱟ
ᱢᱤᱦᱤ
ᱢᱤᱦᱤᱡᱟᱢ
ᱢᱤᱦᱤᱨ
ᱢᱤᱦᱩᱸ
ᱢᱤᱨ
ᱢᱤᱨᱚᱨ
ᱢᱤᱨᱛᱷᱤᱠᱟ
ᱢᱤᱨᱟ
ᱢᱤᱨᱟᱡᱽ
ᱢᱤᱨᱟᱱᱰᱟ
ᱢᱤᱨᱟᱴ
ᱢᱤᱨᱟᱵᱟᱭ
ᱢᱤᱨᱡᱟ
ᱢᱤᱨᱡᱟᱯᱩᱨ
ᱢᱤᱨᱤ
ᱢᱤᱨᱩ
ᱢᱤᱨᱪᱤ
ᱢᱤᱨᱮ
ᱢᱤᱨᱯᱩᱨ
ᱢᱤᱪᱟᱞ
ᱢᱤᱪᱤᱜᱟᱱ
ᱢᱤᱪᱮᱞ
ᱢᱤᱪᱷᱤᱞ
ᱢᱤᱫ
ᱢᱤᱫᱚᱜ
ᱢᱤᱫᱤᱱᱤᱯᱩᱨ
ᱢᱤᱫᱤᱱᱯᱩᱨ
ᱢᱤᱫᱥᱟᱭ
ᱢᱤᱫᱩᱜ
ᱢᱤᱫᱩᱜᱼᱟ
ᱢᱤᱫᱩᱱ
ᱢᱤᱫᱱᱟᱯᱩᱨ
ᱢᱤᱫᱱᱤᱯᱩᱨ
ᱢᱤᱫᱴᱟ
ᱢᱤᱫᱴᱟᱝ
ᱢᱤᱫᱴᱟᱱ
ᱢᱤᱫᱴᱟᱸ
ᱢᱤᱫᱴᱟᱹᱝ
ᱢᱤᱫᱴᱤᱡ
ᱢᱤᱫᱴᱮᱝ
ᱢᱤᱫᱴᱮᱱ
ᱢᱤᱫᱴᱷᱮᱱ
ᱢᱤᱫᱽ
ᱢᱤᱫᱽᱱᱟᱯᱩᱨ
ᱢᱤᱬᱩᱛ
ᱢᱤᱭ
ᱢᱤᱭᱟ
ᱢᱤᱭᱟᱢᱤ
ᱢᱤᱭᱟᱱᱢᱟᱨ
ᱢᱤᱭᱩᱡᱤᱭᱟᱢ
ᱢᱤᱭᱩᱱᱤᱥᱤᱯᱟᱞᱤᱴᱤ
ᱢᱤᱭᱩᱱᱤᱥᱮᱯᱟᱞᱤᱴᱤ
ᱢᱤᱯᱷᱩᱱᱮ
ᱢᱤᱰ
ᱢᱤᱰᱚᱞ
ᱢᱤᱰᱤᱞ
ᱢᱤᱰᱤᱭᱚᱢ
ᱢᱤᱰᱤᱭᱟ
ᱢᱤᱰᱤᱭᱟᱢ
ᱢᱤᱰᱮᱞ
ᱢᱤᱰᱴᱮᱱ
ᱢᱤᱱ
ᱢᱤᱱᱚᱛᱤ
ᱢᱤᱱᱜ
ᱢᱤᱱᱟ
ᱢᱤᱱᱟᱝᱠᱟᱵᱟᱣ
ᱢᱤᱱᱟᱠᱥᱤ
ᱢᱤᱱᱟᱠᱷᱤ
ᱢᱤᱱᱟᱨ
ᱢᱤᱱᱟᱪᱷᱤ
ᱢᱤᱱᱤ
ᱢᱤᱱᱤᱝ
ᱢᱤᱱᱤᱥᱴᱚᱨ
ᱢᱤᱱᱤᱥᱴᱟᱨ
ᱢᱤᱱᱤᱥᱴᱨᱤ
ᱢᱤᱱᱤᱴ
ᱢᱤᱱᱩ
ᱢᱤᱱᱮᱨᱟᱞ
ᱢᱤᱱᱮᱨᱟᱞᱥ
ᱢᱤᱴ
ᱢᱤᱴᱚᱨ
ᱢᱤᱴᱝ
ᱢᱤᱴᱟ
ᱢᱤᱴᱟᱝ
ᱢᱤᱴᱟᱨ
ᱢᱤᱴᱟᱹᱨ
ᱢᱤᱴᱤᱡ
ᱢᱤᱴᱴᱟᱝ
ᱢᱤᱴᱷᱟ
ᱢᱤᱴᱷᱟᱯᱩᱠᱷᱩᱨ
ᱢᱤᱸᱣᱡᱤᱠ
ᱢᱤᱸᱣᱡᱤᱭᱚᱢ
ᱢᱤᱹ
ᱢᱨᱤᱫᱩᱞᱟ
ᱢᱨᱤᱱᱟᱞᱤᱱᱤ
ᱢᱨᱩ
ᱢᱩ
ᱢᱩᱛᱟ
ᱢᱩᱛᱟᱹᱱ
ᱢᱩᱛᱩᱞ
ᱢᱩᱛᱱᱤ
ᱢᱩᱛᱷᱩ
ᱢᱩᱜᱚᱞ
ᱢᱩᱜᱚᱞᱥᱚᱨᱟᱭ
ᱢᱩᱜᱟᱞ
ᱢᱩᱜᱩ
ᱢᱩᱜᱷᱚᱞ
ᱢᱩᱜᱷᱳᱞ
ᱢᱩᱝ
ᱢᱩᱝᱜᱮᱞᱤ
ᱢᱩᱝᱜᱮᱨ
ᱢᱩᱞ
ᱢᱩᱞᱚᱠ
ᱢᱩᱞᱛᱟᱱ
ᱢᱩᱞᱟ
ᱢᱩᱞᱤᱭᱟᱹ
ᱢᱩᱞᱩᱜ
ᱢᱩᱞᱩᱜᱩ
ᱢᱩᱞᱩᱠ
ᱢᱩᱠᱛᱚ
ᱢᱩᱠᱛᱟ
ᱢᱩᱠᱛᱤ
ᱢᱩᱠᱟᱹᱢ
ᱢᱩᱠᱨᱩᱲ
ᱢᱩᱠᱩᱱᱫᱚ
ᱢᱩᱠᱩᱴ
ᱢᱩᱠᱮᱥ
ᱢᱩᱠᱷ
ᱢᱩᱠᱷᱚᱨᱡᱤ
ᱢᱩᱠᱷᱚᱯᱟᱫᱷᱟᱭ
ᱢᱩᱠᱷᱟᱨᱡᱤ
ᱢᱩᱠᱷᱤ
ᱢᱩᱠᱷᱤᱭᱟ
ᱢᱩᱠᱷᱤᱭᱟᱹ
ᱢᱩᱠᱷᱤᱭᱟᱹᱥᱟᱲᱟ
ᱢᱩᱠᱷᱭᱚ
ᱢᱩᱠᱷᱭᱟ
ᱢᱩᱠᱷᱭᱟᱞᱚᱭ
ᱢᱩᱠᱷᱭᱟᱹ
ᱢᱩᱠᱷᱭᱟᱹᱭ
ᱢᱩᱡ
ᱢᱩᱡᱚᱯᱷᱚᱨᱯᱩᱨ
ᱢᱩᱡᱚᱯᱷᱚᱨᱱᱚᱜᱚᱨ
ᱢᱩᱡᱟᱦᱤᱫᱤᱱ
ᱢᱩᱡᱟᱯᱷᱚᱨᱯᱩᱨ
ᱢᱩᱡᱤᱵᱩᱨ
ᱢᱩᱡᱤᱵᱽ
ᱢᱩᱢᱛᱟᱡᱽ
ᱢᱩᱢᱵᱟᱭ
ᱢᱩᱢᱵᱟᱭᱤ
ᱢᱩᱢᱵᱟᱹᱭ
ᱢᱩᱣᱤ
ᱢᱩᱥᱚᱛᱟᱯᱷᱟ
ᱢᱩᱥᱚᱞᱢᱟᱱ
ᱢᱩᱥᱛᱚᱯᱷᱟ
ᱢᱩᱥᱛᱟᱨᱤ
ᱢᱩᱥᱞᱟ
ᱢᱩᱥᱞᱟᱹ
ᱢᱩᱥᱞᱟᱹᱠᱩ
ᱢᱩᱥᱞᱤᱢ
ᱢᱩᱥᱟ
ᱢᱩᱥᱟᱞᱢᱟᱱ
ᱢᱩᱥᱟᱠᱷᱮᱞ
ᱢᱩᱥᱟᱨᱚᱛ
ᱢᱩᱥᱠᱤᱞ
ᱢᱩᱥᱡᱤᱫᱽ
ᱢᱩᱥᱤ
ᱢᱩᱥᱯᱷᱤᱠ
ᱢᱩᱥᱯᱷᱤᱠᱩᱨ
ᱢᱩᱦᱚᱢᱚᱫᱽ
ᱢᱩᱦᱚᱢᱢᱚᱫᱽ
ᱢᱩᱦᱟᱢᱢᱚᱫ
ᱢᱩᱦᱟᱢᱢᱚᱫᱽ
ᱢᱩᱦᱤᱛ
ᱢᱩᱦᱤᱢ
ᱢᱩᱦᱩᱞᱰᱷᱤᱭᱟᱹ
ᱢᱩᱦᱩᱨᱤ
ᱢᱩᱧᱪᱩᱯᱩᱨᱤ
ᱢᱩᱨ
ᱢᱩᱨᱛᱤ
ᱢᱩᱨᱛᱤᱭ
ᱢᱩᱨᱜᱟ
ᱢᱩᱨᱜᱟᱹᱱ
ᱢᱩᱨᱟ
ᱢᱩᱨᱟᱞᱤ
ᱢᱩᱨᱟᱨᱚᱭ
ᱢᱩᱨᱟᱫ
ᱢᱩᱨᱟᱹᱭ
ᱢᱩᱨᱢᱩ
ᱢᱩᱨᱢᱩᱣᱟᱜ
ᱢᱩᱨᱢᱩᱭ
ᱢᱩᱨᱤ
ᱢᱩᱨᱥᱤᱫᱟᱵᱟᱫ
ᱢᱩᱨᱥᱤᱫᱟᱵᱟᱫᱽ
ᱢᱩᱨᱦᱩ
ᱢᱩᱨᱩᱛ
ᱢᱩᱨᱩᱜᱟ
ᱢᱩᱨᱩᱠ
ᱢᱩᱨᱩᱢ
ᱢᱩᱨᱩᱫ
ᱢᱩᱨᱩᱵᱤ
ᱢᱩᱨᱪᱷᱟ
ᱢᱩᱨᱮᱱᱟ
ᱢᱩᱪ
ᱢᱩᱪᱟ
ᱢᱩᱪᱟᱫ
ᱢᱩᱪᱟᱹᱫ
ᱢᱩᱪᱟᱹᱫᱚᱜ
ᱢᱩᱪᱟᱹᱫᱚᱜᱼᱟ
ᱢᱩᱪᱟᱹᱫᱽ
ᱢᱩᱫ
ᱢᱩᱫᱟᱹᱢ
ᱢᱩᱫᱨᱮ
ᱢᱩᱫᱽ
ᱢᱩᱫᱽᱨᱤ
ᱢᱩᱫᱽᱨᱮ
ᱢᱩᱫᱽᱫᱟ
ᱢᱩᱬ
ᱢᱩᱬᱩᱛ
ᱢᱩᱬᱩᱫ
ᱢᱩᱯᱷᱛᱤ
ᱢᱩᱰᱨᱟᱹ
ᱢᱩᱰᱨᱩᱡ
ᱢᱩᱰᱩ
ᱢᱩᱱ
ᱢᱩᱱᱛᱨᱤ
ᱢᱩᱱᱜᱟᱹ
ᱢᱩᱱᱢᱩᱱ
ᱢᱩᱱᱤ
ᱢᱩᱱᱤᱢ
ᱢᱩᱱᱤᱥ
ᱢᱩᱱᱤᱥᱤ
ᱢᱩᱱᱤᱥᱤᱯᱟᱞ
ᱢᱩᱱᱤᱥᱤᱯᱟᱞᱤᱴᱤ
ᱢᱩᱱᱤᱥᱤᱯᱟᱞᱴᱤ
ᱢᱩᱱᱤᱪ
ᱢᱩᱱᱤᱯᱩᱨᱤ
ᱢᱩᱱᱥᱤ
ᱢᱩᱱᱥᱤᱜᱚᱸᱡᱽ
ᱢᱩᱱᱥᱤᱯᱟᱞᱴᱤ
ᱢᱩᱱᱫᱤᱞ
ᱢᱩᱱᱫᱤᱨ
ᱢᱩᱱᱫᱨᱤ
ᱢᱩᱱᱫᱽᱨᱤ
ᱢᱩᱱᱮᱛᱨᱚ
ᱢᱩᱱᱰᱟ
ᱢᱩᱱᱰᱟᱨᱤ
ᱢᱩᱱᱰᱟᱹ
ᱢᱩᱱᱱᱟ
ᱢᱩᱲ
ᱢᱩᱲᱩᱛ
ᱢᱩᱲᱩᱫ
ᱢᱩᱴ
ᱢᱩᱴᱩ
ᱢᱩᱴᱷᱟ
ᱢᱩᱴᱷᱟᱱ
ᱢᱩᱴᱷᱟᱹᱱ
ᱢᱩᱵᱷᱢᱮᱱᱴ
ᱢᱩᱵᱷᱤ
ᱢᱩᱸ
ᱢᱩᱸᱜᱽ
ᱢᱩᱸᱫ
ᱢᱩᱸᱫᱟᱢ
ᱢᱩᱸᱫᱤᱨ
ᱢᱩᱸᱫᱨᱤ
ᱢᱩᱸᱫᱽ
ᱢᱩᱸᱫᱽᱨᱤ
ᱢᱩᱸᱫᱽᱨᱮ
ᱢᱩᱸᱰᱟ
ᱢᱩᱸᱰᱟᱹ
ᱢᱩᱸᱰᱩ
ᱢᱭᱟᱱᱢᱟᱨ
ᱢᱭᱟᱸᱢᱟᱨ
ᱢᱭᱩᱡᱤᱠ
ᱢᱭᱩᱡᱤᱠᱟᱞ
ᱢᱭᱩᱡᱤᱥᱤᱭᱟᱱ
ᱢᱭᱩᱡᱤᱭᱚᱢ
ᱢᱭᱩᱨᱵᱷᱸᱡᱽ
ᱢᱮ
ᱢᱮᱛ
ᱢᱮᱛᱟ
ᱢᱮᱛᱟᱜ
ᱢᱮᱛᱟᱜᱟᱜ
ᱢᱮᱛᱟᱜᱻᱟ
ᱢᱮᱛᱟᱜᱼᱟ
ᱢᱮᱛᱟᱠᱚ
ᱢᱮᱛᱟᱠᱚᱣᱟ
ᱢᱮᱛᱟᱣ
ᱢᱮᱛᱟᱣᱟᱜ
ᱢᱮᱛᱟᱣᱟᱜᱼᱟ
ᱢᱮᱛᱟᱣᱟᱠᱚ
ᱢᱮᱛᱟᱣᱟᱭ
ᱢᱮᱛᱟᱦᱟᱜ
ᱢᱮᱛᱟᱦᱟᱜᱼᱟ
ᱢᱮᱛᱟᱦᱟᱭ
ᱢᱮᱛᱟᱫ
ᱢᱮᱛᱟᱫᱮᱭᱟ
ᱢᱮᱛᱟᱭ
ᱢᱮᱛᱟᱭᱟ
ᱢᱮᱛᱮ
ᱢᱮᱛᱷᱤᱞ
ᱢᱮᱜᱟ
ᱢᱮᱜᱟᱡᱤᱱ
ᱢᱮᱜᱟᱣᱟᱴ
ᱢᱮᱜᱟᱥᱤᱴᱤ
ᱢᱮᱜᱟᱱ
ᱢᱮᱜᱷᱚ
ᱢᱮᱜᱷᱟᱞᱚᱭ
ᱢᱮᱜᱷᱟᱦᱟᱛᱩᱵᱩᱨᱩ
ᱢᱮᱜᱷᱯᱟᱨ
ᱢᱮᱜᱷᱱᱟ
ᱢᱮᱝᱠᱥ
ᱢᱮᱞ
ᱢᱮᱞᱟ
ᱢᱮᱞᱟᱝᱠᱤ
ᱢᱮᱞᱟᱱ
ᱢᱮᱞᱵᱚᱨᱱ
ᱢᱮᱞᱵᱳᱨᱱ
ᱢᱮᱠ
ᱢᱮᱠᱚᱝ
ᱢᱮᱠᱚᱨ
ᱢᱮᱠᱟ
ᱢᱮᱠᱟᱨ
ᱢᱮᱠᱟᱱᱤᱠᱟᱞ
ᱢᱮᱠᱟᱱᱤᱠᱮᱞ
ᱢᱮᱠᱠᱟ
ᱢᱮᱠᱥ
ᱢᱮᱠᱥᱤᱠᱚ
ᱢᱮᱠᱥᱤᱠᱟᱱ
ᱢᱮᱠᱥᱤᱠᱳ
ᱢᱮᱠᱷᱟᱱ
ᱢᱮᱡᱚᱨ
ᱢᱮᱡᱟᱨ
ᱢᱮᱡᱤ
ᱢᱮᱡᱤᱠ
ᱢᱮᱢᱚᱨᱤ
ᱢᱮᱢᱚᱨᱤᱭᱟᱞ
ᱢᱮᱢᱚᱨᱤᱭᱟᱹᱞ
ᱢᱮᱢᱟᱞᱥ
ᱢᱮᱢᱟᱨᱤ
ᱢᱮᱢᱳᱨᱤᱭᱟᱞ
ᱢᱮᱢᱵᱚᱨ
ᱢᱮᱢᱵᱟᱨ
ᱢᱮᱣᱟᱜ
ᱢᱮᱣᱟᱲ
ᱢᱮᱥᱚᱯᱚᱴᱟᱢᱤᱭᱟ
ᱢᱮᱥᱛᱟ
ᱢᱮᱥᱟ
ᱢᱮᱥᱟᱜ
ᱢᱮᱥᱟᱜᱼᱟ
ᱢᱮᱥᱟᱞ
ᱢᱮᱥᱟᱠᱟᱛᱮ
ᱢᱮᱥᱟᱣ
ᱢᱮᱥᱟᱭ
ᱢᱮᱥᱟᱭᱟ
ᱢᱮᱥᱟᱭᱮᱱᱟ
ᱢᱮᱥᱟᱶ
ᱢᱮᱥᱤ
ᱢᱮᱥᱤᱰᱳᱱᱤᱭᱟ
ᱢᱮᱥᱤᱰᱳᱱᱤᱭᱟᱱ
ᱢᱮᱥᱤᱱ
ᱢᱮᱥᱨᱟ
ᱢᱮᱥᱨᱮᱡ
ᱢᱮᱥᱮ
ᱢᱮᱥᱮᱡᱤᱝ
ᱢᱮᱥᱳᱯᱚᱴᱟᱢᱤᱭᱟ
ᱢᱮᱥᱳᱯᱳᱴᱟᱢᱤᱭᱟ
ᱢᱮᱦᱛᱟ
ᱢᱮᱦᱥᱟᱬᱟ
ᱢᱮᱦᱥᱟᱱᱟ
ᱢᱮᱦᱨᱟ
ᱢᱮᱦᱮᱨ
ᱢᱮᱦᱮᱨᱯᱩᱨ
ᱢᱮᱦᱵᱩᱵᱽᱱᱟᱜᱟᱨ
ᱢᱮᱨᱚᱢ
ᱢᱮᱨᱟ
ᱢᱮᱨᱟᱞ
ᱢᱮᱨᱟᱰᱚᱱᱟ
ᱢᱮᱨᱟᱴ
ᱢᱮᱨᱤ
ᱢᱮᱨᱤᱞ
ᱢᱮᱨᱤᱞᱤᱱ
ᱢᱮᱨᱤᱡᱽ
ᱢᱮᱨᱤᱱ
ᱢᱮᱨᱤᱴ
ᱢᱮᱨᱥᱤᱱ
ᱢᱮᱨᱩ
ᱢᱮᱨᱮ
ᱢᱮᱪ
ᱢᱮᱪᱤ
ᱢᱮᱫ
ᱢᱮᱫᱚᱠ
ᱢᱮᱫᱤᱱᱤᱯᱩᱨ
ᱢᱮᱫᱤᱱᱤᱱᱚᱜᱚᱨ
ᱢᱮᱫᱦᱟ
ᱢᱮᱫᱱᱤᱯᱩᱨ
ᱢᱮᱫᱷᱟ
ᱢᱮᱫᱷᱤ
ᱢᱮᱬᱦᱮᱫ
ᱢᱮᱬᱦᱮᱰ
ᱢᱮᱭ
ᱢᱮᱭᱚᱨ
ᱢᱮᱭᱛᱮᱭ
ᱢᱮᱭᱛᱮᱭᱞᱳᱱ
ᱢᱮᱭᱛᱷᱤᱞᱤ
ᱢᱮᱭᱞ
ᱢᱮᱭᱟ
ᱢᱮᱭᱟᱨ
ᱢᱮᱭᱠᱥᱤᱞᱟ
ᱢᱮᱭᱥᱩᱨ
ᱢᱮᱭᱨᱤ
ᱢᱮᱭᱱ
ᱢᱮᱭᱱᱯᱩᱨᱤ
ᱢᱮᱯ
ᱢᱮᱯᱥ
ᱢᱮᱰ
ᱢᱮᱰᱚᱞ
ᱢᱮᱰᱚᱠ
ᱢᱮᱰᱟᱞ
ᱢᱮᱰᱟᱠ
ᱢᱮᱰᱤᱠᱟᱞ
ᱢᱮᱰᱤᱠᱮᱞ
ᱢᱮᱰᱤᱥᱤᱱ
ᱢᱮᱰᱤᱭᱟ
ᱢᱮᱰᱤᱭᱟᱢ
ᱢᱮᱰᱮᱞ
ᱢᱮᱱ
ᱢᱮᱱᱚᱜ
ᱢᱮᱱᱚᱜᱚᱜ
ᱢᱮᱱᱚᱜᱼᱟ
ᱢᱮᱱᱚᱠᱟ
ᱢᱮᱱᱚᱱ
ᱢᱮᱱᱛ
ᱢᱮᱱᱛᱮ
ᱢᱮᱱᱛᱮᱠᱚ
ᱢᱮᱱᱛᱮᱦᱚᱸ
ᱢᱮᱱᱛᱮᱫ
ᱢᱮᱱᱛᱮᱫᱚ
ᱢᱮᱱᱛᱮᱭ
ᱢᱮᱱᱛᱮᱭᱮ
ᱢᱮᱱᱜ
ᱢᱮᱱᱜᱟ
ᱢᱮᱱᱜᱼᱟ
ᱢᱮᱱᱞᱮᱠᱷᱟᱱ
ᱢᱮᱱᱞᱮᱫᱟ
ᱢᱮᱱᱟ
ᱢᱮᱱᱟᱜ
ᱢᱮᱱᱟᱜᱟ
ᱢᱮᱱᱟᱜᱻᱟ
ᱢᱮᱱᱟᱜᱼᱟ
ᱢᱮᱱᱟᱜᱽ
ᱢᱮᱱᱟᱜᱽᱟ
ᱢᱮᱱᱟᱠᱚ
ᱢᱮᱱᱟᱢᱟ
ᱢᱮᱱᱟᱭ
ᱢᱮᱱᱟᱭᱟ
ᱢᱮᱱᱟᱼᱟ
ᱢᱮᱱᱠᱟ
ᱢᱮᱱᱠᱟᱷᱟᱱ
ᱢᱮᱱᱠᱦᱟᱱ
ᱢᱮᱱᱠᱷᱟᱱ
ᱢᱮᱱᱢᱟ
ᱢᱮᱱᱢᱮ
ᱢᱮᱱᱥᱚᱱ
ᱢᱮᱱᱥᱜ
ᱢᱮᱱᱫᱚ
ᱢᱮᱱᱮ
ᱢᱮᱱᱮᱛ
ᱢᱮᱱᱮᱛᱮ
ᱢᱮᱱᱮᱜ
ᱢᱮᱱᱮᱞᱟ
ᱢᱮᱱᱮᱠ
ᱢᱮᱱᱮᱡᱚᱨ
ᱢᱮᱱᱮᱡᱢᱮᱱᱴ
ᱢᱮᱱᱮᱡᱢᱮᱸᱴ
ᱢᱮᱱᱮᱡᱤᱝ
ᱢᱮᱱᱮᱡᱽᱢᱮᱱᱴ
ᱢᱮᱱᱮᱡᱽᱢᱮᱸᱴ
ᱢᱮᱱᱮᱫ
ᱢᱮᱱᱮᱫᱟ
ᱢᱮᱱᱰᱮᱞᱮᱭᱮᱵᱷ
ᱢᱮᱱᱴ
ᱢᱮᱱᱴᱚᱨ
ᱢᱮᱱᱼᱟ
ᱢᱮᱲᱟ
ᱢᱮᱲᱦᱮᱫ
ᱢᱮᱲᱦᱮᱸᱫ
ᱢᱮᱴ
ᱢᱮᱴᱟ
ᱢᱮᱴᱟᱞ
ᱢᱮᱴᱟᱣ
ᱢᱮᱴᱟᱨ
ᱢᱮᱴᱨᱚ
ᱢᱮᱴᱨᱚᱯᱚᱞᱤᱴᱚᱱ
ᱢᱮᱴᱨᱚᱯᱚᱞᱤᱴᱟᱱ
ᱢᱮᱴᱨᱤᱠ
ᱢᱮᱴᱨᱤᱠᱩᱞᱮᱥᱚᱱ
ᱢᱮᱵᱟᱜ
ᱢᱮᱸ
ᱢᱮᱹ
ᱢᱮᱹᱭ
ᱢᱮᱹᱴᱨᱚᱯᱚᱞᱤᱴᱚᱱ
ᱢᱱ
ᱢᱳ
ᱢᱳᱛᱣᱟᱱᱤ
ᱢᱳᱜᱚᱞ
ᱢᱳᱜᱟ
ᱢᱳᱞ
ᱢᱳᱞᱞᱟ
ᱢᱳᱞᱤᱭᱮᱨᱮ
ᱢᱳᱞᱫᱳᱵᱷᱟ
ᱢᱳᱡᱟᱢᱵᱤᱠ
ᱢᱳᱣᱡᱟ
ᱢᱳᱣᱥᱩᱢᱤ
ᱢᱳᱥᱠᱳᱣ
ᱢᱳᱦᱚᱢᱚᱫᱽ
ᱢᱳᱦᱚᱱ
ᱢᱳᱦᱟᱢᱢᱚᱫᱽ
ᱢᱳᱦᱟᱯᱟᱛᱨᱚ
ᱢᱳᱦᱟᱱᱛᱤ
ᱢᱳᱦᱤᱱᱤ
ᱢᱳᱦᱤᱱᱤᱚᱴᱴᱚᱢ
ᱢᱳᱦᱤᱱᱤᱭᱟᱴᱴᱚᱢ
ᱢᱳᱨ
ᱢᱳᱨᱚ
ᱢᱳᱨᱚᱝ
ᱢᱳᱨᱚᱰᱟ
ᱢᱳᱨᱟᱝᱜᱤ
ᱢᱳᱨᱟᱨᱡᱤ
ᱢᱳᱨᱪᱟ
ᱢᱳᱨᱳᱠᱠᱟᱱ
ᱢᱳᱫᱤ
ᱢᱳᱰ
ᱢᱳᱰᱟᱞ
ᱢᱳᱰᱩᱞ
ᱢᱳᱰᱮᱞ
ᱢᱳᱰᱮᱞᱤᱝ
ᱢᱳᱱ
ᱢᱳᱱᱟ
ᱢᱳᱱᱟᱠᱳ
ᱢᱳᱱᱤᱠᱟ
ᱢᱳᱱᱼᱠᱷᱚᱢᱮᱨ
ᱢᱳᱲᱮᱞᱜᱚᱸᱡᱽ
ᱢᱳᱴ
ᱢᱳᱴᱟ
ᱢᱳᱴᱩ
ᱢᱳᱵᱟᱭᱞ
ᱢᱳᱵᱟᱭᱤᱞ
ᱢᱳᱹᱭᱛᱷᱤᱞᱤ
ᱢᱴᱤ
ᱣ
ᱣᱚ
ᱣᱚᱜ
ᱣᱚᱞᱥᱟᱰ
ᱣᱚᱠᱤᱞ
ᱣᱚᱨᱜᱽ
ᱣᱚᱨᱠᱟᱨᱤ
ᱣᱚᱨᱢᱟ
ᱣᱚᱭᱜᱭᱟᱱᱤᱠ
ᱣᱚᱱᱤᱛᱟ
ᱣᱜ
ᱣᱜᱼᱟ
ᱣᱞᱟᱰᱤᱣᱳᱥᱴᱳᱠ
ᱣᱟ
ᱣᱟᱜ
ᱣᱟᱝ
ᱣᱟᱞᱟ
ᱣᱟᱞᱰ
ᱣᱟᱞᱴ
ᱣᱟᱞᱴᱟᱨ
ᱣᱟᱠ
ᱣᱟᱠᱚ
ᱣᱟᱠᱟᱢᱟᱛᱥᱩ
ᱣᱟᱠᱟᱫᱟ
ᱣᱟᱠᱟᱱ
ᱣᱟᱠᱟᱱᱟ
ᱣᱟᱡᱟᱭᱱᱟ
ᱣᱟᱤᱵᱟ
ᱣᱟᱥ
ᱣᱟᱥᱤᱝᱴᱚᱱ
ᱣᱟᱥᱤᱝᱴᱳᱱ
ᱣᱟᱥᱤᱢ
ᱣᱟᱥᱤᱯᱩᱨ
ᱣᱟᱦ
ᱣᱟᱨ
ᱣᱟᱨᱞᱰ
ᱣᱟᱨᱟᱝ
ᱣᱟᱨᱟᱝᱜᱟᱞ
ᱣᱟᱨᱟᱭ
ᱣᱟᱨᱥ
ᱣᱟᱨᱫᱟ
ᱣᱟᱨᱫᱷᱟ
ᱣᱟᱨᱰ
ᱣᱟᱫ
ᱣᱟᱭ
ᱣᱟᱭᱤ
ᱣᱟᱭᱤᱰ
ᱣᱟᱭᱤᱴ
ᱣᱟᱭᱤᱵᱟ
ᱣᱟᱭᱱᱟᱰ
ᱣᱟᱯᱤ
ᱣᱟᱰ
ᱣᱟᱰᱤ
ᱣᱟᱱ
ᱣᱟᱱᱟᱜ
ᱣᱟᱱᱟᱥᱯᱚᱛᱤ
ᱣᱟᱱᱟᱥᱯᱟᱛᱤ
ᱣᱟᱴ
ᱣᱟᱴᱚᱨ
ᱣᱠᱟ
ᱣᱤ
ᱣᱤᱛᱷ
ᱣᱤᱜᱭᱟᱱ
ᱣᱤᱝ
ᱣᱤᱞ
ᱣᱤᱞᱤᱭᱚᱢ
ᱣᱤᱞᱤᱭᱚᱢᱥ
ᱣᱤᱞᱤᱭᱟᱢ
ᱣᱤᱞᱤᱭᱟᱢᱥ
ᱣᱤᱞᱥᱚᱱ
ᱣᱤᱞᱦᱮᱞᱢ
ᱣᱤᱠᱞᱤ
ᱣᱤᱠᱟᱥ
ᱣᱤᱠᱠᱤ
ᱣᱤᱠᱤ
ᱣᱤᱠᱤᱠᱩᱣᱚᱴ
ᱣᱤᱠᱤᱠᱷᱚᱵᱚᱨ
ᱣᱤᱠᱤᱢᱤᱰᱤᱭᱟ
ᱣᱤᱠᱤᱢᱩᱨᱟᱹᱭ
ᱣᱤᱠᱤᱢᱮᱰᱤᱭᱟ
ᱣᱤᱠᱤᱥᱚᱨᱥ
ᱣᱤᱠᱤᱥᱚᱱᱟᱨᱤ
ᱣᱤᱠᱤᱥᱟᱹᱠᱷᱭᱟᱹᱛ
ᱣᱤᱠᱤᱦᱤᱨᱤ
ᱣᱤᱠᱤᱯᱤᱰᱤᱭᱟ
ᱣᱤᱠᱤᱯᱤᱰᱤᱭᱟᱱ
ᱣᱤᱠᱤᱯᱮᱰᱤᱭᱟ
ᱣᱤᱠᱤᱵᱤᱨᱫᱟᱹᱜᱟᱲ
ᱣᱤᱠᱨᱚᱢ
ᱣᱤᱠᱮᱴ
ᱣᱤᱠᱮᱴᱮ
ᱣᱤᱡ
ᱣᱤᱡᱚᱭ
ᱣᱤᱡᱽ
ᱣᱤᱢᱮᱱ
ᱣᱤᱢᱮᱱᱥ
ᱣᱤᱥᱠᱚᱱᱥᱤᱱ
ᱣᱤᱨ
ᱣᱤᱫᱭᱟ
ᱣᱤᱬᱟ
ᱣᱤᱯᱨᱳ
ᱣᱤᱰᱤᱭᱚ
ᱣᱤᱱᱥᱞᱮᱹᱴ
ᱣᱤᱱᱰᱚᱥ
ᱣᱤᱴᱟᱢᱤᱱ
ᱣᱨᱟ
ᱣᱨᱤ
ᱣᱨᱤᱭ
ᱣᱩᱞ
ᱣᱩᱢᱮᱱ
ᱣᱭᱟᱯᱚᱠ
ᱣᱮ
ᱣᱮᱜᱟᱥ
ᱣᱮᱝᱛᱟᱞᱚᱠᱥᱷᱢᱢᱟ
ᱣᱮᱞᱛᱷ
ᱣᱮᱞᱤ
ᱣᱮᱞᱤᱝᱴᱚᱱ
ᱣᱮᱞᱥ
ᱣᱮᱥᱴ
ᱣᱮᱥᱴᱚᱨᱱ
ᱣᱮᱥᱴᱮᱨᱱ
ᱣᱮᱫᱽᱭᱚ
ᱣᱮᱱ
ᱣᱮᱱᱟ
ᱣᱮᱵ
ᱣᱮᱵᱥᱟᱤᱴ
ᱣᱮᱵᱥᱟᱭᱤᱴ
ᱣᱮᱵᱽ
ᱣᱮᱵᱽᱥᱟᱭᱤᱴ
ᱣᱰᱤ
ᱣᱰᱤᱟ
ᱣᱲᱤ
ᱣᱳᱞᱠᱮᱱᱳ
ᱣᱳᱞᱳᱯᱷ
ᱣᱳᱠᱷᱟ
ᱣᱳᱢᱮᱱ
ᱣᱻᱟ
ᱤ
ᱤᱛᱟᱞᱤ
ᱤᱛᱟᱹ
ᱤᱛᱤᱞ
ᱤᱛᱤᱦᱟᱥ
ᱤᱛᱩᱫ
ᱤᱛᱩᱱ
ᱤᱛᱩᱱᱮ
ᱤᱛᱷᱟ
ᱤᱛᱷᱤᱭᱳᱯᱤᱭᱟ
ᱤᱜᱽᱞᱩ
ᱤᱜᱽᱵᱳ
ᱤᱝᱜᱽᱞᱤᱥ
ᱤᱝᱜᱽᱞᱮᱱᱰ
ᱤᱝᱜᱽᱞᱮᱸᱰ
ᱤᱝᱜᱽᱨᱟᱡ
ᱤᱝᱜᱽᱨᱟᱡᱤ
ᱤᱝᱜᱽᱨᱟᱹᱡᱤ
ᱤᱝᱜᱽᱨᱟᱹᱡᱽ
ᱤᱝᱞᱚᱸᱰ
ᱤᱝᱞᱟᱱᱰ
ᱤᱝᱞᱤᱥ
ᱤᱝᱞᱤᱥᱺ
ᱤᱝᱞᱮᱱᱰ
ᱤᱝᱞᱮᱸᱰ
ᱤᱝᱨᱟ
ᱤᱝᱨᱟᱡᱤ
ᱤᱝᱨᱟᱡᱽ
ᱤᱝᱨᱟᱹᱡᱤ
ᱤᱝᱨᱟᱹᱡᱤᱺ
ᱤᱝᱨᱟᱹᱡᱽ
ᱤᱝᱨᱮᱡ
ᱤᱝᱨᱮᱡᱤ
ᱤᱝᱨᱮᱡᱤᱺ
ᱤᱝᱨᱮᱡᱽ
ᱤᱞ
ᱤᱞᱞᱟᱦᱟᱵᱟᱫᱽ
ᱤᱞᱟ
ᱤᱞᱟᱠᱟ
ᱤᱞᱟᱡᱽ
ᱤᱞᱟᱢ
ᱤᱞᱟᱦᱟᱵᱟᱫᱽ
ᱤᱞᱟᱹᱠᱟ
ᱤᱞᱤᱢᱤᱱᱴ
ᱤᱞᱤᱢᱮᱱᱴ
ᱤᱞᱤᱭᱚᱰ
ᱤᱞᱮᱠᱥᱚᱱ
ᱤᱞᱮᱠᱴᱨᱚᱱ
ᱤᱞᱮᱠᱴᱨᱚᱱᱤᱠ
ᱤᱞᱮᱠᱴᱨᱚᱱᱤᱠᱥ
ᱤᱞᱮᱠᱴᱨᱤ
ᱤᱞᱮᱠᱴᱨᱤᱠ
ᱤᱞᱮᱠᱴᱨᱤᱠᱟᱞ
ᱤᱞᱮᱠᱴᱨᱤᱠᱯᱷᱤᱞ
ᱤᱞᱮᱠᱴᱨᱳᱰ
ᱤᱞᱵᱳᱣ
ᱤᱠ
ᱤᱠᱚᱱᱚᱢᱤᱠ
ᱤᱠᱚᱱᱚᱢᱤᱠᱥ
ᱤᱠᱚᱱᱳᱢᱤᱠᱥ
ᱤᱠᱟ
ᱤᱠᱟᱹ
ᱤᱠᱩᱣᱟᱰᱚᱨ
ᱤᱠᱳᱱᱳᱢᱤᱠᱥ
ᱤᱠᱵᱚᱞ
ᱤᱠᱵᱟᱞ
ᱤᱠᱷᱟ
ᱤᱠᱷᱟᱱ
ᱤᱠᱷᱟᱹᱱ
ᱤᱡ
ᱤᱡᱡᱚᱛ
ᱤᱡᱤᱯᱴ
ᱤᱡᱤᱯᱴᱤᱭᱟᱱ
ᱤᱡᱽ
ᱤᱡᱽᱨᱟᱭᱮᱞ
ᱤᱢᱚᱱ
ᱤᱢᱛᱤᱭᱟᱡᱽ
ᱤᱢᱟᱢ
ᱤᱢᱟᱱᱫᱟᱨ
ᱤᱢᱨᱟᱱ
ᱤᱢᱮᱞ
ᱤᱢᱯᱷᱟᱞ
ᱤᱣᱞᱟᱨ
ᱤᱣᱠᱨᱮᱱ
ᱤᱣᱠᱨᱮᱱᱤᱭᱟᱱ
ᱤᱣᱠᱨᱮᱱᱤᱭᱳ
ᱤᱣᱨᱚᱯᱤᱭᱟᱱ
ᱤᱣᱨᱟᱞᱤᱠ
ᱤᱣᱨᱳᱯ
ᱤᱣᱨᱳᱯᱤᱭᱚ
ᱤᱣᱨᱳᱯᱤᱭᱟᱱ
ᱤᱣᱨᱳᱯᱤᱭᱟᱹ
ᱤᱣᱱᱟᱭᱴᱮᱰ
ᱤᱣᱱᱤᱭᱚᱱ
ᱤᱣᱱᱤᱵᱷᱟᱨᱥ
ᱤᱥ
ᱤᱥᱚᱨ
ᱤᱥᱚᱭ
ᱤᱥᱛᱟᱱᱵᱩᱞ
ᱤᱥᱛᱤᱯᱷᱟ
ᱤᱥᱞᱟᱢ
ᱤᱥᱞᱟᱢᱟᱵᱟᱫᱽ
ᱤᱥᱞᱟᱢᱤ
ᱤᱥᱞᱟᱢᱤᱠ
ᱤᱥᱞᱟᱢᱤᱭᱟ
ᱤᱥᱞᱟᱢᱤᱭᱟᱹ
ᱤᱥᱞᱟᱢᱯᱩᱨ
ᱤᱥᱟ
ᱤᱥᱟᱠ
ᱤᱥᱟᱨᱟ
ᱤᱥᱟᱭ
ᱤᱥᱟᱱ
ᱤᱥᱟᱵᱮᱞᱟ
ᱤᱥᱟᱹᱭ
ᱤᱥᱠ
ᱤᱥᱠᱚᱱ
ᱤᱥᱠᱤᱞ
ᱤᱥᱠᱩᱞ
ᱤᱥᱠᱩᱭᱟᱨ
ᱤᱥᱢᱟᱭᱤᱞ
ᱤᱥᱢᱤᱞ
ᱤᱥᱢᱮᱞ
ᱤᱥᱣᱚᱨ
ᱤᱥᱣᱤ
ᱤᱥᱤ
ᱤᱥᱤᱱ
ᱤᱥᱥᱚᱨ
ᱤᱥᱥᱚᱨᱫᱤ
ᱤᱥᱨᱚ
ᱤᱥᱨᱟᱭᱤᱞ
ᱤᱥᱨᱟᱭᱮᱞ
ᱤᱥᱨᱤ
ᱤᱥᱩ
ᱤᱥᱯᱟᱛ
ᱤᱥᱯᱤᱠᱟᱨ
ᱤᱥᱴ
ᱤᱥᱴᱚ
ᱤᱥᱴᱚᱨᱱ
ᱤᱥᱴᱤᱞ
ᱤᱥᱴᱮᱥᱚᱱ
ᱤᱥᱴᱮᱯ
ᱤᱥᱴᱮᱱᱰ
ᱤᱥᱴᱮᱴ
ᱤᱦᱩᱫᱤ
ᱤᱧ
ᱤᱧᱟ
ᱤᱧᱟᱜ
ᱤᱧᱡᱤᱱ
ᱤᱧᱡᱤᱱᱤᱭᱚᱨ
ᱤᱧᱡᱤᱱᱤᱭᱚᱨᱤᱝ
ᱤᱧᱡᱤᱱᱤᱭᱟᱨ
ᱤᱧᱡᱤᱱᱤᱭᱟᱹᱨ
ᱤᱧᱤᱡ
ᱤᱧᱪ
ᱤᱧᱪᱤ
ᱤᱨ
ᱤᱨᱚᱰ
ᱤᱨᱟ
ᱤᱨᱟᱞ
ᱤᱨᱟᱠ
ᱤᱨᱟᱠᱤ
ᱤᱨᱟᱱ
ᱤᱨᱟᱱᱤ
ᱤᱨᱟᱱᱤᱭᱟᱱ
ᱤᱨᱟᱵᱚᱛᱤ
ᱤᱨᱟᱹᱞ
ᱤᱨᱟᱹᱞᱟᱜ
ᱤᱨᱟᱹᱞᱟᱱ
ᱤᱨᱟᱹᱞᱟᱱᱟᱜ
ᱤᱨᱤᱛᱨᱤᱭᱟ
ᱤᱨᱤᱞ
ᱤᱨᱤᱠ
ᱤᱨᱤᱭᱟᱹ
ᱤᱨᱩᱜ
ᱤᱨᱪᱤ
ᱤᱨᱯᱷᱟᱱ
ᱤᱩᱱᱤᱭᱚᱱ
ᱤᱪᱟ
ᱤᱪᱟᱹᱜ
ᱤᱪᱟᱹᱜᱜᱚᱲ
ᱤᱪᱟᱹᱨ
ᱤᱪᱪᱷᱟ
ᱤᱪᱪᱷᱟᱢᱚᱛᱤ
ᱤᱪᱷᱟ
ᱤᱪᱷᱟᱹ
ᱤᱫ
ᱤᱫᱤ
ᱤᱫᱤᱛᱮ
ᱤᱫᱤᱜ
ᱤᱫᱤᱜᱼᱟ
ᱤᱫᱤᱠᱟᱛᱮ
ᱤᱫᱤᱭ
ᱤᱫᱤᱭᱟ
ᱤᱫᱤᱭᱟᱛᱮ
ᱤᱫᱤᱭᱟᱛᱮᱫ
ᱤᱫᱤᱭᱮ
ᱤᱫᱤᱭᱮᱫ
ᱤᱫᱤᱭᱮᱭᱟ
ᱤᱫᱤᱭᱮᱱ
ᱤᱫᱤᱭᱮᱱᱟ
ᱤᱫᱩᱞ
ᱤᱫᱽ
ᱤᱬᱤᱡ
ᱤᱭᱚᱨ
ᱤᱭᱚᱨᱠ
ᱤᱭᱟ
ᱤᱭᱟᱥᱢᱤᱱ
ᱤᱭᱟᱦᱩ
ᱤᱭᱟᱨ
ᱤᱭᱟᱱᱰᱟᱵᱩ
ᱤᱭᱟᱹ
ᱤᱭᱟᱹᱛᱮ
ᱤᱭᱩ
ᱤᱭᱩᱠᱨᱮᱱ
ᱤᱭᱩᱨᱚᱯ
ᱤᱭᱩᱨᱚᱯᱤᱭᱟᱱ
ᱤᱭᱩᱨᱳ
ᱤᱭᱩᱨᱳᱯ
ᱤᱭᱩᱨᱳᱯᱤᱭᱟᱱ
ᱤᱭᱩᱱᱤᱭᱚᱱ
ᱤᱭᱩᱱᱤᱭᱚᱱᱠᱚ
ᱤᱯᱤᱞ
ᱤᱯᱷᱮᱠᱴ
ᱤᱰᱞᱤ
ᱤᱰᱟᱦᱚ
ᱤᱰᱤ
ᱤᱰᱤᱴᱚᱨ
ᱤᱰᱩᱠᱠᱤ
ᱤᱱ
ᱤᱱᱜ
ᱤᱱᱟ
ᱤᱱᱟᱨᱤ
ᱤᱱᱟᱹ
ᱤᱱᱟᱹᱛᱟᱭᱚᱢ
ᱤᱱᱟᱹᱜ
ᱤᱱᱟᱹᱦᱤᱞᱚᱜ
ᱤᱱᱠᱚᱢ
ᱤᱱᱠᱟ
ᱤᱱᱠᱟᱹ
ᱤᱱᱠᱭᱩᱵᱮᱴᱚᱨ
ᱤᱱᱡᱤᱱ
ᱤᱱᱡᱤᱱᱤᱭᱚᱨ
ᱤᱱᱡᱤᱱᱤᱭᱟᱨ
ᱤᱱᱡᱤᱱᱤᱭᱟᱨᱤᱝ
ᱤᱱᱤ
ᱤᱱᱤᱝᱥ
ᱤᱱᱤᱭᱟᱜ
ᱤᱱᱥᱪᱤᱪᱭᱩᱴ
ᱤᱱᱥᱯᱮᱠᱴᱚᱨ
ᱤᱱᱥᱯᱮᱠᱴᱟᱨ
ᱤᱱᱥᱴᱟᱜᱽᱨᱟᱢ
ᱤᱱᱥᱴᱤᱪᱩᱴ
ᱤᱱᱥᱴᱤᱪᱭᱩᱴ
ᱤᱱᱥᱴᱤᱴᱤᱣᱩᱰ
ᱤᱱᱥᱴᱤᱴᱤᱣᱴ
ᱤᱱᱥᱴᱤᱴᱤᱩᱴ
ᱤᱱᱥᱴᱤᱴᱤᱭᱩᱰ
ᱤᱱᱥᱴᱤᱴᱤᱭᱩᱴ
ᱤᱱᱥᱴᱤᱴᱩᱴ
ᱤᱱᱥᱴᱤᱴᱭᱩᱥᱚᱱ
ᱤᱱᱥᱴᱤᱴᱭᱩᱴ
ᱤᱱᱥᱴᱭᱩᱴ
ᱤᱱᱩᱭᱤᱴ
ᱤᱱᱪ
ᱤᱱᱪᱤ
ᱤᱱᱫᱚᱨ
ᱤᱱᱫᱤᱨᱟ
ᱤᱱᱫᱨᱚ
ᱤᱱᱫᱨᱟᱬᱤ
ᱤᱱᱫᱩ
ᱤᱱᱫᱩᱥ
ᱤᱱᱫᱳ
ᱤᱱᱫᱳᱨ
ᱤᱱᱫᱳᱱᱮᱥᱤᱭᱟ
ᱤᱱᱫᱳᱱᱮᱥᱤᱭᱟᱱ
ᱤᱱᱫᱳᱼᱟᱨᱡᱚ
ᱤᱱᱫᱳᱼᱤᱣᱨᱳᱯᱤᱭᱟᱱ
ᱤᱱᱫᱳᱼᱤᱨᱟᱱᱤᱭᱟᱱ
ᱤᱱᱫᱽᱨᱚ
ᱤᱱᱫᱽᱨᱟ
ᱤᱱᱭᱤᱴ
ᱤᱱᱮᱨᱡᱤ
ᱤᱱᱯᱩᱭ
ᱤᱱᱯᱷᱚᱨᱢᱮᱥᱚᱱ
ᱤᱱᱯᱷᱨᱟᱥᱴᱨᱚᱠᱪᱚᱨ
ᱤᱱᱯᱷᱮᱠᱥᱚᱱ
ᱤᱱᱯᱷᱳ
ᱤᱱᱯᱷᱳᱨᱢᱮᱥᱚᱱ
ᱤᱱᱰᱚ
ᱤᱱᱰᱚᱥᱴᱨᱤ
ᱤᱱᱰᱚᱥᱴᱨᱤᱡᱽ
ᱤᱱᱰᱚᱥᱴᱨᱤᱭᱟᱞ
ᱤᱱᱰᱚᱱᱮᱥᱤᱭᱟ
ᱤᱱᱰᱟᱥᱴᱨᱤ
ᱤᱱᱰᱟᱥᱴᱨᱤᱡᱽ
ᱤᱱᱰᱟᱥᱴᱨᱤᱭᱟᱞ
ᱤᱱᱰᱟᱹᱥᱴᱨᱤ
ᱤᱱᱰᱟᱹᱥᱴᱨᱤᱭᱟᱞ
ᱤᱱᱰᱤᱜᱚ
ᱤᱱᱰᱤᱜᱳ
ᱤᱱᱰᱤᱡ
ᱤᱱᱰᱤᱡᱽ
ᱤᱱᱰᱤᱥᱴᱨᱤ
ᱤᱱᱰᱤᱥᱴᱨᱤᱭᱟᱞ
ᱤᱱᱰᱤᱭᱟ
ᱤᱱᱰᱤᱭᱟᱱ
ᱤᱱᱰᱤᱭᱟᱱᱥ
ᱤᱱᱰᱩᱥᱴᱨᱤᱭᱟᱞ
ᱤᱱᱰᱮᱠᱥ
ᱤᱱᱰᱳ
ᱤᱱᱰᱳᱱᱮᱥᱤᱭᱟ
ᱤᱱᱴᱚᱨ
ᱤᱱᱴᱚᱨᱯᱷᱮᱥ
ᱤᱱᱴᱚᱨᱱᱮᱥᱱᱚᱞ
ᱤᱱᱴᱚᱨᱱᱮᱥᱱᱟᱞ
ᱤᱱᱴᱚᱨᱱᱮᱴ
ᱤᱱᱴᱚᱨᱵᱷᱤᱣ
ᱤᱱᱴᱟᱨ
ᱤᱱᱴᱟᱨᱢᱤᱰᱤᱭᱮᱴ
ᱤᱱᱴᱟᱨᱥᱤᱴᱤ
ᱤᱱᱴᱟᱨᱯᱷᱮᱥ
ᱤᱱᱴᱟᱨᱱᱮᱥᱚᱱᱟᱞ
ᱤᱱᱴᱟᱨᱱᱮᱥᱱᱟᱞ
ᱤᱱᱴᱟᱨᱱᱮᱴ
ᱤᱱᱴᱟᱨᱴᱮᱭᱱᱢᱮᱱᱴ
ᱤᱱᱴᱤᱴᱭᱩᱴ
ᱤᱱᱴᱮᱞᱤᱡᱮᱱᱥ
ᱤᱱᱴᱮᱨᱱᱮᱥᱱᱟᱞ
ᱤᱱᱵᱷᱮᱥᱴᱢᱮᱸᱴ
ᱤᱴ
ᱤᱴᱟ
ᱤᱴᱟᱞᱤ
ᱤᱴᱟᱞᱤᱭᱟᱱ
ᱤᱴᱟᱣᱟ
ᱤᱴᱟᱱᱚᱜᱚᱨ
ᱤᱴᱟᱹ
ᱤᱴᱠᱤ
ᱤᱵᱚᱱ
ᱤᱵᱨᱟᱦᱤᱢ
ᱤᱵᱱ
ᱤᱵᱷᱟᱨᱞᱮᱴ
ᱤᱵᱷᱟᱨᱮᱴ
ᱤᱵᱷᱟᱱ
ᱤᱵᱷᱮᱱᱴ
ᱤᱵᱷᱮᱸᱴ
ᱤᱵᱽᱨᱟᱦᱤᱢ
ᱤᱵᱽᱱᱮ
ᱤᱶᱨᱚᱯᱤᱭᱟᱱ
ᱤᱸᱜᱞᱤᱥ
ᱤᱸᱜᱨᱟᱡᱤ
ᱤᱸᱜᱽᱞᱚᱸᱰ
ᱤᱸᱜᱽᱞᱤᱥ
ᱤᱸᱜᱽᱨᱟ
ᱤᱸᱜᱽᱨᱟᱹᱡᱽ
ᱤᱸᱜᱽᱨᱮᱡᱽ
ᱤᱸᱝᱞᱤᱥ
ᱤᱸᱞᱤᱥ
ᱤᱸᱡᱟᱱ
ᱤᱸᱡᱤᱱᱤᱭᱚᱨ
ᱤᱸᱡᱤᱱᱤᱭᱚᱨᱤᱝ
ᱤᱸᱡᱤᱱᱤᱭᱟᱹᱨ
ᱤᱸᱡᱤᱱᱤᱭᱟᱹᱨᱤᱝ
ᱤᱸᱥᱴᱤᱴᱭᱩᱴ
ᱤᱸᱨᱮᱡᱤ
ᱤᱸᱪ
ᱤᱸᱫᱤᱨᱟ
ᱤᱸᱫᱽᱨᱟ
ᱤᱸᱰᱚᱱᱮᱥᱤᱭᱟ
ᱤᱸᱰᱤᱭᱟ
ᱤᱸᱰᱤᱭᱟᱱ
ᱤᱹ
ᱥ
ᱥᱚ
ᱥᱚᱛ
ᱥᱚᱛᱚ
ᱥᱚᱛᱚᱠ
ᱥᱚᱛᱚᱦ
ᱥᱚᱛᱚᱵᱟᱨᱥᱤᱠᱤ
ᱥᱚᱛᱛᱚ
ᱥᱚᱛᱛᱟ
ᱥᱚᱛᱟᱨᱟ
ᱥᱚᱛᱟᱵᱫᱤ
ᱥᱚᱛᱟᱵᱽᱫᱤ
ᱥᱚᱛᱟᱵᱽᱫᱷᱤ
ᱥᱚᱛᱤ
ᱥᱚᱛᱤᱥ
ᱥᱚᱛᱨᱚ
ᱥᱚᱛᱨᱟ
ᱥᱚᱛᱭᱚ
ᱥᱚᱛᱭᱚᱡᱤᱛ
ᱥᱚᱛᱭᱚᱱᱟᱨᱟᱭᱚᱱ
ᱥᱚᱛᱭᱚᱵᱷᱟᱢᱟ
ᱥᱚᱛᱭᱟ
ᱥᱚᱛᱭᱟᱜᱨᱚᱦᱚ
ᱥᱚᱛᱭᱟᱜᱽᱨᱚᱦᱚ
ᱥᱚᱛᱯᱚᱛᱷᱤ
ᱥᱚᱜ
ᱥᱚᱜᱚᱨ
ᱥᱚᱜᱚᱨᱢᱟᱛᱷᱟ
ᱥᱚᱝ
ᱥᱚᱝᱜᱚᱢ
ᱥᱚᱝᱜᱚᱴᱷᱚᱱ
ᱥᱚᱝᱜᱤᱛ
ᱥᱚᱝᱜᱤᱛᱟ
ᱥᱚᱝᱜᱮ
ᱥᱚᱝᱜᱷ
ᱥᱚᱝᱜᱷᱚ
ᱥᱚᱝᱜᱷᱚᱨᱥ
ᱥᱚᱝᱜᱷᱟ
ᱥᱚᱝᱜᱷᱤᱭᱚ
ᱥᱚᱝᱜᱽᱨᱚᱦᱤᱛ
ᱥᱚᱝᱜᱽᱨᱟᱢ
ᱥᱚᱝᱜᱽᱨᱟᱢᱯᱩᱨ
ᱥᱚᱝᱠᱚᱨ
ᱥᱚᱝᱠᱨᱚᱢᱚᱱ
ᱥᱚᱝᱠᱨᱟᱱᱛᱤ
ᱥᱚᱝᱠᱨᱤᱛ
ᱥᱚᱝᱠᱷᱩᱣᱟᱥᱚᱵᱷᱟ
ᱥᱚᱝᱢᱟ
ᱥᱚᱝᱥᱚᱛᱷᱟᱯᱚᱠ
ᱥᱚᱝᱥᱚᱫ
ᱥᱚᱝᱥᱚᱫᱤᱭᱟᱹ
ᱥᱚᱝᱥᱚᱫᱤᱭᱳ
ᱥᱚᱝᱥᱚᱫᱷᱚᱱ
ᱥᱚᱝᱥᱚᱫᱽ
ᱥᱚᱝᱥᱛᱷᱟ
ᱥᱚᱝᱥᱛᱷᱟᱱ
ᱥᱚᱝᱥᱟᱨ
ᱥᱚᱝᱥᱟᱨᱚ
ᱥᱚᱝᱥᱠᱚᱨᱚᱱ
ᱥᱚᱝᱥᱠᱟᱨ
ᱥᱚᱝᱥᱠᱨᱤᱛ
ᱥᱚᱝᱥᱠᱨᱤᱛᱤ
ᱥᱚᱝᱥᱩᱢᱩᱝ
ᱥᱚᱝᱵᱟᱫ
ᱥᱚᱝᱵᱤᱫᱷᱟᱱ
ᱥᱚᱝᱵᱤᱫᱷᱟᱱᱤᱭᱟᱹ
ᱥᱚᱞ
ᱥᱚᱞᱚ
ᱥᱚᱞᱚᱢᱚᱱ
ᱥᱚᱞᱟᱨ
ᱥᱚᱞᱟᱯᱩᱨ
ᱥᱚᱞᱟᱱ
ᱥᱚᱞᱡᱟᱨ
ᱥᱚᱞᱢᱟᱱ
ᱥᱚᱞᱤᱢ
ᱥᱚᱞᱤᱦᱟ
ᱥᱚᱞᱤᱰ
ᱥᱚᱞᱦᱚ
ᱥᱚᱞᱦᱟ
ᱥᱚᱞᱦᱮ
ᱥᱚᱞᱮ
ᱥᱚᱞᱯᱷᱮᱴ
ᱥᱚᱠ
ᱥᱚᱠᱚᱲ
ᱥᱚᱠᱛᱚ
ᱥᱚᱠᱛᱤ
ᱥᱚᱠᱟᱨ
ᱥᱚᱠᱥᱮᱥ
ᱥᱚᱠᱨᱟᱴᱥ
ᱥᱚᱠᱨᱤᱭᱚ
ᱥᱚᱠᱨᱮᱴᱤᱥ
ᱥᱚᱠᱩᱱ
ᱥᱚᱠᱩᱱᱛᱚᱞᱚᱢ
ᱥᱚᱠᱩᱱᱛᱚᱞᱟ
ᱥᱚᱠᱩᱱᱛᱚᱲᱟ
ᱥᱚᱠᱷ
ᱥᱚᱡᱷᱮ
ᱥᱚᱡᱽ
ᱥᱚᱢ
ᱥᱚᱢᱚᱛᱚᱞ
ᱥᱚᱢᱚᱞ
ᱥᱚᱢᱚᱥᱛᱤᱯᱩᱨ
ᱥᱚᱢᱚᱥᱭᱟ
ᱥᱚᱢᱚᱥᱴᱤ
ᱥᱚᱢᱚᱥᱴᱷᱤ
ᱥᱚᱢᱚᱨ
ᱥᱚᱢᱚᱨᱛᱷ
ᱥᱚᱢᱚᱨᱛᱷᱚᱱ
ᱥᱚᱢᱚᱭ
ᱥᱚᱢᱚᱵᱷᱩᱢᱤ
ᱥᱚᱢᱟ
ᱥᱚᱢᱟᱡ
ᱥᱚᱢᱟᱡᱤᱠ
ᱥᱚᱢᱟᱡᱽ
ᱥᱚᱢᱟᱡᱽᱵᱟᱫᱤ
ᱥᱚᱢᱟᱨᱳᱦ
ᱥᱚᱢᱟᱫᱷᱟᱱ
ᱥᱚᱢᱟᱫᱷᱤ
ᱥᱚᱢᱟᱱ
ᱥᱚᱢᱟᱱᱚᱜ
ᱥᱚᱢᱟᱱᱚᱜᱼᱟ
ᱥᱚᱢᱟᱱᱛᱟ
ᱥᱚᱢᱟᱱᱟ
ᱥᱚᱢᱟᱱᱦᱳᱠ
ᱥᱚᱢᱠᱟᱞᱤᱱ
ᱥᱚᱢᱢᱟᱱ
ᱥᱚᱢᱢᱟᱱᱤᱛ
ᱥᱚᱢᱢᱤᱞᱚᱱᱤ
ᱥᱚᱢᱢᱮᱞᱚᱱ
ᱥᱚᱢᱤ
ᱥᱚᱢᱤᱛᱤ
ᱥᱚᱢᱤᱨ
ᱥᱚᱢᱤᱪᱷᱟ
ᱥᱚᱢᱨᱟᱡᱽ
ᱥᱚᱢᱨᱟᱴ
ᱥᱚᱢᱩᱫᱟᱭ
ᱥᱚᱢᱩᱱᱫᱨᱚ
ᱥᱚᱢᱮᱞᱚᱱ
ᱥᱚᱢᱯᱚᱛᱤ
ᱥᱚᱢᱯᱟᱫᱚᱠ
ᱥᱚᱢᱯᱩᱛᱤ
ᱥᱚᱢᱯᱩᱨ
ᱥᱚᱢᱯᱩᱨᱩᱱ
ᱥᱚᱢᱱᱟᱛᱷ
ᱥᱚᱢᱵᱚᱛ
ᱥᱚᱢᱵᱚᱞ
ᱥᱚᱢᱵᱚᱞᱯᱩᱨ
ᱥᱚᱢᱵᱚᱞᱯᱩᱨᱤ
ᱥᱚᱢᱵᱚᱨ
ᱥᱚᱢᱵᱟᱫᱽ
ᱥᱚᱢᱵᱤᱛ
ᱥᱚᱢᱵᱤᱫᱷᱟᱱ
ᱥᱚᱢᱵᱷᱚᱞ
ᱥᱚᱢᱵᱷᱚᱲ
ᱥᱚᱢᱵᱷᱩ
ᱥᱚᱣ
ᱥᱚᱣᱡᱟ
ᱥᱚᱣᱨᱟᱥᱴᱨᱚ
ᱥᱚᱣᱫᱤ
ᱥᱚᱥ
ᱥᱚᱥᱚ
ᱥᱚᱥᱚᱞᱦᱟ
ᱥᱚᱥᱚᱞᱦᱟᱭᱤᱡ
ᱥᱚᱥᱚᱱᱚᱜ
ᱥᱚᱥᱛᱚᱨ
ᱥᱚᱥᱛᱨᱚ
ᱥᱚᱥᱛᱷᱟ
ᱥᱚᱥᱟᱞ
ᱥᱚᱥᱟᱞᱤᱥᱴ
ᱥᱚᱥᱟᱭᱤᱴᱤ
ᱥᱚᱥᱟᱭᱴᱤ
ᱥᱚᱥᱟᱱ
ᱥᱚᱥᱣᱚᱛᱤ
ᱥᱚᱥᱤ
ᱥᱚᱥᱤᱠᱚᱞᱟ
ᱥᱚᱥᱤᱭᱟᱞ
ᱥᱚᱥᱨᱚᱡ
ᱥᱚᱥᱱᱚᱜ
ᱥᱚᱥᱴᱷᱤ
ᱥᱚᱦ
ᱥᱚᱦᱚ
ᱥᱚᱦᱚᱠᱟᱨᱤ
ᱥᱚᱦᱚᱨ
ᱥᱚᱦᱚᱨᱚ
ᱥᱚᱦᱚᱨᱟᱭ
ᱥᱚᱦᱚᱨᱤ
ᱥᱚᱦᱚᱨᱤᱭᱟᱹ
ᱥᱚᱦᱚᱨᱮ
ᱥᱚᱦᱚᱫ
ᱥᱚᱦᱚᱫᱤᱭᱟᱹ
ᱥᱚᱦᱟᱨ
ᱥᱚᱦᱟᱨᱚᱱᱯᱩᱨ
ᱥᱚᱦᱟᱱᱞᱟᱞ
ᱥᱚᱦᱤᱫ
ᱥᱚᱦᱤᱫᱽ
ᱥᱚᱦᱨᱟᱭ
ᱥᱚᱦᱨᱤ
ᱥᱚᱦᱭᱟᱫᱽᱨᱤ
ᱥᱚᱦᱮᱛ
ᱥᱚᱦᱮᱫ
ᱥᱚᱦᱮᱫᱤᱭᱟᱹ
ᱥᱚᱦᱮᱫᱮ
ᱥᱚᱦᱱᱤ
ᱥᱚᱧᱡᱚᱭ
ᱥᱚᱧᱡᱤᱵᱚᱭᱭᱟ
ᱥᱚᱧᱡᱤᱵᱟ
ᱥᱚᱧᱡᱤᱵᱽ
ᱥᱚᱨ
ᱥᱚᱨᱚ
ᱥᱚᱨᱚᱛ
ᱥᱚᱨᱚᱜ
ᱥᱚᱨᱚᱜᱽ
ᱥᱚᱨᱚᱠ
ᱥᱚᱨᱚᱠᱟᱨ
ᱥᱚᱨᱚᱠᱟᱨᱤ
ᱥᱚᱨᱚᱡᱤᱱᱤ
ᱥᱚᱨᱚᱥ
ᱥᱚᱨᱚᱥᱚᱛᱤ
ᱥᱚᱨᱚᱥᱣᱚᱛᱤ
ᱥᱚᱨᱚᱬ
ᱥᱚᱨᱚᱱᱟᱨᱛᱷᱤ
ᱥᱚᱨᱛᱚ
ᱥᱚᱨᱛᱟᱡ
ᱥᱚᱨᱜᱚ
ᱥᱚᱨᱞᱟᱦᱤ
ᱥᱚᱨᱟᱭ
ᱥᱚᱨᱟᱭᱟᱦᱟᱴ
ᱥᱚᱨᱟᱵᱷᱟᱭᱤ
ᱥᱚᱨᱠᱚᱨᱟ
ᱥᱚᱨᱠᱟ
ᱥᱚᱨᱠᱟᱨ
ᱥᱚᱨᱠᱟᱨᱟᱜ
ᱥᱚᱨᱠᱟᱨᱤ
ᱥᱚᱨᱠᱟᱨᱤᱡ
ᱥᱚᱨᱠᱟᱨᱤᱭᱟᱹ
ᱥᱚᱨᱠᱟᱨᱮ
ᱥᱚᱨᱠᱟᱨᱼᱟ
ᱥᱚᱨᱠᱟᱨᱼᱟᱜ
ᱥᱚᱨᱠᱟᱹᱨᱤ
ᱥᱚᱨᱡᱚᱨᱤ
ᱥᱚᱨᱡᱩᱵᱟᱲᱟ
ᱥᱚᱨᱢᱟ
ᱥᱚᱨᱢᱟᱱ
ᱥᱚᱨᱢᱤᱞᱟ
ᱥᱚᱨᱢᱤᱥᱴᱷᱟ
ᱥᱚᱨᱤᱛᱟ
ᱥᱚᱨᱤᱭᱚᱛᱯᱩᱨ
ᱥᱚᱨᱤᱯᱷ
ᱥᱚᱨᱥ
ᱥᱚᱨᱥᱚᱛᱤ
ᱥᱚᱨᱫᱟᱨ
ᱥᱚᱨᱮᱥ
ᱥᱚᱨᱮᱥᱟ
ᱥᱚᱨᱮᱥᱟᱱ
ᱥᱚᱨᱮᱱ
ᱥᱚᱨᱯᱚᱧᱪ
ᱥᱚᱨᱳᱡᱤᱱᱤ
ᱥᱚᱨᱴ
ᱥᱚᱨᱵᱚᱯᱚᱞᱞᱤ
ᱥᱚᱨᱵᱟᱱᱚᱱᱫᱚ
ᱥᱚᱨᱵᱷᱚᱨ
ᱥᱚᱨᱵᱷᱤᱥ
ᱥᱚᱨᱵᱷᱮ
ᱥᱚᱪᱤᱱ
ᱥᱚᱪᱤᱵ
ᱥᱚᱪᱤᱵᱽ
ᱥᱚᱫᱚᱥᱚ
ᱥᱚᱫᱚᱥᱥᱚ
ᱥᱚᱫᱚᱥᱭᱚ
ᱥᱚᱫᱚᱨ
ᱥᱚᱫᱚᱨᱚᱜ
ᱥᱚᱫᱚᱨᱚᱜᱼᱟ
ᱥᱚᱫᱚᱨᱟ
ᱥᱚᱫᱚᱨᱟᱭ
ᱥᱚᱫᱚᱨᱢᱩᱠᱟᱢ
ᱥᱚᱫᱚᱨᱤᱡ
ᱥᱚᱫᱚᱨᱮᱫ
ᱥᱚᱫᱚᱨᱯᱩᱨ
ᱥᱚᱫᱚᱱ
ᱥᱚᱫᱟᱨ
ᱥᱚᱫᱤ
ᱥᱚᱫᱤᱭᱟ
ᱥᱚᱫᱷ
ᱥᱚᱫᱽᱱᱤ
ᱥᱚᱬᱤᱛᱯᱩᱨ
ᱥᱚᱭᱚᱝ
ᱥᱚᱭᱟᱡᱤᱨᱟᱣ
ᱥᱚᱭᱟᱵᱤᱱ
ᱥᱚᱭᱠᱤᱭᱟ
ᱥᱚᱭᱠᱷᱚᱣᱟ
ᱥᱚᱭᱤᱞᱚ
ᱥᱚᱭᱤᱯᱷ
ᱥᱚᱭᱨ
ᱥᱚᱭᱱᱤᱠ
ᱥᱚᱯ
ᱥᱚᱯᱚᱦᱚᱫ
ᱥᱚᱯᱚᱨᱴᱤᱝ
ᱥᱚᱯᱛᱚᱠᱳᱥᱤ
ᱥᱚᱯᱛᱚᱢᱤ
ᱥᱚᱯᱛᱚᱨᱤ
ᱥᱚᱯᱤᱝ
ᱥᱚᱯᱳᱨᱴᱤᱝ
ᱥᱚᱯᱴᱟᱣᱟᱨ
ᱥᱚᱯᱴᱟᱨ
ᱥᱚᱯᱴᱮᱭᱟᱨ
ᱥᱚᱯᱷᱚᱞ
ᱥᱚᱯᱷᱚᱞᱛᱟ
ᱥᱚᱯᱷᱚᱠᱞᱤᱥ
ᱥᱚᱯᱷᱚᱨ
ᱥᱚᱯᱷᱴᱣᱮᱭᱟᱨ
ᱥᱚᱰᱤᱭᱟᱢ
ᱥᱚᱱ
ᱥᱚᱱᱚᱛ
ᱥᱚᱱᱚᱣᱟᱞ
ᱥᱚᱱᱚᱫᱚᱨ
ᱥᱚᱱᱚᱱ
ᱥᱚᱱᱛᱚ
ᱥᱚᱱᱛᱚᱥ
ᱥᱚᱱᱛᱚᱨ
ᱥᱚᱱᱛᱷᱚ
ᱥᱚᱱᱟ
ᱥᱚᱱᱟᱛᱚᱞᱟ
ᱥᱚᱱᱟᱛᱚᱱ
ᱥᱚᱱᱟᱞ
ᱥᱚᱱᱟᱞᱤ
ᱥᱚᱱᱟᱢ
ᱥᱚᱱᱟᱦᱟᱛᱩ
ᱥᱚᱱᱟᱨ
ᱥᱚᱱᱟᱨᱤ
ᱥᱚᱱᱟᱭ
ᱥᱚᱱᱡᱚᱭ
ᱥᱚᱱᱢᱟᱱ
ᱥᱚᱱᱤ
ᱥᱚᱱᱤᱛᱯᱩᱨ
ᱥᱚᱱᱤᱭᱟ
ᱥᱚᱱᱤᱯᱚᱛ
ᱥᱚᱱᱤᱯᱟᱛ
ᱥᱚᱱᱩ
ᱥᱚᱱᱫᱷᱤ
ᱥᱚᱱᱫᱷᱭᱟ
ᱥᱚᱱᱮᱨ
ᱥᱚᱱᱮᱨᱥᱤᱫᱽ
ᱥᱚᱱᱮᱨᱮ
ᱥᱚᱱᱮᱴ
ᱥᱚᱱᱯᱩᱨ
ᱥᱚᱱᱱᱤ
ᱥᱚᱱᱳ
ᱥᱚᱱᱵᱷᱚᱫᱽᱨᱚ
ᱥᱚᱲ
ᱥᱚᱲᱚ
ᱥᱚᱲᱚᱠ
ᱥᱚᱲᱚᱢ
ᱥᱚᱲᱠᱚ
ᱥᱚᱲᱮ
ᱥᱚᱲᱷᱟ
ᱥᱚᱳᱡᱟ
ᱥᱚᱴ
ᱥᱚᱴᱷᱤᱠ
ᱥᱚᱵ
ᱥᱚᱵᱚᱝ
ᱥᱚᱵᱚᱞᱜᱟᱲ
ᱥᱚᱵᱚᱨ
ᱥᱚᱵᱚᱨᱱᱟᱠᱟ
ᱥᱚᱵᱚᱨᱱᱟᱠᱷᱟ
ᱥᱚᱵᱚᱫ
ᱥᱚᱵᱤᱛᱟ
ᱥᱚᱵᱦᱟ
ᱥᱚᱵᱰᱤᱵᱷᱤᱡᱚᱱ
ᱥᱚᱵᱱᱚᱢ
ᱥᱚᱵᱷᱚᱭᱛᱟ
ᱥᱚᱵᱷᱟ
ᱥᱚᱵᱷᱟᱜ
ᱥᱚᱵᱷᱟᱨᱮ
ᱥᱚᱵᱷᱟᱯᱚᱛᱤ
ᱥᱚᱵᱷᱤᱭᱮᱛ
ᱥᱚᱵᱷᱤᱭᱮᱴ
ᱥᱚᱵᱽ
ᱥᱚᱵᱽᱨᱩᱢ
ᱥᱚᱵᱽᱭᱚᱥᱟᱪᱤ
ᱥᱚᱵᱽᱰᱤᱵᱤᱡᱚᱱ
ᱥᱚᱵᱽᱰᱤᱵᱷᱤᱡᱚᱱ
ᱥᱚᱶᱫᱟ
ᱥᱚᱸ
ᱥᱚᱸᱛ
ᱥᱚᱸᱜᱚᱴᱷᱚᱱ
ᱥᱚᱸᱜᱤᱛ
ᱥᱚᱸᱜᱮ
ᱥᱚᱸᱜᱷ
ᱥᱚᱸᱜᱷᱟ
ᱥᱚᱸᱠᱚᱨ
ᱥᱚᱸᱠᱟᱨᱟ
ᱥᱚᱸᱠᱷᱩᱣᱟᱥᱚᱵᱷᱟ
ᱥᱚᱸᱡᱚᱭ
ᱥᱚᱸᱥᱚᱫ
ᱥᱚᱸᱥᱚᱫᱟᱜ
ᱥᱚᱸᱥᱚᱫᱽ
ᱥᱚᱸᱥᱛᱷᱟ
ᱥᱚᱸᱥᱛᱷᱟᱱ
ᱥᱚᱸᱥᱟ
ᱥᱚᱸᱥᱟᱛᱷᱟᱱ
ᱥᱚᱸᱥᱟᱨ
ᱥᱚᱸᱥᱟᱫᱷᱚᱱ
ᱥᱚᱸᱥᱠᱟᱨ
ᱥᱚᱸᱥᱠᱨᱤᱛ
ᱥᱚᱸᱥᱠᱨᱩᱛ
ᱥᱚᱸᱫᱤᱯᱟ
ᱥᱚᱸᱵᱚᱛ
ᱥᱚᱸᱵᱟᱫᱽ
ᱥᱚᱸᱵᱤᱫᱷᱟᱱ
ᱥᱚᱸᱵᱷᱩ
ᱥᱚᱹ
ᱥᱛᱚᱨ
ᱥᱛᱟᱨ
ᱥᱛᱤ
ᱥᱛᱨᱤ
ᱥᱛᱩᱯ
ᱥᱛᱷᱟᱭᱤ
ᱥᱛᱷᱤᱛᱤ
ᱥᱛᱷᱤᱨ
ᱥᱝᱥᱚᱫ
ᱥᱞᱚᱵᱷᱮᱱᱤᱭᱟ
ᱥᱞᱟᱢ
ᱥᱞᱟᱵᱷᱤᱠ
ᱥᱞᱳᱜᱟᱱ
ᱥᱞᱳᱵᱷᱟᱠ
ᱥᱞᱳᱵᱷᱟᱠᱤᱭᱟ
ᱥᱞᱳᱵᱷᱮᱱ
ᱥᱞᱳᱵᱷᱮᱱᱤᱭᱟ
ᱥᱞᱳᱵᱷᱮᱱᱤᱭᱟᱱ
ᱥᱟ
ᱥᱟᱚᱢᱤ
ᱥᱟᱛ
ᱥᱟᱛᱚᱢ
ᱥᱟᱛᱛᱟ
ᱥᱟᱛᱞᱟᱜ
ᱥᱟᱛᱟᱢ
ᱥᱟᱛᱟᱦ
ᱥᱟᱛᱟᱨᱟ
ᱥᱟᱛᱟᱵᱟᱫᱤ
ᱥᱟᱛᱟᱵᱫᱤ
ᱥᱟᱛᱟᱵᱽᱫᱤ
ᱥᱟᱛᱠᱷᱤᱨᱟ
ᱥᱟᱛᱨᱮ
ᱥᱟᱛᱭᱟ
ᱥᱟᱛᱮ
ᱥᱟᱛᱯᱩᱲᱟ
ᱥᱟᱛᱱᱟ
ᱥᱟᱛᱵᱟᱦᱚᱱ
ᱥᱟᱛᱷ
ᱥᱟᱛᱷᱟᱢ
ᱥᱟᱛᱷᱤ
ᱥᱟᱛᱷᱤᱭᱟ
ᱥᱟᱜ
ᱥᱟᱜᱚᱨ
ᱥᱟᱜᱟᱜ
ᱥᱟᱜᱟᱞ
ᱥᱟᱜᱟᱤᱝ
ᱥᱟᱜᱟᱨ
ᱥᱟᱜᱟᱫ
ᱥᱟᱜᱟᱲ
ᱥᱟᱜᱟᱲᱚᱢ
ᱥᱟᱜᱤᱧ
ᱥᱟᱜᱮ
ᱥᱟᱜᱮᱱ
ᱥᱟᱜᱮᱱᱚᱜ
ᱥᱟᱜᱷᱟᱴᱟ
ᱥᱟᱜᱽᱨᱟᱢ
ᱥᱟᱝ
ᱥᱟᱝᱜᱟᱠᱟᱨᱟ
ᱥᱟᱝᱜᱟᱢ
ᱥᱟᱝᱜᱟᱨᱮᱰᱰᱤ
ᱥᱟᱝᱜᱤᱛ
ᱥᱟᱝᱜᱤᱧ
ᱥᱟᱝᱜᱤᱧᱟ
ᱥᱟᱝᱜᱮ
ᱥᱟᱝᱜᱷᱟᱨ
ᱥᱟᱝᱜᱷᱟᱭ
ᱥᱟᱝᱞᱤ
ᱥᱟᱝᱠᱟᱨ
ᱥᱟᱝᱠᱟᱨᱤ
ᱥᱟᱝᱢᱟ
ᱥᱟᱝᱥᱚᱫ
ᱥᱟᱝᱥᱚᱫᱽ
ᱥᱟᱝᱥᱠᱨᱤᱛ
ᱥᱟᱝᱦᱟᱭ
ᱥᱟᱝᱵᱟᱫᱤᱠ
ᱥᱟᱝᱵᱤᱫᱷᱟᱱᱤᱠ
ᱥᱟᱞ
ᱥᱟᱞᱚ
ᱥᱟᱞᱛᱟᱱᱟᱛ
ᱥᱟᱞᱛᱳᱲᱟ
ᱥᱟᱞᱜᱟᱣ
ᱥᱟᱞᱟ
ᱥᱟᱞᱟᱜ
ᱥᱟᱞᱟᱢ
ᱥᱟᱞᱠᱷᱟᱱ
ᱥᱟᱞᱢᱟ
ᱥᱟᱞᱢᱟᱨᱟ
ᱥᱟᱞᱢᱟᱱ
ᱥᱟᱞᱤ
ᱥᱟᱞᱤᱠᱷᱟ
ᱥᱟᱞᱤᱱᱤ
ᱥᱟᱞᱨᱮ
ᱥᱟᱞᱮ
ᱥᱟᱞᱮᱢ
ᱥᱟᱞᱮᱦ
ᱥᱟᱞᱮᱨᱮ
ᱥᱟᱞᱮᱨᱮᱭ
ᱥᱟᱞᱴ
ᱥᱟᱞᱵᱚᱱᱤ
ᱥᱟᱠᱚ
ᱥᱟᱠᱚᱢ
ᱥᱟᱠᱛᱤ
ᱥᱟᱠᱟᱢ
ᱥᱟᱠᱟᱢᱮ
ᱥᱟᱠᱣᱟ
ᱥᱟᱠᱤᱞ
ᱥᱟᱠᱤᱵᱽ
ᱥᱟᱠᱥᱤ
ᱥᱟᱠᱥᱮᱡᱽ
ᱥᱟᱠᱥᱮᱥ
ᱥᱟᱠᱥᱮᱱᱟ
ᱥᱟᱠᱨᱟᱛ
ᱥᱟᱠᱨᱮᱰ
ᱥᱟᱠᱩᱱᱛᱚᱞᱟ
ᱥᱟᱠᱲᱟ
ᱥᱟᱠᱳ
ᱥᱟᱠᱷᱟ
ᱥᱟᱠᱷᱤ
ᱥᱟᱠᱷᱤᱭᱟ
ᱥᱟᱠᱷᱭᱚᱨ
ᱥᱟᱡ
ᱥᱟᱡᱟ
ᱥᱟᱡᱟᱣ
ᱥᱟᱡᱟᱣᱟ
ᱥᱟᱡᱟᱭ
ᱥᱟᱡᱟᱯᱩᱨ
ᱥᱟᱡᱷᱟ
ᱥᱟᱡᱽ
ᱥᱟᱢ
ᱥᱟᱢᱚᱞ
ᱥᱟᱢᱚᱨᱤᱠ
ᱥᱟᱢᱚᱱᱛᱚ
ᱥᱟᱢᱚᱴ
ᱥᱟᱢᱞᱤ
ᱥᱟᱢᱟ
ᱥᱟᱢᱟᱜ
ᱥᱟᱢᱟᱝ
ᱥᱟᱢᱟᱝᱼᱛᱟᱞᱢᱟ
ᱥᱟᱢᱟᱝᱼᱠᱚᱧᱮ
ᱥᱟᱢᱟᱝᱼᱠᱚᱭᱮ
ᱥᱟᱢᱟᱝᱼᱠᱚᱸᱭᱮ
ᱥᱟᱢᱟᱝᱼᱯᱟᱪᱮ
ᱥᱟᱢᱟᱠᱷᱩᱱᱴᱟ
ᱥᱟᱢᱟᱡᱤᱠ
ᱥᱟᱢᱟᱡᱽ
ᱥᱟᱢᱟᱢ
ᱥᱟᱢᱟᱥᱛᱤ
ᱥᱟᱢᱟᱥᱛᱤᱯᱩᱨ
ᱥᱟᱢᱟᱨ
ᱥᱟᱢᱟᱪᱟᱨ
ᱥᱟᱢᱟᱱ
ᱥᱟᱢᱟᱱᱚᱢ
ᱥᱟᱢᱟᱱᱟᱢ
ᱥᱟᱢᱟᱱᱫᱽ
ᱥᱟᱢᱟᱸ
ᱥᱟᱢᱢᱟᱱ
ᱥᱟᱢᱢᱟᱱᱤᱛ
ᱥᱟᱢᱢᱤ
ᱥᱟᱢᱤ
ᱥᱟᱢᱤᱛᱤ
ᱥᱟᱢᱤᱞ
ᱥᱟᱢᱤᱭᱟ
ᱥᱟᱢᱤᱱᱟ
ᱥᱟᱢᱥᱛᱷᱟᱱᱤᱠ
ᱥᱟᱢᱥᱩᱞ
ᱥᱟᱢᱨᱟᱡᱚ
ᱥᱟᱢᱨᱟᱡᱡᱚ
ᱥᱟᱢᱨᱟᱡᱭᱚ
ᱥᱟᱢᱨᱟᱡᱽ
ᱥᱟᱢᱨᱟᱡᱽᱡᱚ
ᱥᱟᱢᱨᱟᱡᱽᱭᱚ
ᱥᱟᱢᱨᱟᱣ
ᱥᱟᱢᱨᱟᱴ
ᱥᱟᱢᱩᱫ
ᱥᱟᱢᱩᱫᱽ
ᱥᱟᱢᱩᱭᱮᱞ
ᱥᱟᱢᱩᱱᱫᱽ
ᱥᱟᱢᱮᱞᱟᱭ
ᱥᱟᱢᱮᱥ
ᱥᱟᱢᱮᱥᱤᱭᱟᱹ
ᱥᱟᱢᱱᱟ
ᱥᱟᱢᱲᱟᱣ
ᱥᱟᱢᱳᱜᱤᱥᱤᱭᱟᱱ
ᱥᱟᱢᱳᱣᱟᱱ
ᱥᱟᱢᱴᱟᱣ
ᱥᱟᱢᱵᱟ
ᱥᱟᱢᱵᱟᱣ
ᱥᱟᱢᱵᱤᱫᱷᱟᱱ
ᱥᱟᱢᱵᱲᱟᱣ
ᱥᱟᱢᱵᱽᱲᱟᱣ
ᱥᱟᱣ
ᱥᱟᱣᱚᱱᱛ
ᱥᱟᱣᱛᱮ
ᱥᱟᱣᱛᱷ
ᱥᱟᱣᱟᱭ
ᱥᱟᱣᱩᱛ
ᱥᱟᱣᱩᱛᱷ
ᱥᱟᱣᱫᱤ
ᱥᱟᱣᱱᱟ
ᱥᱟᱤᱱᱥ
ᱥᱟᱥ
ᱥᱟᱥᱚᱠ
ᱥᱟᱥᱚᱱ
ᱥᱟᱥᱚᱱᱚᱜ
ᱥᱟᱥᱚᱱᱤᱭᱟ
ᱥᱟᱥᱚᱱᱤᱭᱟᱹ
ᱥᱟᱥᱚᱱᱤᱭᱟᱹᱭ
ᱥᱟᱥᱚᱱᱮ
ᱥᱟᱥᱚᱱᱮᱫ
ᱥᱟᱥᱛᱚᱨ
ᱥᱟᱥᱛᱟ
ᱥᱟᱥᱛᱤ
ᱥᱟᱥᱛᱨᱚ
ᱥᱟᱥᱛᱨᱤ
ᱥᱟᱥᱛᱨᱤᱭ
ᱥᱟᱥᱛᱨᱤᱭᱚ
ᱥᱟᱥᱛᱨᱤᱭᱟᱜ
ᱥᱟᱥᱛᱷᱚ
ᱥᱟᱥᱟᱝ
ᱥᱟᱥᱟᱨᱟᱢ
ᱥᱟᱥᱟᱭ
ᱥᱟᱥᱟᱯᱲᱟᱣ
ᱥᱟᱥᱟᱯᱲᱟᱣᱤᱡ
ᱥᱟᱥᱟᱵ
ᱥᱟᱥᱤ
ᱥᱟᱥᱤᱛ
ᱥᱟᱥᱮᱛ
ᱥᱟᱥᱮᱛᱤᱭᱟᱹ
ᱥᱟᱦ
ᱥᱟᱦᱚ
ᱥᱟᱦᱚᱨ
ᱥᱟᱦᱚᱴᱟ
ᱥᱟᱦᱚᱵ
ᱥᱟᱦᱜᱟᱞ
ᱥᱟᱦᱟ
ᱥᱟᱦᱟᱜ
ᱥᱟᱦᱟᱣ
ᱥᱟᱦᱟᱥ
ᱥᱟᱦᱟᱨ
ᱥᱟᱦᱟᱨᱟ
ᱥᱟᱦᱟᱨᱥᱟ
ᱥᱟᱦᱟᱨᱩᱠᱷ
ᱥᱟᱦᱟᱨᱮ
ᱥᱟᱦᱟᱬᱮ
ᱥᱟᱦᱟᱭ
ᱥᱟᱦᱟᱭᱟ
ᱥᱟᱦᱟᱭᱮᱱᱟ
ᱥᱟᱦᱟᱱ
ᱥᱟᱦᱟᱵ
ᱥᱟᱦᱟᱵᱟᱫᱽ
ᱥᱟᱦᱟᱸᱥ
ᱥᱟᱦᱡᱟᱦᱟᱱ
ᱥᱟᱦᱡᱟᱦᱟᱸ
ᱥᱟᱦᱡᱟᱦᱟᱸᱯᱩᱨ
ᱥᱟᱦᱢᱩᱠᱷᱤ
ᱥᱟᱦᱤ
ᱥᱟᱦᱤᱛ
ᱥᱟᱦᱤᱛᱛᱚ
ᱥᱟᱦᱤᱛᱛᱮᱨ
ᱥᱟᱦᱤᱛᱭᱚ
ᱥᱟᱦᱤᱛᱭᱟ
ᱥᱟᱦᱤᱫ
ᱥᱟᱦᱤᱫᱽ
ᱥᱟᱦᱤᱵᱽ
ᱥᱟᱦᱤᱵᱽᱜᱚᱸᱡᱽ
ᱥᱟᱦᱤᱸᱡ
ᱥᱟᱦᱨᱩᱠᱷ
ᱥᱟᱦᱩ
ᱥᱟᱦᱮᱫ
ᱥᱟᱦᱮᱵ
ᱥᱟᱦᱮᱵᱽ
ᱥᱟᱦᱮᱵᱽᱜᱚᱸᱡᱽ
ᱥᱟᱦᱮᱵᱽᱜᱟᱸᱡᱽ
ᱥᱟᱦᱮᱸᱫ
ᱥᱟᱦᱯᱩᱨ
ᱥᱟᱦᱰᱚᱞ
ᱥᱟᱦᱱᱤ
ᱥᱟᱦᱴᱟ
ᱥᱟᱦᱵᱟᱡᱽ
ᱥᱟᱧᱪᱟᱣ
ᱥᱟᱧᱪᱟᱣᱥᱟᱲᱟ
ᱥᱟᱨ
ᱥᱟᱨᱚ
ᱥᱟᱨᱚᱡᱟ
ᱥᱟᱨᱚᱡᱽ
ᱥᱟᱨᱚᱥᱠᱚᱬᱟ
ᱥᱟᱨᱚᱫᱟ
ᱥᱟᱨᱚᱫᱟᱢᱚᱱᱤ
ᱥᱟᱨᱚᱬ
ᱥᱟᱨᱚᱱ
ᱥᱟᱨᱚᱱᱰᱟ
ᱥᱟᱨᱚᱲᱟ
ᱥᱟᱨᱛᱮ
ᱥᱟᱨᱜᱟ
ᱥᱟᱨᱟ
ᱥᱟᱨᱟᱢ
ᱥᱟᱨᱟᱣᱟᱠ
ᱥᱟᱨᱟᱦ
ᱥᱟᱨᱟᱫᱽ
ᱥᱟᱨᱟᱭᱠᱤ
ᱥᱟᱨᱟᱵᱷᱟᱭᱤ
ᱥᱟᱨᱠ
ᱥᱟᱨᱠᱚᱥ
ᱥᱟᱨᱠᱟᱞ
ᱥᱟᱨᱠᱟᱥ
ᱥᱟᱨᱠᱟᱨ
ᱥᱟᱨᱠᱟᱨᱤ
ᱥᱟᱨᱠᱤᱴ
ᱥᱟᱨᱠᱮᱞ
ᱥᱟᱨᱡᱚᱢ
ᱥᱟᱨᱡᱟᱦ
ᱥᱟᱨᱡᱟᱨᱤ
ᱥᱟᱨᱢᱟ
ᱥᱟᱨᱢᱤᱱ
ᱥᱟᱨᱣᱤᱥ
ᱥᱟᱨᱤ
ᱥᱟᱨᱤᱠᱟ
ᱥᱟᱨᱤᱭᱟᱠᱟᱱᱫᱤ
ᱥᱟᱨᱥ
ᱥᱟᱨᱥᱟ
ᱥᱟᱨᱥᱟᱣ
ᱥᱟᱨᱥᱟᱣᱜ
ᱥᱟᱨᱥᱟᱣᱜᱼᱟ
ᱥᱟᱨᱦᱟᱣ
ᱥᱟᱨᱦᱟᱣᱟᱱ
ᱥᱟᱨᱦᱟᱣᱮ
ᱥᱟᱨᱦᱟᱣᱱᱟ
ᱥᱟᱨᱦᱟᱣᱱᱟᱭ
ᱥᱟᱨᱫᱟ
ᱥᱟᱨᱫᱟᱨ
ᱥᱟᱨᱫᱤ
ᱥᱟᱨᱮ
ᱥᱟᱨᱮᱡ
ᱥᱟᱨᱮᱡᱟᱜ
ᱥᱟᱨᱮᱡᱽ
ᱥᱟᱨᱮᱲ
ᱥᱟᱨᱱᱟ
ᱥᱟᱨᱳᱡᱟ
ᱥᱟᱨᱴᱤᱯᱷᱤᱠᱮᱴ
ᱥᱟᱨᱵᱤᱥ
ᱥᱟᱨᱵᱤᱭᱟ
ᱥᱟᱨᱵᱤᱭᱟᱱ
ᱥᱟᱨᱵᱳ
ᱥᱟᱨᱵᱷᱟᱨ
ᱥᱟᱨᱵᱷᱤᱥ
ᱥᱟᱨᱵᱷᱮ
ᱥᱟᱩᱛᱷ
ᱥᱟᱪᱟᱨᱦᱮ
ᱥᱟᱫᱚᱢ
ᱥᱟᱫᱚᱨ
ᱥᱟᱫᱟ
ᱥᱟᱫᱟᱨ
ᱥᱟᱫᱟᱱ
ᱥᱟᱫᱤ
ᱥᱟᱫᱩᱞᱞᱟᱯᱩᱨ
ᱥᱟᱫᱷᱚᱱ
ᱥᱟᱫᱷᱚᱵᱽ
ᱥᱟᱫᱷᱟᱨᱚᱬ
ᱥᱟᱫᱷᱟᱨᱚᱱ
ᱥᱟᱫᱷᱟᱬᱚᱱ
ᱥᱟᱫᱷᱤᱱ
ᱥᱟᱫᱷᱤᱱᱚᱛᱟ
ᱥᱟᱫᱷᱩ
ᱥᱟᱫᱷᱱᱟ
ᱥᱟᱫᱽᱨᱤ
ᱥᱟᱬᱮᱥ
ᱥᱟᱬᱮᱥᱤᱭᱟ
ᱥᱟᱬᱮᱥᱤᱭᱟᱹ
ᱥᱟᱬᱮᱥᱤᱭᱟᱹᱭ
ᱥᱟᱭ
ᱥᱟᱭᱚᱛ
ᱥᱟᱭᱚᱛᱛᱚᱥᱟᱥᱤᱛᱚ
ᱥᱟᱭᱛᱷᱤᱭᱟ
ᱥᱟᱭᱜᱚᱱ
ᱥᱟᱭᱟᱝ
ᱥᱟᱭᱟᱫ
ᱥᱟᱭᱟᱱ
ᱥᱟᱭᱟᱱᱟᱜ
ᱥᱟᱭᱟᱸᱫ
ᱥᱟᱭᱠᱚᱞᱚᱡᱤ
ᱥᱟᱭᱠᱚᱨᱟ
ᱥᱟᱭᱠᱚᱲᱟ
ᱥᱟᱭᱠᱞᱳᱡᱤ
ᱥᱟᱭᱠᱟᱨᱟ
ᱥᱟᱭᱠᱤᱞ
ᱥᱟᱭᱠᱮᱞ
ᱥᱟᱭᱠᱳᱞᱳᱡᱤ
ᱥᱟᱭᱢᱚᱱ
ᱥᱟᱭᱤ
ᱥᱟᱭᱤᱡᱽ
ᱥᱟᱭᱤᱰ
ᱥᱟᱭᱤᱱ
ᱥᱟᱭᱤᱱᱥ
ᱥᱟᱭᱤᱱᱥᱮᱥ
ᱥᱟᱭᱤᱱᱴᱤᱯᱷᱤᱠ
ᱥᱟᱭᱤᱴ
ᱥᱟᱭᱤᱸᱥ
ᱥᱟᱭᱥᱟᱞ
ᱥᱟᱭᱦᱟ
ᱥᱟᱭᱨᱟ
ᱥᱟᱭᱮᱱᱥ
ᱥᱟᱭᱯᱨᱚᱥ
ᱥᱟᱭᱯᱨᱟᱥ
ᱥᱟᱭᱯᱷᱩᱞᱞᱟ
ᱥᱟᱭᱱᱟ
ᱥᱟᱭᱱᱤᱠ
ᱥᱟᱭᱵᱟᱨ
ᱥᱟᱭᱵᱮᱨᱤᱭᱟ
ᱥᱟᱭᱵᱮᱨᱤᱭᱟᱱ
ᱥᱟᱮᱬᱥ
ᱥᱟᱯ
ᱥᱟᱯᱚᱨᱴ
ᱥᱟᱯᱚᱨᱴᱤᱝ
ᱥᱟᱯᱞᱟᱭ
ᱥᱟᱯᱟ
ᱥᱟᱯᱟᱦᱟᱨ
ᱥᱟᱯᱟᱲᱟᱣ
ᱥᱟᱯᱟᱵ
ᱥᱟᱯᱟᱵᱽ
ᱥᱟᱯᱱᱟ
ᱥᱟᱯᱲᱟᱣ
ᱥᱟᱯᱲᱟᱣᱜ
ᱥᱟᱯᱲᱟᱣᱟ
ᱥᱟᱯᱲᱟᱣᱤᱡ
ᱥᱟᱯᱲᱟᱣᱤᱭᱟᱹ
ᱥᱟᱯᱲᱮᱛ
ᱥᱟᱯᱲᱮᱫ
ᱥᱟᱯᱷᱟ
ᱥᱟᱯᱷᱟᱞᱛᱟ
ᱥᱟᱯᱷᱟᱭ
ᱥᱟᱯᱷᱤ
ᱥᱟᱰᱮ
ᱥᱟᱰᱮᱭᱟ
ᱥᱟᱱ
ᱥᱟᱱᱛ
ᱥᱟᱱᱛᱚᱱᱩ
ᱥᱟᱱᱛᱟ
ᱥᱟᱱᱛᱟᱞ
ᱥᱟᱱᱛᱟᱞᱤ
ᱥᱟᱱᱛᱟᱲ
ᱥᱟᱱᱛᱟᱲᱟᱜ
ᱥᱟᱱᱛᱟᱲᱤ
ᱥᱟᱱᱛᱟᱲᱤᱺ
ᱥᱟᱱᱛᱤ
ᱥᱟᱱᱛᱤᱭᱟᱜᱳ
ᱥᱟᱱᱛᱤᱱᱤᱠᱮᱛᱚᱱ
ᱥᱟᱱᱛᱷᱤ
ᱥᱟᱱᱟ
ᱥᱟᱱᱟᱜᱟᱲ
ᱥᱟᱱᱟᱢ
ᱥᱟᱱᱟᱢᱟᱜ
ᱥᱟᱱᱟᱥ
ᱥᱟᱱᱟᱥᱤ
ᱥᱟᱱᱟᱥᱤᱭᱟ
ᱥᱟᱱᱟᱥᱤᱭᱟᱹ
ᱥᱟᱱᱟᱫᱷᱤᱱ
ᱥᱟᱱᱟᱭ
ᱥᱟᱱᱟᱭᱟ
ᱥᱟᱱᱟᱭᱮ
ᱥᱟᱱᱟᱭᱮᱫ
ᱥᱟᱱᱟᱱᱟᱢ
ᱥᱟᱱᱡᱩᱠᱛᱟ
ᱥᱟᱱᱤ
ᱥᱟᱱᱤᱭᱟ
ᱥᱟᱱᱥᱠᱨᱤᱛ
ᱥᱟᱱᱥᱠᱨᱤᱴ
ᱥᱟᱱᱨᱟᱭᱤᱡᱟᱨᱥ
ᱥᱟᱱᱩ
ᱥᱟᱱᱫᱮᱥ
ᱥᱟᱱᱭᱟᱞ
ᱥᱟᱱᱯᱟᱠᱷᱚᱬᱟ
ᱥᱟᱲᱟ
ᱥᱟᱲᱮ
ᱥᱟᱴ
ᱥᱟᱴᱟᱣ
ᱥᱟᱴᱮᱞᱟᱭᱤᱴ
ᱥᱟᱵ
ᱥᱟᱵᱚᱜ
ᱥᱟᱵᱚᱨᱠᱟᱸᱴᱷᱟ
ᱥᱟᱵᱚᱨᱢᱚᱛᱤ
ᱥᱟᱵᱚᱱ
ᱥᱟᱵᱟ
ᱥᱟᱵᱟᱜ
ᱥᱟᱵᱟᱦ
ᱥᱟᱵᱟᱱᱟ
ᱥᱟᱵᱤᱛᱨᱤ
ᱥᱟᱵᱤᱱᱟ
ᱥᱟᱵᱩᱛ
ᱥᱟᱵᱩᱱ
ᱥᱟᱵᱮ
ᱥᱟᱵᱮᱠ
ᱥᱟᱵᱰᱤᱵᱤᱡᱚᱱ
ᱥᱟᱵᱰᱤᱵᱷᱤᱥᱟᱱ
ᱥᱟᱵᱷᱟ
ᱥᱟᱵᱷᱟᱵᱤᱠ
ᱥᱟᱵᱼᱰᱤᱵᱤᱡᱚᱱ
ᱥᱟᱵᱽ
ᱥᱟᱵᱽᱰᱤᱵᱤᱡᱚᱱ
ᱥᱟᱵᱽᱱᱩᱨ
ᱥᱟᱵᱽᱼᱰᱤᱵᱤᱡᱚᱱ
ᱥᱟᱶ
ᱥᱟᱶᱛᱟ
ᱥᱟᱶᱛᱟᱞ
ᱥᱟᱶᱛᱟᱞᱤ
ᱥᱟᱶᱛᱟᱠᱤᱭᱟᱹ
ᱥᱟᱶᱛᱟᱨᱤ
ᱥᱟᱶᱛᱟᱨᱮ
ᱥᱟᱶᱛᱟᱹᱨᱤ
ᱥᱟᱶᱛᱮ
ᱥᱟᱶᱛᱮᱭ
ᱥᱟᱶᱛᱮᱱ
ᱥᱟᱶᱟᱨ
ᱥᱟᱶᱢᱤ
ᱥᱟᱶᱦᱟ
ᱥᱟᱶᱦᱮᱛᱤᱭᱟᱹ
ᱥᱟᱶᱦᱮᱫ
ᱥᱟᱶᱦᱮᱫᱤᱭᱟ
ᱥᱟᱶᱦᱮᱫᱤᱭᱟᱹ
ᱥᱟᱶᱦᱮᱫᱽ
ᱥᱟᱶᱨᱮ
ᱥᱟᱶᱮ
ᱥᱟᱶᱱᱟ
ᱥᱟᱶᱼᱥᱟᱶ
ᱥᱟᱶᱼᱥᱟᱶᱛᱮ
ᱥᱟᱸ
ᱥᱟᱸᱛ
ᱥᱟᱸᱛᱤ
ᱥᱟᱸᱛᱨᱟ
ᱥᱟᱸᱛᱨᱟᱜᱟᱪᱷᱤ
ᱥᱟᱸᱜᱚᱪ
ᱥᱟᱸᱜᱟᱛ
ᱥᱟᱸᱜᱤᱧ
ᱥᱟᱸᱜᱤᱧᱟ
ᱥᱟᱸᱜᱤᱱ
ᱥᱟᱸᱜᱮ
ᱥᱟᱸᱜᱷ
ᱥᱟᱸᱜᱷᱟᱨ
ᱥᱟᱸᱜᱷᱟᱨᱤᱭᱟ
ᱥᱟᱸᱜᱷᱟᱨᱤᱭᱟᱹ
ᱥᱟᱸᱜᱷᱟᱭᱤ
ᱥᱟᱸᱜᱽ
ᱥᱟᱸᱠᱟᱨ
ᱥᱟᱸᱠᱷ
ᱥᱟᱸᱡᱟᱭ
ᱥᱟᱸᱣ
ᱥᱟᱸᱥᱚᱫ
ᱥᱟᱸᱥᱚᱫᱽ
ᱥᱟᱸᱥᱛᱷᱟ
ᱥᱟᱸᱥᱛᱷᱟᱱ
ᱥᱟᱸᱥᱠᱨᱤᱛ
ᱥᱟᱸᱥᱠᱨᱤᱛᱤ
ᱥᱟᱸᱥᱠᱨᱤᱛᱤᱠ
ᱥᱟᱸᱥᱠᱨᱤᱴ
ᱥᱟᱸᱦᱤᱡ
ᱥᱟᱸᱦᱮᱫ
ᱥᱟᱸᱪᱟᱣ
ᱥᱟᱸᱪᱤ
ᱥᱟᱸᱫᱮᱥ
ᱥᱟᱸᱭ
ᱥᱟᱸᱭᱠᱩᱲᱟ
ᱥᱟᱸᱭᱩᱠᱛ
ᱥᱟᱸᱵᱟᱣ
ᱥᱟᱸᱵᱽᱲᱟᱣ
ᱥᱟᱹᱛ
ᱥᱟᱹᱛᱮᱱ
ᱥᱟᱹᱜᱟᱭ
ᱥᱟᱹᱜᱟᱹᱭ
ᱥᱟᱹᱜᱟᱹᱭᱟᱱ
ᱥᱟᱹᱜᱟᱹᱭᱮ
ᱥᱟᱹᱜᱤᱧ
ᱥᱟᱹᱜᱤᱱ
ᱥᱟᱹᱜᱩᱱ
ᱥᱟᱹᱜᱮ
ᱥᱟᱹᱝᱜᱤᱧ
ᱥᱟᱹᱞ
ᱥᱟᱹᱞᱟᱹᱭ
ᱥᱟᱹᱠᱤᱞ
ᱥᱟᱹᱠᱭᱟᱹᱛ
ᱥᱟᱹᱠᱷᱤ
ᱥᱟᱹᱠᱷᱭᱟᱹᱛ
ᱥᱟᱹᱢᱤᱞ
ᱥᱟᱹᱢᱩᱝ
ᱥᱟᱹᱢᱩᱫᱽ
ᱥᱟᱹᱢᱩᱱ
ᱥᱟᱹᱢᱩᱸᱫ
ᱥᱟᱹᱢᱩᱸᱫᱽ
ᱥᱟᱹᱣᱲᱤ
ᱥᱟᱹᱦᱤᱛ
ᱥᱟᱹᱦᱤᱡ
ᱥᱟᱹᱦᱤᱸᱡ
ᱥᱟᱹᱦᱩ
ᱥᱟᱹᱨᱟᱹᱭᱠᱮᱞᱟ
ᱥᱟᱹᱨᱤ
ᱥᱟᱹᱨᱤᱭᱟᱜ
ᱥᱟᱹᱨᱤᱭᱟᱹᱛ
ᱥᱟᱹᱨᱤᱭᱮᱱᱟ
ᱥᱟᱹᱨᱩ
ᱥᱟᱹᱨᱫᱤ
ᱥᱟᱹᱨᱫᱤᱜ
ᱥᱟᱹᱨᱫᱤᱣ
ᱥᱟᱹᱫᱷᱤᱱ
ᱥᱟᱹᱫᱷᱤᱱᱚᱛᱟ
ᱥᱟᱹᱫᱷᱩ
ᱥᱟᱹᱯᱲᱤ
ᱥᱟᱹᱯᱷᱤ
ᱥᱟᱹᱱᱛᱤ
ᱥᱟᱹᱲᱤ
ᱥᱟᱹᱲᱤᱢ
ᱥᱟᱺᱜᱤᱧ
ᱥᱟᱺᱜᱤᱧᱟ
ᱥᱟᱺᱜᱤᱧᱼᱟ
ᱥᱟᱺᱜᱤᱱ
ᱥᱟᱺᱦᱤᱡ
ᱥᱟᱺᱦᱤᱸᱡ
ᱥᱟᱺᱰᱤ
ᱥᱠᱚᱞᱟᱨ
ᱥᱠᱚᱞᱟᱨᱥᱤᱯ
ᱥᱠᱚᱨ
ᱥᱠᱚᱭᱟᱨ
ᱥᱠᱚᱴ
ᱥᱠᱚᱴᱞᱟᱸᱰ
ᱥᱠᱚᱴᱞᱮᱱᱰ
ᱥᱠᱚᱴᱤᱥ
ᱥᱠᱚᱴᱥ
ᱥᱠᱟ
ᱥᱠᱟᱞᱤᱭᱟ
ᱥᱠᱟᱣᱩᱴ
ᱥᱠᱟᱫᱟ
ᱥᱠᱟᱭ
ᱥᱠᱟᱭᱨᱩᱴ
ᱥᱠᱟᱱᱟ
ᱥᱠᱤᱞ
ᱥᱠᱤᱱ
ᱥᱠᱨᱤᱯᱴ
ᱥᱠᱨᱤᱱ
ᱥᱠᱨᱮᱯ
ᱥᱠᱨᱮᱯᱥᱨᱩᱰ
ᱥᱠᱩᱞ
ᱥᱠᱳᱞᱟᱨ
ᱥᱠᱳᱞᱟᱨᱥᱤᱯ
ᱥᱠᱳᱨ
ᱥᱠᱳᱴᱤᱥ
ᱥᱢᱟᱨᱴ
ᱥᱢᱟᱨᱴᱯᱷᱚᱱ
ᱥᱢᱟᱨᱴᱯᱷᱳᱱ
ᱥᱢᱤᱛᱟ
ᱥᱢᱤᱛᱷ
ᱥᱢᱤᱛᱷᱟ
ᱥᱢᱨᱤᱛᱤ
ᱥᱢᱨᱩᱛᱤ
ᱥᱣᱚᱛᱚᱱᱛᱨᱚ
ᱥᱣᱚᱨᱟᱡᱽ
ᱥᱣᱚᱨᱩᱯ
ᱥᱣᱚᱭᱚᱝᱥᱮᱵᱚᱠ
ᱥᱣᱚᱯᱱᱚ
ᱥᱣᱟᱛ
ᱥᱣᱟᱛᱤ
ᱥᱣᱟᱡᱤᱞᱮᱱᱰ
ᱥᱣᱟᱡᱤᱞᱮᱸᱰ
ᱥᱣᱟᱢᱤ
ᱥᱣᱟᱢᱤᱱᱟᱛᱷᱟᱱ
ᱥᱣᱟᱥᱛᱷ
ᱥᱣᱟᱥᱛᱷᱭᱟ
ᱥᱣᱟᱭᱚᱛᱚ
ᱥᱣᱟᱭᱤᱸ
ᱥᱣᱤᱡᱚᱨᱞᱟᱸᱰ
ᱥᱣᱤᱢᱤᱝ
ᱥᱣᱤᱥ
ᱥᱣᱤᱫᱤᱥ
ᱥᱣᱤᱰᱮᱱ
ᱥᱣᱤᱴᱤ
ᱥᱣᱮᱛᱟ
ᱥᱤ
ᱥᱤᱛᱚᱞ
ᱥᱤᱛᱟ
ᱥᱤᱛᱟᱢᱚᱲᱤ
ᱥᱤᱛᱟᱢᱵᱟᱨ
ᱥᱤᱛᱟᱨ
ᱥᱤᱛᱟᱨᱟ
ᱥᱤᱛᱟᱨᱟᱢ
ᱥᱤᱛᱟᱯᱩᱨ
ᱥᱤᱛᱟᱹ
ᱥᱤᱛᱟᱹᱯᱩᱨ
ᱥᱤᱛᱩᱝ
ᱥᱤᱛᱩᱢ
ᱥᱤᱛᱷᱟᱨᱚᱢᱚᱱ
ᱥᱤᱛᱷᱟᱨᱟ
ᱥᱤᱜᱟᱨᱮᱴ
ᱥᱤᱜᱽᱢᱳ
ᱥᱤᱜᱽᱨᱮᱴ
ᱥᱤᱝ
ᱥᱤᱝᱜᱚᱨ
ᱥᱤᱝᱜᱟ
ᱥᱤᱝᱜᱟᱨ
ᱥᱤᱝᱜᱟᱯᱩᱨ
ᱥᱤᱝᱜᱟᱲᱤᱭᱟ
ᱥᱤᱝᱜᱮᱞ
ᱥᱤᱝᱤᱢᱟᱨᱤ
ᱥᱤᱝᱦᱚ
ᱥᱤᱝᱦᱚᱞᱤ
ᱥᱤᱝᱦᱟ
ᱥᱤᱝᱦᱟᱥᱚᱱ
ᱥᱤᱝᱨᱚᱞᱤ
ᱥᱤᱝᱨᱟᱹᱭ
ᱥᱤᱝᱯᱷᱳ
ᱥᱤᱝᱲᱟ
ᱥᱤᱝᱲᱟᱹ
ᱥᱤᱝᱵᱷᱩᱢ
ᱥᱤᱞ
ᱥᱤᱞᱚᱝ
ᱥᱤᱞᱚᱱ
ᱥᱤᱞᱞᱤ
ᱥᱤᱞᱟ
ᱥᱤᱞᱟᱵᱚᱥ
ᱥᱤᱞᱟᱵᱟᱥ
ᱥᱤᱞᱠ
ᱥᱤᱞᱣᱚᱨ
ᱥᱤᱞᱣᱟ
ᱥᱤᱞᱣᱟᱨ
ᱥᱤᱞᱤ
ᱥᱤᱞᱤᱜᱩᱲᱤ
ᱥᱤᱞᱤᱠᱟᱱ
ᱥᱤᱞᱤᱱᱰᱚᱨ
ᱥᱤᱞᱪᱚᱨ
ᱥᱤᱞᱫᱟ
ᱥᱤᱞᱫᱟᱹ
ᱥᱤᱞᱮᱥᱤᱭᱟᱱ
ᱥᱤᱞᱮᱴ
ᱥᱤᱞᱮᱴᱤ
ᱥᱤᱞᱯᱚ
ᱥᱤᱞᱯᱚᱠᱚᱞᱟ
ᱥᱤᱞᱯᱟ
ᱥᱤᱞᱯᱤ
ᱥᱤᱞᱯᱤᱧ
ᱥᱤᱞᱯᱳ
ᱥᱤᱞᱵᱷᱟ
ᱥᱤᱞᱵᱷᱟᱥᱟ
ᱥᱤᱠᱚᱱᱫᱚᱨ
ᱥᱤᱠᱟ
ᱥᱤᱠᱟᱜᱚ
ᱥᱤᱠᱟᱨ
ᱥᱤᱠᱟᱨᱤ
ᱥᱤᱠᱟᱨᱤᱯᱟᱲᱟ
ᱥᱤᱠᱟᱹᱨ
ᱥᱤᱠᱟᱹᱨᱤᱭᱟ
ᱥᱤᱠᱟᱹᱨᱤᱭᱟᱹ
ᱥᱤᱠᱠᱤᱢ
ᱥᱤᱠᱠᱷᱟ
ᱥᱤᱠᱤ
ᱥᱤᱠᱤᱛ
ᱥᱤᱠᱤᱢ
ᱥᱤᱠᱥ
ᱥᱤᱠᱨᱤ
ᱥᱤᱠᱨᱤᱛᱤ
ᱥᱤᱠᱨᱤᱛᱤᱭ
ᱥᱤᱠᱩᱨᱤᱴᱤᱡ
ᱥᱤᱠᱩᱵ
ᱥᱤᱠᱬᱤᱡ
ᱥᱤᱠᱱᱟᱸᱛ
ᱥᱤᱠᱱᱟᱹᱛ
ᱥᱤᱠᱲᱤ
ᱥᱤᱠᱷ
ᱥᱤᱠᱷᱟ
ᱥᱤᱠᱷᱟᱱᱟᱹᱛ
ᱥᱤᱠᱷᱤᱛ
ᱥᱤᱠᱷᱱᱟ
ᱥᱤᱠᱷᱱᱟᱹᱛ
ᱥᱤᱠᱷᱱᱟᱹᱛᱟᱱ
ᱥᱤᱡ
ᱥᱤᱡᱚᱱ
ᱥᱤᱡᱟᱨ
ᱥᱤᱡᱟᱱ
ᱥᱤᱡᱮᱱ
ᱥᱤᱡᱷᱩᱣᱟ
ᱥᱤᱢ
ᱥᱤᱢᱚᱜᱟ
ᱥᱤᱢᱜᱟ
ᱥᱤᱢᱞᱟ
ᱥᱤᱢᱟ
ᱥᱤᱢᱟᱱᱟ
ᱥᱤᱢᱟᱸᱱᱟ
ᱥᱤᱢᱟᱹ
ᱥᱤᱢᱟᱹᱭ
ᱥᱤᱢᱟᱹᱱᱟ
ᱥᱤᱢᱮᱱᱴ
ᱥᱤᱢᱮᱸᱴ
ᱥᱤᱢᱰᱮᱜᱟ
ᱥᱤᱢᱱᱟ
ᱥᱤᱢᱲᱤᱯᱟᱲ
ᱥᱤᱢᱵᱳᱞ
ᱥᱤᱣ
ᱥᱤᱣᱟ
ᱥᱤᱣᱟᱱ
ᱥᱤᱣᱤᱞ
ᱥᱤᱣᱦᱚᱨ
ᱥᱤᱣᱩᱞ
ᱥᱤᱣᱲᱤ
ᱥᱤᱥ
ᱥᱤᱥᱚᱫᱤᱭᱟ
ᱥᱤᱥᱟ
ᱥᱤᱥᱟᱭ
ᱥᱤᱥᱣᱟ
ᱥᱤᱥᱤᱞᱤᱭᱟᱱ
ᱥᱤᱥᱤᱨ
ᱥᱤᱥᱩ
ᱥᱤᱥᱴᱚᱢ
ᱥᱤᱥᱴᱚᱨ
ᱥᱤᱥᱴᱟᱢ
ᱥᱤᱥᱴᱟᱨ
ᱥᱤᱥᱴᱮᱢ
ᱥᱤᱦᱚᱨ
ᱥᱤᱧ
ᱥᱤᱧᱚᱛ
ᱥᱤᱧᱚᱛᱤᱭᱟ
ᱥᱤᱧᱚᱛᱤᱭᱟᱹ
ᱥᱤᱧᱚᱛᱭᱟ
ᱥᱤᱧᱚᱴ
ᱥᱤᱧᱟᱛ
ᱥᱤᱧᱡᱚ
ᱥᱤᱧᱩᱛ
ᱥᱤᱧᱩᱛᱤᱭᱟ
ᱥᱤᱨ
ᱥᱤᱨᱚᱢᱚᱬᱤ
ᱥᱤᱨᱚᱦᱤ
ᱥᱤᱨᱟ
ᱥᱤᱨᱟᱡᱽ
ᱥᱤᱨᱟᱡᱽᱜᱚᱸᱡᱽ
ᱥᱤᱨᱟᱦᱟ
ᱥᱤᱨᱟᱹ
ᱥᱤᱨᱠᱟ
ᱥᱤᱨᱡᱚᱱ
ᱥᱤᱨᱡᱚᱱᱚᱜ
ᱥᱤᱨᱡᱚᱱᱤᱭᱟᱹ
ᱥᱤᱨᱡᱚᱱᱮᱫ
ᱥᱤᱨᱡᱟ
ᱥᱤᱨᱡᱟᱣ
ᱥᱤᱨᱡᱟᱹᱣ
ᱥᱤᱨᱡᱟᱹᱣᱟ
ᱥᱤᱨᱢᱤᱴ
ᱥᱤᱨᱤ
ᱥᱤᱨᱤᱞᱤᱠ
ᱥᱤᱨᱤᱡ
ᱥᱤᱨᱤᱡᱚᱜ
ᱥᱤᱨᱤᱡᱚᱞ
ᱥᱤᱨᱤᱡᱤᱭᱟᱹ
ᱥᱤᱨᱤᱡᱽ
ᱥᱤᱨᱤᱥ
ᱥᱤᱨᱤᱥᱮᱱᱟ
ᱥᱤᱨᱤᱧ
ᱥᱤᱨᱤᱭᱟ
ᱥᱤᱨᱤᱭᱟᱞ
ᱥᱤᱨᱤᱭᱟᱨ
ᱥᱤᱨᱤᱭᱟᱹᱞ
ᱥᱤᱨᱤᱭᱮᱞ
ᱥᱤᱨᱤᱱ
ᱥᱤᱨᱥᱟ
ᱥᱤᱨᱥᱟᱱᱚᱱᱫᱚ
ᱥᱤᱨᱥᱤ
ᱥᱤᱨᱥᱤᱞᱟ
ᱥᱤᱨᱯᱟ
ᱥᱤᱨᱯᱟᱭ
ᱥᱤᱨᱯᱟᱹ
ᱥᱤᱨᱯᱟᱹᱭ
ᱥᱤᱨᱯᱷᱟ
ᱥᱤᱨᱯᱷᱟᱹ
ᱥᱤᱨᱯᱷᱟᱹᱭ
ᱥᱤᱨᱰᱤ
ᱥᱤᱨᱳᱢᱚᱬᱤ
ᱥᱤᱨᱵᱟᱫᱽ
ᱥᱤᱫ
ᱥᱤᱫᱚ
ᱥᱤᱫᱩ
ᱥᱤᱫᱫᱤᱠᱤ
ᱥᱤᱫᱫᱷᱟᱨᱛᱷᱚ
ᱥᱤᱫᱫᱷᱟᱱᱛᱚ
ᱥᱤᱫᱷ
ᱥᱤᱫᱷᱚ
ᱥᱤᱫᱷᱟ
ᱥᱤᱫᱷᱟᱨᱛᱷ
ᱥᱤᱫᱷᱟᱱᱛ
ᱥᱤᱫᱷᱟᱱᱛᱚ
ᱥᱤᱫᱷᱟᱹ
ᱥᱤᱫᱷᱤ
ᱥᱤᱫᱷᱩ
ᱥᱤᱫᱷᱭᱟᱱᱛᱚ
ᱥᱤᱫᱽ
ᱥᱤᱫᱽᱫᱤᱠᱤ
ᱥᱤᱫᱽᱫᱤᱯᱮᱴ
ᱥᱤᱬᱤᱡ
ᱥᱤᱭᱚᱜ
ᱥᱤᱭᱟ
ᱥᱤᱭᱟᱝ
ᱥᱤᱭᱟᱞ
ᱥᱤᱭᱟᱞᱫᱟᱦ
ᱥᱤᱭᱟᱢ
ᱥᱤᱭᱟᱨᱥᱳᱞ
ᱥᱤᱭᱟᱱ
ᱥᱤᱭᱩᱜ
ᱥᱤᱭᱩᱲᱤ
ᱥᱤᱭᱮᱨᱟ
ᱥᱤᱭᱳᱞ
ᱥᱤᱯ
ᱥᱤᱯᱟ
ᱥᱤᱯᱟᱦᱤ
ᱥᱤᱯᱟᱦᱤᱡᱟᱞᱟ
ᱥᱤᱯᱟᱹᱦᱤ
ᱥᱤᱯᱤ
ᱥᱤᱯᱤᱝ
ᱥᱤᱯᱤᱥᱤ
ᱥᱤᱯᱤᱭᱟ
ᱥᱤᱯᱤᱵᱤᱞ
ᱥᱤᱯᱨᱟ
ᱥᱤᱯᱨᱟᱥ
ᱥᱤᱯᱷᱴ
ᱥᱤᱰᱚᱨ
ᱥᱤᱰᱣᱮᱞ
ᱥᱤᱰᱤ
ᱥᱤᱰᱩᱞ
ᱥᱤᱰᱱᱤ
ᱥᱤᱱ
ᱥᱤᱱᱚ
ᱥᱤᱱᱟ
ᱥᱤᱱᱟᱱ
ᱥᱤᱱᱟᱹᱢ
ᱥᱤᱱᱡᱤᱭᱟᱝ
ᱥᱤᱱᱢᱟ
ᱥᱤᱱᱤ
ᱥᱤᱱᱤᱢᱟ
ᱥᱤᱱᱤᱭᱚᱨ
ᱥᱤᱱᱤᱭᱟᱨ
ᱥᱤᱱᱤᱭᱟᱹᱨ
ᱥᱤᱱᱦᱟ
ᱥᱤᱱᱫᱩᱨ
ᱥᱤᱱᱫᱩᱨᱚ
ᱥᱤᱱᱫᱷ
ᱥᱤᱱᱫᱷᱤ
ᱥᱤᱱᱫᱷᱤᱭᱟ
ᱥᱤᱱᱫᱷᱩ
ᱥᱤᱱᱫᱷᱩᱫᱩᱨᱜᱽ
ᱥᱤᱱᱮ
ᱥᱤᱱᱮᱢᱟ
ᱥᱤᱱᱮᱢᱟᱨᱮ
ᱥᱤᱱᱮᱢᱟᱭ
ᱥᱤᱱᱮᱴ
ᱥᱤᱱᱮᱹᱢᱟ
ᱥᱤᱱᱰᱤᱠᱮᱴ
ᱥᱤᱱᱰᱨᱳᱢ
ᱥᱤᱴ
ᱥᱤᱴᱟᱨᱤᱥᱴᱤ
ᱥᱤᱴᱠᱟᱹ
ᱥᱤᱴᱤ
ᱥᱤᱵ
ᱥᱤᱵᱚ
ᱥᱤᱵᱚᱠᱩᱢᱟᱨ
ᱥᱤᱵᱟ
ᱥᱤᱵᱟᱞ
ᱥᱤᱵᱟᱞᱤᱠ
ᱥᱤᱵᱟᱡᱤ
ᱥᱤᱵᱤ
ᱥᱤᱵᱤᱞ
ᱥᱤᱵᱤᱞᱟ
ᱥᱤᱵᱤᱟᱭᱤ
ᱥᱤᱵᱩ
ᱥᱤᱵᱷ
ᱥᱤᱵᱷᱤᱞ
ᱥᱤᱵᱷᱤᱞᱤᱭᱟᱱ
ᱥᱤᱵᱷᱱᱤ
ᱥᱤᱵᱽ
ᱥᱤᱵᱽᱜᱚᱝᱜᱟ
ᱥᱤᱵᱽᱜᱚᱸᱡᱽ
ᱥᱤᱵᱽᱞᱤᱸᱜᱽ
ᱥᱤᱵᱽᱢᱚᱜᱟ
ᱥᱤᱵᱽᱥᱟᱜᱚᱨ
ᱥᱤᱵᱽᱨᱟᱛᱨᱤ
ᱥᱤᱵᱽᱯᱩᱨ
ᱥᱤᱵᱽᱯᱩᱨᱤ
ᱥᱤᱵᱽᱱᱟᱛᱷ
ᱥᱤᱸᱛᱷᱮᱴᱤᱠ
ᱥᱤᱸᱜ
ᱥᱤᱸᱜᱟ
ᱥᱤᱸᱜᱟᱨ
ᱥᱤᱸᱜᱟᱯᱩᱨ
ᱥᱤᱸᱜᱟᱲᱤᱭᱟ
ᱥᱤᱸᱜᱟᱲᱤᱭᱟᱹ
ᱥᱤᱸᱜᱟᱹᱲ
ᱥᱤᱸᱜᱤ
ᱥᱤᱸᱜᱮ
ᱥᱤᱸᱫᱩᱨ
ᱥᱤᱸᱫᱩᱨᱤᱭᱟᱹ
ᱥᱤᱸᱫᱷ
ᱥᱤᱸᱫᱷᱤ
ᱥᱤᱸᱫᱷᱤᱭᱟ
ᱥᱤᱸᱫᱷᱩ
ᱥᱤᱹ
ᱥᱤᱹᱢᱤᱹ
ᱥᱦᱮᱫ
ᱥᱨ
ᱥᱨᱚᱛ
ᱥᱨᱚᱫᱷᱟ
ᱥᱨᱚᱫᱷᱟᱧᱡᱚᱲᱤ
ᱥᱨᱚᱯᱷ
ᱥᱨᱟᱵᱚᱥᱛᱤ
ᱥᱨᱤ
ᱥᱨᱤᱛᱤ
ᱥᱨᱤᱝᱠᱷᱚᱞᱟ
ᱥᱨᱤᱞᱚᱝᱠᱟ
ᱥᱨᱤᱞᱚᱝᱠᱟᱭ
ᱥᱨᱤᱞᱚᱝᱠᱟᱱ
ᱥᱨᱤᱞᱚᱠᱥᱢᱤ
ᱥᱨᱤᱞᱚᱸᱠᱟ
ᱥᱨᱤᱞᱟᱸᱠᱟ
ᱥᱨᱤᱠᱟᱠᱩᱞᱟᱢ
ᱥᱨᱤᱠᱟᱱᱛᱚ
ᱥᱨᱤᱠᱟᱸᱛ
ᱥᱨᱤᱠᱷᱮᱛᱨᱚ
ᱥᱨᱤᱡᱚᱭᱟ
ᱥᱨᱤᱡᱚᱱ
ᱥᱨᱤᱡᱚᱱᱤᱭᱟᱹ
ᱥᱨᱤᱢᱚᱛᱤ
ᱥᱨᱤᱦᱚᱴᱴᱚ
ᱥᱨᱤᱨᱟᱢ
ᱥᱨᱤᱨᱟᱢᱯᱩᱨ
ᱥᱨᱤᱫᱮᱵᱤ
ᱥᱨᱤᱭᱟ
ᱥᱨᱤᱯᱩᱨ
ᱥᱨᱤᱱᱚᱜᱚᱨ
ᱥᱨᱤᱱᱤᱠᱮᱛᱚᱱ
ᱥᱨᱤᱱᱤᱵᱟᱥ
ᱥᱨᱤᱵᱟᱥᱛᱚᱵᱽ
ᱥᱨᱤᱸᱠᱷᱚᱞᱟ
ᱥᱨᱤᱸᱠᱷᱞᱟ
ᱥᱨᱩᱛᱤ
ᱥᱨᱮᱢᱟ
ᱥᱨᱮᱥᱛᱷᱟ
ᱥᱨᱮᱥᱴᱚ
ᱥᱨᱮᱥᱴᱷ
ᱥᱨᱮᱭ
ᱥᱨᱮᱭᱟ
ᱥᱨᱮᱱᱤ
ᱥᱨᱳᱯᱷ
ᱥᱩ
ᱥᱩᱛᱟ
ᱥᱩᱛᱟᱢ
ᱥᱩᱛᱟᱹᱢ
ᱥᱩᱛᱤ
ᱥᱩᱛᱤᱭᱟ
ᱥᱩᱛᱨᱚ
ᱥᱩᱛᱨᱮᱛ
ᱥᱩᱛᱨᱮᱛᱮ
ᱥᱩᱛᱨᱮᱫ
ᱥᱩᱛᱩᱜ
ᱥᱩᱛᱩᱨ
ᱥᱩᱜ
ᱥᱩᱜᱟᱨ
ᱥᱩᱜᱩᱲ
ᱥᱩᱞ
ᱥᱩᱞᱚᱜ
ᱥᱩᱞᱚᱜᱽᱱᱟ
ᱥᱩᱞᱚᱪᱱᱟ
ᱥᱩᱞᱛᱚᱱᱚᱛ
ᱥᱩᱞᱛᱟᱱ
ᱥᱩᱞᱛᱟᱱᱟ
ᱥᱩᱞᱛᱟᱱᱟᱛ
ᱥᱩᱞᱛᱟᱱᱯᱩᱨ
ᱥᱩᱞᱟᱣᱮᱥᱤ
ᱥᱩᱞᱩ
ᱥᱩᱞᱩᱠ
ᱥᱩᱞᱮᱢᱟᱱ
ᱥᱩᱞᱮᱭᱯᱟᱴ
ᱥᱩᱠ
ᱥᱩᱠᱞᱚ
ᱥᱩᱠᱞᱟ
ᱥᱩᱠᱟᱯᱷᱟ
ᱥᱩᱠᱟᱱᱛᱚ
ᱥᱩᱠᱢᱟ
ᱥᱩᱠᱨᱤ
ᱥᱩᱠᱩᱢᱟᱨ
ᱥᱩᱠᱲᱚ
ᱥᱩᱠᱷ
ᱥᱩᱠᱷᱤ
ᱥᱩᱠᱷᱩᱢᱤ
ᱥᱩᱡᱟᱛᱟ
ᱥᱩᱡᱟᱱᱱᱚᱜᱚᱨ
ᱥᱩᱡᱤ
ᱥᱩᱡᱳᱜᱮ
ᱥᱩᱢᱚᱱ
ᱥᱩᱢᱟ
ᱥᱩᱢᱟᱛᱨᱟ
ᱥᱩᱢᱟᱱ
ᱥᱩᱢᱤ
ᱥᱩᱢᱤᱛ
ᱥᱩᱢᱤᱛᱟ
ᱥᱩᱢᱤᱛᱨᱟ
ᱥᱩᱢᱩᱝ
ᱥᱩᱢᱮᱨᱤᱭᱟ
ᱥᱩᱢᱮᱫ
ᱥᱩᱣᱟ
ᱥᱩᱥᱟ
ᱥᱩᱥᱟᱸᱛ
ᱥᱩᱥᱟᱹᱨ
ᱥᱩᱥᱟᱹᱨᱤᱭᱟᱹ
ᱥᱩᱥᱢᱟ
ᱥᱩᱥᱢᱤᱛᱟ
ᱥᱩᱥᱤᱞ
ᱥᱩᱥᱤᱞᱟ
ᱥᱩᱦᱟᱜᱚ
ᱥᱩᱦᱤ
ᱥᱩᱨ
ᱥᱩᱨᱚᱛ
ᱥᱩᱨᱚᱡᱽ
ᱥᱩᱨᱚᱡᱽᱯᱩᱨ
ᱥᱩᱨᱚᱵᱷᱤ
ᱥᱩᱨᱛᱮ
ᱥᱩᱨᱜᱩᱡᱟ
ᱥᱩᱨᱜᱩᱡᱤᱭᱟ
ᱥᱩᱨᱟ
ᱥᱩᱨᱟᱡ
ᱥᱩᱨᱟᱡᱽ
ᱥᱩᱨᱡᱚ
ᱥᱩᱨᱡᱟ
ᱥᱩᱨᱡᱟᱯᱩᱨᱤ
ᱥᱩᱨᱤ
ᱥᱩᱨᱤᱱᱟᱢ
ᱥᱩᱨᱤᱱᱫᱚᱨ
ᱥᱩᱨᱥᱩᱯᱩᱨ
ᱥᱩᱨᱩ
ᱥᱩᱨᱩᱜ
ᱥᱩᱨᱩᱞ
ᱥᱩᱨᱫᱟᱥ
ᱥᱩᱨᱭᱚ
ᱥᱩᱨᱭᱚᱵᱚᱱᱥᱤ
ᱥᱩᱨᱭᱟ
ᱥᱩᱨᱭᱟᱯᱮᱴ
ᱥᱩᱨᱮᱥ
ᱥᱩᱨᱮᱱᱫᱽᱨᱚ
ᱥᱩᱨᱮᱱᱫᱽᱨᱚᱱᱚᱜᱚᱨ
ᱥᱩᱨᱼᱥᱩᱯᱩᱨ
ᱥᱩᱪᱚᱱᱟ
ᱥᱩᱪᱚᱱᱫᱟ
ᱥᱩᱪᱤ
ᱥᱩᱪᱤᱛᱨᱟ
ᱥᱩᱪᱱᱟ
ᱥᱩᱫᱟᱢᱟ
ᱥᱩᱫᱟᱱ
ᱥᱩᱫᱩ
ᱥᱩᱫᱷ
ᱥᱩᱫᱷᱚᱱᱚᱛᱤ
ᱥᱩᱫᱷᱟ
ᱥᱩᱫᱷᱟᱨ
ᱥᱩᱫᱷᱟᱹ
ᱥᱩᱫᱷᱟᱹᱨ
ᱥᱩᱫᱷᱤᱨ
ᱥᱩᱫᱷᱨᱟᱹᱣ
ᱥᱩᱫᱷᱩ
ᱥᱩᱫᱽ
ᱥᱩᱫᱽᱨᱚ
ᱥᱩᱬ
ᱥᱩᱭ
ᱥᱩᱭᱟᱹ
ᱥᱩᱭᱡᱟᱨᱞᱮᱱᱰ
ᱥᱩᱭᱰᱤᱥ
ᱥᱩᱭᱰᱮᱱ
ᱥᱩᱯ
ᱥᱩᱯᱚᱣᱞ
ᱥᱩᱯᱚᱨ
ᱥᱩᱯᱚᱨᱥᱴᱟᱨ
ᱥᱩᱯᱚᱨᱦᱤᱴ
ᱥᱩᱯᱚᱨᱯᱷᱟᱥᱴ
ᱥᱩᱯᱟᱨ
ᱥᱩᱯᱟᱨᱤ
ᱥᱩᱯᱟᱨᱤᱥ
ᱥᱩᱯᱟᱨᱯᱷᱟᱥᱴ
ᱥᱩᱯᱨᱤᱢ
ᱥᱩᱯᱨᱤᱭᱟ
ᱥᱩᱯᱩ
ᱥᱩᱯᱩᱛᱩᱜ
ᱥᱩᱯᱩᱨ
ᱥᱩᱯᱩᱨᱚᱜ
ᱥᱩᱯᱷᱤ
ᱥᱩᱯᱷᱤᱭᱟ
ᱥᱩᱱ
ᱥᱩᱱᱟ
ᱥᱩᱱᱟᱢᱜᱚᱧᱡᱽ
ᱥᱩᱱᱟᱢᱤ
ᱥᱩᱱᱟᱹᱨᱟᱢ
ᱥᱩᱱᱤ
ᱥᱩᱱᱤᱛᱟ
ᱥᱩᱱᱤᱞ
ᱥᱩᱱᱤᱫᱷᱤ
ᱥᱩᱱᱥᱚᱨᱤ
ᱥᱩᱱᱩᱢ
ᱥᱩᱱᱩᱢᱮ
ᱥᱩᱱᱫᱚᱨ
ᱥᱩᱱᱫᱚᱨᱜᱚᱰ
ᱥᱩᱱᱫᱚᱨᱜᱚᱸᱡᱽ
ᱥᱩᱱᱫᱚᱨᱤ
ᱥᱩᱱᱫᱚᱨᱨᱟᱡᱚᱱ
ᱥᱩᱱᱫᱚᱨᱵᱚᱱ
ᱥᱩᱱᱫᱚᱨᱵᱟᱱᱤ
ᱥᱩᱱᱫᱟᱱᱤᱥ
ᱥᱩᱱᱰᱟ
ᱥᱩᱱᱱᱤ
ᱥᱩᱲᱟᱹ
ᱥᱩᱲᱤᱭᱟᱯᱚᱫᱟ
ᱥᱩᱴ
ᱥᱩᱴᱚᱨ
ᱥᱩᱴᱤᱝ
ᱥᱩᱵᱚᱨᱱᱚ
ᱥᱩᱵᱚᱨᱱᱚᱨᱮᱠᱷᱟ
ᱥᱩᱵᱚᱨᱱᱟ
ᱥᱩᱵᱚᱱᱥᱤᱨᱤ
ᱥᱩᱵᱟ
ᱥᱩᱵᱟᱥ
ᱥᱩᱵᱤᱥᱛᱟ
ᱥᱩᱵᱤᱫᱷᱟ
ᱥᱩᱵᱤᱫᱷᱟᱭ
ᱥᱩᱵᱤᱫᱷᱟᱹ
ᱥᱩᱵᱮᱫᱟᱨ
ᱥᱩᱵᱳᱫᱷ
ᱥᱩᱵᱷᱚᱯᱚᱞᱼᱞᱚᱵᱚ
ᱥᱩᱵᱷᱟ
ᱥᱩᱵᱷᱟᱥ
ᱥᱩᱵᱷᱟᱥᱤᱥ
ᱥᱩᱵᱷᱤᱫᱟ
ᱥᱩᱸᱫᱚᱨ
ᱥᱩᱸᱫᱽᱨᱤ
ᱥᱩᱸᱴ
ᱥᱭᱚᱯᱩᱨ
ᱥᱭᱟ
ᱥᱭᱟᱢ
ᱥᱭᱟᱢᱟ
ᱥᱮ
ᱥᱮᱛ
ᱥᱮᱛᱟ
ᱥᱮᱛᱟᱜ
ᱥᱮᱛᱢᱟ
ᱥᱮᱛᱤ
ᱥᱮᱛᱩ
ᱥᱮᱛᱮᱧ
ᱥᱮᱛᱮᱫ
ᱥᱮᱜ
ᱥᱮᱜᱟᱸᱣ
ᱥᱮᱝᱜᱮᱞ
ᱥᱮᱞ
ᱥᱮᱞᱤ
ᱥᱮᱞᱤᱢ
ᱥᱮᱞᱤᱵᱨᱤᱴᱤ
ᱥᱮᱞᱤᱵᱽᱨᱤᱴᱤ
ᱥᱮᱞᱥ
ᱥᱮᱞᱥᱤᱟᱹᱥ
ᱥᱮᱞᱥᱤᱭᱚᱥ
ᱥᱮᱞᱥᱤᱭᱟᱥ
ᱥᱮᱞᱩᱞᱟᱨ
ᱥᱮᱞᱭᱩᱞᱚᱡᱽ
ᱥᱮᱞᱮ
ᱥᱮᱞᱮᱫ
ᱥᱮᱞᱮᱫᱚᱜ
ᱥᱮᱞᱮᱫᱚᱜᱼᱟ
ᱥᱮᱞᱮᱫᱟ
ᱥᱮᱞᱮᱫᱤᱭᱟ
ᱥᱮᱞᱮᱫᱤᱭᱟᱹ
ᱥᱮᱞᱮᱫᱽ
ᱥᱮᱞᱮᱵ
ᱥᱮᱞᱮᱵᱨᱤᱴᱤ
ᱥᱮᱞᱯᱷ
ᱥᱮᱠ
ᱥᱮᱠᱚᱱᱰᱟᱨᱤ
ᱥᱮᱠᱥ
ᱥᱮᱠᱥᱚᱱ
ᱥᱮᱠᱥᱟᱱ
ᱥᱮᱠᱥᱤ
ᱥᱮᱠᱥᱩᱣᱟᱞ
ᱥᱮᱠᱥᱯᱤᱭᱚᱨ
ᱥᱮᱠᱥᱯᱤᱭᱟᱨ
ᱥᱮᱠᱨᱮᱰ
ᱥᱮᱠᱨᱮᱴᱟᱨᱤ
ᱥᱮᱠᱨᱮᱴᱥᱨᱤ
ᱥᱮᱠᱮᱱᱰ
ᱥᱮᱠᱮᱱᱰᱟᱨᱤ
ᱥᱮᱠᱮᱸᱰ
ᱥᱮᱠᱴᱚᱨ
ᱥᱮᱠᱷ
ᱥᱮᱠᱷᱚᱨ
ᱥᱮᱠᱷᱟᱨ
ᱥᱮᱠᱷᱯᱩᱨᱟ
ᱥᱮᱡ
ᱥᱮᱡᱽ
ᱥᱮᱢ
ᱥᱮᱢᱚᱞ
ᱥᱮᱢᱞᱮᱫ
ᱥᱮᱢᱞᱮᱫᱽ
ᱥᱮᱢᱟ
ᱥᱮᱢᱤ
ᱥᱮᱢᱤᱱᱟᱨ
ᱥᱮᱢᱤᱴᱤᱠ
ᱥᱮᱢᱱᱚᱜᱚᱨ
ᱥᱮᱣ
ᱥᱮᱣᱟ
ᱥᱮᱣᱟᱭ
ᱥᱮᱥᱚ
ᱥᱮᱥᱚᱱ
ᱥᱮᱥᱟᱫᱽᱨᱤ
ᱥᱮᱥᱟᱭ
ᱥᱮᱦᱮᱫ
ᱥᱮᱦᱮᱫᱟᱜ
ᱥᱮᱦᱵᱟᱡᱽ
ᱥᱮᱧᱪᱩᱨᱤ
ᱥᱮᱨ
ᱥᱮᱨᱟ
ᱥᱮᱨᱟᱭ
ᱥᱮᱨᱟᱱᱤ
ᱥᱮᱨᱢ
ᱥᱮᱨᱢᱟ
ᱥᱮᱨᱢᱟᱠᱤᱭᱟ
ᱥᱮᱨᱢᱟᱠᱤᱭᱟᱹ
ᱥᱮᱨᱢᱟᱡᱟᱠ
ᱥᱮᱨᱢᱟᱨᱮ
ᱥᱮᱨᱢᱟᱭ
ᱥᱮᱨᱣᱟ
ᱥᱮᱨᱤ
ᱥᱮᱨᱤᱡ
ᱥᱮᱨᱤᱡᱽ
ᱥᱮᱨᱤᱧ
ᱥᱮᱨᱤᱭᱟ
ᱥᱮᱨᱤᱭᱟᱞ
ᱥᱮᱨᱪᱷᱤᱯ
ᱥᱮᱨᱮ
ᱥᱮᱨᱮᱝ
ᱥᱮᱨᱮᱧ
ᱥᱮᱨᱮᱧᱟ
ᱥᱮᱨᱮᱧᱤᱡ
ᱥᱮᱨᱮᱧᱤᱭᱟ
ᱥᱮᱨᱮᱧᱤᱭᱟᱹ
ᱥᱮᱨᱮᱧᱤᱭᱟᱹᱭ
ᱥᱮᱨᱮᱧᱮ
ᱥᱮᱨᱮᱱᱟ
ᱥᱮᱨᱯᱟ
ᱥᱮᱨᱯᱩᱨ
ᱥᱮᱨᱱᱟ
ᱥᱮᱨᱵᱷᱟᱱᱴᱮᱥ
ᱥᱮᱪᱮᱛ
ᱥᱮᱪᱮᱜ
ᱥᱮᱪᱮᱫ
ᱥᱮᱪᱮᱫᱚᱜ
ᱥᱮᱪᱮᱫᱤᱭᱟ
ᱥᱮᱪᱮᱫᱤᱭᱟᱹ
ᱥᱮᱫ
ᱥᱮᱫᱛᱮ
ᱥᱮᱫᱟᱜ
ᱥᱮᱫᱟᱭ
ᱥᱮᱫᱟᱭᱟᱜ
ᱥᱮᱫᱽ
ᱥᱮᱫᱽᱨᱟ
ᱥᱮᱬᱟ
ᱥᱮᱬᱟᱭ
ᱥᱮᱭ
ᱥᱮᱭᱚᱫᱽ
ᱥᱮᱭᱞᱤ
ᱥᱮᱭᱟ
ᱥᱮᱭᱟᱜ
ᱥᱮᱭᱟᱞᱚᱢ
ᱥᱮᱭᱟᱨ
ᱥᱮᱭᱠ
ᱥᱮᱭᱠᱷ
ᱥᱮᱭᱢᱥᱚᱝ
ᱥᱮᱭᱱ
ᱥᱮᱭᱱᱰᱚᱞ
ᱥᱮᱭᱱᱴ
ᱥᱮᱯ
ᱥᱮᱯᱮᱧ
ᱥᱮᱯᱴᱮᱢᱵᱚᱨ
ᱥᱮᱯᱴᱮᱢᱵᱟᱨ
ᱥᱮᱰ
ᱥᱮᱰᱭᱩᱞ
ᱥᱮᱱ
ᱥᱮᱱᱚᱜ
ᱥᱮᱱᱚᱜᱟᱜ
ᱥᱮᱱᱚᱜᱟᱦ
ᱥᱮᱱᱚᱜᱼᱟ
ᱥᱮᱱᱛᱮ
ᱥᱮᱱᱜᱩᱯᱛᱟ
ᱥᱮᱱᱟ
ᱥᱮᱱᱟᱜ
ᱥᱮᱱᱟᱠᱟᱱᱟ
ᱥᱮᱱᱟᱭ
ᱥᱮᱱᱟᱯᱚᱛᱤ
ᱥᱮᱱᱟᱱᱤ
ᱥᱮᱱᱟᱵᱟᱦᱤᱱᱤ
ᱥᱮᱱᱤᱢᱟ
ᱥᱮᱱᱤᱴᱟᱨᱤ
ᱥᱮᱱᱤᱴᱟᱭᱡᱚᱨ
ᱥᱮᱱᱥᱚᱥ
ᱥᱮᱱᱥᱟᱥ
ᱥᱮᱱᱪᱩᱨᱤ
ᱥᱮᱱᱫᱨᱟ
ᱥᱮᱱᱫᱽᱨᱟ
ᱥᱮᱱᱮᱜᱟᱞ
ᱥᱮᱱᱮᱞᱮᱫ
ᱥᱮᱱᱮᱨᱮᱧ
ᱥᱮᱱᱮᱪᱮᱫ
ᱥᱮᱱᱮᱱᱟ
ᱥᱮᱱᱴ
ᱥᱮᱱᱴᱚᱨ
ᱥᱮᱱᱴᱟᱨ
ᱥᱮᱱᱴᱤᱜᱨᱮᱰ
ᱥᱮᱱᱴᱤᱢᱤᱴᱚᱨ
ᱥᱮᱱᱴᱤᱢᱤᱴᱟᱨ
ᱥᱮᱱᱴᱨᱚᱞ
ᱥᱮᱱᱴᱨᱟᱞ
ᱥᱮᱱᱴᱮᱱᱟᱨᱤ
ᱥᱮᱲᱟ
ᱥᱮᱲᱟᱭ
ᱥᱮᱴ
ᱥᱮᱴᱞᱟᱭᱤᱴ
ᱥᱮᱴᱮᱞᱟᱭᱤᱴ
ᱥᱮᱴᱮᱞᱢᱮᱸᱴ
ᱥᱮᱴᱮᱡ
ᱥᱮᱴᱮᱨ
ᱥᱮᱴᱮᱨᱚ
ᱥᱮᱴᱮᱨᱚᱜ
ᱥᱮᱴᱮᱨᱚᱜᱼᱟ
ᱥᱮᱴᱮᱨᱟ
ᱥᱮᱴᱮᱨᱮᱱ
ᱥᱮᱴᱮᱨᱮᱱᱟ
ᱥᱮᱴᱴᱤ
ᱥᱮᱴᱷ
ᱥᱮᱴᱷᱤ
ᱥᱮᱵᱚᱠ
ᱥᱮᱵᱟ
ᱥᱮᱵᱟᱜ
ᱥᱮᱵᱟᱥᱴᱤᱭᱟᱱ
ᱥᱮᱵᱟᱭ
ᱥᱮᱵᱟᱭᱟ
ᱥᱮᱵᱩᱭᱟᱱᱳ
ᱥᱮᱵᱷᱮᱱ
ᱥᱮᱸᱛ
ᱥᱮᱸᱜᱮᱞ
ᱥᱮᱸᱫᱨᱟ
ᱥᱮᱸᱫᱷᱣᱟ
ᱥᱮᱸᱫᱽᱨᱟ
ᱥᱮᱸᱴ
ᱥᱮᱸᱴᱚᱨ
ᱥᱮᱸᱴᱟᱨ
ᱥᱮᱸᱴᱨᱟᱞ
ᱥᱮᱸᱴᱮᱨ
ᱥᱮᱹᱠᱷ
ᱥᱮᱹᱨᱤ
ᱥᱮᱹᱨᱮᱹᱧ
ᱥᱮᱹᱱ
ᱥᱯᱚᱨᱴ
ᱥᱯᱚᱨᱴᱥ
ᱥᱯᱟᱱᱤᱥ
ᱥᱯᱤᱠᱚᱨ
ᱥᱯᱤᱨᱤᱪᱩᱣᱟᱞ
ᱥᱯᱤᱨᱤᱴ
ᱥᱯᱤᱰ
ᱥᱯᱤᱱ
ᱥᱯᱤᱱᱪᱚᱨ
ᱥᱯᱮᱥ
ᱥᱯᱮᱥᱟᱞ
ᱥᱯᱮᱥᱤᱭᱟᱞ
ᱥᱯᱮᱨᱳ
ᱥᱯᱮᱱ
ᱥᱯᱮᱱᱤᱥ
ᱥᱯᱳᱨᱴᱥ
ᱥᱯᱳᱴᱥ
ᱥᱱᱟᱛᱚᱠ
ᱥᱱᱟᱛᱟᱠ
ᱥᱱᱟᱭᱩ
ᱥᱱᱤ
ᱥᱱᱤᱜᱽᱫᱷᱟ
ᱥᱱᱮᱦᱟ
ᱥᱳ
ᱥᱳᱛᱷᱳ
ᱥᱳᱝᱜᱟ
ᱥᱳᱞ
ᱥᱳᱞᱠᱩᱯᱟ
ᱥᱳᱞᱩᱠᱷᱩᱢᱵᱩ
ᱥᱳᱞᱳ
ᱥᱳᱢ
ᱥᱳᱢᱟ
ᱥᱳᱢᱟᱞᱤ
ᱥᱳᱢᱯᱮᱝ
ᱥᱳᱢᱯᱮᱱ
ᱥᱳᱣᱫᱤ
ᱥᱳᱥᱟᱭᱤᱴᱤ
ᱥᱳᱥᱟᱭᱴᱤ
ᱥᱳᱥᱤᱭᱟᱞ
ᱥᱳᱦᱱᱤ
ᱥᱳᱨ
ᱥᱳᱨᱚ
ᱥᱳᱨᱟ
ᱥᱳᱨᱟᱝ
ᱥᱳᱨᱟᱱᱤ
ᱥᱳᱨᱣᱚᱨᱤ
ᱥᱳᱨᱵᱤᱭᱟᱱ
ᱥᱳᱭᱚᱛ
ᱥᱳᱭᱚᱫᱽᱯᱩᱨ
ᱥᱳᱭᱟᱦᱤᱞᱤ
ᱥᱳᱯ
ᱥᱳᱯᱤᱝ
ᱥᱳᱯᱤᱭᱟᱱ
ᱥᱳᱯᱷᱤᱭᱟ
ᱥᱳᱱ
ᱥᱳᱱᱛᱩ
ᱥᱳᱱᱟ
ᱥᱳᱱᱟᱞᱤ
ᱥᱳᱱᱟᱠᱷᱥᱤ
ᱥᱳᱱᱟᱢᱩᱠᱷᱤ
ᱥᱳᱱᱤ
ᱥᱳᱱᱤᱭᱟ
ᱥᱳᱴᱤᱝ
ᱥᱳᱵᱷᱚ
ᱥᱳᱵᱷᱟ
ᱥᱳᱵᱷᱤᱭᱮᱛ
ᱥᱴ
ᱥᱴᱚᱠ
ᱥᱴᱚᱢᱯ
ᱥᱴᱚᱨ
ᱥᱴᱚᱨᱤ
ᱥᱴᱚᱱ
ᱥᱴᱟᱝᱰ
ᱥᱴᱟᱨ
ᱥᱴᱟᱨᱤᱝ
ᱥᱴᱟᱭᱤᱞ
ᱥᱴᱟᱯᱚᱨ
ᱥᱴᱟᱯᱷ
ᱥᱴᱟᱰᱤ
ᱥᱴᱟᱰᱤᱡᱽ
ᱥᱴᱟᱰᱤᱥ
ᱥᱴᱟᱰᱤᱭᱚᱢ
ᱥᱴᱟᱱᱰᱟᱨᱰ
ᱥᱴᱟᱸᱰ
ᱥᱴᱤᱞ
ᱥᱴᱤᱯᱷᱮᱱ
ᱥᱴᱨᱚᱠ
ᱥᱴᱨᱚᱵᱮᱨᱤ
ᱥᱴᱨᱤᱢ
ᱥᱴᱨᱤᱢᱤᱝ
ᱥᱴᱨᱤᱴ
ᱥᱴᱨᱮᱴ
ᱥᱴᱩᱰᱤᱭᱚ
ᱥᱴᱩᱰᱤᱭᱳ
ᱥᱴᱩᱰᱮᱱᱴ
ᱥᱴᱩᱰᱮᱸᱴ
ᱥᱴᱮᱡ
ᱥᱴᱮᱡᱽ
ᱥᱴᱮᱢ
ᱥᱴᱮᱣᱟᱨᱰ
ᱥᱴᱮᱥᱚᱱ
ᱥᱴᱮᱥᱟᱱ
ᱥᱴᱮᱥᱳᱱ
ᱥᱴᱮᱯ
ᱥᱴᱮᱯᱷᱟᱱ
ᱥᱴᱮᱯᱷᱤ
ᱥᱴᱮᱰᱤᱭᱚᱢ
ᱥᱴᱮᱰᱤᱭᱟᱢ
ᱥᱴᱮᱱᱰ
ᱥᱴᱮᱱᱰᱟᱨᱰ
ᱥᱴᱮᱴ
ᱥᱴᱮᱴᱟᱥᱴᱤᱠ
ᱥᱴᱮᱴᱥ
ᱥᱴᱮᱸᱰ
ᱥᱴᱳᱨ
ᱥᱴᱳᱨᱤ
ᱥᱴᱳᱨᱤᱡᱽ
ᱥᱴᱳᱱ
ᱥᱷᱟᱭᱛᱟᱱ
ᱥᱷᱨᱤ
ᱦ
ᱦᱚ
ᱦᱚᱛᱚᱛ
ᱦᱚᱛᱚᱫ
ᱦᱚᱛᱮ
ᱦᱚᱛᱮᱛ
ᱦᱚᱛᱮᱛᱮ
ᱦᱚᱛᱮᱛᱮᱭ
ᱦᱚᱝ
ᱦᱚᱝᱠᱚᱝ
ᱦᱚᱞ
ᱦᱚᱞᱚ
ᱦᱚᱞᱚᱝ
ᱦᱚᱞᱚᱧ
ᱦᱚᱞᱠᱟᱨ
ᱦᱚᱞᱤ
ᱦᱚᱞᱤᱣᱩᱰ
ᱦᱚᱞᱫᱣᱟᱱᱤ
ᱦᱚᱠ
ᱦᱚᱠᱚ
ᱦᱚᱠᱤ
ᱦᱚᱠᱤᱛ
ᱦᱚᱠᱫᱟᱨ
ᱦᱚᱡᱚᱢ
ᱦᱚᱡᱟᱨᱤᱵᱟᱜᱽ
ᱦᱚᱡᱽᱨᱚᱛ
ᱦᱚᱢ
ᱦᱚᱢᱚᱨ
ᱦᱚᱢᱚᱱ
ᱦᱚᱢᱞᱟ
ᱦᱚᱢᱟᱞ
ᱦᱚᱢᱤᱨ
ᱦᱚᱢᱤᱨᱯᱩᱨ
ᱦᱚᱢᱥ
ᱦᱚᱥᱚᱱ
ᱦᱚᱥᱟᱸᱜᱟᱵᱟᱫᱽ
ᱦᱚᱥᱤᱭᱟᱨᱯᱩᱨ
ᱦᱚᱥᱮᱱ
ᱦᱚᱥᱯᱤᱴᱚᱞ
ᱦᱚᱥᱯᱤᱴᱟᱞ
ᱦᱚᱥᱴ
ᱦᱚᱥᱴᱚᱞ
ᱦᱚᱥᱴᱤᱝ
ᱦᱚᱥᱴᱮᱞ
ᱦᱚᱦᱚ
ᱦᱚᱦᱚᱭᱟ
ᱦᱚᱧᱦᱟᱨ
ᱦᱚᱨ
ᱦᱚᱨᱚ
ᱦᱚᱨᱚᱜ
ᱦᱚᱨᱚᱜᱟ
ᱦᱚᱨᱚᱨ
ᱦᱚᱨᱚᱯ
ᱦᱚᱨᱚᱯᱯᱟ
ᱦᱚᱨᱟ
ᱦᱚᱨᱟᱥᱤ
ᱦᱚᱨᱟᱭ
ᱦᱚᱨᱢᱚ
ᱦᱚᱨᱢᱚᱱ
ᱦᱚᱨᱤ
ᱦᱚᱨᱤᱠᱟᱛᱷᱟ
ᱦᱚᱨᱤᱡᱚᱱ
ᱦᱚᱨᱤᱥ
ᱦᱚᱨᱤᱦᱚᱨ
ᱦᱚᱨᱤᱫᱣᱟᱨ
ᱦᱚᱨᱤᱫᱽᱣᱟᱨ
ᱦᱚᱨᱤᱭᱟᱬᱟ
ᱦᱚᱨᱤᱭᱟᱱᱟ
ᱦᱚᱨᱤᱭᱟᱱᱵᱷᱤ
ᱦᱚᱨᱤᱯᱩᱨ
ᱦᱚᱨᱤᱱᱟᱠᱩᱱᱰᱩ
ᱦᱚᱨᱥ
ᱦᱚᱨᱥᱫᱤᱯ
ᱦᱚᱨᱦᱚ
ᱦᱚᱨᱫᱟ
ᱦᱚᱨᱭᱟᱬᱟ
ᱦᱚᱨᱮ
ᱦᱚᱨᱮᱠᱨᱩᱥᱱᱚ
ᱦᱚᱨᱰᱟᱦᱟᱨ
ᱦᱚᱪᱚ
ᱦᱚᱪᱚᱜ
ᱦᱚᱪᱚᱭ
ᱦᱚᱪᱚᱭᱟ
ᱦᱚᱪᱚᱭᱮᱱᱟ
ᱦᱚᱫ
ᱦᱚᱫᱤᱥ
ᱦᱚᱬ
ᱦᱚᱭ
ᱦᱚᱭᱚ
ᱦᱚᱭᱚᱜ
ᱦᱚᱭᱚᱝ
ᱦᱚᱭᱛᱚ
ᱦᱚᱭᱞᱚᱝ
ᱦᱚᱭᱦᱤᱥᱤᱫ
ᱦᱚᱭᱫᱟᱜ
ᱦᱚᱭᱮᱱᱟ
ᱦᱚᱯᱚ
ᱦᱚᱯᱚᱱ
ᱦᱚᱯᱚᱱᱟᱜ
ᱦᱚᱯᱚᱱᱮ
ᱦᱚᱯᱚᱱᱮᱨᱟ
ᱦᱚᱯᱚᱱᱵᱟ
ᱦᱚᱰ
ᱦᱚᱰᱚᱞ
ᱦᱚᱱ
ᱦᱚᱱᱚᱛ
ᱦᱚᱱᱚᱛᱠᱚ
ᱦᱚᱱᱚᱛᱨᱮ
ᱦᱚᱱᱚᱛᱮ
ᱦᱚᱱᱚᱨ
ᱦᱚᱱᱚᱴ
ᱦᱚᱱᱛ
ᱦᱚᱱᱟᱛ
ᱦᱚᱱᱤ
ᱦᱚᱱᱩᱢᱟᱱ
ᱦᱚᱱᱫᱤᱠᱚᱭ
ᱦᱚᱱᱯᱛ
ᱦᱚᱱᱰᱩᱨᱟᱥ
ᱦᱚᱲ
ᱦᱚᱲᱚ
ᱦᱚᱲᱚᱢᱚ
ᱦᱚᱲᱜᱮ
ᱦᱚᱲᱞᱮᱠᱷᱟ
ᱦᱚᱲᱟ
ᱦᱚᱲᱟᱜ
ᱦᱚᱲᱟᱱ
ᱦᱚᱲᱠᱚ
ᱦᱚᱲᱠᱚᱣᱟᱜ
ᱦᱚᱲᱠᱚᱫᱚ
ᱦᱚᱲᱠᱩ
ᱦᱚᱲᱢᱚ
ᱦᱚᱲᱢᱚᱜ
ᱦᱚᱲᱢᱚᱥᱟᱶᱟᱨ
ᱦᱚᱲᱢᱚᱨᱮ
ᱦᱚᱲᱢᱚᱭ
ᱦᱚᱲᱥᱚᱝ
ᱦᱚᱲᱨᱟᱡᱽ
ᱦᱚᱲᱫᱚ
ᱦᱚᱲᱮ
ᱦᱚᱲᱮᱞ
ᱦᱚᱲᱮᱡ
ᱦᱚᱲᱲᱚᱯᱟ
ᱦᱚᱲᱼᱟᱜ
ᱦᱚᱲᱼᱮᱞ
ᱦᱚᱴ
ᱦᱚᱴᱚ
ᱦᱚᱴᱚᱜ
ᱦᱚᱴᱚᱨ
ᱦᱚᱴᱮᱞ
ᱦᱚᱵᱚ
ᱦᱚᱵᱚᱨ
ᱦᱚᱵᱤᱜᱚᱧᱡᱽ
ᱦᱚᱵᱤᱜᱚᱸᱡᱽ
ᱦᱚᱵᱤᱵᱽ
ᱦᱚᱸ
ᱦᱚᱸᱜᱽᱠᱚᱸᱜᱽ
ᱦᱚᱸᱠᱚ
ᱦᱚᱸᱠᱤᱱ
ᱦᱚᱸᱭ
ᱦᱚᱸᱭᱮ
ᱦᱚᱸᱰᱟ
ᱦᱚᱸᱵᱚ
ᱦᱞᱟ
ᱦᱟ
ᱦᱟᱛ
ᱦᱟᱛᱚᱢ
ᱦᱟᱛᱟᱝ
ᱦᱟᱛᱟᱝᱟᱱ
ᱦᱟᱛᱟᱣ
ᱦᱟᱛᱟᱣᱟ
ᱦᱟᱛᱟᱣᱮᱫ
ᱦᱟᱛᱟᱶ
ᱦᱟᱛᱤ
ᱦᱟᱛᱤᱳ
ᱦᱟᱛᱮ
ᱦᱟᱛᱮᱛᱮ
ᱦᱟᱛᱷᱨᱚᱥ
ᱦᱟᱜ
ᱦᱟᱜᱼᱟ
ᱦᱟᱝᱜᱟᱢᱟ
ᱦᱟᱝᱜᱮᱨᱤ
ᱦᱟᱝᱜᱮᱨᱤᱭᱚ
ᱦᱟᱞ
ᱦᱟᱞᱚᱛ
ᱦᱟᱞᱟ
ᱦᱟᱞᱟᱛ
ᱦᱟᱞᱟᱝ
ᱦᱟᱞᱟᱠ
ᱦᱟᱞᱠᱟ
ᱦᱟᱞᱤᱭᱟ
ᱦᱟᱞᱫᱟᱨ
ᱦᱟᱞᱮ
ᱦᱟᱞᱵᱤ
ᱦᱟᱠᱚ
ᱦᱟᱠᱚᱣᱟ
ᱦᱟᱠᱟᱫ
ᱦᱟᱠᱟᱫᱟ
ᱦᱟᱠᱟᱫᱟᱭ
ᱦᱟᱠᱟᱫᱮᱭᱟ
ᱦᱟᱠᱟᱫᱼᱟ
ᱦᱟᱠᱟᱱ
ᱦᱟᱠᱟᱱᱟ
ᱦᱟᱠᱟᱱᱟᱭ
ᱦᱟᱠᱠᱟ
ᱦᱟᱠᱤᱢᱯᱩᱨ
ᱦᱟᱠᱩ
ᱦᱟᱡᱚᱛ
ᱦᱟᱡᱚᱝ
ᱦᱟᱡᱚᱨᱤᱠᱟ
ᱦᱟᱡᱟᱨ
ᱦᱟᱡᱟᱨᱟ
ᱦᱟᱡᱟᱨᱤ
ᱦᱟᱡᱟᱨᱤᱵᱟᱜᱽ
ᱦᱟᱡᱟᱨᱵᱟᱜᱽ
ᱦᱟᱡᱤᱯᱩᱨ
ᱦᱟᱡᱩᱜ
ᱦᱟᱡᱮ
ᱦᱟᱡᱮᱴ
ᱦᱟᱡᱽᱨᱟ
ᱦᱟᱢ
ᱦᱟᱢᱞᱟ
ᱦᱟᱢᱟᱞ
ᱦᱟᱢᱟᱞᱟ
ᱦᱟᱢᱤᱫᱽ
ᱦᱟᱢᱮᱴ
ᱦᱟᱢᱯᱤ
ᱦᱟᱣ
ᱦᱟᱣᱟ
ᱦᱟᱣᱟᱭ
ᱦᱟᱣᱟᱭᱟᱱ
ᱦᱟᱣᱥᱟ
ᱦᱟᱣᱩᱥ
ᱦᱟᱣᱩᱥᱯᱷᱩᱞ
ᱦᱟᱣᱮᱫ
ᱦᱟᱣᱲᱟ
ᱦᱟᱥ
ᱦᱟᱥᱚ
ᱦᱟᱥᱚᱞ
ᱦᱟᱥᱚᱱ
ᱦᱟᱥᱞᱟ
ᱦᱟᱥᱟ
ᱦᱟᱥᱟᱣ
ᱦᱟᱥᱟᱨᱮ
ᱦᱟᱥᱟᱭ
ᱦᱟᱥᱟᱱ
ᱦᱟᱥᱢᱤ
ᱦᱟᱥᱤᱞ
ᱦᱟᱥᱤᱱᱟ
ᱦᱟᱥᱩ
ᱦᱟᱥᱯᱟᱛᱟᱞ
ᱦᱟᱥᱯᱟᱞ
ᱦᱟᱥᱳ
ᱦᱟᱦᱟᱝᱠᱟᱨ
ᱦᱟᱦᱟᱲᱟ
ᱦᱟᱦᱟᱲᱟᱱ
ᱦᱟᱦᱟᱸ
ᱦᱟᱨ
ᱦᱟᱨᱚᱱ
ᱦᱟᱨᱛᱟ
ᱦᱟᱨᱟ
ᱦᱟᱨᱟᱛᱚᱨᱟ
ᱦᱟᱨᱟᱛᱟ
ᱦᱟᱨᱟᱜ
ᱦᱟᱨᱟᱜᱼᱟ
ᱦᱟᱨᱟᱢ
ᱦᱟᱨᱟᱣ
ᱦᱟᱨᱟᱦᱟᱨᱤ
ᱦᱟᱨᱟᱨᱟᱛᱟ
ᱦᱟᱨᱟᱭ
ᱦᱟᱨᱟᱭᱮᱱᱟ
ᱦᱟᱨᱟᱵᱩᱨᱩ
ᱦᱟᱨᱠᱮᱛ
ᱦᱟᱨᱡᱮᱜᱳᱵᱷᱤᱱᱟ
ᱦᱟᱨᱢᱚᱱᱤ
ᱦᱟᱨᱤ
ᱦᱟᱨᱤᱥ
ᱦᱟᱨᱤᱭᱟᱱᱟ
ᱦᱟᱨᱦᱟᱲ
ᱦᱟᱨᱩ
ᱦᱟᱨᱩᱱ
ᱦᱟᱨᱫᱚᱭ
ᱦᱟᱨᱫᱟ
ᱦᱟᱨᱰ
ᱦᱟᱨᱴ
ᱦᱟᱨᱴᱥ
ᱦᱟᱨᱵᱟᱨ
ᱦᱟᱨᱵᱳᱨ
ᱦᱟᱩᱥ
ᱦᱟᱫ
ᱦᱟᱫᱮ
ᱦᱟᱫᱮᱭᱟ
ᱦᱟᱫᱽᱥᱟ
ᱦᱟᱭ
ᱦᱟᱭᱚᱨ
ᱦᱟᱭᱛᱤ
ᱦᱟᱭᱛᱤᱭᱟᱱ
ᱦᱟᱭᱞᱟᱠᱟᱱᱫᱤ
ᱦᱟᱭᱟ
ᱦᱟᱭᱟᱛ
ᱦᱟᱭᱟᱨ
ᱦᱟᱭᱠᱩ
ᱦᱟᱭᱠᱳᱴ
ᱦᱟᱭᱣᱮ
ᱦᱟᱭᱤ
ᱦᱟᱭᱤᱠ
ᱦᱟᱭᱤᱥᱠᱩᱞ
ᱦᱟᱭᱨᱮ
ᱦᱟᱭᱫᱨᱟᱵᱟᱫᱽ
ᱦᱟᱭᱫᱽᱨᱟᱵᱟᱫ
ᱦᱟᱭᱫᱽᱨᱟᱵᱟᱫᱽ
ᱦᱟᱭᱰᱨᱚ
ᱦᱟᱭᱰᱨᱚᱡᱮᱱ
ᱦᱟᱭᱰᱨᱳᱡᱟᱱ
ᱦᱟᱭᱳᱭᱮ
ᱦᱟᱭᱽᱨᱟᱵᱟᱫᱽ
ᱦᱟᱯᱛᱟ
ᱦᱟᱯᱛᱟᱠᱤᱭᱟ
ᱦᱟᱯᱛᱟᱠᱤᱭᱟᱹ
ᱦᱟᱯᱞᱟ
ᱦᱟᱯᱟ
ᱦᱟᱯᱟᱨᱟᱣ
ᱦᱟᱯᱟᱱ
ᱦᱟᱯᱟᱴᱤᱧ
ᱦᱟᱯᱟᱴᱤᱧᱚᱜ
ᱦᱟᱯᱩᱲ
ᱦᱟᱯᱮ
ᱦᱟᱯᱮᱱ
ᱦᱟᱯᱲᱟᱜ
ᱦᱟᱯᱲᱟᱢ
ᱦᱟᱯᱷᱤᱡᱽ
ᱦᱟᱰᱜᱟᱨ
ᱦᱟᱰᱨᱟᱯ
ᱦᱟᱰᱨᱟᱯᱤᱭᱟᱹ
ᱦᱟᱱ
ᱦᱟᱱᱚᱭ
ᱦᱟᱱᱛᱟᱨ
ᱦᱟᱱᱛᱟᱨᱚ
ᱦᱟᱱᱛᱟᱨᱟ
ᱦᱟᱱᱛᱟᱲ
ᱦᱟᱱᱛᱮ
ᱦᱟᱱᱛᱷᱟᱣᱟᱫᱤ
ᱦᱟᱱᱟ
ᱦᱟᱱᱟᱯᱩᱨᱤ
ᱦᱟᱱᱟᱱ
ᱦᱟᱱᱤ
ᱦᱟᱱᱤᱯᱷ
ᱦᱟᱱᱥ
ᱦᱟᱱᱥᱰᱤᱦᱟ
ᱦᱟᱱᱩᱢᱟᱱ
ᱦᱟᱱᱩᱢᱟᱱᱜᱟᱲ
ᱦᱟᱲ
ᱦᱟᱲᱟᱢ
ᱦᱟᱲᱟᱢᱵᱟ
ᱦᱟᱴ
ᱦᱟᱴᱟᱜ
ᱦᱟᱴᱟᱬ
ᱦᱟᱴᱟᱬᱚᱜᱼᱟ
ᱦᱟᱴᱤᱝ
ᱦᱟᱴᱤᱧ
ᱦᱟᱴᱤᱭᱟ
ᱦᱟᱴᱤᱭᱟᱸ
ᱦᱟᱴᱵᱟᱫᱽᱲᱟ
ᱦᱟᱵᱤᱡ
ᱦᱟᱵᱮᱞᱤ
ᱦᱟᱵᱮᱨᱤ
ᱦᱟᱵᱷᱟᱨᱰ
ᱦᱟᱵᱷᱮᱞᱤ
ᱦᱟᱵᱽ
ᱦᱟᱵᱽᱨᱟ
ᱦᱟᱵᱽᱲᱟ
ᱦᱟᱵᱽᱲᱟᱼᱪᱮᱱᱱᱟᱭ
ᱦᱟᱵᱽᱲᱟᱼᱫᱤᱞᱞᱤ
ᱦᱟᱵᱽᱲᱟᱼᱱᱟᱜᱽᱯᱩᱨᱼᱢᱩᱢᱵᱟᱭ
ᱦᱟᱸ
ᱦᱟᱸᱥ
ᱦᱟᱸᱥᱫᱟ
ᱦᱟᱸᱥᱫᱟᱜ
ᱦᱟᱸᱰᱮ
ᱦᱟᱹᱛᱤ
ᱦᱟᱹᱛᱤᱭᱟᱹᱨ
ᱦᱟᱹᱛᱭᱟᱹᱨ
ᱦᱟᱹᱞᱤ
ᱦᱟᱹᱠᱩ
ᱦᱟᱹᱠᱩᱣᱟᱜ
ᱦᱟᱹᱡᱩᱜ
ᱦᱟᱹᱡᱩᱜᱼᱟ
ᱦᱟᱹᱥᱤᱞ
ᱦᱟᱹᱥᱩ
ᱦᱟᱹᱥᱩᱨ
ᱦᱟᱹᱨ
ᱦᱟᱹᱨᱠᱤᱬ
ᱦᱟᱹᱨᱤ
ᱦᱟᱹᱨᱤᱭᱟᱹᱲ
ᱦᱟᱹᱨᱭᱟᱹᱲ
ᱦᱟᱹᱬᱩ
ᱦᱟᱹᱯᱟᱹᱴᱤᱧ
ᱦᱟᱹᱯᱤᱫ
ᱦᱟᱹᱱ
ᱦᱟᱹᱱᱟᱹᱴᱤᱧ
ᱦᱟᱹᱱᱤ
ᱦᱟᱹᱱᱰᱤ
ᱦᱟᱹᱲᱤ
ᱦᱟᱹᱲᱤᱭᱟᱹᱲ
ᱦᱟᱹᱲᱩᱵ
ᱦᱟᱹᱴᱤᱝ
ᱦᱟᱹᱴᱤᱧ
ᱦᱟᱹᱴᱤᱧᱚᱜ
ᱦᱟᱹᱴᱤᱧᱚᱜᱼᱟ
ᱦᱟᱹᱴᱤᱧᱟ
ᱦᱟᱹᱴᱤᱧᱟᱜ
ᱦᱟᱹᱴᱤᱭᱟᱹ
ᱦᱟᱹᱵᱤᱡ
ᱦᱟᱹᱵᱤᱫ
ᱦᱟᱺᱥᱞᱤ
ᱦᱟᱺᱥᱩᱨ
ᱦᱟᱺᱰᱤ
ᱦᱤ
ᱦᱤᱛ
ᱦᱤᱛᱟᱹᱞ
ᱦᱤᱛᱮᱥᱚᱨ
ᱦᱤᱝᱜᱚᱞᱤ
ᱦᱤᱞ
ᱦᱤᱞᱚᱜ
ᱦᱤᱞᱚᱜᱟᱜ
ᱦᱤᱞᱟ
ᱦᱤᱞᱟᱜ
ᱦᱤᱞᱟᱣᱜ
ᱦᱤᱞᱟᱹ
ᱦᱤᱞᱟᱹᱜ
ᱦᱤᱞᱟᱹᱣ
ᱦᱤᱞᱟᱹᱣᱜ
ᱦᱤᱞᱤ
ᱦᱤᱞᱤᱭᱟᱢ
ᱦᱤᱞᱥ
ᱦᱤᱞᱳ
ᱦᱤᱞᱳᱜ
ᱦᱤᱞᱵᱚᱨᱴ
ᱦᱤᱠᱮ
ᱦᱤᱡ
ᱦᱤᱡᱩᱜ
ᱦᱤᱡᱩᱜᱟᱜ
ᱦᱤᱡᱩᱜᱼᱟ
ᱦᱤᱡᱽᱨᱤ
ᱦᱤᱢ
ᱦᱤᱢᱚᱜᱞᱚᱵᱤᱱ
ᱦᱤᱢᱟ
ᱦᱤᱢᱟᱝᱥᱩ
ᱦᱤᱢᱟᱞ
ᱦᱤᱢᱟᱞᱚᱭ
ᱦᱤᱢᱟᱪᱚᱞ
ᱦᱤᱢᱟᱪᱚᱲ
ᱦᱤᱥ
ᱦᱤᱥᱟ
ᱦᱤᱥᱟᱨ
ᱦᱤᱥᱟᱵ
ᱦᱤᱥᱟᱵᱽ
ᱦᱤᱥᱟᱹ
ᱦᱤᱥᱟᱹᱯ
ᱦᱤᱥᱟᱹᱵ
ᱦᱤᱥᱟᱹᱵᱛᱮ
ᱦᱤᱥᱟᱹᱵᱛᱮᱜᱮ
ᱦᱤᱥᱟᱹᱵᱛᱮᱠᱩ
ᱦᱤᱥᱟᱹᱵᱛᱮᱭ
ᱦᱤᱥᱟᱹᱵᱽ
ᱦᱤᱥᱤ
ᱦᱤᱥᱤᱨ
ᱦᱤᱥᱤᱫ
ᱦᱤᱥᱥᱟ
ᱦᱤᱥᱴᱨᱤ
ᱦᱤᱦᱤᱲᱤ
ᱦᱤᱨ
ᱦᱤᱨᱚ
ᱦᱤᱨᱚᱭᱤᱱ
ᱦᱤᱨᱚᱱᱯᱩᱨ
ᱦᱤᱨᱞᱟ
ᱦᱤᱨᱞᱟᱹ
ᱦᱤᱨᱟ
ᱦᱤᱨᱟᱞᱟᱞ
ᱦᱤᱨᱟᱹ
ᱦᱤᱨᱟᱹᱣ
ᱦᱤᱨᱠᱟᱹ
ᱦᱤᱨᱤ
ᱦᱤᱨᱤᱡ
ᱦᱤᱨᱱᱤ
ᱦᱤᱨᱳ
ᱦᱤᱨᱳᱭᱤᱱ
ᱦᱤᱫᱟᱭᱟᱛᱩᱞᱞᱟᱦ
ᱦᱤᱫᱤᱡ
ᱦᱤᱯ
ᱦᱤᱯᱤᱲ
ᱦᱤᱰᱤᱧ
ᱦᱤᱱ
ᱦᱤᱱᱟ
ᱦᱤᱱᱦᱟᱹ
ᱦᱤᱱᱫᱤ
ᱦᱤᱱᱫᱤᱼᱛᱟᱱᱟᱞᱟ
ᱦᱤᱱᱫᱩ
ᱦᱤᱱᱫᱩᱥᱛᱟᱱ
ᱦᱤᱱᱫᱩᱥᱛᱟᱱᱤ
ᱦᱤᱲ
ᱦᱤᱲᱤᱧ
ᱦᱤᱴ
ᱦᱤᱴᱞᱟᱨ
ᱦᱤᱵᱨᱩ
ᱦᱤᱵᱽᱨᱩ
ᱦᱤᱸᱜᱚᱱᱜᱷᱟᱴ
ᱦᱤᱸᱥ
ᱦᱤᱸᱥᱟ
ᱦᱤᱸᱥᱟᱹ
ᱦᱤᱸᱥᱤᱫ
ᱦᱤᱸᱥᱮ
ᱦᱤᱸᱫᱤ
ᱦᱤᱸᱫᱩ
ᱦᱤᱸᱫᱩᱥᱛᱟᱱ
ᱦᱤᱸᱫᱽ
ᱦᱤᱸᱰᱚᱱ
ᱦᱨ
ᱦᱨᱤᱛᱤᱠ
ᱦᱩ
ᱦᱩᱜᱚ
ᱦᱩᱜᱞᱤ
ᱦᱩᱜᱽᱞᱤ
ᱦᱩᱞ
ᱦᱩᱞᱜᱟ
ᱦᱩᱞᱜᱟᱹᱨ
ᱦᱩᱞᱜᱟᱹᱨᱤᱭᱟᱹ
ᱦᱩᱞᱟ
ᱦᱩᱞᱥᱟ
ᱦᱩᱞᱥᱟᱹᱭ
ᱦᱩᱞᱥᱟᱹᱭᱤᱭᱟᱹ
ᱦᱩᱞᱩᱫᱽᱯᱩᱠᱷᱩᱨ
ᱦᱩᱞᱪᱩᱞ
ᱦᱩᱠᱩᱢ
ᱦᱩᱡᱩᱲ
ᱦᱩᱢᱞᱟ
ᱦᱩᱢᱟᱭᱩᱱ
ᱦᱩᱢᱟᱭᱩᱸ
ᱦᱩᱣ
ᱦᱩᱣᱟᱝ
ᱦᱩᱣᱟᱴᱥᱟᱯ
ᱦᱩᱤᱚᱣᱟ
ᱦᱩᱥ
ᱦᱩᱥᱮᱭᱱ
ᱦᱩᱥᱮᱱ
ᱦᱩᱥᱮᱱᱟᱵᱟᱫᱽ
ᱦᱩᱥᱮᱸᱱ
ᱦᱩᱫᱟ
ᱦᱩᱫᱟᱹ
ᱦᱩᱫᱟᱹᱭ
ᱦᱩᱫᱤᱥ
ᱦᱩᱫᱩᱬ
ᱦᱩᱫᱩᱲ
ᱦᱩᱭ
ᱦᱩᱭᱜ
ᱦᱩᱭᱞᱮᱱ
ᱦᱩᱭᱞᱮᱱᱟ
ᱦᱩᱭᱟᱜ
ᱦᱩᱭᱟᱠᱟᱱ
ᱦᱩᱭᱟᱠᱟᱱᱟ
ᱦᱩᱭᱟᱫ
ᱦᱩᱭᱠᱟᱱᱟ
ᱦᱩᱭᱩ
ᱦᱩᱭᱩᱜ
ᱦᱩᱭᱩᱜᱟ
ᱦᱩᱭᱩᱜᱠᱟᱱᱟ
ᱦᱩᱭᱩᱜᱻᱟ
ᱦᱩᱭᱩᱜᱼᱟ
ᱦᱩᱭᱮᱱ
ᱦᱩᱭᱮᱱᱟ
ᱦᱩᱭᱱᱟ
ᱦᱩᱯᱠᱟ
ᱦᱩᱰ
ᱦᱩᱰᱤᱝ
ᱦᱩᱰᱤᱧ
ᱦᱩᱰᱤᱧᱟ
ᱦᱩᱰᱤᱧᱤᱡ
ᱦᱩᱰᱩᱜ
ᱦᱩᱰᱩᱧ
ᱦᱩᱰᱩᱨ
ᱦᱩᱱᱟ
ᱦᱩᱱᱟᱹᱝ
ᱦᱩᱱᱟᱹᱨ
ᱦᱩᱱᱟᱹᱨᱤᱭᱟᱹ
ᱦᱩᱲ
ᱦᱩᱲᱟᱹᱜ
ᱦᱩᱲᱩ
ᱦᱩᱲᱩᱝ
ᱦᱩᱴᱩᱯ
ᱦᱩᱵᱮᱭ
ᱦᱩᱵᱽᱞᱤ
ᱦᱩᱵᱽᱞᱤᱼᱫᱷᱟᱨᱣᱟᱲ
ᱦᱩᱸ
ᱦᱩᱸᱰᱨᱩ
ᱦᱭᱩᱜ
ᱦᱭᱩᱢᱟᱱ
ᱦᱮ
ᱦᱮᱛᱚᱢᱯᱩᱨ
ᱦᱮᱜ
ᱦᱮᱜᱮᱞ
ᱦᱮᱜᱽᱲᱮ
ᱦᱮᱝᱜᱩ
ᱦᱮᱞ
ᱦᱮᱞᱛᱷ
ᱦᱮᱞᱟᱣ
ᱦᱮᱞᱠᱟᱣ
ᱦᱮᱞᱢᱮᱞ
ᱦᱮᱞᱤ
ᱦᱮᱞᱤᱠᱚᱯᱴᱚᱨ
ᱦᱮᱞᱤᱯᱮᱰ
ᱦᱮᱞᱮ
ᱦᱮᱞᱮᱡ
ᱦᱮᱞᱮᱱ
ᱦᱮᱠᱚᱨ
ᱦᱮᱠᱤᱝ
ᱦᱮᱠᱴᱚᱨ
ᱦᱮᱠᱴᱮᱭᱟᱨ
ᱦᱮᱡ
ᱦᱮᱡᱥᱮᱱ
ᱦᱮᱡᱩᱜ
ᱦᱮᱡᱽ
ᱦᱮᱡᱽᱥᱮᱱ
ᱦᱮᱢ
ᱦᱮᱢᱚᱱᱛ
ᱦᱮᱢᱚᱱᱛᱚ
ᱦᱮᱢᱞᱚᱛᱟ
ᱦᱮᱢᱟ
ᱦᱮᱢᱟᱞ
ᱦᱮᱢᱟᱞᱵᱩᱨᱩ
ᱦᱮᱢᱵᱽᱨᱚᱢ
ᱦᱮᱣᱟ
ᱦᱮᱥᱞᱟ
ᱦᱮᱥᱮᱱ
ᱦᱮᱨᱟᱛ
ᱦᱮᱨᱟᱣ
ᱦᱮᱨᱤᱥ
ᱦᱮᱨᱤᱴᱮᱡ
ᱦᱮᱨᱤᱴᱮᱡᱽ
ᱦᱮᱨᱮᱞ
ᱦᱮᱪ
ᱦᱮᱫ
ᱦᱮᱭ
ᱦᱮᱯᱨᱟᱣ
ᱦᱮᱯᱨᱟᱣᱤᱭᱟᱹ
ᱦᱮᱯᱮᱨᱟᱣ
ᱦᱮᱰ
ᱦᱮᱰᱠᱣᱟᱴᱚᱨ
ᱦᱮᱰᱠᱩᱣᱟᱴᱚᱨ
ᱦᱮᱰᱠᱩᱣᱟᱴᱟᱨ
ᱦᱮᱰᱮᱡ
ᱦᱮᱰᱯᱷᱳᱱ
ᱦᱮᱱᱟ
ᱦᱮᱱᱨᱤ
ᱦᱮᱱᱫᱮ
ᱦᱮᱱᱰᱵᱩᱠ
ᱦᱮᱲᱟᱜ
ᱦᱮᱲᱦᱮᱫ
ᱦᱮᱲᱮ
ᱦᱮᱲᱮᱢ
ᱦᱮᱴᱠᱩᱣᱟᱴᱚᱨ
ᱦᱮᱸ
ᱦᱮᱸᱥᱟᱜ
ᱦᱮᱸᱫᱟ
ᱦᱮᱸᱫᱮ
ᱦᱮᱸᱰ
ᱦᱮᱸᱵᱽᱨᱚᱢ
ᱦᱱᱤ
ᱦᱳ
ᱦᱳᱛᱟ
ᱦᱳᱜᱟ
ᱦᱳᱞ
ᱦᱳᱞᱤ
ᱦᱳᱡᱟᱭ
ᱦᱳᱢ
ᱦᱳᱢᱤᱭᱳᱯᱮᱛᱷᱤᱠ
ᱦᱳᱥᱮᱱ
ᱦᱳᱥᱴ
ᱦᱳᱥᱴᱮᱞ
ᱦᱳᱭ
ᱦᱳᱭᱳᱜ
ᱦᱳᱯ
ᱦᱳᱱᱳᱞᱩᱞᱩ
ᱦᱳᱲ
ᱦᱳᱲᱳ
ᱦᱳᱴᱮᱞ
ᱦᱳᱵᱩᱢᱟᱱᱜᱳᱲᱷ
ᱦᱳᱸ
ᱧ
ᱧᱚᱜ
ᱧᱚᱜᱟ
ᱧᱟᱢ
ᱧᱟᱢᱚᱜ
ᱧᱟᱢᱚᱜᱚᱜ
ᱧᱟᱢᱚᱜᱟ
ᱧᱟᱢᱚᱜᱻᱟ
ᱧᱟᱢᱚᱜᱼᱟ
ᱧᱟᱢᱟ
ᱧᱟᱢᱟᱜ
ᱧᱟᱢᱟᱠᱟᱱᱟ
ᱧᱟᱢᱟᱭ
ᱧᱟᱢᱟᱱ
ᱧᱟᱢᱤᱡ
ᱧᱟᱢᱮ
ᱧᱟᱢᱮᱫ
ᱧᱟᱢᱮᱭᱟ
ᱧᱟᱢᱮᱱᱟ
ᱧᱟᱢᱼᱟ
ᱧᱟᱧᱟᱢᱟ
ᱧᱟᱯᱟᱢ
ᱧᱟᱯᱟᱢᱚᱜ
ᱧᱟᱯᱟᱢᱟ
ᱧᱤᱛ
ᱧᱤᱛᱩᱢ
ᱧᱤᱛᱩᱢᱟᱱ
ᱧᱤᱛᱩᱢᱮ
ᱧᱤᱨ
ᱧᱤᱫᱟ
ᱧᱤᱫᱟᱹ
ᱧᱤᱫᱟᱹᱭ
ᱧᱤᱱᱫᱟ
ᱧᱤᱱᱫᱟᱹ
ᱧᱤᱸᱫᱟ
ᱧᱤᱸᱫᱟᱹ
ᱧᱩ
ᱧᱩᱛ
ᱧᱩᱛᱟᱹᱛ
ᱧᱩᱛᱩ
ᱧᱩᱛᱩᱢ
ᱧᱩᱛᱩᱢᱚᱜ
ᱧᱩᱛᱩᱢᱛᱮ
ᱧᱩᱛᱩᱢᱟ
ᱧᱩᱛᱩᱢᱟᱜ
ᱧᱩᱛᱩᱢᱟᱭ
ᱧᱩᱛᱩᱢᱟᱱ
ᱧᱩᱛᱩᱢᱟᱱᱟ
ᱧᱩᱛᱩᱢᱟᱱᱟᱜ
ᱧᱩᱛᱩᱢᱟᱱᱤᱡ
ᱧᱩᱛᱩᱢᱮ
ᱧᱩᱛᱩᱢᱮᱢ
ᱧᱩᱛᱩᱢᱮᱭᱟ
ᱧᱩᱛᱩᱢᱺ
ᱧᱩᱛᱩᱱ
ᱧᱩᱢ
ᱧᱩᱢᱚᱜ
ᱧᱩᱢᱚᱜᱚᱜ
ᱧᱩᱢᱟᱜ
ᱧᱩᱢᱟᱱ
ᱧᱩᱢᱦᱟᱞᱟᱝ
ᱧᱩᱢᱩᱜᱚᱜ
ᱧᱩᱢᱮ
ᱧᱩᱣᱟᱜ
ᱧᱩᱦᱩᱢ
ᱧᱩᱧᱩ
ᱧᱩᱨ
ᱧᱩᱨᱦᱟᱹ
ᱧᱩᱨᱩᱜ
ᱧᱩᱨᱩᱜᱼᱟ
ᱧᱩᱭ
ᱧᱩᱭᱟ
ᱧᱩᱭᱩᱢ
ᱧᱩᱱᱩᱢ
ᱧᱩᱴᱩᱢ
ᱧᱩᱻ
ᱧᱮ
ᱧᱮᱛᱚᱜ
ᱧᱮᱛᱮᱞ
ᱧᱮᱞ
ᱧᱮᱞᱚᱜ
ᱧᱮᱞᱚᱜᱚᱜ
ᱧᱮᱞᱚᱜᱼᱟ
ᱧᱮᱞᱛᱮ
ᱧᱮᱞᱟ
ᱧᱮᱞᱟᱜ
ᱧᱮᱞᱟᱢ
ᱧᱮᱞᱡᱚᱝ
ᱧᱮᱞᱢᱮ
ᱧᱮᱞᱮ
ᱧᱮᱞᱮᱞᱚᱢ
ᱧᱮᱞᱮᱫ
ᱧᱮᱞᱮᱭᱟ
ᱧᱮᱞᱮᱱ
ᱧᱮᱢᱮᱞ
ᱧᱮᱧᱮᱞ
ᱧᱮᱧᱮᱞᱚᱢ
ᱧᱮᱧᱮᱞᱤᱭᱟ
ᱧᱮᱧᱮᱞᱤᱭᱟᱹ
ᱧᱮᱪᱮᱞ
ᱧᱮᱯᱮᱞ
ᱧᱮᱱᱮᱞ
ᱧᱮᱱᱮᱞᱚᱢ
ᱧᱹ
ᱨ
ᱨᱚ
ᱨᱚᱛᱚᱱ
ᱨᱚᱛᱞᱚᱢ
ᱨᱚᱛᱞᱟᱢ
ᱨᱚᱛᱱᱚ
ᱨᱚᱛᱱᱚᱢ
ᱨᱚᱛᱱᱟ
ᱨᱚᱛᱱᱟᱜᱤᱨᱤ
ᱨᱚᱛᱷ
ᱨᱚᱛᱷᱚ
ᱨᱚᱛᱷᱤᱱ
ᱨᱚᱜ
ᱨᱚᱜᱟ
ᱨᱚᱜᱷᱩ
ᱨᱚᱜᱷᱩᱯᱚᱛᱤ
ᱨᱚᱜᱷᱩᱱᱟᱛᱷ
ᱨᱚᱜᱷᱩᱱᱟᱛᱷᱯᱩᱨ
ᱨᱚᱜᱽ
ᱨᱚᱝ
ᱨᱚᱝᱜ
ᱨᱚᱝᱜᱚ
ᱨᱚᱝᱜᱟ
ᱨᱚᱝᱜᱤᱱ
ᱨᱚᱝᱟᱞᱤ
ᱨᱚᱝᱤᱭᱟ
ᱨᱚᱝᱯᱩᱨ
ᱨᱚᱞ
ᱨᱚᱠ
ᱨᱚᱠᱚᱛᱚ
ᱨᱚᱠᱚᱢ
ᱨᱚᱠᱛᱚ
ᱨᱚᱠᱟ
ᱨᱚᱠᱮᱴ
ᱨᱚᱡᱚ
ᱨᱚᱡᱚᱛ
ᱨᱚᱡᱚᱱᱤ
ᱨᱚᱡᱟ
ᱨᱚᱡᱽ
ᱨᱚᱢ
ᱨᱚᱢᱚᱡ
ᱨᱚᱢᱚᱡᱽ
ᱨᱚᱢᱚᱬ
ᱨᱚᱢᱚᱱ
ᱨᱚᱢᱟ
ᱨᱚᱢᱟᱱ
ᱨᱚᱢᱟᱱᱤᱭᱟ
ᱨᱚᱢᱟᱱᱴᱤᱠ
ᱨᱚᱢᱟᱸᱥ
ᱨᱚᱢᱡᱟᱱ
ᱨᱚᱢᱡᱷᱚᱢ
ᱨᱚᱢᱭᱟ
ᱨᱚᱢᱮᱥ
ᱨᱚᱣᱟᱞᱰ
ᱨᱚᱥ
ᱨᱚᱥᱟᱭᱚᱱ
ᱨᱚᱥᱟᱱ
ᱨᱚᱥᱤᱫᱽ
ᱨᱚᱥᱤᱭᱟ
ᱨᱚᱦᱚᱢᱟᱱ
ᱨᱚᱦᱚᱨ
ᱨᱚᱦᱚᱭ
ᱨᱚᱦᱚᱭᱟ
ᱨᱚᱦᱚᱲ
ᱨᱚᱦᱚᱲᱚᱜ
ᱨᱚᱦᱚᱲᱚᱜᱼᱟ
ᱨᱚᱦᱛᱚᱠ
ᱨᱚᱦᱛᱟᱠ
ᱨᱚᱦᱛᱟᱥ
ᱨᱚᱦᱟ
ᱨᱚᱦᱢᱟᱱ
ᱨᱚᱦᱤᱛ
ᱨᱚᱦᱤᱢ
ᱨᱚᱦᱤᱬᱤ
ᱨᱚᱦᱤᱱᱤ
ᱨᱚᱧᱡᱚᱱ
ᱨᱚᱧᱡᱤᱛ
ᱨᱚᱨᱚᱲ
ᱨᱚᱨᱚᱲᱤᱡ
ᱨᱚᱪᱚᱱᱟ
ᱨᱚᱫ
ᱨᱚᱫᱚᱨᱯᱷᱚᱨᱰ
ᱨᱚᱬᱚᱵᱚᱦᱟᱫᱩᱨ
ᱨᱚᱬᱡᱤᱛ
ᱨᱚᱬᱫᱤᱯ
ᱨᱚᱬᱵᱤᱨ
ᱨᱚᱭ
ᱨᱚᱭᱟᱞ
ᱨᱚᱭᱮᱞ
ᱨᱚᱯᱚᱜ
ᱨᱚᱯᱚᱲ
ᱨᱚᱯᱚᱲᱟ
ᱨᱚᱯᱟᱲ
ᱨᱚᱯᱷᱟ
ᱨᱚᱯᱷᱤ
ᱨᱚᱰ
ᱨᱚᱰᱚᱡ
ᱨᱚᱱ
ᱨᱚᱱᱚᱲ
ᱨᱚᱱᱛᱷᱟᱢᱵᱚᱨ
ᱨᱚᱱᱡᱚᱱ
ᱨᱚᱱᱤ
ᱨᱚᱲ
ᱨᱚᱲᱚᱜ
ᱨᱚᱲᱚᱜᱚᱜ
ᱨᱚᱲᱟ
ᱨᱚᱲᱟᱜ
ᱨᱚᱲᱟᱝ
ᱨᱚᱲᱟᱱ
ᱨᱚᱲᱭᱚᱢ
ᱨᱚᱲᱮ
ᱨᱚᱲᱮᱫ
ᱨᱚᱲᱮᱫᱟ
ᱨᱚᱲᱼᱟ
ᱨᱚᱲᱼᱦᱚᱲ
ᱨᱚᱲᱼᱨᱚᱯᱚᱲ
ᱨᱚᱲᱼᱮᱫ
ᱨᱚᱲᱼᱮᱫᱟ
ᱨᱚᱴᱮ
ᱨᱚᱵᱚᱞ
ᱨᱚᱵᱚᱨᱴ
ᱨᱚᱵᱚᱴ
ᱨᱚᱵᱟᱨᱴ
ᱨᱚᱵᱤ
ᱨᱚᱵᱤᱱ
ᱨᱚᱵᱤᱱᱟ
ᱨᱚᱵᱤᱱᱫᱚᱨᱚ
ᱨᱚᱵᱤᱱᱫᱨᱚ
ᱨᱚᱵᱤᱱᱫᱨᱚᱱᱟᱛᱷ
ᱨᱚᱵᱤᱱᱫᱽᱨᱚ
ᱨᱚᱵᱤᱱᱫᱽᱨᱚᱱᱟᱛᱷ
ᱨᱚᱶᱟ
ᱨᱚᱸᱜ
ᱨᱚᱸᱡᱤᱛ
ᱨᱚᱻᱨᱚᱲ
ᱨᱛᱤ
ᱨᱜᱟᱲ
ᱨᱝ
ᱨᱟ
ᱨᱟᱛ
ᱨᱟᱛᱟ
ᱨᱟᱛᱟᱝ
ᱨᱟᱛᱤ
ᱨᱟᱛᱨᱤ
ᱨᱟᱛᱩ
ᱨᱟᱛᱱᱟ
ᱨᱟᱛᱱᱟᱢ
ᱨᱟᱛᱷ
ᱨᱟᱜ
ᱨᱟᱜᱟ
ᱨᱟᱜᱤ
ᱨᱟᱜᱤᱬᱤ
ᱨᱟᱜᱨᱟᱱ
ᱨᱟᱜᱷᱚᱵ
ᱨᱟᱜᱷᱚᱵᱽ
ᱨᱟᱜᱷᱩ
ᱨᱟᱜᱷᱩᱱᱚᱱᱫᱚᱯᱩᱨ
ᱨᱟᱜᱽ
ᱨᱟᱝᱜᱟ
ᱨᱟᱝᱜᱟᱢᱟᱴᱤ
ᱨᱟᱝᱜᱟᱣ
ᱨᱟᱝᱜᱟᱨᱮᱰᱰᱤ
ᱨᱟᱞᱤ
ᱨᱟᱠᱟᱯ
ᱨᱟᱠᱟᱵ
ᱨᱟᱠᱟᱵᱚᱜ
ᱨᱟᱠᱟᱵᱚᱜᱼᱟ
ᱨᱟᱠᱟᱵᱟ
ᱨᱟᱠᱟᱵᱼᱟ
ᱨᱟᱠᱟᱵᱽ
ᱨᱟᱠᱮᱥ
ᱨᱟᱠᱷᱟ
ᱨᱟᱠᱷᱟᱤᱱ
ᱨᱟᱠᱷᱟᱵᱤᱨ
ᱨᱟᱠᱷᱤ
ᱨᱟᱡ
ᱨᱟᱡᱚᱜ
ᱨᱟᱡᱚᱥᱛᱟᱱ
ᱨᱟᱡᱚᱥᱛᱷᱟᱱ
ᱨᱟᱡᱚᱥᱛᱷᱟᱱᱤ
ᱨᱟᱡᱚᱥᱴᱤ
ᱨᱟᱡᱚᱥᱴᱷᱤ
ᱨᱟᱡᱚᱱ
ᱨᱟᱡᱜᱟᱲ
ᱨᱟᱡᱟ
ᱨᱟᱡᱟᱜ
ᱨᱟᱡᱟᱠᱷᱮᱨᱟ
ᱨᱟᱡᱟᱡᱤ
ᱨᱟᱡᱟᱣᱟᱜ
ᱨᱟᱡᱟᱣᱨᱤ
ᱨᱟᱡᱟᱣᱩᱞ
ᱨᱟᱡᱟᱥᱛᱷᱟᱱ
ᱨᱟᱡᱟᱦᱟᱜ
ᱨᱟᱡᱟᱨᱤ
ᱨᱟᱡᱟᱨᱤᱭᱟ
ᱨᱟᱡᱟᱨᱤᱭᱟᱹ
ᱨᱟᱡᱟᱨᱦᱟᱴ
ᱨᱟᱡᱟᱭ
ᱨᱟᱡᱟᱭᱤᱡ
ᱨᱟᱡᱟᱯᱟᱠᱥᱟ
ᱨᱟᱡᱟᱯᱩᱨ
ᱨᱟᱡᱟᱱ
ᱨᱟᱡᱟᱹᱨᱤ
ᱨᱟᱡᱡᱚ
ᱨᱟᱡᱢᱟ
ᱨᱟᱡᱤ
ᱨᱟᱡᱤᱣ
ᱨᱟᱡᱤᱭᱟ
ᱨᱟᱡᱤᱵ
ᱨᱟᱡᱤᱵᱽ
ᱨᱟᱡᱤᱵᱽᱯᱩᱨ
ᱨᱟᱡᱩ
ᱨᱟᱡᱭᱚ
ᱨᱟᱡᱭᱚᱥᱚᱵᱷᱟ
ᱨᱟᱡᱮ
ᱨᱟᱡᱮᱥ
ᱨᱟᱡᱮᱱᱫᱨᱚ
ᱨᱟᱡᱮᱱᱫᱽᱨᱚ
ᱨᱟᱡᱱᱤᱛᱤ
ᱨᱟᱡᱱᱮᱛᱟ
ᱨᱟᱡᱳᱣᱨᱤ
ᱨᱟᱡᱽ
ᱨᱟᱡᱽᱛᱚᱱᱛᱨᱚ
ᱨᱟᱡᱽᱜᱚᱲ
ᱨᱟᱡᱽᱜᱟᱲ
ᱨᱟᱡᱽᱜᱤᱨ
ᱨᱟᱡᱽᱟ
ᱨᱟᱡᱽᱟᱨᱤᱭᱟ
ᱨᱟᱡᱽᱟᱹᱨᱤ
ᱨᱟᱡᱽᱟᱹᱨᱤᱛ
ᱨᱟᱡᱽᱟᱹᱨᱤᱭᱟᱹ
ᱨᱟᱡᱽᱟᱹᱨᱤᱭᱟᱹᱭ
ᱨᱟᱡᱽᱠᱚᱴ
ᱨᱟᱡᱽᱠᱩᱢᱟᱨ
ᱨᱟᱡᱽᱠᱳᱴ
ᱨᱟᱡᱽᱠᱷᱚᱨᱥᱚᱶᱟ
ᱨᱟᱡᱽᱡᱚ
ᱨᱟᱡᱽᱡᱚᱥᱚᱵᱷᱟ
ᱨᱟᱡᱽᱡᱚᱯᱟᱞ
ᱨᱟᱡᱽᱡᱚᱯᱟᱲ
ᱨᱟᱡᱽᱢᱚᱦᱚᱞ
ᱨᱟᱡᱽᱢᱩᱸᱫᱽᱨᱤ
ᱨᱟᱡᱽᱣᱚᱸᱥᱤ
ᱨᱟᱡᱽᱥᱛᱷᱟᱱ
ᱨᱟᱡᱽᱥᱟᱦᱤ
ᱨᱟᱡᱽᱥᱣᱟ
ᱨᱟᱡᱽᱥᱨᱤ
ᱨᱟᱡᱽᱥᱮᱠᱷᱚᱨ
ᱨᱟᱡᱽᱦᱚᱨ
ᱨᱟᱡᱽᱦᱚᱨᱟ
ᱨᱟᱡᱽᱨᱟᱯᱟᱜ
ᱨᱟᱡᱽᱫᱩᱛ
ᱨᱟᱡᱽᱫᱷᱟᱱᱣᱟᱨ
ᱨᱟᱡᱽᱫᱷᱟᱱᱤ
ᱨᱟᱡᱽᱫᱷᱟᱹᱱᱤ
ᱨᱟᱡᱽᱭᱚ
ᱨᱟᱡᱽᱭᱚᱥᱚᱵᱷᱟ
ᱨᱟᱡᱽᱭᱚᱯᱟᱞ
ᱨᱟᱡᱽᱭᱚᱯᱟᱲ
ᱨᱟᱡᱽᱯᱟᱞ
ᱨᱟᱡᱽᱯᱟᱹᱨᱥᱤ
ᱨᱟᱡᱽᱯᱤᱯᱞᱟ
ᱨᱟᱡᱽᱯᱩᱛ
ᱨᱟᱡᱽᱯᱩᱛᱟᱱᱟ
ᱨᱟᱡᱽᱯᱩᱨ
ᱨᱟᱡᱽᱯᱩᱨᱟ
ᱨᱟᱡᱽᱰᱟᱦᱟᱨ
ᱨᱟᱡᱽᱰᱟᱦᱟᱨᱼ
ᱨᱟᱡᱽᱱᱚᱜᱚᱨ
ᱨᱟᱡᱽᱱᱟᱭᱤᱠ
ᱨᱟᱡᱽᱱᱟᱱᱫᱽᱜᱟᱶ
ᱨᱟᱡᱽᱱᱤ
ᱨᱟᱡᱽᱱᱤᱛᱤ
ᱨᱟᱡᱽᱱᱤᱛᱤᱠ
ᱨᱟᱡᱽᱱᱤᱠᱟᱸᱛ
ᱨᱟᱡᱽᱱᱮᱛᱟ
ᱨᱟᱡᱽᱱᱮᱛᱟᱭ
ᱨᱟᱡᱽᱵᱚᱝᱥᱚ
ᱨᱟᱡᱽᱵᱚᱝᱥᱤ
ᱨᱟᱡᱽᱵᱚᱱᱥᱤ
ᱨᱟᱡᱽᱵᱟᱲᱤ
ᱨᱟᱡᱽᱼᱟ
ᱨᱟᱡᱽᱼᱟᱹᱨᱤ
ᱨᱟᱢ
ᱨᱟᱢᱚ
ᱨᱟᱢᱜᱚᱲ
ᱨᱟᱢᱜᱟᱲ
ᱨᱟᱢᱟ
ᱨᱟᱢᱟᱜ
ᱨᱟᱢᱟᱨᱟᱣ
ᱨᱟᱢᱟᱪᱟᱸᱫᱽᱨᱟᱱ
ᱨᱟᱢᱟᱭᱚᱬ
ᱨᱟᱢᱟᱭᱚᱬᱚ
ᱨᱟᱢᱟᱭᱚᱱ
ᱨᱟᱢᱟᱱ
ᱨᱟᱢᱟᱱᱚᱱᱫᱚ
ᱨᱟᱢᱟᱱᱩᱡᱽᱜᱚᱸᱡᱽ
ᱨᱟᱢᱟᱵᱟᱭᱤ
ᱨᱟᱢᱠᱨᱤᱥᱱᱚ
ᱨᱟᱢᱡᱤ
ᱨᱟᱢᱥᱚᱨᱚᱱ
ᱨᱟᱢᱩ
ᱨᱟᱢᱪᱚᱸᱫᱽᱨᱚ
ᱨᱟᱢᱪᱟᱸᱫᱽ
ᱨᱟᱢᱫᱟᱥ
ᱨᱟᱢᱫᱮᱵᱽ
ᱨᱟᱢᱮᱥ
ᱨᱟᱢᱮᱥᱣᱚᱨᱚᱢ
ᱨᱟᱢᱯᱟᱞ
ᱨᱟᱢᱯᱩᱨ
ᱨᱟᱢᱯᱩᱨᱦᱟᱴ
ᱨᱟᱢᱱᱚᱜᱚᱨ
ᱨᱟᱢᱱᱟᱛᱷ
ᱨᱟᱢᱱᱟᱛᱷᱯᱩᱨᱚᱢ
ᱨᱟᱢᱵᱟᱱ
ᱨᱟᱢᱵᱽᱲᱟ
ᱨᱟᱣ
ᱨᱟᱣᱚᱛ
ᱨᱟᱣᱚᱞ
ᱨᱟᱣᱚᱱ
ᱨᱟᱣᱞ
ᱨᱟᱣᱟᱞ
ᱨᱟᱣᱟᱞᱯᱤᱱᱰᱤ
ᱨᱟᱣᱟᱱ
ᱨᱟᱣᱩᱛ
ᱨᱟᱣᱩᱛᱨᱟᱭ
ᱨᱟᱣᱩᱨᱠᱮᱞᱟ
ᱨᱟᱣᱱᱰ
ᱨᱟᱣᱳᱛ
ᱨᱟᱣᱳᱸᱰ
ᱨᱟᱤ
ᱨᱟᱥ
ᱨᱟᱥᱜᱳᱵᱤᱸᱫᱽᱯᱩᱨ
ᱨᱟᱥᱟ
ᱨᱟᱥᱟᱭᱚᱱᱤᱠ
ᱨᱟᱥᱟᱭᱱᱤᱠ
ᱨᱟᱥᱠᱟ
ᱨᱟᱥᱢᱤ
ᱨᱟᱥᱢᱤᱠᱟ
ᱨᱟᱥᱤᱠᱯᱩᱨ
ᱨᱟᱥᱤᱢᱚᱱᱤ
ᱨᱟᱥᱤᱭᱟ
ᱨᱟᱥᱤᱭᱟᱱ
ᱨᱟᱥᱮ
ᱨᱟᱥᱮᱞ
ᱨᱟᱥᱴᱚᱨᱚ
ᱨᱟᱥᱴᱨᱚ
ᱨᱟᱥᱴᱨᱚᱯᱚᱛᱤ
ᱨᱟᱥᱴᱨᱚᱵᱟᱫᱤ
ᱨᱟᱥᱴᱨᱤᱭ
ᱨᱟᱥᱴᱨᱤᱭᱚ
ᱨᱟᱦᱟ
ᱨᱟᱦᱟᱛ
ᱨᱟᱦᱟᱭ
ᱨᱟᱦᱤ
ᱨᱟᱦᱩᱞ
ᱨᱟᱦᱮ
ᱨᱟᱦᱮᱲ
ᱨᱟᱧᱪᱤ
ᱨᱟᱨᱟ
ᱨᱟᱨᱟᱱ
ᱨᱟᱨᱟᱱᱤᱡ
ᱨᱟᱩᱨᱠᱮᱞᱟ
ᱨᱟᱪᱟ
ᱨᱟᱪᱟᱜ
ᱨᱟᱪᱟᱣ
ᱨᱟᱪᱱᱟ
ᱨᱟᱫᱟ
ᱨᱟᱫᱷᱟ
ᱨᱟᱫᱷᱟᱠᱨᱤᱥᱱᱟᱱ
ᱨᱟᱫᱷᱟᱠᱨᱩᱥᱱᱚᱱ
ᱨᱟᱫᱷᱤᱠᱟ
ᱨᱟᱬᱟ
ᱨᱟᱬᱤ
ᱨᱟᱬᱮ
ᱨᱟᱭ
ᱨᱟᱭᱜᱚᱰᱟ
ᱨᱟᱭᱜᱚᱲ
ᱨᱟᱭᱜᱚᱸᱡᱽ
ᱨᱟᱭᱜᱟᱲ
ᱨᱟᱭᱟ
ᱨᱟᱭᱟᱜ
ᱨᱟᱭᱢᱟ
ᱨᱟᱭᱤ
ᱨᱟᱭᱤᱢᱳᱦᱚᱱ
ᱨᱟᱭᱤᱥ
ᱨᱟᱭᱤᱴ
ᱨᱟᱭᱤᱴᱥ
ᱨᱟᱭᱥᱮᱱ
ᱨᱟᱭᱦᱚᱨᱤ
ᱨᱟᱭᱨᱚᱝᱯᱩᱨ
ᱨᱟᱭᱨᱚᱢᱯᱩᱨ
ᱨᱟᱭᱨᱤᱛ
ᱨᱟᱭᱪᱩᱨ
ᱨᱟᱭᱪᱳᱣᱫᱷᱩᱨᱤ
ᱨᱟᱭᱯᱩᱨ
ᱨᱟᱭᱯᱷᱚᱞ
ᱨᱟᱭᱯᱷᱮᱞ
ᱨᱟᱭᱰᱤᱦ
ᱨᱟᱭᱱᱟ
ᱨᱟᱭᱴᱚᱨ
ᱨᱟᱭᱴᱟᱨᱥ
ᱨᱟᱭᱵᱚᱨᱮᱞᱤ
ᱨᱟᱭᱵᱟᱨ
ᱨᱟᱭᱵᱟᱨᱮᱞᱤ
ᱨᱟᱯᱛᱤ
ᱨᱟᱯᱟᱜ
ᱨᱟᱯᱟᱡ
ᱨᱟᱯᱟᱡᱽ
ᱨᱟᱯᱟᱪᱟᱜ
ᱨᱟᱯᱩᱫ
ᱨᱟᱯᱷᱟᱭᱮᱞ
ᱨᱟᱱ
ᱨᱟᱱᱟ
ᱨᱟᱱᱟᱜ
ᱨᱟᱱᱟᱜᱷᱟᱴ
ᱨᱟᱱᱟᱠᱟᱵ
ᱨᱟᱱᱟᱣᱚᱛ
ᱨᱟᱱᱟᱨ
ᱨᱟᱱᱡᱟᱱ
ᱨᱟᱱᱤ
ᱨᱟᱱᱤᱜᱚᱸᱡᱽ
ᱨᱟᱱᱤᱠᱷᱮᱛ
ᱨᱟᱱᱤᱥᱚᱝᱠᱳᱞ
ᱨᱟᱱᱤᱥᱣᱚᱨ
ᱨᱟᱱᱤᱱᱚᱜᱚᱨ
ᱨᱟᱱᱪᱤ
ᱨᱟᱱᱮ
ᱨᱟᱱᱵᱮ
ᱨᱟᱲ
ᱨᱟᱲᱟ
ᱨᱟᱲᱟᱝ
ᱨᱟᱲᱟᱫᱩᱜ
ᱨᱟᱲᱮᱡ
ᱨᱟᱳ
ᱨᱟᱴᱷᱚᱨ
ᱨᱟᱴᱷᱳᱨ
ᱨᱟᱵᱚᱬ
ᱨᱟᱵᱚᱱ
ᱨᱟᱵᱚᱲ
ᱨᱟᱵᱟᱝ
ᱨᱟᱵᱟᱝᱟ
ᱨᱟᱵᱤ
ᱨᱟᱵᱤᱥᱷ
ᱨᱟᱵᱦᱟ
ᱨᱟᱵᱷᱟ
ᱨᱟᱵᱽᱲᱤ
ᱨᱟᱸᱜᱟᱣ
ᱨᱟᱸᱪᱤ
ᱨᱟᱸᱰᱤ
ᱨᱟᱸᱵᱽᱲᱟ
ᱨᱟᱹᱜᱤ
ᱨᱟᱹᱜᱷᱩ
ᱨᱟᱹᱜᱷᱩᱱᱟᱛ
ᱨᱟᱹᱜᱷᱩᱱᱟᱛᱷ
ᱨᱟᱹᱜᱷᱩᱵᱚᱨ
ᱨᱟᱹᱡᱤ
ᱨᱟᱹᱡᱽᱟᱹᱨᱤ
ᱨᱟᱹᱣᱩᱞᱠᱮᱞᱟ
ᱨᱟᱹᱥ
ᱨᱟᱹᱥᱠᱟ
ᱨᱟᱹᱥᱠᱟᱹ
ᱨᱟᱹᱥᱠᱟᱹᱜ
ᱨᱟᱹᱥᱠᱟᱹᱭ
ᱨᱟᱹᱥᱤᱭᱟᱹ
ᱨᱟᱹᱥᱤᱭᱟᱹᱭ
ᱨᱟᱹᱥᱩᱱ
ᱨᱟᱹᱧᱪᱤ
ᱨᱟᱹᱯᱩᱛ
ᱨᱟᱹᱯᱩᱫ
ᱨᱟᱹᱯᱩᱫᱚᱜ
ᱨᱟᱹᱯᱩᱫᱽ
ᱨᱟᱹᱱ
ᱨᱟᱹᱱᱤ
ᱨᱟᱹᱱᱤᱜᱚᱸᱡᱽ
ᱨᱟᱹᱱᱤᱥᱚᱞ
ᱨᱟᱹᱱᱤᱯᱮᱴ
ᱨᱟᱹᱲ
ᱨᱟᱺᱪᱤ
ᱨᱟᱺᱰᱤ
ᱨᱠᱚ
ᱨᱠᱷᱟᱱᱟ
ᱨᱡᱤ
ᱨᱢᱩ
ᱨᱣ
ᱨᱣᱟ
ᱨᱣᱭᱟᱜ
ᱨᱤ
ᱨᱤᱛ
ᱨᱤᱛᱟ
ᱨᱤᱛᱤ
ᱨᱤᱛᱩ
ᱨᱤᱛᱮᱥ
ᱨᱤᱛᱷ
ᱨᱤᱜ
ᱨᱤᱜᱟ
ᱨᱤᱝ
ᱨᱤᱞ
ᱨᱤᱞᱟ
ᱨᱤᱞᱟᱭᱚᱸᱥ
ᱨᱤᱞᱟᱭᱟᱸᱥ
ᱨᱤᱞᱤᱡ
ᱨᱤᱞᱤᱡᱚᱜ
ᱨᱤᱞᱤᱡᱽ
ᱨᱤᱞᱤᱡᱽᱠᱟᱱ
ᱨᱤᱞᱤᱥ
ᱨᱤᱞᱤᱭᱟᱱᱥ
ᱨᱤᱞᱮ
ᱨᱤᱞᱮᱥᱚᱱ
ᱨᱤᱠᱚᱨᱰ
ᱨᱤᱠᱟ
ᱨᱤᱠᱟᱹ
ᱨᱤᱠᱟᱹᱭᱟ
ᱨᱤᱠᱥᱟ
ᱨᱤᱠᱥᱟᱹ
ᱨᱤᱠᱳᱨᱰ
ᱨᱤᱡ
ᱨᱤᱡᱚᱨᱵᱷ
ᱨᱤᱡᱚᱨᱵᱽ
ᱨᱤᱡᱚᱱ
ᱨᱤᱡᱟᱞᱴ
ᱨᱤᱡᱟᱨᱵᱷ
ᱨᱤᱡᱟᱨᱵᱽ
ᱨᱤᱡᱟᱭᱤᱱ
ᱨᱤᱡᱟᱱ
ᱨᱤᱡᱷᱟ
ᱨᱤᱡᱷᱟᱹᱣ
ᱨᱤᱡᱽᱣᱤ
ᱨᱤᱢ
ᱨᱤᱢᱟ
ᱨᱤᱢᱤ
ᱨᱤᱢᱤᱞ
ᱨᱤᱢᱮᱠ
ᱨᱤᱣᱟ
ᱨᱤᱥ
ᱨᱤᱥᱚᱨᱪ
ᱨᱤᱥᱚᱨᱴ
ᱨᱤᱥᱛᱟ
ᱨᱤᱥᱛᱮ
ᱨᱤᱥᱟᱨᱪ
ᱨᱤᱥᱠᱟ
ᱨᱤᱥᱤ
ᱨᱤᱥᱤᱠᱮᱥ
ᱨᱤᱦᱤᱴ
ᱨᱤᱧ
ᱨᱤᱨᱤ
ᱨᱤᱨᱮ
ᱨᱤᱪ
ᱨᱤᱪᱟ
ᱨᱤᱪᱟᱨᱰ
ᱨᱤᱫ
ᱨᱤᱫᱟ
ᱨᱤᱫᱟᱭ
ᱨᱤᱫᱟᱹᱭ
ᱨᱤᱭᱚ
ᱨᱤᱭᱟ
ᱨᱤᱭᱟᱜ
ᱨᱤᱭᱟᱞᱤᱴᱤ
ᱨᱤᱭᱟᱥᱚᱛ
ᱨᱤᱭᱟᱥᱤ
ᱨᱤᱭᱟᱫᱽ
ᱨᱤᱭᱟᱱ
ᱨᱤᱭᱟᱹ
ᱨᱤᱭᱮᱞ
ᱨᱤᱭᱮᱞᱤᱴᱤ
ᱨᱤᱭᱮᱠᱥᱚᱱ
ᱨᱤᱭᱳ
ᱨᱤᱯᱚᱨᱴ
ᱨᱤᱯᱚᱨᱴᱟᱨ
ᱨᱤᱯᱚᱱ
ᱨᱤᱯᱚᱴ
ᱨᱤᱯᱚᱵᱽᱞᱤᱠ
ᱨᱤᱯᱟᱵᱞᱤᱠ
ᱨᱤᱯᱟᱵᱽᱞᱤᱠ
ᱨᱤᱯᱳᱨᱴ
ᱨᱤᱯᱷ
ᱨᱤᱯᱷᱟᱭᱱᱟᱨᱤ
ᱨᱤᱯᱷᱩᱡᱤ
ᱨᱤᱰᱟᱨ
ᱨᱤᱱ
ᱨᱤᱱᱟ
ᱨᱤᱱᱟᱝ
ᱨᱤᱱᱡ
ᱨᱤᱱᱤᱜ
ᱨᱤᱱᱤᱡ
ᱨᱤᱱᱤᱡᱽ
ᱨᱤᱱᱤᱫ
ᱨᱤᱱᱤᱭ
ᱨᱤᱱᱤᱱ
ᱨᱤᱱᱤᱱᱡ
ᱨᱤᱱᱫᱽ
ᱨᱤᱳ
ᱨᱤᱴᱟᱭᱟᱨᱰ
ᱨᱤᱵᱷᱚᱨᱥ
ᱨᱥᱤ
ᱨᱥᱤᱭᱟ
ᱨᱥᱤᱭᱟᱱ
ᱨᱨ
ᱨᱨᱭᱟᱜ
ᱨᱩ
ᱨᱩᱛᱩ
ᱨᱩᱛᱷ
ᱨᱩᱜᱤ
ᱨᱩᱜᱤᱭᱟᱜ
ᱨᱩᱜᱲᱤᱰᱤ
ᱨᱩᱝᱜᱤᱱ
ᱨᱩᱞ
ᱨᱩᱠᱢᱤᱬᱤ
ᱨᱩᱠᱤᱭᱟ
ᱨᱩᱠᱩᱢ
ᱨᱩᱠᱷᱤᱭᱟ
ᱨᱩᱠᱷᱤᱭᱟᱹ
ᱨᱩᱠᱷᱭᱟᱹ
ᱨᱩᱡᱽᱵᱷᱮᱞᱴ
ᱨᱩᱢ
ᱨᱩᱢᱟ
ᱨᱩᱣᱟ
ᱨᱩᱣᱟᱱᱰᱟ
ᱨᱩᱣᱟᱲ
ᱨᱩᱣᱟᱲᱟ
ᱨᱩᱣᱟᱹ
ᱨᱩᱣᱟᱹᱜ
ᱨᱩᱣᱟᱹᱨ
ᱨᱩᱣᱟᱹᱲ
ᱨᱩᱣᱟᱹᱲᱚᱜ
ᱨᱩᱣᱟᱹᱲᱟ
ᱨᱩᱥ
ᱨᱩᱥᱤ
ᱨᱩᱥᱤᱠᱟ
ᱨᱩᱥᱤᱠᱟᱭ
ᱨᱩᱥᱤᱭᱟ
ᱨᱩᱥᱤᱭᱟᱱ
ᱨᱩᱦᱤ
ᱨᱩᱦᱤᱭᱟ
ᱨᱩᱨᱟᱞ
ᱨᱩᱨᱩ
ᱨᱩᱨᱩᱭᱤᱡ
ᱨᱩᱪᱤ
ᱨᱩᱫᱨᱚᱢᱟ
ᱨᱩᱫᱽᱨᱚ
ᱨᱩᱫᱽᱨᱚᱯᱨᱚᱭᱟᱜᱽ
ᱨᱩᱫᱽᱨᱚᱯᱩᱨ
ᱨᱩᱭ
ᱨᱩᱭᱟ
ᱨᱩᱯ
ᱨᱩᱯᱚᱱᱫᱮᱦᱤ
ᱨᱩᱯᱛᱮ
ᱨᱩᱯᱟ
ᱨᱩᱯᱟᱹ
ᱨᱩᱯᱢᱟᱛᱤ
ᱨᱩᱯᱤ
ᱨᱩᱯᱥᱟ
ᱨᱩᱯᱨᱚᱝ
ᱨᱩᱯᱨᱮ
ᱨᱩᱯᱩᱥᱤᱝ
ᱨᱩᱯᱪᱟᱸᱫᱽ
ᱨᱩᱯᱯᱩᱨ
ᱨᱩᱯᱱᱚᱜᱚᱨ
ᱨᱩᱯᱷᱮᱨᱟᱣ
ᱨᱩᱱ
ᱨᱩᱱᱟ
ᱨᱩᱱᱤᱡ
ᱨᱩᱱᱩ
ᱨᱩᱲᱟ
ᱨᱩᱴ
ᱨᱩᱴᱤ
ᱨᱩᱵ
ᱨᱩᱵᱮᱱᱥ
ᱨᱩᱸᱰᱟᱹ
ᱨᱩᱻ
ᱨᱩᱻᱚᱨᱚᱝ
ᱨᱫ
ᱨᱭ
ᱨᱭᱟ
ᱨᱭᱟᱱ
ᱨᱮ
ᱨᱮᱛᱟ
ᱨᱮᱛᱟᱜ
ᱨᱮᱜ
ᱨᱮᱜᱤ
ᱨᱮᱜᱤᱥᱛᱟᱱ
ᱨᱮᱜᱩᱞᱟᱨ
ᱨᱮᱜᱮ
ᱨᱮᱜᱮᱠᱚ
ᱨᱮᱜᱮᱡ
ᱨᱮᱜᱮᱭ
ᱨᱮᱝ
ᱨᱮᱝᱜᱟᱞᱤ
ᱨᱮᱝᱜᱮᱡ
ᱨᱮᱝᱠ
ᱨᱮᱝᱠᱤᱝ
ᱨᱮᱞ
ᱨᱮᱞᱜᱟᱹᱰᱤ
ᱨᱮᱞᱟ
ᱨᱮᱞᱣᱮ
ᱨᱮᱞᱦᱚᱨ
ᱨᱮᱞᱮ
ᱨᱮᱞᱵᱟᱭ
ᱨᱮᱟᱜ
ᱨᱮᱠᱚ
ᱨᱮᱠᱚᱨᱰ
ᱨᱮᱠᱚᱰ
ᱨᱮᱠᱟ
ᱨᱮᱠᱤᱱ
ᱨᱮᱠᱩ
ᱨᱮᱠᱳᱨᱰ
ᱨᱮᱠᱳᱰ
ᱨᱮᱠᱷᱟ
ᱨᱮᱡ
ᱨᱮᱡᱤᱢᱮᱱᱴ
ᱨᱮᱡᱤᱢᱮᱸᱴ
ᱨᱮᱡᱤᱥᱴᱚᱨ
ᱨᱮᱡᱤᱥᱴᱨᱮᱥᱚᱱ
ᱨᱮᱡᱮᱱᱥᱤ
ᱨᱮᱢ
ᱨᱮᱢᱟ
ᱨᱮᱢᱟᱜ
ᱨᱮᱢᱩᱬᱟ
ᱨᱮᱢᱳ
ᱨᱮᱣᱟ
ᱨᱮᱣᱟᱲᱤ
ᱨᱮᱥ
ᱨᱮᱥᱟ
ᱨᱮᱥᱢᱟ
ᱨᱮᱥᱤᱳ
ᱨᱮᱥᱯᱤᱨᱮᱴᱳᱨᱤ
ᱨᱮᱥᱴᱚᱣᱨᱮᱱᱴ
ᱨᱮᱥᱴᱚᱨᱮᱸᱴ
ᱨᱮᱥᱴᱽᱞᱤᱸᱜ
ᱨᱮᱦᱚ
ᱨᱮᱦᱚᱸ
ᱨᱮᱦᱚᱸᱜᱮ
ᱨᱮᱦᱚᱸᱭ
ᱨᱮᱦᱟᱱᱟ
ᱨᱮᱦᱢᱟᱱ
ᱨᱮᱦᱮᱫ
ᱨᱮᱦᱮᱫᱽ
ᱨᱮᱦᱸ
ᱨᱮᱧ
ᱨᱮᱧᱡᱽ
ᱨᱮᱨᱟᱲ
ᱨᱮᱪᱚ
ᱨᱮᱫ
ᱨᱮᱫᱚ
ᱨᱮᱫᱚᱭ
ᱨᱮᱬᱩ
ᱨᱮᱬᱩᱠᱟ
ᱨᱮᱭ
ᱨᱮᱭᱜ
ᱨᱮᱭᱟ
ᱨᱮᱭᱟᱜ
ᱨᱮᱭᱟᱜᱽ
ᱨᱮᱭᱟᱝ
ᱨᱮᱭᱟᱦ
ᱨᱮᱭᱟᱨ
ᱨᱮᱭᱟᱲ
ᱨᱮᱭᱟᱲᱟ
ᱨᱮᱭᱥᱜ
ᱨᱮᱭᱮ
ᱨᱮᱮ
ᱨᱮᱯ
ᱨᱮᱯᱨᱤᱡᱮᱱᱴᱮᱥᱚᱱ
ᱨᱮᱯᱮᱡ
ᱨᱮᱯᱮᱪ
ᱨᱮᱯᱷᱟᱨᱤ
ᱨᱮᱯᱷᱤᱭᱩᱡᱤ
ᱨᱮᱰ
ᱨᱮᱰᱚᱨ
ᱨᱮᱰᱠᱨᱳᱥ
ᱨᱮᱰᱢᱤ
ᱨᱮᱰᱤ
ᱨᱮᱰᱤᱣᱳ
ᱨᱮᱰᱤᱭᱚ
ᱨᱮᱰᱤᱭᱳ
ᱨᱮᱰᱤᱳ
ᱨᱮᱰᱰᱤ
ᱨᱮᱰᱰᱤᱭᱟᱜ
ᱨᱮᱱ
ᱨᱮᱱᱜ
ᱨᱮᱱᱜᱟ
ᱨᱮᱱᱟ
ᱨᱮᱱᱟᱜ
ᱨᱮᱱᱟᱜᱼᱟ
ᱨᱮᱱᱟᱜᱼᱮ
ᱨᱮᱱᱟᱝ
ᱨᱮᱱᱟᱫ
ᱨᱮᱱᱟᱭ
ᱨᱮᱱᱟᱷ
ᱨᱮᱱᱤ
ᱨᱮᱱᱤᱡ
ᱨᱮᱱᱤᱡᱽ
ᱨᱮᱱᱥᱜ
ᱨᱮᱱᱩ
ᱨᱮᱱᱮ
ᱨᱮᱱᱮᱜ
ᱨᱮᱴ
ᱨᱮᱴᱤᱝ
ᱨᱮᱴᱤᱱᱟ
ᱨᱮᱵᱚ
ᱨᱮᱵᱚᱱ
ᱨᱮᱵᱟ
ᱨᱮᱵᱟᱜ
ᱨᱮᱵᱮᱫ
ᱨᱮᱵᱮᱱ
ᱨᱮᱵᱷᱮᱱᱤᱣ
ᱨᱮᱵᱷᱮᱱᱥᱟ
ᱨᱮᱸ
ᱨᱮᱸᱜᱮᱡ
ᱨᱮᱸᱜᱮᱡᱽ
ᱨᱮᱸᱜᱮᱸᱪ
ᱨᱮᱸᱠ
ᱨᱮᱸᱠᱤᱝ
ᱨᱮᱸᱡ
ᱨᱮᱸᱡᱽ
ᱨᱮᱹᱞ
ᱨᱮᱹᱞᱣᱮ
ᱨᱯᱟᱫᱟ
ᱨᱰᱩ
ᱨᱱᱟᱜ
ᱨᱱᱤ
ᱨᱳ
ᱨᱳᱜᱽ
ᱨᱳᱝᱢᱮᱭ
ᱨᱳᱞ
ᱨᱳᱠ
ᱨᱳᱠᱮᱭᱟ
ᱨᱳᱡᱟ
ᱨᱳᱡᱽ
ᱨᱳᱢ
ᱨᱳᱢᱟᱱ
ᱨᱳᱢᱟᱱᱤ
ᱨᱳᱢᱟᱱᱤᱭᱟ
ᱨᱳᱢᱟᱱᱤᱭᱟᱱ
ᱨᱳᱢᱟᱱᱥ
ᱨᱳᱢᱟᱱᱴᱤᱠ
ᱨᱳᱣᱢᱟᱨᱤ
ᱨᱳᱥᱚᱱ
ᱨᱳᱥᱴᱳᱣ
ᱨᱳᱦᱛᱟᱥ
ᱨᱳᱦᱤᱛ
ᱨᱳᱦᱤᱝᱜᱟ
ᱨᱳᱦᱤᱫᱟᱥ
ᱨᱳᱭ
ᱨᱳᱭᱟᱞ
ᱨᱳᱰ
ᱨᱷᱚᱰᱮ
ᱩ
ᱩᱛᱚᱨ
ᱩᱛᱚᱨᱟᱠᱷᱚᱸᱰ
ᱩᱛᱚᱨᱠᱟᱥᱤ
ᱩᱛᱚᱨᱯᱨᱚᱫᱮᱥ
ᱩᱛᱛᱚᱢ
ᱩᱛᱛᱚᱨ
ᱩᱛᱛᱚᱨᱟ
ᱩᱛᱛᱚᱨᱟᱠᱷᱚᱸᱰ
ᱩᱛᱛᱚᱨᱠᱟᱥᱤ
ᱩᱛᱛᱟ
ᱩᱛᱛᱟᱨ
ᱩᱛᱛᱟᱹᱨ
ᱩᱛᱟ
ᱩᱛᱟᱠ
ᱩᱛᱟᱨ
ᱩᱛᱟᱹᱨ
ᱩᱛᱟᱹᱨᱚᱜ
ᱩᱛᱟᱹᱨᱤᱡ
ᱩᱛᱟᱹᱨᱼᱯᱟᱹᱪᱷᱤᱢ
ᱩᱛᱠᱚᱞ
ᱩᱛᱠᱚᱲ
ᱩᱛᱠᱚᱲᱚ
ᱩᱛᱥᱚᱵᱽ
ᱩᱛᱨᱚ
ᱩᱛᱨᱟ
ᱩᱛᱨᱟᱠᱷᱚᱸᱰ
ᱩᱛᱨᱤ
ᱩᱛᱩ
ᱩᱛᱩᱭ
ᱩᱛᱱᱟ
ᱩᱛᱱᱟᱹᱣ
ᱩᱛᱱᱟᱹᱣᱚᱜ
ᱩᱛᱱᱟᱹᱶ
ᱩᱛᱷᱱᱟ
ᱩᱛᱷᱱᱟᱹᱣ
ᱩᱜᱟᱱᱰᱟ
ᱩᱜᱽᱞᱤ
ᱩᱝᱠᱩ
ᱩᱝᱠᱩᱣᱟᱜ
ᱩᱞ
ᱩᱞᱞᱟᱯᱟᱲᱟ
ᱩᱞᱟ
ᱩᱞᱟᱱᱵᱟᱴᱚᱨ
ᱩᱞᱟᱹ
ᱩᱞᱤᱯᱩᱨ
ᱩᱞᱦᱟᱥᱱᱚᱜᱚᱨ
ᱩᱞᱩᱜᱽ
ᱩᱞᱩᱝᱫᱩᱨᱯᱮᱴ
ᱩᱞᱴᱟ
ᱩᱞᱴᱟᱹ
ᱩᱞᱴᱟᱹᱣ
ᱩᱞᱴᱤ
ᱩᱠᱤᱞ
ᱩᱠᱤᱞᱚᱜ
ᱩᱠᱤᱞᱟᱹᱛᱤ
ᱩᱠᱩ
ᱩᱠᱷᱨᱩᱞ
ᱩᱡᱟᱹᱲ
ᱩᱡᱟᱹᱲᱚᱜ
ᱩᱡᱡᱮᱱ
ᱩᱡᱩᱱ
ᱩᱡᱽᱡᱮᱱ
ᱩᱡᱽᱵᱮᱠ
ᱩᱡᱽᱵᱮᱠᱤᱥᱛᱟᱱ
ᱩᱢ
ᱩᱢᱚᱨ
ᱩᱢᱟ
ᱩᱢᱟᱨ
ᱩᱢᱟᱹᱨ
ᱩᱢᱟᱹᱬ
ᱩᱢᱤᱨᱫᱟ
ᱩᱢᱨᱤᱭᱟ
ᱩᱢᱩᱜ
ᱩᱢᱩᱞ
ᱩᱢᱩᱨ
ᱩᱢᱮᱞ
ᱩᱢᱮᱥ
ᱩᱢᱮᱨ
ᱩᱢᱮᱨᱟᱱ
ᱩᱥᱛᱟᱫ
ᱩᱥᱛᱟᱫᱽ
ᱩᱥᱟ
ᱩᱥᱟᱨᱟ
ᱩᱥᱟᱹᱨᱟ
ᱩᱥᱟᱹᱨᱟᱛᱮ
ᱩᱥᱟᱹᱨᱟᱹ
ᱩᱥᱟᱹᱫ
ᱩᱥᱠᱟ
ᱩᱥᱠᱟᱹᱣ
ᱩᱥᱢᱟᱱ
ᱩᱥᱢᱟᱱᱟᱵᱟᱫᱽ
ᱩᱥᱨᱤ
ᱩᱥᱩᱞ
ᱩᱥᱩᱞᱟ
ᱩᱥᱩᱞᱟᱜ
ᱩᱥᱩᱥᱞ
ᱩᱥᱩᱨ
ᱩᱦᱟᱱ
ᱩᱧᱩᱢ
ᱩᱨᱜᱩᱢ
ᱩᱨᱟᱶ
ᱩᱨᱟᱹᱶ
ᱩᱨᱢᱤᱞᱟ
ᱩᱨᱤᱡ
ᱩᱨᱩ
ᱩᱨᱩᱜᱩᱣᱟᱭ
ᱩᱨᱩᱜᱩᱭᱮ
ᱩᱨᱩᱢ
ᱩᱨᱩᱢᱚᱜ
ᱩᱨᱫᱩ
ᱩᱨᱫᱷᱩ
ᱩᱨᱯᱷ
ᱩᱨᱵᱚᱥᱤ
ᱩᱪ
ᱩᱪᱟ
ᱩᱪᱟᱨᱚᱱ
ᱩᱪᱟᱹᱱ
ᱩᱪᱟᱹᱲ
ᱩᱪᱟᱹᱲᱚᱜ
ᱩᱪᱟᱹᱲᱚᱜᱼᱟ
ᱩᱪᱟᱹᱲᱮᱱᱟ
ᱩᱪᱤᱛ
ᱩᱪᱨᱟ
ᱩᱪᱩᱫ
ᱩᱪᱪᱚ
ᱩᱪᱷᱟ
ᱩᱪᱷᱟᱱ
ᱩᱪᱷᱟᱹᱱ
ᱩᱪᱷᱟᱹᱱᱚᱜ
ᱩᱫ
ᱩᱫᱚᱭ
ᱩᱫᱚᱭᱜᱤᱨᱤ
ᱩᱫᱚᱭᱯᱩᱨ
ᱩᱫᱚᱲᱟ
ᱩᱫᱜᱟ
ᱩᱫᱜᱟᱹᱣ
ᱩᱫᱟ
ᱩᱫᱟᱞᱜᱩᱲᱤ
ᱩᱫᱟᱢ
ᱩᱫᱟᱭ
ᱩᱫᱟᱹᱞ
ᱩᱫᱟᱹᱞᱜᱩᱲᱤ
ᱩᱫᱤᱛ
ᱩᱫᱤᱥ
ᱩᱫᱩᱜ
ᱩᱫᱩᱜᱛᱮ
ᱩᱫᱩᱜᱟ
ᱩᱫᱩᱜᱤᱜ
ᱩᱫᱩᱜᱤᱡ
ᱩᱫᱩᱜᱤᱦ
ᱩᱫᱩᱜᱤᱭᱟ
ᱩᱫᱩᱜᱤᱭᱟᱹ
ᱩᱫᱩᱜᱽ
ᱩᱫᱫᱤᱱ
ᱩᱫᱮᱞᱟ
ᱩᱫᱷᱚᱢ
ᱩᱫᱷᱚᱢᱯᱩᱨ
ᱩᱫᱽ
ᱩᱫᱽᱜᱟ
ᱩᱫᱽᱜᱟᱣ
ᱩᱫᱽᱜᱟᱹᱣ
ᱩᱫᱽᱜᱟᱹᱨ
ᱩᱫᱽᱜᱤᱨ
ᱩᱫᱽᱫᱮᱥᱭᱚ
ᱩᱭ
ᱩᱭᱜᱷᱩᱨ
ᱩᱭᱞᱤᱭᱟᱢ
ᱩᱭᱦᱟ
ᱩᱭᱦᱟᱨ
ᱩᱭᱦᱟᱹᱨ
ᱩᱭᱦᱟᱹᱨᱟ
ᱩᱭᱦᱟᱹᱨᱟᱱ
ᱩᱯ
ᱩᱯᱚ
ᱩᱯᱚᱞ
ᱩᱯᱚᱠᱩᱞ
ᱩᱯᱚᱡᱟᱛᱤ
ᱩᱯᱚᱡᱮᱞᱟ
ᱩᱯᱚᱡᱮᱞᱟᱠᱚ
ᱩᱯᱚᱢᱚᱦᱟᱫᱮᱥ
ᱩᱯᱚᱢᱟᱦᱟᱫᱤᱥᱚᱢ
ᱩᱯᱚᱢᱟᱦᱫᱮᱥ
ᱩᱯᱚᱥᱛᱟᱱ
ᱩᱯᱚᱫᱤᱯ
ᱩᱯᱚᱱᱤᱵᱮᱥ
ᱩᱯᱜᱨᱚᱦᱚ
ᱩᱯᱟ
ᱩᱯᱟᱫᱟᱱ
ᱩᱯᱟᱫᱷᱤ
ᱩᱯᱟᱫᱷᱤᱭ
ᱩᱯᱟᱭ
ᱩᱯᱟᱹᱞ
ᱩᱯᱟᱹᱥ
ᱩᱯᱟᱹᱫᱟᱱ
ᱩᱯᱟᱹᱫᱷᱤ
ᱩᱯᱟᱹᱭ
ᱩᱯᱠᱟ
ᱩᱯᱠᱟᱹᱨᱚᱜ
ᱩᱯᱠᱨᱚᱢ
ᱩᱯᱠᱷᱚᱸᱰ
ᱩᱯᱡᱮᱞᱟ
ᱩᱯᱢᱟᱦᱟᱫᱤᱯ
ᱩᱯᱦᱟᱨ
ᱩᱯᱨᱤᱭᱟ
ᱩᱯᱨᱩᱢ
ᱩᱯᱨᱩᱢᱚᱜ
ᱩᱯᱨᱩᱢᱮ
ᱩᱯᱨᱮᱛᱤ
ᱩᱯᱩᱨᱩᱢ
ᱩᱯᱩᱨᱵᱮᱰᱟ
ᱩᱯᱫᱚᱨᱭᱟ
ᱩᱯᱭᱟᱺᱥ
ᱩᱯᱮᱞ
ᱩᱯᱮᱱᱫᱽᱨᱚ
ᱩᱯᱱᱚᱜᱚᱨ
ᱩᱯᱱᱟᱜᱟᱨ
ᱩᱯᱲᱩᱢ
ᱩᱯᱳ
ᱩᱯᱳᱡᱤᱞᱟ
ᱩᱯᱳᱡᱮᱞᱟ
ᱩᱯᱳᱱᱟᱭᱥ
ᱩᱯᱳᱱᱭᱟᱥ
ᱩᱯᱼᱦᱚᱱᱚᱛ
ᱩᱰ
ᱩᱰᱟ
ᱩᱰᱟᱜ
ᱩᱰᱟᱹᱜ
ᱩᱰᱟᱹᱜᱼᱟ
ᱩᱰᱟᱹᱣ
ᱩᱰᱟᱹᱣᱚᱜ
ᱩᱰᱟᱹᱣᱜ
ᱩᱰᱟᱹᱱ
ᱩᱰᱟᱹᱱᱟᱰᱟ
ᱩᱰᱤ
ᱩᱰᱤᱡ
ᱩᱰᱤᱥᱟ
ᱩᱰᱤᱭᱟ
ᱩᱰᱤᱭᱟᱹ
ᱩᱰᱦᱟ
ᱩᱰᱩᱜ
ᱩᱰᱩᱜᱽ
ᱩᱰᱩᱝ
ᱩᱰᱩᱠ
ᱩᱰᱩᱠᱚᱜ
ᱩᱰᱩᱠᱚᱜᱼᱟ
ᱩᱰᱩᱯᱤ
ᱩᱰᱷᱟ
ᱩᱰᱷᱟᱹᱣ
ᱩᱰᱷᱟᱹᱱ
ᱩᱱ
ᱩᱱᱚᱠᱛᱚ
ᱩᱱᱟ
ᱩᱱᱟᱜ
ᱩᱱᱟᱠᱚᱴᱤ
ᱩᱱᱟᱹᱜ
ᱩᱱᱟᱹᱜᱵᱷᱩᱨ
ᱩᱱᱠᱚ
ᱩᱱᱠᱚᱣᱟᱜ
ᱩᱱᱠᱟ
ᱩᱱᱠᱟᱱ
ᱩᱱᱠᱤᱱ
ᱩᱱᱠᱤᱱᱟ
ᱩᱱᱠᱤᱱᱟᱜ
ᱩᱱᱠᱩ
ᱩᱱᱠᱩᱣᱟᱜ
ᱩᱱᱠᱩᱭ
ᱩᱱᱠᱷᱚᱱ
ᱩᱱᱡᱚᱠᱷᱟᱜ
ᱩᱱᱡᱚᱦᱚ
ᱩᱱᱡᱚᱦᱚᱜ
ᱩᱱᱡᱷᱚᱜ
ᱩᱱᱡᱷᱚᱜᱤᱡ
ᱩᱱᱤ
ᱩᱱᱤᱜᱮ
ᱩᱱᱤᱠᱤᱱ
ᱩᱱᱤᱥᱟᱶ
ᱩᱱᱤᱨᱤᱱ
ᱩᱱᱤᱨᱤᱱᱤᱡ
ᱩᱱᱤᱨᱮᱱ
ᱩᱱᱤᱨᱮᱱᱤᱡ
ᱩᱱᱤᱫᱚ
ᱩᱱᱤᱫᱚᱭ
ᱩᱱᱤᱭ
ᱩᱱᱤᱭᱚᱱ
ᱩᱱᱤᱭᱟ
ᱩᱱᱤᱭᱟᱜ
ᱩᱱᱤᱭᱟᱹᱜ
ᱩᱱᱤᱭᱤᱡ
ᱩᱱᱤᱭᱮ
ᱩᱱᱤᱱ
ᱩᱱᱨᱮ
ᱩᱱᱩ
ᱩᱱᱩᱢ
ᱩᱱᱩᱥᱩᱞ
ᱩᱱᱩᱨᱩᱢ
ᱩᱱᱩᱫᱩᱜ
ᱩᱱᱩᱭᱦᱟ
ᱩᱱᱩᱭᱦᱟᱹᱨ
ᱩᱱᱫᱚ
ᱩᱱᱱᱚᱛᱤ
ᱩᱱᱱᱚᱭᱚᱱ
ᱩᱱᱱᱟᱣ
ᱩᱱᱱᱤ
ᱩᱲᱟᱹᱫ
ᱩᱲᱤᱡ
ᱩᱲᱤᱥᱟ
ᱩᱲᱤᱥᱥᱟ
ᱩᱲᱤᱭᱟ
ᱩᱲᱫᱩ
ᱩᱴᱤ
ᱩᱴᱱᱟᱹᱣ
ᱩᱴᱷᱟᱹᱣ
ᱩᱴᱷᱱᱟᱹᱜ
ᱩᱴᱷᱱᱟᱹᱣ
ᱩᱵ
ᱩᱵᱮᱨ
ᱩᱵᱽᱞᱟᱣ
ᱩᱸᱴ
ᱪ
ᱪᱚ
ᱪᱚᱛᱩᱨᱵᱮᱫᱤ
ᱪᱚᱝ
ᱪᱚᱞ
ᱪᱚᱞᱚ
ᱪᱚᱞᱚᱛ
ᱪᱚᱞᱚᱪᱤᱛᱨᱚ
ᱪᱚᱞᱚᱪᱤᱛᱽᱨᱚ
ᱪᱚᱞᱚᱱ
ᱪᱚᱞᱚᱱᱵᱤᱞ
ᱪᱚᱞᱚᱱᱼᱪᱤᱛᱟᱹᱨ
ᱪᱚᱞᱟᱱ
ᱪᱚᱞᱤᱛ
ᱪᱚᱠ
ᱪᱚᱠᱚᱨᱵᱚᱨᱛᱷᱤ
ᱪᱚᱠᱞᱮᱴ
ᱪᱚᱠᱟ
ᱪᱚᱠᱟᱜ
ᱪᱚᱠᱨᱚ
ᱪᱚᱠᱨᱚᱫᱷᱚᱨᱯᱩᱨ
ᱪᱚᱠᱨᱚᱵᱚᱨᱛᱤ
ᱪᱚᱢᱚᱱ
ᱪᱚᱢᱯᱟ
ᱪᱚᱢᱯᱟᱣᱚᱛ
ᱪᱚᱢᱯᱟᱨᱚᱱ
ᱪᱚᱢᱯᱭᱟᱱᱥᱤᱯ
ᱪᱚᱢᱯᱷᱟᱭ
ᱪᱚᱢᱵᱚᱞ
ᱪᱚᱣᱠ
ᱪᱚᱣᱠᱟ
ᱪᱚᱣᱦᱟᱱ
ᱪᱚᱣᱨᱟᱭ
ᱪᱚᱣᱩᱫᱷᱩᱨᱤ
ᱪᱚᱣᱫᱷᱚᱨᱤ
ᱪᱚᱣᱫᱷᱨᱤ
ᱪᱚᱣᱫᱷᱩᱨᱤ
ᱪᱚᱣᱲᱟ
ᱪᱚᱣᱵᱮ
ᱪᱚᱦᱚᱲ
ᱪᱚᱧᱪᱞᱟᱱᱤ
ᱪᱚᱨ
ᱪᱚᱨᱚᱠ
ᱪᱚᱨᱚᱠᱟ
ᱪᱚᱨᱚᱬ
ᱪᱚᱨᱚᱬᱡᱤᱛ
ᱪᱚᱨᱚᱱ
ᱪᱚᱨᱠᱷᱤ
ᱪᱚᱨᱤ
ᱪᱚᱨᱤᱛ
ᱪᱚᱨᱤᱛᱨᱚ
ᱪᱚᱨᱪ
ᱪᱚᱨᱪᱟ
ᱪᱚᱬᱮ
ᱪᱚᱭ
ᱪᱚᱭᱛᱚᱱ
ᱪᱚᱭᱛᱚᱱᱭᱚ
ᱪᱚᱯᱚᱛ
ᱪᱚᱯᱚᱫ
ᱪᱚᱯᱨᱟ
ᱪᱚᱯᱲᱟ
ᱪᱚᱰᱷᱮᱭᱤ
ᱪᱚᱱᱫᱚᱱ
ᱪᱚᱱᱫᱚᱱᱟ
ᱪᱚᱱᱫᱚᱱᱠᱤᱭᱟᱨᱤ
ᱪᱚᱱᱫᱨᱚ
ᱪᱚᱱᱫᱨᱚᱥᱮᱠᱷᱚᱨ
ᱪᱚᱱᱫᱨᱟ
ᱪᱚᱱᱫᱽᱨᱚ
ᱪᱚᱱᱫᱽᱨᱚᱠᱳᱱᱟ
ᱪᱚᱱᱫᱽᱨᱚᱭᱟᱱ
ᱪᱚᱱᱫᱽᱨᱚᱱ
ᱪᱚᱱᱫᱽᱨᱤᱠᱟ
ᱪᱚᱱᱰᱤ
ᱪᱚᱱᱰᱤᱜᱚᱰ
ᱪᱚᱱᱰᱤᱜᱚᱲ
ᱪᱚᱱᱰᱤᱞ
ᱪᱚᱱᱰᱤᱫᱟᱥ
ᱪᱚᱲᱟᱣ
ᱪᱚᱲᱟᱣᱜ
ᱪᱚᱲᱪᱩᱲᱤ
ᱪᱚᱴ
ᱪᱚᱴᱚᱯᱟᱫᱷᱭᱟᱭ
ᱪᱚᱴᱟᱛ
ᱪᱚᱴᱨᱮ
ᱪᱚᱴᱴᱚᱜᱨᱟᱢ
ᱪᱚᱴᱴᱚᱜᱽᱨᱟᱢ
ᱪᱚᱸᱫᱟ
ᱪᱚᱸᱫᱨᱚ
ᱪᱚᱸᱫᱽᱨᱚ
ᱪᱚᱸᱫᱽᱨᱚᱜᱤᱨᱤ
ᱪᱚᱸᱫᱽᱨᱚᱯᱩᱨ
ᱪᱚᱸᱫᱽᱨᱚᱯᱩᱨᱟ
ᱪᱚᱸᱫᱽᱨᱚᱵᱟᱵᱩ
ᱪᱚᱸᱫᱽᱨᱟ
ᱪᱚᱸᱱᱫᱚᱱ
ᱪᱟ
ᱪᱟᱛᱚᱢ
ᱪᱟᱛᱨᱟ
ᱪᱟᱜ
ᱪᱟᱝᱜᱟ
ᱪᱟᱝᱜᱷᱟ
ᱪᱟᱝᱞᱟᱝ
ᱪᱟᱝᱠᱤ
ᱪᱟᱝᱲᱟ
ᱪᱟᱞ
ᱪᱟᱞᱟ
ᱪᱟᱞᱟᱜ
ᱪᱟᱞᱟᱜᱟᱜ
ᱪᱟᱞᱟᱜᱼᱟ
ᱪᱟᱞᱟᱠ
ᱪᱟᱞᱟᱣ
ᱪᱟᱞᱟᱣᱟ
ᱪᱟᱞᱟᱣᱮᱱ
ᱪᱟᱞᱟᱣᱮᱱᱟ
ᱪᱟᱞᱟᱣᱱᱟ
ᱪᱟᱞᱟᱱ
ᱪᱟᱞᱩ
ᱪᱟᱞᱩᱜ
ᱪᱟᱞᱩᱠᱭᱚ
ᱪᱟᱞᱮᱫ
ᱪᱟᱞᱱᱤ
ᱪᱟᱠᱟ
ᱪᱟᱠᱟᱨ
ᱪᱟᱠᱢᱟ
ᱪᱟᱠᱤ
ᱪᱟᱠᱨᱟᱣᱟᱨᱛᱤ
ᱪᱟᱠᱨᱟᱵᱚᱨᱛᱤ
ᱪᱟᱠᱨᱤ
ᱪᱟᱠᱷᱟ
ᱪᱟᱢ
ᱪᱟᱢᱚᱞᱤ
ᱪᱟᱢᱚᱪ
ᱪᱟᱢᱨᱟᱡᱽᱱᱚᱜᱚᱨ
ᱪᱟᱢᱯᱟ
ᱪᱟᱢᱯᱟᱨᱚᱱ
ᱪᱟᱢᱯᱟᱨᱟᱱ
ᱪᱟᱢᱯᱟᱴᱟᱣ
ᱪᱟᱢᱯᱤᱭᱚᱱ
ᱪᱟᱢᱯᱤᱭᱚᱱᱥᱤᱯ
ᱪᱟᱢᱯᱤᱭᱚᱱᱮ
ᱪᱟᱢᱯᱤᱭᱟᱱ
ᱪᱟᱢᱯᱤᱭᱟᱱᱥᱤᱯ
ᱪᱟᱢᱯᱷᱮᱞ
ᱪᱟᱢᱲᱟ
ᱪᱟᱢᱳᱨᱳ
ᱪᱟᱢᱵᱟ
ᱪᱟᱣ
ᱪᱟᱣᱞᱟ
ᱪᱟᱣᱞᱮ
ᱪᱟᱣᱨᱟ
ᱪᱟᱣᱰᱟᱹᱞ
ᱪᱟᱥ
ᱪᱟᱥᱚᱜ
ᱪᱟᱥᱟ
ᱪᱟᱥᱢᱟ
ᱪᱟᱥᱵᱟᱥ
ᱪᱟᱥᱼᱟ
ᱪᱟᱥᱼᱵᱟᱥ
ᱪᱟᱦᱟ
ᱪᱟᱦᱟᱵ
ᱪᱟᱨ
ᱪᱟᱨᱜᱷᱟᱴ
ᱪᱟᱨᱞᱤ
ᱪᱟᱨᱞᱥ
ᱪᱟᱨᱞᱮᱥ
ᱪᱟᱨᱟ
ᱪᱟᱨᱠᱷᱟ
ᱪᱟᱨᱡᱽ
ᱪᱟᱨᱢᱤ
ᱪᱟᱨᱤᱛᱨᱟ
ᱪᱟᱨᱤᱴᱤ
ᱪᱟᱨᱦᱟᱣ
ᱪᱟᱨᱩ
ᱪᱟᱨᱪ
ᱪᱟᱨᱪᱟ
ᱪᱟᱨᱪᱟᱣ
ᱪᱟᱨᱪᱟᱭ
ᱪᱟᱨᱪᱤᱞ
ᱪᱟᱨᱮᱡ
ᱪᱟᱨᱴᱟᱨ
ᱪᱟᱪᱚ
ᱪᱟᱪᱞᱟᱜ
ᱪᱟᱪᱞᱟᱣ
ᱪᱟᱪᱞᱟᱣᱚᱜ
ᱪᱟᱪᱞᱟᱣᱜ
ᱪᱟᱪᱞᱟᱣᱟ
ᱪᱟᱪᱞᱟᱣᱤᱡ
ᱪᱟᱪᱞᱟᱣᱤᱭᱟ
ᱪᱟᱪᱞᱟᱣᱤᱭᱟᱹ
ᱪᱟᱪᱞᱟᱣᱭᱚᱜ
ᱪᱟᱪᱟ
ᱪᱟᱪᱟᱞᱟᱣ
ᱪᱟᱪᱳ
ᱪᱟᱫᱚ
ᱪᱟᱫᱚᱨ
ᱪᱟᱫᱽ
ᱪᱟᱭ
ᱪᱟᱭᱞᱚᱢ
ᱪᱟᱭᱤᱞᱰ
ᱪᱟᱭᱨᱤᱭᱟᱞᱤ
ᱪᱟᱭᱨᱮᱛ
ᱪᱟᱭᱱᱟ
ᱪᱟᱭᱱᱤ
ᱪᱟᱭᱱᱤᱡ
ᱪᱟᱭᱱᱤᱡᱽ
ᱪᱟᱭᱱᱤᱥ
ᱪᱟᱯ
ᱪᱟᱯᱚᱞ
ᱪᱟᱯᱟ
ᱪᱟᱯᱟᱞ
ᱪᱟᱯᱟᱫ
ᱪᱟᱯᱟᱭ
ᱪᱟᱯᱮ
ᱪᱟᱯᱲᱟ
ᱪᱟᱱ
ᱪᱟᱱᱚᱠᱠᱚ
ᱪᱟᱱᱚᱪ
ᱪᱟᱱᱟᱪ
ᱪᱟᱱᱥᱮᱞᱚᱨ
ᱪᱟᱱᱩ
ᱪᱟᱱᱫᱚ
ᱪᱟᱱᱫᱚᱭ
ᱪᱟᱱᱫᱟ
ᱪᱟᱱᱫᱤᱯᱩᱨ
ᱪᱟᱱᱫᱽ
ᱪᱟᱱᱫᱽᱨᱟ
ᱪᱟᱱᱮᱞ
ᱪᱟᱱᱰᱚ
ᱪᱟᱱᱰᱤᱞ
ᱪᱟᱱᱰᱮᱞ
ᱪᱟᱱᱰᱮᱞᱟ
ᱪᱟᱱᱰᱵᱚᱞ
ᱪᱟᱲ
ᱪᱟᱲᱦᱟᱣ
ᱪᱟᱴ
ᱪᱟᱴᱟᱨᱡᱤ
ᱪᱟᱴᱟᱱᱤ
ᱪᱟᱴᱢᱚᱦᱚᱨ
ᱪᱟᱴᱱᱤ
ᱪᱟᱵᱟ
ᱪᱟᱵᱟᱜ
ᱪᱟᱵᱟᱜᱼᱟ
ᱪᱟᱵᱟᱭ
ᱪᱟᱵᱟᱭᱟ
ᱪᱟᱵᱟᱭᱮᱱ
ᱪᱟᱵᱟᱭᱮᱱᱟ
ᱪᱟᱶᱟᱨ
ᱪᱟᱸᱜᱟ
ᱪᱟᱸᱜᱽᱞᱟᱸᱜᱽ
ᱪᱟᱸᱠᱤ
ᱪᱟᱸᱫ
ᱪᱟᱸᱫᱚ
ᱪᱟᱸᱫᱚᱞᱤ
ᱪᱟᱸᱫᱚᱠᱤᱭᱟ
ᱪᱟᱸᱫᱚᱠᱤᱭᱟᱹ
ᱪᱟᱸᱫᱚᱣᱟᱜ
ᱪᱟᱸᱫᱚᱭ
ᱪᱟᱸᱫᱟ
ᱪᱟᱸᱫᱟᱱ
ᱪᱟᱸᱫᱤ
ᱪᱟᱸᱫᱤᱠ
ᱪᱟᱸᱫᱩ
ᱪᱟᱸᱫᱮᱨ
ᱪᱟᱸᱫᱳ
ᱪᱟᱸᱫᱽ
ᱪᱟᱸᱫᱽᱨᱟ
ᱪᱟᱸᱫᱽᱯᱩᱨ
ᱪᱟᱸᱫᱽᱱᱤ
ᱪᱟᱸᱭᱵᱟᱥᱟ
ᱪᱟᱹᱛ
ᱪᱟᱹᱞᱤ
ᱪᱟᱹᱞᱩ
ᱪᱟᱹᱞᱩᱜ
ᱪᱟᱹᱠᱨᱤ
ᱪᱟᱹᱠᱨᱤᱭ
ᱪᱟᱹᱠᱩᱞᱤᱭᱟᱹ
ᱪᱟᱹᱢᱩᱪ
ᱪᱟᱹᱢᱯᱟᱹᱭ
ᱪᱟᱹᱣᱠᱟᱹ
ᱪᱟᱹᱥ
ᱪᱟᱹᱥᱤ
ᱪᱟᱹᱨᱤᱛ
ᱪᱟᱹᱨᱤᱛᱮ
ᱪᱟᱹᱭ
ᱪᱟᱹᱭᱜᱟᱲ
ᱪᱟᱹᱭᱭᱩ
ᱪᱟᱹᱰᱤ
ᱪᱟᱹᱴᱟᱹᱭ
ᱪᱟᱹᱴᱟᱹᱱᱤ
ᱪᱟᱹᱴᱱᱤ
ᱪᱤ
ᱪᱤᱛ
ᱪᱤᱛᱚᱞ
ᱪᱤᱛᱚᱞᱢᱟᱨᱤ
ᱪᱤᱛᱚᱨᱚᱰᱟ
ᱪᱤᱛᱚᱨᱯᱩᱨ
ᱪᱤᱛᱛᱚ
ᱪᱤᱛᱛᱚᱨ
ᱪᱤᱛᱛᱚᱨᱚᱧᱡᱚᱱ
ᱪᱤᱛᱛᱚᱨᱜᱚᱲ
ᱪᱤᱛᱛᱚᱲᱜᱚᱲ
ᱪᱤᱛᱛᱩᱨ
ᱪᱤᱛᱟ
ᱪᱤᱛᱟᱨ
ᱪᱤᱛᱟᱨᱯᱩᱨ
ᱪᱤᱛᱟᱹᱨ
ᱪᱤᱛᱟᱹᱨᱤᱭᱟᱹ
ᱪᱤᱛᱟᱹᱨᱤᱭᱟᱹᱭ
ᱪᱤᱛᱟᱹᱨᱮ
ᱪᱤᱛᱣᱚᱱ
ᱪᱤᱛᱤ
ᱪᱤᱛᱨᱚ
ᱪᱤᱛᱨᱚᱠᱩᱴ
ᱪᱤᱛᱨᱚᱫᱩᱨᱜᱽ
ᱪᱤᱛᱨᱟ
ᱪᱤᱛᱨᱟᱹ
ᱪᱤᱛᱩᱨ
ᱪᱤᱞᱟᱨᱟᱭ
ᱪᱤᱞᱢᱟᱨᱤ
ᱪᱤᱞᱤ
ᱪᱤᱞᱤᱠᱟ
ᱪᱤᱠ
ᱪᱤᱠᱟ
ᱪᱤᱠᱟᱜᱳ
ᱪᱤᱠᱟᱹ
ᱪᱤᱠᱟᱹᱛᱮ
ᱪᱤᱠᱟᱹᱬ
ᱪᱤᱠᱠᱚᱵᱚᱞᱞᱟᱯᱩᱨ
ᱪᱤᱠᱢᱚᱜᱚᱞᱩᱨ
ᱪᱤᱠᱤ
ᱪᱤᱠᱤᱭ
ᱪᱤᱠᱮᱱ
ᱪᱤᱠᱷᱱᱟᱹ
ᱪᱤᱡᱽ
ᱪᱤᱥᱚᱢ
ᱪᱤᱨ
ᱪᱤᱨᱜᱟ
ᱪᱤᱨᱜᱟᱹᱞ
ᱪᱤᱨᱟ
ᱪᱤᱨᱟᱝ
ᱪᱤᱨᱟᱹ
ᱪᱤᱨᱤᱨᱵᱚᱱᱫᱚᱨ
ᱪᱤᱨᱤᱭᱟᱹ
ᱪᱤᱨᱩ
ᱪᱤᱪᱤᱫᱤᱭᱟᱹ
ᱪᱤᱫ
ᱪᱤᱫᱟᱢᱵᱚᱨᱚᱢ
ᱪᱤᱭᱟ
ᱪᱤᱭᱟᱝ
ᱪᱤᱭᱟᱹ
ᱪᱤᱯ
ᱪᱤᱯᱨᱩᱜ
ᱪᱤᱯᱨᱩᱡ
ᱪᱤᱯᱷ
ᱪᱤᱱ
ᱪᱤᱱᱛᱟ
ᱪᱤᱱᱛᱟᱹ
ᱪᱤᱱᱟ
ᱪᱤᱱᱟᱹ
ᱪᱤᱱᱟᱼᱛᱤᱵᱵᱚᱛᱤ
ᱪᱤᱱᱤ
ᱪᱤᱱᱥᱩᱨᱟ
ᱪᱤᱱᱦᱟ
ᱪᱤᱱᱦᱟᱣ
ᱪᱤᱱᱦᱟᱹ
ᱪᱤᱱᱦᱟᱹᱣ
ᱪᱤᱱᱦᱟᱹᱯ
ᱪᱤᱱᱱᱟ
ᱪᱤᱴᱷᱤ
ᱪᱤᱸᱪᱣᱟᱲ
ᱪᱤᱸᱰᱩ
ᱪᱦᱟᱯᱟ
ᱪᱨᱤ
ᱪᱩ
ᱪᱩᱛᱤᱭᱟ
ᱪᱩᱝᱞᱤ
ᱪᱩᱞᱦᱟᱹ
ᱪᱩᱠᱛᱤ
ᱪᱩᱠᱟᱜ
ᱪᱩᱠᱟᱹᱜ
ᱪᱩᱢᱵᱚᱠ
ᱪᱩᱣᱟᱰᱟᱝᱜᱟ
ᱪᱩᱣᱟᱹᱯᱟᱹᱬᱤ
ᱪᱩᱦᱩᱞ
ᱪᱩᱨ
ᱪᱩᱨᱚᱜ
ᱪᱩᱨᱟ
ᱪᱩᱨᱤᱛ
ᱪᱩᱨᱤᱛᱤᱭᱟᱹ
ᱪᱩᱨᱩ
ᱪᱩᱨᱩᱡ
ᱪᱩᱪᱩᱜ
ᱪᱩᱭᱟᱺᱜ
ᱪᱩᱯᱠᱮ
ᱪᱩᱯᱤ
ᱪᱩᱯᱩᱫ
ᱪᱩᱱ
ᱪᱩᱱᱟ
ᱪᱩᱱᱟᱣ
ᱪᱩᱱᱤᱵᱟᱞᱟ
ᱪᱩᱱᱩ
ᱪᱩᱱᱰᱤ
ᱪᱩᱲᱟ
ᱪᱩᱲᱟᱪᱟᱸᱫᱽᱯᱩᱨ
ᱪᱩᱲᱟᱹ
ᱪᱩᱲᱤ
ᱪᱩᱲᱤᱱ
ᱪᱩᱴᱤ
ᱪᱩᱴᱩᱬᱤ
ᱪᱩᱴᱬᱤ
ᱪᱩᱵᱷᱟᱥ
ᱪᱩᱸᱪᱩᱲᱟ
ᱪᱩᱸᱰᱤ
ᱪᱮ
ᱪᱮᱛᱚᱱ
ᱪᱮᱛᱟᱱ
ᱪᱮᱛᱟᱱᱛᱮ
ᱪᱮᱛᱟᱱᱨᱮ
ᱪᱮᱛᱟᱱᱮ
ᱪᱮᱛᱨᱚ
ᱪᱮᱛᱮ
ᱪᱮᱛᱮᱫᱤᱭᱟ
ᱪᱮᱛᱮᱫᱤᱭᱟᱹ
ᱪᱮᱛᱱᱟ
ᱪᱮᱝ
ᱪᱮᱞᱟ
ᱪᱮᱞᱟᱝ
ᱪᱮᱞᱟᱭ
ᱪᱮᱞᱮᱠᱟ
ᱪᱮᱞᱮᱱᱡᱟᱨᱥ
ᱪᱮᱠ
ᱪᱮᱠᱟ
ᱪᱮᱠᱟᱛᱮ
ᱪᱮᱠᱟᱭᱮᱱᱟ
ᱪᱮᱠᱷᱚᱵᱽ
ᱪᱮᱠᱷᱳᱵᱽ
ᱪᱮᱢᱮᱧ
ᱪᱮᱢᱮᱫ
ᱪᱮᱢᱮᱫᱚᱜ
ᱪᱮᱢᱯᱤᱭᱟᱱ
ᱪᱮᱢᱯᱤᱭᱟᱱᱥᱤᱯ
ᱪᱮᱢᱵᱟᱨ
ᱪᱮᱥ
ᱪᱮᱥᱴᱟ
ᱪᱮᱦᱨᱟ
ᱪᱮᱦᱨᱟᱦᱟ
ᱪᱮᱦᱨᱟᱱ
ᱪᱮᱨᱚ
ᱪᱮᱨᱟᱱ
ᱪᱮᱨᱤ
ᱪᱮᱨᱦᱟ
ᱪᱮᱨᱳᱠᱤ
ᱪᱮᱪᱮᱫ
ᱪᱮᱪᱮᱫᱤᱭᱟ
ᱪᱮᱪᱮᱫᱤᱭᱟᱹ
ᱪᱮᱪᱮᱱ
ᱪᱮᱫ
ᱪᱮᱫᱚᱜ
ᱪᱮᱫᱞᱮᱠᱟ
ᱪᱮᱫᱟ
ᱪᱮᱫᱟᱜ
ᱪᱮᱫᱟᱜᱥᱮ
ᱪᱮᱫᱤ
ᱪᱮᱫᱮᱛ
ᱪᱮᱬᱮ
ᱪᱮᱬᱮᱭ
ᱪᱮᱭᱟᱨ
ᱪᱮᱭᱟᱨᱢᱮᱱ
ᱪᱮᱭᱟᱨᱯᱚᱨᱥᱚᱱ
ᱪᱮᱭᱟᱨᱯᱟᱨᱥᱟᱱ
ᱪᱮᱭᱱ
ᱪᱮᱭᱱᱚᱞ
ᱪᱮᱯᱞᱤᱱ
ᱪᱮᱯᱮᱡ
ᱪᱮᱯᱴᱟᱨ
ᱪᱮᱱ
ᱪᱮᱱᱟᱞ
ᱪᱮᱱᱟᱭ
ᱪᱮᱱᱟᱵ
ᱪᱮᱱᱮᱞ
ᱪᱮᱱᱯᱩᱨ
ᱪᱮᱱᱱᱟ
ᱪᱮᱱᱱᱟᱭ
ᱪᱮᱱᱱᱟᱭᱤ
ᱪᱮᱲᱮ
ᱪᱮᱴᱟᱨᱡᱤ
ᱪᱮᱴᱟᱱ
ᱪᱮᱴᱨᱟ
ᱪᱮᱸᱜᱚᱞᱯᱚᱴᱴᱩ
ᱪᱮᱸᱜᱷᱟ
ᱪᱮᱸᱬᱮ
ᱪᱳ
ᱪᱳᱠᱴᱟᱣ
ᱪᱳᱣᱜᱟᱪᱷᱟ
ᱪᱳᱣᱫᱷᱩᱨᱤ
ᱪᱳᱫᱷᱚᱩᱨᱤ
ᱪᱳᱯᱨᱟ
ᱪᱳᱯᱰᱟ
ᱪᱳᱰᱚᱜᱚᱝᱜᱚ
ᱪᱷᱚ
ᱪᱷᱚᱛᱚᱨᱯᱩᱨ
ᱪᱷᱚᱛᱛᱤᱥᱜᱚᱲ
ᱪᱷᱚᱛᱛᱤᱥᱜᱚᱲᱤ
ᱪᱷᱚᱛᱤᱥᱜᱚᱰ
ᱪᱷᱚᱛᱤᱥᱜᱚᱲ
ᱪᱷᱚᱛᱤᱥᱜᱚᱲᱤ
ᱪᱷᱚᱛᱨᱚᱯᱚᱛᱤ
ᱪᱷᱚᱛᱨᱚᱯᱩᱨ
ᱪᱷᱚᱞ
ᱪᱷᱚᱞᱟ
ᱪᱷᱚᱠ
ᱪᱷᱚᱠᱚ
ᱪᱷᱚᱢᱛᱟ
ᱪᱷᱚᱣ
ᱪᱷᱚᱨ
ᱪᱷᱚᱬᱩᱣᱟ
ᱪᱷᱚᱰᱟ
ᱪᱷᱚᱴ
ᱪᱷᱚᱴᱟ
ᱪᱷᱚᱴᱟᱱᱟᱜᱽᱯᱩᱨ
ᱪᱷᱚᱴᱤ
ᱪᱷᱚᱴᱨᱟᱭ
ᱪᱷᱚᱵᱤ
ᱪᱷᱞᱟ
ᱪᱷᱟ
ᱪᱷᱟᱛ
ᱪᱷᱟᱛᱛᱤᱥ
ᱪᱷᱟᱛᱟ
ᱪᱷᱟᱛᱟᱨᱯᱩᱨ
ᱪᱷᱟᱛᱨᱚ
ᱪᱷᱟᱛᱨᱟ
ᱪᱷᱟᱛᱱᱟ
ᱪᱷᱟᱜᱯᱟᱭᱤᱡ
ᱪᱷᱟᱞ
ᱪᱷᱟᱠᱟᱣ
ᱪᱷᱟᱠᱠᱟ
ᱪᱷᱟᱢᱰᱟ
ᱪᱷᱟᱨᱟᱣ
ᱪᱷᱟᱬᱟᱣ
ᱪᱷᱟᱬᱟᱣᱻᱟ
ᱪᱷᱟᱭᱟ
ᱪᱷᱟᱯ
ᱪᱷᱟᱯᱟ
ᱪᱷᱟᱯᱟᱜ
ᱪᱷᱟᱯᱨᱟ
ᱪᱷᱟᱰᱟ
ᱪᱷᱟᱰᱟᱣ
ᱪᱷᱟᱱ
ᱪᱷᱟᱲ
ᱪᱷᱟᱲᱟ
ᱪᱷᱟᱴᱠᱟ
ᱪᱷᱟᱵᱽᱱᱤ
ᱪᱷᱟᱸᱪ
ᱪᱷᱟᱸᱫᱟ
ᱪᱷᱟᱹᱨᱭᱟᱣ
ᱪᱷᱟᱹᱨᱭᱟᱹᱣ
ᱪᱷᱟᱹᱴᱤᱭᱟᱹᱨ
ᱪᱷᱟᱹᱴᱭᱟᱹᱨ
ᱪᱷᱤᱛᱟ
ᱪᱷᱤᱛᱟᱹ
ᱪᱷᱤᱛᱭᱟᱹᱣ
ᱪᱷᱤᱝ
ᱪᱷᱤᱞᱞᱚᱨ
ᱪᱷᱤᱢ
ᱪᱷᱤᱴᱤ
ᱪᱷᱤᱵᱲᱤ
ᱪᱷᱤᱸᱫᱣᱟᱲᱟ
ᱪᱷᱤᱸᱫᱽᱣᱟᱲᱟ
ᱪᱷᱩᱛ
ᱪᱷᱩᱝ
ᱪᱷᱩᱨᱤ
ᱪᱷᱩᱭᱮ
ᱪᱷᱩᱴᱟ
ᱪᱷᱩᱴᱟᱣ
ᱪᱷᱩᱴᱟᱹᱣ
ᱪᱷᱩᱴᱠᱤ
ᱪᱷᱩᱴᱤ
ᱪᱷᱩᱵᱤ
ᱪᱷᱮᱛᱨᱚ
ᱪᱷᱮᱛᱨᱤ
ᱪᱷᱮᱱᱟ
ᱪᱷᱳᱴᱳᱱᱟᱜᱽᱯᱩᱨ
ᱫ
ᱫᱚ
ᱫᱚᱛ
ᱫᱚᱛᱚ
ᱫᱚᱛᱛ
ᱫᱚᱛᱛᱚ
ᱫᱚᱛᱛᱟ
ᱫᱚᱜ
ᱫᱚᱝ
ᱫᱚᱝᱜᱮᱲ
ᱫᱚᱞ
ᱫᱚᱞᱚᱵ
ᱫᱚᱞᱟᱞ
ᱫᱚᱞᱟᱱ
ᱫᱚᱞᱢᱟ
ᱫᱚᱞᱤᱛ
ᱫᱚᱞᱤᱞ
ᱫᱚᱞᱮ
ᱫᱚᱠᱚ
ᱫᱚᱠᱛᱟ
ᱫᱚᱠᱟᱱ
ᱫᱚᱠᱠᱚᱱ
ᱫᱚᱠᱤᱱ
ᱫᱚᱠᱩ
ᱫᱚᱠᱷᱚᱞ
ᱫᱚᱠᱷᱤᱬ
ᱫᱚᱠᱷᱤᱱ
ᱫᱚᱢ
ᱫᱚᱢᱚᱠ
ᱫᱚᱢᱚᱭᱚᱱᱛᱤ
ᱫᱚᱢᱚᱱ
ᱫᱚᱢᱟᱦᱤ
ᱫᱚᱢᱮ
ᱫᱚᱣᱟᱵᱽ
ᱫᱚᱣᱨ
ᱫᱚᱥ
ᱫᱚᱥᱚᱠ
ᱫᱚᱥᱚᱢ
ᱫᱚᱥᱚᱢᱤ
ᱫᱚᱥᱚᱨᱟ
ᱫᱚᱥᱛ
ᱫᱚᱥᱟ
ᱫᱚᱥᱟᱨ
ᱫᱚᱥᱟᱨᱟᱜ
ᱫᱚᱥᱨᱚᱛᱷ
ᱫᱚᱦᱚ
ᱫᱚᱦᱚᱜ
ᱫᱚᱦᱚᱣ
ᱫᱚᱦᱚᱭ
ᱫᱚᱦᱚᱭᱟ
ᱫᱚᱦᱚᱭᱮᱫ
ᱫᱚᱦᱚᱭᱮᱱᱟ
ᱫᱚᱦᱚᱲᱟ
ᱫᱚᱦᱟ
ᱫᱚᱦᱨᱟ
ᱫᱚᱦᱲᱟ
ᱫᱚᱦᱲᱟᱭ
ᱫᱚᱧ
ᱫᱚᱨ
ᱫᱚᱨᱚᱜᱟ
ᱫᱚᱨᱚᱝ
ᱫᱚᱨᱜᱟᱦ
ᱫᱚᱨᱠᱟᱨ
ᱫᱚᱨᱠᱟᱨᱚᱜ
ᱫᱚᱨᱠᱟᱨᱟ
ᱫᱚᱨᱡᱟ
ᱫᱚᱨᱡᱤ
ᱫᱚᱨᱤᱭᱟ
ᱫᱚᱨᱤᱵ
ᱫᱚᱨᱤᱵᱽ
ᱫᱚᱨᱥᱚᱠ
ᱫᱚᱨᱥᱚᱱ
ᱫᱚᱨᱥᱚᱱᱟ
ᱫᱚᱨᱭᱟ
ᱫᱚᱨᱮ
ᱫᱚᱨᱮᱭᱟ
ᱫᱚᱨᱵᱟᱨ
ᱫᱚᱨᱵᱟᱨᱜᱟᱲ
ᱫᱚᱨᱵᱟᱨᱤᱭᱟᱹ
ᱫᱚᱨᱵᱷᱚᱝᱜᱟ
ᱫᱚᱭ
ᱫᱚᱭᱟ
ᱫᱚᱭᱟᱞ
ᱫᱚᱭᱮ
ᱫᱚᱭᱱᱤᱠ
ᱫᱚᱯᱛᱚᱨ
ᱫᱚᱯᱷᱛᱚᱨ
ᱫᱚᱱ
ᱫᱚᱲ
ᱫᱚᱲᱚᱢ
ᱫᱚᱲᱦᱚ
ᱫᱚᱲᱦᱟ
ᱫᱚᱲᱦᱟᱛᱮ
ᱫᱚᱵᱚ
ᱫᱚᱵᱚᱱ
ᱫᱚᱵᱚᱲ
ᱫᱚᱵᱟᱹᱴᱤ
ᱫᱚᱵᱷᱟ
ᱫᱚᱵᱷᱟᱹᱴᱤᱭᱟᱹ
ᱫᱚᱷᱚ
ᱫᱚᱸ
ᱫᱚᱸᱭ
ᱫᱟ
ᱫᱟᱛ
ᱫᱟᱛᱛᱟ
ᱫᱟᱛᱟ
ᱫᱟᱛᱤᱭᱟ
ᱫᱟᱜ
ᱫᱟᱜᱟ
ᱫᱟᱜᱮᱥᱛᱟᱱ
ᱫᱟᱜᱵᱷᱟᱯ
ᱫᱟᱜᱼᱡᱟᱹᱨᱤ
ᱫᱟᱜᱼᱮ
ᱫᱟᱜᱼᱵᱤᱡᱽᱞᱤ
ᱫᱟᱜᱽ
ᱫᱟᱝ
ᱫᱟᱞ
ᱫᱟᱞᱚᱵ
ᱫᱟᱞᱚᱵᱟ
ᱫᱟᱞᱟ
ᱫᱟᱞᱟᱱ
ᱫᱟᱠ
ᱫᱟᱠᱟ
ᱫᱟᱠᱠᱟᱱ
ᱫᱟᱠᱳᱯ
ᱫᱟᱠᱷᱚᱞ
ᱫᱟᱠᱷᱤᱱ
ᱫᱟᱠᱷᱤᱱᱚ
ᱫᱟᱢ
ᱫᱟᱢᱚᱦ
ᱫᱟᱢᱚᱫᱚᱨ
ᱫᱟᱢᱚᱱ
ᱫᱟᱢᱟᱱ
ᱫᱟᱢᱩᱫᱚᱨ
ᱫᱟᱢᱩᱲᱦᱩᱫᱟ
ᱫᱟᱢᱯᱟᱲᱟ
ᱫᱟᱢᱳᱫᱚᱨ
ᱫᱟᱣ
ᱫᱟᱣᱚᱬᱜᱮᱨᱮ
ᱫᱟᱣᱟᱬ
ᱫᱟᱣᱩᱫᱽ
ᱫᱟᱣᱮ
ᱫᱟᱥ
ᱫᱟᱥᱜᱩᱯᱛᱚ
ᱫᱟᱥᱟᱠ
ᱫᱟᱥᱟᱨ
ᱫᱟᱥᱟᱱᱤ
ᱫᱟᱥᱟᱸᱭ
ᱫᱟᱥᱨᱟᱛᱷ
ᱫᱟᱥᱱᱟ
ᱫᱟᱥᱻᱟᱜ
ᱫᱟᱦ
ᱫᱟᱦᱚ
ᱫᱟᱦᱚᱫᱽ
ᱫᱟᱦᱟᱞ
ᱫᱟᱦᱟᱱᱩ
ᱫᱟᱦᱤ
ᱫᱟᱦᱮ
ᱫᱟᱨ
ᱫᱟᱨᱚᱜᱟ
ᱫᱟᱨᱟ
ᱫᱟᱨᱟᱢ
ᱫᱟᱨᱟᱢᱛᱮ
ᱫᱟᱨᱟᱢᱟ
ᱫᱟᱨᱟᱭ
ᱫᱟᱨᱟᱭᱛᱮ
ᱫᱟᱨᱟᱭᱟ
ᱫᱟᱨᱟᱭᱠᱟᱱ
ᱫᱟᱨᱡᱟ
ᱫᱟᱨᱡᱤᱞᱤᱝ
ᱫᱟᱨᱤ
ᱫᱟᱨᱥᱚᱱᱤᱠ
ᱫᱟᱨᱥᱟᱬ
ᱫᱟᱨᱦᱟ
ᱫᱟᱨᱫᱤᱠ
ᱫᱟᱨᱭᱟ
ᱫᱟᱨᱮ
ᱫᱟᱨᱮᱜ
ᱫᱟᱨᱮᱭ
ᱫᱟᱨᱮᱭᱟ
ᱫᱟᱨᱮᱭᱟᱜ
ᱫᱟᱨᱮᱭᱟᱜᱼᱟ
ᱫᱟᱨᱵᱷᱟᱝᱜᱟ
ᱫᱟᱪᱷᱤᱱ
ᱫᱟᱫᱟ
ᱫᱟᱫᱽ
ᱫᱟᱫᱽᱨᱟ
ᱫᱟᱫᱽᱨᱤ
ᱫᱟᱬᱟ
ᱫᱟᱬᱟᱱ
ᱫᱟᱬᱟᱱᱟ
ᱫᱟᱬᱮ
ᱫᱟᱭ
ᱫᱟᱭᱟ
ᱫᱟᱭᱟᱣᱟᱱ
ᱫᱟᱭᱤᱛᱛᱚ
ᱫᱟᱭᱤᱛᱛᱚᱭ
ᱫᱟᱭᱤᱠ
ᱫᱟᱭᱤᱠᱮ
ᱫᱟᱭᱱᱤᱠ
ᱫᱟᱯᱟᱞ
ᱫᱟᱯᱟᱞᱟ
ᱫᱟᱯᱨᱟᱢ
ᱫᱟᱰᱟᱱ
ᱫᱟᱰᱤᱭᱟᱜ
ᱫᱟᱱ
ᱫᱟᱱᱛᱮᱣᱟᱰᱟ
ᱫᱟᱱᱟ
ᱫᱟᱱᱟᱝ
ᱫᱟᱱᱟᱯᱩᱨ
ᱫᱟᱱᱤ
ᱫᱟᱱᱰᱤ
ᱫᱟᱱᱵᱤᱨ
ᱫᱟᱲᱟ
ᱫᱟᱲᱟᱱ
ᱫᱟᱲᱟᱱᱟ
ᱫᱟᱲᱟᱱᱤᱭᱟᱹ
ᱫᱟᱲᱟᱸ
ᱫᱟᱲᱮ
ᱫᱟᱲᱮᱛᱮ
ᱫᱟᱲᱮᱜ
ᱫᱟᱲᱮᱜᱼᱟ
ᱫᱟᱲᱮᱢ
ᱫᱟᱲᱮᱭ
ᱫᱟᱲᱮᱭᱟ
ᱫᱟᱲᱮᱭᱟᱜ
ᱫᱟᱲᱮᱭᱟᱜᱼᱟ
ᱫᱟᱲᱮᱭᱟᱜᱼᱟᱭ
ᱫᱟᱲᱮᱭᱟᱠᱚ
ᱫᱟᱲᱮᱭᱟᱠᱚᱣᱟ
ᱫᱟᱲᱮᱭᱟᱫ
ᱫᱟᱲᱮᱭᱟᱫᱟ
ᱫᱟᱲᱮᱭᱟᱫᱼᱟ
ᱫᱟᱲᱮᱭᱟᱭᱟ
ᱫᱟᱲᱮᱭᱟᱱ
ᱫᱟᱲᱮᱭᱮᱱᱟ
ᱫᱟᱵ
ᱫᱟᱵᱚᱱ
ᱫᱟᱵᱟᱣ
ᱫᱟᱵᱤ
ᱫᱟᱶ
ᱫᱟᱸᱥᱟᱭ
ᱫᱟᱸᱲᱟ
ᱫᱟᱹ
ᱫᱟᱹᱞ
ᱫᱟᱹᱠᱷᱤᱱ
ᱫᱟᱹᱨᱭᱟᱹ
ᱫᱟᱹᱭ
ᱫᱟᱹᱭᱠᱟ
ᱫᱟᱹᱭᱠᱟᱹ
ᱫᱟᱹᱭᱤᱠ
ᱫᱟᱹᱭᱵᱷᱟᱨ
ᱫᱟᱹᱱᱢᱤ
ᱫᱟᱹᱲ
ᱫᱟᱹᱲᱟ
ᱫᱟᱹᱵᱤ
ᱫᱣᱟᱨᱠᱟ
ᱫᱣᱤᱯ
ᱫᱤ
ᱫᱤᱛᱤ
ᱫᱤᱜᱚᱝᱜᱚᱱᱟ
ᱫᱤᱜᱚᱱᱛᱚ
ᱫᱤᱜᱟᱢᱵᱚᱨ
ᱫᱤᱜᱷᱞᱤᱭᱟ
ᱫᱤᱜᱷᱟ
ᱫᱤᱜᱷᱤ
ᱫᱤᱜᱽ
ᱫᱤᱞ
ᱫᱤᱞᱞᱤ
ᱫᱤᱞᱞᱤᱯ
ᱫᱤᱞᱞᱤᱼᱢᱩᱢᱵᱟᱭ
ᱫᱤᱞᱞᱤᱼᱦᱟᱵᱽᱲᱟ
ᱫᱤᱞᱞᱤᱼᱪᱮᱱᱱᱟᱭ
ᱫᱤᱞᱣᱟᱞᱮ
ᱫᱤᱞᱤ
ᱫᱤᱞᱤᱯ
ᱫᱤᱠ
ᱫᱤᱠᱤ
ᱫᱤᱠᱥᱤᱛ
ᱫᱤᱠᱩ
ᱫᱤᱠᱷᱞᱟ
ᱫᱤᱠᱷᱤᱛ
ᱫᱤᱢ
ᱫᱤᱢᱟᱯᱩᱨ
ᱫᱤᱣ
ᱫᱤᱣᱟᱞᱤ
ᱫᱤᱣᱟᱱ
ᱫᱤᱣᱟᱱᱟ
ᱫᱤᱣᱭᱟ
ᱫᱤᱣᱲᱤ
ᱫᱤᱥ
ᱫᱤᱥᱚᱢ
ᱫᱤᱥᱚᱢᱨᱮ
ᱫᱤᱥᱚᱢᱮ
ᱫᱤᱥᱚᱱ
ᱫᱤᱥᱟ
ᱫᱤᱥᱟᱢ
ᱫᱤᱥᱟᱹ
ᱫᱤᱥᱟᱹᱛᱮ
ᱫᱤᱥᱟᱹᱢ
ᱫᱤᱥᱟᱹᱢᱠᱩ
ᱫᱤᱥᱟᱹᱢᱮ
ᱫᱤᱥᱟᱹᱩᱫᱩᱜ
ᱫᱤᱥᱟᱹᱩᱫᱩᱜᱤᱡ
ᱫᱤᱥᱟᱹᱭ
ᱫᱤᱥᱣᱟ
ᱫᱤᱥᱣᱟᱹ
ᱫᱤᱥᱤ
ᱫᱤᱥᱩᱣᱟ
ᱫᱤᱥᱩᱣᱟᱹ
ᱫᱤᱥᱩᱣᱟᱹᱛᱟᱹᱨᱤ
ᱫᱤᱥᱩᱣᱟᱹᱨᱤ
ᱫᱤᱥᱮᱢ
ᱫᱤᱥᱯᱩᱨ
ᱫᱤᱥᱼᱦᱩᱫᱤᱥ
ᱫᱤᱦᱤᱝ
ᱫᱤᱦᱮ
ᱫᱤᱧ
ᱫᱤᱪᱷᱤᱛ
ᱫᱤᱫᱤ
ᱫᱤᱭᱟ
ᱫᱤᱯ
ᱫᱤᱯᱚ
ᱫᱤᱯᱚᱜ
ᱫᱤᱯᱚᱠ
ᱫᱤᱯᱚᱨ
ᱫᱤᱯᱛᱤ
ᱫᱤᱯᱜᱩᱴ
ᱫᱤᱯᱟ
ᱫᱤᱯᱟᱠ
ᱫᱤᱯᱟᱸᱠᱚᱨ
ᱫᱤᱯᱠᱚ
ᱫᱤᱯᱢᱟᱞᱟ
ᱫᱤᱯᱤᱞ
ᱫᱤᱯᱤᱠᱟ
ᱫᱤᱯᱩ
ᱫᱤᱱ
ᱫᱤᱱᱚᱡᱽᱯᱩᱨ
ᱫᱤᱱᱚᱢ
ᱫᱤᱱᱟ
ᱫᱤᱱᱟᱜ
ᱫᱤᱱᱟᱡᱯᱩᱨ
ᱫᱤᱱᱟᱡᱽ
ᱫᱤᱱᱟᱡᱽᱯᱩᱨ
ᱫᱤᱱᱟᱢ
ᱫᱤᱱᱟᱨ
ᱫᱤᱱᱟᱸᱡᱽᱯᱩᱨ
ᱫᱤᱱᱟᱸᱢ
ᱫᱤᱱᱟᱹᱢ
ᱫᱤᱱᱤᱥᱟᱹ
ᱫᱤᱱᱦᱟᱴᱟ
ᱫᱤᱱᱨᱮ
ᱫᱤᱱᱮᱢ
ᱫᱤᱱᱮᱥ
ᱫᱤᱱᱱᱟᱛᱷ
ᱫᱤᱵᱚᱥ
ᱫᱤᱵᱟ
ᱫᱤᱵᱟᱝ
ᱫᱤᱵᱤ
ᱫᱤᱵᱽᱭᱟ
ᱫᱦᱚᱨᱚᱢ
ᱫᱨᱚᱣᱯᱚᱫᱤ
ᱫᱨᱟᱜᱷᱤᱢᱟ
ᱫᱨᱟᱜᱷᱤᱢᱟᱝᱥᱚ
ᱫᱨᱟᱥ
ᱫᱨᱟᱵᱤᱰ
ᱫᱨᱟᱵᱤᱲ
ᱫᱨᱣᱭᱟᱢᱟᱱ
ᱫᱨᱮ
ᱫᱩ
ᱫᱩᱛ
ᱫᱩᱛᱤ
ᱫᱩᱜ
ᱫᱩᱜᱚᱜ
ᱫᱩᱜᱽ
ᱫᱩᱞ
ᱫᱩᱞᱞᱟ
ᱫᱩᱞᱟ
ᱫᱩᱞᱟᱨᱤ
ᱫᱩᱞᱟᱹᱲ
ᱫᱩᱞᱟᱹᱲᱤᱭᱟᱹ
ᱫᱩᱞᱠᱤ
ᱫᱩᱞᱢᱤ
ᱫᱩᱞᱦᱚᱱᱤᱭᱟ
ᱫᱩᱠ
ᱫᱩᱠᱟᱱ
ᱫᱩᱠᱷ
ᱫᱩᱠᱷᱟᱹᱞᱤ
ᱫᱩᱠᱷᱤᱨᱟᱢ
ᱫᱩᱠᱷᱤᱱ
ᱫᱩᱢᱠᱟ
ᱫᱩᱢᱠᱟᱹ
ᱫᱩᱢᱩᱨ
ᱫᱩᱣᱟ
ᱫᱩᱣᱟᱨ
ᱫᱩᱣᱟᱹᱨ
ᱫᱩᱥᱚᱢ
ᱫᱩᱥᱟᱨ
ᱫᱩᱥᱢᱚᱱ
ᱫᱩᱥᱤ
ᱫᱩᱥᱨᱟ
ᱫᱩᱥᱨᱟᱹ
ᱫᱩᱦᱤ
ᱫᱩᱦᱲᱟ
ᱫᱩᱧ
ᱫᱩᱨ
ᱫᱩᱨᱚᱱᱛᱚ
ᱫᱩᱨᱜᱚ
ᱫᱩᱨᱜᱟ
ᱫᱩᱨᱜᱟᱯᱩᱨ
ᱫᱩᱨᱜᱟᱹ
ᱫᱩᱨᱜᱽ
ᱫᱩᱨᱟᱱᱤ
ᱫᱩᱨᱤᱵ
ᱫᱩᱨᱤᱵᱽ
ᱫᱩᱨᱫᱚᱨᱥᱚᱱ
ᱫᱩᱨᱵᱚᱞ
ᱫᱩᱫᱷ
ᱫᱩᱫᱷᱟᱹᱱᱤ
ᱫᱩᱫᱷᱤ
ᱫᱩᱫᱷᱱᱚᱭ
ᱫᱩᱭ
ᱫᱩᱭᱟᱹᱨ
ᱫᱩᱯᱩᱞᱟᱹᱲ
ᱫᱩᱯᱩᱲᱩᱜ
ᱫᱩᱯᱩᱲᱩᱵ
ᱫᱩᱯᱪᱟᱪᱤᱭᱟ
ᱫᱩᱯᱲᱩᱵ
ᱫᱩᱱᱤᱭᱟ
ᱫᱩᱱᱤᱭᱟᱹ
ᱫᱩᱱᱦᱩᱣᱟᱝ
ᱫᱩᱱᱫᱩ
ᱫᱩᱲᱩᱵ
ᱫᱩᱵᱟᱭ
ᱫᱩᱵᱮ
ᱫᱩᱵᱽᱨᱟᱡᱽᱯᱩᱨ
ᱫᱭᱚ
ᱫᱭᱟ
ᱫᱮ
ᱫᱮᱚᱞ
ᱫᱮᱞᱟ
ᱫᱮᱞᱤ
ᱫᱮᱠᱟᱨᱛ
ᱫᱮᱠᱷᱟ
ᱫᱮᱠᱷᱟᱣ
ᱫᱮᱠᱷᱟᱣᱟ
ᱫᱮᱡ
ᱫᱮᱡᱚᱜ
ᱫᱮᱡᱽ
ᱫᱮᱣ
ᱫᱮᱣᱚᱞ
ᱫᱮᱣᱛᱟ
ᱫᱮᱣᱜᱚᱱ
ᱫᱮᱣᱜᱷᱚᱨ
ᱫᱮᱣᱜᱷᱟᱨ
ᱫᱮᱣᱞ
ᱫᱮᱣᱟ
ᱫᱮᱣᱟᱞ
ᱫᱮᱣᱟᱥ
ᱫᱮᱣᱟᱱ
ᱫᱮᱣᱤ
ᱫᱮᱣᱨᱤ
ᱫᱮᱣᱨᱤᱭᱟ
ᱫᱮᱣᱫᱟᱥ
ᱫᱮᱣᱱᱟᱜᱨᱤ
ᱫᱮᱣᱱᱟᱜᱽᱨᱤ
ᱫᱮᱣᱲᱚ
ᱫᱮᱥ
ᱫᱮᱥᱟᱭ
ᱫᱮᱥᱟᱭᱤ
ᱫᱮᱥᱟᱸᱛᱟᱨ
ᱫᱮᱥᱢᱟᱧᱡᱷᱤ
ᱫᱮᱥᱢᱩᱠᱷ
ᱫᱮᱥᱤ
ᱫᱮᱥᱮ
ᱫᱮᱥᱯᱟᱱᱰᱮ
ᱫᱮᱦ
ᱫᱮᱦᱟᱛ
ᱫᱮᱦᱨᱟᱫᱩᱱ
ᱫᱮᱨᱮᱧ
ᱫᱮᱫᱟᱨ
ᱫᱮᱭᱟ
ᱫᱮᱭᱟᱭ
ᱫᱮᱵ
ᱫᱮᱵᱚ
ᱫᱮᱵᱚᱛᱟ
ᱫᱮᱵᱚᱥᱨᱤ
ᱫᱮᱵᱚᱨᱟᱠᱳᱱᱰᱟ
ᱫᱮᱵᱟ
ᱫᱮᱵᱟᱥ
ᱫᱮᱵᱟᱥᱤᱥ
ᱫᱮᱵᱤ
ᱫᱮᱵᱤᱜᱚᱸᱡᱽ
ᱫᱮᱵᱤᱠᱟ
ᱫᱮᱵᱤᱭᱟᱜ
ᱫᱮᱵᱩ
ᱫᱮᱵᱫᱟᱥ
ᱫᱮᱵᱮᱱᱫᱽᱨᱚ
ᱫᱮᱵᱮᱱᱫᱽᱨᱚᱱᱟᱛᱷ
ᱫᱮᱵᱷᱤ
ᱫᱮᱵᱽ
ᱫᱮᱵᱽᱛᱟ
ᱫᱮᱵᱽᱜᱚᱰ
ᱫᱮᱵᱽᱜᱩᱱ
ᱫᱮᱵᱽᱨᱟᱡᱽ
ᱫᱮᱵᱽᱫᱟᱥ
ᱫᱮᱵᱽᱫᱟᱥᱤ
ᱫᱮᱵᱽᱱᱟᱜᱽᱨᱤ
ᱫᱮᱹ
ᱫᱮᱹᱵᱤ
ᱫᱯ
ᱫᱳ
ᱫᱳᱠᱟᱱ
ᱫᱳᱣᱞᱚᱫᱯᱩᱨ
ᱫᱳᱣᱥᱟ
ᱫᱳᱥ
ᱫᱳᱥᱟᱨ
ᱫᱳᱦᱟ
ᱫᱳᱨ
ᱫᱳᱭᱱᱤᱠ
ᱫᱴᱮᱱ
ᱫᱷᱚᱞᱟᱭ
ᱫᱷᱚᱞᱯᱩᱨ
ᱫᱷᱚᱢ
ᱫᱷᱚᱢᱚᱠ
ᱫᱷᱚᱢᱛᱚᱨᱤ
ᱫᱷᱚᱢᱠᱟᱣ
ᱫᱷᱚᱨ
ᱫᱷᱚᱨᱚᱢ
ᱫᱷᱚᱨᱚᱢᱟᱜ
ᱫᱷᱚᱨᱚᱢᱟᱱ
ᱫᱷᱚᱨᱚᱢᱤᱭᱟᱹ
ᱫᱷᱚᱨᱚᱢᱥᱟᱞᱟ
ᱫᱷᱚᱨᱚᱢᱨᱮ
ᱫᱷᱚᱨᱚᱢᱮ
ᱫᱷᱚᱨᱚᱢᱮᱛ
ᱫᱷᱚᱨᱚᱱ
ᱫᱷᱚᱨᱟᱢ
ᱫᱷᱚᱨᱟᱱ
ᱫᱷᱚᱨᱢ
ᱫᱷᱚᱨᱢᱚ
ᱫᱷᱚᱨᱢᱚᱯᱩᱨᱤ
ᱫᱷᱚᱨᱢᱚᱱᱚᱜᱚᱨ
ᱫᱷᱚᱨᱢᱟ
ᱫᱷᱚᱨᱢᱤᱠ
ᱫᱷᱚᱨᱢᱮᱥ
ᱫᱷᱚᱨᱢᱮᱱᱫᱽᱨᱚ
ᱫᱷᱚᱨᱢᱮᱸᱫᱽᱨᱚ
ᱫᱷᱚᱨᱤᱛᱨᱤ
ᱫᱷᱚᱨᱩᱣᱟ
ᱫᱷᱚᱨᱮ
ᱫᱷᱚᱰᱠᱚᱱ
ᱫᱷᱚᱱ
ᱫᱷᱚᱱᱚᱱᱡᱚᱭᱟᱱ
ᱫᱷᱚᱱᱠᱩᱴᱟ
ᱫᱷᱚᱱᱤ
ᱫᱷᱚᱱᱥᱤᱨᱤ
ᱫᱷᱚᱱᱩᱥ
ᱫᱷᱚᱱᱩᱥᱟ
ᱫᱷᱟ
ᱫᱷᱟᱛᱩ
ᱫᱷᱟᱝᱜᱩᱰᱤᱢᱩᱛᱟ
ᱫᱷᱟᱞᱟᱭ
ᱫᱷᱟᱞᱵᱷᱩᱢ
ᱫᱷᱟᱞᱵᱷᱩᱢᱜᱚᱲ
ᱫᱷᱟᱢ
ᱫᱷᱟᱢᱟᱞ
ᱫᱷᱟᱢᱩᱨᱦᱟᱴ
ᱫᱷᱟᱣ
ᱫᱷᱟᱣᱚᱱ
ᱫᱷᱟᱣᱛᱮ
ᱫᱷᱟᱣᱮ
ᱫᱷᱟᱥᱟᱣ
ᱫᱷᱟᱨ
ᱫᱷᱟᱨᱚᱱᱟ
ᱫᱷᱟᱨᱛᱤ
ᱫᱷᱟᱨᱟ
ᱫᱷᱟᱨᱟᱣᱟᱦᱤᱠ
ᱫᱷᱟᱨᱟᱯᱩᱨᱚᱢ
ᱫᱷᱟᱨᱟᱵᱟᱦᱤᱠ
ᱫᱷᱟᱨᱢᱟ
ᱫᱷᱟᱨᱢᱟᱨᱟᱡᱽ
ᱫᱷᱟᱨᱢᱤᱠ
ᱫᱷᱟᱨᱣᱟᱦᱤᱠ
ᱫᱷᱟᱨᱣᱟᱲ
ᱫᱷᱟᱨᱤ
ᱫᱷᱟᱨᱤᱡ
ᱫᱷᱟᱨᱮ
ᱫᱷᱟᱫᱤᱝ
ᱫᱷᱟᱭᱤ
ᱫᱷᱟᱯ
ᱫᱷᱟᱱ
ᱫᱷᱟᱱᱣᱟᱨ
ᱫᱷᱟᱱᱤᱭᱟ
ᱫᱷᱟᱱᱩᱥ
ᱫᱷᱟᱱᱮᱡ
ᱫᱷᱟᱱᱵᱟᱫ
ᱫᱷᱟᱱᱵᱟᱫᱽ
ᱫᱷᱟᱵᱤ
ᱫᱷᱟᱵᱤᱡ
ᱫᱷᱟᱶ
ᱫᱷᱟᱸᱜᱚᱲ
ᱫᱷᱟᱹᱛᱤ
ᱫᱷᱟᱹᱛᱩ
ᱫᱷᱟᱹᱣ
ᱫᱷᱟᱹᱨᱛᱤ
ᱫᱷᱟᱹᱨᱛᱤᱨᱮ
ᱫᱷᱟᱹᱨᱛᱤᱨᱮᱱ
ᱫᱷᱟᱹᱨᱤ
ᱫᱷᱟᱹᱨᱤᱡ
ᱫᱷᱟᱹᱭ
ᱫᱷᱟᱹᱲ
ᱫᱷᱟᱹᱵᱤᱡ
ᱫᱷᱟᱹᱵᱤᱡᱟᱜ
ᱫᱷᱟᱹᱵᱤᱡᱽ
ᱫᱷᱤ
ᱫᱷᱤᱝ
ᱫᱷᱤᱨ
ᱫᱷᱤᱨᱚ
ᱫᱷᱤᱨᱤ
ᱫᱷᱤᱨᱩᱵᱷᱟᱭᱤ
ᱫᱷᱤᱨᱮᱱᱫᱨᱚᱱᱟᱛᱷ
ᱫᱷᱤᱭᱟᱱ
ᱫᱷᱤᱯ
ᱫᱷᱤᱯᱟᱣ
ᱫᱷᱨᱩᱵᱽ
ᱫᱷᱩ
ᱫᱷᱩᱝᱜᱟ
ᱫᱷᱩᱞᱤᱭᱟᱱ
ᱫᱷᱩᱞᱮ
ᱫᱷᱩᱢ
ᱫᱷᱩᱢᱟᱵᱚᱛᱤ
ᱫᱷᱩᱨᱟ
ᱫᱷᱩᱨᱟᱹᱣ
ᱫᱷᱩᱨᱟᱹᱣᱱᱟ
ᱫᱷᱩᱨᱣᱟ
ᱫᱷᱩᱬᱟᱹ
ᱫᱷᱩᱯ
ᱫᱷᱩᱱ
ᱫᱷᱩᱱᱚᱴ
ᱫᱷᱩᱲᱤ
ᱫᱷᱩᱵᱤ
ᱫᱷᱩᱵᱽᱲᱤ
ᱫᱷᱩᱶᱟ
ᱫᱷᱩᱸᱫᱽ
ᱫᱷᱭᱟᱱ
ᱫᱷᱮᱢᱟᱡᱤ
ᱫᱷᱮᱭᱚᱱ
ᱫᱷᱮᱭᱟᱱ
ᱫᱷᱳᱢ
ᱫᱷᱳᱨᱚᱢ
ᱫᱽ
ᱫᱽᱣᱟᱨᱠᱟ
ᱫᱽᱣᱤᱯ
ᱫᱽᱨᱚᱣᱯᱚᱫᱤ
ᱫᱽᱨᱟᱜᱷᱤᱢᱟ
ᱫᱽᱨᱮ
ᱬ
ᱬᱤ
ᱬᱤᱡ
ᱬᱩ
ᱭ
ᱭᱚᱜᱟ
ᱭᱚᱜᱤᱠ
ᱭᱚᱜᱽ
ᱭᱚᱝ
ᱭᱚᱠᱚᱦᱟᱢᱟ
ᱭᱚᱡᱽᱱᱟ
ᱭᱚᱢᱚᱱ
ᱭᱚᱢᱩᱱᱟ
ᱭᱚᱢᱩᱱᱟᱱᱚᱜᱚᱨ
ᱭᱚᱥ
ᱭᱚᱥᱳᱫᱟ
ᱭᱚᱦᱩᱫᱤ
ᱭᱚᱨᱠ
ᱭᱚᱱᱟᱛᱨᱚ
ᱭᱚᱱᱡᱚᱱ
ᱭᱚᱵᱚᱛᱢᱟᱞ
ᱭᱛᱚ
ᱭᱛᱮ
ᱭᱞᱟᱞ
ᱭᱟ
ᱭᱟᱛᱨᱟ
ᱭᱟᱜ
ᱭᱟᱜᱼᱟ
ᱭᱟᱝ
ᱭᱟᱝᱜᱳᱱ
ᱭᱟᱠᱚ
ᱭᱟᱠᱩᱛ
ᱭᱟᱠᱩᱵᱽ
ᱭᱟᱢ
ᱭᱟᱢᱤᱱᱤ
ᱭᱟᱣᱟᱛ
ᱭᱟᱥ
ᱭᱟᱦᱩᱫᱤ
ᱭᱟᱦᱭᱟ
ᱭᱟᱨ
ᱭᱟᱨᱟᱱᱟ
ᱭᱟᱨᱰ
ᱭᱟᱫ
ᱭᱟᱫᱚᱵ
ᱭᱟᱫᱚᱵᱽ
ᱭᱟᱫᱟ
ᱭᱟᱫᱽ
ᱭᱟᱫᱽᱜᱤᱨ
ᱭᱟᱭ
ᱭᱟᱱ
ᱭᱟᱱᱟ
ᱭᱟᱴᱴᱟᱢ
ᱭᱟᱸᱜᱽ
ᱭᱟᱹ
ᱭᱠᱟ
ᱭᱤ
ᱭᱤᱡ
ᱭᱤᱯ
ᱭᱤᱱ
ᱭᱥᱟ
ᱭᱥᱤ
ᱭᱦᱟ
ᱭᱨᱤ
ᱭᱩ
ᱭᱩᱛᱷ
ᱭᱩᱜᱫᱟᱱ
ᱭᱩᱠᱛ
ᱭᱩᱠᱨᱮᱱ
ᱭᱩᱠᱮ
ᱭᱩᱠᱳ
ᱭᱩᱣᱟ
ᱭᱩᱣᱟᱱ
ᱭᱩᱥᱩᱯᱷ
ᱭᱩᱨ
ᱭᱩᱨᱚᱯ
ᱭᱩᱨᱚᱯᱤᱭᱟᱱ
ᱭᱩᱨᱤᱡ
ᱭᱩᱨᱤᱭᱟ
ᱭᱩᱨᱤᱱ
ᱭᱩᱨᱮᱥᱤᱭᱟ
ᱭᱩᱨᱮᱱᱤᱭᱚᱢ
ᱭᱩᱨᱮᱱᱤᱭᱟᱢ
ᱭᱩᱨᱳᱯ
ᱭᱩᱨᱳᱯᱤᱭᱚᱱ
ᱭᱩᱫᱷᱚ
ᱭᱩᱮ
ᱭᱩᱯᱤ
ᱭᱩᱯᱤᱭᱟ
ᱭᱩᱯᱤᱮᱥᱟᱨᱴᱤᱥᱤ
ᱭᱩᱱᱟᱭᱤᱴᱮᱰ
ᱭᱩᱱᱟᱭᱴᱮᱰ
ᱭᱩᱱᱟᱭᱴᱮᱴᱰ
ᱭᱩᱱᱟᱱ
ᱭᱩᱱᱟᱱᱤ
ᱭᱩᱱᱤᱠᱳᱰ
ᱭᱩᱱᱤᱭᱚᱱ
ᱭᱩᱱᱤᱴ
ᱭᱩᱱᱤᱵᱷᱚᱨᱥᱤᱴᱤ
ᱭᱩᱱᱤᱵᱷᱟᱨᱥᱤᱴᱤ
ᱭᱩᱱᱮᱥᱠᱚ
ᱭᱩᱱᱮᱥᱠᱳ
ᱭᱩᱴᱤᱥᱤ
ᱭᱩᱴᱭᱩᱵᱚᱨ
ᱭᱩᱴᱭᱩᱵᱽ
ᱭᱩᱵ
ᱭᱩᱵᱟ
ᱭᱩᱹᱮᱱᱹ
ᱭᱫᱟ
ᱭᱮ
ᱭᱮᱝᱜᱳᱱ
ᱭᱮᱞᱟᱱᱰᱮ
ᱭᱮᱢᱮᱱ
ᱭᱮᱨ
ᱭᱮᱨᱮᱵᱷᱟᱱ
ᱭᱮᱫ
ᱭᱮᱫᱟ
ᱭᱮᱭᱟ
ᱭᱮᱱ
ᱭᱮᱱᱟ
ᱭᱮᱱᱟᱭ
ᱭᱳ
ᱭᱳᱜᱟ
ᱭᱳᱢᱟ
ᱭᱳᱨᱠ
ᱭᱳᱨᱩᱵᱟ
ᱭᱼᱵᱟ
ᱮ
ᱮᱛ
ᱮᱛᱚ
ᱮᱛᱚᱢ
ᱮᱛᱚᱢᱼᱥᱟᱢᱟᱝ
ᱮᱛᱚᱢᱼᱯᱟᱪᱮ
ᱮᱛᱚᱢᱼᱯᱟᱪᱷᱮ
ᱮᱛᱚᱦᱚᱱ
ᱮᱛᱚᱦᱚᱵ
ᱮᱛᱚᱦᱚᱵᱚᱜ
ᱮᱛᱚᱦᱚᱵᱚᱜᱼᱟ
ᱮᱛᱚᱦᱚᱵᱽ
ᱮᱛᱟᱝ
ᱮᱛᱟᱢ
ᱮᱛᱦᱚᱯ
ᱮᱛᱦᱚᱵ
ᱮᱛᱮ
ᱮᱛᱮᱦᱚᱵ
ᱮᱛᱮᱫ
ᱮᱛᱳᱦᱚᱵ
ᱮᱛᱷᱞᱮᱴᱤᱠ
ᱮᱛᱷᱞᱮᱴᱤᱠᱥ
ᱮᱛᱷᱮᱱᱥ
ᱮᱛᱷᱱᱚᱞᱚᱜᱽ
ᱮᱛᱷᱱᱳᱞᱚᱜᱽ
ᱮᱜ
ᱮᱜᱟᱛ
ᱮᱜᱟᱸᱛ
ᱮᱜᱮᱨ
ᱮᱜᱽᱞᱚᱢᱨᱮᱥᱚᱱ
ᱮᱝᱜᱟ
ᱮᱝᱜᱟᱛ
ᱮᱝᱜᱟᱛᱮᱫ
ᱮᱝᱜᱮᱞ
ᱮᱝᱜᱳᱞᱟ
ᱮᱝᱠᱚᱨ
ᱮᱞ
ᱮᱞᱟ
ᱮᱞᱟᱜ
ᱮᱞᱟᱝ
ᱮᱞᱟᱠᱟ
ᱮᱞᱟᱠᱟᱠᱚ
ᱮᱞᱟᱠᱟᱨᱮ
ᱮᱞᱟᱦᱟᱵᱟᱫᱽ
ᱮᱞᱟᱨᱡᱤ
ᱮᱞᱟᱱ
ᱮᱞᱠᱳᱦᱚᱞ
ᱮᱞᱠᱷᱟ
ᱮᱞᱠᱷᱟᱱᱤᱭᱟᱹ
ᱮᱞᱤ
ᱮᱞᱤᱠᱥ
ᱮᱞᱤᱡᱟ
ᱮᱞᱤᱥ
ᱮᱞᱥᱚᱝ
ᱮᱞᱩᱨᱩ
ᱮᱞᱮᱞ
ᱮᱞᱮᱞᱵᱤ
ᱮᱞᱮᱠᱟ
ᱮᱞᱮᱠᱴᱨᱚᱱ
ᱮᱞᱮᱠᱷᱟ
ᱮᱞᱴᱤᱤ
ᱮᱞᱵᱚᱢ
ᱮᱞᱵᱟᱢ
ᱮᱞᱹ
ᱮᱟ
ᱮᱟᱤᱭᱟᱱ
ᱮᱠ
ᱮᱠᱚᱞ
ᱮᱠᱚᱠ
ᱮᱠᱚᱨ
ᱮᱠᱚᱲ
ᱮᱠᱛᱟ
ᱮᱠᱞᱟ
ᱮᱠᱟ
ᱮᱠᱟᱞ
ᱮᱠᱟᱞᱛᱮ
ᱮᱠᱟᱣᱚᱰ
ᱮᱠᱟᱫᱩᱥᱤ
ᱮᱠᱟᱫᱮᱢᱤ
ᱮᱠᱟᱭᱩᱱᱴᱮᱱᱥᱤ
ᱮᱠᱟᱰᱢᱤ
ᱮᱠᱟᱰᱮᱢᱤ
ᱮᱠᱟᱰᱮᱢᱤᱠ
ᱮᱠᱟᱱ
ᱮᱠᱟᱲ
ᱮᱠᱠᱟ
ᱮᱠᱥ
ᱮᱠᱥᱚᱱ
ᱮᱠᱥᱟᱱ
ᱮᱠᱥᱪᱮᱸᱡᱽ
ᱮᱠᱥᱮᱥ
ᱮᱠᱥᱯᱚᱨᱴ
ᱮᱠᱥᱯᱨᱮᱥ
ᱮᱠᱥᱯᱨᱮᱥᱣᱮ
ᱮᱠᱥᱯᱨᱮᱥᱵᱮ
ᱮᱠᱥᱯᱮᱨᱤᱭᱮᱱᱥ
ᱮᱠᱥᱴᱚᱨᱱᱟᱞ
ᱮᱠᱥᱵᱚᱠᱥ
ᱮᱠᱨᱮᱰᱮᱴᱮᱥᱚᱱ
ᱮᱠᱩᱥᱮ
ᱮᱠᱮᱰᱢᱤ
ᱮᱠᱮᱰᱮᱢᱤ
ᱮᱠᱮᱱ
ᱮᱠᱴ
ᱮᱠᱴᱚᱨ
ᱮᱠᱴᱟ
ᱮᱠᱴᱟᱨ
ᱮᱠᱴᱤᱝ
ᱮᱠᱴᱤᱵᱷ
ᱮᱠᱴᱤᱵᱷᱤᱴᱤ
ᱮᱠᱴᱤᱵᱽ
ᱮᱠᱴᱨᱮᱥ
ᱮᱠᱷᱞᱟ
ᱮᱠᱷᱮᱱ
ᱮᱡ
ᱮᱡᱤ
ᱮᱡᱩᱠᱮᱥᱚᱱ
ᱮᱡᱮᱱᱥᱤ
ᱮᱡᱮᱱᱴ
ᱮᱡᱮᱸᱥᱤ
ᱮᱡᱮᱸᱴ
ᱮᱡᱽ
ᱮᱢ
ᱮᱢᱚᱜ
ᱮᱢᱚᱜᱤᱡ
ᱮᱢᱚᱜᱤᱦ
ᱮᱢᱚᱜᱼᱟ
ᱮᱢᱚᱱ
ᱮᱢᱟ
ᱮᱢᱟᱜ
ᱮᱢᱟᱞᱮ
ᱮᱢᱟᱠᱚ
ᱮᱢᱟᱠᱚᱣᱟ
ᱮᱢᱟᱢ
ᱮᱢᱟᱣ
ᱮᱢᱟᱦᱟᱫ
ᱮᱢᱟᱦᱟᱭ
ᱮᱢᱟᱦᱟᱭᱟ
ᱮᱢᱟᱫ
ᱮᱢᱟᱫᱮ
ᱮᱢᱟᱫᱮᱭᱟ
ᱮᱢᱟᱫᱮᱭᱟᱭ
ᱮᱢᱟᱫᱼᱟ
ᱮᱢᱟᱭ
ᱮᱢᱟᱭᱟ
ᱮᱢᱟᱱ
ᱮᱢᱟᱱᱛᱮᱛ
ᱮᱢᱟᱱᱛᱮᱭᱟᱜ
ᱮᱢᱟᱱᱟᱜ
ᱮᱢᱟᱱᱠᱚ
ᱮᱢᱟᱱᱮ
ᱮᱢᱡᱤᱟᱨ
ᱮᱢᱤ
ᱮᱢᱤᱞ
ᱮᱢᱤᱡ
ᱮᱢᱥ
ᱮᱢᱦᱟ
ᱮᱢᱦᱟᱸ
ᱮᱢᱮ
ᱮᱢᱮᱢ
ᱮᱢᱮᱫ
ᱮᱢᱯᱤ
ᱮᱢᱵᱚᱨ
ᱮᱢᱵᱤᱮ
ᱮᱢᱵᱤᱵᱤᱮᱥ
ᱮᱢᱹ
ᱮᱢᱹᱮᱞᱹᱮᱹ
ᱮᱢᱹᱮᱹ
ᱮᱣ
ᱮᱣᱟᱨᱰ
ᱮᱣᱟᱨᱰᱥ
ᱮᱣᱟᱰ
ᱮᱣᱤ
ᱮᱣᱨᱮᱡᱽ
ᱮᱥ
ᱮᱥᱚᱥᱤᱭᱮᱥᱚᱱ
ᱮᱥᱛᱳᱱᱤᱭᱟ
ᱮᱥᱛᱳᱱᱤᱭᱟᱱ
ᱮᱥᱠᱚᱴᱞᱮᱱᱰ
ᱮᱥᱠᱟᱨ
ᱮᱥᱠᱟᱨᱞᱮᱴ
ᱮᱥᱠᱩᱞᱟᱨᱥᱤᱯ
ᱮᱥᱠᱮᱞ
ᱮᱥᱤ
ᱮᱥᱤᱭᱚ
ᱮᱥᱤᱭᱟ
ᱮᱥᱤᱭᱟᱭ
ᱮᱥᱤᱭᱟᱭᱤ
ᱮᱥᱤᱭᱟᱱ
ᱮᱥᱤᱭᱟᱱᱮᱴ
ᱮᱥᱤᱭᱟᱴᱤᱠ
ᱮᱥᱤᱭᱮᱴᱤᱠ
ᱮᱥᱤᱭᱳ
ᱮᱥᱤᱰ
ᱮᱥᱥᱤ
ᱮᱥᱮᱞ
ᱮᱥᱮᱢᱵᱞᱤ
ᱮᱥᱮᱥᱢᱮᱱᱴ
ᱮᱥᱮᱪ
ᱮᱥᱮᱫ
ᱮᱥᱮᱫᱟ
ᱮᱥᱮᱫᱽ
ᱮᱥᱯᱤ
ᱮᱥᱯᱤᱠᱟᱨ
ᱮᱥᱯᱮᱨᱟᱱᱛᱳ
ᱮᱥᱯᱮᱱ
ᱮᱥᱯᱮᱱᱤᱥ
ᱮᱥᱯᱮᱱᱤᱭᱳ
ᱮᱥᱱᱟᱛᱚᱠ
ᱮᱥᱳᱥᱤᱭᱮᱥᱚᱱ
ᱮᱥᱴᱤ
ᱮᱥᱴᱮ
ᱮᱥᱴᱮᱥᱚᱱ
ᱮᱥᱴᱮᱴ
ᱮᱥᱹ
ᱮᱦᱚᱵ
ᱮᱦᱚᱵᱚᱜ
ᱮᱦᱚᱵᱚᱜᱼᱟ
ᱮᱦᱚᱵᱟ
ᱮᱦᱚᱵᱽ
ᱮᱦᱟᱵ
ᱮᱦᱮᱢ
ᱮᱦᱮᱵ
ᱮᱧᱡᱮᱞᱥ
ᱮᱨ
ᱮᱨᱚᱜ
ᱮᱨᱟ
ᱮᱨᱟᱛ
ᱮᱨᱟᱦᱟᱜ
ᱮᱨᱟᱭ
ᱮᱨᱟᱵᱤᱠ
ᱮᱨᱟᱸᱰᱚᱢ
ᱮᱨᱡᱤᱭᱟ
ᱮᱨᱤᱠ
ᱮᱨᱤᱥᱴᱚᱴᱚᱞ
ᱮᱨᱤᱭᱟ
ᱮᱨᱥᱟᱫᱽ
ᱮᱨᱮ
ᱮᱨᱮᱭᱟ
ᱮᱨᱮᱲ
ᱮᱨᱱᱟᱠᱩᱞᱚᱢ
ᱮᱨᱱᱟᱠᱩᱞᱟᱢ
ᱮᱪ
ᱮᱪᱴᱤᱮᱢᱮᱞ
ᱮᱪᱹ
ᱮᱫ
ᱮᱫᱟ
ᱮᱫᱟᱭ
ᱮᱫᱤ
ᱮᱫᱤᱡ
ᱮᱫᱼᱟ
ᱮᱫᱼᱟᱭ
ᱮᱫᱽᱨᱮ
ᱮᱭ
ᱮᱭᱞᱟᱱ
ᱮᱭᱟ
ᱮᱭᱟᱜ
ᱮᱭᱟᱨ
ᱮᱭᱟᱨᱞᱟᱭᱤᱱ
ᱮᱭᱟᱨᱞᱟᱭᱤᱱᱥ
ᱮᱭᱟᱨᱞᱟᱭᱤᱸᱥ
ᱮᱭᱟᱨᱯᱚᱨᱴ
ᱮᱭᱟᱨᱯᱚᱴ
ᱮᱭᱟᱨᱴᱮᱞ
ᱮᱭᱟᱭ
ᱮᱭᱟᱭᱟᱜ
ᱮᱭᱤ
ᱮᱭᱤᱪ
ᱮᱭᱥᱚᱨᱭᱟ
ᱮᱭᱥᱣᱚᱨᱭᱟ
ᱮᱭᱦᱚᱵ
ᱮᱮᱪ
ᱮᱮᱭᱟᱜ
ᱮᱯ
ᱮᱯᱞᱟᱭᱤᱰ
ᱮᱯᱞᱤᱠᱮᱥᱚᱱ
ᱮᱯᱤ
ᱮᱯᱤᱠ
ᱮᱯᱤᱥᱚᱰ
ᱮᱯᱤᱥᱳᱰ
ᱮᱯᱨᱤᱞ
ᱮᱯᱮᱢ
ᱮᱯᱮᱨᱦᱮᱸᱰᱮ
ᱮᱯᱯ
ᱮᱯᱷ
ᱮᱯᱷᱮᱢ
ᱮᱰ
ᱮᱰᱚ
ᱮᱰᱟ
ᱮᱰᱟᱞᱴ
ᱮᱰᱟᱢ
ᱮᱰᱟᱢᱥ
ᱮᱰᱢᱤᱥᱚᱱ
ᱮᱰᱢᱤᱱᱤᱥᱴᱨᱮᱥᱚᱱ
ᱮᱰᱣᱟᱨᱰ
ᱮᱰᱤ
ᱮᱰᱤᱥᱚᱱ
ᱮᱰᱤᱴᱚᱨ
ᱮᱰᱥ
ᱮᱰᱩᱠᱮᱥᱚᱱ
ᱮᱰᱩᱠᱮᱥᱟᱱ
ᱮᱰᱵᱷᱚᱠᱮᱴ
ᱮᱰᱵᱷᱮᱴᱟᱡᱽ
ᱮᱰᱵᱷᱳᱠᱮᱴ
ᱮᱱ
ᱮᱱᱛᱮ
ᱮᱱᱛᱮᱨᱮᱦᱚᱸ
ᱮᱱᱛᱷᱟᱞᱯᱤ
ᱮᱱᱛᱷᱨᱚᱯᱚᱞᱚᱡᱤ
ᱮᱱᱛᱷᱳᱱᱤ
ᱮᱱᱟ
ᱮᱱᱟᱜ
ᱮᱱᱟᱝ
ᱮᱱᱟᱞ
ᱮᱱᱟᱠᱚ
ᱮᱱᱟᱢ
ᱮᱱᱟᱥ
ᱮᱱᱟᱨᱡᱤ
ᱮᱱᱟᱭ
ᱮᱱᱟᱭᱮ
ᱮᱱᱟᱴᱚᱢᱤ
ᱮᱱᱟᱴᱳᱢᱤ
ᱮᱱᱠᱷᱟᱱ
ᱮᱱᱡᱮᱞᱥ
ᱮᱱᱤ
ᱮᱱᱤᱢᱮᱥᱚᱱ
ᱮᱱᱥᱟᱭᱠᱞᱳᱯᱤᱰᱤᱭᱟ
ᱮᱱᱥᱤᱟᱨ
ᱮᱱᱦᱚᱸ
ᱮᱱᱨᱮ
ᱮᱱᱨᱮᱦᱚᱸ
ᱮᱱᱨᱮᱸ
ᱮᱱᱫᱤᱨᱟ
ᱮᱱᱮᱡ
ᱮᱱᱮᱡᱚᱜᱼᱟ
ᱮᱱᱮᱡᱟ
ᱮᱱᱮᱡᱠᱚ
ᱮᱱᱮᱡᱤᱜ
ᱮᱱᱮᱡᱤᱡ
ᱮᱱᱮᱡᱤᱦ
ᱮᱱᱮᱡᱤᱭᱟ
ᱮᱱᱮᱡᱤᱭᱟᱹ
ᱮᱱᱮᱡᱼᱟ
ᱮᱱᱮᱡᱼᱥᱮᱨᱮᱧ
ᱮᱱᱮᱡᱽ
ᱮᱱᱮᱢ
ᱮᱱᱮᱢᱤᱭᱟᱹ
ᱮᱱᱮᱢᱮ
ᱮᱱᱮᱪ
ᱮᱱᱰ
ᱮᱱᱰᱟᱨᱥᱚᱱ
ᱮᱱᱰᱨᱩ
ᱮᱱᱰᱳᱨᱟ
ᱮᱱᱴᱚᱨᱴᱮᱱᱢᱮᱸᱴ
ᱮᱱᱴᱟᱨᱴᱮᱱᱢᱮᱸᱴ
ᱮᱱᱴᱤ
ᱮᱱᱴᱤᱜᱩᱣᱟ
ᱮᱱᱴᱤᱯᱤᱥᱤ
ᱮᱱᱴᱨᱮᱱᱥ
ᱮᱱᱹ
ᱮᱱᱹᱰᱤᱹᱴᱤᱹᱵᱷᱤᱹ
ᱮᱲᱮ
ᱮᱴ
ᱮᱴᱚᱞ
ᱮᱴᱚᱦᱚᱵ
ᱮᱴᱞᱟᱥ
ᱮᱴᱟ
ᱮᱴᱟᱜ
ᱮᱴᱟᱜᱟᱜ
ᱮᱴᱟᱜᱤᱡ
ᱮᱴᱟᱠ
ᱮᱴᱠᱮ
ᱮᱴᱠᱮᱴᱚᱬᱮ
ᱮᱴᱠᱮᱴᱚᱬᱮᱭ
ᱮᱴᱮᱠ
ᱮᱴᱮᱫ
ᱮᱵᱤᱯᱤ
ᱮᱵᱷᱚᱨᱮᱡᱽ
ᱮᱵᱷᱚᱨᱮᱥᱴ
ᱮᱵᱷᱟᱨᱮᱡᱽ
ᱮᱵᱷᱟᱨᱮᱥᱴ
ᱮᱵᱷᱤᱞᱤᱱ
ᱮᱵᱷᱤᱥᱮᱱᱟ
ᱮᱵᱷᱨᱮᱥᱴ
ᱮᱵᱷᱮᱨᱮᱥᱴ
ᱮᱵᱷᱮᱱ
ᱮᱵᱷᱮᱱᱴ
ᱮᱸᱜᱟ
ᱮᱸᱜᱟᱛ
ᱮᱸᱜᱟᱛᱟᱜ
ᱮᱸᱜᱮᱞ
ᱮᱸᱜᱮᱫ
ᱮᱸᱰ
ᱮᱸᱰᱩᱨᱤ
ᱮᱹ
ᱯ
ᱯᱚ
ᱯᱚᱛᱚᱧᱡᱚᱲᱤ
ᱯᱚᱛᱚᱱ
ᱯᱚᱛᱚᱵ
ᱯᱚᱛᱚᱵᱮ
ᱯᱚᱛᱚᱵᱽ
ᱯᱚᱛᱞᱩ
ᱯᱚᱛᱟᱠᱟ
ᱯᱚᱛᱟᱢ
ᱯᱚᱛᱟᱣ
ᱯᱚᱛᱤ
ᱯᱚᱛᱨᱚ
ᱯᱚᱛᱨᱤᱠᱟ
ᱯᱚᱛᱱᱤᱛᱚᱞᱟ
ᱯᱚᱛᱷᱟᱱᱟᱢᱛᱷᱤᱴᱴᱟ
ᱯᱚᱛᱷᱤ
ᱯᱚᱛᱷᱮᱨ
ᱯᱚᱜᱳᱰᱟ
ᱯᱚᱝᱠᱚᱡᱽ
ᱯᱚᱞ
ᱯᱚᱞᱚ
ᱯᱚᱞᱚᱢ
ᱯᱚᱞᱚᱢᱮᱱ
ᱯᱚᱞᱞᱤ
ᱯᱚᱞᱟ
ᱯᱚᱞᱟᱥᱵᱟᱲᱤ
ᱯᱚᱞᱟᱨ
ᱯᱚᱞᱤ
ᱯᱚᱞᱤᱢᱟᱨ
ᱯᱚᱞᱤᱥ
ᱯᱚᱞᱤᱱᱮᱥᱤᱭᱟᱱ
ᱯᱚᱞᱤᱴᱤᱠᱟᱞ
ᱯᱚᱞᱤᱴᱤᱠᱥ
ᱯᱚᱞᱤᱴᱤᱥᱤᱭᱟᱱ
ᱯᱚᱞᱤᱴᱮᱠᱱᱤᱠ
ᱯᱚᱞᱤᱴᱮᱪᱱᱤᱠ
ᱯᱚᱠᱠᱷᱚ
ᱯᱚᱠᱥ
ᱯᱚᱠᱳᱲᱟ
ᱯᱚᱠᱷᱚᱨᱟ
ᱯᱚᱡᱤᱥᱚᱱ
ᱯᱚᱡᱤᱴᱤᱵᱽ
ᱯᱚᱣᱚᱱ
ᱯᱚᱣᱞ
ᱯᱚᱣᱟᱨ
ᱯᱚᱣᱨᱚᱥᱚᱵᱷᱟ
ᱯᱚᱣᱩᱞ
ᱯᱚᱣᱲᱤ
ᱯᱚᱥᱛ
ᱯᱚᱥᱛᱩᱱ
ᱯᱚᱥᱟᱜ
ᱯᱚᱥᱩᱨ
ᱯᱚᱥᱪᱤᱢ
ᱯᱚᱥᱪᱷᱤᱢ
ᱯᱚᱥᱴ
ᱯᱚᱥᱴᱟᱞ
ᱯᱚᱥᱴᱮᱰ
ᱯᱚᱦᱚᱞ
ᱯᱚᱦᱚᱨ
ᱯᱚᱦᱟ
ᱯᱚᱧᱡᱟᱵ
ᱯᱚᱧᱡᱟᱵᱤ
ᱯᱚᱧᱡᱟᱵᱽ
ᱯᱚᱧᱡᱤᱠᱟ
ᱯᱚᱧᱪᱚ
ᱯᱚᱧᱪᱚᱜᱚᱲ
ᱯᱚᱧᱪᱟᱛ
ᱯᱚᱧᱪᱟᱪᱚᱛ
ᱯᱚᱧᱪᱟᱭᱚᱛ
ᱯᱚᱧᱪᱟᱭᱚᱛᱤ
ᱯᱚᱧᱪᱟᱭᱮᱛ
ᱯᱚᱧᱪᱟᱱᱚᱱ
ᱯᱚᱧᱪᱱᱟᱢᱟ
ᱯᱚᱨ
ᱯᱚᱨᱚᱛᱤ
ᱯᱚᱨᱚᱠ
ᱯᱚᱨᱚᱢ
ᱯᱚᱨᱚᱢᱯᱚᱨᱟ
ᱯᱚᱨᱚᱵ
ᱯᱚᱨᱚᱵᱚᱜ
ᱯᱚᱨᱚᱵᱽ
ᱯᱚᱨᱛᱚᱱ
ᱯᱚᱨᱛᱟᱲ
ᱯᱚᱨᱛᱤ
ᱯᱚᱨᱛᱩᱜᱟᱞ
ᱯᱚᱨᱛᱩᱜᱟᱞᱤ
ᱯᱚᱨᱛᱩᱜᱟᱞᱤᱭᱟ
ᱯᱚᱨᱛᱩᱜᱤᱡ
ᱯᱚᱨᱛᱩᱜᱤᱡᱽ
ᱯᱚᱨᱛᱷᱚᱢ
ᱯᱚᱨᱜᱚᱱᱟ
ᱯᱚᱨᱟᱭᱱᱤ
ᱯᱚᱨᱠᱟᱨ
ᱯᱚᱨᱡᱚᱴᱚᱱ
ᱯᱚᱨᱡᱟ
ᱯᱚᱨᱢᱟᱨ
ᱯᱚᱨᱢᱟᱬ
ᱯᱚᱨᱢᱟᱬᱩ
ᱯᱚᱨᱢᱟᱱ
ᱯᱚᱨᱢᱟᱱᱬᱩ
ᱯᱚᱨᱤ
ᱯᱚᱨᱤᱠᱚᱞᱯᱚᱱᱟ
ᱯᱚᱨᱤᱠᱨᱚᱢᱟ
ᱯᱚᱨᱤᱡᱟ
ᱯᱚᱨᱤᱢᱚᱞ
ᱯᱚᱨᱤᱢᱚᱱᱤ
ᱯᱚᱨᱤᱢᱚᱲ
ᱯᱚᱨᱤᱣᱚᱦᱚᱱ
ᱯᱚᱨᱤᱥᱚᱫ
ᱯᱚᱨᱤᱥᱚᱫᱽ
ᱯᱚᱨᱤᱥᱛᱤᱛᱷᱤ
ᱯᱚᱨᱤᱦᱟᱨ
ᱯᱚᱨᱤᱪᱟᱞᱚᱠ
ᱯᱚᱨᱤᱪᱟᱞᱚᱱᱟ
ᱯᱚᱨᱤᱪᱟᱞᱚᱱᱟᱣ
ᱯᱚᱨᱤᱪᱷᱮᱫ
ᱯᱚᱨᱤᱰᱟ
ᱯᱚᱨᱤᱵᱚᱦᱚᱱ
ᱯᱚᱨᱤᱵᱟ
ᱯᱚᱨᱤᱵᱟᱨ
ᱯᱚᱨᱤᱵᱮᱥ
ᱯᱚᱨᱥᱚᱱ
ᱯᱚᱨᱥᱟ
ᱯᱚᱨᱥᱟᱥᱚᱱ
ᱯᱚᱨᱥᱟᱥᱚᱱᱤᱠ
ᱯᱚᱨᱥᱤᱭᱟᱱ
ᱯᱚᱨᱥᱩᱨᱟᱢ
ᱯᱚᱨᱪᱟᱨ
ᱯᱚᱨᱫᱚᱨᱥᱚᱱ
ᱯᱚᱨᱫᱟ
ᱯᱚᱨᱫᱷᱟᱱ
ᱯᱚᱨᱭᱚᱴᱚᱱ
ᱯᱚᱨᱮ
ᱯᱚᱨᱮᱠᱷ
ᱯᱚᱨᱮᱥ
ᱯᱚᱨᱯᱷᱩᱞᱞᱚ
ᱯᱚᱨᱯᱷᱳᱨᱢᱟᱱᱥ
ᱯᱚᱨᱯᱷᱳᱨᱢᱤᱝ
ᱯᱚᱨᱱ
ᱯᱚᱨᱱᱚᱜᱽᱨᱟᱯᱷᱤ
ᱯᱚᱨᱱᱚᱜᱽᱨᱟᱯᱷᱤᱠ
ᱯᱚᱨᱱᱚᱢᱳᱪᱤ
ᱯᱚᱨᱴ
ᱯᱚᱨᱴᱞᱮᱸᱰ
ᱯᱚᱨᱴᱟᱞ
ᱯᱚᱨᱵᱚ
ᱯᱚᱨᱵᱚᱛ
ᱯᱚᱨᱵᱚᱱᱫᱚᱨ
ᱯᱚᱪᱮ
ᱯᱚᱪᱷᱤᱢ
ᱯᱚᱫ
ᱯᱚᱫᱚ
ᱯᱚᱫᱚᱠ
ᱯᱚᱫᱟᱨᱛᱷ
ᱯᱚᱫᱟᱨᱛᱷᱚ
ᱯᱚᱫᱢᱚ
ᱯᱚᱫᱢᱚᱥᱨᱤ
ᱯᱚᱫᱫᱟ
ᱯᱚᱫᱽ
ᱯᱚᱫᱽᱢᱚ
ᱯᱚᱫᱽᱢᱚᱥᱨᱤ
ᱯᱚᱫᱽᱢᱚᱥᱷᱨᱤ
ᱯᱚᱫᱽᱢᱚᱵᱷᱩᱥᱚᱬ
ᱯᱚᱫᱽᱢᱟ
ᱯᱚᱫᱽᱢᱟᱡᱟ
ᱯᱚᱫᱽᱢᱟᱯᱨᱤᱭᱟ
ᱯᱚᱫᱽᱢᱟᱵᱚᱛᱤ
ᱯᱚᱫᱽᱢᱤᱱᱤ
ᱯᱚᱬᱟ
ᱯᱚᱭᱥᱟ
ᱯᱚᱭᱮᱱᱴ
ᱯᱚᱭᱮᱸᱴ
ᱯᱚᱯ
ᱯᱚᱯᱚᱨᱪᱟᱨᱤᱡ
ᱯᱚᱯᱚᱱ
ᱯᱚᱯᱤ
ᱯᱚᱯᱩ
ᱯᱚᱯᱩᱞᱟᱨ
ᱯᱚᱰᱣᱟᱞ
ᱯᱚᱱ
ᱯᱚᱱᱚᱛ
ᱯᱚᱱᱚᱛᱤᱭᱟ
ᱯᱚᱱᱚᱛᱤᱭᱟᱹ
ᱯᱚᱱᱚᱰ
ᱯᱚᱱᱚᱴ
ᱯᱚᱱᱛᱷᱟ
ᱯᱚᱱᱟᱜ
ᱯᱚᱱᱡᱟᱵ
ᱯᱚᱱᱡᱟᱵᱤ
ᱯᱚᱱᱡᱟᱵᱽ
ᱯᱚᱱᱤᱨ
ᱯᱚᱱᱪᱟᱭᱚᱛ
ᱯᱚᱱᱭᱟ
ᱯᱚᱱᱮᱭᱟ
ᱯᱚᱱᱰ
ᱯᱚᱱᱰᱟ
ᱯᱚᱱᱰᱤᱛ
ᱯᱚᱱᱰᱤᱪᱮᱨᱤ
ᱯᱚᱱᱱᱮᱨᱤ
ᱯᱚᱲᱦᱚᱱ
ᱯᱚᱲᱦᱚᱱᱚᱜ
ᱯᱚᱴ
ᱯᱚᱴᱚᱡ
ᱯᱚᱴᱚᱢ
ᱯᱚᱴᱚᱢᱫᱟᱜ
ᱯᱚᱴᱚᱱᱟᱭᱚᱠ
ᱯᱚᱴᱚᱵ
ᱯᱚᱴᱟᱣ
ᱯᱚᱴᱟᱥ
ᱯᱚᱴᱟᱥᱤᱭᱟᱢ
ᱯᱚᱴᱟᱱᱤ
ᱯᱚᱴᱠᱟ
ᱯᱚᱴᱤᱭᱟᱞᱟ
ᱯᱚᱴᱩᱣᱭᱟᱠᱷᱟᱞᱤ
ᱯᱚᱴᱮᱞ
ᱯᱚᱴᱱᱟ
ᱯᱚᱴᱱᱟᱭᱚᱠ
ᱯᱚᱴᱱᱟᱭᱮᱠ
ᱯᱚᱴᱴᱚᱱᱟᱭᱚᱠ
ᱯᱚᱴᱷᱟᱱᱠᱚᱴ
ᱯᱚᱵᱞᱤᱠ
ᱯᱚᱵᱟ
ᱯᱚᱵᱤᱛᱨᱚ
ᱯᱚᱵᱽᱞᱤᱠ
ᱯᱚᱸ
ᱯᱚᱸᱛᱱᱚᱜᱚᱨ
ᱯᱚᱸᱡᱟᱵ
ᱯᱚᱸᱡᱟᱵᱤ
ᱯᱚᱸᱡᱟᱵᱽ
ᱯᱚᱸᱪᱟᱭᱚᱛ
ᱯᱚᱸᱰᱤᱛ
ᱯᱚᱸᱰᱮᱛ
ᱯᱚᱸᱱᱰᱤᱛ
ᱯᱞᱚᱥ
ᱯᱞᱚᱴ
ᱯᱞᱟᱡᱽᱢᱟ
ᱯᱞᱟᱢ
ᱯᱞᱟᱥ
ᱯᱞᱟᱥᱴᱤᱠ
ᱯᱞᱟᱱ
ᱯᱞᱟᱱᱤᱝ
ᱯᱞᱟᱱᱴ
ᱯᱞᱟᱴᱚ
ᱯᱞᱟᱴᱯᱷᱚᱨ
ᱯᱞᱟᱴᱯᱷᱚᱨᱢ
ᱯᱞᱟᱸᱴ
ᱯᱞᱮ
ᱯᱞᱮᱭ
ᱯᱞᱮᱭᱚᱨ
ᱯᱞᱮᱭᱟᱨ
ᱯᱞᱮᱭᱟᱹᱨ
ᱯᱞᱮᱱ
ᱯᱞᱮᱴ
ᱯᱞᱮᱴᱯᱷᱚᱨᱚᱢ
ᱯᱞᱮᱴᱯᱷᱚᱨᱢ
ᱯᱞᱮᱵᱮᱠ
ᱯᱟ
ᱯᱟᱛ
ᱯᱟᱛᱚᱨ
ᱯᱟᱛᱞᱟ
ᱯᱟᱛᱟ
ᱯᱟᱛᱟᱞ
ᱯᱟᱛᱠᱤ
ᱯᱟᱛᱨᱚ
ᱯᱟᱛᱨᱟᱛᱩ
ᱯᱟᱛᱨᱤᱠᱟ
ᱯᱟᱛᱭᱟ
ᱯᱟᱛᱲᱟ
ᱯᱟᱛᱷᱚᱨ
ᱯᱟᱛᱷᱟᱢ
ᱯᱟᱛᱷᱟᱨ
ᱯᱟᱛᱷᱟᱨᱜᱟᱢᱟ
ᱯᱟᱛᱷᱤᱵᱷᱚᱨᱟ
ᱯᱟᱜᱚᱞ
ᱯᱟᱜᱚᱲᱚ
ᱯᱟᱜᱟᱱ
ᱯᱟᱜᱽᱞᱟ
ᱯᱟᱝᱜᱟᱥᱤᱱᱟᱱ
ᱯᱟᱝᱥᱟ
ᱯᱟᱞ
ᱯᱟᱞᱚ
ᱯᱟᱞᱚᱱ
ᱯᱟᱞᱚᱱᱯᱩᱨ
ᱯᱟᱞᱜᱷᱟᱨ
ᱯᱟᱞᱟ
ᱯᱟᱞᱟᱠ
ᱯᱟᱞᱟᱠᱠᱟᱲ
ᱯᱟᱞᱟᱢ
ᱯᱟᱞᱟᱢᱩ
ᱯᱟᱞᱟᱣ
ᱯᱟᱞᱟᱱ
ᱯᱟᱞᱠᱚᱴ
ᱯᱟᱞᱠᱤ
ᱯᱟᱞᱣᱟᱞ
ᱯᱟᱞᱤ
ᱯᱟᱞᱤᱠᱟ
ᱯᱟᱞᱤᱴᱤ
ᱯᱟᱞᱮ
ᱯᱟᱞᱮᱥ
ᱯᱟᱞᱮᱱ
ᱯᱟᱞᱮᱱᱚᱫ
ᱯᱟᱞᱯᱟ
ᱯᱟᱞᱴᱚᱱ
ᱯᱟᱞᱴᱟᱣ
ᱯᱟᱠ
ᱯᱟᱠᱚᱲ
ᱯᱟᱠᱟ
ᱯᱟᱠᱟᱲ
ᱯᱟᱠᱤᱥᱛᱟᱱ
ᱯᱟᱠᱤᱥᱛᱟᱱᱤ
ᱯᱟᱠᱤᱥᱛᱟᱱᱤᱭᱟᱹ
ᱯᱟᱠᱤᱥᱛᱷᱟᱱ
ᱯᱟᱠᱩᱨ
ᱯᱟᱠᱩᱲ
ᱯᱟᱠᱩᱲᱤᱭᱟᱹ
ᱯᱟᱠᱬᱟ
ᱯᱟᱠᱷᱛᱩᱱᱠᱷᱣᱟ
ᱯᱟᱠᱷᱤ
ᱯᱟᱡᱟ
ᱯᱟᱡᱷᱟᱲ
ᱯᱟᱡᱽ
ᱯᱟᱢ
ᱯᱟᱣ
ᱯᱟᱣᱞᱳ
ᱯᱟᱣᱟᱨ
ᱯᱟᱣᱟᱱ
ᱯᱟᱣᱨᱟ
ᱯᱟᱣᱨᱟᱹ
ᱯᱟᱣᱨᱤ
ᱯᱟᱣᱩᱞ
ᱯᱟᱥ
ᱯᱟᱥᱛᱚ
ᱯᱟᱥᱛᱟ
ᱯᱟᱥᱛᱩᱱ
ᱯᱟᱥᱛᱷᱚ
ᱯᱟᱥᱛᱷᱩᱱ
ᱯᱟᱥᱟ
ᱯᱟᱥᱣᱟᱱ
ᱯᱟᱥᱤ
ᱯᱟᱥᱤᱜᱷᱟᱴ
ᱯᱟᱥᱪᱚᱨ
ᱯᱟᱥᱪᱷᱤᱢ
ᱯᱟᱥᱮ
ᱯᱟᱥᱮᱡ
ᱯᱟᱥᱮᱧᱡᱚᱨ
ᱯᱟᱥᱮᱱᱡᱚᱨ
ᱯᱟᱥᱱᱟᱣ
ᱯᱟᱥᱱᱟᱣᱚᱜ
ᱯᱟᱥᱱᱟᱣᱜ
ᱯᱟᱥᱱᱟᱣᱜᱼᱟ
ᱯᱟᱥᱱᱟᱣᱟ
ᱯᱟᱥᱱᱟᱣᱮᱱ
ᱯᱟᱥᱱᱟᱣᱮᱱᱟ
ᱯᱟᱥᱱᱟᱶ
ᱯᱟᱥᱴᱟ
ᱯᱟᱦᱛᱟ
ᱯᱟᱦᱟᱨ
ᱯᱟᱦᱟᱨᱤ
ᱯᱟᱦᱟᱲ
ᱯᱟᱦᱟᱲᱤ
ᱯᱟᱦᱟᱲᱤᱭᱟ
ᱯᱟᱦᱟᱲᱯᱩᱨ
ᱯᱟᱦᱟᱴᱟ
ᱯᱟᱦᱤᱞ
ᱯᱟᱦᱩᱡᱽ
ᱯᱟᱦᱴᱟ
ᱯᱟᱦᱴᱟᱨᱮ
ᱯᱟᱦᱴᱟᱭ
ᱯᱟᱧᱡᱟ
ᱯᱟᱧᱡᱟᱞ
ᱯᱟᱧᱡᱟᱭ
ᱯᱟᱧᱡᱟᱭᱮᱫ
ᱯᱟᱧᱡᱟᱭᱮᱫᱟ
ᱯᱟᱧᱡᱟᱵᱤ
ᱯᱟᱧᱡᱟᱵᱽ
ᱯᱟᱧᱡᱽᱜᱩᱨ
ᱯᱟᱧᱪᱟ
ᱯᱟᱧᱪᱟᱭᱟᱛ
ᱯᱟᱧᱪᱮᱛ
ᱯᱟᱨ
ᱯᱟᱨᱚ
ᱯᱟᱨᱚᱢ
ᱯᱟᱨᱚᱢᱚᱜ
ᱯᱟᱨᱚᱢᱚᱜᱼᱟ
ᱯᱟᱨᱚᱢᱟ
ᱯᱟᱨᱚᱢᱟᱱᱚᱵᱤᱠ
ᱯᱟᱨᱚᱢᱮᱱ
ᱯᱟᱨᱚᱢᱯᱚᱨᱤᱠ
ᱯᱟᱨᱚᱥᱥᱚ
ᱯᱟᱨᱚᱥᱱᱟᱛᱷ
ᱯᱟᱨᱚᱲᱟᱠᱷᱮᱢᱩᱱᱰᱤ
ᱯᱟᱨᱛᱷ
ᱯᱟᱨᱛᱷᱚᱢᱤᱠ
ᱯᱟᱨᱜᱟᱱᱟ
ᱯᱟᱨᱜᱟᱱᱟᱠᱚ
ᱯᱟᱨᱜᱟᱱᱟᱭ
ᱯᱟᱨᱞ
ᱯᱟᱨᱞᱟᱢᱮᱱᱴ
ᱯᱟᱨᱞᱤᱭᱟᱢᱮᱱᱴ
ᱯᱟᱨᱞᱤᱭᱟᱢᱮᱱᱴᱟᱨᱤ
ᱯᱟᱨᱞᱤᱭᱟᱢᱮᱴ
ᱯᱟᱨᱞᱤᱭᱟᱢᱮᱸᱴ
ᱯᱟᱨᱟ
ᱯᱟᱨᱟᱛ
ᱯᱟᱨᱟᱝᱜᱚᱛ
ᱯᱟᱨᱟᱥᱤᱴᱟᱢᱚᱞ
ᱯᱟᱨᱟᱥᱱᱟᱛᱷ
ᱯᱟᱨᱟᱫᱤᱯ
ᱯᱟᱨᱟᱱᱤᱠ
ᱯᱟᱨᱟᱵ
ᱯᱟᱨᱟᱵᱽ
ᱯᱟᱨᱠ
ᱯᱟᱨᱠᱚᱢ
ᱯᱟᱨᱢᱟᱬᱩ
ᱯᱟᱨᱢᱟᱱᱩ
ᱯᱟᱨᱢᱟᱱᱮᱱᱴ
ᱯᱟᱨᱣᱟ
ᱯᱟᱨᱣᱤᱱ
ᱯᱟᱨᱤ
ᱯᱟᱨᱤᱥ
ᱯᱟᱨᱤᱥᱚᱫ
ᱯᱟᱨᱤᱥᱚᱫᱷ
ᱯᱟᱨᱤᱥᱚᱫᱽ
ᱯᱟᱨᱤᱥᱟᱫᱽ
ᱯᱟᱨᱥᱚ
ᱯᱟᱨᱥᱟ
ᱯᱟᱨᱥᱟᱞ
ᱯᱟᱨᱥᱟᱞᱚᱜ
ᱯᱟᱨᱥᱟᱞᱟ
ᱯᱟᱨᱥᱟᱞᱮᱛ
ᱯᱟᱨᱥᱟᱨ
ᱯᱟᱨᱥᱤ
ᱯᱟᱨᱥᱤᱭᱟ
ᱯᱟᱨᱥᱤᱭᱟᱱ
ᱯᱟᱨᱥᱮᱛ
ᱯᱟᱨᱥᱮᱛᱮ
ᱯᱟᱨᱥᱮᱫ
ᱯᱟᱨᱦᱟᱣ
ᱯᱟᱨᱦᱟᱲ
ᱯᱟᱨᱩᱞ
ᱯᱟᱨᱪᱟᱣ
ᱯᱟᱨᱫᱟ
ᱯᱟᱨᱮ
ᱯᱟᱨᱮᱰ
ᱯᱟᱨᱳ
ᱯᱟᱨᱴ
ᱯᱟᱨᱴᱤ
ᱯᱟᱨᱵᱚᱛᱛᱚ
ᱯᱟᱨᱵᱚᱛᱤ
ᱯᱟᱨᱵᱚᱛᱤᱯᱩᱨ
ᱯᱟᱨᱵᱚᱛᱤᱯᱩᱨᱚᱢ
ᱯᱟᱨᱵᱚᱱ
ᱯᱟᱨᱵᱟᱛᱤ
ᱯᱟᱨᱵᱷᱟᱱᱤ
ᱯᱟᱩᱞ
ᱯᱟᱪᱟᱣ
ᱯᱟᱪᱢᱟᱲᱤ
ᱯᱟᱪᱪᱷᱮ
ᱯᱟᱪᱮ
ᱯᱟᱪᱮᱢ
ᱯᱟᱪᱮᱨᱤ
ᱯᱟᱪᱮᱨᱮ
ᱯᱟᱪᱮᱭᱟᱭ
ᱯᱟᱪᱷᱤᱢ
ᱯᱟᱪᱷᱮ
ᱯᱟᱫᱟ
ᱯᱟᱫᱟᱢ
ᱯᱟᱫᱢᱟ
ᱯᱟᱫᱩᱠᱳᱱ
ᱯᱟᱫᱽᱢᱟ
ᱯᱟᱬᱤᱜᱨᱟᱦᱤ
ᱯᱟᱬᱤᱜᱽᱨᱟᱦᱤ
ᱯᱟᱭ
ᱯᱟᱭᱛᱟᱨ
ᱯᱟᱭᱛᱷᱚᱱ
ᱯᱟᱭᱞᱚᱴ
ᱯᱟᱭᱠᱚ
ᱯᱟᱭᱤᱠ
ᱯᱟᱭᱤᱠᱜᱟᱪᱷᱟ
ᱯᱟᱭᱤᱠᱜᱽᱟᱪᱷᱟ
ᱯᱟᱭᱤᱯ
ᱯᱟᱭᱤᱱ
ᱯᱟᱭᱥᱟ
ᱯᱟᱭᱨᱟ
ᱯᱟᱭᱨᱟᱜ
ᱯᱟᱭᱨᱟᱜᱼᱟ
ᱯᱟᱭᱬᱟ
ᱯᱟᱯ
ᱯᱟᱯᱟ
ᱯᱟᱯᱟᱥᱱᱟᱣ
ᱯᱟᱯᱟᱴ
ᱯᱟᱯᱟᱴᱤᱡ
ᱯᱟᱯᱟᱴᱤᱭᱟ
ᱯᱟᱯᱟᱴᱤᱭᱟᱹ
ᱯᱟᱯᱟᱴᱤᱭᱟᱹᱭ
ᱯᱟᱯᱤ
ᱯᱟᱯᱩᱢ
ᱯᱟᱯᱩᱣᱟ
ᱯᱟᱯᱲᱤ
ᱯᱟᱰᱣᱟ
ᱯᱟᱰᱦᱟᱣ
ᱯᱟᱰᱷᱟᱣ
ᱯᱟᱰᱷᱤ
ᱯᱟᱱ
ᱯᱟᱱᱛᱩᱞᱟ
ᱯᱟᱱᱛᱮ
ᱯᱟᱱᱛᱷᱟ
ᱯᱟᱱᱟᱜᱚᱲ
ᱯᱟᱱᱟᱢᱟ
ᱯᱟᱱᱟᱦᱤ
ᱯᱟᱱᱡᱟ
ᱯᱟᱱᱤ
ᱯᱟᱱᱤᱯᱚᱛ
ᱯᱟᱱᱤᱯᱟᱛ
ᱯᱟᱱᱤᱱᱤ
ᱯᱟᱱᱥᱮᱢᱚᱞ
ᱯᱟᱱᱪᱥᱳᱣᱟ
ᱯᱟᱱᱰᱚᱵᱽ
ᱯᱟᱱᱰᱟ
ᱯᱟᱱᱰᱩ
ᱯᱟᱱᱰᱭᱟ
ᱯᱟᱱᱰᱮ
ᱯᱟᱱᱱᱟ
ᱯᱟᱲ
ᱯᱟᱲᱟ
ᱯᱟᱲᱟᱜ
ᱯᱟᱲᱟᱜᱼᱟ
ᱯᱟᱲᱟᱣ
ᱯᱟᱲᱟᱣᱜ
ᱯᱟᱲᱟᱣᱜᱼᱟ
ᱯᱟᱲᱟᱣᱼᱟ
ᱯᱟᱲᱦᱚᱣ
ᱯᱟᱲᱦᱟᱜ
ᱯᱟᱲᱦᱟᱣ
ᱯᱟᱲᱦᱟᱣᱚᱜ
ᱯᱟᱲᱦᱟᱣᱜ
ᱯᱟᱲᱦᱟᱣᱟ
ᱯᱟᱲᱦᱟᱣᱮᱫ
ᱯᱟᱲᱷᱟᱣ
ᱯᱟᱴ
ᱯᱟᱴᱚᱣᱟᱨᱤ
ᱯᱟᱴᱚᱱ
ᱯᱟᱴᱞᱤᱯᱩᱛᱨᱟ
ᱯᱟᱴᱟ
ᱯᱟᱴᱟᱱ
ᱯᱟᱴᱟᱱᱤ
ᱯᱟᱴᱠᱚᱨ
ᱯᱟᱴᱤ
ᱯᱟᱴᱤᱞ
ᱯᱟᱴᱤᱭᱟᱞᱟ
ᱯᱟᱴᱨᱤ
ᱯᱟᱴᱮᱞ
ᱯᱟᱴᱱᱟ
ᱯᱟᱴᱱᱟᱭᱚᱠ
ᱯᱟᱴᱴᱟ
ᱯᱟᱴᱴᱤ
ᱯᱟᱴᱷ
ᱯᱟᱴᱷᱚᱠ
ᱯᱟᱴᱷᱟ
ᱯᱟᱴᱷᱟᱨ
ᱯᱟᱴᱷᱟᱬ
ᱯᱟᱴᱷᱟᱱ
ᱯᱟᱴᱷᱟᱱᱠᱚᱴ
ᱯᱟᱴᱷᱣᱟᱹ
ᱯᱟᱴᱷᱱᱟ
ᱯᱟᱵᱞᱤᱠ
ᱯᱟᱵᱱᱟ
ᱯᱟᱵᱽᱞᱤᱠ
ᱯᱟᱵᱽᱱᱟ
ᱯᱟᱸᱠᱷᱟ
ᱯᱟᱸᱡᱟ
ᱯᱟᱸᱡᱟᱭ
ᱯᱟᱸᱡᱟᱭᱟ
ᱯᱟᱸᱡᱟᱵᱤ
ᱯᱟᱸᱡᱟᱵᱽ
ᱯᱟᱸᱪ
ᱯᱟᱸᱪᱛᱷᱚᱨ
ᱯᱟᱸᱪᱟᱞᱤ
ᱯᱟᱸᱪᱟᱭᱟᱛ
ᱯᱟᱸᱪᱠᱩᱞᱟ
ᱯᱟᱸᱪᱢᱚᱦᱚᱞ
ᱯᱟᱸᱪᱣᱟᱲᱟ
ᱯᱟᱸᱪᱵᱤᱵᱤ
ᱯᱟᱸᱰᱩᱞᱤᱯᱤ
ᱯᱟᱸᱰᱮ
ᱯᱟᱸᱰᱷᱩᱨᱱᱟ
ᱯᱟᱹ
ᱯᱟᱹᱛᱤᱭᱟᱹᱣ
ᱯᱟᱹᱛᱭᱟᱣ
ᱯᱟᱹᱛᱭᱟᱹᱣ
ᱯᱟᱹᱛᱭᱟᱹᱣᱟ
ᱯᱟᱹᱛᱭᱟᱹᱶ
ᱯᱟᱹᱞᱠᱤ
ᱯᱟᱹᱣᱨᱟ
ᱯᱟᱹᱣᱨᱟᱹ
ᱯᱟᱹᱣᱩᱞ
ᱯᱟᱹᱣᱲᱤ
ᱯᱟᱹᱥᱤ
ᱯᱟᱹᱦᱤᱞ
ᱯᱟᱹᱦᱬᱟᱹ
ᱯᱟᱹᱧᱡᱤ
ᱯᱟᱹᱨᱟ
ᱯᱟᱹᱨᱣᱟᱹ
ᱯᱟᱹᱨᱤ
ᱯᱟᱹᱨᱤᱥ
ᱯᱟᱹᱨᱤᱥᱮ
ᱯᱟᱹᱨᱥᱤ
ᱯᱟᱹᱨᱥᱤᱛᱮ
ᱯᱟᱹᱨᱥᱤᱠᱚ
ᱯᱟᱹᱨᱥᱤᱭᱟᱱ
ᱯᱟᱹᱨᱥᱤᱭᱟᱹ
ᱯᱟᱹᱨᱥᱤᱵᱟᱵᱚᱫᱽ
ᱯᱟᱹᱨᱩᱠᱷᱤᱭᱟᱹ
ᱯᱟᱹᱨᱩᱠᱷᱤᱭᱟᱹᱭ
ᱯᱟᱹᱨᱯᱷᱚᱨᱢᱮᱱᱥ
ᱯᱟᱹᱨᱴᱤ
ᱯᱟᱹᱪᱨᱤ
ᱯᱟᱹᱪᱷᱞᱟᱹ
ᱯᱟᱹᱪᱷᱟᱞᱟᱹ
ᱯᱟᱹᱪᱷᱤᱢ
ᱯᱟᱹᱭᱞᱟᱹ
ᱯᱟᱹᱭᱠᱚ
ᱯᱟᱹᱭᱤᱯ
ᱯᱟᱹᱰᱟ
ᱯᱟᱹᱰᱩ
ᱯᱟᱹᱱᱟᱹᱨᱥᱤ
ᱯᱟᱹᱱᱟᱹᱨᱥᱤᱭᱟᱹ
ᱯᱟᱹᱱᱪᱤ
ᱯᱟᱹᱴᱤᱭᱟᱹ
ᱯᱟᱹᱴᱭᱟᱹ
ᱯᱟᱹᱴᱷᱣᱟᱹ
ᱯᱟᱹᱴᱷᱩᱣᱟ
ᱯᱟᱹᱴᱷᱩᱣᱟᱹ
ᱯᱟᱹᱴᱷᱩᱣᱟᱹᱭ
ᱯᱟᱹᱴᱷᱩᱭᱟᱹ
ᱯᱟᱺᱡᱤ
ᱯᱤ
ᱯᱤᱛ
ᱯᱤᱛᱚᱞ
ᱯᱤᱛᱟᱢᱵᱚᱨ
ᱯᱤᱛᱟᱹᱡᱽ
ᱯᱤᱛᱷᱚᱨᱜᱟᱲ
ᱯᱤᱝᱞᱟ
ᱯᱤᱝᱠᱤ
ᱯᱤᱞᱞᱟᱭ
ᱯᱤᱞᱞᱟᱭᱤ
ᱯᱤᱞᱟᱨ
ᱯᱤᱞᱟᱭᱤ
ᱯᱤᱞᱠᱷᱩᱣᱟ
ᱯᱤᱞᱤᱵᱷᱤᱛ
ᱯᱤᱞᱪᱩ
ᱯᱤᱠ
ᱯᱤᱠᱟᱥᱳ
ᱯᱤᱠᱪᱟᱨ
ᱯᱤᱠᱪᱟᱨᱥ
ᱯᱤᱠᱱᱤᱠ
ᱯᱤᱡᱤ
ᱯᱤᱢᱯᱨᱤ
ᱯᱤᱥ
ᱯᱤᱥᱛᱚᱞ
ᱯᱤᱥᱟ
ᱯᱤᱥᱟᱣ
ᱯᱤᱥᱤᱱ
ᱯᱤᱥᱴᱚᱞ
ᱯᱤᱨ
ᱯᱤᱨᱚ
ᱯᱤᱨᱚᱡᱽᱯᱩᱨ
ᱯᱤᱨᱜᱚᱸᱡᱽ
ᱯᱤᱨᱜᱟᱪᱷᱟ
ᱯᱤᱨᱟᱢᱤᱰ
ᱯᱤᱨᱳᱡᱽᱯᱩᱨ
ᱯᱤᱪ
ᱯᱤᱪᱟᱭ
ᱯᱤᱪᱷᱟ
ᱯᱤᱪᱷᱟᱹ
ᱯᱤᱪᱷᱤ
ᱯᱤᱪᱷᱲᱟᱹ
ᱯᱤᱫ
ᱯᱤᱫᱽᱨᱟᱹ
ᱯᱤᱭᱚᱝᱤᱭᱟᱝ
ᱯᱤᱭᱞᱩ
ᱯᱤᱭᱟ
ᱯᱤᱭᱟᱨ
ᱯᱤᱮᱪ
ᱯᱤᱮᱪᱰᱤ
ᱯᱤᱮᱭᱤᱪᱥᱤ
ᱯᱤᱯᱚᱞᱥ
ᱯᱤᱯᱤᱯᱤ
ᱯᱤᱯᱤᱲᱤ
ᱯᱤᱯᱩᱞ
ᱯᱤᱯᱩᱞᱥ
ᱯᱤᱰᱷᱤ
ᱯᱤᱱ
ᱯᱤᱱᱟᱨᱟᱭᱤ
ᱯᱤᱱᱰᱟᱹ
ᱯᱤᱲ
ᱯᱤᱲᱤᱭᱟᱺᱝ
ᱯᱤᱲᱦᱤ
ᱯᱤᱲᱷᱤ
ᱯᱤᱴ
ᱯᱤᱴᱚᱨ
ᱯᱤᱴᱚᱨᱥᱵᱚᱨᱜᱽ
ᱯᱤᱴᱚᱨᱵᱚᱨᱜᱽ
ᱯᱤᱴᱟᱨ
ᱯᱤᱴᱷᱟ
ᱯᱤᱴᱷᱟᱹ
ᱯᱤᱸᱠᱤ
ᱯᱤᱸᱰᱟ
ᱯᱤᱹ
ᱯᱤᱹᱮᱪᱹᱰᱤᱹ
ᱯᱥᱹᱨᱥᱤ
ᱯᱦᱤᱞᱢ
ᱯᱦᱤᱞᱤᱢ
ᱯᱨᱚ
ᱯᱨᱚᱛᱟᱯ
ᱯᱨᱚᱛᱟᱯᱜᱚᱲ
ᱯᱨᱚᱛᱤ
ᱯᱨᱚᱛᱤᱠᱥᱟ
ᱯᱨᱚᱛᱤᱠᱨᱤᱭᱟ
ᱯᱨᱚᱛᱤᱢᱟ
ᱯᱨᱚᱛᱤᱥᱚᱛ
ᱯᱨᱚᱛᱤᱥᱟᱛ
ᱯᱨᱚᱛᱤᱥᱴᱷᱟ
ᱯᱨᱚᱛᱤᱥᱴᱷᱟᱱ
ᱯᱨᱚᱛᱤᱥᱴᱷᱤᱛ
ᱯᱨᱚᱛᱤᱯᱚᱫᱟ
ᱯᱨᱚᱛᱤᱱᱤᱫᱷᱤ
ᱯᱨᱚᱛᱤᱱᱤᱫᱷᱤᱛᱣᱚ
ᱯᱨᱚᱛᱤᱵᱷᱟ
ᱯᱨᱚᱛᱷᱚᱢ
ᱯᱨᱚᱛᱷᱟ
ᱯᱨᱚᱜᱨᱟᱢ
ᱯᱨᱚᱜᱨᱟᱢᱤᱝ
ᱯᱨᱚᱜᱽᱨᱟᱢ
ᱯᱨᱚᱜᱽᱨᱟᱢᱤᱝ
ᱯᱨᱚᱠᱚᱞᱯᱚ
ᱯᱨᱚᱠᱟᱥ
ᱯᱨᱚᱠᱟᱥᱚᱢ
ᱯᱨᱚᱠᱟᱨ
ᱯᱨᱚᱠᱨᱤᱛᱤ
ᱯᱨᱚᱠᱨᱤᱭᱟ
ᱯᱨᱚᱠᱷᱚᱱᱰ
ᱯᱨᱚᱡᱟᱛᱚᱱᱛᱨᱚ
ᱯᱨᱚᱡᱟᱛᱟᱱᱛᱨᱤᱠ
ᱯᱨᱚᱡᱟᱛᱤ
ᱯᱨᱚᱡᱟᱯᱚᱛᱤ
ᱯᱨᱚᱡᱟᱹᱛᱤ
ᱯᱨᱚᱡᱟᱹᱛᱤᱭᱟᱱ
ᱯᱨᱚᱡᱩᱠᱛᱤ
ᱯᱨᱚᱡᱮᱠ
ᱯᱨᱚᱡᱮᱠᱴ
ᱯᱨᱚᱡᱮᱠᱴᱠᱚ
ᱯᱨᱚᱢᱚᱫᱽ
ᱯᱨᱚᱢᱟᱬ
ᱯᱨᱚᱢᱟᱱ
ᱯᱨᱚᱢᱩᱠᱷ
ᱯᱨᱚᱢᱮᱭ
ᱯᱨᱚᱥᱛᱟᱣ
ᱯᱨᱚᱥᱛᱟᱵᱽ
ᱯᱨᱚᱥᱟᱥᱚᱱ
ᱯᱨᱚᱥᱟᱥᱚᱱᱤᱠ
ᱯᱨᱚᱥᱟᱥᱚᱱᱤᱭᱟᱹ
ᱯᱨᱚᱥᱟᱨ
ᱯᱨᱚᱥᱟᱫ
ᱯᱨᱚᱥᱟᱫᱽ
ᱯᱨᱚᱥᱟᱱᱛ
ᱯᱨᱚᱥᱟᱱᱛᱚ
ᱯᱨᱚᱥᱤᱠᱷᱚᱱ
ᱯᱨᱚᱥᱮᱱᱡᱤᱛ
ᱯᱨᱚᱦᱞᱟᱫᱽ
ᱯᱨᱚᱦᱟᱨ
ᱯᱨᱚᱪᱚᱱᱰᱚ
ᱯᱨᱚᱪᱟᱨ
ᱯᱨᱚᱫᱚᱨᱥᱚᱱ
ᱯᱨᱚᱫᱚᱨᱥᱟᱱ
ᱯᱨᱚᱫᱤᱯ
ᱯᱨᱚᱫᱮᱥ
ᱯᱨᱚᱫᱷᱟᱱ
ᱯᱨᱚᱫᱷᱟᱱᱢᱚᱱᱛᱨᱤ
ᱯᱨᱚᱫᱷᱟᱱᱢᱳᱱᱛᱨᱤ
ᱯᱨᱚᱫᱽᱭᱩᱢᱱᱚ
ᱯᱨᱚᱬᱚᱵᱽ
ᱯᱨᱚᱬᱟᱞᱤ
ᱯᱨᱚᱭᱟᱜᱽ
ᱯᱨᱚᱭᱟᱜᱽᱨᱟᱡᱽ
ᱯᱨᱚᱯᱷᱟᱭᱤᱞ
ᱯᱨᱚᱯᱷᱩᱞᱞᱚ
ᱯᱨᱚᱯᱷᱮᱥᱚᱨ
ᱯᱨᱚᱯᱷᱮᱥᱚᱱᱟᱞ
ᱯᱨᱚᱯᱷᱮᱥᱟᱨ
ᱯᱨᱚᱰᱚᱠᱥᱚᱱ
ᱯᱨᱚᱰᱚᱠᱴ
ᱯᱨᱚᱰᱟᱠᱥᱚᱱ
ᱯᱨᱚᱰᱟᱠᱥᱟᱱ
ᱯᱨᱚᱰᱟᱠᱴ
ᱯᱨᱚᱰᱤᱭᱩᱥᱟᱨ
ᱯᱨᱚᱰᱩᱥᱚᱨ
ᱯᱨᱚᱰᱭᱩᱥ
ᱯᱨᱚᱰᱭᱩᱥᱚᱨ
ᱯᱨᱚᱰᱭᱩᱥᱟᱨ
ᱯᱨᱚᱱᱚᱵᱽ
ᱯᱨᱚᱱᱟᱞᱤ
ᱯᱨᱚᱱᱴ
ᱯᱨᱚᱴᱚᱱ
ᱯᱨᱚᱴᱤᱚᱢᱤᱠᱥ
ᱯᱨᱚᱴᱤᱱ
ᱯᱨᱚᱵᱟᱥᱤ
ᱯᱨᱚᱵᱷᱟ
ᱯᱨᱚᱵᱷᱟᱛ
ᱯᱨᱚᱵᱷᱟᱠᱚᱨ
ᱯᱨᱚᱵᱷᱟᱣ
ᱯᱨᱚᱵᱷᱟᱥ
ᱯᱨᱚᱵᱷᱟᱵᱚᱛᱤ
ᱯᱨᱚᱵᱷᱟᱵᱽ
ᱯᱨᱚᱵᱷᱤᱱᱥ
ᱯᱨᱚᱵᱷᱩ
ᱯᱨᱟ
ᱯᱨᱟᱛᱷᱚᱢᱤᱠ
ᱯᱨᱟᱜᱽ
ᱯᱨᱟᱠᱟᱥ
ᱯᱨᱟᱠᱨᱤᱛ
ᱯᱨᱟᱠᱨᱤᱛᱤᱠ
ᱯᱨᱟᱠᱨᱩᱛᱤᱠ
ᱯᱨᱟᱡᱟᱹᱛᱤ
ᱯᱨᱟᱢᱮᱭ
ᱯᱨᱟᱤᱵᱷᱮᱴ
ᱯᱨᱟᱥᱟᱫᱽ
ᱯᱨᱟᱥᱟᱭᱤ
ᱯᱨᱟᱥᱤᱫᱷ
ᱯᱨᱟᱥᱤᱫᱷᱤ
ᱯᱨᱟᱫᱤᱯ
ᱯᱨᱟᱫᱮᱥ
ᱯᱨᱟᱫᱷᱟᱱ
ᱯᱨᱟᱫᱷᱤᱠᱚᱨᱚᱬ
ᱯᱨᱟᱫᱷᱤᱠᱚᱨᱚᱱ
ᱯᱨᱟᱬ
ᱯᱨᱟᱭ
ᱯᱨᱟᱭᱚᱡᱟᱱ
ᱯᱨᱟᱭᱟᱜᱽ
ᱯᱨᱟᱭᱢᱟᱨᱤ
ᱯᱨᱟᱭᱢᱮᱨᱤ
ᱯᱨᱟᱭᱤᱡ
ᱯᱨᱟᱭᱤᱡᱽ
ᱯᱨᱟᱭᱤᱢ
ᱯᱨᱟᱭᱤᱣᱮᱴ
ᱯᱨᱟᱭᱫᱤᱯ
ᱯᱨᱟᱭᱵᱷᱮᱴ
ᱯᱨᱟᱱ
ᱯᱨᱟᱱᱛ
ᱯᱨᱟᱱᱛᱤᱠ
ᱯᱨᱟᱱᱤ
ᱯᱨᱟᱱᱥ
ᱯᱨᱟᱵᱷᱩ
ᱯᱨᱟᱵᱷᱮᱴ
ᱯᱨᱟᱸᱛ
ᱯᱨᱤ
ᱯᱨᱤᱛᱚᱢ
ᱯᱨᱤᱛᱤ
ᱯᱨᱤᱛᱤᱞᱚᱛᱟ
ᱯᱨᱤᱛᱷᱤᱵᱤ
ᱯᱨᱤᱛᱷᱵᱤᱯᱩᱨ
ᱯᱨᱤᱠᱥ
ᱯᱨᱤᱢᱤᱭᱚᱨ
ᱯᱨᱤᱢᱤᱭᱟᱨ
ᱯᱨᱤᱭᱚ
ᱯᱨᱤᱭᱚᱝᱠᱟ
ᱯᱨᱤᱭᱚᱫᱚᱨᱥᱤᱱᱤ
ᱯᱨᱤᱭᱟ
ᱯᱨᱤᱭᱳ
ᱯᱨᱤᱱᱥ
ᱯᱨᱤᱱᱥᱞᱤ
ᱯᱨᱤᱱᱥᱤᱯᱟᱞ
ᱯᱨᱤᱱᱥᱮᱥ
ᱯᱨᱤᱱᱥᱯᱟᱞ
ᱯᱨᱩᱛᱷᱩᱢ
ᱯᱨᱩᱥᱤᱭᱟ
ᱯᱨᱫᱮᱥ
ᱯᱨᱭ
ᱯᱨᱮ
ᱯᱨᱮᱠᱴᱤᱠ
ᱯᱨᱮᱠᱴᱤᱥ
ᱯᱨᱮᱡᱮᱱᱴᱚᱨ
ᱯᱨᱮᱢ
ᱯᱨᱮᱢᱟ
ᱯᱨᱮᱢᱤ
ᱯᱨᱮᱥ
ᱯᱨᱮᱥᱚᱨ
ᱯᱨᱮᱥᱠᱚᱴ
ᱯᱨᱮᱥᱤᱰᱮᱱᱥᱤ
ᱯᱨᱮᱥᱤᱰᱮᱱᱴ
ᱯᱨᱮᱥᱤᱰᱮᱸᱴ
ᱯᱨᱮᱥᱤᱵᱮᱱᱴ
ᱯᱨᱮᱨᱚᱬᱟ
ᱯᱨᱮᱨᱤᱛ
ᱯᱨᱳᱜᱨᱟᱢ
ᱯᱨᱳᱜᱽᱨᱟᱢ
ᱯᱨᱳᱜᱽᱨᱟᱢᱤᱝ
ᱯᱨᱳᱡᱮᱠᱴ
ᱯᱨᱳᱢᱳᱥᱚᱱ
ᱯᱨᱳᱥᱮᱥ
ᱯᱨᱳᱯᱷᱮᱥᱚᱨ
ᱯᱨᱳᱯᱷᱮᱥᱟᱨ
ᱯᱨᱳᱰᱚᱠᱥᱚᱱ
ᱯᱨᱳᱰᱚᱠᱥᱳᱱ
ᱯᱨᱳᱰᱩᱥᱚᱨ
ᱯᱨᱳᱰᱭᱩᱥᱚᱨ
ᱯᱨᱳᱴᱤᱱ
ᱯᱨᱳᱴᱮᱥᱴᱟᱱ
ᱯᱨᱳᱴᱳ
ᱯᱩ
ᱯᱩᱛᱤᱱ
ᱯᱩᱛᱨᱚ
ᱯᱩᱛᱩᱞ
ᱯᱩᱛᱷᱤ
ᱯᱩᱛᱷᱤᱭ
ᱯᱩᱜ
ᱯᱩᱜᱚᱜ
ᱯᱩᱞ
ᱯᱩᱞᱣᱟᱢᱟ
ᱯᱩᱞᱤ
ᱯᱩᱞᱤᱥ
ᱯᱩᱞᱤᱱ
ᱯᱩᱞᱩ
ᱯᱩᱠᱷᱚᱨᱤ
ᱯᱩᱠᱷᱨᱤ
ᱯᱩᱡᱟ
ᱯᱩᱡᱟᱨᱤ
ᱯᱩᱡᱟᱹ
ᱯᱩᱣᱚ
ᱯᱩᱤᱞᱩ
ᱯᱩᱥ
ᱯᱩᱥᱠᱤᱱ
ᱯᱩᱥᱤ
ᱯᱩᱥᱯᱚ
ᱯᱩᱥᱯᱟ
ᱯᱩᱥᱯᱠᱣᱟᱪ
ᱯᱩᱥᱴᱟ
ᱯᱩᱥᱴᱟᱹᱣ
ᱯᱩᱥᱴᱤ
ᱯᱩᱥᱴᱤᱥᱟᱨ
ᱯᱩᱧᱡᱤ
ᱯᱩᱧᱡᱤᱰᱷᱤᱯ
ᱯᱩᱧᱡᱤᱵᱟ
ᱯᱩᱧᱪ
ᱯᱩᱧᱪᱷ
ᱯᱩᱨ
ᱯᱩᱨᱚᱢ
ᱯᱩᱨᱚᱥᱚᱵᱷᱟ
ᱯᱩᱨᱚᱥᱠᱟᱨ
ᱯᱩᱨᱚᱱ
ᱯᱩᱨᱛᱜᱟᱞᱤ
ᱯᱩᱨᱛᱩᱜᱟᱞ
ᱯᱩᱨᱛᱩᱜᱤᱡᱽ
ᱯᱩᱨᱟ
ᱯᱩᱨᱟᱜ
ᱯᱩᱨᱟᱢ
ᱯᱩᱨᱟᱣ
ᱯᱩᱨᱟᱬ
ᱯᱩᱨᱟᱬᱚ
ᱯᱩᱨᱟᱱ
ᱯᱩᱨᱟᱱᱟ
ᱯᱩᱨᱟᱹ
ᱯᱩᱨᱟᱹᱣ
ᱯᱩᱨᱟᱹᱣᱜᱼᱟ
ᱯᱩᱨᱟᱹᱣᱟ
ᱯᱩᱨᱟᱹᱣᱮᱱ
ᱯᱩᱨᱟᱹᱯᱩᱨᱤ
ᱯᱩᱨᱟᱹᱶ
ᱯᱩᱨᱠᱩᱛ
ᱯᱩᱨᱠᱩᱛᱤᱭᱟ
ᱯᱩᱨᱠᱷᱟ
ᱯᱩᱨᱣᱤ
ᱯᱩᱨᱤ
ᱯᱩᱨᱤᱝ
ᱯᱩᱨᱩ
ᱯᱩᱨᱩᱞᱤᱭᱟ
ᱯᱩᱨᱩᱞᱤᱭᱟᱹ
ᱯᱩᱨᱩᱥ
ᱯᱩᱨᱩᱥᱠᱟᱨ
ᱯᱩᱨᱩᱫᱷᱩᱞ
ᱯᱩᱨᱩᱱ
ᱯᱩᱨᱩᱵ
ᱯᱩᱨᱩᱵᱽ
ᱯᱩᱨᱮ
ᱯᱩᱨᱱ
ᱯᱩᱨᱱᱚ
ᱯᱩᱨᱱᱤᱢᱟ
ᱯᱩᱨᱱᱤᱭᱟ
ᱯᱩᱨᱵ
ᱯᱩᱨᱵᱚ
ᱯᱩᱨᱵᱤ
ᱯᱩᱪᱩᱡ
ᱯᱩᱪᱪᱷᱤᱢ
ᱯᱩᱪᱪᱷᱤᱢᱵᱟᱝᱞᱟ
ᱯᱩᱪᱷᱤᱢ
ᱯᱩᱪᱷᱤᱢᱵᱟᱝᱞᱟ
ᱯᱩᱫ
ᱯᱩᱫᱩᱠᱠᱚᱴᱴᱟᱭ
ᱯᱩᱬᱮ
ᱯᱩᱭᱞᱩ
ᱯᱩᱭᱞᱩᱛᱮ
ᱯᱩᱭᱞᱭ
ᱯᱩᱭᱥᱟ
ᱯᱩᱭᱥᱟᱹ
ᱯᱩᱭᱩᱞᱩ
ᱯᱩᱰ
ᱯᱩᱰᱩᱪᱮᱨᱤ
ᱯᱩᱱ
ᱯᱩᱱᱜᱮᱞ
ᱯᱩᱱᱟ
ᱯᱩᱱᱟᱜ
ᱯᱩᱱᱟᱝ
ᱯᱩᱱᱟᱭ
ᱯᱩᱱᱟᱱ
ᱯᱩᱱᱟᱹᱜ
ᱯᱩᱱᱟᱹᱭ
ᱯᱩᱱᱟᱹᱭᱟᱱ
ᱯᱩᱱᱤᱛ
ᱯᱩᱱᱤᱭᱟ
ᱯᱩᱱᱤᱭᱟᱹ
ᱯᱩᱱᱩᱭ
ᱯᱩᱱᱭᱟ
ᱯᱩᱱᱭᱟᱹ
ᱯᱩᱱᱮ
ᱯᱩᱱᱰ
ᱯᱩᱱᱰᱤᱛ
ᱯᱩᱱᱰᱨᱚ
ᱯᱩᱲᱤ
ᱯᱩᱲᱤᱭᱟᱹ
ᱯᱩᱲᱥᱟᱹ
ᱯᱩᱲᱥᱤ
ᱯᱩᱴ
ᱯᱩᱴᱠᱟᱹ
ᱯᱩᱴᱷᱤᱭᱟ
ᱯᱩᱸᱜᱤ
ᱯᱩᱸᱡᱤ
ᱯᱩᱸᱡᱤᱵᱟᱫᱽ
ᱯᱩᱸᱪᱷ
ᱯᱩᱸᱰ
ᱯᱭᱟᱨ
ᱯᱭᱟᱨᱤᱥ
ᱯᱮ
ᱯᱮᱜᱚᱢᱵᱚᱨ
ᱯᱮᱜᱟᱱ
ᱯᱮᱜᱮ
ᱯᱮᱜᱮᱞ
ᱯᱮᱝᱜᱩᱭᱤᱱ
ᱯᱮᱞᱣᱤᱠ
ᱯᱮᱞᱣᱤᱥ
ᱯᱮᱞᱮ
ᱯᱮᱞᱮᱥ
ᱯᱮᱞᱮᱥᱴᱟᱭᱤᱱ
ᱯᱮᱞᱮᱵᱮᱠᱚ
ᱯᱮᱠᱚᱬ
ᱯᱮᱡᱽ
ᱯᱮᱢᱟ
ᱯᱮᱥ
ᱯᱮᱥᱟ
ᱯᱮᱥᱟᱣᱚᱨ
ᱯᱮᱥᱟᱫᱟᱨ
ᱯᱮᱥᱣᱟ
ᱯᱮᱥᱤ
ᱯᱮᱥᱤᱯᱷᱤᱠ
ᱯᱮᱥᱮᱧᱡᱟᱨ
ᱯᱮᱥᱮᱱᱡᱚᱨ
ᱯᱮᱨ
ᱯᱮᱨᱚᱢᱵᱚᱞᱩᱨ
ᱯᱮᱨᱟ
ᱯᱮᱨᱟᱜᱩᱣᱟᱭ
ᱯᱮᱨᱟᱠ
ᱯᱮᱨᱟᱢᱵᱟᱞᱩᱨ
ᱯᱮᱨᱟᱢᱵᱩᱨ
ᱯᱮᱨᱤᱥ
ᱯᱮᱨᱥᱤᱰᱮᱱᱥᱤ
ᱯᱮᱨᱩ
ᱯᱮᱨᱮᱡ
ᱯᱮᱨᱮᱡᱚᱜ
ᱯᱮᱨᱮᱡᱽ
ᱯᱮᱨᱮᱪ
ᱯᱮᱨᱮᱰ
ᱯᱮᱨᱮᱱ
ᱯᱮᱬᱮ
ᱯᱮᱭᱟ
ᱯᱮᱭᱟᱡᱽ
ᱯᱮᱭᱟᱨ
ᱯᱮᱭᱟᱸᱡᱽ
ᱯᱮᱭᱰ
ᱯᱮᱭᱱ
ᱯᱮᱯᱚᱨ
ᱯᱮᱯᱟᱨ
ᱯᱮᱯᱥᱤ
ᱯᱮᱰ
ᱯᱮᱰᱟ
ᱯᱮᱱ
ᱯᱮᱱᱤᱥ
ᱯᱮᱱᱤᱥᱩᱞᱟ
ᱯᱮᱱᱥᱚᱱ
ᱯᱮᱱᱮ
ᱯᱮᱱᱴᱚᱨ
ᱯᱮᱱᱴᱟᱛᱷᱚᱞᱚᱱ
ᱯᱮᱱᱴᱤᱝ
ᱯᱮᱲᱟ
ᱯᱮᱴᱟ
ᱯᱮᱴᱟᱨ
ᱯᱮᱴᱟᱨᱣᱟᱨ
ᱯᱮᱴᱨᱚᱞᱤᱭᱚᱢ
ᱯᱮᱴᱨᱚᱞᱤᱭᱟᱢ
ᱯᱮᱴᱨᱟ
ᱯᱮᱴᱮᱨ
ᱯᱮᱴᱮᱨᱣᱟᱨ
ᱯᱮᱴᱮᱨᱵᱟᱲᱮ
ᱯᱮᱸᱥᱤᱞ
ᱯᱮᱸᱫᱟ
ᱯᱮᱸᱰᱮ
ᱯᱮᱼᱜᱮ
ᱯᱮᱼᱜᱮᱞᱼᱛᱩᱨᱩᱭ
ᱯᱱᱟ
ᱯᱳ
ᱯᱳᱞ
ᱯᱳᱞᱤᱥ
ᱯᱳᱞᱤᱴᱤᱠᱟᱞ
ᱯᱳᱞᱤᱴᱮᱠᱱᱤᱠ
ᱯᱳᱞᱮᱱᱰ
ᱯᱳᱞᱳ
ᱯᱳᱠᱷᱚᱨᱟ
ᱯᱳᱡᱤᱥᱚᱱ
ᱯᱳᱣᱞ
ᱯᱳᱣᱨᱚᱥᱚᱵᱷᱟ
ᱯᱳᱣᱨᱳᱥᱚᱵᱷᱟ
ᱯᱳᱥ
ᱯᱳᱥᱴ
ᱯᱳᱨᱛᱩᱜᱟᱞ
ᱯᱳᱨᱛᱩᱜᱤᱡᱽ
ᱯᱳᱨᱟ
ᱯᱳᱨᱯᱷᱚᱨᱢᱟᱱᱥ
ᱯᱳᱨᱴ
ᱯᱳᱨᱴᱟᱞ
ᱯᱳᱨᱵᱚᱱᱫᱚᱨ
ᱯᱳᱭᱞᱩ
ᱯᱳᱭᱞᱳ
ᱯᱳᱭᱟ
ᱯᱳᱯ
ᱯᱳᱯᱟᱛ
ᱯᱳᱯᱩᱞᱟᱨ
ᱯᱳᱱ
ᱯᱳᱱᱟ
ᱯᱳᱱᱱᱟᱯᱯᱟ
ᱯᱷ
ᱯᱷᱚᱛᱮᱯᱩᱨ
ᱯᱷᱚᱠᱤᱨ
ᱯᱷᱚᱠᱤᱨᱦᱟᱴ
ᱯᱷᱚᱠᱥ
ᱯᱷᱚᱡᱚᱞ
ᱯᱷᱚᱥᱯᱷᱚᱨᱚᱥ
ᱯᱷᱚᱥᱯᱷᱮᱴ
ᱯᱷᱚᱨ
ᱯᱷᱚᱨᱚᱠ
ᱯᱷᱚᱨᱟᱥᱤ
ᱯᱷᱚᱨᱢ
ᱯᱷᱚᱨᱢᱟᱞ
ᱯᱷᱚᱨᱢᱤ
ᱯᱷᱚᱨᱢᱩᱞᱟ
ᱯᱷᱚᱨᱤᱫᱟ
ᱯᱷᱚᱨᱤᱫᱟᱵᱟᱫᱽ
ᱯᱷᱚᱨᱤᱫᱯᱩᱨ
ᱯᱷᱚᱨᱤᱫᱽᱠᱚᱴ
ᱯᱷᱚᱨᱤᱫᱽᱯᱩᱨ
ᱯᱷᱚᱨᱥ
ᱯᱷᱚᱨᱨᱩᱠᱷᱟᱵᱟᱫᱽ
ᱯᱷᱚᱨᱮᱥᱴ
ᱯᱷᱚᱨᱮᱱ
ᱯᱷᱚᱨᱰ
ᱯᱷᱚᱨᱴ
ᱯᱷᱚᱬᱤ
ᱯᱷᱚᱭᱮᱱᱤᱠ
ᱯᱷᱚᱱ
ᱯᱷᱚᱱᱤ
ᱯᱷᱚᱱᱴ
ᱯᱷᱚᱳᱡᱤ
ᱯᱷᱚᱴᱚ
ᱯᱷᱚᱴᱮᱞ
ᱯᱷᱚᱴᱮᱞᱚᱜ
ᱯᱷᱚᱸᱰ
ᱯᱷᱞᱚᱨᱟᱭᱤᱰ
ᱯᱷᱞᱟᱣᱤᱭᱟ
ᱯᱷᱞᱟᱴ
ᱯᱷᱞᱤᱢ
ᱯᱷᱞᱳᱨ
ᱯᱷᱞᱳᱨᱤᱰᱟ
ᱯᱷᱞᱳᱨᱮᱱᱥ
ᱯᱷᱟ
ᱯᱷᱟᱛᱟᱢ
ᱯᱷᱟᱛᱤᱢᱟ
ᱯᱷᱟᱛᱮᱦ
ᱯᱷᱟᱛᱮᱦᱜᱚᱲ
ᱯᱷᱟᱛᱮᱦᱟᱵᱟᱫᱽ
ᱯᱷᱟᱛᱮᱦᱯᱩᱨ
ᱯᱷᱟᱞᱜᱩᱱᱤ
ᱯᱷᱟᱞᱠᱮ
ᱯᱷᱟᱠᱤᱨ
ᱯᱷᱟᱡᱤᱞ
ᱯᱷᱟᱡᱤᱞᱠᱟ
ᱯᱷᱟᱣᱩᱱᱰᱮᱥᱚᱱ
ᱯᱷᱟᱣᱩᱸᱰᱮᱥᱚᱱ
ᱯᱷᱟᱣᱱᱰᱮᱥᱚᱱ
ᱯᱷᱟᱥᱳ
ᱯᱷᱟᱥᱴ
ᱯᱷᱟᱦᱚᱢᱤᱫᱟ
ᱯᱷᱟᱨ
ᱯᱷᱟᱨᱟᱠ
ᱯᱷᱟᱨᱟᱠᱠᱟ
ᱯᱷᱟᱨᱟᱦ
ᱯᱷᱟᱨᱟᱰᱮ
ᱯᱷᱟᱨᱠᱟ
ᱯᱷᱟᱨᱢ
ᱯᱷᱟᱨᱣᱟᱨᱤ
ᱯᱷᱟᱨᱤᱫᱽ
ᱯᱷᱟᱨᱤᱭᱟ
ᱯᱷᱟᱨᱥᱤ
ᱯᱷᱟᱨᱥᱴ
ᱯᱷᱟᱨᱩᱠᱷ
ᱯᱷᱟᱨᱪᱟ
ᱯᱷᱟᱨᱮᱱᱦᱟᱭᱤᱴ
ᱯᱷᱟᱨᱮᱱᱫᱟ
ᱯᱷᱟᱨᱱᱟ
ᱯᱷᱟᱨᱱᱟᱰᱤᱡᱽ
ᱯᱷᱟᱫᱚᱨ
ᱯᱷᱟᱫᱟ
ᱯᱷᱟᱫᱟᱨ
ᱯᱷᱟᱭᱞᱟᱣ
ᱯᱷᱟᱭᱟᱨ
ᱯᱷᱟᱭᱡᱟᱵᱟᱫᱽ
ᱯᱷᱟᱭᱤᱞ
ᱯᱷᱟᱭᱤᱱ
ᱯᱷᱟᱭᱤᱵᱽ
ᱯᱷᱟᱭᱫᱟ
ᱯᱷᱟᱭᱱᱟᱞ
ᱯᱷᱟᱭᱱᱟᱞᱤᱥᱴ
ᱯᱷᱟᱭᱱᱟᱱᱥ
ᱯᱷᱟᱭᱵᱚᱨ
ᱯᱷᱟᱱᱰ
ᱯᱷᱟᱶᱰᱮᱥᱚᱱ
ᱯᱷᱟᱸᱠ
ᱯᱷᱟᱹᱜᱩᱱ
ᱯᱷᱟᱹᱠᱬᱟᱹᱜ
ᱯᱷᱟᱹᱥᱤ
ᱯᱷᱟᱹᱨᱥᱤ
ᱯᱷᱟᱹᱫ
ᱯᱷᱟᱹᱫᱽ
ᱯᱷᱟᱹᱱᱴᱤᱞ
ᱯᱷᱤ
ᱯᱷᱤᱛᱚᱨ
ᱯᱷᱤᱞ
ᱯᱷᱤᱞᱚᱡᱚᱯᱤ
ᱯᱷᱤᱞᱚᱥᱚᱯᱷᱤ
ᱯᱷᱤᱞᱢ
ᱯᱷᱤᱞᱢᱤ
ᱯᱷᱤᱞᱢᱥ
ᱯᱷᱤᱞᱢᱨᱮ
ᱯᱷᱤᱞᱢᱮ
ᱯᱷᱤᱞᱢᱯᱷᱮᱭᱚᱨ
ᱯᱷᱤᱞᱢᱯᱷᱮᱭᱟᱨ
ᱯᱷᱤᱞᱤᱢ
ᱯᱷᱤᱞᱤᱥᱛᱤᱱ
ᱯᱷᱤᱞᱤᱯ
ᱯᱷᱤᱞᱤᱯᱟᱭᱤᱱ
ᱯᱷᱤᱞᱤᱯᱟᱭᱤᱱᱥ
ᱯᱷᱤᱞᱤᱯᱤᱱᱚ
ᱯᱷᱤᱞᱤᱯᱤᱱᱥ
ᱯᱷᱤᱞᱤᱯᱤᱱᱳ
ᱯᱷᱤᱞᱤᱯᱥ
ᱯᱷᱤᱞᱰ
ᱯᱷᱤᱞᱰᱤᱝ
ᱯᱷᱤᱞᱰᱤᱝᱥ
ᱯᱷᱤᱠᱥᱚᱱ
ᱯᱷᱤᱡᱤ
ᱯᱷᱤᱡᱤᱠᱟᱞ
ᱯᱷᱤᱡᱤᱠᱥ
ᱯᱷᱤᱡᱤᱥᱤᱭᱟᱱ
ᱯᱷᱤᱡᱤᱭᱟᱹᱱ
ᱯᱷᱤᱢ
ᱯᱷᱤᱢᱚᱨ
ᱯᱷᱤᱢᱮᱞ
ᱯᱷᱤᱨ
ᱯᱷᱤᱨᱚᱡᱟᱵᱟᱫᱽ
ᱯᱷᱤᱨᱚᱡᱽ
ᱯᱷᱤᱨᱚᱡᱽᱯᱩᱨ
ᱯᱷᱤᱨᱤ
ᱯᱷᱤᱪᱚᱨ
ᱯᱷᱤᱪᱟᱨ
ᱯᱷᱤᱫᱮᱞ
ᱯᱷᱤᱭᱮᱪᱚᱨ
ᱯᱷᱤᱯᱟ
ᱯᱷᱤᱯᱢ
ᱯᱷᱤᱯᱷᱟ
ᱯᱷᱤᱰᱟᱨ
ᱯᱷᱤᱱᱞᱟᱸᱰ
ᱯᱷᱤᱱᱤᱠ
ᱯᱷᱤᱱᱤᱠᱥ
ᱯᱷᱤᱱᱤᱥ
ᱯᱷᱤᱴ
ᱯᱷᱨᱚᱢ
ᱯᱷᱨᱚᱱᱴ
ᱯᱷᱨᱚᱱᱴᱤᱭᱟᱨ
ᱯᱷᱨᱟᱝᱠᱞᱤᱱ
ᱯᱷᱨᱟᱝᱠᱟ
ᱯᱷᱨᱟᱭᱟ
ᱯᱷᱨᱟᱭᱰᱮ
ᱯᱷᱨᱟᱱᱥ
ᱯᱷᱨᱟᱱᱥᱤᱥ
ᱯᱷᱨᱟᱱᱥᱤᱥᱠᱳ
ᱯᱷᱨᱟᱱᱥᱤᱥᱤ
ᱯᱷᱨᱟᱱᱥᱮᱥ
ᱯᱷᱨᱟᱸᱥ
ᱯᱷᱨᱟᱸᱥᱤᱥᱠᱚ
ᱯᱷᱨᱤ
ᱯᱷᱨᱤᱥᱤᱭᱟᱱ
ᱯᱷᱨᱤᱫᱟ
ᱯᱷᱨᱤᱭᱩᱞᱤᱭᱟᱹᱱ
ᱯᱷᱨᱤᱰᱚᱢ
ᱯᱷᱨᱩᱰ
ᱯᱷᱨᱮᱢ
ᱯᱷᱨᱮᱢᱣᱟᱨᱠ
ᱯᱷᱨᱮᱧᱪ
ᱯᱷᱨᱮᱱᱪ
ᱯᱷᱨᱮᱸᱪ
ᱯᱷᱨᱮᱸᱰ
ᱯᱷᱩ
ᱯᱷᱩᱞ
ᱯᱷᱩᱞᱚ
ᱯᱷᱩᱞᱛᱚᱞᱟ
ᱯᱷᱩᱞᱟ
ᱯᱷᱩᱞᱟᱹᱣ
ᱯᱷᱩᱞᱮ
ᱯᱷᱩᱞᱮᱥᱚᱨᱤ
ᱯᱷᱩᱞᱯᱩᱨ
ᱯᱷᱩᱞᱵᱟᱬᱤ
ᱯᱷᱩᱞᱵᱟᱲᱤ
ᱯᱷᱩᱠᱚᱱ
ᱯᱷᱩᱡᱤ
ᱯᱷᱩᱥ
ᱯᱷᱩᱥᱨᱚ
ᱯᱷᱩᱨ
ᱯᱷᱩᱨᱛᱤ
ᱯᱷᱩᱨᱜᱟ
ᱯᱷᱩᱨᱜᱟᱹᱞ
ᱯᱷᱩᱨᱜᱟᱹᱞᱮ
ᱯᱷᱩᱨᱪᱟᱹ
ᱯᱷᱩᱰ
ᱯᱷᱩᱱᱩᱨᱜᱟᱹᱞ
ᱯᱷᱩᱱᱴᱥᱚᱞᱤᱝ
ᱯᱷᱩᱲᱩᱜ
ᱯᱷᱩᱴ
ᱯᱷᱩᱴᱟᱹ
ᱯᱷᱩᱴᱟᱹᱣ
ᱯᱷᱩᱴᱟᱹᱣᱜ
ᱯᱷᱩᱴᱮᱞ
ᱯᱷᱩᱴᱵᱚᱞ
ᱯᱷᱮᱞ
ᱯᱷᱮᱞᱚᱥᱤᱯ
ᱯᱷᱮᱞᱳ
ᱯᱷᱮᱞᱳᱥᱤᱯ
ᱯᱷᱮᱞᱴᱤᱵᱷᱟᱞ
ᱯᱷᱮᱠ
ᱯᱷᱮᱠᱚᱞᱴᱤ
ᱯᱷᱮᱠᱟᱞᱴᱤ
ᱯᱷᱮᱠᱩᱞᱤᱴᱤ
ᱯᱷᱮᱠᱴᱚᱨᱤ
ᱯᱷᱮᱠᱴᱨᱤ
ᱯᱷᱮᱡᱽ
ᱯᱷᱮᱢ
ᱯᱷᱮᱢᱚᱥ
ᱯᱷᱮᱢᱚᱥᱟ
ᱯᱷᱮᱢᱤᱞᱤ
ᱯᱷᱮᱢᱤᱱᱟ
ᱯᱷᱮᱢᱤᱱᱤᱡᱚᱢ
ᱯᱷᱮᱢᱤᱱᱤᱥᱴ
ᱯᱷᱮᱣᱟ
ᱯᱷᱮᱥᱚᱱ
ᱯᱷᱮᱥᱴᱤᱣᱟᱞ
ᱯᱷᱮᱥᱴᱤᱵᱟᱞ
ᱯᱷᱮᱥᱴᱤᱵᱷᱟᱞ
ᱯᱷᱮᱥᱵᱩᱠ
ᱯᱷᱮᱨᱚᱥ
ᱯᱷᱮᱨᱚᱭᱤᱡᱽ
ᱯᱷᱮᱨᱟᱣ
ᱯᱷᱮᱨᱤ
ᱯᱷᱮᱨᱮᱸᱪ
ᱯᱷᱮᱭᱟᱨ
ᱯᱷᱮᱭᱟᱨᱥ
ᱯᱷᱮᱭᱡᱟᱵᱟᱫᱽ
ᱯᱷᱮᱭᱥᱚᱱ
ᱯᱷᱮᱰ
ᱯᱷᱮᱰᱚᱜ
ᱯᱷᱮᱰᱟᱛ
ᱯᱷᱮᱰᱟᱨᱮᱥᱚᱱ
ᱯᱷᱮᱰᱮᱨᱟᱞ
ᱯᱷᱮᱰᱮᱨᱮᱥᱚᱱ
ᱯᱷᱮᱱ
ᱯᱷᱮᱱᱤ
ᱯᱷᱮᱴ
ᱯᱷᱮᱵᱨᱩᱟᱨᱤ
ᱯᱷᱮᱵᱨᱩᱣᱟᱨᱤ
ᱯᱷᱮᱵᱨᱩᱭᱟᱨᱤ
ᱯᱷᱮᱵᱽᱣᱟᱨᱤ
ᱯᱷᱮᱵᱽᱨᱩᱟᱨᱭ
ᱯᱷᱮᱵᱽᱨᱩᱣᱚᱨᱤ
ᱯᱷᱮᱵᱽᱨᱩᱣᱟᱨᱤ
ᱯᱷᱮᱵᱽᱨᱩᱭᱟᱨᱤ
ᱯᱷᱮᱹᱱᱤ
ᱯᱷᱳᱞᱢ
ᱯᱷᱳᱨ
ᱯᱷᱳᱨᱡᱤ
ᱯᱷᱳᱨᱥ
ᱯᱷᱳᱨᱴ
ᱯᱷᱳᱱ
ᱯᱷᱳᱱᱮᱴᱤᱠᱥ
ᱯᱷᱳᱴ
ᱯᱷᱳᱴᱮᱞ
ᱯᱷᱳᱴᱳ
ᱯᱷᱳᱵᱚᱨᱥ
ᱯᱷᱳᱵᱤᱭᱟ
ᱰ
ᱰᱚ
ᱰᱚᱜ
ᱰᱚᱜᱚᱨ
ᱰᱚᱜᱚᱨᱤᱭᱟᱹ
ᱰᱚᱜᱽ
ᱰᱚᱜᱽᱨᱟ
ᱰᱚᱜᱽᱨᱤ
ᱰᱚᱞ
ᱰᱚᱞᱟᱨ
ᱰᱚᱞᱤ
ᱰᱚᱞᱯᱷᱤᱱ
ᱰᱚᱠ
ᱰᱚᱠᱞᱟᱢ
ᱰᱚᱠᱩᱢᱮᱱᱴ
ᱰᱚᱠᱩᱢᱮᱱᱴᱟᱨᱤ
ᱰᱚᱠᱭᱩᱢᱮᱱᱴᱟᱨᱤ
ᱰᱚᱠᱴᱚᱨ
ᱰᱚᱠᱴᱚᱨᱮᱴ
ᱰᱚᱡᱚᱱ
ᱰᱚᱢᱚᱱ
ᱰᱚᱢᱟᱨ
ᱰᱚᱢᱟᱱ
ᱰᱚᱢᱮᱥᱴᱤᱠ
ᱰᱚᱢᱮᱱ
ᱰᱚᱢᱵᱤᱵᱽᱞᱤ
ᱰᱚᱨ
ᱰᱚᱨᱮᱢᱚᱱ
ᱰᱚᱪ
ᱰᱚᱰᱷᱟᱜ
ᱰᱚᱱ
ᱰᱚᱴ
ᱰᱚᱵᱚᱞ
ᱰᱚᱵᱞᱩ
ᱰᱚᱵᱤᱝ
ᱰᱚᱵᱷᱟᱞ
ᱰᱚᱸᱰᱠᱟ
ᱰᱚᱸᱰᱮᱠ
ᱰᱚᱹ
ᱰᱟ
ᱰᱟᱝ
ᱰᱟᱝᱜᱽᱨᱟ
ᱰᱟᱝᱜᱽᱨᱤ
ᱰᱟᱝᱨᱟ
ᱰᱟᱞᱟᱢ
ᱰᱟᱞᱟᱣ
ᱰᱟᱞᱤᱭᱟ
ᱰᱟᱞᱤᱭᱟᱱ
ᱰᱟᱞᱴᱮᱱᱜᱚᱸᱡᱽ
ᱰᱟᱠ
ᱰᱟᱠᱚᱴᱟ
ᱰᱟᱠᱛᱚᱨ
ᱰᱟᱠᱛᱚᱨᱠᱷᱟᱱᱟ
ᱰᱟᱠᱛᱚᱨᱤ
ᱰᱟᱠᱛᱟᱨ
ᱰᱟᱠᱟ
ᱰᱟᱠᱟᱛ
ᱰᱟᱠᱟᱛᱤᱭᱟ
ᱰᱟᱠᱟᱣ
ᱰᱟᱠᱮᱛ
ᱰᱟᱠᱴᱚᱨ
ᱰᱟᱢ
ᱰᱟᱢᱚᱱ
ᱰᱟᱢᱟᱥᱠᱚᱥ
ᱰᱟᱢᱰᱟᱦᱮ
ᱰᱟᱣᱩᱱ
ᱰᱟᱣᱱ
ᱰᱟᱦᱟᱨ
ᱰᱟᱦᱟᱨᱛᱮ
ᱰᱟᱦᱟᱨᱨᱮ
ᱰᱟᱦᱟᱨᱮ
ᱰᱟᱦᱟᱨᱰᱤ
ᱰᱟᱦᱤ
ᱰᱟᱨ
ᱰᱟᱨᱞᱤᱝ
ᱰᱟᱨᱠ
ᱰᱟᱨᱢᱟ
ᱰᱟᱨᱣᱤᱱ
ᱰᱟᱪ
ᱰᱟᱪᱽ
ᱰᱟᱭ
ᱰᱟᱭᱞᱚᱜᱽ
ᱰᱟᱭᱟᱠ
ᱰᱟᱭᱢᱚᱱᱰ
ᱰᱟᱭᱤᱨᱮᱠᱴᱟᱨ
ᱰᱟᱭᱨᱮᱠᱴ
ᱰᱟᱭᱨᱮᱠᱴᱚᱨ
ᱰᱟᱭᱨᱮᱠᱴᱮᱰ
ᱰᱟᱭᱱᱮᱥᱚᱨ
ᱰᱟᱭᱳᱥᱮᱥ
ᱰᱟᱭᱵᱮᱴᱤᱥ
ᱰᱟᱰᱤ
ᱰᱟᱱᱤᱭᱮᱞ
ᱰᱟᱱᱥ
ᱰᱟᱱᱥᱚᱨ
ᱰᱟᱱᱰᱟ
ᱰᱟᱱᱴᱟ
ᱰᱟᱱᱴᱤᱜ
ᱰᱟᱱᱴᱮ
ᱰᱟᱴᱟ
ᱰᱟᱴᱟᱵᱮᱥ
ᱰᱟᱵᱚᱞ
ᱰᱟᱵᱟ
ᱰᱟᱵᱷᱟ
ᱰᱟᱸᱜᱩᱣᱟ
ᱰᱟᱸᱜᱽᱨᱟ
ᱰᱟᱸᱥ
ᱰᱟᱸᱰᱚᱢ
ᱰᱟᱸᱰᱟ
ᱰᱟᱸᱰᱵᱩᱥ
ᱰᱟᱹᱝᱜᱽᱨᱤ
ᱰᱟᱹᱠᱟᱹᱛ
ᱰᱟᱹᱦᱤ
ᱰᱟᱹᱨ
ᱰᱟᱹᱰᱤ
ᱰᱟᱹᱱ
ᱰᱟᱹᱱᱴᱤᱜ
ᱰᱟᱺᱜᱩᱣᱟᱹ
ᱰᱟᱺᱜᱩᱣᱟᱹᱯᱚᱥᱤ
ᱰᱟᱺᱜᱽᱣᱟᱹ
ᱰᱟᱺᱜᱽᱨᱤ
ᱰᱤ
ᱰᱤᱜᱟᱱ
ᱰᱤᱜᱟᱹ
ᱰᱤᱜᱨᱤ
ᱰᱤᱜᱨᱤᱭ
ᱰᱤᱜᱮ
ᱰᱤᱜᱽᱨᱤ
ᱰᱤᱜᱽᱨᱤᱭ
ᱰᱤᱜᱽᱨᱩᱜᱚᱲ
ᱰᱤᱝᱰᱤᱜᱩᱞ
ᱰᱤᱞ
ᱰᱤᱞᱤ
ᱰᱤᱞᱤᱵᱨᱤ
ᱰᱤᱞᱳᱱ
ᱰᱤᱠᱥᱤᱱᱟᱨᱤ
ᱰᱤᱠᱥᱮᱱᱟᱨᱤ
ᱰᱤᱠᱥᱱᱟᱨᱤ
ᱰᱤᱡᱟᱭᱤᱱ
ᱰᱤᱡᱟᱭᱱ
ᱰᱤᱡᱟᱭᱱᱚᱨ
ᱰᱤᱡᱤᱴᱟᱞ
ᱰᱤᱡᱤᱴᱥ
ᱰᱤᱡᱮ
ᱰᱤᱡᱮᱞ
ᱰᱤᱢᱟ
ᱰᱤᱢᱟᱥᱟ
ᱰᱤᱢᱟᱯᱩᱨ
ᱰᱤᱣ
ᱰᱤᱥ
ᱰᱤᱥᱚᱢ
ᱰᱤᱥᱟᱞᱤᱱᱮᱥᱚᱱ
ᱰᱤᱥᱠ
ᱰᱤᱥᱤ
ᱰᱤᱥᱮᱢᱵᱚᱨ
ᱰᱤᱥᱮᱢᱵᱟᱨ
ᱰᱤᱥᱱᱤ
ᱰᱤᱥᱴᱨᱤᱠᱴ
ᱰᱤᱦᱟ
ᱰᱤᱦᱟᱹᱴ
ᱰᱤᱦᱤ
ᱰᱤᱨᱮᱠᱥᱚᱱ
ᱰᱤᱨᱮᱠᱴ
ᱰᱤᱨᱮᱠᱴᱚᱨ
ᱰᱤᱨᱮᱠᱴᱟᱨ
ᱰᱤᱭᱟ
ᱰᱤᱭᱟᱨ
ᱰᱤᱯ
ᱰᱤᱯᱚ
ᱰᱤᱯᱞᱚᱢᱟ
ᱰᱤᱯᱞᱚᱢᱮᱴ
ᱰᱤᱯᱞᱳᱢᱟ
ᱰᱤᱯᱟᱨᱴᱢᱮᱱᱴ
ᱰᱤᱯᱟᱨᱴᱢᱮᱸᱴ
ᱰᱤᱯᱟᱴᱢᱮᱸᱴ
ᱰᱤᱯᱟᱹᱴ
ᱰᱤᱯᱩᱴᱤ
ᱰᱤᱯᱴᱤ
ᱰᱤᱯᱷᱟᱭᱤᱱ
ᱰᱤᱯᱷᱩ
ᱰᱤᱯᱷᱮᱱᱥ
ᱰᱤᱰᱤ
ᱰᱤᱰᱤᱦᱟᱴ
ᱰᱤᱱ
ᱰᱤᱵᱤᱡᱚᱱ
ᱰᱤᱵᱤᱡᱚᱱᱟᱞ
ᱰᱤᱵᱤᱡᱟᱱ
ᱰᱤᱵᱨᱩᱜᱚᱲ
ᱰᱤᱵᱮᱴ
ᱰᱤᱵᱷᱟᱭᱤᱥ
ᱰᱤᱵᱷᱟᱭᱤᱱ
ᱰᱤᱵᱷᱤᱡᱚᱱ
ᱰᱤᱵᱷᱤᱥᱚᱱ
ᱰᱤᱵᱷᱤᱥᱟᱱ
ᱰᱤᱵᱽᱨᱩ
ᱰᱤᱵᱽᱨᱩᱜᱚᱰ
ᱰᱤᱵᱽᱨᱩᱜᱚᱲ
ᱰᱤᱸᱰᱚᱨᱤ
ᱰᱤᱹ
ᱰᱨ
ᱰᱨᱚᱯᱞᱮᱴ
ᱰᱨᱟᱜᱚᱱ
ᱰᱨᱟᱢ
ᱰᱨᱟᱢᱟ
ᱰᱨᱟᱭᱤᱵᱽ
ᱰᱨᱟᱵᱷᱤᱰᱤᱭᱟᱱ
ᱰᱨᱤᱢ
ᱰᱨᱤᱢᱥ
ᱰᱨᱮᱱ
ᱰᱨᱹ
ᱰᱩ
ᱰᱩᱜᱽᱨᱤ
ᱰᱩᱝᱜᱚᱨᱯᱩᱨ
ᱰᱩᱝᱜᱽᱨᱤ
ᱰᱩᱝᱨᱤ
ᱰᱩᱞᱩ
ᱰᱩᱞᱩᱝ
ᱰᱩᱠᱩᱨᱟ
ᱰᱩᱢᱨᱟ
ᱰᱩᱢᱨᱤ
ᱰᱩᱢᱨᱤᱭᱟᱹ
ᱰᱩᱢᱩᱨᱤᱭᱟ
ᱰᱩᱢᱵᱩᱜ
ᱰᱩᱨᱮᱨ
ᱰᱩᱵᱟᱹ
ᱰᱩᱸᱜᱽᱨᱤ
ᱰᱮ
ᱰᱮᱜᱽᱨᱟ
ᱰᱮᱞ
ᱰᱮᱞᱟᱣᱮᱭᱟᱨ
ᱰᱮᱞᱤ
ᱰᱮᱞᱴᱟ
ᱰᱮᱠᱟ
ᱰᱮᱠᱠᱟᱱ
ᱰᱮᱢ
ᱰᱮᱢᱚᱠᱨᱮᱴᱤᱠ
ᱰᱮᱢᱮᱨᱟᱨᱟ
ᱰᱮᱣᱞᱚᱯ
ᱰᱮᱣᱞᱚᱯᱢᱮᱱᱴ
ᱰᱮᱣᱤᱰ
ᱰᱮᱥ
ᱰᱮᱥᱚᱱ
ᱰᱮᱥᱠᱨᱤᱯᱥᱚᱱ
ᱰᱮᱥᱮᱢᱵᱚᱨ
ᱰᱮᱥᱴᱤᱱᱮᱥᱚᱱ
ᱰᱮᱦᱨᱟᱰᱩᱱ
ᱰᱮᱦᱨᱤ
ᱰᱮᱦᱮᱨ
ᱰᱮᱦᱮᱨᱟ
ᱰᱮᱨ
ᱰᱮᱨᱟ
ᱰᱮᱭᱞᱤ
ᱰᱮᱭᱨᱤ
ᱰᱮᱯ
ᱰᱮᱯᱟᱨᱴᱢᱮᱱᱴ
ᱰᱮᱯᱩᱴᱤ
ᱰᱮᱯᱭᱩᱴᱤ
ᱰᱮᱱ
ᱰᱮᱱᱢᱟᱨᱠ
ᱰᱮᱱᱤᱥ
ᱰᱮᱱᱤᱭᱟᱞᱥ
ᱰᱮᱱᱥ
ᱰᱮᱱᱥᱚᱨ
ᱰᱮᱱᱥᱟᱨ
ᱰᱮᱱᱥᱤᱴᱤ
ᱰᱮᱱᱴᱟᱞ
ᱰᱮᱴ
ᱰᱮᱴᱟ
ᱰᱮᱴᱟᱵᱮᱡᱽ
ᱰᱮᱴᱟᱵᱮᱥ
ᱰᱮᱴᱤᱝ
ᱰᱮᱵᱞᱚᱯ
ᱰᱮᱵᱤ
ᱰᱮᱵᱩᱴ
ᱰᱮᱵᱭᱩ
ᱰᱮᱵᱭᱩᱴ
ᱰᱮᱵᱷᱤᱰ
ᱰᱮᱵᱽᱞᱚᱯᱢᱮᱴ
ᱰᱮᱵᱽᱞᱚᱯᱢᱮᱸᱴ
ᱰᱮᱵᱽᱭᱩ
ᱰᱳ
ᱰᱳᱜᱨᱤ
ᱰᱳᱜᱽᱨᱤ
ᱰᱳᱞᱟᱨ
ᱰᱳᱡᱽ
ᱰᱳᱢᱮᱱ
ᱰᱳᱨᱮᱞᱤ
ᱰᱳᱰᱟ
ᱰᱳᱰᱳ
ᱰᱳᱱ
ᱰᱳᱴᱤ
ᱰᱳᱴᱮᱞᱤ
ᱰᱷᱚᱝ
ᱰᱷᱚᱝᱜᱟ
ᱰᱷᱚᱞ
ᱰᱷᱚᱞᱟᱱ
ᱰᱷᱚᱰᱟ
ᱰᱷᱚᱸᱜᱟ
ᱰᱷᱟ
ᱰᱷᱟᱝ
ᱰᱷᱟᱞ
ᱰᱷᱟᱠ
ᱰᱷᱟᱠᱟ
ᱰᱷᱟᱠᱮᱥᱚᱨᱤ
ᱰᱷᱟᱰᱨᱟ
ᱰᱷᱟᱸᱪᱟ
ᱰᱷᱟᱹᱞᱟᱹᱭ
ᱰᱷᱟᱹᱣ
ᱰᱷᱤᱝᱠᱤ
ᱰᱷᱤᱞᱣᱟᱹᱝ
ᱰᱷᱤᱨ
ᱰᱷᱤᱨᱮ
ᱰᱷᱤᱯ
ᱰᱷᱤᱯᱟᱹ
ᱰᱷᱩᱸᱰᱷᱟᱲᱤ
ᱰᱷᱮᱝᱠᱟ
ᱰᱷᱮᱝᱠᱟᱱᱟᱲ
ᱰᱷᱮᱞᱠᱤ
ᱰᱷᱮᱣ
ᱰᱷᱮᱨ
ᱰᱷᱮᱨᱚᱜ
ᱰᱷᱮᱨᱚᱜᱼᱟ
ᱰᱷᱮᱨᱟ
ᱰᱷᱮᱶ
ᱰᱷᱳᱞ
ᱱ
ᱱᱚ
ᱱᱚᱛᱩᱱ
ᱱᱚᱛᱮ
ᱱᱚᱜ
ᱱᱚᱜᱚᱨ
ᱱᱚᱜᱚᱨᱯᱟᱞᱤᱠᱟ
ᱱᱚᱜᱟᱶ
ᱱᱚᱜᱼᱚᱭ
ᱱᱚᱜᱽᱢᱟ
ᱱᱚᱜᱽᱨᱤ
ᱱᱚᱝ
ᱱᱚᱝᱠᱟ
ᱱᱚᱝᱠᱟᱛᱮ
ᱱᱚᱝᱠᱟᱜᱮ
ᱱᱚᱝᱠᱟᱭ
ᱱᱚᱝᱠᱟᱱ
ᱱᱚᱝᱠᱟᱱᱟᱜ
ᱱᱚᱞ
ᱱᱚᱞᱤᱱᱤ
ᱱᱚᱞᱦᱟᱴᱤ
ᱱᱚᱞᱰᱟᱝᱜᱟ
ᱱᱚᱞᱵᱟᱲᱤ
ᱱᱚᱟ
ᱱᱚᱟᱣ
ᱱᱚᱟᱶ
ᱱᱚᱠᱞᱟᱠ
ᱱᱚᱠᱟ
ᱱᱚᱠᱟᱱ
ᱱᱚᱠᱥᱟ
ᱱᱚᱡᱚᱨ
ᱱᱚᱡᱤᱨ
ᱱᱚᱡᱨᱩᱞ
ᱱᱚᱡᱽᱨᱩᱞ
ᱱᱚᱢ
ᱱᱚᱢᱤᱱᱮᱥᱚᱱ
ᱱᱚᱢᱨᱚᱛᱟ
ᱱᱚᱢᱵᱚᱨ
ᱱᱚᱣ
ᱱᱚᱣᱚ
ᱱᱚᱣᱚᱞᱯᱚᱨᱟᱥᱤ
ᱱᱚᱣᱟ
ᱱᱚᱣᱟᱜᱮ
ᱱᱚᱣᱟᱠᱚ
ᱱᱚᱣᱟᱠᱩ
ᱱᱚᱣᱟᱢᱩᱸᱰᱤ
ᱱᱚᱣᱟᱨᱮ
ᱱᱚᱣᱟᱫᱚ
ᱱᱚᱣᱟᱭ
ᱱᱚᱣᱟᱵᱽ
ᱱᱚᱣᱥᱟᱨᱤ
ᱱᱚᱣᱭᱟ
ᱱᱚᱣᱮᱢᱵᱚᱨ
ᱱᱚᱥᱴᱚ
ᱱᱚᱦᱚᱨ
ᱱᱚᱨ
ᱱᱚᱨᱚᱢ
ᱱᱚᱨᱚᱥᱤᱝᱦᱚ
ᱱᱚᱨᱚᱥᱤᱢᱦᱟ
ᱱᱚᱨᱛᱷ
ᱱᱚᱨᱠᱷᱮᱲ
ᱱᱚᱨᱢᱚᱫᱟ
ᱱᱚᱨᱢᱟᱞ
ᱱᱚᱨᱢᱟᱫᱟ
ᱱᱚᱨᱢᱟᱫᱟᱯᱩᱨᱚᱢ
ᱱᱚᱨᱣᱮ
ᱱᱚᱨᱣᱮᱡᱤᱭᱟᱱ
ᱱᱚᱨᱤ
ᱱᱚᱨᱥᱤᱝ
ᱱᱚᱨᱥᱤᱝᱫᱤ
ᱱᱚᱨᱥᱤᱝᱯᱩᱨ
ᱱᱚᱨᱮᱱ
ᱱᱚᱨᱮᱱᱫᱨᱚ
ᱱᱚᱨᱮᱱᱫᱽᱨᱚ
ᱱᱚᱨᱱᱟᱨᱟᱭᱚᱱ
ᱱᱚᱨᱵᱷ
ᱱᱚᱫᱤ
ᱱᱚᱫᱤᱨ
ᱱᱚᱫᱤᱭᱟ
ᱱᱚᱫᱽ
ᱱᱚᱭᱟ
ᱱᱚᱭᱟᱜᱚᱰ
ᱱᱚᱭᱭᱟᱞ
ᱱᱚᱭᱮᱰᱟ
ᱱᱚᱭᱰᱟ
ᱱᱚᱭᱱᱟ
ᱱᱚᱭᱱᱤᱛᱟᱞ
ᱱᱚᱮᱟ
ᱱᱚᱰ
ᱱᱚᱰᱤᱭᱟᱫᱽ
ᱱᱚᱰᱮ
ᱱᱚᱰᱮᱭ
ᱱᱚᱰᱮᱱ
ᱱᱚᱰᱮᱱᱟᱜ
ᱱᱚᱰᱮᱱᱤᱡ
ᱱᱚᱰᱰᱟ
ᱱᱚᱱ
ᱱᱚᱱᱚᱞ
ᱱᱚᱱᱟ
ᱱᱚᱱᱠᱟᱱ
ᱱᱚᱱᱠᱟᱱᱟ
ᱱᱚᱱᱤ
ᱱᱚᱱᱫᱚ
ᱱᱚᱱᱫᱚᱞᱟᱞ
ᱱᱚᱱᱫᱚᱯᱩᱨ
ᱱᱚᱱᱫᱚᱱᱠᱟᱱᱚᱱ
ᱱᱚᱱᱫᱟ
ᱱᱚᱱᱫᱤ
ᱱᱚᱱᱫᱤᱛᱟ
ᱱᱚᱱᱫᱤᱜᱨᱟᱢ
ᱱᱚᱱᱫᱤᱱᱤ
ᱱᱚᱱᱰᱮ
ᱱᱚᱱᱰᱮᱱ
ᱱᱚᱱᱰᱮᱱᱟᱜ
ᱱᱚᱱᱰᱮᱱᱤᱡ
ᱱᱚᱲ
ᱱᱚᱲᱟᱭᱤᱞ
ᱱᱚᱳᱭᱟ
ᱱᱚᱴ
ᱱᱚᱴᱤᱯᱷᱤᱠᱮᱥᱚᱱ
ᱱᱚᱴᱵᱩᱠ
ᱱᱚᱵᱚ
ᱱᱚᱵᱚᱜᱽᱨᱟᱢ
ᱱᱚᱵᱚᱠᱨᱩᱥᱱᱚ
ᱱᱚᱵᱚᱢᱤ
ᱱᱚᱵᱚᱨᱚᱝᱯᱩᱨ
ᱱᱚᱵᱟᱵᱽ
ᱱᱚᱵᱟᱵᱽᱜᱚᱸᱡᱽ
ᱱᱚᱵᱤ
ᱱᱚᱵᱤᱱ
ᱱᱚᱵᱦᱮᱢᱵᱚᱨ
ᱱᱚᱵᱮ
ᱱᱚᱵᱮᱞ
ᱱᱚᱵᱮᱢᱵᱚᱨ
ᱱᱚᱵᱷᱮᱢᱵᱚᱨ
ᱱᱚᱵᱽᱱᱤᱛ
ᱱᱚᱶ
ᱱᱚᱶᱜᱟ
ᱱᱚᱶᱟ
ᱱᱚᱶᱟᱠᱚ
ᱱᱚᱶᱟᱨᱮ
ᱱᱚᱶᱟᱫᱚ
ᱱᱚᱶᱟᱭ
ᱱᱚᱸᱠᱟ
ᱱᱚᱸᱠᱟᱱ
ᱱᱚᱸᱠᱟᱱᱟᱜ
ᱱᱚᱸᱰᱮ
ᱱᱚᱸᱰᱮᱜᱮ
ᱱᱚᱸᱰᱮᱱ
ᱱᱚᱸᱰᱮᱱᱟ
ᱱᱚᱸᱰᱮᱱᱟᱜ
ᱱᱚᱸᱰᱮᱱᱠᱩ
ᱱᱚᱹ
ᱱᱛᱤ
ᱱᱟ
ᱱᱟᱛᱟᱞᱤᱭᱟ
ᱱᱟᱛᱟᱥᱟ
ᱱᱟᱛᱮ
ᱱᱟᱛᱷ
ᱱᱟᱜ
ᱱᱟᱜᱚᱨ
ᱱᱟᱜᱚᱨᱤᱠ
ᱱᱟᱜᱟ
ᱱᱟᱜᱟᱞᱟᱸᱰ
ᱱᱟᱜᱟᱞᱮᱱᱰ
ᱱᱟᱜᱟᱞᱮᱸᱰ
ᱱᱟᱜᱟᱢ
ᱱᱟᱜᱟᱢᱟᱱ
ᱱᱟᱜᱟᱢᱟᱱᱟᱜ
ᱱᱟᱜᱟᱢᱤᱭᱟ
ᱱᱟᱜᱟᱢᱤᱭᱟᱹ
ᱱᱟᱜᱟᱢᱨᱮ
ᱱᱟᱜᱟᱢᱮᱛ
ᱱᱟᱜᱟᱥᱟᱠᱤ
ᱱᱟᱜᱟᱨ
ᱱᱟᱜᱟᱨᱡᱩᱱ
ᱱᱟᱜᱟᱨᱤ
ᱱᱟᱜᱟᱨᱤᱭᱟ
ᱱᱟᱜᱟᱨᱤᱭᱟᱹ
ᱱᱟᱜᱟᱨᱤᱭᱟᱹᱛᱮᱫ
ᱱᱟᱜᱟᱨᱦᱚᱲᱮ
ᱱᱟᱜᱟᱨᱯᱟᱞᱤᱠᱟ
ᱱᱟᱜᱟᱯᱚᱴᱴᱤᱱᱟᱢ
ᱱᱟᱜᱟᱯᱟᱴᱴᱤᱱᱟᱢ
ᱱᱟᱜᱟᱶ
ᱱᱟᱜᱤ
ᱱᱟᱜᱨᱤᱠ
ᱱᱟᱜᱮᱥᱥᱚᱨᱤ
ᱱᱟᱜᱯᱩᱨ
ᱱᱟᱜᱳᱣᱨ
ᱱᱟᱜᱳᱨᱱᱳ
ᱱᱟᱜᱽ
ᱱᱟᱜᱽᱨᱟᱦᱟ
ᱱᱟᱜᱽᱨᱤ
ᱱᱟᱜᱽᱨᱤᱠ
ᱱᱟᱜᱽᱫᱟ
ᱱᱟᱜᱽᱯᱩᱨ
ᱱᱟᱜᱽᱯᱩᱨᱤ
ᱱᱟᱝ
ᱱᱟᱝᱜᱨᱟᱦᱟ
ᱱᱟᱝᱜᱽᱨᱟᱦᱟ
ᱱᱟᱞ
ᱱᱟᱞᱚᱱᱫᱟ
ᱱᱟᱞᱜᱚᱱᱰᱟ
ᱱᱟᱞᱟ
ᱱᱟᱞᱟᱱᱫᱟ
ᱱᱟᱞᱤ
ᱱᱟᱞᱦᱟ
ᱱᱟᱠᱚ
ᱱᱟᱠᱜᱟ
ᱱᱟᱠᱥᱟ
ᱱᱟᱠᱥᱟᱞ
ᱱᱟᱠᱷᱟ
ᱱᱟᱠᱷᱟᱨᱮ
ᱱᱟᱡᱤ
ᱱᱟᱡᱤᱨ
ᱱᱟᱡᱤᱨᱟ
ᱱᱟᱡᱽ
ᱱᱟᱢ
ᱱᱟᱢᱚᱠ
ᱱᱟᱢᱚᱠᱠᱚᱞ
ᱱᱟᱢᱟᱞ
ᱱᱟᱢᱟᱠ
ᱱᱟᱢᱟᱡᱽ
ᱱᱟᱢᱠᱩᱢ
ᱱᱟᱢᱤᱵᱤᱭᱟ
ᱱᱟᱢᱥᱟᱭ
ᱱᱟᱢᱮᱨᱤ
ᱱᱟᱢᱰᱟᱠ
ᱱᱟᱢᱵᱟᱨ
ᱱᱟᱢᱵᱤᱭᱟᱨ
ᱱᱟᱣ
ᱱᱟᱣᱟ
ᱱᱟᱣᱟᱫᱟ
ᱱᱟᱣᱟᱰᱤᱦ
ᱱᱟᱥ
ᱱᱟᱥᱛᱟ
ᱱᱟᱥᱛᱤᱠ
ᱱᱟᱥᱟ
ᱱᱟᱥᱟᱣ
ᱱᱟᱥᱤᱠ
ᱱᱟᱥᱤᱨ
ᱱᱟᱥᱤᱫᱽ
ᱱᱟᱥᱮ
ᱱᱟᱥᱮᱭᱟᱜ
ᱱᱟᱥᱮᱱᱟᱜ
ᱱᱟᱥᱱᱟᱞ
ᱱᱟᱦᱚᱨ
ᱱᱟᱦᱟ
ᱱᱟᱦᱟᱜ
ᱱᱟᱦᱟᱪᱟᱨ
ᱱᱟᱦᱤᱫᱽ
ᱱᱟᱦᱤᱸ
ᱱᱟᱦᱩᱨ
ᱱᱟᱦᱮᱞ
ᱱᱟᱦᱮᱫ
ᱱᱟᱨᱜᱤᱥ
ᱱᱟᱨᱟᱠ
ᱱᱟᱨᱟᱭᱚᱬ
ᱱᱟᱨᱟᱭᱚᱬᱚᱱ
ᱱᱟᱨᱟᱭᱚᱬᱤ
ᱱᱟᱨᱟᱭᱚᱱ
ᱱᱟᱨᱟᱭᱚᱱᱚᱱ
ᱱᱟᱨᱟᱭᱚᱱᱜᱚᱸᱡᱽ
ᱱᱟᱨᱟᱭᱚᱱᱤ
ᱱᱟᱨᱟᱭᱚᱱᱯᱩᱨ
ᱱᱟᱨᱟᱭᱟᱬ
ᱱᱟᱨᱟᱭᱟᱱ
ᱱᱟᱨᱟᱭᱟᱱᱟᱱ
ᱱᱟᱨᱢᱟᱫᱟ
ᱱᱟᱨᱤ
ᱱᱟᱨᱥ
ᱱᱟᱨᱥᱤᱝ
ᱱᱟᱨᱰ
ᱱᱟᱪ
ᱱᱟᱪᱚᱞ
ᱱᱟᱪᱚᱱᱤ
ᱱᱟᱪᱚᱱᱤᱭᱟ
ᱱᱟᱪᱚᱱᱤᱭᱟᱹ
ᱱᱟᱪᱚᱱᱤᱭᱟᱹᱭ
ᱱᱟᱪᱟᱨ
ᱱᱟᱪᱟᱨᱤᱭᱟᱹ
ᱱᱟᱪᱩᱨᱟᱞ
ᱱᱟᱫᱤᱨᱟ
ᱱᱟᱫᱤᱭᱟ
ᱱᱟᱬᱠᱮᱞ
ᱱᱟᱭ
ᱱᱟᱭᱚ
ᱱᱟᱭᱚᱠ
ᱱᱟᱭᱚᱨ
ᱱᱟᱭᱟᱜᱨᱟᱢ
ᱱᱟᱭᱟᱠ
ᱱᱟᱭᱟᱨ
ᱱᱟᱭᱠᱟ
ᱱᱟᱭᱠᱮ
ᱱᱟᱭᱡᱟᱨ
ᱱᱟᱭᱡᱟᱨᱼᱠᱚᱝᱜᱳ
ᱱᱟᱭᱡᱮᱨᱤᱭᱟ
ᱱᱟᱭᱤᱠᱟ
ᱱᱟᱭᱤᱴ
ᱱᱟᱭᱤᱴᱥ
ᱱᱟᱭᱰᱩ
ᱱᱟᱭᱱᱟ
ᱱᱟᱭᱴᱨᱚᱡᱮᱱ
ᱱᱟᱯ
ᱱᱟᱯᱟᱢ
ᱱᱟᱯᱟᱭ
ᱱᱟᱯᱟᱭᱚᱜ
ᱱᱟᱯᱟᱭᱛᱮ
ᱱᱟᱯᱟᱭᱟ
ᱱᱟᱯᱟᱭᱮ
ᱱᱟᱯᱤ
ᱱᱟᱯᱷᱟ
ᱱᱟᱰᱤ
ᱱᱟᱰᱩ
ᱱᱟᱰᱮ
ᱱᱟᱱ
ᱱᱟᱱᱚᱠ
ᱱᱟᱱᱟ
ᱱᱟᱱᱟᱠ
ᱱᱟᱱᱟᱦᱩᱱᱟ
ᱱᱟᱱᱟᱦᱩᱱᱟᱹᱨ
ᱱᱟᱱᱟᱱ
ᱱᱟᱱᱟᱼᱦᱩᱱᱟᱹᱨ
ᱱᱟᱱᱠᱤ
ᱱᱟᱱᱠᱳᱣᱨᱤ
ᱱᱟᱱᱤ
ᱱᱟᱱᱦᱟ
ᱱᱟᱱᱩᱨ
ᱱᱟᱱᱫᱩᱨ
ᱱᱟᱱᱫᱩᱨᱵᱟᱨ
ᱱᱟᱱᱫᱮᱲ
ᱱᱟᱲᱠᱟ
ᱱᱟᱲᱤ
ᱱᱟᱴᱚ
ᱱᱟᱴᱚᱠ
ᱱᱟᱴᱚᱨ
ᱱᱟᱴᱟᱠ
ᱱᱟᱴᱭᱚ
ᱱᱟᱴᱭᱚᱢ
ᱱᱟᱴᱭᱟ
ᱱᱟᱴᱭᱟᱢ
ᱱᱟᱵᱚᱫᱟᱭ
ᱱᱟᱵᱤ
ᱱᱟᱵᱤᱠ
ᱱᱟᱵᱷᱟ
ᱱᱟᱵᱷᱟᱡᱳ
ᱱᱟᱶ
ᱱᱟᱶᱟ
ᱱᱟᱶᱟᱥᱚᱦᱚᱨ
ᱱᱟᱶᱟᱭ
ᱱᱟᱶᱟᱱᱟᱜ
ᱱᱟᱸᱭ
ᱱᱟᱹᱜᱚᱭᱟ
ᱱᱟᱹᱜᱟᱹᱨᱤᱭᱟᱹ
ᱱᱟᱹᱞᱤ
ᱱᱟᱹᱠᱤᱡ
ᱱᱟᱹᱨᱠᱟᱹᱲ
ᱱᱟᱹᱬᱤ
ᱱᱟᱹᱭ
ᱱᱟᱹᱯᱤᱛ
ᱱᱟᱹᱲᱤ
ᱱᱟᱹᱴᱠᱟᱹ
ᱱᱟᱺᱫᱩᱨᱟᱢ
ᱱᱟᱺᱬᱤ
ᱱᱟᱺᱭ
ᱱᱠᱳ
ᱱᱢᱤ
ᱱᱢᱤᱭᱟᱜ
ᱱᱤ
ᱱᱤᱛ
ᱱᱤᱛᱚᱜ
ᱱᱤᱛᱚᱜᱟᱜ
ᱱᱤᱛᱚᱜᱟᱦ
ᱱᱤᱛᱚᱜᱤᱡ
ᱱᱤᱛᱚᱜᱼᱟ
ᱱᱤᱛᱚᱝ
ᱱᱤᱛᱚᱱᱟᱝ
ᱱᱤᱛᱟ
ᱱᱤᱛᱟᱜ
ᱱᱤᱛᱟᱝ
ᱱᱤᱛᱟᱭᱤ
ᱱᱤᱛᱤ
ᱱᱤᱛᱤᱢᱟᱞᱟ
ᱱᱤᱛᱤᱥ
ᱱᱤᱛᱦᱚᱸ
ᱱᱤᱛᱭᱟᱱᱚᱱᱫᱚ
ᱱᱤᱜᱚᱢ
ᱱᱤᱜᱟᱢ
ᱱᱤᱞ
ᱱᱤᱞᱚᱢ
ᱱᱤᱞᱜᱤᱨᱤ
ᱱᱤᱞᱟᱢ
ᱱᱤᱞᱟᱢᱵᱚᱨ
ᱱᱤᱞᱤᱢᱟ
ᱱᱤᱞᱮ
ᱱᱤᱞᱯᱷᱟᱢᱟᱨᱤ
ᱱᱤᱠᱚᱞᱟᱥ
ᱱᱤᱠᱚᱥᱤᱭᱟ
ᱱᱤᱠᱚᱵᱚᱨ
ᱱᱤᱠᱚᱵᱟᱨ
ᱱᱤᱠᱟᱨᱟᱜᱩᱣᱟ
ᱱᱤᱠᱠᱤ
ᱱᱤᱠᱤ
ᱱᱤᱠᱤᱛᱟ
ᱱᱤᱠᱮᱛᱚᱱ
ᱱᱤᱠᱳᱞᱟᱥ
ᱱᱤᱠᱳᱵᱟᱨ
ᱱᱤᱠᱳᱵᱟᱨᱤ
ᱱᱤᱠᱷᱤᱞ
ᱱᱤᱡ
ᱱᱤᱡᱚᱨ
ᱱᱤᱡᱚᱨᱟᱜ
ᱱᱤᱡᱟ
ᱱᱤᱡᱟᱢ
ᱱᱤᱡᱟᱢᱟᱵᱟᱫᱽ
ᱱᱤᱡᱟᱹ
ᱱᱤᱡᱤ
ᱱᱤᱡᱩᱛ
ᱱᱤᱡᱮ
ᱱᱤᱡᱮᱨ
ᱱᱤᱡᱮᱨᱟᱜ
ᱱᱤᱡᱮᱭᱟᱜ
ᱱᱤᱡᱽ
ᱱᱤᱢ
ᱱᱤᱢᱚᱪ
ᱱᱤᱢᱚᱲ
ᱱᱤᱢᱟᱲ
ᱱᱤᱢᱟᱲᱤ
ᱱᱤᱢᱰᱤᱦ
ᱱᱤᱢᱱᱚ
ᱱᱤᱣ
ᱱᱤᱣᱟ
ᱱᱤᱣᱟᱲᱤ
ᱱᱤᱣᱡᱤᱞᱟᱸᱰ
ᱱᱤᱣᱡᱤᱞᱮᱱᱰ
ᱱᱤᱣᱩᱡᱽ
ᱱᱤᱣᱩᱥ
ᱱᱤᱣᱭᱚᱨᱠ
ᱱᱤᱣᱴᱚᱱ
ᱱᱤᱣᱴᱨᱮᱥᱚᱱ
ᱱᱤᱥᱛᱟᱨᱤᱱᱤ
ᱱᱤᱥᱟ
ᱱᱤᱥᱟᱨ
ᱱᱤᱥᱟᱱ
ᱱᱤᱥᱤ
ᱱᱤᱥᱪᱤᱛ
ᱱᱤᱦᱟᱨᱤᱠᱟ
ᱱᱤᱦᱟᱹᱛ
ᱱᱤᱦᱟᱹᱛᱤ
ᱱᱤᱧ
ᱱᱤᱨ
ᱱᱤᱨᱚᱱ
ᱱᱤᱨᱚᱲ
ᱱᱤᱨᱟ
ᱱᱤᱨᱟᱦᱩᱣᱟ
ᱱᱤᱨᱟᱹᱭ
ᱱᱤᱨᱢᱚᱞ
ᱱᱤᱨᱢᱚᱞᱟ
ᱱᱤᱨᱢᱚᱲᱟ
ᱱᱤᱨᱢᱟᱛᱟ
ᱱᱤᱨᱢᱟᱞ
ᱱᱤᱨᱩᱯᱚᱢᱟ
ᱱᱤᱨᱫᱮᱥ
ᱱᱤᱨᱫᱮᱥᱟᱠ
ᱱᱤᱨᱲᱟᱹ
ᱱᱤᱨᱳ
ᱱᱤᱨᱵᱟᱦᱤ
ᱱᱤᱨᱵᱟᱪᱚᱱ
ᱱᱤᱨᱵᱟᱪᱚᱱᱤ
ᱱᱤᱨᱵᱟᱪᱤᱛᱚ
ᱱᱤᱨᱵᱷᱚᱨ
ᱱᱤᱪᱚᱞ
ᱱᱤᱫ
ᱱᱤᱫᱮᱥᱚᱠ
ᱱᱤᱫᱷᱤ
ᱱᱤᱭ
ᱱᱤᱭᱚᱢ
ᱱᱤᱭᱚᱱᱛᱚᱨᱚᱠ
ᱱᱤᱭᱚᱱᱛᱨᱚᱱ
ᱱᱤᱭᱟ
ᱱᱤᱭᱟᱡᱤ
ᱱᱤᱭᱟᱢ
ᱱᱤᱭᱟᱢᱚᱛᱯᱩᱨ
ᱱᱤᱭᱟᱥ
ᱱᱤᱭᱟᱸ
ᱱᱤᱭᱟᱹ
ᱱᱤᱭᱟᱹᱛᱮ
ᱱᱤᱭᱟᱹᱠᱚ
ᱱᱤᱭᱟᱹᱢ
ᱱᱤᱭᱟᱹᱫᱚ
ᱱᱤᱭᱩ
ᱱᱤᱭᱩᱡ
ᱱᱤᱭᱩᱡᱤᱞᱮᱱᱰ
ᱱᱤᱭᱩᱡᱽ
ᱱᱤᱭᱩᱴᱚᱱ
ᱱᱤᱭᱮ
ᱱᱤᱭᱳ
ᱱᱤᱯᱟᱢ
ᱱᱤᱯᱥᱟᱹ
ᱱᱤᱯᱷᱩᱴ
ᱱᱤᱱ
ᱱᱤᱱᱟ
ᱱᱤᱱᱟᱹᱜ
ᱱᱤᱲᱚᱜᱤᱨᱤ
ᱱᱤᱲᱚᱢᱚᱬᱤ
ᱱᱤᱴ
ᱱᱤᱵᱮᱫᱤᱛᱟ
ᱱᱤᱵᱷᱟᱣ
ᱱᱤᱶ
ᱱᱨᱤᱛᱭᱚ
ᱱᱨᱤᱛᱭᱟ
ᱱᱨᱩᱛᱭᱚ
ᱱᱨᱩᱥᱤᱝᱦᱚᱱᱟᱛᱷ
ᱱᱩ
ᱱᱩᱜ
ᱱᱩᱠᱚ
ᱱᱩᱠᱤᱱ
ᱱᱩᱠᱤᱱᱟᱜ
ᱱᱩᱠᱤᱱᱤᱡ
ᱱᱩᱠᱩ
ᱱᱩᱠᱩᱠᱣᱟᱜ
ᱱᱩᱠᱩᱣᱟᱜ
ᱱᱩᱣᱟ
ᱱᱩᱣᱟᱥ
ᱱᱩᱣᱟᱯᱚᱰᱟ
ᱱᱩᱥᱟ
ᱱᱩᱥᱨᱚᱛ
ᱱᱩᱥᱨᱟᱛ
ᱱᱩᱦ
ᱱᱩᱦᱮᱸ
ᱱᱩᱨ
ᱱᱩᱨᱟᱸ
ᱱᱩᱨᱩᱞ
ᱱᱩᱨᱯᱩᱨ
ᱱᱩᱨᱼᱥᱩᱞᱛᱟᱱ
ᱱᱩᱭ
ᱱᱩᱭᱟ
ᱱᱩᱭᱟᱜ
ᱱᱩᱭᱟᱹ
ᱱᱩᱭᱤᱡ
ᱱᱩᱭᱫᱚ
ᱱᱩᱱ
ᱱᱩᱱᱟᱹᱜ
ᱱᱩᱱᱠᱩ
ᱱᱩᱱᱩ
ᱱᱩᱲᱤᱭᱟ
ᱱᱩᱲᱭᱟ
ᱱᱩᱶᱟ
ᱱᱫᱤᱨ
ᱱᱫᱷᱤ
ᱱᱭᱟᱭ
ᱱᱭᱟᱭᱟᱞᱚᱭ
ᱱᱭᱩ
ᱱᱭᱩᱠᱞᱤᱭᱟᱨ
ᱱᱭᱩᱡᱽ
ᱱᱭᱩᱭᱚᱨᱠ
ᱱᱭᱩᱭᱳᱨᱠ
ᱱᱮ
ᱱᱮᱛᱚᱜ
ᱱᱮᱛᱟ
ᱱᱮᱛᱟᱡᱤ
ᱱᱮᱛᱟᱨ
ᱱᱮᱛᱟᱨᱟᱜ
ᱱᱮᱛᱟᱨᱦᱟᱴ
ᱱᱮᱛᱟᱭ
ᱱᱮᱛᱨᱚᱠᱚᱱᱟ
ᱱᱮᱛᱨᱚᱠᱳᱱᱟ
ᱱᱮᱛᱨᱤᱛᱣᱚ
ᱱᱮᱜᱤ
ᱱᱮᱜᱮᱴᱤᱵᱽ
ᱱᱮᱞᱚᱨ
ᱱᱮᱞᱥᱚᱱ
ᱱᱮᱞᱳᱨ
ᱱᱮᱠᱚᱯᱟ
ᱱᱮᱠᱥᱚᱥ
ᱱᱮᱢ
ᱱᱮᱢᱚᱥ
ᱱᱮᱣᱚᱜᱽ
ᱱᱮᱣᱛᱟ
ᱱᱮᱣᱛᱟᱭ
ᱱᱮᱣᱟᱨ
ᱱᱮᱣᱟᱨᱤ
ᱱᱮᱣᱟᱫᱟ
ᱱᱮᱥᱚᱱ
ᱱᱮᱥᱚᱱᱟᱞ
ᱱᱮᱥᱟ
ᱱᱮᱥᱟᱱᱟᱞ
ᱱᱮᱥᱱᱚᱞ
ᱱᱮᱥᱱᱟᱞ
ᱱᱮᱥᱳᱱ
ᱱᱮᱥᱳᱱᱥ
ᱱᱮᱦᱚᱨ
ᱱᱮᱦᱚᱸᱨ
ᱱᱮᱦᱟ
ᱱᱮᱦᱟᱹᱞᱤ
ᱱᱮᱦᱣᱟᱞ
ᱱᱮᱦᱨᱩ
ᱱᱮᱦᱨᱩᱣᱟᱜ
ᱱᱮᱦᱮᱨᱩ
ᱱᱮᱨᱚ
ᱱᱮᱨᱵᱩᱰᱰᱟ
ᱱᱮᱪᱩᱨᱟᱞ
ᱱᱮᱫᱚᱨᱞᱟᱸᱰ
ᱱᱮᱫᱟᱨᱞᱮᱱᱰ
ᱱᱮᱫᱟᱨᱞᱮᱱᱰᱥ
ᱱᱮᱭ
ᱱᱮᱭᱟᱣ
ᱱᱮᱭᱱᱤ
ᱱᱮᱭᱱᱤᱛᱟᱞ
ᱱᱮᱯᱟᱞ
ᱱᱮᱯᱟᱞᱤ
ᱱᱮᱯᱟᱲ
ᱱᱮᱯᱟᱲᱤ
ᱱᱮᱯᱤᱭᱫᱟᱣ
ᱱᱮᱯᱳᱞᱤᱭᱚᱱ
ᱱᱮᱰᱟ
ᱱᱮᱱᱟᱜ
ᱱᱮᱱᱥᱤ
ᱱᱮᱱᱩ
ᱱᱮᱱᱰᱟ
ᱱᱮᱴ
ᱱᱮᱴᱣᱚᱨᱠ
ᱱᱮᱴᱣᱟᱨᱠ
ᱱᱮᱴᱯᱷᱞᱤᱠᱥ
ᱱᱮᱵᱮᱛᱟᱨ
ᱱᱮᱵᱷᱚᱨ
ᱱᱮᱵᱷᱤ
ᱱᱮᱵᱽᱨᱟᱥᱠᱟ
ᱱᱮᱶᱛᱟ
ᱱᱮᱸᱦᱚᱨ
ᱱᱮᱸᱰᱟ
ᱱᱮᱼᱦᱚᱲ
ᱱᱮᱼᱦᱚᱲᱟᱜ
ᱱᱮᱼᱦᱟᱹᱞᱤ
ᱱᱯᱣᱟ
ᱱᱰᱤ
ᱱᱰᱳᱝᱜᱟ
ᱱᱳ
ᱱᱳᱣᱟ
ᱱᱳᱣᱟᱠᱷᱟᱞᱤ
ᱱᱳᱨᱟ
ᱱᱳᱭᱟ
ᱱᱳᱱ
ᱱᱳᱴ
ᱱᱳᱴᱥ
ᱱᱳᱵᱮᱞ
ᱱᱳᱵᱷᱮᱞ
ᱱᱶᱟ
ᱱᱷᱟᱛᱮ
ᱱᱷᱟᱜ
ᱱᱷᱟᱣᱟ
ᱱᱷᱟᱦᱟᱪᱟᱨ
ᱱᱷᱟᱪᱟᱨ
ᱱᱷᱟᱰᱮ
ᱲ
ᱲᱚᱜ
ᱲᱛᱤ
ᱲᱛᱤᱜᱮ
ᱲᱛᱤᱭ
ᱲᱟ
ᱲᱢᱤ
ᱲᱤ
ᱲᱤᱠ
ᱲᱤᱡ
ᱲᱤᱡᱚᱜ
ᱲᱤᱢ
ᱲᱤᱥ
ᱲᱤᱭᱟ
ᱲᱦᱟ
ᱲᱩ
ᱳ
ᱳᱜᱷᱩᱡᱽ
ᱳᱞ
ᱳᱞᱤ
ᱳᱞᱤᱣᱩᱰ
ᱳᱞᱰ
ᱳᱟᱭᱥᱤ
ᱳᱠᱞᱟᱦᱳᱢᱟ
ᱳᱠᱮ
ᱳᱠᱷᱚᱞᱰᱷᱩᱸᱜᱟ
ᱳᱢ
ᱳᱢᱟᱱ
ᱳᱢᱥᱠ
ᱳᱢᱪᱮᱨᱤ
ᱳᱢᱮᱱ
ᱳᱢᱮᱱᱥ
ᱳᱣᱟᱨᱰ
ᱳᱣᱟᱱ
ᱳᱥᱟᱠᱟ
ᱳᱥᱟᱢᱟ
ᱳᱥᱟᱨ
ᱳᱥᱢᱳᱥᱤᱥ
ᱳᱥᱤ
ᱳᱥᱤᱭᱟᱱᱤᱭᱟ
ᱳᱨ
ᱳᱨᱟᱫᱩ
ᱳᱨᱤᱭᱟ
ᱳᱨᱤᱭᱮᱱᱴᱟᱞ
ᱳᱨᱩ
ᱳᱨᱮᱜᱚᱱ
ᱳᱨᱳᱢᱳ
ᱳᱨᱵᱟᱱ
ᱳᱫᱤᱥᱟ
ᱳᱭᱟ
ᱳᱭᱟᱨᱰ
ᱳᱭᱮᱞᱥ
ᱳᱭᱮᱥᱴᱤᱱᱰᱤᱡᱽ
ᱳᱭᱮᱵ
ᱳᱭᱮᱵᱥᱟᱭᱤᱴ
ᱳᱭᱮᱵᱽᱥᱟᱭᱤᱴ
ᱳᱯ
ᱳᱯᱨᱳᱢ
ᱳᱯᱮᱠ
ᱳᱯᱮᱨᱟ
ᱳᱯᱮᱱ
ᱳᱯᱷ
ᱳᱯᱷᱤᱥ
ᱳᱰᱤᱟᱭ
ᱳᱰᱤᱥᱟ
ᱳᱰᱤᱥᱟᱨᱮ
ᱳᱰᱤᱥᱤ
ᱳᱰᱤᱭᱟ
ᱳᱰᱤᱭᱟᱹ
ᱳᱰᱳᱠ
ᱳᱱ
ᱳᱱᱞᱟᱭᱤᱱ
ᱳᱱᱟᱢ
ᱳᱴᱚ
ᱳᱴᱳᱢᱟᱱ
ᱳᱵᱮᱨᱳᱭ
ᱳᱵᱷᱚᱨ
ᱳᱵᱷᱟᱨ
ᱴ
ᱴᱚ
ᱴᱚᱝᱠ
ᱴᱚᱝᱨᱟ
ᱴᱚᱞ
ᱴᱚᱞᱟ
ᱴᱚᱞᱟᱨᱮ
ᱴᱚᱞᱥᱴᱚᱭ
ᱴᱚᱞᱮᱢᱤ
ᱴᱚᱠ
ᱴᱚᱠᱠᱚᱨ
ᱴᱚᱠᱤᱭᱚ
ᱴᱚᱠᱤᱭᱟ
ᱴᱚᱠᱤᱭᱳ
ᱴᱚᱠᱭᱚ
ᱴᱚᱢ
ᱴᱚᱢᱟᱥ
ᱴᱚᱥ
ᱴᱚᱨ
ᱴᱚᱨᱚᱰᱟᱝ
ᱴᱚᱨᱢᱤᱱᱟᱞ
ᱴᱚᱬᱮ
ᱴᱚᱭᱞᱮᱴ
ᱴᱚᱭᱮᱱ
ᱴᱚᱯ
ᱴᱚᱯᱚᱜᱨᱟᱯᱷᱤ
ᱴᱚᱯᱟ
ᱴᱚᱯᱟᱨ
ᱴᱚᱯᱤᱠᱥ
ᱴᱚᱱ
ᱴᱚᱱᱚᱠᱯᱩᱨ
ᱴᱚᱱᱟ
ᱴᱚᱱᱤ
ᱴᱚᱱᱰᱚᱱ
ᱴᱚᱲᱚᱜ
ᱴᱚᱴᱦᱟ
ᱴᱚᱴᱷᱟ
ᱴᱚᱴᱷᱟᱠᱤᱭᱟ
ᱴᱚᱴᱷᱟᱠᱤᱭᱟᱹ
ᱴᱚᱴᱷᱟᱣᱟᱨᱤ
ᱴᱚᱴᱷᱟᱨᱡᱚ
ᱴᱚᱴᱷᱟᱨᱤ
ᱴᱚᱴᱷᱟᱨᱮ
ᱴᱚᱴᱷᱟᱭ
ᱴᱚᱴᱷᱟᱹᱨᱤ
ᱴᱚᱸᱥ
ᱴᱚᱸᱰᱚᱱ
ᱴᱟ
ᱴᱟᱜ
ᱴᱟᱜᱳᱨ
ᱴᱟᱝ
ᱴᱟᱝᱜᱚᱱ
ᱴᱟᱝᱜᱟᱭᱤᱞ
ᱴᱟᱠᱟ
ᱴᱟᱠᱟᱭ
ᱴᱟᱢᱟᱠ
ᱴᱟᱣᱟᱝ
ᱴᱟᱣᱟᱨ
ᱴᱟᱣᱩᱱ
ᱴᱟᱣᱩᱱᱥᱤᱯ
ᱴᱟᱣᱱ
ᱴᱟᱦᱮᱸ
ᱴᱟᱦᱮᱸᱫ
ᱴᱟᱨᱜᱮᱴ
ᱴᱟᱨᱢᱤᱱᱟᱞ
ᱴᱟᱨᱢᱤᱱᱟᱥ
ᱴᱟᱨᱦᱟᱣ
ᱴᱟᱩᱱ
ᱴᱟᱬᱟᱝ
ᱴᱟᱭ
ᱴᱟᱭᱚᱢ
ᱴᱟᱭᱜᱚᱨ
ᱴᱟᱭᱜᱟᱨ
ᱴᱟᱭᱟᱨ
ᱴᱟᱭᱢᱥ
ᱴᱟᱭᱤᱢ
ᱴᱟᱭᱤᱢᱥ
ᱴᱟᱭᱤᱯ
ᱴᱟᱭᱩᱱᱥᱤᱯ
ᱴᱟᱭᱴᱚᱞ
ᱴᱟᱭᱴᱮᱞ
ᱴᱟᱯᱩ
ᱴᱟᱱ
ᱴᱟᱱᱟᱣ
ᱴᱟᱲᱟᱝ
ᱴᱟᱴᱟ
ᱴᱟᱴᱟᱱᱚᱜᱚᱨ
ᱴᱟᱴᱟᱱᱚᱜᱚᱨᱼᱵᱤᱞᱟᱥᱯᱩᱨ
ᱴᱟᱴᱠᱟ
ᱴᱟᱴᱷᱟ
ᱴᱟᱶ
ᱴᱟᱸᱜᱟ
ᱴᱟᱸᱜᱟᱥᱴᱟᱱ
ᱴᱟᱸᱰᱤ
ᱴᱟᱸᱶ
ᱴᱟᱹᱝ
ᱴᱟᱹᱯᱩ
ᱴᱟᱹᱰᱤ
ᱴᱟᱹᱱᱰᱤ
ᱴᱟᱹᱴᱤ
ᱴᱟᱺᱰᱤ
ᱴᱣᱤᱴ
ᱴᱣᱤᱴᱚᱨ
ᱴᱤ
ᱴᱤᱝ
ᱴᱤᱠᱟ
ᱴᱤᱠᱟᱜ
ᱴᱤᱠᱟᱢᱜᱚᱲ
ᱴᱤᱠᱟᱹ
ᱴᱤᱠᱟᱹᱴ
ᱴᱤᱠᱤᱴ
ᱴᱤᱠᱮᱴ
ᱴᱤᱡ
ᱴᱤᱢ
ᱴᱤᱣᱤ
ᱴᱤᱥᱩ
ᱴᱤᱦᱨᱤ
ᱴᱤᱧ
ᱴᱤᱨ
ᱴᱤᱨᱟᱯ
ᱴᱤᱨᱟᱹ
ᱴᱤᱫ
ᱴᱤᱬᱤᱡ
ᱴᱤᱭᱟ
ᱴᱤᱭᱩᱵᱽ
ᱴᱤᱯᱤᱡ
ᱴᱤᱯᱷᱤᱱ
ᱴᱤᱰᱟᱹᱜ
ᱴᱤᱱ
ᱴᱤᱱᱟ
ᱴᱤᱲᱤᱡ
ᱴᱤᱴᱤᱞᱟᱜᱚᱰ
ᱴᱤᱴᱩ
ᱴᱤᱵᱤ
ᱴᱤᱵᱷᱤ
ᱴᱤᱸᱴ
ᱴᱤᱹ
ᱴᱦᱟᱶ
ᱴᱦᱮᱫ
ᱴᱨᱚᱥᱴ
ᱴᱨᱚᱯᱤᱠᱟᱞ
ᱴᱨᱚᱯᱷᱤ
ᱴᱨᱟᱝᱠ
ᱴᱨᱟᱠ
ᱴᱨᱟᱥᱴ
ᱴᱨᱟᱭ
ᱴᱨᱟᱭᱵᱟᱞ
ᱴᱨᱟᱭᱵᱽ
ᱴᱨᱟᱯᱷᱤᱠ
ᱴᱨᱟᱰᱤᱥᱚᱱ
ᱴᱨᱟᱰᱤᱥᱱᱟᱞ
ᱴᱨᱟᱱᱥ
ᱴᱨᱟᱱᱥᱯᱚᱨᱴ
ᱴᱨᱟᱱᱥᱯᱷᱚᱨ
ᱴᱨᱟᱵᱷᱮᱞ
ᱴᱨᱟᱸᱠ
ᱴᱨᱤ
ᱴᱨᱤᱢᱟᱨ
ᱴᱨᱤᱱᱤᱴᱤ
ᱴᱨᱤᱴ
ᱴᱨᱤᱴᱢᱮᱱᱴ
ᱴᱨᱩᱯ
ᱴᱨᱮ
ᱴᱨᱮᱞ
ᱴᱨᱮᱠ
ᱴᱨᱮᱥᱚᱱ
ᱴᱨᱮᱭᱱᱤᱝ
ᱴᱨᱮᱰ
ᱴᱨᱮᱱ
ᱴᱨᱮᱱᱤᱝ
ᱴᱨᱮᱱᱰ
ᱴᱩ
ᱴᱩᱝᱜᱤᱯᱟᱲᱟ
ᱴᱩᱞᱥ
ᱴᱩᱞᱩ
ᱴᱩᱠᱩᱡ
ᱴᱩᱢᱟᱹᱞ
ᱴᱩᱣᱟ
ᱴᱩᱣᱟᱨ
ᱴᱩᱣᱟᱹᱨ
ᱴᱩᱣᱮᱱᱥᱟᱝ
ᱴᱩᱥᱩ
ᱴᱩᱧ
ᱴᱩᱨ
ᱴᱩᱨᱤᱡᱚᱢ
ᱴᱩᱨᱤᱡᱤᱢ
ᱴᱩᱨᱤᱥᱴ
ᱴᱩᱨᱤᱱ
ᱴᱩᱨᱱᱟᱢᱮᱱᱴ
ᱴᱩᱨᱱᱟᱢᱮᱸᱴ
ᱴᱩᱭ
ᱴᱩᱭᱮᱱᱴᱤ
ᱴᱩᱯᱨᱤ
ᱴᱩᱰᱟ
ᱴᱩᱰᱟᱹᱜ
ᱴᱩᱰᱩ
ᱴᱩᱰᱮ
ᱴᱩᱱᱟ
ᱴᱩᱱᱡᱤ
ᱴᱩᱴᱤ
ᱴᱩᱵ
ᱴᱩᱸᱰᱟᱹᱜ
ᱴᱩᱸᱰᱟᱹᱝ
ᱴᱩᱸᱰᱩᱞ
ᱴᱭᱟ
ᱴᱭᱩᱢᱟᱨ
ᱴᱭᱩᱨᱤᱝ
ᱴᱮ
ᱴᱮᱜᱳᱨ
ᱴᱮᱞ
ᱴᱮᱞᱤ
ᱴᱮᱞᱤᱜᱨᱟᱯᱷ
ᱴᱮᱞᱤᱠᱚᱢ
ᱴᱮᱞᱤᱣᱤᱡᱟᱱ
ᱴᱮᱞᱤᱯᱷᱚᱱ
ᱴᱮᱞᱤᱯᱷᱤᱞᱢ
ᱴᱮᱞᱤᱯᱷᱳᱱ
ᱴᱮᱞᱤᱵᱤᱡᱚᱱ
ᱴᱮᱞᱤᱵᱤᱡᱟᱱ
ᱴᱮᱞᱤᱵᱷᱤᱡᱚᱱ
ᱴᱮᱞᱤᱵᱷᱤᱥᱚᱱ
ᱴᱮᱠ
ᱴᱮᱠᱟᱣ
ᱴᱮᱠᱥ
ᱴᱮᱠᱥᱟᱥ
ᱴᱮᱠᱥᱤ
ᱴᱮᱠᱥᱴᱟᱭᱤᱞ
ᱴᱮᱠᱱᱚ
ᱴᱮᱠᱱᱚᱞᱚᱡᱤ
ᱴᱮᱠᱱᱚᱞᱳᱡᱤ
ᱴᱮᱠᱱᱤᱠ
ᱴᱮᱠᱱᱤᱠᱟᱞ
ᱴᱮᱠᱱᱤᱠᱮᱞ
ᱴᱮᱠᱱᱳᱞᱚᱡᱤ
ᱴᱮᱠᱱᱳᱞᱳᱡᱤ
ᱴᱮᱢᱯᱚᱞ
ᱴᱮᱢᱯᱟᱞ
ᱴᱮᱢᱯᱟᱨᱮᱪᱟᱨ
ᱴᱮᱥᱚᱱ
ᱴᱮᱥᱞᱟ
ᱴᱮᱥᱴ
ᱴᱮᱦᱟᱱᱰ
ᱴᱮᱦᱟᱸᱰ
ᱴᱮᱨᱤᱴᱚᱨᱤᱭᱟᱞ
ᱴᱮᱨᱤᱴᱚᱨᱤᱭᱮᱞ
ᱴᱮᱨᱮᱥᱟ
ᱴᱮᱨᱮᱱ
ᱴᱮᱨᱮᱱᱥ
ᱴᱮᱪᱱᱚᱞᱚᱡᱤ
ᱴᱮᱫ
ᱴᱮᱭᱞᱟᱨ
ᱴᱮᱱ
ᱴᱮᱱᱟᱜ
ᱴᱮᱱᱤᱥ
ᱴᱮᱵᱩᱞ
ᱴᱮᱸᱜᱚᱡ
ᱴᱮᱸᱠ
ᱴᱳ
ᱴᱳᱜᱳ
ᱴᱳᱝᱜᱟ
ᱴᱳᱠ
ᱴᱳᱠᱤᱭᱳ
ᱴᱳᱠᱭᱳ
ᱴᱳᱭᱮᱱᱴᱤ
ᱴᱷᱚᱛᱟ
ᱴᱷᱚᱠᱚᱨ
ᱴᱷᱚᱯ
ᱴᱷᱚᱱᱴᱟ
ᱴᱷᱚᱴᱟ
ᱴᱷᱚᱴᱷᱟ
ᱴᱷᱚᱸᱜᱟ
ᱴᱷᱟ
ᱴᱷᱟᱠᱨᱮ
ᱴᱷᱟᱠᱩᱨ
ᱴᱷᱟᱠᱩᱨᱜᱟᱶ
ᱴᱷᱟᱠᱮᱫ
ᱴᱷᱟᱣ
ᱴᱷᱟᱯᱚᱱ
ᱴᱷᱟᱱᱮ
ᱴᱷᱟᱶ
ᱴᱷᱟᱶᱨᱮ
ᱴᱷᱟᱶᱮ
ᱴᱷᱟᱸᱣ
ᱴᱷᱟᱹᱠᱩᱨ
ᱴᱷᱟᱹᱠᱩᱨᱛᱤᱧ
ᱴᱷᱟᱹᱣᱠᱟ
ᱴᱷᱟᱹᱣᱠᱟᱹ
ᱴᱷᱟᱹᱣᱠᱟᱹᱜᱼᱟ
ᱴᱷᱟᱹᱭ
ᱴᱷᱟᱹᱶ
ᱴᱷᱟᱹᱶᱠᱟᱹ
ᱴᱷᱟᱺᱭ
ᱴᱷᱣᱟ
ᱴᱷᱤᱞᱤ
ᱴᱷᱤᱠ
ᱴᱷᱤᱠᱟ
ᱴᱷᱤᱠᱟᱱᱟ
ᱴᱷᱤᱠᱟᱹ
ᱴᱷᱤᱠᱮ
ᱴᱷᱩ
ᱴᱷᱩᱠᱨᱟᱞ
ᱴᱷᱩᱢᱨᱤ
ᱴᱷᱩᱣᱟ
ᱴᱷᱮᱞᱟᱣ
ᱴᱷᱮᱡ
ᱴᱷᱮᱨ
ᱴᱷᱮᱫ
ᱴᱷᱮᱱ
ᱴᱷᱮᱱᱠᱷᱚᱱ
ᱴᱷᱮᱱᱮ
ᱵ
ᱵᱚ
ᱵᱚᱛᱚᱞ
ᱵᱚᱛᱚᱨ
ᱵᱚᱛᱚᱨᱚᱜ
ᱵᱚᱛᱚᱨᱟᱱ
ᱵᱚᱛᱩᱛᱟ
ᱵᱚᱜᱟ
ᱵᱚᱜᱤᱪᱟ
ᱵᱚᱜᱩᱲᱟ
ᱵᱚᱝ
ᱵᱚᱝᱜᱚ
ᱵᱚᱝᱜᱚᱯ
ᱵᱚᱝᱜᱚᱯᱚ
ᱵᱚᱝᱜᱚᱯᱚᱥᱟᱜᱚᱨ
ᱵᱚᱝᱜᱚᱯᱥᱟᱜᱚᱨ
ᱵᱚᱝᱜᱚᱵᱚᱱᱫᱷᱩ
ᱵᱚᱝᱜᱟ
ᱵᱚᱝᱜᱟᱜ
ᱵᱚᱝᱜᱟᱞ
ᱵᱚᱝᱜᱟᱭ
ᱵᱚᱝᱜᱟᱭᱟ
ᱵᱚᱝᱜᱤᱭᱚ
ᱵᱚᱝᱠᱤᱢ
ᱵᱚᱝᱥᱚ
ᱵᱚᱝᱥᱤ
ᱵᱚᱞ
ᱵᱚᱞᱚ
ᱵᱚᱞᱚᱜ
ᱵᱚᱞᱚᱠ
ᱵᱚᱞᱚᱣᱟᱠᱟᱱᱟ
ᱵᱚᱞᱚᱨᱟᱢᱯᱩᱨ
ᱵᱚᱞᱚᱭᱮᱱ
ᱵᱚᱞᱚᱭᱮᱱᱟ
ᱵᱚᱞᱚᱱ
ᱵᱚᱞᱚᱱᱟ
ᱵᱚᱞᱞᱚᱵᱷ
ᱵᱚᱞᱞᱚᱵᱷᱚ
ᱵᱚᱞᱞᱚᱵᱷᱯᱩᱨ
ᱵᱚᱞᱞᱟᱞ
ᱵᱚᱞᱞᱤᱣᱩᱰ
ᱵᱚᱞᱟ
ᱵᱚᱞᱟᱜᱚᱲ
ᱵᱚᱞᱟᱝᱜᱤᱨ
ᱵᱚᱞᱠᱟᱱ
ᱵᱚᱞᱤ
ᱵᱚᱞᱤᱝ
ᱵᱚᱞᱤᱣᱩᱰ
ᱵᱚᱞᱤᱩᱰ
ᱵᱚᱞᱤᱭᱟ
ᱵᱚᱞᱤᱭᱩᱰ
ᱵᱚᱞᱤᱵᱩᱰ
ᱵᱚᱞᱤᱵᱷᱤᱭᱟ
ᱵᱚᱞᱥᱟᱰ
ᱵᱚᱞᱨᱟᱢ
ᱵᱚᱞᱨᱟᱢᱯᱩᱨ
ᱵᱚᱞᱮ
ᱵᱚᱞᱰ
ᱵᱚᱞᱳᱪ
ᱵᱚᱞᱳᱪᱤᱥᱛᱟᱱ
ᱵᱚᱠᱚ
ᱵᱚᱠᱚᱛ
ᱵᱚᱠᱚᱧ
ᱵᱚᱠᱟᱜ
ᱵᱚᱠᱟᱨᱚ
ᱵᱚᱠᱠᱷᱟᱞᱤ
ᱵᱚᱠᱥ
ᱵᱚᱠᱥᱚᱨ
ᱵᱚᱠᱥᱟᱨ
ᱵᱚᱠᱥᱟᱭᱤᱴ
ᱵᱚᱠᱥᱤ
ᱵᱚᱠᱥᱤᱝ
ᱵᱚᱠᱨᱚ
ᱵᱚᱠᱨᱮᱥᱚᱨ
ᱵᱚᱠᱷᱛᱤᱭᱟᱨᱯᱩᱨ
ᱵᱚᱡᱟᱨ
ᱵᱚᱢ
ᱵᱚᱢᱰᱤᱞᱟ
ᱵᱚᱢᱵᱮ
ᱵᱚᱢᱵᱮᱭ
ᱵᱚᱣᱫᱷ
ᱵᱚᱣᱫᱷᱚ
ᱵᱚᱥ
ᱵᱚᱥᱚᱛᱤ
ᱵᱚᱥᱚᱭ
ᱵᱚᱥᱚᱱᱛ
ᱵᱚᱥᱚᱱᱛᱚ
ᱵᱚᱥᱚᱱᱛᱤ
ᱵᱚᱥᱚᱸᱛ
ᱵᱚᱥᱛᱟ
ᱵᱚᱥᱛᱤ
ᱵᱚᱥᱠᱚ
ᱵᱚᱥᱠᱚᱫ
ᱵᱚᱥᱠᱚᱫᱚᱜ
ᱵᱚᱥᱠᱚᱫᱤᱭᱟᱹ
ᱵᱚᱥᱤᱨᱦᱟᱴ
ᱵᱚᱥᱩ
ᱵᱚᱥᱩᱱᱫᱷᱚᱨᱟ
ᱵᱚᱥᱱᱤᱭᱟ
ᱵᱚᱥᱱᱤᱭᱟᱱ
ᱵᱚᱥᱴᱚᱱ
ᱵᱚᱦᱚᱜ
ᱵᱚᱦᱚᱨ
ᱵᱚᱦᱚᱨᱚᱢᱯᱩᱨ
ᱵᱚᱦᱚᱲᱫᱟ
ᱵᱚᱦᱟᱜᱽ
ᱵᱚᱦᱟᱞ
ᱵᱚᱦᱢᱚᱱᱤ
ᱵᱚᱦᱤ
ᱵᱚᱦᱨᱟ
ᱵᱚᱦᱨᱟᱭᱤᱪ
ᱵᱚᱦᱩ
ᱵᱚᱦᱩᱜᱩᱱᱟ
ᱵᱚᱦᱩᱢᱩᱠᱷᱤ
ᱵᱚᱦᱮᱞ
ᱵᱚᱦᱮᱞᱟ
ᱵᱚᱨ
ᱵᱚᱨᱚ
ᱵᱚᱨᱚᱜᱚᱰ
ᱵᱚᱨᱚᱝ
ᱵᱚᱨᱚᱢ
ᱵᱚᱨᱚᱯ
ᱵᱚᱨᱚᱯᱷ
ᱵᱚᱨᱚᱱ
ᱵᱚᱨᱛᱚᱢᱟᱱ
ᱵᱚᱨᱜᱚ
ᱵᱚᱨᱜᱟᱢ
ᱵᱚᱨᱜᱩᱱᱟ
ᱵᱚᱨᱜᱮᱥ
ᱵᱚᱨᱞᱤᱱ
ᱵᱚᱨᱟ
ᱵᱚᱨᱟᱛ
ᱵᱚᱨᱟᱠ
ᱵᱚᱨᱟᱠᱚᱨ
ᱵᱚᱨᱟᱵᱚᱨ
ᱵᱚᱨᱟᱵᱟᱡᱟᱨ
ᱵᱚᱨᱠᱷᱟ
ᱵᱚᱨᱢᱚᱱ
ᱵᱚᱨᱢᱟ
ᱵᱚᱨᱢᱤ
ᱵᱚᱨᱢᱤᱥ
ᱵᱚᱨᱤᱥᱟᱞ
ᱵᱚᱨᱥᱚ
ᱵᱚᱨᱥᱟ
ᱵᱚᱨᱦᱚᱢᱯᱩᱨ
ᱵᱚᱨᱦᱟᱢᱯᱩᱨ
ᱵᱚᱨᱦᱤ
ᱵᱚᱨᱩᱣᱟ
ᱵᱚᱨᱩᱬ
ᱵᱚᱨᱫᱚᱜᱷᱟᱴ
ᱵᱚᱨᱫᱚᱞᱚᱭ
ᱵᱚᱨᱫᱤᱭᱟ
ᱵᱚᱨᱫᱷᱚᱢᱟᱱ
ᱵᱚᱨᱯᱮᱴᱟ
ᱵᱚᱨᱰ
ᱵᱚᱨᱱ
ᱵᱚᱨᱱᱚ
ᱵᱚᱨᱱᱚᱨᱥ
ᱵᱚᱨᱱᱚᱫᱤ
ᱵᱚᱨᱱᱟᱞᱟ
ᱵᱚᱨᱴᱷᱟᱠᱩᱨ
ᱵᱚᱨᱵᱚᱨᱟ
ᱵᱚᱨᱵᱚᱨᱩᱣᱟ
ᱵᱚᱪᱚᱨ
ᱵᱚᱪᱚᱱ
ᱵᱚᱪᱟᱜᱚᱸᱡᱽ
ᱵᱚᱪᱪᱚᱱ
ᱵᱚᱪᱷᱚᱨ
ᱵᱚᱫᱚᱞ
ᱵᱚᱫᱚᱞᱚᱜ
ᱵᱚᱫᱚᱞᱚᱜᱼᱟ
ᱵᱚᱫᱚᱞᱜᱟᱪᱷᱤ
ᱵᱚᱫᱚᱞᱟ
ᱵᱚᱫᱚᱞᱮᱱ
ᱵᱚᱫᱚᱞᱮᱱᱟ
ᱵᱚᱫᱚᱨᱜᱚᱸᱡᱽ
ᱵᱚᱫᱞᱟ
ᱵᱚᱫᱟ
ᱵᱚᱫᱟᱭᱩᱝ
ᱵᱚᱫᱤᱯ
ᱵᱚᱫᱫᱷ
ᱵᱚᱫᱫᱷᱚ
ᱵᱚᱫᱷᱩ
ᱵᱚᱫᱷᱫ
ᱵᱚᱫᱽᱨᱟ
ᱵᱚᱫᱽᱨᱤᱱᱟᱛᱷ
ᱵᱚᱫᱽᱱᱟᱢ
ᱵᱚᱭ
ᱵᱚᱭᱚᱥ
ᱵᱚᱭᱛᱚᱨᱚᱬᱤ
ᱵᱚᱭᱡᱚᱭᱚᱱᱛᱤ
ᱵᱚᱭᱤᱥᱟᱞᱤ
ᱵᱚᱭᱥᱟᱞᱤ
ᱵᱚᱭᱥᱟᱲᱤ
ᱵᱚᱭᱥᱱᱚᱵᱚ
ᱵᱚᱭᱥᱱᱚᱵᱽ
ᱵᱚᱭᱦᱟ
ᱵᱚᱭᱦᱟᱭ
ᱵᱚᱭᱨᱟᱢ
ᱵᱚᱭᱫᱤᱠ
ᱵᱚᱭᱫᱭᱚᱱᱟᱛᱷᱚᱱ
ᱵᱚᱭᱫᱽᱭᱚ
ᱵᱚᱭᱮᱡᱽ
ᱵᱚᱭᱮᱥ
ᱵᱚᱰ
ᱵᱚᱰᱚ
ᱵᱚᱰᱚᱞ
ᱵᱚᱰᱚᱞᱮᱱᱰ
ᱵᱚᱰᱚᱞᱮᱸᱰ
ᱵᱚᱰᱚᱥᱟᱦᱤ
ᱵᱚᱰᱟ
ᱵᱚᱰᱟᱢ
ᱵᱚᱰᱟᱢᱛᱚᱲᱤᱭᱟ
ᱵᱚᱰᱟᱢᱛᱟᱹᱲᱤᱭᱟᱹ
ᱵᱚᱰᱟᱨ
ᱵᱚᱰᱡᱷᱚᱨᱚᱱ
ᱵᱚᱰᱤ
ᱵᱚᱰᱤᱝ
ᱵᱚᱰᱦᱟᱛᱱᱟᱵᱮᱰᱟ
ᱵᱚᱰᱮ
ᱵᱚᱰᱱᱚᱜᱚᱨ
ᱵᱚᱰᱱᱮᱨᱟ
ᱵᱚᱰᱳᱫᱚᱨᱟ
ᱵᱚᱱ
ᱵᱚᱱᱚᱛ
ᱵᱚᱱᱚᱥᱯᱚᱛᱤ
ᱵᱚᱱᱚᱥᱯᱚᱛᱤᱭᱚ
ᱵᱚᱱᱚᱫᱚᱞ
ᱵᱚᱱᱜᱟᱸ
ᱵᱚᱱᱟ
ᱵᱚᱱᱟᱥᱠᱟᱱᱴᱷᱟ
ᱵᱚᱱᱟᱨᱚᱥ
ᱵᱚᱱᱟᱨᱡᱤ
ᱵᱚᱱᱠᱟᱴᱤ
ᱵᱚᱱᱤ
ᱵᱚᱱᱫᱚ
ᱵᱚᱱᱫᱚᱨ
ᱵᱚᱱᱫᱚᱱᱟ
ᱵᱚᱱᱫᱤ
ᱵᱚᱱᱫᱷᱚ
ᱵᱚᱱᱫᱷᱩ
ᱵᱚᱱᱫᱽ
ᱵᱚᱱᱱᱟ
ᱵᱚᱲ
ᱵᱚᱲᱚ
ᱵᱚᱲᱚᱨᱟᱢ
ᱵᱚᱲᱚᱵᱷᱚᱫᱽᱨᱚ
ᱵᱚᱲᱟᱭᱜᱽᱮᱨᱟᱢ
ᱵᱚᱲᱠᱤ
ᱵᱚᱲᱦᱮ
ᱵᱚᱴ
ᱵᱚᱴᱟᱫᱽ
ᱵᱚᱴᱟᱱᱤ
ᱵᱚᱴᱤᱭᱟᱜᱷᱟᱴᱟ
ᱵᱚᱴᱥᱣᱟᱱᱟ
ᱵᱚᱴᱱᱮᱰ
ᱵᱚᱴᱱᱮᱴ
ᱵᱚᱴᱷᱞᱟ
ᱵᱚᱴᱷᱤᱱᱰᱟ
ᱵᱚᱵᱚᱥᱛᱟ
ᱵᱚᱵᱤ
ᱵᱚᱵᱤᱛᱟ
ᱵᱚᱵᱽᱞᱤ
ᱵᱚᱸᱜᱟ
ᱵᱚᱸᱜᱟᱛᱟᱞᱟ
ᱵᱚᱸᱜᱟᱦᱟᱜ
ᱵᱚᱸᱜᱟᱨᱮ
ᱵᱚᱸᱜᱟᱭ
ᱵᱚᱸᱜᱟᱭᱜᱟᱶ
ᱵᱚᱸᱜᱟᱭᱟ
ᱵᱚᱸᱥ
ᱵᱚᱸᱥᱚ
ᱵᱚᱸᱫ
ᱵᱚᱸᱫᱚ
ᱵᱚᱸᱫᱷ
ᱵᱚᱸᱫᱽ
ᱵᱚᱸᱰᱟ
ᱵᱞᱚᱠ
ᱵᱞᱟᱠ
ᱵᱞᱩ
ᱵᱞᱮᱠ
ᱵᱞᱮᱭᱚᱨ
ᱵᱞᱮᱰᱟᱨ
ᱵᱟ
ᱵᱟᱛ
ᱵᱟᱛᱟᱣ
ᱵᱟᱛᱟᱣᱟ
ᱵᱟᱛᱟᱣᱮᱫ
ᱵᱟᱛᱤᱞ
ᱵᱟᱛᱨᱟ
ᱵᱟᱛᱷᱩᱣᱟ
ᱵᱟᱜ
ᱵᱟᱜᱟᱛᱤᱯᱟᱲᱟ
ᱵᱟᱜᱟᱞᱠᱚᱴ
ᱵᱟᱜᱟᱣᱟ
ᱵᱟᱜᱟᱱ
ᱵᱟᱜᱢᱚᱛᱤ
ᱵᱟᱜᱣᱟᱱ
ᱵᱟᱜᱤ
ᱵᱟᱜᱩᱱ
ᱵᱟᱜᱮ
ᱵᱟᱜᱮᱞᱠᱷᱚᱸᱰ
ᱵᱟᱜᱮᱥᱚᱨ
ᱵᱟᱜᱮᱨᱦᱟᱴ
ᱵᱟᱜᱳ
ᱵᱟᱜᱷ
ᱵᱟᱜᱷᱟ
ᱵᱟᱜᱷᱟᱨᱯᱟᱲᱟ
ᱵᱟᱜᱷᱢᱩᱱᱰᱤ
ᱵᱟᱜᱷᱤ
ᱵᱟᱜᱷᱮᱞᱠᱷᱚᱸᱰ
ᱵᱟᱜᱷᱮᱞᱤ
ᱵᱟᱜᱽ
ᱵᱟᱜᱽᱟᱛᱤᱯᱟᱲᱟ
ᱵᱟᱜᱽᱢᱚᱛᱤ
ᱵᱟᱜᱽᱢᱟᱨᱟ
ᱵᱟᱜᱽᱣᱟᱱ
ᱵᱟᱜᱽᱫᱟᱫᱽ
ᱵᱟᱜᱽᱯᱟᱛ
ᱵᱟᱜᱽᱰᱚᱜᱽᱨᱟ
ᱵᱟᱜᱽᱲᱤ
ᱵᱟᱝ
ᱵᱟᱝᱛᱮ
ᱵᱟᱝᱜᱞᱟ
ᱵᱟᱝᱜᱞᱟᱫᱮᱥ
ᱵᱟᱝᱜᱟ
ᱵᱟᱝᱜᱟᱞ
ᱵᱟᱝᱜᱟᱞᱚᱨ
ᱵᱟᱝᱜᱟᱞᱤ
ᱵᱟᱝᱜᱟᱞᱳᱨ
ᱵᱟᱝᱜᱤᱨᱤᱯᱳᱥᱤ
ᱵᱟᱝᱜᱽᱞᱟ
ᱵᱟᱝᱜᱽᱞᱟᱫᱮᱥ
ᱵᱟᱝᱜᱽᱨᱤᱯᱚᱥᱤ
ᱵᱟᱝᱞᱟ
ᱵᱟᱝᱞᱟᱫᱤᱥᱚᱢ
ᱵᱟᱝᱞᱟᱫᱤᱥᱟ
ᱵᱟᱝᱞᱟᱫᱤᱥᱟᱹᱢ
ᱵᱟᱝᱞᱟᱫᱮᱥ
ᱵᱟᱝᱞᱟᱫᱮᱥᱤ
ᱵᱟᱝᱞᱟᱫᱮᱹᱥ
ᱵᱟᱝᱞᱟᱼᱟᱥᱟᱢᱤᱥ
ᱵᱟᱝᱞᱳᱨ
ᱵᱟᱝᱟ
ᱵᱟᱝᱟᱞᱤ
ᱵᱟᱝᱠᱚ
ᱵᱟᱝᱠᱟ
ᱵᱟᱝᱠᱷᱟᱡ
ᱵᱟᱝᱠᱷᱟᱱ
ᱵᱟᱝᱢᱟ
ᱵᱟᱝᱪᱟᱣ
ᱵᱟᱝᱫᱚ
ᱵᱟᱝᱼᱟ
ᱵᱟᱞ
ᱵᱟᱞᱚᱠ
ᱵᱟᱞᱚᱣᱫᱟ
ᱵᱟᱞᱚᱪ
ᱵᱟᱞᱚᱪᱤ
ᱵᱟᱞᱚᱪᱤᱥᱛᱟᱱ
ᱵᱟᱞᱚᱫᱽ
ᱵᱟᱞᱚᱱ
ᱵᱟᱞᱛᱤᱥᱛᱟᱱ
ᱵᱟᱞᱞᱤᱭᱟ
ᱵᱟᱞᱞᱮᱴ
ᱵᱟᱞᱟ
ᱵᱟᱞᱟᱜᱷᱟᱴ
ᱵᱟᱞᱟᱡᱤ
ᱵᱟᱞᱟᱥᱚᱨᱚᱥᱣᱚᱛᱤ
ᱵᱟᱞᱟᱱ
ᱵᱟᱞᱠᱩᱸᱫᱽᱨᱟ
ᱵᱟᱞᱢᱤᱠᱤ
ᱵᱟᱞᱣᱚᱱᱛ
ᱵᱟᱞᱤ
ᱵᱟᱞᱤᱜᱮᱨᱤᱭᱟ
ᱵᱟᱞᱤᱠᱟ
ᱵᱟᱞᱤᱣᱩᱰ
ᱵᱟᱞᱤᱭᱟ
ᱵᱟᱞᱤᱭᱟᱵᱟᱝᱜᱤ
ᱵᱟᱞᱤᱵᱷᱤᱭᱟ
ᱵᱟᱞᱩᱨᱜᱷᱟᱴ
ᱵᱟᱞᱮ
ᱵᱟᱞᱮᱥᱚᱨ
ᱵᱟᱞᱮᱥᱣᱚᱨ
ᱵᱟᱞᱳᱪ
ᱵᱟᱞᱴᱤᱠ
ᱵᱟᱠ
ᱵᱟᱠᱚ
ᱵᱟᱠᱞᱟᱜ
ᱵᱟᱠᱣᱟᱨᱰ
ᱵᱟᱠᱤ
ᱵᱟᱠᱥᱟ
ᱵᱟᱠᱩ
ᱵᱟᱠᱩᱲᱟ
ᱵᱟᱠᱷᱚᱞ
ᱵᱟᱠᱷᱟᱱ
ᱵᱟᱠᱷᱨᱟ
ᱵᱟᱠᱷᱮᱬ
ᱵᱟᱡᱟ
ᱵᱟᱡᱟᱣ
ᱵᱟᱡᱟᱣᱤᱡ
ᱵᱟᱡᱟᱨ
ᱵᱟᱡᱟᱱ
ᱵᱟᱡᱤ
ᱵᱟᱡᱤᱜᱚᱨ
ᱵᱟᱡᱤᱨᱟᱣ
ᱵᱟᱡᱮ
ᱵᱟᱡᱮᱴ
ᱵᱟᱡᱽ
ᱵᱟᱡᱽᱨᱟ
ᱵᱟᱡᱽᱯᱮᱭᱤ
ᱵᱟᱡᱽᱱᱟ
ᱵᱟᱢ
ᱵᱟᱢᱚᱱ
ᱵᱟᱢᱵᱟᱨᱟ
ᱵᱟᱣᱞ
ᱵᱟᱣᱟᱥᱤᱨ
ᱵᱟᱣᱩᱞ
ᱵᱟᱥ
ᱵᱟᱥᱚᱜ
ᱵᱟᱥᱚᱱᱛᱤ
ᱵᱟᱥᱛᱟᱨ
ᱵᱟᱥᱛᱤ
ᱵᱟᱥᱟ
ᱵᱟᱥᱟᱜ
ᱵᱟᱥᱟᱝ
ᱵᱟᱥᱟᱣ
ᱵᱟᱥᱠ
ᱵᱟᱥᱠᱤᱨ
ᱵᱟᱥᱠᱮ
ᱵᱟᱥᱠᱮᱭᱟᱜ
ᱵᱟᱥᱠᱮᱴᱵᱚᱞ
ᱵᱟᱥᱤ
ᱵᱟᱥᱤᱭᱟ
ᱵᱟᱥᱩ
ᱵᱟᱥᱩᱜᱟᱶ
ᱵᱟᱥᱩᱠᱤᱱᱟᱛᱷ
ᱵᱟᱥᱩᱫᱮᱵᱽ
ᱵᱟᱥᱩᱰᱤᱦ
ᱵᱟᱥᱳ
ᱵᱟᱦᱚᱨᱟᱭᱤᱱ
ᱵᱟᱦᱟ
ᱵᱟᱦᱟᱜ
ᱵᱟᱦᱟᱜᱼᱟ
ᱵᱟᱦᱟᱞ
ᱵᱟᱦᱟᱞᱤ
ᱵᱟᱦᱟᱢᱟᱥ
ᱵᱟᱦᱟᱣᱟᱞᱯᱩᱨ
ᱵᱟᱦᱟᱨ
ᱵᱟᱦᱟᱫᱩᱨ
ᱵᱟᱦᱟᱭ
ᱵᱟᱦᱟᱭᱟ
ᱵᱟᱦᱟᱱ
ᱵᱟᱦᱟᱱᱚᱜᱟ
ᱵᱟᱦᱟᱱᱟ
ᱵᱟᱦᱤ
ᱵᱟᱦᱤᱨᱤ
ᱵᱟᱦᱤᱱᱤ
ᱵᱟᱦᱨᱟᱜᱚᱰᱟ
ᱵᱟᱦᱨᱟᱭᱤᱱ
ᱵᱟᱦᱨᱤᱱ
ᱵᱟᱦᱨᱮ
ᱵᱟᱦᱩ
ᱵᱟᱦᱩᱵᱚᱲᱤ
ᱵᱟᱦᱮᱨ
ᱵᱟᱦᱱᱟ
ᱵᱟᱦᱱᱟᱨ
ᱵᱟᱧᱪᱟᱜ
ᱵᱟᱧᱪᱟᱣ
ᱵᱟᱧᱪᱟᱣᱚᱜ
ᱵᱟᱧᱪᱟᱣᱜ
ᱵᱟᱨ
ᱵᱟᱨᱚ
ᱵᱟᱨᱚᱬᱟᱥᱤ
ᱵᱟᱨᱚᱱ
ᱵᱟᱨᱚᱵᱟᱴᱤ
ᱵᱟᱨᱛᱟ
ᱵᱟᱨᱛᱮ
ᱵᱟᱨᱜᱮᱞ
ᱵᱟᱨᱞᱟ
ᱵᱟᱨᱞᱤ
ᱵᱟᱨᱞᱤᱱ
ᱵᱟᱨᱟ
ᱵᱟᱨᱟᱝ
ᱵᱟᱨᱟᱞ
ᱵᱟᱨᱟᱠ
ᱵᱟᱨᱟᱠᱟᱨ
ᱵᱟᱨᱟᱢᱩᱞᱟ
ᱵᱟᱨᱟᱥᱟᱛ
ᱵᱟᱨᱟᱨ
ᱵᱟᱨᱟᱬᱚᱥᱤ
ᱵᱟᱨᱟᱬᱟᱥᱤ
ᱵᱟᱨᱟᱭᱟ
ᱵᱟᱨᱟᱯᱷ
ᱵᱟᱨᱟᱱᱟᱥᱤ
ᱵᱟᱨᱟᱵᱚᱸᱠᱤ
ᱵᱟᱨᱟᱵᱟ
ᱵᱟᱨᱟᱵᱟᱨᱤ
ᱵᱟᱨᱟᱵᱟᱹᱨᱤ
[...]
