!
"
#
##0
##1
##10
##11
##12
##13
##14
##15
##16
##17
##18
##19
##2
##20
##21
##22
##23
##24
##25
##26
##27
##28
##29
##3
##30
##31
##32
##33
##34
##35
##36
##37
##38
##39
##4
##40
##41
##42
##43
##44
##45
##46
##47
##48
##49
##5
##50
##51
##52
##53
##54
##55
##56
##57
##58
##59
##6
##60
##61
##62
##63
##64
##65
##66
##67
##68
##69
##7
##70
##71
##72
##73
##74
##75
##76
##77
##78
##79
##8
##80
##81
##82
##83
##84
##85
##86
##87
##88
##89
##9
##90
##91
##92
##93
##94
##95
##96
##97
##98
##99
$
%
&
'
(
)
*
+
,
-
.
/
0
00
000
0000
001
002
003
01
012
015
016
02
03
030
0300
0301
0304
0306
0308
04
040
041
0410
0415
0416
0418
042
0423
0427
043
0430
0435
0436
0438
044
0443
045
046
047
048
049
05
050
051
06
07
08
09
1
10
100
1000
1005
101
1010
102
1020
1024
103
1030
104
1040
1048
105
1050
105690470
106
1060
1062
107
1070
108
1080
109
1090
11
110
1100
111
1110
112
1120
113
1130
114
1140
115
1150
116
1160
117
1170
118
1180
119
1190
12
120
1200
121
1210
122
1220
123
1230
1234
1236
124
1240
125
1250
126
1260
127
1270
128
1280
1283
129
1290
13
130
1300
1309
131
1310
132
1320
133
1330
134
1340
1343
135
1350
1359
136
1360
137
1370
138
1380
139
1390
14
140
1400
141
1410
142
1420
143
1430
1433
144
1440
1448
145
1450
146
1460
147
1470
1476
1477
1479
148
1480
149
1490
1492
1494
1499
15
150
1500
1502
1504
1505
1506
1507
1508
151
1510
1511
1512
1513
1514
1516
1518
152
1520
1524
153
1530
1536
154
1540
1547
155
1550
1552
1556
1557
156
1560
157
1570
158
1580
1582
1583
1584
159
1590
1599
16
160
1600
1606
1607
161
1610
1613
162
1620
163
1630
1632
1633
1638
164
1640
165
1650
1655
166
1660
1661
1665
167
1670
1671
1672
1678
168
1680
1686
169
1690
1698
1699
17
170
1700
1703
1705
1708
1709
171
1710
1711
1712
1713
1714
1716
1719
172
1720
1722
1723
1724
1725
1728
173
1730
1736
1737
174
1740
1744
1745
1749
175
1750
1756
1758
176
1760
1763
1766
177
1770
1771
1773
1774
1775
1779
178
1780
1781
1782
1783
1784
1785
179
1790
1791
1792
1794
1795
1798
1799
18
180
1800
1801
1802
1803
1805
1807
1808
1809
181
1810
1811
1812
1813
1814
1815
1816
1817
1818
1819
182
1820
1821
1822
1823
1824
1825
1826
1827
1828
1829
183
1830
1831
1832
1833
1834
1835
1836
1837
1838
1839
184
1840
1841
1842
1843
1844
1845
1846
1847
1848
1849
185
1850
1851
1852
1853
1854
1855
1856
1857
1858
1859
186
1860
1861
1862
1863
1864
1865
1866
1867
1868
1869
187
1870
1871
1872
1873
1874
1875
1876
1877
1878
1879
188
1880
1881
1882
1883
1884
1885
1886
1887
1888
1889
189
1890
1891
1892
1893
1894
1895
1896
1897
1898
1899
19
190
1900
1901
1902
1903
1904
1905
1906
1907
1908
1909
191
1910
1911
1912
1913
1914
1915
1916
1917
1918
1919
192
1920
1921
1922
1923
1924
1925
1926
1927
1928
1929
193
1930
1931
1932
1933
1934
1935
1936
1937
1938
1939
194
1940
1941
1942
1943
1944
1945
1946
1947
1948
1949
195
1950
1951
1952
1953
1954
1955
1956
1957
1958
1959
196
1960
1961
1962
1963
1964
1965
1966
1967
1968
1969
197
1970
1971
1972
1973
1974
1975
1976
1977
1978
1979
198
1980
1981
1982
1983
1984
1985
1986
1987
1988
1989
199
1990
1991
1992
1993
1994
1995
1996
1997
1998
1999
2
20
200
2000
2001
2002
20021
2003
2004
2005
2006
2007
2008
2009
201
2010
2011
2012
2013
2014
2015
2016
2017
2018
2019
202
2020
2021
2022
2023
2024
203
2030
204
2048
205
206
207
208
209
21
210
2100
2101
2109
211
2112
212
2121
213
214
215
216
217
218
219
22
220
221
222
223
224
225
226
227
228
229
23
230
231
232
233
234
235
236
237
238
239
24
240
241
242
243
244
244413
245
246
247
248
2481
249
25
250
2500
251
252
253
254
255
256
257
258
259
26
260
261
262
263
264
265
266
267
268
269
27
270
271
272
273
274
275
276
277
278
279
28
280
281
282
283
284
285
286
287
288
289
29
290
291
2911
292
293
294
295
296
297
298
299
3
30
300
3000
301
302
303
304
305
306
307
308
309
31
310
311
312
313
314
315
316
3166
317
318
319
32
320
321
322
323
324
325
326
327
328
329
33
330
3307
3309
331
332
333
334
335
336
337
338
339
34
340
341
342
343
344
345
346
347
348
349
35
350
351
352
353
354
355
356
357
358
359
36
360
361
362
363
364
365
366
367
368
369
37
370
371
372
373
374
375
376
377
378
379
38
380
381
382
383
3831
384
3849
385
386
387
388
389
39
390
391
392
393
394
395
396
397
398
399
4
40
400
4000
401
402
403
404
405
406
407
408
409
41
410
411
412
413
414
415
416
417
418
419
42
420
421
422
423
424
425
426
427
428
429
43
430
431
432
4320
433
434
435
436
437
438
439
44
440
441
442
444
445
446
447
448
449
45
450
451
452
453
454
455
456
458
459
46
460
461
462
464
466
467
468
469
47
470
471
472
473
474
475
476
477
478
479
48
480
481
482
483
484
485
486
487
488
489
49
490
491
492
493
494
495
496
497
498
499
5
50
500
5000
501
502
503
504
505
506
507
508
509
51
510
511
512
513
514
516
517
518
519
52
520
521
522
523
524
526
527
528
529
53
530
531
532
533
534
535
536
537
539
54
540
541
542
543
544
547
548
549
55
550
551
552
553
554
555
556
558
559
56
560
562
563
565
566
567
568
569
57
570
571
573
574
576
577
578
579
58
580
582
583
584
585
586
587
588
589
59
590
591
592
593
596
598
599
6
60
600
6000
601
602
603
604
605
606
607
608
609
61
610
611
612
614
615
616
617
618
619
62
620
621
622
623
624
625
626
63
630
632
633
636
639
64
640
644
648
649
65
650
651
652
656
657
658
659
66
660
661
663
664
666
668
669
67
670
671
672
676
677
678
68
680
682
685
686
69
690
693
695
696
697
698
699
7
70
700
7000
702
703
704
709
71
710
711
714
715
717
719
72
720
721
726
728
73
730
731
734
736
737
738
739
74
740
741
743
744
745
747
75
750
752
753
756
76
760
762
766
767
768
77
770
773
774
78
780
784
788
789
79
790
793
794
797
798
8
80
800
8000
801
802
805
81
810
815
817
82
820
83
830
833
836
837
839
84
840
842
843
846
848
85
850
854
856
86
860
8601
863
868
869
87
870
872
878
87898
88
880
889
89
890
897
899
9
90
900
905
906
907
91
910
911
92
920
9223372036854775808
929
93
930
937
94
940
947
94950
95
950
953
958
96
960
963
966
97
970
972
973
974
976
978
98
980
99
990
997
998
999
:
;
<
=
>
?
@
\
^
_
`
a
aa
aakhmedova
ab
abc
abkhasian
abkhaz
able
ablo
ablon
ablona
ablonas
ablono
about
above
abstract
abstracts
abtei
ac
acacallis
academic
acampe
acanthephippium
accent
accept
accepted
accepting
access
accessed
accessible
according
account
accounts
acianthera
acianthus
acineta
acinonyx
ackermania
acostaea
acriopsis
acroasium
acrolophia
across
acta
action
actions
active
activities
activity
actm
actualdateboundariesproperties
actually
ad
ada
adansonia
add
addclass
added
adding
addition
additional
address
addresses
adenoncos
admin
administrator
administrators
admins
adminship
advance
advanced
advances
adved
ady
ae
aerangis
aeranthes
aerial
aerides
af
afar
affect
affected
affecting
affects
afghanistan
africa
african
africana
africanus
after
afterwards
again
against
aganisia
age
aglossorrhyncha
ago
agonoize
agric
agrostophyllum
ahead
ai
aii
aij
aik
ain
air
airport
ais
aj
ajj
ajk
ak
ako
al
alaska
alba
album
alcelaphus
alces
alemania
aleut
alexander
algeria
aliases
align
all
allmovie
allmusic
allocine
allow
allowed
allows
almost
alnashi
alp
alpha
alpinus
already
als
also
alt
altaica
altar
altensteinia
alter
although
alticola
alto
always
am
ambassador
amber
amdf
amer
america
american
americana
ames
amitostigma
among
amount
an
anacamptis
analysis
anathallis
anatolica
anchor
ancient
ancipitia
ancistrorhynchus
and
andoza
andrianova
androcorys
android
anfiteatro
ang
angle
angraecopsis
angraecum
anguloa
angustifolia
anima
animated
animation
anime
ann
anna
anniversary
announce
announced
announcement
announcements
announcing
annual
anoectochilus
another
ansicht
answer
anthropophora
any
anyone
anything
apologies
apologize
apostasia
app
appear
appearance
appears
appendicula
appendimpl
appendproperty
appendsnaks
application
applications
applied
apply
appreciate
appreciated
approach
approaches
appropriate
approved
april
ar
arabic
arachnis
arbitrary
arch
architecture
archive
archives
arctic
arcticus
arctos
are
area
areas
aren
arenas
arg
args
argsi
argtables
argument
arguments
armenia
armenian
army
around
arq
array
art
arthur
article
articles
artist
artists
arto
arts
arxiv
arz
as
asbox
ascii
ascocentrum
ascoglossum
asia
asian
ask
asking
aspasia
aspects
aspidogyne
assertnotnull
assisted
associate
association
ast
asv
at
ateles
attend
attended
attention
attr
attributes
au
audio
auf
august
aulosepalum
aurantiaca
aus
australia
australis
author
authority
authors
auto
autocollapse
automatic
automatically
autonomous
av
available
aver
average
avoid
aware
away
axis
ay
az
azerbaijani
azerbaiya
azimbaj
b
ba
babel
baby
back
background
backtranslate
bad
badtwins
bal
bali
ban
band
bank
banner
banquet
bans
baps
bar
barb
barbara
barbosella
barkeria
barlia
barred
barros
base
based
baseresult
basestyle
bashkir
basic
basis
baskervilla
bat
batemannia
bauhaus
baumann
bay
bb
bbc
bc
bd
bdeogale
be
beach
bear
beatles
because
become
bee
been
before
beggars
begin
beginning
begun
behalf
behavior
behaviour
behind
bei
beih
being
beitra
belarusian
belfort
belief
bell
beloglottis
below
belyaeva
belyeva
ben
benn
benth
benthamia
ber
bergtocht
beringei
berli
berlin
best
beta
better
between
bf
bg
bi
bianch
bibliographic
bibliotheca
bicolor
bifrenaria
big
bijdr
bilgi
billed
billion
bin
biography
biol
biological
bipinnula
birthday
bison
bit
black
blank
blender
bletia
bletilla
block
blocked
blocker
blog
blue
blume
bm
bms
bn
bnf
bo
board
body
bodystyle
bolivia
boliviensis
bolus
bonplandia
book
bookmark
bookofabstracts
books
bookseries
boolean
border
borneo
bos
bosnia
bosser
bot
botflag
both
bots
botsuana
bottom
botton
bound
boundaries
bovidae
box
boy
bprecision
br
brachionidium
brachypeza
brachystele
brade
branch
brand
bras
brasil
brassavola
brassia
brazil
brazilian
break
breve
bridge
bring
brit
britannica
british
bromheadia
broughtonia
brown
browser
browsers
brp
bru
bs
bst
bstructure
btable
bu
bua
budapest
bug
bugs
build
building
buitenzorg
bulgaria
bull
bulletin
burg
buselaphus
business
but
button
buttons
bvalue
bw
bxr
by
c
ca
cache
cached
cairn
caladenia
calanthe
calatayud
calcarata
calculatedage
calendar
california
californicus
call
called
calls
calopogon
cambridge
camelidae
camelopardalis
camelus
camera
campaign
campylocentrum
camus
can
canada
canadensis
canadian
candidate
candidates
canidae
canis
cannot
canterbury
cap
cape
capensis
capital
capitalid
caption
card
cards
carnevali
carr
carsrac
casa
case
cases
castle
castor
cat
catasetum
cate
catedral
categori
categoria
categorie
categories
category
categoryauthoritycontrol
categoryexternallink
categorynameprefix
cathedral
catmore
cattleya
caucaea
caucasus
caudata
caularthron
cause
cc
cd
ce
ceb
cebus
cens
center
central
centralbl
centralnotice
centre
century
cephalanthera
cephalophus
ceratostylis
ceremissica
certain
certainly
cervus
cest
cf
cgi
ch
cha
chameleon
chan
chance
change
changed
changes
changing
channel
chapter
character
characters
charleston
charms
chase
che
check
checking
checktype
checkuser
cheremis
chicago
child
chile
chiloschista
china
chinese
chobe
choice
choose
christchurch
christenson
christian
chukchi
church
chuvash
chysis
ci
cia
cifu
cinereoargenteus
cio
circle
circumstances
cirrhaea
citakan
citation
citations
cite
cithakan
cities
citoid
city
cke
ckoerner
cl
claim
claims
class
classical
classification
clear
clem
click
clicking
clock
cloneoptions
close
clouds
club
cmp
cn
co
cobar
cochlioda
cochrane
code
codes
coelogyne
cogn
coifu
col
collaboration
collapsed
collected
collection
collections
collectlinks
college
collegium
colnheader
colnheadercolspan
colon
color
colorarg
colored
colors
colspan
columbia
column
columns
colwidth
com
comber
come
comics
coming
comma
command
commando
commands
commas
commemo
comment
comments
committee
common
commons
commonscat
commonsmedia
communication
communities
community
comoros
compact
company
compare
comparison
comparisons
competition
compilation
complaints
complete
completed
completely
completion
complex
complexdate
components
composite
compositores
computer
computers
con
concat
concerns
concert
concolor
conduct
conference
config
configuration
conflicts
congo
congress
congressus
conjunction
conjunctor
cons
consensus
consider
consideration
considered
consistent
consisting
constructive
consultation
consultations
contact
contain
contains
contemporary
content
contentlanguagecode
contents
contest
context
continue
contribute
contributions
contributor
contributors
control
controlled
conversation
conversations
convert
cook
coordinate
coordinator
coordscale
copy
copyto
cordem
core
coreca
coronavirus
correct
coryanthes
corycium
could
council
count
countbythousands
countries
country
countryentity
countryentityid
countryflags
countryoptions
course
covid
cr
crazy
create
created
creating
creation
creative
crh
cribb
crimea
cristata
croacia
crop
cropped
cross
crossarchus
crosses
crossing
cruz
cryptocentrum
cryptostylis
cs
csb
cseremisz
css
cu
cucullata
cuisine
cultural
culture
cuon
cup
curitiba
curr
currency
current
currententity
currently
cursor
custom
customize
customizing
cv
cy
cyanea
cyclopogon
cygnus
cynocephalus
cynorkis
cypripedium
cyprus
cyrillic
cyrtopodium
czech
d
da
dabbed
dahlia
daily
dama
damaliscus
dan
dance
dances
dane
dar
dark
darkside
das
data
database
databases
dataresourceid
dataset
datatype
datavalue
date
dateclaims
dateofbirth
dateofdeath
datepart
dates
david
day
days
db
dc
dd
de
dead
deadline
dear
death
debrecen
dec
december
decide
decimus
decision
decomposable
dedicated
deepcopy
deezer
default
defaults
deg
degruyter
del
delete
deleted
deletion
delivered
delivery
dell
della
delta
dem
demo
demonstration
den
dendrobium
dendrochilum
denis
denmark
department
depending
deployed
deployment
deployments
deprecated
der
des
descender
described
describing
description
descriptions
design
desired
desktop
detail
detailed
details
detect
deutschland
develop
developed
developers
development
devices
devlok
di
dia
diaeresis
dialect
dialog
dichaea
dictionaries
dictionary
did
didn
die
dietrich
diff
different
difficult
diffs
digital
digraphs
dinamik
diplocaulobium
diq
dir
direction
directly
disable
disambiguation
disaster
discogs
discolor
discr
discuss
discussed
discussion
discussions
display
displayed
disruption
dissemination
dissercat
dissertationes
dissertationum
distemper
distributed
distribution
div
diverse
diversity
dje
dk
dnikitin
dns
do
doc
document
documentation
documents
dod
dodson
does
doesn
doi
doing
dom
domain
domains
don
donation
done
dorcas
doritis
dot
double
down
dr
draft
drafting
drawing
drbug
dream
dressler
drone
drop
dropdown
dropped
druk
dsb
dsc
dstructure
dtable
du
dubai
due
duet
duisburg
dunst
duodecimus
during
dv
dvd
dynamics
dz
dze
e
each
eagle
earlier
early
earth
easier
easily
east
eastern
easy
ebook
ebsco
ec
eclipse
economia
economie
ecuador
ed
edit
editcount
edited
edithistory
editing
edition
editions
editor
editors
edits
eds
edt
education
educational
edłoga
edłoha
ee
een
eesti
ef
effect
effects
efficient
ein
eine
einer
eira
either
el
elaphus
elected
election
elections
elegans
element
elementid
elements
elena
elian
eligible
elitre
elmegy
elmeri
elo
else
elseif
em
email
emakeele
emijrp
empire
empty
en
enable
enabled
enclosed
encourage
encyclia
encyclopedia
end
ende
ending
endl
ends
engagement
engineer
engineering
england
engler
english
enhance
ensign
entities
entity
entityid
entriestolookupcategory
environment
environments
enwikisource
eo
ep
epidendrum
epipogium
er
era
erih
erl
erminea
ermita
error
errors
erzianj
es
esa
espan
especially
essential
established
estado
estados
estonia
et
etc
ethnic
eu
europa
europe
european
euroscaptor
eva
even
evenodd
event
events
eventually
ever
every
everyone
everything
evidenced
ex
exactly
example
exampleargs
examples
excel
except
exceptions
excited
exilis
existent
existing
exists
expand
expanded
expanding
expandtemplate
expect
expected
experience
experienced
experiment
experiments
explanation
explorer
expressive
ext
extended
extension
extensions
exterior
external
eye
eyes
f
fa
face
facebook
fact
factarum
fairy
falcata
falcon
falls
false
family
famous
fan
faq
far
fargs
faster
favor
favorite
fdc
fe
feat
feature
featured
features
feb
february
fed
federation
feedback
feel
felidae
felis
fellow
female
feminism
femlabels
fenno
festival
festivals
fetch
fete
few
ff
fff
fg
fi
fiat
fiber
ficha
field
file
fileexporter
files
fill
filled
film
filter
filterbyrank
filtered
fimbriata
fin
final
find
finet
finish
finished
finnisch
finnish
finno
finnugor
fire
firefox
first
firstchar
fish
fitzg
fiu
five
fix
fixed
fj
fl
flac
flag
flagbegindate
flagimagestatement
flags
flava
flavescens
flight
float
flokkur
floor
flow
flu
fm
fo
focus
focused
foldats
folk
folklore
follow
following
follows
food
fooentity
footnotes
for
force
foreign
forest
form
format
formation
formatmessage
formatnum
formatproperty
formatpropertywithmostrecentclaimandindicator
formatrefs
formatsnak
formatstatementdefault
formatted
formattedcaption
formattedstatement
formatter
formatting
former
formula
forrester
fort
forward
found
foundation
four
fox
fr
fragrans
frame
frameless
frameonly
frames
framework
franc
france
francia
francis
frankfurt
frapp
free
freezes
french
frequently
frhdkazan
frica
friday
fritillary
from
front
ftp
fu
fukuy
full
fullname
fully
fun
func
function
functionality
functionally
functions
fund
fundamental
funding
fundraising
funds
further
fuscicollis
future
fy
g
ga
gadgets
gagnep
gale
galleries
gallery
game
games
gan
garay
gard
garden
gate
gazella
gd
ge
gekreuzigt
gelaltar
gen
gender
general
genre
geograficzny
george
georgia
german
germany
get
getargs
getbeststatements
getcategorybycode
getconfig
getcontentlanguage
getentity
getlabel
getlabelwithlang
getlabelwithlink
getlabelwithoutlink
getparameters
getparent
gets
getsingle
getsinglestringqualifiervalue
getsourcingcircumstances
getting
ghe
gi
giai
gif
gigas
giraffa
girl
give
given
gives
giving
gj
gje
gl
glaciar
global
globe
glukhova
gn
gnd
gnu
go
goal
gobio
god
goddess
goes
going
golden
gone
good
goodflag
google
gorie
gorilla
got
gotik
gott
gov
government
gr
gracile
gracilis
gramota
gran
granatensis
grand
grandiflora
grandis
grant
granted
grants
graphs
grateful
grave
gray
great
greece
greek
green
greetings
grey
gridcolor
groningen
group
groups
groupstyle
groupwidth
gsub
gu
guarantee
guide
guinea
gulo
guseva
gv
h
ha
haapsalu
hackathon
had
half
hall
hamburg
hand
handle
handling
hangout
hannover
hans
hanuman
happen
happened
happening
happens
happy
harassment
hard
has
hash
hashim
hat
haus
hausdu
have
having
hayata
hd
hdr
he
head
header
health
hear
heart
heavy
height
heiligengrabe
held
hello
help
helped
helper
helping
helps
helsinki
herb
here
hermans
herpestes
herpestidae
herzegovina
het
heutigen
hi
hidden
hiddencat
high
highlight
highlighting
highly
hill
him
hindi
hindu
hinduism
hirtz
hirtzii
his
hist
histo
historia
historic
historical
history
hlist
ho
hoehne
hoehnea
hold
hole
holttum
home
hong
hook
hooks
hope
hopper
hosei
host
hosted
hoststartposition
hotel
hour
hours
house
how
however
hr
hsb
ht
htm
html
http
https
hu
hubblecast
huge
human
humanities
humanoid
hungarian
hy
i
ia
ibdb
ice
iceland
ich
icon
icons
icq
id
idea
idealab
ideas
identical
identita
identity
ideological
ie
if
ifusco
ifuu
iglesia
ii
iii
ij
ik
il
illh
ilo
im
image
imageleftstyle
imagemap
imageright
images
imagestyle
img
immortelle
impact
important
imported
impression
improve
improved
improvement
improvements
improving
in
include
includes
including
inclusive
increased
increment
incubator
independent
indes
index
india
indian
individual
individuals
indonesia
info
infoboks
infobox
infoboxes
infocardclass
infocards
infocardtemplate
infocaseta
infokas
infopolje
inform
information
informed
informkesto
infotaula
infrastructure
initial
initiative
initpos
innenansicht
innenraum
input
insert
inserted
inserter
inserting
inside
inspector
inst
instead
institute
instructions
insularis
intcess
integer
intemationalis
intended
inter
interdisciplinary
interested
interface
interior
interlanguage
internal
international
internationalis
internet
interpretation
interwiki
interwikis
into
introduction
inuse
invalid
invented
inversed
inversion
invisible
invitation
invite
invited
inviting
invoke
involved
io
iof
iotified
ip
ipairs
iprage
ipv
ir
ira
iraq
irc
ireland
is
isbn
isempty
isfaha
isfdb
isfemale
isinversed
isla
island
islands
isn
iso
isrc
iss
issn
issue
issues
ist
istanbul
it
ita
italia
italian
italic
italie
italy
item
itemid
items
its
itself
iv
iva
ivara
ix
izhitsa
j
ja
jahrb
jaipur
james
jamii
jan
january
japan
japanese
jard
java
javanica
javascript
jbradley
je
jean
jesus
jethrobt
ji
jj
jo
jobs
joe
johan
johanna
john
join
jones
jorma
joshkar
journal
journals
jpg
js
jst
jstor
juan
jubatus
juliancomment
juliet
july
june
junonia
jurnalist
just
juuret
jv
jyva
k
ka
kab
kadavoor
kaftaj
kaganer
kaiyr
kaiyuan
kalashnikova
kama
karelia
karta
kartposisjon
kashan
katego
kategooria
kategori
kategoria
kategorie
kategorija
kategorio
kategoriy
kategoriya
kategory
kateqoriya
kath
katiguriya
kb
kbd
ke
keegan
keele
keep
kew
key
keyboard
kg
khanty
ki
kiadva
kielen
kildin
kilvelurkediliyappartemple
kind
kindly
king
kingdom
kingfisher
kirche
kirchspiel
kk
kl
kloster
km
kmoksy
kn
knigi
know
knowledge
known
ko
kodu
koellensteinia
koi
kolyago
komi
komponist
konferencia
konferenz
konferenzen
kong
kopenhagen
korea
korean
kr
kraenzl
krc
kro
kruger
ksh
ksi
ku
kudo
kudryavtseva
kultur
kutusu
kuum
kv
kw
ky
kyoto
kz
l
la
label
labels
lad
lady
lago
lake
lama
lamb
land
landing
landschaftspark
lang
langcode
langs
language
languages
languagescode
lapse
large
larisa
las
last
lastochkina
lat
late
later
latest
latex
latifolia
latifolium
latin
latrans
launch
launched
lauterbach
law
laxiflora
lb
lbe
le
leading
leafl
learn
learning
least
leave
leer
left
leftrightarrow
legacy
legal
legend
len
length
leo
leopardus
lepanthopsis
leporidae
leptailurus
lepus
les
less
lestwa
let
lets
letter
letterforms
letters
letzte
level
lexical
lez
lg
li
library
libraryutil
license
licht
life
lifeway
ligature
light
like
likely
limit
limitations
limited
linden
lindl
lindley
lindleyana
line
linear
linegrey
linguistic
linguistica
linguistics
link
linked
linkf
links
linn
lion
liparis
liquidthreads
list
listclass
listed
listpadding
lists
liststyle
litera
literary
literature
little
live
lje
ll
lmen
ln
lo
loa
load
loaddata
loaded
loading
local
localisation
localising
locatie
location
locmap
log
logged
logo
lokacijska
lon
london
long
longer
longicauda
longifolia
longifolium
look
looking
looks
loop
loorits
los
lost
lot
love
loves
low
lower
lowercase
lp
lr
lt
ltd
lu
lua
lucida
lucksom
luer
luisia
lum
luna
lunatus
luokka
lupus
lutreola
luutonen
lv
lycalopex
lydia
lynx
m
ma
mac
macaca
macedonian
machine
macron
maculata
madagascar
made
magazines
magic
magyar
mai
maikl
mail
mailing
main
mainly
mainsnak
maintain
maintenance
major
make
makes
making
mal
mala
male
mall
malline
mallnitz
man
manager
mandir
manidae
manif
manis
mannheim
mansf
manual
manually
manul
many
manye
map
mapa
maps
mar
marathi
march
mari
maria
marianna
marihistory
marik
marin
marina
marischen
mark
marked
markers
marks
markup
marlene
mars
marseille
martes
mascula
mass
massmessage
master
match
matches
matching
material
materialien
materials
math
mating
matter
matyukovskiy
max
may
mazama
mdf
me
meadow
means
measuring
media
mediawiki
medical
mediterranean
meet
meeting
meetings
melalophos
meles
mem
member
members
memorial
men
menezes
menu
merge
mesadenella
message
messages
met
meta
metaargs
metaargskey
metal
metapicstub
metatable
method
methods
metro
metrobu
mexico
mezquita
mf
mg
mga
mhnt
mhr
mi
miasta
michael
micrantha
middle
might
mike
militaris
military
militia
million
millosh
miltonia
min
mini
minimize
minor
minute
minutes
missing
mission
missouri
mit
mitte
mitteilungen
mk
ml
mm
mn
mo
mobile
mode
model
modern
modify
module
modules
mogera
moisio
monasterio
moneda
monitoring
monobook
monogr
monograph
monolingualtext
montana
montenegro
month
monthgm
monthly
months
monument
moon
mordwinen
more
morning
moscosoa
moscow
moscu
mosque
most
mother
mount
mountain
mountains
move
moved
movement
movie
moving
mp
mpeg
mr
mrj
ms
msg
msk
mt
mu
much
muell
mult
multi
multilingual
multimedia
multiple
munich
muntiacus
mural
mus
muse
museum
music
musical
musicbrainz
must
mustela
mustelidae
mw
my
myanmar
mylanguage
myspace
mythology
myv
n
na
naar
nacional
nadezhda
nakai
name
named
names
namesnum
namespace
namespaces
namibia
nan
nana
nap
nasa
nat
nata
natalia
nation
national
native
natural
nature
navbar
navbox
navboxdata
navigation
navy
nazca
nd
ndataset
nde
ndefaultlanguage
nds
ne
near
necessary
need
needed
needs
nem
nemo
neofinetia
neovison
nepi
nervosa
net
netherlands
network
networks
neue
never
new
newattributes
newclaims
newcomers
newer
newly
newoptions
news
newsletter
newspaper
newspapers
next
nextlabel
nez
ng
nh
nha
ni
nicholas
nicholls
niger
night
nigricollis
nil
nilargs
nivalis
nje
nl
nm
nn
nnnnnn
no
nobr
nocat
nodyn
noeditsection
noir
nolinks
nominate
nominations
nominativemonthesnm
nominativemonthesom
nominativeyear
non
none
nonus
noon
nooverwrite
nord
normal
north
northern
norway
nos
nosferatu
not
notable
notation
note
notes
nothing
notice
notifications
notify
notoc
notul
nov
nova
novalue
november
now
nowrap
np
nster
nts
nu
num
number
numbered
numberof
numbers
numeric
nw
ny
nyelv
nyelveszeti
nyelvi
nyok
o
ob
obama
object
objections
objectives
obtain
oc
ocaasi
occidentalis
occupation
occur
ocerint
ocerints
octavus
october
od
odd
odontoglossum
of
off
offer
offered
office
official
offline
often
ogg
ogv
oh
oj
ok
oktober
ol
ola
old
older
oliver
om
ombudsperson
omega
on
once
oncidium
one
ones
online
only
oomph
op
open
opened
opening
opera
operation
operations
operator
opinion
opinions
opportunities
oppose
opposition
opt
optimised
option
optional
options
opus
or
orchi
orchid
orchidaceae
orchids
orchis
order
ordered
org
organization
organized
organizing
orig
original
orleanesia
ormerod
oroszorsza
orquideologia
os
osaka
ot
other
others
otherwise
otto
ougrienne
oulu
our
ourebi
ourebia
out
outdated
outlining
output
outside
over
overview
owl
own
oxford
oy
p
pa
pabst
pacific
padding
pagan
page
pages
paid
pain
painting
pairs
pajeros
palace
palacio
pallens
palmarium
palustris
pam
pan
panorama
panthera
pantl
pap
papers
papilio
papilionacea
papio
par
parade
param
parameter
parameters
paramorder
params
pardalis
parent
parentargs
parententityids
parentfirst
parentid
parentonly
parentoptions
parentsnak
parentsnaks
pargs
paris
park
parque
pars
parseddate
parsedtime
parseiso
parser
parsetimefromsnak
part
partial
participants
participate
participated
participating
participation
particular
particularly
partners
partnerships
party
parvula
pass
passed
password
passwords
past
patens
path
patrol
patrono
pattern
paul
paulo
pcall
pdf
pdt
pe
pedersen
pencil
pendula
penguin
people
peoples
per
performance
performed
period
peristeria
permanent
permissions
perrier
person
personal
personname
persons
peru
peshsaj
peshsay
petaurus
peter
pfarrkirche
pfitzer
phabricator
phalaenopsis
phase
philipp
philippinensis
phonetic
photo
photos
php
phr
phytologia
phytotax
pi
piano
picture
pictures
piece
pied
piliscsaba
pilot
pintscher
pithecia
pk
pl
place
placed
placeid
places
plain
plaindata
plan
plang
planned
planning
plantilla
platform
plays
plaza
please
pleased
pleasure
plus
pmid
pms
pn
png
pnt
po
poepp
poetry
point
poland
polar
poli
police
policy
polish
politiker
poll
polonia
polskiego
polystachya
pop
popular
populatedatafromclaims
population
port
porta
portal
portrait
portugal
portuguese
pos
position
positional
positions
positive
possible
possibleage
possibledatestring
post
posted
poster
posting
postponed
potd
potential
power
powerful
pp
pr
prague
praha
prayer
prayers
pre
prec
precision
predefinic
predloga
predloz
prefer
preference
preferences
preferids
preferred
prefix
prepare
presbytis
present
presentation
preset
president
press
prev
prevent
preview
previews
previous
previously
prevlabel
pride
pridgeon
primarily
primary
principal
print
prionailurus
priorities
privacy
privileged
prizes
pro
probably
problem
problematics
problemen
problems
proceedings
process
processed
processes
processing
product
production
productions
program
programming
progress
project
projectcode
projects
proof
properly
properties
property
propertyentity
propertyid
propertyids
propertyparams
propertyselector
proposal
proposals
propose
proposed
prostomolotov
protected
protocol
prototype
proverbs
provide
provided
provides
providing
provincialis
ps
pseudovanilla
pt
publ
public
publication
publications
publish
published
publisher
publishers
publishing
pudu
puffin
pula
puma
pump
puppets
purbo
purodha
purpose
purpurea
pusilla
pusztay
put
puzzle
px
py
pyramidalis
python
pywikibot
pywikipedia
q
qu
qualifier
qualifierid
qualifiers
quality
quantity
quanzhou
que
question
questions
quick
quickly
quito
r
ra
radiata
radio
railway
rain
raisia
rami
ramosa
ran
range
rank
rate
rather
ratio
rchb
rd
re
reach
read
readers
reading
readonly
ready
real
really
reason
reasons
rec
receive
recent
recently
recommend
recommended
reconstruction
record
records
rect
red
redirect
reduce
reduced
ref
reference
references
referendum
reflection
reflist
regarding
regards
reginae
region
regional
regions
registered
registration
regni
regular
reichenbach
related
release
released
relevant
reliable
reliably
religious
remaining
remember
remix
removal
remove
removeblanks
removed
removes
removing
rename
renanthera
render
renderdocumentationcategory
rendered
rep
repert
replace
replaced
reply
report
reports
republic
request
requested
requesting
requests
require
required
requirements
requires
res
research
reserve
resolution
resource
resourcedata
resourcedatas
resourceid
resources
responsible
rest
restored
result
resultclaims
resultlist
resultproperty
resultresultproperty
results
resultwikitext
return
returned
returns
rev
reverse
reversed
review
revisionslider
rez
rfc
rgb
rhode
rhynchostylis
rhythm
ri
ria
rica
rich
rid
ridl
right
rights
rimbaud
rio
risk
river
rm
rmx
rmy
rn
rnste
ro
roa
road
robert
robusta
rock
rodr
rodriguezia
rogers
role
roles
rolfe
roll
rolling
roman
romania
romero
round
routemaproute
routemaprouteicon
row
rowindex
royal
royen
rsasa
rte
rter
ru
rubicunda
rubra
rufus
rule
rules
rumani
rummad
run
running
rus
rusia
russia
russian
russland
rusyn
ruwikisource
rw
ryabinina
s
sa
saarinen
sablon
sacharnych
sacred
safety
saguinus
sah
saimiri
saint
salar
same
sami
san
sananlaskujen
sandbox
santa
santo
savariae
save
saw
say
sayings
says
sc
scale
schedul
schedule
scheme
schloss
schltr
scholarly
scholarship
scholarships
schrei
schumann
schwa
schweinf
sci
science
sciences
scientific
sciureus
scn
sco
scotland
scottish
scream
screen
screenshot
scripts
se
sea
search
searches
searching
sec
second
secondary
secrets
section
sectionibus
sections
sectionum
security
see
seeking
seen
seidenf
select
selectclaims
selected
selecting
selection
selector
selectors
self
seltsi
seminar
send
sensitive
sent
separate
separator
september
septimus
serbian
series
serval
serve
server
servers
service
services
session
sessiones
set
setting
settings
seuran
several
sex
sgrabarczuk
sh
shall
share
shared
shha
shift
ship
shiraz
shiva
short
shorter
should
shouldn
show
showed
showing
shown
shows
si
sia
siamensis
sibirica
siconversion
side
sidebar
sidney
sigfig
sign
significant
signup
signups
silent
simia
similar
simons
simple
simpler
sin
since
singapore
single
sioni
sirkka
sister
sisters
site
sitelink
sitelinks
sites
situation
situations
six
size
sizes
sjabloon
sk
skabelon
skills
skin
skins
sky
skyla
skyline
sl
slightly
slovenia
slow
slower
sm
small
smaller
smallimage
smallimageright
smalltext
smartphone
sme
smg
sn
snak
snaks
snaktype
snið
snow
so
soc
social
societe
society
socioint
sock
soft
software
sok
solar
solomon
solutions
some
someone
something
sometimes
somevalue
somewhere
son
song
soon
sophronitis
soria
sorry
sort
sorting
sossusvlei
soto
soul
sound
soundcloud
source
sourceentity
sourceid
sources
sourcetoelementlinksresourceid
south
southern
soviet
sp
space
spaces
spain
spanish
spb
speak
speaking
spec
special
specific
specified
specify
specimina
speciosa
spectabilis
speed
spekii
spit
spitzelii
split
sprache
sprachen
sprachliche
spread
sprichwo
spring
sq
square
squez
sr
src
srch
ssp
ssr
st
stadium
staff
stage
stampa
standard
standards
star
stars
start
started
starting
starts
state
statement
statements
states
stati
static
station
status
stay
stenorrhynchos
step
stephen
stewards
stift
still
stone
stop
stopped
store
stored
stories
storm
story
stq
str
straight
strategy
street
strelitzia
string
strings
strodt
stroke
strong
structure
strvalue
sts
stub
students
studia
studies
study
style
styleratio
stylistic
stylistically
su
sub
subgroup
subject
submission
submit
subpage
subrule
subrules
subscribe
subscription
subsp
substring
subtitle
subway
successful
such
suda
suggest
suggested
suggestion
suggestions
suicide
sul
sulawesi
sum
sumatra
summaria
summary
summerh
sun
sunrise
sunset
suomalais
suomen
sup
support
supported
supporting
suppose
sur
sure
surname
survey
sutherland
sv
svg
svn
sw
swami
swap
sweden
switch
switching
switzerland
sworld
syktyvkar
sylvilagus
symbol
symbols
symposiis
symposium
synagogue
synonym
synonyms
syntaktischen
syntax
sysop
syst
system
systemic
systems
szablon
szl
szlach
szo
szombathely
szota
słownik
t
ta
tab
table
tables
tablets
tablevalue
taboo
tabs
tag
tags
tail
tailed
tainia
taiwan
tajik
take
taken
takes
taking
tales
talk
tallinn
talpa
tamil
tang
tanulma
tanulmanyok
tara
target
tartu
task
tatar
tatiana
tatyana
taylor
tbilisi
te
teach
team
teams
tech
technical
technology
tehera
telescope
tell
temperature
templat
template
templatedata
templates
temple
temples
temporary
ten
tenuis
term
terminal
terminologie
terminology
terms
terror
test
tested
testing
tests
tet
text
texte
texts
tf
tg
th
thai
thailand
than
thank
thanks
that
the
theatres
their
them
theme
then
there
these
they
things
think
thinking
third
this
thomas
those
thouars
though
thought
thoughts
thousands
thread
three
through
throwerror
thumb
thumbnail
thumbnails
thursday
thus
ti
ticket
tidyval
tie
tiger
tigrinus
tiivistelma
till
time
timelapse
times
title
titledelimeterposition
titlestyle
titlo
tjmoel
tk
tl
tn
tnavbar
to
toc
tocright
today
todo
together
toggle
tohlistwithheaders
toimituksia
tokenized
tokenizename
tokio
tokyo
tomus
tonumber
too
tool
toolbar
tools
top
topic
topics
toronto
tostring
totable
total
tour
towards
tower
town
townsendii
tpi
tr
tracks
trademark
traditional
traffic
tragelaphus
trailer
train
training
trans
translate
translated
translatewiki
translathon
translating
translation
translations
translators
travel
tree
trees
treffen
trends
triage
trichoglottis
trim
trimmed
trimstr
trinidad
trip
trisetella
trop
true
trust
trustees
try
trying
tscheremissische
tscheremissischen
tse
tsi
tso
tt
tu
tuesday
turkey
turku
turn
turning
turun
tv
tw
twitter
twl
two
txantiloi
txt
ty
type
types
typing
u
ua
uae
ucoc
udm
udmurt
ugrian
ugrians
ugric
ugrica
ugricum
ugrilaisen
ugristarum
ugristica
uk
ukraine
ukrainian
ukrcensus
uls
un
uncollapsed
und
under
underside
understand
understanding
unesco
unexpected
unfortunately
uni
unicode
unidos
union
unit
united
unitentity
universal
university
unknown
unless
unnamed
unsubscribe
unterricht
until
up
upcoming
update
updated
updates
upload
uploads
upon
upper
uppsala
upright
ur
ural
uralic
uralica
uralischen
uralisztikai
uralo
urdu
uri
url
urocyon
ursinus
ursus
us
usa
usability
usage
use
used
useful
user
userbox
users
uses
using
ustring
usual
usually
usuan
utc
utf
utils
uz
v
va
val
valid
valley
valuable
value
valuefunc
values
valuta
vampire
vampires
vampyri
van
vana
vancouver
vanda
vandalism
vandopsis
var
varemed
variable
variables
variation
various
vasli
vdsua
ve
vec
vector
veg
veidne
venez
venezuela
venus
vep
verlag
version
versions
vertical
very
vestita
vi
via
viaf
victoria
vicugna
video
vienna
view
viewed
viewer
views
vii
viii
viktor
vila
vili
village
violin
visible
vision
visit
vison
vista
visual
visualeditor
vk
vls
vo
voi
voice
vol
volcano
volga
volume
volunteer
volunteers
von
vorlage
vote
voters
votes
voting
vp
vr
vro
vs
vulpes
w
wa
wait
wall
wang
want
wanted
wants
war
warburg
warm
warszawa
was
washington
watch
watchlist
watchlists
water
wave
way
ways
wbstatus
wds
we
web
webfu
webm
website
wedding
wednesday
week
weekly
weeks
weimar
welcome
well
wells
went
were
west
western
what
whatamidoing
whatever
when
where
whether
which
while
white
whitespace
who
why
wide
width
wiedii
wieku
wien
wiener
wiesbaden
wiki
wikibase
wikibooks
wikidata
wikigap
wikimania
wikimedia
wikimedians
wikipe
wikipedia
wikipedians
wikipedias
wikipedie
wikis
wikisource
wikitech
wikitext
wikiversity
wikivoyage
wildpark
will
williams
willing
win
window
wing
winners
winter
wish
wishes
wishlist
with
within
without
wmde
wmf
wo
wolf
wolfgang
woman
women
won
wood
word
wordpress
words
work
workboard
worked
workflow
working
works
world
would
wrapinurl
wrapper
wrappers
write
writing
written
wroclaw
wrocław
wrong
wuu
www
x
xal
xh
xi
xii
xiii
xiv
xix
xumepa
xv
xvi
xvii
xviii
xx
xxi
xxii
xxiii
xxix
xxth
xxvi
xxviii
xxx
xxxi
xxxii
xxxiii
xylobium
y
ya
yandex
year
yearbook
years
yellow
yerevan
yeru
yes
yet
yi
yo
york
yoshkar
you
young
your
youtube
yu
yue
yufereff
yum
yus
yyyy
z
za
zaragoza
ze
zealand
zero
zh
zhe
zi
zimmer
zinnia
zoo
zoom
zu
zum
zur
zwei
zweier
zygopetalum
zygostates
{
|
}
~
¡
¢
«
¬
­
°
±
²
³
·
»
¼
×
æ
÷
đo
ı
ł
łodzi
ɒ
ʻ
ʼ
ˈ
ː
̀
́
̂
̃
̄
̆
̇
̈
̉
̊
̋
̌
̍
̓
̔
̛
̣
̦
̧
̨
͂
ͅ
͡
α
ας
β
ε
ει
η
θ
κ
και
κατηγορι
μ
ν
ντα
ξ
ο
ου
προ
ς
τη
της
το
του
τυπο
υ
ψ
ω
ϙ
а
аарон
абазин
абакан
абанур
абаснур
абая
аббревиатур
абдаево
абдулов
абрамов
абрамович
абрикос
абу
абукаев
абукаева
абукаевын
абхаз
абхазии
ав
ава
аваж
аважат
аваже
аважлан
аважым
аважын
аваи
авалан
авалта
авалтат
авалтен
авалтыше
авам
авамлан
авамланде
авамын
аван
авангард
авар
аварии
авашт
авг
август
августа
августышто
авенир
авиаспорт
авиации
авив
авии
авипов
аврора
австралии
австрии
австро
авт
авто
автобиобиблиогр
автобиографии
автобус
автозаводын
автомат
автоматик
автоматически
автоматым
автомашина
автомашинаже
автомашинам
автомашинан
автомобиль
автомобильныи
автомобильым
автоном
автономии
автономная
автономнои
автономные
автономныи
автономных
автор
автора
авторе
автореф
автореферата
авторже
авторжо
авториз
авторитарныи
авторлан
авторов
авторские
авторских
авторского
авторскои
авторын
ага
агаваи
аганур
агаште
агитатор
агитации
агломерации
агломерацию
агриппина
агроном
агрономжо
агрономлан
агрыз
агытан
агытансола
ад
адак
адакат
адакшым
адана
адвокат
адзума
админа
административ
административно
административнои
административные
административныи
администратор
администратора
администраторами
администраторов
администратором
администраторские
администраторскими
администраторских
администраторства
администраторство
администраторы
администрации
администрация
админов
админом
админские
адольф
адрес
адресата
адриан
адыгеи
адымаш
аза
азалан
азам
азан
азаново
азановское
азап
азапланен
азапыш
азбука
азербаи
ази
азии
азмекеи
азов
азъял
азяково
азяковское
азянково
аи
аив
аимково
ак
ака
акад
академ
академии
академик
академика
академикше
академическии
академия
акаже
акватория
аккаунт
аккордеон
аккузатива
акла
аклат
аклаш
аклен
акленыт
аклымаш
аклыме
акпаи
акпарс
акпарса
акпатыр
акпатырын
акреи
акрет
акретсе
аксаи
аксакал
аксаматово
аксар
аксарка
аксиологическая
аксиологическои
аксиосфера
аксон
акт
актаи
актан
актаныш
актанышского
актаюж
акте
актер
активист
активно
активности
активность
активные
активныи
актриса
актрисыже
актуальные
актуганов
актуганово
актун
акции
акцорин
акше
акшым
акыл
акылже
акылжым
акылым
акым
акыр
ал
ала
алабога
алал
аламнер
алан
аланыштат
аланыште
алатаи
алашаи
албании
алгоритм
алдаи
алдиар
алдияр
але
алевтина
алеево
алеко
александр
александра
александрии
александров
александрова
александрович
александровка
александровна
александровскии
алексеев
алексеева
алексеевич
алексеевка
алексеевна
алексеевскии
алексеевское
алексеевын
алексеи
алексии
алена
алжир
али
алина
алиса
алла
аллах
аллитерации
алма
алматы
алмаш
алмашлу
алмашта
алмаштарышыже
алмашташ
алмаштен
алмаштышыже
алмаштышыжлан
алнаш
алсола
алтаи
алтимат
алтынжар
алфавит
алфавита
алфавиту
алфавитым
алхо
алхониеми
аль
альберт
альберта
альбертина
альбертовна
альбертын
альбина
альбом
альбомым
альбомыште
альманах
альманахын
альманахыште
альтернатив
альтернативныи
алюминии
алят
алға
ам
амагат
амагатын
амазонка
амал
амалже
амалкалче
амаллан
амалым
амб
амдф
амдыленыт
америк
америка
американ
америкым
америкын
америкысе
америкыште
аминева
амион
амстердам
амур
амчемучаш
амыше
ан
ана
анаи
анализ
анализа
анализу
аналитические
аналог
аналогично
анании
ананур
ананьевич
анастасии
анастасия
анаталлис
анатолии
анатолия
анатольевич
анатольевна
анатомии
анвардинов
анвате
анвуи
ангел
ангелина
ангилал
англ
англии
англичан
англичанла
англо
ангола
анд
андерсен
андерсенын
анджела
анджелес
андреев
андреева
андреевич
андреевка
андреевна
андреево
андреевскии
андреи
андри
андрианов
андрианова
андрианович
андрии
андуганов
андуганова
анималистических
анис
анисим
анисимов
анисимова
анисимович
анисимовлан
аниссола
анкара
анна
аннан
ано
анпамаш
анри
ансамбль
ансамбльым
ансамбльын
ансамбльыш
ансамбльыште
антарктиде
антивирус
антитеза
антологии
антология
антон
антонида
антонии
антонина
антонио
антонион
антонов
антонович
антоново
антонын
антоша
антропологии
антропологических
антропология
антышева
анук
ануш
анфиса
аным
анэҥер
ао
апакаев
апатеев
апатеева
аписар
апостол
аппак
аппаково
аппарат
аппаратым
апполон
апр
апрель
апрельыште
апреля
апсатарова
апталиков
аптулаев
аптулаи
аптулят
аптыране
апшат
апшаткудо
апшатнур
ар
араб
аравии
арака
аракам
аракан
арала
аралалт
аралалтеш
аралалтше
аралалтын
аралалтыт
аралаш
аралашлан
арале
арален
араленыт
аралтыш
аралыман
аралымаш
аралымаште
аралыме
аралымылан
аралыше
арам
арамак
аранжировщик
арбаж
арбан
арбана
арбанын
арбитр
арбор
арбучинскии
арвер
арверым
арво
аргентина
аргентине
аргумент
аргументов
аргументы
аргус
арда
ардаш
арде
ардинскии
ардчилсан
арест
арестант
арестоватлаш
арестоватленыт
арестоватлыме
арефьева
арзамас
арзамат
арии
аристотель
аристэ
аристэн
арифметике
арка
аркадии
аркадьевич
аркадьевна
аркамбал
арктика
арлан
армении
армии
армян
арня
арнялан
арнян
арнясе
арняш
арняште
арсаи
арсак
арсака
арсении
арсентии
арсентьевич
арсеньевич
арсии
арск
арслан
арсланов
артамонов
артамонова
артамоновын
арте
артель
артемии
артемьев
арти
артиллерии
артиллерист
артинском
артист
артистка
артисткыже
артистлан
артистше
артисты
арто
артур
артюшкина
ару
арулыкым
архангельск
архангельскии
археографическии
археолог
археологии
археологик
археологическии
археология
архив
архивировано
архивныи
архивов
архивы
архивысе
архивыште
архивыштыже
архиепископ
архип
архипелаг
архипелагын
архипов
архипова
архипович
архиповои
архитектор
архитектур
архитектура
архитектуро
архитектуры
аршаш
аршашыже
аршын
арык
арын
арып
арыслан
ас
асаев
асан
аслан
асмаева
аспект
аспекте
аспекты
аспирант
аспирантов
аспирантур
аспирантурым
аспирантурыш
аспирантурышто
аспирантурыштыжо
аспирантше
ассимилятивного
ассистент
ассистентлан
ассоциации
ассоциация
асср
ассрын
астрахань
астрологии
астроном
астрономии
астрономическии
асулымо
асфальт
асылбаев
ат
ата
атакыш
атаманыч
ате
атеизм
атер
атлантик
атлас
атлетик
атлетика
атня
атом
атомныи
атрибут
атул
атюлов
аудио
аудитории
афанасии
афанасьев
афанасьева
афанасьевич
афган
афганистан
афганистанысе
афганистаныште
афонысо
африка
африкан
африки
африккыште
африкын
африкысе
африкыште
афун
ах
ахмат
ахматенер
ахмет
ахметов
ациантера
ача
ачаж
ачажат
ачаже
ачажлан
ачажым
ачажын
ачаи
ачалу
ачам
ачамланде
ачамын
ачан
ачана
ачат
ачашт
ачаэл
ачием
ачии
ачин
ачит
ачым
аш
ашламаш
ашлань
ашмаринские
ашненыт
ашхабад
ашыкым
аэропорт
аэропортше
аюпова
аюрведан
ая
аяр
аҥ
аҥа
аҥам
аҥанур
аҥаш
аҥгличан
аҥырген
аҥысыр
б
ба
баба
бабин
багдад
бадамшина
бадачоньтомаи
база
базе
базу
баи
бак
бакнур
баку
бакусо
балаково
балалаи
баланчук
балеи
балерина
балет
балетмеи
балетын
балкан
балкарии
балл
баллада
балладе
балтаси
балтач
балтачевского
балтачевском
балтии
балтик
балто
бан
бангкок
бангладеш
бандит
банк
банкир
баннернои
бар
барабан
барак
бараки
баракше
баранов
барбадос
баренц
барнаул
барон
барселоно
барцева
бас
басеи
баск
баскетбол
басне
басни
басньывозызо
басньым
басня
басов
бассеи
батальонын
батареи
батрак
батут
батырбаев
бахтин
бахтино
баш
башгу
башк
башкир
башкирии
башкирские
башкирскии
башкирских
башкирского
башкирскои
башкортостан
башкортостана
башкортостане
башне
башня
баян
баяна
баяне
баянист
баянистов
баянов
бе
бедныи
без
безопасности
безопасность
безупречныи
беи
беке
бекешев
беларусь
белая
белгород
белебеи
беленков
белкова
белов
белорус
белоруссии
белорусскии
белоусов
белу
белые
белыи
бельгии
бельскии
беляев
беляева
беляево
беляевои
беляк
бенди
бензин
бердеи
бердинскии
бердичев
бере
берег
береговои
берегу
береза
березин
березовка
березовко
березята
берецки
беринг
берлин
берлиным
берлинысе
берлиныш
берлиныште
берникова
беседы
беспокои
беспризорник
бета
бетховен
бетховеным
бетховенын
биатлон
библии
библиогр
библиографии
библиографическии
библиография
библиотек
библиотека
библиотекарь
библиотеке
библиотеки
библиотекыште
бизнес
бизнесъеҥ
бик
бикбатыров
бикмурзин
бикын
билалова
билет
билетым
билингвизм
билингвизма
бильбао
билямор
биобиблиогр
биобиблиографии
биобиблиографическии
биогр
биограф
биографии
биографическая
биографическии
биография
биологии
биргпи
биргспа
бирск
бирская
бирскии
бирь
бирюков
бит
бишкек
бк
благовещенск
благовещенскии
благодарим
благодарностью
благодаря
блат
ближаи
блин
блинов
блиново
блины
блог
блоге
блок
блока
блоки
блокланд
блокнотшо
блоков
бо
бобров
бобруи
бог
богатство
богатыри
богатырь
богдан
богданов
богданова
богородицкии
богослов
богословскии
богоявленскии
богоявленское
боевои
боевые
боец
бои
бокс
бол
болгар
болгарии
более
боливии
боливия
болото
болтуш
большаков
большакова
большая
больше
большевик
большие
большим
большинства
большинство
большинством
больших
большого
большое
большои
бор
борис
борисов
борисова
борисович
борисово
борнео
бортовои
борьба
боснии
бостон
бот
бота
ботаник
ботинке
ботсвана
боты
ботын
бохум
бояринова
бояриновои
бояринцева
бразилиа
бразилии
браи
брат
братство
братья
браузерыште
брест
бригада
бригаде
бригадир
бриллиант
брисбен
британ
британии
бровары
бронзо
бронироватлыме
бронникова
брошюр
брошюрым
брянск
бсэ
бубрих
бугера
бугеры
бугор
будапешт
будапештысе
буддизм
будем
будет
буду
будут
будущего
будущее
будущем
буи
букв
буква
буквам
букварь
букварьым
букварьын
буквы
букет
букетов
букетова
буклет
булак
булакское
булат
булатов
булгар
булгарии
буллит
бунтовщик
бураево
буран
буранаев
буржуазно
буржуазныи
буржуи
бурков
бурсо
бурт
бурятии
бурятского
бус
бусыгин
бусыгино
бутан
бутенин
бутырскии
бухарест
буча
бушков
буэнос
бы
быков
быковка
был
была
были
было
бым
быр
быстро
быт
бытовои
быть
бычков
бышев
бэи
бэк
бэнди
бюджет
бюллетень
бюрожо
бюрократ
бүгд
в
ва
вавилов
вавиловские
вавилонскии
вагонышто
вад
вадик
вадим
важ
важно
важное
важные
важык
ваз
ваи
вак
вакуумышто
вакш
вакшыште
вал
валдаи
валеев
валенсии
валентин
валентина
валентинка
валентинович
валентиновна
валериан
валерианович
валерии
валерия
валерьевич
валерьевна
валерьян
валерьянович
валитов
валне
валтон
валтона
валька
вальс
валюта
валюто
вам
вами
ван
вандализмом
вандальных
ванин
ванкувер
вань
ванюков
ванюшка
ваня
ваптыш
вапш
вапшту
вар
вара
вараже
варажым
варажымат
вараксим
варале
варалтыныт
варарак
вараракшым
варасе
вараш
вараҥыж
варвара
вариант
варианта
варианте
вариантов
вариантше
варианты
вариативность
вариации
варс
варшава
варым
варьете
вас
васикова
васиковои
василии
василиса
василия
васильев
васильева
васильевич
васильевичын
васильевка
васильевна
васильевскии
васильевым
васильевын
васин
васина
васинкин
васинкинлан
васинов
васканова
васли
васлии
васлисола
васташуи
васхнил
васькин
васютин
ват
вате
ватем
ватыж
ватыже
ватыжым
ватым
ватын
вахрушево
вач
вачан
ваче
вачи
ваш
ваше
вашеи
вашем
вашеш
вашешта
вашештен
ваши
вашингтон
ваших
вашка
вашке
вашкелшыкым
вашкен
вашкерак
вашкыл
вашкылым
вашла
вашлие
вашлиеш
вашлии
вашлиялтеш
вашлиялтше
вашлиялтын
вашлиялтыт
вашлияш
вашмут
вашмутлан
вашмутланымаш
вашмутым
вашпижмаш
вашпижмаште
вашталт
вашталта
вашталташ
вашталтде
вашталте
вашталтен
вашталтеныт
вашталтеш
вашталтмаш
вашталтме
вашталтмыжым
вашталтмым
вашталтше
вашталтылше
вашталтымаш
вашталтыме
вашталтын
вашталтыт
вашталтыш
вашталтыше
вашталтышым
ваштар
ваштаран
ваштареш
ваштарешла
ваштарешыже
вашу
вв
введение
введения
вверх
вверху
ввести
ввп
ввс
вднх
вдруг
ве
веб
вегас
веда
веде
ведения
веденькин
ведерников
ведомости
ведь
веет
веи
век
века
векат
веке
веков
вектор
вел
веле
велеш
велже
великая
великие
великии
великобритании
великои
великополье
велке
веллаште
велне
велосипед
велыж
велым
велын
велысе
велыш
велышке
велыште
велыштыже
вем
вена
вената
венгер
венгерская
венгерские
венгерскии
венгерском
венгр
венгрии
венгрла
венедикт
венедиктов
венеи
венера
венесуэла
венециан
венеции
вениамин
вениаминовна
венысе
веныш
веныште
вепс
вер
вера
верам
веран
вераҥдат
вераҥдыме
вервуи
вергеза
вере
вереат
вереш
верештеш
верештын
верештыныт
верже
вержым
вержын
верла
верлам
верлан
верлана
верланат
верланен
верланенторалык
верланеныт
верланымаш
верланыме
верланыше
верлашке
верлашт
верлаште
верлыныше
вернуться
верования
вероника
верроккьо
версии
версия
версола
вертола
вертоле
верх
верхне
верхнее
верхнеи
верхние
верхнии
верхняя
верховного
верховныи
верч
верчын
верчынак
вершина
вершинах
вершинин
вершины
вершо
вершок
верым
верын
верысе
верыш
верышке
верышкыже
верышт
верыште
верыштыже
верыштым
вес
весе
весела
веселан
веселеи
веселов
весеннии
веске
весна
весны
вест
вести
вестник
весточка
весту
весшу
весыже
весыжым
весылан
весым
весын
весыш
весышт
весыште
весыштлан
весыштым
весь
вет
ветер
ветеран
ветеранже
ветеринар
веткан
веткин
ветлужско
ветра
вечер
вечерняя
вечын
вещества
взаимовлияние
взаимовлиянии
взаимодеи
взаимосвязи
взвод
взводын
взгляд
взять
ви
вивальди
вивальдин
вигак
вид
вида
видам
видання
виде
видеман
видео
видеокарта
видеть
видного
видов
видше
виды
вием
виеш
вижу
визимьярскии
визым
визыми
визымше
визымъер
визыт
вии
вик
вика
викентии
викентьевич
викентьевна
вики
викиданные
викиданных
викиклатыште
викикод
викимарафоне
викимедиа
викимедии
викимутер
википедиеи
википедии
википедию
википедия
википедија
викисклад
викискладе
викитекыште
викиувер
викификации
виктара
виктаралтын
виктарат
виктараш
виктарен
виктарчык
виктарчыкым
виктарымаш
виктарыме
виктарыше
виктарышылан
виктем
виктемын
виктер
виктервуи
виктерын
виктор
виктории
виктория
викторович
викторовна
виловат
виль
вильгельм
вильнюс
вильсур
вильял
винница
винныи
вино
виноват
виногоров
виногорова
виноградов
виноградова
винокуров
винчи
винчин
вип
виргинии
виртуального
вирус
вис
виса
висалтын
висаш
висвис
висен
високос
висыме
витали
виталии
витальевич
витальевна
витамин
витебск
витле
витяи
вице
вич
виче
вичкудо
вичкыж
вишне
вишневскии
вишну
виян
виянаш
виянлан
виянрак
вияш
вияшлукан
вияҥ
вияҥаш
вияҥашыже
вияҥдаш
вияҥден
вияҥдымаш
вияҥдымашке
вияҥдымаште
вияҥдыме
вияҥеш
вияҥже
вияҥмаш
вияҥме
вияҥмыже
вияҥмыжым
вияҥын
вклад
включает
включать
включая
включить
вконтакте
вкп
вкус
вл
вла
влад
владивосток
владимир
владимирович
владимировича
владимировна
владислав
владиславовна
влак
влакан
влакат
влакгокласе
влакем
влаклан
влакланат
влакше
влакшым
влакым
влакымат
влакын
влакынат
влакыш
влакышке
влакышт
влакыште
влакыштым
власова
власти
власть
властьлан
властьым
властьын
влево
влидимир
влияние
влиянии
влияния
влксм
вместе
вместо
вмх
вначале
внедорожник
внеклассная
внекласснои
внести
внешние
внешнии
внизу
внимание
внимании
вновь
внутреннеи
внутренние
внутреннии
внутренних
внутри
внутрижанровая
во
вод
вода
водевиль
водитель
водных
водохранилища
воды
водын
водь
водяная
военно
военныи
военных
вож
вожаи
вожге
вожгокла
вожшо
вожым
воза
возалт
возалтеш
возалтме
возалтшаш
возалтше
возалтын
возалтыныт
возалтыт
возармаш
возат
возаш
возашлан
возвращает
возвращение
возгала
возгалаш
возгален
воздеи
возделывания
возем
возен
возена
возенам
возеныт
возет
возеш
возжаи
возкалаш
возкален
возкалыше
возможно
возможности
возможность
возможны
возможные
вознесенскии
возникновение
возникновения
возо
возражении
возраст
возраста
возрождения
возыза
возыктыш
возыктышын
возыман
возымаш
возымашкыже
возымаште
возымаштыже
возымашыже
возымашым
возымо
возымыж
возымыжлан
возымыжо
возымыжым
возымым
возымышт
возымыштым
возын
возыт
возышо
возышым
вои
воин
вокал
вокально
вокальныи
вокзал
вокруг
воктек
воктеке
воктен
воктенак
воктене
воктенже
воктенсе
воктеныже
воктенысе
воктеч
вол
вола
волаксола
волга
волгалт
волгалтара
волгалтарыме
волгалтеш
волгалтме
волгалтше
волгалтын
волгарь
волгенче
волго
волгоград
волгои
волгыдо
волгыдыжо
волгыдым
волгыдыш
волгыдышко
волеи
волен
воленыт
волжск
волжская
волжские
волжскии
волжских
волжско
волжского
волжском
волжскысо
волк
волков
волкова
волковын
волна
волны
вологда
вологдо
володар
володимир
володькин
володя
волонте
волостнои
волость
волташ
волтен
волтеныт
волтышо
волшебная
волшебнои
волшебные
волшебныи
волынь
вольфганг
вольык
вольыкем
вольыклан
вольыкым
вольыкын
волю
вондер
вондо
вонжеполь
вонча
вончаш
вончен
вончештарыме
вончо
вончу
вончыду
вончымо
вообще
вооруженныи
вопр
вопрос
вопроса
вопросам
вопросов
вопросу
вопросы
вораҥдыш
воркута
воробье
воробьев
воробьи
воронеж
воронцов
воронцова
воронцован
ворончихин
ворончихино
ворошилов
воскресенск
воскресенскии
воспитание
воспитании
воспитания
воспитатель
воспитательного
воспитательныи
воспитатлымаште
воспитатлыме
воспользоваться
воспоминания
восприятие
восприятии
восприятия
восстании
восток
востока
востоке
востоковедения
восточная
восточно
восточного
восточном
восточномарии
восточные
восточныи
восточных
восход
восхождение
восьмои
вот
воткинск
вотлаштык
воч
вочарма
вочерма
вочканур
вочко
вочмо
вочмык
вочшо
вошт
воштончыш
воштончышыжо
воштыл
воштылаш
воштылеш
воштылын
воштылыныт
воштыр
воштырым
вп
вперед
впн
впо
вполне
врач
врачше
време
времен
временем
времени
временная
временного
временные
временными
временных
время
вс
все
всеволод
всегда
всего
всеи
всем
всерос
всероссии
всесоюзная
всесоюзного
всесоюзнои
всесоюзныи
всех
вставить
вставки
вставляется
встреча
встрече
встречи
встречу
вступило
всю
вся
всякого
вторая
вторичныи
второго
второе
второи
втором
вторые
ву
вувер
вуд
вуем
вует
вуеш
вуж
вуз
вуза
вузе
вузлаште
вузов
вузын
вузышто
вуи
вулкан
вулкана
вулканах
вулканла
вургем
вургемжат
вургемже
вургемжым
вургемым
вурго
вургыж
вургыжшо
вургыжын
вурс
вурса
вурсаш
вурсен
вурсеныт
вуртем
вуча
вучал
вучалеш
вучат
вучем
вучен
вученыт
вучо
вучыдымо
вучыдымын
вучыман
вучымо
вучымыжо
вучышо
вуян
входит
входят
вхождения
вцик
вчера
вы
выбора
выборам
выборах
выборов
выборы
выбрать
выводит
выводится
выглядеть
выглядит
выдае
выдающегося
выдвиженец
выделения
выделены
выж
выжум
вызов
вызова
вызывает
выи
выл
вылак
выль
выльып
вым
вын
вынем
вынер
вынерым
выньык
вып
выполнять
выпуск
выпускники
выпускников
выр
выра
выравнивается
выражающие
выражающих
выражение
выражении
выражения
выраженные
выразительности
выразительные
вырам
выран
выраште
вырго
выру
вырым
выселке
выселок
выскажите
высокая
высокии
высота
высоте
высотои
высоты
выставка
выступатла
выступатлен
выступлении
высшего
высшее
высшеи
высшии
высших
высылке
выхода
вышгород
выше
вышел
вышестоящая
вышла
вьетнам
вьетнамыште
вятка
вятки
вяткыште
вятская
вятские
вятскии
вятско
вятского
вятскои
вятском
вятчино
вяч
вячеслав
вячеславович
вячеславовна
вінницька
вінниця
г
га
габдулла
габон
гаваи
гавриил
гаврил
гаврилов
гаврилова
гаврилович
гавриловна
гагарин
гадиатов
гадиатовын
гае
газ
газа
газет
газета
газетеш
газетла
газетлан
газетлаш
газетлашке
газетлаште
газетшым
газеты
газетым
газетын
газетыш
газетыште
газым
гаи
гаити
галереи
галерея
галина
галкин
галкина
галкинын
галютин
галютина
галютинын
галя
гамбург
ган
гана
ганат
ганди
ганеша
гани
ганин
гантимуров
гань
гар
гареев
гареева
гарже
гари
гарла
гарлаште
гармонии
гармония
гармонь
гармоньчо
гармоньым
гарри
гарым
гарыш
гарь
гастроль
гаудия
гаш
гаяк
гбоу
гбу
гвардеи
гвардии
гвардия
гватемала
гвинеи
гг
где
гдр
ге
геи
гектар
гелде
гельсии
ген
гендерная
гендерном
гендерныи
генеалог
генеалогическии
генеалогия
генезисе
генерал
генеральныи
генетике
генетические
гении
геннадии
геннадия
геннадьевич
геннадьевна
генри
генрих
геня
географии
географик
географические
географических
география
геометрии
геометрическии
георг
георгиевич
георгиевна
георгии
георгина
геральдик
герасим
герасименки
герасимов
герасимович
герб
герм
герман
германа
германии
германия
германскои
героев
герои
героическая
героические
героическии
героя
герцеговина
геш
ги
гибель
гибрид
гидрографии
гидрометеоиздат
гидронима
гидронимов
гильдин
гим
гимаев
гималаи
гимн
гимназии
гимнастика
гимнастике
гимнын
гипоталамус
гипс
гитар
гитара
гитарист
гитарым
гитис
гитлер
гихл
гиш
гиша
гишан
гл
глава
главаште
главная
главное
главныи
главы
глагол
глагола
глаголах
глаголов
глаголы
глаголын
глагольно
глагольного
глагольное
глагольные
глагольных
глаз
глаза
глазами
глазов
глазырин
гласные
гласныи
гласных
глеб
глездене
глезденев
глезденевын
глизерина
глобализации
глобализация
глобальное
глобальном
глобальные
глобальных
глубина
глухов
глухова
глушков
глушкова
гном
го
говор
говора
говорах
говоре
говорит
говорить
говоров
говорын
говорю
говорят
гоголь
гогольын
гоголя
год
года
годах
годов
годсек
годсекак
годсо
году
годы
годым
годымак
годымат
годымжак
годымжо
годымсо
гож
гол
голжым
голландии
голова
головенчица
головина
головино
головна
головноі
голос
голоса
голосов
голосование
голосовании
голосования
голосовать
голосом
голосующих
голубев
голубои
голым
гомель
гомер
гондурас
гонконг
гор
гора
горбунов
гордеев
гордеева
гордеевич
гордеевын
горе
горелов
горельскии
горинов
гориново
горка
гормон
горная
горно
горного
горное
горнои
горном
горномар
горномарии
горные
горныи
горных
горняк
город
города
городе
городец
городов
городок
городская
городских
городскои
городском
горохов
горохова
гороховын
горская
горшков
горы
горькии
горьковская
горьковскии
горят
гос
гослитиздат
госпиталь
госпитальыште
гост
государств
государства
государственная
государственного
государственное
государственнои
государственном
государственному
государственности
государственныи
государственных
государство
гот
готан
готик
готов
готшо
готыш
гоу
гоч
гочын
градус
градусы
граждан
гражданин
гражданина
гражданинже
гражданская
гражданскии
гражданствым
грак
грам
грамм
грамматик
грамматика
грамматике
грамматики
грамматикыже
грамматикым
грамматическая
грамматические
грамматическии
грамматических
грамматическои
грамматическом
грамот
грамота
грамотан
грамотыж
грамотыжо
грамотылан
грамотым
грамотышт
гран
грани
границ
граница
границы
границыште
грант
граф
график
графика
графике
графики
графическии
гребнев
грек
грекла
гренландии
греции
греч
григориан
григории
григорович
григорьев
григорьева
григорьеван
григорьевич
григорьевича
григорьевичын
григорьевна
григорьевои
гризон
гриф
гриша
гроза
гроздья
грозныи
громов
груз
грузии
грузин
грузов
грузова
грузовик
грузовои
грузовские
грузовын
грузым
групп
группа
группах
группе
группо
группы
группылан
группым
группын
группыш
группышто
грязин
гтрк
гу
гуанчжоу
губаев
губернаторжо
губернии
губернскии
губин
губино
губисполком
гуза
гузан
гузин
гузина
гузы
гуляево
гуманит
гуманитар
гуманитарного
гуманитарные
гуманитарных
гуп
гур
гурии
гурия
гурьевич
гусев
гусева
гусли
гусовского
густав
гутлаште
гц
гы
гыж
гыжо
гыжым
гым
гын
гына
гынат
гыр
гыра
гыран
гырен
гырналеш
гыч
гычак
гычат
гычше
гычыж
гычын
гыш
гюго
гюгон
гянджа
д
да
даваи
давид
давлет
давно
дагестан
дагестанысе
дагестаныште
дае
даже
даи
дак
далана
даланат
даланаш
даланен
даланеныт
даланыме
даланыше
даланышылан
даланышын
дале
далее
дали
далын
дальнеи
дальнии
дальше
дам
дамаск
дан
дании
даниил
данилиха
данилов
данилова
данилович
данилово
даниловым
даниловын
данного
данное
даннои
данном
данные
данныи
данным
данных
даны
дар
дара
даралтше
даралтын
даралымвер
даралымверла
дарат
дараш
дарен
дария
даровна
дарчык
дарымаш
дарыме
дарыше
дарья
даст
дат
дата
дате
дату
датчан
даты
дать
дача
даш
два
двара
две
двел
двелне
двелныже
двелыште
двигатель
двигательым
движение
движении
движения
двоеборье
двои
двор
дворян
двух
двухбуквенныи
двухклассныи
двуязычие
двуязычия
дд
дде
ддымо
ддымылык
ддымылыклан
ддымылыкым
де
дебрецен
дебют
девичье
девушка
деепричастии
деепричастия
деепричастных
деи
дек
декабрь
декабрьыште
декабря
декан
деканже
деканжылан
деканын
декат
деке
декем
декет
декрет
декретше
декретым
декше
декыже
дел
дела
делает
делается
делам
делать
делегат
делегатше
делегации
деления
дели
делиться
дело
деловои
дельтыште
дем
демар
демат
деме
демет
демид
демидович
демобилизации
демократ
демократии
демократическии
демонстрации
демонстрирует
демылан
демым
демын
демьян
ден
дена
денак
денат
дене
денем
денет
денже
денис
денисова
деныт
день
департаментжы
депутат
депутатов
депутатшат
депутатше
депутатшылан
дер
деревень
деревне
деревни
деревня
дерево
дереву
деревяшкин
держе
деривация
дерла
дерым
дерын
дерыш
дерыште
десяти
десять
дет
деталь
детеи
детектив
дети
детская
детские
детскии
детских
детского
детском
детства
детстве
детство
детям
дефис
деч
дечат
дечет
дечын
деш
деятели
деятель
деятельже
деятельности
деятельностного
деятельность
деятеля
дж
джаз
джаи
джалиль
джан
джанысе
джеи
джексон
джереми
джованни
джозеф
джои
джон
джордж
джульетта
дзюдо
ди
диагностика
диагностики
диагональже
диагональыште
диалект
диалекта
диалектах
диалекте
диалектном
диалектные
диалектныи
диалектов
диалектологии
диалектологическои
диалектшым
диалекты
диалог
диаметрже
диана
диапазон
диахронии
дивизии
дивизион
дивизионышто
дидактическии
диджеи
дизаи
дизель
диккенс
диккенсын
диктант
диктантым
диктор
дикторжо
дим
димиров
димитрии
дина
динамика
династии
дионисии
диплом
дипломантше
дипломат
дипломатии
дипломжо
дипломым
директор
директора
директоржо
директоржылан
директорлан
директорын
дириже
дирижер
дис
диск
дискографии
дискотеке
дискурсе
дискуссии
дискым
дисплеи
дисс
диссертации
диссертацию
диссертация
дисциплин
дисциплине
дите
дитрих
дитрихын
дифференциация
дк
длан
длина
для
дмитриев
дмитриева
дмитриевич
дмитриевна
дмитрии
дмучашыштыже
дне
дневник
дневникше
днеи
днепр
днепра
днепропетровск
днестрсер
дни
дно
дню
дня
днях
дніпра
дніпро
до
добавить
добавления
добавляет
добавляется
добавлять
добавьте
доблесть
добро
доброго
доброе
доброта
добрыи
доводы
довольно
догмат
договор
дождик
дождь
док
докан
докл
доклад
докладов
докладше
доклады
докладым
докт
доктор
доктора
докторантурышто
докторлык
докторскую
докукин
документ
документальныи
документальных
документации
документационное
документация
документла
документлаште
документов
документоведение
документоведения
документы
документым
дола
долаже
долг
долгии
долго
долгов
долгова
долгован
долгота
долготы
должен
должна
должно
должность
должностьышто
должны
долл
доллар
доля
долян
дом
дома
домашних
доме
домен
доминго
доминикан
домокош
домра
домрачев
домру
дому
дон
дональд
донецк
доно
дону
дооктябрьского
доп
дополнении
дополнительная
дополнительно
дополнительного
дополнительнои
дополнительные
дополнительныи
дополнительных
допрос
допускает
дор
доров
дорова
дорович
доровна
дорога
дороге
дороги
дорогои
дорык
доска
достаточно
достичь
достоевскии
достои
достопримечательности
доступ
доступа
доступен
доступны
доцент
доцентлан
доцентше
дочь
дошкольного
дошкольныи
дпо
др
дракон
драм
драма
драматизм
драматическии
драматург
драматурга
драматургии
драматургия
драматурглан
драмах
драмаш
драме
драмкружокым
драмтеатрын
драмтеатрыште
драмы
драмыже
драмыжым
драмым
драмыште
драмыштыже
древнеи
дробан
друг
друга
другие
другими
других
другого
другое
другои
другом
дружба
дружбе
дружбы
дружинин
друзеи
друзья
ду
дуб
дублин
дубовая
дубовскии
дубрава
дубровка
дубровскии
дудина
дудинан
дудинои
дул
думаю
думка
думо
думы
думын
дунаи
дур
дут
духи
духовная
духовно
духовнои
духовность
духовныи
душ
душа
душанбе
души
душои
душык
дуэт
дш
дшанче
дшат
дшо
дшор
дшорышто
дшуҥгалтыш
дшым
ды
дыжго
дыжо
дыза
дык
дыкшо
дыкшыдымылык
дыкшым
дым
дымарии
дыме
дымо
дымыж
дымын
дын
дыр
дырамаш
дырамашлан
дырамашым
дырамашын
дыран
дырем
дыретым
дырж
дыржо
дыржым
дыржын
дырла
дырлан
дырна
дыроҥгыр
дыроҥгырым
дырсии
дырта
дырч
дырчан
дырчо
дырым
дырын
дырышт
дысо
дыш
дышо
дышт
дышто
дыштыжо
дышыжо
дэви
дэвид
дэҥер
дюи
дюртюлинскии
дядя
е
евгении
евгения
евгеньевич
евгеньевна
евграф
евдоким
евдокимов
евдокимович
евдокия
евразии
евреи
евро
европа
европеи
европо
европы
европын
европысо
европышто
еврохоккеи
евсеев
евсеева
евсеи
евстафии
евстифеев
евтихии
евфимии
египет
египетскии
египетысе
египетыште
его
егор
егоркино
егорково
егоров
егорова
егорович
егоровна
егоровын
егорьевск
егошин
егошина
егошино
егэ
ед
еда
единая
единиц
единица
единицах
единице
единицы
единого
единоличник
едином
единственныи
единственным
единство
единыи
ее
ежегодник
ежово
ежовское
еи
екатерина
екатеринбург
ексеи
ела
елабуга
елабужского
еласовского
елевферии
елеи
елена
елизавета
елизар
елизарович
елицы
елтек
ельмаков
ем
емельян
емельянов
емельянова
емельянович
емешевского
емилиан
ему
емыж
ен
ендылетова
енисеи
енлан
еноктаев
енциклопедичного
енциклопедія
енын
епархии
епископ
епрем
ер
ера
ераносьян
ерду
ереван
еремеев
еремеи
ерла
ермаков
ермакова
ермолаев
ермучаш
ернур
ернурского
ерошкин
ерсола
еру
ершов
ерызе
ерын
ерысе
ерыште
ес
есенин
есенинын
если
естественно
естествознании
есть
ет
ефим
ефимов
ефимова
ефимович
ефрем
ефремов
ефремова
ефремович
ефремовын
ефросинья
ефруш
ефруша
ефрушу
ефрушын
ец
ече
ечызе
ечым
еш
ешан
ешара
ешаралт
ешаралтеш
ешаралтын
ешарат
ешараш
ешарен
ешареныт
ешартыш
ешартышым
ешарыме
ешем
ешеш
ешлан
ешыж
ешыже
ешыжлан
ешыжым
ешым
ешын
ешыш
ешышт
ешыште
ешыштыже
ешыштым
еще
еҥ
еҥан
еҥат
еҥже
еҥлан
еҥшотлымаш
еҥым
еҥын
еҥыш
ж
жа
жаворонок
жак
жам
жан
жанеи
жанна
жанр
жанра
жанран
жанрлан
жанров
жанровая
жанрово
жанровое
жанровые
жанры
жанрым
жанрын
жанрыште
жап
жапем
жаплан
жаплыме
жапше
жапшым
жапым
жапын
жапысе
жапыштак
жапыштат
жапыште
жапыштыже
жар
жара
жаралан
жаран
жарем
жарже
жаров
жат
жаш
жвак
жваке
жвал
жватаже
жг
жге
жго
жд
же
желание
желательно
железа
железная
железнов
железнова
железнои
желонкин
желонкино
жем
женихи
женская
женского
женскои
женщина
женщины
жеп
жера
жертв
жеш
жибрик
живая
живе
живое
живои
живописец
живопись
животных
живу
жиган
жигули
жизни
жизнь
жираф
житомир
життя
жить
жк
жлобин
жм
жмеринка
жмо
жныи
жо
жозеф
жу
жуковскии
журавлев
журавли
журнал
журнала
журналеш
журналист
журналистик
журналистика
журналистике
журналистики
журналистлан
журналистов
журналистше
журналистын
журналлашке
журналлаште
журналу
журналым
журналын
журналыш
журналыште
жшо
жы
жыктеныт
жылан
жым
жымат
жын
жыныт
жыт
з
за
заболоцкии
заведении
заведениях
заведующии
завершится
завет
зависимости
зависимым
завод
заводскои
заводым
заводын
заводысо
заводыш
заводышто
завтра
завуч
завучлан
загадки
загаи
заглавие
заглавную
заговорах
заговоров
заголовка
заголовками
заголовки
заголовков
заголовком
заголовок
заготовка
загреб
задае
задает
задан
задана
задание
задании
задания
задать
задача
задачи
задачыжым
задачым
задеи
заж
заи
заимствовании
заимствования
заимствованиях
заимствованная
заимствованные
заимствованных
заказ
заказым
закамье
закамья
закарпатье
закон
закона
законова
законодательство
законым
закым
зал
залив
залога
залын
залыште
зальым
заместительже
заметки
заметкыже
заметкыжым
заметкым
замечание
замечания
замечательных
замок
занимался
занятии
заоч
заочная
заочно
заочнои
заочныи
зап
запад
западная
западного
западное
западнои
западном
западныи
записеи
записи
записки
записывается
запись
запланировано
заповедник
заповеднои
заполнении
запорожье
запреты
запятои
заработало
зарегистрированным
зарецких
заречная
заречные
заречныи
зари
зарубежнои
зарубежных
заря
зарядым
заседание
заседании
заслуги
заслуженного
заслуженные
заслуженныи
затем
затен
зауморы
зауралья
захар
захаров
захарова
захарович
захарово
захарята
зачем
заш
защитниках
защитных
защиты
заявки
заявку
заявление
заявлении
заявления
заявок
звании
звания
зве
звезда
звезды
звени
звенигово
звениговскии
звениговского
звениговысо
звено
зверев
зверево
звонких
звуковои
звуковом
звучит
звягель
згар
згарым
згарын
згарыштын
здании
здесь
здочкои
здравствуи
зды
зек
зеландии
зеле
зеленая
зеленеет
зеленогорск
зеленыи
земле
земли
земля
земляк
землякна
землякше
землянкыш
земскии
земскои
земфира
зен
зенворт
зенон
зенштеи
зеркала
зи
зии
зикыл
зил
зима
зимбабве
зимнии
зина
зинаида
зинан
зиновии
зиновьевич
зинь
злоупотребляет
злоупотреблять
злэҥер
змз
знаем
знает
знаете
знаешь
знак
знаков
знаком
знакомства
знаменат
знаменательныи
знаменательных
знаменскии
знаменское
знамя
знание
знании
знания
знаниях
знать
значение
значением
значении
значения
значениями
значениян
значит
знаю
знают
знающих
зо
зовет
зовка
зово
зодиак
зои
зоил
золотая
золотова
золотое
золотои
золотцева
зоно
зоны
зоологии
зоонимом
зоотехниклан
зоотехникше
зорина
зосим
зосима
зотин
зоя
зрения
зрителя
зуево
зы
зыков
зыкова
зырян
зяблицев
и
иаков
ибатов
ибрагимов
ибраев
ива
иван
ивана
ивано
иванов
иванова
иванован
иванович
ивановка
ивановлан
ивановна
иваново
ивановои
ивановскии
ивановым
ивановын
ивансола
ивла
ивр
ивук
иг
иге
игем
игетым
игече
игечым
игечымат
игнаева
игнат
игнатии
игнатьев
игнатьева
игнатьевич
игнатьевские
игнатьевын
игорь
игр
игра
играет
игровои
игры
игылтме
игым
ида
идалык
идалыклан
идалыкше
идалыкын
идалыкысе
идалыкыште
иде
идеи
идентификатор
идентичности
идентичность
идеологии
идет
идея
идти
идым
идымын
идымыште
ие
иерусалим
иеш
ижболдин
иже
ижевск
из
иза
изаже
изаи
изак
изам
изаньга
изарня
изарнян
изаҥа
избежать
избирателя
избр
избранное
избранные
известия
известные
известныи
известняк
изд
издание
издании
издания
изданные
издательскии
издательстве
издательство
издательствыште
издер
иземда
иземден
иземдыме
иземеш
иземме
иземын
изергин
изи
изибаев
изием
изиж
изижат
изилянова
изин
изинек
изинекак
изинур
изирак
изису
изиш
изишак
изложении
измаил
изменении
изменения
изменениях
изменить
измерении
измерения
измир
изначально
изображение
изображением
изображении
изображения
изобразительного
изобразительныи
изобретатель
изобретении
изолятор
израиль
изуремыште
изучение
изучении
изучению
изучения
изэҥер
ии
иисус
иихф
ик
икана
иканаштак
иканаште
иквереш
икгаи
икманаш
икмарда
икмыняр
иконки
икоян
икса
иксанова
иктаж
иктак
иктат
икте
иктеш
иктешла
иктешлаш
иктешлен
иктешлымаш
иктешлымашым
иктешлыме
иктешлыше
икто
иктыже
иктыжым
иктык
иктым
иктын
иктыш
иктышке
иктышт
икшыван
икшыве
икшывыже
икшывылан
икшывым
икшывышт
икшырымын
икымше
икытпал
ил
ила
илалше
иларион
илат
илаш
илдушкина
иле
илем
илемла
илемым
илемын
илемыш
илемыште
илемыштыже
илен
илена
иленна
иленыт
илет
илетскии
илеть
илешъял
или
илибаева
илибаеван
илибаевои
илиева
иликбаев
илиш
илл
илларион
илларионов
илларионович
илле
иллюстрации
илмывер
илна
илометр
илтарман
илыза
илымаш
илымвер
илымверла
илыме
илымек
илымыж
илымыже
илыш
илышат
илышаш
илышгорно
илыше
илышем
илышет
илыши
илышкорно
илышкыл
илышлан
илышна
илышнам
илышыж
илышыже
илышыжым
илышым
илышымат
илышын
илышыш
илышышке
илышышт
илышыштат
илышыште
илышыштыже
илышыштым
ильдемнур
ильин
ильинична
ильинка
ильинскии
ильич
ильича
ильна
ильын
илья
ильяков
ильякова
ильяковын
илюшкино
илян
им
иман
иманаев
име
имеет
имеется
имели
имен
имена
именем
имени
имении
именно
именного
именные
именными
именных
иметь
имею
имеют
ими
имне
имньым
император
империализм
империалист
империи
импортировать
имя
ин
иначе
инвалид
инвестиции
ингуш
ингушетии
индекс
индеш
индешымше
индивидуальность
индии
индоевропысо
индонезии
индуизм
индуизмын
индуист
индустриальныи
индустрии
инженер
инженерлан
инкубаторе
инлаи
инна
инновации
инновационные
инновационных
иннокентии
иногда
инородческии
иностранного
иностранным
иностранных
инспектор
инспекторлан
инспекции
институт
института
институтым
институтын
институтысо
институтыш
институтышко
институтышто
институтыштыжо
инструкторлан
инструкции
инструмент
инструмента
инструментальные
инструментальныи
инструментах
инструментов
инструментом
инструменты
интеграция
интеллигенции
интеллигеции
интервот
интервью
интерес
интересше
интернат
интернатым
интернатыште
интернационал
интернационалист
интернет
интернетыште
интерпретации
интерпретация
интерфеи
интерферентные
интерференция
интонации
интонационные
инфекции
инфинитив
инфинитива
инфокутија
информант
информатике
информации
информационно
информационного
информационныи
информационных
информацию
информация
инфраструктур
иоанн
иоганн
иок
ион
иона
иордании
иосиф
иосифович
ипаи
ипакова
ипатии
ипая
ипполит
ир
ираида
ирак
иран
иранских
иранысе
ираныште
ирга
ирина
иринеи
иркабаев
иркабаевын
ирказа
иркино
иркутск
ирланд
ирландии
ирмарь
ировскии
иры
ирыкша
исаак
исаев
исаевич
исаи
исакаева
исаков
исакович
исанбаев
исанбаева
исанбаевич
исанбаевича
исенеков
исиметов
искаев
искаков
искакова
искандаров
исккон
исключением
искусств
искусства
искусстве
искусственныи
искусство
искусствовед
искусствоведение
искусствоведении
искусствын
ислам
исламгареи
исламов
исландии
исмагилов
исмаил
исп
испан
испании
исповедник
исполком
исполкомжо
исполкомын
исполнилось
исполнитель
исполнительныи
использовал
использован
использована
использование
использованием
использовании
использованию
использования
использовать
использоваться
использует
используется
используи
используются
используя
испр
испытании
исслед
исследование
исследовании
исследования
исследованиях
исследователеи
исследователь
исследовательскии
исследовательских
исследовательскои
ист
исток
истоки
истоков
истории
историк
историко
историков
историческая
исторически
исторические
историческии
исторических
исторического
историческое
историческои
историческом
история
источник
источника
источники
источников
исус
исчезнувших
исюи
ит
италии
итальян
итог
итогам
итоги
иулитта
иф
ифф
их
ихтионимы
ишпаи
иштрикова
июль
июльышто
июля
июнь
июньышто
июня
ия
ият
ияш
ияшак
к
ка
кабак
кабаксола
кабарда
кабель
кабинетым
кава
кавалерже
каван
кавасе
кавату
каваш
кавашке
каваште
кавер
кавказ
кавказыш
кавказыште
кавырля
кавычке
кагаз
кагазлан
кагазлаште
кагазым
кагазыште
кадам
кадиков
кадр
кадров
кадры
кадрым
кадыков
кадыкова
кадыр
кае
каем
каен
каена
каеныт
кает
каеш
каждого
каждои
каждому
каждые
каждыи
кажется
кажне
кажныже
кажнылан
кажнын
кажныштыже
казак
казаков
казакова
казаковка
казаковлан
казаковын
казамат
казаматым
казаматын
казаматыште
казан
казани
казанская
казанскии
казанского
казанское
казанскои
казанцев
казанцева
казанцевын
казань
казаньысе
казах
казахские
казахскии
казахских
казахского
казахскои
казахстан
казахстана
казахстанскои
казахстанын
казахстанысе
казахстаныште
казгуки
казенныи
казиношто
казна
казыро
каи
каир
как
какие
каким
каких
какое
какои
какшамарии
какшан
какшанмучаш
какшар
кал
каласа
каласалтеш
каласалтше
каласалтын
каласаш
каласе
каласен
каласеныт
каласкала
каласкалаш
каласкален
каласкаленыт
каласкалыме
каласыде
каласыман
каласымаш
каласыме
каласынем
каласыш
калат
калаш
калашников
калашникова
калгари
калевала
калевальских
кален
календареи
календарь
календарьым
календарьын
калиев
калии
калинин
калинина
калининград
калинкин
калинов
калифорнии
калмаш
калмиямучаш
калмык
калмыкии
калта
калтак
калтан
калтаса
калтасинскии
калтасинском
калтасы
калуга
калшеҥгел
калыде
калык
калыкат
калыкем
калыккокласе
калыклан
калыкланат
калыкле
калыкмут
калыкмутым
калыкна
калыкнам
калыкнан
калыкпалым
калыкчот
калыкчотшо
калыкше
калыкшым
калыкшын
калыкым
калыкымат
калыкын
калыкыш
калыкыште
калыме
калып
калыше
калькулятор
калягин
кама
камаев
камаз
камалетдинова
камбарка
камвозеш
камвозын
каменная
каменныи
каменскии
камень
камер
камера
камерун
камерыште
камиял
кампании
камскии
камско
камского
камчатка
камчатке
камчатскии
камша
камы
камысыр
камья
кан
кана
канада
канаде
канадын
канадысе
канадыште
канал
каналташ
каналым
каналын
канаш
канд
кандалге
кандаш
кандашияш
кандашле
кандашымше
канде
кандидат
кандидата
кандидатлык
кандидатов
кандидатскую
кандидатуру
кандидаты
кандывуи
кандыра
кандырам
кансыл
кантата
кантон
канторъял
каныме
каныш
канышыш
канышыште
канюшков
канюшкова
кап
капан
капелла
капеллын
капеллыште
капитан
капитон
капка
капкам
капкаорол
капкашке
капкашкыже
капкультур
капкультурын
каплан
капше
капшым
капым
капыште
кар
кара
караго
караев
караи
караидель
каракша
карамас
карамзин
карап
карате
карательныи
карачаево
карачаи
карбюратор
каргаша
карел
карелии
карело
карелофинских
карельскии
карл
карлик
карлыган
кармазин
кармазина
кармазиным
кармазинын
карман
карманым
карме
карпат
карпов
карпова
карпович
карпуш
карт
карта
карташов
карте
картина
картине
картины
картка
карточка
карточке
карточки
карту
карты
картыже
картым
картын
картычке
карш
карыл
карьер
кас
касается
касанаково
касвел
касвелне
касвелныже
касвелыш
касвелыште
каспии
кастене
кастрен
касым
касьян
кат
каталог
катар
катасетум
катастрофа
категори
категории
категорию
категория
категориях
категорија
категорія
каткова
катковои
католик
катыршан
катэгорыя
каф
кафедр
кафедра
кафедре
кафедры
кафедрым
кафедрын
кафедрыште
кафедрыштыже
ках
каче
качели
качества
качестве
качественныи
качество
качествым
качествын
качмаш
качылан
качым
качын
качырынола
каш
кашак
кашта
кашташте
кашташтыже
кая
каят
каяш
каҥаш
каҥашат
каҥашен
каҥашеныт
каҥашыже
каҥашым
каҥашымаш
каҥашыме
каҥашын
кв
квадрат
квадрате
квадратных
квадратын
квалификации
квалификациян
квартал
квартета
квебек
квн
квт
кг
кгб
ке
кевыт
кевытым
кедр
кеи
келге
келгемден
келгын
келгынрак
келгырак
келгыт
келгытже
келгытше
келгышке
келтеи
келша
келшат
келшаш
келше
келшем
келшен
келшеныт
келшык
келшымаш
келшымашым
келшымашышт
келшыме
келшыше
келшышын
келыштаралтын
келыштараш
келыштарен
келыштареныт
келыштарыме
кельмаксола
кем
кемеи
кемерово
кемсола
кен
кенеж
кенежым
кенета
кении
керде
керебеляк
керек
кермыч
кермычым
керт
кертам
кертат
кертде
кертдыме
керте
кертеш
кертмаш
кертме
кертмыж
кертмыжым
кертна
кертшаш
кертше
кертыда
кертыж
кертын
кертына
кертыныт
кертыт
керчь
керылт
керылтын
кестен
кет
кетек
кеч
кечан
кечаш
кече
кечет
кечы
кечывал
кечывалвел
кечывалвелне
кечывалвелныже
кечывалвелыш
кечывалвелыште
кечывалым
кечыгут
кечыж
кечыже
кечыжлан
кечыжым
кечыжын
кечыи
кечыла
кечылаж
кечылан
кечылаште
кечылаштыже
кечым
кечын
кечынак
кечынат
кечынже
кечыныште
кечысе
кечыто
кечыш
кечышогымаш
кечышот
кечышотым
кечышт
кечыште
кечыштыже
кеҥеж
кеҥежлан
кеҥежым
кеҥежымсе
ки
кид
кидетым
кидпалым
кидпаша
кидше
кидшер
кидшым
кидым
кидыш
кидышкыже
кидыште
кидыштыже
кидыштым
киев
киевысе
киевыште
киен
кизнер
кии
кикнур
килемар
килемарскии
килиманджаро
килограмм
километр
километрах
километрже
километрлан
километрторалык
километрым
кильдин
ким
кин
кина
кинг
кингын
кинде
киндым
кинер
кино
киноакте
киноактер
кинокомпании
кином
кинон
кинорежиссе
кинофильм
кинофильмыште
киношто
кипр
киприан
киргизии
киржевож
кирилл
кириллик
кириллице
кириллов
кириллова
кириллович
кирилловича
киров
кирово
кировоград
кировская
кировскои
киселе
киселев
кислицын
кит
кита
китаи
китеж
китиков
китне
китня
кичке
кишине
кишке
кия
кияр
киясово
кият
кияш
киі
кл
кла
клавдии
клавдия
клаи
клан
клапан
кларк
класс
класса
классан
классах
классе
классик
классика
классике
классикше
классификации
классификация
классическии
класслам
класслан
класслаште
классов
классы
классым
классын
классыш
классыште
классышты
классыштыже
кле
клеи
клеменс
кленовая
клешнин
клиент
клим
климат
климентии
климин
клуб
клубым
клубын
клубыш
клубышто
клымаш
клюкин
клюкина
клюкино
ключ
ключе
ключева
ключи
ключников
ключу
клюшко
клюшкым
км
кн
кна
кнага
кнагаже
кнагам
кнагаште
кнатоб
книг
книга
книгагудо
книгаж
книгажат
книгаже
книгажым
книгалан
книгалаште
книгалаштыже
книгам
книган
книгапо
книгах
книгаш
книгашке
книгашкыже
книгаште
книгаштыже
книгаштым
книге
книги
книгои
книгу
книжное
кнопку
кныш
князь
ко
ков
кова
коваже
коваште
коваштым
коведяева
ковель
ковешникова
ково
ковскии
ковышта
когарш
когда
кого
когои
когосола
когыльым
когынек
код
кода
кодам
кодат
кодаш
кодекса
кодем
коден
коденыт
кодеш
кодировко
кодлымаш
кодо
кодов
кодом
кодшо
кодым
кодымо
кодын
кодыныт
кодыт
кодыш
кодышым
коеш
кож
кожаев
кожвож
кожевников
кожер
кожла
кожлаер
кожланур
кожласола
кожлаял
кожмак
кожъял
козаш
козиково
козиковскии
козлов
козловского
козлоял
козмодемьянск
козырев
козьмодемьянск
козьмодемьянскии
козьмодемьянскысе
козьмодемьянскыште
кои
кок
кокияш
кокла
коклала
коклан
кокласе
кокласола
коклаш
коклашке
коклаштат
коклаште
коклаштышт
кокмутан
коковихин
коктын
коктынат
кокша
кокшага
кокшаге
кокшаи
кокшамары
кокшан
кокшанур
кокшародо
кокшы
кокымше
кокымшо
кокыт
кокытан
кокыте
кол
кола
колам
колат
колаш
колен
коленыт
колеса
колеш
колжо
количества
количестве
количество
коллеги
коллегии
коллегия
колледж
колледжым
колледжын
колледжыш
колледжыште
коллект
коллектив
коллективизации
коллективистов
коллективная
коллективныи
коллективов
коллективше
коллективым
коллективыште
коллекции
колмо
колмыж
колмым
коло
колонии
колонка
колонками
колонки
колонок
колотка
колоткам
колт
колта
колталтын
колтат
колташ
колтем
колтен
колтена
колтеныт
колто
колтылшо
колтылын
колтылыныт
колтымаш
колтымаште
колтымо
колтыш
колтышо
колтышт
колтышым
колумб
колумба
колумбии
колумбын
колхоз
колхоза
колхозная
колхозник
колхозныи
колхозым
колхозын
колхозысо
колхозыш
колхозышко
колхозышто
колчак
колшо
колызо
колым
колымаш
колымеке
колымекше
колымешкыже
колымо
колымшо
колымыж
колымыжо
колын
колына
колынам
колыш
колышо
колышт
колышташ
колыштса
колыштшо
колыштын
колыштыныт
колышым
колышын
кольцов
коля
колям
колянур
ком
кома
коман
команда
команде
командир
командирже
командирлан
командирын
командовании
командои
команды
командыже
командылан
командым
командын
командысе
командыш
командышкыж
командыште
команмелна
комаров
комары
комбаи
комбинат
комбинатым
комбинатыште
комбинации
комбо
комдык
комедии
комедия
комжо
коми
комикс
комиксым
комиксын
комиксыште
комино
комиссар
комиссариат
комиссии
комиссионкышто
комитет
комитета
комитетым
комитетын
комитетыште
комментариев
комментарии
коммерческии
коммуна
коммунар
коммунизм
коммуникативная
коммуникативные
коммуникативных
коммуникации
коммуникация
коммунист
коммунистическии
коммунышто
компакт
компании
компаративистики
компартии
компас
компаса
компетентности
компетенции
комплекс
комплексного
комплексым
композит
композитор
композитора
композиторов
композиторы
композиторын
композиты
композиции
композиционные
композиция
компонент
компонента
компонентами
компонентов
компонентом
компоненты
компучыр
компьютер
компьютерлан
компьютерныи
компьютерных
компьютерым
компьютерын
компьютерыште
комсомол
комсомола
комсомолец
комсомоллан
комсомолын
комсомолыш
комсомольск
комсомольскии
комсорг
комсоргшо
кому
комунист
комунна
комын
комышто
кон
конаков
конакова
конаковым
конаковын
конвеи
конганур
конго
конгресс
конгресса
конгресслан
конгресслаште
конгрессын
конда
кондат
кондаш
конден
конденыт
кондо
кондратьев
кондратьевич
кондрач
кондымо
кондышо
конец
конечно
конимия
конимов
конимы
конкурс
конкурса
конкурсе
конкурслаште
конкурсым
конкурсын
конкурсышто
коновалова
консенсус
консенсуса
консерватории
константин
константина
константинов
константинова
константинович
константиновна
константинопольскии
конституции
конструктор
конструкции
конструкция
конструкциями
конструкциях
консультант
консультации
контакт
контактов
контактологии
контакты
контеи
контекст
контексте
континент
контрактым
контраст
контроль
контрольно
контрольные
контрреволюционныи
конур
конус
конф
конференции
конференция
конференциях
конфликт
конфликта
конфликты
конца
конце
концепт
концепта
концептосфер
концептосфера
концептуальные
концепты
концепции
концепция
концерт
концертина
концертлаште
концертмеи
концертныи
концертше
концертым
концертын
концертыште
конча
кончен
кончерже
кончо
кончымаш
кончыш
конышев
коньки
коньким
кооператив
кооперации
координат
координаты
копенгаген
копии
копирования
копшаҥге
копылова
кор
кора
корабле
корабль
корабльже
корак
кораксола
коралл
корамас
кораҥ
кораҥаш
кораҥдат
кораҥдаш
кораҥден
кораҥденыт
кораҥдыме
кораҥеш
кораҥын
кордон
кордульскии
кореи
корем
корембал
коремыште
коренева
коренных
кореш
кори
кории
кориш
корка
коркатово
корнан
корнат
корнем
корни
корнилов
корно
корны
корнывож
корнывожышто
корныеҥ
корныеҥет
корныж
корныжат
корныжо
корныжым
корнылаште
корным
корнын
корнына
корнысо
корныш
корнышко
корнышкыжо
корнышто
корныштыжо
корныштым
коробеи
короле
королев
королева
королевстве
королевствыште
короленко
король
корольжо
корольын
коронации
коростели
коростень
короткие
короткии
короткино
коротков
коротни
корпоративность
корпорации
корпус
корпусын
корректно
корректор
корректорлан
корреспондент
корреспондентше
корреспонденции
коррозии
коршта
корштен
коршун
коршунов
коршунова
коршуновын
коршуны
коряков
коряково
кос
коса
косараш
косвенные
косма
косметике
космическии
космодамианское
космонавт
космос
космосыш
косолап
косолапово
косолоп
косоротов
косоротова
коста
костатеев
кости
кострова
кострома
костромин
кость
костюм
костя
кот
котеновскии
которая
которого
которое
которои
котором
которую
которые
которыи
которым
которыми
которых
коч
коча
кочаем
кочаже
кочаи
кочам
кочан
кочергин
кочкам
кочкаш
кочкеш
кочкын
кочкыныт
кочкыт
кочкыш
кочкышлан
кочкышым
кочмо
кочо
кочующие
кочшо
кочыжым
кочыр
кошар
кошарге
кошартен
кошка
кошкина
кошпаево
кошпаи
кошт
кошташ
коштеден
коштеш
коштмо
коштмыж
коштмыжо
коштмым
коштшо
коштын
коштына
коштыныт
коштыт
коя
коям
кояш
коҥга
коҥганур
коҥгаш
коҥго
кпале
кпикс
кпсс
кравцов
крае
краев
краевед
краеведение
краеведении
краеведческии
краеведческои
краево
краи
красная
красноармеи
краснов
краснова
красноволжского
красногорка
красногорск
красногорскии
краснодар
красное
краснокам
краснокамскии
краснококшаи
краснооктябрьскии
краснопе
красноперов
краснорецкии
красноуфимск
красноуфимскии
красноярск
красноярскысе
красные
красныи
красовка
красота
кратер
краткая
краткие
краткии
крачже
краю
края
кргори
кредал
кредалаш
кредалеш
кредалмаш
кредалмаште
кредалмашыште
кредалме
кредалмыжым
кредалше
кредалын
кредалыныт
кредит
креи
крем
кременского
кремленки
кремль
крепость
кресава
кресаньык
кресаньыклан
кресаньыкым
кресаньыкын
креста
кресты
крестьян
крестьянская
крестьянскои
крешене
крешын
кривои
криминал
крисам
кристалл
кристиан
кристина
кристос
крит
критерии
критик
критика
критике
критикым
критикын
критическии
кровь
крокет
кролик
кроме
кронуш
кропотова
кросс
кру
круг
кружок
кружокым
кружокын
кружокыш
кружокышто
крупин
крупино
крупнеи
крупныи
крупных
крупняков
крупская
крупскои
крутои
крылов
крылова
крылья
крым
крымыш
крымыште
крюково
кс
ксавыш
ксар
ксения
ксенофонт
ксенья
ксо
ксола
кстати
кта
ктат
кташ
ктен
ктеныт
кто
кты
ктымаш
ктымо
ку
куала
куан
куана
куандара
куандарен
куандарыше
куане
куанен
куанже
куанле
куаным
куанымаш
куат
куатан
куатле
куатше
куатшым
куатым
куб
куба
кубань
кубертен
кубок
кубокшо
кубокым
кубіи
кува
куваж
куваже
куважлан
кувам
куван
кувар
куват
кувеи
кугарня
кугарнян
кугезе
кугезына
кугезышт
кугемдаш
кугемден
кугемдыме
кугемеш
кугемын
кугенер
кугеръял
кугече
кугечылан
кугешна
кугешнен
кугила
кугилансола
кугланур
кугорно
кугорнымбал
кугорнышко
кугорнышто
кугу
кугужаныш
кугужат
кугун
кугунур
кугурак
кугуракше
кугуракым
кугурем
кугусола
кугушень
кугушу
кугывеҥе
кугыеҥ
кугыжа
кугыжалан
кугыжам
кугыжан
кугыжаныш
кугыжанышым
кугыжанышын
кугыжанышыш
кугыжанышыште
кугыза
кугызалан
кугызам
кугызан
кугырак
кугыт
кугытан
кугытшо
кугытшым
кугытым
кугыял
кугэҥер
куд
куда
кудал
кудалаш
кудалеш
кудалме
кудалта
кудалташ
кудалте
кудалтен
кудалтеныт
кудалтыме
кудалше
кудалын
кудалыт
кудалышт
кудалышташ
кудалыштеш
кудалыштмаш
кудалыштын
кудалыштыт
кудаш
кудо
кудрявцев
кудрявцева
кудрявцевои
кудряшов
кудряшова
кудывече
кудывечыш
кудывечыште
кудыж
кудыжлан
кудыжо
кудыжым
кудыжын
кудым
кудымкар
кудымше
кудымшо
кудын
кудышт
куж
кужемдыме
куженер
куженерскии
кужер
кужеры
кужинскии
кужмара
кужмарии
кужнур
кужолык
кужу
кужун
кужут
кужутан
кужутшо
кужыт
кужытан
кужытшо
кужытым
кужэҥер
кузе
кузерак
кузиманза
кузнец
кузнецов
кузнецова
кузнецово
кузнецовского
кузнецовское
кузнеч
кузов
кузован
кузьма
кузьмансола
кузьмин
кузьминых
кузьмич
куи
кук
кукарка
куклин
куклина
кукмарии
кукмарь
кукмор
кукморского
кукморское
кукнур
куку
кукушка
кукшарскии
кукшо
кукшын
кукшэҥер
кул
кулак
кулаково
кулалаева
кулеш
кулжо
куликал
куликалы
куликов
кульбаева
культ
культовые
культур
культура
культуран
культуре
культурная
культурно
культурного
культурное
культурнои
культурные
культурныи
культуролог
культурологии
культурология
культуры
культурым
культурын
кульчубаи
кульша
кульшетов
кум
кума
кумалаш
кумалеш
кумалмаш
кумалме
кумалтыш
кумалтышым
кумалтышыш
кумалше
кумалын
кумалыныт
кумалыт
кумда
кумдан
кумданрак
кумдарак
кумдык
кумдыкан
кумдыкеш
кумдыкшо
кумдыкым
кумдыкысо
кумдыкышто
кумдыкыштыжо
кумен
кумло
кумлук
кумлукан
кумлукын
кумлымшо
кумужъял
кумшо
кумшыжо
кумъя
кумыж
кумык
кумыл
кумылан
кумылаҥда
кумылаҥден
кумылаҥденыт
кумылаҥдыше
кумылаҥеш
кумылаҥын
кумылем
кумылет
кумылжо
кумылжым
кумылзак
кумылым
кумылын
кумылышт
кумылыштым
кумымшо
кумыт
кумытын
кунам
кунамат
кунар
кунгур
кундем
кундемже
кундемла
кундемлан
кундемласе
кундемлаштат
кундемлаште
кундемнан
кундемои
кундемым
кундемын
кундемысе
кундемысо
кундемыш
кундемышке
кундемышкыже
кундемыште
кундемыштыже
кундемыштына
кундуштур
кундыш
кундышское
кундышту
куп
купаи
купала
купан
купеч
куплонга
куплоҥго
купран
купсола
купсольцева
купта
купто
купту
куптур
купшу
купышто
куракино
курал
куралаш
куралше
курбатов
курган
куржам
куржаш
куржеш
куржмаш
куржталаш
куржталмаш
куржталме
куржталын
куржын
куржыныт
куржыт
курика
куркумбал
курлак
курмангазы
курмызак
курныж
курочкин
курс
курса
курск
курсов
курсы
курсым
курсын
курсыш
курсышто
курсыштыжо
куртньо
курчак
куршаков
куршамбал
курык
курыкан
курыки
курыкла
курыкмарии
курыкмарла
курыкпомыш
курыкту
курыку
курыкым
курыкын
курыкыш
курыкышто
курым
курымаш
курымашлык
курымеш
курымешлан
курымжо
курымла
курымлан
курымласе
курымлаште
курымын
курымысо
курымыште
курымышто
курьер
кус
кусара
кусаралт
кусаралтеш
кусаралтын
кусаралтыныт
кусарат
кусараш
кусарен
кусареныт
кусарымаш
кусарыме
кусарымыж
кусарыше
кускин
кусна
куснат
куснаш
куснен
кусненыт
куснымаш
куснымо
куснышо
кусто
кутасова
кутко
куторов
кутузов
кутыр
кутыра
кутырат
кутыраш
кутырен
кутыреныт
кутыртыш
кутырымаш
кутырымаштышт
кутырымо
кутырышо
куфтино
куча
кучалтеш
кучалтын
кучат
кучаш
кучашлан
кучедалаш
кучедалеш
кучедалмаш
кучедалмашке
кучедалмаште
кучедалмашын
кучедалмашыште
кучедалме
кучедалше
кучедалын
кучедалыныт
кучем
кучемым
кучемын
кучен
кученыт
кучка
кучко
кучо
кучук
кучыза
кучык
кучыкта
кучыкталтын
кучыктат
кучыктен
кучыктеныт
кучыктымо
кучылт
кучылта
кучылталт
кучылталтеш
кучылталтме
кучылталтмышт
кучылталтше
кучылталтын
кучылталтыныт
кучылталтыт
кучылтат
кучылташ
кучылтеш
кучылтман
кучылтмаш
кучылтмо
кучылтын
кучылтыныт
кучылтыт
кучымаш
кучымо
кучыш
кучышаш
кучышо
куш
кушан
кушерга
кушеч
кушечын
кушкаш
кушкашыже
кушкеш
кушко
кушкыжмо
кушкыжын
кушкыл
кушкыллан
кушкылым
кушкылын
кушкын
кушкыныт
кушкыт
кушмаш
кушмо
кушмыжым
кушмым
кушна
кушнэҥер
кушня
кушта
куштат
кушташ
куштен
куштеныт
кушто
куштыжо
куштылго
куштылгын
куштылгырак
куштылемдаш
куштымаш
куштымаште
куштымашым
куштымашын
куштымо
куштышо
кушшаш
кушшо
кушыл
куэ
куэже
куэм
куэр
куэри
куэрла
куэрлаште
куэрсола
куэръял
куэш
куяр
куярское
кха
кш
кшака
кшан
кшат
кшер
кшерме
кшо
кшотар
кшу
кшы
кшым
кшын
кшыт
кшытан
кшытшо
кшытым
кшытысо
кшытыш
кшытышт
кшытышто
кы
кыдал
кыдалаш
кыдалне
кыдежан
кыж
кыжо
кызыл
кызыт
кызытат
кызытеш
кызытсе
кыи
кыл
кылан
кылвер
кылверым
кылда
кылдалт
кылдалтеш
кылдалтмышт
кылдалтше
кылдалтын
кылдалтыныт
кылдаш
кылден
кылдыш
кылем
кылже
кылжым
кылкучем
кылла
кылме
кылмен
кылмыште
кылушык
кылым
кылын
кыльыкал
кым
кын
кына
кыне
кынел
кынелаш
кынелеш
кынелза
кынелташ
кынелтен
кынелше
кынелын
кынелыныт
кыра
кыраш
кыргызстан
кырен
кыреныт
кыржавож
кырла
кырлам
кырлан
кырля
кырлям
кырлян
кырманаи
кырмегесола
кыртмен
кырык
кырыме
кырымым
кычал
кычалам
кычалаш
кычалеш
кычалман
кычалмаш
кычалме
кычалше
кычалын
кычалыныт
кычкыра
кычкырал
кычкыралын
кычкыраш
кычкырен
кыш
кыша
кышаже
кышажым
кышал
кышам
кышка
кышкар
кышкарым
кышкат
кышкен
кышкеныт
кышт
кышто
кюшнур
л
ла
лаборатории
лаврасола
лавраэҥер
лаврентии
лаврентьев
лаврентьева
лавыра
лавырам
лавыран
лагерьыш
лагерьыште
лад
лада
ладони
лаж
лажду
лаже
лажмарии
лажмучаш
лажъял
лажым
лазарь
лаи
лак
лакатегории
лаксын
лалан
лалта
лалташ
лалтен
лалтеныт
лалтеш
лалтше
лалтын
лалтыныт
лалтыт
лам
лампе
лампочки
лан
ланат
ландшафте
ландыш
ланже
ланка
ланов
лаос
лап
лапатасола
лапка
лапкасола
лапсола
лапта
лаптев
лаптево
лаптин
лапчык
лапчын
лариса
лас
ласе
ласка
ласкан
ласточкин
ласточкина
лат
лата
латансола
латаш
латвизымше
латвии
латвич
латен
латеныт
латик
латикымше
латин
латиндеш
латиндешымше
латинская
латкандаш
латкандашымше
латкок
латкокымшо
латкуд
латкум
латкумшо
латныл
латшым
латымаш
латыме
латымыж
латымыже
латыш
латышат
латыше
латышыжат
латышыже
латышыжлан
латышыжланат
латышыжын
латышылан
латышыланат
латышын
лауреат
лауреата
лауреатше
лауреаты
лач
лачак
лаш
лашке
лашманов
лашт
лаштак
лаштат
лаште
лаштыже
лаштык
лаштыкше
лаштыкым
лаштыкын
лаштыкыш
лаштыкыште
лаштым
лаштышт
лдо
ле
лебедев
лебедева
лебедево
лебедевын
лебеди
лебедь
лебляк
лебяжье
лев
леве
леведеш
леведыш
левинцы
левои
левонтина
левыи
легенд
легенда
легенде
легенды
легендым
легковои
легренци
леду
лезвии
леи
лек
лекаи
лекла
леклалтше
леклалтын
леклаш
леклем
леклен
леклыме
лекман
лекмаш
лекмашым
лекме
лекмек
лекмеке
лекмекыже
лекмеш
лекмыж
лекмыже
лекмыжым
лекмым
лекна
лексика
лексике
лексики
лексико
лексикографии
лексикография
лексикологии
лексикология
лексическая
лексические
лексическии
лексических
лексического
лектам
лектат
лекташ
лекте
лектеден
лектеденыт
лектеш
лектор
лектым
лектын
лектыныт
лектыт
лектыш
лектышан
лектышлан
лектышыж
лектышыже
лектышыжым
лектышым
лекции
лекшаш
лекше
лекшылан
лекым
лем
лемде
лемым
лемыште
лен
лена
ленин
ленина
ленинград
ленинградскии
ленинградым
ленинградысе
ленинградыште
ленине
ленинскии
ленинын
леныт
леон
леонардо
леонид
леонида
леонидович
леонидовна
леонтии
леонтьев
леонтьевич
лепе
лер
лермонтовын
лес
леса
лесами
лесков
лесная
лесника
лесникын
лесничестве
лесничество
лесничии
леснои
лесные
лесов
лесола
лесоучасток
лесу
лет
летие
летию
летия
летник
летняя
лето
летопись
летчик
леухин
леш
лешак
лешан
лешии
лешлан
лешлык
лешлыкше
лешлыкшым
леҥежым
леҥер
ли
либо
либретто
либреттом
лив
ливан
ливии
лиге
лидерже
лидерства
лидия
лиды
лидывуи
лие
лиеда
лиеден
лиеш
лиза
лии
лилия
лима
лин
лингвист
лингвистика
лингвистике
лингвистики
лингвистическая
лингвистические
лингвистическии
лингвистических
лингвистического
лингвистическое
лингвистическои
лингвистов
лингвисты
лингвокультурологии
лингвокультурологические
лингвокультурологическии
лингвостилистическая
лингвостилистические
линеи
линии
линия
линне
лионель
липатов
липецк
липовка
липша
лирик
лирика
лирике
лирики
лирико
лирикыже
лирикыште
лирич
лирическии
лирического
лиро
лист
листа
листы
листья
лит
литва
литвасе
литваште
литвиненко
литератор
литератур
литература
литературами
литературах
литературе
литературная
литературно
литературного
литературном
литературные
литературныи
литературных
литературовед
литературоведение
литературоведении
литературоведения
литературоведческии
литературоведы
литературы
литературым
литературын
литературыш
литературышт
литературышто
литр
лиц
лица
лицаже
лицан
лицах
лицаште
лицаштыже
лицевая
лицеи
лицензии
личная
лично
личнои
личности
личность
личные
личныи
личных
лишан
лишем
лишемден
лишемеш
лишемын
лишемыт
лишению
лишить
лишке
лишкырак
лишне
лишыл
лишь
лиям
лият
лияш
лияшлан
лияшыже
лка
лкаже
лкажым
лкажын
лкам
лкан
лкаш
лкашке
лкашкыже
лкаште
лкаштыже
лкина
лко
лкыла
лкын
лкысо
лкыш
лкышто
лм
лме
лмо
лмы
лмым
лно
лны
лнырак
ло
лобанов
лов
лова
лович
ловка
ловна
лово
ловскии
ловын
логал
логалаш
логале
логалеш
логалме
логалше
логалын
логалыныт
логалыт
логар
логик
логике
логин
логинов
логинова
логинович
лого
логотип
логотипше
логы
ложашым
лои
лок
локальных
локама
лом
ломбенур
ломберскии
ломбо
ломбы
ломбэҥер
ломоносов
лон
лонганер
лондон
лондонышто
лончо
лончылаш
лончылен
лончыленыт
лончылымаш
лончылымо
лончын
лончыш
лончышто
лоп
лопка
лопкыт
лопкытшо
лопсола
лопъял
лор
лос
лоскутов
лоскутово
лот
лоуэлл
лоч
лочо
лоҥгаш
лоҥгаште
лпер
лпо
лрт
лсола
лта
лтал
лталаш
лталеш
лталтеш
лталтше
лталтын
лталын
лтат
лташ
лтен
лтеныт
лтеш
лтымо
лтын
лу
луан
луг
луга
луганск
луговая
лугово
лугового
луговои
луговом
луговомарии
луговые
луговых
лугомар
лугыч
луд
лудалтеш
лудаш
лудеш
лудмаш
лудмо
лудо
лудшаш
лудшашлык
лудшо
лудшылан
лудшым
лудшын
лудым
лудын
лудына
лудынам
лудыныт
лудыт
лудыш
лужалу
лужбеляк
лузгинов
луи
лук
лука
лукан
луки
лукмаш
лукмаште
лукмо
лукмылан
луков
лукреция
лукталтын
лукталтындеревня
лукташ
луктеден
луктеш
луктын
луктыныт
луктыт
лукшо
лукын
лукыш
лукышто
лукьянов
лум
луман
лумарии
лумеш
лумжо
луму
лумшо
лумым
лумышто
луна
луначарскии
лунныи
луппов
лупс
лупш
луутонен
лучко
лучо
лучше
лучшии
лучших
лушкыдо
лушмара
луымшо
лшо
лы
лыб
лыве
лывырге
лыге
лыде
лыдыш
лыдышвла
лыж
лыжга
лыжган
лык
лыкан
лыкшы
лыкын
лыкышт
лыл
лыли
лылсола
лылту
лылурлык
лым
лымаж
лыманат
лымаш
лымашлам
лымашлаште
лымашлаштыже
лымаште
лымаштыже
лымашыже
лымашыжым
лымашым
лымашымат
лымашын
лымашыште
лымашыштыже
лыме
лымо
лымыж
лымыжо
лымыжым
лымым
лымышт
лын
лыпландарен
лысъял
лыт
лыткин
лыткина
лыш
лышан
лышаш
лыше
лышеш
лышо
лышт
лышташ
лышташан
лышташыже
лышыж
лышыжо
лышым
лыҥ
ль
львов
львович
льму
льнозавод
льо
льпан
лэи
лэҥер
люба
любви
любимая
любимов
любимово
любить
люблю
любовь
любовью
любое
любои
любом
люда
людвиг
людеи
люди
людик
людмила
людьми
людях
люкс
люксембург
люнда
люперсола
люр
лютеран
ля
ляждур
ляжмарь
м
ма
маарьямаа
мавзолеи
маврикии
магадан
магистр
магнит
мадагаскар
мадагаскарын
мадар
мадарскии
мадары
мадонна
мадрид
маи
мак
макар
макарии
макарля
макаров
макарова
макарово
макарсола
макарсолан
макартук
македон
маккавеи
маккартни
маков
макс
макси
максим
максимальное
максимилиан
максимов
максимович
мала
малаи
малат
малаш
малая
мале
мален
маленькии
маленькои
мали
малика
маликеева
малинин
малинина
малинова
малиновка
малиновскии
малмыж
малмыжского
малова
малое
малои
малочисленных
малтыме
малые
малыи
малымаш
малыме
малых
малыше
малышев
мальта
мальцев
мальцева
мама
мамаев
мамаева
мамаево
мамаи
мамич
мамсинер
мамут
мамуткин
мамык
мамыч
ман
манаева
манак
маналтеш
маналтын
маналтыт
манам
манаш
манашъял
мангуст
мандир
мане
манеш
манме
манмыжла
манмыла
манмым
манси
мансии
мантуи
манын
манына
маныныт
маныт
маньыч
мао
мар
марат
марафон
маргарита
маргиз
маргосиздат
маргту
маргу
мардан
мардеж
мардежан
мардежлан
марджани
маре
мари
марианна
маригражданстрои
мариец
марии
марина
маринан
марисола
марисолан
мария
мариял
марк
маркан
марке
маркелл
маркелов
маркелово
маркеловын
марков
маркович
марково
марковскии
маркс
марку
маркын
марла
марлан
марлаш
марлашке
марлаҥден
марлен
марленын
марнетын
марнии
марниияли
маробиздат
марокко
марпа
марсель
март
марта
марте
мартеат
мартин
мартышкино
мартыште
марфа
марчелло
марченкова
марш
маршал
маршан
маршрут
мары
марын
марышев
марьин
марьино
марья
маска
маскам
масканур
маскасола
маске
маскиял
маслихин
маслов
массачусетс
массовои
массовыи
масср
мастар
мастарже
мастарлык
мастарлыкше
мастарлыкшым
мастарлыкым
мастарлыкыштым
мастарын
мастацтва
мастер
мастера
мастерже
мастерлан
мастерскои
мастерства
масштаб
масштаба
мат
матародо
матвеев
матвеева
матвеевич
матвеевича
матвеи
матвуи
математик
математика
математике
математикым
матер
матери
материал
материала
материалам
материалах
материале
материалже
материалжым
материалов
материалы
материалым
материальная
материальныи
материи
материк
матеріалів
матрице
матрона
матрос
матросова
матч
матчым
матчыште
мать
матюков
матюковскии
матюковского
мафии
махачкала
махашиваратри
маш
маша
машин
машина
машиналан
машинам
машинан
маштак
маште
машым
маюк
мая
маяк
маяковскии
маҥден
маҥеш
маҥше
маҥын
мбак
мбаке
мбакем
мбакыже
мбал
мбалан
мбалне
мбалныже
мбалсе
мбач
мбачын
мбел
мбелем
мбэ
мвд
мгече
мгечыж
мгечыжлан
мгечыжым
мгечышт
мгечыштым
мгновенье
мгпи
мгу
мгц
мда
мдалтеш
мдалтын
мдат
мдаш
мден
мдена
мденыт
мдылтыш
мдымаш
мдымо
ме
меат
мед
медалеи
медаль
медальже
медальжеэлектронныи
медальи
медальписатели
медальым
медальэлектронныи
медалью
медведев
медведево
медведевскии
медведевского
медведевысе
медеи
медиа
медик
медикова
мединститутым
медицин
медицина
медицине
медьын
медяков
меж
межа
межвуз
межвузовскии
межвузовскои
межд
междисциплинарнои
междометии
между
междунар
международная
международного
международнои
международном
международные
международныи
международным
международных
междуречье
междуречья
межкультурнои
межкультурных
межнациональных
межрег
межрегион
межрегиональная
межрегиональнои
межрегиональныи
межъязыковых
межым
межэтнические
меи
мек
меке
мексика
мексике
мелковскии
мелна
мелнам
мелодии
мелодия
мелын
мельбурн
мельница
мельнице
мельсэ
мем
мемнам
мемнан
мемориал
мемуар
менделеев
менделеевск
менделеевын
мендиаров
мендияров
менеджмент
менеджмента
менее
мензела
менлыш
меню
меня
менязовут
мер
мераҥ
мераҥсола
мере
меридиан
меридиана
меркурии
меркуши
мероприятии
мероприятиях
мерым
мерыште
меря
мерян
мерянскии
мессенджер
месси
места
местам
месте
местного
местное
местности
местныи
место
месту
месяц
месяца
месяцев
мет
мета
метакатегории
металл
метафора
мете
метеорит
метки
метод
метода
методик
методика
методике
методики
методикым
методист
методиста
методистлан
методические
методическии
методическое
методологии
методы
метр
метрах
метри
метрии
метро
метров
метром
метрополитен
метрополитена
метротрам
метрым
метрыш
метсола
мефодии
механизатор
механизаторжо
механизм
механик
механикле
механическии
мехико
меч
мече
мечта
мечым
меш
мешак
мешыже
меҥ
меҥге
меҥгым
мж
мжат
мжо
мжылан
мжым
мжымат
ми
мием
миен
миеныт
мии
микаи
микал
микале
микеланжело
микита
микишкин
миклаи
микола
миколаи
миколи
микрораи
микросинтаксис
микрофон
микряк
микряковского
милан
милиции
милиция
миллиард
миллион
миллионер
миля
мин
мина
минданао
минеев
минерал
мини
минимум
министерства
министерстве
министерство
министерством
министерствыже
министерствыжын
министерствын
министерствышке
министерствыште
министр
министрже
министров
министрын
миннуллин
минск
минут
минутлан
минуты
минутышто
мио
мир
мира
мире
мировое
мировоззрение
мировоззрении
мировои
мирон
миронов
миссии
миссионер
миссионерскии
миссисипи
митрисола
митрофан
митрофанович
митькин
митяи
миф
мифологии
мифологические
мифология
мифы
миха
михаи
михаил
михеев
мичи
мичу
мичун
мичурин
мичуш
миша
мишкан
мишкансола
мишкино
мишкинскии
мишкинских
мишкинского
мишкинском
мия
мияш
мл
младшии
млан
мланде
мландеи
мландем
мландепокшел
мландеу
мландеш
мланду
мландыже
мландым
мландын
мландысе
мландыш
мландышке
мландыште
мландыштыже
млечныи
млн
мло
млрд
млы
мм
ммз
мммм
ммут
ммутым
ммутын
мна
мне
мнение
мнением
мнения
многие
многих
много
многоборьеште
многообразие
многоязычия
множественного
множественности
множественные
мнои
мо
мобил
мог
могаи
могиле
могилів
могли
могу
могут
могыр
могыран
могыржо
могыржым
могыркыжо
могырно
могырым
могырыш
могырышто
могырыштыжо
мод
модальности
модальность
модальные
модаш
модели
модель
модельже
модельым
модельын
модернизации
модернизация
модернизм
модеш
модификации
модмаш
модмашлан
модмашште
модмашым
модмашын
модмашыште
модмо
модмыж
модмыжлан
модмым
модо
модуль
модуля
модшо
модшыжо
модын
модыныт
модыт
модыш
модышым
мое
моего
моеи
моему
можга
может
можете
можешь
можно
мозамбик
мои
моисеев
моисеева
моисеево
моисеи
мокеев
мокеева
моктен
моктеныт
моктымо
мокш
мокша
мокшанского
мол
моламас
молан
молат
молгунам
молгунамсе
молдавии
молдова
молдово
молитв
молитвах
молитве
молитвы
молния
моло
молодая
молоде
молодеж
молодежи
молодежного
молодежнои
молодежныи
молодежь
молодого
молодои
молодости
молодость
молодца
молодцов
молодые
молодых
молотов
молыжо
молыжым
молылан
молым
молымат
молын
молынат
молышт
мом
момент
мон
мона
монако
монар
монастырь
монах
монгол
монголии
монда
мондалт
мондалтдыме
мондалтше
мондалтын
мондаш
монден
мондо
монитор
мониторинга
моногр
монографии
монографию
монография
монорельс
монреаль
монумент
монча
мончам
мончаш
мончашке
мончаште
монь
морд
мордва
мордов
мордовии
мордовских
мордовского
море
мореи
мориц
морки
моркинскии
моркинско
моркинского
морко
моркысо
моркышто
моркыял
мороз
морозов
морфемики
морфемы
морфологии
морфологическая
морфологические
морфологическии
морфологических
морфологическое
морфологическои
морфология
моря
моряк
мосара
мосино
моск
москва
москвасе
москваш
москвашке
москваште
москве
москвина
москвы
моско
московскии
московского
московскои
моском
москон
москосо
москош
москошко
москошто
мосолов
мост
мосунов
мосунова
мотивам
мотивы
моткоч
моткочак
мотор
моторем
моторжо
моторлык
моторлыкшо
моторлыкшым
моторлыкым
моторын
мотоцикл
моцарт
мочаев
мочалище
мошкин
мошта
мошташ
моштем
моштен
мошто
моштыдымо
моштыман
моштымаш
моштымашыжым
моштымо
моштымыжо
моштымыжым
моштышо
мощеи
моя
мпик
мпикс
мрамор
мро
мс
мсоп
мсср
мстислав
мтс
мтф
мтюз
му
муат
муаш
мудреч
мужед
мужедме
мужедыныт
мужыр
мужыран
мужырын
муз
муза
музгиз
музеи
музея
музурова
музык
музыка
музыкальная
музыкально
музыкального
музыкальное
музыкальнои
музыкальном
музыкальную
музыкальные
музыкальныи
музыкальных
музыкант
музыкантов
музыканты
музыканче
музыке
музыки
музыклан
музыковед
музыковеды
музыкои
музыкым
муи
муканаи
мультурок
мультфильм
мультфильмым
мумарин
мумбаи
мумо
мунамарь
мундыра
муниципал
муниципального
муниципальное
муниципальныи
муниципальным
муниципальных
муно
мунчалташ
мунчалтен
мунчалтеныт
мунчалтыме
муныжо
муныжым
муным
муо
муп
мур
мура
муравье
муравьев
муравьева
муралта
муралтат
муралте
муралтем
муралтен
муралтена
муралтеш
муран
мурат
мураш
мурдам
мурем
мурен
мурена
муреныт
мурза
мурзанаево
мурзашев
мури
мурманск
муро
мурпаша
мурпашанам
мурпашашт
мурпашаштыже
мурпого
мурсаскаже
мурыжо
мурыжым
мурызо
мурызыжо
мурызылан
мурызын
мурылан
мурылаште
мурым
мурымат
мурымаш
мурымо
мурымыж
мурымыжо
мурымым
мурын
мурышаш
мурышко
мурышо
мурышт
мурышто
мурыштым
муса
муслюмово
мустаев
мустаи
мустафа
мустафан
мусульман
мут
мутан
мутат
мутвожан
мутвундо
мутвундыжым
мутвундым
мутем
мутер
мутерже
мутерым
мутерын
мутерыште
мутет
мутлан
мутлана
мутланат
мутланаш
мутланен
мутланеныт
мутланымаш
мутланымаште
мутланыме
мутлаште
мутмастар
мутсаска
мутту
мутчача
мутшо
мутшым
мутым
мутын
мутыш
мутышто
муть
мухин
мухина
мухиным
мухинын
мучаш
мучашан
мучашдыме
мучашке
мучашла
мучашлалтеш
мучашлалтын
мучашлан
мучашлен
мучашсе
мучаште
мучашште
мучашыже
мучашыжым
мучашым
мучашысе
мучашыш
мучашыште
мучашыштыже
мученик
мученица
мучко
мушерань
мушка
мушкаш
мушкеш
мушко
мушкын
мушмарии
муымо
муын
муыныт
муэш
муҥае
мчс
мшо
мы
мые
мыж
мыже
мыжерым
мыжлан
мыжым
мыи
мыл
мыла
мылам
мылан
мыланем
мыланна
мым
мымат
мын
мынак
мыняр
мынярак
мыняре
мыр
мырал
мыргорно
мырет
мыреш
мырешлан
мырж
мыржо
мыржым
мырна
мыры
мырывла
мырым
мыс
мысе
мыскара
мыскараже
мыскарам
мыскараче
мысли
мысль
мыт
мытищи
мытищинскии
мыш
мышкина
мышкыжо
мышт
мыште
мыштем
мышто
мыштыжо
мыштым
мыят
мьянма
мэн
мюнхен
міст
міста
н
на
набережные
наблюдении
набор
наверное
навигации
навигационная
навигационнои
навигационные
навигационных
навыки
навыков
нагои
нагорена
нагорино
награда
награде
наградитлалтше
наградитлалтын
наградитлыме
награднои
награды
наградыже
награждении
над
надежда
надежды
надо
надписи
надпись
надыр
надырже
надыржым
надырлан
надырым
надь
нажмите
назад
назарии
назаров
название
названием
названии
названия
названиях
наземное
наземныи
называть
называются
наи
наиболее
наибольшая
наименование
наименования
наклонение
наклонении
наклонения
нал
налам
налат
налаш
налашлан
налде
нале
наледен
налеш
наличии
налман
налмаш
налмаште
налме
налмек
налмеке
налмыже
налмыжым
налмылан
налог
налтмыже
налтын
налтыш
налшаш
налше
налын
налына
налынам
налыныт
налыт
нальчик
нальык
нальым
нальыч
нам
намерения
наместничествын
нами
намибии
намиен
намии
нан
нангаи
нань
наоборот
напевы
написал
написано
написать
наполеон
наполеонын
напр
направление
направлении
направлению
направления
направленность
например
напрямую
нар
наран
нарашта
наре
наречие
наречии
наречия
нарже
народ
народа
народе
народная
народного
народное
народнои
народные
народныи
народных
народов
народы
нарспи
нартас
нарушает
нарынче
нас
насекомыи
населе
населения
населенные
населенныи
населенных
наследие
наследии
наследия
наста
наставники
настам
настан
настии
настоящего
настоящее
настоящем
настрои
наступлении
нат
наталия
наталья
наташа
натиск
нато
наук
наука
науке
науки
науко
наукова
науку
наукым
наукын
наукышто
наум
наурыз
науч
научн
научная
научно
научного
научное
научнои
научные
научныи
научнын
научных
находится
нац
нации
национал
националист
националистическии
национальная
национально
национального
национальное
национальнои
национальном
национальностеи
национальность
национальные
национальныи
национальных
нацист
начал
начала
начале
начало
началось
начальник
начального
начальное
начальнои
начальныи
начальных
начар
начарын
начать
начинающиеся
начиная
наш
наша
наше
нашего
нашеи
нашем
наши
наших
нашу
ная
наҥгаен
наҥгаеныт
наҥгаи
наҥгая
наҥгаят
наҥгаяш
нб
нг
нга
нго
нгы
нгыж
нда
ндалалтмаш
ндартыш
нды
ндыр
ндырно
ндырэрвел
не
небе
небо
нева
невскии
него
негыз
негызеш
негызлалтын
негызлен
негызленыт
негызлыме
негызлыше
негызше
негызшым
негызым
недели
неделю
неделя
недостатки
недостаточно
нее
неж
неже
нежели
нежнур
нежныи
нежым
нежын
независимо
незер
неи
неизвестныи
некорректно
некоторые
некоторых
некрасов
некрасово
некрасовын
некролог
неле
нелыже
нелылык
нелылыкше
нелылыкым
нелым
нелын
нелырак
нелыт
нелытан
нелытше
нелытым
нельзя
нем
немаркированного
немда
немдеж
немдыж
немеркнущая
немецкии
немецких
немецкого
немецкои
немецком
немецкому
немирів
нему
немыч
немычла
немычсола
нен
ненец
необходим
необходимо
необходимое
необходимости
необходимость
необходимые
необходимых
необязателен
необязательная
необязательныи
неодушевленности
неологизмов
неопределенно
неопределенность
неофициал
непал
непосредственно
неправильно
неприязнь
нептун
нер
нера
нерасчлененнои
нерв
нерве
нервныи
нерге
нергела
нерген
нергенак
нергенат
нерже
нержым
неродному
неродственных
нерусскои
нерша
нерын
нескольких
несколько
несмотря
нет
нетленныи
нету
неужели
нефе
нефтегазопромышленников
нефтекамск
нефть
нефтьым
нече
нечетных
нештарен
нештарыме
нештарыше
нж
нжо
нжы
ни
нибудь
нива
ниг
нигер
нигерии
ниго
нигузе
нигузеат
нигунам
нигунамат
нигуш
нигуштат
нидерланд
нидерланды
нидс
ниев
ниевич
ниже
нижегород
нижневартовск
нижнего
нижнее
нижнеи
нижние
нижнии
нижняя
низа
низовья
нии
ник
ника
никаев
никак
никаких
никандр
никандрович
никанор
никанорович
никарагуа
никеи
никита
никитин
никитина
никитич
никитович
никифор
никифоров
никифорович
никнеи
ников
никогда
никодим
николаев
николаева
николаевич
николаевича
николаевичын
николаевна
николаевскии
николаевын
николаи
николая
николо
никольск
никольскии
никольское
никон
никто
нил
нимат
нимо
нимогаи
нимолан
нимом
нимомат
нимучашдыме
нимучашдымын
нина
нине
нир
нифонтовна
них
ничего
ниялтен
нка
нквд
нки
нко
нлан
нного
ннои
нные
нныи
нных
но
нобелевскии
нобель
нов
нова
новации
новая
новгород
новеи
новелла
новелле
новиков
нович
новича
новка
новна
нового
новогоднии
новогорскии
новое
новои
новокузнецк
новом
новому
новороссии
новосе
новоселов
новоселова
новосибирск
новосибирскысе
новости
новоторъяльскии
новоторъяльского
новотроицк
новскии
новую
новые
новыи
новым
новых
новь
ногаи
ного
ногу
ное
ноен
нозанлык
нознавства
нои
нок
ноледур
ноли
нолинскии
нолинского
ноль
нольду
нольо
нольыкмарии
ноля
ном
номенклатур
номер
номера
номеран
номерешыже
номерже
номержым
номерым
номерын
номерыште
номинации
нонна
норвегии
норка
норко
нормо
нормы
нос
носителеи
носола
ното
ноутбук
ночи
ночко
ночь
нояб
ноябрь
ноябрьыште
ноября
нп
нравственно
нравственное
нравственность
нрак
нсола
нська
нськии
нськоі
нт
нтбол
нтш
ну
нугыдо
нугыдын
нуж
нужа
нужавлак
нужен
нужна
нужно
нужны
нужъял
нужъяльское
нуктуж
нуктыж
нулго
нулевои
нумал
нумалеш
нумалше
нумалын
нумалыт
нунат
нуно
нуныжо
нунылан
нуным
нунын
нуныт
нунышт
нур
нурвел
нурда
нуриман
нурма
нурминское
нурмо
нурмучаш
нурсола
нуру
нурумбал
нуръял
нурыев
нурым
нуса
нч
нча
нчен
нчер
нчери
нчерскии
нчерсола
нчо
нчыду
нчылу
нчэҥер
ны
ные
ныжыл
ныжылге
ныжылгын
ныи
нык
ныл
нылле
нылымше
нылыт
нылытше
ным
нымат
нын
ныне
ныр
ных
ныш
нышо
нь
ньы
ньык
нью
ньютон
ня
няже
нялан
ням
нямбал
нямбалне
нямбалсе
нян
нясе
няш
няшке
няште
ні
ніка
о
оао
об
оба
обалыш
обд
обеспечение
обеспечению
обеспечить
обзор
обком
обкомын
обкомышто
обл
областеи
области
областная
областнои
область
областьым
областьын
областьысе
областьыште
облисполком
обновле
обновление
обновления
обо
обобщенныи
обогащения
обоз
обозначения
обозрение
оболенскии
оборотов
обороты
оборудовании
обособленные
обр
обработка
обработки
образ
образа
образец
образная
образные
образов
образование
образовании
образованию
образования
образованиям
образованные
образованныи
образовательного
образовательное
образовательнои
образовательном
образовательныи
образовательных
образом
образше
образшым
образы
образым
образын
образышт
обратите
обратить
обратное
обратнои
обратныи
обращении
обращения
обретение
обсерватории
обслуживает
обсудить
обсуждать
обсуждение
обсуждении
обсуждения
обсуждениях
обухов
обучающеи
обучающихся
обучение
обучении
обучения
обшияр
общ
общая
общего
общее
общеи
общем
общему
общения
общеобразовательныи
общеобразовательных
общества
обществе
общественно
общественного
общественностью
общественныи
общество
обществын
обществыш
обществыште
общие
общии
общности
объе
объединение
объединении
объединению
объединения
объединяет
объект
объектов
объектым
объектын
объявления
обычаи
обычно
обычным
обь
обязанности
обязателен
обязательно
обязательного
обязательны
обязательные
обязательныи
овалже
овалжымучаш
овартен
оваснур
овда
овдасола
овертаи
овечкино
ович
овраг
овчинников
овчинникова
ога
огарева
огат
оген
огеш
огешат
огне
огни
ого
огонь
огор
огошын
ограничении
ограничения
огыдал
огыл
огымо
огын
огына
огынал
огыт
огытыл
огышо
од
ода
одам
одар
одарга
одаш
одесса
одеш
один
одмаш
одмашым
одмо
одмыж
одмым
одна
однажды
однако
одним
одно
одновременно
одного
однои
одном
однородные
однородными
одну
одо
одобрено
одушевленности
одын
одыныт
одыт
одыш
одышат
одышла
одышлажым
одышлан
одыштмаш
одыштмо
одышыжо
одышым
ожнак
ожно
ожнысек
ожнысо
ожсо
оза
озавате
озаже
озажлан
озак
озакъял
озакым
озаланыме
озаланыше
озамбаи
озан
озанлык
озанлыкым
озанлыкын
озанлыкыш
озанлыкыште
озармаш
озаҥ
озаҥсола
озаҥысе
озаҥыш
озаҥыште
озе
озера
озерки
озеркинского
озеро
озеф
ози
ознакомиться
ознакомление
ознакомьтесь
озым
озыркан
озьорка
ои
ок
ока
окавии
окачи
окаш
окашъял
океан
океании
оккупант
окленд
окна
окнам
окно
около
околоток
окончания
окрок
округ
округа
округе
округов
округын
округышто
окса
оксаж
оксажым
оксала
оксалан
оксам
оксан
оксана
оксат
оксина
оксиня
окт
октарен
октарыше
октябрем
октябрь
октябрьлан
октябрьскии
октябрьын
октябрьыште
октября
окулово
окунево
ол
ола
олагаи
олаже
олажлан
олажым
олала
олалан
олалаште
олам
олан
оласал
оласалыште
оласе
оласъял
олаш
олашке
олаштат
олаште
олаштыже
олван
олгорно
оле
олег
олеи
олександр
олендера
олени
олешке
олжо
олжым
оливер
олимпиада
олимпиаде
олимпиады
олимпиадын
олимпиадыште
олимпии
олинском
олицетворении
оллан
олма
олмам
олмапу
олмеш
олмештыш
олмештышмут
олмышто
олор
олоры
олтат
олташ
олташем
олташемлан
олташет
олташла
олташлан
олташна
олташыж
олташыже
олташыжлан
олташыжын
олташым
олташын
олташышт
олтеныт
олчием
олчиемым
олы
олык
олыка
олыкмарии
олыкмарла
олыкту
олыкшо
олыкъял
олыкыш
олыкышто
олым
олын
олышто
ольга
ольош
олю
олян
оляна
оліи
ом
омак
омакше
омакым
омакын
омакысе
омакыште
омар
омарта
омартле
омдаре
омдарен
омдарыме
омеш
омо
омоним
омонимии
омонимов
омса
омсам
омсаш
омсашке
омск
омшо
омыж
омыжо
омыл
омым
омын
омыныт
он
она
онаеҥ
онаи
онал
онар
онара
онартыш
онарын
онах
онго
ондак
ондакак
ондакат
ондакрак
ондаксе
ондакше
ондален
ондри
ондрин
оне
онегин
онжо
они
ониса
онисим
онлаи
онлан
онлаште
оно
онов
ономастика
ономастике
ономастики
ономучаш
онтон
онучино
онцидиум
онча
ончал
ончалат
ончалаш
ончале
ончалеш
ончалза
ончалтышыже
ончалын
ончалына
ончат
ончаш
ончем
ончен
онченыт
ончер
ончерже
ончерлаште
ончет
ончо
ончыде
ончыза
ончык
ончыклык
ончыко
ончыкта
ончыкталтеш
ончыкталтын
ончыкталтыныт
ончыкталтыт
ончыктат
ончыкташ
ончыкташлан
ончыктен
ончыктеныт
ончыкто
ончыктымаш
ончыктымо
ончыктымыжлан
ончыктымылан
ончыктышаш
ончыктышо
ончыкыжым
ончыкылык
ончыкылыкшо
ончыл
ончылан
ончылгоч
ончылмут
ончылнем
ончылно
ончылсо
ончылсола
ончылтен
ончылъеҥ
ончымаш
ончымаште
ончымо
ончыч
ончычак
ончычат
ончычсо
ончычшо
ончышаш
ончышо
оны
оным
онын
онысо
оныш
онышто
оньыжа
оньыжаже
оон
ооо
оп
опак
опалик
опалиха
опанас
опарин
опарино
опер
опера
оператор
операции
оперуполномоченныи
оперы
оперым
оперын
оперыште
описание
описании
описания
описательные
опкын
опои
определе
определение
определении
определения
определенныи
определительнои
определить
опрос
опрось
опта
опташ
оптен
оптеныт
оптик
опубликован
опущен
опция
опынян
опыт
опыта
опытан
опытных
опытшо
опытым
опять
ор
ора
орава
ораде
ораи
оралте
оралтыже
оралтым
ората
оратен
оратории
оратымаш
оратыме
орва
орга
оргажан
оргамак
орган
органами
органже
организатор
организаторжо
организации
организационныи
организация
организм
организоватлыме
органов
органыште
орден
ордена
орденан
орденмарии
орденн
орденписатели
орденым
орденын
орденэлектронныи
орджоникидзе
оре
оренбург
орехов
орехово
орешкино
оржан
оригинал
оризонти
орина
оришуть
орк
оркестр
оркестра
оркестре
оркестрлан
оркестровои
оркестровом
оркестровых
оркестром
оркестрыште
орла
орландарен
орланен
орланыше
орлаҥге
орло
орлов
орлова
орловка
орловскии
орлык
орлыкан
орлыкем
орлыкым
орлын
оров
орова
орол
оролат
оролаш
ороленыт
орудии
орудия
оружии
орфографии
орфографическии
орфография
орфоэпии
орхидеи
орша
оршанка
оршанке
оршанкысе
оршанскии
оршу
оръеҥ
оръю
орынбор
орышо
орья
ос
осал
осалже
осалжым
осалым
освещении
освоение
осень
осетии
осинкин
осинник
осипов
осипова
осипович
осиял
оскар
осколко
осло
осман
османова
осмин
осмина
осмолучасток
основ
основа
основам
основании
основания
основе
основная
основного
основнои
основном
основные
основным
основных
основои
основоположника
основы
основі
осо
особенно
особенное
особенностеи
особенности
особенностях
особое
ост
оставить
остальнои
остальных
останется
остров
островскии
осып
осыпым
осыпын
от
отар
отарскии
отары
отбору
отв
отвагу
ответ
ответственныи
ответы
отд
отдавать
отдел
отделении
отделения
отделым
отдельнои
отдельные
отдельных
отец
отечества
отечественная
отечественнои
отечественныи
отечеством
отештше
отзыв
отзывов
отзывы
откровение
открыт
открытие
открытии
открытия
открытке
открытыи
открыть
откуда
отличие
отличии
отличительное
отличник
отличникше
отложена
отмеченные
относительно
относительныи
относится
относиться
относятся
отношении
отношения
отношениях
ото
отображается
отображаться
отображе
отображения
отображено
отправлено
отпускыш
отражение
отрицание
отрицания
отрицательные
отрицательныи
отро
отрола
отролаште
отром
отрошто
отрывок
отряд
отсортирован
отставке
отставкыш
отступ
отсутствие
отсутствии
отсутствует
отто
отца
отцентрирован
отче
отчет
отчии
отыл
отымбал
отышто
отэлысе
оулу
офицер
офицерже
офицерым
официал
официалле
официально
официальнои
официальныи
оформление
оформления
оформленного
офіціи
ох
охисать
охотин
охотник
охотников
охраны
оценка
оценки
оча
очаж
очаже
очалан
очам
очан
очасадым
очасадыште
очашт
очеева
очень
очерк
очерки
очерков
очеркше
очеркшым
очеркым
очеркын
очеркыштыже
очии
очком
очно
очыни
ош
ошаи
ошалге
ошвичыжат
ошет
ошеть
ошибки
ошибок
ошкан
ошканер
ошкар
ошкарармеец
ошкарге
ошкарген
ошкаренер
ошкаркакшан
ошкарэҥер
ошкыл
ошкылаш
ошкылеш
ошкылжо
ошкылым
ошкылын
ошла
ошладу
ошлаков
ошлакова
ошламучаш
ошлан
ошма
ошман
ошо
ошу
ошурга
ошытъял
ошэл
ояр
оярын
оҥ
оҥа
оҥаи
оҥам
оҥарен
оҥартыш
оҥартышмут
оҥартышмутым
оҥартышмутын
оҥарчык
оҥарымаш
оҥга
оҥгалт
оҥгалтара
оҥгалтарат
оҥгалтарен
оҥгалтарыме
оҥгалтарыше
оҥгалтеш
оҥгалтмым
оҥгалтше
оҥгалтын
оҥгалтыт
оҥгат
оҥген
оҥго
оҥгыдо
оҥгыр
оҥгыран
оҥгышо
оҥжо
оҥи
оҥпале
оҥылыш
оҥылышым
оҥыштыжо
п
па
паасонен
паваи
павел
павлов
павлова
павлович
павловна
павлово
павловскии
павыл
пагала
пагалат
пагалаш
пагален
пагаленыт
пагалымаш
пагалымашым
пагалыме
пагалыше
пагар
пагирева
пагул
пагыт
пагытлан
пагытше
пагытшым
пагытым
пагытын
пагытысе
пагытыштак
пагытыште
пагытыштым
падают
падеж
падежа
падежах
падеже
падежеи
падежи
падежных
падежым
падыраш
пазар
пазарыште
паи
пакистан
пакистаныште
пактаи
пактек
пакча
пакчаште
пакшаи
пала
палантаи
палат
палатын
палаш
палдара
палдарен
палдарымаш
палдарыме
палдырна
палдырнен
пале
паледа
палеже
палем
палемда
палемдалтеш
палемдалтше
палемдалтын
палемдалтыныт
палемдат
палемдаш
палемден
палемденыт
палемдыде
палемдыман
палемдымаш
палемдыме
палемдымылан
палемдыше
пален
палена
паленыт
палестинскии
палет
пали
палии
палме
палыде
палыдыме
палыже
палыжым
палым
палымаш
палымашлан
палымашым
палыме
палымут
палымыже
палымым
палынак
палыш
палышаш
палыше
пальма
памар
памаш
памашем
памашсола
памашъял
памашэҥер
пампалче
памфилии
памъял
памъялы
памят
памяти
памятник
памятника
памятники
памятников
памятникым
памятныи
памятных
память
пан
панама
панголин
панда
панов
панова
панович
пановои
панорама
пантелеи
пантуши
папа
папалте
папуа
пар
парагваи
парад
парадигма
парадигме
параллели
параллелизм
параллелограммын
параметр
параметра
параметрами
параметрах
параметре
параметров
параметром
параметру
параметры
параметрым
параньга
параньгинскии
парат
паратаи
параты
парашют
паремии
пареҥге
пареҥгым
париж
парижысе
парижыште
парикмахер
парк
паркын
паркыште
парламент
парнингаш
парня
парняпале
паро
паровоз
пародии
пароход
партизан
партии
партне
парча
парчан
парыш
парышым
пас
пасека
пасет
паспорт
пассажир
пасу
пасум
пасун
пасуш
пасушко
пасушто
патаи
патам
патентым
патраш
патриарх
патриаршии
патриот
патриотическии
патрон
патрушев
патыр
патырже
патырлык
патырлыклан
патырлыкым
патыръеҥ
патырым
патырын
пау
паулу
пауль
пауля
пахарь
пахомово
пачаш
пачашан
пачашыште
пачемыш
пачерым
паша
пашаен
пашаенже
пашаеҥ
пашаеҥже
пашаеҥжылан
пашаеҥлан
пашаеҥым
пашаеҥын
пашаж
пашажат
пашаже
пашажлан
пашажым
пашажын
пашазе
пашалан
пашаланат
пашалаштыже
пашам
пашамат
пашан
пашат
пашаче
пашаш
пашашкат
пашашке
пашашкыже
пашашт
пашаштат
пашаште
пашаштыже
пашаштым
пашаштышт
пашеҥ
пашкан
пашкина
паю
паҥгам
пв
пе
певец
пед
педагог
педагога
педагогик
педагогика
педагогике
педагогики
педагогикын
педагогическая
педагогические
педагогическии
педагогических
педагогического
педагогическое
педагогическои
педагогов
педии
пединститут
пединститута
пединститутым
пединститутын
пединститутысо
пединститутыш
пединститутышто
педкурсым
педкурсын
педкурсышто
педтехникум
педтехникумым
педтехникумыш
педтехникумышто
педучилище
педучилищым
педучилищын
педучилищыш
педучилищыште
пез
пезмучаш
пеи
пекин
пекпаев
пекпулат
пектеев
пектемер
пектываи
пекшеева
пекшек
пекшик
пекшиксола
пекшиксолинское
пел
пела
пелагея
пелаш
пелашан
пелашыж
пелашыже
пелашыжым
пелашыжын
пелганде
пеле
пелед
пеледеш
пеледме
пеледше
пеледыш
пеледышан
пеледышыже
пеледышым
пеледышын
пеледышыште
пелен
пеленак
пеленем
пеленет
пеленже
пеленсе
пеленысе
пелешта
пелештат
пелеште
пелештен
пелештеныт
пелештыман
пелештыш
пели
пелота
пелотро
пелыже
пелыштыже
пенгитов
пенгитова
пенгитовлан
пенгитовын
пенгыде
пенгыдемден
пенгыдын
пенза
пенсии
пенсильвании
пеньков
пенькова
пенюж
пер
пера
пералта
пералтыш
пералтышан
пералтышдыме
первая
первичныи
первого
первое
первои
первом
первомаи
первые
первыи
первым
первых
пергии
перевести
перевод
перевода
переводах
переводе
переводить
переводом
переводы
переген
перед
передаче
передачым
переднего
передовик
переи
переиздание
переименовывать
переключение
переключения
переложение
переложения
переменная
переменную
перен
перенаправление
перенесение
перенос
переписи
перепись
перераб
перерабатыватлыше
пересадки
пересекает
пересмотру
перестрои
переход
перечень
период
периода
периодизации
периодик
периодика
периодын
перке
перм
перми
пермистика
пермскии
пермских
пермского
пермскои
пермь
пермяк
пермяки
перна
пернен
перо
перс
персии
персонаж
персонажа
персонажеи
персоналии
персональныи
перспективные
перспективы
пертнуры
перу
першин
першут
першуткин
песен
песенных
песни
песнь
песню
песня
песнях
песчанка
пет
петер
петербург
петербургысо
петербургыш
петербургышто
петр
петра
петро
петров
петрова
петрович
петровича
петровна
петровскии
петровское
петровым
петровын
петрозаводск
петропавловка
петропавловск
петропавловскии
петрушка
петрушки
петухи
петухов
петухова
петухово
петуховын
петъял
петъяльского
петырат
петыраш
петырен
петыреныт
петырналтме
петыртыш
петырыме
петя
пехметова
пехотныи
печ
печати
печатла
печатлалт
печатлалташ
печатлалтын
печатлаш
печатлен
печатлыме
печать
печатьыште
пече
печерскии
печоро
печы
печым
пеш
пешак
пешосал
пешсаи
пешсая
пешыжак
пещеры
пеҥгыде
пеҥгыдем
пеҥгыдемда
пеҥгыдемдалтын
пеҥгыдемдаш
пеҥгыдемден
пеҥгыдемденыт
пеҥгыдемдыме
пеҥгыдемеш
пеҥгыдын
пи
пиал
пиалан
пиалем
пиалже
пиалым
пианист
пиаф
пивоваренного
пидаш
пидын
пиета
пижаи
пижанка
пижедыл
пижеш
пижма
пижме
пижменское
пижше
пижыктен
пижыктыме
пижым
пижымбал
пижын
пижыныт
пижыт
пии
пик
пикассо
пиквикскии
пикет
пиковожка
пикселях
пиктеж
пикш
пикша
пикшызе
пилишчаба
пильмучаш
пинаев
пинеж
пинжанур
пинженер
пинь
пионер
пиплмувер
пире
пирогов
пирогова
пирогово
писателеи
писатели
писатель
писательже
писательлан
писательым
писательын
писателя
писать
писе
писем
писташ
писте
пистер
пистерл
писылык
писылыкше
писылыкым
писын
писынрак
писырак
письма
письмажым
письмаштыже
письменности
письменные
письмо
письмэҥер
питателев
питер
питирим
пить
пич
пичанур
пишется
пишите
пиштанка
пиштер
пиямбар
пият
пк
пкеле
пкс
план
плана
планан
плане
планет
планета
планете
планетше
планетылан
планетым
планетын
планже
планировалось
планировался
планируется
планы
пласт
пластик
пласты
плато
платов
платон
платонович
платунова
платформо
плеи
племена
пленыш
плешков
плоды
плотник
плотников
плохо
площадь
площадьыште
плутон
плутонын
плюс
пневматическии
по
победа
победы
поведения
повелительное
поверхности
повествовании
повествования
повести
повесть
повестьше
повестьшым
повестьшын
повестьым
повестьын
повестьыште
повестьыштыже
повестях
поводу
поволжскии
поволжских
поволжье
поволжья
повтор
повтора
повышение
повышения
пога
погат
погаш
поген
погеныт
погибших
пого
поговорках
поговорки
поговорок
погонан
пограничник
погыжо
погылан
погым
погымаш
погымеке
погымо
погын
погына
погынат
погынен
погыненыт
погынжо
погынжын
погынымаш
погынымашке
погынымаште
погынымашын
погынымашыш
погынымашышт
погынымо
погынын
погыныш
погынышо
погынышто
погыныштыжо
погышо
погышт
под
подавляющим
подарок
подвиг
подвигше
подвижные
подговора
подговорын
подгорное
подгорныи
подготовительных
подготовка
подготовки
поддерживает
поддерживаю
поддержку
поделиться
поделков
поделкова
подземная
подземные
подземныи
подлежащего
подлежащии
подмел
подольск
подольскии
подписи
подпись
подписьым
подполковник
подразделении
подробнее
подруга
подстраницы
подучасток
подход
подходы
подъе
подільськии
поедуги
поезд
поем
поет
пожалуи
пожар
пожелании
пожелания
пожеланиях
позволяет
позднякова
поздняя
позиции
позиционная
позиционные
позиционныи
позиционных
позкарта
позкарты
пои
поиск
поисках
поисков
пока
показ
показано
показатели
показать
показатьскрыть
показывает
показывать
показываться
покер
поколении
поколения
покро
покровск
покровскии
покровское
покрытии
покта
поктен
поктеныт
поктылыныт
поктымаш
покшал
покшеке
покшел
покшелне
покшелнет
покшым
пол
пола
полагаю
полан
поланур
полат
полатсола
полатше
полатым
полатыш
полатыште
полатэҥер
полган
полгода
полдень
полдыран
полдыш
полдышоҥа
поле
полевои
полеи
полигонышто
полиграфии
полиграфкомбинат
поликарп
поликлиникыште
поликультурном
полимерных
полина
полисемантичные
полисемантичных
полисемии
полисемия
политехник
политехническии
политик
политика
политике
политики
политикыжым
политическая
политические
политическии
политических
политического
политическои
политическом
политологии
полиции
полиэтнического
полиэтническом
полк
полковник
полкын
полкысо
полмезе
полная
полное
полномочии
полномочия
полномочиями
полностью
полную
полныи
поло
половине
половинои
половины
положение
положении
положения
полоса
полтава
полтыш
получается
получать
получения
получил
получили
получит
получить
полушарии
полушария
полша
полшат
полшаш
полшен
полшеныт
полшо
полшык
полшымо
полшымыж
полшымышт
полшышо
полыш
полышкалышыже
полышкалышыжлан
полышым
полышышт
пользователеи
пользователем
пользователи
пользователь
пользователя
пользователям
пользоваться
пользу
польскии
польша
польшо
польшын
польшысо
польшышто
полюс
полюса
поля
поляк
полякла
поляков
поляна
полянка
поляны
полярная
полярныи
помар
помары
помещается
помещаются
помещении
помимо
поминка
помнит
помню
поморцева
помочь
помощи
помощь
помощью
помыжалт
помыжалтеш
помыжалтмым
помыжалтын
пондаш
пондашыжым
понимании
понимаю
понятие
понятия
понятно
понять
поп
попадает
попечителеи
попов
попова
попово
популяр
популярныи
пор
пора
поран
порандаи
поранча
поргем
поро
пороге
породы
порои
порсын
порт
портал
портале
порталы
порталын
портр
портрет
портрета
портретше
портретшым
порту
португал
португалии
портыш
портышкем
портянур
порфирии
порфирьевич
порылык
порылыкым
порым
порын
порядке
порядок
посадского
посанур
посв
посвящ
посвящается
посвящен
посвященная
посвященнои
посвященные
посвященныи
посе
поселение
поселении
поселения
поселко
поселкышто
поселок
посенур
посессивных
посетите
поскольку
после
послевоенныи
последнее
последнеи
последние
последнии
последствия
послеложное
пословиц
пословицах
пословицы
посмотрел
посмотреть
посна
поснак
пособие
пособии
пособия
посол
посредством
пост
поставить
постановке
постановко
постановкыжо
постваи
посто
постоянно
постоянного
постоянное
постоянныи
постоянным
постоянных
построения
постым
пот
потасола
потенциал
потенциала
потом
потому
потребуется
поч
почан
почаш
поче
почела
почелалык
почеламут
почеламутан
почеламутем
почеламутлажым
почеламутлам
почеламутлан
почеламутлаште
почеламутлаштыже
почеламутчо
почеламутчыжо
почеламутшат
почеламутшо
почеламутшылан
почеламутшым
почеламутым
почеламутымат
почеламутын
почеламутышт
почеламутышто
почеламутыштыжо
почеламутыштым
почему
почета
почетан
почетная
почетного
почетныи
почеш
почешак
почешмут
почешыже
почешышт
починга
починок
почиҥга
почкалтыш
почкен
почмаш
почмаште
почмо
почо
почти
почто
почше
почшо
почыла
почылт
почылтеш
почылто
почылтшо
почылтын
почылтыныт
почын
почыныт
пошкудем
пошкудо
пошкудыжо
пошкырт
пошнур
поэзии
поэзия
поэма
поэме
поэмы
поэмывла
поэмыже
поэмыжым
поэмым
поэмын
поэмыште
поэмыштыже
поэт
поэта
поэтесса
поэтессын
поэтика
поэтике
поэтики
поэтическая
поэтическии
поэтлан
поэтна
поэтов
поэтому
поэтше
поэтым
поэтын
пою
поют
появились
появится
поян
поянлык
поянлыкше
поянлыкшым
поянлыкым
поянсола
пояснительные
пояснительных
пояш
поҥго
поҥгым
пр
прав
права
праваже
правам
праван
правда
праве
правил
правила
правилам
правилах
правиле
правило
правилым
правильно
правители
правительства
правительстве
правительственныи
правительство
правительствылан
правительствын
править
правки
правлении
право
правобережных
правовои
правого
правои
правок
правому
правописания
правоприменения
православии
православныи
прага
прадеш
праздник
праздника
праздников
праздничата
праздничныи
практ
практик
практика
практике
практики
практикум
практикым
практич
практическая
практические
практическии
практических
практическои
прасковья
пребывания
превосходныи
предании
предания
предикативного
предисловие
предкамья
предков
предлагаю
предложение
предложении
предложения
предложил
предмет
предмета
предметов
предметше
предметым
предметын
предназначен
предпосылки
предпринимателями
предприятии
председатель
председательже
председательжылан
председательлан
председательын
представителеи
представитель
представительже
представлении
представления
представлены
предстоит
предупреждение
преемственности
прежде
презе
презентации
президент
президента
президентше
президентшылан
президентшын
президентын
президиум
президиума
президиумын
прекрасная
прекрасно
прекратить
премии
премия
премиях
премьер
премьерыже
преображенскии
преобразованы
препинании
преподавание
преподавании
преподавания
преподавателеи
преподаватель
преподобная
преподобномученик
преподобномученица
преподобныи
прерванная
пресвитер
пресли
преслилан
преслим
преслин
пресс
престол
преступлении
преступник
при
прибалтии
прибор
приведены
привет
приводятся
приволжскии
приглашаем
приглашаю
пригородно
придорожныи
приду
прие
прием
приема
приемы
приз
призе
признаки
признакшым
признакым
призыв
призым
приказ
приказым
прикамских
прикладнои
приключении
приключения
прилагательное
прилагательных
приложение
приложении
прим
примат
применение
применению
применения
применены
пример
примера
примере
примерже
примерно
примерныи
примеров
примеру
примеры
приметы
примечание
примечании
примечания
принимает
принимать
принсипи
принтер
принц
принцип
принципах
принципу
принципше
принципы
принял
принятии
принятия
принятые
принять
приоритет
припев
природа
природе
природообустрои
природы
присвоении
присоединении
присоединению
присоединительных
присоединиться
присоединяи
приставке
пристань
присутствует
присутствуют
приток
притокшо
притяжательным
приуралья
приходскои
прицеп
причастие
причастии
причем
причин
причине
причины
пришли
про
пробелы
проблем
проблема
проблемам
проблемах
проблеме
проблемы
проблемыже
проблемым
проваи
провал
проведе
проведения
проверка
проверки
провинции
провои
проголосовать
проголосуи
программ
программа
программе
программист
программлымаш
программлыме
программы
программыж
программыже
программым
программын
программышкыж
программышкыже
программыште
продолжить
продукт
продуктым
продукции
продюсер
проект
проекта
проектах
проекте
проектируется
проектируются
проектлаште
проектов
проекту
проектше
проектшым
проекты
проектым
проектын
проекции
проекция
проживания
проза
прозаик
прозаическии
прозе
прозо
прозы
прозыжо
прозым
прозын
прозыштат
прозышто
прои
произведении
произведения
произведениях
производится
производства
производстве
производственныи
производство
производствым
произедении
произношение
произношению
происхождение
происхождении
происхождения
прокопии
прокопьевич
прокофьевич
прокурорын
пролетар
пролив
промышленность
промышленныи
пропавших
проповедник
проректор
пророк
просветителеи
просветитель
просветительская
просветительскии
просветительское
просветительство
просветителя
просвещение
просвещении
просвещения
просек
просека
просит
просить
проска
просмотр
проста
простая
просто
простого
простои
простом
простомолотов
простоты
пространства
пространстве
пространственных
пространство
простые
простых
прость
просьба
протасов
против
протокол
прототипше
проф
профессии
профессионал
профессионального
профессиональное
профессиональнои
профессиональные
профессиональныи
профессиональных
профессор
профессора
профессоржо
профессору
профсоюз
прохор
процент
процентах
процесс
процесса
процессе
процессор
процессорын
процессы
прошедшего
прошедшее
прошли
прошло
прошлого
прошлое
прошлом
прошу
пруссии
прыжки
прямая
прямо
прямои
прячется
псевд
псевдоним
псевдонимже
псевдонимым
психическии
психолог
психологизации
психологизм
психологизма
психологии
психологическии
психологического
психологическои
психология
психолого
психологопедагогические
псков
птиц
птица
птицы
пу
пуа
пуалеш
пуалме
пуалтеш
пуалтын
пуат
пуаш
публикации
публицист
публицистика
публицистике
пугаче
пуговица
пуд
пудештме
пудин
пуду
пудыранчык
пудыртен
пудыртышо
пуен
пуеныт
пузо
пузя
пуи
пукша
пукшалма
пукшат
пукшаш
пукшен
пукшеныт
пукшышо
пулагаи
пуламыр
пуламырым
пулдырчо
пулеме
пулемет
пульс
пуля
пум
пумарии
пумарь
пундыш
пункт
пункта
пунктов
пунктуации
пункты
пунчал
пунчалеш
пунчалже
пунчалжым
пунчалым
пунчалын
пупкин
пур
пура
пурак
пурам
пурат
пураш
пурга
пургыж
пургыжышто
пурен
пуренам
пуреныт
пурет
пурла
пурлашке
пурлыклан
пурлын
пуро
пурса
пурсанур
пурта
пурталтеш
пурталтын
пурталтыныт
пуртат
пурташ
пуртен
пуртеныт
пурто
пуртов
пуртус
пуртыман
пуртымаш
пуртымо
пуртышо
пуры
пурымаш
пурымеке
пурымо
пурымыж
пурымыжлан
пурыш
пурышаш
пурышна
пурышо
пуста
пустаи
пустои
пустые
пустым
пустынь
пусть
пустяков
путе
путевка
путешественник
путешествии
пути
путиловка
путин
путынь
путырак
путь
путях
пуч
пучым
пучымыш
пучымышым
пуш
пушан
пушеҥге
пушеҥгылан
пушеҥгым
пушеҥгын
пушкин
пушкина
пушкинлан
пушкиным
пушкинын
пушкыдо
пуштмаш
пуштмо
пуштнеже
пуштыныт
пуыза
пуым
пуыман
пуымаш
пуымо
пуышаш
пуышо
пуышт
пуэда
пуэм
пуэн
пуэныт
пуял
пуялка
пциг
пче
пчелов
пш
пшен
пшым
пы
пыдал
пыжаи
пыжанъю
пыжаш
пыжашым
пызак
пызле
пызлыгичке
пызыкнур
пызырьгуп
пыкше
пыл
пыламарии
пылан
пылыш
пым
пымарии
пынгель
пыргынде
пырдыж
пырдыжгазетым
пырдыжым
пырдыжыште
пырля
пырляк
пырляштарыме
пырня
пырням
пырт
пырче
пырчым
пырыс
пырысиге
пырысым
пырысын
пыта
пытара
пытараш
пытарен
пытареныт
пытарме
пытармек
пытармеке
пытартыш
пытартышлан
пытарымаш
пытарыме
пытарымек
пытарымеке
пытарымекыже
пытарыше
пытарышым
пыташ
пытен
пытеныт
пытыме
пытымек
пытымеке
пытыш
пытыше
пычаи
пычал
пычалым
пычкемыш
пычкемыште
пычырик
пышта
пыштат
пышташ
пыште
пыштен
пыштеныт
пышто
пыштыман
пыштыме
пыштышаш
пыштыше
пьер
пьеса
пьесе
пьесы
пьесыж
пьесыже
пьесыжым
пьесым
пьесын
пьесышт
пьесыште
пьесыштыже
пятеро
пятыи
пять
пізнавальнии
р
ра
работ
работа
работает
работать
работе
работник
работника
работники
работников
работои
работу
работы
рабочая
рабочеи
рабочии
рабфакым
рабфакыште
равенства
равно
равноапостольныи
равных
рад
рада
радам
радаман
радамже
радамжым
радамлен
радамлык
радамлыкше
радамлыме
радамым
радамын
радамыш
радамышке
радамыште
радетель
ради
радио
радиовещании
радиову
радиокомитетыште
радион
радиостанции
радиотолкын
радиошто
радости
радость
радуга
радыгин
рае
раевскии
раз
разве
разведке
разведчик
развернута
развитие
развитии
развитию
развития
разговор
разговорник
разграничении
разграничения
раздел
раздела
разделах
разделе
разделения
разделов
разделы
раздолье
разинын
различия
различных
размер
разместить
разметки
размещение
размышления
разница
разновидности
разного
разнообразие
разнообразии
разных
разработка
разработке
разработки
разрядыш
разъезд
раи
раиса
раисия
рак
ракет
ракетныи
рал
ралли
ралтын
ралын
рам
рамбал
рамдах
рамках
рамки
раму
ран
ранаш
ранг
ранее
раненыи
ранние
раныза
раньше
рао
рапаи
рапсодия
располагающаяся
распределение
рассказ
рассказа
рассказах
рассказе
рассказов
рассказы
расстояние
растара
растаралтын
растарат
растараш
растарен
растарыме
растарыше
растении
растениовод
расцвета
расче
расширение
расширенная
рат
рата
раталме
ратат
раташ
рате
ратем
ратен
ратеныт
ратет
ратификации
ратымаш
ратымашыже
ратымашым
ратыме
ратымем
ратымемлан
ратымыже
ратыше
раундышто
рафаэль
рафаэльын
рах
раш
рашак
рашемда
рашемдат
рашемдаш
рашемден
рашемдык
рашемдымаш
рашемдыме
рашемдыше
рашида
рашитов
рая
рб
рвал
рвар
рвезе
рвезылан
рвезылык
рвезым
рвезын
рвым
рг
рган
рггу
ргене
ргече
ргечын
ргнф
рго
ргы
ргыж
ргыжо
ргыжым
ргыи
ргылан
ргым
ргысо
ргыш
ргышко
ргышт
ргышто
ргыштыжо
ргыял
рдем
рдеш
рдмо
рдо
рдшо
рды
рдыж
рдыжеш
рдыжк
рдыжко
рдыжсо
рдыжто
рдыктен
рдым
рдымо
рдын
рдыт
ре
реализации
реализация
реализм
реалии
реальность
реальныи
ребенок
реве
ревизии
ревитализации
ревком
революции
революционер
революционныи
революция
регби
регеж
регенсола
регенче
регион
региона
региональная
регионального
региональнои
региональные
региональныи
региональных
регионах
регионе
регионов
регионология
регионы
регионын
регионысо
регионышто
регистрации
регистрироватлыме
ред
редактировании
редактирования
редактироватла
редактироватлен
редактировать
редактор
редакторжо
редакторжылан
редакторлан
редакторов
редакторын
редакции
редакція
редат
редкол
редколегіі
редколлегии
редмаште
редме
редуцированные
редуцированных
реестре
реж
режим
режиссе
режиссер
режиссержо
реза
резерв
резервуаров
резиденции
резине
результат
результатам
результатах
результате
результатов
результаты
реи
рек
река
реке
реки
рекламе
рекламы
рекомендации
рекомендовано
рекомендуется
реконструкции
рекорд
рекордым
ректор
рекыште
религии
религиовед
религиозныи
религия
рельс
рем
реманэҥер
ремдер
ремже
ремжым
ремикс
ремла
ремлалтеш
ремлан
ремлат
ремлаш
ремленыт
ремлыме
ремым
ремын
ремыш
ремышт
ремыште
рен
реналге
репертуар
репертуарыштыже
репин
реплики
репортаж
репрезентация
репрессии
рес
респ
респу
республ
республик
республика
республиканская
республиканскии
республиканских
республиканского
республиканскои
республиках
республике
республики
республикым
республикын
республикынан
республикысе
республикыш
республикыште
республикыштына
рестан
ресурс
ресурсов
ресурсы
рет
ретан
ретла
ретлалтеш
ретлалтыныт
ретлан
ретлаш
ретлен
ретлымаш
ретлыме
ретлыше
ретче
ретчыже
ретчын
ретше
ретшым
ретым
ретын
ретыште
референдум
реформлалтын
реформо
рец
рецензии
рецензия
речевои
речевых
речи
речка
речке
речкин
речкина
речь
реш
решать
решение
решении
решения
решили
решить
рж
ржо
ржы
ржылан
ржым
рза
рзым
рзымнольо
ри
рига
рид
рика
рим
римма
римскии
римысе
римыш
римыште
ринц
рио
рис
рисунок
ритм
ритма
рифма
рифмы
рих
риц
ричард
рк
рка
ркк
ркп
рл
рла
рлан
рлана
рлаташ
рлатен
рлатымаш
рлатымашым
рлатыме
рлаш
рлемдымылан
рлемдыше
рлен
рло
рлызо
рлык
рлыкшо
рлыкышт
рлым
рлымо
рлын
рм
рмо
рмэ
рная
рно
рныи
ро
роберт
ров
ровно
рог
рогожкин
род
рода
родем
родился
родина
родине
родину
родион
родионов
родионова
родителеи
родители
родная
родник
родного
родное
роднои
родном
родному
родные
родных
родо
родства
родство
родыжо
родым
родыштым
рожан
рожд
рождения
рожденная
рождественскии
рождество
рожкин
рожым
рожын
роза
рои
рок
роли
ролик
ролл
роль
рольжо
рольжым
рольым
роман
романа
романах
романе
романже
романжым
романжын
романлан
романным
романо
романов
романова
романович
романовы
романс
романтик
романтическии
романым
романын
романыште
романыштыже
рон
ронго
ронын
роп
рос
росии
россии
россия
россыгин
ростов
рот
рота
рош
рошт
рошто
роща
роҥго
роҥгысо
рскии
рских
рсола
рср
рсфср
рт
ртан
ртанур
ртет
рти
ртлаште
ртнур
ртныр
ртнь
ртньо
ртньыгаи
ртньыгорно
ртньыгорным
ртньыгорнын
ртньым
рто
рту
ртшо
рты
ртык
ртыкым
ртыл
ртылам
ртылаш
ртылеш
ртылмаш
ртылмек
ртылмеке
ртылмекше
ртылмекыже
ртылмо
ртылташ
ртылтымо
ртылын
ртылыныт
ртым
ртын
ртысо
ртыш
ртышт
ртышто
ртыштыжо
ру
руал
руалтен
руанда
руаш
рубеже
рубль
рубцова
рудольф
рудометов
рудометово
руду
руи
рук
руки
руководства
руководство
руководству
рукописи
рукописном
рукописныи
рукописных
рукопись
рукописьше
рукописьым
руль
румбык
румын
румынии
румянцев
рун
рунах
рус
русалка
русанов
руси
руслан
русов
руссина
русская
русские
русскии
русским
русских
русско
русского
русское
русскои
русском
русскому
русскоязычных
русь
рут
рутка
ручеи
руш
рушарня
рушарняже
рушарнян
рушенер
рушла
рушлаже
рушлаш
рушлашке
рушплак
рушэҥер
руышо
руэм
руэмское
руэн
руэныт
руя
руял
руясола
рф
рчен
рш
рша
ршан
ршерже
ршеш
ршо
ршта
рштен
рштылмаш
рштылын
рштылыныт
ршудышко
ршын
ръеҥ
ръеҥын
ръял
ры
рыб
рыбаке
рыбаков
рыбакова
рыбаковын
рыбке
рывыж
рыж
рыктара
рыктарен
рыктарыше
рылт
рылтде
рылтеш
рылтш
рылтшо
рылтын
рым
рымаш
рымашыже
рымашыжым
рымашым
рымо
рын
рынан
рынжым
рыс
рыснек
рысо
рыцарь
рычаг
рычков
рычкова
рыш
рышо
рышт
рышто
рыштыжо
рьеҥ
рэи
рябинина
рябинка
рябины
ряд
ряда
рядов
рядовои
рядом
рязанцев
рязань
рөстәм
с
са
саам
саамск
сааринен
сабантуи
сабанцев
сабитов
сабитовын
савак
саваткова
савва
савельев
савельева
савельевич
савем
сави
савик
савинов
савлич
савык
савыкта
савыкталт
савыкталтде
савыкталтеш
савыкталтше
савыкталтын
савыкталтыныт
савыкталтыт
савыкташ
савыктен
савыктеныт
савыктыме
савыктыш
савыктыше
савыктышым
савыктышын
савыктышыште
савыра
савыраш
савырен
савыреныт
савырна
савырнаш
савырнен
савырненыт
савырнымаш
савырныме
савырныше
савыртыш
савыртышым
савырыме
савырыше
савыш
сагдуллина
сагирова
сад
садак
саде
садер
садеран
садлан
садланак
садовин
саду
садыгак
садыш
садыште
сае
саемдаш
саемден
саемдымаште
саемдыме
саи
сакалтен
сакар
сакен
сакральных
саксофон
сакыме
салам
саламатнур
саламла
саламлат
саламлен
саламлена
саламленыт
саламлымаш
саламлыме
саламым
салика
саликович
салтак
салтакше
салтакъял
салтакым
салтакын
салтакыш
салтуганова
салымсола
сальвадор
сам
саман
саманын
саманыште
самар
самара
самаре
самарканд
самарысе
самая
сами
само
самого
самодеятельное
самодеятельности
самодеятельныи
самодии
самое
самои
самоле
самолет
самосознание
самост
самостоятельно
самостоятельнои
самсонов
самуил
самыи
самырык
самырыктукым
самырыкше
самых
сан
санатории
сандаков
сандалык
санденак
сандене
санкт
санкции
санскрит
сантиметр
санто
сантьяго
сану
санук
сануков
санюк
санюн
санян
сапаев
сапаева
сапаевым
сапаевын
сапан
сапеев
сапин
саппоро
сар
сараева
сараево
саранск
сарансола
сарапаи
сарапул
саратов
саратовскии
саратовысо
саргасс
сарда
сардабаш
сардаи
сардаял
сареш
сарзе
сарзывуи
саркурал
сарлан
сармак
сарсаде
сарт
сарым
сарын
сарыш
сарышке
сарышт
сарыште
саска
саскавии
саскаже
саскаи
саскам
саскан
сасканаи
саскашт
сатеевич
сатир
сатира
сату
сатум
сауд
саус
сахалин
сахара
сахаров
саша
саяк
саҥга
сб
сбоев
сбол
сборник
сборнике
сборникеш
сборниклаште
сборникше
сборникшым
сборникым
сборникын
сборникыш
сборникыште
сборникыштыже
сборныи
св
свадебные
свадебных
свадьба
свами
сваминараян
све
сведении
сведения
свердлов
свердловск
свердловскои
сверху
свет
света
свете
светлана
светлов
светлое
светлыи
светом
светскии
свечников
свидетельство
свинин
свободы
свод
свое
своего
своеи
своем
своему
своеобразие
свои
своим
своими
своих
свою
своя
связанные
связеи
связи
связь
святитель
святои
священник
священникын
священномученик
священныи
сгоднт
сд
сделал
сделать
се
себе
себя
сев
севастополь
севастопольым
север
севера
северная
северного
северныи
северо
сегед
сегодня
седан
седои
седьмои
седьмые
сеи
сек
секрет
секретарь
секретарьже
секретарьжылан
секретарьлан
секретарьын
сектор
секторым
секторын
секунд
секундах
секунды
секундышто
секции
секционных
секция
сел
села
селам
селан
селасе
селаш
селашке
селаште
селе
селение
селении
селин
село
селькор
селькуп
сельская
сельские
сельскии
сельских
сельского
сельское
сельскои
сельсовет
сельхозтехника
сем
семантика
семантике
семантики
семантическая
семантические
семантическии
семантических
семантического
семантическое
семантическои
сембер
семе
семеев
семеи
семен
семенов
семенова
семенович
семеновича
семеновна
семеш
семже
семинар
семинара
семинарии
семинарист
семисола
семлызе
семлызын
семлык
семмастар
семон
семонсола
семоным
сему
семык
семым
семын
семынак
семынат
семынже
семь
семье
семьи
семья
сен
сенда
сенде
сендеву
сент
сентябрь
сентябрьыште
сентября
сенькан
сенькинское
сенькова
сепеев
сер
сера
серапион
серафим
серафима
сераш
серб
сербии
сервер
сервис
сергеев
сергеева
сергеевич
сергеевна
сергеи
сергея
сергии
сердеж
сердец
сердца
сердце
сердыж
серебренников
серебряная
серебряныи
серегеи
середина
середины
серен
сереныт
сереньга
сереш
сержант
серже
сери
серии
серия
серкален
серлаге
серлаген
серлагыш
сернур
сернурскии
сернурского
серызе
серызыже
серызын
серыи
серым
серымаш
серыме
серын
серыпле
серысе
серыш
серышке
серышкыже
серыште
серыштыже
серышыже
серышым
серышыште
серышыштыже
сескем
сеснур
сессии
сессия
сестра
сети
сеть
сеул
сеҥа
сеҥалтше
сеҥалтын
сеҥаш
сеҥе
сеҥен
сеҥена
сеҥеныт
сеҥымаш
сеҥымашке
сеҥымашлан
сеҥымашыже
сеҥымашыжлан
сеҥымашыжым
сеҥымашым
сеҥымашын
сеҥымашыш
сеҥыме
сеҥымеке
сеҥымылан
сеҥыш
сеҥыше
сеҥышыже
сеҥышыш
си
сибатрова
сибгатуллина
сибири
сибирь
сибирьысе
сибирьыш
сибирьыште
сиватеев
сивыр
сивырыште
сигнал
сигналым
сигналын
сиднеи
сидоркин
сидоркина
сидоров
сидорова
сидорович
сидоровна
сидорово
сидоровское
сидушкин
сидушкинои
сидыр
сиза
сии
сила
силантии
силу
символ
символжо
символика
символов
символы
симеон
симметрии
симон
симпозиум
симпозиума
симферополь
симфонии
симфоническии
симфония
син
сингапур
сингл
синоним
синонимии
синонимических
синонимичных
синонимия
синонимов
синонимы
синонимым
синонимын
синтаксис
синтаксиса
синтаксисе
синтаксису
синтаксические
синтаксическии
синтаксических
синтаксического
синтаксическои
синтетических
синхронии
синхронныи
сио
сир
сирень
сирии
сиркка
сиры
систем
система
систематика
системах
системе
системныи
систему
системы
системым
системын
системыш
системыште
сита
сите
ситен
сити
ситников
ситуации
ситуация
ситыдымаш
ситыдымашым
ситыше
ситышын
сих
сиям
ск
ска
скаже
скажи
сказать
сказка
сказки
сказок
сказуемого
сказуемое
сказуемыи
сказуемым
скан
скандинавии
скаште
ская
сквозь
скгражданпроект
скелетон
ски
ские
скии
ским
ских
склад
складі
склонении
ско
скобелев
скобках
скобки
скобкышто
ского
ское
скои
сколько
ском
скому
скорее
скоро
скоростнои
скорпион
скрипач
скрипка
скрипкалан
скрипке
скрипки
скрыть
ску
скульптор
скульптур
скурыдин
скурык
скую
скысе
скыште
сл
слава
славин
славно
славы
славян
славянскои
сладкая
слан
сланен
сле
слева
след
следить
следственныи
следствии
следует
следующее
следующие
следующии
следующим
следующих
следы
слезе
слен
слендера
слесарьлан
слече
слобода
слов
слова
словакии
словами
словаре
словареи
словари
словарного
словарь
словаря
словарях
словах
словении
словесного
словесность
словник
слово
словоизменение
словом
словообразование
словообразования
словообразовательная
словообразовательные
словообразовательныи
словосочетании
словосочетания
словосочетаниями
сложного
сложное
сложноподчиненные
сложноподчиненных
сложносочиненные
сложности
сложные
сложныи
сложных
слот
служащии
служба
службо
службы
службылан
службым
службын
службышто
служебную
служебные
служебныи
служение
служит
служитла
служитлаш
служитлен
служитлыме
случае
случаи
случаях
слушателеи
см
смакова
смена
смерти
сми
смирнов
смирнова
смирновка
смирновын
смит
смогут
смола
смоленск
смоленскии
смоленцев
смоликов
смольникова
смоліи
смысл
смысла
смысле
смысловои
смышляев
смягчения
сна
снаи
снам
снаряд
сначала
снг
снег
снеге
снегире
снегу
снегурочка
снигире
снизу
сниматлаш
сниматлыме
снова
сноски
со
соавт
соавтор
соавторстве
собои
собор
соборын
собрание
собрания
собраны
собственность
собственныи
собственных
событии
события
событиях
сов
совершенно
совершенствование
совершенствования
совет
совета
совете
советникше
советск
советская
советскии
советских
советско
советского
советское
советскои
советшын
советын
советысе
советыште
советыштыже
совещание
совещании
совещания
совлам
совместимости
совместно
совместныи
совпадает
совпартшколышто
современная
современник
современников
современного
современное
современнои
современном
современности
современность
современные
современныи
современных
совсем
совхоз
совхозышто
совым
согласен
согласно
согласные
согласныи
согласных
согласование
содержание
содержании
содержания
содержаниян
содержащие
содержащии
содержимого
содержимое
содержит
содомиха
содорон
содоррак
сожалению
соза
созвездие
создавать
создае
создан
создана
создание
создании
созданию
создания
создать
сознание
сознании
сознания
созыв
сои
соискание
соказа
соколов
соколова
сокращение
сокращения
сокыр
сола
солаволкы
солам
солан
соласе
солаш
солаште
солдат
солдата
солист
солистка
солисткыже
солистше
солнечныи
солнца
солнце
солнышко
соло
соловеи
соловецкии
соловье
соловьев
соловьева
соловьиныи
соломин
соломон
солт
солык
солыкшым
солыкым
солымо
сольныи
сомали
соматизмов
соматическая
соматических
соматическои
сомбатхеи
сомневаюсь
сомнения
сомова
сомовои
сомыл
сомылжо
сомылжым
сомыллан
сомылым
сомылымат
сомылышт
сон
сонар
сонарзе
сонарыш
соната
сонет
сонеты
соня
сообщение
сообщении
сообщения
сообществ
сообщества
сообществе
сообщество
сообществом
сооружении
сооружения
соответственно
соответствии
соответствия
соответствующего
соответствующеи
соответствующие
соотношение
сопоставительная
сопоставительное
сопоставительнои
сопоставительныи
сопрано
сопредседательже
сопровождение
сопром
сопсан
сопсанын
соревновании
сорла
сорлаште
сорок
сорокин
сорта
сортам
сортируются
соседних
соснов
сосновка
сосновыи
сосны
сост
состав
состава
составе
составитель
составления
составного
составнои
составше
составыш
составышке
составышкыже
составыште
состоит
состоится
состояние
состоянии
состоянию
состояния
сотемдарче
сотнур
сото
сотовыи
сотрудников
сотрудникше
сотрудничества
сотрудничество
соты
сотыеҥ
сотыш
сотышто
софии
софия
софронов
софронова
софья
сохранение
сохранения
соц
социал
социализм
социализмым
социалист
социалистик
социалистическии
социалистическои
социально
социального
социальные
социальныи
социальных
социокультурное
социокультурном
социокультурные
социолог
социологии
социологических
социологического
социум
сочетании
сочетаниями
сочи
сочинении
сочинения
сочисе
сочиште
союз
союза
союзами
союзов
сп
спартак
спас
спасибо
спасскии
спб
спектакль
спектакльлаште
спектакльым
спектакльыште
специализации
специалист
специалистлан
специалистов
специалистше
специально
специальностеи
специальности
специальность
специальностьшо
специальностьым
специальныи
специфика
специфические
спид
спиридонов
спиридонова
спиридонович
списка
списками
списке
списки
списков
спискыште
список
сплав
споем
спои
спокои
спонсор
спор
спорные
спорт
спорта
спортсмен
спортсменка
спортсменлан
спортсменын
спортъеҥ
спортын
спортышто
споры
способ
способа
способе
способов
способы
справ
справа
справка
справкым
справочник
справочныи
спту
спутник
спят
ср
сравнении
сравнению
сравнения
сравнительно
сравнительного
сравнительнои
сравнительные
сравнительныи
сравнительных
сравоч
сравочым
сразу
среда
средах
среде
среди
среднего
среднее
среднеи
средние
среднии
средних
средняя
средств
средства
средствам
средствами
средство
среды
сретенка
срок
срока
сроком
сс
сср
ссру
ссср
сссрын
ссылка
ссылками
ссылке
ссылки
ссылкои
ссылку
ссылкыш
ссылок
ст
ста
стабильности
ставрополь
ставшая
стадии
стадион
стажировкым
стал
стала
стали
сталин
сталинград
сталинградым
сталинлан
сталино
сталинскии
сталинын
сталь
стамбул
стандарт
стандартле
стандартныи
станет
станислав
становится
становление
становлении
стану
станции
станция
стапан
старая
стареи
стариков
староверов
старого
старое
старшии
старшинов
старыгина
старые
старыи
статеи
статистик
статистика
статистике
статистики
статистическии
статуи
статус
статуса
статусе
статусшым
статусым
стать
статье
статьи
статью
статья
статьяж
статьяже
статьяжым
статьялам
статьялан
статьям
статьян
статьях
статьяшке
статьяште
статьяштыже
стаханов
ств
ства
стве
ствие
ствии
ствительно
ствительныи
ствия
ство
ствовать
ствует
ствующеи
стел
стелт
стелто
стелым
стембаке
стембал
стембалне
степ
степан
степанов
степанова
степанович
степановича
степановна
степаново
степановын
степени
степень
степеньже
степеньжым
степеньым
степенян
стер
стерлитамак
стефан
стив
стивен
стилевая
стилевые
стили
стилистика
стилистикыже
стилистическая
стилистические
стилистическии
стиль
стильым
стильын
стильыште
стилю
стиля
стипендии
стих
стихах
стихвла
стихи
стихии
стихов
стихотворение
стихотворении
стихотворения
стихым
сто
стоит
стокгольм
столяр
столярныи
столяров
сторона
стороне
стороны
стр
стран
страна
странам
стране
страниц
страница
страницах
странице
страницу
страницы
страницыште
страничку
страну
страны
стратегии
стратегическии
стратегия
страусова
страх
стрелковыи
стрельников
стрельца
стринг
строганова
строе
строи
строитель
строительныи
строительстве
строительство
строится
строк
строка
строке
строки
строку
строфан
строя
строятся
структур
структура
структуре
структурно
структурные
структуры
студ
студе
студент
студентам
студентами
студенткыже
студентов
студентше
студенческая
студенческого
студенческои
студии
ступенян
стюардов
стюарды
стюарт
су
суаплан
суапландаралтын
суапле
суаплыклан
суаплыкым
суапше
суапым
суас
суасла
субъект
субъекта
субъектами
субъективнои
субъектов
субъекты
суворов
суворовын
сугынь
сугыньлен
сугыньым
суд
судан
судын
судьба
судьбы
судья
судьяже
сузак
суздаль
сузы
сузын
сукен
сукма
суко
суксо
сула
сулавеси
сулен
суленыт
сулии
сулло
султан
султанович
сулу
сулык
суматра
сумка
суммышт
сумпу
сумы
сунгурова
сундырь
суоми
супергерои
суперсерии
суперэтноса
супикс
супиксым
сур
сургут
сурикова
суринам
суринамын
сурок
сурт
суртвольык
суртем
сурткаи
суртоза
суртшо
суртым
суртыш
суртышко
суртышкыжо
суртышто
суртыштым
сусанна
суслов
сусыр
сусырген
сусыргышо
сут
сутка
сутки
суффикс
суффикса
суффиксов
суффиксом
суффиксы
сухои
существительного
существительное
существительных
существовавшеи
существования
существует
сущности
сущность
сфера
сфере
сферын
сферысе
сферыште
сфу
схеме
схемы
сценарии
сценарист
сцене
сцены
сценыш
сценыште
сценыштыже
счастливая
счастье
счастья
сче
счет
считаешь
считаться
считаю
сш
сша
сшо
сшым
съезд
съезда
съездын
съездышт
сы
сывыным
сыктгу
сыктывкар
сылне
сылнештараш
сылнештареныт
сылнештарыме
сылныже
сылнылык
сылнылыкше
сылнылыкым
сылнымут
сылнымутан
сылнымутлан
сылнымутчо
сылнымутшо
сылнымутшым
сылнымутым
сылнымутын
сылнымутыш
сылнымутышт
сылнымутышто
сылнымутыштым
сылнын
сылнырак
сылнысу
сылык
сым
сымыктыш
сымыктышын
сымыктышыште
сымыстара
сымыстарен
сымыстарыше
сын
сына
сынан
сынже
сынжым
сынлымо
сыным
сынын
сыныште
сыныштым
сыра
сырак
сырен
сысоево
сыче
сычи
сычуань
сыш
сышт
сышто
сыштым
сэлемент
сэм
сэҥер
сюда
сюжет
сюжетан
сюжетше
сюита
ся
сіл
т
та
табачное
табашино
таблиц
таблица
таблицах
таблице
таблицу
таблицы
таблицым
табу
тавалыше
тавалышым
тавалышын
таве
тавра
тага
тагам
таганрог
тагил
таджик
таджикистан
таджикистанысе
таза
тазалык
тазалыкше
тазалыкшым
тазалыкым
таи
таиланд
таиландыште
таинстве
таир
таисия
так
такаси
такая
также
такие
таким
таких
такмак
такмакым
такого
такое
такои
такси
таксон
такшым
такыр
талант
талантан
талантливыи
талантше
талантшым
талвир
талгыде
тале
талешке
талешкыже
талешкын
таллин
таллинн
таллинныште
талман
талук
талукаш
талын
талышнен
там
тамаксола
тамакым
тамара
тамбов
тамга
тамгаже
тамгам
тамгаште
тамже
тамил
тамле
тамшинер
тамшэҥер
тан
танаксола
танастарымаште
танастарыме
танец
танзании
таникеева
танк
танлан
танле
таныгин
танык
таныккагаз
таныкше
таня
тапшер
тар
таракан
тараканов
тарас
тарасов
тарасовские
тарата
таратен
таратура
тарвана
тарванат
тарване
тарванен
тарваненыт
тарванылаш
тарваныме
тарваныш
тарвата
тарваташ
тарватен
тарватеныт
таргылтыш
таргылтыши
тарзе
тарту
тартускии
тартуского
тартушто
тарьянов
тасман
тасср
тат
татар
татаренер
татаризмы
татарла
татаро
татарские
татарскии
татарских
татарского
татарскои
татарском
татарстан
татарстана
татарэҥер
татыште
татьяна
тау
таум
таумутшо
тауштат
тауштен
тауштыме
тауштымо
тачана
тачат
таче
тачысе
ташкент
таҥ
таҥаса
таҥасат
таҥасаш
таҥасен
таҥасеныт
таҥастараш
таҥастаре
таҥастарен
таҥастарымаш
таҥастарымаште
таҥастарымашыште
таҥастарыме
таҥасымаш
таҥасымашлан
таҥасымашлаште
таҥасымаште
таҥасымашште
таҥасымашым
таҥасымашын
таҥасымашыште
таҥасыме
таҥасыше
таҥаш
таҥга
таҥдыш
таҥем
таҥемлан
таҥже
таҥна
таҥу
тбилиси
тв
твеи
твен
твенын
тверь
твои
твоих
твори
творческая
творчески
творческие
творческии
творческих
творческого
творческое
творческои
творчества
творчестве
творчество
творчествыж
творчествыже
творчествыжлан
творчествыжы
творчествыжым
творчествыжын
творчествылан
творчествым
творчествышт
творчествыштыже
творчествыштым
те
теат
театр
театра
театральная
театральные
театральныи
театрлан
театрым
театрын
театрыш
театрышке
театрыште
тебе
тебеково
тебя
теве
тега
тегеран
тез
тезисов
тезисы
тек
текст
текста
текстан
текстах
тексте
текстов
текстовые
текстом
текстше
тексты
текстым
текстын
текстысе
текстыш
текстыште
тектэҥер
текущеи
текущии
тела
теле
телевидение
телевидении
телевизор
телевизорым
тележурналист
телеканал
телекомпании
телерадиокомпании
телефон
тело
телылан
телым
телымсе
телын
тель
тем
тема
тематик
тематике
тематические
тематическии
тембал
темдал
темдалза
темдыме
теме
темен
темеш
теми
темла
темлат
темлаш
темлен
темлена
темленыт
темлымаш
темлыме
темлымыж
темме
темп
температуржо
температурыжо
тему
темы
темыже
темылан
темым
темын
тен
тенант
тенге
тендам
тендан
тенденции
тени
тении
теннис
теонимов
теоретическая
теоретические
теоретическии
теоретическои
теории
теория
теперь
тептеҥыз
тептеҥызым
тептеҥызын
тептеҥызыште
тер
терга
тергат
тергаш
терген
тергеныт
тергымаш
тергымашым
тергыме
тергыше
тереза
терентии
терентьева
терентьевич
теркет
теркыже
термин
терминал
терминами
терминов
терминологии
терминологическои
терминология
термины
терминым
тернополь
территории
тест
тестирования
тестовые
тесь
тетла
тетради
тетрадь
тетюши
тех
техас
техн
техник
техника
технике
техники
техникум
техникумым
техникумын
техникумыш
техникумышто
техникым
техникын
техническая
техническии
технических
технического
техническои
технолог
технологии
технологическии
течение
течет
теҥге
теҥгем
теҥгечысе
теҥыз
теҥызла
теҥызлан
теҥызсер
теҥызше
теҥызын
теҥызыште
ти
тибет
тигр
тидат
тиддеч
тиде
тидлан
тидланак
тидланат
тидланже
тидыжак
тидыже
тидыжым
тидым
тидымак
тидымат
тидын
тиев
тикын
тим
тиман
тимиркаев
тимиркаи
тимор
тимофеев
тимофеева
тимофеевич
тимофеевна
тимофеевои
тимофеи
тимраевич
тинг
тип
типа
типов
типографии
типография
типологии
типологически
типологические
типология
типше
типы
тираж
тиражше
тисте
тистыже
тистыжым
тистым
тистын
титак
титакан
титаклен
титакленыт
титаклыме
титакше
титакым
тихии
тихон
тихонов
тихонова
тихонович
тихоновича
тич
тичмаш
тичмашын
тишин
тишина
тиште
тиштер
тиштерым
тиштерын
тиштерыш
тиштерыште
тиштыже
тиштым
тиштын
тко
ткылан
ткылыкым
ткын
ткышым
тла
тламарии
тли
тлин
тман
тместер
тные
тныи
тных
то
тобои
тобольск
тов
товар
товарищи
товарнур
тогда
того
тодымваж
тоеныт
тоже
тои
ток
токарев
токио
токмак
токмурзин
токози
токпаи
токспаи
токсубаи
токтаи
токтамыж
токтар
токтарсола
токташева
тол
толам
толат
толаш
толашат
толашен
толашеныт
толеденыт
толеш
толза
толковыи
толкын
толкынжо
толкынлан
толкыным
толкынын
толкынышто
толмань
толмек
толмеке
толмекше
толмекыже
толмо
толмыж
толмыжо
толмыжым
толмым
толмыштым
толстов
толстои
толшаш
толшо
толын
толынам
толынат
толыныт
толыт
только
тольо
тольым
толя
толян
том
томан
томас
томах
томаша
томбо
томе
томныи
томск
томскино
тому
тон
тонн
тоншаевском
тоншаи
топ
топкавлак
топкаи
топливо
топологии
тополь
топонима
топонимах
топонимии
топонимика
топонимике
топонимики
топонимические
топонимических
топонимия
топонимов
топонимы
тор
тора
торалык
торасола
тораш
торашке
тораште
торгаи
тореш
торешку
торжа
торжествующая
торлен
тормоз
торонто
торъял
торъялысе
торык
тос
тоскисола
тосурт
тот
тотир
тототлымвер
точек
точка
точки
точко
точкои
точкыжо
точкылан
точно
тошкал
тошкалтыш
тошкалше
тошкалын
тошкем
тошкемнур
тошнур
тоштер
тоштерже
тоштерлаште
тоштерым
тоштерын
тоштерыште
тошто
тошты
тоштыеҥ
тоштым
тоштын
тоя
тоям
тояш
тпк
тр
тра
трагедии
трагедия
трагикомедии
традиции
традиционная
традиционнои
традиционном
традиционные
традиционныи
традиционных
тракт
трактор
тракторист
трамваи
транскрипции
транспорт
транспорта
транспорте
транспортная
транспортым
транспортын
трансформации
трансформация
траншеи
тре
требовании
требует
требуется
трек
тренер
тренерже
тренерлан
трети
третии
третьего
третьи
третьяк
третьяков
треугольник
трех
три
тридцати
триллион
трилогии
тринадцатыи
тринидад
тринити
трио
трифон
трифонова
трои
троицкии
троицко
троллеи
тронько
тропинка
трофим
трофимович
трубянова
труд
труда
трудах
трудно
трудов
трудовои
труды
трук
трухин
трюкым
тся
тту
ту
туан
туарам
тува
тувалу
тувыр
тувыра
тувыртыш
тувырым
тугае
тугаи
тугак
тугат
тугаяк
туге
тугеже
туда
тудак
тудат
туддеч
тудлан
тудо
тудыжо
тудым
тудымак
тудымат
тудын
тудынат
тужа
тужаров
тужарова
туи
тук
тукаи
тукым
тукымжо
тукымжым
тукымлан
тукымлу
тукымым
тукымын
тукымыш
тукымышт
тул
тула
тулан
тулар
тулармарии
тулаче
тулбень
тулвуи
тулгем
тулеч
тулеш
тулжо
тулла
тулото
тулык
тулыкеш
тулым
тулыштыжо
тульчин
тум
тумер
тумерсола
тумна
тумньо
тумньымучаш
тумо
тун
туналеш
туналтыш
туналын
тунам
тунамак
тунамсе
тунар
тундра
тунем
тунемаш
тунемеш
тунемза
тунеммаш
тунеммаште
тунеммашым
тунемме
тунеммыж
тунеммыже
тунеммыжым
тунеммым
тунеммышт
тунемше
тунемшыже
тунемшылан
тунемшын
тунемын
тунемына
тунемынам
тунемыныт
тунемыт
тунис
туныкта
туныктат
туныкташ
туныкташлан
туныктен
туныктеныт
туныктымаш
туныктымаште
туныктымашын
туныктымо
туныктымыж
туныктыш
туныктышем
туныктышо
туныктышыжлан
туныктышыжо
туныктышылан
туныктышым
туныктышын
тунья
туня
туням
тунямбал
туняште
туп
тупик
тупру
тур
тура
туран
туранча
тураште
турбодизель
тургыжландарыше
тургыжланен
тургыжланыше
тургым
тургымышто
турек
турекскии
турекыште
туризм
турии
турин
турист
турия
туркменбаши
туркменистан
туркменистаныште
турку
турло
турнир
турнирым
турнирыш
турнирыште
турня
турок
турун
турции
турцин
турша
туршинское
туршо
тус
тусан
тусо
тут
тутан
туткар
тутло
туто
тутыра
тутыш
туш
тушан
тушеч
тушечын
тушка
тушкалан
тушкам
тушко
тушман
тушманат
тушманлан
тушманым
тушманын
тушнур
туштак
туштат
тушто
туштыжо
туштылтен
туштым
туҥ
туҥалын
тхти
тчик
тше
тъял
тъялысе
ты
тывеч
тыгае
тыгаи
тыгак
тыгакак
тыгаяк
тыге
тыгеак
тыгеже
тыгерак
тыгеракын
тыглаи
тыгодсо
тыгодым
тыгодымак
тыгыде
тые
тыи
тык
тыланда
тыланет
тыланыме
тылат
тылеч
тылзан
тылзаш
тылзе
тылзыже
тылзылан
тылзым
тылзын
тылзысе
тылзыш
тылзыште
тылзыштыже
тым
тымарте
тыматле
тымбагуш
тымбаи
тымык
тын
тынар
тынек
тынеш
тынын
тыныс
тыныслык
тыныслыкым
тыныш
тыныште
тынь
тып
тыр
тыра
тыртыш
тырша
тыршат
тыршаш
тыршен
тыршена
тыршеныт
тыршыман
тыршымаш
тыршымашым
тыршыме
тыршымыж
тыршымыже
тыршымыжлан
тыршымыжым
тыршымышт
тыршыш
тыршыше
тырым
тырын
тыс
тысе
тысячелетия
тыш
тышак
тышакын
тышан
тышеч
тышечак
тышечын
тышкак
тышке
тыштак
тыштат
тыште
тыштыже
тыят
тыҥга
тьопаи
тюза
тюмень
тюрк
тюркизмов
тюрко
тюркологическои
тюркские
тюркских
тюркского
тюркскои
тюрьма
тюрьмаш
ті
төркем
у
уа
уаш
уашын
уашыште
уважаемые
уважением
увер
увераҥар
увераҥарым
уверде
увертара
увертарен
увертареныт
увертарымаш
увертарымашым
увертарыме
уверым
увидеть
увэр
уганда
угарман
угарманысе
угинде
угнту
уголовныи
угор
угорская
угорские
угорскии
угорским
угорских
угорского
угорское
угорскои
угристика
угристике
угро
угров
угровед
угроведа
угроведение
угроведении
угроведению
угроведения
угроведов
угры
угыч
угычын
уд
уда
удалена
удаление
удаления
удалить
удалого
удалять
удам
удан
ударле
ударник
удгу
удельныи
удивительного
удм
удмурт
удмуртии
удмуртия
удмуртоведение
удмуртские
удмуртскии
удмуртского
удмуртскои
удобно
удостоверении
удыр
удырамаш
удэ
уезд
уезда
уездныи
уездын
уездысе
уездыш
уездыште
уефа
уж
ужава
ужалаш
ужален
ужалыме
ужалыше
ужам
ужар
ужарге
ужас
ужат
ужата
ужатат
ужатен
ужатеныт
ужатымаш
ужатыме
ужаш
ужашан
ужашлан
ужашыж
ужашыже
ужашыжым
ужашым
ужашын
ужашыш
ужашышкыже
ужашышт
ужашыште
ужашыштыже
ужгород
ужде
уждымо
уже
ужеш
ужмаш
ужмо
ужмыжо
ужмым
ужо
ужшо
ужым
ужын
ужына
ужынам
ужыныт
ужыт
узбек
узбекистан
узбекистанысе
узбекистаныште
узел
узловые
узнаи
узнать
узник
узо
узоры
узы
уи
уильям
ук
указ
указан
указание
указанием
указания
указаннои
указанных
указано
указаны
указатель
указать
указше
указывается
указывать
указываются
уке
укелан
укелык
укепал
укзше
укп
укр
украин
украина
украине
украины
украинын
украинысе
украиныште
украі
укш
укшинчыш
укшо
укшым
укым
ула
улам
улан
уланова
улат
улеш
улисьял
улица
улице
улмаш
улмо
улмыж
улмыжлан
улмыжо
улмыжым
улмылан
улмым
улмышт
улмыштым
уло
улс
улшо
улыда
улыжат
улыл
улына
улыт
ульяна
ульянов
ульянова
ульяновск
умбак
умбаке
умбакыжат
умбакыже
умбакыжым
умбал
умбалне
умбач
умдан
умдо
умдыла
умдыр
умк
умолчанию
умурбаева
умша
умшам
умыл
умыла
умылаш
умылем
умылен
умылена
умыленыт
умыло
умылтара
умылтарат
умылтараш
умылтарен
умылтарымаш
умылтарыме
умылыдымаш
умылыдымашым
умылымаш
умылымашыже
умылымашыжым
умылымашым
умылымашышт
умылымо
умыр
умытаевич
ун
уна
унала
унам
унжа
универсал
универсалии
универсального
универсальное
университет
университета
университете
университетлаште
университетов
университеты
университетым
университетын
университетысе
университетыш
университетышке
университетыште
уникальные
унитар
унификации
унтер
унур
унчо
уныка
уныкаже
уныкашт
уньжа
уньжинскии
уполномоченныи
употребление
употреблении
употребления
управление
управлении
управлению
управления
упражнении
упш
упша
упшо
упшым
ур
ура
уразаево
урал
урала
урале
урало
уралом
уралысе
уралыш
уралыште
уральскии
уральских
уральского
ургакш
ургаш
ургызо
ургымо
уре
урем
уремже
уремла
уремлаже
уремлан
уремлаште
уремым
уремын
уремысе
уремыш
уремышкыже
уремыште
уржа
уржум
уржумки
уржумноля
уржумского
урлык
урмыж
уро
уровень
уровеньыште
уровне
уровня
урожаи
урок
уроках
уроки
урокым
урокышто
урср
уртем
уругваи
урын
уса
условие
условии
условия
условиях
условно
усовершенствования
усола
усолинского
усолье
успенскии
успехов
уста
устава
уставе
усталык
усталыкше
усталыкшым
усталыкым
устан
установить
установлении
установлено
устин
устинов
устного
устнои
устои
устраивать
устрои
усть
устье
устюг
усурт
утара
утаралтмаш
утараш
утаре
утарен
утарыме
утарымылан
утарыше
утверждении
утверждения
утверждено
утка
утла
утларак
утларакше
утларакшым
утлаш
утлен
уто
утро
утром
утыждене
утыр
утышо
утятин
утятина
уфа
уфасе
уфимскии
уфимского
ухта
уч
учаев
учаева
учаевские
учаевын
участвоватла
участвоватлаш
участвоватлен
участвовать
участие
участием
участии
участник
участника
участникам
участниками
участники
участников
участником
участнику
участникше
участок
участокшо
учащихся
уче
учеб
учебная
учебник
учебникше
учебникым
учебникын
учебно
учебного
учебное
учебнои
учебные
учебныи
учебных
учен
учении
ученик
ученикше
ученого
ученои
ученые
ученыи
ученых
училищ
училища
училище
училищым
училищын
училищыш
училищышке
училищыште
учимсола
учителе
учителеи
учитель
учительскии
учительскои
учителю
учителя
учо
учреждение
учреждении
учреждениях
уш
уша
ушаков
ушакова
ушакован
ушаково
ушаковои
ушалтеш
ушалтме
ушалтын
ушан
ушат
ушаш
ушел
ушем
ушемлаште
ушемым
ушемын
ушемысе
ушемыш
ушемышке
ушемышт
ушемыште
ушен
ушеш
ушешем
ушештара
ушештаралтеш
ушештараш
ушештарена
ушештарыше
ушешыже
ушкал
ушкалым
ушков
ушмен
ушна
ушнат
ушнаш
ушнен
ушненыт
ушнур
ушнык
ушнымаш
ушнымо
ушнымыжо
ушнышо
уштеныт
уштымо
уштыш
ушут
ушым
ушымаш
ушымо
ушыш
ушышкыжо
ушышо
ушышто
ушыштыжо
уым
уэмден
уэмдыме
уэмеш
уэмше
уэш
уял
ф
фа
фабрик
фабрике
фабрикыште
фавст
фадеева
фадеево
фаи
фаина
фак
факт
фактически
фактор
факторы
факультет
факультета
факультете
факультетов
факультетскои
факультетшым
факультетым
факультетын
факультетысе
факультетыш
факультетышкыже
факультетыште
факультетыштыже
фамилии
фантазии
фантаст
фантастике
фастов
фашизм
фашизмым
фашист
фашистскии
фбгоу
фгбоу
фгос
фе
фев
февр
февраль
февральыште
февраля
фед
федерал
федеральная
федерального
федеральныи
федеративном
федераци
федерации
федерико
федор
федоров
федорова
федорович
федоровна
федоровои
федосеева
федот
федота
федоткино
федотов
федотова
федотовна
феи
феликс
феллини
феллинин
фельдшер
фельетон
фельетоным
феномен
феодал
феодор
феодора
феодосии
феофан
феофил
фергана
фермер
ферми
фермин
фермыште
фестиваль
фестивальым
фестивальын
фестивальыште
фестиваля
фигур
фигурист
фиджи
физик
физика
физике
физико
физиологии
физическии
физкультур
филадельфии
филармонии
филиал
филиалыштыже
филимон
филимонов
филимонович
филипп
филиппин
филиппов
филиппович
филиппсола
филол
филолог
филологи
филологии
филологические
филологическии
филологических
филологического
филологическои
филологическом
филология
филологов
философ
философии
философия
философские
философскии
фильм
фильмже
фильмлан
фильмографии
фильмым
фильмын
фильмыште
фин
финал
финалыште
финанс
финляндии
финн
финно
финнов
финноугорского
финноугровед
финноугроведение
финноугроведению
финноугроведения
финские
финскии
финских
финского
финском
фирмын
фирсов
фифа
флаг
флага
флагификации
флагификация
фламенко
флеи
флор
флорентии
флоренции
флорида
флористическои
флот
флотын
фока
фокина
фольклор
фольклора
фольклоре
фольклорист
фольклористика
фольклористики
фольклористы
фольклористын
фольклорна
фольклорная
фольклорно
фольклорные
фольклорныи
фольклорных
фольклорым
фома
фомин
фоминых
фомич
фон
фона
фонд
фонда
фонды
фондын
фонем
фонема
фонематическии
фонемы
фонетика
фонетике
фонетики
фонетико
фонетикыже
фонетическая
фонетические
фонетическии
фонологии
фонологическом
фонология
форвард
форм
форма
форман
формантов
формат
формата
формате
форматировании
формах
формации
форме
формирование
формировании
формированию
формирования
формо
формул
формула
формулы
формы
формыжо
формыжым
формым
формышт
форраш
форсаж
фортепиано
фортепианолан
форум
форума
форуме
фото
фотограф
фотографии
фотожо
фотосу
фр
фрагмент
фразеологизированные
фразеологизм
фразеологизмами
фразеологизмах
фразеологизмов
фразеологизмы
фразеологии
фразеологические
фразеологическими
фразеологических
фразеология
франковск
франц
франции
франциско
француз
французскии
французских
французского
французском
французскому
франческо
фрау
фрг
фредерик
фридрих
фрисби
фристаи
фролов
фронт
фронтлаште
фронтовик
фронтовои
фронтысо
фронтыш
фронтышко
фронтышто
фундаментальные
фуникуле
функции
функционально
функционирование
функционирования
функция
фурзиков
футбол
футболист
футболка
футболым
футболын
фф
х
ха
хаант
хабаровск
хабибуллина
хазар
хаи
хакасии
хакимова
халтурино
халык
халыып
хам
хамеев
хан
ханои
хант
ханты
характер
характера
характеран
характеристика
характеристике
характеристики
характеристикыже
характеристикым
характеров
характеры
харламов
харламовым
харламовын
харьков
хасан
хасанов
хеи
хельсинки
хельсинкисе
херне
херсон
херши
хи
химии
химик
химическии
химических
хинди
хинду
хино
хирург
хирургии
хисамутдинова
хит
хитрая
хлеб
хлебников
хлебниково
хлыбов
хмельник
хмельницкии
хо
хозяи
хоккеи
хоккеист
холбооны
холи
холм
холодильник
хор
хора
хорват
хорватии
хореографии
хорлан
хормеи
хоровои
хоровые
хорошие
хорошо
хоры
хорым
хорышто
хостинг
хотел
хотели
хотите
хоть
хотя
хотябы
хотят
хочет
хочется
хочешь
хочу
хошимин
храм
храмыште
храни
хребтах
хрест
хрестомати
хрестоматии
хрестоматия
христиан
христианизация
христианлык
христина
христолюбов
христос
христосын
христофор
христофорович
хроника
хрустальныи
хтысячники
хуан
худ
худож
художественная
художественно
художественного
художественное
художественнои
художественном
художественности
художественные
художественныи
художественных
художник
художников
хузангаи
хутор
хх
хэи
хільчевськии
ц
ца
цам
царанур
царевококшаи
царегородцев
царии
цармис
цартак
царь
цвет
цвета
цветет
цветов
цветок
цветы
цев
цева
цевержы
целевои
целеи
цели
целищев
целлюлоз
целогина
целостного
цель
цельым
целью
ценностеи
ценности
ценностно
ценностнои
ценностные
ценность
центр
центра
центральнои
центральныи
центре
центриздат
церкви
церковно
церковь
цибикнур
цивилизации
цигансола
цикл
цикла
циклым
цилиндр
цинглок
цинглокскии
циприпедиум
цит
цитате
цитаты
цифр
цифра
цифран
цифре
цифровои
цифрои
цифрым
цк
цкы
цотнаи
цска
цу
цы
ч
ча
чаваи
чад
чаи
чак
чаклык
чакмарии
чакнаш
чакнен
чал
чалаи
чалая
чалтыш
чаманаш
чамане
чаманен
чаманыде
чан
чап
чапаи
чапи
чапкагазше
чапку
чаплана
чапландара
чапландарен
чапланен
чапланымылан
чапланыше
чапле
чаплу
чаплын
чапмуро
чапмурыжлан
чаптанык
чапше
чапшым
чапым
чара
чарак
чаракым
чаралтеш
чарано
чаранур
чараш
чарен
чареныт
чарка
чарла
чарлак
чарлаште
чарльз
чарна
чарне
чарнен
чарненыт
чарнур
чарныде
чарныш
чарыме
чарыше
час
частеи
части
частина
частиц
частица
частице
частицы
частично
частности
частныи
часто
частушках
частушки
часть
частью
частян
частях
часы
чатка
чаткан
чатлама
чачавии
чачикова
чашен
чашеныт
чашкаял
чашкер
чашымаш
чашымаште
чаҥ
чаҥа
чаҥгала
чгигн
че
чебоксары
чевер
чеверже
чеверласа
чеверласаш
чеверласен
чеверласыме
чевернур
чеверын
чего
чек
чекист
чекманур
чекмари
челны
человек
человека
человеку
человеческои
челюскино
челябинск
челябинского
чем
чембулат
чемеков
чемпион
чемпионат
чемпионатлаште
чемпионатше
чемпионатым
чемпионатын
чемпионатыште
чемпионжо
чемпионка
чемпионкыжо
чемышев
чемышева
чен
ченнаи
ченыт
чепаи
чепецк
чер
чере
чередование
через
черемис
черемисская
черемисскии
черемисского
черепанов
черет
черетан
черкасола
черкассы
черке
черкесии
черкесола
черкыже
черкылаште
черкым
черкын
черкысе
черкысола
черкыш
черкыште
черлан
черлана
черланен
черланыше
черле
черлидинг
черная
чернигов
чернила
чернов
черновцы
черного
черное
черноморье
черноозе
черноозерье
черныи
черных
черняков
черым
чеснокова
честнын
честь
чесым
четвертыи
четкаре
четкарев
четлык
четлыкыш
четных
четыре
четырех
чех
чехии
чехов
чеховын
чехонте
чехословакии
чечен
чечено
чечня
чечняште
чиванов
чивых
чиен
чиеныт
чии
чикаго
чикта
чиктен
чили
чимарии
чинданур
чинмои
чиновник
чинче
чирки
чирпамаш
числа
числам
числе
численность
числительными
числительных
число
числом
чисола
чистополов
чита
читателеи
читать
читово
чия
чиялтен
чиялтыме
чиям
чиян
чият
чияш
чк
чка
чкаш
чкыдылык
чкыдын
чкыдынак
чкыдынрак
чкын
чкыш
член
члена
членами
членах
членже
членжылан
членов
члены
членыш
чо
чобык
чобыково
човыксола
чогашыл
чодра
чодрасе
чодраште
чодраял
чодыра
чодыразыже
чодырам
чодыран
чодырасе
чодыраш
чодырашке
чодыраште
чодыраял
чож
чои
чокмар
чокым
чолга
чолгалык
чолгалыкше
чолгалыкым
чолган
чолман
чоло
чолпан
чон
чонан
чондымо
чонем
чонемлан
чонемым
чонен
чонет
чонеш
чонешыже
чонжо
чонжым
чонлан
чончурии
чоным
чонымо
чоныш
чонышкыжо
чоныштем
чонышто
чоныштыжо
чоныштым
чоп
чопаи
чопак
чор
чораи
чормак
чорного
чот
чотак
чоткар
чоткыдын
чотмут
чотрадам
чотрак
чотшо
чотым
чотын
чотысе
чотышт
чочои
чоя
чоҥа
чоҥалтеш
чоҥалтме
чоҥалтмыже
чоҥалтмыжым
чоҥалтын
чоҥалтыныт
чоҥат
чоҥаш
чоҥга
чоҥен
чоҥенын
чоҥеныт
чоҥешта
чоҥешташ
чоҥештем
чоҥештен
чоҥештылше
чоҥештыме
чоҥымаш
чоҥымашке
чоҥымаште
чоҥымо
чоҥымылан
чоҥышо
чоҥышыжо
чтение
чтению
чтения
что
чтоб
чтобы
чу
чубарев
чув
чуваш
чувашии
чувашскии
чувашских
чувашского
чувашскои
чудес
чудотворец
чузаев
чук
чукаем
чуковскии
чукот
чукотко
чуксола
чукша
чукше
чулым
чулымын
чумаков
чумбылат
чумбылатым
чумбылатын
чумыр
чумыра
чумыраш
чумырген
чумыргеныт
чумыргышо
чумырен
чумыреныт
чумырымаште
чумырымо
чурии
чуриян
чурык
чуть
чучеш
чучкыдын
чучмым
чучо
чучын
чуяка
чхаидзе
чыве
чывыж
чывым
чыган
чыж
чыз
чык
чыкемдымаш
чыкемеш
чыкма
чыкрак
чыкъер
чыкын
чыкэҥер
чыл
чыла
чылажат
чылажге
чылаже
чылажымат
чылалан
чылам
чылан
чыланат
чылашт
чылаштым
чылдемыр
чылт
чым
чын
чынак
чынвозыш
чынже
чынжым
чынжымак
чынлан
чынле
чынрак
чыным
чыр
чырык
чытамсыр
чыташ
чыте
чытен
чытырналтмаш
чытырналтме
чытырнымаш
ш
ша
шаба
шабалин
шабдар
шабдаров
шабдарова
шабдарын
шабле
шаблон
шаблона
шаблонами
шаблонах
шаблоне
шаблонов
шаблоном
шаблону
шаблоны
шаблоным
шаблонын
шабыков
шаг
шагал
шагалемеш
шагалемын
шагалрак
шаганур
шаганэ
шагат
шагатат
шагатлан
шагатыште
шаги
шадт
шаи
шакиров
шакирова
шакиртович
шакше
шала
шалагин
шалана
шаланен
шалаташ
шалатен
шалатеныт
шале
шамаевна
шамаи
шамак
шамиев
шамов
шамыч
шамычат
шамычлан
шамычше
шамычым
шамычын
шан
шана
шанат
шанаш
шандарен
шандарыше
шандор
шане
шанем
шанен
шаненыт
шанле
шанхаи
шанче
шанчыеҥ
шанчыеҥже
шанчызе
шанчым
шанчын
шанчыште
шанъеҥже
шаныза
шаным
шанымаш
шанымашын
шаныме
шап
шапалга
шапалге
шапки
шапкин
шаплак
шапланерка
шапы
шар
шара
шарангскии
шарангского
шарача
шараш
шараҥ
шараҥге
шарен
шарик
шаркален
шарла
шарлат
шарлаш
шарлен
шарленыт
шарлымаш
шарлыме
шарлыше
шарль
шарна
шарналта
шарналтат
шарналтен
шарналтена
шарналтеныт
шарналтет
шарналтыме
шарнат
шарнаш
шарне
шарнем
шарнен
шарнет
шарныкта
шарныктыш
шарнымаш
шарнымашеш
шарнымаште
шарнымашыж
шарнымашыже
шарнымашым
шарнымашыштыже
шарныме
шарныш
шарово
шары
шарыме
шарын
шарыше
шасси
шахмат
шачмы
шаш
шашке
шашлык
шашым
шая
шаяшты
швед
швеи
швеции
швецов
ше
шевченка
шевченко
шего
шедра
шее
шеи
шеклянур
шекман
шекмино
шекспир
шекспирын
шекш
шел
шелалтеш
шелалтын
шелалтыныт
шелалтыт
шелаш
шеледалтеш
шеледен
шеледымаш
шеледыме
шелепов
шелеш
шелковые
шелме
шелык
шелын
шелыт
шем
шемалге
шеме
шемер
шемерым
шемерын
шеми
шемкурык
шеммландыдымыжым
шемпамаш
шемшу
шемъер
шенцева
шепка
шепкаште
шер
шергакан
шергаш
шерге
шерген
шергылтеш
шергылтын
шергырак
шердыж
шере
шеремет
шереметьево
шереҥге
шернур
шернуреш
шернурысо
шернурышто
шерым
шерын
шестаков
шестакова
шестаково
шестои
шестоперов
шесть
шеч
шеш
шешке
шеҥгек
шеҥгел
шеҥгелан
шеҥгелне
шеҥше
шеҥын
ши
шива
шигабуддин
шигак
шие
шиж
шижалтеш
шижам
шижаш
шижде
шижеш
шижмаш
шижмашыже
шижмашыжым
шижмашым
шижме
шижмым
шижтара
шижтарен
шижын
шижынат
шии
шикш
шим
шимшурга
шина
шинели
шинча
шинчав
шинчаваш
шинчаву
шинчажге
шинчаже
шинчажым
шинчал
шинчалан
шинчалык
шинчалым
шинчам
шинчан
шинчаончалтыш
шинчат
шинчаш
шинчашкет
шинчаштым
шинче
шинчен
шинченыт
шинчет
шинчеш
шинчымаш
шинчымашан
шинчымашыжым
шинчымашым
шинчымашын
шинчыме
шинчын
шинчыныт
шинчыше
шиньша
шиповника
ширина
ширину
ширины
широкии
широта
широты
ших
шихмамат
шичмаш
шичме
шичше
шишкин
шишкина
шиялтыш
шиялтышым
шк
шка
шкаже
шкажлан
шкажын
шкак
шкалан
шкаланже
шкаланышт
шкалаште
шкалин
шкалина
шкам
шкан
шканже
шкасе
шкат
шкаш
шкашке
шкаште
шкашу
шке
шкеак
шкеат
шкевуя
шкеж
шкежак
шкежат
шкеже
шкелии
шкелу
шкем
шкемым
шкемын
шкен
шкенан
шкендан
шкенжым
шкенжымат
шкенжын
шкеныштым
шкеныштын
шкет
шкетак
шкетан
шкетана
шкетанлан
шкетанын
шкетын
шкешотан
шкештат
шкин
шкино
шкм
шко
шкоде
школ
школа
школан
школах
школе
школеш
школжо
школла
школлан
школлаште
школы
школым
школын
школысо
школыш
школышко
школыштак
школышто
школьников
школьного
школьныи
шкыж
шкыл
шкыр
шкырак
шкыран
шлань
шло
шляпа
шляпино
шман
шмо
шмым
шн
шнавизмын
шнаран
шно
шну
шнуи
шнур
шнырак
шо
шовакшэҥер
шовыр
шовыч
шовычым
шога
шогал
шогалаш
шогале
шогалеш
шогалза
шогалме
шогалта
шогалтат
шогалташ
шогалтен
шогалтеныт
шогалтыме
шогалше
шогалын
шогалыныт
шогалыт
шоган
шогат
шогаторалык
шогаш
шогем
шоген
шогенам
шогеныт
шогертен
шого
шогодолсола
шогымо
шогымыжо
шогымыжым
шогымым
шогышаш
шогышо
шогышыла
шодо
шодыгол
шодыр
шои
шок
шокта
шокташ
шокте
шоктен
шокто
шоктыктен
шоктыш
шоктышан
шоктышо
шоктышыжо
шоктышыжым
шоктышым
шокшем
шокшемсола
шокшо
шокшым
шокшын
шол
шола
шолагаи
шолдыра
шолдыргышо
шолем
шолер
шолеш
шолкер
шолнер
шолнермучаш
шоло
шолт
шолтат
шолтен
шолтеныт
шолтымо
шолын
шолып
шолыпмут
шолыпмутым
шолышт
шолыштшо
шольо
шольыж
шольыжо
шольым
шолэҥер
шоляк
шомак
шомакла
шомакше
шомакшым
шомакым
шомакымат
шомакын
шомакыште
шона
шоналташ
шоналтен
шонанпыл
шонат
шонаш
шонго
шонеда
шонем
шонен
шонена
шоненыт
шонет
шонкала
шонкалаш
шонкален
шонкалымаш
шоно
шонымаш
шонымашан
шонымаште
шонымашыже
шонымашыжым
шонымашым
шонымашыш
шонымашышт
шонымашыштым
шонымо
шонымыж
шонымыжо
шонымыжым
шонымышт
шоныш
шонышо
шонышым
шопке
шопкер
шопо
шор
шора
шорвондо
шорвондым
шордо
шорду
шорокундыш
шорсола
шорт
шорташ
шортеш
шоруньжа
шоруньжинского
шорчол
шоръял
шорык
шорыки
шорыкым
шорыкэҥер
шоссе
шот
шотан
шотдымо
шотеш
шотла
шотлалт
шотлалташ
шотлалтеш
шотлалтше
шотлалтын
шотлалтыт
шотлан
шотланд
шотландии
шотлат
шотлаш
шотлен
шотленыт
шотло
шотлыде
шотлыман
шотлымаш
шотлымо
шотлышо
шотпал
шотшо
шотым
шотыш
шотышко
шотыштак
шотыштат
шотышто
шоу
шофер
шоч
шочаш
шочашыже
шочеш
шочмаш
шочмеке
шочмо
шочмыж
шочмыжлан
шочмыжо
шочмыжым
шочмым
шочмын
шочо
шочшан
шочшем
шочшо
шочшыжо
шочыкта
шочыкташ
шочыктен
шочыктышо
шочын
шочынат
шочынжо
шочыныт
шочыт
шошо
шошым
шошымсо
шошын
шоя
шояк
шоҥго
шоҥгым
шоҥгын
шоҥшо
шпион
шпык
шри
шрифт
шт
шта
штаб
штабын
штат
штатла
штатыште
шташ
ште
штен
штернберг
што
штрамарии
штраф
штрафым
штук
штурм
шты
штык
штыкшо
штыкым
штылаш
штылеш
штылмаш
штым
штымбал
штымо
штымыжым
штын
штыш
штышо
штышто
шу
шуа
шуаралташ
шуаралтеш
шуаралтше
шуаралтын
шуарен
шуарсола
шуарыме
шуат
шуаш
шуберт
шубин
шудан
шудетым
шудо
шудыгуж
шудым
шудымарии
шудымо
шудыр
шудышырчык
шуен
шуеш
шужен
шужо
шуи
шукат
шукертак
шукерте
шукертсек
шуко
шукорак
шукта
шукталтде
шукталтеш
шукталтын
шуктат
шукташ
шукташлан
шуктен
шуктеныт
шукто
шуктыдымо
шуктыман
шуктымаш
шуктымеке
шуктымо
шуктымылан
шуктышаш
шуктышо
шукшан
шукыж
шукыжо
шукыжым
шукылан
шукым
шукын
шукынжо
шукырак
шукышт
шукыштым
шула
шулаш
шулдо
шулдыр
шулдыран
шулдыржо
шулдырым
шулен
шулепов
шулка
шулко
шултыш
шум
шумат
шуматкече
шуматкечын
шуматов
шуматович
шумек
шумеке
шумец
шумеш
шумешке
шумлык
шумо
шумылан
шумят
шун
шундыр
шунсола
шуо
шупшалалтмаш
шупшалын
шупшеш
шупшмо
шупшыкташ
шупшыктымаш
шупшылеш
шупшын
шупшыт
шур
шура
шурабашского
шурга
шургиял
шургумал
шургуял
шурду
шурка
шурмаҥше
шурнет
шурнетым
шурно
шурным
шуршо
шучко
шушаш
шушер
шушмурка
шушо
шуымо
шуын
шуынат
шуыныт
шуыт
шуэ
шуэн
шуэнрак
шуэш
шуя
шуялтен
шуяш
шуҥго
шуҥгын
шы
шыгыр
шыде
шыдешкен
шыдын
шыжа
шыже
шыжы
шыжым
шыжымсе
шыжын
шыл
шылгочшо
шылжым
шыли
шылташ
шылте
шылтен
шылтыме
шылтымно
шылым
шылын
шым
шыма
шымавуч
шымакш
шыман
шыманрак
шымата
шымияш
шымла
шымлат
шымлаш
шымле
шымлен
шымленыт
шымлу
шымлызе
шымлызыже
шымлымаш
шымлымашке
шымлымаште
шымлымашым
шымлыме
шымлымыж
шымлымышт
шымлыше
шымше
шын
шынамат
шында
шындалтеш
шындалтын
шындат
шындаш
шынде
шынден
шындена
шынденыт
шындыза
шындылыт
шындыман
шындымаш
шындыме
шындыше
шынчара
шып
шыр
шыргыж
шыргыжалын
шыргыжеш
шырчык
шыч
шычын
шыҥа
шыҥдаралтын
шыҥдараш
шыҥдарен
шыҥдарымаште
шыҥдарыме
шыҥен
щ
щепкин
щщ
ъ
ъъ
ы
ыван
ывангасола
ывансола
ыванын
ывраи
ывран
ывырте
ывыртен
ыгыр
ыгыре
ыгырмут
ыдал
ыдалым
ыде
ыж
ыже
ыжеҥже
ыжъенже
ыжъеҥже
ыжыҥ
ыжыҥан
ыжыҥже
ыжыҥъеҥже
ыза
ыи
ык
ыкат
ыккомбо
ыкым
ыкын
ыл
ылаште
ылгыжеш
ылгыжше
ылде
ыле
ылман
ылме
ылмыж
ылмыже
ылмыжым
ылмызе
ылмызын
ылмыла
ылмылам
ылмылан
ылмыласе
ылмылаш
ылмылашке
ылмылаште
ылмылончыш
ылмым
ылмын
ылмына
ылмынам
ылмынан
ылмысе
ылмыш
ылмышанче
ылмышанчым
ылмышанчын
ылмышанчыште
ылмышкат
ылмышке
ылмышт
ылмыштат
ылмыште
ылмыштым
ылмэ
ылыж
ылыжеш
ылыжта
ылыжтат
ылыжтен
ылыжтеныт
ылыжын
ылым
ыльыч
ым
ымак
ымаке
ымакыже
ымал
ымалан
ымалне
ымалныже
ымалсе
ыман
ымат
ымач
ымачын
ымаш
ыме
ымеке
ымо
ымшо
ымыж
ын
ына
ынак
ынам
ынат
ынаша
ынгы
ынде
ындыже
ынеже
ынем
ынже
ынрак
ыныт
ынышт
ып
ыпшо
ыпым
ыпын
ыр
ыра
ыралт
ыралтеш
ыралтын
ырат
ыраш
ырваш
ырве
ырвел
ырвелла
ырвелын
ырвелысе
ырвелыш
ырвелыште
ырвелыштыже
ыргешке
ырен
ыреныт
ырес
ырест
ыресын
ырже
ырлен
ырлымо
ырмарии
ыро
ырсе
ыртем
ыртемалт
ыртемалтеш
ыртемалтмылан
ыртемалтше
ыртемалтын
ыртемалтыныт
ыртемалтыт
ыртемже
ыртемжым
ыртемле
ыртемым
ыртемын
ыртемыш
ыртемышт
ыртемыштым
ыръюж
ырыкта
ырым
ырымаш
ырымо
ырысе
ырышо
ыс
ысе
ысо
ыт
ыч
ыш
ышан
ышат
ышаш
ыше
ышке
ышко
ышкыже
ышкыжо
ышлан
ышна
ышо
ышт
ышта
ыштак
ышталтеш
ышталтме
ышталтмыже
ышталтмыжым
ышталтмым
ышталтмышт
ышталтше
ышталтын
ышталтыныт
ышталтыт
ыштат
ышташ
ышташлан
ыште
ыштеда
ыштем
ыштен
ыштена
ыштенам
ыштенат
ыштеныт
ыштет
ыштлан
ыштмаш
ыштмашвла
ышто
ыштыже
ыштыжо
ыштыза
ыштыквер
ыштыктен
ыштылын
ыштылыныт
ыштым
ыштыман
ыштымаш
ыштымашке
ыштымаште
ыштыме
ыштымек
ыштымеке
ыштымыж
ыштымыже
ыштымыжлан
ыштымыжым
ыштымылан
ыштымым
ыштын
ыштынеже
ыштыш
ыштышаш
ыштыше
ыштышт
ышыж
ышыжо
ышыжым
ышым
ышышт
ышыштым
ыҥ
ыҥан
ыҥже
ыҥжым
ыҥпале
ыҥым
ь
ьшмы
э
эваи
эвенк
эвенкии
эвм
эволюции
эволюция
эвраш
эврик
эгеи
эдвард
эдемвла
эдена
эдит
эдуард
эи
эквадор
экватор
экз
экзамен
экзаменым
экзаменыште
экземпляр
экипаж
экологии
экология
экономик
экономика
экономике
экономики
экономикыже
экономикым
экономикын
экономикыште
экономист
экономистше
экономические
экономическии
экономических
экран
экраныште
экскурсии
экспедиции
эксперимент
экспериментальных
эксперт
эксплуатации
экспрессивныи
экстерн
экшык
эл
элвис
элеволко
элексеи
электрическии
электричка
электрокыл
электрон
электронике
электронная
электронныи
электростанции
электрохимических
элем
элембаи
элемент
элемента
элементов
элементше
элементы
элже
элжым
элина
элиса
элко
элла
эллан
элласе
эллаштат
эллаште
элмар
элна
элнан
элнет
элнетту
элнетыште
элпанур
элыксандр
элым
элымбаи
элын
элысе
элыш
элышке
элыштат
элыште
элыштына
эль
эльвира
эльтемерова
эльян
эм
эма
эмалтше
эман
эманова
эмансола
эмасымаш
эмгак
эмгака
эмгакын
эмен
эмиль
эмлалташ
эмлен
эмлызе
эмлызыже
эмлызылан
эмлызын
эмлымаш
эмлымвер
эмлымверын
эмлымверыш
эмлымверыште
эмлыме
эмма
эмоции
эмоционально
эмыжым
эмыкан
эмым
эмяш
эн
энгельс
энер
энергетик
энергии
энермучаш
энсул
энцикл
энциклии
энциклопедии
энциклопедист
энциклопедическии
энциклопедия
эпиграмма
эпизод
эпизодическии
эпитет
эпическии
эпических
эпос
эпоха
эпохи
эпохын
эр
эра
эрак
эрвел
эрвелмарии
эрвелне
эрвелныже
эрвелыш
эрвелыште
эрвии
эрге
эргы
эргыж
эргыже
эргыжлан
эргыжым
эргыжын
эргым
эргымлан
эргын
эргышт
эрден
эрдене
эре
эреак
эрелан
эренгер
эреҥер
эрже
эрзя
эрзянского
эрик
эрика
эрикын
эрих
эркын
эркынрак
эрла
эрласе
эрлашыжым
эрнест
эрнст
эрт
эрта
эртак
эртал
эрталеш
эртара
эртаралтеш
эртаралтше
эртаралтын
эртаралтыныт
эртаралтыт
эртарат
эртараш
эртаре
эртарем
эртарен
эртареныт
эртарымаште
эртарыме
эртарымылан
эртарыше
эртат
эрташ
эрте
эртен
эртеныт
эртык
эртыкше
эртыкым
эртымгорно
эртымгорныжо
эртымгорныжым
эртымгорнызо
эртымгорнышто
эртыме
эртымек
эртымеке
эртыш
эртышаш
эртыше
эрцикова
эрык
эрыкан
эрыканын
эрыкдыме
эрыктен
эрыктымаш
эрыктыме
эрыкше
эрыкым
эрыкыш
эсаи
эсансола
эсаулова
эсаулован
эсен
эсенеи
эскера
эскерат
эскераш
эскерен
эскереныт
эскерымаш
эскерыме
эскерыше
эсмекплак
эсменесола
эсогыл
эссе
эст
эстон
эстонии
эстонла
эстрада
эстраде
эстрадныи
эстрадын
эсымбаи
эт
эта
этажан
этаи
этап
этапе
этапы
этапыште
эти
этим
этимологии
этимологические
этимологическии
этимология
этих
этических
этническая
этнические
этнических
этнического
этническои
этногенез
этногенезу
этнограф
этнографии
этнографические
этнографическии
этнографических
этнография
этнокультурное
этнокультурнои
этнокультурныи
этнокультурных
этнокультуры
этнолог
этнологии
этнология
этнонима
этнонимов
этнопедагогизация
этнос
этноса
этносы
это
этого
этои
этом
этому
этот
эту
этюды
эфесскии
эфиопии
эфир
эфирыш
эфирыштыже
эффективного
эффективности
эффективность
эх
эчан
эчук
эш
эше
эшеат
эшкинин
эшкинина
эшпаи
эшпая
эшполдо
эштыныт
эшым
эҥгек
эҥгекым
эҥгекыш
эҥер
эҥери
эҥерла
эҥермучаш
эҥерсола
эҥерта
эҥерташ
эҥертен
эҥерту
эҥертымаш
эҥертыш
эҥеру
эҥеръял
эҥерым
эҥерын
эҥерыш
эҥерыште
эҥыжсола
эҥыремышвот
ю
юадаров
юалге
юарлат
юарлен
юбилеи
юбилею
юбиляр
юва
юго
югорно
югра
югу
юж
южву
южгунам
южгунамже
южная
южно
южного
южныи
южо
южыжо
южым
южын
южыш
южышт
южышто
юзо
юзыкаи
юксерн
юксернын
юл
юлавии
юледур
юлиан
юлии
юлия
юлсер
юлъял
юлын
юлысо
юмем
юмо
юмон
юмор
юмористические
юмоын
юмоҥа
юмызо
юмызылан
юмызым
юмыи
юмылан
юмым
юмын
юмынава
юмыни
юмынои
юмыну
юнга
юнго
юнеско
юникод
юникодше
юниор
юнкор
юнкоржо
юность
юр
юрдур
юридические
юридическии
юридических
юрии
юрино
юринскии
юриспруденции
юрист
юристше
юрия
юркино
юрьевич
юрьевна
юстиции
юшков
юшто
юшут
юшутскои
я
яан
ябердина
ява
явала
явлении
явления
является
являются
явно
ягельдин
ягодарова
ядарова
ядерныи
ядыкбеляк
ядыкплак
ядырна
яз
язвенныи
язык
языка
языкам
языками
языках
языке
языки
языков
языковая
языковед
языковеда
языковедов
языкового
языковое
языковои
языковом
языковые
языковым
языковых
языкознание
языкознании
языкознанию
языкознания
языком
языку
языкше
языческих
языческои
язычество
язьвин
як
якаева
якаи
якимов
якимова
якимовын
яклака
яков
яковлев
яковлева
яковлевич
яковлевна
якте
якут
якутии
якын
ял
ялвершинин
ялем
ялеш
ялже
ялзак
ялисчезнувшие
ялкаев
ялкаевич
ялкаи
ялла
яллам
яллан
яллаш
яллашке
яллаштат
яллаште
ялмарии
ялнан
ялнер
ялозанлык
ялозанлыкын
ялпаи
ялсовет
ялт
ялче
ялчык
ялым
ялын
ялысе
ялыш
ялышке
ялышкыже
ялыштак
ялыште
ялыштыже
яльчик
ям
ямагат
ямаи
ямак
ямал
ямбаи
ямбаршев
ямбаршева
ямбатыр
ямбердов
ямбердэ
ямд
ямде
ямдыла
ямдылалт
ямдылалташ
ямдылалтеш
ямдылалтман
ямдылалтмаш
ямдылалтме
ямдылалтше
ямдылалтын
ямдылалтыныт
ямдылалтыт
ямдылат
ямдылаш
ямдылен
ямдыленыт
ямдылык
ямдылыкым
ямдылымаш
ямдылымаште
ямдылыме
ямдылыше
ямет
яметым
ямже
ямжым
ямкаи
ямле
ямлыже
ямурзино
ямым
ян
янаев
янаево
янаевын
янаи
яналов
янаул
янаульскии
янв
январе
январь
январьыште
января
янгаи
янгильдин
янда
яндак
яндака
яндаков
яндакова
яндар
яндарлык
яндекс
яндукова
яндусола
яндушево
яндыган
яндыганов
яндылет
янки
янлык
янлыклан
янлыкым
янлыкын
янош
янтемир
янцукова
янык
яныкаи
яныш
япон
японии
японскии
яр
яра
яравер
ярамарии
ярамор
яран
яранов
яранск
яранском
яраҥ
ярмиҥга
ярня
ярням
ярнян
ярняште
ярославль
ярча
ярым
ясер
ясныи
ятман
ятманов
ятманова
ятыр
ятырак
ятырлан
ячеек
ячеи
ячменя
яш
яшката
яшлык
яшмак
яшмет
яшметова
яшмолкин
яшмолкина
яшнур
яштуга
ђ
є
ѕ
і
іл
ім
ін
інститут
інформаціи
історію
історія
історіі
ј
љ
њ
ћ
џ
ѡ
ѣ
ѥ
ѧ
ѩ
ѫ
ѭ
ѯ
ѱ
ѳ
ѵ
ѹ
ѻ
ҁ
ҋ
ҍ
ҏ
ґ
ғ
ҕ
җ
ҙ
қ
ҝ
ҟ
ҡ
ҡалып
ң
ҥ
ҥал
ҥалам
ҥалат
ҥалаш
ҥале
ҥалеш
ҥалман
ҥалме
ҥалмеке
ҥалмыж
ҥалтыш
ҥалтышлан
ҥалтыштак
ҥалтыште
ҥалтышште
ҥалтышыже
ҥалтышым
ҥалтышыште
ҥалтышыштыже
ҥалше
ҥалын
ҥалына
ҥалыныт
ҥалыт
ҥальым
ҥальыч
ҥга
ҥгак
ҥгалтыш
ҥгалтышыже
ҥгеш
ҥгешла
ҥго
ҥгыж
ҥгыжо
ҥгыр
ҥгысо
ҥгышк
ҥгышкыж
ҥгышт
ҥгышто
ҥжо
ҥжым
ҥлан
ҥлык
ҥлыкым
ҥлыкын
ҥысо
ҥыш
ҥышо
ҧ
ҩ
ҫ
ҭ
ү
үи
үлгі
ұ
ҳ
ҵ
ҷ
ҹ
һ
ҽ
ҿ
ӄ
ӆ
ӈ
ӊ
ӌ
ӎ
ӏ
ӕ
ә
әи
ӡ
ө
ӷ
ӻ
ӽ
ӿ
ԁ
ԃ
ԅ
ԇ
ԉ
ԋ
ԍ
ԏ
ԑ
ԓ
ԕ
ԗ
ԙ
ԛ
ԝ
ԟ
ԡ
ԣ
ԥ
կաղապար
կատեգորիա
տեղեկաքարտ
ִ
ַ
ָ
ּ
טעגא
קא
קטגוריה
ריע
תבנית
ا
الگو
تصنيف
جعبه
رده
زمرہ
سانچہ
قالب
معلومات
ٓ
ٔ
ٕ
ހ
ށ
ނ
ޅ
ކ
އ
ވ
މ
ޑ
ޕ
ަ
ާ
ި
ީ
ު
ޮ
ް
ँ
ं
ः
क
ग
च
ज
ट
ठ
ड
ढ
ण
त
द
न
प
म
य
र
ल
व
श
ष
स
ह
ा
ि
ी
ु
ू
ृ
े
्
ঁ
ং
ও
খ
চ
জ
ট
ণ
ত
ধ
ন
প
ব
ম
মপ
য
র
ল
শ
স
়
া
ি
ী
ূ
ে
্
ਨ
ਾ
ੂ
ં
ચ
ઢ
ત
મ
ષ
હ
ા
િ
ી
ુ
ો
્
ଚ
ଛ
ଞ
ା
୍
க
ட
த
ந
ப
ய
ர
ல
ள
ழ
வ
ா
ி
ீ
ு
ூ
ே
ை
்
ం
క
త
ప
మ
స
ా
ి
ీ
ు
ూ
్
ಂ
ಟ
ಪ
ಲ
ಸ
ಿ
ು
ೆ
್
ೕ
ം
ക
ഗ
ട
ഡ
ത
ന
പ
ഫലക
മ
യ
ര
റ
ല
വ
സ
ഹ
ാ
ി
ീ
ു
ൂ
െ
േ
്
ක
ට
ත
ද
ප
ර
ල
ව
ස
්
ා
ැ
ි
ු
ෙ
ก
น
พ
ย
ล
ว
ส
หมวดหม
อ
ั
ิ
ี
ื
ุ
ู
แบบ
แม
่
้
์
་
თარგი
ინფოდაფა
კატეგორია
분류
정보
틀
គ
ទ
ន
ព
រ
រគ
ា
ី
ុ
ូ
ំ
់
័
្
᾿
​
‌
‍
‎
‒
–
—
‘
’
“
”
„
†
•
…
‬
‰
′
‹
›
⁄
№
™
→
↓
↔
↷
−
≈
③
④
⑦
─
▲
▼
◄
◊
●
♂
✔
⟨
⟩
ⱛ
⺀
⺄
⺆
⺈
⺊
⺌
⺕
⺝
⺸
⺼
⿰
⿱
⿲
⿳
⿴
⿵
⿶
⿷
⿸
⿹
⿺
⿻
《
》
〢
の
゚
ィ
イ
ク
コ
ス
タ
テ
ト
ニ
フ
ホ
ミ
ュ
ユ
リ
ル
レ
ン
・
ー
㇁
㇂
㇄
㇇
㇈
㇉
㇓
㐁
㐄
㐅
㐌
㐫
㐬
㐭
㐮
㐱
㑒
㒵
㒸
㒼
㓁
㓞
㔾
㕛
㕣
㖾
㘝
㚅
㚇
㚔
㚘
㝉
㝡
㝴
㝵
㞋
㞢
㞷
㠩
㠭
㠯
㡀
㡭
㡿
㢲
㢴
㣇
㣺
㥯
㪅
㫄
㫐
㫒
㫺
㬅
㬎
㬥
㬰
㲋
㳄
㷠
㸒
㸚
㸦
㼌
㼲
㽞
㿟
䀠
䂞
䍃
䏍
䒑
䖍
䖒
䖝
䖵
䙴
䚻
䜌
䝿
䡛
䧹
䪞
一
丁
丂
七
丄
丅
丆
万
丈
三
上
下
丌
不
与
丏
丐
丑
专
且
丕
世
丘
丙
业
东
丞
丢
丣
两
严
並
丨
丩
个
丫
丬
中
丮
丰
丱
串
丵
丶
丷
丸
丹
为
主
丽
丿
乀
乂
乃
久
乆
乇
么
义
之
乌
乍
乎
乏
乐
乑
乔
乖
乗
乘
乙
乚
乛
乜
九
乞
也
习
乡
乳
乾
亀
亅
了
亇
予
争
事
二
亍
于
亏
亐
云
互
亓
五
井
亘
亚
亜
亞
亟
亠
亡
亢
交
亥
亦
产
亨
亩
享
京
亭
亮
亯
亰
亲
亳
亶
亷
人
亻
亼
亾
仁
今
介
仌
从
仐
仑
仒
仓
仔
仕
他
付
仝
代
令
以
任
企
伊
伏
伐
休
会
伯
但
位
何
佘
余
佛
作
佥
使
來
侈
侌
侖
侯
侵
便
保
俞
信
修
倉
倍
候
倠
備
僉
僕
儿
兀
允
兂
元
兄
充
兆
兇
先
光
兊
克
兌
免
兑
兒
兓
兔
党
兜
兟
入
全
兩
兪
八
公
六
兮
兰
共
关
兵
其
具
典
兹
兼
冀
冂
冃
冄
内
円
冈
冉
冊
冋
册
再
冎
冏
冐
冒
冓
冖
冗
冘
军
农
冝
冠
冡
冥
冫
冬
冷
几
凡
凢
凵
凶
凷
凸
凹
出
函
凾
刀
刁
刂
刃
刄
刅
分
切
刊
刍
刑
刕
刖
列
刘
则
初
別
利
刪
别
到
制
刺
則
削
剌
前
剡
剽
劉
力
功
加
劦
助
劫
劳
劵
勃
勇
勉
勒
動
務
勞
勤
勹
勺
勻
勾
勿
匀
匂
包
匆
匈
匊
匋
匍
匕
化
北
匚
匝
匡
匪
匱
匸
匹
区
医
匽
匿
區
十
卂
千
卄
卅
卆
升
午
卉
半
卌
华
卑
卒
卓
单
卖
南
卜
卝
卞
占
卡
卢
卣
卤
卦
卩
卪
卬
卯
印
危
即
却
卵
卷
卸
卻
厂
厃
厄
历
厈
厉
厌
厓
厘
厚
原
厤
厥
厨
厭
厲
厶
厷
厸
去
厼
厽
叀
参
參
叅
又
叉
及
友
双
反
叐
发
叒
叔
叕
取
受
叚
叜
叟
口
古
句
另
叩
只
召
可
台
叱
史
右
叵
号
司
叹
吂
各
吅
合
吉
吊
吋
同
名
后
吏
向
吕
君
吝
吞
否
含
启
吳
吴
吹
吾
呂
呆
呈
告
员
呙
周
命
咅
和
咎
咠
咢
咨
咸
咼
哀
品
哉
員
哥
哲
唐
商
啇
問
啚
啬
啻
善
喜
喬
單
喿
嗇
噩
嚴
囊
囗
囘
囙
囚
四
回
囟
因
囧
囬
困
囱
囷
固
国
图
圂
圅
國
圍
圓
土
圡
圣
圥
在
圭
地
圶
圼
坐
坒
坚
坴
垂
垔
垚
埀
埋
城
埶
執
基
堂
堅
堆
堇
堯
塞
墨
壘
士
壬
壯
声
壳
壴
壹
壺
壽
夂
处
夅
夆
备
夊
夋
夌
复
夏
夒
夕
外
夗
夘
多
夜
夢
大
夨
天
太
夫
夬
夭
央
失
夲
头
夷
夸
夹
夻
夾
奂
奄
奇
奈
奉
奎
奏
奐
契
奓
奔
奚
奞
奠
奢
奥
奭
女
奴
奻
好
如
妄
妙
妟
妥
妻
妾
姑
委
姜
威
娄
婁
婆
婴
嬰
嬴
子
孑
孔
孕
孖
字
存
孚
孛
孝
孟
季
孤
学
孫
孱
學
宀
宁
宂
它
宅
宇
守
安
宋
完
宏
宓
宗
官
定
宛
宜
宝
客
宣
室
宮
宰
害
家
容
宾
宿
寄
寅
密
富
寒
察
寧
審
寫
寬
寮
寸
对
寺
寻
寽
対
寿
封
尃
射
将
將
專
尉
尊
尋
尌
對
小
少
尒
尓
尔
尖
尗
尚
尞
尢
尣
尤
尧
尨
尭
就
尸
尹
尺
尻
尼
尽
尾
尿
局
居
屆
屈
屋
屎
屏
屑
展
屖
屚
属
屠
屡
屬
屮
屯
屰
山
屵
屾
岁
岂
岑
岡
岩
岳
岸
峯
島
崇
崑
崔
崖
崙
崩
嵬
嶲
巂
巛
川
州
巟
巠
巢
巤
工
左
巧
巨
巩
巫
差
己
已
巳
巴
巷
巸
巽
巾
巿
帀
市
布
希
帚
帛
帝
带
師
席
帶
常
干
平
年
幵
并
幷
幸
幺
幻
幼
幽
幾
广
広
庄
床
底
店
庚
府
度
庫
庭
庶
康
庸
廉
廌
廛
廣
廩
廴
延
廷
建
廾
廿
开
弁
弃
弄
弇
弋
式
弓
弔
引
弗
弘
弜
弟
弥
弦
弱
張
強
强
彊
彌
彎
彐
彑
当
彔
录
彖
彗
彡
形
彥
彦
彧
彭
影
彳
役
彼
往
待
律
後
徒
得
徙
從
復
微
徵
心
忄
必
忌
忍
志
忝
忠
忩
快
念
忽
忿
思
怠
急
怱
恆
恒
恩
恭
息
悉
患
悤
悲
悶
情
惠
惡
惢
愁
愈
意
愛
感
慈
慧
慮
憂
憲
應
戀
戈
戉
戊
戋
戌
戍
戎
成
我
戒
戔
或
戚
戠
戢
截
戲
戶
户
戹
戼
戾
房
所
扁
扇
手
扌
才
打
托
执
承
折
拉
拍
拜
拥
拿
掌
推
提
摩
擊
攝
支
攴
攵
收
攸
改
放
政
敄
敏
敕
敖
敗
教
敝
敞
敢
散
敦
敫
敬
数
敷
數
斂
文
斉
斊
斗
斤
斥
斩
斬
斯
新
方
於
施
斿
旁
旋
族
无
旡
既
旣
日
旦
旧
旨
早
旬
旱
旲
时
旾
昆
昇
昌
昍
明
昏
易
昔
昗
昜
星
春
昬
是
昱
昴
昷
時
晃
晋
晏
普
景
晶
智
暑
暴
曇
曩
曰
曲
曳
更
曷
書
曹
曼
曾
替
最
朁
會
月
有
朋
服
朔
朕
朗
望
朝
木
朩
未
末
本
札
朮
术
朱
朵
朶
朿
杀
杏
杜
束
条
来
東
杲
杳
松
板
析
林
枚
果
枝
枲
枼
某
柔
查
柬
柰
柱
柴
栗
桀
桑
桼
梁
條
梟
梨
棘
棠
棥
森
椎
楚
業
楷
楽
榮
樂
樊
標
模
欠
次
欣
欮
欲
欶
欽
款
歆
歇
歛
止
正
此
步
武
歨
歪
歮
歯
歰
歲
歴
歷
歸
歹
歺
死
殳
段
殷
殸
殹
殺
殻
殿
毋
毌
母
每
毒
比
毕
毚
毛
毳
氏
氐
民
气
氣
水
氵
氶
氷
永
氺
氾
求
汝
汞
江
沃
沓
沙
沝
治
泉
法
波
泣
泥
泰
洛
洪
活
派
流
浦
浪
浮
淡
淮
清
渚
渠
港
湯
準
滿
漸
灣
火
灬
灭
灰
灵
灷
炅
炎
炏
炗
炙
炭
為
烈
烏
烝
焉
無
焦
焱
然
煞
熊
熏
燕
營
燮
爪
爫
爭
爯
爰
爱
爲
爵
父
爻
爽
爾
爿
片
牙
牚
牛
牜
牟
牢
牧
物
牪
牽
犀
犬
犭
犮
狂
狄
狊
独
狺
猋
猒
猪
献
獻
玄
率
玉
王
玟
玨
珎
班
現
琴
瑟
瑩
瓜
瓦
甘
甚
生
産
用
甫
甬
田
由
甲
申
电
甶
男
甸
甹
画
甾
畀
界
畏
畐
留
畜
畟
畢
畧
畨
番
畫
異
畱
當
畺
畾
疊
疋
疌
疑
疒
疾
癶
癸
癹
登
發
白
百
皀
皃
的
皆
皇
皋
皐
皕
皮
皷
皿
盃
盆
盇
盈
益
盍
盎
监
盒
盖
盛
盡
監
盤
盧
目
直
相
盾
省
眇
眉
看
眔
眞
真
眷
眼
眾
着
睘
睪
睿
瞏
瞢
瞿
矍
矛
矞
矢
矣
知
矦
短
石
破
碎
磊
磨
示
礻
礼
社
祟
票
祭
禀
禁
禸
禹
禺
离
禽
禾
禿
秀
秃
秉
秋
科
秝
秦
移
程
稟
穀
穌
穴
究
穹
空
穿
突
窄
窒
立
竒
竜
竝
竟
章
童
竹
笑
笠
第
筆
等
答
箕
算
箴
節
篤
篭
米
类
粉
粛
粟
粤
粦
粲
粵
糞
糸
糹
系
約
納
素
索
紫
累
細
絜
絫
絲
維
綿
縣
繇
纍
纟
经
统
缶
网
罒
罔
罕
罗
罙
罡
罢
罪
署
罷
羅
羊
羌
羍
美
羔
羕
羗
羞
羡
羣
群
義
羲
羸
羽
翁
翏
習
翕
翟
翠
翼
老
耂
考
者
耆
而
耎
耑
耒
耳
耴
耶
耷
聂
聊
聖
聚
聲
聶
聿
肀
肃
肅
肉
肖
肙
肥
肩
肯
育
肴
胃
背
胡
胥
能
脊
脩
膚
臣
臤
臧
自
臬
臭
臯
臱
至
致
臺
臼
臽
臾
臿
舀
舂
舄
與
興
舉
舌
舍
舛
舜
舞
舟
航
般
艮
良
色
艸
艹
艾
芒
芔
芬
芮
花
芳
芺
芻
苔
苗
苟
若
苦
英
茶
茸
荅
草
荒
荣
荼
莆
莧
莫
莽
菆
菊
菐
華
萬
落
葉
著
葛
董
葵
蒙
蒦
蒼
蓋
蓬
蓺
蔑
蔡
蕉
蕭
薄
薛
薦
薰
藍
藏
藥
蘭
虍
虎
虐
虒
虔
處
虖
虗
虘
虚
虛
虜
虞
號
虫
虽
蚤
蚩
蜀
蜜
蟲
蠡
血
行
衍
衛
衣
衤
表
衮
衰
袁
袞
褭
褱
襄
襲
襾
西
覀
要
覃
見
規
覓
覧
親
覽
见
角
解
言
訁
訇
計
詹
語
誩
諸
議
讠
谷
豆
豈
豊
豐
豕
豖
豙
象
豦
豩
豪
豸
貇
貝
貞
貟
負
貢
貧
貪
貫
責
貳
貴
買
費
賁
資
賈
賏
賓
賔
賛
賞
賢
賣
質
賴
賽
贊
贝
贡
责
贯
贲
贵
赖
赞
赤
赦
走
越
足
路
蹇
身
躬
車
軍
軎
軟
輦
车
辛
辜
辟
辥
辰
辱
農
辵
辶
边
达
过
近
连
迷
追
退
送
逆
逐
通
速
造
逢
連
逮
進
遀
遂
過
道
達
遣
適
遷
遺
邊
邑
邕
那
邦
邪
郎
部
郭
都
鄉
酉
酋
配
酓
釆
采
里
重
野
量
金
釒
錢
錦
錯
钅
長
镸
长
門
閃
閉
開
閏
閑
閒
間
閔
閵
閻
闌
门
间
闷
阁
阑
阜
阝
阿
降
院
除
陳
隆
隊
隋
隡
隨
隱
隶
隹
隺
隻
隼
隽
难
雀
雁
集
雈
雋
雍
雐
雔
雙
雚
雜
雝
離
難
雨
雩
雪
雲
零
雷
需
霍
霜
霝
霞
霸
靈
靑
青
靜
非
靡
面
靣
革
韋
韦
韭
韯
韱
音
頁
頃
項
須
頗
頡
頻
顛
類
页
風
颱
风
飛
飞
食
飠
養
館
饣
首
香
馬
馮
駦
马
骨
高
髟
鬥
鬯
鬲
鬼
魚
魯
鮮
鱼
鲁
鳥
鳳
鸟
鹵
鹿
麃
麗
麥
麦
麻
黃
黄
黍
黎
黑
黒
黨
黹
黽
黾
鼎
鼓
鼠
鼻
齊
齋
齐
齒
齿
龍
龙
龜
龟
龠
龰
龱
龴
龵
龶
龷
龸
龹
ꙋ
ꙓ
ꙗ
ꙟ
ꞌ
ꮧ

者
艹
️
﻿
（
）
，
：
？
📲
🚀
𠀁
𠀃
𠀆
𠀉
𠀎
𠀐
𠁁
𠁣
𠂆
𠂇
𠂈
𠂉
𠂊
𠂋
𠂎
𠂒
𠂔
𠂛
𠂡
𠂢
𠂤
𠂬
𠂭
𠂹
𠃊
𠃋
𠃌
𠃍
𠃎
𠃑
𠃓
𠃔
𠃜
𠄌
𠄎
𠄠
𠄢
𠆢
𠆥
𠇍
𠈌
𠌵
𠓜
𠔉
𠔥
𠔼
𠔽
𠔿
𠕀
𠕁
𠕋
𠘧
𠘨
𠙻
𠙼
𠚏
𠚒
𠚤
𠚪
𠣏
𠤎
𠤕
𠥓
𠦄
𠦑
𠦝
𠧒
𠧗
𠧪
𠩺
𠪚
𠫓
𠫔
𠫤
𠬛
𠬝
𠬞
𠬢
𠬤
𠬶
𠮛
𠮦
𠮷
𠯑
𠱠
𠳮
𠷎
𡈼
𡉀
𡉵
𡌥
𡍮
𡏳
𡕒
𡕩
𡕰
𡖅
𡗗
𡗜
𡘆
𡘤
𡧱
𡨄
𡩧
𡬠
𡭽
𡰣
𡰥
𡰪
𡰯
𡰱
𡷈
𡸁
𡿨
𡿩
𡿪
𡿺
𢀖
𢀛
𢀩
𢁙
𢆉
𢆰
𢆶
𢇁
𢇇
𢉖
𢌬
𢌿
𢏚
𢑑
𢑚
𢖻
𢙣
𢛳
𢦏
𢦒
𢧵
𢼄
𢾕
𣁋
𣄼
𣅀
𣅽
𣍘
𣎳
𣎵
𣏋
𣏼
𣗥
𣥂
𣥖
𣦵
𣦼
𣧄
𣪊
𣪠
𣬉
𣳾
𣶒
𤇾
𤊽
𤐫
𤓰
𤔔
𤕨
𤣩
𤰇
𤰔
𤰞
𤴓
𤴔
𤽄
𥁑
𥁕
𥃦
𥃩
𥃭
𥇡
𥑟
𥘅
𥘈
𥝢
𥫗
𥱡
𦈢
𦉪
𦉬
𦉼
𦍌
𦍒
𦎧
𦐇
𦓔
𦔮
𦘒
𦙃
𦚏
𦣝
𦣞
𦣻
𦥑
𦥔
𦥯
𦨉
𦭝
𦰩
𧆞
𧈧
𧘇
𧰨
𧴪
𧴮
𧵩
𧾷
𨸏
𨾴
𩙿
𩠐
𩫏
𩵋
𪉷
𪜀
𪟽
𪠲
𪩲
𫇦
𫔭
𫜸
𫝀
𫠣
𫠩
𫢉
𫥞
𫩏
𫩠
𫪡
𫲽
𫶧
𬀷
𬐘
𬗌
𬙙
𬛸
𬜯
𬟩
𬯁
𬴘
𬺻
𬼉
𬼖
𭀰
𭁈
𭁨
𭅰
𭑈
𭕄
𭗼
𭤨
𭥫
𭻾
𮅕
𮊿
𮍌
𮍏
𮓗
𮥼
𮧮
廾
𰀁
𰀄
𰀈
𰀉
𰀕
𰀠
𰀡
𰀢
𰀪
𰁜
𰃮
𰆊
𰆘
𰋙
𰕎
𰢴
𰧭
𰯲
00--
01--
02--
03--
05--
050--
06--
07--
08--
09--
100--
101--
102--
103--
105--
106--
107--
108--
109--
110--
112--
113--
114--
116--
117--
118--
120--
129--
144--
152--
156--
159--
160--
170--
174--
54--
57--
63--
68--
69--
70--
72--
73--
74--
75--
76--
77--
78--
79--
80--
81--
82--
83--
85--
86--
87--
88--
89--
90--
91--
92--
93--
94--
95--
97801--
98--
99--
a--
aa--
ab--
abbre--
above--
abuse--
ac--
accu--
acti--
acu--
ad--
aden--
advan--
ae--
af--
affi--
agr--
ai--
ailu--
ak--
al--
albi--
ales--
all--
alt--
alu--
am--
an--
anti--
any--
apicu--
app--
append--
ar--
arach--
arg--
arri--
as--
asco--
assi--
ast--
at--
ath--
atro--
atta--
au--
auto--
av--
ay--
b--
ba--
bal--
bapt--
bar--
bas--
bdat--
be--
beau--
below--
bi--
bibli--
bico--
bio--
biogr--
bir--
blo--
bo--
bol--
bom--
bor--
born--
bou--
box--
br--
brac--
bre--
brevi--
brig--
bro--
broad--
bu--
bug--
by--
c--
ca--
cal--
camp--
can--
car--
cari--
carn--
cas--
cat--
cauca--
cd--
ce--
cele--
cen--
cer--
cere--
ch--
cha--
char--
che--
chi--
chlo--
chri--
chry--
chu--
ci--
cinn--
cl--
cle--
co--
col--
colnfooter--
com--
communi--
compe--
con--
confi--
contr--
contri--
copy--
cor--
cord--
cove--
cr--
cras--
cre--
crit--
cro--
cru--
cruci--
crypt--
cu--
cumu--
cur--
cy--
cycl--
d--
da--
dams--
dark--
dateof--
de--
dec--
default--
des--
deut--
devo--
di--
disc--
disco--
dist--
distri--
do--
doku--
dolich--
dor--
down--
dr--
du--
dur--
dut--
dv--
dy--
dz--
e--
eat--
ec--
econ--
ed--
ef--
eg--
egy--
eko--
ekono--
el--
elec--
elef--
em--
emer--
en--
end--
ensi--
ep--
equ--
er--
es--
et--
ethno--
eu--
eura--
euro--
ev--
eva--
ex--
expand--
expi--
expl--
f--
fa--
facili--
fe--
fern--
ff--
fi--
file--
fili--
filterby--
fimbr--
fin--
fl--
flag--
flam--
flic--
flor--
fm--
fo--
fol--
foot--
for--
format--
fr--
fran--
fre--
fu--
ful--
g--
ga--
gar--
gau--
ge--
geme--
gen--
ger--
gese--
get--
getparentsin--
gha--
gi--
gl--
go--
gr--
grac--
gram--
grap--
gre--
gro--
gu--
guten--
h--
ha--
hal--
har--
harm--
has--
he--
heli--
hely--
hen--
heri--
hi--
high--
hir--
his--
ho--
hor--
hu--
hun--
hung--
hy--
i--
ia--
ibdb--
id--
iden--
ign--
ignor--
il--
illh--
illu--
im--
ima--
impl--
implem--
in--
incre--
indi--
indu--
init--
inte--
inter--
intr--
investi--
io--
ip--
ir--
is--
isch--
isfdb--
it--
iva--
j--
ja--
jack--
japo--
je--
ji--
jo--
js--
ju--
jubi--
juk--
jun--
juve--
k--
ka--
kali--
kan--
kar--
ke--
kha--
ki--
kir--
kl--
ko--
komm--
komu--
kon--
konfe--
kr--
ku--
kun--
l--
la--
label--
lan--
lanci--
lang--
le--
leh--
lept--
leu--
leuco--
lew--
li--
light--
ling--
lingu--
lingvo--
live--
ljubl--
ll--
lo--
local--
lt--
lu--
luz--
ly--
m--
ma--
mac--
macu--
maga--
main--
mainsnak--
make--
man--
mar--
mari--
mate--
maus--
max--
me--
mean--
medi--
mega--
mela--
men--
mer--
mes--
met--
mi--
micr--
mid--
migr--
min--
mix--
mo--
module--
mon--
mona--
mong--
mor--
morp--
mosc--
mou--
mr--
mu--
mun--
muni--
mur--
my--
n--
na--
nar--
navi--
nd--
ne--
nega--
nel--
new--
ng--
ni--
nigr--
nl--
nn--
no--
nu--
ny--
nz--
o--
ob--
oc--
ochr--
od--
ok--
ol--
oly--
om--
on--
onom--
op--
or--
orche--
orien--
ornith--
ortho--
os--
ot--
otoc--
out--
over--
p--
pa--
page--
pal--
pall--
pallid--
pan--
pauci--
pe--
penin--
per--
pha--
phi--
pho--
pi--
pic--
pl--
platy--
plot--
po--
pol--
poly--
popu--
populate--
por--
pr--
prac--
pre--
prin--
prio--
pro--
pseudo--
psych--
pter--
pu--
pul--
pumi--
pun--
punctu--
pur--
purp--
py--
pyg--
q--
qu--
qual--
quot--
r--
ra--
rae--
ran--
raw--
re--
red--
ref--
regi--
reli--
ren--
render--
rep--
requ--
ri--
rn--
ro--
rou--
ru--
s--
sa--
saar--
sacc--
salt--
salv--
san--
sarco--
sc--
sca--
scale--
sch--
schle--
se--
sea--
semi--
ser--
set--
sey--
sf--
sh--
sha--
sho--
si--
silv--
simp--
sin--
sk--
sl--
slo--
sm--
snak--
so--
source--
sp--
spu--
sr--
st--
stab--
stan--
ste--
stel--
sten--
str--
stu--
sty--
su--
sub--
sum--
sun--
sup--
super--
sur--
suri--
sv--
sw--
sy--
sylv--
symp--
sze--
szigli--
t--
ta--
tau--
tax--
te--
tele--
temp--
ter--
texts--
th--
themeprofiles--
thom--
thyla--
ti--
time--
tiszte--
title--
to--
tor--
tr--
trad--
trans--
tre--
tri--
tru--
trun--
tu--
tur--
tw--
ty--
u--
ugr--
ugris--
uli--
ult--
un--
unignor--
unix--
up--
ur--
urop--
us--
user--
v--
va--
ve--
ver--
verru--
vi--
viki--
vir--
vo--
vol--
vr--
vulg--
w--
wa--
wal--
war--
we--
wel--
wie--
wiki--
wil--
wit--
wo--
won--
wor--
wra--
wrap--
x--
xi--
y--
ya--
yi--
yliop--
yo--
yu--
z--
za--
ze--
zh--
zi--
zor--
ł--
κ--
λ--
μ--
ν--
π--
τ--
а--
аб--
абе--
абор--
абсолют--
абстр--
ав--
ава--
авал--
авто--
авыр--
аг--
ага--
агент--
агра--
агро--
ад--
адап--
аде--
админ--
адри--
ажгын--
аз--
ак--
ака--
акком--
акла--
акро--
акт--
актив--
акту--
актуаль--
аку--
акц--
акыл--
ал--
ала--
али--
алле--
алматин--
алык--
аль--
аля--
ам--
амб--
амыр--
ан--
ана--
аналитиче--
анд--
ане--
анек--
ансамб--
анти--
антр--
антроп--
анф--
анык--
ап--
апа--
апол--
ар--
араб--
арал--
арам--
аранж--
арб--
арга--
аргенти--
аре--
ари--
ариф--
артю--
ару--
арх--
архи--
архив--
ас--
асси--
ат--
ата--
ать--
ау--
аудио--
афа--
афин--
афр--
афф--
ах--
ача--
аш--
аэр--
аҥ--
аҥа--
б--
ба--
бабуш--
бадь--
базис--
бак--
бал--
бала--
бан--
банга--
бар--
бас--
бата--
батальо--
бах--
баш--
бе--
без--
бел--
белебеевс--
белин--
бер--
бердин--
бере--
бесс--
би--
бик--
билинг--
бин--
биологиче--
бир--
бирю--
бла--
благо--
бли--
близ--
бн--
бни--
бо--
бог--
богат--
богомо--
богород--
бое--
бои--
бол--
болот--
бом--
бомбарди--
бон--
бонда--
бор--
бр--
бра--
брат--
брауз--
[...]
