!
"
#
##0
##1
##10
##11
##12
##13
##14
##15
##16
##17
##18
##19
##2
##20
##21
##22
##23
##24
##25
##26
##27
##28
##29
##3
##30
##31
##32
##33
##34
##35
##36
##37
##38
##39
##4
##40
##41
##42
##43
##44
##45
##46
##47
##48
##49
##5
##50
##51
##52
##53
##54
##55
##56
##57
##58
##59
##6
##60
##61
##62
##63
##64
##65
##66
##67
##68
##69
##7
##70
##71
##72
##73
##74
##75
##76
##77
##78
##79
##8
##80
##81
##82
##83
##84
##85
##86
##87
##88
##89
##9
##90
##91
##92
##93
##94
##95
##96
##97
##98
##99
$
%
&
'
(
)
*
+
,
-
.
/
0
00
000
01
02
03
04
049
05
06
07
08
09
1
10
100
1000
1001
1002
1003
1004
1005
1006
1007
1008
1009
101
1010
1011
1012
1013
1014
1015
1016
1017
1018
1019
102
1020
1021
1022
1023
1024
1025
1026
1027
1028
1029
103
1030
1031
1032
1033
1034
1035
1036
1037
1038
1039
104
1040
1041
1042
1043
1044
1045
1046
1047
1048
1049
105
1050
1051
1052
1053
1054
1055
1056
1057
1058
1059
106
1060
1061
1062
1063
1064
1065
1066
1067
1068
1069
107
1070
1071
1072
1073
1074
1075
1076
1077
1078
1079
108
1080
1081
1082
1083
1084
1085
1086
1087
1088
1089
109
1090
1091
1092
1093
1094
1095
1096
1097
1098
1099
11
110
1100
1101
1102
1103
1104
1105
1106
1107
1108
1109
111
1110
1111
1112
1113
1114
1115
1116
1117
1118
1119
112
1120
1121
1122
1123
1124
1125
1126
1127
1128
1129
113
1130
1131
1132
1133
1134
1135
1136
1137
1138
1139
114
1140
1141
1142
1143
1144
1145
1146
1147
1148
1149
115
1150
1151
1152
1153
1154
1155
1156
1157
1158
1159
116
1160
1161
1162
1163
1164
1165
1166
1167
1168
1169
117
1170
1171
1172
1173
1174
1175
1176
1177
1178
1179
118
1180
1181
1182
1183
1184
1185
1186
1187
1188
1189
119
1190
1191
1192
1193
1194
1195
1196
1197
1198
1199
12
120
1200
1201
1202
1203
1204
1205
1206
1207
1208
1209
121
1210
1211
1212
1213
1214
1215
1216
1217
1218
1219
122
1220
1221
1222
1223
1224
1225
1226
1227
1228
1229
123
1230
1231
1232
1233
1234
1235
1236
1237
1238
1239
124
1240
1241
1242
1243
1244
1245
1246
1247
1248
1249
125
1250
1251
1252
1253
1254
1255
1256
1257
1258
1259
126
1260
1261
1262
1263
1264
1265
1266
1267
1268
1269
127
1270
1271
1272
1273
1274
1275
1276
1277
1278
1279
128
1280
1281
1282
1283
1284
1285
1286
1287
1288
1289
129
1290
1291
1292
1293
1294
1295
1296
1297
1298
1299
13
130
1300
1301
1302
1303
1304
1305
1306
1307
1308
1309
131
1310
1311
1312
1313
1314
1315
1316
1317
1318
1319
132
1320
1321
1322
1323
1324
1325
1326
1327
1328
1329
133
1330
1331
1332
1333
1334
1335
1336
1337
1338
1339
134
1340
1341
1342
1343
1344
1345
1346
1347
1348
1349
135
1350
1351
1352
1353
1354
1355
1356
1357
1358
1359
136
1360
1361
1362
1363
1364
1365
1366
1367
1368
1369
137
1370
1371
1372
1373
1374
1375
1376
1377
1378
1379
138
1380
1381
1382
1383
1384
1385
1386
1387
1388
1389
139
1390
1391
1392
1393
1394
1395
1396
1397
1398
1399
14
140
1400
1401
1402
1403
1404
1405
1406
1407
1408
1409
141
1410
1411
1412
1413
1414
1415
1416
1417
1418
1419
142
1420
1421
1422
1423
1424
1425
1426
1427
1428
1429
143
1430
1431
1432
1433
1434
1435
1436
1437
1438
1439
144
1440
1441
1442
1443
1444
1445
1446
1447
1448
1449
145
1450
1451
1452
1453
1454
1455
1456
1457
1458
1459
146
1460
1461
1462
1463
1464
1465
1466
1467
1468
1469
147
1470
1471
1472
1473
1474
1475
1476
1477
1478
1479
148
1480
1481
1482
1483
1484
1485
1486
1487
1488
1489
149
1490
1491
1492
1493
1494
1495
1496
1497
1498
1499
15
150
1500
1501
1502
1503
1504
1505
1506
1507
1508
1509
151
1510
1511
1512
1513
1514
1515
1516
1517
1518
1519
152
1520
1521
1522
1523
1524
1525
1526
1527
1528
1529
153
1530
1531
1532
1533
1534
1535
1536
1537
1538
1539
154
1540
1541
1542
1543
1544
1545
1546
1547
1548
1549
155
1550
1551
1552
1553
1554
1555
1556
1557
1558
1559
156
1560
1561
1562
1563
1564
1565
1566
1567
1568
1569
157
1570
1571
1572
1573
1574
1575
1576
1577
1578
1579
158
1580
1581
1582
1583
1584
1585
1586
1587
1588
1589
159
1590
1591
1592
1593
1594
1595
1596
1597
1598
1599
16
160
1600
1601
1602
1603
1604
1605
1606
1607
1608
1609
161
1610
1611
1612
1613
1614
1615
1616
1617
1618
1619
162
1620
1621
1622
1623
1624
1625
1626
1627
1628
1629
163
1630
1631
1632
1633
1634
1635
1636
1637
1638
1639
164
1640
1641
1642
1643
1644
1645
1646
1647
1648
1649
165
1650
1651
1652
1653
1654
1655
1656
1657
1658
1659
166
1660
1661
1662
1663
1664
1665
1666
1667
1668
1669
167
1670
1671
1672
1673
1674
1675
1676
1677
1678
1679
168
1680
1681
1682
1683
1684
1685
1686
1687
1688
1689
169
1690
1691
1692
1693
1694
1695
1696
1697
1698
1699
17
170
1700
1701
1702
1703
1704
1705
1706
1707
1708
1709
171
1710
1711
1712
1713
1714
1715
1716
1717
1718
1719
172
1720
1721
1722
1723
1724
1725
1726
1727
1728
1729
173
1730
1731
1732
1733
1734
1735
1736
1737
1738
1739
174
1740
1741
1742
1743
1744
1745
1746
1747
1748
1749
175
1750
1751
1752
1753
1754
1755
1756
1757
1758
1759
176
1760
1761
1762
1763
1764
1765
1766
1767
1768
1769
177
1770
1771
1772
1773
1774
1775
1776
1777
1778
1779
178
1780
1781
1782
1783
1784
1785
1786
1787
1788
1789
179
1790
1791
1792
1793
1794
1795
1796
1797
1798
1799
18
180
1800
1801
1802
1803
1804
1805
1806
1807
1808
1809
181
1810
1811
1812
1813
1814
1815
1816
1817
1818
1819
182
1820
1821
1822
1823
1824
1825
1826
1827
1828
1829
183
1830
1831
1832
1833
1834
1835
1836
1837
1838
1839
184
1840
1841
1842
1843
1844
1845
1846
1847
1848
1849
185
1850
1851
1852
1853
1854
1855
1856
1857
1858
1859
186
1860
1861
1862
1863
1864
1865
1866
1867
1868
1869
187
1870
1871
1872
1873
1874
1875
1876
1877
1878
1879
188
1880
1881
1882
1883
1884
1885
1886
1887
1888
1889
189
1890
1891
1892
1893
1894
1895
1896
1897
1898
1899
19
190
1900
1901
1902
1903
1904
1905
1906
1907
1908
1909
191
1910
1911
1912
1913
1914
1915
1916
1917
1918
1919
192
1920
1921
1922
1923
1924
1925
1926
1927
1928
1929
193
1930
1931
1932
1933
1934
1935
1936
1937
1938
1939
194
1940
1941
1942
1943
1944
1945
1946
1947
1948
1949
195
1950
1951
1952
1953
1954
1955
1956
1957
1958
1959
196
1960
1961
1962
1963
1964
1965
1966
1967
1968
1969
197
1970
1971
1972
1973
1974
1975
1976
1977
1978
1979
198
1980
1981
1982
1983
1984
1985
1986
1987
1988
1989
199
1990
1991
1992
1993
1994
1995
1996
1997
1998
1999
2
20
200
2000
2001
2002
2003
2004
2005
2006
2007
2008
2009
201
2010
2011
2012
2013
2014
2015
2016
2017
2018
2019
202
2020
2021
2022
2024
2026
2028
203
2030
2032
204
205
206
207
208
209
21
210
2101
211
212
213
214
215
216
216667
217
218
219
22
220
221
222
223
224
225
226
227
228
229
23
230
231
232
233
234
235
236
237
238
239
24
240
241
242
243
244
244413
245
246
247
248
249
25
250
251
252
253
254
255
256
257
258
259
26
260
261
262
263
264
265
266
267
268
269
27
270
271
272
273
274
275
276
277
278
279
28
280
281
282
283
284
285
286
287
288
289
29
290
291
2911
292
293
294
295
296
297
298
299
3
30
300
3000
301
302
303
304
305
306
307
308
309
31
310
311
312
313
314
315
316
317
318
319
32
320
321
322
323
324
325
326
327
328
329
33
330
3307
3309
331
332
333
334
335
336
337
338
339
34
340
341
342
343
344
345
346
347
348
349
35
350
351
352
353
354
355
356
357
358
359
36
360
361
362
363
364
365
366
367
368
369
37
370
371
372
373
374
375
376
377
378
379
38
380
381
382
383
384
3849
385
386
387
388
389
39
390
391
392
393
394
395
396
397
398
399
4
40
400
401
402
403
404
405
406
407
408
409
41
410
411
412
413
414
415
416
417
418
419
42
420
421
422
423
424
425
426
427
428
429
43
430
431
432
433
434
435
436
437
438
439
44
440
441
442
443
444
445
446
447
448
449
45
450
451
452
453
454
455
456
457
458
459
46
460
461
462
463
464
465
466
467
468
469
47
470
471
472
473
474
475
476
477
478
479
48
480
481
482
483
484
485
486
487
488
489
49
490
491
492
493
494
495
496
497
498
499
5
50
500
501
502
503
504
505
506
507
508
509
51
510
511
512
513
514
515
516
517
518
519
52
520
521
522
523
524
525
526
527
528
529
53
530
531
532
533
534
535
536
537
538
539
54
540
541
542
543
544
545
546
547
548
549
55
550
551
552
553
554
555
556
557
558
559
56
560
561
562
563
564
565
566
567
568
569
57
570
571
572
573
574
575
576
577
578
579
58
580
581
582
583
584
585
586
587
588
589
59
590
591
592
593
594
595
596
597
598
599
6
60
600
601
602
603
604
605
606
607
608
609
61
610
611
612
613
614
615
616
617
618
619
62
620
621
622
623
624
625
626
627
628
629
63
630
631
632
633
634
635
636
637
638
639
64
640
641
642
643
644
645
646
647
648
649
65
650
651
652
653
654
655
656
657
658
659
66
660
661
662
663
664
665
666
667
668
669
67
670
671
672
673
674
675
676
677
678
679
68
680
681
682
683
684
685
686
687
688
689
69
690
691
692
693
694
695
696
697
698
699
7
70
700
701
702
703
704
705
706
707
708
709
71
710
711
712
713
714
715
716
717
718
719
72
720
721
722
723
724
725
726
727
728
729
73
730
731
732
733
734
735
736
737
738
739
74
740
741
742
743
744
745
746
747
748
749
75
750
751
752
753
754
755
756
757
758
759
76
760
761
762
763
764
765
766
767
768
769
77
770
771
772
773
774
775
776
777
778
779
78
780
781
782
783
784
785
786
787
788
789
79
790
791
792
793
794
795
796
797
798
799
8
80
800
801
802
803
804
805
806
807
808
809
81
810
811
812
813
814
815
816
817
818
819
82
820
821
822
823
824
825
826
827
828
829
83
830
831
832
833
834
835
836
837
838
839
84
840
841
842
843
844
845
846
847
848
849
85
850
851
852
853
854
855
856
857
858
859
86
860
861
862
863
864
865
866
867
868
869
87
870
871
872
873
874
875
876
877
878
87898
879
88
880
881
882
883
884
885
886
887
888
889
89
890
891
892
893
894
895
896
897
898
899
9
90
900
901
902
903
904
905
906
907
908
909
91
910
911
912
913
914
915
916
917
918
919
92
920
921
922
923
924
925
926
927
928
929
93
930
931
932
933
934
935
936
937
938
939
94
940
941
942
943
944
945
946
947
948
949
94950
95
950
951
952
953
954
955
956
957
958
959
96
960
961
962
963
964
965
966
967
968
969
97
970
971
972
973
974
975
976
977
978
979
98
980
981
982
983
984
985
986
987
988
989
99
990
991
992
993
994
995
996
997
998
999
:
;
<
=
>
?
@
[
\
]
^
_
`
a
aa
ab
aberta
abierta
abstracts
ac
acacallis
academic
acampe
acanthephippium
acer
acianthera
acianthus
acineta
acinonyx
acostaea
acriopsis
acroasium
acrolophia
acta
ad
ada
adansonia
adatok
adenoncos
adved
aerangis
aeranthes
aerides
africa
aganisia
aglossorrhyncha
agric
agrostophyllum
aii
aij
ajj
al
alcelaphus
alces
all
alpinus
altaica
altensteinia
am
ames
amitostigma
an
anacamptis
analysis
anathallis
ancipitia
ancistrorhynchus
and
andmete
androcorys
angle
angraecopsis
anguloa
ann
anoectochilus
aperti
apostasia
appendicula
arachnis
arch
archive
arcticus
arctos
area
arenas
art
article
as
ascocentrum
ascoglossum
aspasia
aspidogyne
association
at
ateles
atkla
atvira
auf
aulosepalum
avatud
aver
avoimen
ayurveda
az
b
ba
bahn
band
banquet
barb
barbara
barbosella
barkeria
barlia
barros
baskervilla
batemannia
baumann
bbc
bc
bd
bdeogale
be
beatles
beggars
behavior
beih
beloglottis
belyaeva
ben
benn
benth
benthamia
berlin
bibliographisches
bibliothe
bicolor
bifrenaria
bijdr
bin
biography
bipinnula
bison
bletia
bletilla
blume
bnf
boliviensis
bolus
book
books
bos
bosser
bot
botton
bovidae
box
br
brachionidium
brachypeza
brachystele
brade
bras
brassavola
brassia
britannica
brockhaus
bromheadia
broughtonia
bse
budapest
buitenzorg
bull
bureau
buselaphus
business
by
c
caladenia
calanthe
californicus
calopogon
cambridge
camelidae
camelopardalis
camelus
campylocentrum
can
canada
canadensis
canidae
canis
cap
capensis
carnevali
carr
castor
catasetum
cattleya
caucaea
caucasus
cd
cebus
cens
census
center
central
centralbl
century
cephalanthera
cephalophus
ceratostylis
cervus
ch
chapter
charms
chase
cheremis
chiloschista
china
christenson
christian
chysis
cinereoargenteus
cirrhaea
city
clem
club
co
cochlioda
cogn
com
comber
computer
concolor
conference
congress
congressus
context
cordem
corporation
coryanthes
corycium
cribb
crossarchus
cryptocentrum
cryptostylis
cseremisz
culture
cuon
cyclopogon
cynorkis
cypripedium
cyrtopodium
d
da
dados
dahlia
dajov
dama
danych
das
data
database
datan
dataplattform
date
dati
datos
datu
datumoj
day
db
de
death
debrecen
demoscope
den
dendrobium
dendrochilum
der
des
deschise
deutsche
development
devlok
di
dialect
dichaea
dict
dictionary
die
dietrich
diplocaulobium
displaystyle
dissercat
dissertationes
distemper
district
districts
dix
dns
do
doc
dod
dodson
doi
domain
don
donne
dorcas
dressler
druk
du
dubai
duet
duodecimus
duomenu
dvd
e
east
eastern
ed
edition
eds
education
eesti
eira
el
elaphus
elegans
elena
en
ena
encyclopedia
encyclopædia
engler
english
ep
epidendrum
epipogium
erl
erminea
es
esa
estimate
et
ethnic
europe
european
ex
excel
f
facebook
factarum
feat
february
federation
felidae
felis
fenno
fi
fiber
file
fimbriata
finet
finnisch
finno
finnugor
first
fitzg
fl
flava
fm
folk
folklore
foorumi
for
france
frapp
from
ftp
fu
fuscicollis
g
ga
gagnep
galictis
games
garay
gard
gazella
ge
gen
general
geograficzny
george
giraffa
gnu
go
gobio
google
gorilla
gotik
gov
government
gracilis
gramota
grandiflora
group
guinea
gulo
h
hamburg
helsinki
herb
hermans
herpestes
herpestidae
hindi
hindu
hinduism
hirtz
history
hiver
ho
hockey
hoehne
hoehnea
holttum
hook
hopper
house
how
hrsg
htm
html
http
https
humanities
humanoid
i
ich
icon
icq
id
identita
identity
ifusco
ii
iii
ij
il
im
in
including
indes
index
india
indian
indonesia
information
inst
institut
institute
intcess
intemationalis
international
internationalis
internet
introduction
ip
is
isbn
island
iso
issn
istanbul
it
iv
ivara
ix
j
ja
jackson
jahrb
jard
java
jeunesse
jeux
john
jones
joshkar
journal
jpg
jubatus
july
june
jyva
k
karelia
kew
king
ko
koellensteinia
kraenzl
krc
kro
ku
kudryavtseva
kultur
l
la
lama
lamb
lang
language
languages
latifolia
latrans
lauterbach
le
leafl
left
leftrightarrow
leopardus
lepanthopsis
leporidae
leptailurus
lepus
lestwa
level
lg
life
lindl
lindley
lindleyana
line
linguistic
linguistica
linguistics
linn
liparis
list
litera
london
longicauda
love
lp
lt
ltd
lu
luer
lumotlar
lunatus
lupus
lutreola
lynx
m
ma
mac
macaca
madagascar
magyar
mail
mala
malferma
malu
man
manis
map
marathi
mari
marin
marlene
martes
mascula
mat
materialien
materials
mazama
me
media
mediterranean
meles
menezes
mesadenella
metrobu
metropolitan
michael
miltonia
minor
missouri
mogera
monogr
montana
more
moscosoa
moscow
mu
muell
muntiacus
mus
museum
music
mustela
mustelidae
my
mythology
məlumat
n
na
names
national
nationalbibliothek
nationale
ne
neofinetia
neovison
net
new
news
ng
nicholls
nivalis
no
nonus
north
notul
nov
nova
now
nyi
nytimes
o
ocerint
ocerints
ochiq
octavus
october
odontoglossum
odprte
of
ola
olympics
olympiques
on
oncidium
one
oomph
open
opendata
opera
orchid
orchidaceae
orchids
orchis
org
organization
orleanesia
ormerod
orquideologia
os
otevr
otto
otvorenih
otvorenog
otvoreny
otwartych
oulu
ourebi
ourebia
out
ouvertes
oxford
p
pa
pabst
page
pajeros
palustris
pan
panthera
papers
papio
pardalis
paris
pars
patens
paul
paulo
pdf
pedersen
penguin
people
peristeria
perrier
peter
pfitzer
phalaenopsis
philipp
php
pi
piattaforma
piliscsaba
pithecia
pl
plataforma
plateforme
platform
platforma
platforması
platformja
platformo
platformu
plattform
platvormi
png
podataka
podatke
point
polskiego
polystachya
population
post
pp
ppen
prayers
presbytis
press
pridgeon
problem
proceedings
protocol
provincialis
pseudovanilla
publ
public
publication
published
publishing
pudu
puffin
puma
purpurea
pyramidalis
q
que
r
ra
rain
raisia
rchb
re
rec
ref
reg
region
regni
remix
renanthera
repert
republic
research
results
retrieved
rev
review
rfc
rhynchostylis
rich
ridl
right
rn
robusta
rodr
rogers
rolfe
roman
romero
royen
ru
rufus
rus
russia
russian
s
sa
saguinus
saimiri
savariae
schedul
schltr
schrei
schumann
schweinf
sci
science
sciences
sciureus
scream
se
sea
sectionibus
sectionum
seidenf
serval
service
sex
sia
siamensis
sibirica
sin
skyla
slovari
sm
so
soc
social
society
socioint
sophronitis
soto
south
southern
soviet
sp
spec
specimina
sprache
sprachen
squez
ssp
staatsbibliothek
star
state
statistical
statistics
story
structure
studies
subsp
suicide
sulawesi
summaria
summer
summerh
suomen
sw
swami
sylvilagus
symposiis
syst
system
szlach
szombathely
słownik
t
ta
tainia
tallinn
talpa
tang
tartu
tatiana
te
temple
th
thailand
the
thouars
times
to
top
total
tr
traditional
tragelaphus
trans
translations
treffen
trends
trisetella
trop
tscheremissischen
tsi
tu
turkey
turku
types
u
ua
uae
ugric
ugrica
ugristarum
ugristica
uk
ukraine
ukrcensus
un
und
union
university
up
uppsala
uralica
uralischen
url
urocyon
ursus
us
utc
v
va
values
van
vanda
vandopsis
var
veg
verilerin
verlag
vi
vicugna
view
vii
viii
vision
vison
vo
voi
vol
volga
volume
von
vulpes
w
wang
warm
warszawa
was
washington
wave
web
weekly
what
who
wiedii
wieku
wikipedia
williams
winter
wissen
with
wolf
wood
word
world
wrocław
www
x
xi
xii
xiii
xiv
xix
xv
xvi
xvii
xviii
xx
xxi
xxii
xxx
xylobium
y
yandex
york
you
youth
youtube
z
za
zinnia
zu
zygopetalum
zygostates
{
|
}
~
¡
¢
«
¬
­
°
²
³
·
¹
»
¼
×
æ
÷
ı
ık
ıq
ł
ɒ
ə
ʰ
ˈ
ː
̀
́
̂
̃
̄
̆
̇
̈
̉
̊
̋
̌
̓
̔
̛
̣
̧
̨
̸
͂
ͅ
͡
α
ανοικτω
β
γος
δ
δεδομε
ε
ει
η
θ
ι
κ
και
λο
ν
ντα
νων
ο
ου
π
πλατφο
ρ
ρμα
ς
τη
το
του
υ
ω
а
абажъяр
абазин
абакан
абанур
абаснур
абая
абдаево
абдулов
абзелилово
абинск
аблан
абросимово
абукаев
абукаева
абхаз
абхазии
абхазла
ава
аваж
аваже
аважлан
аважым
аважын
аваи
авалан
авалта
авалтен
авам
авамлан
авамланде
авамын
аван
аванур
авасер
авг
август
августа
августышто
авенир
авиации
авив
авии
авипов
аврора
австралии
австрии
австро
авт
авто
автобиобиблиогр
автобиографии
автобус
автогараж
автомат
автомашина
автомашинам
автомашинан
автомобиль
автомобильныи
автоном
автономии
автономнои
автономныи
автор
автора
авторжо
авторлан
авторын
ага
агаваи
аганур
агидель
агитации
агроном
агрономжо
агрономлан
агрыз
агрызскии
агытан
агытансола
адак
адакат
адакшым
адвокат
адкрытых
административ
административно
административныи
администратор
администрации
администрация
адольф
адрес
адресов
адресше
адыгеи
адымаш
адышев
аза
азам
азаново
азановское
азап
азербаи
ази
азии
азмекеи
азнакаево
азов
азъял
азяково
азяковское
азянково
аи
аив
аимке
аитсола
ак
ака
акад
академ
академии
академик
академикше
академическии
академия
акаже
акбулат
акилово
акла
аклат
аклаш
аклен
акленыт
аклыме
акозын
акпарс
акпарса
акпатыр
акрет
акротири
аксаи
аксаматово
аксар
аксарка
аксиологическая
аксубаево
акт
актаи
актаныш
актаюж
акте
актер
активист
активно
актриса
актуальные
актуганов
актуганово
актун
актусола
актыжгора
акции
акцорин
акше
акыл
акылжым
акылым
акым
ал
ала
алабога
алал
алан
аланд
аланыштат
аланыште
алань
алапаевск
алатаи
алатырь
алашаи
албании
алгасер
алгоритм
алдаи
алдиар
алдисола
алдияр
алдышка
але
алевтина
алеево
алеко
александр
александра
александрии
александров
александрова
александрович
александровка
александровна
александрово
александровск
александровскии
алексеев
алексеева
алексеевич
алексеевка
алексеевна
алексеевскии
алексеевское
алексеевын
алексеи
алексии
алешкинскии
алжир
али
аликово
алина
алисола
алма
алмамат
алман
алмат
алматы
алмашлу
алмаштарышыже
алмаштен
алмаштышыже
алмаштышыжлан
алнаш
алнашского
алсола
алтаи
алтимат
алтынжар
алфавит
алфавита
алхо
алхониеми
алыксии
аль
альбервиль
альберт
альбертина
альбертовна
альбом
альбомым
альбомыште
алькеи
альманах
альманахыште
альтернатив
альшеево
алят
ам
амагат
амагатын
амал
амалже
амалкалче
амаллан
амалым
аманур
аматисола
амаш
америка
американ
америкын
америкысе
америкыште
амзибаш
амион
ампеццо
амстердам
амур
амчемучаш
ан
ана
анаи
анализ
аналог
ананур
анапа
анастасия
анатолии
анатолия
анатольевич
анатольевна
анатомии
анвате
ангел
ангелина
ангилья
англ
англии
англичан
англичанла
ангола
ангырвуи
андерсен
анджелес
андорра
андреев
андреева
андреевич
андреевка
андреевна
андреево
андреевскии
андреи
андри
андрианов
андрианова
андрианович
андрии
андуганов
андуганова
анисим
анисимов
анисимова
анисимович
аниссола
анкара
анна
анпамаш
ансамбль
ансамбльым
ансамбльын
ансамбльыште
антарктида
антверпен
антигуа
антил
антологии
антология
антон
антонии
антонина
антонио
антонов
антонович
антоново
анчутино
аным
анэҥер
ао
апак
апакаев
апаксола
апанаево
апастово
апатеев
апатеева
апостол
аппак
аппаково
аппарат
аппаратым
апр
апрель
апрельскии
апрельыште
апреля
апсатарова
апталиков
аптан
аптулаев
аптулаи
аптулят
апшат
апшатнур
апшеронск
ар
араб
арабла
аравии
арака
аракам
арала
аралалт
аралалтеш
аралалтше
аралалтыт
аралаш
арален
араленыт
аралтыш
аралымаш
аралыме
аралымылан
аралыше
арам
арамиль
араша
арбаж
арбан
арбана
арбанын
арбитр
арбор
арбуч
арбучинскии
арваж
арвер
арверым
аргамасер
аргамач
аргасола
аргентина
арда
ардатов
ардаш
арде
ардембал
ардинскии
ардчилсан
ардыду
арестант
арестоватленыт
арестоватлыме
арзамас
арзамат
арии
аристэ
аристэн
арка
аркадии
аркадьевич
аркадьевна
аркадьевскии
аркамбал
арлан
армавир
армении
армии
армян
армянла
арня
арнян
арняште
арсак
арсении
арсентии
арсентьевич
арсии
арск
арслан
арсланов
артамонов
артамонова
арте
артель
артельын
артемии
артемьев
арти
артиллерии
артиллерист
артинском
артист
артистка
артисткыже
артистше
артисты
арто
артур
артюшкансола
ару
аруба
архангельск
архангельскии
археографическии
археолог
археологии
археологическии
археология
архив
архивировано
архивныи
архивов
архивы
архивым
архиепископ
архип
архипов
архипова
архипович
архитектор
архитектур
архитектуры
аршаш
аршашыже
аршиксола
аръюнгывуи
арык
арын
арып
арыслан
ас
асаев
асбест
аскино
аспект
аспекты
аспирант
аспирантов
аспирантур
аспирантурым
аспирантурыш
аспирантурышто
аспирантше
ассистент
ассоциации
асср
астраханская
астрахань
астрологии
астроном
астрономии
астрономическии
асфальт
асылбаев
асыҡ
ат
ата
атакыш
атаманыч
ате
атер
атланта
атлантик
атлас
атня
атом
атомныи
атул
атьсер
атьсола
атюлов
аудитории
аургазы
афанасии
афанассола
афанасьев
афанасьевич
афанасьево
афган
афганистан
афине
афон
африка
африкан
африккыште
африкын
африкысе
африкыште
афроевразии
афун
ах
ахматенер
ахматэҥер
ахмет
ахметов
ахмылово
ахтарск
ахтубинск
ача
ачаж
ачажат
ачаже
ачажым
ачажын
ачаи
ачам
ачамланде
ачамын
ачан
ачашт
ачаэл
ачии
ачит
ачык
ачым
аш
ашихмин
ашламаш
ашланскии
ашлань
ашмаринские
ашнак
аштаваи
ашық
аэропорт
аюпова
аянсола
аяр
аҥ
аҥа
аҥанур
аҥысыр
б
ба
бабаево
бабин
бавлы
багама
бадамшина
бадачоньтомаи
бадьино
база
базе
баи
бак
бакалы
баки
бакнур
баково
баксола
баку
балаково
балалаи
балахна
балезин
балезино
балет
балетмеи
балетын
бали
балкар
балкарии
баллада
балтаси
балтач
балтачевского
балтачевском
балтии
балтик
бан
бангкок
бангладеш
банда
бандорино
банк
бар
барабан
барак
бараки
баракше
барбадос
барбуда
барда
бардицы
бардым
барнаул
барон
баррикаде
барселоно
барские
бартельми
барцева
бас
басеи
баскетбол
басне
басни
басньывозызо
басня
басов
бассеи
басурман
батальонын
батрак
батуев
батут
батырбаев
бахреи
бахтин
бахтино
бахтияр
баш
башгу
баширово
башкир
башкирии
башкирского
башкирскои
башкортостан
башкортостана
башне
баян
баяна
баяне
баянист
баянистов
бе
без
безопасности
безупречныи
беи
беке
беларусь
белая
белгород
белебеи
беленков
белиз
белкова
белов
белокатаи
беломорск
белорецк
белореченск
белорус
белорусла
белоруссии
белоусов
белыи
бельгии
беляев
беляева
беляево
беляк
бенди
бензин
бенин
бердеи
бердинскии
бере
береза
березин
березники
березняк
березово
березята
беринг
берлин
берлинысе
берлиныште
бермуда
берникова
беспокои
бетховен
бетховенын
библии
библиогр
библиографии
библиографическии
библиотека
библиотекарь
библиотеки
бижбуляк
бизнес
бизнесъеҥ
бик
бикбатыров
бикмурзин
бикын
билалова
билет
билямор
биобиблиогр
биобиблиографии
биобиблиографическии
биогр
биографии
биографическая
биографическии
биография
биологии
бирск
бирскии
бирь
бирюки
бисау
бисола
бит
бицы
бишкек
благовар
благовещенск
благовещенскии
благородны
блат
блинов
блиново
блины
блог
блок
бо
бобруи
бог
богатство
богатыри
богдан
богданов
богданова
богданово
боголюбово
богородск
богородскии
богородское
богоявленское
бодья
боевои
боец
боз
бои
бокс
болгар
болгарии
болгарла
болдино
более
боливии
болониха
болото
болтуш
большаков
большая
больше
большевик
большеполье
большешудугужскии
большие
большое
большои
бондарныи
бор
боринскии
борис
борисов
борисова
борисович
борисово
борисоглеб
борнео
боровои
боровское
боровскои
борскии
бортовои
боснии
ботаник
ботсвана
ботсванеа
бояринова
бояриновои
бразилии
браи
братство
браузерыште
брест
брисбен
британ
британии
бровары
брокгауз
брунеи
брюховецкии
брянск
бсэ
бубрих
бугера
бугеры
бугор
бугульма
будапешт
будет
будущее
буздяк
буи
буинск
букв
буква
буквам
букварь
буквы
букетов
буклет
булак
булакское
булат
булгар
булла
бураево
буранаев
буржуазно
буржуазныи
бурзян
буркина
бурков
бурлацкое
буртек
бурунди
бурятии
бусныи
бусыгин
бусыгино
бутан
бутурлино
бутырскии
бухара
буча
буэнос
бы
быков
быковка
был
была
были
было
бым
быр
быргынде
быт
быть
бычков
бышев
бышевск
бышевскии
бэк
бэнди
бюджет
бюллетень
бюрожо
бүгд
в
ва
вавиловские
вавож
вад
вадим
важ
важык
важыкполко
ваз
вазиристан
ваи
вак
вакутсола
вакш
вакшлап
вакшсола
вал
валдаи
валеев
валенкупту
валентин
валентина
валентинович
валентиновна
валериан
валерианович
валерии
валерьевич
валерьевна
валерьян
валитов
валне
валтона
вальс
ван
ванкенур
ванкувер
вань
ваня
вапш
вапшту
вар
вара
вараже
варажым
вараксим
варале
варарак
варасе
вараш
вараҥыж
варвара
вариант
вариантше
вариации
варнавино
варшава
варым
вас
васалаи
васеневскии
васенькин
васикова
васиковои
василии
василиса
васильев
васильева
васильевич
васильевка
васильевна
васильево
васильевскии
васильевын
васильсурскии
васин
васинкин
васичи
васли
васлии
васлисола
васташуи
васхнил
васькин
васютин
вате
ватикан
ватыже
ватым
ватын
ватынъер
вахрушево
вахтан
вача
ваче
вачи
ваш
вашеш
вашешта
вашештен
вашингтон
вашке
вашкелшыкым
вашкерак
вашкыл
вашкылым
вашлиеш
вашлии
вашлиялтеш
вашлиялтше
вашлиялтыт
вашлияш
вашмут
вашмутланымаш
вашмутым
вашталт
вашталта
вашталташ
вашталтен
вашталтеныт
вашталтеш
вашталтмаш
вашталтме
вашталтмыжым
вашталтше
вашталтылше
вашталтымаш
вашталтыме
вашталтын
вашталтыт
вашталтыш
вашталтышым
ваштар
ваштареш
ваштарешла
ваштаршу
вв
введение
вверх
ввп
ве
веб
веда
ведаснур
веденеи
веденкан
веденскии
веденьевск
веденькин
ведерники
ведерников
ведесола
ведомости
век
века
векат
веке
веков
вел
веле
вележи
вележскии
велеш
велже
великая
великие
великии
великобритании
великои
великополье
велке
веллаште
велне
велосипед
велыж
велым
велын
велысе
велыш
велыште
вем
венгер
венгерскии
венгерском
венгр
венгрии
венгрла
венедиктов
венера
венесуэла
венеции
вениамин
вениаминовна
вепс
вер
вера
верам
веран
верашэҥер
вераҥдат
вераҥдыме
вервуи
вергеза
верде
вере
вереат
верештеш
верештын
верещагино
верже
вержым
вержын
веркан
верла
верлам
верлан
верлана
верланат
верланен
верланеныт
верланыме
верланыше
верлаште
верлыныше
верования
вероника
версии
версия
версола
вертоле
верх
верхне
верхнее
верхнесорокино
верхние
верхнии
верхняя
верховного
верховныи
верхотурье
верхошижемье
верч
верчын
вершина
вершинин
вершинята
вершо
вершок
верым
верын
верысе
верыш
верышке
верышкыже
верышт
верыште
верыштыже
вес
весе
весела
веселан
веселов
весна
вести
вестник
весту
весшу
весыже
весылан
весым
весын
весыш
весышт
весыштлан
вет
ветер
ветеран
ветеранже
ветеринар
веткан
веткин
ветра
вечер
вечын
взаимовлияние
взаимодеи
взаимосвязи
взвод
взгляд
ви
вивальди
вивальдин
вигак
вид
видання
видеман
видео
видного
видов
видше
виды
видякин
видякино
виеш
визимьярскии
визым
визыми
визымше
визымъер
визыт
вии
вик
вика
викентьевич
википедии
викитекыште
виктара
виктаралтын
виктараш
виктарен
виктарчык
виктарчыкым
виктарыме
виктарыше
виктем
виктер
виктерын
виктор
викторович
викторовна
виловат
вильял
винница
винныи
вино
виногоров
виноградов
виноградова
виноградовка
винокуров
винсент
винчи
винчин
виргин
вирус
вис
виса
висалтын
висаян
висвис
високос
висыме
виталии
витальевич
витальевна
витебск
витле
витьюмскии
вице
вич
виче
вичкудо
вичкыж
вичписте
вичуго
вишневскии
вишну
виян
виянрак
вияш
вияҥ
вияҥдаш
вияҥден
вияҥдымаш
вияҥдымашке
вияҥдымаште
вияҥдыме
вияҥеш
вияҥме
вияҥмыже
вияҥын
вка
вклад
вконтакте
вкп
вл
вла
влад
владивосток
владимир
владимирович
владимировна
владислав
влак
влакат
влаклан
влакланат
влакше
влакшым
влакым
влакымат
влакын
влакынат
влакыш
влакышке
влакышт
влакыште
власова
власти
власть
властьым
властьын
влияние
влиянии
влксм
вместе
вновь
внуково
во
вовашторскии
вод
вода
водевиль
водитель
водозерье
водохранилища
воды
военно
военныи
вож
вожаи
вожанэҥер
вожшо
воза
возалт
возалтеш
возалтше
возалтын
возалтыныт
возалтыт
возармаш
возат
возаш
возашлан
возвращение
возгален
возем
возен
возенам
возеныт
возеш
возжаи
возкалаш
возкален
возможности
вознесенка
вознесенскии
вознесенское
возникновение
возо
возраста
возыктыш
возымаш
возымаште
возымаштыже
возымашым
возымо
возымыж
возымыжо
возымыжым
возымым
возымыштым
возын
возышо
вои
воин
воинскии
вокал
вокальныи
вокан
вокзал
воктек
воктеке
воктен
воктенак
воктене
воктенсе
воктенысе
вола
волаксола
волга
волгалт
волгалтеш
волгалтын
волгарь
волге
волгенче
волги
волго
волговерховье
волгоград
волгои
волгореченск
волгыдо
волгыдыжо
волен
волжск
волжская
волжскии
волжско
волжского
волжском
волк
волков
волкова
волна
вологда
володар
володарск
володарскии
володькин
володя
воложа
волостнои
волость
волшебная
волынь
вольск
вольык
вольыклан
вольыкым
вондо
вонжеполь
вонча
вончаш
вончен
вончу
вончыду
вончымо
вопр
вопрос
вопросам
вопросу
вопросы
вопшанэҥер
вораҥдыш
воркута
воробьев
воробьи
воронеж
воронцов
воронцова
воронцован
ворончихино
воротынск
ворошилово
ворсма
воскресенск
воскресенскии
воскресенское
воспитание
воспитании
воспитания
воспитатель
воспитательныи
воспоминания
восприятие
восприятии
восстании
восток
восточно
восточного
восточном
восточныи
восточных
вострики
восход
восхождение
вот
воткинск
вочарма
вочерма
вочканур
вочмо
вочмык
вочшо
вошма
вошт
воштончыш
воштончышыжо
воштыл
воштылеш
вперед
впн
впо
врач
врачше
времени
время
вс
все
всегда
всего
всеи
всерос
всероссии
всесоюзная
всесоюзного
всесоюзнои
всесоюзныи
всех
вск
вскии
встреча
встречи
вторая
второе
второи
вторые
ву
вувер
вуд
вует
вуеш
вуж
вуз
вузе
вузов
вузышто
вуи
вуктыл
вулкан
вургем
вургемым
вурго
вурнар
вурс
вуртем
вуча
вучат
вучем
вучен
вученыт
вучо
вучыдымо
вучыдымын
вучыман
вучымо
вуян
входит
вхождения
вчера
вы
выж
выжум
выи
выкса
вылак
выль
выльып
вымь
вын
вынем
вынер
выньык
вып
выпуск
выпускники
выр
выра
выражение
выражении
выражения
выразительные
вырам
выран
вырго
выржыкан
выру
вырым
высанер
выселке
выселки
выселок
высокая
выступатлен
выступлении
высшего
высшии
высылке
выхода
вышгород
вьетнам
вэлли
вязовые
вятка
вятки
вятские
вятскии
вятского
вятскои
вятчино
вяч
вячеслав
вячеславовна
відкритих
вінницька
вінниця
г
га
габдулла
габон
гаваи
гаврениха
гавриил
гаврил
гаврилов
гаврилова
гаврилович
гагарин
гагаузии
гагино
гагра
гадиатов
гадиатовын
гае
газ
газет
газета
газетеш
газетлан
газетлаште
газеты
газетым
газетын
газетыш
газетыште
газым
гаи
гаити
галереи
галиаскарово
галина
галкин
галкина
галкинын
галмудуг
галютин
галютинын
гамбии
ган
гана
ганди
ганеша
гани
ганур
гар
гарже
гари
гарла
гарлаште
гармиш
гармонии
гармония
гармонь
гармоньчо
гармоньым
гарь
гастроль
гафури
гаш
гаяк
гбоу
гбу
гваделупа
гвардии
гвардия
гватемала
гвиана
гвинеи
гг
где
ге
геи
гектар
гелде
геленджик
гельсии
гендерная
генеалогия
генерал
генеральныи
геннадии
геннадия
геннадьевич
геннадьевна
генри
генрих
географии
географик
географических
геометрии
георгиевич
георгиевна
георгии
георгина
герасим
герасименки
герасимов
герасимович
герасимово
герб
герман
германа
германии
германия
гернси
герои
героическии
герцеговина
гзк
ги
гибралтар
гидрометеоиздат
гильдин
гильдино
гимаев
гималаи
гимн
гимназии
гитар
гитара
гитарым
гитис
гитлер
гихл
гиш
гл
глава
главы
глагол
глагола
глаголов
глаголы
глаголын
глагольно
глагольного
глагольное
глагольные
глазов
глазырин
гласные
гласныи
гласных
глездене
глезденев
глина
глобализации
глухов
глухова
глушков
глушкова
го
говор
говора
говорах
говоре
говоров
гоголь
гоголя
год
года
годах
годов
годсек
годсекак
годсо
году
годы
годым
годымак
годымат
годымжак
годымжо
гол
голова
головино
головна
голос
голоса
голубои
голым
гом
гомель
гондурас
гондырево
гор
гора
горбатов
гордеев
гордеева
гордеевын
горе
горелая
горелов
горелыи
горинов
гориново
горка
гормон
горная
горно
горного
горнозаводск
горномар
горномарии
горные
горныи
горных
горняк
город
города
городе
городец
городов
городок
городских
городского
городскои
городском
горохов
горохова
гороховец
гороховын
горькии
горячии
гос
госконюшня
гослитиздат
госпитальыште
государства
государственная
государственного
государственное
государственнои
государственном
государственному
государственныи
государственных
государство
гот
готан
гоу
гоч
гочын
градус
граждан
гражданин
гражданинже
гражданка
гражданскии
гражданствым
грак
грам
грамм
грамматика
грамматике
грамматики
грамматикыже
грамматикым
грамматические
грамматическии
грамот
грамота
грамотыж
грамотыжо
грамотышт
гран
грани
график
графика
графике
графики
графическии
гребнев
гребнево
грек
грекла
гремячинск
гренада
гренадин
гренландии
гренобль
греции
грива
гриве
григориан
григории
григорович
григорьев
григорьева
григорьевич
григорьевна
гризон
гриф
гришино
гришкино
гришунята
гродно
гроза
грозныи
громов
груз
грузии
грузин
грузинла
грузов
грузова
грузовик
грузовои
грузовские
грузым
группа
группо
группы
группым
группын
грязин
гтрк
гу
губаха
губернии
губернскии
губин
губино
губинскии
гужавино
гуза
гузан
гузы
гулькевичи
гуляево
гуманитар
гуманитарного
гуманитарные
гуманитарных
гуп
гур
гурии
гурьевич
гусев
гусева
гусево
гусевскии
гусли
гусовского
гусь
гутлаште
гы
гыж
гыльмаш
гым
гын
гына
гынат
гыр
гыран
гырен
гыч
гычак
гычат
гычын
гыш
гэс
гюго
д
да
давид
давлеканово
давлет
дагестан
даже
даи
дакар
даково
даковскии
далана
даланат
даланаш
даланен
даланеныт
даланыме
даланыше
даланышылан
даланышын
дале
дали
далын
дальнии
дам
дан
дании
даниил
данилиха
данилкино
данилов
данилова
данилович
данилово
даниловын
даних
данни
даннои
данные
данныи
данным
данных
даных
дар
дара
даралтын
даралымвер
дараш
дарен
даровскои
дарчык
дарыше
дарья
дат
дата
дате
дача
дачников
даш
дв
два
двара
две
двел
двелне
двелыште
двигатель
двигательым
движение
движении
движения
двои
дворец
двух
двуязычия
дде
ддымо
ддымылыклан
ддымылыкым
де
дебе
девушка
деепричастия
деи
дек
декабрь
декабрьыште
декабря
декан
деканже
деканын
декат
деке
декелии
декет
дел
дела
делам
делегат
делегатше
делегации
деления
дели
дело
деловои
дельтыште
дем
демар
деме
демид
демократии
демократикле
демылан
демым
демын
ден
денак
денат
дене
денем
денже
денис
денисова
денисовка
денисовскии
день
депутат
депутатше
дер
деревень
деревни
деревня
дерево
деректер
держе
дерым
дерын
дерыште
дет
детеи
детектив
дети
детская
детские
детскии
детского
детства
детство
детям
деч
дечат
дечын
деш
деятель
деятельже
деятельности
деятельность
деятеля
джаи
джалиль
джан
джанла
джеи
джерси
джибути
джованни
джон
джордж
джульетта
дзержинск
ди
диагональже
диалект
диалекта
диалектах
диалектов
диалектологии
диалекты
диалог
дианово
диахронии
дивеево
дивизии
дидактическии
диджеи
дизаи
дизель
диккенс
диктант
диктор
дим
димиров
димитрии
димитровград
дина
династии
динскои
дионисии
диплом
дипломат
дипломжо
дипломым
директор
директора
директоржо
директоржылан
директорлан
директорын
дириже
дис
диск
дискым
дисс
диссертации
диссертацию
диссертация
дисциплин
дисциплине
дитрих
дк
длан
для
дмитриев
дмитриева
дмитриевич
дмитриевка
дмитриевна
дмитрии
дмучаш
дмучашыштыже
дне
дневник
днеи
днепр
днепропетровск
днестрсер
дни
дно
дню
дня
дніпра
дніпро
до
добрыи
добрянка
довка
довольно
додаҳои
докан
докл
доклад
докладов
доклады
докладым
доктор
доктора
докторлык
докторскую
докукин
документ
документальныи
документальных
документлаште
документов
документоведения
документым
дола
долаже
долбачи
долгая
долгов
долгова
долгоруково
должен
долл
доллар
долян
дом
дома
доме
домен
доминго
доминика
доминикан
домодедово
домра
домрачев
дон
донецк
доно
дону
доп
дополнении
дор
доров
дорович
доровка
доровна
дорога
дороге
дороги
дорогои
дорожныи
достоевскии
достои
доцент
доцентлан
доцентше
дочь
дпо
др
драм
драма
драматизм
драматическии
драматург
драматурга
драматургии
драматургия
драмаш
драме
драмтеатрын
драмтеатрыште
драмы
драмыже
драмыжым
драмым
древнеи
дрожжанои
друг
друга
другие
другими
других
дружба
дружбы
дружино
друзеи
друзья
ду
дуб
дубна
дубники
дубовая
дубовка
дубовлян
дубовлянка
дубовляны
дубовои
дубовскии
дубрава
дубровка
дуван
дудина
дудинан
дудинои
дул
думка
думын
дур
духовная
духовницкое
духовнои
духовныи
душ
душа
душанбе
души
душык
дуэт
дш
дшинчаял
дшо
дшор
дшорышто
ды
дыжго
дыжо
дыкшо
дыкшыдымылык
дыкшым
дым
дымарии
дыме
дымо
дымын
дын
дыр
дырамаш
дырамашлан
дырамашым
дырамашын
дыран
дырем
дырж
дыржо
дыржым
дыржын
дырла
дырлан
дырмо
дыроҥгыр
дырчан
дырчо
дырым
дырын
дысола
дыш
дышо
дышт
дышто
дышыжо
дэвид
дэҥер
дюи
дюртюлинскии
е
евгении
евгения
евгеньевич
евгеньевна
евграф
евдоким
евдокимов
евдокимович
евдокия
евразии
евреи
евро
европа
европеи
европо
европы
европын
европысо
европышто
евсеев
евсеева
евсеи
евстафии
евстифеев
евфимии
египет
египетскии
египетыште
его
егор
егоркино
егорково
егоров
егорова
егорович
егоровна
егорьевск
егорята
егошин
егошина
егошино
егытсола
еда
единиц
единица
единице
единичныи
единство
единыи
ее
ежегодник
ежово
ежовское
еи
екатерина
екатеринбург
ексеи
елабуга
еласовского
еласы
елеи
елемучаш
елена
елизавета
елизар
елицы
елка
елово
елышево
ельник
ельняги
ельсуково
ем
емдыр
емельян
емельянов
емельянович
емельяново
емен
емешевского
ему
ен
ендылетова
енисеи
енциклопедія
енын
епархии
епископ
епишенки
епрем
ер
ерду
еремеи
ермаков
ермакова
ермаксер
ермекеево
ермилово
ермучаш
ернур
ерофеи
ерошкин
ерсола
еру
ершов
ерызе
ерын
есенинын
есимбаево
если
естествознании
есть
ет
ефим
ефимов
ефимова
ефимович
ефрем
ефремов
ефремова
ефремович
ефремовын
ефруш
ефрушын
ече
еш
ешан
ешара
ешаралтеш
ешаралтын
ешарат
ешараш
ешарен
ешареныт
ешартыш
ешарыме
ешем
ешеш
ешлан
ешыж
ешыже
ешым
ешын
ешыш
ешыште
еще
еҥ
еҥан
еҥгыват
еҥже
еҥлан
еҥшотлымаш
еҥым
еҥын
ж
жа
жак
жан
жанеи
жанр
жанра
жанров
жанрым
жанрыште
жап
жаплан
жапше
жапшым
жапым
жапын
жапысе
жапыштак
жапыштат
жапыште
жапыштыже
жара
жаран
жареныи
жарже
жат
жаш
жвак
жвал
жватаже
жге
жго
же
железнодорожные
железнои
желонкино
жем
женихи
женского
женщина
женщины
жера
жертв
жеш
жибрик
живая
живои
живопись
животных
живу
жиган
жигуле
жизни
жизнь
жило
жираф
житган
житомир
життя
жить
жк
жм
жмеринка
жныи
жо
жуковскии
журавли
журнал
журнала
журналеш
журналист
журналистик
журналистике
журналистше
журналлаште
журналым
журналын
журналыште
жы
жылан
жым
жымат
жын
жыныт
жыт
з
за
заведении
заведениях
заведующии
зависимым
завод
завода
заводскои
заводым
заводын
заводышто
заволжск
заволжье
завтра
завьялово
загаи
заговоров
заготскот
загуры
задания
задачи
задачым
заи
заимствовании
заимствования
заимствованиях
заинск
закон
законова
законым
зал
замбии
заметки
замок
занятии
заовражные
заочно
заочнои
зап
западного
западное
западнои
западныи
записи
записки
заповедник
запорожье
зарека
зарекскии
зарецк
зарецких
заречная
заречные
заречныи
заречье
зарубежнои
заря
заседании
заслуги
заслуженного
заслуженные
заслуженныи
зато
затон
зауморы
захар
захаров
захарова
захарович
захарово
захарята
заш
защитниках
заячья
звании
звания
зве
звезда
звезды
звенигово
звениговскии
звер
зверев
зверево
зверевцы
звягель
згар
згарым
згарын
згарыштын
здании
здесь
здныи
зеландии
зеле
зеленая
зеленогорск
зеленыи
земле
земли
земля
земскии
земфира
зен
зенворт
зенджан
зенштеи
зианчура
зии
зикыл
зил
зилаир
зимбабве
зименки
зинаида
зиновии
зиновьевич
зиновьево
зинуров
зинь
златополь
злэҥер
знак
знаменат
знаменательных
знаменск
знаменскии
знаменское
знамя
знания
значение
значением
значении
значения
значениян
зо
зовет
зовка
зово
зовскии
зодиак
зои
зоил
золин
золотая
золотое
золотои
золотцева
зоотехникше
зорина
зосим
зосима
зоя
зу
зубори
зубцов
зуевка
зы
зырян
зьвестак
зяблицево
и
иаков
ибатов
ибраев
ибреси
ивакнур
иван
ивана
иванбелякскии
ивано
иванов
иванова
иванован
иванович
ивановка
ивановлан
ивановна
иваново
ивановои
ивановскии
ивановын
ивансола
иваньковского
ивла
ивуар
ивук
иге
игенчеляр
игече
игечым
иглино
игнаева
игнат
игнатенки
игнатии
игнатьев
игнатьева
игнатьевич
игнатьевские
игнашкин
игорь
игра
игры
ида
идалык
идалыклан
идалыкше
идалыкын
идалыкысе
идалыкыште
идеи
идел
идентификатор
идентичности
идеологии
идым
иерусалим
ижболдин
иже
ижевск
ижмарии
из
иза
изаже
изак
изаньга
изарня
изарнян
изаҥа
избр
избранные
известия
известныи
изд
издание
издании
издания
издательскии
издательстве
издательство
издательствыште
издер
иземын
изергин
изи
изибаев
изиван
изигуньскии
изиж
изик
изилянова
изинек
изинекак
изинур
изинурвоч
изирак
изиш
изишак
изложении
измаил
измар
изменения
изменениях
изнур
изображения
изобразительного
изобразительныи
изобретатель
изобретении
изоткино
израиль
изучение
изучении
изучению
изучения
изэҥер
ии
иисус
иихф
ик
икана
иканаште
икгаи
икманаш
икмарда
икмыняр
икоян
икпо
икса
иксанова
иктаж
иктак
иктат
икте
иктеш
иктешлен
иктешлымаш
иктешлымашым
иктешлыме
иктешлыше
икто
иктыже
иктык
иктым
иктын
иктыш
иктышт
икша
икшыван
икшыве
икшывыже
икшывылан
икшывым
икымше
ил
ила
илат
илаш
илдар
иле
илеи
илем
илемла
илемым
илемын
илемыш
илемыште
илемыштыже
илен
илена
иленыт
илет
илетскии
илеть
илешъял
или
илибаева
илибаеван
илиева
иликбаев
илиш
илл
илларион
илларионов
илларионович
илле
илмывер
илна
илометр
илымвер
илымверла
илыме
илымыж
илымыже
илыш
илышаш
илыше
илышем
илышкыл
илышлан
илышна
илышыж
илышыже
илышыжым
илышым
илышын
илышыш
илышышт
илышыштат
илышыште
илышыштыже
илышыштым
ильдемнур
ильин
ильинична
ильинка
ильинскии
ильич
ильна
ильнеть
ильын
илья
ильяков
ильякова
ильяковын
илюшкино
илян
им
иман
иманаев
име
имен
имена
именем
имени
именных
имеют
имне
имньым
император
империалист
империи
имэҥер
имя
ин
инвалид
инвалидов
инвестиции
ингушетии
индексов
индексы
индеш
индешымше
индии
индоевропысо
индонезии
индуизм
индуизмын
индуист
индустрии
инерымбал
инея
инженер
инженерлан
инлаи
инна
инновации
иннокентии
инородческии
иностранным
иностранных
инсар
инсбрук
инспекции
институт
института
институтым
институтын
институтысо
институтыш
институтышко
институтышто
инструкции
инструмент
инструментальныи
инструментах
инструментов
инструменты
инта
интеллигенции
интервот
интервью
интернат
интернатыште
интернет
интернетыште
интерпретация
интерфеи
инфекции
информации
информационныи
информацию
информация
иоанн
иок
ион
иона
иордании
иосиф
иосифович
ипаи
ипая
ипполит
ир
ираида
ирак
иран
ирина
ирка
иркабаев
иркино
иркинскии
иркутск
иркын
ирландии
ирмарь
ировскии
ирсаи
ирыкша
исаак
исаев
исаи
исаков
исаково
исанбаев
исанбаева
исанбаевич
исенеков
исиметов
искаев
искаков
искакова
искандаров
исккон
искусств
искусства
искусстве
искусство
искусствоведение
искусствоведении
искусствын
искуш
ислам
исламов
исландии
исмаил
испан
испании
испанла
исповедник
исполком
исполкомын
исполнилось
исполнитель
исполнительныи
использование
использования
испр
исследование
исследовании
исследования
исследователь
исследовательскии
исследовательских
исследовательскои
ист
исток
истоки
истоков
истории
историк
историко
историков
историческая
исторические
историческии
исторических
исторического
историческое
историческои
историческом
история
источник
источники
исус
исуткан
исчезнувшие
исюи
ит
италии
итальян
итальянла
итогам
итоги
их
ихотьсола
ишимбаи
ишимово
ишпаи
иштрикова
иштыбаево
июль
июльышто
июля
июнь
июньышто
июня
ия
ияш
ияшак
иҫке
к
ка
кабаксола
кабарда
кабашнур
кабель
кабинетым
кабо
кава
кавалерже
каван
кавасе
кавату
кавашке
каваште
кавказ
кавказскии
кавказыште
кавырля
кагаз
кагазым
кагазыште
кадам
кадиков
кадров
кадрым
кадыков
кадыкова
каем
каен
каеныт
каждого
каждому
каждыи
кажне
кажныже
казак
казаков
казакова
казаковка
казаково
казамат
казаматын
казаматыште
казан
казанская
казанскии
казанского
казанское
казанскои
казанцев
казанцева
казань
казах
казахла
казахского
казахскои
казахстан
казахстана
казахстанскои
казахстанын
казахстаныште
казенныи
казиношто
казна
казуксола
казым
каи
как
какшамарии
какшамбал
какшан
какшанмучаш
какшансола
какшар
кал
каласа
каласалтеш
каласалтше
каласаш
каласе
каласен
каласеныт
каласкала
каласкален
каласыман
каласымаш
каласыме
каласыш
калат
калаш
калашников
калгари
кален
календарь
календарьым
календарьын
калиев
калии
калинин
калинина
калининград
калинино
калининскии
калинкин
калинов
калифорнии
калмазан
калмаш
калмыкии
калтак
калтаксола
калтан
калтаса
калтасинскии
калтасы
калуга
калугин
калшеҥгел
калык
калыкат
калыклан
калыкланат
калыкле
калыкмут
калыкмутым
калыкна
калыкнан
калыкпалым
калыкчот
калыкчотшо
калыкше
калыкшым
калыкым
калыкын
калыкыште
калькулятор
калязин
калянур
кама
камаз
камаканур
камбарка
камбоджа
камвозын
каменная
каменное
каменныи
каменск
каменскии
камера
камерун
камор
камотес
камскии
камского
камское
камчатка
камчатке
камчатскии
камша
камы
камызяк
камышин
камышлов
камья
кан
кана
канада
канаде
канадын
канадысе
канадыште
канал
каналташ
каналым
каналын
канаш
канвондо
канд
кандалге
кандаш
кандашияш
кандашплак
кандашымше
канде
кандидат
кандидата
кандидатлык
кандидатскую
кандывуи
кандыер
каневскои
кантон
канторъял
каныме
каныш
канышево
канышыште
канюшков
кап
капан
капеллыште
капитан
капка
капкам
капкаорол
капкашкыже
капкультур
капкультурын
каплан
каптрансола
капше
капшым
капым
кар
карабаево
карабах
карагаи
карагасовскии
караго
караев
караи
караидель
каракша
карамас
карасимово
карасъер
карасъяр
карасьяры
карачаи
карачурино
карбюратор
карел
карелии
карелла
карело
карл
карлыган
кармазин
кармазина
кармазиным
кармазинын
карман
карманер
кармаскалы
карпеи
карпинск
карпов
карпова
карпович
карт
карта
карташов
карте
картины
картук
картын
карш
каръер
карыл
кас
касанаково
касв
касвел
касвелне
касвелныже
касвелыште
каспии
кастене
кастрен
касьяново
каталог
катар
категории
категория
каткова
католик
катыри
катыршан
кафедр
кафедра
кафедре
кафедры
кафедрым
кафедрын
кафедрыште
кафедрыштыже
каче
качества
качестве
качественныи
качество
качествым
качествын
качмаш
качын
качырынола
каш
кашнур
кашта
кая
каят
каяш
каҥаш
каҥашеныт
каҥашым
каҥашымаш
каҥашыме
каҥашын
квадрат
квадратын
квалификации
квартал
квт
кг
ке
кевыт
кедэҥер
кез
кеи
келге
келгемден
келгын
келгынрак
келгыт
келгытше
келдаксола
келегорем
келесола
келтеи
келша
келшаш
келше
келшен
келшеныт
келшык
келшымаш
келшымашышт
келшыме
келшыше
келшышын
келыштарен
келыштарыме
кельмак
кельмаксола
кем
кемеи
кемерово
кемсола
кемь
кен
кенеж
кенета
кении
кенче
керебеляк
керек
керт
кертам
кертат
кертдыме
кертеш
кертмаш
кертме
кертмыж
кертше
кертыда
кертын
кертына
кертыныт
кертыт
керчь
керылт
кесемлак
кетек
кеч
кечан
кече
кечы
кечывал
кечывалвел
кечывалвелне
кечывалвелныже
кечывалвелыш
кечывалвелыште
кечывалым
кечыж
кечыже
кечыжлан
кечыжым
кечыи
кечыла
кечылан
кечылаште
кечым
кечын
кечынак
кечынат
кечынже
кечыныште
кечысе
кечыто
кечышогымаш
кечышот
кечышт
кечыште
кечыштыже
кеҥеж
кеҥежым
кеҥежымсе
ки
кибеево
киберда
кигазытамаково
киги
кид
кидекше
кидетым
кидше
кидшер
кидшым
кидым
кидыш
кидышкыже
кидыште
кидыштыже
киев
киен
кизел
кизнер
кии
кикнур
килемар
килемарскии
килемары
килиманджаро
килограмм
километр
километрже
кильдиярово
кильмезь
киляково
ким
кимры
кин
кина
кинг
кинде
киндулкан
киндым
кинер
кинерь
кинешма
кинешме
кино
киноакте
киноактер
кином
кинон
кинорежиссе
кинофильм
киношто
кинскии
кипр
киргизии
киржевож
кирибати
кирилл
кириллик
кириллице
кириллов
кириллова
кириллович
кирино
киров
кирово
кировоград
кировская
кировскои
кирпичныи
кирс
киселе
кислицын
кита
китаи
китиков
китне
китни
китньымучаш
китня
китс
китяк
кичке
кичма
кишерть
кишке
кишкинск
кия
кияр
киярсир
киясово
киі
кл
кла
клавдия
клаи
клапан
класс
класса
классан
классах
классе
классик
классика
классикше
классификатор
классификаторов
классификации
классическии
класслан
класслаште
классов
классым
классыш
классыште
кленде
кленовая
кленовскии
клешнин
клешнино
клиент
клим
климат
климентии
климин
климсола
клиппертон
клуб
клубым
клубын
клубышто
клюкин
клюкина
клюкино
ключ
ключе
ключева
ключевои
ключи
ключик
ключников
клюшко
км
кн
кна
кнага
кнагаже
кнагам
кнатоб
книг
книга
книгагудо
книгаж
книгаже
книгажым
книгалан
книгам
книган
книгапо
книгаш
книгашке
книгаште
книгаштыже
книгаштым
книге
книги
книгои
книгу
книжное
кныр
кня
княгинино
князь
ко
ков
кова
коваште
коваштым
ковернино
ковешникова
ково
ковскии
ковылкино
когда
кого
когои
когосола
когыльэҥер
код
кода
кодам
кодат
кодаш
коден
коденыт
кодеш
кодо
кодов
кодочиги
кодшо
коды
кодымо
кодын
кодыныт
кодыт
коеш
кож
кожаев
кожвож
кожвожвуи
кожвожмучаш
кожевников
кожер
кожерла
кожла
кожлаер
кожлалу
кожлангер
кожланур
кожласола
кожлаэҥер
кожлаял
кожъял
козаш
козиково
козиковскии
козино
козлов
козловец
козловка
козловко
козловского
козлоял
козырев
козьмодемьянск
кои
кок
коканд
кокла
коклала
коклан
кокласе
кокласола
коклаш
коклашке
коклаштат
коклаште
коклаштышт
коклаял
коковихин
кокса
коктуш
коктын
коктынат
кокша
кокшага
кокшаи
кокшамары
кокшан
кокшанур
кокшародо
кокшы
кокымше
кокымшо
кокыт
кокытан
кокыте
кол
кола
колаш
колен
колеса
колжо
количества
коллегии
коллегия
колледж
колледжым
колледжын
колледжыш
колледжыште
коллект
коллектив
коллективизации
коллективов
коллективше
коллективым
колмо
колмыж
колмым
коло
кологрив
колонии
колосково
колотки
колт
колта
колтат
колташ
колтен
колтеныт
колто
колтымаш
колтымаште
колтымо
колтыш
колтышо
колумб
колумба
колумбии
колумбын
колхоз
колхоза
колхозная
колхозник
колхозныи
колхозым
колхозын
колхозыш
колхозышто
колшо
колыгудо
колызо
колым
колымаш
колымо
колымшо
колымыж
колымыжо
колын
колышо
колышт
колышташ
колыштшо
колыштын
колышым
кольцов
кольцово
коля
колянур
ком
кома
коман
команда
команде
командир
командирже
командирын
командовании
командыже
командылан
командым
командын
командыш
командыште
команур
комаров
комарово
комары
комбаи
комбинат
комбо
комедии
комедия
коми
комикс
комиксын
комила
комино
комиссар
комиссии
комитет
комитетым
комитетын
комитетыште
комичи
коммуна
коммунар
коммунизм
коммуникации
коммунист
компакт
компании
комплекс
комплексного
композитор
композиторов
композиторы
композиторын
композиции
компоненты
компучыр
компьютер
компьютерлан
компьютерныи
компьютерым
компьютерын
компьютерыште
комсомол
комсомола
комсомолец
комсомолын
комсомолыш
комсомольск
комсомольскии
комсорг
комунна
кон
конаков
конакова
конаково
конаковын
конвеи
конганур
конгино
конго
конгресс
конгресса
конгресслаште
конгрессын
конда
кондат
кондаш
конден
конденыт
кондопого
кондрач
кондымо
кондышо
конец
конкурс
конкурса
конкурслаште
конкурсым
конкурсын
конкурсышто
конопляньык
коноштрад
консерватории
константин
константина
константинов
константинова
константинович
константиновна
константиново
константиновскии
константинопольскии
константинур
конституции
конструктор
конструкции
консультант
контакт
контактов
контакты
контекст
контексте
континент
контор
контроль
контрольные
контрреволюционныи
конур
конф
конференции
конференция
конфликт
конца
конце
концепции
концепция
концерт
концертлаште
концертмеи
концертше
концертым
концертыште
конча
кончерже
коньки
коньким
коопхоз
координат
копии
копон
копонъял
копонэҥер
копорулиха
копшаҥге
копылова
кор
кора
корак
кораксола
коракъял
коралл
корамас
кораҥдат
кораҥдаш
кораҥден
кораҥденыт
кораҥдыме
кораҥын
коргоноп
кордон
кореи
корем
корембал
коремыште
кореновск
кореш
кори
корисола
кориш
корка
коркатово
корнан
корнево
корнилов
корно
корны
корнывожышто
корныж
корныжо
корныжым
корнылаште
корным
корнын
корнына
корнысо
корныш
корнышко
корнышто
корныштыжо
коро
коробеи
короле
королев
королева
королевстве
короленко
король
корольо
коростели
коростень
короткие
короткии
короткино
коротков
коротни
корпорации
корпус
корректор
корректорлан
корреспондент
корреспондентше
корта
кортасэҥер
кортина
корчакъял
корчева
коршта
коршун
коршунов
коршунова
коршуны
коряков
коряково
кос
коса
косари
косма
косметике
космическии
космодамианское
космонавт
космосыш
косовка
косово
косолап
косолапово
косолоп
косоротов
коста
костатеев
кости
костомукшо
кострома
костромин
кость
костюм
костя
кот
котеновскии
которои
котором
которые
которыи
кохмо
коча
кочаже
кочанур
коче
кочкам
кочкаш
кочкеш
кочкильдино
кочкын
кочкыныт
кочкыт
кочкыш
кочкышым
кочмо
кочо
кочующие
кочшо
коша
кошанур
кошар
кошкина
кошпаево
кошпаи
кошт
кошташ
коштеш
коштмо
коштмыж
коштшо
коштын
коштыныт
коштыт
коюлу
коя
коям
кояш
коҥга
коҥганур
коҥго
кпале
кпикс
кпсс
кравцов
крае
краевед
краеведение
краеведении
краеведческии
краево
краи
красная
красноармеи
краснов
краснова
красновишерск
красноволжского
красногорка
красногорскии
краснодар
красное
краснокам
краснокамск
краснокамскии
краснококшаи
краснооктябрьскии
краснопе
красноперов
краснорецкии
краснослободск
краснотурьинск
красноуфимск
красноуфимскии
красноярск
красноярскии
красные
красныи
красовка
краткая
краткии
краю
края
кредалаш
кредалеш
кредалмаш
кредалмаште
кредалме
кредалше
кредалын
креи
крем
кременского
кремленки
кремль
кресаньык
кресаньыкын
кресола
кресты
крешын
крещенское
крисам
крит
критик
критика
критике
критическии
крокет
кромкасола
кропоткин
кру
круг
круглово
кружок
кружокым
кружокын
кружокыш
кружокышто
крупино
крупняков
крупская
крупскои
крутая
крутое
крутои
крутоовражскии
крылов
крылова
крыловскии
крылья
крым
крымск
крымтатарла
крюково
крюковскии
ксар
ксения
ксенофонт
ксо
ксола
кстово
кта
ктат
кташ
ктен
ктерл
кто
кты
ктымо
ку
куан
куана
куандара
куандарен
куандарыше
куанен
куаным
куат
куатан
куатле
куатше
куатшым
куатым
куба
кубани
кубок
кубокшо
кува
куваже
куван
кувеи
кувшинсола
кугаи
кугарня
кугарнян
кугарчи
кугезе
кугезына
кугемдаш
кугемдыме
кугемын
кугенер
кугеръял
кугече
кугешна
кугешнен
кугила
кугилансола
кугланур
кугорно
кугорну
кугорнымбал
кугорнышто
кугу
кугуван
кугувол
кугуер
кугун
кугунур
кугурак
кугусола
кугутор
кугушен
кугушень
кугушерга
кугушу
кугыеҥ
кугыжа
кугыжалан
кугыжам
кугыжан
кугыжаныш
кугыжанышым
кугыжанышын
кугыжанышыште
кугыза
кугызан
кугырак
кугысер
кугыт
кугытан
кугытшо
кугытым
кугышу
кугэҥер
куд
кудакино
кудал
кудалеш
кудалме
кудалта
кудалташ
кудалте
кудалтен
кудалше
кудалышташ
кудалыштеш
кудалыштмаш
кудалыштын
кудаш
кудо
кудрявцев
кудрявцева
кудряшов
кудряшова
кудывече
кудывечыш
кудыж
кудыжо
кудыжым
кудым
кудымкар
кудымше
кудымшо
кудын
кудышт
куеда
кужалки
кужевотнур
кужемдыме
куженер
куженерскии
кужер
кужеры
кужинскии
кужмара
кужмарии
кужнур
кужолок
кужолык
кужу
кужун
кужутшо
кужылиды
кужыт
кужытан
кужытшо
кужытым
кужэҥер
кузе
кузнецов
кузнецова
кузнецово
кузнецовского
кузнецовское
кузнецы
кузнеч
кузничиха
кузов
кузькансола
кузьма
кузьмансола
кузьмин
кузьмино
кузьминых
кузьмич
куи
кук
кукарка
куклин
куклина
кукмарии
кукмарь
кукмор
кукморскии
кукнур
куку
кукуевка
кукурем
кукушка
кукшарскии
кукшенеры
кукшер
кукшо
кукшылиде
кукшылиды
кукшэҥер
кукыкту
кул
кулак
кулаково
кулалаева
кулашино
кулебаки
кулево
кулеш
кулеял
куликалы
куликов
кульбаева
культ
культур
культура
культуре
культурная
культурно
культурного
культурное
культурнои
культурные
культурныи
культурологии
культурология
культуры
культурым
культурын
кульчубаи
кульша
кульшетов
кульшит
кулянур
кум
кума
кумалаш
кумалмаш
кумалме
кумалтыш
кумалтышым
кумалтышыш
кумалын
кумалыныт
кумалыт
кумда
кумдан
кумданрак
кумдык
кумдыкан
кумдыкшо
кумдыкым
кумдыкышто
куме
кумер
кумертау
кумло
кумлук
кумлукын
кумлымшо
кумужъял
кумшо
кумшыжо
кумъя
кумык
кумыл
кумылан
кумылаҥда
кумылаҥден
кумылаҥын
кумылжо
кумылжым
кумылзак
кумылым
кумылын
кумылышт
кумылыштым
кумыру
кумыт
кумытын
кумьинскии
кумьяреченскии
кунам
кунамат
кунар
кунгур
кундем
кундемже
кундемла
кундемласе
кундемлаште
кундемнан
кундемои
кундемым
кундемын
кундемысе
кундемысо
кундемыш
кундемышке
кундемышкыже
кундемыште
кундемыштыже
кундемыштына
кундуштур
кундыш
кундышту
кундышу
куп
купаи
купал
купеч
куписер
куплонга
куплоҥгинскии
куплоҥго
купран
купсола
купсолинскии
купсольцева
купта
купто
купту
куптур
купшу
купышто
купэҥер
куракин
куракино
курал
куралше
курашково
курган
курганинск
курдистан
куржам
куржаш
куржеш
куржын
куржыныт
куржыт
куркумбал
курлак
курмакаи
курмызак
курс
курса
курск
курсов
курсым
курсыш
курсышто
куртньо
курумоч
курчак
куршаково
куршамбал
куршодо
курык
курыкан
курыки
курыклу
курыкмарии
курыкмарла
курыкнур
курыкпомыш
курыкту
курыку
курыкым
курыкын
курыкыш
курыкышто
курым
курымаш
курымашлык
курымешлан
курымла
курымлан
курымлаште
курымын
курымысо
курымыште
курымышто
курьер
кус
кусара
кусаралтеш
кусаралтын
кусарат
кусараш
кусарен
кусареныт
кусарымаш
кусарыме
кусарыше
кускин
кусна
куснаш
куснен
кусненыт
кусто
кутасова
кутко
куткынур
куторов
кутузов
кутыр
кутыра
кутырат
кутыраш
кутырен
кутыртыш
кутырымо
кутырышо
кутюн
куфтино
куча
кучат
кучаш
кучедалаш
кучедалмаш
кучедалмаште
кучедалме
кучедалше
кучедалын
кучем
кучемын
кучен
кученыт
кучка
кучкасола
кучко
кучмыжвал
кучмыжду
кучук
кучукенер
кучыктат
кучыктен
кучыктеныт
кучыктымо
кучылт
кучылталт
кучылталтеш
кучылталтме
кучылталтмышт
кучылталтше
кучылталтын
кучылталтыт
кучылташ
кучылтеш
кучылтмаш
кучылтмо
кучылтын
кучылтыныт
кучылтыт
кучымаш
кучымо
кучышо
куш
кушан
кушерга
кушеч
кушкаш
кушкет
кушкеш
кушко
кушкыл
кушкылым
кушкылын
кушкын
кушкыныт
кушкыт
кушмаш
кушмо
кушна
кушнанур
кушнаренково
кушнур
кушнэҥер
кушня
кушта
куштат
кушташ
куштен
куштеныт
кушто
куштыжо
куштылго
куштылгын
куштылгырак
куштымаш
куштымаште
куштымашым
куштымашын
куштымо
куштышо
кушшаш
кушшо
кушыл
кушыргы
куще
куэ
куэже
куэр
куэри
куэрласола
куэрлаште
куэрсола
куэръял
куюргазы
куянка
куяр
куярское
кш
кшака
кшан
кшанду
кшер
кшерме
кшнур
кшо
кшы
кшым
кшымбал
кшын
кшынур
кшыт
кшытан
кшытшо
кшытым
кшытысо
кшытыш
кшытышто
кы
кыдал
кыдалаш
кыдалне
кыдежан
кыж
кызыл
кызыт
кызытат
кызытеш
кызытсе
кыл
кылан
кылвер
кылда
кылдалт
кылдалтеш
кылдалтше
кылдалтын
кылдалтыныт
кылдаш
кылден
кылдыш
кылже
кылла
кылме
кылым
кыльыкал
кым
кымдем
кымъю
кын
кыне
кынел
кынелеш
кынелза
кынелын
кыра
кыраш
кыргызстан
кырен
кыржавож
кырла
кырлам
кырлан
кырля
кырлян
кырмегесола
кырмыж
кыртмен
кырык
кырыме
кытынсола
кычал
кычалаш
кычалеш
кычалмаш
кычалме
кычалше
кычалын
кычалыныт
кычкыра
кычкырен
кыш
кыша
кышаже
кышам
кышкар
кышкеныт
кюшнур
л
ла
лабинск
лаборатории
лавинскии
лавранэҥер
лаврасола
лавраэҥер
лаврентии
лаврентьев
лада
лаж
лажду
лаже
лажмарии
лажмучаш
лажъял
лажым
лаи
лаишево
лак
лаксола
лалтен
лалтеныт
лалтеш
лалтын
лам
лан
ланат
ландшафте
ланка
лансола
ланур
лаос
лап
лапатасола
лапино
лапка
лапкасола
лапсола
лапта
лаптев
лаптево
лаптин
лаптина
лапчык
лапчын
лапшар
лариса
ласе
ласка
ласкан
ластик
ласточкина
лат
лата
латансола
латаш
латвии
латвич
латен
латик
латикымше
латин
латкандаш
латкок
латкокымшо
латкуд
латкумшо
латныл
латымаш
латыме
латымыж
латымыже
латышат
латыше
латышево
латышла
латышыже
латышыжлан
латышыжын
латышылан
латышыланат
латышын
лауреат
лауреатше
лауреаты
лахденпохья
лач
лачак
лаш
лашке
лашт
лаштак
лаште
лаштыже
лаштык
лаштыкым
лаштыкыште
лдо
ле
лебедань
лебедев
лебедева
лебедевка
лебедево
лебедевскии
лебедь
лебляк
лебяжье
лев
леван
леве
леведыш
левинцы
левицкии
левляк
левник
левонтина
левыи
легенда
легенде
легенды
легковои
леду
лежебоковскии
лезвии
леи
лек
лекаи
лекла
леклалтше
леклалтын
леклен
леклыме
лекмаш
лекме
лекмек
лекмеке
лекмекыже
лекмыже
лекмыжым
лекмым
лексика
лексике
лексики
лексико
лексикографии
лексикологии
лексикология
лексические
лексическии
лексических
лектам
лекташ
лекте
лектеденыт
лектеш
лектым
лектын
лектыныт
лектыт
лектыш
лектышан
лектышыже
лектышыжым
лектышым
лекции
лекше
лекым
лем
лемар
лемде
лемдеду
лемучаш
лен
лена
ленин
ленина
ленинград
ленинградскии
ленинградым
ленинградысе
ленинградыште
лениногорск
ленинсер
ленинск
ленинскии
ленинын
леныт
леон
леонардо
леоне
леонид
леонидович
леонидовна
леонтии
леонтьев
леонтьевич
лепе
лепешкан
лер
лердиҥ
лес
леса
лесами
лесная
лесника
лесникын
лесничестве
лесничество
леснои
лесные
лесозавода
лесола
лесопункт
лесотарного
лесотарныи
лесото
лесоучасток
лесохимзавод
лесохимик
лесу
лесхоз
лет
летие
летию
летия
летник
лето
летопись
леухин
леушкинскии
леш
лешан
лешлык
лешлыкшым
ли
либерии
ливан
ливии
лиге
лидия
лиды
лидывуи
лие
лиеда
лиеден
лиеш
лии
лилия
лиллехаммер
лингвист
лингвистика
лингвистики
лингвистические
лингвистическии
лингвистических
лингвисты
линии
линия
линне
липатов
липецк
липовая
липовка
липовцы
липша
лирик
лирика
лирике
лирикыште
лирич
лирическии
лист
лит
литва
литваште
литератор
литератур
литература
литературах
литературе
литературная
литературно
литературного
литературном
литературныи
литературных
литературовед
литературоведение
литературоведении
литературоведы
литературы
литературым
литературын
литературышто
литовла
литр
лихтенштеи
лица
лицах
лицеи
лицензии
личкынур
личности
личность
личные
личныи
личных
лишемыт
лишке
лишкырак
лишне
лишыл
лишь
лиям
лият
лияш
лка
лкаже
лкажым
лкажын
лкам
лкан
лкаш
лкашке
лкашкыже
лкаште
лкаштыже
лкина
лкино
лко
лкын
лкысо
лкыш
лкышто
лм
лмарии
лме
лмо
лмы
лмым
лно
лны
лнырак
ло
лобанов
лобаны
лов
лова
лович
ловка
ловна
лово
ловскии
лог
логал
логалаш
логалеш
логалме
логалше
логалын
логалыныт
логар
логин
логинов
логинович
логинцы
лого
логэҥер
лодакэҥер
лозанна
лок
локама
лом
ломбенур
ломбеныр
ломберскии
ломбо
ломбынер
ломбэҥер
ломоносов
лон
лонганер
лондон
лондонышто
лончо
лончылаш
лончылен
лончылымаш
лончылымо
лончыш
лончышто
лоп
лопаш
лопка
лопкытшо
лопнур
лоповцы
лопсола
лопъял
лор
лос
лоскутов
лоскутово
лот
лоҥгаште
лпер
лпо
лсола
лта
лталаш
лталтын
лталын
лташ
лтен
лтеныт
лтеш
лтымо
лу
луг
луга
луганск
луговая
лугового
луговои
луговом
луговомарии
луговые
луговых
лугомар
лугыч
лудаш
лудеш
лудмаш
лудмо
лудо
лудшаш
лудшо
лудшылан
лудшын
лудым
лудын
лудына
лудыныт
лудыт
лудыш
лужала
лужалу
лужбеляк
лузин
лузо
луи
луии
луис
лук
лука
лукан
лукмаште
лукмо
луков
лукоянов
луксола
лукталтын
лукташ
луктеш
луктын
луктыныт
луктыт
лукшо
лукын
лукьянов
лум
луман
лумарии
лумарь
лумеш
луму
лумым
луна
луначарскии
луппов
лупс
лупш
лучко
лучшии
лушкыдо
лушмара
луымшо
лы
лыве
лывырге
лыдыш
лыдышвла
лыж
лыжга
лыжган
лызи
лык
лыкан
лыкшы
лыл
лыли
лылсола
лылту
лылурлык
лым
лымаш
лымашлам
лымаште
лымашыже
лымашым
лымашын
лымашыште
лымашыштыже
лыме
лымо
лымыж
лымыжым
лымым
лымышт
лын
лысъял
лысьва
лыт
лыткин
лыш
лышан
лышо
лышташ
лышташан
лышташыже
лышыжо
лышым
ль
львов
львович
льму
льнозавод
льныи
льо
льпан
льта
льшо
льымучаш
лэи
лэҥер
любви
любимая
любимов
любимовка
любимово
любить
люблю
любовь
людвиг
людеи
люди
людмила
люи
люксембург
люльпаны
люнда
люперсола
люсии
ля
лягушкино
ляжбердино
ляждур
ляжинск
ляжмарь
ляля
ляпин
м
ма
маалыматтарды
маарьямаа
мавлютово
маврикии
мавритании
магадан
магазеи
магазисола
магистр
магнитогорск
мадагаскар
мадагаскарын
мадар
мадарскии
мадары
мадонна
мадрид
маевка
мазаркинскии
мазиково
мазы
маи
мак
макар
макарии
макаркино
макарля
макаров
макарова
макарово
макарсер
макарсола
македонии
маккавеи
макманур
макмат
маков
макс
максакродо
макси
максим
максимилиан
максимов
максимович
максимовскии
мала
малави
малаи
маламасы
малат
малаш
малая
мален
мали
малинин
малинина
малинкино
малинова
малиновка
малиновскии
малмыж
малое
малои
малококшаи
малокумьинскии
малонакаряково
малоникольск
малтыме
малые
малыи
малыме
мальдив
мальта
мальцев
мальцево
малюмат
мама
мамадыш
мамаев
мамаева
мамаево
мамаи
мамариха
мамут
мамуткин
мамъярсола
мамык
мамыке
ман
манаева
манак
маналтеш
маналтын
манаш
манашъял
манаҥду
манаҥмучаш
мангуст
мандир
мане
манеш
манкинер
манме
манмыла
манмым
манси
мансии
мантурово
манылово
манын
маныныт
маныт
мао
мар
маргарита
маргиз
маргосиздат
маргту
маргу
мардан
мардеж
маре
мари
марианна
мариец
марии
марина
марино
марисола
мария
мариял
марк
маркан
маркансола
маркелов
маркелова
маркелово
маркеловын
маркитан
марков
марково
марковскии
маркс
марку
марла
марлан
марлаш
марлашке
марлаҥден
марлен
марнетын
марнии
марниияли
маробиздат
марокко
марпа
март
марта
марте
мартеат
мартен
мартин
мартиника
мартышкино
мартыште
марфа
марченкова
марш
маршан
маршрут
маръясола
мары
марышев
марьино
маска
маскам
масканур
маскародо
маскасола
маскиял
маслихин
маслов
массовои
массовыи
масср
мастар
мастарже
мастарлык
мастарлыкше
мастарлыкшым
мастарлыкым
мастарлыкыштым
мастарын
мастер
мастерскои
мат
матародо
матвеев
матвеева
матвеевич
матвеи
матвуи
математик
математика
математике
матер
матери
материал
материалам
материале
материалже
материалов
материалы
материалым
материальныи
матеріалів
матрице
матрона
матросова
матч
мать
матюк
матюков
матюковскии
матюковского
махачкала
махматово
маш
машарань
машин
машина
машинам
машлач
машнур
маштак
машым
маюк
мая
маяк
маяковскии
маҥеш
маҥын
мбак
мбаке
мбакыже
мбал
мбалан
мбалне
мбалныже
мбалсе
мбач
мбачын
мбел
мбэ
мвд
мгече
мгечыж
мгечыжлан
мгечышт
мгечыштым
мгпи
мгу
мгц
мдалтеш
мдалтын
мдат
мдаш
мден
мденыт
мдымо
ме
меат
мед
медаль
медальже
медальым
медведев
медведево
медведевскии
медведевского
медвежьегорск
медикова
мединститутым
медицин
медицина
медицине
медьын
медянино
медянка
межвуз
межвузовскии
межвузовскои
межгорье
межд
междисциплинарнои
междометии
между
междунар
международная
международного
международнои
международныи
международным
международных
междуреченск
межкультурнои
межкультурных
межрег
межрегион
межрегиональнои
межъязыковых
межым
меи
мек
меке
мексика
мексике
меленка
мелеуз
мелковка
мелковскии
мелна
мелнам
мелодии
мелодия
мелозеро
мелын
мельбурн
мельница
мельнице
мем
мемнам
мемнан
мемориал
менделеев
менделеевск
менделеевын
мендияров
менеджмента
мензела
меня
мер
мераҥ
мераҥсола
меркурии
меркуши
мероприятии
меря
мерян
мерянла
месси
места
место
месяцев
мет
металл
метод
методик
методика
методике
методики
методист
методические
методическии
методическое
методы
метр
метри
метрии
метро
метрополитен
метротрам
метсола
мефодии
механизатор
механизаторжо
механизм
механик
механикле
механическии
мехико
мехлесопункт
мецакнур
мече
мечетлино
мечым
меш
меҥ
меҥге
меҥгым
мж
мжо
мжым
ми
мидашкансола
миен
миеныт
мии
микаи
микал
миквор
микелон
микишкансола
микишкин
миклаи
миклансола
микола
миколи
микор
микорсер
микорсир
микрофон
микряк
микряково
микряковского
микушкансер
микушкино
милан
милиции
миллиард
миллион
миллионер
миллионерла
миля
мин
минданао
мини
министерстве
министерство
министерством
министерствыже
министерствын
министерствыште
министр
министрже
министрын
минск
минут
минутлан
миняшкин
мио
мир
мира
мире
мирон
миронов
мирская
миссионер
миссисипи
митиксола
митин
митиполко
митрисола
митрофан
митроши
митрусер
митрэҥер
митряево
митькан
митькин
митюково
митяи
миф
мифологии
миха
михаи
михаил
михеев
михеевск
мичу
мичун
мичурин
миша
мишата
мишкан
мишкансола
мишкино
мишкинскии
мишкинского
мишкинском
мия
мияки
мл
младшии
млан
мланде
мландем
мландепокшел
мланду
мландыже
мландым
мландын
мландыш
мландышке
мландыште
млн
мло
млрд
млы
мм
ммут
ммутын
мна
мне
многоязычия
множественности
мо
мовскии
могаи
могиле
могилів
могыр
могыржо
могыржым
могырно
могырым
могырыш
могырышто
модаш
модели
модель
модельым
модернизации
модернизация
модернизм
модеш
модификации
модмаш
модмашште
модмашым
модмашын
модмашыште
модмо
модшо
модын
модыныт
модыт
модыш
модышым
мое
моеи
можга
можно
мозамбик
мозар
мои
моисеево
моисеи
мокеев
мокосеево
мокруш
мокрыи
моктен
моктымо
мокша
мокшэҥер
мол
моламас
молан
молат
молдавии
молдова
молдово
молитв
молитвы
молния
моло
молога
молодая
молоде
молодеж
молодежи
молодежныи
молодежь
молодои
молодости
молодость
молодцов
молодых
молотов
молукк
молыжо
молымат
молынат
молышт
мольбищенскии
мом
монако
монар
монастырская
монастырь
монах
монгол
монголии
мондалт
мондалтдыме
мондалтше
мондалтын
мондаш
монден
мондо
монографии
монография
монреаль
монтсеррат
монча
мончам
мончаш
мончашке
мончаште
монь
морд
мордва
мордов
мордовии
мордовских
море
мореи
мориц
моркаҥаш
морки
моркинскии
морко
морковаш
моркысо
моркышто
моркыял
моркэҥер
мороз
морозов
морозово
морфологии
морфологические
морфологическии
морфология
моршавино
моря
моряк
мосара
мосино
москва
москвасе
москваш
москваште
москве
москвина
москвы
моско
московскии
москосо
москош
москошко
москошто
мосолов
мост
мостовскии
мосунов
мосунова
моталмаш
мотивы
моткоч
моткочак
мотор
моторлык
моторлыкшым
моторлыкым
моторовка
моторын
мочаев
мочалище
мошкин
мошта
мошташ
моштен
мошто
моштыман
моштымыжо
моштымыжым
моштышо
мощеи
моя
мпикс
мро
мс
мсср
мстислав
мтф
мтюз
му
муаш
мугыл
мужедыныт
мужыр
мужыран
муз
муза
музгиз
музеи
музывален
музыер
музык
музыка
музыкальная
музыкально
музыкального
музыкальное
музыкальные
музыкальныи
музыкальных
музыкант
музыкантов
музыканче
музыки
музыклан
музыковед
музыкым
музэҥер
муи
муканаи
мумо
муналмаш
мунамарии
мунамарь
мунанга
мундыра
муниципал
муниципального
муниципальное
муниципальныи
муниципальным
муниципальных
муно
мунчалтен
муным
муп
мур
мура
муравье
муравьев
муравьева
муралта
муралтен
муралтена
мурат
мураш
мураши
мурашкино
мурем
мурен
мурена
муреныт
мурза
мурзанаево
мурзанаи
мурзашев
мурзя
мури
мурманск
муро
муром
мурыжо
мурыжым
мурызо
мурызыжо
мурызылан
мурызын
мурылан
мурым
мурымат
мурымаш
мурымо
мурын
мурышо
мурышт
мурышто
мурыштым
муса
мусевскии
муслюмово
мустаев
мустаи
мустафа
мусульман
мусь
мут
мутан
мутат
мутвундо
мутер
мутерже
мутерым
мутерыште
мутлан
мутлана
мутланаш
мутланен
мутланымаш
мутланыме
мутлаште
мутмастар
мутту
мутшо
мутшым
мутым
мутын
мутыш
мутышто
муха
мухин
мухино
мухиным
мухинын
мучаш
мучашан
мучашдыме
мучашке
мучашлалтеш
мучашлалтын
мучашлан
мучаште
мучашште
мучашъер
мучашыже
мучашыжым
мучашыште
мученик
мученица
мучко
муша
мушерань
мушин
мушинцы
мушка
мушкеш
мушко
мушкыду
мушкын
мушмарии
мушэҥер
муын
муыныт
муэш
мчс
мшо
мы
мые
мыж
мыже
мыжым
мызэҥер
мыи
мыл
мылам
мылан
мыланем
мыланна
мым
мымат
мын
мынак
мыняр
мыр
мырешлан
мырж
мыржо
мыржым
мырзанаи
мыры
мырывла
мырым
мыскара
мыскарам
мыскараче
мысли
мысль
мыт
мытищи
мыш
мышкин
мышт
мышто
мыштым
мыят
мьянма
мэдээллии
мэн
мюнхен
міст
міста
мәғлүмәт
н
на
навасса
навашино
навеснои
наволоки
нагано
нагорена
нагорино
нагорск
награде
наградитлалтше
наградитлалтын
наградитлыме
награднои
награждении
над
надежда
надеждино
надо
надыр
надырже
надырлан
надырым
назарии
назарово
название
названии
названия
названиях
наи
нал
налаш
налде
налеш
налмаш
налмаште
налме
налмек
налмеке
налоговых
налтыш
налшаш
налше
налын
налына
налыныт
налыт
нальмучаш
нальчик
нальык
нальыч
нам
нами
намибии
намиен
нан
нанкин
напевы
наполеон
направлении
направления
например
нар
наран
нарашта
наре
наречие
наречии
наречия
нариманов
народ
народа
народная
народного
народное
народнои
народные
народныи
народных
народов
народы
нартас
нарынче
нас
населе
населения
населенному
населенные
населенныи
населенных
наследие
наследия
наста
настан
настоящее
наступлении
нат
наталия
наталья
наташа
наук
наука
науке
науки
науко
наукова
наукым
наукын
наукышто
наум
наумовскии
науч
научная
научно
научного
научное
научнои
научныи
научных
находится
нац
нации
националист
националистическии
национальная
национально
национального
национальное
национальнои
национальностеи
национальность
национальные
национальныи
национальных
начала
начале
начало
начальник
начальных
начар
наш
наша
нашего
нашеи
наши
наших
ная
наҥгаен
наҥгаеныт
наҥгаи
наҥгая
нб
нг
нга
нгель
нгты
нгы
нда
ндартыш
нды
ндыр
ндырно
ндырэрвел
не
небе
небо
невис
невскии
негыз
негызеш
негызлалтын
негызлен
негызленыт
негызлыме
негызлыше
негызше
негызым
неж
нежнур
нежнурскии
нежныр
незер
неи
некоторые
некоторых
некрасово
некрасовское
некролог
неле
нелыже
нелылык
нелылыкым
нелым
нелын
нелыт
нелытан
нелытше
нем
немда
немдеж
немдыж
немдыш
неме
немецкии
немецкого
немецком
немецкому
немецродо
немирів
немыч
немычла
немычсола
нен
ненец
непал
непот
нер
нерв
нерве
нервныи
нерге
нерген
нергенат
нердаш
нерехте
нермучаш
нерша
несколько
нестеренко
нет
нефе
нефтекамск
нефть
нештарыме
нештарыше
нж
нжы
ни
нива
ниг
нигер
нигерии
ниго
нигунам
нигунамат
нигуш
нидерландла
нидерланды
нидерландысе
нидс
ниев
нижнее
нижнекамск
нижнесорокино
нижние
нижнии
нижняя
низовья
нии
ник
никаев
никандр
никандрович
никанор
никанорович
никарагуа
никеи
никита
никитин
никитина
никитич
никитович
никифор
никифоров
никифорович
ников
никогда
никодим
николаев
николаева
николаевич
николаевича
николаевка
николаевна
николаевск
николаевскии
николаевын
николаи
николая
николо
никольск
никольская
никольскии
никольское
никон
нимат
нимо
нимогаи
нимолан
нимом
нимомат
нимучашдыме
нина
нине
нир
нка
нквд
нки
нлан
нная
нные
нныи
нным
нных
но
нобель
нов
нова
новации
новая
новгород
новелла
новелле
новиков
новино
новинск
нович
новка
новна
ново
нововаськино
нового
новогорск
новогорскии
новодевичье
новое
новозавидовскии
новои
новокарачево
новокильметово
новокубанск
новокузнецк
новокуи
новомадарскии
новопавловскии
новопокровскии
новороссии
новосафарово
новосе
новоселов
новоселово
новоселы
новосибирск
новости
новоторъяльскии
новотроицк
новотроицкое
новоульяновск
новошешминск
новые
новыи
новых
новь
ногаи
ное
нозанлык
нои
нок
нолвож
ноледур
ноли
нолинскии
нольду
нольдур
нолька
нольо
нольомучаш
нольыкмарии
ноля
нолянур
номер
номеран
номерже
номерым
номинации
нора
норвегии
норка
норко
нормативныи
носола
ночи
ночко
ночь
нояб
ноябрь
ноябрьыште
ноября
нравственно
нсола
нська
нськии
нськоі
нт
нтбол
нтер
нты
ну
нугыдо
нугыдын
нуж
нужа
нужавлак
нужанал
нужанъял
нужаял
нужна
нужъял
нужъялы
нужъяльское
нужэҥер
нуктуж
нуктыж
нумал
нумалеш
нумалше
нумалын
нумалыт
нунат
нуно
нунылан
нуным
нунын
нуныт
нунышт
нур
нурал
нурвел
нурда
нурдамучаш
нурдинскии
нуриман
нуриманов
нурласола
нурлат
нурма
нурминское
нурмо
нурмучаш
нурото
нурсола
нуру
нурумбал
нуръял
нуры
нурэҥер
нуса
нусла
нча
нчер
нчери
нчерскии
нчерсола
нчо
нчхан
нчыду
нчылу
нчысола
нчыял
нчэҥер
ны
ные
ныжыл
ныжылге
ныи
ныл
нылгудо
нылле
нылымше
ным
нын
ныне
ныр
ныргынде
ныръял
нытва
ных
нышо
нь
ньы
нью
ньютон
нээлттэи
нюхта
ня
нялан
ням
нямбал
нямбалне
нямбалсе
нян
нясе
няш
няшке
няште
о
оао
об
обалыш
обд
обдор
обеспечение
обзор
обипамаш
обком
обкомын
обл
области
областнои
область
областьым
областьын
областьысе
областьыште
обновление
обобщенныи
обогащения
оборудовании
обр
образ
образа
образов
образование
образовании
образования
образованиям
образовательное
образовательнои
образовательныи
образовательных
образше
образшым
образы
образым
обращения
обретение
обсерватории
обухов
обухово
обучающихся
обучение
обучении
обучения
обчеи
обшияр
общ
общее
общеобразовательных
общероссии
общества
обществе
общественно
общественного
общественностью
общественныи
общество
обществын
общие
общии
объект
объектов
обычаи
овалже
овалжымучаш
оваснур
овда
овдасола
овечкин
овечкино
ович
овраг
оврашнур
овчинников
ога
огародо
огат
оген
огеш
огибное
огни
ого
огонь
огор
огорсола
огошын
огыл
огын
огына
огыролык
огыт
огытыл
огышо
ода
одар
одесса
одеш
один
одмаш
одмашым
одмо
одмыж
одна
одно
однои
одном
одо
одывлак
одыла
одын
одыныт
одыт
одыш
одышлан
одышым
ожно
ожнысек
ожнысо
оза
озаже
озак
озакъял
озакым
озамбаи
озан
озанлык
озанлыкым
озанлыкын
озанлыкыште
озармаш
озаҥ
озаҥсола
озаҥысе
озаҥыш
озаҥыште
озе
озерки
озеркинского
озеро
ози
озисола
озьорка
ои
ок
ока
окасола
окато
окаш
окашъял
океан
океании
окна
около
околоток
округ
округа
округе
окса
оксаж
оксалан
оксам
окт
октябрь
октябрьск
октябрьскии
октябрьын
октябрьыште
октября
окулово
окунево
ол
ола
олагаи
олаже
олажлан
олала
олалан
олалаште
олам
олан
оласал
оласе
оласъял
олаш
олашке
олаште
олгорно
оле
олег
олександр
олени
олешке
олжо
олжым
олимпиада
олимпиаде
олимпиадын
олимпиадыште
олимпии
олма
олмапу
олмеш
олмештышмут
олмышто
олонец
олопкан
олор
олоры
олташ
олташем
олташна
олташыж
олташыже
олташым
олчием
олык
олыка
олыкмарии
олыкту
олыкъял
олыкыш
олыкышто
олым
олын
олышто
ольга
ольокансер
оляна
оліи
ом
омак
омакше
омакым
омакын
омакыште
оман
омар
омартле
омдарен
омдарыме
омеш
омо
омоним
омонимии
омонимов
омса
омсам
омск
омутнинск
омшо
омыл
омылькан
омым
омын
омыныт
он
она
онаеҥ
онаи
онар
онара
онартыш
ондак
ондакак
ондакрак
ондаксе
ондакше
ондон
ондрин
онегин
онжо
они
онисим
онискасола
онлаи
онлаште
оно
онов
оноду
ономастика
ономастики
ономучаш
онучино
онча
ончал
ончалаш
ончале
ончалеш
ончалтышыже
ончалын
ончат
ончаш
ончем
ончен
онченыт
ончерже
ончерлаште
ончо
ончыде
ончык
ончыклык
ончыко
ончыкта
ончыкталтеш
ончыкталтын
ончыкталтыныт
ончыкталтыт
ончыктат
ончыкташ
ончыкташлан
ончыктен
ончыктеныт
ончыктымаш
ончыктымо
ончыктымыжлан
ончыктымылан
ончыктышаш
ончыктышо
ончыкылык
ончыкылыкшо
ончыл
ончылан
ончылгоч
ончылмут
ончылно
ончылсола
ончымаш
ончымаште
ончымо
ончыч
ончычак
ончычсо
ончышо
оны
оным
онын
онысо
онышто
оньыжа
оньыжаже
оон
ооо
оп
опалик
опалиха
опанассола
опарин
опарино
опер
опера
оператор
операции
оперым
оперын
оперыште
описание
описании
опкын
оплан
опои
определение
определении
определения
опта
опынян
опыт
опытное
опытшо
опытым
ор
ораде
ораи
оралте
оралтым
оратории
оратыме
орва
орга
орган
организатор
организаторжо
организации
организация
организм
организоватлыме
органов
орда
орден
ордена
орденым
орденын
оре
оренбург
орехов
орехово
орешкино
оричи
оришуть
орк
оркестр
оркестра
оркестре
оркестровои
оркестровом
оркестром
оркестрыште
орки
орла
орлаҥге
орло
орлов
орлова
орловка
орловск
орловскии
орловцы
орлоп
орлыкан
оров
орол
оролгудо
оропин
орош
орсу
орудии
оружии
орфографии
орфографическии
орхидеи
орша
оршанка
оршанке
оршанскии
оршу
оръеҥ
оръю
орынбор
орыпин
орья
ос
оса
осал
осалым
осень
осетии
осинник
осиновка
осипаҥа
осипов
осипович
осиповка
осиповскии
осипсола
осиял
оскан
оскансола
осканур
оскар
осло
осман
осмин
осмолучасток
основа
основе
основнои
основные
основоположника
основы
особенности
особенностях
осташ
остров
островскии
осып
осыпъял
осыпын
осьсола
от
отар
отарка
отарке
отарскии
отары
отв
отвагу
ответственныи
отворени
отворените
отвореног
отдел
отделении
отделения
отделым
отдельных
отец
отечества
отечественнои
отечественныи
открытие
открытии
открытке
открытых
отличии
отличник
отличникше
отношении
отношения
ото
отрадненскии
отражение
отрицания
отро
отрошто
отрывок
отряд
отта
отца
отымбал
отышто
отэлысе
офицер
официал
официалле
официально
официальныи
офіціи
оханск
охисать
охонян
охотин
охотник
охотниково
охотск
охраны
оценка
оценки
оча
очаж
очаже
очалан
очам
очан
очасадыште
очашт
оче
очеева
очень
очерк
очерки
очерков
очеркше
очеркым
очком
очыни
ош
ошаево
ошвичыжат
ошет
ошеть
ошкан
ошканер
ошкар
ошкарармеец
ошкарге
ошкаренер
ошкарсер
ошкарэҥер
ошкуп
ошкыл
ошкылеш
ошкылжо
ошкылым
ошкылын
ошла
ошладу
ошлаков
ошламучаш
ошлан
ошланур
ошлаэҥер
ошма
ошмаэҥер
ошо
ошу
ошурга
ошурго
ошутьялы
ошытъял
ошэл
ояр
оҥ
оҥаи
оҥам
оҥартыш
оҥартышмут
оҥартышмутым
оҥартышмутын
оҥарымаш
оҥга
оҥгалт
оҥгалтара
оҥгалтарат
оҥгалтарен
оҥгалтарыме
оҥгалтарыше
оҥгалтеш
оҥгалтше
оҥгалтын
оҥгат
оҥген
оҥго
оҥгыдо
оҥгыр
оҥи
оҥпале
оҥылыш
п
па
паасонен
паваи
павел
павлов
павлович
павловна
павлово
павловск
павловскии
павлушата
павыл
пагалат
пагалаш
пагален
пагаленыт
пагалымаш
пагалымашым
пагалыме
паганур
пагар
пагирева
пагул
пагыт
пагытлан
пагытше
пагытым
пагытын
пагытыште
падеж
падежа
падежеи
падыраш
пазар
паздерино
паздыран
пазран
паи
пакистан
пакса
пактаево
пактаи
пактек
пакча
пакчаште
пакшаи
пала
палантаи
палат
палатын
палаш
палашнур
палдара
палдарен
палдырна
палдырнен
пале
палеже
палем
палемда
палемдалтеш
палемдалтын
палемдат
палемдаш
палемден
палемденыт
палемдыман
палемдыме
палемдымылан
пален
палена
паленыт
палестина
палестинскии
палет
палех
палыдыме
палыже
палыжым
палым
палымаш
палыме
палымут
палымыже
палымым
палынак
палыше
пальтикэҥер
памар
памаш
памашнур
памашсола
памашту
памашу
памашъял
памашэҥер
пампалче
памфилии
памъял
памъялы
памъяльскии
памят
памяти
памятник
памятники
памятников
памятникым
памятных
память
пан
паназыр
панама
панголин
панда
пандуш
панов
панова
пановои
пантелеи
пантуши
панькан
папа
папанин
папуа
пар
парагваи
парад
парадигма
парадигме
параллели
параметр
параньга
параньгинскии
парат
паратаи
паратмарии
паратмары
паратскии
параты
парашют
пареҥге
пареҥгым
париж
парижыште
парк
паркинскии
парламент
парник
парнинг
парнингаш
парня
пароход
парсаево
партенкирхен
партизан
партии
парча
пасека
пасет
паспорт
пассажир
пасу
пасум
пасуш
пасушко
пасушто
патентым
патраш
патрашкино
патриарх
патриот
патрушев
патыр
патырже
патырлыклан
патырлыкым
патыръял
паулкино
пауль
пауля
пахомово
пачаш
пачашан
пачемыш
паша
пашаенже
пашаеҥ
пашаеҥже
пашаеҥжылан
пашаеҥлан
пашаеҥын
пашаж
пашаже
пашажлан
пашажым
пашазе
пашалан
пашам
пашамат
пашан
пашаче
пашаш
пашашке
пашашт
пашаштат
пашаште
пашаштыже
пашаштым
пашеҥ
пашкансола
пашковскии
паю
пе
певец
пеганур
пед
педагог
педагогик
педагогика
педагогике
педагогики
педагогическая
педагогические
педагогическии
педагогического
педагогическои
педагогов
пединститут
пединститутым
пединститутын
пединститутыш
пединститутышто
педтехникумым
педтехникумыш
педтехникумышто
педучилищым
педучилищыш
педучилищыште
пезмучаш
пеи
пекесола
пекетто
пекин
пекпулат
пектансола
пектеев
пектемер
пектываи
пекшеева
пекшек
пекшик
пекшиксола
пекшиксолинское
пекыл
пел
пелагея
пелаш
пелашыж
пелашыже
пелашыжын
пеле
пелед
пеледеш
пеледме
пеледше
пеледыш
пеледышан
пеледышым
пеледышын
пеледышыште
пелен
пеленет
пеленже
пеленсе
пеленысе
пелештен
пелештеныт
пелештыш
пели
пелотро
пелыжду
пелыже
пелым
пелыштыже
пелэҥер
пеляк
пемба
пенгитов
пенгитова
пенгитовын
пенгыде
пенза
пено
пеньков
пенюж
пер
пера
пералтыш
пералтышан
пералтышдыме
первая
первого
первое
первои
первомаи
первоуральск
первые
первыи
первых
пергии
перевод
перевода
переводах
переводы
перевоз
перед
передаче
передачым
передовик
переключение
перекоп
перен
перенесение
переписи
перепись
переславль
перечень
период
периода
периодик
пермистика
пермскии
пермских
пермского
пермь
пермяк
перна
пернен
пернянгаши
перо
перс
персонаж
персонажеи
персональныи
перспективы
пертнуры
пертюк
перу
першин
першут
першуткин
песен
песенных
песеръял
песни
песнь
песня
песнях
песоксола
пестрецы
песчанка
песчаныи
пет
петербург
петербурга
петербургысо
петербургыш
петербургышто
петр
петриков
петриково
петро
петров
петрова
петрович
петровна
петровск
петровскии
петровское
петровын
петрозаводск
петропавловка
петропавлово
петропавловск
петропавловскии
петрсола
петрушка
петрушки
петуксола
петухи
петухов
петухова
петухово
петъял
петырен
петыреныт
петяк
пехметенки
пехметова
печ
печансола
печати
печатла
печатлалт
печатлалтын
печатлен
печатлыме
печать
печатьыште
пече
печерскии
печищево
печора
пеш
пешак
пеҥгыде
пеҥгыдемда
пеҥгыдемдалтын
пеҥгыдемдаш
пеҥгыдемден
пеҥгыдемденыт
пеҥгыдемдыме
пеҥгыдын
пи
пиал
пиалан
пиалем
пиалже
пиалым
пианист
пиаф
пиваи
пивактын
пивлат
пивоваренного
пигурык
пидын
пижаи
пижанка
пиженшинангерскии
пижеш
пижма
пижмарии
пижме
пижменское
пижымбал
пижын
пижыныт
пии
пик
пикет
пиковожка
пиктеж
пикш
пикша
пикшсола
пикшызе
пильмучаш
пильна
пимъял
пиндыкъял
пинеж
пинжанур
пинженер
пинь
пионер
пире
пирогов
пирогова
пирогово
пирогоп
пирыголтык
писателеи
писатели
писатель
писательже
писательлан
писательын
писателя
писе
писинер
писташ
писте
пистер
пистерл
пистерла
писылык
писылыкше
писын
письма
письменности
письменные
письмо
письмэҥер
питер
питкяранте
пить
пич
пичанур
пичуш
пиштан
пиштанка
пиштер
пиштерсола
пиштэҥер
пк
пкеле
план
планет
планете
планетше
планетылан
планетым
планетын
планже
планируется
пласт
пластик
пластинин
плато
платов
платон
платформ
платформа
платформазы
платформаи
платформасы
платформаһы
платформо
пле
племена
пленыш
плешивцы
плешков
плишкинцы
плоды
площадьыште
плутон
плутонын
плэсид
плятформа
по
победа
победы
повествования
повести
повесть
повестьше
повестьшым
повестьым
повестьын
повестьыште
повестьыштыже
повестях
поволжья
повтор
повышения
пога
погат
погаш
поген
погеныт
погибших
пого
поговорках
поговорок
погыжо
погым
погымо
погын
погына
погынен
погыненыт
погынжо
погынжын
погынымаш
погынымаште
погынын
погынышо
погынышто
погышо
под
података
податоци
подвалье
подвиг
подвигше
подговора
подгорная
подгорное
подгорныи
подготовки
поделков
поделкова
подлежащего
подлежащии
подлесная
подольскии
подоплелово
подосиновец
подразделении
подруга
подсобныи
подучасток
подход
подъе
подільськии
поезд
поет
пожар
позиции
пои
поиск
покан
поком
покро
покровка
покровск
покровскии
покровское
покрытии
поктен
поктеныт
покшал
покшел
покшелне
покшым
пол
пола
полан
поланур
полат
полатсола
полатым
полатыште
полатэҥер
полдыран
полдыш
полдышоҥа
поле
поленга
полиграфии
поликультурном
полисемии
политехник
политик
политика
политике
политики
политическая
политические
политическии
политических
политологии
полиции
полиэтнического
полк
полко
полковник
полкын
полмезе
полномочии
полностью
поло
половине
половины
положение
положении
положения
полоса
полтава
полтыш
полушарии
полша
полшат
полшаш
полшен
полшеныт
полшык
полшымо
полшымыж
полшышо
полыш
полышкалышыже
полышкалышыжлан
полышым
полышышт
польскии
польша
польшышто
поляк
полякла
поляков
поляна
полянино
полянка
поляновка
поляны
полярная
полярныи
помар
помары
помещении
помню
поморцева
помощь
помыч
пондашсола
поп
попов
попова
поповка
попово
популярныи
попцово
пор
поран
порандаи
поранча
порашпиляк
поргем
порецкии
поро
пороге
порошковыи
порсын
порт
портал
портале
портр
портрет
портрета
португалии
португалла
портянур
порфирии
порфирьевич
порылык
порылыкым
порым
порын
порядок
посад
посадского
посанур
посв
посвящ
посвящается
посвящен
посвященная
посвященнои
посвященные
посвященныи
посе
поселение
поселении
поселения
поселкышто
поселок
посенур
после
послевоенныи
последнии
пословиц
пословицах
посна
поснак
пособие
пособии
постановке
постановко
постваи
постоянно
построи
потапкино
потасола
поташ
поташкансер
поташкино
потенциал
похросола
поч
почан
почаш
поче
почела
почеламут
почеламутлажым
почеламутчо
почеламутчыжо
почеламутшо
почеламутшылан
почеламутшым
почеламутым
почеламутымат
почеламутышто
почеламутыштыжо
почему
почетан
почетная
почетного
почетныи
почеш
почешмут
почешыже
починга
починки
починок
почиҥга
почмаш
почмо
почто
почтовые
почтовых
почше
почшо
почыла
почылтеш
почылтшо
почылтын
почылтыныт
почын
почыныт
пошкудо
пошкудыжо
пошкудылана
пошкырт
пошкыртла
пошнур
поэзии
поэзия
поэма
поэме
поэмы
поэмывла
поэмыже
поэмыжым
поэмым
поэмын
поэмыште
поэт
поэта
поэтесса
поэтика
поэтике
поэтическии
поэтлан
поэтов
поэтше
поэтым
поэтын
пою
поют
поян
поянлык
поянлыкше
поянлыкшым
поянлыкым
поянсер
поянсола
поҥго
пр
права
правам
праван
правда
правил
правиле
правилым
правительства
правительстве
правительствын
правлении
право
правовои
православии
православныи
прага
праздник
праздника
праздников
праздничата
практ
практика
практике
практики
практикум
практич
практическая
практическии
практических
практическои
прансола
прасковья
прастаи
пребывания
предании
предков
предложение
предложении
предложения
предмет
предметов
предметым
предметын
предприятии
председатель
председательже
председательжылан
председательлан
председательын
представлении
представления
презе
презентации
президент
президента
президентше
президентшылан
президентын
президиум
президиума
президиумын
премии
премия
премиях
премьер
премьерыже
преобладающая
преображенскии
преподавание
преподавания
преподавателеи
преподаватель
преподобная
преподобномученик
преподобномученица
преподобныи
прерванная
пресли
преслин
пресс
преступник
при
прибор
приволжск
приволжскии
прие
приемы
призе
призыв
приказ
приключении
приключения
прикум
приложение
приложении
пример
примере
приметы
приморско
принсипи
принтер
принц
принцип
принципы
припев
природа
природы
присвоении
пристань
пристаньскии
приток
приуралья
приходскои
прицеп
причастии
про
проблем
проблема
проблемам
проблемах
проблеме
проблемы
проблемыже
проблемым
провал
проведения
провинции
провои
программ
программа
программе
программист
программлымаш
программы
программым
программын
программышкыж
программыште
продукции
продюсер
проект
проекта
проекте
проектируется
проектше
проектым
проектын
проза
прозаик
прозе
прозо
прозы
прозыжо
прозын
прозышто
произведении
произведения
произведениях
производстве
производственныи
производство
произношению
происхождение
происхождении
происхождения
прокопии
прокопьевич
прокофьевич
пролетар
промартель
промкомбинат
промучастк
промышленность
промышленныи
пропавших
прорва
пророк
просветитель
просветительскии
просветительство
просветителя
просвещении
просвещения
просек
просека
просеке
проста
просто
простои
простомолотов
пространстве
пространство
прость
протасов
против
протокол
проф
профессии
профессионал
профессионального
профессиональнои
профессиональныи
профессор
профессора
профессоржо
профессору
профсоюз
прохоров
процент
процесс
процесса
процессе
процессор
процессы
прошлое
прудки
псевд
псевдоним
псевдонимым
психолог
психологизма
психологии
психологическии
психологического
психологическои
психология
психолого
псков
птица
пу
пуа
пуалеш
пуалтеш
пуалтын
пуат
пуаш
публикации
публицист
публицистика
пугаче
пудин
пудож
пудыранчык
пудыртен
пудыртышо
пуен
пуеныт
пузо
пузымучаш
пузя
пуи
пукшалма
пукшамбал
пукшышо
пуламыр
пулеме
пулково
пульс
пумарии
пумарь
пумыр
пункт
пунктам
пунктов
пункту
пунктуации
пункты
пунтленд
пунчал
пунчалже
пунчалым
пунчалын
пупкин
пура
пурак
пурам
пурат
пураш
пурга
пургак
пургыж
пургыжышто
пурен
пуреныт
пурла
пуро
пурсанур
пурта
пурталтын
пуртат
пурташ
пуртен
пуртеныт
пуртов
пуртымаш
пуртымо
пуртышо
пурымеке
пурымо
пурышо
пусаксола
пустынь
пусть
путе
путевка
путешествии
пути
путиловка
путин
путырак
путь
пуч
пучанъял
пучеж
пучым
пучымыш
пучымышым
пуш
пушан
пушеҥге
пушеҥгылан
пушеҥгым
пушеҥгын
пушкар
пушкин
пушкина
пушкинын
пушкыдо
пуштмо
пуштык
пуштыныт
пуымаш
пуымо
пуышаш
пуышо
пуэм
пуэн
пуэныт
пуэрто
пуял
пуялка
пхе
пче
пчелов
пы
пыдал
пыжан
пыжанъю
пыжаш
пызак
пызаково
пызле
пызыкнур
пызырьгуп
пыл
пыламарии
пылыш
пым
пымарии
пынгелъял
пынгель
пынгельмучаш
пырдыж
пырля
пырляк
пырляштарыме
пырче
пырчым
пырыс
пыта
пытара
пытараш
пытарен
пытареныт
пытармек
пытармеке
пытартыш
пытартышлан
пытарыме
пытарымек
пытарымеке
пытарымекыже
пытарыше
пытен
пытыме
пытымек
пытыше
пычал
пычкемыш
пышта
пыштат
пышташ
пыштен
пыштеныт
пыштыме
пыштыше
пьер
пьеса
пьесе
пьесы
пьесыж
пьесыже
пьесыжым
пьесым
пьесыште
пэлдэш
пэташ
р
ра
работ
работа
работе
работник
работника
работники
работников
работы
рабочии
рада
радам
радамлык
радамлыкше
радамым
радамыш
радамышке
радамыште
ради
радио
радиовещании
радиову
радиокомитетыште
радион
радиостанции
радиошто
радости
радость
радуга
радыгин
рае
раевка
раз
разведчик
развитие
развитии
развития
разговор
разговорник
раздолье
разинын
различных
размещение
размышления
разнообразии
разных
разъезд
раи
раиса
раисия
рак
рал
ралтын
рам
рамбал
рамдах
раменскии
рамень
ран
ранее
раныза
рассказ
рассказа
рассказах
рассказе
рассказов
рассказы
растараш
растарыме
растегаиха
растении
расширение
рат
рата
ратат
раташ
рате
ратем
ратен
ратеныт
ратет
ратымаш
ратымашыже
ратымашым
ратыме
ратымем
ратыше
рафаэль
рафаэльын
раш
рашемда
рашемдаш
рашемден
рашемдык
рашемдыме
рашемдыше
рашэҥер
рая
рвал
рвар
рвезе
рвезылан
рвезылык
рвезым
рвезын
рг
ргаш
рггу
ргене
ргече
ргечын
рго
ргу
ргы
ргыи
ргым
ргымту
ргынур
ргысо
ргысола
ргыту
ргыш
ргышто
ргыштыжо
ргыял
рдем
рдеммучаш
рдемту
рдеш
рдмо
рдо
рды
рдыж
рдыжеш
рдыжсо
рдыжто
рдын
ре
реализации
реализация
ревитализации
революции
революционер
революционныи
революция
регеж
регенсола
регион
региона
региональнои
региональные
региональныи
региональных
регионе
регионов
регионы
регионын
регионысо
регистрации
ред
редактироватлен
редактор
редакторжо
редакторжылан
редакторлан
редакторын
редакции
редакція
редкол
редколегіі
редколлегии
реж
режим
режиссе
режиссер
реи
рек
реке
реки
рекламе
рекомендации
реконструкции
рекордым
религии
рем
реманэҥер
ремже
ремизово
ремла
ремлалтеш
ремлан
ремлат
ремлаш
ремленыт
ремлыме
ремым
ремын
ремыш
ремышт
ремыште
рен
реналге
репертуар
репертуарыштыже
репин
репрезентация
репрессии
репсола
рес
респ
респу
республик
республика
республиканская
республиканскии
республиканских
республиканскои
республике
республики
республикым
республикын
республикысе
республикыш
республикыште
ресурс
рет
ретан
ретла
ретлалтеш
ретлаш
ретлен
ретлыме
ретлыше
ретче
ретчыже
ретчын
ретше
ретым
ретыште
реформлалтын
рец
рецензии
рецензия
речи
речка
речке
речкин
речкина
речфлот
реш
решения
реюньон
рж
ржев
ржо
ржы
рза
рзалак
рзо
рзым
рзымнольо
ри
рига
рика
рико
рим
римма
римскии
римыште
рио
рис
ритм
ричард
рк
рка
ркансола
ркс
рл
рла
рлан
рлаташ
рлатен
рлаш
рлемдымылан
рлен
рло
рлык
рлыкшо
рлымо
рлын
рм
рмо
рмоз
рмэ
рно
рныи
ро
роберт
ров
ровно
ровное
род
рода
родина
родину
родион
родионова
родная
родник
родники
родного
роднои
родном
родо
родства
родыжо
родюк
рождения
рожденная
рождественскии
рожкин
роза
рок
роли
ролик
ролл
роль
рольжо
рольжым
рольым
роман
романа
романе
романенки
романже
романжым
романо
романов
романова
романович
романым
романын
романыште
романыштыже
ромашкино
рон
ронга
ронын
рос
росии
россии
россия
ростов
рота
рошто
роща
рощино
роҥго
рскии
рсола
рср
рсфср
рт
ртан
ртанур
ртнур
ртныр
ртнь
ртньо
ртньыгорно
ртньыгорнын
ртньым
рто
рту
ртчара
ртшо
ртшын
ртык
ртыкым
ртыл
ртылаш
ртылга
ртылеш
ртылмек
ртылмеке
ртылмекше
ртылмекыже
ртылмо
ртылын
ртым
ртын
ртысо
ртыш
ртышт
ртышто
ртьыгорнын
ру
руалтен
руанда
рубеже
рубль
рудольф
рудометово
рузаевке
руи
рук
руки
рукописныи
рукописных
рукопись
руль
румынии
рун
рус
русанов
русов
русская
русские
русскии
русским
русских
русско
русского
русское
русскои
русском
русскому
русь
рут
рутка
рутко
ручеи
руш
рушарня
рушарнян
рушенер
рушла
рушлаже
рушлаш
рушлашке
рушплак
рушродо
рушсола
рушъял
рушэҥер
руэм
руэмское
руэн
руя
руял
руясола
рф
рш
рша
ршан
ршасола
ршерже
ршеш
рштылмаш
ршын
ръеҥ
ръял
ры
рыб
рыбаков
рыбакова
рыбаковын
рыбинск
рыбинского
рыбная
рыбныи
рывыж
рыж
рыктарыше
рылтде
рылтшо
рылтын
рым
рымаш
рымашыже
рымашыжым
рымо
рын
рынан
рыс
рыснек
рыцарь
рычков
рычкова
рыш
рышо
рышт
рышто
рыштыжо
рыҥаҥ
рябинина
рябинка
рябиновка
ряд
рядовои
рядом
рязанцев
рязань
с
са
саам
сабаево
сабанер
сабанур
сабанцев
сабитов
сабличево
сабы
савак
савакту
саваткова
савва
савельев
савер
сави
савик
савинов
савкино
савлич
саву
савык
савыкта
савыкталт
савыкталтеш
савыкталтше
савыкталтын
савыкталтыныт
савыкталтыт
савыкташ
савыктен
савыктеныт
савыктыме
савыктыш
савыктыше
савыктышын
савыра
савыраш
савырен
савыреныт
савырна
савырнаш
савырнен
савырненыт
савырныме
савыртыш
савырыме
савырыше
савэҥер
сагирова
сад
садак
саде
садеран
садлан
садланак
садовин
садовскии
садыгак
садыште
саемдаш
саемдыме
саи
сакар
сакарсола
сакен
сакральных
сакыме
салават
салам
саламатнур
саламла
саламлат
саламлена
салда
салика
саликович
салтак
салтакше
салтакъял
салтакым
салтакын
салымсола
сальвадор
сам
саман
саманын
саманыште
самар
самара
самаре
самкино
самоа
самодеятельныи
самодии
самое
самои
самоле
самолет
самостоятельнои
самуил
самырык
самырыктукым
сан
сандалык
сандвич
санденак
сандене
санкт
санскрит
санук
сануков
санян
сапаев
сапаевын
сапарсола
сапеев
сапин
саппоро
сар
сараево
саранск
сарансола
сарапаи
сарапул
саратов
саратовскии
сарда
сардабаш
сардаи
сардаял
сареш
сарзе
саркурал
сармак
сарманово
сармансола
саров
сарсаде
сарсы
сарым
сарын
сарыш
сарыште
саска
саскавии
саскаже
саскаи
саскам
саскан
сасканур
сатеевич
сатир
сатира
саткансола
сатсола
сату
сатум
сауд
саус
саха
сахалин
сахара
саша
сб
сборник
сборнике
сборниклаште
сборникше
сборникшым
сборникым
сборникын
сборникыш
сборникыште
сборникыштыже
сборныи
свадьба
свазиленд
сваминараян
сведении
свердловск
свердловскои
свет
света
свете
светлана
светлов
светлое
светлыи
свече
свечников
свидетельство
свинин
свобода
свое
своего
своеи
своеобразие
свои
своим
своих
свою
связеи
связи
связь
святитель
святои
священник
священномученик
священныи
се
себе
себя
севастополь
севера
северныи
северо
северскии
сегеже
сегодня
сеи
секретарь
секретарьже
секретарьжылан
секретарьлан
сектор
секунд
секундышто
секции
секционных
сел
села
селан
селасе
селаш
селашке
селаште
селе
селение
селении
селиваново
селижарово
селин
селиш
селище
село
селты
сельская
сельские
сельских
сельского
сельское
сельскои
сельскому
сельсовет
сельхозпочинка
сельхозтехника
сем
семантика
семантике
семантическая
семантические
семантическии
семантическое
сембер
семе
семеево
семеи
семен
семенов
семенова
семенович
семже
семинар
семинара
семинарии
семисола
семлызе
семлык
семмастар
семон
семонсола
сему
семык
семым
семын
семынак
семынат
семынже
семь
семье
семьи
семья
сен
сенгилеи
сенда
сенде
сендеву
сенегал
сент
сентябрь
сентябрьыште
сентября
сенькан
сенькова
сер
сера
серам
серафим
серафима
сераш
сербии
сервер
сервис
сергач
сергеев
сергеева
сергеевич
сергеевка
сергеевна
сергеи
сергесола
серги
сергиев
сергии
сергушкин
сердеж
сердец
сердца
сердце
сердыж
серебряныи
середина
серен
сереньга
сереш
сержант
серже
сери
серии
серия
серлаген
серманангер
сернер
сернур
сернурскии
серов
серызе
серызыже
серызын
серыме
серын
серыпле
серысе
серыш
серышке
серыште
серыштыже
серышым
сескем
сеснур
сессии
сессия
сеул
сеченово
сеҥа
сеҥалтын
сеҥаш
сеҥе
сеҥен
сеҥена
сеҥымаш
сеҥымашке
сеҥымашлан
сеҥымашым
сеҥымашын
сеҥымашыш
сеҥыме
сеҥымылан
сеҥыше
сеҥышыже
сеҥышыш
сибаи
сибатрова
сибири
сибирь
сибирьысе
сибирьыш
сибирьыште
сибуян
сива
сивандаи
сиватеев
сивикасола
сивыр
сигнал
сигналым
сиднеи
сидоркин
сидоркина
сидоров
сидорова
сидорович
сидорово
сидоровское
сидункурык
сидываи
сидыр
сизнер
сизнур
сии
сила
силантии
силикатныи
силу
симакаи
симаксер
симашата
символ
символжо
символика
символы
симеон
симметрии
симон
симоновск
симпозиум
симпозиума
симферополь
симфонии
симфоническии
син
сингапур
сингл
синоним
синонимия
синонимов
синонимы
синтаксис
синтаксиса
синтаксические
синтаксическии
синтаксических
синхронии
синцзян
сир
сирень
сирии
сиры
систем
система
системе
системныи
систему
системы
системым
системын
системыш
системыште
сита
ситартыш
сите
ситен
сити
ситников
ситуации
ситуация
ситыдымаш
ситыше
ситышын
ск
ска
сказка
сказки
сказуемого
сказуемыи
скан
скандинавии
ская
скво
скелетон
ски
ские
скии
ским
ских
склад
ско
скобелев
скобкышто
ского
ское
скои
ском
скому
скорпион
скревын
скрипка
скрипке
скрипки
скулкино
скульптор
скульптур
скурык
скую
сл
слава
славян
славянск
слан
сле
след
следствии
следы
слезе
слендера
слобода
слободскои
слов
слова
словакии
словакла
словаре
словареи
словари
словарь
словарях
словении
словесного
слово
словообразование
словообразования
словосочетании
словосочетания
словосочетаниями
сложного
сложные
сложныи
сложных
слот
служба
службо
службылан
службым
службын
служебныи
служение
служитла
служитлаш
служитлен
случаи
слэн
см
смена
сми
смирнов
смирнова
смирновка
смирновын
смит
смоленск
смоленскии
смоленцев
смоликов
смолокурныи
смольникова
смоліи
смычка
сна
снг
снеге
снегире
снигире
снова
со
соавт
соавторстве
собачья
соболевскии
собор
собрание
собственныи
событии
события
событиях
сов
совершенствования
совет
совета
советск
советская
советскии
советских
советско
советского
советское
советскои
советын
советысе
совещании
современная
современник
современного
современное
современнои
современном
современности
современность
современные
современныи
современных
совхоз
совхозышто
совым
согласныи
согласных
содержании
содержания
содержаниян
содержащии
содомиха
содорон
соза
созвездие
создании
создания
созыв
сои
соказа
соколов
соколова
соколовка
сокольское
сокыр
сола
солаволкы
солам
солан
соланъер
соласе
солаш
солаште
солдат
солдата
солигалич
соликамск
солист
солистка
солисткыже
солистше
солнечныи
солнце
солнышко
соло
соловеи
соловье
соловьев
соловьева
соловьи
соловьиныи
соломин
соломон
солт
солык
солыкым
сомали
сомалиленд
соматических
соматическои
сомбатхеи
сомова
сомыл
сомылжо
сомылжым
сомыллан
сомылым
сомылымат
сон
сонар
сонарзе
сонарыш
соната
сонет
сообщении
сооружении
сопоставительная
сопрано
сопредседательже
сопсан
соракисер
сорла
сорокин
сорочинскии
сорта
сортавале
сортам
сосна
соснова
сосновка
сосново
сосновогорскии
сосновское
сосновыи
сосногорск
сосны
сост
состав
состава
составе
составитель
составнои
составыш
составышкыже
состояние
состоянии
состоянию
сосьво
сотемдарче
сотнур
сото
сотовыи
сотрудников
сотрудникше
сотрудничества
соты
сотыеҥ
сотышто
софии
софия
софроненки
софронов
софья
сохранения
соц
социал
социализм
социалистик
социалистическии
социально
социального
социальныи
социокультурное
социокультурном
социолог
социологии
социологического
социум
сочетании
сочи
сочинении
сочинения
союз
союза
союзов
соҥи
спартак
спасибо
спасск
спасскии
спасское
спб
спектакль
спектакльлаште
спектакльым
спектакльыште
специализации
специалист
специалистлан
специалистов
специальности
специальность
специальностьым
специфика
спиридонов
спиридонова
спиридонович
список
спорт
спортсмен
спортсменка
спортсменын
спортын
способ
способов
способы
справ
справка
справочник
справочныи
спутник
сравнении
сравнения
сравнительно
сравнительнои
сравнительныи
среде
среди
среднего
среднее
средние
среднии
средних
средняя
средств
средства
средствам
средство
сретенка
сср
ссру
ссср
ссылка
ссылкыш
ст
ста
ставрополь
ставшая
стадии
стажировкым
стал
стали
сталин
сталинград
сталино
стамбул
стандарт
стандартле
станислав
становление
становлении
станции
станция
стапан
стапанъял
старая
стареи
стариков
старица
староатнагулово
староваськино
староверово
старое
старожильск
староминскии
старонакаряково
старцево
старшии
старыгина
старые
старыи
статеи
статистика
статистике
статистики
статус
статуса
статусым
статьи
статья
статьяже
статьям
статьяште
статьяштыже
ства
стве
ствие
ствии
ствительныи
ствия
ство
ствующеи
стел
стелто
стелым
степан
степанов
степанова
степанович
степановна
степаново
степановск
степени
степень
степеньым
степенян
стер
стерлибашево
стерлитамак
стефан
стивен
стилистика
стилистикыже
стилистическии
стиль
стильыште
стиля
стипендии
стих
стихах
стихвла
стихи
стихов
стихотворение
стихотворении
стихотворения
стокгольм
столяров
стороны
стр
стран
страна
стране
страница
страницы
страницыште
страны
стрелковыи
стрельники
стрельников
стретенск
стретенскии
стринг
строганова
строи
строительстве
строится
структур
структура
структуре
структурно
структурные
структуры
студ
студе
студеницкии
студент
студентов
студентше
студенческая
студенческои
студеныи
студии
ступенян
су
суаплан
суапландаралтын
суапле
суаплыклан
суапше
суапым
суас
суасла
субъект
субъектов
субъекты
суворов
суворовын
сугынь
сугыньым
сугырэҥер
суд
судаково
судан
судын
судьба
судьбы
судья
суздаль
сузы
сукма
суко
суксо
суксунскии
сукырэҥер
сулавеси
сулаево
сулен
суленыт
сулии
сулло
султан
султанович
сулу
сулык
суматра
сумка
сумпу
сумы
суна
сундырь
суоми
суоярви
супдырь
супергерои
супикс
сур
сургут
сурикова
суринам
сурок
сурт
суртем
суртоза
суртшо
сурты
суртым
суртыш
суртышто
сусыр
сусырген
сусыргышо
сутка
сутыри
суффикс
суффикса
суффиксов
сухая
сухин
суходоево
суходол
сухои
сухоречье
сушилка
сушилке
сушинскии
существительного
существительных
сфере
сферыште
сфу
сценарии
сценарист
сцене
сцены
сценыште
сценыштыже
счастье
счет
сша
сшо
сшым
съезд
съезда
сы
сызрань
сыктывкар
сылне
сылныже
сылнылык
сылнылыкше
сылнымут
сылнымутан
сылнымутлан
сылнымутчо
сылнымутшо
сылнымутым
сылнымутын
сылнымутыш
сылнымутышто
сылнын
сым
сымыктыш
сымыктышын
сымыстарен
сын
сынан
сынже
сынжым
сынлымо
сыным
сынын
сырен
сысоево
сыче
сычи
сышт
сьерра
сэмон
сэҥер
сюжет
сюита
сюмси
ся
сіл
т
та
табар
табашино
таблица
таблице
тавалыше
тавалышын
таве
тавра
тавцан
тага
таганрог
тагил
таджик
таджикистан
таза
тазалык
тазалыкше
тазалыкым
таи
таиланд
таир
таисия
так
также
такие
таким
такмак
такмакым
такое
такои
таксиволь
такшым
такыр
талант
талантан
талантливыи
талантше
талантшым
тале
талешке
таллин
таллинн
талман
талманъял
талмаш
талук
талукаш
талын
там
тамакаи
тамаксола
тамакым
тамара
тамараи
тамбов
тамга
тамгаже
тамгаште
тамил
тамле
тамшинер
тамшэҥер
тан
танаково
танаксола
танастарымаште
танастарыме
танерсола
танец
танзании
таникеево
танк
танле
таныгаи
таныгин
танык
таныкше
таня
таптеҥызыште
тапшер
тар
таракан
тараканово
тарас
тарасов
тарасово
тарата
таратен
тарашнур
тарашнуры
тарашныр
тарвана
тарванен
тарваненыт
тарвата
тарватен
тарватеныт
таргылтыш
тарту
тасман
тат
татар
татарбаево
татаренер
татарские
татарскии
татарских
татарского
татарскои
татарском
татарстан
татарстана
татарэҥер
таткансола
татышлы
татьяна
тау
таум
таумутшо
тауштен
тачат
таче
тачысе
ташкент
ташнур
таҥ
таҥасат
таҥасен
таҥасеныт
таҥастараш
таҥастарен
таҥастарымаш
таҥастарымаште
таҥастарыме
таҥасымаш
таҥасымашлаште
таҥасымаште
таҥасымашым
таҥга
таҥем
таҥже
тбилисскии
тв
твеи
твен
твенын
тверь
твои
твори
творческии
творческих
творчества
творчестве
творчество
творчествыж
творчествыже
творчествыжым
творчествылан
творчествышт
творчествыштыже
те
театр
театра
театральная
театральныи
театрлан
театрым
театрын
театрыш
театрышке
театрыште
тебе
тебеково
тебя
теве
тегаи
тез
тезисы
теи
тек
текст
текста
текстах
текстов
текстым
текстын
тектэҥер
теле
телевидении
телевизор
тележурналист
телекомпании
телефон
телефонные
телицыно
телылан
телым
телымсе
тель
тем
тема
тематике
тембал
темдыме
теме
темеево
темен
темеш
теми
темла
темлат
темлен
темленыт
темлымаш
темлымыж
темме
темников
температуржо
темрюк
тему
темыже
темылан
темым
темын
тен
тенант
тендам
тендан
тенденции
тении
теннис
теоретическии
теории
теория
теперь
теплая
тептеҥыз
тептеҥызын
тептеҥызыште
терга
тергаш
терген
тергеныт
тергымаш
тергымашым
тергыме
тергыше
тереза
терекеево
терентеи
терентии
терентьева
терентьевич
термин
терминал
терминов
терминологии
термины
терминым
тернополь
территориального
территории
тетла
тетрадь
тетюши
техн
техник
техника
технике
техники
техникум
техникумым
техникумын
техникумыш
техникумышто
техникын
техническии
технолог
технологии
технологическии
течет
теҥге
теҥыз
теҥызсер
теҥызше
теҥызын
теҥызыште
ти
тибет
тидат
тиддеч
тиде
тидлан
тидланак
тидыже
тидыжым
тидым
тидын
тиев
тикын
тиман
тимаше
тимашевск
тимиркаев
тимирязево
тимор
тимофеев
тимофеева
тимофеевич
тимофеевна
тимофеевскии
тимофеи
тимраевич
тинг
тинер
тип
типа
типографии
типография
типологии
типология
типы
тираж
тисте
тистыже
тистын
титакан
титаклен
титаклыме
тихон
тихонов
тихонович
тихорецк
тич
тичмаш
тичмашын
тишин
тишкино
тиште
тиштер
тиштерыште
ткылан
ткылыкым
ткын
ткышым
тла
тламарии
тныи
то
тобаго
тобольск
товарнур
товернур
тогашевскии
того
тодымваж
тоеныт
тоже
тои
ток
токарев
токио
токмак
токмаксола
токмурзин
токози
токпаи
токсар
токспаи
токсубаев
токсубаи
токсэҥер
токтаи
токтамыж
токтар
токтарсола
токташева
тол
толам
толат
толаш
толбень
толеш
толза
толковыи
толкын
толкынжо
толкыным
толкынын
толмань
толмаче
толмек
толмеке
толмо
толмыж
толмыжо
толмыжым
толмым
толстои
толтенур
толшо
толын
толыныт
толыт
только
тольо
тольятти
том
томан
томас
томаша
томе
томилансола
томск
томскино
тому
томшар
тон
тонкино
тонн
тоншаи
топ
топкавлак
топкаи
топливо
топонимии
топонимика
топонимике
топонимические
топонимия
топонимов
тор
тора
торавлак
тораи
торалык
тораш
торашке
тораште
торгаи
торгансола
тореш
торешку
торешкюбар
торонто
торфопредприятие
торъял
торъялысе
тоскисола
тосурт
тот
тототлымвер
точко
тошкалтыш
тошкалын
тошкем
тошкемнур
тошлем
тошметсола
тошнер
тошнур
тоштер
тоштерже
тоштерым
тоштерын
тоштерыште
тошто
тоштоял
тошты
тоштыеҥ
тоштыял
тоя
тоялтын
тр
трагедии
трагедия
традиции
традиционная
традиционнои
традиционныи
трактор
тракторист
трамваи
транскрипции
транспорт
транспортныи
транспортым
трансформации
тре
тренер
тренерже
тренерлан
трети
третии
третьи
третьяк
три
трилогии
тринадцатыи
тринидад
трифонова
трои
троицкии
троицко
тропинка
трофим
трофимович
трояры
трубицын
трубныи
трубянова
труд
труда
трудах
трудов
трудовик
труды
трук
трюкым
тту
ту
туан
туапсе
тува
тувыр
тувыртыш
тувырым
тугаи
тугак
тугат
тугаяк
туге
тугеже
тудак
тудат
туддеч
тудлан
тудо
тудыжо
тудым
тудын
тудынат
тужа
тужаров
туи
тукаи
тукым
тукымжо
тукымлан
тукымлу
тукымым
тукымын
тукымыш
тукымышт
тул
тула
тулан
тулар
тулбень
тулгем
тулеч
тулеш
тулото
тулъял
тулык
тулыкеш
тулым
тулыштыжо
тульск
тульчин
тум
тумер
тумерсола
тумеръял
тумна
тумньо
тумньымучаш
тумо
тумьюмучаш
тун
туналеш
туналтыш
туналын
тунам
тунамак
тунамсе
тунар
тундра
тунем
тунемаш
тунемеш
тунемза
тунеммаш
тунемме
тунеммыж
тунеммыжым
тунеммым
тунемше
тунемшыже
тунемын
тунемына
тунемыныт
тунемыт
тунис
туныкта
туныктат
туныкташ
туныктен
туныктеныт
туныктымаш
туныктымаште
туныктымашын
туныктымо
туныктыш
туныктышо
туныктышыжо
туныктышылан
туныктышым
туныктышын
тунья
туня
туняште
туп
тупик
тупру
тур
тура
туранча
тураште
тургыжланен
тургым
тургымышто
турек
турекскии
туризм
турии
турин
турист
турк
туркестан
туркменбаши
туркменистан
турку
туркыла
турло
турнир
турнирыште
турня
турово
турок
турскии
турции
турша
туршеял
туршинское
туршо
туршымучаш
тусо
тутаев
тутан
туткар
тутло
туш
тушан
тушеч
тушечын
тушка
тушкалан
тушко
тушман
тушманлан
тушманым
тушманын
тушнаял
тушнур
туштак
тушто
туштыжо
туштым
тчик
тше
тъял
ты
тывеч
тыгае
тыгаи
тыгак
тыгакак
тыгаяк
тыге
тыгеже
тыгерак
тыглаи
тыгодым
тыгодымак
тыгыде
тые
тыи
тыланда
тыланет
тылат
тылеч
тылзаш
тылзе
тылзыже
тылзылан
тылзым
тылзын
тылзыште
тылзыштыже
тым
тымарте
тыматле
тымбаи
тымык
тын
тынар
тынек
тынеш
тыныки
тынын
тыныс
тыныслык
тыныслыкым
тыныш
тыныште
тынь
тыр
тыра
тыртыш
тырша
тыршат
тыршаш
тыршен
тыршеныт
тыршымаш
тыршыме
тыршымыж
тыршымыже
тыршымыжлан
тыршымыжым
тыршыше
тысе
тысяч
тысячелетия
тыш
тышан
тышеч
тышечын
тышке
тыштак
тыштат
тыште
тыштыже
тьомисола
тьопаи
тьотянсола
тьымансола
тюлячи
тюм
тюмень
тюмша
тюрк
тюркологическои
тюркские
тюркских
тюркскои
тютюи
тявак
ті
у
уа
уаш
уашыште
уаэ
уба
убии
ува
увакш
увер
увераҥар
уверде
увертарен
увертарымаш
увертарыме
уверым
увэр
уганда
угарман
угарманысе
угинде
углич
угнту
уголовныи
угор
угорская
угорские
угорскии
угорских
угорского
угорскои
угристика
угро
угров
угровед
угроведение
угроведении
угроведению
угроведения
угроведов
угры
угыч
угычын
уда
удан
удельная
удельное
удельныи
удм
удмурт
удмуртии
удмуртия
удмуртскии
удмуртского
удмуртскои
удостоверении
удымбаи
удыр
удэ
уезд
уезда
уездын
уездысе
уездыште
уефа
уж
ужава
ужалаш
ужален
ужалыме
ужалыше
ужам
ужар
ужара
ужарге
ужат
ужата
ужатен
ужаш
ужашан
ужашлан
ужашыже
ужашыжым
ужашым
ужашын
ужашыш
ужашышкыже
ужашыште
ужашыштыже
ужгород
уже
ужеш
ужмаш
ужмо
ужмым
ужшо
ужым
ужын
ужына
ужынам
ужыныт
узбек
узбекистан
узбекистаныште
узбекла
узловые
узо
узоры
уи
уилем
уильям
уинскии
ук
указ
указания
указатель
указше
уке
укзше
укозяш
укр
украин
украина
украинла
украины
украинын
украинысе
украиныште
украі
укташ
укш
укшинчыш
укшым
укым
ул
ула
улам
улан
уланова
улат
улеи
улеш
улисьял
улица
улмаш
улмо
улмыж
улмыжлан
улмыжо
улмыжым
улмым
улмышт
уло
улс
улшо
улыда
улыжат
улыл
улына
улыт
ульянов
ульянова
ульяновск
улэгеи
умбак
умбаке
умбакыжат
умбакыже
умбакыжым
умбал
умбалне
умдо
умдыр
умерка
умландарыше
умша
умыла
умылаш
умылен
умыло
умылтара
умылтараш
умылтарен
умылтарымаш
умылтарыме
умылымаш
умылымашым
умыр
ун
уна
унала
унжа
уни
универсал
университет
университета
университеты
университетым
университетын
университетысе
университетыш
университетышке
университетыште
уничтожен
унур
унчо
уныка
уныкаже
уньжа
уньжинскии
уполномоченныи
употребления
управление
управлении
управления
упражнении
упш
упша
упшо
ур
ура
уразаево
урал
урала
урале
урало
уралом
уралысе
уралыште
уральскии
ургакш
ургаш
ургымо
уре
урека
урем
уремже
уремлаште
уремсола
уремым
уремын
уремыш
уремышкыже
уремыште
уржа
уржум
уржумка
уржуммучаш
уржумноля
урлык
урмар
урмыж
урняк
уровень
уровне
уровня
урожаи
урок
уроках
урокым
урокышто
урср
уртем
уругваи
урын
урьяды
усинск
условии
условиях
условно
услон
усманов
усола
усолинского
усолье
успенскии
уста
усталык
усталыкше
усталыкшым
усталыкым
устан
устин
устинов
устои
устрои
усть
устье
усурт
уськур
усьтэм
утара
утараш
утарен
утарыше
утла
утларак
утларакше
утларакшым
утлаш
утлен
уто
утро
утыждене
утыр
утятин
уфа
уфасе
уфимскии
ухта
учаев
учалы
участвоватла
участвоватлен
участие
участием
участник
участников
участникше
участок
участокшо
учащихся
уче
учеб
учебная
учебник
учебникым
учебно
учебное
учебнои
учебныи
учебных
учен
ученикше
ученого
ученые
ученыи
ученых
училище
училищым
училищын
училищыш
училищышке
училищыште
учимсола
учителе
учителеи
учитель
учительскии
учительскои
учителя
учлеспромхоз
учреждение
учреждении
уш
уша
ушакова
ушаково
ушалтеш
ушалтын
ушалтыт
ушан
ушаш
ушем
ушемлаште
ушемнур
ушемым
ушемын
ушемысе
ушемыш
ушемышт
ушемыште
ушен
ушеш
ушештара
ушешыже
ушкал
ушкалым
ушма
ушмен
ушна
ушнат
ушнаш
ушнен
ушненыт
ушнур
ушнымаш
ушнымо
ушнышо
уштыш
ушут
ушым
ушымо
ушышо
уым
уэмден
уэмдыме
уэш
уял
ф
фабрике
фабрикыште
фадеева
фадеево
фаи
фак
факт
факто
фактор
факультет
факультета
факультете
факультетов
факультетшым
факультетым
факультетын
факультетысе
факультетышкыже
факультетыште
факультетыштыже
фалалеево
фале
фамилии
фантаст
фантастике
фарер
фарсила
фасо
фастов
фашизм
фашист
фгос
фе
фев
февр
февраль
февральыште
февраля
федерал
федеральная
федерального
федеральныи
федераци
федерации
федерико
федор
федоров
федорова
федорович
федоровна
федосеева
федот
федоткино
федотов
федотово
федюнята
феликс
феллини
фельетон
феодор
феодосии
феофан
феофил
ферми
фермин
фестиваль
фестивальын
фестивальыште
фигур
фиджи
физик
физика
физическии
физкультур
филармонии
филиал
филимон
филимонов
филимоново
филипп
филиппин
филиппково
филиппов
филиппович
филиппсола
филол
филолог
филологи
филологии
филологические
филологическии
филологических
филологического
филологическои
филология
философ
философии
философия
философские
фильм
фильмым
фильмын
фильмыште
фин
финал
финалыште
финанс
финляндии
финн
финнла
финно
финноугроведение
финноугроведению
финноугроведения
финские
финскии
финских
финского
фирмын
фирсов
фифа
фламенко
флоренции
флорес
флот
флотын
фнс
фока
фолкленд
фольклор
фольклора
фольклорист
фольклористика
фольклористы
фольклорно
фольклорные
фольклорных
фольклорым
фома
фоминых
фон
фонд
фонды
фондын
фонем
фонетика
фонетике
фонетические
фонетическии
форвард
форм
форма
форман
формат
формате
формации
формирование
формировании
формирования
формо
формул
формула
формы
формыжо
формым
фортепиано
фортепианолан
форум
форума
фото
фотографии
фотосу
фр
фразеологизмах
фразеологизмов
фразеологизмы
фразеологии
фразеологических
франковск
франц
франции
француз
французла
французского
французском
фредерик
фрисби
фронт
фронтовик
фронтовои
фронтыш
фронтышко
фронтышто
фулла
фундаментальные
функции
функционирование
функционирования
фурзиков
фурманов
футбол
футболист
футболын
х
ха
хаант
хабаровск
хабибуллино
хадыженск
хаи
хакасии
халтурин
халтурино
халык
хальмахера
хан
ханлык
хант
ханты
харабали
характер
характера
характеристика
характеристике
характеристики
харламов
харламовым
харьков
хасавюрт
хасан
хасанов
хвалынск
хельсинки
херсон
херши
хи
хива
химзавод
химии
химик
химлесхоз
химлесхоза
химлесхозын
хино
хирург
хирургии
хит
хлеб
хлебников
хлебниково
хмельницкии
хо
хозино
хозяи
хоккеи
хоккеист
холбооны
холодильник
холунице
хомутово
хор
хорв
хорватии
хореографии
хормеи
хоровои
хорошавино
хорошавинскии
хорошо
хорым
хорышто
храброво
храм
хрест
хрестомати
хрестоматии
хрестоматия
хречье
христиан
христос
христосын
христофор
христофорович
хроника
хрустальныи
хряще
хуан
худож
художественная
художественного
художественное
художественнои
художественном
художественные
художественныи
художник
художников
худяковка
хузангаи
хутор
хх
ц
ца
царанур
царевококшаи
царии
цартак
царь
цветет
цветково
цветок
цветы
цев
цева
целищев
целлюлоз
ценностеи
ценности
центр
центра
центральныи
центриздат
церковно
церковь
цех
цибикнур
цигансола
цикл
циклым
цилиндр
цинглок
цинглокскии
ципья
цифр
цифре
цк
цорамаи
цотнаи
цска
цу
цы
ч
ча
чаваи
чад
чаи
чак
чакин
чакмарии
чал
чалаи
чалле
чаманаш
чамане
чаманен
чан
чап
чапаи
чапкагазше
чапку
чапланен
чапланымылан
чапланыше
чапле
чаплу
чаплын
чапмуро
чапчык
чапше
чапым
чара
чаракым
чаранур
чараш
чарен
чареныт
чарла
чарльз
чарна
чарнен
чарненыт
чарнур
чарныде
чарыме
час
часамлаял
часовенцы
части
частина
частиц
частице
частицы
частныи
частушки
частые
часть
частях
чатлама
чачавии
чашен
чашкаял
чашымаш
чаҥ
че
чебоксары
чеботаи
чевер
чеверже
чеверласа
чеверласен
чеверласыме
чевернур
чеверын
чек
чекмагуш
чекманур
чекмари
чекмарии
чекуры
чекушня
человек
человека
челюскино
челябинск
чем
чемар
чембулат
чемеи
чемеков
чемпион
чемпионат
чемпионатым
чемпионатын
чемпионатыште
чемпионжо
чемпионкыжо
чемышев
чен
чендемерово
чепаи
чепаково
чепецк
чер
чердынь
чере
через
черемис
черемисская
черемисскии
черемисского
черемшан
черепаново
черетан
черкасово
черкасола
черкассы
черке
черкесии
черкесола
черкылаште
черкым
черкын
черкысола
черкыш
черкыште
черлана
черланен
черланыше
черле
чермышево
чермышъял
черная
чернигов
чернов
черновцы
черное
чернозелье
черноозе
черноярие
чернушка
черныи
черных
чернышев
черым
чеснокова
честь
четаи
четвертыи
четкаре
четлык
четыре
чех
чехии
чехов
чеховын
чехословакии
чечен
чеченла
чечня
чигирешево
чиен
чии
чили
чимарии
чингансола
чинданур
чирки
чирков
чирпамаш
числа
числам
числе
численность
чисола
чистополь
читово
чишкан
чишмы
чия
чиялтыме
чият
чияш
чкаловск
чкаэҥер
чкыдын
чкыдынак
чкыдынрак
член
членже
члены
членыш
чо
чобык
чобыково
човыксола
чогашыл
чодра
чодраполко
чодраште
чодраял
чодыра
чодырам
чодыран
чодырасе
чодырасола
чодыраш
чодырашке
чодыраште
чодыраял
чож
чои
чокмар
чолга
чолган
чолемсола
чолман
чоло
чолпан
чоманэҥер
чон
чонан
чондымо
чонем
чонемым
чонеш
чонжо
чонжым
чонлан
чончурии
чоным
чоныштем
чонышто
чоныштыжо
чоныштым
чоп
чопаи
чопак
чораи
чормак
чот
чотак
чоткар
чотмут
чотнаи
чотнур
чотрадам
чотрак
чотшо
чотым
чотышт
чоя
чоҥа
чоҥалтеш
чоҥалтме
чоҥалтын
чоҥаш
чоҥга
чоҥен
чоҥеныт
чоҥешта
чоҥешташ
чоҥештем
чоҥештен
чоҥештылше
чоҥымаш
чоҥымаште
чоҥымо
чоҥымылан
чоҥышо
чоҥышыжо
чтения
что
чтобы
чу
чуаи
чубарев
чуваш
чувашии
чувашла
чувашскии
чувашского
чувашскои
чузаев
чуковскии
чукот
чуксола
чукша
чулым
чулымын
чумбари
чумбылат
чумыр
чумыра
чумыраш
чумырген
чумырен
чумыреныт
чумырымо
чурии
чурык
чусовои
чуча
чучеш
чучкыдын
чучмым
чучо
чучын
чыве
чывыж
чыган
чык
чыклук
чыкма
чыкъер
чыкын
чыкэҥер
чыл
чыла
чылажат
чылажге
чылаже
чылажымат
чылалан
чылан
чыланат
чылдемыр
чылт
чым
чын
чынак
чынже
чынжым
чынжымак
чынле
чыным
чыр
чырык
чытен
чэндэмирсола
ш
ша
шаба
шабалин
шабалино
шабашан
шабдар
шабдарова
шабдарын
шабык
шабыков
шабыково
шавыксола
шаг
шагал
шагалрак
шаганур
шагаранур
шагат
шагатлан
шагатыште
шаде
шадт
шады
шаи
шакиров
шакирова
шакиртович
шактемваж
шакше
шалагино
шаланен
шалатен
шалатеныт
шале
шамаи
шамиев
шамносола
шамов
шамони
шамыч
шамычлан
шамычше
шамычым
шамычын
шамьярскии
шан
шанаш
шандарен
шане
шанем
шанен
шаненыт
шанле
шанче
шанчыеҥ
шанчыеҥже
шанчызе
шанчым
шанчын
шанчыште
шаным
шанымашын
шап
шапкил
шаплак
шапланерка
шапту
шапы
шар
шара
шаран
шаранер
шарача
шараш
шараҥ
шараҥге
шарен
шари
шарик
шаркан
шарла
шарлен
шарленыт
шарлыме
шарлыше
шарна
шарналта
шарналтат
шарналтен
шарнат
шарнаш
шарнем
шарнен
шарник
шарныкта
шарнымаш
шарнымашеш
шарнымаште
шарныме
шарныш
шарово
шары
шарыме
шарья
шасси
шатки
шахунья
шачмы
шаш
шашке
шашкеэҥер
шашым
шая
шаҥгаватнур
швед
шведла
швеи
швеции
швецов
ше
шевченка
шевченко
шевырялово
шеи
шеклянур
шекман
шекмино
шекспир
шел
шелалтеш
шелалтын
шелалтыт
шелангер
шелангуш
шелаш
шеледалтеш
шеледымаш
шеледыме
шелеш
шелын
шем
шемалге
шеме
шемер
шемерын
шеми
шемкурык
шеммландыдымыжым
шемпамаш
шемуржа
шемшу
шемъер
шемъермучаш
шемэҥер
шемэҥермучаш
шеньжа
шер
шергакан
шергаш
шерге
шергылтеш
шергылтын
шергыял
шердыж
шере
шереке
шеремет
шереметьево
шеренкуп
шерешнур
шереҥге
шернур
шернурышто
шертне
шерым
шерын
шестаков
шестаково
шестои
шестоперов
шехурдино
шеч
шеш
шешке
шеҥгек
шеҥгел
шеҥгелан
шеҥгелне
шеҥше
шеҥышту
ши
шива
шигак
шигаксола
шидияр
шижалтеш
шижам
шижаш
шижмаш
шижмашыжым
шижмашым
шижме
шижмым
шижтара
шижтарен
шижын
шии
шикш
шикшансола
шиматонскии
шимналинскии
шимшурга
шина
шинер
шинур
шинча
шинчав
шинчаву
шинчаже
шинчажым
шинчал
шинчалан
шинчам
шинчан
шинчат
шинчаш
шинче
шинчен
шинченыт
шинчеш
шинчымаш
шинчымашан
шинчымашыжым
шинчымашым
шинчымашын
шинчыме
шинчын
шинчыше
шиньша
ширмяры
широково
ших
шихалеево
шихмамат
шичмаш
шичме
шичше
шишигин
шишинер
шишкин
шишкина
шишкэҥер
шишур
шишэҥер
шиялтыш
шк
шка
шкажын
шкалан
шкаланже
шкаланышт
шкалин
шкалина
шкам
шкан
шканже
шкаш
шкашке
шкаште
шке
шкеак
шкеат
шкевуя
шкеж
шкежак
шкежат
шкеже
шкелу
шкем
шкемым
шкемын
шкен
шкенан
шкенжым
шкенжымат
шкенжын
шкеныштым
шкеныштын
шкет
шкетан
шкетана
шкетанын
шкетын
шкешотан
шкин
шкино
шкм
шко
школ
школа
школах
школе
школжо
школлан
школлаште
школы
школым
школын
школысо
школыш
школышко
школыштак
школышто
школьников
шлань
шло
шляпино
шляпкино
шман
шмо
шн
шнаран
шно
шну
шнуи
шнур
шнырак
шо
шоба
шовакшэҥер
шовыч
шовычым
шога
шогалаш
шогале
шогалеш
шогалза
шогалме
шогалтат
шогалташ
шогалтен
шогалтеныт
шогалтыме
шогалше
шогалын
шогалыныт
шогалыт
шогаль
шогат
шогаш
шоген
шогеныт
шогертен
шогертенсола
шого
шогодолсола
шогымо
шогымыжым
шогышаш
шогышо
шодыгол
шои
шок
шокта
шокташ
шокте
шоктен
шокто
шоктыктен
шоктыш
шоктышан
шоктышыжым
шокшем
шокшемсола
шокшо
шокшым
шокшын
шол
шола
шолдыра
шолем
шолеш
шолкадур
шолкер
шолнер
шолнермучаш
шоло
шолт
шолтеныт
шолтымо
шолын
шолып
шолыпмут
шольо
шольыжо
шольым
шолья
шолэҥер
шоляк
шомак
шомакше
шомакым
шомакын
шоменскии
шона
шоналташ
шоналтен
шонанпыл
шонат
шонаш
шонго
шонеда
шонем
шонен
шонена
шоненыт
шонет
шонкала
шонкалымаш
шоно
шонсола
шонымаш
шонымашан
шонымаште
шонымашыже
шонымашыжым
шонымашым
шонымашышт
шонымо
шонымыж
шонымыжо
шонымыжым
шонымышт
шоныш
шонышо
шопке
шопкер
шопкирла
шоптырэҥер
шор
шора
шордо
шорду
шордэҥер
шорокундыш
шорсола
шортеш
шоруньжа
шорчол
шоръял
шорык
шорыки
шорыкэҥер
шорэҥер
шоссе
шот
шотан
шотеш
шотла
шотлалт
шотлалтеш
шотлалтын
шотлалтыт
шотлан
шотландии
шотлат
шотлаш
шотлен
шотленыт
шотло
шотлыман
шотлымаш
шотлымо
шотлышо
шотпал
шотшо
шотым
шотыш
шотышко
шотыштат
шотышто
шоу
шоч
шочеш
шочмо
шочмыж
шочмыжлан
шочмыжо
шочмыжым
шочшан
шочшо
шочшыжо
шочыктен
шочын
шочынжо
шочыныт
шочыт
шошма
шошмарии
шошо
шошым
шошымсо
шоя
шояду
шояк
шоҥго
шпалозавод
шпицберген
шпык
шри
шрифт
шт
шта
штаб
штат
штатыште
ште
штен
што
штрамарии
шты
штык
штыкшо
штыкым
штылаш
штылмаш
штымбал
штын
штышо
шу
шуа
шуаралташ
шуаралтеш
шуаралтын
шуармучаш
шуарсола
шуаръял
шуарыме
шуаш
шуашнур
шубин
шудо
шудугуж
шудугужскии
шудыгуж
шудым
шудымарии
шудыр
шуен
шуеш
шужен
шуи
шукертак
шукерте
шукертсек
шуко
шукта
шукталтеш
шукталтын
шуктат
шукташ
шукташлан
шуктен
шуктеныт
шукто
шуктымо
шуктымылан
шуктышаш
шуктышо
шукшан
шукыж
шукыжо
шукыжым
шукын
шукынжо
шукырак
шукышт
шула
шулдыр
шулдыран
шулдыржо
шулен
шулепов
шулепово
шулин
шулка
шулко
шум
шуматкече
шуматкечын
шумек
шумеке
шумерля
шумец
шумецк
шумецкая
шумеш
шумли
шумлык
шумо
шумят
шун
шундаенки
шунду
шундыр
шунсола
шунэҥер
шупшалово
шупшеш
шупшын
шур
шура
шурга
шургумал
шургуял
шурду
шурмар
шурмарии
шурмаҥше
шурно
шурным
шуршо
шучко
шушаш
шушер
шушманка
шушмурка
шушо
шуын
шуыныт
шуэн
шуэш
шуэҥер
шуя
шуяш
шуҥго
шы
шыгаи
шыгыр
шыде
шыжа
шыже
шыжым
шыжымсе
шыл
шыли
шылсола
шылташ
шылым
шылын
шым
шыма
шыман
шымияш
шымла
шымлаш
шымле
шымлен
шымленыт
шымлу
шымлызе
шымлымаш
шымлымаште
шымлымашым
шымлыме
шымлымыж
шымлымышт
шымлыше
шымше
шын
шында
шындалтеш
шындалтын
шындат
шындаш
шынден
шынденыт
шындымаш
шындыме
шындырвал
шынчара
шып
шыр
шыргыжеш
шыч
шыҥа
шыҥдаралтын
шыҥдараш
шыҥдарен
шыҥдарымаште
шыҥдарыме
шыҥен
щ
щербиновскии
ъ
ы
ыван
ывансола
ыванын
ывраи
ывран
ывырте
ывыртен
ыгын
ыгыр
ыгыре
ыдал
ыде
ыжеҥже
ыжъенже
ыжъеҥже
ыжыҥ
ыжыҥан
ыжыҥже
ыжыҥъеҥже
ыи
ык
ыккомбо
ыкым
ыкын
ыл
ылгыжше
ыле
ылеи
ыли
ылман
ылме
ылмыж
ылмыже
ылмыжым
ылмызе
ылмызын
ылмыла
ылмылан
ылмылашке
ылмылаште
ылмылончыш
ылмым
ылмын
ылмынам
ылмынан
ылмысе
ылмыш
ылмышанче
ылмышанчын
ылмышке
ылмышт
ылмыште
ылмыштым
ылыжеш
ылыжын
ым
ымак
ымаке
ымал
ымалан
ымалне
ымалныже
ымалсе
ымат
ымач
ымаш
ыме
ымо
ымыж
ын
ына
ынак
ынам
ынат
ынгы
ынде
ынже
ыныт
ынышт
ып
ыпым
ыр
ыра
ыралтеш
ыралтын
ырат
ыраш
ыраҥъял
ырваш
ырвел
ырвелла
ырвелын
ырвелыш
ырвелыште
ырвелыштыже
ыргешке
ырен
ыреныт
ырес
ыресын
ырже
ырмарии
ыро
ырсе
ыртем
ыртемалт
ыртемалтеш
ыртемалтмылан
ыртемалтше
ыртемалтын
ыртемалтыт
ыртемже
ыртемжым
ыртемым
ыртемышт
ыртемыштым
ырыкта
ырым
ырымаш
ырымо
ырышо
ыс
ысе
ысо
ыт
ыш
ышан
ышаш
ыше
ышкан
ышке
ышко
ышкыже
ышна
ышо
ышт
ышта
ыштак
ышталтеш
ышталтме
ышталтше
ышталтын
ышталтыныт
ышталтыт
ыштат
ышташ
ышташлан
ыште
ыштем
ыштен
ыштенам
ыштеныт
ыштет
ыштмаш
ыштмашвла
ышто
ыштыже
ыштыжо
ыштыквер
ыштым
ыштыман
ыштымаш
ыштымаште
ыштыме
ыштымек
ыштымеке
ыштымыж
ыштымыже
ыштымыжлан
ыштымылан
ыштын
ыштынеже
ыштышаш
ыштыше
ыштышт
ышыж
ышыжо
ышыжым
ышым
ыҥ
ыҥан
ыҥже
ыҥжым
ыҥпале
ыҥым
ь
э
эваи
эволюции
эврик
эгеи
эдена
эдит
эдуард
эи
эквадор
экватор
экватории
экесола
экз
экзамен
экзаменым
экземпляр
экологии
экономик
экономика
экономике
экономист
экономистше
экономическии
экран
экраныште
экспедиции
эксперт
эксплуатации
экшык
эл
элвис
элеволко
элексан
элексеи
электрон
электронная
электронныи
электростанции
элекэҥер
элем
элембаи
элемент
элементы
элесола
элже
элина
элко
элла
эллан
элласе
эллаштат
эллаште
элмар
элна
элнан
элнет
элнетту
элнету
элпанур
элым
элымбаи
элын
элысе
элыш
элышке
элыште
элыштына
эльвира
эльтемерова
эльян
эм
эма
эмалтше
эман
эманова
эмансола
эмгак
эмгака
эмгакын
эмен
эмлызе
эмлызыже
эмлызылан
эмлымвер
эмлымверыште
эмлыме
эмма
эмыкан
эмяш
эн
энгельс
энер
энергетик
энергии
энермучаш
энсул
энциклопедии
энциклопедическии
энциклопедия
эпаи
эпак
эпарсе
эпос
эр
эра
эрак
эрвел
эрвелмарии
эрвелне
эрвелныже
эрвелыш
эрвелыште
эрвии
эрге
эргы
эргыж
эргыже
эргыжлан
эргыжым
эргыжын
эргым
эргын
эрден
эрдене
эре
эреак
эрекша
эрелан
эренгер
эреҥер
эрзяла
эрик
эритреи
эркын
эрла
эрлашыжым
эрнст
эрсексер
эрта
эртак
эртара
эртаралтеш
эртаралтше
эртаралтын
эртаралтыт
эртарат
эртараш
эртарен
эртареныт
эртарыме
эртарыше
эртат
эрташ
эрте
эртен
эртеныт
эртык
эртымгорно
эртымгорныжо
эртыме
эртымек
эртымеке
эртыш
эртышаш
эртыше
эрцикова
эрык
эрыкан
эрыканын
эрыкдыме
эрыктен
эрыкше
эрыкым
эрыкыш
эс
эсаи
эсансола
эсаулова
эсенеи
эскера
эскераш
эскерен
эскереныт
эскерыше
эсмекплак
эсменесола
эсогыл
эссе
эст
эстон
эстонии
эстонла
эстрада
эстраде
эстрадныи
эсымбаи
этап
этапе
этапы
этимологии
этимологические
этимологическии
этимология
этих
этническая
этнические
этническои
этнограф
этнографии
этнографические
этнографическии
этнографических
этнография
этнокультурныи
этнокультурных
этнолог
этнология
этносы
это
этого
этом
этот
этьваи
этюды
этюксола
эфесскии
эфиопии
эфирыш
эх
эчан
эчашэҥер
эчук
эш
эше
эшеат
эшимсола
эшкинин
эшпаи
эшпая
эшполдо
эштыныт
эшым
эҥгек
эҥгекым
эҥер
эҥервал
эҥервож
эҥери
эҥерла
эҥермучаш
эҥерсола
эҥерта
эҥертен
эҥерту
эҥертыш
эҥеру
эҥеръял
эҥерым
эҥерын
эҥерыш
эҥерыште
эҥыжсола
эҥыремышвот
ю
юадаров
юаньсер
юбаи
юбилеи
юбилею
юва
юванур
юванькино
югорно
югра
югу
юж
южгунам
южгунамже
южинскии
южное
южныи
южо
южын
южыш
южышт
южышто
юзо
юзыкаи
юкаменскии
юксерн
юл
юлавии
юледур
юлиан
юлии
юлисола
юлия
юлкыш
юлсер
юлъял
юлын
юлысо
юльял
юмбылак
юмо
юмон
юмор
юмористические
юмочка
юмоҥа
юмызо
юмыи
юмылан
юмым
юмын
юмыни
юнга
юнго
юнготы
юнеско
юникодше
юр
юргем
юрдур
юридические
юридическии
юрии
юрино
юринскии
юриспруденции
юрист
юристше
юрия
юркан
юркино
юрла
юръя
юрьев
юрьевец
юрьевич
юрьевна
юстиции
юсьва
ютазы
юшково
юшнарань
юшто
юшут
юшутскои
я
ябердина
ява
явала
явлении
явления
является
ягельдин
ягодко
ядарова
ядерныи
ядыкбеляк
ядыково
ядыкплак
ядырна
яз
язык
языка
языкам
языками
языках
языке
языки
языков
языковая
языковед
языковеда
языковедов
языкового
языковои
языковые
языковых
языкознание
языкознании
языкознания
языку
языческих
язьвин
як
якаева
якаи
якименки
якимов
якимова
якимово
якимовын
яклака
яков
яковлев
яковлева
яковлевич
яковлевна
якси
яксола
яктансола
якте
яктерлу
якут
якутии
якшар
якшарсир
якшур
якын
якынур
ял
ялагин
яларь
ялем
ялеш
ялзак
ялкаев
ялкаи
ялла
яллан
яллаш
яллашке
яллаште
ялмарии
ялнер
ялозанлык
ялозанлыкын
ялпаи
ялсовет
ялт
ялчык
ялым
ялын
ялысе
ялыш
ялышкыже
ялыште
ялыштыже
яльчик
ям
ямаи
ямал
ямаши
ямаҥгаш
ямбаи
ямбаршев
ямбатыр
ямбердов
ямд
ямде
ямдыла
ямдылалт
ямдылалташ
ямдылалтеш
ямдылалтмаш
ямдылалтме
ямдылалтын
ямдылалтыныт
ямдылат
ямдылаш
ямдылен
ямдыленыт
ямдылымаште
ямдылыме
ямдылыше
ямет
ямже
ямжым
ямисола
ямкаи
ямле
ямлыже
ямнурскии
ямурзино
ян
янагушево
янаев
янаевка
янаево
янаевын
яналов
янародо
янаул
янаульскии
янашбеляк
янв
январе
январь
январьыште
января
янгаи
янгансола
янгаул
янгельд
янгильдин
янгурцы
янгуш
янгысола
янда
яндак
яндаков
яндакова
яндар
яндарсер
яндекс
яндемерсола
яндемыр
яндукова
яндуксола
яндул
яндусола
яндуш
яндушево
яндыган
яндыганов
яндыганово
яндылет
янки
янлык
янлыкым
янлыкын
янтемир
янтиково
янциткино
янык
яныкаи
яныково
яныксола
яныш
япон
японии
японла
японскии
яр
яра
ярамарии
ярамор
яран
яранов
яранск
яранском
ярансола
яраҥ
яраҥмучаш
ярня
ярнян
ярняште
ярославль
ярча
ярыгино
ясер
ясныи
ятман
ятманов
ятыр
ятырак
ятырлан
ячеи
ячменя
яш
яшката
яшлык
яшмак
яшмет
яшнур
яштрексола
яштуга
яштуленки
яштыродо
яңы
яҥгранур
ђ
є
ѕ
і
іл
ін
інститут
інформаціи
історія
історіі
ј
љ
њ
ћ
џ
ѡ
ѣ
ѥ
ѧ
ѩ
ѫ
ѭ
ѯ
ѱ
ѳ
ѵ
ѹ
ѻ
ҁ
ҋ
ҍ
ҏ
ґ
ғ
ҕ
җ
ҙ
қ
ҝ
ҟ
ҡ
ң
ҥ
ҥал
ҥалат
ҥалаш
ҥале
ҥалеш
ҥалме
ҥалмеке
ҥалтыш
ҥалтышлан
ҥалтыште
ҥалтышыже
ҥалтышым
ҥалтышыште
ҥалше
ҥалын
ҥалыныт
ҥалыт
ҥальыч
ҥга
ҥгак
ҥгалтыш
ҥгеш
ҥгешла
ҥго
ҥгыжо
ҥгыр
ҥгысо
ҥгышто
ҥжо
ҥлык
ҥлыкын
ҥысо
ҧ
ҩ
ҫ
ҭ
ү
үи
ұ
ҳ
ҵ
ҷ
ҹ
һ
ҽ
ҿ
ӄ
ӆ
ӈ
ӊ
ӌ
ӎ
ӏ
ӕ
ә
ӡ
ө
ӷ
ӻ
ӽ
ӿ
ԁ
ԃ
ԅ
ԇ
ԉ
ԋ
ԍ
ԏ
ԑ
ԓ
ԕ
ԗ
ԙ
ԛ
ԝ
ԟ
ԡ
ԣ
ԥ
բաց
շտեմարան
տվյալների
ִ
ֵ
ֶ
ָ
ּ
ב
ת
ا
اوپن
ح
ر
فارم
ل
َ
ُ
ْ
ٓ
ٔ
ٕ
پلیٹ
ڈیٹا
ं
क
ण
थ
द
न
प
ब
म
र
ल
व
श
ष
ा
ि
ी
ु
े
ो
्
া
ં
દ
ા
க
ச
ட
ப
ய
ர
ல
ள
ழ
வ
ா
ி
ீ
ு
ூ
ே
ை
்
ಂ
ಬ
ರ
ು
ೂ
ೆ
ุ
་
མ
ོ
მონაცემები
პლატფორმა
ღია
᾿
​
‌
‎
‒
–
—
‘
’
‛
“
”
„
†
•
…
‬
‰
′
″
⁡
№
™
→
↔
↷
−
∘
∠
≈
③
④
⑦
─
►
◄
◊
⺀
⺄
⺆
⺈
⺊
⺌
⺕
⺝
⺸
⺼
⿰
⿱
⿲
⿳
⿴
⿵
⿶
⿷
⿸
⿹
⿺
⿻
《
》
〢
コ
ユ
㇁
㇂
㇄
㇇
㇈
㇉
㇓
㐁
㐄
㐅
㐌
㐫
㐬
㐭
㐮
㐱
㑒
㒵
㒸
㒼
㓁
㓞
㔾
㕛
㕣
㖾
㘝
㚅
㚇
㚔
㚘
㝉
㝡
㝴
㝵
㞋
㞢
㞷
㠩
㠭
㠯
㡀
㡭
㡿
㢲
㢴
㣇
㣺
㥯
㪅
㫄
㫐
㫒
㫺
㬅
㬎
㬥
㬰
㲋
㳄
㷠
㸒
㸚
㸦
㼌
㼲
㽞
㿟
䀠
䂞
䍃
䏍
䒑
䖍
䖒
䖝
䖵
䙴
䚻
䜌
䝿
䡛
䧹
䪞
一
丁
丂
七
丄
丅
丆
万
丈
三
上
下
丌
不
与
丏
丐
丑
专
且
丕
世
丘
丙
业
东
丞
丢
丣
两
严
並
丨
丩
个
丫
丬
中
丮
丰
丱
串
丵
丶
丷
丸
丹
为
主
丽
丿
乀
乂
乃
久
乆
乇
么
义
之
乌
乍
乎
乏
乐
乑
乔
乖
乗
乘
乙
乚
乛
乜
九
乞
也
习
乡
乳
乾
亀
亅
了
亇
予
争
事
二
亍
于
亏
亐
云
互
亓
五
井
亘
亚
亜
亞
亟
亠
亡
亢
交
亥
亦
产
亨
亩
享
京
亭
亮
亯
亰
亲
亳
亶
亷
人
亻
亼
亾
仁
今
介
仌
从
仐
仑
仒
仓
仕
他
付
仝
代
令
以
任
企
伊
伏
伐
休
会
伯
但
位
何
佘
余
作
佥
使
來
侈
侌
侖
侯
侵
便
保
俞
信
修
倉
倍
候
倠
備
僉
僕
儿
兀
允
兂
元
兄
充
兆
兇
先
光
兊
克
兌
免
兑
兒
兓
兔
党
兜
兟
入
全
兩
兪
八
公
六
兮
兰
共
关
兵
其
具
典
兹
兼
冀
冂
冃
冄
内
冈
冉
冊
冋
册
再
冎
冏
冐
冒
冓
冖
冗
冘
军
农
冝
冡
冥
冫
冬
冷
几
凡
凢
凵
凶
凷
凸
凹
出
函
凾
刀
刁
刂
刃
刄
刅
分
切
刊
刍
刑
刕
刖
列
刘
则
初
別
利
别
到
制
刺
則
削
剌
前
剡
剽
劉
力
功
加
劦
助
劫
劳
劵
勃
勇
勉
勒
動
務
勞
勤
勹
勺
勻
勾
勿
匀
匂
包
匆
匈
匊
匋
匍
匕
化
北
匚
匝
匡
匪
匱
匸
匹
区
医
匽
匿
區
十
卂
千
卄
卅
卆
升
午
卉
半
卌
华
卑
卒
卓
单
卖
南
卜
卝
卞
占
卡
卢
卣
卤
卦
卩
卪
卬
卯
印
危
即
却
卵
卷
卸
卻
厂
厃
厄
历
厈
厉
厌
厓
厘
厚
原
厤
厥
厨
厭
厲
厶
厷
厸
去
厼
厽
叀
参
參
叅
又
叉
及
友
双
反
叐
发
叒
叔
叕
取
受
叚
叜
叟
口
古
句
另
叩
只
召
可
台
叱
史
右
叵
号
司
叹
吂
各
吅
合
吉
吊
吋
同
名
后
吏
向
吕
君
吝
吞
否
含
启
吳
吴
吹
吾
呂
呆
呈
告
员
呙
周
命
咅
和
咎
咠
咢
咨
咸
咼
哀
品
哉
員
哥
哲
唐
商
啇
問
啚
啬
啻
善
喜
喬
單
喿
嗇
噩
嚴
囊
囗
囘
囙
囚
四
回
囟
因
囧
囬
困
囱
囷
固
国
圂
圅
國
圍
圓
土
圡
圣
圥
在
圭
地
圶
圼
坐
坒
坚
坴
垂
垔
垚
埀
埋
埶
執
基
堂
堅
堆
堇
堯
塞
墨
壘
士
壬
壯
声
壳
壴
壹
壺
壽
夂
处
夅
夆
备
夊
夋
夌
复
夏
夒
夕
外
夗
夘
多
夜
夢
大
夨
天
太
夫
夬
夭
央
失
夲
头
夷
夸
夹
夻
夾
奂
奄
奇
奈
奉
奎
奏
奐
契
奓
奔
奚
奞
奠
奢
奥
奭
女
奴
奻
好
如
妄
妙
妟
妥
妻
妾
姑
委
姜
威
娄
婁
婴
嬰
嬴
子
孑
孔
孕
孖
字
存
孚
孛
孝
孟
季
孤
学
孫
孱
學
宀
宁
宂
它
宅
宇
守
安
宋
完
宏
宓
宗
官
定
宛
宜
宝
客
宣
室
宮
宰
害
家
容
宾
宿
寄
寅
密
富
寒
察
寧
審
寫
寬
寮
寸
对
寺
寻
寽
対
寿
封
尃
射
将
將
專
尉
尊
尋
尌
對
小
少
尒
尓
尔
尖
尗
尚
尞
尢
尣
尤
尧
尨
尭
就
尸
尹
尺
尻
尼
尽
尾
尿
局
居
屈
屋
屎
屏
屑
展
屖
屚
属
屠
屡
屬
屮
屯
屰
山
屵
屾
岁
岂
岑
岡
岩
岳
岸
峯
島
崇
崑
崔
崖
崙
崩
嵬
嶲
巂
巛
川
州
巟
巠
巢
巤
工
左
巧
巨
巩
巫
差
己
已
巳
巴
巷
巸
巽
巾
巿
帀
市
布
希
帚
帛
帝
带
師
席
帶
常
干
平
年
幵
并
幷
幸
幺
幻
幼
幽
幾
广
広
庄
床
底
店
庚
府
度
庫
庭
庶
康
庸
廉
廌
廛
廣
廩
廴
延
廷
建
廾
廿
开
弁
弃
弄
弇
弋
式
弓
弔
引
弗
弘
弜
弟
弥
弦
弱
張
強
强
彊
彌
彎
彐
彑
当
彔
录
彖
彗
彡
形
彥
彦
彧
彭
彳
役
彼
往
待
律
徒
得
徙
從
復
微
徵
心
忄
必
忌
忍
志
忝
忠
忩
快
念
忽
忿
思
怠
急
怱
恆
恒
恩
恭
息
悉
患
悤
悲
悶
惠
惡
惢
愁
愈
意
愛
感
慈
慧
慮
憂
憲
應
戀
戈
戉
戊
戋
戌
戍
戎
成
我
戒
戔
或
戚
戠
戢
截
戲
戶
户
戹
戼
戾
房
所
扁
扇
手
扌
才
打
托
执
承
折
拉
拜
拿
掌
推
提
摩
支
攴
攵
收
攸
改
放
政
敄
敏
敕
敖
敗
教
敝
敞
敢
散
敦
敫
敬
数
敷
數
斂
文
斉
斊
斗
斤
斥
斩
斬
斯
新
方
於
施
斿
旁
旋
族
无
旡
既
旣
日
旦
旧
旨
早
旬
旱
旲
时
旾
昆
昇
昌
昍
明
昏
易
昔
昗
昜
星
春
昬
是
昱
昴
昷
時
晃
晋
晏
普
景
晶
智
暑
暴
曇
曩
曰
曲
曳
更
曷
書
曹
曼
曾
替
最
朁
會
月
有
朋
服
朔
朕
朗
望
朝
木
朩
未
末
本
札
朮
术
朱
朵
朶
朿
杀
杏
杜
束
条
来
東
杲
杳
松
析
林
枚
果
枝
枲
枼
某
柔
查
柬
柰
柴
栗
桀
桑
桼
梁
條
梟
梨
棘
棠
棥
森
楚
業
楽
榮
樂
樊
欠
次
欣
欮
欲
欶
欽
款
歆
歇
歛
止
正
此
步
武
歨
歪
歮
歯
歰
歲
歴
歷
歸
歹
歺
死
殳
段
殷
殸
殹
殺
殻
殿
毋
毌
母
每
毒
比
毕
毚
毛
毳
氏
氐
民
气
氣
水
氵
氶
氷
永
氺
氾
求
汝
汞
江
沃
沓
沙
沝
泉
法
波
泣
泥
泰
洛
洪
活
派
流
浦
浪
浮
海
淡
淮
清
渚
渠
湯
滿
漸
火
灬
灭
灰
灵
灷
炅
炎
炏
炗
炙
炭
為
烈
烏
烝
焉
無
焦
焱
然
煞
熊
熏
燕
營
燮
爪
爫
爭
爯
爰
爱
爲
爵
父
爻
爽
爾
爿
片
牙
牚
牛
牜
牟
牢
牧
牪
牽
犀
犬
犭
犮
狂
狄
狊
独
狺
猋
猒
猪
献
獻
玄
率
玉
王
玟
玨
珎
班
琴
瑟
瑩
瓜
瓦
甘
甚
生
産
用
甫
甬
田
由
甲
申
电
甶
男
甸
甹
画
甾
畀
界
畏
畐
留
畜
畟
畢
畧
畨
番
畫
異
畱
當
畺
畾
疊
疋
疌
疑
疒
疾
癶
癸
癹
登
發
白
百
皀
皃
的
皆
皇
皋
皐
皕
皮
皷
皿
盃
盆
盇
盈
益
盍
盎
监
盒
盖
盛
盡
監
盤
盧
目
直
相
盾
省
眇
眉
看
眔
眞
真
眷
眼
眾
着
睘
睪
睿
瞏
瞢
瞿
矍
矛
矞
矢
矣
知
矦
短
石
破
碎
磊
磨
示
礻
礼
祟
票
祭
禀
禁
禸
禹
禺
离
禽
禾
禿
秀
秃
秉
秋
科
秝
秦
移
稟
穀
穌
穴
究
穹
空
穿
突
窄
窒
立
竒
竜
竝
竟
章
童
竹
笑
笠
筆
等
答
箕
算
箴
節
篤
篭
米
粉
粛
粟
粤
粦
粲
糞
糸
糹
系
約
納
素
索
紫
累
細
絜
絫
絲
維
綿
縣
繇
纍
纟
经
缶
网
罒
罔
罕
罗
罙
罡
罢
罪
署
罷
羅
羊
羌
羍
美
羔
羕
羗
羞
羡
羣
群
義
羲
羸
羽
翁
翏
習
翕
翟
翠
翼
老
耂
考
者
耆
而
耎
耑
耒
耳
耴
耶
耷
聂
聊
聖
聚
聲
聶
聿
肀
肃
肅
肉
肖
肙
肥
肩
肯
育
肴
胃
背
胡
胥
能
脊
脩
膚
臣
臤
臧
自
臬
臭
臯
臱
至
致
臺
臼
臽
臾
臿
舀
舂
舄
與
興
舉
舌
舍
舛
舜
舞
舟
般
艮
良
色
艸
艹
艾
芒
芔
芬
芮
花
芳
芺
芻
苔
苗
苟
若
苦
英
茶
茸
荅
草
荒
荣
荼
莆
莧
莫
莽
菆
菊
菐
華
萬
落
葉
著
葛
董
葵
蒙
蒦
蒼
蓋
蓬
蓺
蔑
蔡
蕉
蕭
薄
薛
薦
薰
藍
藏
藥
蘭
虍
虎
虐
虒
虔
處
虖
虗
虘
虚
虛
虜
虞
虫
虽
蚤
蚩
蜀
蜜
蟲
蠡
血
行
衍
衛
衣
衤
表
衮
衰
袁
袞
褭
褱
襄
襾
西
覀
要
覃
見
規
覓
覧
親
覽
见
角
解
言
訁
訇
計
詹
語
誩
諸
讠
谷
豆
豈
豊
豐
豕
豖
豙
象
豦
豩
豪
豸
貇
貝
貞
貟
負
貢
貧
貪
貫
責
貳
貴
買
費
賁
資
賈
賏
賓
賔
賛
賞
賢
賣
質
賴
贊
贝
贡
责
贯
贲
贵
赖
赞
赤
赦
走
越
足
路
蹇
身
躬
車
軍
軎
軟
輦
车
辛
辜
辟
辥
辰
辱
農
辵
辶
边
达
过
近
连
迷
追
退
送
逆
逐
通
速
造
逢
連
逮
進
遀
遂
過
道
達
遣
適
遷
遺
邊
邑
邕
那
邦
邪
郎
部
郭
都
鄉
酉
酋
配
酓
釆
采
里
重
野
量
金
釒
錢
錯
钅
長
镸
长
門
閃
閉
開
閏
閑
閒
間
閔
閵
閻
闌
门
间
闷
阑
阜
阝
阿
降
陳
隆
隊
隋
隡
隨
隱
隶
隹
隺
隻
隼
隽
难
雀
雁
集
雈
雋
雍
雐
雔
雙
雚
雜
雝
離
難
雨
雩
雪
雲
零
雷
需
霍
霜
霝
霞
霸
靈
靑
青
靜
非
靡
面
靣
革
韋
韦
韭
韯
韱
音
頁
頃
項
須
頗
頡
頻
顛
页
風
风
飛
飞
食
飠
養
饣
首
香
馬
馮
駦
马
骨
高
髟
鬥
鬯
鬲
鬼
魚
魯
鮮
鱼
鲁
鳥
鳳
鸟
鹵
鹿
麃
麗
麥
麦
麻
黃
黄
黍
黎
黑
黒
黨
黹
黽
黾
鼎
鼓
鼠
鼻
齊
齋
齐
齒
齿
龍
龙
龜
龟
龠
龰
龱
龴
龵
龶
龷
龸
龹
ꙓ
ꙗ
ꙟ
ꞌ

者
艹
ﻯ
﻿
（
）
，
？
𠀁
𠀃
𠀆
𠀉
𠀎
𠀐
𠁁
𠁣
𠂆
𠂇
𠂈
𠂉
𠂊
𠂋
𠂎
𠂒
𠂔
𠂛
𠂡
𠂢
𠂤
𠂬
𠂭
𠂹
𠃊
𠃋
𠃌
𠃍
𠃎
𠃑
𠃓
𠃔
𠃜
𠄌
𠄎
𠄠
𠄢
𠆢
𠆥
𠇍
𠈌
𠌵
𠓜
𠔉
𠔥
𠔼
𠔽
𠔿
𠕀
𠕁
𠕋
𠘧
𠘨
𠙻
𠙼
𠚏
𠚒
𠚤
𠚪
𠣏
𠤎
𠤕
𠥓
𠦄
𠦑
𠦝
𠧒
𠧗
𠧪
𠩺
𠪚
𠫓
𠫔
𠫤
𠬛
𠬝
𠬞
𠬢
𠬤
𠬶
𠮛
𠮦
𠮷
𠯑
𠱠
𠳮
𠷎
𡈼
𡉀
𡉵
𡌥
𡍮
𡏳
𡕒
𡕩
𡕰
𡖅
𡗗
𡗜
𡘆
𡘤
𡧱
𡨄
𡩧
𡬠
𡭽
𡰣
𡰥
𡰪
𡰯
𡰱
𡷈
𡸁
𡿨
𡿩
𡿪
𡿺
𢀖
𢀛
𢀩
𢁙
𢆉
𢆰
𢆶
𢇁
𢇇
𢉖
𢌬
𢌿
𢏚
𢑑
𢑚
𢖻
𢙣
𢛳
𢦏
𢦒
𢧵
𢼄
𢾕
𣁋
𣄼
𣅀
𣅽
𣍘
𣎳
𣎵
𣏋
𣏼
𣗥
𣥂
𣥖
𣦵
𣦼
𣧄
𣪊
𣪠
𣬉
𣳾
𣶒
𤇾
𤊽
𤐫
𤓰
𤔔
𤕨
𤣩
𤰇
𤰔
𤰞
𤴓
𤴔
𤽄
𥁑
𥁕
𥃦
𥃩
𥃭
𥇡
𥑟
𥘅
𥘈
𥝢
𥫗
𥱡
𦈢
𦉪
𦉬
𦉼
𦍌
𦍒
𦎧
𦐇
𦓔
𦔮
𦘒
𦙃
𦚏
𦣝
𦣞
𦣻
𦥑
𦥔
𦥯
𦨉
𦭝
𦰩
𧆞
𧈧
𧘇
𧰨
𧴪
𧴮
𧵩
𧾷
𨸏
𨾴
𩙿
𩠐
𩫏
𩵋
𪉷
𪜀
𪟽
𪠲
𪩲
𫇦
𫔭
𫜸
𫝀
𫠣
𫠩
𫢉
𫥞
𫩏
𫩠
𫪡
𫲽
𫶧
𬀷
𬐘
𬗌
𬙙
𬛸
𬜯
𬟩
𬯁
𬴘
𬺻
𬼉
𬼖
𭀰
𭁈
𭁨
𭅰
𭑈
𭕄
𭗼
𭤨
𭥫
𭻾
𮅕
𮊿
𮍌
𮍏
𮓗
𮥼
𮧮
廾
𰀁
𰀄
𰀈
𰀉
𰀕
𰀠
𰀡
𰀢
𰀪
𰁜
𰃮
𰆊
𰆘
𰋙
𰕎
𰢴
𰧭
𰯲
02--
09--
a--
ab--
abbre--
ad--
al--
alex--
am--
ameri--
an--
ang--
ant--
arachn--
asc--
at--
au--
auranti--
austr--
b--
ba--
bar--
bas--
be--
bis--
bo--
br--
bro--
bu--
c--
ca--
cam--
cas--
cervi--
ch--
chr--
ci--
co--
col--
colo--
com--
con--
cor--
crassicau--
cris--
cy--
d--
da--
de--
dec--
di--
dis--
dor--
dre--
du--
dy--
e--
ed--
el--
er--
es--
ev--
ex--
f--
fa--
fi--
fl--
flo--
fo--
fu--
g--
ga--
gi--
go--
gr--
grac--
gram--
gre--
gu--
h--
ha--
he--
ho--
i--
in--
is--
it--
j--
ja--
jan--
ju--
k--
ka--
karja--
ke--
ki--
ko--
konfe--
ku--
l--
la--
le--
len--
li--
lo--
loc--
lu--
m--
ma--
mah--
mar--
mari--
mart--
me--
melo--
micran--
mil--
mo--
mon--
my--
n--
na--
nati--
ne--
ni--
ny--
o--
of--
or--
p--
pa--
pal--
pall--
par--
parvi--
parvu--
pe--
pen--
per--
perso--
phy--
pl--
ple--
po--
pol--
pro--
pulch--
pum--
pus--
r--
ra--
re--
rho--
ro--
ru--
s--
sa--
saar--
sal--
sch--
se--
ser--
seri--
sh--
sil--
sim--
so--
sp--
st--
ste--
str--
stu--
sty--
su--
suo--
sy--
symp--
t--
ta--
te--
term--
th--
to--
tr--
tu--
u--
ugri--
ugris--
un--
unc--
uni--
ur--
v--
va--
vam--
ve--
vest--
vi--
vla--
w--
wel--
wi--
x--
xx--
y--
ye--
z--
ło--
α--
δ--
θ--
ν--
π--
τ--
а--
аб--
ава--
авал--
авра--
авто--
ага--
агра--
агро--
ад--
адап--
адри--
аза--
ак--
ака--
акт--
актив--
ал--
ала--
алга--
аль--
ам--
амер--
ан--
ана--
аналитиче--
анд--
ани--
анти--
антр--
ап--
ар--
арал--
аранж--
арге--
аре--
арестова--
ариф--
артю--
ару--
ас--
ат--
ата--
ау--
ах--
ача--
аш--
аҥ--
б--
ба--
бал--
бар--
бас--
бах--
бе--
без--
бер--
би--
библи--
библиоте--
бирю--
бла--
бо--
боб--
бог--
бое--
болот--
больше--
бом--
бор--
боч--
брош--
бу--
буд--
будущ--
бул--
булы--
бур--
буш--
бы--
в--
ва--
важ--
вал--
вален--
ваню--
вар--
вас--
василь--
ваты--
вач--
ваш--
вашли--
вве--
ве--
вел--
вер--
вес--
весы--
ветлуж--
веч--
веще--
взаимо--
ви--
видео--
виз--
вик--
виктар--
виль--
вин--
вис--
вияш--
вияҥ--
вл--
вне--
вни--
во--
вод--
водох--
воен--
воз--
возга--
возник--
возы--
вок--
вол--
волгы--
воло--
волшеб--
вон--
вончештары--
вораҥ--
воск--
воспитат--
восточ--
вот--
времен--
вс--
все--
втор--
ву--
вуз--
вы--
выдающ--
выс--
высо--
выступа--
вят--
ві--
г--
га--
гал--
ганти--
гар--
ге--
геог--
ги--
гидр--
гипер--
гл--
глав--
глоб--
го--
гол--
гор--
горь--
гос--
государ--
гра--
гри--
гу--
губер--
губерн--
гуз--
гур--
д--
да--
дар--
дв--
де--
дек--
демоб--
демократиче--
депар--
дер--
дет--
дея--
дже--
дзю--
ди--
диагно--
дис--
дк--
дні--
до--
доб--
дож--
дол--
долж--
должно--
дон--
допол--
дореволюц--
др--
драм--
древ--
друж--
ду--
духов--
дш--
ды--
дыж--
дыр--
дьяк--
дэ--
е--
евро--
егор--
еди--
единстве--
ел--
елабуж--
еле--
елее--
ель--
ем--
еме--
ен--
ер--
еран--
еру--
ефр--
еш--
еҥ--
ж--
жа--
жаво--
жап--
жвал--
же--
желез--
железно--
желон--
жен--
жи--
жм--
жо--
з--
за--
заболот--
завод--
завуч--
заг--
заимство--
зал--
замет--
замеча--
заоч--
зап--
запа--
защ--
зве--
зву--
зем--
зер--
зим--
зна--
зо--
зри--
зу--
зы--
и--
ив--
иван--
иг--
иги--
игылт--
из--
извест--
изд--
издан--
изем--
изи--
изоля--
ик--
икты--
икшы--
ил--
ила--
или--
илтар--
иль--
им--
ин--
инди--
индо--
иностр--
инспекто--
инструк--
инте--
интер--
интерф--
ио--
ипа--
ир--
иран--
ис--
иса--
исм--
исследо--
ит--
иули--
ихти--
иш--
к--
ка--
каб--
каж--
кажны--
каз--
кал--
калас--
кале--
каль--
кам--
камер--
кан--
кап--
капел--
кар--
карт--
кас--
кат--
кач--
каш--
ке--
кел--
келшы--
келыш--
кель--
керт--
ки--
кид--
киев--
кино--
кич--
кл--
кла--
клю--
кн--
книга--
кня--
ко--
ков--
когар--
когы--
код--
кож--
коз--
кок--
кол--
количе--
ком--
комму--
компо--
кон--
коно--
контр--
кор--
коро--
коч--
кочы--
кра--
крас--
красно--
кре--
кредал--
крес--
крестьян--
крещ--
кри--
кро--
круп--
кры--
крым--
ку--
кубе--
куге--
кугы--
куз--
кук--
кум--
кур--
курж--
куржта--
курм--
куроч--
курш--
курым--
кус--
кусар--
куч--
куча--
куш--
кш--
кшы--
кы--
кыл--
кыш--
л--
ла--
лав--
лал--
лап--
лат--
лаштык--
ле--
леж--
лез--
лек--
лексиче--
лем--
лес--
ли--
либрет--
лингво--
лингвостилистиче--
лит--
лишем--
ло--
лон--
лоу--
лта--
лу--
лук--
лукте--
лум--
лумгеч--
луч--
лы--
лывыр--
лык--
лымаш--
лыплан--
ль--
лю--
ля--
м--
ма--
маг--
маз--
мак--
мало--
ман--
мар--
мари--
мас--
мат--
маф--
маҥ--
ме--
мед--
меж--
мель--
мельнич--
мер--
мес--
мест--
место--
меч--
мж--
ми--
мике--
микро--
мини--
мир--
мировозз--
мис--
митри--
мифологиче--
мих--
мно--
много--
множе--
мо--
моб--
мод--
мода--
моисее--
моктем--
молгу--
молда--
мони--
моно--
морфологиче--
мошты--
му--
мульт--
мунча--
муны--
мур--
мут--
мутву--
муч--
мы--
мыр--
мыш--
мэр--
н--
на--
наг--
награ--
наз--
наза--
назем--
накл--
нал--
нан--
напра--
нар--
нас--
нат--
нац--
началь--
нг--
не--
неж--
неза--
неи--
некра--
нем--
немар--
необхо--
неопреде--
нер--
нешта--
ни--
нидер--
ниж--
ниже--
но--
ново--
номер--
ноутб--
ну--
ны--
ныл--
о--
об--
обес--
обл--
обоз--
обор--
обрабатыват--
обслуживат--
обсуж--
общ--
обще--
объеди--
од--
одеж--
одес--
одо--
ож--
оза--
ок--
ока--
ол--
ола--
олин--
олык--
оль--
ом--
омак--
он--
онч--
оны--
оп--
опер--
опонь--
опреде--
ор--
орал--
орат--
орни--
орфоэ--
ос--
оси--
основ--
особен--
от--
отечестве--
отк--
откры--
отрица--
охо--
оч--
оча--
ош--
оҥ--
п--
па--
пага--
пагыт--
пал--
палдар--
пам--
пан--
пар--
парт--
пас--
паша--
пе--
пев--
пед--
пек--
пекту--
пел--
пер--
пере--
пермс--
пет--
петыр--
пех--
печ--
пи--
пиж--
пижы--
пик--
пинже--
письме--
письмен--
пити--
плот--
по--
повество--
погын--
под--
подвиж--
подзем--
поз--
покты--
пол--
полисеман--
политиче--
полу--
пом--
помыжал--
понда--
порт--
поста--
поч--
пошку--
поэтиче--
поя--
пр--
пра--
прави--
пре--
пред--
представи--
преж--
при--
приз--
прилага--
присоеди--
про--
прог--
проду--
произ--
пропа--
прус--
псих--
пу--
пуа--
пудыр--
пуж--
пукш--
пул--
пур--
путеше--
пуш--
пушт--
пуште--
пы--
пыжы--
пыр--
пышты--
пя--
пяти--
р--
ра--
раб--
радио--
раз--
рап--
рас--
раста--
расц--
рат--
раш--
рве--
рг--
ргы--
рды--
ре--
реабилитироват--
рев--
ред--
редуциро--
рез--
резер--
резу--
рек--
религиоз--
рем--
рес--
рет--
рефе--
реч--
ри--
рим--
риф--
рк--
рл--
рла--
рлы--
ро--
род--
рос--
рт--
ру--
руж--
руко--
рус--
рш--
ршты--
ры--
рын--
рі--
с--
са--
савыр--
саем--
салам--
сам--
само--
санда--
сар--
сату--
сб--
сва--
свадеб--
све--
свобод--
свя--
священ--
се--
север--
седь--
сек--
сель--
сем--
семанти--
семантиче--
сеню--
сер--
серыш--
сеҥ--
си--
сиду--
сидуш--
сик--
силь--
сим--
син--
синтаксиче--
ск--
ска--
ско--
сл--
сла--
слав--
сле--
след--
следо--
слово--
сложно--
слу--
служ--
службы--
служит--
см--
сна--
сне--
со--
соб--
сов--
совершен--
совет--
согл--
согласо--
соз--
соли--
соматиче--
сомыл--
соответ--
сопостави--
сопро--
сос--
сотем--
сох--
сп--
специ--
спи--
списк--
спо--
сравни--
сред--
средне--
ст--
ста--
старо--
стем--
стилистиче--
стр--
су--
суап--
сук--
сумм--
суще--
сфе--
сх--
сцен--
сы--
сымыс--
сын--
сю--
т--
та--
тавал--
так--
тал--
там--
тан--
танас--
танык--
тап--
тар--
тарат--
тарван--
тау--
таш--
таҥ--
таҥас--
твор--
творче--
те--
теле--
тем--
тематиче--
теоретиче--
тер--
территори--
техниче--
ти--
типологиче--
титак--
тишты--
то--
товар--
ток--
тол--
том--
тоншае--
топ--
тор--
точ--
тошка--
тр--
тра--
траги--
традицион--
транс--
требо--
три--
тру--
ту--
тул--
тулу--
тун--
тунык--
туня--
тур--
турбо--
тургыжлан--
туш--
ты--
тыл--
тылан--
тыр--
тыш--
тю--
тюль--
тюрк--
тюрь--
у--
уг--
угор--
уда--
удар--
уезд--
уж--
ужал--
уз--
ук--
уке--
ул--
умыл--
умылы--
ун--
уни--
употреб--
ур--
ура--
ураль--
ус--
успе--
уст--
ут--
утар--
уфим--
уч--
участ--
уш--
уша--
уэм--
ф--
фа--
фаб--
фе--
фила--
филиал--
фин--
финно--
фир--
фок--
фонетиче--
фонологиче--
фор--
фот--
фото--
фр--
фразе--
фразеологиче--
фри--
функц--
х--
ха--
хер--
хи--
химиче--
хин--
хо--
хок--
хол--
хор--
хільчевсь--
ц--
ца--
царе--
цат--
це--
цель--
цен--
ценност--
цер--
цивили--
цы--
ч--
ча--
чак--
чап--
чаплан--
чар--
час--
чат--
че--
чек--
человече--
чен--
чер--
чере--
черлан--
черно--
чи--
чик--
чин--
числитель--
чия--
чо--
чон--
чоныш--
чот--
чоҥ--
чоҥалт--
чоҥеш--
чоҥешты--
чу--
чы--
чык--
чыкем--
чын--
чыт--
чытыр--
чытырналт--
ш--
ша--
шалан--
шам--
шан--
шап--
шар--
шарны--
шах--
шаш--
ше--
шев--
шекла--
шел--
шен--
ши--
шиж--
шим--
шинч--
шинча--
шк--
шка--
шке--
шо--
шок--
шол--
шор--
шот--
шоч--
шочык--
шоҥ--
шт--
шты--
шу--
шуа--
шуду--
шукем--
шукты--
шул--
шуп--
шупша--
шупшалалт--
шупшы--
шур--
шы--
шыл--
шын--
шынды--
шыр--
шыҥ--
щ--
ы--
ык--
ыл--
ылыж--
ым--
ын--
ып--
ыр--
ыт--
ыш--
ышт--
ышталт--
ыштык--
ыҥ--
э--
эк--
экви--
эки--
экономиче--
экс--
экспер--
эл--
элек--
электр--
электриче--
электро--
элык--
эм--
эмоц--
эн--
энер--
эпи--
эпиче--
эпо--
эр--
эрзян--
эрта--
эртым--
эс--
эске--
эстетиче--
эстра--
эт--
этниче--
этно--
этнокуль--
эффектив--
эш--
ю--
юар--
юбил--
юж--
южы--
юксар--
юл--
юмористиче--
юн--
юно--
юр--
я--
языче--
як--
ял--
ям--
ян--
янгу--
яр--
яс--
яш--
яшмол--
і--
ҥ--
ҥал--
ҥгыш--
--0
--056
--1
--2
--3
--33
--4
--44
--5
--6
--7
--8
--9
--a
--acea
--ad
--ae
--al
--ana
--ar
--aris
--ary
--as
--ata
--ation
--atum
--b
--bs
--c
--ca
--ce
--cea
--ces
--che
--ck
--co
--d
--do
--dy
--e
--ea
--ed
--el
--en
--ens
--ense
--ensis
--ent
--er
--eri
--ers
--es
--eum
--ey
--f
--ff
--g
--ge
--gs
--gus
--gy
--h
--ht
--i
--ia
--ial
--iana
--ic
--ica
--ics
--id
--idae
--iella
--ii
--ik
--il
--ilus
--in
--ina
--inae
--ing
--io
--ion
--ir
--is
--ium
--iz
--k
--ka
--ke
--l
--la
--le
--les
--li
--lia
--lis
--ll
--lla
--lo
--ls
--lum
--m
--me
--mi
--mics
--mir
--mo
--n
--na
--nce
--nd
--nen
--ng
--nia
--nica
--nii
--ns
--nsis
--nt
--ny
--nz
--o
--ol
--on
--or
--ora
--orum
--os
--p
--q
--r
--ra
--ral
--re
--res
--ri
--ria
--ris
--rk
--rn
--rs
--rt
--ry
--s
--sa
--schen
--se
--sh
--si
--sis
--st
--sum
--t
--ta
--te
--ti
--tion
--tl
--tor
--ts
--tum
--ture
--tus
--u
--ue
--ulata
--um
--urce
--us
--ut
--v
--va
--ve
--x
--xt
--y
--yi
--z
--zi
--ν
--ς
--а
--ав
--ад
--ада
--аев
--аево
--аж
--аи
--ак
--аков
--ал
--алка
--алт
--алтеш
--алтме
--алтын
--алтыт
--алын
--ам
--ами
--ан
--ангер
--анер
--анного
--анов
--аново
--ант
--анур
--аны
--ап
--ар
--арен
--ари
--арии
--аров
--арок
--ас
--аси
--ат
--ательная
--атор
--аф
--ах
--ации
--ация
--ачи
--аш
--аште
--ашыже
--ашым
--ая
--аҥше
--б
--ба
--баев
--баева
--баево
--бал
--би
--бина
--бл
--бль
--бо
--бы
--бье
--в
--ва
--ват
--вая
--ве
--вед
--вин
--вке
--вл
--вла
--во
--вож
--возыш
--вои
--вр
--вского
--вскои
--ву
--вуи
--вые
--вым
--вых
--г
--га
--ге
--ген
--гер
--ги
--гии
--гин
--гия
--го
--гокласе
--гр
--град
--граф
--гышо
--д
--да
--де
--ден
--деш
--джер
--ди
--дии
--дикт
--дин
--дино
--дир
--дия
--дка
--до
--ду
--ды
--дыде
--дык
--дым
--дыме
--дымо
--дысе
--дыш
--дь
--е
--еб
--ев
--ева
--евленности
--евна
--ево
--еден
--еев
--еево
--еже
--еи
--ек
--еке
--ел
--елла
--ель
--ем
--емеш
--емын
--ен
--ене
--енер
--ение
--ении
--ению
--ения
--енки
--ент
--ентии
--енции
--енция
--еныт
--ер
--ерь
--ет
--ется
--етым
--еф
--ец
--еч
--еш
--ея
--еҥ
--ж
--жа
--жат
--же
--жи
--жо
--жы
--жылан
--жым
--жын
--з
--за
--зан
--зации
--зация
--зе
--зеф
--зи
--зино
--зис
--зм
--зо
--зыже
--зым
--зын
--зь
--зя
--и
--иа
--иал
--иан
--иат
--ив
--иге
--ида
--ие
--ием
--из
--изации
--изация
--изм
--измов
--измы
--ии
--ик
--ика
--ике
--ики
--иков
--икс
--икым
--ил
--им
--имов
--имы
--имыи
--ин
--ина
--инг
--ине
--иненки
--инер
--инка
--ино
--инов
--инои
--инск
--ины
--инын
--ио
--ип
--ир
--ирования
--ис
--ист
--истов
--ись
--ит
--ители
--итон
--ить
--их
--ица
--ице
--ич
--ическая
--ические
--ическии
--ических
--ическое
--ическои
--ичи
--ию
--ия
--иях
--к
--ка
--каи
--кат
--ке
--кеева
--кет
--ки
--кие
--кии
--кин
--кино
--ких
--ко
--ков
--ково
--кои
--кр
--кс
--кш
--кше
--кыж
--кыже
--кыжо
--кым
--кын
--кысе
--л
--ла
--лаже
--лам
--лан
--ланен
--ласе
--лаш
--лашке
--лаште
--ле
--леи
--лен
--ления
--леш
--ли
--лин
--лина
--лне
--ло
--лов
--лт
--лта
--лтат
--лте
--лтен
--лтеш
--лтмаш
--лтме
--лтше
--лтыме
--лтын
--лтыныт
--лтыт
--лу
--лше
--лы
--лызын
--лык
--лыкше
--лыкым
--лыме
--лын
--ль
--льная
--льно
--льного
--льное
--ля
--м
--ма
--ман
--маш
--маште
--мбал
--мда
--ме
--мен
--меш
--ми
--мо
--мов
--му
--мы
--мым
--мын
--мыт
--мычаш
--мышт
--мье
--н
--на
--нам
--нан
--ная
--нг
--нгвизм
--нд
--не
--нев
--него
--нее
--нен
--нер
--нец
--ни
--ние
--нии
--ник
--никше
--нин
--ния
--нка
--нко
--нн
--нна
--нная
--нно
--нного
--ннои
--нности
--нность
--нныи
--нных
--но
--нов
--ного
--ное
--нои
--ном
--ному
--ностеи
--ности
--ность
--нск
--нскии
--нт
--ну
--нур
--ную
--ны
--ные
--ныже
--ныи
--ным
--ными
--нырак
--ныт
--ных
--ныш
--ныше
--нь
--ню
--ня
--няя
--о
--ов
--ова
--овая
--овед
--оведение
--ович
--овка
--овки
--овко
--овна
--ово
--овое
--овои
--овы
--овые
--овыи
--ог
--огии
--огия
--ого
--од
--ое
--оев
--оз
--ои
--ок
--олит
--олог
--ологии
--ологические
--ологическии
--ологическои
--ология
--оль
--ом
--ому
--он
--оне
--опасность
--ор
--оржо
--ота
--очка
--п
--пал
--пе
--пин
--пп
--пу
--р
--ра
--рак
--рд
--ре
--рев
--рем
--рже
--ри
--рии
--рн
--ро
--ров
--рт
--ру
--ры
--рыме
--рымылан
--рь
--рю
--ря
--с
--са
--се
--сеев
--си
--сии
--сир
--ск
--ская
--ские
--скии
--ских
--ско
--ского
--ское
--скои
--ском
--со
--сола
--сс
--ст
--ства
--ствыжын
--ствым
--ствыште
--стеи
--сти
--стов
--сть
--сы
--сыр
--сь
--ся
--т
--та
--таев
--так
--тан
--тат
--таш
--те
--тен
--тес
--тет
--теш
--ти
--тив
--тии
--тик
--тика
--тике
--тин
--тина
--тия
--тки
--тме
--тно
--тного
--тнои
--то
--тов
--тово
--том
--тор
--тся
--ту
--тур
--тше
--тшо
--ты
--тыже
--тыжо
--тым
--тымаш
--тыме
--тына
--тыш
--тышт
--ть
--тье
--тья
--тя
--у
--уальность
--уар
--уз
--уи
--укция
--ул
--улята
--ун
--ур
--ус
--ут
--учаш
--уш
--уэ
--ую
--ф
--фи
--фия
--х
--ха
--хов
--хум
--ц
--ца
--це
--цев
--ци
--ции
--ционло
--ционные
--ционных
--ция
--цк
--цкии
--цов
--цы
--цын
--ч
--ча
--че
--чев
--ческая
--ческои
--чи
--чик
--чка
--чке
--чник
--чно
--чь
--ш
--ша
--шат
--шаш
--ше
--шев
--шке
--шки
--шко
--шкыже
--шлан
--шо
--шт
--шта
--штат
--ште
--што
--штыже
--штыжо
--штым
--шу
--шы
--шыжо
--шылан
--шым
--шын
--шь
--щ
--ща
--ще
--щение
--щик
--ъеҥ
--ъя
--ъял
--ъялы
--ъяр
--ы
--ыде
--ые
--ыж
--ыжат
--ыже
--ыжлан
--ыжо
--ыжым
--ыз
--ыза
--ыи
--ык
--ыкта
--ыкташ
--ыл
--ыла
--ылан
--ылаш
--ылаште
--ылшо
--ылык
--ылын
--ым
--ыман
--ымат
--ымаш
--ымаште
--ыме
--ымо
--ымше
--ымшо
--ымылан
--ымым
--ын
--ыныт
--ыр
--ыра
--ысе
--ысо
--ыт
--ых
--ыч
--ыш
--ыше
--ышке
--ышо
--ышт
--ыштат
--ыште
--ышто
--ыштыже
--ыштым
--ыштышт
--ышылан
--ь
--ьбе
--ьбы
--ьга
--ье
--ьев
--ьевна
--ьево
--ьи
--ька
--ьная
--ьно
--ьного
--ьное
--ьнои
--ьные
--ьныи
--ьных
--ьск
--ьскии
--ьского
--ьшо
--ьым
--ьыч
--ья
--ьял
--ьян
--ьянов
--э
--эль
--ю
--юк
--юмал
--ют
--юта
--ющии
--я
--як
--ял
--ян
--янов
--яр
--ят
--ята
--ях
--і
--ҥ
--ҥдаш
--ҥер
