!
"
#
##0
##1
##10
##11
##12
##13
##14
##15
##16
##17
##18
##19
##2
##20
##21
##22
##23
##24
##25
##26
##27
##28
##29
##3
##30
##31
##32
##33
##34
##35
##36
##37
##38
##39
##4
##40
##41
##42
##43
##44
##45
##46
##47
##48
##49
##5
##50
##51
##52
##53
##54
##55
##56
##57
##58
##59
##6
##60
##61
##62
##63
##64
##65
##66
##67
##68
##69
##7
##70
##71
##72
##73
##74
##75
##76
##77
##78
##79
##8
##80
##81
##82
##83
##84
##85
##86
##87
##88
##89
##9
##90
##91
##92
##93
##94
##95
##96
##97
##98
##99
$
%
&
'
(
)
*
+
,
-
.
/
0
00
000
00001
00012
000291
000392
000942
001
0014
002
0021
003
004
005
0061
0062700553
007
0071422803
0080429882
01
013
0136120512
0195082095
019850229
02
0230573398
03
031322983
0393333647
04
0415263549
0415285569
0470146842
0471205036
0471303097
05
0521189748
0521347483
0521669928
0521820486
06
0684805332
0691008000
0691152071
07
0791095126
08
0815752199
081602619
0816044732
0816071365
0821419161
09
092917
1
10
100
1000
1001
1002
1006
1007
101
1016
1017
102
1021
1023
103
1035
1036
1038
104
1042
1046
105
1050
1052
1056
106
1066
107
1073
1074
108
1080
1086
109
1093
1097
1098
11
110
1100
1101
11020286
111
1111
1118
111848813
1119
112
1124
1126
1128
113
1130
1136
114
1146
115
1159
116
117
11749573
118
1180
1186
119
12
120
1200
1204
121
1210
1219
122
1220
123
124
12477932
125
1250
126
127
128
1280
1282
1285
129
13
130
1300
1301
131
132
133
1330
134
1346
135
1350
135469
136
1365
137
1371
138
1380
1389
139
1390
139241
14
140
1400
1403962588
1409
141
142
1420
143
1430
144
1440
145
1450
1453
146
1460
1463
147
1470
1471
148
1480
1488
149
1490
1492
1493
15
150
1500
1503
151
1512
1516
1517
152
1520
1521
1523
1525
1526
1527
1528
153
1530
1536
1537
154
1540
1542
155
1550
1553
1557
156
1560
1566
157
1570
1572
1573
1574
1579583377
158
1580
1582
159
16
160
1600
1603
1608
161
1610
162
1620
163
1630
164
1640
1642
1648
165
1650
166
1660
1667
167
168
1680
1683
1687
1688
1689
16899
169
1690
1697
1699
17
170
1700
1701
1707
171
1711
1713
1714
1715
1716
1717
1718
172
1720
1723
173
1730
1735
1736
1737
1739
174
1740
1741
1743
1744
1745
1746
1747
1748
1749
175
1750
1751
1752
1754
1755
175553
1756
1757
1758
1759
176
1760
1762
1763
1764
1765
1766
1767
1768
1769
177
1770
1772
1773
1774
1775
1776
1777
1778
1779
178
1780
1781
1782
1783
1784
1785
1786
1787
1788
1789
179
1790
1791
1792
1793
1794
1795
1796
1797
1798
1799
18
180
1800
1801
1802
1803
1804
18048412
1805
1806
1807
1808
1809
181
1810
1811
1812
1813
1814
1815
1816
1817
1818
1819
182
1820
1821
1822
1823
1824
1825
1826
1827
1828
1829
183
1830
1831
1832
1833
1834
1835
1836
1837
1838
1839
184
1840
1841
1842
1843
1844
1845
1846
1847
1848
1849
185
1850
1851
1852
1852337520
1853
1854
1855
1856
1857
1858
1859
186
1860
1861
1862
1863
1864
1865
1866
1867
1868
1869
187
1870
1871
1872
1873
1874
1875
1876
1877
1878
1879
188
1880
1881
1882
1883
1884
1884964311
1885
1886
1887
1888
1889
189
1890
1891
1892
1893
1894
1895
1896
1897
1898
1899
19
190
1900
1901
1902
1903
1904
1905
1906
1907
1908
1909
191
1910
1911
1912
1913
1914
1915
1916
1917
1918
1919
192
1920
1921
1922
1923
1924
1925
1926
1927
1928
1929
193
1930
1931
1932
1933
1934
1935
1936
1937
1938
1939
194
1940
1941
1942
1943
1944
1945
1946
1947
1948
1949
195
1950
1951
1952
1953
1954
1955
1956
1957
1958
1959
196
1960
1961
1962
1963
1964
1965
1966
1967
1968
1969
197
1970
1971
1972
1973
1974
1975
1976
1977
1978
1979
198
1980
1981
1982
1983
1984
1985
1986
1987
1988
1989
199
1990
1991
1992
1993
1994
1995
1996
1997
1998
1999
2
20
200
2000
200004
2001
2002
2003
2004
2005
2006
2007
2008
2009
201
2010
2011
2012
2013
2014
2015
20150620
2016
2017
2018
2019
202
2020
2021
2022
203
20331846
204
205
206
207
208
209
20970519
21
210
21059682
211
212
213
214
215
216
217
218
219
21948594
22
220
221
222
223
2238889
224
225
226
227
228
229
23
230
2305
2307
231
232
233
234
235
236
237
238
239
24
240
2400
241
242
242603899
243
244
245
246
247
248
249
25
250
2500
251
252
253
254
255
256
257
258
259
26
260
261
2616
262
263
264
265
266
267
268
269
27
270
271
272
273
274
275
276
277
278
279
28
280
281
282
283
284
285
286
287
288
289
29
290
291
292
293
294
2946
295
296
297
298
299
3
30
300
3000
301
3013709
302
303
304
305
306
307
3075095206
308
309
31
310
311
312
313
314
315
316
317
318
319
32
320
321
322
323
324
325
326
327
328
329
33
330
331
332
333
334
335
336
337
338
339
34
340
341
3411062525
342
343
344
345
346
347
348
349
35
350
351
352
352651
353
354
3540681353
355
356
357
358
359
36
360
361
362
363
364
365
366
367
368
36836
369
37
370
371
3714
3717
372
373
374
375
376
3762
377
3772
378
379
38
380
381
382
383
384
385
386
387
388
3885570963
389
39
390
391
392
393
394
395
396
397
398
399
4
40
400
4000
401
402
403
404
405
406
407
408
409
41
410
411
412
413
414
415
416
417
418
419
42
420
421
422
423
424
425
426
427
428
429
43
430
431
432
433
434
435
436
437
438
439
44
440
441
442
443
444
445
446
447
448
449
45
450
451
452
453
454
455
456
457
458
459
46
460
461
462
463
464
465
466
467
468
469
47
470
471
472
473
474
475
476
477
478
479
48
480
481
482
483
484
485
486
487
488
489
49
490
491
492
493
494
495
496
497
498
499
5
50
500
5000
501
502
503
5036
504
505
506
507
508
509
51
510
511
511228
512
513
514
515
516
517
518
519
52
520
521
522
523
524
525
526
527
528
529
53
530
531
532
533
534
535
536
537
538
539
54
540
541
542
543
544
545
546
547
548
549
55
550
551
552
553
554
555
556
557
558
559
56
560
561
562
563
564
565
566
567
568
569
57
570
571
572
573
574
575
576
577
578
579
58
580
581
582
583
584
585
586
587
588
589
59
590
591
592
593
594
595
596
597
598
599
6
60
600
6000
601
602
603
604
605
606
607
608
609
61
610
611
612
613
614
615
616
617
618
619
62
620
621
622
623
624
625
626
627
628
629
63
630
631
632
633
634
635
636
637
638
639
64
640
641
642
643
644
645
646
647
648
649
65
650
651
652
653
654
655
656
657
658
659
66
660
661
662
663
664
665
666
667
668
669
67
670
671
672
673
674
675
676
677
679
68
680
681
683
684
685
686
687
6879
688
689
69
690
691
694
695
696
697
698
699
7
70
700
701
703
704
705
706
707
708
709
71
710
711
712
713
714
715
717
718
719
72
720
72091
721
722
724
725
726
727
728
729
73
730
731
732
733
735
737
738
739
74
740
741
742
743
744
745
747
748
749
75
750
751
752
753
754
755
756
757
759
76
760
763
765
767
768
77
770
774
775
776
777
778
779
78
780
781
7817
785
786
787
789
79
790
791
8
80
800
8000
801
802
805
806
807
809
81
810
8108
811
812
813
814
815
8153
817
82
820
821
824
825
827
83
830
833
836
839
84
840
842
843
84433
8489488
85
850
850346
852
86
860
862
864
86673
867
869
87
870
87237
873
875
8764176
877
879
88
880
885
886
887
888
89
890
893
895
9
90
900
901
903
905
907
91
910
911
912
917
92
920
923
924
925
9258
927
93
930
933
933346
94
940
945
95
950
953
958
96
960
961
963
965
967
968
969
97
970
976
977
978
9780521872386
9789004244870
98
980
980230
981
984
985
988
99
991
994
995
9958
997
999
:
;
<
=
>
?
@
[
\
]
^
_
`
a
aa
aaron
ab
aba
abac
abajo
abalj
abas
abasolo
abc
abd
abdul
abdulah
abe
abi
ablon
about
abraham
abridgment
abruzzo
abstract
abu
ac
aca
acad
academic
academy
acala
acapetahua
acapulco
acatepec
acatla
acayucan
access
accessed
accipitridae
account
ace
acetat
acetil
acetiltransferaza
aci
acid
acids
acil
act
acta
action
actions
activated
activation
active
activities
activity
actopan
actor
actress
acute
ad
ada
adam
adama
adams
adaptacija
adaptacije
adaptaciju
adaptiran
adatok
aden
adenin
adenosine
adenozil
adi
adige
adija
adije
adijska
adijske
adijski
adler
administracija
administracije
administraciji
administration
administrative
administrativna
administrativne
administrativni
administrativno
administrativnog
admiral
adolf
adolfo
adp
adrenergic
adrian
adult
advanced
advances
adventure
adventures
advokat
adz
ae
aerodinamic
aerodrom
aerodroma
aerodromi
aerodromu
af
afel
afera
affairs
afganistana
afganistanu
afi
afinitet
afric
africa
african
africi
afrika
afrike
afriku
afroameric
after
ag
aga
again
against
age
agencija
agencije
agency
agent
agenta
agenti
agents
ages
agonist
agresivan
ags
agua
aguacate
aguaje
aguascalientes
aguililla
agusti
ah
aha
ahmad
ahmed
ahome
ahovski
ahu
ai
aid
aids
aiken
ain
air
aircraft
aires
airlines
airport
ais
aj
aja
ajan
aje
ajem
ajen
ajena
ajene
ajeni
ajeno
ajeva
ajeve
ajevi
ajevima
ajfelkrajs
aji
ajima
ajka
ajkas
ajna
ajne
ajni
ajnic
ajnih
ajnija
ajnije
ajniji
ajnijih
ajnim
ajno
ajnog
ajnoj
ajnom
ajnost
ajns
ajnu
ajova
ajski
aju
ajuc
ak
aka
akademija
akademije
akademiji
akademiju
akademik
akademski
akane
akceptor
akcija
akcijama
akcije
akciji
akcijski
akciju
ake
aki
ako
akom
akovec
aks
akt
aktivan
aktivira
aktivist
aktivista
aktivna
aktivne
aktivni
aktivnih
aktivno
aktivnog
aktivnost
aktivnosti
aktivnostima
aku
akustic
akutni
akuzativ
akvitanija
al
ala
alabama
aladin
alain
alamos
alan
alana
alanin
alar
alarco
alaska
alat
alata
alb
alba
albanaca
albanci
albancima
albania
albanian
albanija
albanije
albaniji
albaniju
albanska
albanske
albanski
albanskih
albanskog
albanskom
albedo
albert
alberta
alberto
album
albuma
albumom
albumu
aldama
ale
alec
alegre
aleksa
aleksandar
aleksander
aleksandra
aleksandrije
aleksandriji
aleksandrijski
aleksandrov
alema
alen
alessandria
alessandro
alex
alexander
alexandra
alexandre
alfa
alfonso
alfred
alfreda
alfredo
alge
algoritam
ali
alibunar
alic
alica
alice
alija
alije
aliti
alj
aljaska
alje
alju
alkohol
alkohola
alkoholic
all
alla
allan
allen
allende
allmovie
allmovieu
allmusic
allrovi
alma
almoloya
alo
alogp
alos
alost
alpa
alpe
alpha
alpi
als
also
alt
alta
altamira
altamirano
alternativa
alternative
alternativni
alternativno
alto
alu
alvarado
alz
alzas
am
ama
amac
aman
amata
amatenango
amaterski
amatla
amazon
amazonas
ambalaz
ambasador
ambasadora
ame
americ
america
american
americi
amerika
amerikanaca
amerikanci
amerike
ameriku
ami
amija
amije
amiju
amiller
amin
amino
aminokiselina
aminokiseline
aminotransferaza
amir
amo
amoles
among
amonijak
amor
amore
amour
amp
ampanj
ampion
ampiona
ampliacio
amra
amran
amsterdam
amy
an
ana
anac
anafilaktic
anali
analitic
analiza
analize
analizi
analizu
analysis
anarhistic
anas
anatidae
anatomija
anatomy
anc
ancient
ancona
and
anda
anderson
andre
andrea
andreas
andrei
andrej
andrejevic
andrew
andrews
andric
andrija
andromeda
andy
ane
aner
ang
angaz
angel
angela
angeles
angelesu
angelo
angels
anglo
angola
angostura
anhalt
ani
anic
anica
anice
anih
anik
anika
anim
anima
animal
anime
animea
animirani
anin
anina
anita
anj
anja
anje
anjem
anjima
anju
anka
ankin
ann
anna
annales
annals
anne
annie
anno
annual
ano
anog
anoj
anom
anost
anosti
another
anovic
anr
anra
anru
ans
ansambl
anse
anska
anske
anski
anskih
anskim
ansko
anskog
anskoj
anskom
ansku
anstava
anstva
anstven
anstvo
anstvu
ant
antagonist
antagonists
antarktic
ante
anthony
anti
antibiotika
antic
antici
antifas
antigen
antike
antikomunistic
antioh
antiohije
antitela
anto
antoine
antologija
anton
antonija
antonije
antonio
antun
antuna
anu
any
anz
anđela
anđeli
anđelic
anđelka
anđeo
ao
aorista
aorte
aosta
ap
apac
aparat
aparata
apaseo
apatin
apatina
apatzinga
apel
aplikacija
aplikacije
aplja
apljja
apokaliptic
apollo
apolodor
apostol
apostola
apple
application
applications
approach
apr
april
aprila
aprilu
apsolutna
apsolutno
apsolutnu
apulija
aqueous
aquila
aquismo
ar
ara
arab
arabije
arac
arad
aradac
aragona
arak
aramberri
aran
arana
arandas
arant
aranz
aranđelovo
arap
arapa
arapi
arapska
arapske
arapski
arapskih
arapskim
arapsko
arapskog
arapskom
arati
arbitraz
arc
arch
archaeological
archaeology
architecture
archive
archived
archives
ard
ardagh
arden
ardeni
are
area
areas
arem
aren
arena
arenal
areni
arenje
arev
arevac
arevic
arezzo
arg
argentina
argentine
argentini
argentinski
arges
argument
arh
arhaic
arheolog
arheolos
arheolozi
arhiepiskop
arhijerejski
arhipelag
arhipelaga
arhitekata
arhitekt
arhitekta
arhitektonski
arhitektura
arhitekture
arhitekturi
arhitekturu
arhiv
arhiva
arhivirano
ari
aric
arica
arija
arima
ario
aris
aristotel
ariti
aritmetic
arizona
arizpe
arka
arkansas
arkanzas
arkas
arke
arkham
arko
arktic
arm
armenije
armenski
armiero
armija
armije
armiji
armijske
armiju
arms
armstrong
army
arnold
arom
aromatic
around
arriaga
arriba
arroyo
ars
arsen
arsenal
arsenije
arsenijevic
arska
arske
arski
arskih
arskim
arsko
arskog
arskom
arstvo
arstvom
arstvu
art
arte
arteaga
arterija
arterije
arthur
arthura
article
articles
artiljerije
artist
artists
arts
artur
aru
arz
arđes
as
asa
asan
ascoli
aseptic
ash
asia
asian
asimetric
asirije
asirski
asistent
asna
asni
asnic
asnik
asnika
asocijacija
asocijacije
asopis
asopisa
asopisima
asopisu
asova
asp
aspects
aspekt
aspekte
aspx
assembly
assessment
associated
association
ast
asta
astan
aste
asteroid
asteroida
asteroidi
asteroidni
asteroidnog
asteroidu
asti
astim
asto
astog
aston
astronom
astronomija
astronomije
astronomska
astronomski
astronomskih
astronomy
astrophoto
asuncio
at
ata
atanasije
atar
atc
ate
atena
atene
ateni
atenski
atentat
atentata
ati
atic
atina
atine
atini
atipic
atlantic
atlantika
atlantski
atlas
atletic
atmosfera
atmosfere
atmosferi
atmosferu
atom
atoma
atomi
atomske
atomski
atotonilco
atoyac
atp
atrakcija
atrinci
attack
atzalan
au
auct
audio
auf
auflage
aug
august
augusta
augustu
aurora
aus
austin
australia
australian
australija
australije
australiji
australijski
australiju
australski
austria
austrija
austrijanci
austrije
austriji
austrijska
austrijske
austrijski
austrijskih
austrijsko
austrijskog
austrijskom
austriju
austro
austrougarske
autentic
author
autistic
auto
automatic
automatski
automobil
automobila
autonomas
autonomije
autonomiju
autonomna
autonomne
autoput
autor
autora
autori
autorima
autoritet
autoriteta
aux
av
ava
avac
available
avaju
avajuc
avala
avale
avali
avalo
avama
avan
avana
avani
avanja
avanje
avanjem
avanju
avanture
avao
avati
ave
avellino
avery
aves
avgust
avgusta
avgustu
avi
avijacije
avijatic
avina
avio
avion
aviona
avione
avioni
avionima
avionom
avionu
avka
avlja
avljanstvo
avn
avna
avne
avni
avnih
avnik
avnim
avno
avnog
avnoj
avnom
avnu
avo
avom
avost
avs
avu
award
awards
away
ax
ayala
ayutla
az
azerbajdz
azerbejdz
azija
azije
aziji
azijski
aziju
azot
azueta
azul
b
ba
baba
babic
babus
baby
bac
baca
bacac
bach
bacio
baciti
back
bacterial
bacteriol
bad
baden
badiraguato
bafta
bagdad
bahi
baida
bailey
baja
baji
bajkonur
bajs
baka
bakar
bakau
baker
bakic
bakra
bakterija
bakterije
bal
bala
balada
balanca
bale
balet
balistic
balkan
balkana
balkans
balkanski
balkanskih
balkanskog
balkanu
ball
balleza
bals
baltic
baltimore
bama
ban
bana
banat
banata
banatska
banatski
banatsko
banatu
banco
band
banda
bande
banderas
bandi
bang
banglades
bani
banije
banja
banjaluc
banje
banjoj
bank
banka
banke
banovine
banskobistric
banu
bar
bara
baranja
baranje
baranji
baranjski
barbara
barc
barcelona
bardac
bare
barem
bari
barnes
baroka
baron
barranca
barrett
barrio
barrios
barry
bars
barska
barski
bartolo
baru
bas
base
baseball
based
basic
basilicata
basis
basketball
baskijski
bat
bata
batajnica
bataljon
bataljona
baterija
baterije
bati
batic
batman
batmana
batopilas
battle
bauer
bautista
bavanis
bavarska
bavarske
bavarski
bave
bavi
bavila
bavili
bavio
baviti
bay
bayda
bayt
baz
baza
baze
bazen
bazena
bazi
bazic
bazilika
bazilike
bazira
baziran
bazirano
bazu
bb
bbc
bc
bd
bdp
be
beach
bear
beat
beauty
beba
bec
bechstein
beck
becker
bedema
been
beezley
before
beg
bega
begec
begin
begovic
behavior
behind
bei
being
bejzbol
bel
bela
bele
belegis
beles
belez
belgija
belgije
belgiji
belgijski
belgium
belgrade
beli
belic
belis
bell
bella
belle
bellis
belluno
belo
beloe
belog
beloglavi
belom
ben
bena
benc
bend
benda
bendu
bene
benedikt
benes
benevento
beni
benic
benici
benih
benik
benika
benike
benim
benin
benito
benjamin
bennett
beno
benog
benoj
benom
benson
bento
benu
benz
beograd
beograda
beogradska
beogradske
beogradski
beogradskog
beogradskoj
beogradskom
beogradu
ber
berberski
berenikina
berg
bergamo
berger
berghahn
bergman
berislav
berkeley
berlin
berlina
berlinski
berlinskog
berlinskom
berlinu
bernard
bernardo
bernhart
berrioza
berry
bertrand
bes
besan
beskic
beskonac
beskuc
besplatna
besplatni
besplatno
bespomoc
best
beta
betona
better
betty
between
beverly
beyond
bez
bezbednosti
bezboz
bezbriz
bezdan
bezgranic
bezlic
beznac
bezobziran
bezoc
bezuspjes
bf
bg
bh
bi
bibcode
bible
biblija
biblije
bibliji
biblijski
bibliografija
bibliographisches
bibliography
biblioteci
biblioteka
biblioteke
biblioteku
bic
bici
biciklistic
biella
biewer
big
bih
bihac
bihor
bijaya
bije
bijeg
bijega
bijela
bijele
bijeli
bijelih
bijelim
bijelo
bijelog
bijelom
bijes
bik
bil
bila
bile
bilec
bili
bilic
bilja
biljaka
biljana
bilje
biljes
biljez
biljka
biljkama
biljke
biljni
biljnih
bill
billboard
billy
bilo
bilos
bin
bina
binding
bine
bini
bio
bioactivity
biochem
biochemical
biochemistry
biochim
biogeografiju
biografija
biografije
biografski
biographical
biography
biol
biological
biologija
biologije
biology
biolos
biophys
biosynthesis
bira
birac
biraju
biran
bird
birds
biro
birth
bis
bishop
biskup
biskupa
biskupi
biskupija
biskupije
bismo
biste
bistrica
bistrit
bit
bitaka
bitan
bitburg
bitci
biti
bitka
bitkama
bitke
bitki
bitku
bitna
bitno
biva
bivaju
bivs
bizant
bizanta
bizantske
bizantski
bizantsko
bizantskog
bjelanc
bjeloglavi
bjelos
bjelovar
bjelovarsko
bjez
bl
bla
black
blackwell
blag
blaga
blagdan
blago
blagorjec
blake
blanca
blancas
blanco
blas
blataric
blato
blaz
ble
bli
blic
blind
bliska
bliske
bliski
blisko
bliskog
bliskoistoc
bliskom
bliz
blizak
blizine
blizini
blizu
blog
blok
bloka
blokova
blood
blu
blue
blues
bmatrix
bo
board
bob
boban
bobby
bobic
boc
boca
bocoyna
bod
boda
bodova
body
boeing
bog
boga
bogat
bogata
bogatas
bogate
bogati
bogatih
bogatim
bogato
bogatog
bogatstva
bogatstvo
bogatu
bogdan
bogdanovic
boginja
boginje
bogom
bogorodice
bogos
bogosluz
bogova
bogovi
bogovima
bogu
boie
bois
boj
boja
bojama
bojan
bojanic
boje
boji
bojis
bojna
bojni
bojom
boju
bok
boka
boksac
bol
bola
bolan
boldsymbol
bolec
boles
bolesnik
bolesnika
bolest
bolestan
bolesti
bolestima
boli
bolja
bolje
boljevci
bolji
boljs
bolju
bolnic
bolnica
bolnice
bolnici
bolnicu
bologna
bolton
bolzano
bom
bomba
bombardiranja
bombardovanja
bombardovanje
bombas
bombe
bombi
bon
bonaparte
bond
bondu
bone
bonfil
bonita
bonn
book
books
bor
bora
borac
boraca
boravak
boravi
boravio
boravis
boravka
borba
borbama
borbe
borbena
borbene
borbeni
borbenih
borbi
borbom
borbu
borca
borci
borcima
bore
borgo
bori
borila
borilac
borili
borio
boris
borisa
borislav
boriti
born
borough
bors
bos
bosanska
bosanske
bosanski
bosanskih
bosansko
bosanskog
bosanskohercegovac
bosanskoj
bosanskom
bosco
bosna
bosne
bosni
bosnia
bosnu
bosque
boston
bosut
bot
botanic
both
botos
box
boy
boyer
boys
boz
bođani
br
bra
brac
brad
bradavic
bradley
brain
brak
braka
braku
brana
brand
branden
brandenburg
brane
brani
branic
branimir
branio
branislav
branislava
branitelja
braniti
branka
branko
brankovic
bras
brasil
brat
brata
bratislava
bratom
bratstva
bratstvo
bratu
braun
braunschweig
bravo
brazil
brazila
brazilske
brazilski
brazilu
brc
brda
brdima
brdo
brdski
brdu
bre
break
breg
bregunica
brem
bres
brescia
brestovac
brez
bri
brian
bridge
brief
brien
briga
brigada
brigade
brige
brigu
brijac
brill
brine
brinuti
bris
brisson
bristol
britain
britanaca
britanci
britanija
britanije
britaniji
britaniju
britannica
britanska
britanske
britanski
britanskih
britanskim
britansko
britanskog
britanskoj
britanskom
britansku
british
briz
brkic
bro
broadcasting
broadway
broadwayu
brod
broda
brodogradilis
brodom
brodova
brodove
brodovi
brodovima
brodski
brodsko
brodu
broj
broja
brojc
brojem
brojeva
brojeve
brojevi
brojevima
broji
brojna
brojne
brojni
brojnih
brojnim
broju
broken
bronc
brookings
brooklyn
brooks
bros
brother
brothers
brown
broz
broza
bru
bruce
bruno
brus
brusina
bryan
bryant
brz
brza
brze
brzi
brzim
brzina
brzinama
brzine
brzini
brzinom
brzinu
brzo
brzog
bs
bu
buba
bubanj
bubnjar
bubnjevi
bubrega
bubrez
buc
buck
buda
budapest
bude
budi
budim
budimir
budimpes
budistic
budizam
budizma
budu
buduc
budz
buena
buenavista
buenos
buffalo
bug
bugara
bugari
bugarska
bugarske
bugarski
bugarskog
bugarskoj
bugarskom
bugarsku
building
bukac
bukan
bukoc
bukovac
bukovca
bukures
bulevar
buljina
bull
bulletin
bun
buna
bunar
bune
bunjevac
bura
bure
bureau
burgonja
burgundije
burke
burns
burton
burz
bus
bush
business
but
buta
butler
buz
buza
buzau
buđanovci
bwsq
bwv
by
byrne
byzantine
byzantium
c
ca
cabada
cabo
caborca
cabos
cadereyta
caesar
cafe
cagliari
cajeme
calabria
calculation
calendar
calera
california
call
calvo
camargo
cambodia
cambridge
cameo
cameron
camino
camp
campaign
campania
campbell
campeche
campo
campobasso
can
canada
canadian
canal
cancer
candelaria
cannes
cao
cape
capital
captain
capuli
car
cara
carbon
care
carem
careva
carevi
caric
carica
carice
carichi
carigrad
carigrada
carigradski
carigradu
carl
carla
carlo
carlos
carmen
carol
carolina
caroline
carpenter
carranza
carrara
carrillo
carringtondynasty
carrizal
carroll
carska
carske
carski
carskog
carskoj
carskom
carsku
carstva
carstvo
carstvom
carstvu
carter
caru
casa
casas
cascina
case
caserta
cash
cast
castan
castello
castillo
castle
castro
cat
catala
catalogue
catalogues
catalytic
catania
catanzaro
catarina
catazaja
catemaco
catherine
catholic
cati
cb
cbs
cc
cca
cd
cdc
cdna
cdot
cds
cdxci
ce
cecilia
ceiba
cel
cela
celaya
cele
celine
celini
cell
cells
celo
celog
celoj
celom
celu
cena
cene
ceni
census
censuses
centar
centara
center
centimetara
centra
central
centrala
centralna
centralne
centralni
centralno
centralnog
centralnoj
centralnom
centralnu
centre
centri
centrima
centro
centrom
centru
centuries
century
cenu
ceo
ceremonija
ceremonije
cermanovic
cerrito
cerritos
cerro
cesena
cesta
ceste
cesti
cestom
cestu
cetinje
cev
cevi
cezar
cezara
cf
cg
ch
cha
chain
chalchicuautla
chamberlain
chambers
champoto
chamula
chan
chang
change
changes
channel
channels
chapelle
chaplin
chapman
chapter
characterization
charcas
charco
charlene
charles
charlesa
charlie
charlotte
chart
charts
chase
che
chelsea
chem
chembl
chemical
cheminform
chemistry
chemists
chen
cheng
cher
chester
chi
chiapa
chiapas
chicago
chicagu
chico
chicomuselo
chicontepec
chief
chiesa
chieti
chignahuapan
chihuahua
chilapa
chilchotla
child
children
chile
chilo
china
chinese
chinicuila
cho
choapas
choice
choir
choix
chris
christ
christian
christie
christine
christmas
christopher
chromosome
chronic
chronicle
chronology
chu
chuck
church
churchill
ci
cia
ciceron
cie
ciganski
cija
cijela
cijele
cijeli
cijelo
cijelog
cijeloj
cijelom
cijelosti
cijelu
cijena
cijene
cijenu
cijev
cijevi
ciklic
ciklus
ciklusa
ciklusu
cikus
cilindric
cilj
cilja
ciljem
ciljeva
ciljeve
ciljevi
cilju
cima
cinco
cine
cinema
cinic
cink
cintalapa
cio
cionistic
cip
circle
cis
cit
cite
cities
citira
citiranja
city
citypopulationde
ciudad
civil
civila
civilizacija
civilizacije
civilization
civilne
civilnog
cjelina
cjeline
cjelini
cjelinu
cjelovec
ck
cl
claire
clara
clarendon
clark
clarke
class
classic
classical
classics
classification
claude
claudia
clayden
clayton
cle
cleveland
climate
clin
clinical
clinton
clogp
cloning
close
club
cluj
clusters
clyde
cm
cnn
co
coa
coahuayutla
coahuila
coalcoma
coast
coatepec
cobiss
cochoapa
code
coenzyme
cohen
cola
cold
cole
coli
colima
colin
colle
collection
college
collins
colo
colonia
color
colorada
colorado
colt
columbia
com
comalapa
come
comedy
comes
comics
coming
comisia
comita
commentary
commission
committee
commodore
common
commons
commun
communes
communications
community
como
comondu
comonfort
companion
company
comparative
comparison
complete
complex
compostela
compounds
comprehensive
comput
computational
computer
comune
con
conan
concepcio
concise
concordia
condita
conference
conflict
congress
connecticut
connor
conquest
conrad
conservation
constant
constitution
containing
contemporary
content
contrada
contributions
control
conversion
cook
cooper
copa
copeland
coppa
copy
cornell
corona
corporation
corpus
corral
corrected
corte
corwin
corzo
cos
cosenza
costa
cotaxtla
could
council
counties
countries
country
counts
county
coupled
course
court
cover
cox
coyote
coyuca
cp
cpan
cr
craig
crane
crawford
crc
cre
creation
creek
cremona
crepaja
cretaceous
creva
crijeva
crime
crimes
cris
crisis
cristo
criterion
critical
critics
crkava
crkva
crkvama
crkve
crkvena
crkvene
crkveni
crkvenih
crkvenim
crkveno
crkvenog
crkvenom
crkvi
crkvom
crkvu
crn
crna
crnac
crnaca
crnc
crne
crni
crnih
crnim
crnja
crno
crnog
crnoglava
crnogorac
crnogorci
crnogorcima
crnogorska
crnogorske
crnogorski
crnogorsko
crnogorskog
crnoj
crnojevic
crnom
crnu
croatia
croatian
croce
cross
crta
crtac
crte
crtez
crucero
cruces
cruz
crvena
crvene
crveni
crvenih
crvenim
crveno
crvenog
crvenoj
crvenom
crvenu
cry
crystal
cs
csi
cska
csornai
ct
cu
cuaro
cuatro
cuauhte
cuautitla
cuba
cuesta
cuetzalan
cueva
culiaca
cultural
culture
cum
cuna
cuneo
cup
curation
curr
current
curtis
curva
cusio
cut
cve
cvec
cvet
cvetkovic
cvijec
cvijet
cvijic
cvrc
cx
cycle
cz
d
da
dac
dah
daily
daj
daje
daju
dajuc
dak
dakle
dakota
dala
dale
daleko
dalekosez
dali
dalje
dalji
daljnje
daljnji
dallas
dalmacija
dalmacije
dalmaciji
dalmaciju
dalmatinska
dalmatinske
dalmatinski
dalmatinskoj
dalo
dam
dama
dame
damir
damjan
dan
dana
danak
danas
dance
dane
dani
danica
daniel
daniela
danijel
danilo
danima
danny
danog
danom
dans
danska
danske
danski
danskoj
dante
danu
dao
dar
dara
darez
darija
darije
dario
dark
darko
darwin
das
dat
data
database
date
dates
dati
datira
datiraju
dativ
dato
datoteka
datum
datuma
davali
davanje
davao
davati
dave
david
davida
davidson
davies
davis
davno
davor
davorin
dawn
dawson
day
days
daz
db
dc
dd
de
dea
dead
deal
dean
death
debate
debeo
debi
debitantski
debitirao
debljina
debljine
dec
deca
dece
decembar
december
decembra
decembru
decenija
decenijama
decenije
deci
decu
deda
dee
deeds
deep
defense
definicija
definicije
definiciji
definiciju
definira
definiran
definirana
definis
definition
definitivno
degli
dehidrogenaza
dehydrogenase
dei
dejan
dejstva
dejstvo
dejstvom
dejvid
dekan
deklaracija
deklinacija
dekret
dekretom
del
dela
delatnost
delatnosti
dele
delegacija
delegata
delhi
deli
deliblato
delicias
delima
delimic
delisle
dell
della
delle
delo
delom
delova
delovanja
delovanje
delove
delovi
delovima
delta
delu
deluje
deluju
dem
demir
demo
democracy
democratic
demographic
demokracije
demokratije
demokratska
demokratske
demokratski
demokratskog
demokratsku
demokrs
demon
demonstracija
demonstracije
den
deni
denis
dennis
dent
deo
departman
departmana
departmani
departmanu
department
dependent
depes
depresija
depresije
der
deran
derby
derek
derivat
deronje
dervis
des
description
desert
deset
desetak
desetina
desetine
desetljec
desetogodis
design
desilo
desio
deska
deske
desna
desne
desni
desnic
desno
desnog
desnoj
desnom
desnu
despot
despota
despotovic
despotovo
destinacija
det
details
detalja
detaljan
detalje
detalji
detaljima
detaljno
detao
dete
detective
detektiv
detektiva
deteta
detlic
detroit
deutsch
deutsche
deutschen
deutschland
deva
deve
devedesetih
development
devet
deveti
devil
devojac
devojc
devojka
devojke
devojku
dez
dezoksi
di
diabetes
diagnosis
diamond
diana
diane
dic
dick
dictionary
did
didaktic
die
diego
dies
dieter
dietmar
dietrich
different
difosfat
digao
digimon
digital
digitalna
digitalni
dija
dijagnostic
dijagnoza
dijalekatski
dijalekatskih
dijalekt
dijalekta
dijalektic
dijalektolos
dijalog
dijaloga
dijela
dijele
dijeli
dijelom
dijelova
dijelove
dijelovi
dijelovima
dijelu
dijete
diktator
diktature
dila
dili
diljem
dim
dimas
dimenzija
dimenzije
dimitrija
dimitrije
dimitrijevic
dimnjac
din
dina
dinama
dinamic
dinamiku
dinamo
dinara
dinastic
dinastija
dinastije
dinastiji
dinastijom
dinastiju
dine
dinic
dino
dinosaur
dinosaura
dinosaurs
dinu
dio
dioksid
dioksida
dion
dionic
dionica
dios
diplomat
diplomata
diplomatic
diplomatske
diplomatski
diplomirala
diplomirao
diplomski
diplomskog
direct
director
directory
direktan
direktna
direktni
direktno
direktor
direktora
dirigent
dis
disanja
disanje
disciplina
discipline
discogs
discov
discovery
discussion
disease
diseases
disertacije
disk
diska
diskografija
diskriminacije
disney
disorders
displaystyle
distribucije
distribuciju
distribuiran
distribution
district
distrikt
distrikta
distrito
diti
div
diva
divan
division
divizija
divizije
diviziju
divje
divlja
divljac
divlje
divlji
divljih
divovski
diz
dizajn
dizajna
dizajner
dizajniran
dizajnirao
dj
dje
djec
djeca
djece
djeci
djecom
djecu
djed
djela
djelatnost
djelatnosti
djelima
djelimic
djelo
djelom
djelomic
djelovala
djelovanja
djelovanje
djelovanjem
djelovanju
djelovao
djelovati
djelu
djeluje
djeluju
djetao
djeteta
djetinjstva
djetinjstvo
djetinjstvu
djetlic
djevic
djevica
djevice
djevojac
djevojc
djevojka
djevojke
djevojku
djoumbou
dk
dl
dlake
dm
dna
dne
dnevne
dnevni
dnevnik
dnevnika
dnevno
dni
dnk
dno
dnu
do
dob
doba
dobar
dobara
dobi
dobija
dobijaju
dobijanje
dobije
dobiju
dobila
dobile
dobili
dobilo
dobio
dobiti
dobitnik
dobiva
dobivaju
dobivanje
doblado
doboj
dobos
dobra
dobre
dobri
dobric
dobrica
dobrih
dobrim
dobro
dobroc
dobrodos
dobrodus
dobrog
dobrom
dobrovoljac
dobrovoljaca
dobrovoljno
dobru
dobu
doc
doctor
documentary
documents
dodaje
dodajte
dodaju
dodao
dodatak
dodati
dodatim
dodatna
dodatne
dodatni
dodatnih
dodatno
dodatnu
dodavanjem
dodeljena
dodeljuje
dodijeljen
dodijeljena
dodir
dodjela
dodjeljuje
dodus
does
dog
događa
događaj
događaja
događaje
događaji
događajima
događaju
događanja
dogodila
dogodilo
dogodio
dogoditi
dogovor
dogovora
dogovoru
doi
doista
dojam
dojke
dok
dokaz
dokaza
dokazan
dokazano
dokazao
dokazati
dokaze
dokazi
dokazuje
dokic
dokolic
dokrajc
doktor
doktora
doktorat
doktorirao
doktorske
doktrina
doktrine
dokumenata
dokument
dokumenta
dokumentarni
dokumente
dokumenti
dokumentima
dokumentiran
dokumentu
dol
dolac
dolara
dolaska
dolaskom
dolasku
dolazak
dolaze
dolazi
dolazili
dolazilo
dolazio
dole
dolenjskoj
dolic
dolina
dolinama
doline
dolini
dolinom
dolinu
dolj
dolje
dolores
dolovo
dolz
dom
doma
domac
domain
domas
dombrovski
domen
domena
domenico
domenu
domet
domi
dominacije
dominaciju
dominantan
dominantna
domingo
domini
dominik
dominique
dominira
dominiraju
domis
domorodac
domova
domovine
domovini
domovinskog
domovinu
domu
don
dona
donald
donau
done
donekle
donela
doneo
donese
donesen
donesena
dong
donijela
donijeli
donijelo
donijeti
donio
donja
donje
donjeg
donjem
donji
donjoj
donjoposavskoj
donju
donna
donos
donose
donosi
door
dopamine
doprinos
doprinose
doprinosi
dopunite
dopuniti
dopunjeno
dopus
dora
dorado
dorastao
doris
dornbusch
dorothy
dos
dosad
dosadas
doselili
doseljenici
doseljenika
dosez
dosl
doslovno
dospio
dosta
dostigao
dostignuc
dostiz
dostupan
dostupna
dostupne
dostupni
dostupno
dotad
dotada
dotadas
dotic
dotle
double
douglas
dous
dovac
dovede
doveden
dovela
dovele
doveli
dovelo
doveo
dover
dovesti
dovode
dovodi
dovoljan
dovoljna
dovoljno
dovrs
down
download
doyle
doz
doza
doze
dozvole
dozvolio
dozvoljava
dozvoljen
dozvoljeno
dozvolu
dođe
dođu
dr
dra
drac
drag
draga
dragan
dragana
dragi
dragic
dragin
dragis
drago
dragoljub
dragon
dragoslav
dragutin
drama
dramatic
drame
drami
dramska
dramske
dramski
dramskih
dramskog
dramu
dras
drastic
drave
draz
dre
dream
dreams
drec
dres
drevna
drevne
drevni
drevnih
drevnog
drevnom
drez
drine
drive
drnis
dro
droga
droge
dronj
droz
drozak
drozd
drozdelj
drozdovac
drozg
drs
dru
drudis
drug
druga
drugac
drugamo
drugbank
drugdje
druge
drugi
drugih
drugim
drugima
drugo
drugog
drugoga
drugoj
drugom
drugs
drugu
drukc
drus
druz
drva
drvar
drvec
drvena
drvene
drveni
drvenih
drvenim
drveta
drvo
drz
drzak
ds
dss
dt
dto
du
dubina
dubine
dubini
dubinu
dublin
dublje
dubok
duboke
duboki
duboko
dubokog
dubrava
dubravko
dubrovac
dubrovc
dubrovnik
dubrovnika
dubrovniku
duc
due
duet
dug
duga
dugac
duge
dugi
dugih
dugim
dugo
dugog
dugogodis
dugom
dugometraz
dugorepa
dugoroc
dugu
duh
duha
duhova
duhovne
duhovni
duhovno
duhu
duke
dulce
duljina
duljine
dunav
dunava
dunavu
duncan
dur
durango
durazno
during
durmitora
duru
dus
dusl
duz
dva
dvadeset
dvadesetak
dvadesetog
dvaju
dvanaest
dvaput
dvd
dve
dvije
dviju
dvo
dvogled
dvogodis
dvoje
dvojezic
dvojica
dvojice
dvojicu
dvolic
dvor
dvora
dvorac
dvorana
dvoranama
dvorane
dvorani
dvoranu
dvorca
dvorcu
dvoris
dvorski
dvoru
dvostruka
dvostruki
dvostruko
dwelling
dx
dynasty
dz
dzs
e
ea
eagle
earl
earliest
early
earth
east
eastern
ebert
ec
eci
ecima
ecology
economic
economics
economy
ed
eda
edan
eddie
edgar
edge
edin
edinburgh
edison
edit
edited
edith
edition
editions
editor
edmund
edo
edol
eds
edu
eduard
eduardo
education
edvard
edward
edwarda
edwards
edwin
eesti
ef
efa
efekat
efekata
efekt
efekta
efekte
efekti
effect
effects
efikasan
efikasno
efikasnost
eg
ega
egeja
egipat
egipatska
egipatske
egipatski
egipatskog
egipc
egipta
egiptu
ego
egodis
egrad
egypt
egzilu
egzotic
ehoslovac
ei
ein
eine
einstein
eisner
ej
eja
ejezic
ejido
ejms
ek
eka
ekaju
ekali
ekao
ekati
ekem
eki
ekic
ekima
ekipa
ekipe
ekipu
ekivan
ekivanja
ekivano
ekivati
ekkehard
ekliptike
ekologiju
ekolos
ekonomic
ekonomija
ekonomije
ekonomiju
ekonomska
ekonomske
ekonomski
ekonomskih
ekonomskim
ekonomsko
ekonomskog
ekonomskom
ekonomsku
ekovic
ekscentric
ekscentricitet
ekson
ekspedicija
ekspedicije
ekspediciju
eksperiment
eksplicitno
eksplozija
eksplozije
ekspr
ekstremno
eku
ekuje
ekvatora
ekvivalent
el
ela
elan
elarica
elarska
elastic
ele
elec
electric
electronic
elektrana
elektrane
elektric
elektron
elektrona
elektroni
elektronic
elektronika
elektronske
elektronski
elektronskih
elektrotehnic
eleli
elemenata
element
elementa
elemente
elementi
elementima
elements
elemir
elena
eleo
eleznic
eleznice
elezovic
eli
elic
elici
elija
elijama
elije
eliji
elijske
elijski
elik
elika
elim
elima
elio
eliptic
elisabeth
elite
elizabeta
elizabete
elizabeth
elj
elja
eljan
elje
eljeli
eljen
eljeza
eljezne
eljeznic
eljeznica
eljeznice
eljeznog
eljezo
elji
eljko
elju
eljusti
ellen
elliott
ellis
elnic
elnik
elnika
elo
elor
elsevier
elu
eludac
elvis
em
ema
emanuel
embo
emerson
emi
emigrirao
emil
emilia
emiliano
emilio
emily
emir
emirata
emisija
emisije
emisiji
emisiju
emitira
emitirala
emitirana
emitiranje
emitovana
emituje
emma
emmy
emo
emocije
emperor
empire
emu
en
ena
enama
encarnacio
enciklopedija
enciklopedijski
encoding
encyclopaedia
encyclopedia
encyclopædia
end
endemic
endo
endocrinol
ene
enej
eneja
energetski
energic
energija
energije
energijom
energiju
energy
eng
engineering
engl
england
engleska
engleske
engleski
engleskih
engleskim
englesko
engleskog
engleskoj
engleskom
englesku
englezi
english
eni
enic
enica
enice
enici
enicima
enicu
enih
enija
enije
enijeg
enijega
enijem
enijemu
eniji
enijih
enijim
enijima
enijoj
eniju
enik
enika
enike
enim
enima
enio
enis
eniti
enito
enja
enjak
enjaka
enje
enjem
enjen
enjer
enjera
enjerstvo
enjima
enju
enka
enke
enki
enko
eno
enog
enoga
enoj
enom
enome
enomu
enost
enosti
enrico
enrique
ensenada
enska
enske
enski
enskih
enskim
ensko
enskog
ensku
enstvo
enta
entangled
entdeckung
enterprise
entertainment
entiteta
entitetu
entrez
entry
enu
environment
environmental
enzim
enzima
enzimi
enzymatic
enzyme
enzymes
enzymology
eo
ep
epa
eparhija
eparhije
epic
epidemija
epidemije
epileptic
episkop
episkopa
episode
epizoda
epizode
epizodi
epizodu
epohe
epu
epub
equilibrium
er
era
eras
erc
erdevik
ere
erec
erevic
eri
eric
erica
erich
eridan
erif
erik
erka
erke
erkom
erku
erna
erne
ernest
ernje
ernji
ernst
ero
erom
ers
erski
ertl
eru
erupcija
erzi
es
esad
esca
escherichia
escobedo
escondida
escondido
escuintla
esej
eseja
eseji
esi
esm
esmeralda
esnaest
esnici
esnik
esnika
eso
espan
esperanza
espinosa
essay
essays
essential
est
esta
estacio
estadi
estalost
estancia
este
ester
esti
estica
estice
estih
estimation
esto
estog
estok
estoke
estoko
estonia
estonija
estonije
estoniji
estonski
estrada
estranac
estrella
estruko
estvovala
estvovali
estvovao
estvuje
estvuju
et
eta
etak
etaka
etan
etape
etapi
etaz
etc
etchojoa
ete
ethnic
ethnologue
eti
etic
etienne
etimologijski
etimolos
etinger
etiopija
etiopije
etiopiji
etiopski
etiri
etka
etke
etkom
etku
etna
etne
etni
etnic
etnici
etnicima
etnih
etnik
etnika
etnike
etno
etnolos
eto
etom
etrdeset
etrnaest
etrus
etu
etvoro
etvrt
etvrta
etvrtak
etvrte
etvrti
etvrto
etvrtog
etvrtoj
etvrtom
eu
euf
eugen
eugene
euklidsku
eur
eura
euro
europa
europe
european
europi
europska
europske
europski
europskih
europskim
europsko
europskog
europskom
europu
eurovision
eutropius
ev
eva
evac
evaluation
evan
evangelic
evangelista
evans
evanđelja
evanđelje
evca
evci
evcu
eve
evec
events
eventualno
ever
everest
everything
evi
evic
evica
evidence
evidenciju
evih
evil
evim
evima
evina
evinama
evine
evit
evljen
evna
evne
evni
evnica
evnih
evnik
evnika
evnim
evno
evnog
evnom
evnost
evnosti
evo
evog
evoj
evolucija
evolucije
evolution
evolutionary
evom
evra
evropa
evrope
evropi
evropska
evropske
evropski
evropskih
evropskim
evropsko
evropskog
evropskoj
evropskom
evropsku
evropu
evrovizije
evs
evski
evu
ex
exp
expansion
experience
experimental
express
expressed
expression
extragalactic
eye
eyes
ez
ezdesetih
ezoteric
f
fa
faber
fabrika
fabrike
face
facebook
fact
factbook
facto
factor
factors
facts
fad
fair
faith
fajlu
faktic
faktor
faktora
faktori
fakultet
fakulteta
fakultetu
falco
falcon
fall
fallingrain
falls
fam
fame
familia
families
familija
familije
family
famous
fan
fanatic
fandom
fantastic
fantastike
fantasy
far
faraon
faraona
fari
farkaz
farmakolos
farmi
fas
fasada
fast
fat
father
fatty
fauna
faune
faunu
faza
faze
fazi
fazu
fbi
fbih
fc
fda
fe
fear
features
feb
februar
februara
februaru
february
febs
federacija
federacije
federaciji
federal
federalne
federalni
federation
federativne
federico
feingold
feldmars
felipe
felix
female
feministic
femme
fenic
feniks
fenomen
fenomena
fer
ferdinand
ferdinanda
ferenc
ferna
fernando
ferrara
ferrari
ferrer
fes
festival
festivala
festivalima
festivalu
feud
ff
fi
fic
fiction
fidz
field
fields
fifa
fig
fight
fighting
figueroa
figura
figure
fija
fiktivni
file
files
filip
filipa
filipovic
film
filma
filmom
filmova
filmove
filmovi
filmovima
filmportal
films
filmska
filmske
filmski
filmskih
filmskim
filmskog
filmskoj
filmskom
filmsku
filmu
filolog
filolos
filozof
filozofa
filozofi
filozofija
filozofije
filozofiji
filozofiju
filozofske
filozofski
filozofskog
filozofskom
fin
final
finala
finale
finalu
financial
financija
financijske
financijski
financijskih
finansija
finca
find
fine
fink
finska
finske
finski
finskoj
fire
firenca
firenci
firenze
firer
firma
firme
first
fis
fischer
fish
fisher
fitonimija
fitzgerald
five
fizic
fizici
fizika
fizike
fiziku
fiziologija
fiziolos
fk
fl
fla
flas
flash
fleksija
fleming
flight
flor
flora
florence
flores
florida
floridi
flota
flote
flotu
fluid
fluida
fly
flying
fm
fnrj
fo
foc
foggia
fokus
folk
folyo
fon
fond
fonda
fonetizam
fonetski
fonolos
fontana
food
football
for
forbes
force
forces
ford
forecasts
foreign
forenzic
forest
forever
forli
form
forma
formacija
formacije
formalno
format
formata
formation
formatu
forme
former
formi
formira
formiraju
formirala
formirali
formiran
formirana
formirane
formiranja
formiranje
formiranju
formirao
formirati
formu
formula
formule
formulom
forschungsreise
forski
forster
fort
fortuna
forum
fosfat
fosfata
fosfataza
fosfo
fosfotransferaza
fosila
fosili
foster
foto
fotograf
fotografija
fotografije
fotografiju
fotona
found
foundation
four
fourth
fox
foye
fr
fra
frac
fraccio
fraccionamiento
fragmenata
fragment
fragmenti
frakcija
frakcije
fran
franac
franaka
franc
franca
france
frances
francesca
francesco
francis
francisco
franco
francuska
francuske
francuski
francuskih
francuskim
francusko
francuskog
francuskoj
francuskom
francusku
francuza
francuzi
franje
franjevac
franjo
frank
franka
frankfurt
franklin
franko
frans
franz
fraser
fre
fred
frederick
frederik
free
freedom
freeman
freeze
frekvencija
frekvencije
french
freske
fresnillo
fresno
fri
fridrih
friedman
friedrich
friends
fringillidae
fritz
friz
fro
frolkis
from
front
fronta
frontera
frontu
frosinone
frost
fru
frus
ft
fu
fuc
fudbaler
fudbalski
fuentes
fuerte
fujiwara
fulbrook
full
function
functional
fund
fundamentals
funkcija
funkcije
funkciji
funkciju
funkcionis
funti
furlanija
futog
futura
future
futures
g
ga
gaba
gabriel
gac
gaj
gaja
gajski
gak
gal
gala
galac
galaksija
galaksije
galaktic
galat
galaxies
gale
galeana
galeb
galerija
galerije
galeriji
galetin
galex
galic
galica
galije
galiji
galileo
gallery
gallo
gama
game
games
gami
gamma
gan
gang
gao
gar
garaz
garci
garcia
garda
garde
garden
gardinovci
gardner
gareth
garland
garnizon
garnizona
garona
garovnikov
gary
gas
gasa
gasova
gate
gati
gaulton
gautam
gavran
gavrilo
gavrilovic
gay
gaye
gaz
gaze
gazi
gb
gde
gdje
gdp
ge
geary
gej
gen
gena
gender
gene
generacija
generacije
general
generala
generalni
generalno
generalnog
generalom
generals
generalu
generation
generator
generatora
generic
genes
genet
genetic
genetics
genetike
genetski
geni
genima
genitiv
geno
genoa
genocid
genocida
genocide
genom
genoma
genome
genomes
genomics
geoffrey
geograf
geografi
geografija
geografije
geografska
geografske
geografski
geografskih
geografskog
geographic
geographical
geographische
geography
geological
geolos
geometrije
geometrijski
geomorfolos
geonames
geopolitic
georg
george
georgea
georges
georgia
georgija
georgije
ger
gerald
gerard
gerhard
german
germany
ges
geschichte
get
gets
gggg
gha
ghose
ghost
gi
giacomo
giba
gibanja
gibanje
gibarac
gibson
gija
gilbert
giles
gilman
gimnastic
gimnazija
gimnazijalnih
gimnazije
gimnaziji
gimnaziju
gina
gine
gino
giorgio
giovanni
girl
girls
gitara
gitare
gitarist
gitarista
gitaru
giuseppe
gkm
gkq
gkr
gl
gla
glad
gladi
glagola
glagolski
glagolskog
glamoc
glas
glasa
glasac
glasi
glasilo
glasine
glasnik
glasova
glasove
glass
glasu
glava
glave
glavi
glavic
glavna
glavne
glavni
glavnih
glavnim
glavnina
glavno
glavnog
glavnoj
glavnom
glavnu
glavoc
glavom
glavu
glazba
glazbe
glazbena
glazbene
glazbeni
glazbenih
glazbenik
glazbenika
glazbenu
glazbi
glazbu
gle
gleda
gledaju
gledajuc
gledanje
gledano
gledanost
gledanosti
gledatelja
gledati
gledis
glen
glenn
gli
glicerol
gligorije
glina
gline
glis
gljiva
gljive
gljivic
glo
global
globe
globus
globusa
gloria
glory
glu
gluhac
glukoza
glukoze
glukoziltransferaza
glumac
glumaca
glumca
glumcem
glumci
glumcima
glume
glumi
glumica
glumice
glumicom
glumicu
glumila
glumio
glumiti
glumom
glumu
glup
glus
glutamat
glutamate
gm
gnijezda
gnjjurac
gnjurac
gnostic
gnu
go
god
godfrey
godina
godinama
godine
godini
godinu
godis
gods
goes
gol
gola
gold
golden
goldstein
golem
golf
goli
golman
golova
golub
golubic
golubinci
gomila
gone
gonza
good
goodman
google
gora
goran
goranskoj
goraz
gorbac
gorc
gordana
gordiano
gordo
gordon
gore
gorenjskoj
gori
goric
gorica
goriva
gorivo
gorja
gorje
gornja
gornje
gornjeg
gornjem
gornji
gornjim
gornjoj
gornju
goropadan
gors
gorski
goru
gorz
gos
gospa
gospe
gospel
gospic
gospodar
gospodara
gospodari
gospodarski
gospodarstva
gospodarstvo
gospodin
gospodina
gospođa
gospođinaca
gospođinci
gost
gosti
gostima
gostionic
gostujuc
got
gota
gotham
gotic
gotov
gotovo
gov
goveda
government
governorates
govor
govora
govore
govorec
govori
govorila
govorili
govorilo
govorio
govoriti
govornika
govoru
govpubs
gp
gpcr
gpr
gps
gr
gra
grabez
grabljivice
grabovci
grac
grace
grad
grada
gradac
grade
gradec
gradi
gradic
gradili
gradina
gradis
graditelj
graditeljska
graditi
gradnja
gradnje
gradnji
gradnju
gradom
gradonac
gradova
gradove
gradovi
gradovima
gradska
gradske
gradski
gradskih
gradskim
gradsko
gradskog
gradskoj
gradskom
gradsku
gradu
graf
grafic
grafik
grafika
graham
gram
grama
gramatic
gramatika
grammy
gran
grana
granata
granc
grand
grande
grandes
grane
granic
granica
granicama
granice
granici
granicu
granja
grant
gras
grave
gravitacije
gray
graz
građa
građana
građane
građani
građanima
građanin
građanska
građanske
građanski
građanskih
građanskim
građanskog
građanskom
građe
građen
građena
građene
građevina
građevine
građevinska
građevinski
građi
građu
grb
grba
grbu
grc
grci
gre
great
greater
greatest
greben
grebena
greda
greece
greek
green
greene
greenwood
greeves
greg
gregorijanskom
gregory
gres
grey
grgur
gri
gric
griffith
grigorije
grivas
griz
grk
grka
grla
grlac
grlas
grlic
grmoc
grmus
grnc
gro
grob
groba
groblja
groblje
groblju
grobnica
grobnice
grobnici
grobova
grobu
grof
grofa
grofica
grofovija
grofovije
grofoviji
gros
gross
grosser
grosseto
group
grouse
grove
growth
groz
groznic
groznica
groznice
gru
grub
grubis
grubo
grudi
grujic
grupa
grupama
grupe
grupi
grupom
grupu
grus
gruz
gruzija
gruzije
gruzijski
gs
gu
gua
guachochi
guadalupe
guanacevi
guanajuato
guardian
guasave
guayabo
guaymas
guazapares
gube
gubi
gubici
gubitak
gubitaka
gubitka
gubitke
guc
gudac
guerra
guerrero
guez
gugl
guicciardini
guide
guido
guillaume
gun
gundulic
guo
gura
gus
guska
gustav
gustavo
gustina
gustini
gusto
gustoc
gutenberg
gutie
guverner
guvernera
guy
guz
gvineja
gvineje
gvoz
gwillim
gyo
h
ha
habsburs
habzburs
hacienda
had
hadz
hajduc
hajduk
hajduka
hajduku
hajjah
hal
hale
half
hall
ham
hamburg
hamilton
hamm
hammer
hampshire
han
hana
hand
handbook
hanibal
hannah
hans
hansen
happy
haps
hara
harbor
hard
hardman
hardy
hari
harmonic
harold
harper
harris
harrison
harry
harryja
hart
harvard
harvey
harwood
has
hasan
hassanali
hat
have
haven
hawaii
hayes
hazu
hbo
hdz
he
head
health
heart
hearts
heat
heaven
heavy
hebrejski
heights
heinrich
heinricha
heinz
hektara
helade
helen
helena
helenistic
heliodoro
hell
helmut
help
hemic
hemija
hemije
hemiji
hemijska
hemijske
hemijski
hemijskih
hemijskim
hemijsko
hemijsku
henderson
henri
henrik
henrika
henry
henryja
hepburn
her
herald
herbert
herceg
hercegovac
hercegovina
hercegovine
hercegovini
hercegovinu
hercegowina
here
heretic
heritage
herkul
herman
hermann
hermanos
hermetic
hermosa
hermosillo
herna
hero
herodot
herodotus
heroes
heroica
heroj
heroja
heroji
herradura
herrera
herschel
hersey
hesen
hesiod
heterocyclic
heterogeno
hettne
hhhvii
hhvii
hi
hidalgo
hidalgotitla
hidraulic
hidroelektrana
hidroelektrane
hidroksi
hidroksilaza
hidrolaza
hidroliza
hidrolos
hidz
hifenacija
high
hil
hiljada
hiljade
hiljadu
hill
hills
him
himna
himne
hindi
hinduistic
hinterland
hip
hiperonim
hiponimi
hipotetic
hipoteza
hirc
hirurs
his
histoire
historia
historic
historical
historically
histories
historija
historije
historiji
historijska
historijske
historijski
historijskih
historijskim
historijsko
historijskog
historiju
history
hit
hitchcock
hitchins
hitler
hitlera
hitova
hitovi
hits
hiv
hl
hladan
hladne
hladni
hladno
hladnoc
hladnog
hlađenja
hlađenje
hleb
hlorid
hms
hnig
hnk
hnl
ho
hoc
hoda
hodge
hodoc
hodz
hoffman
hokejas
holandija
holandije
holandiji
holandski
holiday
holland
holleman
holly
hollywood
hollywooda
hollywoodski
hollywoodskih
hollywoodu
holmes
holmesa
holocaust
holokaust
holokausta
hols
holt
holy
home
homer
homme
homo
homoseksualnost
homoseksualnosti
honda
hondo
honduras
hong
hongkons
honor
hood
hop
hope
hopkins
hor
hora
hormon
hormona
hormone
horn
horor
horror
horse
horva
horvat
hos
hospital
hot
hotel
hotela
hotelu
hour
house
housecroft
houston
how
howard
hoz
hr
hrabar
hrabrost
hrabrosti
hram
hrama
hramova
hramovi
hramu
hrana
hrane
hrani
hranom
hranu
hrc
hris
hrista
hrom
hromozoma
hronic
hronika
hrsg
hrt
hrtkovci
hrus
hrv
hrvac
hrvat
hrvata
hrvati
hrvatima
hrvatska
hrvatske
hrvatski
hrvatskih
hrvatskim
hrvatsko
hrvatskog
hrvatskoga
hrvatskoj
hrvatskom
hrvatsku
hrvoje
hs
hss
ht
hteo
htio
htjela
htjeli
htm
html
http
https
hu
huac
huajicori
huan
huang
huatabampo
huautla
hubert
hudson
huehuetla
huejutla
huerta
huetamo
hueytamalco
hugh
hughes
hugo
huimanguillo
huixtla
hum
human
humanistic
humans
humor
humoristic
hundert
hunedoara
hungarian
hungary
hunt
hunter
hus
husein
hv
hviii
hydrogen
hydrophobic
hz
i
ia
iako
ian
iana
ias
iata
ib
iba
iban
ibenik
ibenika
ibeniku
ibm
ibn
ibrahim
ic
ica
icama
icao
ice
ich
ici
icom
icty
icu
id
ida
idaho
idar
ide
ideal
ideja
idejama
ideje
ideji
ideju
identic
identification
identitet
identiteta
identity
ideologija
ideologije
ideolos
idi
idova
idovi
idovska
idovske
idovski
idu
iduc
idvor
iei
if
ifru
ig
iga
igara
igd
igen
igledno
iglic
igmund
ign
ignacio
ignjata
igor
igra
igrac
igraju
igrajuc
igrala
igrali
igralis
igrama
igrani
igranja
igrao
igrati
igre
igri
igru
ih
ihf
ii
iii
ij
ija
ijas
ije
ijeg
ijem
iji
ijih
ijim
ijoj
ijom
ijski
iju
ik
ika
ikad
ikada
ikakve
ikakvih
ikas
ike
ikona
ikone
il
ila
ilac
ilandz
ile
ilea
ileu
ili
ilic
ilidz
ilija
ilije
ilinois
ilira
iliri
ilirski
ilirskog
ilis
illinois
illustrated
ilo
ilustrovana
im
ima
image
images
imaju
imala
imale
imali
imalo
imam
imama
imamo
imanja
imanje
imanju
imanovci
imao
imati
imdb
ime
imena
imenic
imenica
imenice
imenima
imenom
imenovan
imenovanje
imenovao
imenu
imenuje
imir
immunol
imo
imovic
imovina
imovine
imovinu
impact
imperativa
imperfekta
imperia
imperial
imperija
imperije
implications
impresioniran
impulsa
imski
imu
imuc
imun
imunolos
in
ina
inac
inak
inama
inar
inc
inci
incident
incidenta
includes
including
indeks
independence
independencia
independent
index
indi
india
indian
indiana
indians
indices
indija
indijana
indijanaca
indijanci
indijancima
indijanski
indije
indiji
indijska
indijske
indijski
indijskog
indijskom
indiju
indo
indonezija
indonezije
induced
industrial
industriale
industrija
industrije
industriji
industrijska
industrijske
industrijski
industrijskih
industriju
industry
ine
inec
inf
infekcija
infekcije
infinitiv
influence
info
informacija
informacijama
informacije
informaciju
informacioni
informality
informatic
information
infrastrukture
ing
ingrid
ington
ingus
inhibition
inhibitor
inhibitori
inhibitors
ini
inic
inicijalno
inicijativa
inicijativu
inicira
inija
inila
inile
inili
inilo
inima
inio
initi
initial
injavaju
inje
injen
injena
injene
injeni
injenica
injenice
injenici
injenicom
injenicu
injeno
injski
injskom
inju
inka
inke
inklinacija
inn
ino
inog
inom
inorganic
inostranih
inostranstvu
inovic
inovski
inozemstvu
inozitol
insee
insekata
inside
insight
inska
inske
inski
inskih
inskim
insko
inskog
inskom
inspektor
inspiracija
inspiraciju
inspiriran
inspirirana
instava
institucija
institucijama
institucije
institut
instituta
institute
institution
instituto
institutu
instrumenata
instrument
instrumental
instrumente
instrumenti
instva
instvo
instvu
insulin
int
inte
integrated
intelektualaca
inteligencije
intelligence
intentions
intenzitet
intenziteta
intenzivno
inter
interaction
interactions
interactive
interakcija
interakcije
interaktivni
interes
interesa
interese
interleukin
internacionalni
international
internet
interneta
internetu
interpretacija
interscience
intervencija
intervencije
intervenciju
interview
intervju
intervjuu
into
introduction
inu
invasion
invazija
invazije
invaziju
investigation
involved
inz
inzistirao
inđija
io
ion
iona
ionicah
iowa
ip
ipa
ipac
ipak
ir
ira
irac
irak
iraka
iraku
irala
iran
irana
iranian
iranica
iranska
iranske
iranski
iranskih
iranskog
iranu
irao
irapuato
iraq
iras
irata
irati
ire
ireland
irem
iren
irena
irene
irenja
irenje
irenjem
irenju
ireno
iri
irig
irija
irila
irili
irilic
irilica
irilo
irina
irine
irio
iris
irish
iriti
iro
iroj
irok
iroka
iroke
iroki
irokim
iroko
irokog
irokom
iroku
irom
iron
ironic
irska
irske
irski
irskog
irskoj
irsku
iru
irving
irwin
is
isa
isaac
isabel
isbn
iselimovic
iser
isera
isernia
ishod
ishodis
ishrana
ishrane
isidoro
isidro
isjec
iskazivano
iskazuje
iskljuc
iskopavanja
iskopc
iskoris
iskoristi
iskoristili
iskoristio
iskoristiti
iskus
iskustva
iskustvima
iskustvo
isla
islam
islama
islamic
islamska
islamske
islamski
islamskih
islamskog
islamskom
islamu
island
islanda
islands
islandski
islandu
ismail
iso
isolation
ispas
ispisan
ispit
ispitivac
ispitivanja
ispitivanje
isplac
ispoc
ispod
ispoljava
isporuc
ispostavi
ispostavilo
isprava
ispravan
ispravno
ispraz
ispred
ispric
ispruz
isprva
ispunjen
ispupc
ispus
israel
issn
issue
issues
ist
ista
istac
istakao
istaknuo
istaknut
istaknuti
istaknutih
istanbul
istanbulu
istanc
istarska
istarski
iste
isti
istic
isticao
istih
istim
istina
istine
istinski
istinu
istiti
istituto
istke
isto
istoc
istodobno
istog
istoga
istoimena
istoimene
istoimeni
istoimenog
istoimenoj
istoimenom
istoimenu
istoj
istok
istoka
istoku
istom
istori
istoria
istoric
istorija
istorije
istoriji
istorijska
istorijske
istorijski
istorijskih
istorijskim
istorijskog
istorijskoj
istoriju
istovremeno
istr
istra
istraga
istrage
istragu
istraz
istre
istri
istros
istu
isus
isusa
isusova
isusovac
isusove
it
ita
ital
italia
italian
italiana
italija
italijana
italijani
italijanska
italijanske
italijanski
italijanskih
italijanskim
italijansko
italijanskog
italijanskom
italije
italiji
italijom
italiju
italy
itan
itanja
itanje
itao
itarica
itarice
itati
itav
itava
itave
itavo
itavog
itavoj
itavom
itavu
itd
ite
itebej
itelj
itelja
itelji
iteljica
iteljske
iteljski
iti
itih
itije
itim
itis
ito
itog
itom
its
itu
iturbide
iucn
iue
iupac
iv
iva
ivac
ivaju
ivala
ivale
ivali
ivalo
ivan
ivana
ivanc
ivanda
ivanic
ivanis
ivanja
ivanje
ivanjem
ivanjima
ivanju
ivanka
ivanom
ivanovic
ivanu
ivao
ivati
ivc
ive
ivela
iveli
ivelo
iveo
iveti
ivi
ivic
ivica
ivice
ivih
ivim
ivio
ivjela
ivjele
ivjeli
ivjelo
ivjeti
ivko
ivkovic
ivljava
ivljavaju
ivljavanja
ivljavanje
ivljen
ivo
ivog
ivojnovic
ivom
ivost
ivosti
ivot
ivota
ivotan
ivote
ivoti
ivotinja
ivotinjama
ivotinje
ivotinjske
ivotinjski
ivotinjskih
ivotna
ivotne
ivotni
ivotnim
ivotno
ivotnog
ivotnu
ivotom
ivotopis
ivotu
ivs
ivu
ivuc
ix
ixhuatla
ixtla
ixtlahuaca
iz
iza
izabrali
izabran
izabrana
izabrane
izabrani
izabrao
izabrati
izac
izam
izas
izazaga
izaziva
izazivaju
izazov
izazove
izazvala
izazvali
izazvalo
izazvan
izazvane
izazvao
izazvati
izađe
izbac
izbec
izbeglica
izbija
izbijanja
izbijanje
izbila
izbio
izbis
izbjec
izbjegao
izbjeglic
izbjeglica
izbjeglice
izbjez
izboc
izbor
izbora
izbore
izbori
izborima
izborne
izborni
izbornik
izboru
izd
izdaje
izdajnic
izdaju
izdala
izdali
izdan
izdana
izdanja
izdanje
izdanjima
izdanju
izdao
izdas
izdat
izdavac
izdavanja
izdavanje
izdiz
izdrz
izduz
izdvaja
izdvajaju
izdvajanjem
izdvojen
izdvojiti
ize
izgled
izgleda
izgledaju
izgledom
izgledu
izgovara
izgovor
izgradili
izgradio
izgraditi
izgradnja
izgradnje
izgradnji
izgradnjom
izgradnju
izgrađen
izgrađena
izgrađene
izgrađeni
izgrađeno
izgubi
izgubila
izgubili
izgubio
izgubiti
izgubljen
izgubljena
izgubljene
izgubljeni
izjas
izjava
izjave
izjavila
izjavio
izjavu
izjednac
izlaganja
izlaganje
izlaska
izlasku
izlaz
izlazak
izlaze
izlazi
izlazio
izlaziti
izlez
izlijec
izloz
izluc
izma
izmenjeno
između
izmis
izmjena
izmjene
izmjenic
izmjenjivac
izmuc
iznad
iznenada
iznenađenje
izniman
iznimno
iznio
iznos
iznose
iznosi
iznosila
iznosio
iznutra
izoblic
izomeraza
izopac
izopc
izotopa
izr
izrac
izrada
izrade
izradi
izradio
izradu
izrael
izraela
izraelske
izraelski
izraelu
izrastao
izravno
izraz
izraza
izrazi
izrazio
izraziti
izrazito
izrađen
izrađena
izrađuje
izrađuju
izrec
izric
izruc
izu
izuc
izum
izumiranja
izumitelj
izumrli
izuzetak
izuzetan
izuzetkom
izuzetno
izuzetnu
izuzev
izvan
izvanredan
izvanredno
izvedba
izvedbe
izvedbi
izvedbu
izveden
izvedena
izvedene
izvedeni
izvedeno
izvela
izveli
izveo
izves
izvesti
izvire
izviđac
izvjes
izvlac
izvode
izvodi
izvodio
izvoditi
izvor
izvora
izvore
izvori
izvorima
izvoris
izvorni
izvorno
izvorom
izvoru
izvoz
izvođac
izvođenja
izvođenje
izvrs
izvrstan
izvuc
iđos
j
ja
jablanic
jabuc
jabuka
jac
jaci
jack
jacka
jackie
jackson
jacob
jacqueline
jacques
jadan
jadran
jadrana
jadransko
jadranskog
jadranu
jahac
jaja
jajce
jaje
jak
jaka
jake
jaki
jakiel
jakih
jakim
jako
jakob
jakog
jakom
jakov
jakova
jaks
jaku
jalisco
jalostotitla
jalpa
jalpan
jam
jama
jamc
jame
jamena
james
jamesa
jamie
jan
jana
janc
jane
janet
janez
janic
janjic
janko
jankovic
janos
januar
januara
januaru
january
japan
japana
japanci
japanese
japanska
japanske
japanski
japanskih
japansko
japanskog
japanskom
japanu
jar
jarak
jarebica
jas
jasan
jasenovac
jasenovo
jasna
jasno
jason
jastreb
jastrebac
jat
jatar
jati
jato
java
javelle
javi
javier
javio
javiti
javlja
javljaju
javna
javne
javni
javnih
javnim
javno
javnog
javnom
javnost
javnosti
javnu
javor
jawf
jay
jazak
jazu
jazz
jbc
jc
jd
je
jean
jeana
jeanne
jec
jed
jeda
jedan
jedanaest
jede
jedina
jedine
jedini
jedinic
jedinica
jedinicama
jedinice
jedinici
jedinicu
jedinjenja
jedinjenje
jedinke
jedinki
jedino
jedinog
jedinstva
jedinstven
jedinstvena
jedinstvene
jedinstveni
jedinstveno
jedinstvenu
jedinstvo
jedinu
jedna
jednac
jednadz
jednak
jednaka
jednake
jednaki
jednako
jednakost
jednakosti
jedne
jedni
jednim
jednina
jednine
jednjaka
jedno
jednog
jednoga
jednoglasno
jednogodis
jednoj
jednolic
jednom
jednostavan
jednostavna
jednostavne
jednostavni
jednostavno
jednu
jedra
jedrilic
jedu
jedva
jeff
jefferson
jeffrey
jeffries
jeg
jeku
jel
jela
jelac
jelena
jelene
jelic
jelo
jem
jemen
jemenu
jen
jennifer
jenny
jer
jere
jeremy
jero
jeronima
jerry
jersey
jerusalem
jeruzalem
jeruzalema
jeruzalemu
jes
jesen
jeseni
jesse
jessica
jest
jestastvenica
jeste
jestestvena
jestestvoslovije
jesti
jesu
jesus
jet
jetre
jevanđelje
jevreja
jevreji
jevrejima
jevrejske
jevrejski
jevrejskih
jevrejskog
jewish
jewison
jez
jezera
jezerima
jezero
jezeru
jezgra
jezgre
jezgri
jezgro
jezgru
jezic
jezici
jezicima
jezik
jezika
jezike
jezikom
jeziku
jf
jg
ji
jih
jill
jilotla
jim
jima
jime
jimmy
jin
jiquipilas
jj
jka
jl
jm
jna
jni
jo
joa
joachim
joakim
joan
joanikije
joanne
joaqui
joe
joel
johan
johann
johannes
john
johna
johnny
johns
johnson
joj
joker
jon
jona
jonathan
jones
jonski
jordan
jorge
jos
jose
josef
joseph
josepha
josh
joshua
josif
josip
josipa
journal
journey
jovan
jovana
jovanovic
jovic
joya
joz
jp
jpl
jr
js
jski
jstor
jt
ju
jua
juan
juana
juc
jude
judet
judith
judy
jug
juga
jugoistoc
jugoistok
jugoistoka
jugoistoku
jugoslavenska
jugoslavenske
jugoslavenski
jugoslavenskih
jugoslavenskog
jugoslavija
jugoslavije
jugoslaviji
jugoslaviju
jugosloveni
jugoslovenska
jugoslovenske
jugoslovenski
jugoslovenskih
jugoslovenskog
jugoton
jugozapadne
jugozapadni
jugozapadno
jugozapadnoj
jugozapadnom
jugozapadu
jugu
jul
jula
jules
juli
julia
julian
julie
julija
julijanskom
julije
julijska
julius
julu
july
jump
jun
juna
junac
junaci
junak
junaka
june
jung
juni
junior
juntas
junu
jupiter
jupitera
jura
juraj
jurc
jure
juric
jurij
juris
jurja
jus
just
justice
justin
justinijan
juta
jutarnji
jutra
jutro
juz
jvuo
k
ka
kac
kad
kada
kadar
kadich
kafic
kai
kairu
kais
kaj
kaju
kakav
kako
kakva
kakve
kakvo
kakvu
kal
kala
kalabrija
kalcijum
kale
kalendar
kalendara
kalendarska
kalendaru
kali
kalibra
kalif
kalifa
kalifornija
kalifornije
kaliforniji
kalijum
kalvados
kam
kama
kambodz
kamen
kamena
kamene
kameni
kamenica
kamenih
kamenim
kamenja
kamenjar
kamenje
kamenog
kamenom
kamenu
kamera
kamere
kamiona
kamo
kamp
kampanija
kampanja
kampanje
kampanji
kampanju
kan
kana
kanada
kanade
kanadi
kanadska
kanadski
kanadu
kanal
kanala
kanali
kanalima
kanalom
kanalu
kancelar
kancelara
kandidat
kandidata
kandz
kane
kanjac
kanje
kanjon
kanjona
kanjonu
kanon
kansas
kanskom
kant
kanton
kantona
kanzas
kao
kaos
kaotic
kap
kapa
kapacitet
kapaciteta
kapela
kapele
kapetan
kapetana
kapi
kapija
kapitala
kapitalan
kapitalistic
kapitulacije
kar
kara
karac
karaca
karadz
karakas
karakter
karaktera
karakteris
karakteristic
karakteristika
karakteristikama
karakteristike
karakterizira
karas
karata
karađorđevic
karca
karce
karci
karcima
kardinal
kardinala
karen
kariba
karijera
karijere
karijeri
karijeru
karizmatic
karl
karla
karlo
karlovac
karlovc
karlovca
karlovci
karlovcima
karolina
karolins
karta
kartas
karte
karti
kartic
kartu
kas
kasheva
kasne
kasni
kasnih
kasnija
kasnije
kasnijeg
kasnijem
kasniji
kasnijih
kasnijim
kasno
kasnog
kasnom
kast
kasta
kastilje
kat
kata
katalizuje
katalog
katalogisierung
katalogu
katalonski
katarina
katarine
katastarske
katastrofa
katastrofe
katastrofic
kate
katedra
katedrala
katedrale
katedrali
kategoric
kategorija
kategorijama
kategorije
kategoriji
kategoriju
katherine
kati
katkad
katolic
katolici
katolika
katritzky
kaup
kav
kay
kaz
kazahstan
kazalis
kazin
kazna
kazne
kazni
kaznu
kb
kc
ke
kec
kegg
keith
kell
kelly
kemic
kemijska
kemijske
kemijski
ken
kennedy
kenneth
kent
kentaki
kentucky
ker
keramic
keramika
keramike
kes
kevin
key
kg
khan
ki
kic
kid
kih
kija
kije
kijeg
kijega
kijeh
kijem
kijemu
kijev
kiji
kijih
kijim
kijima
kijoj
kiju
kikinda
kill
killed
killer
killing
kilo
kilograma
kilometara
kilometra
kilometraz
kim
kima
kin
kina
kinase
kinaza
kine
kinematografije
kineska
kineske
kineski
kineskih
kineskim
kinesko
kineskog
kineskoj
kineskom
kinetic
kinetics
kinezi
king
kingdom
kings
kini
kinima
kinja
kino
kinom
kinu
kip
kipar
kir
kira
kirk
kirkwood
kirurs
kis
kiselina
kiseline
kiselinu
kiselo
kiseonik
kiseonika
kisik
kisika
kiss
kit
kitova
kj
kk
kl
kla
kladne
kladus
klaic
klan
klana
klaniczay
klarinet
klasa
klase
klasi
klasic
klasifikacija
klasifikacije
klasifikaciji
klasifikaciju
klasu
klaudija
klaudije
klaus
klavijature
klavir
kle
klein
kleiner
kleinjans
klement
klenak
kli
klima
klime
klimu
klinic
klis
klizac
kljuc
kljun
klo
klobuc
klos
klub
kluba
klubova
klubovi
klubovima
klubu
kluz
km
kn
knez
kneza
knight
knin
knj
knjaz
knjiga
knjigama
knjige
knjigu
knjiz
knjizi
know
knowledge
knowledgebase
knox
knuti
ko
koa
koalicija
koalicije
koaliciju
koautor
kobac
koc
koch
kod
koda
kodeks
kodiran
kodirani
kodova
koeficijent
koenzim
kog
koga
koj
koja
koje
kojeg
kojega
kojem
kojemu
koji
kojih
kojim
kojima
kojoj
kojom
koju
koka
kokos
kokot
kokotic
kol
kola
kolac
kolama
kolarska
kolas
kole
koledz
kolega
kolegama
kolege
kolekcija
koli
kolic
koliko
kolima
kolo
kolona
kolone
kolonija
kolonijalne
kolonijama
kolonije
koloniju
kolonista
kolonisti
kolonizacije
kolorado
koloristic
kolovan
kolovanja
kolovanje
kolovao
kolovoz
kolovoza
kolovozu
kolska
kolske
kolski
kolskih
kolskog
kolu
kolumbija
kolumbije
kolumbiji
kom
koma
komad
komada
komadic
komadu
komanda
komandant
komandanta
komandantu
komande
komandi
komandom
komandovao
komandu
kombinacija
kombinacije
kombinaciji
kombinaciju
kome
komedija
komedije
komediji
komediju
komentar
komentator
komercijalne
komercijalni
komercijalno
komesar
komesara
komet
kometa
komic
kominterne
komisija
komisije
komitet
komiteta
kommon
komora
komore
kompanija
kompanije
kompaniji
kompaniju
komparativ
komparativa
kompjutera
kompleks
kompleksa
kompleksan
kompletan
komplikacija
komplikacije
komponenta
komponente
komponenti
kompozicija
kompozicije
kompozitor
kompozitora
koms
komu
komuna
komune
komunikacija
komunikacije
komunikaciju
komunikacioni
komunista
komunisti
komunistic
komunistima
komunizam
komunizma
kon
konac
konak
konc
koncem
koncentracija
koncentracije
koncentraciju
koncentric
koncept
koncepta
koncerata
koncert
koncerta
koncertu
koncu
konfederacija
konfederacije
konferencija
konferencije
konferenciji
konflikt
kong
konga
kongo
kongres
kongresa
kongresu
kongu
konj
konja
konjanika
konje
konji
konjic
konjica
konjice
konjicu
konjima
konju
konjugacija
konjus
konkurenciji
konrad
kons
konstanta
konstantan
konstantin
konstantina
konstantno
konstrukcija
konstrukcije
konstrukciju
kontakt
kontakta
kontaktu
konte
kontekstu
kontinent
kontinenta
kontinentalna
kontinentalne
kontinentu
kontinuirano
kontinuitet
kontrola
kontrole
kontroli
kontrolis
kontrolom
kontrolu
kontroverze
konvencija
konvencije
konzervativne
konzul
konzula
konzulstva
koordinate
kopac
kopaonik
kopc
kopija
kopije
kopna
kopnene
kopno
kopnu
koprivnic
koprivnica
kor
kora
korac
korak
koraka
korc
kordic
korduna
kore
korea
koreja
koreje
koreji
korejski
korekcije
koren
korena
kori
korijen
korijena
koris
korisnic
korisnici
korisnicima
korisnik
korisnika
korist
koristan
koriste
koristec
koristi
koristila
koristile
koristili
koristilo
koristio
koristiti
korita
korito
kornelije
kornjac
korporacija
korpus
korpusa
kors
korupcije
korus
korzika
kos
kosa
kosac
kosavac
kose
kosi
kosic
kosmic
kosmodroma
kosmos
kosov
kosova
kosovac
kosovic
kosovica
kosovka
kosovo
kosovska
kosovski
kosovsko
kosovu
kost
kosta
kosti
kostic
kostiju
kostima
kosu
kot
kota
kotac
kotar
kotara
kotline
kotlini
kotor
kotromanic
kotska
kotske
kotski
kotskoj
kov
kova
kovac
kovan
kovc
kove
kovi
kovic
kovilj
koviljskog
kovin
kovrc
koz
koza
kozarac
kozmetic
kozmic
kp
kpj
kr
kra
krac
kraguj
kragujak
kragujevac
kragujevcu
kraj
kraja
krajem
krajeva
krajeve
krajevi
krajevima
krajina
krajine
krajini
krajis
krajnje
krajnjem
krajnji
krajolik
kraju
kralj
kralja
kraljem
kraljev
kraljeva
kraljeve
kraljevi
kraljevic
kraljevina
kraljevine
kraljevini
kraljevinu
kraljevo
kraljevska
kraljevske
kraljevski
kraljevskih
kraljevsko
kraljevskog
kraljevskoj
kraljevskom
kraljevsku
kraljevstava
kraljevstva
kraljevstvo
kraljevstvu
kraljez
kraljic
kraljica
kraljice
kraljicu
kralju
kranjc
krapinsko
kras
kratak
krater
kratera
kratica
kratka
kratke
kratki
kratkih
kratkim
kratko
kratkog
kratkom
kratkometraz
kratku
krauze
krava
krc
krdz
kre
krec
krede
kreja
krene
krenula
krenuli
krenuo
krenuti
kres
kretanja
kretanje
kretanju
kretati
krevet
kri
kric
krije
krijes
krijumc
krik
krila
krilima
krilo
krilu
krim
kriminala
kriminalac
kriminalaca
kriminalistic
krimski
kris
krist
krista
kristala
kritic
kritika
kritike
kritiku
kritizirao
kriv
kriva
krive
krivic
kriz
kriza
krize
krizu
krka
krlez
krnji
kro
krojac
kronic
kronika
kronologija
kronolos
kros
krov
krova
kroz
krs
krst
krsta
krstac
krstas
krstic
krstitelja
krsto
krstur
krt
kru
krug
kruga
krugova
krugovima
krugu
kruna
krune
krunski
krunu
krupa
krus
kruz
krv
krvarenja
krvarenje
krvav
krvavi
krvi
krvlju
krvne
krvni
krvnih
krvnog
krvoprolic
krvoz
krz
krzna
krzno
ks
kt
ku
kuba
kubanski
kube
kubi
kubic
kuc
kud
kuda
kuga
kuge
kugle
kukavic
kukavica
kuku
kukujevci
kukuruz
kukuruza
kukuvija
kula
kule
kulic
kulik
kult
kulta
kultura
kulturama
kulture
kulturi
kulturna
kulturne
kulturni
kulturnih
kulturnim
kulturno
kulturnog
kulturnom
kulturnu
kulturolos
kulturom
kulturstiftung
kulturu
kum
kumane
kumar
kuna
kup
kupa
kupac
kupalis
kupe
kupi
kupinovo
kupio
kupiti
kupola
kupole
kupu
kupuje
kur
kurs
kurt
kurtoazno
kus
kusovica
kustos
kut
kuta
kutija
kutler
kuz
kuzmanovic
kv
kva
kvadrat
kvadrata
kvadratnih
kvalifikacija
kvalifikacije
kvalitet
kvaliteta
kvalitete
kvalitetu
kvartet
kvint
kvislins
kw
kyoto
l
la
labor
laboratory
labud
laburistic
lac
ladislav
lady
lagano
lago
lagos
laguna
lak
laka
lakatos
lake
laki
lako
lakoc
laks
lalic
lambda
lambert
lamo
lan
lana
lanac
lanaca
lanak
lanaka
lanc
lanca
lance
lancet
lanci
lancima
lancu
land
landa
lane
lang
langdok
language
languages
lanica
lanice
lanka
lanke
lanku
lanom
lanova
lanove
lanovi
lanovima
lansiran
lansiranih
lansiranje
lansiranju
lanstvo
lanu
lara
larga
large
larry
larus
las
last
lasta
lastavic
lastavica
lat
late
later
latin
latina
latinic
latinoameric
latinske
latinski
latinskog
latinskom
laura
laurel
laureles
laurence
laurent
lav
lava
law
lawrence
laz
lazar
lazara
lazarevic
lazic
lazikani
lazio
lb
lc
lcea
ld
le
lea
leader
league
learning
lec
lecce
lecco
led
leda
ledenog
ledinci
ledu
lee
left
legacy
legend
legenda
legendama
legendarni
legende
legendi
legija
legije
legure
leiden
leigh
leipzig
lejk
lek
leka
lekar
lekara
lekova
lekovi
leksic
leksika
leksike
leksikografski
leksikon
lemke
len
lena
length
leni
leo
leon
leona
leonard
leonardo
leone
leonhard
leopard
leopold
lep
lepa
lepo
leprs
ler
lerdo
les
lesbian
leskovac
leslie
let
leta
letac
lete
letec
leti
letjelica
letjelice
leto
letopis
letove
lett
letter
letters
letu
leu
leva
leve
level
levi
levic
levo
levoj
levy
lewis
lex
lez
lezde
lezvig
leđa
leđima
lgbt
lh
li
liang
liben
liber
liberal
liberalna
liberalne
libertad
liberty
libija
libiji
libraries
library
libres
libya
lic
lica
lice
lici
licu
lider
lidera
lie
life
liga
ligand
ligas
ligaza
lige
light
ligi
ligu
ligurija
lihtens
lija
lijaza
lije
lijec
lijek
lijekova
lijekovi
lijepa
lijepo
lijeva
lijeve
lijevi
lijevo
lijevog
lijevoj
lijevom
lik
lika
like
likom
likova
likove
likovi
likovima
likovna
likovne
likovni
likovnih
liku
lili
lim
lima
limbird
limfatic
limited
limo
lin
linares
linc
lincoln
linda
line
lines
ling
lingvistic
linija
linijama
linije
liniji
linijom
liniju
link
links
linnaeus
lintia
lion
lipa
lipanj
lipid
lipnja
lipnju
lipophilic
lippincott
lis
lisa
lisic
lisica
liska
list
lista
liste
listi
listic
listopad
listopada
listopadu
listova
listovi
listovima
listu
lit
litara
literary
literatura
literature
literaturi
liti
little
liu
live
liver
liverpool
lives
livije
living
livius
livno
livorno
lix
liz
lizin
lj
lja
ljak
ljan
ljanja
ljanje
ljao
ljast
ljati
ljav
ljava
lje
ljec
ljekar
ljen
ljena
ljeni
ljenja
ljenje
ljenju
ljeno
ljepote
ljepus
ljes
ljestvice
ljestvici
ljeta
ljeti
ljeto
ljevic
lji
ljica
ljiljana
ljiv
ljiva
ljivac
ljive
ljivi
ljivo
ljivost
ljjuka
ljka
ljotic
lju
ljubav
ljubavi
ljubavna
ljubavne
ljubavni
ljubavnica
ljubavnik
ljubavnika
ljubavnu
ljubic
ljubica
ljubis
ljubljana
ljubljani
ljubo
ljubomir
ljubus
ljude
ljudevit
ljudi
ljudima
ljudska
ljudske
ljudski
ljudskih
ljudskim
ljudsko
ljudskog
ljudskoj
ljudskom
ljudsku
ljuka
ljunc
ljus
ljut
lko
ll
llano
ller
llera
lloyd
lms
ln
lna
lni
lno
lo
loar
loara
loc
local
localita
localization
lociran
locode
locuint
lodi
log
logan
logic
logistic
logo
logor
logora
logoras
logore
logorima
logoru
logos
lokacija
lokacijama
lokacije
lokaciji
lokaciju
lokalitet
lokaliteta
lokalitetu
lokalna
lokalne
lokalni
lokalnih
lokalnim
lokalno
lokalnog
lokalnoj
lokalnom
lokalnu
lokativ
lokomotiva
lokomotive
lola
lom
loma
lomas
lombardija
lon
lonc
london
londona
londonski
londonskom
londonu
long
look
lopez
lopta
lopte
loptu
lord
lorda
lorena
lorenzo
loreto
los
lost
losti
lot
lou
louis
louisa
louise
louisiana
lov
lova
lovac
lovaca
lovc
lovca
lovci
love
lovecraft
lovi
lovis
lovra
lovstva
lovstvo
lovu
low
lower
loxicha
loz
loza
loze
lp
ls
lt
ltd
lu
lubanja
lubanje
luc
luca
lucas
lucca
lucero
luci
lucia
lucija
lucije
lucius
lucy
lud
luda
ludvig
ludwig
lug
lui
luigi
luis
luisa
luizijana
luj
luja
luk
luka
lukac
lukas
luke
luki
lukic
lukom
luksemburg
luksemburs
luku
luna
lunca
lung
lus
luther
luz
lvarez
lvaro
lxxvii
lxxxx
ly
lyi
lynch
lynn
lyon
lzmk
m
ma
mac
macdonald
macerata
machine
macho
macmillan
mad
mada
madagascar
madagaskar
madagaskara
madame
madarainak
made
madelung
madero
madison
madonna
madrid
madridu
madz
mafijas
mag
magazin
magazina
magazine
magdalena
maggie
magic
magija
magije
magistarskog
maglic
maglica
magnetic
magnetski
magnetsko
magnetskog
magnituda
magnitude
magnus
magyar
mah
mahmud
mahom
mai
mail
main
maine
maj
maja
majc
majci
majen
majka
majke
majkl
majkom
majku
majmuna
major
majora
majstor
majstora
majstori
maju
mak
makar
make
makedonci
makedonija
makedonije
makedoniji
makedoniju
makedonska
makedonske
makedonski
makedonskog
makedonskom
making
makishima
maksim
maksimalna
maksimalno
maksimalnoj
maksimilijan
mal
mala
malcolm
male
malen
malena
malene
maleni
males
mali
malih
malik
malim
malin
malo
malog
maloj
malom
malraux
malta
maltes
malu
mam
mama
mammalian
man
mana
management
manastir
manastira
manastiri
manastiru
manc
mancall
manchester
mandat
mandata
mandic
mandz
mane
manekenka
manga
mango
mani
manic
manifest
manifestacija
manifestacije
manja
manje
manjeg
manjem
manji
manjih
manjim
manjina
manjine
manjoj
manju
mann
mans
mante
mantova
manu
manual
manuel
manufacturing
many
mao
map
mapa
mapastepec
mape
mapi
maplandia
mapping
mapquest
maps
mar
mara
maradik
maraka
maramures
maran
maravati
maravillas
marc
marcel
marcello
march
marche
marco
marcos
marcus
mare
margaret
margarita
margaritas
margita
mari
maria
mariano
marib
maric
marie
marija
marijan
marije
mariji
mariju
marilyn
marin
marina
marine
marinkovic
marino
mario
marion
marjanovic
mark
marka
marke
market
marketing
marketins
marko
markovic
marks
marksistic
marku
markus
marna
maro
maroka
maroko
maroku
marque
marriage
mars
marsa
marshall
mart
marta
martha
marti
martic
martin
martina
martinci
martino
martinovic
martonos
martu
marulic
marus
marvin
marx
mary
maryland
mas
masa
masac
masakr
masakra
mascaren
mase
masi
masiv
masiva
masivu
maske
masles
masne
masnih
mason
masovna
masovne
masovni
masovnih
masovno
masovnog
mass
massa
massachusetts
mast
master
masters
masti
masu
mat
mata
matamoros
mate
matej
mateju
matematic
matematici
matematike
matematiku
mateo
materija
materijal
materijala
materijale
materijali
materijalima
materijalne
materijalu
materije
mathbf
mathematical
mathematics
mathrm
mati
matic
matica
matice
matija
matije
mato
matos
matrica
matrice
matrix
matt
matter
matthew
matvejev
maurice
mauzolej
max
maxwell
may
maya
mayer
mayo
maz
mazatla
mađ
mađara
mađari
mađarska
mađarske
mađarski
mađarsko
mađarskog
mađarskoj
mađarskom
mađarsku
mađionic
mb
mbaro
mbovica
mbovit
mbox
mc
mccarthy
mcdonald
mcfarland
mcg
mcglinchey
mcgraw
md
me
mec
mechanism
mechanisms
med
medalja
medalje
medalju
medelli
media
mediated
medic
medical
medici
medicina
medicinal
medicine
medicini
medicinska
medicinske
medicinski
medicinskih
medicinskog
medicinskoj
medicinu
medieval
medievalism
medij
medija
medije
mediji
medijima
medijske
medijski
medina
mediterana
mediteranu
medves
medvjed
medvjeda
meet
mehanic
mehanika
mehanike
mehanizam
mehanizma
mehedinci
mehmed
meji
mek
meklenburg
meksic
meksika
meksiko
meksiku
mekus
mel
melchor
melenci
melodic
melodija
member
members
membrana
membrane
membranu
memorial
memorije
memory
men
mena
menadz
mendoza
mene
meni
menja
menjaci
menjaju
ment
mentalno
mentor
meoqui
mer
mera
mercedes
merck
mercury
mere
merenja
merenje
meri
merilend
mero
mert
mes
mesa
mesec
meseca
meseci
mesecu
mesh
mesic
mesjeovih
mesna
mesnog
meso
mess
messier
messina
mesta
mestima
mesto
mestu
met
meta
metabolic
metabolism
metabolizam
metabolizma
metacriticu
metafizic
metaforic
metak
metaka
metal
metala
metalna
metalne
metalni
metalnih
metalurs
metar
metara
mete
meteorolos
method
methods
methyl
methyltransferase
metil
metiltransferaza
metionin
metkovic
metod
metoda
metodama
metode
metodic
metodom
metodu
metohija
metohije
metohiji
metohiskog
metra
metric
metro
metropolitan
metropolitanski
mexicali
mexican
mexico
meyer
mez
meza
mezquital
mezquite
mezquitic
međa
međas
među
međunarodna
međunarodne
međunarodni
međunarodnih
međunarodnim
međunarodno
međunarodnog
međunarodnoj
međunarodnom
međunarodnu
međuops
međusobne
međusobno
međutim
međuvremenu
mg
mgm
mhz
mi
mia
miahuatla
miami
mic
mica
mice
michael
michaela
michal
michalovich
michel
michele
michelle
michigan
michoaca
microbiol
microsoft
middle
mig
migracije
miguel
miha
mihail
mihaila
mihailo
mihailovic
mihajla
mihajlo
mihajlovic
mija
mijenja
mijenjaju
mijenjati
mijes
mike
mil
mila
milagro
milan
milana
milano
milanu
mile
milena
milenijuma
milenko
miles
miletic
milic
milica
milicije
milijarde
milijardi
milijun
milijuna
milion
miliona
military
milivoje
milja
milje
miller
million
mills
milo
milorad
miloradov
miloradovic
milos
milosavljevic
milost
milosti
milovan
milovanovic
milpa
milton
milutin
milutina
milutinovic
min
mina
minas
minatitla
mind
mine
mineral
minerala
minerva
minesota
ming
mini
minimalnoj
minimum
mining
ministar
ministara
ministarstva
ministarstvo
ministarstvu
minister
ministra
ministry
minnesota
minobacac
minor
minuta
minutan
minute
minutes
minuti
mio
miodrag
mir
mira
mirador
miran
miranda
mires
miris
mirisa
mirisni
mirisnih
mirjana
mirko
mirkovic
mirno
miro
mirom
miroslav
miroslava
mirovni
mirovnim
mirovnog
miru
mis
misa
misantla
misao
miscellaneous
mise
misija
misije
misiji
misiju
misisipi
misle
mislec
misli
mislili
mislim
mislio
miss
mission
mississippi
missouri
mistic
misuri
mit
mita
mitchell
miti
mitologija
mitologije
mitologiji
mitolos
mitova
mitropolija
mitropolije
mitropolit
mitropolita
mitrovic
mitrovica
mitrovici
mittheilungen
mitu
mixtepec
mj
mjehuric
mjenjac
mjera
mjere
mjerenja
mjerenje
mjeri
mjes
mjesec
mjeseca
mjeseci
mjesecima
mjesecu
mjesta
mjestima
mjesto
mjestu
mjuzikl
mjuzikla
mjuziklu
mk
ml
mla
mlac
mlad
mlada
mlade
mladen
mladez
mladi
mladic
mladih
mladim
mladog
mladom
mladost
mladosti
mladoz
mladu
mladunc
mlađa
mlađe
mlađeg
mlađi
mlađih
mlađim
mle
mlec
mleka
mleko
mletac
mlijec
mlo
mm
mn
mno
mnoga
mnoge
mnogi
mnogih
mnogim
mnogo
mnogobrojne
mnogobrojnih
mnogobrojnim
mnos
mnoz
mo
mobile
moc
mocorito
moctezuma
mod
mode
model
modela
modele
modeli
modelu
modena
moderan
modern
moderna
moderne
moderni
modernih
modernim
moderno
modernog
modernoj
modernom
modernu
modric
modrus
mog
mogao
mogla
mogle
mogli
moglo
mogu
moguc
mohac
moj
moja
moje
mojo
mojsije
mokrac
mokrin
mol
mole
molecular
molecules
molekul
molekula
molekule
molekuli
molekulima
molekulska
molekulskom
molekulsku
moli
molino
molise
moliterno
molitva
molitve
mom
momak
momc
moment
momenta
mon
mona
monah
monaha
monarchy
monarh
monarha
monarhija
monarhije
monarhiji
monarhiju
monas
monasi
monde
money
monografija
monooksigenaza
monopol
monroe
mons
mont
montana
montaz
monte
montemorelos
montes
montgomery
moon
moore
mor
mora
morac
moraju
moral
morala
morale
morales
morali
moralni
moralno
moralo
moramo
morao
morati
morave
more
morelia
morelos
morem
moreno
morfologija
morfolos
morgan
mori
moris
mornara
mornaric
mornarica
mornarice
mornarici
mornaricu
morning
morovic
morris
morrison
morska
morske
morski
morskih
morskog
moru
mos
moscow
moskovski
moskva
moskve
moskvi
moskvu
moslavac
most
mosta
mostar
mostara
mostaru
mostova
mostovi
mostu
mother
motion
motiv
motiva
motive
motivi
motivima
moto
motor
motora
motori
motorom
motozintla
mount
mountain
mouse
movement
movie
movies
moz
mozaik
mozak
mozel
mozga
mozgu
mp
mr
mrac
mravozubac
mrez
mrkonjic
mrs
mrtav
mrtva
mrtvac
mrtve
mrtvi
mrtvih
mrz
ms
msn
mt
mtv
mu
muc
mudrost
mudrosti
mudz
muhamed
muhameda
muhammad
muharica
muke
mulege
mulligen
multi
multietnic
multimedijalnih
multiple
mun
municije
municipalities
mur
murat
murder
mures
murphy
murray
murtaza
mus
musa
muscicapidae
muse
museum
music
musical
muslim
muslimana
muslimane
muslimani
muslimanima
muslimanska
muslimanske
muslimanski
muslimanskih
muslimansko
muslimanskog
mustafa
mutacije
muz
muzej
muzeja
muzeju
muzic
muzici
muzika
muzike
muzikom
muziku
mw
my
mystery
myth
mythology
mz
n
na
naboj
naboja
nac
nacija
nacije
nacional
nacionalista
nacionalistic
nacionalizam
nacionalizma
nacionalna
nacionalne
nacionalni
nacionalnih
nacionalnim
nacionalno
nacionalnog
nacionalnoj
nacionalnom
nacionalnosti
nacionalnu
nacista
nacisti
nacistic
nacrt
nad
nada
nadalj
nadalje
nadbiskup
nadbiskupa
nadbiskupija
nadbiskupije
nade
nadh
nadi
nadimak
nadjac
nadlez
nadljudski
nadmas
nadmoc
nadmorska
nadmorske
nadmorskoj
nadolazec
nadp
nadph
nadraz
nadrealistic
nadu
nadz
nadzor
nadzorom
naelektrisanja
nafta
nafte
nag
nagao
nagib
naglas
naglasak
naglo
naglog
nagovor
nagovoriti
nagrada
nagrade
nagradom
nagradu
nagrađen
nagrađena
nailazi
naime
nais
naizgled
naizmenic
naizmjenic
naj
najavio
najbliz
najbolja
najbolje
najboljeg
najbolji
najboljih
najboljim
najbolju
najbrz
najc
najdraz
najduz
najistaknutijih
najjac
najjuz
najkrac
najleps
najljeps
najmanja
najmanje
najmanji
najmlađi
najmoc
najniz
najoc
najpopularniji
najpopularnijih
najpoznatija
najpoznatije
najpoznatiji
najpoznatijih
najpre
najprije
najraniji
najranijih
najs
najstarija
najstarije
najstariji
najstarijih
najtez
najuspes
najuspjes
najuticajnijih
najuz
najvaz
najvec
najverovatnije
najvis
najvjerojatnije
najz
najzad
najznac
nak
nakit
naklada
naklonost
naknadno
nakon
nakratko
nalaz
nalaza
nalaze
nalazi
nalazila
nalazile
nalazili
nalazilo
nalazimo
nalazio
nalazis
nalik
nalogu
naloz
nam
nama
namaz
name
namec
namen
namenjeni
names
nametnuo
namijenjen
namijenjeni
namjerava
namjerno
namjerom
namjes
nancy
nanos
nanosi
naoc
naoruz
napad
napada
napadac
napadaju
napadali
napadan
napade
napadi
napadima
napadne
napadom
napadu
napala
napale
napali
napao
napasti
napetosti
napis
napisala
napisali
napisan
napisana
napisano
napisao
napisati
naplac
napokon
napoleon
napoleona
napoli
napomena
napomenuti
napon
napona
napora
napore
napori
naporima
naposljetku
naprava
naprave
napravi
napravila
napravili
napravio
napraviti
napravljen
napravljena
napravljene
napravljeno
napred
napredak
napredovanje
napredovao
napreduje
naprezanja
naprijed
naprimjer
napulj
napus
napuste
napusti
napustila
napustili
napustio
napustiti
nar
nara
naranc
naranjo
naranjos
narastao
naraste
naravi
naravna
naravno
naravopisje
naravoslovnoga
naredbe
naredbi
naredbu
naredio
naredne
narednih
narednik
narednim
naređenja
naređenje
naređenju
naređeno
naređuje
narjec
naroc
narod
naroda
narode
narodi
narodima
narodna
narodne
narodni
narodnih
narodnim
narodno
narodnog
narodnoj
narodnom
narodnooslobodilac
narodnu
narodom
narodu
narratives
naruc
narudz
narus
nas
nasa
naselili
naselja
naseljavaju
naseljavali
naseljavanje
naselje
naseljen
naseljena
naseljeni
naseljenih
naseljenim
naseljeno
naseljenosti
naseljima
naselju
nash
nasilan
nasilja
nasilje
nasilno
nasledio
naslednik
naslednika
nasleđe
nasleđuje
naslijedio
naslijeđe
naslikao
nasljednici
nasljednik
nasljednika
nasljedstvo
nasljeđa
nasljeđuje
naslov
naslova
naslovna
naslovni
naslovnu
naslovom
nastaje
nastaju
nastala
nastale
nastali
nastalih
nastalo
nastanak
nastanjeno
nastanjuju
nastanka
nastanku
nastao
nastati
nastava
nastavak
nastave
nastavi
nastavila
nastavile
nastavili
nastavio
nastaviti
nastavka
nastavku
nastavlja
nastavljaju
nastavljen
nastavna
nastavni
nastavnik
nastavu
nastojala
nastojali
nastojanja
nastojanje
nastojanju
nastojao
nastoje
nastojec
nastoji
nastup
nastupa
nastupaju
nastupala
nastupali
nastupao
nastupati
nastupe
nastupi
nastupila
nastupili
nastupima
nastupio
nastupu
nasuprot
nat
natalija
natas
nathan
nation
national
nations
natjec
natjecanja
natjecanje
natjecanjima
natjecanju
natjerao
natl
nato
natpis
natpisa
natpisi
natpisima
natpisom
natrag
natrijum
natural
nature
nauc
nauci
nauk
nauka
nauke
nauku
nautic
nav
naval
navarro
naveden
navedena
navedene
navedeni
navedenih
navedeno
naveo
navesti
navigacioni
navijac
navode
navodec
navodi
navodima
navodnjavanje
navodno
navojoa
navolato
navođen
navrata
navrs
navy
nayar
nayarit
naz
nazad
nazi
nazionale
naziv
naziva
nazivaju
nazivali
nazivamo
nazivan
nazivani
nazivao
nazive
nazivi
nazivima
nazivom
nazivu
naznac
nazoc
nazor
nazvali
nazvan
nazvana
nazvane
nazvani
nazvano
nazvao
nazvati
nađe
nađen
nađeni
nađu
nb
nba
nbc
nc
nca
ncatl
nce
nchen
nchez
nci
ncis
nd
nda
ndak
ndaro
nde
ndez
ndh
ndz
ne
neal
neamt
near
neba
nebeln
nebeska
nebeske
nebeski
nebeskih
nebeskog
nebo
nebojs
nebraska
nebu
nebulae
nec
ned
nedaleko
nedavno
nedelja
nedelje
nedeljkov
nedelju
nedic
nedjelju
nedolic
nedostaje
nedostatak
nedostatka
nedovoljno
nedovrs
nedugo
neduz
nedz
neetic
neg
nega
negativan
negativne
negativni
negativnih
negativno
negde
negdje
nego
negro
neil
neill
neizbjez
nejasan
nek
neka
nekad
nekada
nekadas
nekako
neke
neki
nekih
nekim
nekima
neko
nekoc
nekog
nekoga
nekoj
nekoliko
nekom
nekome
nekritic
nekropola
nekropole
neku
nel
nelson
nem
nema
nemac
nemaca
nemaju
nemanja
nemanjic
nemas
nemci
nemcima
nemilost
nemira
nemoc
nemoguc
nen
nenad
nenadmas
nenadovic
nenaveden
neo
neobic
neobjas
neoc
neodluc
neodređeni
neodređenog
neodrz
neogranic
neophodan
neophodna
neophodno
neos
neovisno
neovisnost
neoz
nepaz
nepogres
nepokretan
nepomic
nepos
neposlus
neposredan
neposredno
neposrednoj
nepostojec
nepoz
nepoznat
nepoznata
nepoznate
nepoznati
nepoznato
nepoznatog
neprekidno
neprel
neprestano
neprijatelj
neprijatelja
neprijatelje
neprijatelji
neprijateljske
neprijateljski
neprijateljskih
neprijateljstva
neprijateljstvo
neprijatelju
nepristupac
neprom
nepromenjeno
nepromis
ner
neradin
neraspoloz
nerazjas
nereda
neredi
neretve
neretvi
neri
nerijes
nerijetko
nervni
nervnog
nes
nesebic
nesit
neslaganja
neslaganje
nesluz
nespecific
nespecificiran
nespecificirana
nesrec
nestaje
nestala
nestali
nestalo
nestanak
nestao
nestas
nestvaran
nesvakidas
nesvrs
net
netherlands
netipic
netko
netoc
network
neuc
neuobic
neupuc
neuravnotez
neurolos
neurotic
neuspes
neuspjeh
neuspjeha
neuspjes
neustras
neutralan
neutrona
neuzina
nevada
nevaljana
nevaz
nevenka
never
nevesinje
neveu
nevolje
new
newman
news
newton
next
nez
nezadovoljan
nezadovoljstvo
nezavisan
nezavisna
nezavisne
nezavisni
nezavisnih
nezavisno
nezavisnost
nezavisnosti
nezavisnu
neznatno
nezvanic
ng
nga
ngc
ngel
ngeles
nguez
nh
nhl
ni
nia
nic
nica
nicama
nice
nicholas
nicholson
nici
nicima
nick
nicola
nicolas
nicole
nicom
nicu
niger
night
nih
nija
nije
nijedan
nijedna
nijeg
nijega
nijem
nijemaca
nijemci
nijemi
nijemu
niji
nijih
nijim
nijima
nijoj
niju
nik
nika
nikad
nikada
nikakav
nikako
nikakva
nikakve
nikakvih
nikakvog
nikakvu
nike
niko
nikola
nikolaj
nikolaja
nikole
nikolic
nikom
niks
niku
nil
nila
nim
nima
nimalo
nimo
nin
nina
nine
nineteenth
ninguno
nio
nis
nisam
niska
niske
niskim
nisko
niskog
nismo
nist
nisu
nit
niti
nitko
nivo
nivoa
nivou
nixon
niz
niza
nizak
nizom
nizozemska
nizozemske
nizozemski
nizozemskoj
nizu
nizvodno
nj
nja
njac
njaci
njacima
njak
njaka
njake
njakovic
njamc
njamo
njav
njava
njavaju
njavanje
nje
njeg
njega
njegos
njegov
njegova
njegove
njegovi
njegovih
njegovim
njegovo
njegovog
njegovoj
njegovom
njegovu
njem
njemac
njemu
njen
njena
njene
njeni
njenih
njenim
njenja
njenje
njenjem
njeno
njenog
njenoj
njenom
njenu
njevac
njez
njezin
njezina
njezine
njezini
njezinih
njezinim
njezino
njezinog
njezinom
njezinu
nji
njic
njica
njice
njicu
njih
njihov
njihova
njihove
njihovi
njihovih
njihovim
njihovo
njihovog
njihovoj
njihovom
njihovu
njim
njima
njime
njiv
njo
njoj
njom
njome
njost
njosti
nju
njujork
njujorku
njujors
njus
nk
nka
nl
nlo
nm
no
noafric
noameric
nob
nobel
nobelovac
nobelove
nobelovu
noble
noc
nochistla
nocupe
noel
noeuropski
nog
noga
nogales
nogama
noge
nogomet
nogometa
nogometas
nogometna
nogometne
nogometni
nogometnog
nogometu
nogu
noj
nolan
nolit
nom
nomadski
nome
nomenclature
nomenklatura
nomenklature
nomenklaturi
nomenklaturu
nominacija
nominacije
nominaciju
nominativ
nominiran
nominirana
nominovan
nomu
non
nonjemac
nop
nopala
nor
nora
nord
noria
norma
normalan
normalne
normalnim
normalno
norman
normandija
normanski
norte
north
northern
norton
norves
nos
nosa
nosac
nose
nosec
nosi
nosila
nosilac
nosili
nosio
nosioca
nositi
nost
nosti
nostima
nosu
not
nota
note
notes
notre
nou
nov
nova
novac
novak
novakovic
novara
novc
novca
novcem
nove
novel
novela
novele
novembar
november
novembra
novembru
novi
novica
novih
novije
novim
novina
novinama
novinar
novinara
novinari
novinarka
novine
novinski
novj
novo
novog
novoga
novogodis
novoj
novom
novorođenc
novosti
novu
now
noz
np
npr
nr
ns
nski
nt
nta
ntan
nte
nti
ntul
nu
nuclear
nucleic
nucleotide
nuco
nude
nudi
nueva
nuevo
nuklearna
nuklearne
nuklearni
nuklearnih
nuklearno
nuklearnog
nula
nuli
number
numbers
numelor
numeric
nuova
nus
nuti
nuts
nuz
ny
nyt
nytimes
o
oak
oara
oaxaca
oaza
ob
oba
obala
obalama
obale
obali
obalne
obalom
obalu
obanica
obaves
obaveza
obavezan
obaveze
obavezno
obaviti
obavjes
obavlja
obavljaju
obavljanje
obavljao
obavljati
obc
obe
obec
obelez
obes
obezbeđuje
obic
obiljez
obim
obiman
obitava
obitelj
obitelji
obiteljska
obiteljski
obiteljskih
obiteljskom
obituary
objas
objasni
objasnio
objasniti
objave
objavi
objavila
objavili
objavio
objavljen
objavljena
objavljene
objavljeni
objavljeno
objavljivanja
objavljivanje
objavljivao
objavljuje
objavljuju
obje
objekat
objekata
objekt
objekta
objekte
objekti
objektima
objes
oblac
oblak
oblaka
oblast
oblasti
oblastima
oblici
oblicima
oblik
oblika
oblike
oblikom
oblikovan
oblikovanje
obliku
obliz
obljetnice
obloz
obnas
obnavlja
obnova
obnove
obnovi
obnovio
obnoviti
obnovljen
obnovljena
obnovu
obodu
obogac
oboje
obojica
oboljenja
oboren
oboz
obrac
obrada
obrade
obradi
obradovic
obradu
obrana
obrane
obrani
obranu
obratio
obraz
obrazac
obrazloz
obrazovan
obrazovanja
obrazovanje
obrazovanju
obrazovni
obrađuje
obred
obreda
obrego
obrenovic
obrez
obrnuto
obroncima
obrovac
obrtnic
obruc
obrus
observe
obuc
obuhvac
obuhvata
obuhvataju
obuhvatala
obuku
obyvatelia
obzir
obzira
obzirom
obzora
oc
oca
ocampo
ocean
oceana
oceanu
ocem
ocjenu
oclc
ocosingo
ocotepec
ocozocoautla
oct
october
ocu
od
oda
odabran
odabrao
odaje
odakle
odan
odas
odatle
odavno
odbac
odbacio
odbacuje
odbija
odbijaju
odbijanja
odbijanje
odbije
odbijen
odbila
odbili
odbio
odbiti
odbojkas
odbor
odbora
odbrana
odbrane
odbrani
odbranu
ode
odec
odeljenja
odeljenje
odewahn
odgovara
odgovaraju
odgovarajuc
odgovor
odgovora
odgovoran
odgovori
odgovorio
odgovorna
odgovorni
odgovornost
odgovornosti
odigrala
odigrao
odisej
odiseja
odjec
odjednom
odjel
odjela
odjelu
odlaska
odlazak
odlaze
odlazi
odlic
odlika
odlike
odlikovan
odlikovanja
odlikuje
odlomak
odloz
odluc
odluci
odluka
odluke
odlukom
odluku
odmah
odmazde
odmor
odn
odnos
odnosa
odnose
odnosi
odnosima
odnositi
odnosno
odnosu
odobren
odobrenje
odobrio
odr
odrasla
odrasle
odrasli
odraslih
odrastao
odraz
odrec
odred
odreda
odredbe
odredi
odredio
odredis
odrediti
odrednicu
odrekao
određen
određena
određene
određeni
određenih
određenim
određeno
određenog
određenoj
određenom
određenu
određivanje
određuje
određuju
odric
odrz
ods
odsjec
odsjek
odskoc
odsluz
odsustvo
odu
odugovlac
odus
odustao
oduzeti
odvaja
odvajanje
odvaz
odveden
odveo
odvija
odvijaju
odvijala
odvjetnik
odvodi
odvojen
odvojena
odvojene
odvojeno
odz
of
ofanziva
ofanzive
ofanzivu
off
office
official
oficir
oficira
oficiri
og
ogar
oglas
ogleda
ognjis
ogorc
ogranak
ogranic
ogranka
ogrlic
ogroman
ogromna
ogromne
ogromnu
oh
ohajo
ohio
ohridski
oi
oil
ois
oise
oj
ojac
ojo
ok
oka
okac
okavac
okeana
okic
oklahoma
oklop
oklopna
oklopne
oklopnih
oko
okolica
okolice
okolici
okolina
okoline
okolini
okolinu
okolis
okolna
okolne
okolnih
okolnim
okolnosti
okolnostima
okom
okonc
okos
okrec
okrenuo
okrenut
okrenuti
okrs
okrug
okruga
okrugom
okrugu
okrunjen
okruz
okruzi
oksid
oksida
oksidaza
oksidoreduktaza
oktavijan
oktobar
oktobarske
oktobra
oktobru
oku
okuc
okupacija
okupacije
okupacijom
okupatora
okupio
okupiranoj
okuplja
okupljaju
okupljanja
okupljanje
okus
okvir
okvira
okvirima
okviru
ol
ola
olaks
old
olfactory
olfaktorni
olfaktornih
olga
olic
olimpijske
olimpijski
olimpijskih
olimpijskim
olinala
oliver
olivera
olivier
olova
olovo
olt
oltar
oltara
oluja
oluje
om
omar
omas
omega
omeks
omics
omis
omjer
omladine
omladinski
omoguc
omoljica
omotac
omraz
on
ona
onaj
onako
once
onda
ondak
ondas
ondje
ondrej
one
onec
onemoguc
oni
onih
onim
onima
online
only
ono
onog
onoga
onoj
onom
onome
ontario
onu
op
opada
opanc
opasan
opasnost
opasnosti
opat
opatija
opatije
opatiji
opaz
opc
opcija
opeke
open
opera
operacija
operacijama
operacije
operaciji
operaciju
operation
operativne
operativni
operativnog
opere
operi
operu
opet
opic
opioid
opis
opisa
opisan
opisana
opisani
opisao
opisati
opisu
opisuje
opisuju
opkorac
opljac
oponas
oporavak
opovo
opozicija
opozicije
opras
oprec
oprema
opreme
opremljen
opremu
opros
ops
opsada
opsade
opsadu
opseg
opsegu
opsez
opsjednut
opstanak
opterec
optic
optimistic
optuz
opunomoc
opus
opusa
opustos
or
ora
oral
orange
orao
oras
orbitalni
orbite
orbiti
orbitom
orbitu
orchestra
orden
ordena
ordenom
order
ordz
oregon
ores
orfelin
org
organ
organa
organe
organi
organic
organima
organisation
organizacija
organizacijama
organizacije
organizaciji
organizacijom
organizaciju
organizam
organizama
organization
organizator
organizatora
organizira
organiziran
organizirana
organizirani
organizirao
organizirati
organizma
organizmi
organizmu
organizovana
organizovao
organizuje
organizuju
organske
organski
organskih
organsko
orguljas
orgulje
oriental
origin
original
originala
originalan
originalna
originalne
originalni
originalno
originalnog
originalnoj
originalnom
origins
orijas
orijentacija
orijentacije
orin
orkestar
orkestra
orla
orlando
orlovat
orlus
orn
ornai
ornithologiai
ornithologische
ornithologischen
ornitofauna
ornitofaune
ornitologije
ornitologiju
ornitolos
oro
oroc
orovic
ors
ortanovci
ortega
oruz
oruđa
oruđe
os
osa
osam
osamdesetih
oscar
oscara
ose
osec
osi
osic
osigura
osiguranja
osiguranje
osigurao
osigurati
osigurava
osijek
osijeka
osijeku
osim
osiromas
osjec
oskar
oskara
oslanja
oslobađa
oslobađanja
oslobađanje
oslobodi
oslobodila
oslobodilac
oslobodili
oslobodio
osloboditi
oslobođen
oslobođena
oslobođeni
oslobođenja
oslobođenje
osma
osman
osmanlija
osmanlije
osmanske
osmanski
osmansko
osmanskog
osmanskom
osmatrac
osmi
osmis
osmislio
osnaz
osniva
osnivac
osnivaju
osnivanja
osnivanje
osnivanjem
osnivanju
osnova
osnovala
osnovali
osnovan
osnovana
osnovane
osnovano
osnovao
osnove
osnovi
osnovna
osnovne
osnovni
osnovnih
osnovnim
osnovno
osnovnog
osnovnoj
osnovnu
osnovu
osnutka
osoba
osobama
osobe
osobi
osobina
osobinama
osobine
osobit
osobitim
osobito
osoblja
osoblje
osobni
osobno
osobu
osovine
osovinskih
ossola
ostaci
ostacima
ostaje
ostaju
ostala
ostale
ostali
ostalih
ostalim
ostalima
ostalo
ostalog
ostane
ostanu
ostao
ostatak
ostataka
ostatci
ostati
ostatka
ostatke
ostatkom
ostatku
ostavi
ostavila
ostavili
ostavio
ostaviti
ostavivs
ostavke
ostavku
ostavlja
ostavljajuc
ostavljen
ostavs
ostojic
ostrva
ostrvima
ostrvo
ostrvskoj
ostrvu
ostvaren
ostvarenja
ostvarenje
ostvari
ostvarila
ostvarili
ostvario
ostvariti
ostvaruje
osudio
osumnjic
osus
osuđen
osuđeni
osuđuje
osvaja
osvajac
osvajaju
osvajanja
osvajanje
osvajanjem
osvajanju
osvec
osveta
osvete
osvetiti
osvetu
osvjez
osvojen
osvojena
osvojenih
osvoji
osvojila
osvojili
osvojio
osvojiti
osvojivs
oswald
ot
ota
otac
otada
otadz
otez
other
otho
otic
otis
otisak
otkaz
otkazan
otkopc
otkric
otkrije
otkrila
otkrili
otkrio
otkriti
otkriva
otkrivaju
otkrivanje
otkriven
otkrivena
otkriveni
otkriveno
otmar
oto
otoc
otoci
otocima
otok
otoka
otoke
otoku
otomanskog
oton
otpada
otpoc
otpor
otpora
otpornost
otprilike
otpus
otputovao
otrov
otrovan
otto
ottoman
otuda
otvara
otvaraju
otvaranja
otvaranje
otvor
otvora
otvoren
otvorena
otvorene
otvoreni
otvorenim
otvoreno
otvorenog
otvorenom
otvori
otvorila
otvorio
otvoriti
ou
our
out
outcomes
ov
ova
ovaca
ovaj
ovakav
ovako
ovakva
ovakve
ovakvih
ovan
ovani
ovc
ovce
ovde
ovdje
ove
ovec
ovek
oveka
oveku
over
overington
overnja
overview
ovi
ovic
ovidije
ovih
ovim
ovisi
ovisno
ovit
oviti
ovjec
ovjek
ovjeka
ovjeku
ovlas
ovlasti
ovo
ovog
ovoga
ovoj
ovom
ovome
ovskom
ovu
owen
own
oxchuc
oxford
oxfordshire
oxidase
oz
ozbiljan
ozbiljne
ozbiljno
ozlijeđen
ozljeda
ozljede
ozloglas
oznac
oznaka
oznakama
oznake
oznaku
ozrac
ozuluama
p
pa
pablo
pac
pacific
pacijenata
pacijent
pacijenta
pacijenti
pad
pada
padaju
padalina
padavina
padej
padina
padinama
padne
padom
padova
padu
page
pages
pain
pak
pakao
paket
pakistan
pakistana
pakistanu
pakrac
pakt
pakta
pala
palac
palace
palacio
palanka
palata
palatinat
palazzo
palc
pale
palenque
palermo
palestine
palestini
palgrave
pali
palic
pall
pallares
palma
palmar
palmas
palme
palmer
palo
palomas
palos
pam
pamc
pamuc
pamuk
pamuka
pan
panama
panc
pandz
panegiric
panic
panija
panije
paniji
paniju
panjolci
panjolska
panjolske
panjolski
panjolskog
panjolskoj
panjolskom
panjolsku
panorama
panska
panske
panski
pansko
panskog
panskom
pantic
pao
paolo
papa
papantla
papasquiaro
pape
paper
papers
papi
papir
papira
papom
papu
papuc
par
para
parac
parada
parade
paradise
parage
parai
paraje
paralelne
paralelno
paramount
paran
parc
pare
parenja
pari
paris
parish
pariski
pariz
pariza
parizu
park
parka
parker
parkova
parks
parku
parlament
parlamenta
parlamentarni
parlamentarnim
parlamentu
parliament
parma
parni
parohija
parova
parovi
parovima
part
partial
partija
partije
partiji
partijske
partijski
partiju
partizan
partizana
partizane
partizani
partizanima
partizanska
partizanske
partizanski
partizanskih
partizanskog
partner
partnera
party
paru
pas
pasa
pascal
paso
pasos
pass
past
pasti
pastirc
pastiric
pastirica
pastirska
pat
patent
pathway
pathways
pati
patients
patka
patnje
patolos
patricia
patrick
patrijarh
patrijarha
patrijars
patrijarsi
pauc
paul
paula
paulo
paus
pausanija
pauze
pavao
pavelic
pavia
pavic
paviljon
pavkovic
pavla
pavle
pavlis
pavlovic
paz
pbs
pc
pdf
pe
peace
pearl
pearson
pec
pecic
pedagog
pedagos
pedeset
pedesetih
pedregal
pedro
peggy
pehar
pejzaz
pekingu
pekins
pele
pelikan
peljes
pen
pendz
penguin
penjac
pennsylvania
pensilvanija
pentru
people
peptide
per
pera
percepciju
perennial
perfect
performance
peric
periferiji
perihel
period
perioda
periodic
periodima
periodu
peris
perje
perla
perlez
pero
perry
pers
persian
personal
perspective
perspectives
perspektive
peru
peruc
perugia
perus
perz
perzijanci
perzije
perzijska
perzijske
perzijski
perzijskih
perzijskog
perzijskom
pes
pesama
pesaro
pescara
pesimistic
pesma
pesmama
pesme
pesmi
pesmom
pesmu
pesn
pesnic
pesnik
pesnika
pet
peta
petak
petar
petatla
pete
peter
petera
peters
peti
petit
petkovic
petlic
petlje
petnaest
peto
petog
petogodis
petoj
petom
petra
petric
petrov
petrova
petrovac
petrovic
petrovo
petru
peva
pevac
pez
pg
pgc
pgp
ph
pharmacol
pharmacological
pharmacologists
pharmacology
phi
phil
philadelphia
philip
philippe
phillips
philosophical
philosophy
phoenix
phosphatase
phosphate
phosphorylation
photo
photographs
photos
php
phylogeny
phys
physical
physics
physiol
physiology
pi
piacenza
piano
piazza
pic
pica
pice
piceno
pici
picture
pictures
pie
piedra
piedras
piemonte
pierce
pierre
pietro
pij
pija
pije
pijesak
pijeska
pijevac
pijijiapan
pijunski
pikardija
pila
pilas
pile
pilic
pilot
pilota
pin
pinal
ping
pink
pino
pinos
pinyin
pinzo
pio
pionir
pionira
pir
piramida
piramide
pirati
pirineji
pirot
pirotehnic
pirotskog
piruvat
pis
pisa
pisac
pisaca
pisala
pisali
pisama
pisan
pisana
pisane
pisani
pisanih
pisanim
pisanja
pisanje
pisanju
pisao
pisati
pisca
pisci
pisma
pismo
pismom
pismu
pistoia
pit
pita
pitanja
pitanje
pitanjima
pitanju
piti
pittsburgh
piva
pivnice
pj
pjenus
pjes
pjesama
pjesma
pjesmama
pjesme
pjesmi
pjesmom
pjesmu
pjesnic
pjesnik
pjesnika
pjetlic
pjeva
pjevac
pjevanje
pl
pla
plac
place
places
plamen
plan
plana
planet
planeta
planete
planeti
planetu
planina
planinama
planinarski
planine
planini
planinska
planinske
planinski
planinskih
planinskim
planinskog
planinu
planira
planiranja
planiranje
planirano
planirao
planova
planove
planovi
planovima
plant
plantaz
plants
planu
plas
plasman
plastic
plastike
plata
plate
platform
platforma
platforme
plati
platic
platiti
platna
platno
platnu
plato
platon
platonova
plava
plave
plavi
plavic
plavo
play
playa
playas
player
players
plaz
plazme
ple
plec
pleme
plemena
plemenima
plemenski
plemenu
plemic
plemstva
plemstvo
plen
ples
plesa
plesac
pleseck
pli
plic
plijen
plin
plina
plinije
plinova
pliska
pliskus
plitvic
plivac
pljac
pljevlja
plo
ploc
plod
plodan
plos
plovan
plovka
plu
pluc
plus
plutarh
pluz
pm
pmc
pmid
pnas
pne
po
poatu
pobac
pobeda
pobede
pobedi
pobedila
pobedio
pobednik
pobedom
pobedu
pobegao
pobegne
pobijedila
pobijedili
pobijedio
pobijediti
pobjec
pobjeda
pobjede
pobjedi
pobjednic
pobjednik
pobjednika
pobjedom
pobjedu
pobjegao
pobjegli
pobjegne
pobjeđuje
poboljs
poboz
pobuna
pobune
pobuni
pobunio
pobunjenic
pobunjenici
pobunjenika
pobunu
poc
pochutla
pod
podaci
podacima
podatak
podataka
podatke
podc
podela
podele
podeliti
podeljen
podeljena
podes
podgorac
podgoric
podgorica
podgrupa
podic
podigao
podigla
podigli
podigne
podignut
podignuta
podignute
podignuti
podignuto
podijelio
podijeliti
podijeljen
podijeljena
podijeljeni
podiz
podizanje
podjednako
podjela
podjele
podjeljen
podjeljena
podloga
podlogu
podloz
podlozi
podmic
podmornica
podne
podneo
podnio
podno
podnos
podnosi
podnoz
podpada
podraz
podrazumeva
podrazumijeva
podrijetla
podrijetlo
podrs
podruc
podruz
podrz
podsec
podsjec
podstic
podu
poduc
poduzec
poduzetnik
podvrsta
podz
podzemne
podzemnih
poe
poems
poena
poetic
poetry
poezija
poezije
poeziji
poeziju
pog
pogac
pogađa
poggio
pogibije
poginula
poginuli
poginulih
poginulo
poginuo
poglavar
poglavara
poglavica
poglavice
poglavito
poglavlja
poglavlje
pogled
pogleda
pogledajte
pogledati
pogledu
pogodak
pogodaka
pogodan
pogodila
pogodio
pogon
pogona
pogors
pogotovo
pogođen
pogranic
pogres
pogrmus
pogubiti
pogubljen
pogubljenja
pogubljenje
pohađa
pohađao
pohl
pohod
pohoda
pohode
pohodu
pohvale
poiana
poimenic
point
poistovjec
poj
pojac
pojam
pojas
pojasa
pojasu
pojava
pojave
pojavi
pojavila
pojavile
pojavili
pojavio
pojaviti
pojavljivanja
pojavljivanje
pojavljivao
pojavljuje
pojavljuju
pojavom
pojavu
pojedinac
pojedinaca
pojedinca
pojedinci
pojedine
pojedini
pojedinih
pojedinim
pojednostavljeni
pojma
pojmova
pojmovi
pokaz
pokazala
pokazale
pokazali
pokazalo
pokazano
pokazao
pokazati
pokazivac
pokazivao
pokazuje
pokazuju
poke
poklon
poklonio
pokolj
pokopan
pokos
pokrac
pokraj
pokrajina
pokrajine
pokrajini
pokrajinski
pokrajinskog
pokrec
pokrenula
pokrenuli
pokrenuo
pokrenut
pokrenuta
pokrenuti
pokret
pokreta
pokretac
pokretan
pokretanje
pokrete
pokreti
pokretima
pokretom
pokretu
pokriva
pokrivac
pokrivaju
pokriven
pokrs
pokuc
pokus
pol
pola
polako
poland
polar
polaz
polazi
polemic
poli
policajac
policajaca
policajca
police
policija
policije
policiji
policijska
policijske
policijski
policiju
policy
politic
political
politici
politics
politika
politike
politikom
politiku
polja
poljaci
polje
poljima
poljoprivreda
poljoprivrede
poljoprivredi
poljoprivredna
poljoprivredne
poljoprivredni
poljoprivrednih
poljoprivredno
poljoprivrednog
poljoprivredom
poljoprivredu
poljska
poljske
poljski
poljskih
poljsko
poljskog
poljskoj
poljskom
poljsku
polju
polo
polovica
polovice
polovici
polovicu
polovina
polovine
polovini
polovinom
polovinu
poloz
polu
polufinala
polufinalu
polukruz
poluostrva
poluostrvo
poluostrvu
poluotok
poluotoka
poluotoku
polupredsjednic
pomagac
pomagala
pomagao
pomak
pomalo
pomaz
pomeranija
pomic
pomijes
pominje
pominju
pomnoz
pomoc
pomogao
pomogla
pomogli
pomoglo
pomogne
pomorska
pomorske
pomorski
pomozite
pomrac
pomrc
pon
ponajvis
ponas
ponavlja
ponedjeljak
ponekad
ponekada
ponis
poniz
ponoc
ponos
ponosa
ponosan
ponovio
ponovno
ponovnog
ponovo
ponte
ponude
ponudi
ponudio
ponudu
pop
popa
pope
popeo
popis
popisa
popisi
popisima
popisu
poplava
poplave
poploc
popov
popovac
popovic
poprec
poprilic
popris
populacija
populacije
populaciji
populaciju
popular
popularan
popularna
popularne
popularni
popularnih
popularnim
popularno
popularnog
popularnoj
popularnom
popularnost
popularnosti
populat
population
popus
poput
por
porabu
porast
porasta
porastao
porastom
poraz
poraza
porazila
porazili
porazio
poraziti
porazom
pordenone
porec
pored
poredak
porekla
poreklo
poreklom
poremec
poretka
porez
poreza
poređenju
porijekla
porijeklo
porijeklom
porijeklu
porjec
porno
porodic
porodica
porodicama
porodice
porodici
porodicom
porodicu
port
porta
portal
portala
portals
portalu
porter
porto
portoriko
portrait
portret
portreta
portski
portugal
portugala
portugalci
portugalski
portugalu
poruc
poruka
poruke
poruku
porus
porvenir
pos
posada
posade
posadu
posao
poseban
posebice
posebna
posebne
posebni
posebnih
posebnim
posebno
posebnog
posebnom
posebnu
posec
posede
poseduje
poseduju
poseti
posetio
posjec
posjed
posjeda
posjede
posjedu
posjeduje
posjeduju
posjet
posjeta
posjeti
posjetio
posla
poslala
poslali
poslan
poslanic
poslanica
poslanici
poslanik
poslanika
poslao
poslat
poslati
posle
posledica
posledice
poslednja
poslednje
poslednjeg
poslednjem
poslednji
poslednjih
poslije
posljedica
posljedice
posljedicu
posljednja
posljednje
posljednjeg
posljednjem
posljednji
posljednjih
posljednjim
posljednjoj
posljednju
poslom
poslova
poslove
poslovi
poslovima
poslovne
poslovni
poslu
poslus
posluz
posmatrac
posmatranja
posmrtni
posredno
posredstvom
possible
post
posta
postaja
postaje
postaju
postala
postale
postali
postalo
postane
postanu
postao
postati
postava
postave
postavi
postavila
postavili
postavio
postaviti
postavlja
postavljaju
postavljanja
postavljanje
postavljen
postavljena
postavljene
postavljeni
postavs
postavu
postepeno
posthumno
postic
postigao
postigla
postigli
postigne
postignuc
postignut
postiz
postizanje
posto
postojala
postojale
postojali
postojalo
postojanja
postojanje
postojanju
postojao
postojati
postoje
postojec
postoji
postrojbe
postrojenja
postupak
postupaka
postupci
postupcima
postupka
postupke
postupkom
postupku
postupno
posuda
posude
posudio
posus
posve
posvec
posvetio
posvetiti
pot
potakao
potc
potencijal
potencijala
potencijalno
potentan
potential
potenza
potes
potez
poteza
potic
poticaj
poticao
potjec
potkivac
potkoz
potkraj
potlac
potoc
potok
potoka
potom
potomak
potomaka
potomci
potonji
potonuo
potopljen
potosi
potpis
potpisala
potpisali
potpisan
potpisao
potpisivanja
potpisuje
potporu
potpredsednik
potpredsjednik
potpredsjednika
potpukovnik
potpun
potpuna
potpune
potpuni
potpuno
potpunog
potpunosti
potpunu
potragu
potraz
potrazi
potreba
potrebama
potreban
potrebe
potrebi
potrebna
potrebne
potrebni
potrebno
potrebu
potrero
potres
potresa
potros
potter
potuc
potvrdila
potvrdio
potvrđen
potvrđena
potvrđeno
potvrđuje
potvrđuju
pouc
pour
pouzdan
pouzdano
povec
povelja
povelje
povelji
povelju
poveo
povesnica
povestnica
povez
povezan
povezana
povezane
povezani
povezanih
povezano
povezanost
povezanosti
povezao
povezati
povezivanje
povezuje
povezuju
povijesne
povijesni
povijesnih
povijesnim
povijesno
povijest
povijesti
povis
povjerenje
povjesnic
povlac
povlas
povlastice
povod
povodom
povoljan
povrac
povratak
povrati
povratka
povratku
povrc
povreda
povrede
povremeno
povrs
povrtarske
povuc
povukao
povukla
povukli
povuku
powell
power
powers
poz
poza
pozadina
pozadini
pozadinu
pozdrav
pozharskii
pozicija
pozicije
poziciji
poziciju
pozitiva
pozitivan
pozitivna
pozitivne
pozitivni
pozitivno
poziv
poziva
pozlac
poznaje
poznat
poznata
poznate
poznati
poznatih
poznatija
poznatiji
poznatim
poznato
poznatog
poznatoj
poznatom
poznatu
poznavanje
poznavanju
poznavao
pozo
pozoris
pozornici
pozornost
pozvan
pozvao
pozviz
pp
ppj
pr
pra
prac
practical
practice
prag
praga
pragmatic
pragu
prah
praha
prahova
praksa
prakse
praksi
praksu
praktic
pras
prate
pratec
prati
pratila
pratio
pratiti
pratnji
pratnju
prato
prava
pravac
pravan
pravas
pravca
pravcem
pravcu
pravda
pravde
pravdu
prave
pravi
pravic
pravih
pravila
pravilan
pravilima
pravilno
pravilo
pravilu
pravim
pravima
praviti
pravljenje
pravna
pravne
pravni
pravnih
pravnik
pravno
pravnog
pravnom
pravo
pravog
pravom
pravoslavlje
pravoslavna
pravoslavne
pravoslavni
pravoslavnih
pravoslavnoj
pravu
praz
prazan
praznic
praznici
praznik
praznika
prc
pre
prebac
prebacio
prebivalis
prec
preci
precizan
precizno
pred
preda
predaja
predaje
predaji
predaju
predak
predaka
predala
predali
predan
predanju
predao
predati
predavac
predavanja
predavanje
predavao
predgovor
predgrađa
predgrađe
predgrađu
prediction
predjulijanskog
predlaz
predlog
predlos
predloz
predmet
predmeta
predmete
predmeti
predmetima
predmetom
prednje
prednji
prednost
prednosti
predoc
predrag
preds
predsednic
predsednik
predsednika
predsednis
predsjedavajuc
predsjednic
predsjednik
predsjednika
predsjednikom
predsjednis
predstava
predstavama
predstave
predstavi
predstavio
predstavlja
predstavljaju
predstavljala
predstavljale
predstavljali
predstavljalo
predstavljanje
predstavljao
predstavljati
predstavljen
predstavljena
predstavnic
predstavnici
predstavnicima
predstavnik
predstavnika
predstavu
predstojec
preduzec
predviđa
predviđen
predviđeno
predvodi
predvodio
predvođeni
prefektura
prefekture
prefekturi
pregled
pregleda
pregledac
pregledano
pregovarac
pregovora
pregovore
pregovori
pregovorima
prehrambene
preimenovan
preimenovana
preinac
prekid
prekida
prekidac
prekine
prekinula
prekinuo
prekinut
prekinuta
prekinuti
preko
prekorac
prekriven
prekrs
prel
prelaska
prelaz
prelazak
prelaze
prelazi
prema
premas
premda
premes
premijer
premijera
premijere
premijerno
premijerom
premijeru
preminula
preminuo
premjes
premoc
pren
prenos
prenosa
prenose
prenosi
prentice
preobrac
preobraz
preostala
preostale
preostali
preostalih
preostalo
prepelica
preporod
preporuc
prepoznaje
prepoznati
prepoznatljiv
prepoznavanje
prepreka
prepus
preradovic
prerus
pres
presa
preselila
preselili
preselio
present
president
presjeka
preskoc
press
prestaje
prestala
prestanka
prestao
prestati
prestiz
presto
prestola
prestonica
prestras
presuda
presudan
presude
presudu
presus
presvete
pretec
pretez
prethodna
prethodne
prethodni
prethodnih
prethodnik
prethodnika
prethodnim
prethodno
prethodnog
prethodnom
pretpostaviti
pretpostavka
pretpostavke
pretpostavlja
pretraz
pretrpio
pretuc
pretvara
pretvaranje
pretvoren
pretvorena
pretvorila
pretvorio
pretvoriti
preusmjerava
preuzela
preuzeli
preuzeo
preuzet
preuzeti
preuzeto
preuzima
preuzimaju
preuzimanja
preuzimanje
preuzme
prevaru
preveden
prevedeno
prevention
preveo
prevesti
previs
prevladava
prevlast
prevod
prevodi
prevodilac
prevoditelj
prevodu
prevoz
prez
prezenta
prezentacija
prezime
prezimena
pređe
prhovo
pri
pribliz
pric
price
pride
pridjeva
pridos
pridruz
pridrz
prieta
prieto
prigus
prihod
prihoda
prihvac
prihvata
prihvati
prihvatila
prihvatili
prihvatio
prihvatiti
prijas
prijatelj
prijatelja
prijatelje
prijateljem
prijatelji
prijateljica
prijateljima
prijateljski
prijateljstva
prijateljstvo
prijateljstvu
prijatelju
prijavio
prije
prijec
prijedlog
prijedor
prijelaz
prijelaza
prijelazu
prijem
prijemc
prijenos
prijenosa
prijestolja
prijestolje
prijestolju
prijestolnica
prijestolnice
prijestolnicu
prijestupna
prijeti
prijevod
prijevodu
prijevoz
prikaz
prikaza
prikazan
prikazana
prikazane
prikazani
prikazano
prikazao
prikazati
prikazivala
prikazivanja
prikazivanje
prikazivao
prikazivati
prikazom
prikazuje
prikazuju
prikljuc
prikupljanje
prilagoditi
prilagođen
prilaz
prilep
prilic
prilici
prilika
prilikama
prilike
prilikom
priliku
prilog
priloga
priloz
prilozi
prim
prima
primaju
primarna
primarne
primarni
primarno
primary
primavera
prime
primec
primena
primene
primeni
primenjuje
primenom
primenu
primer
primera
primeraka
primeri
primi
primila
primili
primio
primirje
primiti
primjec
primjena
primjene
primjenjuje
primjenjuju
primjenu
primjer
primjera
primjerak
primjeraka
primjerci
primjeri
primjerice
primljen
primoran
primorja
primorje
primorju
primorska
primorski
primorsko
princ
princa
prince
princeton
princeza
princeze
princip
principa
principe
principima
principles
principu
prinos
print
priopc
pripada
pripadaju
pripadajuc
pripadala
pripadali
pripadalo
pripadao
pripadnici
pripadnicima
pripadnik
pripadnika
pripadnike
pripadnost
pripadnosti
pripala
pripao
pripisan
pripisuje
pripisuju
pripojena
pripovjedac
priprema
pripreme
pripremi
pripremio
pripremiti
pripremu
priredili
priredio
priroda
prirodan
prirode
prirodi
prirodna
prirodne
prirodni
prirodnih
prirodnim
prirodnjac
prirodnjaka
prirodno
prirodnog
prirodnom
prirodnu
prirodopis
prirodopisnoj
prirodopisnu
prirodu
priruc
pris
prisilio
prisiljen
prisiljena
prisiljeni
prisilno
prisjec
prislus
pristaje
pristalica
pristalice
pristanis
pristao
pristas
pristup
pristupa
pristupac
pristupio
pristupljeno
prisustva
prisustvo
prisustvovao
prisustvu
prisutan
prisutna
prisutne
prisutni
prisutnost
prisutnosti
pritisak
pritiska
pritiskom
pritisku
pritoka
pritoke
pritom
private
privatna
privatne
privatni
privatnih
privatnim
privatno
privatnog
privatnom
prividna
privilegije
privlac
privreda
privrede
privredni
privremena
privremene
privremeni
privremeno
privrz
privuc
privukao
privukla
prix
priz
prize
prizna
priznaje
priznaju
priznala
priznali
priznanja
priznanje
priznao
priznat
priznata
priznati
pro
probiti
problem
problema
problematic
problematike
probleme
problemi
problemima
proboj
probus
proc
procedura
procedure
proceedings
proceni
procenjuje
proces
procesa
procese
procesi
procesima
procesom
process
procesu
procjena
procjenama
procjene
procjeni
procjenjuje
procvat
prodaja
prodaje
prodaji
prodaju
prodan
prodao
prodati
prodavac
prodor
prodora
producent
producenta
producenti
producirao
product
production
produkcija
produkcije
produkciji
produkciju
produkt
produz
prof
profesionalne
profesionalni
profesionalnih
profesionalno
profesionalnu
profesor
profesora
profesorskog
professor
profil
profila
profilaktic
profile
profit
proglas
proglasi
proglasila
proglasili
proglasio
prognan
progon
progona
program
programa
programe
programi
programima
programski
programu
progreso
progress
proizlazi
proizveden
proizveo
proizvesti
proizvod
proizvoda
proizvode
proizvodi
proizvodila
proizvodima
proizvoditi
proizvodnja
proizvodnje
proizvodnji
proizvodnjom
proizvodnju
proizvođac
project
projekat
projekata
projekcija
projekt
projekta
projekte
projekti
projektila
projektima
projektirao
projektu
prolaz
prolaza
prolaze
prolazi
prolec
proleterska
proleterske
proljec
prolog
promas
promatra
promatrac
promatranja
promena
promenama
promene
promeni
promenio
promenite
promenu
promet
prometa
promijenila
promijenio
promijeniti
promijenjen
promis
promjena
promjenama
promjene
promjenu
promjer
promjera
pronac
pronalaska
pronalaz
pronalazac
pronalaze
pronalazi
pronas
pronađe
pronađen
pronađena
pronađene
pronađeni
pronađeno
propaganda
propagande
propao
propast
propasti
properties
propisan
propus
prorac
proroc
prorok
proroka
pros
prosec
prosinac
prosinca
prosincu
prosjac
prosjec
prosjek
prosjeku
proslava
proslave
proslavio
prost
prosta
prosti
prostirala
prostire
prostor
prostora
prostore
prostorija
prostorijama
prostorije
prostorima
prostorno
prostorom
prostoru
prosveta
prosvete
prosvjeta
protagonist
protagonista
protagonisti
protagonistica
protein
proteina
proteine
proteini
proteinima
proteins
proteinski
protektorat
protest
protesta
protestantski
protesti
protez
protic
protiv
protivi
protivio
protivljenje
protivnic
protivnici
protivnik
protivnika
protivnom
protjeran
proto
protoc
protok
protoka
protokol
proton
protona
prototip
protumac
proturjec
prouc
prouzroc
provansa
provela
proveli
proveo
provesti
providencia
provinces
provincia
provincija
provincijama
provincije
provinciji
provincijom
provinciju
provlac
provode
provodi
provodio
provoditi
provođenje
proz
proza
proze
prozor
prozora
prozrac
prozvan
prođe
prs
prsa
prst
prsta
prsten
prstena
prstenova
prstiju
pru
prudnik
pruga
pruge
pruska
pruske
pruski
prutka
pruz
pruzi
prva
prvaci
prvak
prvaka
prve
prvenstva
prvenstveno
prvenstvima
prvenstvo
prvenstvu
prvi
prvih
prvim
prvo
prvobitni
prvobitno
prvog
prvoga
prvoj
prvoligas
prvom
prvotno
prvu
prz
ps
psa
pseudo
pseudomonas
pseudonimom
psi
psihic
psihodelic
psihologija
psihologije
psiholos
psychiatry
psycho
psychology
pt
ptic
ptica
ptice
ptolemej
ptolemeja
pu
pub
pubchem
public
publications
publici
publicist
publika
publikacija
publike
publikom
publiku
published
publisher
publishers
publishing
puc
puca
puebla
pueblo
puente
puerta
puerto
puhac
puk
puka
pukovnik
pukovnika
pula
pule
puli
pumpa
pumpe
pun
puna
punac
pune
puni
punica
punih
punim
punk
puno
punog
punoletna
punoletnih
punom
punta
punu
pupavac
pupc
puri
purification
pus
pusti
pustinja
pustinje
pustinji
pustiti
pustolovine
pustolovni
pustos
put
puta
putanje
putem
puteva
puteve
putevi
putevima
putna
putnic
putnik
putnika
putovanja
putovanje
putovanju
putovao
putu
putuje
putuju
putujuc
puz
puzac
puzavac
puzovic
q
qa
qi
qin
quality
quantum
quarterly
que
quebec
queen
queer
quere
question
qui
quinn
quinta
quintana
r
ra
rabi
rac
race
rachel
rad
rada
radan
rade
radec
radi
radic
radija
radije
radiju
radikalne
radikalno
radila
radili
radilo
radinci
radio
radionica
radionice
radis
raditi
radivoj
radmila
radna
radne
radni
radnic
radnici
radnih
radnik
radnika
radnike
radnja
radnje
radnji
radnjom
radnju
radno
radnog
radnom
rado
radojevo
radom
radomir
rados
radoslav
radova
radovan
radove
radovi
radovic
radovima
radu
radulovac
raf
rafael
ragusa
rah
rahman
rai
railways
rain
raj
raja
rajic
rajko
rajn
rajna
rajne
rajski
rajzer
rak
raka
raketa
rakete
rakic
rakovic
ralph
ram
rama
rame
ramena
rami
ramo
ramos
ran
rana
ranc
ranchito
rancho
random
rane
rang
rani
ranih
ranije
ranijeg
ranijem
raniji
ranijih
ranijim
ranim
ranjen
ranjenih
ranjenika
ranjeno
ranko
rankovic
rano
ranog
ranoj
ranom
ranu
ranz
rapid
rard
ras
rasa
rase
rasistic
raskalas
raskos
raskrs
rasla
raspad
raspada
raspadom
raspala
raspisan
raspolaganju
raspolaz
raspoloz
raspon
rasponu
raspored
raspoređenih
rasprava
rasprave
raspravu
rasprostranjena
rasprs
raspus
rast
rasta
rastao
raste
rasti
rastko
rastu
rastuc
rastvora
rat
rata
ratarske
rati
ratis
ratko
ratna
ratne
ratni
ratnic
ratnici
ratnih
ratnik
ratnika
ratnim
ratno
ratnog
ratnom
ratnu
ratom
ratova
ratovanja
ratovanje
ratove
ratovi
ratovima
rats
ratu
ravan
ravenna
ravna
ravnatelj
ravne
ravni
ravnic
ravnica
ravnice
ravnici
ravno
ravnodus
ravnotez
ray
raymond
rayo
raz
razarac
razaranja
razbio
razbiti
razdoblja
razdoblje
razdoblju
razdraz
razdvaja
razgovor
razgovora
razgovori
razgranic
razina
razine
razini
razinu
razjas
razlaz
razlic
razlika
razlike
razlikovati
razliku
razlikuje
razlikuju
razlog
razloga
razloz
razlozi
razluc
razmak
razmis
razmjes
razmnoz
razna
razne
razni
raznih
raznim
razoc
razoren
razoruz
razred
razreda
razrede
razres
razrijes
razrjes
razrus
razum
razumevanje
razumijevanje
razvija
razvijaju
razvijala
razvijao
razvijati
razvije
razvijen
razvijena
razvijene
razvijeni
razvijenim
razvijeno
razvila
razvile
razvili
razvilo
razvio
razvitak
razviti
razvlac
razvod
razvoj
razvoja
razvojem
razvoju
razvrstavanje
razvuc
rađa
rba
rbara
rc
rca
rcega
rd
rda
rdenas
rdoba
re
reaction
reactions
read
reader
reading
reaguje
reakcija
reakcijama
reakcije
reakciji
reakcijom
reakciju
reaktor
reaktora
real
realistic
reality
realizma
rebecca
rec
recensa
recent
recenzija
receptor
receptora
receptore
receptori
receptors
reci
recimo
recognition
record
records
red
reda
redatelj
redatelja
reditelj
redom
redova
redove
redovima
redovito
redovna
redovne
redovni
redovnic
redovnik
redovno
redovnog
redu
reductase
reduktaza
redz
reed
ref
referenca
reference
references
referendum
referenduma
referendumu
reforma
reformacije
reforme
reformi
reformistic
reformu
refugio
reg
regent
regenta
reggio
regija
regijama
regije
regiji
regiju
regina
region
regiona
regional
regionalne
regionalni
regionalnog
regionalnu
regions
regionu
registar
registrovano
regulation
regulis
reich
reid
reis
reka
rekao
rekavs
reke
rekla
reklama
rekli
rekonstrukcija
rekonstrukcije
rekord
rektascenzija
rektor
reku
related
relations
relativna
relativno
relativnosti
release
religija
religije
religiji
religijske
religijski
religijskih
religiju
religion
religious
reljef
reljefa
rem
remake
remek
ren
renaissance
rene
renesansa
renesanse
reno
rep
repa
repomiga
report
reporter
reports
reprezentacija
reprezentacije
reprezentacijom
reprezentaciju
reprezentativac
reprint
reprinted
repu
republic
republici
republika
republikanske
republikanski
republike
republikom
republiku
reputaciju
res
research
resistance
resolution
resource
resources
respons
response
restoran
restorana
results
resursa
ret
retko
retrieved
return
reuters
rev
review
reviews
revija
revised
revizirani
revolucija
revolucije
revoluciji
revoluciju
revolucionar
revolucionarna
revolucionarne
revolucionarni
revolucionarnog
revolution
rex
rey
reyes
reynolds
reynosa
rez
reza
rezervat
rezervata
rezervatu
rezerve
rezidencija
rezolucija
rezolucije
rezoluciju
rezultat
rezultata
rezultate
rezultati
rezultatima
rezultatom
rezultira
rezultiralo
ređe
rfauna
rfe
rg
rgs
rh
rho
ri
ria
rib
riba
ribar
ribarska
ribarsko
ribarstva
ribe
ribi
ribic
ribolov
ribu
ric
rica
ricardo
rice
rich
richard
richarda
richards
richardson
richmond
rick
rico
rieti
right
rightleftharpoons
rights
riha
rihard
rija
rijec
rijeci
rijeka
rijekama
rijeke
rijekom
rijeku
rijes
rijetke
rijetki
rijetkih
rijetko
rim
rima
rimini
rimljana
rimljani
rimljanima
rimokatolic
rimska
rimske
rimski
rimskih
rimskim
rimsko
rimskog
rimskoj
rimskom
rimsku
rimu
rin
rina
rinco
ring
rio
rioverde
ris
rise
risk
ristic
rit
rita
ritam
riti
ritmic
riva
river
rivera
riz
rizik
rizika
rj
rjec
rjes
rjeđe
rk
rka
rl
rm
rma
rn
rna
rni
rnk
rno
ro
road
rob
roba
robb
robe
robert
roberta
roberto
roberts
robertson
robin
robinson
robova
robove
robovi
robu
roc
rock
rocka
rocky
rod
roda
rodeo
rodila
rodio
roditelja
roditelje
roditelji
roditeljima
rodni
rodno
rodnom
rodom
rodova
rodovi
rodri
rodu
rog
roger
rogers
rohde
rok
roka
roku
roland
role
roll
rolling
rom
roma
romagna
roman
romana
romance
romane
romani
romania
romanian
romanic
romanima
romano
romantic
romantizma
romanu
rome
romeo
romero
romi
romita
romos
ron
rona
ronac
ronald
roo
room
roosevelt
ropstva
ropstvo
ros
rosa
rosales
rosario
rosarito
rosas
rose
rosenberg
ross
rossi
rot
rotacije
roth
rothman
rotora
rotten
rouge
round
routledge
rov
rovigo
roy
royal
roz
rođ
rođak
rođaka
rođen
rođena
rođendan
rođeni
rođenja
rođenje
rođenju
rrez
rrnk
rs
rski
rt
rta
rtani
rtava
rtb
rte
rts
rtv
rtva
rtvama
rtve
rtvu
ru
rub
rubu
ruc
ruci
ruda
rude
rudnik
rudnika
rudolf
rudolfa
rui
ruiz
rujan
rujna
rujnu
ruka
rukama
ruke
rukom
rukometas
rukometni
rukopis
rukopisa
rukovodstva
rukovodstvo
ruku
rule
rules
ruma
rumenka
rumuni
rumunija
rumunije
rumuniji
rumunjska
rumunjske
rumunjski
rumunski
run
rupa
rupe
rus
rusa
rush
rusi
rusija
rusije
rusiji
rusijom
rusijon
rusiju
ruska
ruske
ruski
ruskih
ruskim
rusko
ruskog
ruskoj
ruskom
rusku
russell
russia
russian
ruta
ruth
ruz
rv
rvi
ry
ryan
s
sa
sabinas
sabino
sabor
sabora
saboru
sabotaz
sac
sad
sada
sadas
sadrz
sadu
safety
saga
sage
saglasnost
sagradio
sagrađen
sagrađena
sahranjen
said
saint
saints
sajam
sajt
sajtu
sak
saksonija
sakule
sakupljac
sal
sala
salamanca
sale
salerno
salinas
sally
salon
saltillo
salto
salvador
sam
sama
samardz
same
sami
samih
samim
samo
samog
samoga
samoj
samom
samostalna
samostalne
samostalni
samostalno
samostalnost
samostalnu
samostan
samostana
samostanu
samoubistvo
samoubojstvo
samouprave
samu
samuel
san
sanad
sanders
sandra
sanduka
sandz
sanja
sankt
sans
sanski
sant
santa
santiago
santo
santos
sanu
sao
saobrac
saona
saops
sapwood
sar
sara
saradnici
saradnik
saradnika
saradnja
saradnje
saradnji
saradnju
sarah
sarajeva
sarajevo
sarajevski
sarajevu
sarađivao
sardinija
sas
saslus
sassari
sastanak
sastanka
sastanku
sastao
sastav
sastava
sastavio
sastavljen
sastavljena
sastavljene
sastavni
sastavu
sastojak
sastojala
sastojao
sastoje
sastoji
sasvim
sat
sata
satan
satelit
satelita
satelitima
satelitska
satelitski
satelitu
satellite
sati
satire
satiric
satrap
satu
saturn
sauces
saucillo
saucito
saunders
sauz
sav
sava
savage
save
savet
saveta
savetnik
savez
saveza
savezna
savezne
savezni
saveznic
saveznici
saveznicima
saveznih
saveznik
saveznika
saveznike
saveznis
saveznog
saveznoj
saveznom
savezu
savi
savic
savinjskoj
savita
savjet
savjeta
savjetnik
savjetnika
savoja
savona
savremena
savremene
savremeni
savrs
savski
saxon
say
says
sayula
saz
sazna
saznaje
saznanja
saznao
sazvao
sazvez
sazvijez
sb
sc
scale
scarecrow
scena
scenama
scenarij
scenarija
scenariju
scenario
scenarist
scenarista
scene
sceni
scenu
schmidt
schmitz
schneider
scho
schomburg
school
schuste
schuster
schwartz
sci
science
sciences
scientific
scolopacidae
scotland
scott
scottish
screen
scribd
scribners
scriptstyle
sd
sdp
sds
sdss
sdzb
se
sea
sean
search
seas
season
sebastia
sebastian
sebe
sebi
sebis
sec
seccio
seco
second
secret
section
security
sedam
sedamdesetih
sedis
sedma
sedmi
seds
see
sefkerin
segel
segment
seine
seitz
sekcija
sekcije
sekretar
sekretara
seks
seksa
seksualna
seksualne
seksualni
seksualno
seksualnog
sektor
sektora
sektoru
sekulic
sekundarne
sekundarni
sekunde
sekundi
sekvenca
sekvence
sekvenci
sela
selby
seldz
sele
selected
selective
selektivni
self
seli
selima
seljac
seljaci
seljaka
selo
selu
selzer
sem
seme
semjorka
sen
sena
senat
senata
senate
senator
senatora
senatu
seneka
senica
senpeter
sent
senta
seoba
seobe
seoska
seoski
seoskog
sep
separat
separatni
septembar
september
septembra
septembru
sequence
sequences
ser
serbia
serbian
sergej
sergije
sergio
series
serija
serijal
serijala
serijalu
serijama
serije
seriji
serijski
seriju
serotonin
serra
server
service
services
servis
sestara
sestra
sestre
sestrom
sestru
set
seta
setu
seunik
seven
seventh
sever
severa
severin
severna
severne
severni
severno
severnog
severnoj
severnom
severnu
severoistoc
severozapadno
severozapadnom
severu
sex
sexual
sez
sezona
sezone
sezoni
sezonu
sf
sfera
sfere
sferi
sfr
sfrj
sg
sgs
sh
sha
shadow
shakespeare
sharon
sharpe
shaw
she
sheet
sherlock
sherman
shi
shirley
sho
short
show
shows
shrivastava
shs
shu
shvac
shvata
shvatanje
shvati
shvatili
shvatio
shvatiti
si
sic
sici
sicilija
sicilije
siciliji
siciliju
sid
side
sidney
sie
siena
sierra
siete
sigismund
sigma
signal
signala
signaling
siguran
sigurno
sigurnos
sigurnost
sigurnosti
sija
sijec
sil
sila
silama
silan
silao
silbas
sile
silent
sili
silom
silovanja
siltepec
silu
silva
silver
sim
sima
simbad
simbol
simbola
simboli
simbolic
simeon
simetric
simfonija
simic
simo
simojovel
simon
simone
simonovic
simpatic
simpatije
simpson
simptoma
simptome
simptomi
sims
sin
sina
sinaloa
since
sindikata
sindrom
sindroma
sing
singer
singh
singl
singla
single
singlova
sinh
sinica
sinis
sinnott
sinod
sinom
sinonim
sinonima
sinonimi
sinova
sinove
sinovi
sinovima
sintaksa
sintaza
sintetaza
sintetic
sinteza
sinteze
sintezu
sinu
sio
sip
sir
sirije
siriji
sirijski
siriju
siro
siromas
sirovina
sis
sisac
sisak
sisara
sisavaca
sistem
sistema
sistematski
sistematskim
sisteme
sistemi
sistemima
sistemom
sistemu
sister
sit
site
sites
siti
sitne
situacija
situacijama
situacije
situaciji
situaciju
siv
siva
sivac
sive
sivi
six
sj
sjaj
sjaja
sjajan
sje
sjec
sjedinjene
sjedinjenih
sjedinjenim
sjedis
sjednici
sjemenis
sjenica
sjever
sjevera
sjeverna
sjeverne
sjeverni
sjevernih
sjevernim
sjeverno
sjevernoameric
sjevernog
sjevernoj
sjevernom
sjevernu
sjeveroistoc
sjeveroistoku
sjeverozapadne
sjeverozapadno
sjeverozapadnoj
sjeverozapadnom
sjeverozapadu
sjeveru
sk
ska
skadarskom
skakac
skandal
ske
skean
skeptic
ski
skijas
skin
skj
skladao
skladatelj
skladatelja
skladbe
skladis
skladu
sklapa
sklapanja
sklon
skloni
sklonio
sklonis
sklonost
sklonosti
sklop
sklopio
sklopljen
sklopu
sko
skoc
skoj
skok
skokova
skoplja
skoplje
skoplju
skoro
skrac
skrb
skrec
skrs
sku
skulptura
skulpture
skup
skupa
skupina
skupinama
skupine
skupini
skupinu
skupova
skups
skupu
sky
sl
sla
slab
slaba
slabe
slabi
slabije
slabo
slabost
slabosti
sladak
slanje
slankamen
slatina
slava
slavan
slave
slavena
slaveni
slavenski
slavi
slavic
slavka
slavko
slavna
slavni
slavnih
slavnog
slavonija
slavonije
slavoniji
slavonska
slavonski
slavonsko
slavu
slavuj
slaz
sle
slede
sledec
sledi
sledky
slhhv
sli
slic
slici
slijede
slijedec
slijedi
slijedio
slika
slikama
slikar
slikara
slikari
slikarstva
slikarstvo
slikarstvu
slike
sliku
sliv
sliva
slivu
sljedbenici
sljedbenika
sljedec
slo
sloboda
slobodan
slobodana
slobode
slobodi
slobodna
slobodne
slobodni
slobodnih
slobodnim
slobodno
slobodnog
slobodnom
slobodnu
slobodu
sloga
sloj
sloja
slojeva
slojevi
slojevima
sloju
sloma
slonovac
slov
slova
slovac
slovaci
slovena
slovenac
slovenaca
slovenci
sloveni
slovenia
slovenija
slovenije
sloveniji
slovenska
slovenske
slovenski
slovenskih
slovenskog
slovenskoj
slovima
slovinac
slovo
sloz
slu
sluc
sluga
sluge
slus
sluz
sluzokoz
sm
sma
small
smanjen
smanjena
smanjenja
smanjenje
smanji
smanjila
smanjio
smanjiti
smanjuje
smanjuju
smatra
smatraju
smatrajuc
smatrala
smatrali
smatralo
smatran
smatrani
smatrao
smatrati
sme
smec
smederevo
smer
smeru
smes
smeđe
smije
smijenjen
smijes
smiju
smis
smisao
smisla
smislu
smith
smithsonian
smjer
smjera
smjeru
smjes
smjestio
smo
smr
smrac
smrc
smrekar
smrt
smrti
smrtno
sn
sna
snaga
snagama
snage
snagom
snagu
snaz
snazi
sne
snez
sni
snijeg
snima
snimaju
snimak
sniman
snimana
snimanja
snimanje
snimanju
snimao
snimati
snimci
snimila
snimili
snimio
snimiti
snimka
snimke
snimljen
snimljena
snimljene
sniz
snjez
sno
snova
snow
snu
so
soba
sobe
sobi
sobom
sobu
soc
social
society
socijalan
socijalista
socijalistic
socijalizam
socijalizma
socijalna
socijalne
socijalni
socijalnih
socijalno
socijalnog
socijalnu
sofija
softver
softvera
software
sok
soko
sokol
sokolovic
sol
sola
solar
solarnog
soledad
soli
solidaridad
solo
solomon
solubility
solun
som
soma
sombor
sombora
some
son
sonata
sondrio
song
songs
sonic
sonja
sonora
sons
sony
sophie
sopra
soprona
sopstvene
sopstvenu
sorta
sot
soto
sotto
soul
sound
soundtrack
source
sources
sous
south
southern
sova
soviet
sovjeta
sovjeti
sovjetska
sovjetske
sovjetski
sovjetskih
sovjetskim
sovjetsko
sovjetskog
sovjetskom
sovjetsku
sovuljaga
sowerwine
sp
spa
space
spada
spadaju
spain
spaja
spajaju
spajanja
spajanje
spajanjem
spanish
sparta
spartanci
spartanski
sparte
spas
spasi
spasio
spasiti
spava
spavanja
spavanje
spc
spe
special
species
specific
specificity
specijalna
specijalne
specijalni
specijalnih
specijalnim
specijalno
spektar
spektra
spencer
spezia
spi
spielberg
spin
spiralna
spirit
spiro
spis
spisa
spisak
spisateljica
spisi
spisima
spisku
split
splita
splitski
splitsko
splitskog
splitu
spo
spoj
spoja
spojen
spojena
spojeva
spojevi
spola
spoljas
spoljnih
spolu
spomen
spomenice
spomenici
spomenicima
spomenik
spomenika
spomenike
spomenuti
spominje
spominju
spontano
spor
spora
sporazum
sporazuma
sporazumom
sporazumu
sporedni
sporednog
sporednu
sporo
sport
sporta
sportas
sportova
sports
sportska
sportske
sportski
sportskih
sposoban
sposobni
sposobnost
sposobnosti
spot
spoznaje
sprava
spre
sprec
spregnuti
spregnutih
sprema
spreman
spremna
spremni
sprijec
spring
springer
springs
sprjec
sprovodi
spus
spuz
spy
sqq
sqrt
square
sr
srac
srba
srbe
srbi
srbija
srbije
srbiji
srbijom
srbiju
srbima
srbin
srbobran
src
srca
srce
srcu
sre
srebra
srebrenica
srebrna
srebrni
srebro
srec
sredina
sredine
sredini
sredinom
sredinu
sredis
srednja
srednje
srednjeg
srednjem
srednji
srednjih
srednjim
srednjoj
srednjom
srednjos
srednjovjekovna
srednjovjekovne
srednjovjekovni
srednjovjekovnih
srednjovjekovnog
srednju
sredozemnog
sredstava
sredstva
sredstvima
sredstvo
srejovic
srem
srema
sremska
sremske
sremski
sremu
sreo
srijedu
srijemsko
srj
srodan
srodne
srodni
srodnih
srodstvu
srpanj
srpnja
srpnju
srpska
srpske
srpski
srpskih
srpskim
srpsko
srpskog
srpskoga
srpskohrvatska
srpskohrvatski
srpskohrvatskog
srpskohrvatskoga
srpskohrvatskom
srpskoj
srpskom
srpsku
srus
srz
srđan
ss
ssr
sssr
st
sta
stabala
stabilan
stabilnost
stabilnosti
stabla
stablo
stadion
stadiona
stadionu
staff
stage
stajalis
stajao
stakla
staklo
stalan
stalez
staljin
staljina
stalna
stalne
stalni
stalnih
stalnim
stalno
stalnog
stalnom
stambene
stambenih
stambeno
stan
stana
stand
standard
standarda
standarde
standardima
standardna
standardne
standardni
stane
stanford
stanic
stanica
stanicama
stanice
stanici
stanicu
stanimirovic
stanis
stanja
stanje
stanju
stanko
stankovic
stanley
stanovis
stanovnici
stanovnicima
stanovnik
stanovnika
stanovnike
stanovnis
stanu
stao
stapar
star
stara
starac
starc
stare
stares
stari
starih
starija
starije
starijeg
stariji
starijih
starijim
starim
starina
starine
starjes
staro
starog
starogrc
staroj
starom
starost
starosti
stars
start
startrek
staru
stat
state
states
stati
static
station
statistic
statistica
statistical
statistics
statistika
statistike
statistiku
statoids
statua
statue
status
statusa
statusu
statut
stav
stava
stavi
stavio
staviti
stavlja
stavljaju
stavljen
stavova
stavove
stavovi
stavovima
staza
stazama
staze
stazione
stcnty
ste
steady
stec
steel
stefan
stefana
stefano
stefanovic
stein
steinicke
stekao
stekla
stekli
stella
stena
step
stepen
stepena
stepeni
stepenom
stephane
stephen
sternhaufen
stevan
steve
steven
stevens
stewart
sti
stic
stica
sticajem
stigao
stigla
stigli
stigne
stih
stihova
stihove
stihovi
stihovima
stijena
stijenama
stijene
stil
stila
still
stilom
stilova
stilu
stimulis
stipe
stit
stiz
stjepan
stjepana
sto
stoc
stockholm
stoga
stogodis
stoic
stojan
stojanovic
stoje
stoji
stojic
stojkovic
stoka
stoke
stoku
stol
stola
stolica
stolice
stoljec
stone
stop
stopa
stopala
stope
storia
stories
storm
story
stotina
stotine
stotinjak
stotinu
stoz
str
stra
strabon
strac
strada
stradala
stradali
stradalih
stradalo
stradanja
stradao
strah
straha
strahu
strana
stranac
stranaka
stranama
stranci
strane
strange
strani
stranica
stranicama
stranice
stranici
stranicu
stranih
stranim
stranka
stranke
stranku
stranom
stranu
stras
strast
strasti
strategija
strategije
strates
strausberg
straz
strazbur
strazburs
stre
street
streljac
stri
stric
strica
strijelac
strijez
strip
stripa
stripova
stripu
striz
strnadica
stro
strogo
stroj
stroja
strojeva
strojevi
strs
stru
struc
structural
structure
structures
struga
struja
strujanja
struje
struju
struktura
strukturama
strukture
strukturi
strukturu
strvinar
stu
stuart
stub
stubis
studenata
studeni
studenog
studenoga
studenom
student
studente
studenti
studentima
studentski
studies
studij
studija
studijama
studije
studiji
studijima
studijski
studiju
studio
studios
studira
studirao
study
stup
stupa
stupanj
stupio
stupnja
stupnjeva
stupova
stuttgart
stva
stvar
stvara
stvaraju
stvarajuc
stvaralac
stvaralas
stvaranja
stvaranje
stvaranjem
stvaranju
stvarao
stvarati
stvari
stvarima
stvarna
stvarne
stvarni
stvarnim
stvarno
stvarnom
stvarnost
stvarnosti
stvo
stvoren
stvorena
stvoreni
stvorenja
stvori
stvorila
stvorili
stvorio
stvoriti
style
su
sua
sub
subdivisions
subfamily
subotic
subotica
subotu
substrate
subunit
suc
suca
suceava
suchiate
sud
suda
sudac
sudan
sudana
sudara
sudbina
sudbine
sudbinu
sudec
sudija
sudionik
sudjelovala
sudjelovali
sudjelovalo
sudjelovanje
sudjelovao
sudjelovati
sudjeluje
sudjeluju
sudom
sudova
sudovi
sudovima
sudski
sudu
sugerira
sugeris
sui
sukladno
sukob
sukoba
sukobe
sukobi
sukobima
sukobu
sul
sulejman
sulfat
sullivan
sultan
sultana
sultanat
sum
summary
summer
sumnja
sumnje
sumnjic
sumpor
sun
sunajko
sunc
sunca
sunce
suncu
sunday
suoc
sup
suparnic
super
superiore
superlativ
superlativa
superman
suppl
support
suprotan
suprotno
suprotnom
suprotnost
suprotnosti
suprug
supruga
supruge
suprugom
suprugu
supruz
supstanca
supstance
supstanci
sur
suradnik
suradnika
suradnja
suradnje
suradnji
suradnju
surađivao
surađuje
surc
surduk
surface
survey
sus
susan
susek
susjeda
susjedna
susjedne
susjednih
susjednim
susrec
susreo
susret
susreta
susretu
sustav
sustava
sustavi
sustavom
sustavu
sutra
sutradan
suva
suverenitet
suvis
suvremena
suvremene
suvremeni
suvremenih
suvremenog
suz
suzdrz
suze
suzuki
suđenja
suđenje
suđenju
sv
sva
svadba
svaka
svakako
svake
svaki
svakih
svako
svakodnevno
svakodnevnom
svakog
svakoga
svakoj
svakom
svaku
svađe
sve
svec
sveca
svedoc
svega
svejedno
svemir
svemira
svemirska
svemirske
svemirski
svemiru
svemu
sves
sveska
svest
svesti
svet
sveta
svetac
svetaca
svete
sveti
svetih
svetilis
svetim
svetis
svetlana
svetlost
svetlosti
sveto
svetog
svetoga
svetoj
svetom
svetozar
svetska
svetske
svetski
svetskih
svetsko
svetskog
svetskom
svetu
sveuc
sveukupno
svez
svezak
svezaka
svi
svibanj
svibnja
svibnju
svih
svijest
svijesti
svijet
svijeta
svijetom
svijetu
svile
svilos
svim
svima
svinja
svinje
svira
svirac
svirao
svirati
svjedoc
svjestan
svjetla
svjetlo
svjetlost
svjetlosti
svjetska
svjetske
svjetski
svjetskih
svjetskim
svjetsko
svjetskog
svjetskoj
svjetskom
svjetsku
svjez
svo
svog
svoga
svoj
svoja
svoje
svojeg
svojem
svojevremeno
svojevrsni
svojih
svojim
svojoj
svojom
svojstava
svojstva
svojstven
svojstvima
svojstvo
svojstvu
svoju
svom
svome
svrac
svrgnuo
svrgnut
svrha
svrhe
svrhu
svrs
svrstava
svu
svuda
swanton
sweden
sweet
swift
sydney
sylvia
syndrome
synthase
synthesis
system
systematic
systems
szerb
szerbia
t
ta
tab
taba
tabasco
tabele
table
tablica
tablice
tabu
tac
taca
tad
tada
tadas
tadic
tadz
tage
tai
taiz
taj
taja
tajan
tajerskoj
taji
tajima
tajn
tajna
tajne
tajni
tajnih
tajnik
tajno
tajnog
tajnom
tajnosti
tajnu
taju
tajuc
tak
takav
take
takes
takmic
tako
takozvane
takozvani
takođe
također
taktic
takva
takve
takvi
takvih
takvim
takvo
takvog
takvoj
takvom
takvu
tal
tala
talas
talasa
tale
talent
tales
tali
talica
talijani
talijanska
talijanske
talijanski
talijanskih
talijanskog
talijanskom
talk
taloz
talpa
tam
tama
tamara
tamaulipas
tamazula
tamazunchale
tamburas
tame
tamiahua
tamne
tamno
tamo
tamos
tampa
tampano
tamparija
tampe
tampico
tamui
tan
tana
tanaka
tancanhuitz
tanchuk
tanci
tane
tang
tanga
tani
tanja
tanje
tanjem
tanju
tanka
tanque
tanski
tantoyuca
tao
tap
tapa
tapachula
tapic
tar
tara
taras
tare
targets
tari
tarn
taro
tarski
tas
taste
tat
tata
tate
tati
tav
tava
tavaju
tavan
tavanja
tavanje
tavati
taxco
taylor
tb
tcm
te
tea
team
teams
teatar
teatra
teatru
teau
tebe
tebi
tec
tecalitla
tecate
technology
tecolutla
tecoma
tecpata
ted
teg
teheran
tehnic
tehnici
tehnika
tehnikama
tehnike
tehnikom
tehniku
tehnologija
tehnologije
tehnologiju
tehnolos
tehran
tek
teksas
teksasu
tekst
teksta
tekstila
tekstopisac
tekstova
tekstove
tekstovi
tekstovima
tekstu
teku
tekuc
tel
tela
telegram
telegraph
telenovela
teleorman
teleskop
teleskopa
television
televizija
televizije
televiziji
televizijska
televizijske
televizijski
televizijskih
televizijskim
televizijskoj
televiziju
telj
tell
telo
teloloapan
telu
tem
tema
temama
temapache
tematike
tematski
teme
temelj
temelja
temelje
temeljem
temeljen
temeljena
temelji
temeljima
temeljito
temelju
temi
temis
temo
temom
temperatura
temperaturama
temperature
temperaturi
temperaturom
temperaturu
temple
tempoal
temu
ten
tena
tenango
tene
tenesi
teni
tenici
tenih
tenik
tenika
tenim
tenis
tenisac
teniser
teniserka
tenja
tenje
tenjem
tenju
tenk
tenka
tenkova
tenkovi
tennessee
tennis
teno
tenog
tenom
tenost
tenski
tenu
teocaltiche
teodor
teodora
teodosije
teolog
teologije
teolos
teorema
teoretic
teoretski
teorija
teorije
teoriji
teorijski
teoriju
tepatitla
tepehuanes
tequila
ter
tera
teramo
terapija
terapije
terapiju
teren
terena
terenu
teresa
teret
tereta
teri
teritorij
teritorija
teritorijalne
teritorijama
teritorije
teritoriji
teritoriju
term
terme
termic
termin
termina
terminal
termini
terminologija
terminologije
terminologiji
terminologiju
termodinamic
terni
teror
terora
teroristic
terra
terrero
territorialgeschichte
territories
terror
terry
tes
tesla
test
testa
testament
testiranja
testiranje
tet
teta
tete
tetela
tetiti
tetko
tetu
texas
text
texts
tez
teza
teze
tezonapa
tezu
th
thames
than
that
the
theater
theatre
their
them
then
theodore
theory
ther
therapeutics
therapy
there
these
theta
they
thiessen
thing
things
third
this
thomas
thomasa
thompson
thomson
thought
three
through
ti
tic
tica
tice
tierra
tiger
tigre
tih
tihuatla
tii
tija
tijekom
tijeku
tijela
tijelo
tijelu
tijuana
tik
tila
tili
tim
tima
time
times
timis
timoc
timothy
timu
tin
tina
tinama
tine
tinejdz
tini
tinom
tinska
tinske
tinski
tinskih
tinskog
tinu
tio
tip
tipa
tipic
tipova
tipovi
tipu
tiquicheo
tir
tiraz
tiringija
tis
tiskarnica
tissue
tisuc
tit
tita
titan
tite
titel
titi
titio
tititi
title
titni
titnik
titnika
tito
titograd
titogradu
titom
titu
titula
titule
titulom
titulu
tiv
tizimi
tj
tjedan
tjedana
tjedna
tjelesne
tjuratam
tk
tka
tkachenko
tkanina
tkanine
tkiva
tkivima
tkivo
tko
tla
tlac
tlacotepec
tlajomulco
tlak
tlaka
tlalixcoyan
tlaxcala
tlo
tlu
tm
tn
tna
tni
tno
tnyelvu
to
toc
today
todd
todorovic
tog
toga
toj
tok
toka
tokom
toksic
toku
tokyo
toliko
tolima
tolj
tolja
tom
toma
tomas
tomatoes
tome
tomi
tomic
tomislav
tommy
tomo
tomu
ton
tona
tonala
tone
tongjian
toni
tony
too
toone
tooze
top
topa
topia
topic
topla
toplice
toplina
topline
toplinu
toplote
topova
tor
toranj
tori
torino
tornado
tornja
toro
toronto
torre
torres
tos
toscana
total
totolapan
tour
tovan
tovanja
tovanje
tovaris
tovati
tovit
tower
town
tr
tra
trac
tracy
trade
tradicija
tradicije
tradiciji
tradicijom
tradiciju
tradicionalna
tradicionalne
tradicionalni
tradicionalnih
tradicionalnim
tradicionalno
tradicionalnom
tradition
trag
traga
tragedija
tragedije
tragic
tragova
tragove
tragovi
trailer
train
trajala
trajalo
trajan
trajanja
trajanje
trajanju
trajao
trajati
traje
trajk
trajno
traju
traka
trake
trans
transaminaza
transfer
transferaza
transformacija
transformacije
translated
translation
transmembranskog
transport
transporta
transporter
trapani
trase
trava
travanj
trave
travel
travnik
travnja
travnju
traz
trbus
trc
tre
treatment
treba
trebaju
trebala
trebale
trebali
trebalo
trebao
trebinje
trec
treccani
tree
trek
tren
trenc
trend
trends
trener
trenera
trentino
trento
trenutac
trenutak
trenutka
trenutku
trenutni
trenutno
trepteljka
tres
tretman
treviso
trevor
trg
trga
trgovac
trgovaca
trgovca
trgovci
trgovina
trgovine
trgovini
trgovinom
trgovinu
trgovis
trgu
tri
trial
tribe
tribunal
tribune
tribute
tric
trideset
tridesetak
tridesetih
tridesetogodis
trifunovic
trija
triju
trijumf
triler
trilogije
trim
trinaest
trinidad
trinitaria
trio
triton
trka
trkac
trke
trku
trnk
tro
trofej
trogodis
troje
trojica
trojice
trokut
tron
tropske
tros
trovanja
trovic
trp
trpnog
trs
trske
trst
trsta
trstenjak
tru
trudna
trudnoc
true
truman
trup
trupa
trupama
trupe
trust
truth
trz
ts
tski
tt
tu
tuberkuloze
tuc
tucker
tuje
tuju
tuka
tula
tule
tumac
tumbiscati
tumor
tumora
tunel
tunela
tunis
tunisa
tunisu
tur
tura
turaka
turbina
turbine
turc
turci
turcima
turicato
turija
turista
turistic
turizam
turizma
turke
turkey
turneja
turneje
turneji
turneju
turner
turnir
turnira
turniru
turska
turske
turski
turskih
turskim
tursko
turskog
turskoj
turskom
tursku
tus
tuxpan
tuxtepec
tuxtla
tuz
tuzantla
tuzla
tuzli
tuđman
tv
tva
tvan
tvar
tvari
tven
tvena
tvene
tveni
tvenih
tvenim
tveno
tvenog
tvenom
tvenu
tvima
tvo
tvom
tvorac
tvorbu
tvore
tvori
tvornica
tvornice
tvornici
tvornicu
tvrde
tvrdec
tvrdi
tvrdili
tvrdio
tvrdnja
tvrdnje
tvrdnju
tvrdoc
tvrtka
tvrtke
tvrtki
tvrtko
tvrđava
tvrđave
tvrđavi
tvrđavu
tvu
twentieth
twilight
two
tyler
type
tyrosine
tzitzio
tzur
tzv
u
ua
ubic
ubica
ubija
ubijaju
ubijanje
ubije
ubijen
ubijena
ubijeni
ubijenih
ubijeno
ubiju
ubila
ubili
ubio
ubistva
ubistvo
ubiti
ublaz
ubojica
ubojstva
ubojstvo
ubraja
ubrajaju
ubrzanje
ubrzano
ubrzo
uc
ucb
ud
uda
udaje
udala
udaljen
udaljena
udaljeno
udaljenos
udaljenost
udaljenosti
udan
udar
udara
udarac
udari
udario
udarna
udarom
udaru
udata
udine
udio
udo
udova
udovica
udovis
udp
udruga
udruge
udruz
udvostruc
udz
uefa
uga
ugao
ugarska
ugarske
ugarski
ugarsko
ugarskog
ugarskoj
ugarskom
ugarsku
ugas
ugc
ugla
uglavnom
ugled
ugleda
ugledni
uglja
ugljen
ugljena
ugljenika
ugljic
ugljik
ugljika
uglovnih
uglu
ugovor
ugovora
ugovore
ugovorom
ugovoru
ugrađen
ugrinovci
ugroz
ugus
uh
uha
uhaps
uhic
uhvac
uhvati
uhvatiti
ui
uistinu
ujak
ujan
uje
ujedinjena
ujedinjene
ujedinjeni
ujedinjenih
ujedinjenja
ujedinjenje
ujedinjeno
ujedinjenog
ujedinjenom
ujedno
ujem
ujka
ujku
ujski
uju
ujuc
ujutro
uk
uka
ukaz
ukazom
ukazuje
ukazuju
ukidanja
ukidanje
ukinuo
ukinut
ukinuta
uklanjanje
ukljuc
uklonite
ukloniti
ukoc
ukoliko
ukraine
ukrajina
ukrajine
ukrajini
ukrajinska
ukrajinske
ukrajinski
ukras
ukrs
ukupan
ukupna
ukupne
ukupni
ukupno
ukupnog
ukupnom
ukus
ukusa
ul
ula
ulaganja
ulaska
ulaz
ulaza
ulazak
ulaze
ulazi
ulazu
uli
ulic
ulica
ulicama
ulice
ulici
ulicu
ulijeva
uliva
ulja
uljam
ulje
uljma
uloga
ulogama
uloge
ulogom
ulogu
ulovljene
uloz
ulozi
ulrich
ulster
ultimate
ultimatum
ultraljubic
ului
ulum
um
uma
umadijsko
umama
umarski
umbria
ume
umec
umereno
umes
umesto
umetnic
umetnik
umetnika
umetnost
umetnosti
umi
umijec
umire
umirovljeni
umjereno
umjesto
umjetnic
umjetnici
umjetnik
umjetnika
umjetno
umjetnost
umjetnosti
umnoz
umom
umre
umrijeti
umrla
umrli
umrlo
umro
umska
umski
umu
un
una
unajuc
unala
unalo
unao
unapred
unaprijed
unar
unara
unat
unati
unatoc
unazad
und
under
underground
understanding
une
unesco
uni
unija
unije
uniji
uniju
unio
union
unis
unit
united
universal
universe
universita
university
univerzitet
univerziteta
univerzitetski
univerzitetu
unljiv
uno
unos
unski
unu
unuk
unuka
unutar
unutarnje
unutarnji
unutarnjih
unutra
unutras
uo
uobic
uoc
uopc
uops
up
upa
upada
upala
upale
upali
upamc
upan
upana
upanija
upanije
upaniji
upaniju
upao
update
upe
upec
upi
upic
upisan
upisao
upisuje
upita
uplas
upljine
upna
upon
uporaba
uporabe
uporabi
uporabu
uporedni
uporis
uporno
upotreba
upotrebe
upotrebi
upotrebljava
upotrebljavaju
upotrebom
upotrebu
upozna
upoznaje
upoznala
upoznao
upoznavanje
upozorava
upozorenje
upper
uprava
uprave
upravi
upravitelj
upravlja
upravljac
upravljaju
upravljanja
upravljanje
upravljao
upravne
upravni
upravnik
upravno
upravnog
upravo
upravom
upravu
upraz
uprkos
upuc
upus
uputio
ur
ura
uradio
uraditi
uran
uranic
uravnotez
urban
urbana
urbani
urbanistic
urbe
urbino
urc
ure
ured
ureda
uredi
uredio
urednic
urednik
urednika
uredu
uređaj
uređaja
uređaji
uređajima
uređenja
uređenje
uređivao
uri
uridin
urique
urjan
url
urlin
uros
uruachi
uruapan
uruc
urug
urus
us
usa
usavrs
usd
use
used
using
usko
uskoc
uskoro
uskrs
uskrsnuc
usled
uslijed
uslijedila
uslijedio
uslov
uslova
uslove
uslovi
uslovima
usluga
usluge
usluz
usne
usovaja
uspeh
uspeha
uspela
uspeli
uspeo
uspes
uspeva
uspije
uspijeva
uspijevaju
uspio
uspjeh
uspjeha
uspjehe
uspjehom
uspjehu
uspjela
uspjele
uspjeli
uspjelo
uspjes
uspon
uspona
usporedbi
uspostave
uspostavi
uspostavila
uspostavili
uspostavio
uspostaviti
uspostavlja
uspostavljanja
uspostavljanje
uspostavljen
uspostavljena
usprkos
usput
usred
usredotoc
uss
usta
ustanak
ustanic
ustanici
ustanika
ustanka
ustanku
ustanova
ustanovama
ustanove
ustanovio
ustanovljena
ustanovljeno
ustas
ustav
ustava
ustavni
ustavnog
ustavom
ustavu
ustolic
ustvari
usvajanje
usvojen
usvojena
usvojila
usvojio
ut
uta
utah
utakmica
utakmice
utakmici
utakmicu
utan
utc
ute
utemeljen
utemeljena
utemeljio
uti
utic
uticaj
uticaja
uticajem
uticala
uticao
utisak
utjec
utjecaj
utjecaja
utjecajem
utjecao
utjecati
uto
utoc
utorak
utrci
utrka
utrke
utros
utu
utvrda
utvrde
utvrdi
utvrdio
utvrditi
utvrdu
utvrđen
utvrđena
utvrđeni
utvrđenja
utvrđenje
utvrđeno
utvrđivanje
uv
uva
uvaju
uvala
uvale
uvali
uvan
uvana
uvane
uvani
uvanih
uvanja
uvanje
uvanju
uvano
uvao
uvar
uvara
uvati
uvaz
uvec
uveden
uvedena
uvek
uvela
uvelike
uven
uveni
uveo
uvez
uvid
uvijek
uvjeren
uvjerenja
uvjeta
uvjete
uvjeti
uvjetima
uvlac
uvod
uvodi
uvoz
uvođenja
uvođenje
uvođenjem
uvrs
uvuc
uz
uzdiz
uzdrz
uzduz
uzela
uzeli
uzeo
uzeti
uzgaja
uzgajaju
uzgoj
uzima
uzimaju
uzimajuc
uzme
uzor
uzorak
uzorka
uzoru
uzroc
uzroci
uzrok
uzroka
uzrokovan
uzrokovana
uzrokovati
uzrokuje
uzrokuju
uzvik
uzvis
uzvodno
uđe
v
va
vac
vadi
vajcarska
vajcarskoj
vajska
vakuf
val
vala
valc
valdher
vale
valea
valencia
valentia
vali
valja
valjevo
valladolid
valle
valles
valley
valova
valovi
valparai
valtazar
valuta
vam
vama
van
vanbrac
vancouver
vanjske
vanjski
vanjskih
vanjskim
vanjskog
vanserijski
vanski
vapnenac
var
vara
varaz
vare
varese
variety
varijacija
varijacije
varijanta
varijante
varijanti
various
varira
variraju
varna
varos
varphi
vars
varski
vas
vasa
vasic
vasilija
vasilije
vaslui
vasluj
vast
vati
vatikan
vatra
vatre
vatrom
vatru
vaucouleurs
vaz
vazal
vazduh
vazduha
vazduhoplovstva
vazduhu
vazdus
vc
vce
ve
veb
vec
vedska
vedske
vedski
vedskog
vedskoj
vedskom
vega
vegas
vek
veka
vekova
vekovima
vektor
vektora
veku
vela
veles
veli
velic
velik
velika
velikas
velike
veliki
velikih
velikim
veliko
velikodostojnik
velikodus
velikog
velikoj
velikom
veliku
velimir
velimirovic
veljac
veljko
vels
ven
vena
venac
venado
venc
vene
venecija
venecijanski
venecijanskoj
venecije
veneciji
veneciju
venera
veneto
venezia
venezuela
venice
venustiano
veoma
ver
vera
veracruz
verbano
vercelli
verde
vere
vereins
vergel
verlag
vermahta
vermont
vernon
veroispovest
verona
verovanja
verovatno
verovatnoc
version
verske
verski
vertriebenen
veru
veruje
veruju
very
verzija
verzijama
verzije
verziji
verziju
ves
veseli
veselin
veslac
vesna
vest
vestern
vestervald
vestfalija
vesti
vet
vetar
veterana
vetrus
vez
veza
vezama
vezan
vezana
vezane
vezani
vezanih
vezanim
vezano
veze
vezi
vezir
vezivanja
vezivanje
vezom
vezu
vezuje
vezuju
vfolyam
vi
via
vibo
vic
vicarska
vicarske
vicarski
vicarskoj
vice
vicente
vicenza
victor
victoria
victory
vid
vida
vide
video
videti
vidi
vidimo
vidio
vidjeli
vidjeti
vidljiv
vidljiva
vidljive
vidljivi
vidljivo
vidovic
vidra
vidu
vie
vieja
viejo
vietnam
view
vii
viii
vijec
vijek
vijeka
vijekova
vijeku
vijenac
vijest
vijesti
vijetnam
vijetnama
vijetnamski
vijetnamu
vikac
viking
vikins
vikiveza
viktor
viktorija
vila
vilajet
vile
vili
vilijam
vilim
villa
villaflores
village
villagra
villanueva
ville
vilovo
vim
vin
vina
vinc
vincent
vinko
vinkovci
vino
vio
violence
violinu
vir
virdz
virgen
virginia
virovitic
virtemberg
virtual
virus
virusa
vis
visina
visinama
visine
visini
visinom
visinu
vision
viskonsin
visok
visoka
visoke
visoki
visokih
visokim
visoko
visokog
visokoj
visokom
visoku
visoravan
visoravni
vista
visual
viswanadhan
vit
vita
vitamin
vitamina
viterbo
vites
vitez
viteza
vitezova
vitezovi
viti
vito
vitro
vittorio
vivak
vivo
viz
vizantije
vizantijske
vizantijski
vizantijskog
vizi
vizic
viđen
vje
vjec
vjegyze
vjekoslav
vjenc
vjera
vjere
vjeri
vjernika
vjerojatno
vjerovali
vjerovanja
vjerovanje
vjerovao
vjerovatno
vjerske
vjerski
vjerskih
vjeru
vjeruje
vjeruju
vjes
vjesnik
vjetar
vjetra
vjetrus
vjez
vka
vl
vla
vlac
vlada
vladaju
vladajuc
vladala
vladali
vladan
vladao
vladar
vladara
vladari
vladarima
vladati
vladavina
vladavine
vladavinom
vladavinu
vlade
vladi
vladika
vladimir
vladimira
vladine
vladislav
vlado
vladom
vladu
vlak
vlaka
vlakana
vlakna
vlas
vlasi
vlasnici
vlasnik
vlasnika
vlasnis
vlast
vlasti
vlastima
vlastimir
vlastita
vlastite
vlastiti
vlastitih
vlastitim
vlastito
vlastitog
vlastitoj
vlastitom
vlastitu
vlaz
vni
vno
vo
voc
vod
voda
vodama
vode
vodec
vodena
vodene
vodeni
vodenih
vodenim
vodi
vodic
vodika
vodila
vodile
vodili
vodio
voditelj
voditeljica
voditi
vodom
vodonik
vodonika
vodopic
vodstvo
vodstvom
vodu
voet
voganj
vogezi
voice
voj
vojislav
vojka
vojna
vojne
vojni
vojnic
vojnici
vojnicima
vojnih
vojnik
vojnika
vojnike
vojnim
vojno
vojnog
vojnoizdavac
vojnoj
vojnom
vojnu
vojsci
vojska
vojske
vojskom
vojskovođa
vojskovođe
vojsku
vojvoda
vojvode
vojvodina
vojvodine
vojvodini
vojvodstva
vojvodstvo
vojvodstvu
vojvodu
vojvođanska
vojvođanski
vojvođanskog
vokal
vokali
vokativ
vol
vole
voli
volim
volio
volja
volje
volji
volju
vols
volume
volumen
volumena
vom
von
vor
vora
vorak
voris
vorova
vos
vost
voyage
voyager
voz
vozac
vozi
vozila
vozilo
vozio
vođa
vođe
vođen
vođena
vođenje
vođstvom
vođu
vr
vra
vrabac
vrac
vran
vrana
vranac
vranc
vranje
vranjske
vranjskom
vrapc
vrat
vrata
vratar
vrate
vrati
vratila
vratili
vratilo
vratima
vratio
vratiti
vraz
vrbas
vrc
vrdnik
vre
vrec
vrednost
vrednosti
vrela
vrelo
vreme
vremena
vremenima
vremenom
vremenska
vremenske
vremenski
vremenskim
vremenskom
vremenu
vrh
vrha
vrhom
vrhova
vrhovi
vrhovima
vrhovne
vrhovni
vrhovnog
vrhu
vrhunac
vrhuncu
vrhunski
vrijedan
vrijedi
vrijednost
vrijednosti
vrijeme
vris
vrlina
vrlo
vrs
vrst
vrsta
vrstama
vrste
vrsti
vrsto
vrstoc
vrstom
vrstu
vrt
vrti
vrtnje
vrtu
vruc
vs
vu
vuc
vuelta
vujic
vuk
vuka
vukas
vukasovic
vukc
vukovar
vukovara
vukovaru
vukovic
vukovu
vuku
vulkan
vulkana
vune
vy
w
wa
wade
wagner
wales
walesa
walk
walker
wall
wallace
walsh
walt
walter
wang
want
war
ward
warner
warren
wars
was
washington
washingtonu
watch
water
watson
way
wayback
wayne
we
web
webb
weber
website
webster
week
weekly
wei
weiss
welcome
well
wells
weltgeschichte
wen
wendoloski
werding
were
werner
wesley
west
westermann
western
what
when
where
which
while
white
who
why
wiberg
wide
wien
wife
wiki
wikiju
wikimapia
wikimedia
wikimedijinoj
wikipedia
wikipedija
wikipedije
wikisky
wild
wiley
wilhelm
wilkins
will
willams
william
williama
williams
wilson
win
wind
windows
wing
winkler
winners
wins
winston
winter
wisconsin
wishart
with
within
without
wixon
wo
wolf
wolfgang
woman
women
wong
wood
woods
word
work
working
works
world
wothers
wright
writing
writings
wu
www
wyoming
x
xa
xcvii
xi
xiao
xico
xii
xiii
xilitla
xiv
xix
xlix
xu
xv
xvi
xvii
xviii
xx
xxi
xxii
xxiii
xxiv
xxvi
xxx
xxxii
y
ya
yah
yahoo
yahualica
yajalo
yale
yan
yang
yanli
yautepec
ye
yea
year
yearbook
years
yeast
yellow
yemen
yesca
yi
yo
york
yorka
yorkshire
yorku
you
young
your
youth
youtube
yu
yuan
yucata
yugoslav
yugoslavia
yves
z
za
zabac
zabava
zabave
zabavljac
zabavne
zabavu
zabelez
zabiljez
zabio
zabrana
zabrane
zabrani
zabranio
zabranjen
zabranjena
zabranjeno
zabranjuje
zabranu
zac
zacatecas
zacualpan
zadac
zadan
zadar
zadatak
zadataka
zadatke
zadatkom
zadnja
zadnje
zadnjeg
zadnjem
zadnji
zadnjih
zadovoljan
zadra
zadru
zadruga
zadruge
zadrz
zaduz
zagorska
zagreb
zagreba
zagrebac
zagrebu
zaharija
zahtev
zahteva
zahtevaju
zahtijeva
zahtjev
zahtjeva
zahtjeve
zahvac
zahvaljujuc
zahvalnosti
zahvata
zaista
zajec
zajednic
zajednica
zajednicama
zajednice
zajednici
zajednicu
zajedno
zakletvu
zakljuc
zakon
zakona
zakone
zakoni
zakonik
zakonima
zakonom
zakonski
zakonu
zalagao
zalaz
zale
zalihe
zaliv
zaliva
zaljev
zaljeva
zaljevu
zaljubi
zaljubio
zaljubljen
zaljubljuje
zam
zamak
zamenik
zamenio
zamenu
zamijenila
zamijenio
zamijeniti
zamijenjen
zamis
zamisao
zamisli
zamjena
zamjenice
zamjenik
zamjenjuje
zamjenu
zamka
zamku
zamora
zan
zanat
zanati
zanimanja
zanimanje
zanimljiv
zanimljivo
zao
zaokruz
zapad
zapada
zapadna
zapadne
zapadni
zapadnih
zapadnim
zapadnjac
zapadno
zapadnog
zapadnoj
zapadnom
zapadnonjemac
zapadnu
zapadu
zapamc
zapata
zapaz
zapec
zapis
zapisa
zapisao
zapisi
zapisima
zaplata
zaplet
zapleta
zapoc
zapopan
zapos
zaposlen
zaposlenih
zaposlio
zapote
zapotitla
zapotlanejo
zapovednik
zapovjednik
zapovjednika
zapovjednis
zappa
zapravo
zapremine
zapres
zapus
zar
zarac
zaradio
zaragoza
zaraz
zaredom
zaro
zarobili
zarobio
zarobljen
zarobljeni
zarobljenih
zarobljenika
zarobljenis
zaruc
zas
zasebna
zasic
zasigurno
zasluga
zasluge
zasluz
zasniva
zasnovan
zasnovana
zastava
zastave
zastavu
zastras
zastupa
zastupao
zastupljen
zastupnic
zastupnik
zastupnika
zati
zatim
zato
zatoc
zatraz
zatvara
zatvaranja
zatvaranje
zatvor
zatvora
zatvoren
zatvorena
zatvorene
zatvoreni
zatvorenika
zatvoru
zaustavi
zaustavio
zaustaviti
zauvijek
zauzela
zauzele
zauzeli
zauzeo
zauzet
zauzeti
zauzima
zauzimaju
zauzimanja
zauzimanje
zauzme
zauzmu
zauzvrat
zavarivanje
zavic
zavise
zavisi
zavisna
zavisno
zavisnosti
zavjere
zavjeta
zavladao
zavod
zavoda
zavodu
zavrs
zaz
zbac
zbio
zbirci
zbirka
zbirke
zbirku
zbivanja
zbliz
zbog
zbor
zbora
zbornik
zda
zdn
zdra
zdravko
zdravlja
zdravlje
zdravo
zdravstvena
zdravstvene
zdravstvenih
zdruz
ze
zealand
zeba
zec
zeland
zelanda
zelandu
zelena
zelene
zeleni
zelenih
zeleno
zemalja
zemaljska
zemaljske
zemaljski
zemaljskog
zemlja
zemljama
zemlje
zemlji
zemljina
zemljine
zemljinoj
zemljis
zemljom
zemljopis
zemljotres
zemlju
zemun
zemunu
zen
zenica
zenit
zero
zet
zeta
zgd
zgloba
zgrada
zgradama
zgrade
zgradi
zgradu
zhang
zhao
zhou
zhu
zi
zid
zida
zidina
zidine
zidova
zidove
zidovi
zidovima
zidu
zihuatanejo
zija
zima
zime
zimi
zimske
zimski
zimu
zira
zita
zizhi
zla
zlata
zlatar
zlatko
zlatkovic
zlatna
zlatne
zlatni
zlatnih
zlatnim
zlatno
zlatnog
zlatnoj
zlatnom
zlatnu
zlato
zli
zlo
zloc
zlostavljanja
zlostavljanje
zlovremac
zmaj
zmaja
zmajevo
zmija
zmije
zna
znac
znaci
znaju
znajuc
znak
znakova
znakovi
znala
znali
znalo
znam
znamenite
znameniti
znamenitog
znamenitost
znamenitosti
znamo
znan
znanja
znanje
znanost
znanosti
znanstvena
znanstvene
znanstveni
znanstvenici
znanstvenih
znanstvenik
znanstvenika
znanstveno
znao
znatan
znati
znatne
znatno
zni
zno
zo
zona
zone
zongolica
zoni
zonu
zool
zoologic
zoologija
zoolos
zora
zoran
zorana
zore
zove
zovu
zpont
zquez
zrac
zrak
zraka
zrake
zrakoplova
zraku
zrenjanin
zrinski
zrna
zu
zuba
zube
zubi
zum
zupc
zur
zva
zvala
zvali
zvalo
zvan
zvana
zvane
zvani
zvanic
zvanje
zvanog
zvanom
zvao
zvati
zvec
zvezda
zvezdara
zvezde
zvijeri
zvijez
zvijezda
zvijezdama
zvijezde
zvijezdu
zviz
zvjezdane
zvjezdanim
zvona
zvonik
zvonimir
zvonko
zvono
zvornik
zvuc
zvuk
zvuka
{
|
}
~

¡
£
§
©
ª
«
¬
­
®
¯
°
±
²
³
´
µ
·
¹
º
»
½
¾
¿
×
ß
æ
ð
đ
đa
đakovac
đakovic
đakovo
đala
đavo
đe
đi
đilas
đokovic
đorđa
đorđe
đorđevic
đu
đukic
đuragic
đuras
đurađ
đuric
đuris
đuro
đurđevo
ı
ɕ
ɕa
ɕi
ɡ
ɡa
ɡija
ɡo
ɲe
ʃ
ʃa
ʃan
ʃanin
ʃe
ʃeʋ
ʃi
ʃin
ʃit
ʃiti
ʃki
ʃno
ʃu
ʋ
ʋa
ʋan
ʋati
ʋe
ʋi
ʋno
ʎ
ʒ
ʒa
ʰ
ʲ
ʻ
ʼ
ʾ
ʿ
ˈ
ˌ
ː
˙
˚
˜
˝
̀
́
̂
̃
̄
̆
̇
̈
̉
̊
̋
̌
̏
̑
̓
̔
̕
̛
̣
̦
̧
̨
̮
̱
̸
͂
ͅ
͡
΄
α
β
γ
δ
ε
ζ
η
θ
ι
κ
λ
μ
ν
ξ
ο
π
ρ
ς
σ
τ
υ
φ
χ
ψ
ω
ϕ
ϵ
а
аеродроми
академија
академије
ако
али
алфред
архив
б
ба
бања
бе
београд
београду
бергамо
би
била
били
било
билошких
био
биог
бисте
бити
бих
бо
босне
босни
бр
брачном
брем
број
броја
броју
брусина
бу
будим
в
ва
валтазар
ван
вас
васа
вати
ве
веза
везу
века
велика
велике
велики
великим
венето
веома
већ
ви
викачице
више
влада
вно
во
водопић
војводине
време
временска
врста
вук
вујић
вјесник
г
га
где
гија
гласник
го
говора
година
године
горе
гори
грабљивице
град
града
грађа
гугл
д
да
даворин
далматинска
дан
дана
данас
два
де
делатности
делом
делу
део
дејан
ди
дивје
дио
директно
дити
до
довела
док
домаћинстава
домаћинства
домаћинство
домаћинству
др
драгутин
државна
друга
други
друго
другог
друштва
друштво
ду
дубровачку
дубровник
душан
е
едмунд
екологију
етимологијски
етингер
етничка
ж
жа
желели
жена
живе
живи
животиња
животиње
животињски
з
за
завод
завода
загреб
задруге
зам
заштиту
због
зборник
звијери
земаљска
земаљског
земун
земље
златиборском
знање
зоологичких
зоологија
и
иван
игд
игњата
из
издање
издању
између
износи
изучавања
или
има
име
имена
институт
истим
историја
историјски
их
к
ка
када
како
календар
као
караџић
карла
кати
ки
ко
код
координате
косић
која
које
који
коју
краљевине
краљевска
кроз
ку
културе
кућа
куће
књ
књига
књижара
књижевног
л
ла
лан
лат
ле
летопис
ли
лига
лист
лно
ло
ловац
ловачки
ловачких
локација
ломбардија
лу
м
ма
мапа
мапе
мапи
маринковић
марковић
матвејев
матица
мато
мај
ме
медић
места
место
ми
милорадов
минерва
мирослав
мо
можда
може
мојо
му
музеј
музеја
мушкараца
н
на
назив
назива
након
налазе
налази
намењени
напредак
наравословнога
народна
народних
народног
народну
насеља
насеље
насељено
насељима
насељу
насловом
наставни
наука
научна
нац
национална
наш
не
неколико
немачки
немачког
немачкога
непромењено
ни
никола
нити
ница
ниш
ниша
нија
није
нка
но
нови
номенклатура
номенклатуру
нски
о
обавља
обзиром
ова
ово
овог
овом
ову
ографију
од
око
околини
округу
општина
општине
општини
оригиналном
орнитолошки
орнитолошког
особитим
остале
отисак
отмар
п
па
павковић
пад
панорама
панчева
пе
петар
петровић
пи
план
по
повезаних
повестница
погледајте
под
подаци
подручју
показује
пол
полу
попис
пописа
попису
поповић
поред
породице
после
последња
постоји
потпуности
прва
први
пре
превод
преглед
прегледано
преко
према
при
прилог
примећен
припадност
приредио
природе
про
промените
просечан
просечна
проф
професорског
птица
птице
птичијих
пу
пузачице
пузовић
пунолетна
пунолетних
пут
пучкијех
пучком
р
ра
разврставање
ран
рата
рати
рашајски
рашковић
рајзер
ре
река
реке
република
републике
републички
речник
ри
рити
рија
рка
ро
рода
рски
ру
рјечник
с
са
савез
сад
само
сан
сану
сарајево
сателитска
св
све
свезак
свеска
света
светског
свијет
сгш
се
села
село
селу
семе
сепаратни
сергије
си
симоновић
ситуација
скок
слава
славонско
слободан
словинац
сопрона
спиро
списак
споменик
србима
србија
србије
србији
средње
сријемско
српска
српске
српски
српских
српско
српског
српскога
српскохрватски
српскохрватског
српскохрватскога
ст
ста
становник
становника
становништва
становништво
старо
старост
старости
статистику
стању
стефановић
стички
стојићевић
стр
страна
стране
страну
стјепан
су
т
та
тада
тако
такође
тати
те
терминологија
терминологију
ти
тискарница
то
тога
током
тор
тревизо
три
трстењак
ту
у
углавном
удружења
умножено
универзитет
унутрашња
упоредни
употребе
ф
фа
фауну
фебруар
фи
финк
фирер
х
ха
херцеговине
херцеговини
хирц
хрватска
хрватске
хрватских
хрватско
хрватскога
ц
ца
ци
ција
црква
цркве
црне
црној
ч
ча
часопис
че
чити
чица
чки
чланак
чланака
чланова
чусовая
ш
ша
ши
школа
школе
штампарија
ште
што
шуме
щ
ъ
ы
ь
э
ю
я
ђ
ђорђе
ђурашин
ѕ
і
ј
ја
јавор
јагодина
јазу
је
један
једна
једно
језик
језика
јер
јеронима
јестествена
јестествословије
јоаким
јован
јосип
јосиф
још
јски
југославије
југословенске
љ
људевит
њ
ње
ћ
ће
ћи
ա
ְ
ִ
ַ
ָ
ּ
י
ש
ا
ب
ر
شهرستان
ل
م
ن
و
ي
َ
ُ
ِ
ّ
ْ
ٓ
ٔ
ٕ
त
द
न
म
र
ा
ि
ी
े
्
া
্
்
ั
ิ
ี
་
ា
្
​
‌
‍
‎
‐
‒
–
—
―
‖
‘
’
“
”
„
†
‡
•
…
‧
‰
′
″
⁡
€
ℏ
ℓ
№
←
↑
→
↓
↔
↷
⇌
⇒
∀
∂
∇
∈
∑
−
∗
∘
∙
∞
∣
∧
∨
∩
∪
∫
≅
≈
≡
≤
≥
⋅
⋯
③
④
⑦
─
▼
●
➡
⟨
⟩
⟶
⺀
⺄
⺆
⺈
⺊
⺌
⺕
⺝
⺸
⺼
⿰
⿱
⿲
⿳
⿴
⿵
⿶
⿷
⿸
⿹
⿺
⿻
。
「
」
〢
い
う
か
き
く
さ
し
た
て
と
な
に
の
る
ん
゙
゚
ア
イ
オ
カ
キ
ク
コ
サ
シ
ス
タ
ッ
テ
ト
ニ
ハ
ヒ
フ
マ
ム
メ
ユ
ラ
リ
ル
レ
ロ
ン
・
ー
㇁
㇂
㇄
㇇
㇈
㇉
㇓
㐁
㐄
㐅
㐌
㐫
㐬
㐭
㐮
㐱
㑒
㒵
㒸
㒼
㓁
㓞
㔾
㕛
㕣
㖾
㘝
㚅
㚇
㚔
㚘
㝉
㝡
㝴
㝵
㞋
㞢
㞷
㠩
㠭
㠯
㡀
㡭
㡿
㢲
㢴
㣇
㣺
㥯
㪅
㫄
㫐
㫒
㫺
㬅
㬎
㬥
㬰
㲋
㳄
㷠
㸒
㸚
㸦
㼌
㼲
㽞
㿟
䀠
䂞
䍃
䏍
䒑
䖍
䖒
䖝
䖵
䙴
䚻
䜌
䝿
䡛
䧹
䪞
一
丁
丂
七
丄
丅
丆
万
丈
三
上
下
丌
不
与
丏
丐
丑
专
且
丕
世
丘
丙
业
东
丞
丢
丣
两
严
並
丨
丩
个
丫
丬
中
丮
丰
丱
串
丵
丶
丷
丸
丹
为
主
丽
丿
乀
乂
乃
久
乆
乇
么
义
之
乌
乍
乎
乏
乐
乑
乔
乖
乗
乘
乙
乚
乛
乜
九
乞
也
习
乡
乳
乾
亀
亅
了
亇
予
争
事
二
亍
于
亏
亐
云
互
亓
五
井
亘
亚
亜
亞
亟
亠
亡
亢
交
亥
亦
产
亨
亩
享
京
亭
亮
亯
亰
亲
亳
亶
亷
人
亻
亼
亾
仁
今
介
仌
从
仐
仑
仒
仓
仕
他
付
仝
代
令
以
任
企
伊
伏
伐
休
会
伯
但
位
何
佘
余
作
佥
使
來
侈
侌
侖
侯
侵
便
保
俞
信
修
倉
倍
候
倠
備
僉
僕
儿
兀
允
兂
元
兄
充
兆
兇
先
光
兊
克
兌
免
兑
兒
兓
兔
党
兜
兟
入
全
兩
兪
八
公
六
兮
兰
共
关
兵
其
具
典
兹
兼
冀
冂
冃
冄
内
冈
冉
冊
冋
册
再
冎
冏
冐
冒
冓
冖
冗
冘
军
农
冝
冡
冥
冫
冬
冷
几
凡
凢
凵
凶
凷
凸
凹
出
函
凾
刀
刁
刂
刃
刄
刅
分
切
刍
刑
刕
刖
列
刘
则
初
別
利
别
到
制
刺
則
削
剌
前
剡
剽
劉
力
功
加
劦
助
劫
劳
劵
勃
勇
勉
勒
動
務
勞
勤
勹
勺
勻
勾
勿
匀
匂
包
匆
匈
匊
匋
匍
匕
化
北
匚
匝
匡
匪
匱
匸
匹
区
医
匽
匿
區
十
卂
千
卄
卅
卆
升
午
卉
半
卌
华
卑
卒
卓
单
卖
南
卜
卝
卞
占
卡
卢
卣
卤
卦
卩
卪
卬
卯
印
危
即
却
卵
卷
卸
卻
厂
厃
厄
历
厈
厉
厌
厓
厘
厚
原
厤
厥
厨
厭
厲
厶
厷
厸
去
厼
厽
叀
参
參
叅
又
叉
及
友
双
反
叐
发
叒
叔
叕
取
受
叚
叜
叟
口
古
句
另
叩
只
召
可
台
叱
史
右
叵
号
司
叹
吂
各
吅
合
吉
吊
吋
同
名
后
吏
向
吕
君
吝
吞
否
含
启
吳
吴
吹
吾
呂
呆
呈
告
员
呙
周
命
咅
和
咎
咠
咢
咨
咸
咼
哀
品
哉
員
哥
哲
唐
商
啇
問
啚
啬
啻
善
喜
喬
單
喿
嗇
噩
嚴
囊
囗
囘
囙
囚
四
回
囟
因
囧
囬
困
囱
囷
固
国
圂
圅
國
圍
圓
土
圡
圣
圥
在
圭
地
圶
圼
坐
坒
坚
坴
垂
垔
垚
埀
埋
城
埶
執
基
堂
堅
堆
堇
堯
塞
墨
壘
士
壬
壯
声
壳
壴
壹
壺
壽
夂
处
夅
夆
备
夊
夋
夌
复
夏
夒
夕
外
夗
夘
多
夜
夢
大
夨
天
太
夫
夬
夭
央
失
夲
头
夷
夸
夹
夻
夾
奂
奄
奇
奈
奉
奎
奏
奐
契
奓
奔
奚
奞
奠
奢
奥
奭
女
奴
奻
好
如
妄
妙
妟
妥
妻
妾
姑
委
姜
威
娄
婁
婴
嬰
嬴
子
孑
孔
孕
孖
字
存
孚
孛
孝
孟
季
孤
学
孫
孱
學
宀
宁
宂
它
宅
宇
守
安
宋
完
宏
宓
宗
官
定
宛
宜
宝
客
宣
室
宮
宰
害
家
容
宾
宿
寄
寅
密
富
寒
察
寧
審
寫
寬
寮
寸
对
寺
寻
寽
対
寿
封
尃
射
将
將
專
尉
尊
尋
尌
對
小
少
尒
尓
尔
尖
尗
尚
尞
尢
尣
尤
尧
尨
尭
就
尸
尹
尺
尻
尼
尽
尾
尿
局
居
屈
屋
屎
屏
屑
展
屖
屚
属
屠
屡
屬
屮
屯
屰
山
屵
屾
岁
岂
岑
岡
岩
岳
岸
峯
島
崇
崑
崔
崖
崙
崩
嵬
嶲
巂
巛
川
州
巟
巠
巢
巤
工
左
巧
巨
巩
巫
差
己
已
巳
巴
巷
巸
巽
巾
巿
帀
市
布
希
帚
帛
帝
带
師
席
帶
常
干
平
年
幵
并
幷
幸
幺
幻
幼
幽
幾
广
広
庄
床
底
店
庚
府
度
庫
庭
庶
康
庸
廉
廌
廛
廣
廩
廴
延
廷
建
廾
廿
开
弁
弃
弄
弇
弋
式
弓
弔
引
弗
弘
弜
弟
弥
弦
弱
張
強
强
彊
彌
彎
彐
彑
当
彔
录
彖
彗
彡
形
彥
彦
彧
彭
彳
役
彼
往
待
律
後
徒
得
徙
從
復
微
徵
德
心
忄
必
忌
忍
志
忝
忠
忩
快
念
忽
忿
思
怠
急
怱
恆
恒
恩
恭
息
悉
患
悤
悲
悶
惠
惡
惢
愁
愈
意
愛
感
慈
慧
慮
憂
憲
應
戀
戈
戉
戊
戋
戌
戍
戎
成
我
戒
戔
或
戚
戠
戢
截
戲
戶
户
戹
戼
戾
房
所
扁
扇
手
扌
才
打
托
执
承
折
拉
拜
拿
掌
推
提
換
摩
支
攴
攵
收
攸
改
放
政
敄
敏
敕
敖
敗
敝
敞
敢
散
敦
敫
敬
数
敷
數
斂
文
斉
斊
斗
斤
斥
斩
斬
斯
新
方
於
施
斿
旁
旋
族
无
旡
既
旣
日
旦
旧
旨
早
旬
旱
旲
时
旾
昆
昇
昌
昍
明
昏
易
昔
昗
昜
星
春
昬
是
昱
昴
昷
時
晃
晋
晏
普
景
晶
智
暑
暴
曆
曇
曩
曰
曲
曳
更
曷
書
曹
曼
曾
替
最
朁
會
月
有
朋
服
朔
朕
朗
望
朝
木
朩
未
末
本
札
朮
术
朱
朵
朶
朿
杀
李
杏
杜
束
条
来
東
杲
杳
松
析
林
枚
果
枝
枲
枼
某
柔
查
柬
柰
柴
栗
桀
桑
桼
梁
條
梟
梨
棘
棠
棥
森
楚
業
楽
榮
樂
樊
欠
次
欣
欮
欲
欶
欽
款
歆
歇
歛
止
正
此
步
武
歨
歪
歮
歯
歰
歲
歴
歷
歸
歹
歺
死
殳
段
殷
殸
殹
殺
殻
殿
毋
毌
母
每
毒
比
毕
毚
毛
毳
氏
氐
民
气
氣
水
氵
氶
氷
永
氺
氾
求
汝
汞
江
沃
沓
沙
沝
泉
法
波
泣
泥
泰
洛
洪
活
派
流
浦
浪
浮
海
淡
淮
清
渚
渠
湯
滿
漢
漸
火
灬
灭
灰
灵
灷
炅
炎
炏
炗
炙
炭
為
烈
烏
烝
焉
無
焦
焱
然
煞
熊
熏
燕
營
燮
爪
爫
爭
爯
爰
爱
爲
爵
父
爻
爽
爾
爿
片
牙
牚
牛
牜
牟
牢
牧
牪
牽
犀
犬
犭
犮
狂
狄
狊
独
狺
猋
猒
猪
献
獻
玄
率
玉
王
玟
玨
珎
班
琴
瑟
瑩
瓜
瓦
甘
甚
生
産
用
甫
甬
田
由
甲
申
电
甶
男
甸
甹
画
甾
畀
界
畏
畐
留
畜
畟
畢
畧
畨
番
畫
異
畱
當
畺
畾
疊
疋
疌
疑
疒
疾
癶
癸
癹
登
發
白
百
皀
皃
的
皆
皇
皋
皐
皕
皮
皷
皿
盃
盆
盇
盈
益
盍
盎
监
盒
盖
盛
盡
監
盤
盧
目
直
相
盾
省
眇
眉
看
眔
眞
真
眷
眼
眾
着
睘
睪
睿
瞏
瞢
瞿
矍
矛
矞
矢
矣
知
矦
短
石
破
碎
磊
磨
示
礻
礼
社
神
祟
票
祭
禀
禁
禸
禹
禺
离
禽
禾
禿
秀
秃
秉
秋
科
秝
秦
移
稟
穀
穌
穴
究
穹
空
穿
突
窄
窒
立
竒
竜
竝
竟
章
童
竹
笑
笠
筆
等
答
箕
算
箴
節
篤
篭
米
粉
粛
粟
粤
粦
粲
糞
糸
糹
系
約
納
素
索
紫
累
細
絜
絫
絲
維
綿
縣
繇
纍
纟
缶
网
罒
罔
罕
罗
罙
罡
罢
罪
署
罷
羅
羊
羌
羍
美
羔
羕
羗
羞
羡
羣
群
義
羲
羸
羽
翁
翏
習
翕
翟
翠
翼
老
耂
考
者
耆
而
耎
耑
耒
耳
耴
耶
耷
聂
聊
聖
聚
聶
聿
肀
肃
肅
肉
肖
肙
肥
肩
肯
育
肴
胃
背
胡
胥
能
脊
脩
膚
臣
臤
臧
自
臬
臭
臯
臱
至
致
臺
臼
臽
臾
臿
舀
舂
舄
與
興
舉
舌
舍
舛
舜
舞
舟
般
艮
良
色
艸
艹
艾
芒
芔
芬
芮
花
芳
芺
芻
苔
苗
苟
若
苦
英
茶
茸
荅
草
荒
荣
荼
莆
莧
莫
莽
菆
菊
菐
華
萬
落
葉
著
葛
董
葵
蒙
蒦
蒼
蓋
蓬
蓺
蔑
蔡
蕉
蕭
薄
薛
薦
薰
藍
藏
藤
藥
蘭
虍
虎
虐
虒
虔
處
虖
虗
虘
虚
虛
虜
虞
虫
虽
蚤
蚩
蜀
蜜
蟲
蠡
血
行
衍
衛
衣
衤
表
衮
衰
袁
袞
褭
褱
襄
襾
西
覀
要
覃
見
規
覓
覧
親
覽
见
角
解
言
訁
訇
計
詹
誩
諸
讠
谷
豆
豈
豊
豐
豕
豖
豙
象
豦
豩
豪
豸
貇
貝
貞
貟
負
貢
貧
貪
貫
責
貳
貴
買
費
賁
資
賈
賏
賓
賔
賛
賞
賢
賣
質
賴
贊
贝
贡
责
贯
贲
贵
赖
赞
赤
赦
走
越
足
路
蹇
身
躬
車
軍
軎
軟
輦
轉
车
辛
辜
辟
辥
辰
辱
農
辵
辶
边
达
过
近
连
迷
追
退
送
逆
逐
通
速
造
逢
連
逮
進
遀
遂
過
道
達
遣
適
遷
遺
邊
邑
邕
那
邦
邪
郎
郡
部
郭
都
鄉
酉
酋
配
酓
釆
采
里
重
野
量
金
釒
錢
钅
長
镸
长
門
閃
閉
開
閏
閑
閒
間
閔
閵
閻
闌
门
间
闷
阑
阜
阝
阿
降
陳
陽
隆
隊
隋
隡
隨
隱
隶
隹
隺
隻
隼
隽
难
雀
雁
集
雈
雋
雍
雐
雔
雙
雚
雜
雝
離
難
雨
雩
雪
雲
零
雷
需
霍
霜
霝
霞
霸
靈
靑
青
非
靡
面
靣
革
韋
韦
韭
韯
韱
音
頁
頃
項
須
頗
頡
頻
顛
页
風
风
飛
飞
食
飠
養
饣
首
香
馬
馮
駦
马
骨
高
髟
鬥
鬯
鬲
鬼
魏
魚
魯
鮮
鱼
鲁
鳥
鳳
鸟
鹵
鹿
麃
麗
麥
麦
麻
黃
黄
黍
黎
黑
黒
黨
黹
黽
黾
鼎
鼓
鼠
鼻
齊
齋
齐
齒
齿
龍
龙
龜
龟
龠
龰
龱
龴
龵
龶
龷
龸
龹
者
艹
﻿
）
，
－
？
𠀁
𠀃
𠀆
𠀉
𠀎
𠀐
𠁁
𠁣
𠂆
𠂇
𠂈
𠂉
𠂊
𠂋
𠂎
𠂒
𠂔
𠂛
𠂡
𠂢
𠂤
𠂬
𠂭
𠂹
𠃊
𠃋
𠃌
𠃍
𠃎
𠃑
𠃓
𠃔
𠃜
𠄌
𠄎
𠄠
𠄢
𠆢
𠆥
𠇍
𠈌
𠌵
𠓜
𠔉
𠔥
𠔼
𠔽
𠔿
𠕀
𠕁
𠕋
𠘧
𠘨
𠙻
𠙼
𠚏
𠚒
𠚤
𠚪
𠣏
𠤎
𠤕
𠥓
𠦄
𠦑
𠦝
𠧒
𠧗
𠧪
𠩺
𠪚
𠫓
𠫔
𠫤
𠬛
𠬝
𠬞
𠬢
𠬤
𠬶
𠮛
𠮦
𠮷
𠯑
𠱠
𠳮
𠷎
𡈼
𡉀
𡉵
𡌥
𡍮
𡏳
𡕒
𡕩
𡕰
𡖅
𡗗
𡗜
𡘆
𡘤
𡧱
𡨄
𡩧
𡬠
𡭽
𡰣
𡰥
𡰪
𡰯
𡰱
𡷈
𡸁
𡿨
𡿩
𡿪
𡿺
𢀖
𢀛
𢀩
𢁙
𢆉
𢆰
𢆶
𢇁
𢇇
𢉖
𢌬
𢌿
𢏚
𢑑
𢑚
𢖻
𢙣
𢛳
𢦏
𢦒
𢧵
𢼄
𢾕
𣁋
𣄼
𣅀
𣅽
𣍘
𣎳
𣎵
𣏋
𣏼
𣗥
𣥂
𣥖
𣦵
𣦼
𣧄
𣪊
𣪠
𣬉
𣳾
𣶒
𤇾
𤊽
𤐫
𤓰
𤔔
𤕨
𤣩
𤰇
𤰔
𤰞
𤴓
𤴔
𤽄
𥁑
𥁕
𥃦
𥃩
𥃭
𥇡
𥑟
𥘅
𥘈
𥝢
𥫗
𥱡
𦈢
𦉪
𦉬
𦉼
𦍌
𦍒
𦎧
𦐇
𦓔
𦔮
𦘒
𦙃
𦚏
𦣝
𦣞
𦣻
𦥑
𦥔
𦥯
𦨉
𦭝
𦰩
𧆞
𧈧
𧘇
𧰨
𧴪
𧴮
𧵩
𧾷
𨸏
𨾴
𩙿
𩠐
𩫏
𩵋
𪉷
𪜀
𪟽
𪠲
𪩲
𫇦
𫔭
𫜸
𫝀
𫠣
𫠩
𫢉
𫥞
𫩏
𫩠
𫪡
𫲽
𫶧
𬀷
𬐘
𬗌
𬙙
𬛸
𬜯
𬟩
𬯁
𬴘
𬺻
𬼉
𬼖
𭀰
𭁈
𭁨
𭅰
𭑈
𭕄
𭗼
𭤨
𭥫
𭻾
𮅕
𮊿
𮍌
𮍏
𮓗
𮥼
𮧮
廾
𰀁
𰀄
𰀈
𰀉
𰀕
𰀠
𰀡
𰀢
𰀪
𰁜
𰃮
𰆊
𰆘
𰋙
𰕎
𰢴
𰧭
𰯲
00--
01--
02--
03--
04--
05--
06--
07--
08--
09--
71--
76--
79--
80--
81--
82--
83--
84--
85--
86--
87--
88--
89--
90--
93--
94--
95--
a--
aa--
ab--
aba--
abd--
abdom--
abe--
abece--
abi--
abor--
ac--
aca--
ace--
acetil--
aci--
acil--
act--
ad--
ada--
adapt--
adekva--
adela--
adi--
adolesce--
adop--
adren--
adven--
ae--
aero--
aeros--
af--
afek--
afgan--
afi--
afirm--
afor--
afro--
afrod--
ag--
aga--
age--
agra--
agreg--
agres--
agresiv--
agri--
agricul--
ah--
aha--
ahem--
ahov--
ahu--
ai--
air--
aj--
ak--
aka--
akcio--
aki--
ako--
akred--
akro--
aks--
akt--
aktua--
aku--
akumu--
akumuli--
akva--
akvar--
akvita--
al--
ala--
alb--
alba--
ale--
aleks--
alerg--
alfa--
alge--
algon--
ali--
alj--
alki--
all--
alo--
alpi--
alps--
alt--
alu--
aluvija--
am--
ama--
ambas--
ambu--
ame--
amfi--
ami--
amo--
amp--
an--
ana--
anal--
anarh--
anc--
and--
anda--
ane--
anegdo--
aneks--
anekt--
ang--
angio--
anglo--
ani--
anim--
anj--
anke--
anksio--
ann--
ano--
anom--
anr--
anrov--
ans--
ansko--
ant--
anti--
antide--
antro--
antropo--
anu--
any--
anđe--
ao--
ap--
apart--
apok--
apol--
apop--
apos--
apot--
aprok--
apsol--
apsoluti--
apsor--
apsorpc--
apsur--
aqui--
ar--
ara--
arago--
arc--
ard--
are--
arg--
argen--
arh--
ari--
aristok--
aritm--
arm--
armij--
arob--
arog--
arol--
arondis--
ars--
art--
artil--
artiljer--
aru--
as--
asce--
asfalt--
ash--
asim--
aske--
asoc--
asocija--
asp--
ast--
astro--
at--
ata--
ate--
ateros--
athl--
ati--
atlan--
atlants--
atlet--
atmos--
atrak--
atro--
au--
audic--
aure--
aus--
austro--
auto--
autobio--
av--
ava--
avan--
ave--
avgan--
avi--
avig--
avo--
avs--
ax--
ay--
ayo--
az--
azij--
ađa--
b--
ba--
babilo--
bac--
bach--
bad--
bag--
bahr--
baj--
baja--
bakt--
bakteri--
bal--
bala--
bald--
bamb--
ban--
bankrot--
bapt--
bar--
bara--
bari--
barok--
baru--
bas--
bat--
batog--
bavl--
bay--
baz--
bazi--
bb--
bd--
be--
beau--
bec--
bed--
bedu--
beetho--
beg--
bei--
beks--
bel--
belo--
belve--
ben--
bene--
benz--
beot--
ber--
bernh--
bes--
besmr--
best--
beton--
bez--
bezaz--
bezbe--
bh--
bi--
bibliog--
bici--
bien--
big--
bik--
bil--
bila--
bilj--
bilo--
bin--
bio--
birming--
bis--
bisek--
bit--
biz--
bizni--
bjel--
bjelo--
bl--
bla--
blago--
ble--
bli--
bliz--
bljes--
blo--
blok--
bloom--
blu--
bo--
bob--
boc--
bod--
bog--
bohe--
boj--
bok--
bol--
bom--
bon--
bonif--
bor--
borov--
bos--
bot--
boul--
bour--
bow--
boz--
br--
bra--
brad--
brah--
brat--
braz--
brdo--
brds--
bre--
breg--
brez--
brgl--
bri--
bris--
bro--
broad--
brodog--
broj--
bron--
bronh--
bru--
bruxel--
brzo--
bu--
bub--
bubu--
buc--
buda--
budd--
bug--
bukva--
bul--
bulu--
bun--
bundes--
bunto--
bur--
burg--
burgund--
burk--
bus--
but--
buz--
buđe--
by--
c--
ca--
cag--
cal--
cala--
calc--
cald--
calie--
camb--
can--
canna--
capp--
car--
casa--
casc--
cass--
castel--
cat--
cathe--
ce--
ceci--
cel--
cele--
celu--
cen--
centi--
cenzo--
cer--
cerem--
cerv--
cesto--
cetin--
ch--
cha--
chall--
champ--
chan--
characteri--
charl--
che--
chi--
chlo--
cho--
chu--
ci--
cie--
cigan--
cigar--
cijen--
ciklo--
cilin--
cincin--
cio--
cip--
cirk--
cirkula--
cirkum--
ciru--
cis--
cit--
citoh--
citok--
cje--
cjelo--
cjevo--
ck--
cl--
clau--
cle--
clif--
cm--
co--
coa--
coch--
cog--
col--
coll--
collabora--
colu--
columb--
com--
con--
cor--
corn--
cort--
cos--
coun--
cow--
cox--
cr--
cre--
crim--
cris--
criti--
crn--
crno--
cro--
cruc--
crusa--
crven--
cs--
ct--
cu--
cum--
cut--
cvet--
cvi--
cvje--
cvr--
cy--
cycl--
cytoc--
cytok--
cz--
d--
da--
dah--
dak--
dal--
dalj--
dam--
dan--
dar--
das--
daug--
dav--
daw--
day--
db--
de--
dea--
debel--
dec--
dece--
deci--
defe--
defic--
defin--
dehi--
dei--
dej--
dejs--
dekarbok--
dekla--
del--
dele--
deli--
dem--
demo--
demon--
den--
denom--
deo--
depon--
deport--
depoz--
der--
des--
deset--
det--
detalj--
detinjs--
deve--
devi--
dez--
dezer--
dha--
di--
diag--
dic--
did--
die--
difu--
dig--
digi--
dija--
dijag--
dijecez--
dijel--
dikt--
diktat--
dim--
dimit--
din--
dina--
dio--
diokle--
dioks--
diplo--
dire--
direkt--
dis--
disco--
diser--
disk--
diskrim--
disoc--
distri--
diure--
div--
diver--
diviz--
diz--
dizel--
dj--
dje--
dl--
dm--
dnje--
do--
dob--
dobro--
doc--
dodel--
dodje--
dog--
dogod--
dohv--
doi--
dojm--
dok--
dol--
dom--
doma--
domi--
domob--
don--
dona--
donjo--
dopad--
dopam--
dopis--
dopri--
dopun--
dord--
dos--
dosl--
dospj--
dosti--
dostoj--
doz--
dr--
dra--
drag--
drago--
drams--
dre--
dres--
drht--
dro--
dru--
drugo--
drv--
drz--
ds--
du--
duali--
dubin--
dubra--
duc--
dug--
dugo--
duh--
dukljan--
dumb--
dupl--
dur--
dut--
dvo--
dvoj--
dvor--
dy--
dz--
e--
ea--
east--
ec--
ed--
edo--
edu--
ef--
eg--
egej--
egip--
ego--
egzi--
egziste--
egzo--
ehi--
ehr--
ei--
eig--
ein--
eisen--
ej--
ek--
eka--
eki--
ekolog--
ekonom--
ekosi--
ekrani--
eksk--
eksp--
ekspe--
eksplo--
eksploata--
eksploati--
eksploz--
ekspo--
eku--
ekva--
el--
ela--
ele--
elekt--
elektro--
elektros--
elektroteh--
eli--
elijs--
elim--
elj--
elo--
em--
ema--
embri--
emer--
emi--
emo--
empir--
en--
ena--
enci--
ency--
end--
endem--
endo--
ene--
energ--
energet--
eng--
engel--
enigm--
enigmat--
eno--
entuz--
enzy--
eo--
ep--
epa--
eparh--
epide--
epile--
epime--
epiz--
er--
era--
ere--
eri--
ero--
ers--
eru--
erupc--
es--
escu--
esen--
est--
este--
esti--
esto--
estvo--
et--
eta--
ete--
ethi--
eti--
etno--
eto--
etru--
etver--
etvor--
etvrt--
eu--
euf--
eur--
euro--
ev--
eva--
evaku--
evange--
eve--
eventua--
evi--
evident--
evno--
evo--
evropl--
evs--
ex--
exec--
exhi--
exp--
explo--
ey--
ez--
f--
fa--
fabi--
fair--
fal--
fam--
fan--
far--
fas--
fat--
faus--
favor--
favoriz--
fe--
feat--
feder--
feld--
felj--
fell--
fer--
fi--
fibro--
fig--
fikc--
fiks--
fikt--
fila--
filate--
filharm--
filip--
film--
filo--
filog--
filt--
fin--
financ--
finans--
fis--
fiziolog--
fjo--
fl--
fla--
flavo--
fleg--
flen--
fletc--
flo--
fluo--
fo--
fon--
for--
fosfo--
fosil--
foto--
fr--
fra--
frakc--
franken--
fre--
fri--
frigi--
friz--
fru--
ft--
fu--
fudb--
ful--
funk--
funkcio--
funkciona--
funkcioni--
furt--
g--
ga--
gabri--
gai--
gaj--
gal--
gale--
gamb--
gan--
gang--
gar--
gas--
gastro--
gaz--
gazi--
ge--
gej--
gen--
geni--
geode--
geolog--
geom--
geomet--
ger--
geril--
ges--
get--
ghe--
ghi--
gi--
gibralt--
gigan--
gil--
gill--
gimn--
gine--
giuli--
gl--
gla--
glad--
glas--
glavno--
glavo--
glaz--
gle--
gli--
glice--
gliko--
glo--
glu--
gly--
gm--
gne--
gnje--
gnji--
gnoj--
gnu--
go--
god--
goj--
goja--
gol--
gold--
gord--
gorg--
gornjo--
goros--
gos--
gost--
got--
gott--
gov--
gover--
goz--
gr--
gra--
grabo--
grb--
gre--
grebe--
gregorija--
grenl--
gri--
griv--
grk--
grml--
gro--
grob--
groz--
gru--
gu--
gua--
guaya--
guil--
gun--
gus--
gva--
gvoz--
gy--
h--
ha--
habs--
had--
haj--
hajd--
hal--
haluc--
ham--
han--
happ--
har--
hard--
harg--
harl--
harm--
harmoni--
hart--
has--
hat--
hava--
haw--
hay--
he--
hebrejs--
hege--
hegemon--
hel--
helikop--
hell--
hels--
hemi--
hemis--
hemo--
hen--
hend--
her--
herak--
hero--
heter--
hetit--
hi--
hibri--
hidro--
hig--
high--
higi--
higu--
hijer--
hil--
hilde--
him--
hind--
hip--
hiper--
hipok--
hirurg--
his--
histo--
hit--
hl--
hloro--
ho--
hog--
hol--
hold--
holes--
holi--
holivuds--
holog--
home--
homo--
hop--
hor--
horizon--
hos--
hot--
hr--
hrab--
hrono--
hrska--
hs--
ht--
hu--
huat--
hum--
humph--
hus--
hv--
hvali--
hvata--
hy--
hydro--
hydroxy--
hyper--
i--
ia--
ib--
iba--
ic--
ich--
id--
ide--
identifi--
identific--
ideolog--
idi--
idov--
if--
ifri--
ig--
ign--
ignor--
ih--
ii--
ij--
ija--
ije--
iji--
ik--
ika--
ikono--
il--
ila--
ile--
ilea--
ili--
ilins--
ilj--
illus--
ilo--
ilus--
ilustra--
ilustri--
iluz--
im--
ima--
ime--
imiti--
imo--
impres--
impresion--
impro--
in--
inau--
inc--
indi--
indo--
indu--
induc--
indukc--
indus--
ine--
inerc--
inf--
infec--
inform--
informaci--
ing--
inhi--
ini--
inkorpor--
inkviz--
inn--
innsb--
ino--
insis--
inspekc--
inspi--
insta--
instali--
instituc--
insufic--
int--
inte--
integri--
inter--
intim--
intra--
intui--
invaz--
inven--
inver--
inz--
io--
ion--
ioniz--
ip--
ir--
irac--
iran--
ire--
iri--
iro--
is--
isa--
iscr--
iscrpl--
isfa--
iskaz--
iskle--
isko--
iskrc--
iskre--
iskriv--
iskup--
iskva--
islam--
iso--
ispa--
ispe--
ispi--
ispit--
ispovje--
ispravl--
ispre--
ispun--
ist--
iste--
isto--
isus--
it--
ita--
itao--
ite--
iti--
ito--
iv--
iva--
ivan--
ive--
ivi--
ivo--
ix--
iz--
iza--
izb--
izbac--
izbeg--
izbezum--
izbjeg--
izd--
izg--
izgar--
izgnans--
izja--
izla--
izlet--
izmen--
izmijen--
izmir--
izmj--
izmo--
iznajmlji--
iznu--
izol--
izola--
izom--
izr--
izrab--
izrađi--
izrez--
izu--
izum--
izvan--
izve--
izvi--
izviđa--
izvod--
izvoj--
izvr--
j--
ja--
jac--
jado--
jag--
jagod--
jajo--
jam--
jan--
jar--
jaros--
jas--
jat--
jaz--
je--
jed--
jedno--
jeft--
jeg--
jel--
jen--
jer--
jero--
jerusa--
jes--
jev--
jevanđe--
jevrejs--
jez--
ji--
jm--
jo--
jon--
joy--
jp--
js--
ju--
juc--
jud--
juda--
jug--
jugos--
jugoslav--
jugozap--
jun--
juven--
k--
ka--
kablov--
kad--
kai--
kaj--
kal--
kali--
kalvin--
kam--
kamp--
kan--
kana--
kandid--
kant--
kap--
kapi--
kapus--
kar--
kara--
karbok--
kardiovas--
karika--
kario--
karip--
karne--
karol--
kartog--
kas--
kasno--
kast--
kat--
kata--
kate--
kau--
kav--
kaz--
ke--
kec--
kel--
kelt--
kemb--
kemi--
kemijs--
ken--
ker--
kes--
key--
ki--
kic--
kid--
kilo--
kim--
kin--
kine--
kip--
kir--
kirgi--
kis--
kisel--
kit--
kj--
kl--
kla--
kle--
kli--
klikt--
kljj--
klju--
klo--
kloni--
klup--
km--
kn--
kneg--
ko--
koa--
koc--
kod--
kog--
koka--
kol--
kola--
kole--
kolekc--
kolo--
kolu--
kolumb--
kom--
kombin--
kombini--
kome--
komedio--
komis--
kompen--
kompila--
kompj--
kompjute--
kompli--
komplic--
kompon--
kompro--
komu--
kon--
koncen--
koncentrac--
koncentri--
koncip--
konden--
konfu--
konkuren--
konop--
kons--
konstru--
konstrukc--
kontinu--
kontra--
kontro--
konur--
konvenc--
konver--
konze--
konzerv--
konzervat--
konzum--
koor--
koordin--
kopenha--
kopir--
kopl--
kopne--
kopt--
kor--
kora--
koroz--
korum--
korup--
kos--
kost--
kot--
kov--
koz--
kr--
kra--
kragu--
kraj--
kranj--
kratko--
kre--
kredi--
krh--
kri--
kriti--
kriv--
kro--
kroati--
krt--
kru--
krup--
krv--
krz--
ks--
kseno--
kt--
ku--
kuc--
kud--
kuhi--
kuku--
kul--
kulin--
kum--
kup--
kur--
kurt--
kus--
kut--
kuz--
kv--
kva--
kvalifi--
kvalific--
kvant--
kvanti--
kvarn--
kw--
ky--
l--
la--
laborator--
lac--
lagun--
lak--
lako--
lamp--
lan--
las--
lasci--
lat--
later--
lauen--
lav--
law--
laz--
lc--
ld--
le--
lea--
lec--
led--
leg--
legal--
legaliz--
legi--
legitim--
leh--
lek--
len--
lenjin--
leo--
lep--
lepo--
ler--
les--
let--
lete--
leto--
leu--
ley--
lez--
lezbe--
leđ--
li--
liban--
libanon--
libi--
lici--
lie--
lig--
lik--
likov--
likvidi--
lim--
lin--
lingui--
lipo--
lis--
lit--
liturgi--
liv--
liva--
livon--
liz--
lj--
lja--
lje--
lji--
lju--
ljubi--
ljubit--
ljubl--
ljuds--
ll--
lo--
loc--
log--
loja--
lom--
lon--
long--
lor--
los--
lot--
lou--
lov--
loz--
lp--
ls--
lt--
lu--
luc--
lud--
luft--
lug--
luk--
lus--
ly--
m--
ma--
mac--
mad--
mag--
mah--
mai--
main--
maj--
mak--
makro--
mal--
mala--
malo--
mam--
man--
mandar--
mane--
mangu--
mani--
mao--
mar--
mara--
mari--
mark--
mas--
maslin--
mat--
mate--
mauri--
max--
maxim--
may--
maz--
mađ--
mb--
mc--
mcdo--
mcg--
me--
mec--
med--
medite--
medve--
mega--
meh--
mehaniz--
mek--
mel--
melan--
melod--
memb--
membran--
memo--
men--
mening--
mer--
meri--
mes--
met--
meta--
metz--
mez--
mezop--
međi--
međimur--
među--
mi--
mia--
mic--
michel--
mid--
midl--
mig--
miha--
miho--
mikro--
mil--
mile--
milime--
milo--
min--
mini--
minut--
mio--
mir--
mira--
mis--
mit--
mitochond--
mitohondr--
mitra--
mitri--
mitro--
mix--
miya--
mize--
mj--
mjer--
mk--
ml--
mla--
mlje--
mm--
mn--
mnogo--
mo--
mobil--
mobili--
moc--
mod--
modif--
modifici--
modifik--
modifika--
mog--
moj--
mol--
mom--
mon--
monog--
mont--
monte--
monume--
mor--
morbi--
more--
morfo--
mos--
moz--
mozam--
mp--
mr--
mrci--
mrz--
ms--
mt--
mu--
muc--
mudro--
muft--
muha--
multi--
mun--
munici--
munje--
mur--
mus--
mutac--
my--
n--
na--
naba--
nabavl--
nabu--
nac--
nacional--
nad--
nadog--
nadok--
nadom--
naelektris--
naft--
nag--
nagom--
nagrađi--
naj--
najam--
najav--
najis--
najne--
najs--
najslav--
nak--
nakla--
nakup--
nam--
name--
namib--
namir--
napa--
napo--
napre--
napu--
napun--
nar--
nared--
nas--
naseo--
nasil--
nasled--
naslije--
nat--
nav--
navodn--
naz--
nb--
nc--
nd--
ne--
neander--
nebes--
nec--
ned--
nedos--
nedvos--
neg--
nego--
neha--
neis--
neiz--
nek--
neko--
nekon--
nekret--
nekro--
nel--
nelag--
nem--
nema--
nen--
nenap--
nenas--
nenor--
neo--
neobjavl--
neod--
neoph--
neopredije--
neorg--
neos--
neoz--
nepat--
nepis--
nepo--
nepog--
nepomir--
nepovol--
nepre--
nepred--
nepri--
neprihvat--
nepro--
nept--
ner--
neraz--
nerazum--
nerazvi--
neret--
nes--
nesigur--
nesposob--
nestabil--
nesum--
net--
netrpe--
neu--
neum--
neup--
neur--
neuron--
neurotransm--
neus--
neut--
neutra--
neutraliz--
nevje--
nevjero--
new--
news--
nez--
nezab--
nezad--
nezadovolj--
nezako--
nezami--
nezao--
nezapos--
nezas--
nezna--
ng--
ni--
nic--
nicot--
niel--
nik--
niko--
nil--
nin--
nis--
nisko--
nit--
niz--
nizozem--
nj--
nja--
nje--
nji--
njo--
nju--
nk--
nm--
no--
nob--
noc--
noj--
nom--
non--
nop--
nor--
nord--
north--
nos--
nosi--
noslav--
not--
nota--
nov--
novgo--
novi--
novo--
ns--
nt--
nu--
nukle--
nukleot--
numiz--
nus--
nutri--
ny--
o--
oas--
ob--
oba--
obasj--
obavi--
obavl--
obe--
obez--
obezbe--
obil--
obila--
objavlji--
oblje--
obnov--
obog--
oboj--
obol--
obor--
obos--
obra--
obram--
obrađi--
obser--
obu--
obustav--
obuz--
obvez--
oc--
ocije--
ocjenji--
oct--
od--
oda--
odbac--
odbramb--
ode--
odgo--
odije--
odje--
odla--
odmet--
odmo--
odn--
odob--
odr--
određi--
ods--
odstra--
odstu--
odsus--
odsut--
odu--
odus--
odvi--
odvje--
odvod--
odvoj--
of--
ofen--
off--
oforml--
oftal--
og--
ogol--
ogrom--
oh--
ohra--
oi--
oj--
ok--
oka--
okarakteri--
okea--
okla--
oko--
okren--
okret--
okri--
okrivl--
okru--
oksoglu--
oku--
okult--
okupir--
okupl--
ol--
ola--
old--
olim--
olimpij--
olu--
oly--
om--
omam--
ome--
omil--
omla--
omladin--
omni--
on--
ona--
onco--
one--
ono--
onom--
op--
opas--
opc--
opekot--
oper--
opis--
opkol--
oplod--
opom--
opor--
opora--
oporez--
opoz--
opozici--
oprav--
opred--
ops--
opserva--
optim--
or--
ora--
oraho--
orbit--
ore--
org--
ori--
orije--
orijenti--
orio--
orkes--
orn--
ornit--
oro--
ors--
ortodok--
ortog--
os--
osa--
osam--
osamna--
osci--
oscilac--
ose--
osebu--
oset--
osi--
osjet--
oskud--
osla--
oslabl--
oslon--
oslov--
osmo--
ospor--
osposob--
osred--
ostar--
ostro--
osud--
osvet--
osvijet--
osvje--
osvjet--
ot--
ota--
otklo--
otko--
otkup--
oto--
otopl--
otpad--
ou--
out--
ov--
ova--
ove--
over--
ovi--
ovla--
ovo--
oxi--
oxy--
oz--
ozako--
ozdravl--
p--
pa--
pac--
pacif--
pad--
padob--
pagan--
pahu--
pak--
pal--
pala--
palesti--
pali--
pam--
pan--
panam--
panon--
pante--
papa--
papi--
par--
para--
paraliz--
pari--
park--
parob--
parod--
paroh--
part--
pas--
past--
pat--
patho--
patog--
patolog--
pauz--
pavl--
pay--
paz--
pe--
pec--
peku--
pelo--
pelopones--
pen--
penzi--
pepe--
pept--
per--
perfi--
perif--
perifer--
perip--
pers--
peru--
pes--
pet--
peto--
petrog--
ph--
phy--
pi--
pic--
pie--
pigm--
pij--
pija--
pije--
pin--
pir--
pirat--
piridok--
pirofos--
pis--
pit--
pita--
piz--
pj--
pjes--
pl--
pla--
plan--
plas--
play--
ple--
plebe--
pli--
plin--
plju--
plo--
plod--
plu--
plura--
pneum--
po--
pob--
pobe--
pobun--
poc--
pod--
podebl--
podmaz--
podmor--
podmu--
podra--
podu--
podvr--
poe--
pog--
pogib--
pogod--
pohr--
pohv--
poj--
pojav--
pojed--
pojednostav--
pokaj--
pokaz--
pokla--
pokoj--
pokor--
pokrov--
poku--
pokup--
pokva--
pol--
pola--
poli--
poljo--
polo--
polu--
poly--
pomag--
pomen--
pomir--
pomor--
pomp--
pon--
ponaj--
poned--
ponov--
pontifi--
pop--
popa--
poplav--
popra--
popravl--
popun--
por--
porcu--
porem--
poređe--
porfi--
porib--
porob--
port--
pos--
posej--
posle--
posloda--
posmat--
posmr--
posred--
post--
pot--
potak--
poten--
potis--
potop--
potpis--
potvr--
pove--
pover--
povez--
povi--
povol--
povr--
poz--
poza--
pozna--
pr--
pra--
prah--
pravl--
pravo--
praz--
prda--
pre--
preb--
pred--
preduz--
prehram--
preko--
prel--
prelim--
premi--
preok--
prepe--
prepis--
pres--
pret--
preten--
preth--
prethod--
pretj--
pretrp--
preus--
preuz--
prevrt--
prez--
pri--
prihvat--
prijavl--
prije--
prikup--
prim--
prime--
prinu--
prior--
pripa--
pripis--
pripo--
pripove--
pripovi--
priređi--
prirodos--
pris--
prisil--
pritis--
priz--
pro--
proba--
probi--
proc--
procije--
proda--
prodi--
produ--
produc--
produkc--
produkcij--
prof--
prog--
prohi--
proiz--
projekc--
prokla--
prolete--
promen--
promi--
promj--
promjen--
promo--
propa--
propo--
propor--
propove--
propovi--
propu--
pros--
proslav--
prosper--
prost--
prosvet--
prosvje--
protek--
protiv--
protj--
protu--
protus--
prove--
provinc--
provo--
provod--
proz--
prs--
prt--
pru--
prvens--
prvo--
ps--
pseudo--
psi--
psihi--
psiho--
psihot--
psycho--
pt--
ptero--
pterosa--
ptol--
pu--
pub--
puber--
puc--
pucke--
puk--
pukot--
pukov--
pul--
puls--
pun--
puno--
pur--
puri--
pus--
pusto--
put--
puz--
py--
q--
qa--
qi--
qua--
que--
qui--
quo--
r--
ra--
rac--
rad--
rada--
radi--
radio--
rado--
raf--
rag--
rah--
rai--
raj--
rak--
ram--
ran--
rang--
rano--
ras--
rase--
rashodo--
raskri--
raspa--
rasprost--
raspu--
rast--
rastoj--
rastvor--
rat--
ratob--
raven--
ravno--
ray--
raz--
razb--
razbi--
razdr--
razgov--
razla--
razmet--
razmj--
razmo--
razno--
raznovrs--
razor--
razum--
razuz--
razve--
razvr--
rc--
rd--
re--
reag--
real--
realiz--
rec--
recen--
recep--
reci--
recom--
recon--
red--
redos--
redu--
ref--
reflek--
reg--
registr--
regru--
regula--
reha--
rein--
rejt--
rekla--
rekonstru--
rekre--
relac--
relat--
relativi--
rem--
remem--
ren--
rend--
rene--
reno--
rep--
reperto--
repres--
reprez--
requi--
res--
resta--
restaura--
resur--
ret--
retor--
rev--
revis--
reviz--
revol--
rez--
rezer--
rezervo--
rezul--
rg--
rh--
rho--
ri--
rib--
ric--
rid--
ridd--
rim--
rin--
ris--
rit--
ritua--
riz--
rj--
rk--
rl--
rm--
rn--
rno--
ro--
rob--
robot--
roc--
roche--
rock--
rod--
rog--
rok--
rom--
ron--
ros--
rose--
rot--
rou--
rov--
row--
roz--
rođ--
rs--
rt--
rtv--
ru--
rub--
ruc--
ruda--
rukovod--
rumun--
rumunjs--
run--
rura--
rus--
rv--
ry--
s--
sa--
sabi--
sac--
sacri--
sad--
saha--
sahranj--
sak--
sakra--
sakso--
sakup--
sal--
sala--
salva--
sam--
samo--
san--
sankc--
sar--
sara--
sas--
sat--
saudij--
sav--
savla--
savoj--
savrem--
saw--
saz--
sc--
scar--
sch--
sche--
schi--
schl--
sci--
scien--
scler--
se--
sea--
sebas--
sec--
sedam--
sedm--
sedmor--
see--
seiz--
seku--
sekunda--
sel--
selekt--
sem--
sen--
senzi--
sep--
seque--
ser--
serij--
sess--
set--
sey--
sezon--
sf--
sh--
sha--
she--
shi--
sho--
shu--
si--
sibi--
sic--
sid--
sie--
sig--
sigu--
sil--
sili--
sim--
simfon--
sin--
sindi--
sip--
sir--
sirij--
sis--
sit--
sj--
sje--
sjeverno--
sk--
ska--
skand--
ske--
ski--
skla--
sko--
skret--
skri--
skrom--
sku--
skulp--
skup--
skvo--
sl--
sla--
slab--
slavl--
sle--
sledb--
sli--
slijet--
sljed--
slo--
sloml--
slov--
slu--
sm--
sma--
sme--
smo--
smr--
sn--
sna--
snabd--
snajp--
sni--
sno--
so--
sob--
soc--
soci--
socija--
socijald--
socio--
sok--
sol--
soli--
solidar--
som--
soma--
some--
son--
sops--
sor--
sot--
sovu--
sp--
spa--
spas--
spe--
specija--
specijaliz--
spekt--
spi--
spira--
spiri--
spo--
spolj--
spre--
sprija--
sprov--
sproved--
sprovođe--
squa--
sr--
srako--
sramo--
sre--
srebr--
srebre--
sred--
srednjo--
ss--
st--
sta--
stabili--
stacioni--
stamb--
stan--
stanoj--
star--
staro--
ste--
step--
ster--
steri--
sterl--
sti--
stil--
stiliz--
stimu--
stjec--
stjen--
sto--
stoc--
stol--
str--
stra--
stre--
stri--
stru--
stu--
stup--
su--
sua--
sub--
suc--
sud--
sui--
sukc--
sukob--
sul--
sulfo--
sum--
sun--
sup--
supar--
super--
suprot--
sur--
surad--
surađi--
sus--
sused--
sutj--
suz--
suzbi--
sv--
sva--
svako--
sve--
svet--
svi--
svinj--
svjed--
svjet--
svla--
svo--
svoje--
svrg--
svrs--
swa--
swe--
sy--
syl--
symb--
symp--
synthe--
sza--
t--
ta--
tab--
tac--
tad--
tai--
taj--
tak--
tako--
tal--
tali--
tam--
tamno--
tan--
tao--
tap--
tar--
tari--
tas--
tat--
tata--
tav--
tax--
te--
tea--
teban--
tec--
tech--
ted--
teg--
tehnolog--
tek--
tel--
telef--
telefon--
teleg--
telekomuni--
teles--
tem--
tempera--
ten--
tenden--
teof--
teor--
teorij--
tepe--
ter--
tera--
terez--
termo--
tes--
test--
tet--
tetra--
tex--
th--
the--
thi--
thou--
thy--
ti--
tiber--
tik--
tim--
tin--
tio--
tip--
tir--
tiroz--
tis--
tit--
tiv--
tj--
tjed--
tjele--
tjes--
tk--
tka--
tla--
tlalt--
tm--
tn--
to--
toc--
tok--
tol--
toler--
tom--
ton--
top--
topog--
topov--
tor--
tos--
toto--
tr--
tra--
tradic--
trakt--
trans--
tranzi--
tre--
tren--
trept--
tretir--
trg--
trgovi--
tri--
tro--
trojs--
trops--
trou--
trp--
trst--
tru--
ts--
tt--
tu--
tuberku--
tuc--
tumb--
tur--
turbu--
turkm--
tus--
tuz--
tv--
tvo--
tvr--
tvrd--
tvrdog--
tw--
twel--
twit--
ty--
u--
ua--
ubac--
ube--
ubis--
uc--
ud--
uda--
udo--
udubl--
uga--
ugl--
ugnje--
ugo--
uh--
ui--
uje--
uk--
uka--
ukaz--
uklan--
uklon--
ukraj--
ul--
ula--
uli--
ulj--
ultra--
um--
uma--
umars--
ume--
umi--
umirov--
umjet--
un--
una--
unajm--
unar--
une--
uni--
univer--
uno--
unter--
uo--
up--
upa--
upan--
upe--
upi--
upor--
upot--
upotrebl--
upotrije--
upozor--
upro--
uput--
ur--
ura--
ure--
uređe--
uređi--
uri--
url--
uro--
us--
usa--
usaml--
use--
uskla--
usko--
uslov--
uspa--
uspo--
uspor--
usta--
ustanov--
ustav--
ustrojs--
ustu--
usva--
usvoj--
ut--
uta--
ute--
utemelji--
uti--
uto--
utu--
utvr--
utvrđi--
uv--
uvere--
uvjer--
uvjet--
uvri--
ux--
uz--
uzaja--
uzalu--
uzbekis--
uzbu--
uzbuđe--
uzdi--
uznem--
uzur--
v--
va--
vac--
vag--
vagli--
vaj--
vajc--
vakc--
vaku--
val--
vale--
valenti--
vam--
van--
vanjs--
vapne--
var--
varia--
vas--
vater--
vatro--
vaz--
vazduhop--
vađe--
ve--
veb--
vec--
veget--
vel--
vele--
veliko--
ven--
ver--
vergi--
versail--
verte--
ves--
vet--
veteri--
vez--
vezi--
vi--
vic--
vice--
vid--
vida--
vidov--
vig--
vil--
vile--
vin--
vino--
vio--
vir--
virgi--
vis--
visoko--
vit--
viz--
vizua--
vje--
vjerov--
vjers--
vjetro--
vl--
vla--
vlas--
vo--
vod--
vodos--
voj--
vojno--
vol--
volon--
vor--
vos--
voz--
vođ--
vr--
vra--
vrbo--
vre--
vrh--
vrhov--
vrije--
vrs--
vrt--
vrtog--
vs--
vu--
vuk--
vul--
w--
wa--
wald--
war--
we--
weat--
web--
wehr--
wei--
wen--
west--
whe--
whit--
wi--
wiki--
wil--
wild--
wimble--
win--
wis--
wit--
wo--
wood--
writ--
wu--
wy--
x--
xa--
xi--
xoc--
xu--
y--
ya--
ye--
yi--
yo--
yu--
z--
za--
zaba--
zabra--
zabrinu--
zac--
zad--
zado--
zadovoljs--
zagađe--
zagov--
zagre--
zagri--
zahum--
zahv--
zako--
zakriv--
zala--
zam--
zan--
zanema--
zao--
zaobl--
zapa--
zapadno--
zapo--
zapovi--
zapovje--
zapre--
zar--
zaro--
zarobl--
zas--
zaseb--
zaustav--
zavar--
zavoj--
zaz--
zbi--
zbr--
zbun--
zda--
zdje--
zdravs--
ze--
zelen--
zemaljs--
zemljo--
zen--
zet--
zeza--
zgod--
zhe--
zi--
zimb--
zimo--
zims--
zla--
zlati--
zli--
zlo--
zmi--
zna--
znam--
zno--
zo--
zrakop--
zre--
zrin--
zu--
zub--
zvez--
zvjez--
đ--
đa--
đe--
đi--
đor--
đu--
đur--
đurđe--
ɕ--
ɡ--
ɲ--
ʃ--
ʃa--
ʃe--
ʋ--
ʋi--
ʎ--
ʑ--
ʒ--
α--
γ--
δ--
ε--
κ--
λ--
μ--
ν--
ο--
π--
πε--
ρ--
σ--
τ--
а--
ак--
алек--
ан--
ау--
б--
ба--
бе--
би--
бо--
бр--
бра--
бу--
в--
ва--
ве--
ви--
вла--
во--
вој--
вр--
г--
га--
гимнази--
гла--
го--
гор--
гру--
д--
да--
де--
ди--
до--
дош--
др--
дра--
ду--
е--
ж--
жи--
з--
за--
зап--
зе--
зи--
зна--
зо--
и--
из--
изг--
ис--
исто--
источ--
к--
ка--
кас--
ки--
кли--
ко--
кон--
кос--
кра--
краље--
ку--
кул--
л--
ла--
ле--
лес--
ли--
ло--
лу--
м--
ма--
мар--
ме--
међу--
ми--
мини--
мо--
н--
на--
нахи--
нај--
не--
ни--
но--
о--
об--
обла--
ов--
од--
он--
орнито--
ос--
осно--
основ--
п--
па--
пан--
пе--
пет--
пи--
по--
повр--
поз--
поро--
пос--
пот--
пољо--
пр--
пра--
пред--
при--
про--
пу--
р--
ра--
раз--
рас--
раш--
ре--
ри--
ро--
ру--
руд--
с--
са--
св--
сво--
се--
си--
сла--
сло--
служ--
со--
ср--
сре--
ст--
сте--
сти--
сто--
сту--
су--
т--
та--
те--
ти--
тичи--
то--
топ--
тра--
тре--
ту--
у--
ули--
ф--
фа--
фау--
фи--
х--
ц--
ца--
це--
ци--
цр--
ч--
ча--
че--
чи--
ш--
ша--
ши--
шко--
шт--
ђ--
ј--
ја--
јаб--
јаго--
је--
језе--
ју--
јуж--
љ--
љи--
љу--
њ--
ње--
ћ--
ا--
ب--
--0
--00
--06
--07
--1
--11
--17
--18
--2
--20
--22
--28
--3
--33
--34
--39
--4
--44
--5
--50
--52
--56
--58
--6
--61
--65
--67
--7
--8
--83
--89
--9
--99
--a
--ab
--able
--ac
--aca
--ach
--achi
--acija
--acije
--aciji
--acijom
--aciju
--acy
--ad
--ade
--ado
--adom
--adrz
--adu
--ae
--afric
--ag
--age
--ago
--ah
--ai
--aic
--aj
--aju
--ak
--aka
--akla
--aklo
--aknut
--al
--ala
--alan
--alco
--ale
--ali
--alistic
--alj
--ally
--alna
--alne
--alni
--alnih
--alnim
--alno
--alnog
--alnom
--alnu
--alo
--am
--ama
--amento
--an
--ana
--anci
--and
--ane
--ani
--anja
--anje
--anju
--ano
--ans
--ant
--anu
--ao
--apa
--apan
--apaz
--ar
--ara
--arao
--ard
--ari
--arna
--arne
--arni
--arno
--arnu
--aro
--arrow
--ary
--as
--asa
--ase
--asic
--asla
--ast
--at
--ata
--ate
--ated
--atelj
--ates
--ath
--ati
--ation
--ative
--atla
--ato
--ator
--atski
--atu
--au
--aurus
--av
--ava
--avac
--avica
--avrs
--avs
--aw
--ax
--ay
--aya
--az
--aza
--ađen
--b
--ba
--bac
--back
--bah
--bal
--ban
--banski
--bao
--bar
--bas
--be
--bek
--ben
--berg
--bet
--bi
--bic
--bija
--biju
--bin
--bir
--biz
--ble
--bljen
--bljiv
--bni
--bo
--bor
--bourg
--bourne
--bova
--boz
--brk
--bs
--bu
--bul
--burg
--burgu
--burs
--bury
--bus
--by
--c
--ca
--cal
--cama
--can
--cas
--ce
--cea
--ceae
--ced
--cem
--cen
--cent
--cer
--cera
--ces
--ch
--che
--chi
--cht
--ci
--cia
--cide
--cience
--cija
--cije
--ciji
--cijom
--cijska
--cijske
--cijski
--cijskog
--cijskom
--cijsku
--ciju
--cil
--cima
--cin
--cina
--cing
--cio
--cionalan
--cioni
--cistein
--cita
--ck
--cka
--cki
--co
--col
--com
--cs
--ct
--ction
--ctive
--ctor
--cu
--cus
--cy
--d
--da
--dac
--dad
--dae
--dal
--dale
--dall
--dan
--das
--davan
--day
--dba
--dbe
--dben
--dbi
--dbu
--de
--ded
--dek
--den
--der
--dero
--des
--dge
--dhi
--di
--dia
--dic
--dica
--dicu
--die
--dij
--dije
--diji
--diju
--dijum
--din
--dio
--dir
--diran
--dis
--dit
--dita
--dium
--divs
--dja
--dler
--dljiv
--dman
--dna
--dne
--dnevan
--dni
--dnic
--dnica
--dnih
--dnik
--dnim
--dno
--dnog
--dnom
--dnost
--dnu
--do
--dol
--dom
--don
--dor
--dorf
--dos
--dov
--dova
--dri
--dro
--drz
--ds
--dsburg
--dska
--dske
--dski
--dsko
--dskog
--dt
--du
--duk
--dun
--dus
--dy
--dz
--e
--ea
--eae
--eau
--eb
--ec
--eca
--ech
--eck
--ed
--ede
--eden
--edi
--edia
--edna
--edne
--ee
--ef
--eg
--egel
--egnut
--eh
--ei
--ej
--eja
--eje
--eji
--ejo
--eju
--ek
--eka
--eke
--eknut
--eku
--el
--ela
--ele
--eli
--elj
--ell
--ella
--elle
--elli
--ello
--elone
--eloni
--els
--elu
--ely
--em
--ement
--emni
--en
--ena
--enata
--enburg
--enc
--ence
--encije
--ene
--eni
--enit
--eno
--ens
--ent
--ents
--entu
--enu
--enziju
--eo
--ep
--epec
--er
--era
--erac
--ere
--erg
--eri
--eria
--ern
--erno
--ero
--ers
--ert
--erve
--es
--esa
--ese
--esen
--esija
--esije
--esionalan
--eski
--esne
--ess
--est
--et
--eta
--ete
--eti
--etrije
--etski
--ett
--etta
--ette
--etti
--etto
--etu
--eu
--eus
--ev
--eva
--eve
--evic
--ex
--ey
--eya
--ez
--eza
--ezan
--eze
--ezeovski
--ezic
--ezu
--eđen
--eđene
--f
--fa
--fan
--fe
--fekt
--feld
--fen
--ff
--fi
--fic
--ficiran
--field
--fo
--fonski
--fs
--ft
--fu
--ful
--g
--ga
--gac
--gacije
--gan
--ganje
--gat
--gav
--ge
--gel
--gen
--ger
--gg
--ggio
--gh
--ght
--gi
--gia
--gic
--gidae
--gie
--gije
--giju
--gin
--ging
--gio
--gir
--giran
--gl
--gn
--gna
--gne
--gnut
--gny
--go
--goj
--gom
--gon
--gona
--govic
--grafski
--ground
--gs
--gu
--gue
--guza
--gy
--h
--ha
--hajm
--ham
--han
--har
--he
--hea
--heim
--hem
--hen
--her
--hes
--hi
--hic
--hid
--hija
--hije
--hin
--hing
--hip
--hips
--hl
--hm
--hn
--hnut
--ho
--hol
--hom
--hova
--hovo
--hr
--hs
--ht
--hta
--hu
--hua
--hus
--hvat
--hy
--i
--ia
--ial
--ian
--iano
--ias
--ib
--ible
--ic
--ica
--ical
--ice
--ich
--ici
--icima
--ick
--ico
--ics
--icu
--id
--ida
--idae
--idan
--ide
--idi
--ido
--idski
--idz
--ie
--iel
--ien
--ier
--ies
--ig
--ight
--ih
--iha
--ii
--ij
--ija
--ijalan
--ijalni
--ijama
--ijan
--ijana
--ijanaca
--ije
--iji
--ijih
--ijo
--ijom
--ijska
--ijske
--ijski
--ijsko
--ijskog
--ijskom
--ijsku
--iju
--ijum
--ik
--ika
--ike
--iki
--iko
--ikom
--ikon
--iku
--il
--ila
--ilan
--ilco
--ile
--ili
--ill
--illa
--ille
--illo
--ilna
--ilne
--ilni
--ilo
--ilu
--im
--ima
--imi
--imic
--imo
--in
--ina
--inc
--ine
--ing
--inga
--ingo
--ings
--ini
--inja
--inje
--inji
--ino
--inom
--ins
--inski
--inson
--inu
--io
--ion
--ione
--ioni
--ionih
--ions
--ior
--ios
--iozan
--ip
--ipid
--ique
--ir
--ira
--iraju
--irajuc
--irala
--irali
--iran
--irane
--irani
--iranje
--irao
--irati
--ire
--iro
--irs
--iru
--is
--isa
--ise
--ish
--isio
--ism
--ist
--ista
--iste
--isti
--istic
--ists
--it
--ita
--ite
--itet
--iteta
--iti
--ities
--ition
--itla
--ito
--itre
--itski
--ity
--itz
--iu
--ium
--ius
--iv
--iva
--ivac
--ivan
--ivao
--ive
--ivna
--ivne
--ivni
--ivno
--ivnu
--ivo
--ivs
--ix
--iz
--iza
--izacija
--izacije
--izaciji
--izacijski
--izaciju
--izam
--ized
--izira
--iziran
--izirati
--izma
--izmi
--izmom
--izmu
--j
--ja
--jac
--jaga
--jaju
--jak
--jala
--jalan
--jale
--jali
--jalna
--jalne
--jalni
--jan
--janja
--janje
--janski
--jao
--jar
--jas
--jast
--jav
--jc
--jci
--jdz
--je
--jec
--jeg
--jega
--jeh
--jek
--jele
--jeli
--jelu
--jem
--jemu
--jen
--jena
--jene
--jeni
--jenic
--jeniti
--jenje
--jenjen
--jenjiv
--jeno
--jenom
--jenu
--jer
--jera
--jeran
--jes
--jesec
--jeti
--jetio
--jev
--jeva
--jeve
--jevic
--jevo
--jevs
--jevski
--jevu
--jeđen
--ji
--jic
--jica
--jici
--jih
--jim
--jima
--jio
--jiti
--jiv
--jivac
--jj
--jjac
--jjak
--jk
--jka
--jke
--jki
--jko
--jku
--jm
--jn
--jna
--jne
--jni
--jnic
--jno
--jnu
--jo
--joj
--jom
--js
--jska
--jske
--jski
--jsko
--jskog
--jskoj
--jskom
--jsku
--jt
--jte
--ju
--juc
--juje
--juju
--jum
--juma
--jz
--k
--ka
--kac
--kan
--kao
--kas
--kav
--kcija
--kcije
--kciji
--kciju
--ke
--kel
--ker
--kes
--ket
--keta
--ki
--kic
--kih
--kim
--kinja
--kl
--kla
--kli
--kne
--knut
--ko
--kog
--koj
--kok
--kom
--kop
--kopski
--kos
--kov
--koz
--krata
--kratska
--kratske
--krit
--krs
--krvan
--ks
--ksa
--ksin
--kst
--kt
--kta
--ktan
--kti
--ktic
--ktivne
--ktivni
--ktivno
--ktor
--ktora
--ktorski
--ktoza
--ku
--kuje
--kup
--kupno
--kupnog
--kus
--kvi
--kvim
--kvo
--kvog
--ky
--l
--la
--lac
--laca
--lacija
--lae
--lah
--laj
--laja
--lama
--lan
--land
--lanik
--lante
--lapa
--lar
--las
--lav
--lava
--lavi
--lay
--lberg
--lc
--lca
--lci
--lco
--ld
--lda
--lde
--ldi
--le
--led
--len
--lentan
--ler
--les
--let
--ley
--lf
--li
--lia
--lic
--lih
--lija
--liji
--liju
--lik
--lila
--lim
--lima
--lin
--lina
--line
--ling
--lini
--lio
--liran
--lis
--listic
--liti
--liv
--lizacija
--lizacije
--lizam
--liziran
--lizma
--lj
--lja
--ljac
--ljaju
--ljali
--lje
--ljen
--lji
--ljima
--ljiv
--ljj
--ljja
--ljke
--ljna
--ljne
--ljni
--ljski
--lju
--ljubiv
--lk
--lka
--ll
--lla
--llas
--lle
--lli
--llo
--llos
--lly
--lm
--lma
--lna
--lne
--lni
--lnih
--lnim
--lno
--lnog
--lnoj
--lnom
--lnost
--lnu
--lo
--log
--logije
--logy
--lom
--lor
--los
--lov
--lovski
--lozi
--lpa
--lpan
--ls
--lska
--lske
--lski
--lstvo
--lt
--lta
--ltepec
--lu
--luk
--lula
--lus
--ly
--lyn
--lz
--m
--ma
--mac
--man
--mantan
--mar
--mas
--mat
--mba
--mbo
--mc
--me
--meca
--men
--ment
--meo
--mer
--mi
--mic
--mid
--mide
--mije
--miji
--miju
--mika
--mima
--min
--mir
--mis
--mjerno
--mkom
--mku
--mlja
--mljen
--mljiv
--mlju
--mn
--mna
--mne
--mni
--mnim
--mno
--mo
--mom
--mon
--more
--mp
--mpa
--mpir
--ms
--mski
--mu
--mul
--mus
--my
--n
--na
--nac
--naca
--naest
--nah
--nak
--nal
--nalan
--nalna
--nalne
--nalno
--nan
--nao
--nar
--nas
--nat
--nata
--naz
--nberg
--nburg
--nc
--nca
--nce
--nche
--nci
--ncija
--ncije
--nciju
--ncima
--ncingo
--nco
--ncu
--ncy
--nd
--nda
--ndi
--ndic
--ndo
--ndru
--ndu
--ndz
--ne
--nea
--nec
--ner
--nera
--nes
--ness
--net
--ney
--nez
--ng
--nga
--nge
--ngen
--nger
--ngo
--ngs
--ngu
--ni
--nia
--nic
--nica
--nice
--nici
--nicu
--nie
--nier
--nih
--nija
--nije
--niji
--nijih
--nijom
--nik
--nika
--nike
--niku
--nil
--nili
--nim
--nima
--nin
--ning
--nio
--niran
--nis
--nit
--nita
--nite
--niti
--nito
--nium
--nj
--nja
--njac
--nje
--njem
--nji
--njima
--njska
--njske
--njski
--njskog
--nju
--njuju
--nk
--nka
--nke
--nki
--nko
--nkom
--nku
--nn
--nna
--nne
--no
--nog
--noga
--nogi
--noj
--nol
--nom
--noma
--nos
--nost
--nosti
--nov
--nova
--novic
--ns
--nsa
--nse
--nsi
--nsis
--nska
--nske
--nski
--nskih
--nsko
--nskog
--nskoj
--nskom
--nsku
--nson
--nstein
--nstva
--nstvo
--nsu
--nt
--nta
--ntal
--ntan
--nte
--nti
--ntial
--ntima
--ntin
--ntina
--ntino
--ntla
--ntna
--ntne
--ntni
--ntnih
--ntno
--nto
--nton
--nts
--ntske
--ntski
--ntu
--nu
--nuc
--nule
--nulo
--num
--nuo
--nus
--nut
--nuta
--nute
--nuti
--ny
--nz
--nza
--nze
--nzi
--nzije
--nzo
--o
--oa
--oat
--oc
--oca
--occus
--oci
--ock
--oco
--od
--odi
--odio
--odis
--odnevan
--odor
--odus
--ody
--oe
--of
--og
--oga
--ogen
--ogic
--ogiji
--ogiju
--ogodis
--ografija
--ografije
--ografiji
--ografski
--ography
--ogue
--ogy
--oh
--oi
--oic
--oid
--oida
--oj
--oja
--oje
--ok
--oka
--oke
--ol
--ola
--ole
--oli
--olik
--olj
--olja
--oljub
--oljubiv
--olo
--oloc
--olog
--ologa
--ologija
--ology
--olom
--olos
--olu
--om
--oma
--omac
--oman
--ome
--omi
--ominutan
--omir
--omjesec
--omski
--omu
--on
--ona
--onal
--onc
--ond
--one
--ong
--oni
--onic
--onja
--onosan
--ons
--onski
--ont
--oo
--ook
--op
--opa
--oper
--oplov
--or
--ora
--oran
--orce
--ord
--ore
--orepka
--orf
--ori
--oric
--orima
--orio
--oro
--orom
--orske
--orski
--ort
--oru
--orum
--ory
--os
--osa
--osatan
--oski
--oskopski
--ost
--osti
--osu
--ot
--ota
--ote
--oti
--oto
--ou
--ous
--ov
--ova
--ovac
--ovala
--ovale
--ovali
--ovalo
--ovan
--ovanja
--ovanje
--ovao
--ovati
--ovci
--ove
--ovi
--ovic
--ovica
--ovih
--ovim
--ovima
--ovna
--ovne
--ovni
--ovno
--ovnu
--ovo
--ovog
--ovoj
--ovom
--ovs
--ovska
--ovske
--ovski
--ovu
--ow
--ows
--oy
--oya
--oz
--oza
--ozan
--ozapad
--ozapadna
--oze
--ozi
--ozil
--ozin
--ozna
--ozne
--ozni
--ođen
--p
--pa
--paju
--pal
--pan
--pc
--pe
--pec
--pedia
--pedije
--pediji
--pel
--peo
--peutski
--ph
--phy
--pi
--piji
--pijski
--pili
--pilo
--pio
--piran
--pis
--pka
--pljen
--pna
--pni
--pno
--po
--polis
--pom
--poran
--pova
--prerađivac
--ps
--psa
--pse
--pska
--pski
--psku
--pt
--pton
--pu
--pus
--put
--q
--que
--r
--ra
--rac
--raca
--raciju
--raf
--raga
--rage
--raju
--rajuc
--ral
--rala
--rale
--rali
--ralo
--ram
--ran
--rana
--rane
--rani
--ranja
--ranje
--ranju
--rano
--rao
--ras
--rati
--rav
--rađen
--rc
--rca
--rce
--rci
--rcijalan
--rd
--rda
--rdi
--rdu
--rdz
--re
--rea
--reb
--rec
--red
--redne
--redni
--rell
--ren
--rena
--renje
--reo
--rep
--repi
--repka
--res
--revic
--rez
--rf
--rg
--rga
--rge
--rgic
--rhen
--ri
--ria
--rial
--ric
--rica
--rice
--rid
--rida
--rie
--rier
--ries
--rij
--rije
--riji
--rijom
--riju
--rik
--rika
--rikanski
--rike
--rila
--rin
--rine
--rinski
--rio
--riran
--ris
--ristic
--riti
--rius
--riv
--rix
--rja
--rk
--rka
--rke
--rla
--rle
--rljiv
--rm
--rma
--rn
--rna
--rne
--rni
--rnica
--rnice
--rnih
--rnik
--rnim
--rno
--rnog
--rnoj
--rnom
--rnost
--rnu
--ro
--roc
--roid
--rol
--rom
--ror
--ros
--rovic
--row
--rp
--rpski
--rr
--rra
--rre
--rro
--rrow
--rs
--rsi
--rska
--rske
--rski
--rsko
--rskog
--rskoj
--rskom
--rsku
--rstva
--rstvo
--rstvu
--rt
--rta
--rth
--rti
--rtu
--ru
--ruc
--ruk
--rum
--rus
--rvo
--ry
--rz
--rđen
--s
--sa
--san
--sana
--sani
--satan
--sberg
--sburg
--sca
--sch
--sche
--schen
--sco
--script
--sdorf
--se
--sed
--sel
--selski
--sen
--septic
--ser
--ses
--sey
--sezonski
--sh
--shi
--ship
--shire
--si
--sia
--sic
--sica
--sije
--sin
--sion
--sis
--sk
--ska
--ske
--ski
--skih
--skim
--sko
--skog
--skoga
--skoj
--skom
--sku
--sky
--slav
--sm
--sna
--sne
--sni
--snih
--so
--sobna
--som
--son
--sor
--sov
--ss
--ssa
--sse
--sso
--sson
--st
--sta
--star
--ste
--ster
--sti
--stic
--stima
--stina
--stiran
--sto
--stog
--ston
--stone
--stran
--stu
--stva
--stven
--stvima
--stvo
--stvom
--stvu
--su
--sus
--sville
--sy
--t
--ta
--tac
--tacija
--tacije
--tak
--tal
--talo
--tan
--tant
--tanu
--tao
--tar
--tas
--tativan
--taza
--te
--tec
--ted
--teen
--tein
--tej
--telj
--telja
--telje
--telji
--teljima
--teljski
--ten
--teo
--tepec
--ter
--ters
--tes
--tet
--tez
--th
--tha
--ti
--tia
--tic
--tica
--tici
--tics
--tide
--tie
--ties
--tih
--tije
--tiji
--tiju
--tik
--tika
--tike
--tikom
--tiku
--til
--tila
--tile
--tili
--tilo
--tim
--tin
--ting
--tio
--tion
--tions
--tira
--tiran
--tis
--titi
--tius
--tiv
--tivan
--tive
--tivna
--tivne
--tivni
--tivnih
--tivno
--tivnu
--tizam
--tjec
--tka
--tke
--tki
--tkom
--tku
--tl
--tla
--tle
--tljiv
--tna
--tne
--tner
--tney
--tni
--tnic
--tnica
--tnici
--tnih
--tnik
--tnim
--tnja
--tnje
--tnji
--tnjom
--tnju
--tno
--tnog
--tnom
--tnost
--tnu
--tnut
--to
--toc
--tog
--tol
--tola
--tolic
--tolos
--tom
--ton
--tonski
--tor
--tora
--tore
--tori
--tors
--torski
--tory
--tos
--tost
--tosti
--tov
--tova
--tovao
--tove
--tovi
--tovic
--tovo
--tovski
--town
--tr
--tra
--trajna
--trajne
--trajni
[...]
