!
"
#
##0
##1
##10
##11
##12
##13
##14
##15
##16
##17
##18
##19
##2
##20
##21
##22
##23
##24
##25
##26
##27
##28
##29
##3
##30
##31
##32
##33
##34
##35
##36
##37
##38
##39
##4
##40
##41
##42
##43
##44
##45
##46
##47
##48
##49
##5
##50
##51
##52
##53
##54
##55
##56
##57
##58
##59
##6
##60
##61
##62
##63
##64
##65
##66
##67
##68
##69
##7
##70
##71
##72
##73
##74
##75
##76
##77
##78
##79
##8
##80
##81
##82
##83
##84
##85
##86
##87
##88
##89
##9
##90
##91
##92
##93
##94
##95
##96
##97
##98
##99
$
%
&
'
(
)
*
+
,
-
.
/
0
00
000
00001
000291
001
002
003
005
007
01
02
03
031
04
040
05
06
07
08
09
1
10
100
1000
10000
1001
1002
1003
1004
1007
1008
1009
101
1010
1011
1012
1014
1015
1016
1018
1019
102
1020
1021
1023
1024
1025
1027
103
1030
1032
1035
1038
104
1040
1042
1043
1045
1046
105
1050
1054
1055
1056
1057
1058
1059
106
1060
1061
1063
1066
1067
107
1070
1071
1072
1073
1074
1075
1076
1077
1078
1079
108
1080
1081
1084
1085
1086
1087
1089
109
1090
1091
1093
1094
1095
1096
1097
1098
1099
11
110
1100
1101
1102
1105
1106
1107
111
1110
1111
1113
1115
1118
112
1120
1122
1125
1126
113
1130
1131
1134
1135
1136
1137
1138
1139
114
1140
1141
1142
1143
1146
1147
115
1150
1152
1153
1154
1156
116
1160
1162
1163
1165
1166
1168
117
1170
118
1180
1183
1185
1186
1187
1189
119
1190
1191
1192
1193
1194
1195
1196
1198
1199
12
120
1200
1202
1203
1204
1205
1206
1207
1208
1209
121
1212
1214
1215
1216
1217
1218
1219
122
1220
1221
1222
1225
1227
1228
123
1230
1234
1235
1236
124
1240
1241
1242
1243
1244
1248
125
1250
1253
1254
1258
126
1260
1261
1266
127
1270
1271
1272
1274
1276
1279
128
1280
1282
1284
1285
1286
129
1290
1291
1292
1296
1298
1299
13
130
1300
1301
1303
1304
1305
1306
1308
131
1310
1312
1314
1315
1316
1317
132
1320
1321
1322
1323
1324
1325
1326
1327
1328
133
1330
1331
1332
1333
1334
1335
1336
1337
134
1340
1341
1342
1343
1345
1346
1347
1348
1349
135
1350
1353
1354
1355
1356
1358
1359
136
1360
1361
1362
1363
1364
1365
1368
137
1370
1371
1373
1375
1377
1378
1379
138
1380
1381
1382
1383
1385
1386
1387
1388
1389
139
1390
1391
1392
1393
1394
1395
1396
1397
1398
1399
14
140
1400
1402
1403
1404
1405
1408
1409
141
1410
1411
1412
1413
1414
1415
1416
1417
1418
1419
142
1420
1421
1422
1423
1424
1425
1426
1427
1428
143
1430
1431
1433
1434
1435
1437
1438
1439
144
1440
1441
1442
1443
1444
1445
1446
1447
1448
1449
145
1450
1451
1452
1453
1454
1455
1456
1457
1458
1459
146
1460
1461
1462
1463
1464
1465
1466
1467
1468
1469
147
1470
1471
1472
1473
1474
1475
1476
1477
1478
1479
148
1480
1481
1482
1483
1484
1485
1486
1488
149
1490
1491
1492
1493
1494
1495
1496
1497
1498
1499
15
150
1500
1501
1502
1503
1504
1505
1506
1507
1508
1509
151
1510
1511
1512
1513
1514
1515
1516
1517
1518
1519
152
1520
1521
1522
1523
1524
1525
1526
1527
1528
1529
153
1530
1531
1532
1533
1534
1535
1536
1537
1538
1539
154
1540
1541
1542
1543
1544
1545
1546
1547
1548
1549
155
1550
1551
1552
1553
1554
1555
1556
1557
1558
1559
156
1560
1561
1562
1563
1564
1565
1566
1567
1568
1569
157
1570
1571
1572
1573
1574
1575
1576
1577
1578
1579
158
1580
1581
1582
1583
1584
1585
1586
1587
1588
1589
159
1590
1591
1592
1593
1594
1595
1596
1597
1598
1599
16
160
1600
1601
1602
1603
1604
1605
1606
1607
1608
1609
161
1610
1611
1612
1613
1614
1615
1616
1617
1618
1619
162
1620
1621
1622
1623
1624
1625
1626
1627
1628
1629
163
1630
1631
1632
1633
1634
1635
1636
1637
1638
1639
164
1640
1641
1642
1643
1644
1645
1646
1647
1648
1649
165
1650
1651
1652
1653
1654
1655
1656
1657
1658
1659
166
1660
1661
1662
1663
1664
1665
1666
1667
1668
1669
167
1670
1671
1672
1673
1674
1675
1676
1678
1679
168
1680
1681
1682
1683
1684
1685
1686
1687
1688
1689
169
1690
1691
1692
1693
1694
1695
1696
1697
1698
1699
17
170
1700
1701
1702
1703
1704
1705
1706
1707
1708
1709
171
1710
1711
1712
1713
1714
1715
1716
1717
1718
1719
172
1720
1721
1722
1723
1724
1725
1726
1727
1728
1729
173
1730
1731
1732
1733
1734
1735
1736
1737
1738
1739
174
1740
1741
1742
1743
1744
1745
1746
1747
1748
1749
175
1750
1751
1752
1753
1754
1755
1756
1757
1758
1759
176
1760
1761
1762
1763
1764
1765
1766
1767
1768
1769
177
1770
1771
1772
1773
1774
1775
1776
1777
1778
1779
178
1780
1781
1782
1783
1784
1785
1786
1787
1788
1789
179
1790
1791
1792
1793
1794
1795
1796
1797
1798
1799
18
180
1800
1801
1802
1803
1804
1805
1806
1807
1808
1809
181
1810
1811
1812
1813
1814
1815
1816
1817
1818
1819
182
1820
1821
1822
1823
1824
1825
1826
1827
1828
1829
183
1830
1831
1832
1833
1834
1835
1836
1837
1838
1839
184
1840
1841
1842
1843
1844
1845
1846
1847
1848
1849
185
1850
1851
1852
1853
1854
1855
1856
1857
1858
1859
186
1860
1861
1862
1863
1864
1865
1866
1867
1868
1869
187
1870
1871
1872
1873
1874
1875
1876
1877
1878
1879
188
1880
1881
1882
1883
1884
1885
1886
1887
1888
1889
189
1890
1891
1892
1893
1894
1895
1896
1897
1898
1899
19
190
1900
1901
1902
1903
1904
1905
1906
1907
1908
1909
191
1910
1911
1912
1913
1914
1915
1916
1917
1918
1919
192
1920
1921
1922
1923
1924
1925
1926
1927
1928
1929
193
1930
1931
1932
1933
1934
1935
1936
1937
1938
1939
194
1940
1941
1942
1943
1944
1945
1946
1947
1948
1949
195
1950
1951
1952
1953
1954
1955
1956
1957
1958
1959
196
1960
1961
1962
1963
1964
1965
1966
1967
1968
1969
197
1970
1971
1972
1973
1974
1975
1976
1977
1978
1979
198
1980
1981
1982
1983
1984
1985
1986
1987
1988
1989
199
1990
1991
1992
1993
1994
1995
1996
1997
1998
1999
2
20
200
2000
2001
2002
2003
2004
2005
2006
2007
2008
2009
201
2010
2011
2012
2013
2014
2015
2016
2017
2018
2019
202
2020
2021
2022
203
204
205
206
207
208
209
21
210
2100
211
212
213
214
215
216
217
218
219
22
220
2200
221
222
223
224
225
226
227
228
229
23
230
2300
231
232
233
234
235
236
237
238
239
24
240
2400
241
242
243
244
245
246
247
248
249
25
250
2500
251
252
253
254
255
256
257
258
259
26
260
2600
261
2616
262
263
264
265
266
267
268
269
27
270
2700
271
272
273
274
275
276
277
278
279
28
280
281
282
283
284
285
286
287
288
289
29
290
291
292
293
294
295
296
297
298
299
3
30
300
3000
301
302
303
304
305
306
307
308
309
31
310
311
312
313
314
315
316
317
318
319
32
320
321
322
323
324
325
326
327
328
329
33
330
331
332
333
334
335
336
337
338
339
34
340
341
342
343
344
345
346
347
348
349
35
350
3500
351
352
353
354
355
356
357
358
359
36
360
361
362
363
364
365
366
367
368
369
37
370
371
372
373
374
375
376
377
378
379
38
380
381
382
383
384
385
386
387
388
389
39
390
391
392
393
394
395
396
397
398
399
4
40
400
4000
401
402
403
404
405
406
407
408
409
41
410
411
412
413
414
415
416
417
418
419
42
420
421
422
423
424
425
426
427
428
429
43
430
431
432
433
434
435
436
437
438
439
44
440
441
442
443
444
445
446
447
448
449
45
450
4500
451
452
453
454
455
456
457
458
459
46
460
461
462
463
464
465
466
467
468
469
47
470
471
472
473
474
475
476
477
478
479
48
480
481
482
483
484
485
486
487
488
489
49
490
491
492
493
494
495
496
497
498
499
5
50
500
5000
501
502
503
504
505
506
507
508
509
51
510
511
512
513
514
515
516
517
518
519
52
520
521
522
523
524
525
526
527
528
529
53
530
531
532
533
534
535
536
537
538
539
54
540
541
542
543
544
545
546
547
548
549
55
550
551
552
553
554
555
556
557
558
559
56
560
561
562
563
564
565
566
567
568
569
57
570
571
572
573
574
575
576
577
578
579
58
580
581
582
583
584
585
586
587
588
589
59
590
591
592
593
594
595
596
597
598
599
6
60
600
6000
601
602
603
604
605
606
607
608
609
61
610
611
612
613
614
615
616
617
618
619
62
620
621
622
623
624
625
626
627
628
629
63
630
6300
631
632
633
634
635
636
637
638
639
64
640
641
642
643
644
645
646
647
648
649
65
650
651
652
653
654
655
656
657
658
659
66
660
661
662
663
664
665
666
667
668
669
67
670
671
672
673
674
675
676
677
678
679
68
680
681
682
683
684
685
686
687
688
689
69
690
691
692
693
694
695
696
697
698
699
7
70
700
7000
701
702
703
704
705
706
707
708
709
71
710
711
712
713
714
715
716
717
718
719
72
720
721
722
723
724
725
726
727
728
729
73
730
731
732
733
734
735
736
737
738
739
74
740
741
742
743
744
745
746
747
748
749
75
750
751
752
753
754
755
756
757
758
759
76
760
761
762
763
764
765
766
767
768
769
77
770
771
772
773
774
775
776
777
778
779
78
780
781
782
783
784
785
786
787
788
789
79
790
791
792
793
794
795
796
797
798
799
8
80
800
8000
801
802
803
804
805
806
807
808
809
81
810
811
812
813
814
815
816
817
818
819
82
820
821
822
823
824
825
826
827
828
829
83
830
831
832
833
834
835
836
837
838
839
84
840
841
842
843
844
845
846
847
848
849
85
850
851
852
853
854
855
856
857
858
859
86
860
861
862
863
864
865
866
867
868
869
87
870
871
872
873
874
875
876
877
878
879
88
880
881
882
883
884
885
886
887
888
889
89
890
891
892
893
894
895
896
897
898
899
9
90
900
9000
901
902
903
904
905
906
907
908
909
91
910
911
912
913
914
915
916
917
918
919
92
920
921
922
923
924
925
926
927
928
929
93
930
931
932
933
934
935
936
937
938
939
94
940
941
942
943
944
945
946
947
948
949
95
950
951
952
953
954
955
956
957
958
959
96
960
961
962
963
964
965
966
967
968
969
97
970
971
972
973
974
975
976
977
978
979
98
980
981
982
983
984
985
986
987
988
989
99
990
991
992
993
994
995
996
997
998
999
:
;
<
=
>
?
@
\
^
_
`
a
aa
aaron
ab
aba
abac
abajo
abas
abasidski
abasolo
abbey
abc
abd
abdicira
abdicirao
abdikacije
abdul
abdulah
abdullah
abe
abecedi
abel
abi
ablon
ablona
abloni
aboridz
abortus
about
abraham
abridgment
abruzzo
abstract
abu
ac
aca
acade
academic
academy
acala
acapetahua
acapulco
acatepec
acatla
acayucan
access
accessed
account
ace
acetamidi
acetat
acetil
acetiltransferaza
aci
acid
acil
acima
across
act
acta
action
activity
actopan
actor
actress
acute
ad
ada
adam
adama
adams
adaptacija
adaptacije
adaptaciji
adaptaciju
adaptiran
adaptirana
adaptirani
ade
adekvatno
adelaide
aden
adenin
adenozil
adenozin
adi
adige
adija
adije
adijska
adijske
adijskih
adis
adler
administracija
administracije
administraciji
administraciju
administration
administrativna
administrativne
administrativni
administrativnih
administrativnim
administrativno
administrativnog
administrativnom
administrativnu
administrator
admiral
admirala
adobe
adolf
adolfa
adolfo
adp
adrenergic
adresa
adrese
adresi
adresu
adrian
adriana
adult
advanced
adventure
adventures
advokat
advokata
advokati
adz
ae
aero
aerodinamic
aerodrom
aerodroma
aerodromi
aerodromu
af
afel
afera
afere
aferu
affair
affairs
afganistan
afganistana
afganistanu
afi
afinitet
afric
africa
african
africi
afrika
afrike
afriku
afro
afroameric
afrodita
after
ag
aga
again
against
agamemnon
agathe
age
agenata
agencija
agencije
agency
agens
agensi
agent
agenta
agenti
ages
agi
agic
agnes
agonist
agonisti
agresije
agrigento
ags
agua
aguacate
aguascalientes
aguililla
agusti
agvaskalijentes
ah
aha
ahilej
ahista
ahl
ahmad
ahmadinez
ahmed
ahmeda
ahmet
ahome
ahovski
ahu
ahunbay
ai
aid
aids
aim
ain
air
airbus
aircraft
aires
airesu
airlines
airport
airways
ais
aise
aj
aja
ajan
ajdaho
ajdahu
aje
ajem
ajen
ajena
ajene
ajeni
ajenih
ajenim
ajeno
ajenog
ajeva
ajeve
ajevi
ajevima
ajfelkrajs
ajhsfeld
aji
ajima
ajkas
ajke
ajna
ajne
ajni
ajnic
ajnih
ajnija
ajnije
ajniji
ajnijih
ajnijim
ajniju
ajnim
ajno
ajnog
ajnoj
ajnom
ajns
ajnu
ajova
ajovi
ajs
aju
ajuc
ajuchitla
ak
aka
akademici
akademija
akademije
akademiji
akademiju
akademik
akademska
akademske
akademski
akademskih
akademskog
akane
akceptor
akcija
akcijama
akcije
akciji
akcijom
akcijski
akciju
akcioni
ake
aki
akira
ako
akom
akovec
akronim
aks
akt
aktivacija
aktivacije
aktivan
aktivira
aktiviraju
aktivist
aktivista
aktivisti
aktivizam
aktivna
aktivne
aktivni
aktivnih
aktivnim
aktivno
aktivnog
aktivnom
aktivnos
aktivnost
aktivnosti
aktivnostima
aktivnu
aktualni
aku
akustic
akutna
akutne
akutni
akutnog
akvitanija
akvitanije
al
ala
alabama
alabami
aladin
alah
alain
alamos
alan
alana
alanin
alarco
alat
alata
alati
alb
alba
albanaca
albance
albanci
albancima
albanian
albanija
albanije
albaniji
albanijom
albaniju
albanska
albanske
albanski
albanskih
albanskim
albansko
albanskog
albanskom
albansku
albe
albedo
albert
alberta
alberti
alberto
albino
albrecht
album
albuma
albume
albumi
albumima
albumom
albumu
aldama
aldo
aldoheksoze
ale
alec
alegorija
alegre
alejandro
aleji
aleksa
aleksandar
aleksander
aleksandra
aleksandrija
aleksandrije
aleksandriji
aleksandrijski
aleksandrom
aleksandru
aleksej
aleksic
aleksija
aleksije
aleksinac
alela
alema
alen
ales
alessandria
alessandro
alex
alexander
alexandra
alexandre
alexis
alfa
alfabet
alfonsa
alfonso
alfred
alfreda
alfredo
alge
algebra
algi
algonquian
algoritam
algoritma
algoritmi
ali
alias
aliases
alic
alice
align
alignbars
alija
alijansa
alijanse
alije
alio
alison
alive
alj
aljasci
aljaska
aljaske
alje
aljehin
aljos
alju
alkaloidi
alkeni
alkil
alkohol
alkohola
alkoholi
alkoholic
alkoholu
all
alla
allah
allan
alle
allen
allende
alma
almoloya
alo
alom
alone
alonso
alost
alpa
alpama
alpe
alpha
alpi
alpski
alpskom
alquisiras
als
also
alt
alta
altamira
altamirano
altenkirhen
alter
alternativa
alternative
alternativna
alternativne
alternativni
alternativno
alto
alu
aluminij
aluminija
aluminijum
aluminijuma
aluzija
alvarado
always
alz
alzas
am
ama
amac
amadeus
aman
amanda
amandman
amar
amata
amatenango
amatepec
amaterski
amatla
amazon
amazonas
ambalaz
ambasade
ambasador
ambasadora
amber
ambicije
ambiciozni
ame
americ
america
american
americi
amerika
amerikanac
amerikanaca
amerikanci
amerikancima
amerike
ameriku
amfiteatar
ami
amidi
amiga
amija
amije
amiji
amiju
amiller
amin
amina
amini
amino
aminokiselina
aminokiseline
aminotransferaza
amir
amo
amoles
among
amonijak
amonijaka
amonijum
amor
amore
amos
amour
amp
ampanj
ampion
ampiona
ampliacio
amplituda
amra
amran
ams
amsterdam
amsterdamu
amun
amx
amy
an
ana
anac
anadolije
anadoliji
anali
analitic
analiza
analize
analizi
analizira
analizom
analizu
analog
analysis
anamnezi
anandi
anarhista
anarhisti
anarhistic
anarhizam
anarho
anatomija
anatomije
anatomy
anc
anca
anci
ancient
ancona
and
anda
anders
anderson
andora
andra
andre
andrea
andreas
andrej
andreja
andrejevic
andrew
andrews
andric
andrija
andrije
android
andromeda
andronik
andronika
andrzej
andy
andz
ane
aneksije
anektirala
anemija
anemije
ang
angaz
angel
angela
angeles
angelesa
angelesu
angelo
angels
angina
anglo
angola
angole
angoli
angostura
anhalt
ani
anic
anica
anice
anici
anih
anik
anika
anim
anima
animacija
animacije
animal
animals
animated
animation
animator
anime
animea
animirane
animirani
animiranih
anin
anina
anita
anj
anja
anje
anjem
anjima
anju
anka
ankara
anke
anketi
ann
anna
annales
annals
anne
annie
anniversary
anno
annual
ano
anode
anog
anoj
anom
anomalije
anonimni
anost
anosti
another
anouilh
anov
anovic
anr
anra
anri
anrova
anrovi
anru
ans
ansa
ansambl
ansambla
anse
anska
anske
anski
anskih
anskim
ansko
anskog
anskoj
anskom
ansku
anstava
anstva
anstveni
anstvima
anstvo
anstvom
anstvu
ansu
ant
antagonist
antagonisti
antante
antarktic
antarktika
ante
antena
antene
anthology
anthony
anti
antibiotici
antibiotika
antic
antici
antifas
antigen
antigena
antigon
antigona
antika
antike
antikomunistic
antioh
antioha
antiohije
antiohiji
antisemitizam
antitela
anto
antoine
antologija
antologije
anton
antona
antoni
antonia
antonija
antonije
antonio
antropologija
antropolos
antun
antuna
anu
any
anz
anđela
anđele
anđeles
anđelesu
anđeli
anđelic
anđeo
ao
aorte
aosta
ap
apac
aparat
aparata
aparati
apaseo
apatzinga
apca
apcu
apel
aplikacija
aplikacije
apokalipsa
apokaliptic
apollo
apolo
apolodor
apolon
apolona
apolonije
apostol
apostola
apostoli
apple
approach
apr
april
aprila
aprilskog
aprilu
apside
apsolutna
apsolutne
apsolutni
apsolutno
apsolutnu
apsorbira
apsorbuje
apsorpcije
apstraktni
apulija
aq
aquila
aquismo
ar
ara
arab
arabia
arabija
arabije
arabiji
arac
arad
aragon
aragona
aragonski
arama
aramberri
aran
arana
arandas
arani
arant
aranz
arap
arapa
arape
arapi
arapska
arapske
arapski
arapskih
arapskim
arapsko
arapskog
arapskom
aras
arbih
arbitraz
arbor
arc
arcelia
arch
archaeological
archaeology
architecture
archive
archives
arci
ard
arden
ardeni
are
area
arem
arena
arenal
arene
areni
arenja
arenje
arenu
arevac
arevic
arezzo
arg
argentina
argentine
argentini
argentinske
argentinski
argentinu
arginin
argumenata
argument
argumente
argumenti
arhaic
arheolog
arheologa
arheologija
arheologije
arheolos
arheolozi
arhiepiskop
arhiepiskopa
arhiepiskopije
arhijerejski
arhijerejskog
arhimandrit
arhipelag
arhipelaga
arhipelagu
arhitekata
arhitekt
arhitekta
arhitekte
arhitekti
arhitektonske
arhitektonski
arhitektonskih
arhitektonskom
arhitektura
arhitekture
arhitekturi
arhitekturu
arhiv
arhiva
arhivi
arhivu
ari
aria
aric
arija
arije
arima
ario
aris
aristofan
aristokrata
aristotel
aristotela
aritmetic
arizona
arizoni
arizpe
ark
arka
arkansas
arkanzas
arkanzasu
arkas
arke
arkham
arki
arko
arktic
arku
arl
arli
arls
arm
armand
armenija
armenije
armeniji
armenske
armenski
armija
armije
armiji
armijom
armijske
armijskog
armiju
arms
armstrong
army
arno
arnold
arobnjak
arom
aromatic
aron
arondismana
around
arp
arriaga
arriba
arroyo
ars
arsen
arsenal
arsenala
arsenije
arska
arske
arski
arskih
arskim
arsko
arskog
arskom
arsku
arstva
arstvo
arstvom
arstvu
art
arta
artakserksa
artakserkso
arte
arteaga
arterija
arterije
arthur
arthura
article
articles
artiljerija
artiljerije
artiljerijske
artiljerijski
artist
artists
artritis
arts
artur
arturo
aru
arvajler
arz
arđes
as
asa
ascoli
ash
ashley
asi
asia
asian
asimetric
asirci
asirije
asirski
asistencija
asistent
asna
asne
asni
asnic
asnici
asnik
asnika
asno
asnog
asocijacija
asocijacije
asopis
asopisa
asopise
asopisi
asopisima
asopisu
asova
asp
aspekata
aspekt
aspekta
aspekte
aspekti
aspektima
aspx
assessment
associated
association
ast
asta
aste
asteroid
asteroida
asteroidi
asteroidni
asteroidnog
asteroidu
asti
astih
astim
astme
asto
astog
astom
astronaut
astronauta
astronom
astronoma
astronomi
astronomija
astronomije
astronomiji
astronomiju
astronomska
astronomske
astronomski
astronomskih
astronomy
astu
asu
asuncio
asylum
at
ata
atanasije
atar
ate
ateisti
ateistic
ateizam
atelje
atena
atene
atenej
ateni
atenjani
atenski
atentat
atentata
atentatu
atenu
ati
atic
atina
atine
atini
atinjani
atinske
atinski
atinu
atipic
atlanta
atlanti
atlantic
atlantik
atlantika
atlantiku
atlantski
atlantskog
atlas
atlasa
atletic
atmosfera
atmosfere
atmosferi
atmosferski
atmosferskog
atmosferu
ato
atom
atoma
atome
atomi
atomima
atomska
atomske
atomski
atomskih
atomskog
atomsku
atomu
ator
atotonilco
atoyac
atp
atrakcija
atrakcije
attack
atzalan
au
audiciju
audio
audrey
auf
auflage
aug
augsburg
august
augusta
auguste
augustin
augusto
augustu
augustus
aurelija
aurelije
aureus
aurora
aus
austin
australia
australian
australija
australije
australiji
australijska
australijske
australijski
australiju
australopithecus
australske
australski
austria
austrija
austrijanci
austrije
austriji
austrijom
austrijska
austrijske
austrijski
austrijskih
austrijskim
austrijsko
austrijskog
austrijskoj
austrijskom
austrijsku
austriju
austro
austrougarska
austrougarske
austrougarski
autentic
author
authority
auto
autobiografija
autobiography
autobus
autobusa
autobusi
autobuska
autocesta
autoceste
automat
automata
automatski
automatsko
automobil
automobila
automobile
automobili
automobilima
automobilom
automobilu
autonomija
autonomije
autonomiju
autonomna
autonomne
autonomni
autonomnoj
autonomnu
autoput
autoputa
autor
autora
autore
autori
autorica
autorima
autoritet
autoriteta
autorska
autorskih
autorstvo
autoru
aux
av
ava
avac
available
avaju
avajuc
avala
avale
avali
avalo
avama
avamo
avan
avana
avane
avani
avanja
avanje
avanjem
avanju
avantura
avanture
avao
avara
avari
avatelja
avatelji
avati
ave
avec
avellino
avenija
avenue
avganistan
avganistana
avganistanu
avgust
avgusta
avgustu
avi
aviation
avijacija
avijacije
avijatic
avina
avine
avinu
avio
avion
aviona
avione
avioni
avionima
avionom
avionu
avljana
avljani
avljanin
avljanstvo
avn
avna
avne
avni
avnih
avnik
avnika
avnim
avno
avnog
avnoj
avnom
avnosti
avnu
avom
avs
avskog
avskom
avu
award
awards
away
ax
ayala
ayutla
az
azarbajdz
azerbajdz
azerbejdz
azija
azije
aziji
azijske
azijski
azijskih
aziju
azil
azot
azota
azueta
azul
azurna
b
ba
baba
babe
babic
babilon
babilona
babilonski
baby
bac
baca
bacac
bacanja
bacanje
bach
baci
bacila
bacili
bacio
baciti
back
background
bacon
bad
baden
badiraguato
bafta
bagdad
bagdada
bagdadu
bah
bahi
bahrein
baida
bailey
baja
bajazit
baji
bajic
bajka
bajke
bajkonur
bajo
bajram
baka
bakar
bakau
baker
bakic
bakra
bakterija
bakterijama
bakterije
bakterijske
baku
bal
bala
balada
balade
balanca
baldwin
bale
balet
baleta
bali
balistic
balkan
balkana
balkans
balkanska
balkanske
balkanski
balkanskih
balkanskim
balkanskog
balkanskom
balkanu
ball
balleza
balon
balona
bals
baltic
baltimore
baluc
bama
ban
bana
banaka
banana
banat
banata
banatski
banatu
banci
band
banda
bandar
bande
banderas
bandi
bane
bang
banglades
bani
banic
banja
banjaluc
banjaluci
banje
banjica
banjoj
bank
banka
bankar
banke
banks
banku
banovic
banovina
banovine
banska
banskobistric
bantu
banu
bao
baptiste
bar
bara
baranja
baranje
baranji
baranjska
baranjske
baranjski
baranjskoj
barbara
barbare
barbarossa
barcelona
barcelone
barceloni
barcelonu
bare
barem
bari
baric
barijera
barijere
barijeru
bariton
barker
barnes
barney
barok
baroka
barokna
barokne
barokni
baroknom
baron
barona
barranca
barrett
barrio
barrios
barry
bars
barseloni
bart
bartolo
bartolomeo
barton
baru
barun
baruna
barut
baruta
bas
base
baseball
based
basel
basic
basil
basilicata
basist
basista
baskijski
bass
bat
bata
bataljon
bataljona
bataljonom
baterija
baterije
bates
batman
batmana
batmanu
batopilas
battista
battle
battlestar
bauer
bautista
bavarska
bavarske
bavarski
bavarskoj
bave
bavi
bavila
bavili
bavilo
bavio
baviti
bavljenje
bay
bayern
bayt
baz
baza
bazama
baze
bazen
bazena
bazenu
bazi
bazic
bazilici
bazilika
bazilike
baziliku
bazira
baziran
bazirana
bazirano
bazni
bazom
bazu
bb
bbc
bc
bd
bdp
bdsm
be
beach
bear
beast
beat
beatles
beatrice
beaumont
beautiful
beauty
beba
bebe
bec
beck
becker
bedem
bedema
bedemi
bedemima
bee
been
before
beg
bega
begin
begova
begovic
behind
bei
being
bej
bejzbol
bejzbola
bek
bekstva
bekstvo
bel
bela
bele
beles
belez
belgija
belgije
belgiji
belgijski
belgiju
belgrade
beli
belic
believe
belih
belim
belis
bell
bella
belle
bello
belluno
belo
beloe
belog
beloj
belom
belorusija
belorusije
belu
belvedere
ben
bena
benc
bend
benda
bendom
bendova
bendovi
bendu
bene
benedict
benedikt
benedikta
benediktinski
benes
benevento
beni
benici
benih
benik
benika
benike
benim
benin
benito
benjamin
bennett
beno
benog
benoj
benom
benson
benton
benu
benz
benzin
benzina
benzojeve
beoc
beograd
beograda
beogradska
beogradske
beogradski
beogradskih
beogradsko
beogradskog
beogradskoj
beogradskom
beogradu
ber
berane
berberski
berenikina
berg
bergamo
bergen
berger
bergman
berkeley
berlin
berlina
berlinski
berlinskog
berlinskom
berlinu
bern
bernard
bernarda
bernardo
bernhard
bernkastel
berrioza
berry
bert
bertrand
bes
beskonac
beskuc
besplatno
best
bet
beta
beth
beti
beton
betona
bette
better
betty
between
beverly
beyond
bez
bezbednost
bezbednosti
bezbroj
beznac
bezuspes
bezuspjes
bf
bg
bh
bi
bible
biblija
biblije
bibliji
biblijske
biblijski
biblijskih
bibliju
bibliografija
bibliography
biblioteci
biblioteka
biblioteke
biblioteku
bic
bici
biciklista
biciklistic
biella
big
bigourdan
bih
bihac
bihor
bijeg
bijega
bijegu
bijela
bijele
bijeli
bijelic
bijelih
bijelim
bijeljina
bijelo
bijelog
bijeloj
bijelom
bijelu
bijes
bijesa
bijesan
bik
bika
bil
bila
bile
bilec
bili
bilic
bilja
biljaka
biljana
bilje
biljes
biljez
biljka
biljkama
biljke
biljne
biljni
biljnih
biljnim
biljnog
biljoz
bill
billa
billboard
billie
billy
bilo
bilogorska
bilogorskoj
bilten
bin
bina
bine
bing
bingen
bini
binu
bio
biografija
biografije
biografiju
biografski
biographical
biography
biol
biolog
biological
biologija
biologije
biologiji
biologiju
biology
biolos
biomase
biosintezi
bir
bira
birac
biraju
birali
biran
birao
birati
bird
birds
birkenfeld
biro
biroa
birth
bis
bishop
biskup
biskupa
biskupi
biskupija
biskupije
biskupiji
biskupiju
biskupom
biskupu
bismarck
bismo
bista
biste
bistra
bistrica
bit
bita
bitak
bitaka
bitan
bitange
bitburg
bitci
biti
bitka
bitkama
bitke
bitki
bitkom
bitku
bitna
bitne
bitni
bitnih
bitno
bitolj
bitolja
biva
bivaju
bivs
bizant
bizanta
bizantska
bizantske
bizantski
bizantskih
bizantsko
bizantskog
bizantskom
biznismen
bjelanc
bjelokosti
bjelovar
bjelovara
bjelovarsko
bjelovaru
bjez
bk
bl
black
blackwell
blade
blaga
blagajnama
blagdan
blagdani
blage
blagim
blago
blagoje
blagojevic
blagom
blagoslov
blagostanja
blair
blake
blanc
blanca
blanche
blanco
blank
blas
blata
blato
blaz
blic
blind
bliska
bliske
bliski
bliskih
bliskim
blisko
bliskog
bliskoistoc
bliskoj
bliskom
blisku
bliz
blizak
blizanaca
blizanci
blizina
blizine
blizini
blizinu
blizu
bljesak
block
blog
blok
bloka
blokada
blokade
blokadu
blokatori
blokira
blokiraju
blokova
blokovi
bloku
blood
bloody
blu
blue
blues
bluesa
bmatrix
bmw
bo
boa
board
boat
bob
boba
boban
bobby
boc
boca
boce
bocoyna
bod
boda
bodez
bodova
body
boeing
bog
boga
bogart
bogat
bogata
bogatas
bogate
bogati
bogatih
bogatim
bogato
bogatog
bogatoj
bogatom
bogatstva
bogatstvo
bogatstvu
bogatu
bogdan
bogdanovic
boginja
boginje
bogom
bogorodica
bogorodice
bogoslovije
bogosluz
bogova
bogove
bogovi
bogovima
bogu
boing
bois
boj
boja
bojama
bojan
bojana
bojao
boje
bojec
boji
bojis
bojna
bojne
bojni
bojnih
bojnik
bojnog
bojnom
bojom
bojovic
boju
bok
boka
bokac
boke
boki
boks
boksac
bokser
boku
bol
bola
bolan
boldsymbol
boles
bolesnici
bolesnik
bolesnika
bolest
bolestan
bolesti
bolestima
boli
bolivija
bolivije
boliviji
bolja
bolje
boljeg
bolji
boljih
boljim
boljs
bolju
bolnic
bolnica
bolnicama
bolnice
bolnici
bolnicu
bologna
bolova
boluje
bolzano
bom
bomba
bombama
bombarder
bombardera
bombarderi
bombardiranja
bombardiranje
bombardovanja
bombardovanje
bombas
bombe
bombi
bombu
bon
bonaparte
bond
bonda
bondu
bone
bonfil
bonifacije
bonita
bonnie
bono
bonus
book
books
boom
boone
booth
bor
bora
borac
boraca
boravak
boravi
boravila
boravili
boravio
boravka
borba
borbama
borbe
borbena
borbene
borbeni
borbenih
borbenim
borbenog
borbenu
borbi
borbom
borbu
borca
borce
borci
borcima
bordeaux
border
bore
borec
borgia
borgo
bori
boric
borila
borilac
borile
borili
borio
boris
borisa
borislav
boriti
born
boro
borough
borougha
bos
bosanska
bosanske
bosanski
bosanskih
bosanskim
bosansko
bosanskog
bosanskohercegovac
bosanskoj
bosanskom
bosansku
bosco
bosna
bosne
bosni
bosnia
bosnom
bosnu
bosque
boss
boston
bostonu
botanic
both
botos
bottom
bourbon
bowie
bowl
box
boy
boyle
boys
boysen
boz
bp
br
bra
brac
brad
bradley
brady
braila
brain
brajan
brak
braka
brakom
brakova
brakove
brakovi
brakovima
braku
brana
brand
brandenburg
brando
brandon
brane
brani
branic
branila
branili
branimir
branio
branislav
branitelj
branitelja
branitelji
braniti
branka
branko
brankovic
bras
brasil
brat
brata
bratic
bratislava
bratom
bratovs
bratstva
bratstvo
bratu
braun
brave
bravo
brazil
brazila
brazilska
brazilske
brazilski
brazilskoj
brazilu
brc
brda
brdima
brdo
brdska
brdske
brdski
brdskog
brdu
bre
break
breaking
breg
bregovic
bremen
brenda
bres
brescia
brest
bretanja
brez
breza
brian
briana
bride
bridge
bridges
brief
brien
briga
brigada
brigade
brigadi
brigadom
brigadu
brige
bright
brigitte
brigu
brijac
brijeg
brill
brindisi
brine
brinu
brinuo
brinuti
bris
brisanje
briselu
bristol
britain
britanaca
britance
britanci
britancima
britanija
britanije
britaniji
britanijom
britaniju
britannica
britanska
britanske
britanski
britanskih
britanskim
britansko
britanskog
britanskoj
britanskom
britansku
british
britney
briz
brkic
broadcast
broadcasting
broadway
broadwayu
brock
brod
broda
brodogradilis
brodogradnje
brodom
brodova
brodove
brodovi
brodovima
brodski
brodsko
brodu
broj
broja
brojac
brojala
brojao
brojc
broje
brojem
brojeva
brojeve
brojevi
brojevima
broji
brojka
brojke
brojku
brojna
brojne
brojni
brojnih
brojnim
brojno
brojnost
brojnosti
broju
broken
bronc
bronca
bronce
bronzanog
bronze
brooklyn
brooks
bros
brother
brothers
brown
browning
broz
broza
bru
bruce
brucea
bruna
bruno
brus
brut
brutalno
bruto
bruxelles
bruxellesu
bryan
bryant
brz
brza
brze
brzi
brzih
brzim
brzina
brzinama
brzine
brzini
brzinom
brzinu
brzo
brzog
brzom
brzu
bs
bu
buba
bubanj
bubne
bubnjar
bubnjara
bubnjevi
bubrega
bubrez
buc
buck
buda
budapest
buddy
bude
budi
budim
budimpes
budimu
budistic
budizam
budizma
budizmu
budu
buduc
budva
budz
buena
buenavista
buenos
buffalo
bug
bugara
bugari
bugarima
bugarska
bugarske
bugarski
bugarskih
bugarskim
bugarsko
bugarskog
bugarskoj
bugarskom
bugarsku
bugojno
buha
building
buka
buke
bukovac
bukovica
bukures
bukvalno
bukve
bulatovic
bulevar
bulic
bull
bulletin
bum
bun
buna
bunar
bunara
bune
bunic
bunjevac
bunker
bunu
bura
bure
bureau
burgonja
burgos
burgundije
burke
burma
burn
burne
burnett
burning
burns
burt
burton
burz
bus
bush
busha
business
but
butch
butler
butterfly
buxwv
buz
buzau
buđenje
bwv
by
byrne
byron
byzantine
c
ca
cabada
cabo
caborca
cabos
cadereyta
caesar
cafe
cage
cagliari
cagney
cairo
cajeme
cal
calabria
calakmul
calendar
calera
california
call
called
calvin
calvo
camargo
cambodia
cambridge
cambridgeu
came
cameo
cameron
camille
camino
camp
campaign
campania
campbell
campeche
campo
campobasso
camus
can
cana
canada
canadian
canal
cancer
candelaria
candy
canelas
cannes
cannesu
canterburyja
canyon
cao
cap
cape
capital
capo
captain
capuli
car
cara
caravaggio
carbon
card
care
career
carem
carev
careva
careve
carevi
carey
carica
carice
carichi
carigrad
carigrada
carigradski
carigradskog
carigradu
carina
carine
carl
carla
carlo
carlos
carmen
carmona
carol
carole
carolina
caroline
carolyn
carpenter
carranza
carrara
carrie
carrillo
carrington
carrizal
carroll
carry
carska
carske
carski
carskih
carskim
carsko
carskog
carskoj
carskom
carsku
carson
carstva
carstvo
carstvom
carstvu
carter
caru
cas
casa
casas
cascina
case
caserta
cases
casey
cash
casino
cassius
cast
castan
castel
castello
castillo
castle
castro
cat
catala
catalogue
catania
catanzaro
catarina
catazaja
category
catemaco
cathedral
catherine
catholic
catwoman
cave
cb
cbs
cc
cca
ccl
cctld
cd
cdot
cdots
cds
ce
cecil
cecilia
ceiba
cel
cela
celaya
cele
celi
celina
celine
celini
celinu
cell
cells
celo
celog
celoj
celom
celtics
celticsa
celticsi
celu
celuloze
cement
cementa
cena
cene
ceni
census
centar
centara
center
centimetara
centra
central
centrale
centralna
centralne
centralni
centralnih
centralnim
centralno
centralnog
centralnoj
centralnom
centralnu
centre
centri
centrima
centro
centrom
centru
century
cenu
cenzura
cenzure
ceo
ceremonija
ceremonije
ceremoniji
cerrito
cerritos
cerro
cesare
cesena
cesta
cestama
ceste
cesti
cestom
cestovni
cestu
cetine
cetinje
cetinju
cev
cevi
cezar
cezara
cf
cg
ch
cha
chain
chalchicuautla
challenge
chamber
chamberlain
chambers
champion
championship
champoto
chamula
chan
chance
chandler
chang
change
changes
channel
chaos
chapelle
chaplin
chapman
chapter
charcas
charles
charlesa
charlie
charlotte
chase
che
chelsea
chem
chemical
chemistry
chen
cheng
cher
cherry
chester
chi
chiapa
chiapas
chicago
chicagu
chico
chicomuselo
chicontepec
chief
chiesa
chieti
chignahuapan
chihuahua
chilapa
chilchotla
child
children
chile
chilo
china
chinese
chinicuila
chippewa
cho
choapas
choice
choir
choix
chris
christ
christian
christiana
christianity
christie
christina
christine
christmas
christoph
christopher
chronicle
chronicles
chronology
chu
chuck
church
churchill
ci
cia
ciceron
cie
cifre
cigareta
cigle
cijela
cijele
cijeli
cijelim
cijelo
cijelog
cijeloj
cijelom
cijelosti
cijelu
cijena
cijene
cijeni
cijenu
cijev
cijevi
cijevima
ciklic
ciklon
ciklus
ciklusa
ciklusu
cilindar
cilindra
cilindric
cilj
cilja
ciljem
ciljeva
ciljeve
ciljevi
ciljevima
cilju
cima
cincar
cincinnati
cinco
cine
cinema
cinic
cink
cinka
cintalapa
cio
cionistic
cipar
cipele
circle
circus
cirkulacije
cirkulaciju
cirkus
cis
cistein
cit
citat
citata
citati
cities
citira
citohrom
citta
city
cityja
cityju
ciudad
civil
civila
civile
civili
civilima
civilizacija
civilizacije
civilizaciju
civilization
civilna
civilne
civilni
civilnih
civilnim
civilno
civilnog
civilnu
cjelina
cjeline
cjelini
cjelinu
cjelokupni
cjelokupno
cjelokupnog
cjelovec
ck
cl
claire
clanak
clara
clare
clarence
clarendon
clark
clarke
class
classic
classical
classics
classification
claude
claudia
claudio
claudius
clay
clayton
cle
clement
cleveland
cliff
climate
clin
clinical
clinton
clive
clooney
close
club
clyde
cm
cn
cnn
cns
co
coa
coahuayutla
coahuila
coalcoma
coast
coatepec
cobiss
cobra
coca
cochoapa
code
codex
coen
cohen
col
cola
cold
cole
coleman
coli
colima
colin
colle
collected
collection
college
collins
colo
colonel
colonia
color
colorada
colorado
colors
colt
columbia
columbus
com
comalapa
comaltitla
come
comedy
comes
comics
coming
comita
command
commentary
commission
committee
commodore
common
commons
communications
community
como
comondu
comonfort
companion
company
comparative
comparison
complete
complex
compostela
comprehensive
computer
comte
comune
con
conan
concepcio
concert
concordia
condita
conference
conflict
congress
connecticut
connie
connor
conquest
conrad
conservation
constance
constant
constantine
constitution
conte
contemporary
content
contrada
control
cook
cool
cooper
copa
coppola
cora
cork
cornelius
cornell
corner
corona
coronary
corporation
corpus
corral
corrientes
corte
corzo
cos
cosenza
cosh
cosoleacaque
costa
cotaxtla
could
council
count
counter
country
county
course
court
cover
cox
coyuca
cp
cpan
cr
craig
crane
cranea
crash
crawford
crazy
cre
creek
creeka
cremona
cres
cretaceous
creva
crijeva
crime
crimes
criminal
crisis
cristina
cristo
cristobal
criterion
critical
crkava
crkva
crkvama
crkve
crkvena
crkvene
crkveni
crkvenih
crkvenim
crkveno
crkvenog
crkvenoj
crkvenom
crkvenu
crkvi
crkvica
crkvom
crkvu
crna
crnac
crnaca
crnci
crne
crni
crnih
crnim
crno
crnog
crnogoraca
crnogorci
crnogorcima
crnogorska
crnogorske
crnogorski
crnogorskih
crnogorsko
crnogorskog
crnogorskom
crnoj
crnojevic
crnom
crnu
cro
croatia
croatian
croatica
croce
croix
cross
crotone
crown
crta
crtac
crtani
crtanje
crte
crtez
crucero
cruces
cruise
cruz
crvena
crvene
crveni
crvenih
crvenim
crveno
crvenog
crvenoj
crvenom
crvenu
cry
crystal
cs
csa
csi
css
ct
cu
cuaro
cuatro
cuauhte
cuautitla
cuba
cuesta
cuetzalan
culiaca
cultural
culture
cum
cuna
cuneo
cup
cuqui
cura
cure
current
curtis
cusio
cut
cutzamala
cv
cvec
cvet
cvetkovic
cvijec
cvijet
cvijeta
cvijic
cvjetovi
cx
cy
cyril
cyrus
cz
d
da
dac
daddy
dade
dag
dah
dai
daily
daisy
daj
daje
daju
dajuc
dakako
dakle
dakota
dakoti
dal
dala
dalaj
dale
daleki
daleko
dalekog
dalekom
dalekosez
dali
dalibor
dalja
dalje
daljeg
daljem
dalji
daljim
daljine
daljinu
daljnja
daljnje
daljnjeg
daljnji
daljnju
dalju
dallas
dalmacija
dalmacije
dalmaciji
dalmaciju
dalmatinska
dalmatinske
dalmatinski
dalmatinskih
dalmatinskog
dalmatinskoj
dalo
dalton
dam
dama
damask
damaska
dame
damir
damjan
damjanovic
damon
dan
dana
danak
danas
dance
dancing
dane
danger
dangerous
dani
danic
danica
daniel
daniela
daniels
danih
danijel
danijela
danila
danilo
danilovgrad
danima
danju
danka
danny
dano
danog
danom
dans
danska
danske
danski
danskog
danskoj
danskom
dansku
dante
danu
dao
dapc
dar
dara
darda
darija
darije
dario
dark
darkness
darko
darling
darovao
darove
darwin
das
dat
data
database
date
dateformat
dati
datira
datiraju
datiranje
dato
datog
datom
datoteka
datoteke
datum
datuma
datume
datumi
daughter
davala
davali
davanja
davanje
davao
davati
dave
david
davida
davidom
davidovic
davidson
davies
davis
davnina
davno
davor
dawkins
dawn
dawson
day
days
daz
db
dc
dd
ddr
de
dea
dead
deadly
deal
dean
death
debata
debate
debeli
debelo
debelog
debi
debitantski
debitirao
debitovao
debljina
debljine
deborah
debra
dec
deca
decca
dece
decembar
december
decembra
decembru
decenija
decenijama
decenije
deceniji
deceniju
deci
decom
decu
deda
dedic
dee
deep
def
default
defense
deficit
definicija
definicije
definiciji
definiciju
definira
definiran
definirana
definirao
definirati
definis
definisan
definisana
definisati
definition
definitivno
deformacija
deformacije
degli
dehidrogenaza
dei
dejan
dejstava
dejstva
dejstvo
dejstvom
dejvid
dejvis
dekan
dekarboksilaza
deklaracija
deklaracije
deklaraciju
deklinacija
dekoracija
dekoracije
dekret
dekretom
del
dela
delatnost
delatnosti
delaware
delc
dele
delegacija
delegacije
delegaciju
delegat
delegata
delegati
delhi
deli
delic
delicias
delima
delimic
delisle
dell
della
delle
delo
delom
delova
delovala
delovanja
delovanje
delovanjem
delovao
delove
delovi
delovima
delta
delte
delti
delu
deluje
deluju
dem
demetrije
demir
demo
democracy
democratic
demografija
demografski
demokracija
demokracije
demokraciju
demokrata
demokrati
demokratija
demokratije
demokratska
demokratske
demokratski
demokratskih
demokratskim
demokratskog
demokratskoj
demokratskom
demokratsku
demon
demona
demoni
demonstracija
demonstracijama
demonstracije
demonstranata
demonstrirao
demosten
den
deni
denis
dennis
dent
denta
denver
deo
departman
departmana
departmani
departmanu
department
depes
deportacija
deportacije
depresija
depresije
depresiju
der
dera
derby
derek
deri
derivat
derivati
derventa
dervis
des
desant
description
desert
deset
deseta
desetak
desetaka
deseti
desetina
desetine
desetljec
desetogodis
desi
design
desila
desilo
desio
desire
desna
desne
desni
desnic
desnica
desnice
desno
desnog
desnoj
desnom
desnu
despot
despota
destinacija
destiny
det
detailed
details
detalj
detalja
detaljan
detalje
detalji
detaljima
detaljna
detaljne
detaljnije
detaljno
dete
detective
detekciju
detektiv
detektiva
detektor
detektora
detektori
deteta
detinjstva
detinjstvo
detroit
deutsch
deutsche
deutschen
deutschland
deux
deva
deve
devedesetih
development
devet
deveta
deveti
devetog
devi
devic
devil
devimon
devojc
devojka
devojke
devojku
dez
dezoksi
di
dia
diabetes
diagnosis
diamond
diana
diane
diary
dic
dick
dictionary
did
didaktic
die
diego
dielektric
dien
dies
dietrich
diferencijacije
diferencijalna
different
difosfat
difuzije
digao
digimon
digimona
digimoni
digital
digitalna
digitalne
digitalni
digitalnih
digitalno
digitalnog
digitalnom
digivoluira
digli
dijabetes
dijabetesa
dijagnostic
dijagnostici
dijagnostika
dijagnoza
dijagnoze
dijagnozu
dijagram
dijalekata
dijalekt
dijalekta
dijalekti
dijalektic
dijalektima
dijalektom
dijalektu
dijalog
dijaloga
dijalozi
dijamanata
dijamant
dijela
dijele
dijeli
dijelili
dijelio
dijeliti
dijelom
dijelova
dijelove
dijelovi
dijelovima
dijelu
dijete
diklic
diktator
diktatora
diktatura
diktature
diktaturu
dil
diljem
dim
dima
dimas
dimenzija
dimenzijama
dimenzije
dimenziju
dimitrija
dimitrije
dimitrijevic
din
dina
dinama
dinamic
dinamika
dinamiku
dinamo
dinar
dinara
dinastic
dinastija
dinastije
dinastiji
dinastijom
dinastiju
dine
dinko
dino
dinosaur
dinosaura
dinosauri
dinosaurs
dinska
dinskoj
dinu
dio
dioda
diode
diodor
diogen
dioklecijan
dioksid
dioksida
dioksigenaza
dion
dionic
dionica
dionice
dionisije
dios
dipl
diploma
diplomat
diplomata
diplomati
diplomatske
diplomatski
diplomatskih
diplomatskim
diplomatsku
diplome
diplomirala
diplomirao
diplomski
diplomu
dir
direct
director
directory
direktan
direktna
direktne
direktni
direktnim
direktno
direktnog
direktnom
direktnu
direktor
direktora
direktori
dirigent
dirigenti
dirk
dirty
dis
disanja
disanje
disciplina
discipline
disciplini
disciplinu
disco
discogs
discovery
discussion
disease
diseases
disertaciju
disk
diska
diskografija
diskografska
diskografske
diskriminacija
diskriminacije
diskriminaciju
disku
diskusije
disney
display
distribucija
distribucije
distribuciji
distribuciju
distribuiran
district
distrikt
distrikta
distriktu
distrito
ditions
ditmars
div
diva
divac
divan
divine
division
divizija
divizije
diviziji
divizijom
diviziju
divlja
divljac
divlje
divljeg
divlji
divljih
divljim
divljini
dixon
diz
dizajn
dizajna
dizajner
dizajniran
dizajnirana
dizajnirane
dizajnirao
dizajnu
dizanje
dizel
dj
djec
djeca
djece
djeci
djecom
djecu
djed
djeda
djela
djelatnik
djelatnost
djelatnosti
djelima
djelimic
djelo
djelom
djelomic
djelovala
djelovali
djelovanja
djelovanje
djelovanjem
djelovanju
djelovao
djelovati
djelu
djeluje
djeluju
djeteta
djetetom
djetinjstva
djetinjstvo
djetinjstvu
djevic
djevica
djevice
djevojac
djevojaka
djevojc
djevojka
djevojke
djevojkom
djevojku
dk
dl
dlaka
dlake
dm
dmitrij
dna
dnevna
dnevne
dnevni
dnevnih
dnevnik
dnevnika
dnevniku
dnevnim
dnevno
dnevnog
dnevnom
dnk
dno
dnu
do
dob
doba
dobar
dobara
dobi
dobija
dobijaju
dobijali
dobijamo
dobijanja
dobijanje
dobijao
dobije
dobijen
dobijena
dobijeni
dobiju
dobila
dobile
dobili
dobilo
dobio
dobit
dobiti
dobitnica
dobitnice
dobitnici
dobitnik
dobitnika
dobiva
dobivaju
dobivamo
dobivanja
dobivanje
dobivao
dobivena
dobivs
doblado
doboj
dobra
dobre
dobri
dobric
dobrih
dobrim
dobro
dobrobit
dobroc
dobrodos
dobrog
dobroj
dobrom
dobrovoljac
dobrovoljaca
dobrovoljci
dobrovoljno
dobru
dobu
doc
docnije
doctor
document
documentary
documents
doda
dodaci
dodaje
dodaju
dodajuc
dodan
dodana
dodao
dodatak
dodati
dodatim
dodatkom
dodatna
dodatne
dodatni
dodatnih
dodatnim
dodatno
dodatnog
dodatnu
dodavanja
dodavanje
dodavanjem
dodeli
dodelio
dodeljen
dodeljena
dodeljuje
dodijelio
dodijeljen
dodijeljena
dodir
dodira
dodiru
dodjela
dodjele
dodjeli
dodjeljuje
dodus
does
dog
događa
događaj
događaja
događaje
događajem
događaji
događajima
događaju
događanja
dogodi
dogodila
dogodili
dogodilo
dogodine
dogodio
dogoditi
dogovor
dogovora
dogovoreno
dogovorili
dogovorio
dogovorom
dogovoru
dogs
dohodak
doi
doigravanja
doigravanje
doigravanju
doista
dojam
dojke
dok
dokaz
dokaza
dokazano
dokazao
dokazati
dokaze
dokazi
dokazima
dokazivanje
dokazuje
dokazuju
dokle
doktor
doktora
doktorat
doktorirao
doktorsku
doktrina
doktrine
doktrinu
dokumenata
dokument
dokumenta
dokumentacija
dokumentacije
dokumentarac
dokumentarne
dokumentarni
dokumentarnih
dokumentarnog
dokumente
dokumenti
dokumentima
dokumentiran
dokumentirano
dokumentu
dol
dolac
dolar
dolara
dolaska
dolaskom
dolasku
dolazak
dolaze
dolazi
dolazila
dolazili
dolazilo
dolazio
dolaziti
dole
dolenjskoj
dolina
dolinama
doline
dolini
dolinom
dolinu
dolje
dollar
dolly
dolores
dolz
dom
doma
domac
domain
dome
domen
domena
domene
domeni
domenico
domenu
domet
dometa
dominacija
dominacije
dominaciju
dominantan
dominantna
dominantne
dominantni
dominantno
domingo
domini
dominic
dominik
dominika
dominique
dominira
dominiraju
dominirala
dominirali
dominirao
domobrana
domobranske
domorodac
domorodaca
domova
domove
domovima
domovina
domovine
domovini
domovinskog
domovinskom
domovinu
domu
don
dona
donald
donau
donedavno
donekle
donela
doneli
donelo
doneo
donersberg
dones
donese
donesen
donesena
donet
doneta
doneti
dong
donijela
donijeli
donijelo
donijeti
donio
donja
donje
donjeg
donjem
donji
donjih
donjim
donjoj
donjoposavskoj
donju
donna
donos
donose
donosi
donovan
door
dopisnik
doprinela
doprineli
doprineo
doprinio
doprinos
doprinosa
doprinose
doprinosi
dopus
dopustio
dor
dora
dorado
dordonja
doris
dorothy
dos
dosad
dosadas
dosec
dosegao
dosegla
doselili
doselio
doseljeni
doseljenici
doseljenika
dosez
dosl
doslovno
dospeo
dospio
dosta
dostic
dostigao
dostigla
dostigne
dostignuc
dostiz
dostojanstvo
dostupan
dostupna
dostupne
dostupni
dostupnih
dostupnim
dostupno
dostupnost
dot
dotad
dotada
dotadas
dotic
doticaj
dotle
double
doubleday
doug
douglas
dous
dovac
dovede
doveden
dovedena
dovedu
dovela
dovele
doveli
dovelo
doveo
dover
dovesti
dovode
dovodi
dovoljan
dovoljna
dovoljne
dovoljno
dovoljnu
dovrs
down
download
doyle
doz
doza
dozama
doze
dozu
dozvola
dozvole
dozvoli
dozvolila
dozvolio
dozvoliti
dozvoljava
dozvoljavaju
dozvoljen
dozvoljena
dozvoljeno
dozvolu
dođe
dođu
dp
dq
dr
dra
drac
draftu
drag
draga
dragan
dragana
dragas
drage
dragi
dragic
dragis
drago
dragojevic
dragoljub
dragomir
dragon
dragoslav
dragovic
dragutin
dragutina
drake
dram
drama
dramama
dramatic
dramaturg
drame
drami
dramska
dramske
dramski
dramskih
dramsko
dramskog
dramskoj
dramskom
dramsku
dramu
dras
drastic
drave
draz
dream
dreams
drenaz
dres
dresu
drevna
drevne
drevni
drevnih
drevnim
drevno
drevnog
drevnoj
drevnom
drew
drez
drine
drini
drinu
drive
driver
drnis
droga
droge
drogom
drom
drs
drug
druga
drugac
drugamo
drugdje
druge
drugi
drugih
drugim
drugima
drugo
drugog
drugoga
drugoj
drugom
drugome
drugova
drugovi
drugs
drugu
drukc
drum
drus
druz
drva
drvar
drvara
drvaru
drvca
drvec
drvena
drvene
drveni
drvenih
drvenim
drvenog
drveta
drvetu
drvne
drvo
drvu
drz
ds
dt
dto
du
dub
dubai
dubica
dubina
dubinama
dubine
dubini
dubinu
dublin
dublje
dubok
duboka
duboke
duboki
dubokim
duboko
dubokog
dubokoj
dubokom
duboku
dubrava
dubravka
dubravko
dubrovac
dubrovc
dubrovnik
dubrovnika
dubrovniku
duc
dudley
due
duet
duetu
dug
duga
dugac
duge
dugi
dugih
dugim
dugme
dugo
dugog
dugogodis
dugoj
dugom
dugometraz
dugoroc
dugotrajna
dugotrajne
dugotrajno
dugova
dugove
dugu
duguje
duh
duha
duhan
duhana
duhom
duhova
duhovi
duhovna
duhovne
duhovni
duhovnim
duhovno
duhovnog
duhovnom
duhovnu
duhu
duka
dukata
duke
dulce
dulje
duljina
duljine
duljini
duljinu
dumbledore
dunav
dunava
dunavu
duncan
dunja
duo
duplje
duplo
durango
durham
during
duru
dus
dutch
duvac
duz
dva
dvadeset
dvadesetak
dvadesetih
dvadesetog
dvaju
dvama
dvanaest
dvaput
dvd
dve
dveri
dvije
dviju
dvjema
dvoboj
dvogodis
dvojac
dvoje
dvojezic
dvojica
dvojice
dvojici
dvojicu
dvonoz
dvor
dvora
dvorac
dvorana
dvoranama
dvorane
dvorani
dvoranu
dvorca
dvorcu
dvori
dvoris
dvornik
dvorska
dvorske
dvorski
dvorskog
dvoru
dvostruka
dvostruke
dvostruki
dvostrukim
dvostruko
dvostrukog
dvostrukom
dvostruku
dx
dylan
dynasty
dz
dzs
e
ea
each
eagle
earl
earliest
early
earth
east
eastern
eastwood
easy
eb
ebel
ebert
ebu
ec
eci
ecima
economic
economics
economy
ed
eda
eddie
ede
edem
edema
eden
edgar
edgara
edge
edi
edikt
edinburgh
edip
edison
edit
edited
edith
edition
editions
editor
editors
edmond
edmund
edo
edomir
eds
edu
eduard
eduardo
education
edvard
edvarda
edward
edwarda
edwards
edwin
ef
efa
efekat
efekata
efekt
efekta
efekte
efekti
efektima
efektivno
efes
effect
effects
efikasan
efikasno
efikasnost
efikasnosti
efom
eg
ega
ege
egeja
egejskog
egi
egipat
egipatska
egipatske
egipatski
egipatskih
egipatskim
egipatsko
egipatskog
egipatskom
egipc
egipta
egiptom
egiptu
ego
egodis
egrad
egypt
egyptian
egzil
egzilu
egzistencije
egzotic
eha
ehf
ehoslovac
ei
ein
eine
einer
einstein
eisenhower
ej
ejezic
ejh
ejido
ejmi
ejms
ejmsa
ejn
ek
eka
ekaju
ekajuc
ekala
ekali
ekan
ekanja
ekao
ekati
ekic
ekipa
ekipe
ekipi
ekipom
ekipu
ekivali
ekivalo
ekivane
ekivani
ekivanja
ekivanju
ekivano
ekivao
ekivati
ekliptike
eko
ekologija
ekolos
ekonomic
ekonomija
ekonomije
ekonomiji
ekonomiju
ekonomist
ekonomista
ekonomisti
ekonomska
ekonomske
ekonomski
ekonomskih
ekonomskim
ekonomsko
ekonomskog
ekonomskoj
ekonomskom
ekonomsku
ekosistema
ekovic
ekran
ekrana
ekranizacija
ekranizaciju
ekraniziran
ekranu
eks
ekscentric
ekscentricitet
ekson
eksonom
ekspanzija
ekspanzije
ekspanziju
ekspedicija
ekspedicije
ekspediciji
ekspediciju
eksperimenata
eksperiment
eksperimenta
eksperimentalne
eksperimentalni
eksperimentalno
eksperimente
eksperimenti
eksperimentima
eksplicitno
eksploatacija
eksploatacije
eksploataciju
eksplozija
eksplozije
eksploziji
eksploziju
eksploziv
eksploziva
eksplozivne
ekspres
ekspresionizma
eksterni
ekstremiteta
ekstremne
ekstremnim
ekstremno
ekuje
ekuju
ekvador
ekvator
ekvatora
ekvatoru
ekvivalent
ekvivalentna
el
ela
elastic
elbe
elder
ele
eleanor
elec
electric
electronic
elektra
elektrana
elektrane
elektric
elektricitet
elektriciteta
elektro
elektroda
elektrode
elektrolita
elektroluc
elektromagnetskog
elektron
elektrona
elektrone
elektroni
elektronic
elektronika
elektronike
elektronska
elektronske
elektronski
elektronskih
elektronskim
elektronsko
elektronskog
elektrostatic
elektrotehnic
elektrotehnike
elela
eleli
elemenata
element
elementa
elementarne
elementarnih
elemente
elementi
elementima
elena
eleo
eleznic
eleznica
eleznice
eli
elias
elic
elici
elija
elijama
elije
eliji
elijska
elijske
elijski
elijskih
elijskog
elijskoj
elijsku
eliju
elik
elika
elim
elima
eliminis
elimo
elio
eliot
eliptic
elisabeth
elita
elite
elizabet
elizabeta
elizabete
elizabeth
elj
elja
eljama
eljan
elje
eljela
eljeli
eljena
eljene
eljeni
eljenih
eljeza
eljezna
eljezne
eljezni
eljeznic
eljeznica
eljeznice
eljeznicom
eljezno
eljeznog
eljezo
elji
eljka
eljko
eljno
eljom
elju
eljust
eljusti
ella
ellen
elliot
elliott
ellis
elnici
elnik
elnika
elnikom
elno
elo
elor
elsa
else
elsevier
elu
eluca
eludac
elvis
em
ema
emanuel
embargo
embolija
eme
emerson
emi
emigracija
emigracije
emigraciji
emigranata
emigrirao
emil
emile
emilia
emiliano
emilija
emilio
emily
emir
emira
emirat
emirata
emisija
emisijama
emisije
emisiji
emisiju
emitira
emitiraju
emitirala
emitiran
emitirana
emitiranja
emitiranje
emitiranjem
emitirao
emitirati
emitovana
emitovanje
emituje
emma
emmanuel
emmanuelle
emmy
emo
emocija
emocije
emperor
empire
emu
en
ena
enama
encarnacio
enciklopedija
enciklopedije
enciklopediji
enciklopedijski
encyclopaedia
encyclopedia
encyclopædia
end
endemic
endr
ene
enemy
energetska
energetske
energetski
energetskim
energic
energija
energije
energiji
energijom
energiju
energy
enevi
eng
engels
engic
engineering
engl
england
engleska
engleske
engleski
engleskih
engleskim
englesko
engleskog
engleskoj
engleskom
englesku
engleza
englezi
english
eni
enic
enica
enice
enici
enicima
enicom
enicu
enidba
enifer
enigma
enigmatski
enih
enija
enije
eniji
enijih
enik
enika
enike
enikom
eniku
enim
enima
enio
enis
eniti
enito
enja
enjaci
enjak
enjaka
enje
enjem
enjen
enjer
enjera
enjeri
enjering
enjerstva
enjerstvo
enjima
enju
enka
enke
enki
enko
enlightenment
eno
enog
enoj
enom
enost
enosti
enrico
enrique
ensenada
enska
enske
enski
enskih
enskim
ensko
enskog
enskoj
enskom
ensku
enstva
enstvo
enterprise
entertainment
entitet
entiteta
entitetu
entoni
entry
enu
enver
environment
environmental
enzim
enzima
enzime
enzimi
enzo
eo
ep
epa
eparhija
eparhije
eparhiji
epc
epic
epidemija
epidemije
epidemiologija
epileptic
epilog
epir
epira
episkop
episkopa
episkopi
episode
epitela
epitet
epizoda
epizodama
epizode
epizodi
epizodu
epoha
epohe
epsilon
epske
epski
epu
epub
er
era
eras
erc
ere
eri
eric
erica
erich
eridan
erif
erifa
erik
erika
erima
erin
eritrocita
erka
erke
erki
erkom
erku
erna
erne
ernest
ernesto
ernje
ernji
ernst
ero
erom
eros
erotski
erozija
erozije
ers
eru
erupcija
erupcije
erwin
erzi
erziju
es
esa
esad
esca
escape
escobedo
escondida
escuintla
esej
eseja
eseje
eseji
esejist
eshil
esi
eskadrila
esma
esmeralda
esnaest
esnica
esnici
esnik
esnika
eso
espan
esperanza
espinosa
essay
essays
essex
est
esta
estalost
estalosti
estar
este
esteban
ester
estero
esther
esti
estica
esticama
estice
esticu
estih
estim
esto
estog
estoj
estok
estoke
estoki
estokih
estoko
estom
estonija
estonije
estoniji
estonska
estonske
estonski
estrada
estranac
estri
estruke
estruki
estruko
estvovala
estvovale
estvovali
estvovalo
estvovao
estvuje
estvuju
et
eta
etak
etaka
etalis
etanol
etanola
etapa
etape
etapi
etapu
etar
etaz
etc
etchojoa
ete
ethel
ethiopia
ethnic
ethnologue
eti
etic
etienne
etika
etike
etil
etimologija
etimolos
etiologija
etiopija
etiopije
etiopiji
etiopske
etiopski
etiri
etiriju
etka
etke
etkom
etku
etna
etne
etni
etnic
etnici
etnicima
etnih
etnik
etnika
etnike
etnim
etno
etnog
etnografski
etnoj
etnom
etnu
eto
etom
etrdeset
etri
etrnaest
etrus
etu
etve
etvero
etverogodis
etvorica
etvorice
etvoro
etvrt
etvrta
etvrtak
etvrte
etvrtfinala
etvrtfinale
etvrtfinalu
etvrti
etvrtina
etvrtine
etvrto
etvrtog
etvrtoj
etvrtom
etvrtu
eu
eufrata
euge
eugen
eugena
eugene
eukariota
euklidsku
eur
eura
euripid
euro
europa
europe
european
europi
europska
europske
europski
europskih
europskim
europsko
europskog
europskoj
europskom
europsku
europu
eurosongu
eurovizije
euru
eutropius
ev
eva
evac
evaca
evakuacija
evakuacije
evakuaciju
evan
evangelic
evangelista
evans
evanđelja
evanđelje
evanđelju
evca
evci
evcima
evcu
eve
evec
evelyn
evening
events
eventualno
ever
everest
everesta
every
everything
evi
evic
evica
evice
evici
evidence
evih
evika
evil
evim
evima
evina
evinama
evine
evini
evinu
evljen
evljenje
evna
evne
evni
evnica
evnici
evnih
evnik
evnika
evnim
evno
evnog
evnoj
evnom
evnost
evnosti
evnu
evo
evog
evoj
evolucija
evolucije
evoluciji
evoluciju
evolution
evom
evra
evropa
evrope
evropi
evropljani
evropom
evropska
evropske
evropski
evropskih
evropskim
evropsko
evropskog
evropskoj
evropskom
evropsku
evropu
evrovizije
evs
evska
evske
evski
evskog
evskom
evu
ex
example
excerpt
exhibition
exp
experience
experimental
explorer
express
eye
eyes
ez
ezdeset
ezdesetih
f
fa
faber
fabijan
fabio
fabrici
fabrika
fabrike
fabulae
face
facea
facebook
faces
fact
factbook
facto
factor
factory
facts
fad
fair
faith
fajlu
faktic
faktor
faktora
faktore
faktori
faktorijel
faktorima
fakultet
fakulteta
fakulteti
fakultetu
falcon
fall
fallingrain
falls
false
fame
familia
familija
familije
familiji
family
famous
fan
fanatic
fanny
fanova
fantastic
fantastike
fantasy
far
faraon
faraona
faraoni
fari
farma
farmakolos
farme
farmer
farmi
farmu
farnezil
fars
faruk
fas
fasada
fasade
faso
fast
fat
father
faulkner
fauna
faune
faust
favorit
favorita
faza
fazama
faze
fazi
fazu
fbi
fbih
fc
fda
fe
fear
feat
features
feb
februar
februara
februaru
february
federacija
federacije
federaciji
federaciju
federal
federalna
federalne
federalni
federalnih
federation
federativne
federer
federera
federico
feldmars
felice
feliks
felipe
felix
female
feministic
feminizam
femme
fender
feng
fenic
feniks
fenoli
fenolni
fenomen
fenomena
fer
ferdinand
ferdinanda
ferdo
ferenc
ferguson
ferita
ferna
fernanda
fernando
ferrara
ferrari
ferrer
fes
fest
festival
festivala
festivali
festivalima
festivalu
fetus
fetusa
feud
feudalaca
feudalne
feudalni
feuillade
fever
ff
fi
fiat
fiction
fide
fidz
field
fields
fifa
fifth
fight
fighting
figueroa
figura
figurama
figure
figuru
fiktivne
fiktivni
file
files
filip
filipa
filipina
filipini
filipinima
filipovic
filippo
filipu
fille
film
filma
filmas
filmfare
filmografija
filmografiji
filmom
filmova
filmove
filmovi
filmovima
films
filmska
filmske
filmski
filmskih
filmskim
filmskog
filmskoj
filmskom
filmsku
filmu
filolog
filolos
filozof
filozofa
filozofi
filozofija
filozofije
filozofiji
filozofiju
filozofska
filozofske
filozofski
filozofskih
filozofskim
filozofsko
filozofskog
filozofskom
filtar
fin
final
finala
finale
finalist
finalni
finalu
financija
financije
financijska
financijske
financijski
financijskih
financijskim
financijsku
financiranje
finansija
finansijska
finansijske
finansijski
finansijskih
finansiranje
find
fine
fino
finska
finske
finski
finskog
finskoj
fire
firenca
firence
firenci
firenze
firma
firme
firmi
firmu
first
firth
fis
fischer
fish
fisher
fitzgerald
fiume
five
fizic
fizici
fizika
fizikalna
fizike
fiziku
fiziologija
fiziologiju
fiziolos
fjodor
fk
fl
flag
flandrija
flandrije
flas
flash
flavije
flavoprotein
fleming
flensburg
fletcher
flight
flor
flora
flore
florence
flores
florida
floride
floridi
flota
flote
floti
flotom
flotu
flower
floyd
fluid
fluida
fly
flying
flynn
fm
fnrj
fo
foc
foggia
fokus
fokusira
folk
folklor
folklora
follow
following
fon
fond
fonda
fondacija
fondacije
fonetski
fontana
fontane
fontsize
food
foot
football
for
forbes
force
forces
ford
forda
forecasts
foreign
forenzic
forest
forever
forli
form
forma
formacija
formacije
formaciji
formaciju
formalne
formalni
formalno
formalnog
formama
format
formata
formation
formatu
forme
former
formi
formira
formiraju
formirajuc
formirala
formirale
formirali
formiran
formirana
formirane
formirani
formiranja
formiranje
formiranjem
formiranju
formirano
formirao
formirati
formu
formula
formule
formuli
formulom
formulu
fort
fortifikacija
fortifikacije
fortuna
fortune
forum
foruma
forumu
fosfat
fosfata
fosfataza
fosfatna
fosfo
fosfohidrolaza
fosfor
fosfora
fosfotransferaza
fosil
fosila
fosili
fosilni
fosilnih
foster
foto
fotograf
fotografija
fotografijama
fotografije
fotografiji
fotografiju
fotografska
foton
fotona
found
foundation
four
fourth
fox
fr
fra
frac
fraccionamiento
fragmenata
fragment
fragmenta
fragmenti
fragmentima
frakcija
frakcije
frame
fran
franac
franaka
franc
franca
france
frances
francesca
francesco
franci
francis
francisa
francisca
francisco
franciscu
franciska
francisku
franco
francuska
francuske
francuski
francuskih
francuskim
francusko
francuskog
francuskoj
francuskom
francusku
francuz
francuza
francuze
francuzi
francuzima
frane
franje
franjevac
franjevaca
franjevci
franjo
franju
frank
franka
frankenstein
frankfurt
frankfurtu
frankie
franklin
franko
frankopan
frankopana
frano
frans
fransoa
fransu
franz
franza
fraser
frau
fraza
fraze
fre
fred
freda
frederick
frederik
free
freedom
freeman
freeze
fregate
frekvencija
frekvencije
frekvenciji
frekvencijom
frekvenciju
french
frenk
fresaka
freska
freskama
freske
fresnillo
freud
fri
fridrih
fridriha
fridrik
fridrika
friedman
friedrich
friedricha
friend
friends
fritz
friuli
from
front
fronta
fronte
frontera
frontier
frontu
frosinone
frost
fruktoza
frum
frus
fry
ft
fu
fudbal
fudbala
fudbaler
fudbaleri
fudbalska
fudbalske
fudbalski
fudbalskog
fudbalu
fuentes
fuerte
fujiwara
full
function
fund
funk
funkcija
funkcijama
funkcije
funkciji
funkcijom
funkciju
funkcionalna
funkcionalne
funkcionalnih
funkcioner
funkcionira
funkcionis
funkcionisanje
funny
funti
furlanija
furnira
fury
fusnote
future
futures
fuzija
fuzije
g
ga
gaba
gabriel
gabrijel
gac
gacko
gaius
gaj
gaja
gaji
gal
gala
galac
galactica
galaksija
galaksije
galaktic
galaktika
galaktike
galaktoza
galaktozil
galaktoziltransferaza
gale
galeana
galeb
galen
galerija
galerije
galeriji
galeriju
gali
galic
galija
galije
galiji
galiju
galileo
gallery
gallimard
gallo
gama
gambit
game
games
gami
gamma
gana
gandhi
gane
gang
gangster
gangsterski
gao
gar
garas
garaz
garbo
garci
garcia
garda
garde
garden
gardner
garibaldi
garland
garnizon
garnizona
garnizone
garona
gary
gas
gasa
gasova
gasovi
gaston
gate
gates
gaulle
gavran
gavrila
gavrilo
gavrilovic
gay
gaye
gaz
gaza
gazda
gaze
gazi
gb
gde
gdje
gdp
ge
gej
gejeva
gelski
gen
gena
gender
gene
generacija
generacijama
generacije
generaciji
generaciju
general
generala
generale
generali
generalna
generalne
generalni
generalno
generalnog
generalnom
generalom
generals
generalu
generation
generator
generatora
generatori
generic
generis
genesis
genetic
genetics
genetika
genetike
genetski
geneza
geni
genima
genoa
genocid
genocida
genocide
genom
genoma
geoffrey
geograf
geografi
geografija
geografije
geografiji
geografska
geografske
geografski
geografskih
geografskim
geografsko
geografskog
geografskoj
geografskom
geographic
geography
geologija
geolos
geometrija
geometrije
geometrijske
geometrijski
geometrijskih
geomorfolos
geopolitic
georg
georga
george
georgea
georges
georgesa
georgi
georgia
georgija
georgije
ger
gerald
gerard
gerero
gerhard
gerilski
germain
german
germana
germanski
germanskih
germany
gertrude
ges
geschichte
gesellschaft
gesta
gestapo
get
gggg
gha
ghost
gi
giacomo
gian
gianni
giants
giba
gibaju
gibanja
gibanje
gibanju
gibraltar
gibson
gif
gil
gilbert
gilles
gimnastic
gimnazija
gimnazije
gimnaziji
gimnaziju
gina
gine
ginger
ginoza
giorgio
giovanni
giovannija
girl
girls
gis
gitara
gitare
gitari
gitarist
gitarista
gitaristi
gitaru
giulia
giuliano
giulio
giuseppe
give
gl
glad
gladi
glagol
glagola
glagoli
glamoc
glas
glasa
glasac
glasaju
glasanja
glasanje
glasgow
glasi
glasila
glasilo
glasine
glasnik
glasnika
glasno
glasom
glasova
glasove
glasovi
glasovir
glass
glasu
glaukom
glava
glave
glavi
glavica
glavna
glavne
glavni
glavnih
glavnim
glavnina
glavnine
glavninu
glavno
glavnog
glavnoj
glavnom
glavnu
glavobolja
glavobolje
glavoc
glavom
glavu
glazba
glazbe
glazbena
glazbene
glazbeni
glazbenici
glazbenih
glazbenik
glazbenika
glazbenim
glazbeno
glazbenog
glazbenoj
glazbenom
glazbenu
glazbi
glazbom
glazbu
glađu
glec
gleda
gledaju
gledajuc
gledalaca
gledali
gledalo
gledanja
gledanje
gledano
gledanost
gledanosti
gledao
gledatelja
gledati
gledis
glen
glenn
glez
gli
glicerol
glicin
glina
gline
glis
gljiva
gljive
global
globalne
globalni
globalno
globalnog
globalnom
globe
globus
globusa
globusom
glogovac
gloria
glory
glu
glukan
glukoza
glukozamin
glukozaminil
glukoze
glukoziltransferaza
gluma
glumac
glumaca
glumca
glumce
glumcem
glumci
glumcima
glume
glumi
glumica
glumice
glumicom
glumicu
glumila
glumili
glumio
glumiti
glumom
glumu
glutamat
gm
gmazova
gmbh
gnijezda
gnijezdo
gnjilane
gnostic
gnu
go
god
godiine
godina
godinama
godine
godini
godinom
godinu
godis
gods
goebbels
goes
goethe
gogh
goguryeo
going
gojaznost
gojaznosti
gojko
gol
gola
gold
goldberg
golden
goldman
goldstein
golf
goli
golim
golman
golom
golova
golub
golubic
gomila
gomile
gone
gong
gonza
good
goodbye
google
gora
goran
gorana
goranskoj
goraz
gorbac
gordan
gordana
gordiano
gordo
gordon
gordona
gore
gorenjskoj
gori
goric
gorica
gorice
gorila
goriva
gorivo
gorivom
gorja
gorje
gorju
gorki
gorkic
gornja
gornje
gornjeg
gornjem
gornji
gornjih
gornjim
gornjoj
gornju
gorom
gorski
gorskog
goru
gorz
gos
gospa
gospe
gospel
gospic
gospoda
gospodar
gospodara
gospodari
gospodarska
gospodarske
gospodarski
gospodarskih
gospodarstva
gospodarstvo
gospodaru
gospodin
gospodina
gospođa
gospođe
gospođica
gost
goste
gosti
gostiju
gostima
gostivar
gostovao
gostujuc
got
gota
gotham
gothamu
goti
gotic
gotike
gotov
gotovo
gotski
gott
gottfried
gould
gov
goveda
government
govor
govora
govore
govorec
govori
govorila
govorili
govorilo
govorima
govorimo
govorio
govoriti
govornici
govornik
govornika
govornog
govornom
govorom
govoru
govpubs
goya
gozba
gp
gpcr
gpr
gps
gr
gra
grabez
grabovac
grac
grace
grad
grada
gradac
gradas
grade
gradec
gradi
gradic
gradili
gradilis
gradina
gradine
gradio
gradis
graditelj
graditelja
graditelji
graditeljska
graditi
gradnja
gradnje
gradnji
gradnjom
gradnju
gradom
gradonac
gradova
gradove
gradovi
gradovima
gradska
gradske
gradski
gradskih
gradskim
gradsko
gradskog
gradskoj
gradskom
gradsku
gradu
graf
grafic
grafik
grafika
grafike
grafit
graham
grahovo
gram
grama
gramatic
gramatika
gramatike
grammy
gran
grana
granada
granama
granata
granate
granc
grand
grande
grandes
grane
granger
granic
granica
granicama
granice
granici
granicom
granicu
granja
grant
granta
granu
gras
grave
gravitacija
gravitacije
gray
graz
grazu
građa
građana
građane
građani
građanima
građanin
građanina
građanska
građanske
građanski
građanskih
građanskim
građanskog
građanskom
građe
građen
građena
građene
građeni
građevina
građevinama
građevine
građevinske
građevinski
građevinskih
građevinskog
građevinu
građi
građu
grb
grba
grbu
grc
grci
grcima
gre
great
greater
greatest
greben
grebena
grecizmi
greda
grede
greece
greek
green
greene
greenwich
greenwood
greg
gregorijanski
gregorijanskom
gregorio
gregory
greh
grejs
grend
grenland
grenlanda
gres
greta
grey
grga
grgur
grgura
griffin
griffith
grigorija
grigorije
grijanja
grijanje
grijeh
grijeha
grin
gripe
griz
grk
grka
grke
grkokatolic
grla
grlic
grlo
grnc
gro
grob
groba
groblja
groblje
groblju
grobnica
grobnice
grobnici
grobnicu
grobova
grobovi
grobu
grof
grofa
grofica
grofova
grofovi
grofovija
grofovije
grofoviji
grofoviju
gros
gross
grosseto
grosso
ground
group
grove
growth
groz
grozni
groznica
groznice
gru
grubo
grudi
grudima
grudnog
grujic
grupa
grupacija
grupacije
grupama
grupe
grupi
grupne
grupni
grupom
grupu
gruz
gruzija
gruzije
gruziji
gruzijski
gs
gtp
gu
gua
guachochi
guadalupe
guanacevi
guanajuato
guanin
guarani
guardian
guasave
guaymas
guazapares
gube
gubi
gubici
gubicima
gubio
gubitak
gubitaka
gubiti
gubitka
gubitke
gubitkom
guc
gudac
guerra
guerrero
guez
gugl
guide
guido
guild
guillaume
guitar
guma
gume
gun
gundulic
guns
guo
gura
guru
gus
gustav
gustava
gustave
gustavo
guste
gustina
gustine
gustini
gusto
gustoc
gutenberg
gutie
guverner
guvernera
guverneri
guvernerom
guy
guz
gvajana
gvanahuato
gvineja
gvineje
gvineji
gvoz
gy
gyo
gđa
h
ha
habsburg
habsburs
habzburs
hacienda
had
hadis
hadisa
hadramaut
hadrijan
hadrijana
hadson
hadz
hagu
haile
haiti
hajde
hajduc
hajduk
hajduka
hajduku
hajjah
hal
hala
hale
haley
half
halilovic
halisko
hall
ham
hamburg
hamburgu
hamilton
hamlet
hammer
hammond
hampshire
han
hana
hand
handbook
hanibal
hank
hanna
hannah
hanover
hans
hansa
hansen
haplogrupa
happened
happy
haps
hara
harald
harbor
hard
hardcore
hardy
harem
hargita
hari
haris
harmonic
harmonika
harold
harolda
harper
harpsichord
harriet
harris
harrison
harry
harryja
harryju
hart
harvard
harvey
harwood
has
hasan
hasana
hat
hatter
haus
havaji
havajima
havajski
havana
havani
have
haven
hawaii
hawk
hawkins
hay
hayes
hazu
hb
hbo
hc
hd
hdz
he
head
health
heart
hearts
heat
heather
heaven
heavy
hebrejski
hebrejskom
hector
hedgehog
hegel
heidelberg
height
heinrich
heinricha
heinz
hej
hektara
helade
helen
helena
helene
helenistic
helij
helija
helikopter
helikoptera
heliksa
heliodoro
hell
hello
helmut
help
helsinki
helsinkiju
hem
hemic
hemija
hemije
hemiji
hemijska
hemijske
hemijski
hemijskih
hemijskim
hemijsko
hemijskog
hemijsku
hemiju
hemikalije
hemisferi
hemoglobina
hemokin
hemps
henderson
henri
henrija
henrik
henrika
henry
henryja
hepatitis
hepatitisa
hepburn
her
hera
herakla
herakle
heraklo
herald
herbert
herceg
hercega
hercegovac
hercegovina
hercegovine
hercegovini
hercegovinu
hercogtum
here
heritage
herkul
herman
hermana
hermann
hermanos
hermes
hermosa
hermosillo
hermoso
herna
hero
herodot
herodotus
heroes
heroica
heroina
heroj
heroja
heroji
herpes
herr
herrera
herschel
hes
hesen
hesiod
het
heterociklic
heterogeno
hevi
hg
hi
hidalgo
hidalgotitla
hidraulic
hidroelektrana
hidroelektrane
hidrografija
hidroksi
hidroksid
hidroksilacija
hidroksilaza
hidrolaza
hidrolijaza
hidroliza
hidrologija
hidrolos
hidz
higgins
high
higin
hijerarhija
hijerarhiji
hil
hiljada
hiljade
hiljadu
hill
hills
hilton
him
himmler
himna
himne
himnu
hindi
hindu
hinduistic
hinduizam
hip
hiparh
hiperbaric
hipertenzija
hipertenzije
hipotetic
hipoteza
hipoteze
hipotezu
hirurs
his
hisar
hispaniji
histoire
histolos
historia
historic
historical
historija
historije
historiji
historijska
historijske
historijski
historijskih
historijskim
historijsko
historijskog
historijskom
historiju
history
hit
hita
hitchcock
hitler
hitlera
hitleru
hitne
hitno
hitova
hitove
hitovi
hits
hiv
hl
hlac
hladi
hladna
hladne
hladni
hladnim
hladno
hladnoc
hladnog
hladnom
hlađenja
hlađenje
hleb
hlorid
hloridi
hm
hms
hnk
hnl
hns
ho
hoc
hod
hoda
hodge
hodoc
hodz
hoffman
hokej
hokejas
holandija
holandije
holandiji
holandska
holandske
holandski
holanđani
holcland
hold
holden
holding
holiday
holivudskih
holland
holly
hollywood
hollywooda
hollywoodski
hollywoodskih
hollywoodskim
hollywoodu
holmes
holmesa
holmesu
holocaust
holokaust
holokausta
hols
holt
holy
home
homepage
homer
homera
homme
homo
homocistein
homoseksualaca
homoseksualne
homoseksualnih
homoseksualnost
homoseksualnosti
honda
hondo
honduras
hondurasa
hondurasu
honey
hong
hongkons
honor
honorije
hood
hoover
hop
hope
hopkins
hor
hora
horace
horacije
horasan
horde
horizont
horizonta
horizontal
horizontalne
horizontalno
hormon
hormona
hormone
hormoni
horn
horor
horror
horse
horst
horvat
hos
hose
hospital
hot
hotel
hotela
hotelu
hour
hours
house
houston
how
howard
howarda
howe
hp
hr
hrabri
hrabro
hrabrost
hrabrosti
hram
hrama
hramova
hramove
hramovi
hramovima
hramu
hrana
hrane
hrani
hranic
hranom
hranu
hrast
hrasta
hrc
hrer
hris
hrist
hrista
hristos
hromozoma
hromozomu
hronic
hronika
hronike
hronologija
hronolos
hronometru
hrsg
hrt
hrus
hrv
hrvac
hrvat
hrvata
hrvate
hrvati
hrvatima
hrvatinic
hrvatska
hrvatske
hrvatski
hrvatskih
hrvatskim
hrvatsko
hrvatskog
hrvatskoga
hrvatskoj
hrvatskom
hrvatsku
hrvoje
hs
hsls
hsp
hss
ht
htela
hteli
hteo
htio
htjela
htjeli
htm
html
http
https
hu
hua
huac
huacana
huajicori
huan
huana
huang
huatabampo
huautla
hubert
hudson
huehuetla
huejutla
huerta
huetamo
hueytamalco
huga
hugh
hughes
hugo
hui
huimanguillo
huixtla
hum
human
humani
humanista
humanistic
humanitarne
humanizam
humor
humora
humoristic
humphrey
huna
hunedoara
huni
hunjadi
hunsrik
hunt
hunter
hus
husein
huseina
husrev
huston
hv
hvala
hvali
hvalili
hvalio
hvar
hvaru
hvata
hvatanje
hvo
hyde
hz
i
ia
iako
ian
iana
iata
ib
iba
ibenik
ibenika
ibeniku
ibensko
iberijskog
ibm
ibn
ibra
ibrahim
ic
ica
icama
icao
ice
ich
ici
icom
icon
icty
icu
id
ida
idaho
idalgo
idar
ide
idea
ideal
ideala
idealna
idealni
idealno
idealnog
ideas
ideja
idejama
ideje
ideji
idejni
idejom
ideju
identic
identifikacija
identifikaciju
identifikacionim
identifikuje
identitet
identiteta
identity
ideologija
ideologije
ideologiju
ideolos
idi
idol
idov
idova
idove
idovi
idovima
idovska
idovske
idovski
idovskih
idovskog
idovskoj
ids
idu
iduc
idz
ie
if
ifra
ifru
ig
iga
igara
igen
igenu
igle
igledno
igmund
igmunda
ignacio
igor
igora
igra
igrac
igraju
igrajuc
igrala
igrale
igrali
igralis
igralo
igrama
igrana
igrani
igranih
igranja
igranje
igranog
igranom
igrao
igrati
igre
igri
igrom
igru
iguman
ih
ihf
ii
iii
ij
ija
ijapas
ijas
ije
ijeg
ijem
ijevic
iji
ijih
ijim
ijitski
ijoj
ijom
ijski
iju
ik
ika
ikad
ikada
ikagu
ikakve
ikakvih
ikakvog
ikarus
ikas
ike
ikona
ikone
ikonostas
iks
il
ila
ilac
ilas
ilavost
ile
ilea
ileanski
ilegalne
ilegalno
ileu
ilfov
ili
ilic
ilica
ilice
ilidz
ilija
ilijada
ilijadi
ilije
ilina
ilinois
ilinoisu
ilinski
ilinskom
ilira
iliri
ilirik
ilirska
ilirske
ilirski
ilirskih
ilirsko
ilirskog
ilis
iljac
iljak
ill
illinois
illustrated
ilm
ilo
ilustracija
ilustracije
ilustrator
ilustrovana
iluzija
im
ima
image
images
imagesize
imaju
imajuc
imala
imale
imali
imalo
imam
imama
imamo
imanja
imanje
imanju
imao
imati
imbenika
imdb
ime
imena
imenica
imenice
imenima
imenom
imenovan
imenovana
imenovani
imenovanja
imenovanje
imenovao
imenu
imenuje
imi
imic
imidz
imigranata
imir
imira
imo
imom
imotski
imovic
imovina
imovine
imovinom
imovinu
impact
imperator
imperatora
imperia
imperial
imperij
imperija
imperije
implicira
impossible
impresioniran
impuls
impulsa
imre
imu
imuc
imuhamedovic
imun
imunitet
imunolos
imunskog
in
ina
inac
inak
inama
inc
inci
incidenata
incident
incidenta
includes
including
increment
inda
indeks
indeksa
independence
independencia
independent
index
indi
india
indian
indiana
indians
indija
indijana
indijanaca
indijance
indijanci
indijancima
indijani
indijanska
indijanski
indijanskih
indije
indiji
indijom
indijska
indijske
indijski
indijskih
indijskim
indijskog
indijskoj
indijskom
indiju
indikacije
indirektno
individualna
individualne
individualnih
individualno
indo
indoli
indonez
indonezija
indonezije
indoneziji
induced
industrial
industriale
industrija
industrijalac
industrije
industriji
industrijska
industrijske
industrijski
industrijskih
industrijskim
industrijsko
industrijskog
industrijskom
industrijsku
industriju
industry
ine
inec
ines
infarkt
infekcija
infekcije
infekciju
inferno
inflacija
inflacije
influence
info
infokutije
informacija
informacijama
informacije
informaciju
informacioni
informatic
information
informativni
informbiroa
infrastruktura
infrastrukture
infrastrukturu
infty
ing
ingrid
ington
ingtonu
ingus
inhibira
inhibitor
inhibitora
inhibitori
ini
inic
inicijalno
inicijativa
inicijative
inicijativu
inicijator
inicira
inih
inija
inije
iniji
inila
inilac
inilaca
inile
inili
inilo
inim
inima
inio
initelja
initi
inivs
inj
injava
injavaju
injavali
inje
injen
injena
injene
injeni
injenica
injenice
injenici
injenicom
injenicu
injenih
injeno
injskom
inju
inka
inke
inklinacija
inkovito
inkovitost
inn
ino
inocent
inog
inoj
inom
inostranih
inostranstvu
inova
inovacija
inovacije
inovi
inovic
inovnik
inovnika
inozemstvu
inozitol
insee
insekata
inside
insight
inska
inske
inski
inskih
inskim
insko
inskog
inskom
insku
inspektor
inspektora
inspiracija
inspiraciju
inspiriran
inspirirana
inspirisan
instalacija
instalacije
instava
institucija
institucijama
institucije
instituciju
institut
instituta
institute
institution
institutu
instrukcije
instruktor
instrumenata
instrument
instrumenta
instrumental
instrumente
instrumenti
instrumentima
instva
instvo
instvu
insuficijencija
insulin
int
integracija
integracije
integraciju
integral
integralni
integritet
intel
intelektualaca
intelektualci
intelektualne
inteligencija
inteligencije
intelligence
intenzitet
intenziteta
intenzivna
intenzivne
intenzivno
intenzivnog
inter
interactive
interakcija
interakcije
interakciju
interaktivni
interes
interesa
interesantno
interese
interesi
interesima
interesovanja
interesovanje
interesu
interfejs
interferon
interleukin
internacionale
internacionalna
internacionalne
internacionalni
international
internet
interneta
internetski
internetu
interpretacija
interpretacije
interpretaciji
interpretaciju
interval
intervala
intervalu
intervencija
intervencije
intervencijom
intervenciju
interview
interviews
intervju
intervjua
intervjuu
into
introduction
inu
invasion
invazija
invazije
invaziji
invazijom
invaziju
invention
investicija
investicije
investigation
inwonertal
inz
inzistiranje
inzistirao
io
ioca
ion
iona
ionako
ione
ioni
ionizirajuc
iowa
ip
ipa
ipak
ipka
ipke
ipovo
ir
ira
irac
irak
iraka
iraku
irala
irali
iran
irana
iranica
iranje
iranom
iranska
iranske
iranski
iranskih
iranskim
iransko
iranskog
iranskoj
iranskom
iransku
iranu
irao
irapuato
iras
irati
ire
ireg
ireland
irem
iren
irena
irene
ireni
irenja
irenje
irenjem
irenju
ireno
iri
irija
irila
irile
irili
irilic
irilica
irilo
irina
irine
irinej
irini
irinu
irio
iris
irish
iriti
irma
irnk
iro
iroj
irok
iroka
iroke
iroki
irokih
irokim
iroko
irokog
irokoj
irokom
iroku
irom
iron
ironda
ironic
irska
irske
irski
irskih
irskim
irskog
irskoj
irskom
irsku
iru
iruje
irving
is
isa
isaac
isabel
isabelle
isak
isakovic
isbn
iscrpljujuc
iselili
iseljavanja
iseljavanje
iser
isera
iseri
isernia
ishod
ishoda
ishodis
ishoditi
ishrana
ishrane
ishrani
ishranu
isidoro
isidro
isjec
iskapanja
iskaz
iskazao
iskazivano
iskazuje
iskljuc
iskopavanja
iskoris
iskoriste
iskoristi
iskoristila
iskoristili
iskoristio
iskoristiti
iskrcali
iskrcao
iskrcavanja
iskrcavanje
iskreno
iskus
iskusni
iskustava
iskustva
iskustvima
iskustvo
iskustvom
iskustvu
isla
islam
islama
islamic
islamska
islamske
islamski
islamskih
islamskim
islamskog
islamskoj
islamskom
islamsku
islamu
island
islanda
islands
islandski
islandu
isle
ismail
iso
isola
ispada
ispali
ispao
isparavanja
ispas
ispisan
ispit
ispita
ispitanika
ispitivac
ispitivanja
ispitivanje
ispituje
isplac
ispoc
ispod
ispoljava
ispoljavaju
isporuc
isporuke
ispostavi
ispostavilo
ispostavlja
isprava
ispravno
ispred
ispric
isprva
ispuni
ispunio
ispuniti
ispunjava
ispunjavaju
ispunjen
ispunjena
ispunjeni
ispupc
ispus
israel
issn
issue
issues
ist
ista
istac
istakao
istakla
istakli
istaknuo
istaknuta
istaknute
istaknuti
istaknutih
istaknutim
istaknuto
istanbul
istanbulu
istarska
istarske
istarski
istarskoj
iste
isteka
isti
istic
isticala
isticali
isticao
istih
istim
istima
istina
istine
istinski
istinu
istiti
istke
istki
isto
istoc
istodobno
istog
istoga
istoimena
istoimene
istoimeni
istoimeno
istoimenog
istoimenoj
istoimenom
istoimenu
istoj
istok
istoka
istoku
istom
istopolne
istopolni
istopolnih
istopolnim
istori
istoria
istoric
istorija
istorijat
istorije
istoriji
istorijska
istorijske
istorijski
istorijskih
istorijskim
istorijsko
istorijskog
istorijskoj
istorijskom
istoriju
istospolne
istovremeno
istra
istraga
istrage
istragu
istraz
istre
istri
istros
istru
istu
istva
isus
isusa
isusova
isusovac
isusove
isusovo
isusu
it
ita
itaju
italia
italian
italiana
italija
italijana
italijani
italijanska
italijanske
italijanski
italijanskih
italijanskim
italijansko
italijanskog
italijanskoj
italijanskom
italijansku
italije
italiji
italijom
italiju
italy
itanja
itanje
itao
itaonica
itarica
itarice
itatelja
itati
itav
itava
itave
itavo
itavog
itavoj
itavom
itavu
itd
ite
itelj
itelja
itelje
itelji
iteljica
iteljima
itf
iti
itih
itije
itim
ito
itog
itom
itosti
its
itu
ituje
iturbide
itv
iucn
iue
iupac
iv
iva
ivac
ivaca
ivaju
ivala
ivale
ivali
ivalo
ivan
ivana
ivanc
ivane
ivani
ivanic
ivanis
ivanja
ivanje
ivanjem
ivanjima
ivanju
ivanom
ivanov
ivanovic
ivanu
ivao
ivati
ivava
ivc
ivca
ive
ivec
ivela
ivele
iveli
ivelo
iveo
ives
iveti
ivi
ivic
ivica
ivice
ivici
ivih
ivim
ivio
ivjela
ivjele
ivjeli
ivjelih
ivjelo
ivjeti
ivka
ivko
ivkovic
ivljaj
ivljava
ivljavaju
ivljavanja
ivljavanje
ivljenja
ivo
ivog
ivojin
ivojinovic
ivom
ivost
ivosti
ivot
ivota
ivote
ivoti
ivotima
ivotinja
ivotinjama
ivotinje
ivotinjske
ivotinjski
ivotinjskih
ivotinjskim
ivotinjskog
ivotna
ivotne
ivotni
ivotnih
ivotnim
ivotno
ivotnog
ivotnom
ivotnu
ivotom
ivotopis
ivotu
ivs
ivu
ivuc
ivy
ix
ixhuatla
ixtacamaxtitla
ixtla
ixtlahuaca
iz
iza
izabela
izabere
izabrala
izabrali
izabran
izabrana
izabrane
izabrani
izabranih
izabrano
izabrao
izabrati
izac
izam
izas
izaslanik
izaslanika
izazaga
izaziva
izazivaju
izazivajuc
izazov
izazove
izazovu
izazvala
izazvale
izazvali
izazvalo
izazvan
izazvana
izazvane
izazvanih
izazvao
izazvati
izađe
izbac
izbaci
izbacila
izbacili
izbacio
izbaciti
izbacivanja
izbacivanje
izbacuje
izbacuju
izbegao
izbegli
izbeglic
izbeglica
izbeglice
izbegne
izbija
izbijaju
izbijanja
izbijanje
izbijanju
izbila
izbile
izbili
izbio
izbjec
izbjegao
izbjegava
izbjegli
izbjeglic
izbjeglica
izbjeglice
izbjegne
izboc
izbor
izbora
izbore
izbori
izborima
izborio
izboriti
izborna
izborne
izborni
izbornih
izbornik
izbornika
izbornog
izbornoj
izborom
izboru
izd
izdaje
izdaju
izdala
izdali
izdan
izdana
izdanja
izdanje
izdanjima
izdanju
izdano
izdao
izdat
izdata
izdati
izdavac
izdavanja
izdavanje
izdavao
izdavas
izdiz
izdrz
izduz
izdvaja
izdvajaju
izdvajanjem
izdvojena
izdvojiti
ize
izer
izetbegovic
izgaranja
izgaranje
izgaranjem
izgled
izgleda
izgledaju
izgledalo
izgledao
izgledati
izgledom
izgledu
izgovara
izgovor
izgovorom
izgradi
izgradila
izgradili
izgradio
izgraditi
izgradnja
izgradnje
izgradnji
izgradnjom
izgradnju
izgrađen
izgrađena
izgrađene
izgrađeni
izgrađenih
izgrađeno
izgubi
izgubila
izgubile
izgubili
izgubilo
izgubio
izgubiti
izgubivs
izgubljen
izgubljena
izgubljene
izgubljeni
izgubljenih
izgubljenim
izgubljeno
izgubljenog
izjas
izjasnilo
izjava
izjavama
izjave
izjavi
izjavila
izjavili
izjavio
izjavljuje
izjavu
izjednac
izlaganja
izlaganje
izlagao
izlaska
izlasku
izlaz
izlaza
izlazak
izlaze
izlazi
izlazio
izlaziti
izlazni
izlazu
izlec
izletis
izlijec
izloz
izluc
izma
izme
izmena
izmene
izmenjena
izmes
između
izmis
izmislio
izmjena
izmjene
izmjenic
izmjenjivac
iznad
iznenada
iznenadne
iznenadni
iznenađenje
iznenađujuc
izneo
iznimka
iznimno
iznio
iznos
iznosa
iznose
iznosi
iznosila
iznosili
iznosio
iznosu
iznova
iznutra
izolacija
izolacije
izolaciju
izolirani
izolovan
izomeraza
izotop
izotopa
izotopi
izrac
izrada
izrade
izradi
izradio
izraditi
izradu
izrael
izraela
izraelska
izraelske
izraelski
izraelskih
izraelsko
izraelskog
izraelu
izrasla
izrastao
izravno
izraz
izraza
izraze
izrazi
izrazili
izrazio
izraziti
izrazito
izrazom
izrazu
izrađen
izrađena
izrađene
izrađeni
izrađivali
izrađuje
izrađuju
izrec
izreka
izreke
izric
izruc
izu
izuc
izum
izuma
izumio
izumiranja
izumiranje
izumitelj
izumrla
izumrle
izumrli
izuzetak
izuzetan
izuzetkom
izuzetne
izuzetno
izuzetnog
izuzetnu
izuzev
izvan
izvana
izvanredan
izvanredne
izvanredni
izvanredno
izved
izvedba
izvedbe
izvedbi
izvedbu
izvede
izveden
izvedena
izvedene
izvedeni
izvedeno
izvela
izveli
izveo
izves
izvesne
izvesno
izvestan
izvesti
izvire
izviđac
izviđanje
izvjes
izvlac
izvod
izvode
izvodi
izvodila
izvodili
izvodio
izvoditi
izvor
izvora
izvore
izvori
izvorima
izvoris
izvorna
izvorne
izvorni
izvornih
izvorno
izvornog
izvornom
izvorom
izvoru
izvoz
izvoza
izvođac
izvođenja
izvođenje
izvođenju
izvrs
izvrsno
izvrstan
izvuc
izvukao
izzy
j
ja
jablanic
jablanica
jabuc
jabuka
jabuke
jac
jaci
jack
jacka
jackie
jackson
jacob
jacqueline
jacques
jacquesa
jadran
jadrana
jadranka
jadranske
jadransko
jadranskog
jadranskom
jadranu
jagdis
jagoda
jagode
jagodina
jagodnjak
jahac
jaime
jaja
jajca
jajce
jajcu
jaje
jajima
jak
jaka
jake
jaki
jakih
jakim
jako
jakob
jakog
jakom
jakost
jakosti
jakov
jakova
jakovljevic
jaks
jaku
jalisco
jalomica
jalostotitla
jalpa
jalpan
jam
jama
jamc
jame
james
jamesa
jamesu
jamie
jamu
jan
jana
janc
jane
janeiro
janet
janez
jang
janic
janjic
janka
janko
jankovic
janos
januar
januara
januaru
january
jap
japan
japana
japanaca
japanci
japanese
japanska
japanske
japanski
japanskih
japanskim
japansko
japanskog
japanskoj
japanskom
japansku
japanu
jar
jaroslav
jas
jasan
jasenovac
jasna
jasne
jasno
jasnu
jason
jat
jata
jato
java
jave
javelle
javi
javier
javila
javio
javiti
javlja
javljaju
javna
javne
javni
javnih
javnim
javno
javnog
javnoj
javnom
javnos
javnost
javnosti
javnu
jay
jaz
jazu
jazz
jazza
je
jean
jeana
jeanne
jec
jedan
jedanaest
jedanput
jede
jedina
jedine
jedini
jedinic
jedinica
jedinicama
jedinice
jedinici
jedinicom
jedinicu
jedinim
jedinjenja
jedinjenje
jedinke
jedinki
jedino
jedinog
jedinom
jedinstva
jedinstven
jedinstvena
jedinstvene
jedinstveni
jedinstveno
jedinstvenog
jedinstvenom
jedinstvenu
jedinstvo
jedinstvu
jedinu
jedna
jednac
jednadz
jednak
jednaka
jednake
jednaki
jednakih
jednakim
jednako
jednakost
jednakosti
jednaku
jedne
jedni
jednim
jednjaka
jedno
jednoc
jednog
jednoga
jednoglasno
jednogodis
jednoj
jednolic
jednoliko
jednom
jednostavan
jednostavna
jednostavne
jednostavni
jednostavnih
jednostavnije
jednostavnim
jednostavno
jednostavnog
jednostrano
jednu
jedra
jedrilic
jedro
jedu
jedva
jeff
jefferson
jeffrey
jeg
jeku
jela
jelac
jelen
jelena
jelene
jeleni
jelic
jelisaveta
jelo
jels
jem
jemen
jemena
jemenskoj
jemenu
jen
jennifer
jenny
jer
jere
jeremy
jeres
jerez
jerkovic
jermenije
jero
jerome
jeronim
jeronima
jerotic
jerry
jersey
jerusalem
jerusalim
jerusalima
jerusalimski
jerusalimu
jeruzalem
jeruzalema
jeruzalemu
jerzy
jes
jesen
jeseni
jesse
jessica
jest
jeste
jesti
jesu
jesus
jet
jetra
jetre
jetri
jevanđelja
jevanđelje
jevreja
jevreje
jevreji
jevrejima
jevrejska
jevrejske
jevrejski
jevrejskih
jevrejsko
jevrejskog
jevrejskoj
jevtic
jewish
jez
jezera
jezerima
jezero
jezerom
jezeru
jezgra
jezgre
jezgri
jezgro
jezgru
jezic
jezici
jezicima
jezik
jezika
jezike
jezikom
jeziku
ji
jia
jidis
jih
jill
jilotla
jim
jima
jime
jimmy
jin
jina
jing
jiquipilas
jlz
jm
jna
jo
joa
joachim
joakim
joan
joaqui
jod
joda
joe
joea
joel
joey
joga
johan
johann
johanna
johannes
john
johna
johnny
johnom
johns
johnson
johnston
joint
joj
joker
jokera
jom
jon
jona
jonas
jonathan
jones
jonesa
jong
joni
jonizacije
jonski
jonskih
jonskog
jordan
jordana
jordanu
jorge
jos
jose
josef
joseph
josepha
josh
joshua
josif
josifa
josip
josipa
josipom
josipovic
josipu
journal
journey
jovan
jovana
jovanka
jovanom
jovanovic
jovanu
jovic
jovo
joy
joya
joyce
joz
jozef
jozo
jp
jpg
jpl
jr
jrt
js
jstor
ju
jua
juan
juana
juc
juchique
juda
judaizam
judaizma
jude
judeje
judet
judge
judita
judith
judy
jug
juga
jugo
jugoistoc
jugoistok
jugoistoka
jugoistoku
jugoslaveni
jugoslavenska
jugoslavenske
jugoslavenski
jugoslavenskih
jugoslavenskim
jugoslavenskog
jugoslavenskoj
jugoslavija
jugoslavije
jugoslaviji
jugoslaviju
jugosloveni
jugoslovenska
jugoslovenske
jugoslovenski
jugoslovenskih
jugoslovenskim
jugoslovensko
jugoslovenskog
jugoslovenskoj
jugoslovenskom
jugoslovensku
jugoton
jugozapad
jugozapada
jugozapadna
jugozapadne
jugozapadni
jugozapadno
jugozapadnoj
jugozapadnom
jugozapadu
jugu
jukatan
jukic
jul
jula
jules
juli
julia
julian
julie
julien
julija
julijan
julijanski
julijanskom
julije
julijska
julio
julius
julu
july
jump
jun
juna
junac
junaci
junak
junaka
june
jung
jungle
juni
junior
juno
junu
jupiter
jupitera
jura
juraj
jurc
jure
juri
juric
jurica
jurij
juris
jurja
jus
just
justice
justify
justin
justinijan
justinijana
jusuf
juta
jutarnji
juti
jutra
jutro
juventino
juventus
juz
jvuo
k
ka
kabine
kabinet
kabineta
kabinetu
kabini
kac
kad
kada
kadar
kadra
kadrova
kadz
kafe
kafic
kafka
kahn
kai
kaira
kairo
kairu
kaiser
kaj
kaju
kakanj
kakav
kako
kakva
kakve
kakvi
kakvih
kakvim
kakvo
kakvog
kakvom
kakvu
kal
kala
kalabic
kalabrija
kalaras
kalcijum
kalcijuma
kale
kalendar
kalendara
kalendari
kalendarska
kalendaru
kalez
kali
kalibra
kalif
kalifa
kalifat
kalifata
kalifornija
kalifornije
kaliforniji
kalijum
kalijuma
kalinovik
kalvados
kam
kama
kambodz
kamc
kamen
kamena
kamene
kameni
kamenica
kamenih
kamenim
kamenja
kamenje
kamenjem
kameno
kamenog
kamenom
kamenu
kamera
kamerama
kamere
kamerom
kameru
kamerun
kamion
kamiona
kamiondz
kamo
kamp
kampa
kampanija
kampanja
kampanje
kampanji
kampanju
kampec
kampu
kampuc
kampus
kan
kana
kanada
kanade
kanadi
kanadska
kanadske
kanadski
kanadskog
kanadskoj
kanadu
kanal
kanala
kanale
kanali
kanalima
kanalom
kanalu
kanat
kanata
kancelar
kancelara
kancelarija
kancelarije
kancera
kandidat
kandidata
kandidati
kandidaturu
kandz
kane
kang
kanjon
kanjona
kanon
kanona
kansas
kanskom
kant
kantakuzin
kantautor
kanton
kantona
kantonu
kanu
kanzas
kanzasu
kao
kaos
kaosa
kaotic
kap
kapa
kapacitet
kapaciteta
kapacitetom
kape
kapela
kapelan
kapele
kapeli
kapelica
kapelu
kapetan
kapetana
kapetanom
kapi
kapija
kapije
kapilara
kapital
kapitala
kapitalistic
kapitalizam
kapitalizma
kapitulacije
kapitulaciju
kapoor
kaptol
kar
kara
karac
karaca
karadz
karakter
karaktera
karakteris
karakteristic
karakteristika
karakteristikama
karakteristike
karakterizira
karakteriziraju
karakteru
karas
karata
karate
karavan
karađorđe
karađorđevic
karboksilatni
karboksilne
karbonat
karbonata
karca
karce
karci
karcima
karcinom
karcinoma
kardelj
kardinal
kardinala
kare
karel
karen
kari
kariba
karibima
karic
karijera
karijere
karijeri
karijeru
karikatura
karikature
karin
karl
karla
karlo
karlom
karlos
karlovac
karlovca
karlovci
karlovcima
karlovcu
karlu
karneval
karolina
karoline
karolini
karolins
karpata
karta
kartagine
kartama
karte
karti
kartica
kartice
kartu
kas
kasetne
kasetnih
kasije
kasne
kasni
kasnih
kasnija
kasnije
kasnijeg
kasnijem
kasniji
kasnijih
kasnijim
kasnijoj
kasniju
kasnim
kasno
kasnoantic
kasnog
kasnom
kaspijskog
kasta
kaste
kastilja
kastilje
kat
kata
katalitic
katalizator
katalizuje
katalog
kataloga
katalogu
katalonski
katar
katarina
katarine
katastarske
katastrofa
katastrofalne
katastrofalni
katastrofe
katastrofu
kate
katedra
katedrala
katedrale
katedrali
katedralu
katedre
katedri
kategorija
kategorijama
kategorije
kategoriji
kategoriju
katharine
katherine
kathleen
kathy
kati
katic
katkad
katode
katolic
katolici
katolik
katolika
katu
kava
kave
kavkaz
kavkaza
kavkazu
kay
kaz
kazahstan
kazahstana
kazalis
kazaljke
kazna
kazne
kazneni
kazni
kaznu
kazuje
kb
kc
ke
keaton
kec
keep
keith
kejt
kelly
kelti
keltski
kemal
kembridz
kemic
kemija
kemije
kemijska
kemijske
kemijski
kemijskih
kemijskim
kemijskog
kemijskom
kemiju
ken
kenija
keniji
kennedy
kennedyja
kenneth
kenny
kent
kenta
kentaki
kentakiju
kentaur
kentucky
keramic
keramika
keramike
keretaro
kerry
kes
keserovic
ketali
keto
ketoni
ketrin
kevin
key
kg
kgb
khan
khl
ki
kic
kid
kids
kih
kijev
kijeva
kijevske
kijevu
kila
kill
killer
killing
kilo
kilograma
kilometar
kilometara
kilometra
kilometraz
kim
kin
kina
kinaza
kinaze
kind
kine
kinematografija
kinematografije
kinematografiji
kineska
kineske
kineski
kineskih
kineskim
kinesko
kineskog
kineskoj
kineskom
kinesku
kinetic
kineza
kinezi
king
kinga
kingdom
kings
kingston
kini
kinima
kinja
kino
kinom
kintana
kinu
kip
kipar
kipara
kipovi
kipra
kipru
kir
kira
kiril
kirk
kirurs
kis
kiselina
kiselinama
kiseline
kiselinom
kiselinska
kiselinu
kiseonik
kiseonika
kiseonikom
kisik
kisika
kisikom
kiss
kit
kita
kitab
kitova
kitovi
kj
kk
kladus
klaic
klajn
klan
klana
klanova
klara
klarinet
klasa
klase
klasi
klasic
klasicistic
klasificira
klasifikacija
klasifikacije
klasifikaciji
klasifikaciju
klasika
klasu
klaudija
klaudije
klaus
klavijature
klavir
klavira
klein
klement
klementa
kleopatra
kler
klera
klijent
klima
klimatske
klimatski
klimatskih
klimatskim
klime
kliment
klimi
klimom
klimu
klinic
klinika
klip
klipa
klis
klisura
klisure
klizac
klizis
kljuc
kljun
klub
kluba
klubom
klubova
klubove
klubovi
klubovima
klubu
klupe
klupi
klupska
klupski
kluz
km
kmera
kmeri
kn
kneginja
knez
kneza
knezom
knezova
knezovi
knezu
knight
knin
knina
kninskoj
kninu
knj
knjaz
knjiga
knjigama
knjige
knjigom
knjigu
knjiz
knjizi
know
knowledge
known
knox
knut
ko
koa
koalicija
koalicije
koaliciji
koaliciju
koautor
koavila
koblenc
koc
koch
kocka
kocke
kod
koda
kodeks
kodeksa
kodira
kodiran
kodirani
kodova
koeficijent
koenzim
kog
koga
kohem
koj
koja
koje
kojeg
kojega
kojem
kojemu
koji
kojih
kojim
kojima
kojoj
kojom
koju
kokos
kol
kola
kolac
kolama
kolaps
kolapsa
kolar
kolas
kolc
kole
koledz
kolega
kolegama
kolege
kolegija
kolegom
kolekcija
kolekcije
kolekciju
kolektivno
kolere
koli
kolic
kolica
koliko
kolima
koljena
koljke
kolo
kolodvor
kolokvijalno
kolom
kolona
kolone
kolonija
kolonijalne
kolonijalni
kolonijalnih
kolonijalnog
kolonijama
kolonije
koloniji
koloniju
kolonista
kolonisti
kolonizacija
kolonizacije
kolonu
kolorado
koloradu
koloseka
kolovanja
kolovanje
kolovao
kolovoz
kolovoza
kolovozu
kolska
kolske
kolski
kolskih
kolskim
kolsko
kolskog
kolskoj
kolsku
kolstva
kolstvo
kolu
kolubarskom
kolumbija
kolumbije
kolumbiji
kolumbijski
kolumbo
kom
koma
komad
komada
komade
komadi
komadic
komadu
komanda
komandanata
komandant
komandanta
komandanti
komandantima
komandantom
komandantu
komande
komandi
komandir
komandom
komandovao
komandu
komaraca
kombinacija
kombinacije
kombinaciji
kombinacijom
kombinaciju
kombinira
kome
komedija
komedijama
komedije
komediji
komediju
komentar
komentara
komentare
komentari
komentator
komentatori
komentirao
komercijalna
komercijalne
komercijalni
komercijalnih
komercijalnim
komercijalno
komesar
komesara
komet
kometa
komi
komic
kominterne
komisija
komisije
komisiju
komitet
komiteta
komitetu
kommon
komnin
komnina
komora
komore
komori
komoru
kompaktna
kompaktne
kompanija
kompanijama
kompanije
kompaniji
kompaniju
kompas
kompilacija
kompilacije
kompjuter
kompjutera
kompjuterski
kompleks
kompleksa
kompleksi
kompleksna
kompleksne
kompleksnih
kompleksu
kompletan
kompletna
kompletno
kompletnu
komplikacija
komplikacije
komponenata
komponenta
komponente
komponenti
komponentu
komponirao
komponovao
kompozicija
kompozicije
kompoziciju
kompozitor
kompozitora
kompozitori
kompromis
koms
komu
komuna
komune
komunikacija
komunikacije
komunikaciji
komunikaciju
komunikacioni
komunist
komunista
komuniste
komunisti
komunistic
komunistima
komunizam
komunizma
kon
konac
konak
konc
konca
koncem
koncentracija
koncentracijama
koncentracije
koncentracijski
koncentraciju
koncentracioni
koncentric
koncepcija
koncepcije
koncept
koncepta
koncepti
konceptu
koncerata
koncert
koncerta
koncerte
koncerti
koncertima
koncertu
koncil
koncila
koncu
kondenzator
kondenzatora
konfederacija
konfederacije
konfederaciju
konferencija
konferencije
konferenciji
konferenciju
konfiguracija
konfiguracije
konflikt
konflikta
konfuc
kong
konga
kongo
kongres
kongresa
kongresu
kongu
konj
konja
konjanic
konjanika
konje
konji
konjic
konjica
konjice
konjicu
konjima
konju
konkretne
konkretno
konkurencija
konkurencije
konkurenciji
konobar
konobarica
konoplje
konrad
konrada
konsenzus
konstanca
konstancije
konstanta
konstantan
konstante
konstantin
konstantina
konstantinopola
konstantna
konstantno
konstantnom
konstruirao
konstrukcija
konstrukcije
konstrukciji
konstrukciju
konstruktor
kontador
kontakata
kontakt
kontakta
kontakte
kontakti
kontaktu
konte
kontekst
konteksta
kontekstu
kontinenata
kontinent
kontinenta
kontinentalna
kontinentalne
kontinentalni
kontinentalnoj
kontinentima
kontinentu
kontinuirano
kontinuitet
kontinuiteta
kontinuitetu
kontra
kontrast
kontrastu
kontrola
kontrole
kontroli
kontrolira
kontrolirali
kontrolirati
kontrolis
kontrolni
kontrolom
kontrolu
kontroverze
kontroverzi
kontroverzna
kontroverzni
konvencija
konvencije
konvenciji
konvenciju
konvertuje
konverzija
konvoj
konzervativaca
konzervativci
konzervativna
konzervativne
konzervativni
konzervativnih
konzola
konzole
konzul
konzula
konzuli
konzulstva
koordinata
koordinate
koordinatni
kopac
kopenhagen
kopenhagenu
kopija
kopije
kopiju
koplja
koplje
kopna
kopnena
kopnene
kopneni
kopnenih
kopnenim
kopno
kopnom
kopnu
koprivnic
koprivnica
koprivnice
koprivnici
koptski
kor
kora
korac
koraci
korak
koraka
korake
korc
kore
korea
koreja
koreje
koreji
korejske
korejski
korejskog
koreju
koren
korena
kori
koric
koridor
koridora
korijen
korijena
korijene
korijeni
korinc
korint
korinta
koris
korisna
korisne
korisni
korisnic
korisnici
korisnicima
korisnik
korisnika
korisnike
korisniku
korisno
korist
koristan
koriste
koristec
koristi
koristila
koristile
koristili
koristilo
koristimo
koristio
koristiti
korita
korito
kornelija
kornelije
kornjac
koros
korozija
korozije
korporacija
korporacije
korpus
korpusa
korpusu
koru
korupcija
korupcije
korupciju
korus
korvin
korvina
korzika
kos
kosa
kosac
kosanovic
kose
kosi
kosjeric
kosmic
kosmodroma
kosmos
kosom
kosova
kosovo
kosovska
kosovske
kosovski
kosovskih
kosovskog
kosovskom
kosovu
kost
kosta
kostarike
koste
kosti
kostic
kostiju
kostim
kostima
kostur
kostura
kosu
kot
kota
kotac
kotar
kotara
kotaru
koti
kotlina
kotline
kotlini
kotor
kotora
kotoru
kotromanic
kotska
kotske
kotski
kotskih
kotsko
kotskog
kotskoj
kotskom
kotsku
kov
kova
kovac
kovanica
kovanice
kovanje
kovasna
kovc
kove
kovi
kovic
kovima
koz
koza
kozac
kozarac
koze
kozjak
kozmetic
kozmic
kp
kpa
kph
kpj
kr
krac
krade
kragujevac
kragujevca
kragujevcu
kraj
kraja
krajem
krajeva
krajeve
krajevi
krajevima
krajina
krajine
krajini
krajinu
krajis
krajnje
krajnjem
krajnji
krajolik
krajolika
krajs
kraju
krak
kraka
krakova
kralj
kralja
kraljem
kraljes
kraljev
kraljeva
kraljeve
kraljevi
kraljevic
kraljevima
kraljevina
kraljevine
kraljevini
kraljevinom
kraljevinu
kraljevo
kraljevska
kraljevske
kraljevski
kraljevskih
kraljevskim
kraljevsko
kraljevskog
kraljevskoj
kraljevskom
kraljevsku
kraljevstava
kraljevstva
kraljevstvo
kraljevstvom
kraljevstvu
kraljevu
kraljez
kraljic
kraljica
kraljice
kraljici
kraljicom
kraljicu
kralju
kramer
kranjc
krapinsko
kras
kratak
krater
kratera
kratica
kratka
kratke
kratki
kratkih
kratkim
kratko
kratkog
kratkoj
kratkom
kratkometraz
kratkoroc
kratkotrajna
kratkotrajne
kratkotrajni
kratkotrajnog
kratku
krava
krave
krađe
krc
kreator
krec
krede
kredita
kreiranje
kreirao
krene
krenu
krenula
krenule
krenuli
krenulo
krenuo
krenuti
kreolski
kres
kretala
kretali
kretanja
kretanje
kretanjem
kretanju
kretao
kretati
krevet
kreveta
krevetu
krez
krf
kric
krije
krijumc
krik
krila
krilima
krilo
krilu
krim
krima
kriminal
kriminala
kriminalac
kriminalaca
kriminalca
kriminalci
kriminalistic
krimski
krimu
kris
krist
krista
kristal
kristala
kristali
kristalna
kristalne
kristalni
kristijan
kristina
kristofer
kristu
kriterij
kriterija
kriterijum
kritic
kritici
kritika
kritikama
kritike
kritikovao
kritiku
kritikuje
kritizira
kritizirali
kritizirao
kriv
kriva
krive
krivi
krivic
krivim
krivo
krivulja
kriz
kriza
krize
krizi
krizom
krizu
krk
krka
krku
krlez
krojac
krojcnah
krokodila
kromosoma
kronic
kronika
kronike
kronologija
kronolos
kros
krov
krova
krovom
krovu
kroz
krs
krst
krsta
krstarica
krstarice
krstas
krste
krstic
krstitelja
krsto
krug
kruga
krugova
krugovi
krugovima
krugu
kruh
kruha
krumpir
kruna
krune
kruni
krunisan
krunom
krunoslav
krunski
krunu
krupa
krupne
krus
kruz
krv
krvarenja
krvarenje
krvava
krvave
krvavi
krvavo
krvi
krvlju
krvna
krvne
krvni
krvnih
krvnim
krvnog
krvoprolic
krvotok
krz
krzna
krzno
krznom
ks
ksenija
ksenofont
kshs
ku
kuba
kubanske
kubanski
kube
kubi
kubrick
kubu
kuc
kud
kuda
kuga
kuge
kugla
kugle
kuglic
kuh
kuhinja
kuhinje
kuk
kuka
kukaca
kukavic
kukuruz
kukuruza
kula
kule
kuli
kulina
kulminaciju
kulminiralo
kult
kulta
kultni
kultura
kulturama
kulture
kulturi
kulturna
kulturne
kulturni
kulturnih
kulturnim
kulturno
kulturnog
kulturnoj
kulturnom
kulturnu
kulturolos
kulturom
kulturu
kulu
kum
kuma
kumanova
kumanovo
kumar
kun
kuna
kung
kunst
kup
kupa
kupac
kupalis
kupanje
kupe
kupi
kupila
kupili
kupio
kupiti
kupke
kupola
kupole
kupolom
kupolu
kupova
kupovinu
kupres
kupu
kupuje
kur
kuran
kurana
kurda
kurdi
kurdistana
kurdski
kurir
kurs
kurt
kurtoazno
kus
kustos
kut
kuta
kutija
kutije
kutiju
kutna
kutne
kutom
kutu
kuvajt
kuzel
kv
kvadrat
kvadrata
kvadratic
kvadratne
kvadratnih
kvalifikacija
kvalifikacijama
kvalifikacije
kvalitet
kvaliteta
kvalitete
kvaliteti
kvalitetno
kvalitetom
kvalitetu
kvantna
kvantne
kvart
kvartet
kvartu
kvint
kvislins
kw
kyle
kylie
l
la
label
labor
laboratorij
laboratorija
laboratorije
laboratoriji
laboratoriju
laboratory
labud
laburistic
lac
ladies
ladislav
ladislava
lady
laertije
lagano
lago
lagos
laguna
lagune
lajos
lak
laka
lake
lakersi
laki
lakih
lako
lakoc
lakog
laks
laku
lalic
lama
lambda
lambert
lamo
lan
lana
lanac
lanaca
lanak
lanaka
lanc
lanca
lancaster
lance
lanci
lancima
lancu
land
landa
lane
lang
langdok
lange
langobarda
language
languages
lani
lanica
lanicama
lanice
lanka
lanke
lanku
lanom
lanova
lanove
lanovi
lanovima
lansiran
lansirana
lansiranih
lansiranja
lansiranje
lansiranju
lansirao
lanstva
lanstvo
lanu
lao
laos
lara
larga
large
largo
larry
lars
las
laser
laserski
last
lat
late
later
latin
latina
latinic
latinoameric
latinska
latinske
latinski
latinskih
latinskim
latinsko
latinskog
latinskoj
latinskom
latvije
lauenburg
laura
laurel
laureles
lauren
laurence
laurent
laurie
lav
lava
lave
lavova
lavovi
law
lawrence
layer
laz
laza
lazar
lazara
lazarevac
lazarevic
laze
lazic
lazio
lazovic
lađa
lađe
lb
lc
ld
le
lea
lead
leader
league
learning
leave
leben
lebor
lec
lecce
lecco
lecture
led
leda
ledena
ledeni
ledenjaci
ledenjak
ledenjaka
ledenog
lednika
ledu
lee
leeds
leeja
left
legacy
legal
legalno
legat
legend
legenda
legendama
legendarni
legendarnog
legende
legendi
legends
legendu
legija
legije
legio
legitimitet
legura
legure
leiden
leigh
leipzig
lejk
lek
leka
lekar
lekara
lekari
lekova
lekove
lekovi
lekovima
leksikografski
leksikon
len
lena
leni
lenjin
lenjina
leo
leomon
leon
leona
leonard
leonarda
leonardo
leone
leonid
leonida
leopard
leoparda
leopold
leopolda
lepa
lepo
leposavic
lepote
leptira
lerdo
les
lesbian
leskovac
leskovca
leslie
lester
let
leta
letac
lete
letec
letelica
letelice
letenja
leti
letjelica
letjelice
letjeti
letnje
leto
letopis
letopisa
letova
letove
letovi
letter
letters
letu
leu
leva
leve
level
levelu
levi
levic
levice
levo
levog
levoj
levom
levu
levy
lewis
lewisa
lex
lez
lezbejke
lezbejki
lezda
lezde
lezija
lezvig
leđa
leđima
lg
lgbt
li
lia
liang
libanon
libanonu
liber
liberal
liberala
liberali
liberalna
liberalne
liberalni
liberalnih
liberalno
libertad
liberty
libija
libije
libiji
libiju
libraries
library
libres
libreto
libri
lic
lica
lice
licem
licence
lici
licima
licu
lider
lidera
lideri
lidija
lidije
lie
liebe
lies
life
liga
ligand
liganda
ligandi
ligas
ligaza
lige
light
ligi
ligu
ligurija
lih
lihtens
lijaza
lijec
lijek
lijekova
lijekove
lijekovi
lijekovima
lijep
lijepa
lijepe
lijepo
lijepu
lijev
lijeva
lijeve
lijevi
lijevo
lijevog
lijevoj
lijevom
lijevu
lijez
lijezda
lijezde
lik
lika
like
likom
likova
likove
likovi
likovima
likovna
likovne
likovni
likovnih
liku
likvidacije
likvidaciju
lil
lili
lily
lim
lima
limfocita
limited
limits
limo
lin
lina
linares
linc
lincoln
lincolna
linda
lindsay
line
linearna
linearne
linearno
linedata
lines
ling
lingua
lingvista
lingvisti
lingvistic
lingvistika
lingvistike
linija
linijama
linije
liniji
linijom
liniju
link
linkovi
links
linux
lion
lionel
lipa
lipanj
lipnja
lipnju
lipovac
lira
lis
lisa
lisabon
lisic
lisica
lisice
list
lista
listama
liste
listi
listic
listopad
listopada
listopadu
listova
listove
listovi
listovima
listu
lit
litara
literary
literatura
literature
literaturi
literaturu
litice
little
liturgija
liturgije
litvanija
litvanije
litvaniji
litvanski
liu
livada
livade
live
liverpool
lives
livije
living
livius
livna
livno
livnu
livorno
lix
liz
liza
lizin
lj
lja
ljanja
ljanje
ljao
ljati
ljava
ljavanje
ljec
ljekar
ljekovito
ljen
ljena
ljene
ljeni
ljenja
ljenje
ljenju
ljeno
ljepota
ljepote
ljes
ljestvica
ljestvicama
ljestvice
ljestvici
ljeta
ljeti
ljetne
ljetni
ljetnih
ljetnim
ljeto
ljetopis
ljetovalis
ljevic
ljevice
ljiljana
ljiv
ljiva
ljive
ljivi
ljivo
ljivost
ljivosti
ljotic
ljuba
ljubav
ljubavi
ljubavlju
ljubavna
ljubavne
ljubavni
ljubavnica
ljubavnici
ljubavnik
ljubavnika
ljubavnu
ljubi
ljubic
ljubica
ljubis
ljubitelj
ljubljana
ljubljane
ljubljani
ljubo
ljubomir
ljubus
ljude
ljudevit
ljudi
ljudima
ljudska
ljudske
ljudski
ljudskih
ljudskim
ljudsko
ljudskog
ljudskoj
ljudskom
ljudsku
ljudstva
ljudstvo
ljus
ljuske
ljut
ll
llano
ller
llera
lloyd
ln
lo
loar
loara
loare
lobanje
loc
local
localita
lociran
locke
locode
lodi
loeb
log
logan
logic
logika
logike
logiku
logistic
logo
logodis
logor
logora
logoras
logore
logori
logorima
logoru
logos
loire
lois
lojalnost
lokacija
lokacijama
lokacije
lokaciji
lokaciju
lokalitet
lokaliteta
lokaliteti
lokalitetu
lokalna
lokalne
lokalni
lokalnih
lokalnim
lokalno
lokalnog
lokalnoj
lokalnom
lokalnu
lokomotiva
lokomotive
lola
lom
loma
lomac
lomas
lombardija
lon
lonc
london
londona
londonske
londonski
londonskog
londonskom
londonu
lonely
long
look
looking
loop
lopatica
lopatice
lopez
lopov
lopta
lopte
loptom
loptu
lord
lorda
lordova
loredan
loren
lorena
lorens
lorenzo
loreto
lorraine
los
lost
losti
lot
lou
louis
louisa
louise
louisiana
louvre
lov
lova
lovac
lovaca
lovc
lovca
lovci
love
lovers
loves
lovi
lovis
lovom
lovrenovic
lovro
lovu
low
lower
loxicha
loz
loza
loze
loznica
lp
ls
lsd
lt
ltd
lu
lubanja
lubanje
luc
luca
lucas
lucca
lucero
luci
lucia
luciano
lucien
lucija
lucije
lucius
lucky
lucy
lud
luda
ludi
ludila
ludovik
ludvig
ludvigslust
ludwig
luftwaffe
lug
luga
lui
luigi
luis
luisa
luizijana
luizijani
luj
luja
luk
luka
lukac
lukama
lukas
lukavac
luke
luki
lukic
lukijan
lukom
lukova
lukovi
luksemburg
luksemburga
luksemburs
luku
luna
lunarni
lupus
lus
lutaka
luther
lutke
luvianos
luz
lv
lvarez
lvaro
ly
lynch
lynn
lyon
lys
lzmk
m
ma
mac
macdonald
macedonia
macerata
machine
macho
maciste
mack
macmillan
macro
mad
mada
madagaskar
madagaskara
madagaskaru
madam
madame
made
madeleine
madelung
madera
madero
madison
madona
madonna
madre
madrid
madrida
madridu
madz
mae
mafijas
magazin
magazina
magazine
magdalena
maggie
magic
magije
magistrirao
maglaj
maglica
maglice
maglina
magna
magnet
magneta
magnetna
magnetne
magnetno
magnetnog
magnetska
magnetski
magnetsko
magnetskog
magnetskom
magnezijum
magnituda
magnitude
magnum
magnus
mah
maha
mahala
mahdi
mahmud
mahom
mai
mail
main
maine
mainstream
maite
maj
maja
majc
majci
maje
majen
majer
majicu
majka
majke
majki
majkl
majkom
majku
majmuna
majmuni
majnc
majni
major
majora
majstor
majstora
majstori
maju
mak
makar
makarska
make
makedonaca
makedonci
makedonija
makedonije
makedoniji
makedoniju
makedonska
makedonske
makedonski
makedonsko
makedonskog
makedonskom
making
makishima
maks
maksim
maksima
maksimalna
maksimalne
maksimalni
maksimalno
maksimalnoj
maksimalnu
maksimilijan
maksimilijana
maksimovic
maksimum
mal
mala
malarije
malcolm
male
malen
malena
malene
maleni
malenih
malenim
males
malezija
malformacije
mali
malih
malik
malim
malinaltepec
malis
malo
malobrojni
malog
maloj
malom
malraux
malta
malte
maltes
malu
mama
man
mana
management
manastir
manastira
manastiri
manastiru
manc
manchester
mandat
mandata
mandic
mandz
mane
manekenka
manekenke
manevar
manfred
manga
mangan
mangana
mange
manhattan
mani
manifest
manifestacija
manifestacije
manifestuje
manipulacije
manja
manjak
manje
manjeg
manjem
manji
manjih
manjim
manjina
manjine
manjinska
manjinu
manjka
manjoj
manjom
manju
mann
mano
manojlo
manojlovic
mans
mante
mantova
mantua
manu
manual
manuel
manuela
many
manzanillo
mao
map
mapa
mapastepec
mape
mapi
maplandia
mapquest
maps
mar
mara
maraka
maramures
maraton
maravati
marc
marcel
marcela
marcello
march
marche
marco
marcos
marcus
mare
margaret
margarita
margaritas
marguerite
mari
maria
marianne
mariano
marib
maribor
maric
marica
marie
marija
marijan
marijana
marije
mariji
marijina
marijom
mariju
marilyn
marin
marina
marinaca
marinci
marine
mariner
marinko
marinkovic
marino
marinovic
mario
marion
marisa
marjan
marjanovic
mark
marka
marke
market
marketing
marketins
markiz
markiza
marko
markom
markovic
marks
marksistic
marksizam
marksizma
marku
markus
marlene
marna
marne
maro
maroka
maroko
maroku
marque
marriage
married
mars
marsa
marseille
marsh
marshall
marsu
mart
marta
martha
marti
martic
martin
martina
martinez
martini
martino
martinovic
martu
marty
marulic
marus
marvel
marvin
marx
mary
maryland
mas
masa
masac
masakr
masakra
masama
mascaren
mascota
mase
masi
masiv
masiva
masivi
masivne
masivu
mask
maska
maske
masku
masles
maslina
masline
masna
masne
masnih
masnoc
masom
mason
masovna
masovne
masovni
masovnih
masovnim
masovno
masovnog
masovnu
mass
massa
massachusetts
massacre
massimo
mast
master
masters
masti
masu
mat
mata
matamoros
mate
matehuala
matej
mateja
mateju
matematic
matematici
matematika
matematike
matematiku
mateo
mater
material
materice
materija
materijal
materijala
materijale
materijali
materijalima
materijalna
materijalne
materijalni
materijalnih
materijalno
materijalnu
materijalom
materijalu
materije
materiju
maternice
maternji
mathbb
mathbf
mathematical
mathematics
mathrm
mati
matic
matica
matice
matija
matijas
matije
matijevic
matilda
matkovic
mato
matos
matrica
matrice
matrix
matt
matter
matthew
maurice
mauro
mauzolej
mavrovo
max
maxa
maximilian
maximus
maxwell
may
maya
mayer
mayo
maz
mazata
mazatla
mađ
mađara
mađari
mađarima
mađarska
mađarske
mađarski
mađarskih
mađarskim
mađarsko
mađarskog
mađarskoj
mađarskom
mađarsku
mb
mbaro
mbovica
mbox
mc
mccarthy
mccomb
mccoy
mcdonald
mcg
mcgraw
md
me
mec
med
meda
medal
medalja
medalje
medalju
medeja
medelli
media
medical
medici
medicina
medicine
medicini
medicinska
medicinske
medicinski
medicinskih
medicinskim
medicinsko
medicinskog
medicinskom
medicinsku
medicinu
medieval
medij
medija
medije
mediji
medijima
medijska
medijske
medijski
medijskih
medijskog
mediju
medina
medine
mediteran
mediterana
mediteranska
mediteranske
mediteranu
medline
medved
medves
medvjed
medvjeda
medvjedi
medz
meet
mega
megan
mehanic
mehanici
mehanika
mehanike
mehanizam
mehanizama
mehanizma
mehanizme
mehanizmi
mehanizmom
mehedinci
mehmed
mehmeda
mehmet
mein
meji
mek
meka
meke
meki
meklenburg
meko
mekog
meksic
meksika
meksiko
meksiku
meku
mel
melbourne
melchor
melodija
melodije
membrana
membrane
membrani
membranski
membranu
memoari
memoarima
memoirs
memorandum
memorial
memorija
memorijalni
memorije
memoriju
memory
memphis
men
mena
menadz
mendes
mendoza
mene
meni
meningitis
meningitisa
menja
menjaju
menjaka
menjao
ment
menta
mentalne
mentalni
mentalno
mentor
meoqui
mer
mera
mercedes
mercury
mere
meredith
merenja
merenje
meri
meridijan
meridijana
merilend
merilendu
merkur
merkura
merlin
mero
mert
meru
mes
mesa
mesec
meseca
meseci
mesecima
mesecu
mesic
mesjeovih
mesna
mesne
mesnog
meso
mesoz
mess
messenger
messier
messina
mesta
mestima
mesto
mestu
met
meta
metabolic
metabolizam
metabolizma
metafizic
metak
metaka
metal
metala
metale
metali
metalima
metalna
metalne
metalni
metalnih
metalnim
metalnog
metalurgija
metalurs
metamorfoze
metana
metar
metara
mete
meteor
meteora
meteorita
meteorolos
metez
method
methods
metil
metiltransferaza
metionin
metka
metkovic
metod
metoda
metodama
metode
metodi
metodom
metodu
metohija
metohije
metohiji
metom
metra
metric
metro
metroa
metropole
metropolitan
metropolitanski
meuse
mev
mexicali
mexico
meyer
mez
meza
mezopotamije
mezopotamiji
mezquital
mezquitic
među
međunarodna
međunarodne
međunarodni
međunarodnih
međunarodnim
međunarodno
međunarodnog
međunarodnoj
međunarodnom
međunarodnu
međuratnom
međusobne
međusobni
međusobnih
međusobnim
međusobno
međusobnog
međusobnom
međutim
međuvremenu
mg
mgm
mhz
mi
mia
miahuatla
miami
mic
mica
michael
michaela
michel
michelangelo
michele
michelle
michigan
michoaca
mick
mickey
microsoft
mid
middle
midi
midnight
mie
mig
migracija
migracije
miguel
miha
mihail
mihaila
mihailo
mihailovic
mihajla
mihajlo
mihajlovic
mihovil
mihovila
mijatovic
mijenja
mijenjaju
mijenjala
mijenjao
mijenjati
mijes
mijo
mika
mike
miki
mikic
mikro
mikroorganizama
mikulic
mil
mila
milan
milana
milano
milanom
milanovac
milanovic
milanu
mile
milena
milenija
milenijum
milenijuma
milenko
milenkovic
miler
miles
mileta
miletic
milic
milica
milicija
milicije
milijarde
milijardi
milijardu
milijun
milijuna
milimetara
milinkovic
milion
miliona
military
milivoj
milivoje
milja
milje
miljenko
miljkovic
milka
mill
millennium
miller
million
mills
milo
milorad
milos
milosavljevic
milost
milosti
milovan
milovanovic
milpa
milton
milutin
milutina
milutinovic
milwaukee
mimi
min
mina
minas
minatitla
mind
mine
mineral
minerala
minerali
mineralne
mineralnih
minerva
minesota
minesoti
ming
minhen
minhenu
mini
minijatura
minimalna
minimalne
minimalno
minimalnoj
minimum
miniserija
ministar
ministara
ministarka
ministarstva
ministarstvo
ministarstvu
minister
ministra
ministri
ministrom
ministry
minja
minnesota
minobacac
minogue
minor
minus
minut
minuta
minute
minutes
minuti
minutu
mio
miodrag
miokarda
mir
mira
miracle
mirador
miran
miranda
miraz
miric
miris
mirisa
mirisni
mirisnih
mirjana
mirka
mirko
mirkovic
mirna
mirne
mirni
mirnim
mirno
miro
mirogoj
mirom
miroslav
miroslava
mirovanja
mirovinu
mirovne
mirovni
mirovnih
mirovnim
mirovnog
mirror
miru
mirza
mis
misa
misantla
misao
miscellaneous
mise
misija
misijama
misije
misiji
misiju
misionar
misionara
misionari
misisipi
misisipiju
misle
mislec
misli
mislili
mislilo
mislim
mislio
miss
missing
mission
mississippi
missouri
mister
misterija
misterije
mistic
misu
misuri
misuriju
mit
mita
mitar
mitchell
mitic
miting
mitologija
mitologije
mitologiji
mitolos
mitova
mitove
mitovi
mitovima
mitraljeza
mitropolija
mitropolije
mitropolit
mitropolita
mitrovic
mitrovica
mitrovice
mitrovici
mitu
mix
mixtepec
mj
mjehuric
mjenjac
mjera
mjerama
mjere
mjerenja
mjerenje
mjeri
mjeriti
mjerna
mjerne
mjerni
mjes
mjesec
mjeseca
mjeseci
mjesecima
mjesecu
mjesne
mjesni
mjesnim
mjesnog
mjesta
mjestima
mjesto
mjestom
mjestu
mjuzikl
mjuzikla
mjuzikli
mjuziklu
mk
mksj
ml
mlad
mlada
mlade
mladen
mladena
mladenovac
mladenovic
mladez
mladi
mladic
mladih
mladim
mladima
mladog
mladoj
mladom
mladost
mladosti
mladoz
mladu
mladunaca
mladunc
mladunci
mlaz
mlađa
mlađe
mlađeg
mlađem
mlađi
mlađih
mlađim
mlađu
mlb
mlec
mleka
mleko
mletac
mlijec
mlijeka
mlijeko
mlin
mljet
mm
mme
mmf
mmhg
mn
mnoga
mnoge
mnogi
mnogih
mnogim
mnogima
mnogo
mnogobrojne
mnogobrojni
mnogobrojnih
mnogobrojnim
mnos
mnoz
mo
mobile
mobilizaciju
mobilne
moc
mocorito
moctezuma
mod
moda
mode
model
modela
modele
modeli
modelima
modelom
modelu
modena
moderan
modern
moderna
moderne
moderni
modernih
modernim
modernistic
modernizacija
modernizacije
moderno
modernog
modernoj
modernom
modernu
modi
modifikacija
modifikacije
modni
modric
modrus
modul
modula
mog
mogao
mogla
mogle
mogli
moglo
mogu
moguc
mohac
mohamed
moj
moja
moje
moji
mojsije
mokrac
mol
molbu
moldavija
moldavije
mole
molecular
molekul
molekula
molekularna
molekularne
molekule
molekuli
molekulima
molekulska
molekulske
molekulsku
molekulu
moli
molino
molio
molise
molitva
molitve
molitvi
molitvu
molly
molu
mom
momak
momc
momci
moment
momenta
momentu
mon
mona
monah
monaha
monaka
monarh
monarha
monarhija
monarhije
monarhiji
monarhiju
monarsi
monas
monasi
monde
mondo
money
mongoli
mongolija
mongolije
mongoliji
mongolski
moni
monica
monitor
monk
mono
monografija
monografije
monoksid
monoksida
monooksigenaza
monopol
monroe
mons
monsieur
monster
mont
montana
montani
montaz
monte
montemorelos
montenegro
montes
montgomery
monti
montreal
montrealu
monza
moon
moore
mor
mora
morac
moraju
moral
morala
morale
morales
morali
moralna
moralne
moralni
moralnih
moralnim
moralno
moralnog
moralo
moram
moramo
morao
morati
morava
morave
moravic
moravska
moravske
more
morelia
morelos
morem
moreno
moreplovac
morfolos
morgan
mori
morima
moris
mornar
mornara
mornari
mornaric
mornarica
mornarice
mornarici
mornaricu
morning
moro
morris
morrison
morska
morske
morski
morskih
morskim
morskog
morsku
mort
morton
moru
mos
moscow
moses
moskovski
moskovskom
moskva
moskve
moskvi
moskvu
moslavac
most
mosta
mostar
mostara
mostaru
mostobran
mostom
mostova
mostovi
mostri
mostu
mother
motion
motiv
motiva
motive
motivi
motivima
moto
motor
motora
motore
motori
motorima
motorna
motornih
motornim
motorom
motozintla
mount
mountain
mountains
mouse
movement
movie
movies
moz
mozaik
mozak
mozart
mozel
mozga
mozgu
mp
mr
mrac
mraclin
mraku
mramora
mraz
mrez
mrkonjic
mrlje
mrnjavc
mrs
mrtav
mrtva
mrtvac
mrtve
mrtvi
mrtvih
mrtvo
mrtvog
mrz
mrzi
ms
msn
msv
mt
mtv
mu
muavija
muc
much
mudraca
mudrost
mudrosti
mudz
muhafaza
muhafaze
muhamed
muhameda
muhammad
muka
muke
mula
mulege
mulja
multi
multiple
mun
municije
municiju
munja
munje
mup
mur
murat
murata
murder
mures
murong
murphy
murray
mus
musa
muse
museo
museum
music
musical
muslim
muslimana
muslimane
muslimani
muslimanima
muslimanska
muslimanske
muslimanski
muslimanskih
muslimanskim
muslimansko
muslimanskog
muslimanskom
mussolini
must
mustafa
mutacija
mutacije
muz
muzej
muzeja
muzeji
muzejima
muzeju
muzic
muzici
muzika
muzike
muzikom
muziku
mvp
mw
my
myspace
mystery
myth
mythology
mz
mzis
n
na
nabla
naboj
naboja
nac
nach
nacija
nacijama
nacije
naciju
nacional
nacionalista
nacionalisti
nacionalistic
nacionalizam
nacionalizma
nacionalna
nacionalne
nacionalni
nacionalnih
nacionalnim
nacionalno
nacionalnog
nacionalnoj
nacionalnom
nacionalnosti
nacionalnu
nacista
nacisti
nacistic
nacizma
nacrt
nacrta
nad
nada
nadahnuc
nadajuc
nadal
nadala
nadalje
nadao
nadbiskup
nadbiskupa
nadbiskupi
nadbiskupija
nadbiskupije
nade
nader
nadez
nadgledao
nadgrobni
nadh
nadi
nadimak
nadimkom
nadimku
nadir
nadjac
nadlez
nadmas
nadmoc
nadmorska
nadmorske
nadmorskoj
nadolazec
nadomak
nadovezuje
nadp
nadph
nadraz
nadrealistic
nadu
nadvojvoda
nadz
nadzor
nadzora
nadzornik
nadzorom
nadzvuc
naelektrisanja
naelektrisanje
nafta
nafte
naftna
naftne
naftnih
naftu
nag
nagib
nagiba
naglas
naglasak
naglasio
naglasiti
naglaskom
nagli
naglo
naglog
nagorno
nagoves
nagovor
nagovori
nagovorio
nagovoriti
nagrada
nagradama
nagrade
nagradom
nagradu
nagrađen
nagrađena
nagrađene
nagrađeni
nahije
nailazi
naime
nais
naizgled
naizmenic
naizmjenic
naj
najarit
najava
najavila
najavio
najavljen
najavljeno
najavljuje
najbliz
najbogatijih
najbolja
najbolje
najboljeg
najboljem
najbolji
najboljih
najboljim
najboljom
najbolju
najbrojniji
najbrz
najc
najdraz
najduz
najgledaniji
najgore
najgori
najgus
najistaknutiji
najistaknutijih
najjac
najjednostavniji
najjuz
najkasnije
najkrac
najlaks
najleps
najljeps
najmanja
najmanje
najmanji
najmanju
najmlađa
najmlađi
najmoc
najniz
najnovija
najnovije
najnoviji
najoc
najpopularnija
najpopularniji
najpopularnijih
najpoznatija
najpoznatije
najpoznatiji
najpoznatijih
najpoznatijim
najpre
najprestiz
najprije
najprodavaniji
najranije
najraniji
najranijih
najras
najrazlic
najs
najsnaz
najstarija
najstarije
najstarijeg
najstariji
najstarijih
najstarijim
najtez
najuglednijih
najuspes
najuspjes
najuticajnijih
najutjecajnijih
najuz
najvaz
najvec
najverovatnije
najvis
najvjerojatnije
najvjerovatnije
najz
najzad
najzasluz
najznac
naked
nakit
nakita
naklada
naklonost
naknadno
naknadu
nakon
nakraju
nakratko
naks
nalaz
nalaza
nalaze
nalazi
nalazila
nalazile
nalazili
nalazilo
nalazima
nalazimo
nalazio
nalazis
nalaziti
nalic
nalik
nalikuje
nalog
nalogu
naloz
nam
nama
namaz
namaza
name
namec
namene
namenjen
namenjena
namera
nameravao
namere
nameri
namerno
namerom
nameru
names
namesnik
namesnis
nametnuo
nametnuti
namijenjen
namijenjena
namijenjene
namirnica
namirnice
namjena
namjene
namjenu
namjera
namjerava
namjeravao
namjere
namjeri
namjerno
namjerom
namjeru
namjes
namjesnik
namjesnis
nana
nancy
nanos
nanose
nanosi
nanovo
naoc
naomi
naoruz
napad
napada
napadac
napadaju
napadali
napadao
napadati
napade
napadi
napadima
napadne
napadnu
napadnut
napadnuta
napadom
napadu
napajanja
napajanje
napala
napale
napali
napao
napasti
napetost
napetosti
napis
napisala
napisali
napisan
napisana
napisane
napisani
napisano
napisao
napisati
naplac
napokon
napoleon
napoleona
napoleonova
napoleonskih
napoli
napomena
napomene
napomenuti
napominje
napon
napona
naponom
napor
napora
napore
napori
naporima
napose
naposletku
naposljetku
naprava
naprave
napravi
napravila
napravili
napravio
napraviti
napravljen
napravljena
napravljene
napravljeni
napravljeno
napred
napredak
napredna
napredne
napredni
napredovala
napredovanja
napredovanje
napredovao
napredovati
napreduje
napretka
napretku
naprezanja
naprezanje
naprijed
naprimjer
naprosto
naprotiv
napulj
napulja
napuljskog
napulju
napus
napuste
napusti
napustila
napustile
napustili
napustilo
napustio
napustiti
nara
naranc
narandz
naranjo
naras
narasla
narastao
naraste
narator
narav
naravi
naravno
naredba
naredbe
naredbi
naredbom
naredbu
naredi
naredila
naredio
naredna
naredne
naredni
narednih
narednik
narednim
narednog
narednom
naređenja
naređenje
naređenju
naređeno
naređuje
narjec
naroc
narod
naroda
narode
narodi
narodima
narodna
narodne
narodni
narodnih
narodnim
narodno
narodnog
narodnoj
narodnom
narodnooslobodilac
narodnosti
narodnu
narodom
narodu
naruc
narudz
narus
nas
nasa
nasaud
naselili
naselio
naselja
naseljava
naseljavaju
naseljavali
naseljavanja
naseljavanje
naselje
naseljen
naseljena
naseljene
naseljeni
naseljenih
naseljenika
naseljenim
naseljeno
naseljenosti
naseljima
naselju
naser
nash
nashville
nasilja
nasilje
nasiljem
nasilju
nasilne
nasilno
nasilnog
naslaga
naslage
nasledio
naslednik
naslednika
nasleđe
nasleđuje
naslijedila
naslijedio
naslijediti
naslijeđe
naslikao
nasljednici
nasljednik
nasljednika
nasljednikom
nasljedstvo
nasljeđe
nasljeđivanja
nasljeđuje
naslov
naslova
naslove
naslovi
naslovna
naslovni
naslovnoj
naslovnu
naslovom
naslovu
naspram
nasr
nastajanja
nastajanje
nastaje
nastaju
nastala
nastale
nastali
nastalih
nastalo
nastanak
nastanci
nastane
nastanili
nastanio
nastanjeni
nastanjeno
nastanjivali
nastanjuje
nastanjuju
nastanka
nastanku
nastanu
nastao
nastati
nastava
nastavak
nastavaka
nastavci
nastavcima
nastave
nastavi
nastavila
nastavile
nastavili
nastavilo
nastavio
nastaviti
nastavka
nastavku
nastavlja
nastavljaju
nastavljajuc
nastavljen
nastavljena
nastavljeno
nastavna
nastavni
nastavnik
nastavnika
nastavu
nastojala
nastojale
nastojali
nastojanja
nastojanje
nastojanjem
nastojanjima
nastojanju
nastojao
nastoje
nastojec
nastoji
nastup
nastupa
nastupaju
nastupajuc
nastupala
nastupali
nastupanje
nastupao
nastupati
nastupe
nastupi
nastupila
nastupili
nastupima
nastupio
nastupiti
nastupom
nastupu
nasumic
nasuprot
nat
natalie
natalija
natas
nathan
nation
national
nations
native
natjec
natjecanja
natjecanje
natjecanjima
natjecanju
natjecao
natjerao
natjerati
nato
natpis
natpisa
natpisi
natpisima
natpisom
natpisu
natrag
natrijum
natrijuma
natural
nature
nauc
nauci
nauk
nauka
naukama
nauke
nauku
naus
nautic
naval
navare
navarro
navec
naveden
navedena
navedene
navedeni
navedenih
navedenim
navedeno
navedenog
navela
naveli
navelo
naveo
navesti
navigacijske
navigacijski
navigacioni
navijac
navika
navike
navis
navode
navodec
navodi
navodima
navodne
navodni
navodnjavanja
navodnjavanje
navodno
navodnog
navoja
navojoa
navolato
navođen
navođenje
navrata
navrs
navy
nayar
nayarit
naz
nazad
naziv
naziva
nazivaju
nazivajuc
nazivala
nazivali
nazivamo
nazivan
nazivana
nazivani
nazivao
nazivati
nazive
nazivi
nazivima
nazivom
nazivu
naznac
naznake
nazoc
nazor
nazvala
nazvali
nazvan
nazvana
nazvane
nazvani
nazvano
nazvanog
nazvanu
nazvao
nazvati
nazvavs
nađe
nađen
nađena
nađene
nađeni
nađeno
nađu
nb
nba
nbc
nc
ncatl
nchen
nchenu
nchez
ncis
nd
ndaro
nde
ndez
ndh
ne
nea
neal
near
neba
nebesa
nebeska
nebeske
nebeski
nebeskih
nebeskim
nebesko
nebeskog
nebeskoj
nebeskom
nebesku
nebo
neboder
nebodera
nebojs
nebom
nebraska
nebraski
nebu
nec
ned
neda
nedac
nedaleko
nedavna
nedavno
nedelja
nedelje
nedeljkovic
nedelju
nedic
nedjelja
nedjelje
nedjeljom
nedjelju
nedostaci
nedostajalo
nedostaje
nedostaju
nedostatak
nedostataka
nedostatka
nedostatke
nedostatkom
nedostatku
nedovoljno
nedovrs
nedugo
neduz
nedz
need
nega
negativan
negativna
negativne
negativni
negativnih
negativnim
negativno
negativnog
negativnu
negde
negdje
nego
negotin
negro
nehrđajuc
neil
neill
neizbez
neizbjez
nejasno
nejednakosti
nek
neka
nekad
nekada
nekadas
nekako
nekar
neke
neki
nekih
nekim
nekima
neko
nekoc
nekog
nekoga
nekoj
nekolicina
nekolicine
nekoliko
nekom
nekropola
nekropole
nekropoli
neku
nel
nell
nelson
nem
nema
nemac
nemaca
nemaju
nemanja
nemanje
nemanjic
nematerijalna
nemce
nemci
nemcima
nemilost
nemira
nemiri
nemoc
nemoguc
nen
nenad
nenadovic
nenaveden
neo
neobavezno
neobic
neobjas
neoc
neodluc
neogranic
neoklasicistic
neolita
neophodan
neophodna
neophodne
neophodni
neophodno
neopredijeljeni
neorganska
neovisna
neovisno
neovisnost
neovisnosti
nepal
nepokoreni
nepomic
nepos
neposlus
neposredne
neposredni
neposredno
neposrednoj
neposrednom
neposrednu
nepostojec
nepoz
nepoznat
nepoznata
nepoznate
nepoznati
nepoznatih
nepoznato
nepoznatog
nepoznatom
nepravilna
nepravilne
nepravilno
nepravilnog
nepravilnosti
neprekidno
neprestano
neprijatelj
neprijatelja
neprijatelje
neprijateljem
neprijatelji
neprijateljima
neprijateljska
neprijateljske
neprijateljski
neprijateljskih
neprijateljskim
neprijateljstva
neprijateljstvo
neprijatelju
nepristupac
neptun
nepunih
nera
nerazjas
nereda
nerede
neredi
neres
neretko
neretvanskoj
neretve
neretvi
neri
nerijes
nerijetko
nero
neron
nerona
nervni
nervnog
nervnom
nes
nesavrs
nesigurnost
neslaganja
neslaganje
nesluz
nesmetano
nespecific
nespecificiran
nespecificirana
nespecificirane
nespecificirani
nespecificiranim
nesposobnost
nesrec
nestabilnost
nestabilnosti
nestaje
nestaju
nestala
nestale
nestali
nestalih
nestalo
nestanak
nestane
nestanka
nestao
nestas
nestati
nesuglasica
nesuglasice
nesumnjivo
nesvrstanih
net
netac
netko
neto
netoc
netom
network
neue
neuobic
neupuc
neurolos
neurona
neuronski
neurotransmitere
neuspeh
neuspeha
neuspes
neuspjeh
neuspjeha
neuspjelog
neuspjes
neutralna
neutralne
neutralni
neutralnost
neutrona
neutroni
nevada
nevadi
nevaz
neven
never
nevesinje
nevinost
nevjerojatno
nevladine
nevolja
nevolje
nevoljko
new
newcastle
newman
news
newspaper
newton
next
nez
nezadovoljan
nezadovoljni
nezadovoljstva
nezadovoljstvo
nezaposlenost
nezaposlenosti
nezasic
nezavisan
nezavisna
nezavisne
nezavisni
nezavisnih
nezavisnim
nezavisno
nezavisnog
nezavisnoj
nezavisnost
nezavisnosti
nezavisnu
nezgoda
nezgodi
neznatno
nezvanic
nfl
ng
nga
ngc
ngel
ngeles
nh
nhl
ni
nia
nic
nica
nicama
nice
nicholas
nichols
nicholson
nicht
nici
nicima
nick
nicola
nicolas
nicole
nicom
nicu
nie
nietzsche
nigdje
nigel
niger
nigerija
nigeriji
night
nights
nih
nija
nije
nijedan
nijedna
nijedno
nijednu
nijeg
nijem
nijema
nijemaca
nijemci
nijemcima
nijemi
niji
nijih
nijim
nijom
niju
nik
nika
nikad
nikada
nikakav
nikako
nikakva
nikakve
nikakvih
nikakvo
nikakvog
nikakvu
nike
nikita
nikla
niko
nikoga
nikola
nikolaj
nikolaja
nikolajevic
nikole
nikoli
nikolic
nikolom
nikolu
nikom
nikome
niks
niku
nil
nila
nim
nima
nimalo
nimo
nin
nina
nine
ninguno
nino
nintendo
ninu
nio
nipas
niro
nis
nisam
nisi
niska
niske
niski
niskih
niskim
nisko
niskobudz
niskog
niskom
nisku
nismo
nissan
nisu
nit
niti
nitko
nitrat
nitrili
nitro
nivo
nivoa
nivoe
nivoi
nivoima
nivou
nixon
niz
niza
nizak
nizije
nizine
nizom
nizova
nizovi
nizozemska
nizozemske
nizozemski
nizozemskog
nizozemskoj
nizozemskom
nizozemsku
nizu
nizvodno
nj
nja
njac
njaci
njacima
njak
njaka
njake
njama
njamc
njamo
njan
njava
njavaju
njavajuc
njavanja
njavanje
njavao
nje
njeg
njega
njegos
njegov
njegova
njegove
njegovi
njegovih
njegovim
njegovo
njegovog
njegovoj
njegovom
njegovu
njem
njemac
njemu
njen
njena
njene
njeni
njenih
njenim
njenja
njenje
njenjem
njeno
njenog
njenoj
njenom
njenu
njez
njezin
njezina
njezine
njezini
njezinih
njezinim
njezino
njezinog
njezinoj
njezinom
njezinu
nji
njic
njica
njice
njicu
njih
njihov
njihova
njihove
njihovi
njihovih
njihovim
njihovo
njihovog
njihovoj
njihovom
njihovu
njim
njima
njime
njitranski
njitranskom
njiva
njive
njoj
njom
njome
njost
njosti
nju
njujork
njujorka
njujorku
njujors
njus
njutn
nk
nkvd
nl
nlo
nm
nn
no
noafric
noameric
nob
nobel
nobelova
nobelovac
nobelovci
nobelove
nobelovu
noc
nochistla
nocupe
node
noe
noel
nog
noga
nogales
nogama
noge
nogom
nogomet
nogometa
nogometas
nogometna
nogometne
nogometni
nogometnih
nogometnog
nogometnom
nogometnu
nogometu
nogu
noir
noj
nojs
nolan
nolit
nom
noma
nomadski
nome
nomen
nomenklatura
nominacija
nominacije
nominaciju
nominalni
nominalno
nominiran
nominirana
nominovan
nominovana
non
none
nop
nopala
nor
nora
nord
nordfrizland
nordijska
nordvestmeklenburg
norfolk
noria
norimski
norma
normalan
normalna
normalne
normalni
normalnih
normalnim
normalno
normalnog
normalnom
normalnu
norman
normana
normandija
normandije
normandiji
normani
normanski
norme
normi
nort
norte
north
northern
norton
norves
nos
nosa
nosac
nose
nosec
nosi
nosila
nosilac
nosile
nosili
nosio
nosioca
nosioci
nositelj
nositi
nosnika
nost
nosti
nostima
nosu
not
nota
notc
note
notes
nothing
notoc
notranjsko
notranjskoj
notre
nou
nov
nova
novac
novaca
novaci
novak
novaka
novakovic
novara
novc
novca
novcem
novcu
nove
novel
novela
novele
novembar
november
novembra
novembru
novi
novih
novija
novije
noviji
novijim
novim
novina
novinama
novinar
novinara
novinare
novinari
novinarima
novinarka
novinarstva
novinarstvo
novine
novinski
novj
novo
novog
novoga
novogodis
novoj
novom
novoosnovane
novorođenc
novosti
novotvorina
novozelandski
novu
now
noz
np
npr
nr
ns
nsa
nt
nu
nuclear
nuco
nude
nudi
nudio
nueva
nuevo
nuit
nuklearna
nuklearne
nuklearni
nuklearnih
nuklearnim
nuklearno
nuklearnog
nuklearnoj
nuklearnom
nuklearnu
nukleotida
nula
nule
nuli
number
numbers
numelor
numeric
nun
nuova
nuovo
nur
nus
nuspojave
nuts
nuz
ny
nyt
nytimes
o
oa
oahaka
oak
oakan
oara
oaxaca
oaza
oaze
ob
oba
obala
obalama
obale
obali
obalna
obalne
obalni
obalnih
obalom
obalu
obama
obaves
obavestio
obaveza
obavezan
obaveze
obavezna
obavezni
obavezno
obavezu
obavi
obavio
obaviti
obavjes
obavlja
obavljaju
obavljala
obavljali
obavljanja
obavljanje
obavljao
obavljati
obavljena
obc
obe
obec
obelez
obes
obezbedi
obezbedio
obezbeđuje
obi
obic
obilazak
obilazi
obilic
obilje
obiljez
obiluje
obim
obima
obimu
obis
obitava
obitavaju
obitelj
obitelji
obiteljska
obiteljske
obiteljski
obiteljskih
obiteljskom
obituary
objas
objasni
objasnio
objasniti
objava
objave
objavi
objavila
objavile
objavili
objavio
objaviti
objavljen
objavljena
objavljene
objavljeni
objavljenih
objavljeno
objavljenom
objavljivanja
objavljivanje
objavljivanjem
objavljivao
objavljuje
objavljuju
obje
objekat
objekata
objekt
objekta
objekte
objekti
objektima
objektiva
objektu
objes
oblac
oblaci
oblacima
oblak
oblaka
oblasnog
oblast
oblasti
oblastima
oblic
oblici
oblicima
oblik
oblika
oblike
oblikom
oblikovana
oblikovanja
oblikovanje
oblikovanju
obliku
oblikuje
oblikuju
obliz
obljetnice
obloz
obnas
obnavlja
obnavljanje
obnova
obnove
obnovi
obnovili
obnovio
obnoviti
obnovljen
obnovljena
obnovljene
obnovljeni
obnovljeno
obnovu
obodu
obogac
oboje
obojica
obolelih
obolio
oboljenja
oboljenje
oboren
oborina
oborio
oboz
obrac
obrada
obrade
obradi
obradio
obradom
obradovic
obradu
obrambene
obrambeni
obrana
obrane
obrani
obranio
obraniti
obranu
obratio
obratiti
obratno
obraz
obrazac
obrazloz
obrazovan
obrazovana
obrazovanja
obrazovanje
obrazovanju
obrazovao
obrazovne
obrazovni
obrazovnih
obrazuje
obrazuju
obrađena
obrađuje
obrađuju
obred
obreda
obrede
obredima
obrego
obrenovic
obrnuto
obronaka
obroncima
obrt
obrtnic
obruc
obrus
obuc
obuhvac
obuhvata
obuhvataju
obuhvatala
obuhvatao
obujam
obujma
obuke
obuku
obzir
obzira
obzirom
obzor
obzora
oc
oca
ocampo
ocean
oceana
oceaniji
oceanu
ocem
ocenjuje
oci
ocjena
ocjene
ocjenu
ocl
oclc
ocosingo
ocotepec
ocozocoautla
oct
october
ocu
od
oda
odabir
odabrali
odabran
odabrana
odabrao
odaje
odaju
odakle
odanost
odao
odas
odatle
odavde
odavno
odbac
odbacila
odbacili
odbacio
odbaciti
odbacivanje
odbacuje
odbacuju
odbija
odbijaju
odbijali
odbijanja
odbijanje
odbijao
odbije
odbijen
odbijena
odbijeni
odbila
odbile
odbili
odbio
odbiti
odbojkas
odbor
odbora
odbori
odboru
odbrambene
odbrambeni
odbrana
odbrane
odbrani
odbranio
odbranu
ode
odec
odeljenja
odeljenje
oder
odgoj
odgoja
odgovara
odgovaraju
odgovarajuc
odgovarala
odgovaralo
odgovarao
odgovor
odgovora
odgovoran
odgovore
odgovori
odgovorila
odgovorio
odgovoriti
odgovorna
odgovorne
odgovorni
odgovornim
odgovornost
odgovornosti
odgovoru
odigrala
odigrali
odigrana
odigrao
odigrati
odigrava
odijelo
odisej
odiseja
odjec
odjednom
odjek
odjel
odjela
odjelu
odlagalis
odlaganje
odlaska
odlaskom
odlasku
odlazak
odlaze
odlazi
odlazili
odlic
odlika
odlike
odlikovan
odlikovana
odlikovanja
odlikovanje
odlikovao
odlikuje
odlikuju
odlomak
odloz
odluc
odluci
odluka
odlukama
odluke
odlukom
odluku
odmah
odmaralis
odmazde
odmor
odmora
odmori
odn
odneo
odnijela
odnijeli
odnio
odnos
odnosa
odnose
odnosi
odnosila
odnosilo
odnosima
odnosio
odnositi
odnosno
odnosom
odnosu
odobrava
odobren
odobrenja
odobrenje
odobrila
odobrio
odozgo
odrasla
odrasle
odrasli
odraslih
odraslog
odrastao
odraz
odrazilo
odrec
odred
odreda
odredbama
odredbe
odredbi
odrede
odredi
odredila
odredima
odredio
odredis
odrediti
odrednica
odrekao
odrekne
određen
određena
određene
određeni
određenih
određenim
određeno
određenog
određenoj
određenom
određenu
određivanja
određivanje
određivanju
određuje
određuju
odric
odrz
ods
odsec
odsek
odseka
odsjec
odsjek
odsjeka
odsjeku
odsluz
odsto
odstupanja
odstupanje
odsustva
odsustvo
odsustvu
odtad
odu
odus
odustaje
odustala
odustali
odustane
odustao
odustati
oduvek
oduvijek
oduz
oduzeo
oduzeta
oduzeti
oduzima
oduzimanje
odvaja
odvajaju
odvajanja
odvajanje
odvajanjem
odvaz
odvede
odveden
odvedeni
odveli
odveo
odvesti
odvija
odvijaju
odvijala
odvijao
odvijati
odvjetnik
odvjetnika
odvode
odvodi
odvojen
odvojena
odvojene
odvojeni
odvojeno
odvojila
odvojio
odvojiti
odvrac
odz
of
ofanziva
ofanzive
ofanzivi
ofanzivu
ofenziva
ofenzive
ofenzivu
off
office
official
oficir
oficira
oficire
oficiri
oficirima
og
oglas
ogleda
ogledala
ogledalo
ogledi
ognjen
ognjis
ogorc
ograda
ograde
ogranak
ogranci
ogranic
ogranka
ogremon
ogroman
ogromna
ogromne
ogromni
ogromnim
ogromno
ogromnog
ogromnom
ogromnu
ogrtac
oh
ohajo
ohaju
ohio
ohrid
ohridski
ohridskog
oi
oil
ois
oise
oj
ojac
ojo
ok
oka
okean
okeana
okeanu
okic
oklahoma
oklahomi
oklop
oklopa
oklopna
oklopne
oklopni
oklopnih
oklopno
oklopom
oko
okolica
okolice
okolici
okolicom
okolicu
okolina
okoline
okolini
okolinom
okolinu
okolis
okolna
okolne
okolni
okolnih
okolnim
okolnog
okolnosti
okolnostima
okom
okomita
okomito
okonc
okrec
okrene
okrenula
okrenuli
okrenuo
okrenut
okrenuta
okrenuti
okretaja
okretanja
okretanje
okretati
okriljem
okrs
okrug
okruga
okruge
okrugli
okruglog
okrugom
okrugu
okrunio
okrunjen
okruz
okruzi
okruzima
oksid
oksida
oksidacija
oksidacije
oksidaza
oksidi
oksidoreduktaza
okso
oksoglutarat
okt
oktavijan
oktavijana
oktobar
oktobarske
oktobra
oktobru
oku
okuc
okupacija
okupacije
okupaciji
okupacijom
okupaciju
okupacione
okupatora
okupila
okupili
okupilo
okupio
okupirala
okupirale
okupirali
okupirane
okupiranoj
okupiti
okuplja
okupljaju
okupljanja
okupljanje
okupljeni
okupljenih
okus
okvir
okvira
okvire
okvirima
okvirno
okviru
ol
ola
olaks
old
ole
oleg
olfaktorni
olfaktornih
olga
oli
olic
olimpijada
olimpijade
olimpijadi
olimpijci
olimpijske
olimpijski
olimpijskih
olimpijskim
olimpijskog
olinala
oliver
olivera
olivia
olivier
olova
olovo
olt
oltar
oltara
oluja
oluje
oluji
om
oman
omar
omega
omer
omiljena
omiljeni
omis
omjer
omjera
omjerom
omjeru
omladina
omladine
omladinske
omladinski
omnibus
omoguc
omotac
omraz
on
ona
onaj
onako
once
onda
ondas
ondje
one
onec
onemoguc
ones
oni
onih
onim
onima
onlajn
online
only
ono
onog
onoga
onoj
onoliko
onom
onome
ons
onson
ontariju
ontario
onu
op
opada
opadanja
opadanje
opala
opao
opasan
opasna
opasne
opasni
opasnih
opasnim
opasno
opasnost
opasnosti
opat
opata
opatija
opatije
opatiji
opatiju
opaz
opc
opcija
opcije
opciju
opeka
opeke
opekotina
opekotine
open
opena
opera
operacija
operacijama
operacije
operaciji
operacijom
operaciju
operation
operativna
operativne
operativni
operativnih
operativno
operativnog
operativnu
operator
operatorname
opere
operi
operna
operni
operski
operu
opet
opic
opis
opisa
opisala
opisali
opisan
opisana
opisane
opisani
opisano
opisao
opisati
opisi
opisima
opisivanje
opisivao
opisom
opisu
opisuje
opisuju
opisujuc
opkolili
opljac
opne
oponas
oporavak
oporavio
oporavka
opozicija
opozicije
opoziciji
opoziciju
opras
opravdanje
oprema
opreme
opremi
opremljen
opremljena
opremljene
opremljeni
opremom
opremu
opros
oprost
oprosti
oprostio
opruga
opruge
ops
opsada
opsade
opsadi
opsadom
opsadu
opseg
opsega
opsegu
opsez
opsjednut
opskrbu
opsluz
opstanak
opterec
optic
optika
optuz
opus
opusa
opustos
opusu
or
ora
oral
orange
oranje
orao
oras
orba
orbita
orbitalni
orbite
orbiti
orbitom
orbitu
orchestra
orden
ordena
ordenom
order
ordz
oregon
oregonu
ores
orest
orfej
org
organ
organa
organe
organi
organic
organima
organizacija
organizacijama
organizacije
organizaciji
organizacijom
organizaciju
organizam
organizama
organization
organizator
organizatora
organizatori
organizira
organiziraju
organizirala
organizirali
organiziran
organizirana
organizirane
organizirani
organizirano
organizirao
organizirati
organizma
organizme
organizmi
organizmima
organizmu
organizovala
organizovali
organizovan
organizovana
organizovane
organizovani
organizovanje
organizovanju
organizovano
organizovao
organizuje
organizuju
organobromidi
organofluoridi
organohloridi
organska
organske
organski
organskih
organskim
organsko
orguljas
orgulje
orient
oriental
orientation
origin
original
originala
originalna
originalne
originalni
originalnih
originalnim
originalno
originalnog
originalnoj
originalnom
originalnu
originalu
origins
orijent
orijentacija
orijentacije
orijentaciju
orion
oristano
orkestar
orkestra
orkestrom
orla
orlando
orle
orleans
orn
oro
orovic
ors
ortega
oruz
oruđa
oruđe
orz
os
osa
osam
osamdesetih
osamnaest
osamostaljenja
oscar
oscara
oscarom
oscilacije
ose
osec
osi
osic
osigura
osigurala
osigurali
osiguranja
osiguranje
osigurao
osigurati
osigurava
osiguravajuc
osijek
osijeka
osijeku
osim
osiromas
osjec
osjetila
osjetio
osjetljivost
oskar
oskara
oskudni
oslanja
oslanjaju
oslanjajuc
oslanjao
oslikao
oslo
oslobađa
oslobađaju
oslobađajuc
oslobađanja
oslobađanje
oslobađanju
oslobode
oslobodi
oslobodila
oslobodilac
oslobodile
oslobodili
oslobodio
osloboditi
oslobođen
oslobođena
oslobođeni
oslobođenja
oslobođenje
oslobođenju
oslobođeno
oslonac
oslu
osma
osman
osmana
osmanlija
osmanlijama
osmanlije
osmanlijskog
osmanska
osmanske
osmanski
osmanskih
osmanskim
osmansko
osmanskog
osmanskom
osmansku
osmatrac
osme
osmi
osmis
osmislio
osmo
osmog
osmogodis
osmom
osnaz
osniva
osnivac
osnivaju
osnivanja
osnivanje
osnivanjem
osnivanju
osnov
osnova
osnovala
osnovali
osnovama
osnovan
osnovana
osnovane
osnovani
osnovano
osnovao
osnovati
osnove
osnovi
osnovna
osnovne
osnovni
osnovnih
osnovnim
osnovno
osnovnog
osnovnoj
osnovnom
osnovnu
osnovu
osnuje
osnutka
osoba
osobama
osobe
osobi
osobina
osobinama
osobine
osobinu
osobito
osoblja
osoblje
osobna
osobne
osobni
osobnih
osobnim
osobno
osobom
osobu
osovina
osovine
osovinske
osovinskih
ossola
ostaci
ostacima
ostaje
ostaju
ostakovic
ostala
ostale
ostali
ostalih
ostalim
ostalima
ostalo
ostalog
ostanak
ostane
ostanu
ostao
ostatak
ostataka
ostatci
ostati
ostatka
ostatke
ostatkom
ostatku
ostave
ostavi
ostavila
ostavili
ostavilo
ostavio
ostaviti
ostavivs
ostavke
ostavku
ostavlja
ostavljaju
ostavljajuc
ostavljen
ostavs
ostforpomern
ostoja
ostojic
ostros
ostrva
ostrvima
ostrvo
ostrvskoj
ostrvu
ostvaren
ostvarena
ostvarenja
ostvarenje
ostvarenjima
ostvari
ostvarila
ostvarili
ostvario
ostvariti
ostvarivanje
ostvaruje
ostvaruju
osude
osudili
osudio
osumnjic
osus
osuđen
osuđena
osuđeni
osuđeno
osuđuje
osvaja
osvajac
osvajaju
osvajanja
osvajanje
osvajanjem
osvajanju
osvajao
osvec
osveta
osvete
osveti
osvetio
osvetiti
osvetu
osvjez
osvoje
osvojen
osvojena
osvojene
osvojeni
osvojenih
osvoji
osvojila
osvojile
osvojili
osvojio
osvojiti
osvojivs
osvrt
oswald
ot
ota
otac
otaca
otada
otadz
oteli
oteo
oteti
otez
other
otho
otic
otima
otis
otkad
otkako
otkaz
otklon
otkric
otkrije
otkriju
otkrila
otkrili
otkrilo
otkrio
otkriti
otkriva
otkrivaju
otkrivanja
otkrivanje
otkrivanju
otkriven
otkrivena
otkrivene
otkriveni
otkriveno
otkup
otkupio
otmic
otmica
otmice
oto
otoc
otoci
otocima
otok
otoka
otoke
otokom
otoku
otomanske
otomanski
otomanskog
oton
otona
otopina
otopine
otpad
otpada
otpadnih
otpoc
otpor
otpora
otpornost
otpornosti
otporom
otporu
otprilike
otpus
otputovao
otrov
otrova
otrovan
otrovne
ottawa
otto
ottoman
otuda
otvara
otvaraju
otvaranja
otvaranje
otvaranjem
otvaranju
otvor
otvora
otvore
otvoren
otvorena
otvorene
otvoreni
otvorenih
otvorenim
otvoreno
otvorenog
otvorenom
otvorenu
otvori
otvorila
otvorili
otvorio
otvoriti
ou
oun
ouns
our
out
outstanding
ov
ova
ovaca
ovagovic
ovaj
ovakav
ovako
ovakva
ovakve
ovakvi
ovakvih
ovakvim
ovakvo
ovakvog
ovan
ovani
ovc
ovca
ovce
ovde
ovdje
ove
ovec
ovek
oveka
oveku
over
overline
overnja
overrightarrow
overview
ovi
ovic
ovidije
ovih
ovim
ovise
ovisi
ovisno
ovisnost
ovisnosti
ovite
oviti
ovito
ovjec
ovjek
ovjeka
ovjekom
ovjeku
ovk
ovlas
ovlasti
ovo
ovog
ovoga
ovoj
ovom
ovome
ovski
ovskom
ovu
owen
own
oxchuc
oxford
oxfordu
oxygen
oz
ozbiljan
ozbiljna
ozbiljne
ozbiljnih
ozbiljnije
ozbiljnim
ozbiljno
ozbiljnu
ozef
ozlijeđen
ozlijeđena
ozljeda
ozljede
oznac
oznaka
oznakama
oznake
oznakom
oznaku
ozon
ozrac
ozren
ozuluama
p
pa
pabello
pablo
pac
pacific
pacifika
pacifiku
pacijenata
pacijent
pacijenta
pacijente
pacijenti
pacijentima
pack
pacova
pad
pada
padaju
padalina
padavina
padavine
padez
padina
padinama
padine
padini
padne
padom
padova
padovi
padu
page
pages
pahlavi
pain
pak
pakao
paket
paketa
pakistan
pakistana
pakistanu
pakla
paklu
pakrac
pakt
pakta
paktu
pal
pala
palac
palace
palacio
palanka
palata
palate
palati
palatinat
palatu
palazzo
pale
palenque
paleolog
palermo
palestina
palestinaca
palestine
palestini
palestinske
palestinski
palestinu
palgrave
pali
palicom
palilula
palim
paljenja
paljenje
palladio
pallares
palma
palmar
palmas
palme
palmer
palmu
palo
palomas
pam
pamc
pamela
pamti
pamuk
pamuka
pan
panac
panama
paname
panc
panci
panda
pandan
pandz
panel
panic
panija
panije
paniji
paniju
panika
paniku
panjolaca
panjolci
panjolska
panjolske
panjolski
panjolskih
panjolskim
panjolsko
panjolskog
panjolskoj
panjolskom
panjolsku
panonije
panonske
panorama
panska
panske
panski
panskih
panskim
pansko
panskog
panskoj
panskom
pansku
pantelho
pantepec
pantic
panzer
pao
paola
paolo
papa
papantla
papasquiaro
pape
paper
paperback
papers
papi
papinske
papir
papira
papiru
papom
papu
papua
par
para
parac
parada
parade
paradise
paradoks
paragraf
paragvaj
parai
paralela
paralele
paralelna
paralelne
paralelni
paralelnih
paralelno
parametar
parametara
parametri
paramount
paravojne
paravojnih
parc
parcijalni
pare
parenja
parenje
parhim
pari
paris
pariski
pariz
pariza
parizu
park
parka
parker
parkom
parkova
parkovi
parkovima
parks
parku
parlament
parlamenta
parlamentarna
parlamentarne
parlamentarni
parlamentarnih
parlamentarnim
parlamentu
parliament
parma
parme
parna
parne
parni
parnog
parobrod
parodija
parohija
parohije
parom
parova
parove
parovi
parovima
parsons
part
partial
partija
partije
partiji
partijom
partijske
partijski
partijskih
partijskim
partijskog
partiju
partizan
partizana
partizane
partizani
partizanima
partizanska
partizanske
partizanski
partizanskih
partizanskim
partizanskog
partizanskom
partner
partnera
partneri
partnerom
partnerstva
partnerstvo
partnerstvu
parts
party
paru
pas
pasa
pascal
pasivno
paskal
paso
pasos
pass
passion
past
pasti
pastir
pastira
pastor
pat
pate
patent
patentirao
pati
patients
patio
patka
patke
patnje
patolos
patricia
patrick
patrijarh
patrijarha
patrijarhom
patrijars
patrijarsi
patrik
patti
pau
paul
paula
pauline
paulo
paulu
paun
paunovic
pausanija
pauze
pavao
pavel
pavelic
pavia
pavic
paviljon
pavkovic
pavla
pavle
pavlic
pavlovic
pavlu
paz
pazar
pb
pbs
pc
pdf
pe
peace
pearl
pearson
pec
peck
pedagog
pedagos
pedagozi
pedeset
pedesetak
pedesetih
pedra
pedregal
pedro
pegaz
peggy
pehar
pejac
pejzaz
peking
pekinga
pekingu
pekins
pektoris
pelagonije
peljes
peloponeski
peloponeskog
peloponez
peloponeza
peloponezu
pen
penelope
penguin
penguina
penis
penisa
penjac
penje
penn
pennsylvania
penny
pensilvanija
pensilvaniji
penziju
people
pepela
pepeo
peptid
peptida
peptidni
per
pera
peraja
peraje
percepciju
percy
pere
perfect
performance
performanse
performansi
peric
periferiji
periferni
perihel
period
perioda
periode
periodi
periodic
periodima
periodom
periodu
peris
perja
perje
perkins
perkovic
perla
pero
perovic
perry
pers
persepolis
persian
persije
persijski
persijskog
personal
perspective
perspectives
perspektiva
perspektive
perspektivu
peru
perua
peruanski
perugia
perus
peruu
perz
perzej
perzijanaca
perzijanci
perzije
perziji
perzijska
perzijske
perzijski
perzijskih
perzijskim
perzijsko
perzijskog
perzijskom
perzijsku
perziju
pes
pesama
pesaro
pescara
pesma
pesmama
pesme
pesmi
pesmom
pesmu
pesnic
pesnici
pesnik
pesnika
pesnis
pet
peta
petak
petar
petatla
pete
peter
petera
peterburg
peterburgu
peters
peterson
peti
petit
petka
petkovic
petlja
petlje
petlji
petlovac
petnaest
petnaestak
peto
petog
petogodis
petoj
petom
petorica
petoro
petra
petranovic
petric
petrinja
petrogradu
petrom
petrov
petrova
petrovac
petrovca
petrovic
petrovo
petru
petrus
petu
peva
pevac
pevanja
pez
pg
pgc
pgp
ph
phantom
pharmacol
pharmacology
phi
phil
philadelphia
philip
philipp
philippe
phillips
philosophical
philosophy
phnom
phoenix
photo
photographs
photos
php
phyllis
physical
physics
physiol
pi
pia
piacenza
piano
piazza
pic
pica
picard
picasso
pice
piceno
pici
picture
pictures
pie
piedra
piedras
piemonte
pier
pierce
piero
pierre
pierrea
pietra
pietro
pigmenti
pij
pija
pijade
pijanist
pijanista
pije
pijemont
pijesak
pijeska
pijijiapan
pijun
pijunaz
pijunski
pik
pikardija
piksel
pila
pilar
pilas
pile
pilja
pilje
pilot
pilota
piloti
pin
pinal
pine
ping
pingvina
pingvini
pink
pino
pinos
pinus
pinyin
pinzo
pio
pionir
pionira
pioniri
piperazini
piperidini
pipin
pir
piramida
piramide
pirata
pirate
pirati
piridini
pirineji
pirolidini
pirot
pirotskom
piruvat
pis
pisa
pisac
pisaca
pisala
pisali
pisalo
pisama
pisan
pisana
pisane
pisani
pisanih
pisanim
pisanja
pisanje
pisanjem
pisanju
pisano
pisao
pisar
pisati
pisca
pisce
pisci
piscima
piscu
pisma
pismenosti
pismima
pismo
pismom
pismu
pistoia
pit
pita
pitali
pitanja
pitanje
pitanjem
pitanjima
pitanju
pitao
piter
pitke
pitt
pittsburgh
piva
pivo
pjer
pjes
pjesama
pjesma
pjesmama
pjesme
pjesmi
pjesmom
pjesmu
pjesnic
pjesnici
pjesnik
pjesnika
pjesnikinja
pjesnis
pjeva
pjevac
pjevaju
pjevala
pjevanja
pjevanje
pjevao
pjevati
pk
pl
pla
plac
place
places
plamen
plamena
plamenu
plan
plana
plane
planet
planeta
planete
planeti
planetoida
planetu
planina
planinama
planinarski
planine
planini
planinska
planinske
planinski
planinskih
planinskim
planinsko
planinskog
planinskom
planinu
planira
planiraju
planirali
planiran
planirana
planirani
planiranja
planiranje
planirano
planirao
planom
planova
planove
planovi
planovima
plant
plantaz
plants
planu
plas
plasirala
plasirao
plasman
plasmanu
plastic
plastika
plastike
plata
plate
platforma
platforme
platformi
platformu
plati
platio
platiti
platna
platno
platnu
plato
platoa
platon
platona
platou
plaut
plava
plave
plavi
plavim
plavo
plavog
plavom
plavu
plavus
play
playa
playas
player
players
plays
plaz
plaza
plazma
plazme
plazmi
please
plej
pleme
plemena
plemenima
plemeniti
plemenitih
plemenom
plemenske
plemenski
plemenskih
plemenskog
plemenu
plemic
plemkinja
plemstva
plemstvo
plen
plenum
ples
plesa
plesac
pleseck
plesne
plesovi
plic
plijen
plijena
plime
plin
plina
plinije
plinom
plinova
plinovi
plitvic
pliva
plivac
plivanje
pljac
pljevlja
pljuvac
plo
ploc
plod
ploda
plodan
plodna
plodne
plodno
plodnoj
plodnosti
plodom
plodova
plodove
plodovi
ploha
plohe
plos
plotarea
plotdata
plovi
plovidba
plovidbe
plovidbu
plovila
plovna
pluc
plus
plutarh
pluto
pluton
plymouth
pm
pmid
pne
png
po
poatu
pobac
pobeda
pobede
pobedi
pobedila
pobedili
pobedio
pobedivs
pobednic
pobednici
pobednik
pobednika
pobedom
pobedu
pobegao
pobegli
pobegne
pobeđuje
pobijedila
pobijedili
pobijedio
pobijediti
pobijedivs
pobijeni
pobili
pobio
pobjec
pobjeda
pobjede
pobjedi
pobjedio
pobjednic
pobjednici
pobjednik
pobjednika
pobjedom
pobjedu
pobjegao
pobjegla
pobjegli
pobjegne
pobjeđuje
pobjeđuju
poboljs
poboz
pobratimski
pobuna
pobune
pobuni
pobunili
pobunio
pobunjeni
pobunjenic
pobunjenici
pobunjenicima
pobunjenih
pobunjenika
pobunjenike
pobunom
pobunu
poc
pochutla
pod
poda
podaci
podacima
podanici
podanicima
podanika
podatak
podataka
podatci
podatke
podc
podela
podele
podeli
podelio
podeliti
podeljen
podeljena
podeljene
podeljeni
podeljeno
podelu
podes
podgorac
podgorica
podgorice
podgorici
podgrupa
podic
podigao
podigla
podigli
podigne
podignut
podignuta
podignute
podignuti
podignuto
podijelila
podijelili
podijelio
podijeliti
podijeljen
podijeljena
podijeljene
podijeljeni
podijeljeno
podiz
podizanja
podizanje
podizanju
podjedinica
podjedinice
podjednako
podjela
podjele
podjeli
podjeljen
podjeljena
podjelom
podjelu
podlez
podloga
podloge
podlogu
podloz
podlozi
podmornic
podmornica
podmornice
podne
podneo
podnese
podnijeti
podnio
podno
podnos
podnose
podnosi
podnoz
podpada
podravska
podravskoj
podraz
podrazumeva
podrazumijeva
podrazumijevaju
podred
podrijetla
podrijetlo
podrijetlom
podrs
podruc
podrum
podrumu
podruz
podrz
podsaveza
podsec
podsjec
podstic
podsticaj
podu
poduc
podudara
poduhvat
poduzec
poduzeo
poduzetnik
podvrsta
podvrste
podz
podzemlja
podzemlje
podzemna
podzemne
podzemni
podzemnih
podzemnim
poe
poema
poeme
poems
poena
poetry
poezija
poezije
poeziji
poeziju
pogađa
poggio
pogibije
poginula
poginuli
poginulih
poginulo
poginuo
poglavar
poglavara
poglavica
poglavice
poglavito
poglavlja
poglavlje
poglavlju
pogled
pogleda
pogledajte
pogledati
poglede
pogledi
pogledom
pogledu
pogodak
pogodaka
pogodan
pogodila
pogodio
pogodna
pogodne
pogodno
pogon
pogona
pogoni
pogonom
pogonu
pogors
pogotka
pogotovo
pogođen
pogođena
pogranic
pogreb
pogres
pogubio
pogubiti
pogubljen
pogubljena
pogubljeni
pogubljenja
pogubljenje
pohađa
pohađala
pohađao
pohod
pohoda
pohode
pohodi
pohodima
pohodu
pohvala
pohvale
pohvalio
poiana
poimenic
point
points
poistovec
poistovjec
poj
pojac
pojam
pojas
pojasa
pojasu
pojava
pojavama
pojave
pojavi
pojavila
pojavile
pojavili
pojavilo
pojavio
pojaviti
pojavljivala
pojavljivanja
pojavljivanje
pojavljivao
pojavljivati
pojavljuje
pojavljuju
pojavom
pojavu
pojedina
pojedinac
pojedinaca
pojedinca
pojedince
pojedinci
pojedincima
pojedine
pojedini
pojedinih
pojedinim
pojedinog
pojedinosti
pojma
pojmom
pojmova
pojmove
pojmovi
pokaz
pokazala
pokazale
pokazali
pokazalo
pokazano
pokazao
pokazatelj
pokazati
pokazivac
pokazivali
pokazivao
pokazuje
pokazuju
pokazujuc
poke
poklapa
poklon
poklonio
pokojnika
pokojnog
pokolj
pokolja
pokopan
pokorio
pokoriti
pokraj
pokrajina
pokrajinama
pokrajine
pokrajini
pokrajinom
pokrajinski
pokrajinskog
pokrajinu
pokrec
pokrene
pokrenula
pokrenule
pokrenuli
pokrenuo
pokrenut
pokrenuta
pokrenuti
pokret
pokreta
pokretac
pokretanja
pokretanje
pokrete
pokreti
pokretima
pokretljivost
pokretne
pokretni
pokretnih
pokretnim
pokretom
pokretu
pokriva
pokrivac
pokrivaju
pokriven
pokrivena
pokrovitelj
pokroviteljstvom
pokrs
pokus
pokusa
pol
pola
polaganje
polagano
polako
polarna
polarne
polarni
polaz
polaze
polazec
polazi
polazis
pole
polemic
polemike
polet
poleteo
poli
polic
policajac
policajaca
policajca
policajci
police
policija
policije
policiji
policijom
policijska
policijske
policijski
policijskih
policijskog
policijsku
policiju
policy
polimera
polimeraza
polis
polisa
politbiroa
politic
political
politici
politics
politika
politike
politikom
politiku
polja
poljaci
poljaka
poljana
poljane
polje
poljem
poljima
poljoprivreda
poljoprivrede
poljoprivredi
poljoprivredna
poljoprivredne
poljoprivredni
poljoprivrednih
poljoprivrednim
poljoprivredno
poljoprivrednog
poljoprivrednu
poljoprivredom
poljoprivredu
poljska
poljske
poljski
poljskih
poljskim
poljsko
poljskog
poljskoj
poljskom
poljsku
polju
poljubac
polk
polo
polova
polovica
polovice
polovici
polovicom
polovicu
polovima
polovina
polovine
polovini
polovinom
polovinu
poloz
polu
polubrat
polubrata
poluc
polufinala
polufinale
polufinalu
polukruz
polumjer
polumjera
poluostrva
poluostrvo
poluostrvu
poluotoci
poluotok
poluotoka
poluotoku
poluprec
poluraspada
poluvodic
pomagac
pomagala
pomagali
pomagao
pomagati
pomak
pomaka
pomalo
pomaz
pomen
pomenute
pomenuti
pomera
pomeranija
pomes
pomic
pomijes
pominje
pominju
pomirenja
pomirenje
pomiriti
pomnoz
pomoc
pomogao
pomogla
pomogli
pomoglo
pomogne
pomognu
pomorac
pomorska
pomorske
pomorski
pomorskih
pomorskim
pomorskog
pomorskoj
pomorskom
pomorsku
pompej
pompeja
pomrac
pomrc
pomurju
ponajprije
ponajvis
ponas
ponavlja
ponavljaju
ponavljajuc
ponavljanja
ponavljanje
ponedjeljak
ponegdje
ponekad
ponekada
pones
ponis
poniz
ponoc
ponos
ponosa
ponovio
ponoviti
ponovni
ponovno
ponovnog
ponovnom
ponovo
ponsonby
pont
ponte
pontifikata
ponuda
ponude
ponudi
ponudila
ponudili
ponudio
ponuditi
ponudu
ponuđena
poonawala
pop
popa
pope
popela
popeo
popis
popisa
popisi
popisima
popisu
poplava
poplave
poploc
popodne
popov
popovac
popovic
poprac
popraviti
poprec
poprilic
poprima
popris
populacija
populacije
populaciji
populaciju
popular
popularan
popularna
popularne
popularni
popularnih
popularnim
popularno
popularnog
popularnoj
popularnom
popularnost
popularnosti
popularnu
population
popus
poput
por
porasla
porast
porasta
porastao
porastom
porastu
poraz
poraza
poraze
porazi
porazila
porazili
porazio
poraziti
porazom
porazu
pordenone
porec
pored
poredak
porekla
poreklo
poreklom
poreklu
poremec
poretka
poretku
porez
poreza
poreze
poređenje
poređenju
porfirio
poric
porijekla
porijeklo
porijeklom
porijeklu
porin
porjec
porno
pornografski
poroda
porodic
porodica
porodicama
porodice
porodici
porodicom
porodicu
porođaja
port
porta
portal
portala
portals
portalu
porte
porter
porti
portland
porto
portoriko
portoriku
portrait
portret
portreta
portrete
portreti
portski
portugal
portugala
portugalci
portugalska
portugalske
portugalski
portugalskog
portugalskom
portugalu
poruc
poruka
poruke
poruku
porus
porvenir
pos
posada
posade
posadom
posadu
posao
posavskoj
poseban
posebice
posebna
posebne
posebni
posebnih
posebnim
posebno
posebnog
posebnoj
posebnom
posebnu
posec
posed
poseda
posede
poseduje
poseduju
posejdon
poseta
posete
poseti
posetio
posetu
posjec
posjed
posjeda
posjede
posjedi
posjedovao
posjedu
posjeduje
posjeduju
posjet
posjeta
posjete
posjeti
posjetio
posjetitelja
posjetiti
posjetu
posla
poslala
poslali
poslan
poslana
poslani
poslanic
poslanica
poslanice
poslanici
poslanik
poslanika
poslanike
poslanstvo
poslao
poslat
poslata
poslati
posle
posledica
posledice
posledicu
poslednja
poslednje
poslednjeg
poslednjem
poslednji
poslednjih
poslednjim
poslednjoj
poslednju
poslije
posljedic
posljedica
posljedicama
posljedice
posljedicu
posljednja
posljednje
posljednjeg
posljednjem
posljednji
posljednjih
posljednjim
posljednjoj
posljednju
poslom
poslova
poslovanja
poslovanje
poslove
poslovi
poslovima
poslovna
poslovne
poslovni
poslovnih
poslovnim
poslovno
poslovnog
poslu
poslus
posluz
posmatra
posmatrac
posmatranja
posmatrati
posmrtni
posmrtno
posrednik
posrednika
posredno
posredovanje
posredovanu
posredstvom
posreduje
possible
post
posta
postaja
postajala
postajali
postajao
postaje
postaju
postala
postale
postali
postalo
postanak
postane
postanka
postanu
postao
postati
postava
postave
postavi
postavila
postavili
postavio
postaviti
postavke
postavlja
postavljaju
postavljanja
postavljanje
postavljanjem
postavljao
postavljen
postavljena
postavljene
postavljeni
postavljenih
postavljeno
postavs
postavu
postepeno
poster
posthumno
postic
postigao
postigavs
postigla
postigli
postigne
postignuc
postignut
postignuta
postignutih
postiz
postizanja
postizanje
postizao
posto
postojala
postojale
postojali
postojalo
postojanja
postojanje
postojanju
postojao
postojati
postoje
postojec
postoji
postotak
postrojbe
postrojbi
postrojenja
postrojenje
postupak
postupaka
postupci
postupcima
postupka
postupke
postupkom
postupku
postupno
posuda
posude
posudio
posudu
posus
posuđe
posve
posvec
posveti
posvetila
posvetio
posvetiti
pot
potajno
potakao
potakla
potaklo
potaknuo
potaknut
potaknuti
potc
potencijal
potencijala
potencijalna
potencijalne
potencijalni
potencijalnih
potencijalno
potencijalnu
potentan
potenza
potes
potez
poteza
potezu
pothvat
potic
poticaj
poticao
potisak
potiska
potisnuti
potjec
potkoz
potkraj
potlac
potoc
potok
potoka
potom
potomak
potomaka
potomci
potomcima
potomke
potomstvo
potonja
potonje
potonji
potonuo
potopljen
potosi
potpis
potpisa
potpisala
potpisale
potpisali
potpisan
potpisana
potpisao
potpisati
potpisivanja
potpisivanje
potpisivanjem
potpisuje
potpisuju
potpora
potpore
potporodica
potporu
potporuc
potpredsednik
potpredsednika
potpredsjednik
potpredsjednika
potpukovnik
potpukovnika
potpun
potpuna
potpune
potpuni
potpunim
potpuno
potpunog
potpunoj
potpunom
potpunosti
potpunu
potraga
potrage
potragu
potrajala
potraz
potrazi
potreba
potrebama
potreban
potrebe
potrebi
potrebna
potrebne
potrebni
potrebnih
potrebno
potrebnu
potrebu
potrero
potres
potresa
potros
potter
potteru
potuc
potvrda
potvrde
potvrdi
potvrdila
potvrdili
potvrdio
potvrditi
potvrdu
potvrđen
potvrđena
potvrđeno
potvrđuje
potvrđuju
pouc
pour
pouzdani
pouzdano
pouzdanost
povec
povelja
povelje
povelji
povelju
poveo
poverenje
povesti
povez
povezan
povezana
povezane
povezani
povezanih
povezanim
povezano
povezanost
povezanosti
povezao
povezati
povezivanja
povezivanje
povezivao
poveznica
poveznice
povezuje
povezuju
povijesna
povijesne
povijesni
povijesnih
povijesnim
povijesno
povijesnog
povijesnom
povijest
povijesti
povis
povjerena
povjerenja
povjerenje
povjerio
povjesnic
povlac
povlas
povlastice
povod
povodom
povodu
povoljan
povoljne
povoljno
povorka
povrac
povratak
povrati
povratila
povratili
povratio
povratiti
povratka
povratkom
povratku
povratna
povratne
povrc
povreda
povrede
povremene
povremeni
povremeno
povređeno
povrs
povuc
povukao
povukla
povukle
povukli
povuku
powell
power
powers
poz
pozadina
pozadine
pozadini
pozadinu
pozdrav
pozicija
pozicijama
pozicije
poziciji
poziciju
pozitivan
pozitivna
pozitivne
pozitivni
pozitivnih
pozitivnim
pozitivno
pozitivnog
pozitivnu
poziv
poziva
pozivaju
pozivajuc
pozivao
pozive
pozivu
pozlac
poznaje
poznajemo
poznaju
poznat
poznata
poznate
poznati
poznatih
poznatija
poznatije
poznatiji
poznatijih
poznatim
poznato
poznatog
poznatoj
poznatom
poznatu
poznavali
poznavanje
poznavao
pozo
pozoris
pozornice
pozornici
pozornicu
pozornost
pozove
pozvala
pozvali
pozvan
pozvani
pozvao
pođe
pp
ppm
pr
pra
prac
practice
prado
prag
praga
pragmatic
pragu
prah
praha
prahova
praistorije
praizvedba
praksa
prakse
praksi
praksom
praksu
praktic
pranje
pras
prate
pratec
prati
pratila
pratili
pratio
pratiti
pratnji
pratnju
prato
praunuk
prava
pravac
pravaca
pravas
pravca
pravcem
pravci
pravcima
pravcu
pravda
pravde
pravdu
prave
pravi
pravih
pravila
pravilan
pravili
pravilima
pravilno
pravilo
pravilu
pravim
pravima
pravio
pravljenje
pravna
pravne
pravni
pravnici
pravnih
pravnik
pravnika
pravnim
pravno
pravnog
pravnom
pravnu
pravo
pravog
pravoj
pravom
pravopis
pravoslavci
pravoslavlje
pravoslavna
pravoslavne
pravoslavni
pravoslavnih
pravoslavnim
pravoslavno
pravoslavnog
pravoslavnoj
pravoslavnom
pravoslavnu
pravosuđa
pravu
praz
prazan
prazna
praznici
praznik
praznika
prazno
pre
prebac
prebaci
prebacio
prebacivanje
prebacuje
prebivalis
prec
preci
precizan
preciznije
precizno
preciznost
preciznosti
pred
preda
predaja
predaje
predaji
predajom
predaju
predak
predaka
predala
predali
predan
predanja
predanje
predanju
predao
predati
predavac
predavanja
predavanje
predavao
predelu
predeo
predgovor
predgrađa
predgrađe
predgrađima
predgrađu
predio
predjelima
predjelu
predjulijanskog
predlagao
predlaz
predlog
predloga
predlos
predloz
predmet
predmeta
predmete
predmeti
predmetima
predmetom
predmetu
prednja
prednje
prednjeg
prednjem
prednji
prednjih
prednjim
prednjoj
prednost
prednosti
predoc
predodz
predrag
predrasuda
predrasude
preds
predsednic
predsednica
predsednici
predsednik
predsednika
predsednikom
predsedniku
predsednis
predsjedavajuc
predsjednic
predsjednica
predsjednici
predsjednik
predsjednika
predsjednikom
predsjedniku
predsjednis
predstava
predstavama
predstave
predstavi
predstavila
predstavio
predstaviti
predstavlja
predstavljaju
predstavljajuc
predstavljala
predstavljale
predstavljali
predstavljalo
predstavljanja
predstavljanje
predstavljao
predstavljati
predstavljen
predstavljena
predstavljeni
predstavnic
predstavnici
predstavnicima
predstavnik
predstavnika
predstavnike
predstavnis
predstavu
predstojec
predstojnik
preduzec
predvidio
predviđa
predviđanja
predviđanje
predviđao
predviđen
predviđena
predviđene
predviđeno
predvodi
predvodili
predvodio
predvodnik
predvođena
predvođeni
prefekt
prefekta
prefektura
prefekture
prefekturi
prefiks
pregled
pregleda
pregledac
pregovara
pregovarac
pregovora
pregovore
pregovori
pregovorima
pregrade
prehrambena
prehrambene
prehrambeni
prehrana
prehrane
prehrani
prehranu
preimenovan
preimenovana
prekasno
prekid
prekida
prekidac
prekidima
prekine
prekinula
prekinuo
prekinut
prekinuta
prekinuti
prekinuto
preko
prekomorske
prekorac
prekretnica
prekretnicu
prekriva
prekriven
prekrivena
prekriveno
prekrs
prelaska
prelaz
prelaza
prelazak
prelaze
prelazi
prelazni
prelazu
preloma
prema
premas
premda
premes
premier
premijer
premijera
premijere
premijeri
premijerno
premijerom
premijeru
preminula
preminulog
preminuo
premjes
premjestio
premoc
premos
preneo
prenese
preneti
prenijeti
prenio
prenoc
prenos
prenosa
prenose
prenosi
prenositi
prentice
preobrac
preobraz
preokret
preostala
preostale
preostali
preostalih
preostalo
prepad
preporod
preporoda
preporuc
preporuka
preporuke
prepoznaje
prepoznaju
prepoznali
prepoznao
prepoznati
prepoznatljiv
prepoznavanja
prepoznavanje
prepreka
prepreke
prepreku
prepric
prepus
prepusti
prepustio
prepustiti
prerada
prerade
preradu
prerastao
prerus
pres
presa
presec
preseka
preseli
preselila
preselili
preselio
preseliti
preseljeni
preseljenja
present
presents
president
presjek
presjeka
presjeku
preskoc
presley
press
prestaje
prestaju
prestala
prestale
prestali
prestalo
prestanak
prestanci
prestane
prestanka
prestao
prestati
prestiz
presto
prestola
prestolu
preston
prestonica
prestonice
prestonici
prestonicu
presuda
presude
presudi
presudio
presudu
presus
presvete
presvetog
pretec
pretendent
pretenzije
pretez
prethodi
prethodna
prethodne
prethodni
prethodnica
prethodnici
prethodnih
prethodnik
prethodnika
prethodnim
prethodno
prethodnog
prethodnoj
prethodnom
prethodnu
preti
pretjerano
pretka
pretnja
pretnje
pretpostavio
pretpostaviti
pretpostavka
pretpostavke
pretpostavku
pretpostavlja
pretpostavljaju
pretraga
pretrage
pretraz
pretrpela
pretrpeo
pretrpio
pretty
pretuc
pretvara
pretvaraju
pretvaranje
pretvorbe
pretvoren
pretvorena
pretvori
pretvorila
pretvorili
pretvorio
pretvoriti
preuvelic
preuzela
preuzele
preuzeli
preuzeo
preuzet
preuzeti
preuzeto
preuzima
preuzimaju
preuzimanja
preuzimanje
preuzme
preuzmu
prev
prevara
prevare
prevaru
prevashodno
preveden
prevedena
prevedeno
prevelike
prevencija
prevenciju
prevention
preveo
prevesti
previs
prevlac
prevladava
prevladavaju
prevladavajuc
prevlaka
prevlake
prevlast
prevod
prevodi
prevodilac
prevodio
prevoditelj
prevodu
prevoz
prevoza
prevođenje
prevrata
prez
prezentacija
prezentacije
prezime
prezimena
pređe
pređu
pri
pribic
pribliz
pribor
pric
price
pride
pridonio
pridruz
pridrz
priest
prigodom
prigus
prihod
prihoda
prihode
prihodi
prihvac
prihvata
prihvataju
prihvatanje
prihvate
prihvati
prihvatila
prihvatile
prihvatili
prihvatio
prihvatiti
prijas
prijatelj
prijatelja
prijatelje
prijateljem
prijatelji
prijateljica
prijateljice
prijateljima
prijateljske
prijateljski
prijateljstva
prijateljstvo
prijateljstvu
prijatelju
prijave
prijavio
prije
prijec
prijedlog
prijedloga
prijedlozi
prijedor
prijedora
prijelaz
prijelaza
prijelazu
prijem
prijenos
prijenosa
prijepolje
prijestolja
prijestolje
prijestolju
prijestolnica
prijestolnice
prijestolnici
prijestolnicom
prijestolnicu
prijestupna
prijestupnoj
prijeti
prijetnja
prijetnje
prijetnjom
prijetnju
prijevod
prijevoda
prijevodi
prijevodu
prijevoja
prijevoz
prijevoza
prijevozu
prijeđe
prikaz
prikaza
prikazan
prikazana
prikazane
prikazani
prikazano
prikazao
prikazati
prikaze
prikazi
prikazima
prikazivala
prikazivali
prikazivan
prikazivana
prikazivanja
prikazivanje
prikazivao
prikazivati
prikazom
prikazu
prikazuje
prikazuju
prikladno
prikljuc
prikupio
prikuplja
prikupljanja
prikupljanje
prilagoditi
prilagođen
prilagođena
prilagođene
prilaz
prilazi
prilep
prilepa
prilic
prilici
prilika
prilikama
prilike
prilikom
priliku
prilog
priloga
priloz
prilozi
prim
prima
primaju
primanja
primanje
primao
primarna
primarne
primarni
primarnih
primarnim
primarno
primarnog
primary
primat
primata
primati
primavera
prime
primec
primena
primene
primeni
primeniti
primenjuje
primenjuju
primenom
primenu
primer
primera
primerak
primeraka
primeri
primeru
primetio
primi
primijeniti
primijenjene
primijetio
primila
primili
primio
primirja
primirje
primiti
primitivni
primitivnih
primjec
primjena
primjene
primjeni
primjenjuje
primjenjuju
primjenom
primjenu
primjer
primjera
primjerak
primjeraka
primjerci
primjere
primjeri
primjerice
primjerka
primjeru
primljen
primljena
primljeni
primoran
primorani
primorja
primorje
primorju
primorska
primorske
primorski
primorsko
princ
princa
prince
princess
princeton
princeza
princeze
princezom
princezu
princip
principa
principe
principi
principima
principles
principu
princom
princu
prinos
print
prinuđen
priopc
prioritet
pripada
pripadaju
pripadajuc
pripadala
pripadale
pripadali
pripadalo
pripadao
pripadnici
pripadnicima
pripadnik
pripadnika
pripadnike
pripadnost
pripadnosti
pripala
pripalo
pripao
pripisati
pripisuje
pripisuju
pripojen
pripojena
pripovetke
pripovijetke
pripovjedac
priprema
pripremaju
pripremama
pripremao
pripreme
pripremi
pripremio
pripremiti
pripremu
priras
priredbe
priredio
priroda
prirode
prirodi
prirodna
prirodne
prirodni
prirodnih
prirodnim
prirodno
prirodnog
prirodnoj
prirodnom
prirodnu
prirodom
prirodu
prirođena
prirođene
priruc
pris
prisilili
prisilio
prisiljen
prisiljena
prisiljeni
prisilno
prisjec
prislus
prison
pristaje
pristala
pristali
pristalica
pristalice
pristanak
pristane
pristanis
pristao
pristas
pristup
pristupa
pristupac
pristupi
pristupio
pristupiti
pristupljeno
pristupom
pristupu
prisustva
prisustvo
prisustvovali
prisustvovalo
prisustvovao
prisustvu
prisustvuje
prisutan
prisutna
prisutne
prisutni
prisutnih
prisutno
prisutnost
prisutnosti
pritisak
pritisaka
pritiscima
pritiska
pritiskom
pritisku
pritoka
pritoke
pritoku
pritom
pritvor
pritvoru
prius
private
privatna
privatne
privatni
privatnih
privatnim
privatno
privatnog
privatnoj
privatnom
privatnu
prividna
prividno
privilegija
privilegije
privlac
privreda
privrede
privredi
privredna
privredne
privredni
privrednih
privredno
privrednog
privredu
privremena
privremene
privremeni
privremeno
privremenog
privremenu
privrz
privuc
privukao
privukla
prix
prize
prizemlju
prizna
priznaje
priznaju
priznala
priznale
priznali
priznanja
priznanje
priznao
priznat
priznata
priznate
priznati
priznavanje
prizor
prizora
prizori
prizren
prizrena
prizrenu
prnjavor
pro
proba
probe
probija
probije
probiju
probila
probio
probiti
problem
problema
problematic
probleme
problemi
problemima
problemom
problems
problemu
proboj
proboja
probudi
proc
procedura
procedure
proceedings
procena
procenama
procenat
procenata
procene
proceni
procenjuje
procenu
proces
procesa
procese
procesi
procesima
procesom
procesor
procesora
process
procesu
procijenio
procjena
procjenama
procjene
procjeni
procjenjuje
procjenu
procvat
proda
prodaja
prodaje
prodaji
prodajom
prodaju
prodala
prodali
prodan
prodana
prodanih
prodano
prodao
prodat
prodati
prodavac
prodavao
prodavati
prodire
prodiru
prodor
prodora
prodrli
producenata
producent
producenta
producenti
producentima
producentom
producirao
production
productions
produkata
produkcija
produkcije
produkciji
produkcijske
produkciju
produkt
produkti
produz
prof
profesionalna
profesionalne
profesionalni
profesionalnih
profesionalnim
profesionalno
profesionalnog
profesionalnu
profesor
profesora
profesori
profesorica
profesorom
professional
professor
profil
profila
profile
profit
proglas
proglasi
proglasila
proglasile
proglasili
proglasilo
proglasio
prognan
prognoza
progon
progona
progone
progoni
progonima
progonstva
progonstvo
program
programa
programe
programi
programima
programiranje
programom
programski
programu
progreso
progress
proizas
proizilazi
proizlazi
proizvede
proizveden
proizvedena
proizvedene
proizvedeni
proizvedeno
proizvela
proizveo
proizvesti
proizvod
proizvoda
proizvode
proizvodi
proizvodila
proizvodili
proizvodima
proizvodio
proizvoditi
proizvodni
proizvodnih
proizvodnja
proizvodnje
proizvodnji
proizvodnjom
proizvodnju
proizvođac
project
projekat
projekata
projekcija
projekcije
projekt
projekta
projektant
projekte
projekti
projektil
projektila
projektima
projektirao
projektom
projektu
prokuplje
prolaska
prolaz
prolaza
prolazak
prolaze
prolazi
prolazila
prolazili
prolazio
prolazu
prolec
proleterska
proleterske
proljec
prolog
promas
promatra
promatrac
promatranja
promatranje
promatrao
promatrati
promena
promenama
promene
promeni
promenila
promenio
promeniti
promenjen
promenljive
promenom
promenu
promet
prometa
prometej
prometna
prometne
prometno
prometnoj
prometu
promicanje
promijeni
promijenila
promijenilo
promijenio
promijeniti
promijenjen
promijenjeno
promis
promjena
promjenama
promjene
promjeni
promjenom
promjenu
promjer
promjera
promjeru
promocija
promocije
promociju
promovira
promovis
pronac
pronalaska
pronalaz
pronalazac
pronalazak
pronalaze
pronalazi
pronas
pronađe
pronađen
pronađena
pronađene
pronađeni
pronađenih
pronađeno
pronađu
propada
propadanja
propadanje
propaganda
propagande
propagandne
propagandni
propagandu
propala
propali
propao
propast
propasti
propisa
propisi
propisima
propisuje
proporcionalna
propus
propustio
prorac
proroc
prorok
proroka
pros
prosec
proseku
prosinac
prosinca
prosincu
prosjec
prosjek
prosjeku
proslava
proslave
proslavi
proslavila
proslavio
proslavu
prosperitet
prost
prostate
prostirala
prostire
prostiru
prostitutka
prostitutke
prosto
prostor
prostora
prostore
prostori
prostorija
prostorijama
prostorije
prostoriji
prostoriju
prostorima
prostorne
prostorni
prostorno
prostorom
prostoru
prosveta
prosvete
prosvjeda
prosvjeta
prosvjetiteljstva
protagonist
protagonista
protagonisti
protagonistica
proteaza
protection
protein
proteina
proteinaza
proteine
proteini
proteinima
proteinska
proteinske
proteinski
proteinskih
proteklih
protektorat
protektorata
proteran
proterani
protest
protesta
protestanata
protestanti
protestantizam
protestantska
protestantske
protestantski
proteste
protesti
protestima
protez
protezala
protic
protiv
protive
protivi
protivila
protivili
protivio
protivljenja
protivljenje
protivnic
protivnici
protivnicima
protivnik
protivnika
protivnike
protivno
protivpes
protivrec
protjec
protjeran
protjerani
protjerao
proto
protoc
protok
protoka
protokol
protokola
proton
protona
prototip
prototipa
protumac
proturjec
prouc
prouzroc
provala
provale
provansa
provede
provedena
provedene
provedenih
provela
proveli
proveo
provesti
providence
providencia
providur
provincia
provincija
provincijama
provincije
provinciji
provincijom
provinciju
provlac
provode
provodi
provodila
provodili
provodio
provoditi
provodljivost
provođenje
proz
proza
proze
prozi
prozor
prozora
prozore
prozori
prozu
prozvali
prozvan
prođe
prođu
prs
prsa
prst
prsta
prsten
prstena
prstenom
prstenova
prstiju
prstima
pruga
prugama
pruge
prugom
prugu
pruska
pruske
pruski
pruskog
pruskoj
pruskom
pruz
pruzi
prva
prvaci
prvak
prvaka
prve
prvenstava
prvenstva
prvenstveno
prvenstvima
prvenstvo
prvenstvu
prvi
prvih
prvim
prvima
prvo
prvobitna
prvobitne
prvobitni
prvobitno
prvog
prvoga
prvoj
prvoligas
prvom
prvotno
prvovenc
prvu
prz
ps
psa
psb
pseudo
pseudonim
pseudonimom
psi
psiha
psihic
psihijatar
psihodelic
psiholog
psihologija
psihologije
psihologiju
psiholos
psycho
psychology
pt
pterosaura
ptic
ptica
pticama
ptice
ptolemej
ptolemeja
ptolomej
pu
public
publication
publications
publici
publicist
publicista
publicitet
publije
publika
publikacija
publikacije
publike
publikom
publikovani
publiku
published
publisher
publishers
publishing
pubmed
puc
puca
pucao
puebla
pueblo
puente
puerta
puerto
puhac
puk
puka
pukotina
pukotine
pukovnija
pukovnije
pukovnik
pukovnika
pula
pule
puli
puls
pulski
pumpa
pumpe
pumpi
pun
puna
pune
puni
punih
punim
punjenja
punjenje
punk
puno
punog
punoj
punoletna
punoletni
punoletnih
punom
punski
punskog
punta
punu
puri
purple
pus
pusti
pustinja
pustinje
pustinji
pustinju
pustio
pustiti
pustolovina
pustolovine
pustolovni
pustos
put
puta
putanja
putanje
putanji
putanju
putem
puteva
puteve
putevi
putevima
putin
putna
putnic
putnici
putnik
putnika
putnike
putopisac
putova
putovali
putovanja
putovanje
putovanjima
putovanju
putovao
putovati
putu
putuje
putuju
putujuc
puz
pvo
px
pyg
python
q
qa
qi
qija
qin
qing
qquad
qu
quad
quantum
quarterly
que
quebec
quebecu
queen
queer
quentin
quere
quest
question
questions
qui
quinn
quintana
quo
r
ra
rab
rabe
rabi
rabin
rac
race
rachel
rad
rada
radar
radara
rade
radec
radi
radic
radija
radijacije
radije
radijski
radiju
radijus
radikala
radikali
radikalna
radikalne
radikalni
radikalnih
radikalno
radila
radile
radili
radilo
radio
radioaktivni
radioaktivnih
radioaktivnog
radiolos
radionica
radionice
radionici
radis
raditi
radivoj
radivoja
radivojevic
radmila
radna
radne
radni
radnic
radnica
radnici
radnicima
radnih
radnik
radnika
radnike
radnim
radnja
radnje
radnji
radnjom
radnju
radno
radnog
radnom
radnu
rado
radoje
radom
radomir
radonjic
rados
radosavljevic
radoslav
radost
radosti
radova
radovan
radovanovic
radove
radovi
radovic
radovima
radovis
radu
radulovic
radz
raf
rafael
rafaela
rafal
rafinerija
ragbi
ragusa
rah
rahman
rai
raikkonen
railways
rain
rainbow
rainer
raj
raja
rajc
rajha
rajic
rajko
rajn
rajna
rajne
rajni
rajon
raju
rak
raka
raketa
raketama
rakete
raketne
raketni
raketnih
raketu
rakic
rakovic
rakovica
ralph
ram
rama
rambo
rame
ramena
rami
ramo
ramon
ramos
ramzesa
ran
rana
ranc
ranchito
rancho
randolph
random
randy
rane
rang
ranga
range
rangu
rani
ranih
ranija
ranije
ranijeg
ranijem
raniji
ranijih
ranijim
ranim
ranio
ranjen
ranjena
ranjeni
ranjenih
ranjenika
ranjeno
ranko
rankovic
rano
ranog
ranohris
ranoj
ranokrs
ranom
ranu
raoul
rap
rard
ras
rasa
rase
rasejano
rashladni
rasinskom
rasistic
raskid
raskida
raskol
raskola
raskos
raskrs
rasla
rasne
raspad
raspada
raspadom
raspala
raspao
raspolaganje
raspolaganju
raspolaz
raspoloz
raspon
raspona
rasponu
raspored
rasporeda
rasporedu
raspoređena
raspoređene
raspoređeni
raspoređenih
rasprava
rasprave
raspravi
raspravlja
raspravu
rasprostranjen
rasprostranjena
rasprostranjenost
rasprs
raspus
raspustio
rast
rasta
rastao
raste
rasti
rastko
rastojanja
rastojanje
rastom
rastu
rastuc
rastvarac
rastvor
rastvora
rastvoru
rasu
rat
rata
ratis
ratko
ratna
ratne
ratni
ratnic
ratnici
ratnih
ratnik
ratnika
ratnim
ratno
ratnog
ratnoj
ratnom
ratnu
ratom
ratova
ratovanja
ratovanje
ratovao
ratove
ratovi
ratovima
ratu
rau
ravan
ravenna
ravna
ravnatelj
ravne
ravni
ravnic
ravnica
ravnice
ravnici
ravnicu
ravnih
ravnim
ravnina
ravnine
ravnini
ravninu
ravno
ravnodus
ravnoj
ravnom
ravnopravnost
ravnotez
ravnu
ray
raya
raymond
rayo
raz
razarac
razaranja
razaranje
razavi
razbijanje
razbije
razbijena
razbila
razbili
razbio
razbiti
razbojnika
razbolio
razdoblja
razdoblje
razdobljima
razdoblju
razdvaja
razdvajaju
razdvajanja
razdvajanje
razgovara
razgovaraju
razgovarao
razgovor
razgovora
razgovore
razgovori
razgovoru
razgranic
razina
razinama
razine
razini
razinu
razis
razjas
razlaganje
razlaz
razlic
razlika
razlikama
razlike
razlikom
razlikovala
razlikovali
razlikovanje
razlikovao
razlikovati
razliku
razlikuje
razlikujemo
razlikuju
razlog
razloga
razloge
razlozi
razluc
razmak
razmatra
razmatranja
razmatranje
razmena
razmene
razmera
razmis
razmjena
razmjene
razmjenu
razmjera
razmjerno
razmjes
razmnoz
razna
razne
razni
raznih
raznim
raznolikost
raznolikosti
raznovrsne
raznovrsnost
razoc
razoren
razorili
razorio
razoruz
razradio
razred
razreda
razredu
razres
razrijes
razrus
razum
razuma
razume
razumevanje
razumijevanja
razumijevanje
razumjeti
razveli
razveo
razvic
razvija
razvijaju
razvijala
razvijali
razvijanje
razvijao
razvijati
razvije
razvijen
razvijena
razvijene
razvijeni
razvijenih
razvijenim
razvijeno
razvijenom
razvijenu
razviju
razvila
razvile
razvili
razvilo
razvio
razvitak
razviti
razvitka
razvod
razvoda
razvoj
razvoja
razvojem
razvojni
razvoju
razvrstavanje
rađa
rađaju
rađanja
rađanje
rađena
rb
rbara
rc
rca
rcega
rd
rdenas
rdoba
re
read
reader
reading
reagan
reagira
reagiraju
reagirao
reaguje
reaguju
reakcija
reakcijama
reakcije
reakciji
reakcijom
reakciju
reaktor
reaktora
reaktori
reaktoru
real
realistic
reality
realizacija
realizacije
realizaciji
realizaciju
realizam
realizma
realna
realne
realni
realnih
realno
realnom
realnost
realnosti
rebecca
rebel
rebra
rec
recent
recentno
recenzija
recenzije
recenziji
receptor
receptora
receptore
receptori
receptorima
reci
recimo
record
records
red
reda
redakcija
redakcije
redatelj
redatelja
redgrave
reditelj
reditelja
redom
redosled
redoslijed
redova
redove
redovi
redovima
redoviti
redovito
redovna
redovne
redovni
redovnic
redovnici
redovnih
redovnik
redovnika
redovnim
redovno
redovnog
redu
redukcija
redukcije
redukovani
reduktaza
redukuje
redz
reed
reeves
ref
referenca
reference
references
referenci
referendum
referenduma
referendumu
refleksije
reforma
reformacija
reformacije
reformama
reformator
reforme
reformi
reformistic
reformu
refugio
reg
regensburg
regent
regenta
reggio
regija
regijama
regije
regiji
regijom
regiju
regina
region
regiona
regional
regionalna
regionalne
regionalni
regionalnih
regionalnim
regionalnog
regionalnu
regioni
regionima
regionu
registar
registrovano
regulacija
regulacije
regulaciji
regulaciju
regularne
regulira
regulis
rehabilitaciju
reich
reicha
reid
reis
reizdanje
rejonu
rejting
reka
rekao
rekavs
reke
rekla
reklama
reklame
rekli
rekom
rekonstrukcija
rekonstrukcije
rekonstrukciju
rekord
rekorda
rekorder
rekordi
rekordnih
rektascenzija
rektor
reku
relacija
relacije
relaciji
related
relations
relativistic
relativna
relativne
relativno
relativnosti
relativnu
release
reli
religija
religijama
religije
religiji
religijska
religijske
religijski
religijskih
religijskim
religiju
religion
religious
religiozne
religiozni
religioznih
relikvije
reljef
reljefa
reljefi
reljefima
reljefu
rem
remake
remek
remember
remix
ren
renaissance
renata
renato
renault
rendsburg
rendz
rene
renesansa
renesanse
renesansi
renesansna
renesansne
renesansni
reno
reorganizacije
rep
repa
repertoar
replika
replikacija
replikacije
repom
report
reportaz
reporter
reports
represije
reprezentacija
reprezentacije
reprezentaciji
reprezentacijom
reprezentaciju
reprezentativac
reprezentativna
reprezentativni
reprint
reprinted
repu
republic
republici
republika
republikama
republikanaca
republikanci
republikanska
republikanske
republikanski
republike
republikom
republiku
reputacija
reputaciju
required
rer
res
research
reserve
resistance
resource
resources
respektivno
respons
response
restauracija
restauracije
restoran
restorana
restoranu
results
resursa
resurse
resursi
resursima
retka
retke
retkih
retko
retoric
retorike
retrieved
return
returns
rev
revans
revenge
review
reviews
revija
revised
revolucija
revolucije
revoluciji
revolucijom
revoluciju
revolucionar
revolucionara
revolucionari
revolucionarna
revolucionarne
revolucionarni
revolucionarnih
revolucionarnim
revolucionarnog
revolucionarnom
revolution
revolver
rex
rey
reyes
reynolds
reynosa
rez
reza
rezanja
rezanje
rezervat
rezervata
rezervatima
rezervatu
rezerve
rezervi
rezervni
rezervoara
rezidencija
rezidencije
rezidenciju
rezolucija
rezolucije
rezoluciji
rezoluciju
rezultat
rezultata
rezultate
rezultati
rezultatima
rezultatom
rezultira
rezultirala
rezultiralo
rezultirao
rezultirati
ređe
rf
rfe
rg
rgb
rgen
rh
rho
rhode
rhythm
ri
ria
rib
riba
ribama
ribar
ribara
ribari
ribarstvo
ribe
ribi
riblje
ribolov
ribolova
ribolovom
ribom
ribu
ric
rica
ricardo
rice
rich
richard
richarda
richards
richardson
richmond
rick
ricky
rico
rida
riddler
ride
rider
ridge
rie
rieti
right
rightarrow
rightleftharpoons
rights
rijec
rijeci
rijedak
rijeka
rijekama
rijeke
rijekom
rijeku
rijes
rijetka
rijetke
rijetki
rijetkih
rijetkim
rijetko
rijetkost
rik
riley
rim
rima
rimini
rimljana
rimljane
rimljani
rimljanima
rimokatolic
rimokatolici
rimom
rimska
rimske
rimski
rimskih
rimskim
rimsko
rimskog
rimskoj
rimskom
rimsku
rimu
rinco
ring
rio
rioverde
ris
rise
rising
risk
ristic
rita
ritam
ritma
ritmic
ritter
ritu
ritual
rituala
riva
rival
rivala
rivalstvo
river
rivera
rivers
riz
rizic
rizik
rizika
rizikom
riznica
rjec
rjes
rjeđe
rk
rko
rm
rms
rn
rna
rnk
ro
road
rob
roba
robbins
robe
robert
roberta
roberto
robertom
roberts
robertson
robije
robin
robina
robinson
roblje
robljem
robom
robot
robota
robova
robove
robovi
robovima
robovlasnic
robu
roc
rocca
rocco
roche
rock
rocka
rockefeller
rocky
rod
roda
rode
rodeo
rodi
rodila
rodio
roditelja
roditelje
roditelji
roditeljima
roditi
rodna
rodne
rodni
rodno
rodnog
rodnoj
rodnom
rodom
rodonac
rodos
rodosa
rodova
rodovi
rodri
rodrigo
rodu
rodz
rog
roga
rogatica
roger
rogera
rogers
rogoz
roi
rok
roka
rokoko
roku
rolan
roland
role
roll
rolling
rom
roma
romagna
roman
romana
romance
romane
romani
romania
romanian
romanic
romanima
romano
romanom
romanopisac
romansa
romantic
romantizam
romantizma
romanu
rome
romeo
romero
romi
romita
rommel
romos
ron
rona
ronald
rondo
ronilac
ronnie
roo
room
roosevelt
root
roots
ropstva
ropstvo
ros
rosa
rosales
rosario
rosarito
rosas
rose
rosen
rosenberg
roses
ross
rossi
rotacija
rotacije
rotenburg
roth
rotira
rotirajuc
rotor
rotora
rotten
rouge
round
rousseau
routledge
rovigo
row
roy
royal
royale
roz
rođ
rođaci
rođak
rođaka
rođen
rođena
rođendan
rođendana
rođene
rođeni
rođenja
rođenje
rođenju
rođenog
rrez
rrnk
rs
rsk
rsssf
rt
rta
rtava
rtb
rtl
rts
rtv
rtva
rtvama
rtve
rtvom
rtvu
ru
rub
ruba
rubens
rubin
rubovima
rubu
ruby
ruc
ruci
rud
ruda
rudara
rudarski
rudarstva
rudarstvo
rude
rudi
rudnici
rudnicima
rudnik
rudnika
rudniku
rudo
rudolf
rudolfa
rudolph
rufus
rui
ruiz
rujan
rujna
rujnu
ruka
rukama
rukavac
ruke
rukom
rukomet
rukometas
rukometni
rukometu
rukopis
rukopisa
rukopisi
rukopisima
rukopisu
rukopoloz
rukovodilac
rukovodio
rukovodstva
rukovodstvo
rukovodstvom
ruku
rule
rules
rum
ruma
rumuni
rumunija
rumunije
rumuniji
rumunjska
rumunjske
rumunjski
rumunjskoj
rumunski
rumunskom
run
rundi
running
rupa
rupe
rupert
rupu
ruralnim
rus
rusa
ruse
rush
rusi
rusija
rusije
rusiji
rusijom
rusijon
rusiju
rusini
ruska
ruske
ruski
ruskih
ruskim
rusko
ruskog
ruskoj
ruskom
rusku
russell
russia
russian
ruta
rute
ruth
rutherford
ruz
rv
rvi
ry
ryan
rz
s
sa
sabinas
sabor
sabora
saborna
saboru
sabotaz
sabrana
sac
sacramento
sacred
sad
sada
sadas
sadrz
sadu
safety
saga
sage
saglasnost
saglasnosti
sagradili
sagradio
sagraditi
sagrađen
sagrađena
sagrađene
sahara
sahare
sahat
sahrana
sahrane
sahrani
sahranjen
sahranjena
sahranjeni
sai
said
sailor
saint
sainte
saints
sajam
sajmis
sajmu
sajt
sajta
sajtu
sakrio
sakriti
saksofon
saksonija
saksonije
sakupio
sakupljac
sakupljanje
sal
sala
salamanca
salas
salaz
sale
salerno
sali
salinas
salishan
sally
salon
salona
salonu
salt
saltillo
salto
salvador
salvatore
salzburg
sam
sama
samantha
samardz
same
sami
samih
samim
samit
samo
samoa
samobor
samoc
samog
samoga
samoglasnika
samoj
samom
samoproglas
samos
samostalan
samostalna
samostalne
samostalni
samostalnih
samostalno
samostalnost
samostalnosti
samostalnu
samostan
samostana
samostani
samostanu
samoubilac
samoubistva
samoubistvo
samoubojstvo
samouprave
samoupravu
samrti
samu
samuel
samuraja
san
sana
sanc
sand
sanders
sandra
sanduka
sandy
sandz
sane
sanja
sankcija
sankcije
sankt
sans
sanski
sanskrit
sant
santa
santiago
santo
santos
sanu
sao
saobrac
saona
saops
sap
sapiens
sapwood
sar
sara
saradnici
saradnicima
saradnik
saradnika
saradnja
saradnje
saradnji
saradnju
sarah
saraj
sarajeva
sarajevo
sarajevske
sarajevski
sarajevskog
sarajevskom
sarajevu
sarađivao
sarađuje
sarburg
sardinija
sardinije
sas
saslus
sassari
sastaje
sastaju
sastali
sastanak
sastanka
sastanke
sastanku
sastao
sastav
sastava
sastavi
sastavima
sastavio
sastavljen
sastavljena
sastavljene
sastavljeni
sastavljeno
sastavni
sastavom
sastavu
sastojak
sastojaka
sastojala
sastojalo
sastojao
sastojci
sastoje
sastoji
sasvim
sat
sata
satelit
satelita
sateliti
satelitima
satelitska
satelitski
satelitu
satellite
sati
satima
satira
satire
satiric
satova
satovi
satrap
satrapa
satrapi
satu
saturday
saturn
saturna
sauc
saucillo
saudi
saudijska
saudijske
saudijskoj
saunders
sav
sava
savage
save
savet
saveta
savetnik
savetu
savez
saveza
savezna
savezne
savezni
saveznic
saveznici
saveznicima
saveznih
saveznik
saveznika
saveznike
saveznim
saveznis
saveznog
saveznoj
saveznom
savezom
savezu
savi
savic
savijanja
savijanje
savinjskoj
savjesti
savjet
savjeta
savjete
savjetnik
savjetnika
savjetovao
savladao
savo
savoja
savojski
savona
savremena
savremene
savremeni
savremenih
savremenik
savremenim
savremenog
savremenoj
savremenom
savrs
savski
savu
sawyer
saxe
saxon
say
says
sayula
saz
saziva
sazna
saznaje
saznajemo
saznaju
saznala
saznali
saznanja
saznao
saznati
saznavs
sazvao
sazvez
sazvijez
sb
sc
scalemajor
scarecrow
scarecrowa
scarlet
scena
scenama
scenarij
scenarija
scenarije
scenariju
scenario
scenarist
scenarista
scenaristi
scene
sceni
scenograf
scenografija
scenografiju
scenom
scenu
scg
schmidt
schneider
scho
school
schro
schuster
schwartz
sci
science
sciences
scientific
scipion
scorsese
scotland
scott
scotta
scottish
screen
scribd
scriptstyle
sd
sdp
sds
se
sea
sean
search
seas
season
seattle
sebastia
sebastian
sebe
sebi
sebic
sec
seccio
secesije
seco
second
secret
secrets
section
security
sedam
sedamdeset
sedamdesetih
sedamnaest
sedis
sedma
sedme
sedmi
sedmica
sedmice
sedmog
sedmogodis
sedmoj
sedmom
sednica
sednici
seds
see
sega
segmenata
segment
segmenta
seine
seizmic
sejs
sekcija
sekcije
sekretar
sekretara
sekretarica
seks
seksa
sekstant
seksualna
seksualne
seksualni
seksualnih
seksualnim
seksualno
seksualnog
seksualnom
seksualnost
seksualnosti
seksualnu
sekte
sektor
sektora
sektoru
sekulic
sekunda
sekundarna
sekundarne
sekundarni
sekundarnih
sekundarnog
sekunde
sekundi
sekvenca
sekvence
sekvenci
sekvencu
sela
selby
seldz
sele
selected
selekcija
selekcije
selektivan
selektivni
seleuk
self
seli
selim
selima
selis
seljac
seljaci
seljacima
seljak
seljaka
seljake
selo
selu
sem
semantic
seme
seminar
semjorka
sen
sena
senat
senata
senate
senator
senatora
senatori
senatu
senegal
seneka
seniorsku
senj
senja
senjska
senjskoj
sense
sent
senzora
senzori
seoba
seobe
seoska
seoske
seoski
seoskih
seoskim
seoskog
sep
separatistic
sept
septembar
september
septembra
septembru
ser
sera
serbia
serbian
serge
sergej
sergeja
sergije
sergio
serie
series
serija
serijal
serijala
serijalu
serijama
serije
seriji
serijom
serijski
serijskog
seriju
serin
serra
serv
servantes
server
service
services
servis
servisa
sestara
sestra
sestre
sestri
sestric
sestrom
sestru
set
seta
setu
seven
sever
severa
severin
severna
severne
severni
severnim
severno
severnog
severnoj
severnom
severnu
severoistoc
severoistoku
severozapadno
severozapadnoj
severozapadnom
severozapadu
severu
sex
sexual
seymour
sez
sezona
sezonama
sezone
sezoni
sezonski
sezonu
sf
sfera
sfere
sferi
sferu
sforza
sfr
sfrj
sg
sh
sha
shadow
shadows
shah
shahrukh
shakespeare
shane
shang
shannon
sharon
shaw
she
sheet
shelley
shema
sherlock
sherlocka
sherman
shi
shift
ship
shirley
sho
shodno
sholija
shop
short
shot
should
show
shows
shs
shu
shvac
shvata
shvatanja
shvatanje
shvati
shvatila
shvatili
shvatio
shvatiti
shvativs
si
sibinj
sibir
sibira
sibiru
sibyl
sic
sicilija
sicilijanska
sicilijanski
sicilije
siciliji
siciliju
sid
side
sideric
sidi
sidney
sie
siena
sierra
sigismund
sigma
sign
signal
signala
signale
signali
siguran
sigurna
sigurni
sigurno
sigurnos
sigurnosne
sigurnosni
sigurnosnih
sigurnost
sigurnosti
sijec
sijera
sil
sila
silama
silao
sile
silence
silent
sili
silicija
silla
silom
silovanja
silovanje
siltepec
silu
silva
silver
silvija
silvio
sim
sima
simbad
simbol
simbola
simbole
simboli
simbolic
simbolima
simbolizira
simbolom
simeon
simeona
simetric
simetrije
simfonija
simfonije
simfonijski
simic
simmons
simo
simojovel
simon
simona
simone
simovic
simpatic
simpatije
simpatizera
simple
simpson
simptom
simptoma
simptome
simptomi
simptomima
sims
simulacija
simulacije
sin
sina
sinagoga
sinagoge
sinaloa
sinan
sinatra
since
sindikat
sindikata
sindrom
sindroma
sine
sing
singapur
singer
singh
singl
singla
single
singlica
singlice
singlova
singlovi
sings
sinh
sinis
sinj
sinkronizacija
sinod
sinoda
sinodic
sinom
sinonim
sinonimi
sinopsis
sinova
sinove
sinovi
sinovima
sintagma
sintaza
sintetaza
sintetic
sintetis
sinteza
sinteze
sintezi
sintezu
sinu
sinus
sio
sir
sira
siracusa
sirakuze
sirc
sirena
sirija
sirije
siriji
sirijska
sirijske
sirijski
siriju
sirius
siroc
siromas
sirotis
sirovina
sirovine
sis
sisac
sisak
sisara
sisari
sisavaca
sisavci
siska
sisku
sistem
sistema
sistematika
sistematski
sistematskim
sisteme
sistemi
sistemima
sistemom
sistemske
sistemski
sistemu
sister
sisters
site
sites
siti
sitne
sitni
sitnih
sitnim
situ
situacija
situacijama
situacije
situaciji
situacijom
situaciju
siv
siva
sive
sivi
sivo
six
size
sjaj
sjaja
sjajan
sjajna
sjajne
sjajno
sjec
sjedala
sjedec
sjedi
sjedinjene
sjedinjenih
sjedinjenim
sjedis
sjednici
sjeme
sjemenis
sjena
sjene
sjeni
sjenica
sjever
sjevera
sjeverna
sjeverne
sjeverni
sjevernih
sjevernije
sjevernim
sjevernjac
sjeverno
sjevernoameric
sjevernog
sjevernoj
sjevernom
sjevernu
sjeveroistoc
sjeveroistok
sjeveroistoka
sjeveroistoku
sjeverozapad
sjeverozapada
sjeverozapadne
sjeverozapadni
sjeverozapadno
sjeverozapadnoj
sjeverozapadnom
sjeverozapadu
sjeveru
sk
ska
skac
skadar
skadra
skakac
skala
skale
skali
skandal
skandala
skean
skec
skelet
skeleta
skender
skeptic
skh
ski
skica
skice
skijalis
skijanje
skijanju
skijas
skin
skj
skladao
skladatelj
skladatelja
skladba
skladbe
skladbi
skladbu
skladis
skladu
sklapa
sklapaju
sklapanja
sklapanje
skleroze
sklon
skloni
sklonio
sklonis
sklonost
sklonosti
sklop
sklopi
sklopila
sklopili
sklopio
sklopiti
sklopljen
sklopu
skoc
skoj
skok
skoka
skokova
skopje
skoplja
skoplje
skoplju
skoro
skot
skovao
skrac
skrb
skrbi
skrec
skrenuo
skriva
skrivene
skriveni
skrovis
sku
skulptor
skulptori
skulptura
skulpturama
skulpture
skulpturu
skup
skupa
skupe
skupi
skupina
skupinama
skupine
skupini
skupinom
skupinu
skupio
skuplja
skupljaju
skupljanje
skupova
skupovi
skupovima
skups
skupu
sky
skz
sl
sla
slab
slaba
slabe
slabi
slabih
slabije
slabiji
slabim
slabljenja
slabljenje
slabo
slabog
slabost
slabosti
slabu
slali
slam
slanja
slanje
slao
slap
slati
slatina
slatka
slatke
slatki
slava
slavan
slave
slaven
slavena
slaveni
slavenska
slavenske
slavenski
slavenskih
slavenskog
slavi
slavica
slavija
slavili
slavio
slavis
slavka
slavko
slavlje
slavna
slavne
slavni
slavnih
slavnim
slavnog
slavnom
slavoljub
slavoluk
slavonija
slavonije
slavoniji
slavoniju
slavonska
slavonske
slavonski
slavonskog
slavonskoj
slavonskom
slavu
slaz
sledbenici
slede
sledec
sledi
sleep
slem
slic
slici
slijede
slijedec
slijedi
slijedila
slijedili
slijedio
slijediti
slijetanja
slika
slikama
slikanja
slikanje
slikao
slikar
slikara
slikari
slikarica
slikarstva
slikarstvo
slikarstvu
slike
slikom
sliku
sliv
sliva
slivu
sljedbenici
sljedbenika
sljedec
sloboda
slobodan
slobodana
slobode
slobodi
slobodna
slobodne
slobodni
slobodnih
slobodnim
slobodno
slobodnog
slobodnoj
slobodnom
slobodnu
slobodu
slog
sloga
slogan
sloj
sloja
slojem
slojeva
slojeve
slojevi
slojevima
sloju
slom
sloma
slomio
slomljen
slon
slonova
slonovac
slova
slovac
slovaci
slovena
slovenac
slovenaca
slovenci
sloveni
slovenija
slovenije
sloveniji
sloveniju
slovenska
slovenske
slovenski
slovenskih
slovenskim
slovensko
slovenskog
slovenskoj
slovenskom
slovima
slovo
slovom
sloz
sluc
sluga
sluge
sluha
slus
sluz
sluzokoz
sm
small
smanjen
smanjena
smanjene
smanjenja
smanjenje
smanjenjem
smanjenju
smanjeno
smanji
smanjila
smanjilo
smanjio
smanjiti
smanjivanje
smanjuje
smanjuju
smatra
smatraju
smatrajuc
smatrala
smatrale
smatrali
smatralo
smatran
smatrana
smatrani
smatrao
smatrati
sme
smec
smedereva
smederevo
smeju
smenjen
smer
smera
smeru
smes
smetnje
smeđa
smeđe
smeđi
smije
smijenjen
smijes
smiju
smis
smisao
smisla
smislu
smit
smith
smitha
smithsonian
smjer
smjera
smjerovima
smjeru
smjes
smjesa
smjese
smjestio
smjestiti
smo
smola
smole
smrc
smrt
smrti
smrtna
smrtne
smrtnih
smrtno
smrtnost
smrtnosti
smrtnu
smrtonos
sms
sn
sna
snabdevanja
snabdevanje
snaga
snagama
snage
snagom
snagu
snas
snaz
snazi
sneg
snez
snijeg
snijega
snima
snimaju
snimak
snimaka
snimala
sniman
snimana
snimanja
snimanje
snimanjem
snimanju
snimao
snimatelj
snimati
snimci
snimi
snimila
snimili
snimio
snimiti
snimka
snimke
snimku
snimljen
snimljena
snimljene
snimljeni
snimljenih
snimljeno
sniz
snjez
snop
snopa
snova
snovi
snow
snp
snu
so
soba
sobe
sobi
sobnoj
sobom
sobu
soc
social
society
socijaldemokratska
socijaldemokratske
socijalista
socijalisti
socijalistic
socijalizam
socijalizma
socijalna
socijalne
socijalni
socijalnih
socijalnim
socijalno
socijalnog
socijalnom
socijalnu
sociolog
sociologija
sociologije
sociolos
sofia
sofija
sofije
sofiji
softver
softvera
software
sojuz
sok
soko
sokol
sokola
sokolac
sokolovic
sokrat
sol
sola
solar
solarna
solarne
solarni
solarnih
solarnog
soldier
soledad
soli
solidaridad
solidarnost
solidarnosti
solista
solistic
solo
solomon
solun
soluna
solunski
solunu
som
soma
sombor
sombrerete
some
something
son
sonata
sonda
sonde
sondrio
song
songs
sonic
sonja
sonny
sonora
sons
sony
sophia
sophie
sopra
sopran
sopstvene
sopstveni
sopstvenim
sopstvenog
sopstvenom
sopstvenu
sos
soto
sotto
soul
sound
soundtrack
source
sources
sous
south
southern
sova
soviet
sovjeta
sovjeti
sovjetima
sovjetska
sovjetske
sovjetski
sovjetskih
sovjetskim
sovjetsko
sovjetskog
sovjetskoj
sovjetskom
sovjetsku
sp
spa
space
spada
spadaju
spain
spaja
spajaju
spajanja
spajanje
spajanjem
spalili
spalio
spaljen
spaljena
spaljeno
spaljivanje
spanish
sparta
spartak
spartanci
spartanske
spartanski
sparte
sparti
spartu
spas
spasa
spasao
spase
spasenje
spasi
spasila
spasili
spasio
spasitelja
spasiti
spava
spavac
spavanja
spavanje
spavao
spc
spd
spears
special
species
specific
specificirane
specificirani
specijalistic
specijaliziran
specijalna
specijalne
specijalni
specijalnih
specijalnim
specijalno
specijalnog
specijalnost
specijalnu
speech
speed
spektar
spektra
spektroskopija
spektru
spencer
spezia
spider
spiegel
spielberg
spin
spina
spiralna
spiralne
spirit
spis
spisa
spisak
spisateljica
spisateljice
spise
spisi
spisima
spisku
spisu
splic
split
splita
splitska
splitske
splitski
splitsko
splitskog
splitskom
splitu
spljos
spo
spoj
spoja
spojen
spojena
spojene
spojeni
spojeva
spojeve
spojevi
spojila
spojio
spojiti
spoju
spol
spola
spolja
spoljas
spoljne
spoljni
spoljnih
spolne
spolni
spolnih
spolno
spolu
spomen
spomendan
spomenice
spomenici
spomenicima
spomenik
spomenika
spomenike
spomenikom
spomenuo
spomenut
spomenuta
spomenute
spomenuti
spomenutih
spomenuto
spomenutog
spominje
spominju
spontano
spor
spora
sporadic
sporazum
sporazuma
sporazume
sporazumi
sporazumom
sporazumu
spore
sporedna
sporedne
sporedni
sporednih
sporednog
sporednu
sporije
sporo
sporova
sport
sporta
sportas
sportista
sportnet
sportova
sportovi
sportovima
sports
sportska
sportske
sportski
sportskih
sportskim
sportsko
sportskog
sportu
sporu
sposoban
sposobna
sposobne
sposobni
sposobnost
sposobnosti
sposobnostima
spot
spota
spotu
spoznaja
spoznaje
sprava
sprec
spregnuti
spregnutih
sprema
spreman
spremna
spremni
spremnik
spremnika
spremno
spremnost
sprijateljio
sprijec
spring
springer
springfield
springs
springsteen
sprjec
sprovedena
sproveo
sprovode
sprovodi
sprovođenje
sps
spus
spustio
spuz
spy
sqq
sqrt
squad
square
sr
srba
srbe
srbi
srbija
srbije
srbiji
srbijom
srbiju
srbima
srbin
src
srca
srce
srcem
srcu
srebra
srebrenica
srebrenice
srebrenici
srebrenik
srebrna
srebrne
srebrni
srebrnim
srebrnu
srebro
srec
sredina
sredinama
sredine
sredini
sredinom
sredinu
sredis
srednja
srednje
srednjeg
srednjem
srednji
srednjih
srednjim
srednjoj
srednjom
srednjos
srednjovekovna
srednjovekovne
srednjovekovni
srednjovjekovna
srednjovjekovne
srednjovjekovni
srednjovjekovnih
srednjovjekovnim
srednjovjekovnog
srednjovjekovnoj
srednju
sredozemlja
sredozemlju
sredozemno
sredozemnog
sredozemnom
sredstava
sredstva
sredstvima
sredstvo
sreli
srem
srema
sremska
sremske
sremski
sremskim
sremskoj
sremskom
sremu
sreo
sresti
sretan
sreten
sretne
sretno
sreza
srezu
sri
srijedu
srj
srodan
srodna
srodne
srodni
srodnici
srodnih
srodnika
srodnim
srodstvu
srp
srpanj
srpnja
srpnju
srpska
srpske
srpski
srpskih
srpskim
srpsko
srpskog
srpskohrvatski
srpskohrvatskog
srpskohrvatskom
srpskoj
srpskom
srpsku
srs
srus
srz
srđan
ss
ssr
sssr
st
sta
stabala
stabilan
stabilizacije
stabilna
stabilne
stabilni
stabilnost
stabilnosti
stabla
stablo
stada
stadij
stadija
stadijum
stadion
stadiona
stadionu
stage
stajac
stajala
stajalis
stajao
staje
stakla
staklene
staklenic
staklo
stala
stalan
stalez
stali
staljin
staljina
staljinistic
staljinove
stalna
stalne
stalni
stalnih
stalnim
stalno
stalnog
stalnom
stalnu
stalo
stambena
stambene
stambeni
stambenih
stambeno
stambolic
stan
stana
stanc
stand
standard
standarda
standarde
standardi
standardima
standardna
standardne
standardni
standardnih
standardnim
standardno
standardnog
standardnom
standardu
stane
stanford
stanic
stanica
stanicama
stanice
stanici
stanicu
stanis
stanislav
stanja
stanje
stanjem
stanjima
stanju
stanka
stanko
stankovic
stanley
stanojevic
stanova
stanovanja
stanovanje
stanovis
stanovnici
stanovnicima
stanovnik
stanovnika
stanovnikapopis
stanovnike
stanovnis
stanu
stao
star
stara
starac
starc
starca
stare
stares
stari
starih
starija
starije
starijeg
starijem
stariji
starijih
starijim
stariju
starim
starina
starine
starjes
staro
starog
staroga
starogrc
staroj
starom
starost
starosti
stars
start
staru
stat
state
states
stati
static
station
statistic
statistics
statistika
statistike
statistiku
statua
statue
status
statusa
statusom
statusu
statut
statuta
stav
stava
stave
stavi
stavila
stavili
stavio
staviti
stavlja
stavljaju
stavljanje
stavljen
stavljena
stavljeni
stavova
stavove
stavovi
stavovima
stavu
staz
staza
stazama
staze
stazi
stazione
stazu
ste
stec
steel
stefan
stefana
stefano
stefanovic
stefanu
stein
steinicke
stekao
stekla
stekli
stekne
stela
stella
stena
stene
stenoza
step
stepa
stepe
stepen
stepena
stepeni
stepenica
stepenice
stepenis
stepenom
stepenu
stephane
stephanie
stephen
stephena
sterling
stern
steroidi
stevan
stevana
stevanovic
steve
steven
stevena
stevens
stevenson
stevo
stewart
stic
sticajem
sticanja
sticanje
stigao
stigla
stigle
stigli
stiglo
stigne
stih
stiha
stihova
stihove
stihovi
stihovima
stihu
stijena
stijenama
stijene
stijeni
stil
stila
still
stilom
stilova
stilove
stilovi
stilovima
stilski
stilu
stimulis
stipe
stipendiju
stiven
stiz
stjec
stjecanja
stjepan
stjepana
sto
stoc
stockholm
stockholmu
stockings
stoga
stogodis
stoic
stojadinovic
stojan
stojanovic
stoje
stojec
stoji
stojiljkovic
stojkovic
stoka
stoke
stoku
stol
stola
stolac
stolec
stolica
stolice
stolici
stolicu
stoljec
stolovao
stolu
stone
stones
stop
stopa
stopala
stopalo
stope
stopom
stopu
storia
stories
storm
story
stos
stotina
stotinama
stotine
stotinjak
stotinu
stoz
str
stra
strabon
strada
stradala
stradali
stradalih
stradalima
stradalo
stradanja
stradanje
stradao
strah
straha
strahu
straight
strana
stranac
stranaca
stranaka
stranama
stranci
strane
strange
stranger
strani
stranica
stranicama
stranice
stranici
stranicu
stranih
stranim
stranka
strankama
stranke
strankom
stranku
stranog
stranom
stranu
stras
strasbourg
strast
strasti
strategija
strategije
strategiju
strates
strauss
straz
strazbur
strazburs
street
strelac
streljac
streljali
streljan
streljani
streljanje
stres
stresa
stric
strica
strijela
strijelac
strijelci
strike
striktno
string
strip
stripa
stripova
stripovi
stripovima
stripu
strmim
stroga
stroge
strogi
strogo
stroj
stroja
strojarstva
strojeva
strojevi
strong
stroz
struc
struci
structure
struga
struja
strujanja
strujanje
struje
struji
strujni
strujom
struju
struke
struktura
strukturama
strukture
strukturi
strukturne
strukturni
strukturno
strukturom
strukturu
strumica
stuart
stub
stuba
stubis
stubova
studenata
studeni
studenog
studenoga
studenom
student
studenta
studente
studenti
studentima
studentske
studentski
studentskih
studentskog
studies
studij
studija
studijama
studije
studiji
studijima
studijski
studiju
studio
studios
studira
studirala
studirao
studirati
study
stup
stupa
stupanj
stupanja
stupi
stupila
stupio
stupnja
stupnjeva
stupnju
stupova
stupovi
stupovima
stuttgart
stvar
stvara
stvaraju
stvarajuc
stvaralac
stvaralas
stvarali
stvaranja
stvaranje
stvaranjem
stvaranju
stvarao
stvarati
stvari
stvarima
stvarna
stvarne
stvarni
stvarnih
stvarnim
stvarno
stvarnog
stvarnom
stvarnost
stvarnosti
stvarnu
stvore
stvoren
stvorena
stvorene
stvoreni
stvorenja
stvorenje
stvoreno
stvori
stvorila
stvorile
stvorili
stvorilo
stvorio
stvoriti
stvorivs
style
su
sua
sub
subjekt
subjekta
subota
subotic
subotica
subotice
subotici
subotom
subotu
suc
suca
such
suchiate
suci
sud
suda
sudac
sudaca
sudan
sudana
sudanu
sudar
sudara
sudaru
sudbina
sudbine
sudbini
sudbinu
sudec
sudi
sudija
sudije
sudionici
sudionik
sudionika
sudjelovala
sudjelovale
sudjelovali
sudjelovalo
sudjelovanja
sudjelovanje
sudjelovao
sudjelovati
sudjeluje
sudjeluju
sudom
sudova
sudove
sudovi
sudovima
sudska
sudske
sudski
sudskog
sudskom
sudsku
sudu
sue
sugar
sugerira
sugeriraju
sugeris
suha
suhe
suhi
suhim
sui
suicide
suigrac
suite
sukladno
sukob
sukoba
sukobe
sukobi
sukobili
sukobima
sukobio
sukobu
sul
sula
sulejman
sulejmana
sulfat
sulfata
sulfid
sulfonamidi
sulfoni
sullivan
sultan
sultana
sultanat
sultanata
sultanija
sultanu
sum
suma
sumerski
summary
summer
sumnja
sumnje
sumnjic
sumnjom
sumnju
sumpor
sumpora
sumporne
sumrak
sun
sunc
sunca
sunce
suncem
suncu
sunday
sung
sunset
suoc
suosnivac
sup
suparnic
suparnik
suparnika
suparnis
supe
super
superior
superkup
superman
suppl
support
supporting
suprotan
suprotne
suprotnim
suprotno
suprotnog
suprotnoj
suprotnom
suprotnost
suprotnosti
suprotstavio
suprotstaviti
suprotstavlja
suprug
supruga
supruge
suprugom
suprugu
supruz
supruzi
supstanca
supstance
supstanci
supstrat
supstrata
sur
sura
suradnici
suradnicima
suradnik
suradnika
suradnja
suradnje
suradnji
suradnju
surađivao
surađivati
surađuje
surg
surgery
surinam
survey
sus
susan
susedne
susednih
susednim
susjeda
susjedi
susjedna
susjedne
susjedni
susjednih
susjednim
susjednog
susjednoj
susjednom
susrec
susreli
susreo
susresti
susret
susreta
susreti
susretima
susretu
sustav
sustava
sustave
sustavi
sustavima
sustavno
sustavom
sustavu
sutjesci
sutjeska
sutjeske
sutra
sutradan
suva
suve
suverenitet
suvereniteta
suvis
suvremena
suvremene
suvremeni
suvremenih
suvremenika
suvremenim
suvremeno
suvremenog
suvremenoj
suvremenom
suvremenu
suz
suza
suzanne
suzbijanje
suzdrz
suze
suzuki
suzy
suđenja
suđenje
suđenju
suđeno
sv
sva
svac
svadba
svaka
svakako
svake
svaki
svakih
svakim
svako
svakodnevne
svakodnevni
svakodnevno
svakodnevnog
svakodnevnom
svakog
svakoga
svakoj
svakom
svakome
svaku
svatko
svađa
svađe
sve
svec
sveca
sveci
svedoc
svedok
svedoka
svega
svejedno
svemir
svemira
svemirska
svemirske
svemirski
svemirskih
svemirskog
svemiru
svemu
sven
sveopc
sves
sveska
svest
svestan
svesti
svet
sveta
svetac
svetaca
svete
sveti
svetih
svetilis
svetim
svetis
svetislav
svetkovina
svetla
svetlana
svetlo
svetlost
svetlosti
sveto
svetog
svetoga
svetoj
svetom
svetonije
svetozar
svetozara
svetska
svetske
svetski
svetskih
svetskim
svetsko
svetskog
svetskoj
svetskom
svetsku
svetu
sveuc
sveukupno
svez
svezak
svezaka
svg
svi
svibanj
svibnja
svibnju
sviftova
svih
svijec
svijest
svijesti
svijet
svijeta
svijetla
svijetle
svijetlo
svijetom
svijetu
svile
svim
svima
svinja
svinje
svira
svirac
sviraju
svirali
sviranja
sviranje
svirao
svirati
sviđa
svjedoc
svjedoci
svjedok
svjedoka
svjesni
svjesno
svjestan
svjetiljke
svjetla
svjetlo
svjetlosnih
svjetlost
svjetlosti
svjetlu
svjetska
svjetske
svjetski
svjetskih
svjetskim
svjetsko
svjetskog
svjetskoj
svjetskom
svjetsku
svjez
svlada
svladati
svo
svod
svoda
svodi
svog
svoga
svoj
svoja
svoje
svojeg
svojega
svojem
svojevremeno
svojevrsna
svojevrsni
svojevrsnu
svojih
svojim
svojine
svojoj
svojom
svojstava
svojstva
svojstvima
svojstvo
svojstvu
svoju
svom
svome
svrgavanja
svrgnuo
svrgnut
svrgnuti
svrha
svrhe
svrhom
svrhu
svrs
svrstanih
svrstanim
svrstati
svrstava
svrstavaju
svu
svuda
swanton
sweet
swift
sword
sy
sydney
sylvia
syndrome
system
systems
sz
szo
t
ta
tab
taba
tabasco
tabasko
tabela
tabele
tabeli
table
tablica
tablice
tablici
tabor
tabu
tac
taca
tacit
tad
tada
tadas
tadic
tadz
tag
tai
taiz
taj
taja
tajac
tajanstveni
taje
tajerske
tajerskoj
tajfun
taji
tajima
tajland
tajlanda
tajlandu
tajn
tajna
tajnburg
tajne
tajni
tajnih
tajnik
tajnika
tajnim
tajno
tajnog
tajnoj
tajnom
tajnosti
tajnu
taju
tajuc
tajvan
tajvanu
tak
takav
take
takes
taking
takmic
tako
takozvana
takozvane
takozvani
takođe
također
taksi
taksonomija
taktic
taktika
taktike
taktiku
takva
takve
takvi
takvih
takvim
takvo
takvog
takvoj
takvom
takvu
[...]
