!
"
#
##0
##1
##10
##11
##12
##13
##14
##15
##16
##17
##18
##19
##2
##20
##21
##22
##23
##24
##25
##26
##27
##28
##29
##3
##30
##31
##32
##33
##34
##35
##36
##37
##38
##39
##4
##40
##41
##42
##43
##44
##45
##46
##47
##48
##49
##5
##50
##51
##52
##53
##54
##55
##56
##57
##58
##59
##6
##60
##61
##62
##63
##64
##65
##66
##67
##68
##69
##7
##70
##71
##72
##73
##74
##75
##76
##77
##78
##79
##8
##80
##81
##82
##83
##84
##85
##86
##87
##88
##89
##9
##90
##91
##92
##93
##94
##95
##96
##97
##98
##99
$
%
&
'
(
)
*
+
,
-
.
/
0
00
000
0007692714
001
002
003
004
007
009
01
010
011
012
014
0140136495
015
016
018
019
02
020
021
024
025
026
027
029
03
030
031
033
034
035
036
04
0415278805
047
04752
05
050
0508
052
054
055
06
060
063
065
067
068
069
07
0748602763
078
08
084
086
0861521501
0861522214
087
088
089
09
0901771926
0903204215
093
094
096
1
10
100
1000
1001
1002
1003
1004
1005
1005498
1006
1007
1008
1009
101
1010
1013
1014
1016
1017
1018
1019
102
1020
1023
1024
1025
1029
103
1030
1031
1032
1034
1038
1039
104
1040
1041
1044
105
1050
1056
1057
1058
106
1060
1062
1066
1067
107
1070
1071
1073
1074
1079
108
1080
1085
1086
1088
109
1090
1091
1093
1095
1098
1099
11
110
1100
1101
1103
1106
1107
111
1110
1111
1118
1119
112
1120
1124
1128
1129
113
1130
1132
1133
1135
1138
1139
114
1140
1141
1142
1143
1145
115
1150
1152
1153
1156
1157
1158
116
1160
1162
1165
1169
117
1170
1171
1172
1173
1174
1177
1178
118
1180
1185
119
1190
1191
1195
1198
12
120
1200
1204
1206
1208
121
1210
1211
1212
1213
1214
12148
1215
1216
1218
1219
122
1220
1221
1222
1224
1226
1227
123
1230
1233
1234
1235
1236
1237
1238
1239
124
1240
1241
1242
1244
1245
1246
1247
1248
1249
125
1250
1252
1253
1254
1255
1257
1258
126
1260
1261
1262
1263
1265
1266
1269
127
1270
1272
1274
1275
1278
1279
128
1280
1282
1283
1284
1285
1286
1288
1289
129
1290
1291
1293
1295
1296
1297
1298
1299
13
130
1300
1303
1304
1305
1306
1307
1308
131
1310
1312
1313
1314
1315
1316
1317
1319
132
1320
1321
1322
1324
1325
1326
1327
1328
1329
133
1330
1331
1332
1333
1335
1339
134
1340
1341
1342
1343
1344
1346
1348
1349
135
1350
1352
1356
1359
136
1360
1362
1363
1364
1365
1367
1368
1369
137
1370
1371
1373950
1374004
1374265
1374665
1374859
1379
138
1380
1382
13836
1385
1386
1388
1389
139
1390
1391
1392
1394
1395
1396
1397
1398
14
140
1400
1401
1402
1403
1404
1405
1406
1408
1409
141
1410
1411
1412
1413
1415
1419
142
1420
1421
1422
1423
1424
1425
1427
1428
1429
143
1430
1431
1434
1435
1437
1438
1439
144
1440
1442
1443
1444
1446
1447
1448
145
1450
1451
1452
1453
1455
1456
1457
1458
1459
146
1460
1461
1462
1463
1464
1465
1466
1467
1468
1469
147
1470
1471
1472
1473
1474
1475
1476
1477
1478
1479
148
1480
1481
1482
1483
1484
1485
1488
149
1490
1491
1492
1493
1494
1495
1496
1497
1498
1499
15
150
1500
1501
1502
1503
1504
1505
1506
1507
1508
1509
151
1510
1511
1512
1513
1514
1515
1516
1517
1518
1519
152
1520
1521
1522
1523
1524
1525
1526
1527
1528
1529
153
1530
1532
1533
1534
1535
1536
1537
1538
1539
154
1540
1541
1542
1543
1544
1545
1546
1547
1548
1549
155
1550
1551
1552
1553
1554
1555
1556
1557
1558
1559
156
1560
1561
1562
1563
1564
1565
1566
1567
1568
1569
157
1570
1571
1572
1574
1575
1576
1578
1579
158
1580
1581
1582
1583
1584
1585
1587
1588
1589
159
1590
1591
1592
1593
1594
1595
1596
1597
1598
1599
16
160
1600
1601
1602
1603
1604
1605
1606
1607
1608
1609
161
1610
1611
1612
1613
1614
1615
1616
1617
1618
1619
162
1620
1621
1622
1623
1624
1625
1626
1627
1628
1629
163
1630
1631
1632
1633
1634
1635
1636
1637
1638
1639
164
1640
1641
1642
1644
1645
1646
1647
1648
1649
165
1650
1651
1652
1653
1654
1655
1656
1657
1658
1659
166
1660
1661
1662
1663
1664
1665
1666
1667
1668
1669
167
1670
1671
1672
1673
1674
1675
1676
1677
1679
168
1680
1681
1682
1683
1684
1685
1686
1687
1688
1689
169
1690
1691
1692
1693
1694
1695
1696
1697
1698
1699
17
170
1700
1701
1702
1703
1704
1705
1706
1707
1708
1709
171
1710
1711
1712
1713
1714
1715
1716
1717
1718
1719
172
1720
1721
1722
1723
1724
1725
1726
1727
1728
1729
173
1730
1731
1732
1733
1734
1735
1736
1737
1738
1739
174
1740
1741
1742
1743
1744
1745
1746
1747
1748
1749
175
1750
1751
1752
1753
1754
1755
1756
1757
1758
1759
176
1760
1761
1762
1763
1764
1765
1766
1767
1768
1769
177
1770
1771
1772
1773
1774
1775
1776
1777
1778
1779
178
1780
1781
1782
1783
1784
1785
1786
1787
1788
1789
179
1790
1791
1792
1793
1794
1795
1796
1797
1798
1799
18
180
1800
1801
1802
1803
1804
1805
1806
1807
1808
1809
181
1810
1811
1812
1813
1814
1815
1816
1817
1818
1819
182
1820
1821
1822
1823
1824
1825
1826
1827
1828
1829
183
1830
1831
1832
1833
1834
1835
1836
1837
1838
1839
184
1840
1841
1842
1843
1844
1845
1845027116
1846
1847
1848
1849
185
1850
1851
1852
1853
1854
1855
1856
18568
1857
1858
1859
186
1860
1861
1862
1863
1864
1865
1866
1867
1868
1869
187
1870
1871
1871901391
1872
1873
1874
1875
1876
1877
1878
1879
188
1880
1881
1882
1883
1884
1885
1886
1887
1888
1889
189
1890
1891
1892
1893
1894
1895
1896
1897
1898
1899
19
190
1900
1901
1902
1903
1904
1905
1906
1907
1908
1909
191
1910
1911
1912
1913
1914
1915
1916
1917
1918
1919
192
1920
1921
1922
1923
1924
1925
1926
1927
1928
1929
193
1930
1931
1932
1933
1934
1935
1936
1937
1938
1939
194
1940
1941
1942
1943
1944
1945
1946
1947
1948
1949
195
1950
1951
1952
1953
1954
1955
1956
1957
1958
1959
196
1960
1961
1962
1963
1964
1965
1966
1967
1968
1969
197
1970
1971
1972
1973
1974
1975
1976
1977
1978
1979
198
1980
1981
1982
1983
1984
1985
1986
1987
1988
1989
199
1990
1991
1992
1993
1994
1995
1996
1997
1998
1999
2
20
200
2000
2001
2002
2003
2004
2005
2006
2007
2008
2009
201
2010
2011
2012
2013
2014
2015
2016
2017
2018
2019
202
2020
2021
2022
2023
2027
203
204
205
206
207
208
209
21
210
211
212
213
214
215
216
217
218
219
22
220
221
22187946
222
223
224
225
226
227
228
229
23
230
2305
2307
231
232
233
234
235
236
237
238
239
24
240
2400
241
242
243
244
24449041
245
246
247
248
249
25
250
2500
251
252
253
254
255
256
257
258
259
26
260
261
262
263
264
265
266
267
268
269
27
270
271
272
273
274
275
276
277
278
279
28
280
2800
281
282
283
284
285
286
287
288
289
29
290
291
292
293
294
295
296
297
29761
298
299
3
30
300
3000
301
302
303
304
305
306
307
308
309
31
310
311
312
313
314
315
316
317
318
319
32
320
321
322
323
324
325
326
327
328
329
33
330
331
332
333
334
335
336
337
338
339
34
340
341
342
343
344
345
346
347
348
349
35
350
3503787
351
352
353
354
355
356
357
358
359
36
360
361
362
363
364
365
366
366667
367
368
369
37
370
371
372
373
374
375
376
377
378
379
38
380
381
382
383
384
385
386
387
388
389
39
390
391
392
393
394
395
396
397
398
39816686
399
4
40
400
4000
4003
401
402
403
404
405
406
407
408
409
41
410
411
412
413
414
415
416
417
418
419
42
420
421
422
423
424
425
426
427
428
429
43
430
431
432
433
434
435
436
437
438
439
44
440
441
442
443
444
445
446
447
448
449
45
450
451
452
453
454
455
456
457
458
459
46
460
461
462
463
464
465
466
467
468
469
47
470
471
472
473
474
475
476
478
479
48
480
481
482
483
484
485
486
487
488
489
49
490
491
492
493
494
495
496
497
498
499
5
50
500
5000
501
502
503
504
505
506
507
508
509
51
510
511
512
513
514
515
516
517
518
519
52
520
521
522
523
524
525
526
527
528
529
53
530
531
533
534
535
536
537
538
539
54
540
541
542
543
544
545
546
547
548
549
55
550
551
552
553
554
555
556
557
558
559
56
560
5600
5609
561
562
563
564
565
566
567
568
569
57
570
571
572
573
574
575
576
577
578
579
58
580
581
582
583
586
587
588
589
59
590
591
592
593
594
59420
595
596
597
599
6
60
600
601
60251199
603
604
60485
605
606
607
608
609
61
610
611
612
613
614
615
616
617
618
619
62
620
621
622
62265494
623
624
625
626
627
628
629
63
630
631
632
633
634
635
636
637
638
639
64
640
641
642
643
645
647
648
649
65
650
652
653
654
655
656
657
658
659
66
660
661
663
664
665
666
667
668
669
67
670
671
672
673
674
675
676
677
679
68
680
681
682
683
684
685
686
687
688
689
69
690
691
692
693
694
695
696
697
698
699
7
70
700
701
702
703
704
705
706
707
708
709
71
710
711
712
713
714
715
716
717
718
719
72
720
721
722
7229
723
724
725
726
727
728
729
73
730
731
733
735
736
737
738
739
74
740
741
742
743
745
746
747
748
7486
749
75
750
7509
751
752
753
754
755
756
7564
757
759
76
760
761
762
763
765
766
768
769
77
770
771
772
773
774
775
776
777
778
779
78
780
781
782
783
784
785
786
787
788
789
79
790
791
792
793
794
795
796
797
798
799
8
80
800
801
8018
802
803
804
805
806
807
808
81
810
811
812
813
814
815
816
817
818
82
820
821
8221
823
824
825
826
828
829
829941
83
830
831
832
8329
833
834
835
836
837
838
839
84
840
841
84158
84195
842
843
845
846
847
84734
848
849
85
850
851
852
8526
853
854
855
856
857
858
859
86
860
860764
861
86152
862
863
865
866
867
869
87
870
871901
872
874
875
876
877
878
879
88
880
881
88182
882
883
884
885
886
887
888
889
89
890
891
892
893
894
895
896
897
898
899
9
90
900
9000
901771
901771929
902
902512
903
903204
904
905
905192
906
907
908
909
91
910
911
912
913
914
915
916
918
919
92
920
921
923
924
925
926
927
928
929
93
930
933
934
935
936
936625
937
938
939
94
940
941
943
944
945
946
947
948
949
95
950
951
952
953
954
955
956
957
958
959
96
960
961
962
963
965
966
967
968
969
97
970
971
972
973
974
975
976
977
978
9781847672773
979
98
980
981
982
984
986
987
988
989
99
990
991
992
993
995
996
997
998
999
:
;
<
=
>
?
@
[
\
]
^
_
`
a
aa
aachen
aachener
aaiu
aan
aarau
aarberg
aardvark
aargau
aaron
ab
aba
ababa
abadi
abaid
abair
abairt
abairtean
abairthusa
abar
abat
abba
abbasi
abbaye
abbey
abbott
abc
abd
abdel
abderhalden
abdu
abdullah
abdulrazak
abe
abegg
abel
abenteuer
abeokuta
aber
aberdeen
aberdeenshire
aberdour
aberlady
abertawe
aberteifi
aberystwyth
abhach
abhainn
abhainne
abhaist
abhaisteach
abhalon
abhann
abhlaid
abhlaideach
abhlaidich
abidjan
ability
able
aboriginal
about
above
aboyne
abraham
abramis
abrar
abroad
abrupt
abruzzo
abstol
abstolach
abstract
abu
abuja
abundances
aburra
ac
aca
acadaimeagach
acadaimigeach
acadamaidh
acadamh
acade
academia
academic
academy
acaill
acain
acainn
acair
acarsaid
acasan
access
accessed
accident
accona
account
accra
acfhainn
ach
achadh
achaidh
achaidhean
achar
achd
achdan
achieve
achill
achlais
achlaise
achtice
acinonyx
acipenseridae
acla
acosta
acras
acres
across
acs
act
acta
actair
actanach
acteon
actinium
action
active
actor
acts
actual
actually
aculeatus
ad
ada
adag
adagan
adai
adaigh
adainn
adam
adamnan
adams
adamson
adan
adana
adas
addax
added
addington
addis
addition
adelaide
adelns
adeva
adger
adh
adha
adhadaireachd
adhair
adhairc
adhamh
adhar
adharc
adharcach
adharcan
adhart
adhartach
adhartachadh
adhartaiche
adhartas
adhartasan
adhbhair
adhbhar
adhbharachadh
adhbharaich
adhbharan
adhbhrachadh
adhbhraich
adhbrann
adhlacadh
adhoq
adhradh
adhraidh
adige
adjective
administration
administrative
adolf
adolfo
adolph
adomna
adopted
adopts
adriaan
adrian
advanced
advances
advent
adventures
advertiser
advisor
ae
aef
aemet
aepyceros
aer
aeshna
aethiops
aetio
af
affairs
affric
afganastan
afon
afraga
afragach
afraganach
afraganais
afraig
africa
african
afrika
afrikaans
afro
after
ag
agad
agaibh
again
againn
againne
against
agallamh
agallamhan
agam
aganas
agaraig
agaricales
age
aged
agency
ages
agh
agha
aghaidh
aghaidheachd
aghaidhean
aghaigh
aglais
aglaja
agnes
agnetha
agnon
agordo
agrado
agre
agreement
agus
agusti
agɛr
ah
ahead
ahmed
ai
aibe
aibhe
aibhne
aibhneachan
aibhnichean
aibideil
aibidil
aice
aicese
aichillidh
aicseaman
aid
aida
aidan
aideachadh
aidheon
aidheonan
aidhodain
aidich
aidmheint
aids
aifreann
aifrinn
aig
aige
aigesan
aigese
aighean
aikin
ail
ailbeart
ailbhe
ailbhean
aildiria
aile
ailean
aileen
ailein
ailig
aille
aillse
aillseag
ailm
ailpein
ailseabra
ailseabrach
ailseag
ailt
ailtire
ailtireachd
ailtirean
aim
aimearaga
aimearagan
aimearaganach
aimearaganaich
aimearganach
aimed
aimeireaga
aimeireagach
aimeireaganach
aimeireaganaich
aimeirigeanach
aimerigeanach
aimhreit
aiming
aimn
aimsir
aimsire
aimsireil
ain
aindeoin
aindheoin
aingeal
ainm
ainmeach
ainmeachadh
ainmean
ainmear
ainmearan
ainmeil
ainmeile
ainmh
ainmhich
ainmhidh
ainmhidhean
ainmich
ainmicheadh
ainmichte
ainmneach
ainneamh
ainneart
ainneartach
ainneirt
ainslie
aintilia
ainu
air
airceig
aircleid
aird
airde
airdrie
aire
aireamh
aired
aires
airgead
airgeadach
airgid
airidh
airigh
airlines
airm
airmeanais
airmeinia
airmeinis
airport
airsan
airson
airth
airways
ais
aise
aiseag
aiseagan
aiseal
aiseig
aiseirigh
aisia
aisig
aisle
aisling
aislingean
aiste
aistean
aistear
aistidhean
ait
aite
aiteann
aithghearr
aithghearra
aithisg
aithisgean
aithne
aithneachadh
aithnich
aithnicheadh
aithnichear
aithnichearan
aithnichte
aithris
aithriseach
aithrisean
aitken
aix
ajuntament
ak
akademie
akademien
akerbeltz
akhenaten
akhmatova
akira
akra
akranes
aks
akureyri
al
ala
alabama
alacant
alach
alain
alamhagh
alan
alanais
alanya
alasca
alasdair
alaska
alastair
alba
albacete
albainn
albais
albam
alban
albanach
albani
albann
albannach
albannaich
albany
albateamplaid
albert
alberta
alberto
albertus
albrecht
album
albuquerque
alca
alcaileach
alcala
alcalaidh
alcalde
alcaraz
alcelaphus
alces
alcol
alder
alderney
aldo
aldobrandini
aldrin
ale
alec
alegre
aleister
aleixandre
alejandro
aleksandr
alekseyevich
alessandro
alex
alexander
alexandra
alexandria
alexandru
alexievich
alexis
alfaguara
alferov
alfonso
alford
alfred
alfredo
alfve
algeria
algiers
ali
alice
alighieri
alina
alison
alistair
alister
alive
all
alla
allah
allaidh
allais
allan
alle
allemaal
allen
allende
allgemeine
alliance
allmhagh
allmhaigh
alloa
allow
allowed
allowing
allows
allt
alltan
allvar
ally
alm
alma
almain
alman
almanach
almaty
almaz
almeida
almere
almeri
almost
alofi
aloidhean
alois
alone
along
alonso
alosinae
alpes
alpha
alphabet
alpin
alpine
already
als
alsace
also
alt
alta
altachadh
altachan
altair
altan
altaussee
altdorf
altenburg
alternating
alternative
although
altieri
altitude
altman
alto
altraim
aluiminium
aluinn
aluminium
alva
alvarez
alvord
always
alzette
alþingi
alþy
am
ama
amach
amadain
amadan
amadeus
amaga
amail
amain
amais
amanda
amanita
amannan
amar
amaral
amaran
amargosa
amartya
amas
amasan
amasya
amateur
amazon
amazonas
ambedkar
amber
ambrogio
ame
ameireaga
ameireagach
ameireagaidh
ameireaganach
ameireaganaich
ameireagium
amelia
amen
america
american
americana
americanus
americas
amersfoort
amh
amhach
amhaich
amhail
amhainn
amhairc
amharas
amharasach
amharc
amharclann
amherst
amhlaidh
amhlaoibh
ami
amiens
amisfield
amman
ammers
ammodytes
ammodytidae
ammotragus
amo
amon
among
amor
amos
amount
amroth
amsaa
amstelveen
amsterdam
amun
amundsen
amus
amy
an
ana
anabarrach
anabharr
anadais
anadas
anadh
anaichean
anaidh
anail
anailis
anailise
anailiseach
anaimh
anainn
anais
anakkale
analachadh
analysis
anam
anaman
anamh
anamoch
anann
anar
anarcach
anarhichas
anart
anas
anascaill
anatole
anatoliy
anatoly
anax
anaximander
ancestry
anchor
ancient
and
andalus
andalusia
andean
andere
anders
andersen
anderson
andersson
andes
andijewska
andorra
andra
andre
andrea
andreas
andrew
andrews
andric
andriy
andu
andy
ane
anet
anfinsen
ange
angel
angela
angeles
angelfish
angelica
angelique
angelita
angelo
angelou
angels
angelshark
angers
angharad
angla
anglais
angle
angled
angler
angles
anglesey
anglo
ango
angola
angostura
anguilliformes
angus
anhalt
ani
animal
animals
anisoptera
anita
ankara
ankhesenamun
anm
anmoch
anmoiche
ann
anna
annabel
annabelle
annaladh
annales
annals
annan
annandale
annapolis
annas
annasach
anndra
anne
anneke
annet
anni
annibale
annie
anniesland
anniversary
announces
anns
annta
annuaire
annual
another
ans
anser
ant
anta
antaine
antalop
antalya
antamonaidh
antananarivo
antargtaga
ante
antelope
anthology
anthony
anthozoa
anti
antich
antidorcas
antigonis
antigua
antilles
antioquia
antiquarian
antiquities
anto
antoine
antoinette
anton
antonescu
antoni
antonia
antonine
antonio
antonius
antonov
antony
antroponimia
antwerpen
anu
anwar
any
anywhere
ao
aobhar
aobharachadh
aodach
aodaich
aodainn
aodann
aodh
aodha
aoibhneas
aoidh
aoidhe
aoigheachd
aoil
aoilseag
aoin
aoine
aoir
aoireil
aois
aoise
aoiseach
aoisean
aol
aon
aona
aonach
aonachadh
aonachaidh
aonachain
aonachd
aonad
aonadach
aonadan
aonadh
aonaich
aonaichte
aonaidh
aonaidhean
aonais
aonamh
aonan
aonar
aonaran
aonghais
aonghas
aonghus
aonta
aontachadh
aontaich
aontaichte
aontaidh
aontar
aontaran
aontroim
aontroma
aora
aoradh
aosda
aosmho
aosmhor
aosta
aotrom
ap
apa
apache
apaichean
apann
apart
apartheid
apatura
aphantopus
aphra
apollo
appears
appel
appendix
appenzell
apple
applegarthtown
appleton
application
applied
apply
appointed
approach
april
apulo
apus
aquila
aquileo
aquiminzaque
aquitaine
ar
ara
arab
araba
arabach
arabachadh
arabaich
arabais
arabia
arabian
aracataca
arach
arad
arago
aragon
aragonais
aragəs
araibianach
araidh
arailt
arain
arainn
arainneach
arainte
arainteachd
aral
aramach
aramais
aran
arango
arann
aranzazu
araon
arascain
arasgain
arauca
araucana
arawak
arb
arbeitskreis
arbela
arbha
arbhair
arbhar
arboleda
arbor
arbuckle
arc
arcach
arcaibh
arcgis
arch
archaeological
archaeology
archer
archibald
archie
archimedes
architecture
archiv
archive
archived
archives
arctica
ard
arda
ardach
ardaoin
ardea
ardenne
ardnamurchan
ardrossan
are
area
areas
arenberg
arendt
arequipa
arezzo
arfordirol
arfwedson
argais
argamaid
argamaidean
argantain
argantaineach
argas
argasan
argentina
arges
argon
argtach
argus
argyll
argyllshire
arias
aricia
arida
arie
arieh
aries
arisaig
arismendi
aristote
aristoteles
aristotle
arizona
ark
arkansas
arkhip
arlington
arm
armach
armachd
armadail
armadal
armadillidium
armadillo
armaichte
armailt
armailteach
armailteachd
armainn
armand
armann
arme
armen
armenia
armero
armies
arms
armstrong
army
arnaldo
arnar
arne
arnee
arnhem
arno
arnold
arnoldson
arnott
arolsen
arouet
around
arpitan
arr
arran
arranged
array
arrecife
arrhenius
arrochar
arrow
ars
arsenal
arseniy
arsnaig
art
artagail
artaigil
artaigilean
artair
arte
arth
arthur
article
articles
artificial
artist
artistic
artists
arts
artturi
artur
aruisg
arvid
as
asaint
asainte
asal
asar
asarbaidea
asarbaideanais
aschaffenburg
ascrib
asgaidh
asgaig
ash
ashgabat
ashik
asia
asian
asin
asmara
asp
aspects
asperger
aspx
asquith
ass
assembly
assen
assendelft
asser
assessment
assignment
associated
association
assynt
ast
asta
astair
astana
astar
astaran
astaroid
astatain
asterix
aston
astra
astrailia
astraine
astronomical
astronomy
asturianis
asturias
astute
asuncio
at
ata
atacama
atachadh
atadail
atadal
atair
atam
atamach
ataman
atatu
atawallpa
atelerix
ath
atha
athaill
athair
athall
athar
atharrachadh
atharrachaidh
atharrachaidhean
atharrachail
atharraich
atharraicheadh
atharraichean
atharraicheas
atharraichidh
atharraichte
atharraidhean
atharrais
athletic
athletics
atholl
atla
atlanta
atlantel
atlantic
atlas
atoll
atom
atomgevitter
atomic
atrice
attack
attempt
attempts
attlee
atyrau
au
aubrey
auckland
aude
audio
audrey
auf
auflage
augsburg
august
augusta
auguste
augustine
augusto
augustus
auld
auldgirth
aumann
aun
aurelius
aurinia
auritus
aurora
aus
auschwitz
auskerry
ausserrhoden
austen
austin
australia
australian
austria
austronesian
austurland
author
authorities
authority
authors
auto
autobiography
automobile
auvergne
aux
außenpolitik
av
ava
available
avant
avenue
average
aves
avidom
avignon
aviv
avoch
avon
avram
award
awarded
awards
away
axel
axes
axis
ay
ayala
aymar
aymer
ayr
ayrshire
aythya
ayuntamiento
az
azan
azerbaijan
aznar
azov
aztec
azul
azur
að
aʔ
b
ba
bab
baba
baby
bac
baca
bacach
bacadh
bacaidh
bacata
bach
bachrain
back
backboard
backed
background
backman
bacteria
bad
badaig
badain
badajoz
badan
baden
badenoch
badger
badh
badhbh
bae
baeyer
baeza
bag
bagge
bagging
baggins
baghasdail
baghdad
bahia
bahrain
baia
baictear
baid
baidh
baidhbh
baidhbhe
baidhean
bail
baile
baileteamplaid
bailey
bailiu
bailiwick
baillie
bailte
bailtean
bain
bainne
bainnse
bains
baintighearna
baintighearnan
baird
baisteadh
baisteir
baistidh
baize
baja
baker
baku
bakunin
bal
balabanoff
balach
balaich
balance
balder
baldvinsson
baldwin
bale
balfour
balg
balgair
balgan
balguish
balk
balkline
ball
balla
ballach
ballachan
ballaichean
ballan
ballantyne
ballard
ballester
ballet
balliol
balloch
ballrachd
balls
balneaves
balt
baltach
baltaich
balthasar
balthazar
baltimore
balzac
bamako
ban
bana
banachdaich
banais
banaltram
banana
banat
banbh
banca
bancaichean
bancair
banco
band
bandan
banes
banffshire
bang
bangkok
bangla
bangladais
bangor
bangs
bangui
banjul
bank
bankend
banks
bann
bannan
bannerman
bannockburn
banntrach
banrepcultural
banri
banrigh
banrighinn
baoghail
baoibh
baoill
baptiste
bar
barabhaig
barabhas
barach
barack
baraich
barail
baraille
baralachas
baran
baranachd
baranachdan
baranoa
barantas
barba
barbacoas
barbados
barbara
barberini
barbosa
barbuda
barca
barcelona
barclay
barco
bard
bardachd
barden
bardenas
bards
bardsey
barichara
barium
barker
barmen
barn
barnaba
barnacle
barnes
barns
barnum
baro
barocach
baroja
barony
barpa
barr
barra
barrachan
barrachd
barracuda
barraigh
barranca
barrancabermeja
barranquilla
barrathon
barre
barreiro
barreto
barrhead
barri
barrie
barrow
barry
bars
bartholdy
bartlett
bartolome
barton
baru
baruch
bas
basalt
base
baseball
based
basel
basgach
basgaich
basgaid
basgais
bashevis
basic
basil
basilicata
basin
basque
bass
basse
bastille
bastos
bat
bata
bataichean
batail
batal
batan
bataraidh
bataraidhean
batcheller
bateman
bates
bath
bathair
bathais
bathar
bathgate
bathymetrical
batista
bator
bats
battista
battle
baudelaire
bauer
bauhaus
baulk
bautzen
bavaria
bay
bayern
bayezid
bayreuth
bbc
bc
bce
bd
be
bea
beach
beachd
beachdachadh
beachdan
beag
beaga
beagan
beairt
beairteach
beairteas
beaked
bealach
bealadair
bealaruis
bealaruisis
bealltainn
bean
beann
beannach
beannacharan
beannaichte
beannchar
beanntach
beanntaibh
beanntainn
beanntan
beantainn
bear
bearaig
bearded
bearradh
bearsden
beart
beartach
beartaich
beartaiche
beartas
beasts
beat
beath
beatha
beathach
beathachadh
beathachaidh
beathaich
beathaichean
beathannan
beatles
beatrice
beattie
beattock
beaufort
beauly
beaumont
beautiful
beaux
beaver
beavers
bec
became
because
beck
becker
beckett
become
becomes
becoming
becquerel
bed
beda
bede
bedford
bedr
bedwyr
beech
beehive
been
beer
beeswing
beethoven
before
beg
began
begin
beginning
begins
behind
behn
bei
beijing
beilge
beilise
being
beinidict
beinin
beinn
beinne
beinntean
beir
beira
beireadh
beirilium
beiris
beirm
beirut
beith
beithe
beithich
beitra
beitrag
bel
bela
bele
belediye
belediyesi
belfast
belfort
belgrade
belig
belisario
bell
bella
belleville
bellinzona
bello
bellow
bellshill
belluno
belmont
belo
below
belshill
ben
benavente
benedetto
benedict
benedictus
benedikt
benediktsson
benfro
bengt
beni
benito
benjami
benjamin
benjamins
bennett
benny
bentpath
benz
beo
bep
ber
bera
bercelium
berdiansk
berdychiv
bereslavka
berg
bergamo
bergen
bergius
bergman
bergson
bergstro
berkeley
berkenbru
berlin
berlusconi
bermeo
bermuda
bern
bernadette
bernard
bernardo
bernburg
berne
berners
bernhard
berri
berry
bert
bertie
bertil
bertioga
bertram
bertrand
berwick
berwickshire
berzelius
besanc
best
besti
beta
betancur
bethlehem
better
betula
between
betws
betzig
beukman
beul
beulaibh
beum
beurla
beus
beverley
beverly
bey
beyond
bezirk
bh
bha
bhac
bhacadh
bhacais
bhach
bhachd
bhad
bhaden
bhadh
bhaeza
bhaffin
bhaich
bhaidh
bhaidhbh
bhaidhearn
bhail
bhaile
bhaileintin
bhailte
bhailteach
bhailteachd
bhailtean
bhailteil
bhain
bhainidh
bhainis
bhainne
bhaintighearna
bhair
bhairt
bhais
bhaist
bhaisteach
bhaisteadh
bhal
bhalach
bhaladh
bhalg
bhalgaidh
bhall
bhalla
bhallach
bhallaich
bhallrachd
bhaltach
bhaltaich
bhaltair
bhaltos
bhamako
bhampair
bhan
bhana
bhanadium
bhanaltram
bhanbh
bhanca
bhancair
bhancu
bhann
bhanna
bhannan
bhanntachd
bhanrigh
bhaoghail
bhaoibh
bhar
bharach
bharail
bharailean
bharanachd
bharbhais
bharcelona
bhard
bharganachadh
bharr
bharra
bharrachd
bharraigh
bhart
bhartach
bhartachd
bhartaich
bhasel
bhasgach
bhasgais
bhat
bhatacain
bhatail
bhatain
bhatarsaigh
bhathair
bhathama
bhathar
bhathas
bhautzen
bhayern
bhayuda
bhbc
bhe
bhea
bheachd
bheachdachadh
bheachdan
bheactar
bheactaran
bheag
bheaga
bheagain
bheagan
bheairt
bheairteach
bheairtean
bhealach
bhealaich
bhealaruis
bhean
bheann
bheanntan
bhearaig
bheart
bheartach
bheasantian
bheastraigh
bheataireachd
bheatha
bheathach
bheathadach
bheathadh
bheathaich
bheathaichean
bheathain
bheil
bheilear
bheilg
bheiniseala
bheinn
bheir
bheireadh
bheirear
bheireas
bheirsinn
bheithe
bheo
bheothachadh
bhergen
bherkeley
bherlin
bhern
bheul
bheulaibh
bheurla
bheus
bhghlas
bhi
bhiadh
bhiast
bhicto
bhictoria
bhictorianach
bhideo
bhideothan
bhidio
bhiet
bhietnamais
bhig
bhile
bhinn
bhinnean
bhioctoria
bhiodh
bhionsant
bhiorach
bhios
bhiot
bhirginia
bhirmingham
bhite
bhith
bhitheadh
bhithear
bhitheas
bhla
bhlachan
bhlachd
bhlain
bhlan
bhlanach
bhlanaich
bhlas
bhliadhna
bhliadhnachan
bhliadhnaichean
bhliadhnail
bhloigh
bhloighean
bho
bhochd
bhocsa
bhocsair
bhodach
bhoden
bhodhaig
bhog
bhogha
bhogota
bhogsa
bhoid
bhoilibhia
bhoireann
bhoireannach
bhoireannaich
bholca
bholi
bhologna
bhon
bhonn
bhonnaich
bhordeaux
bhorgh
bhoston
bhotail
bhoth
bhothan
bhp
bhpa
bhra
bhrachan
bhradain
bhraidh
bhrain
bhraisil
bhran
bhrandenburg
bhraoin
bhraona
bhratach
bhrataich
bhrath
bhre
bhreac
bhreacain
bhreatainn
bhreatann
bhreatannach
bhreatannaich
bhreda
bhreith
bhreitheamh
bhreithneachadh
bhremen
bhreslau
bhreun
bhri
bhric
bhrigeadh
bhris
bhriseadh
bhrist
bhriste
bhristeadh
bhritheamh
bhriuthainn
bhro
bhroinn
bhrosnachadh
bhrosnaich
bhrothaig
bhroughton
bhru
bhruach
bhruachaidh
bhruaich
bhruich
bhruid
bhruidhinn
bhruis
bhruiseal
bhruthaich
bhu
bhuachaille
bhuachair
bhuaidh
bhuail
bhuailte
bhuain
bhuaipe
bhuairidh
bhuaithe
bhualadair
bhualadh
bhualaidh
bhuam
bhuan
bhuanaich
bhuannachadh
bhuannachd
bhuannaich
bhuapa
bhucaramanga
bhucharest
bhuia
bhuic
bhuidhe
bhuidhean
bhuidheann
bhuidhinn
bhuidhne
bhuidhnean
bhuidseach
bhuidseachd
bhuil
bhuileachadh
bhuilich
bhuill
bhuille
bhuin
bhuineadh
bhuineas
bhuinn
bhuinneadh
bhuinneas
bhuirgh
bhun
bhunaich
bhunait
bhunaiteach
bhunta
bhur
bhus
bhusaichean
bi
biadh
biadhtach
bialik
bian
biast
biastagan
biastan
biała
bibcode
bible
bibleverse
bibliography
biblioteca
bibliothe
bickerton
bid
bidean
biden
bidh
bidhe
bieber
bifro
big
bige
bigear
bihan
bihor
bila
bilash
bilbao
bilbo
bildt
bildungsroman
bile
bileag
bileagan
bilean
bili
biliashivskiy
bilingual
bill
billean
billia
billiard
billiards
billy
biloxi
bin
bingen
binn
binnean
binnein
bio
biocas
biodag
biodh
biografi
biografia
biographical
biographie
biographies
biographisches
biography
biological
biology
bior
biorach
bioran
biorbhaidh
biosmat
bira
birch
bird
birdlife
birds
birlinn
birmingham
birsay
birth
birthday
bis
bishkek
bishop
bishops
bismarck
bison
bissau
bistrit
bitch
bitesize
bith
bitheadh
bitheagan
bitheanas
bitheanta
bitheantas
bithear
bithidh
biting
bizkaia
bjarnason
bjarni
bjo
bjornson
bjornstjerne
bla
black
blackball
blackburn
blackford
blackie
blacks
blackwater
blackwell
blackwood
blade
blaenau
blaidneach
blaine
blair
blake
blanca
blanco
blantyre
blar
blas
blazin
ble
bleith
blekinge
bler
bleu
bliadhn
bliadhna
bliadhnachan
bliadhnaichean
bliadhnail
blianadh
blica
blico
blind
bliogh
blix
blo
bloc
bloca
bloembergen
bloemfontein
blog
bloigh
bloighe
bloighean
blood
bloomington
bloomsbury
blotchnie
blue
blues
blust
bmi
bnf
bo
boadilla
board
boat
bob
bobby
bobhla
boca
bocas
bochanan
bochd
bochda
bochdainn
bocholt
bochum
bocsa
bocsair
bod
bodach
bodaich
boden
bodhaig
bodhaige
bodhar
body
boece
boegineesch
boer
boeyens
boff
bog
bogadh
bogart
bogha
boglach
boglaichean
bogota
bogotazo
bogsa
bogsaichean
bohe
bohemia
bohr
bohrium
boilibhia
boireann
boireannach
boireannaich
boisbaudran
boksburg
bolesław
boleti
boli
bolibar
bolivariana
bologna
boloria
boltonii
boma
bomaichean
bombyx
bon
bonaparte
bonar
bonaventura
boncompagni
bond
bonham
bonhoeffer
boniface
bonifacio
bonifatius
bonn
bonnach
bono
bont
bontebok
book
booked
booker
bookmarks
books
boom
boone
boot
booth
bor
bora
boraraigh
borb
borbo
borch
bord
bordeaux
bordeianu
border
bordernet
borders
borg
borgarfjo
borgarnes
borgh
borghese
borgnine
borgstro
boris
bormann
born
borodianka
borrero
borrowed
borth
borðeyri
borðoy
bos
bosa
bosch
bosco
bosley
bosna
bosnia
boson
boston
boswell
botail
botal
botanic
botero
both
botha
bothaich
bothan
botos
botsuana
bottas
bottle
bottom
boularderie
boulder
boulevard
boulogne
bound
boundaries
boundary
bourbon
bourg
bourgeois
bourges
bourgogne
bournemouth
bovary
boven
bow
bowie
bowling
bowman
bowmore
box
boy
boyaca
boyack
boyd
boydell
boyer
boyle
boys
bp
bpa
bpt
br
bra
brabant
brabhsair
bracaist
brachadh
brachytron
brad
bradain
bradan
bradford
bradh
bradley
brae
braemar
braes
brahe
braigh
braisil
brama
bran
branch
brand
brandeis
brandenburg
brando
brands
brandt
brankin
branta
branting
braonan
bras
brasi
brasil
brasileiras
brassicae
brat
bratach
bratag
bratagan
brataich
brataige
bratan
brath
brathaidh
bratislava
braunau
brauner
braunschweig
brave
brazilian
brazzaville
bre
breabach
breabadair
breac
breaca
breacais
breacan
breach
breadhaig
break
breaking
breaks
breatainn
breatainne
breatainneach
breatann
breatannach
breatannaich
breatannais
breathan
breatnais
breatuinn
breatuinneach
brechiek
brecht
breda
breich
breisgau
breith
breithe
breitheamh
breithean
breithneachadh
breithneachail
breithniche
bremen
bremerhaven
brendan
brennan
brentwood
breo
breslau
bressay
brest
breton
breug
breugach
breugan
breukelen
breve
brewer
brewery
brewster
brexit
breyer
brezhnev
brezhneva
bri
bria
brian
brianann
briantadh
briathar
briathrachais
briathrachas
briathrachasan
briathran
bric
brice
bride
bridge
bridgeport
bridges
bridgetown
brief
brien
brigantia
briggs
brigh
brighton
brill
brillean
brinkhoff
brinkman
briog
briogais
briosgaidean
briotu
brisbane
briseadh
brisg
briste
bristol
britain
britannica
britannicateamplaid
britheamh
britheamhan
british
brittonic
brno
bro
broad
broadcast
broadcasting
broc
broch
brocket
brod
brodsky
broilleach
broinn
broinne
broken
bronn
bronte
brood
brook
brookfield
brooklyn
brooks
broom
brora
brosnachadh
brosnachaidh
brot
brother
brothers
brough
brought
broughty
brown
browne
browski
broxburn
bru
bruach
bruachan
bruadar
bruaich
bruaichean
bruce
brueghel
brugge
bruich
bruid
bruidhinn
bruidhnear
bruijnii
bruis
bruiseal
brunel
bruno
brunswick
brus
brusach
bruthach
bruthachd
bruthaich
bruthaichean
bruxelles
bryan
bryce
bryher
bryn
brynjo
brønsted
bs
bte
bu
buabhall
buachaille
buachair
buadhach
buadhaiche
buadhair
buadhan
buaidh
buaidhean
buail
buain
buaireadh
buaireas
bualadh
bualaidh
buan
buannachadh
buannachd
buannachdan
buannaiche
buannaichean
buarach
buaraich
buaraichean
bubalus
bucaidh
bucaramanga
bucha
buchach
buchainn
buchan
buchanan
bucharest
buchhandlung
buchner
buck
buckley
bucures
budapest
budde
buddha
buddhachd
buddhism
buddhist
buddy
bude
budorcas
budys
buen
buenaventura
buenos
buffalo
buga
bui
buidhe
buidheachas
buidheag
buidheagan
buidhean
buidheann
buidheannan
buidhinn
buidhne
buidhnean
buidseachd
buidseat
buidsidh
buigis
buil
building
buildings
buileach
builgeanach
buill
buille
built
buin
buineadh
buinidh
buinn
buinneadh
buircina
buiri
buiten
bujumbura
bulga
bulgakov
bull
bulletin
bun
bunadas
bunaichte
bunait
bunaiteach
bunasach
bundesamt
bunin
bunsen
bunta
buntainn
bureau
burg
burgess
burgh
burghs
burgos
burhou
burial
buried
burke
burkina
burlington
burma
burman
burn
burnell
burnett
burnham
burnmouth
burns
burnt
burr
burra
burras
bursa
burton
burundaidh
bus
busaichean
buselaphus
bush
business
buske
bustelo
but
buta
bute
butenandt
buteo
buthaid
butler
butt
butterflies
butterfly
buza
buzz
buzzard
bwrdeistref
by
bydgoszcz
byhalia
byrne
byron
byzantium
błe
bə
c
ca
caama
cabal
caballero
cabar
cabassous
cabha
cabhag
cabhcas
cabhlach
cabhsair
cabhsairean
cabinet
cabral
cac
cachd
cachdan
cadail
cadair
cadal
cadell
cadha
caecilius
caen
caer
caerdydd
caereinion
caerffili
caerfyrddin
caergybi
caerlaverock
caernarfon
caerulea
caesar
caesium
cafaidh
cafe
cafetero
caffer
cagney
cahors
caibeal
caibideil
caibideilean
caibineat
caibineit
caibineitean
caicedo
caid
caidean
caidreabhas
caidreachais
caidreachas
cailc
cailce
cailceim
caile
caileag
caileagan
cailean
cailein
caill
cailleach
cailleachan
cailleanach
cailleann
cailleannach
caillich
caillte
cailtidh
caimbeul
caimbeulach
caimbeulaich
cain
cainb
caineal
caingisich
cainn
cainneach
cainnt
cainnte
caiptean
cair
cairbeil
caird
caire
caireachd
cairgeach
cairgean
cairibianach
cairisti
cairn
cairngorms
cairo
cairt
cairtbheile
cairte
cairteal
cairtealan
cairtean
cais
caise
caisead
caislea
caismeachd
caisteal
caistealan
caisteil
cait
caitheamh
caitheimh
caithness
caithte
caitliceach
caitligeach
caitligich
cala
calabria
caladair
caladar
caladh
calafo
calais
calasraid
calavie
calcium
calculator
caldas
calder
caldercruix
caldero
caldwell
caledonia
caledonian
calendar
calg
calgary
cali
calicut
calidris
california
call
callaghan
callaid
callaide
calle
called
callinicos
callophrys
calls
calltainn
calma
calman
calonge
calpa
calpach
calpachas
calpe
caltech
calum
calvin
calvo
calw
cam
caman
camanachd
camara
camargo
camarun
camas
cambodia
cambridge
cambuidea
came
camelus
cameron
cameroon
cami
camille
camillo
camilo
camino
camo
camp
campa
campachadh
campachaidh
campaichean
campaign
campamento
campas
campbell
campo
campoalegre
campos
campus
camshron
camshronach
camshronaich
camus
can
cana
canada
canadach
canadensis
canadh
canadian
canadianach
canaich
canaidh
canaigh
canal
canale
canan
cananaich
canar
canari
canaria
canberra
cancer
candelaria
candiacervus
candidate
cane
canetti
canis
canmore
canna
cannabina
cannes
cannon
cannot
cano
canolfan
canon
canonbaidh
canonbie
canongate
canorus
canso
canta
cantabria
cantainn
cantal
canterbury
canto
canton
cantonais
cantone
cantos
canu
canute
caochladair
caochladairean
caochladh
caochlaideach
caochlaidhean
caogad
caoidh
caoile
caoin
caoineadh
caol
caola
caolas
caomh
caora
caorach
caoraich
caorainn
caorann
caothaich
cap
capall
cape
capercaillie
capital
capra
capreolus
captain
caqueta
car
caracal
caracas
carach
caracol
caractar
caractarachd
caractaran
caraibeach
caraid
caraidean
carambole
caran
carann
caras
carbad
carbadan
carbaid
carbhanach
carbon
carbost
carcassonne
carco
card
cardiff
carducci
carduelis
cardui
care
career
carel
cargo
caribbean
caribou
carice
carius
carl
carlaw
carlburg
carle
carlisle
carlo
carlos
carlsson
carlyle
carmarthen
carme
carmen
carmichael
carmina
carn
carnegie
carnie
carnivora
caro
carol
carolina
caroline
carolus
carom
caroms
carothers
carpenter
carpineto
carr
carragh
carraig
carraighean
carrainn
carrann
carrasquilla
carren
carrick
carrie
carron
cars
carson
cartagena
cartas
carter
cartesach
carthannais
cartu
cary
cas
casa
casablanca
casach
casachsta
casachstan
casaid
casaidean
casan
casanare
casares
casas
case
cases
casg
cash
casnewydd
caspach
caspian
casquets
cass
casse
cast
castel
castell
castello
castiglioni
castile
castilla
castillo
castle
castles
castleton
castletown
castor
castries
castro
castrum
caswell
cat
catach
cataibh
catailis
catalais
catalana
catalanais
catalina
catalo
catalog
catalogue
catalonia
catalunya
catan
catar
catch
category
caterpillar
caterpillars
cath
catha
cathag
cathair
cathaireil
cathal
cathan
catharra
cathcart
cathedral
catherine
catholic
cathrach
cathraiche
cathraichean
cathy
cato
catri
catriona
cats
cattle
catus
cau
cauca
causa
cause
causes
causing
cave
cavendish
caycedo
cb
cbc
cbda
cc
cd
cdot
cdtrax
ce
cea
cead
ceadachas
ceadaichte
cealla
ceallaigh
ceallan
cealsach
ceana
ceanadach
ceangail
ceangailte
ceangal
ceangladh
ceanglaichean
ceann
ceannach
ceannachd
ceannadach
ceannaich
ceannaiche
ceannaichean
ceannairceach
ceannaircich
ceannan
ceannard
ceannardan
ceannardas
ceannas
ceannsachadh
ceannsaiche
ceannsaichean
ceap
ceapaich
ceapraichean
cearbadain
cearbadan
cearban
cearbhalla
cearc
cearcaill
cearcall
cearcallach
cearcallan
cearcan
cearclach
cearrara
ceart
ceartais
ceartas
ceatharlach
ceathrad
ceathramh
ceathramhnan
ceathrar
ceathru
ceaus
cech
cecil
cecilia
cedar
cees
cef
cefet
cefn
ceilbhinn
ceileiriche
ceilidh
ceilp
ceilt
ceilteach
ceiltich
ceiltis
ceimeagair
ceimigeach
ceimigeachd
ceimigear
ceimigearan
ceinia
ceist
ceisteach
ceistean
ceit
ceitean
ceiteirein
ceithear
ceithir
ceithreamh
ceitidh
ceja
cela
celebrates
celli
celsius
celt
celtic
celtica
celticae
celticum
celts
census
cent
center
centraal
central
centralbyra
centre
centro
centru
centuries
century
cenus
ceo
ceol
ceolto
cephalophus
ceratotherium
ceredigion
ceres
cerium
cern
cerrito
cerro
certain
certificate
cervantes
cervidae
cervus
ces
cesar
cesare
cesena
ceud
ceudad
ceudan
ceudna
ceum
ceuman
ceumannan
ceumnachadh
ceumnachd
ceusadairean
ceusair
ceuta
ceylon
cf
cfb
cfrac
ch
cha
chabert
chabha
chabhalaich
chabhlach
chabhlachd
chabhlaich
chabrach
chaco
chadal
chadh
chadha
chaetophractus
chaibideil
chaibineat
chaibineit
chaid
chaidh
chaidreachais
chaidreachas
chaileag
chaileig
chailein
chaill
chailleach
chailleadh
chailleann
chailleannach
chaim
chaimbeul
chain
chainn
chainneir
chainnigh
chainnt
chainnte
chainntean
chaiptean
chair
chairibi
chairibianach
chairo
chairt
chairtbheil
chairtean
chais
chaislea
chaisteal
chaisteil
chaith
chaitheamh
chaitheas
chaitligeach
chaitligich
chala
chaladain
chalafo
chalanais
chalbi
chalfie
chali
chalifornia
chalk
chall
challainn
challdainn
challenge
chaluim
chalum
cham
chamais
chamara
chamas
chamber
chamberlain
chambers
chambridge
chamelot
champa
champagne
champion
champions
championship
championships
chamshron
chan
chana
chanada
chanadh
chanaich
chanaigh
chanal
chananaich
chanar
chanas
chance
chane
change
changing
channan
channel
channeled
chanso
chantainn
chaochail
chaochladh
chaoidh
chaoil
chaol
chaolais
chaolas
chaorach
chaorachain
chaoraich
chaorainn
chapall
chaparral
chapel
chapelknowe
chaplin
chapman
chapront
char
charactair
charactar
charactaran
characteribus
charaibeach
charaid
charaidean
charan
charbad
charbadan
charbaid
charboin
charentes
charge
charles
charleston
charlestown
charlie
charlotte
charlton
charmhiceil
charn
charolina
charpentier
charragh
charraig
charrainn
chart
charter
chartres
chartreuse
charts
chas
chasach
chasaid
chasaidean
chasan
chase
chasg
chastilla
chat
chataibh
chatalo
chath
chatha
chathair
chatham
chatharra
chathraiche
chauca
chauvin
chaux
chd
chdas
che
chea
chead
cheadaich
cheal
cheall
cheallaigh
cheana
cheangail
cheangailte
cheangal
cheangladair
cheanglaichean
cheanglas
cheann
cheannach
cheannachadh
cheannachd
cheannaich
cheannard
cheannardan
cheannardas
cheannas
cheannmhor
cheannsachadh
cheannsaich
cheap
cheape
chearcaill
chearcall
chearsabhagh
cheart
cheartachadh
cheartais
cheartas
cheathaich
cheatharlach
cheathramh
cheathru
cheating
cheil
cheilbhinn
cheilteach
cheiltich
cheiltis
cheimigeach
cheimigeachd
cheimigear
cheinia
cheist
cheistean
cheithir
chelbhinn
chelpin
chelsea
chem
chemical
chemie
chemist
chemistry
chemnitz
cheo
chepman
cheque
cher
cherbourg
cherkaska
cherkasy
chernihiv
chernihivska
chernivetska
chernivitsi
chernivtsi
cherry
chester
chesterton
cheud
cheudna
cheum
cheumnaich
cheusair
cheyenne
chi
chiad
chiall
chiallachadh
chian
chiar
chiarain
chiarrai
chibcha
chicago
chichester
chidhe
chidorf
chief
chiefly
chiesa
chigi
chihuahuan
child
children
chile
chilemeatair
chill
chille
china
chinchilla
chinese
ching
chinn
chinne
chinneadh
chinneas
chinnidh
chinnt
chinnteach
chinntinn
chion
chionn
chionns
chiontach
chiosmuil
chip
chipping
chiquinquira
chis
chisholm
chiste
chitaga
chitheadh
chithear
chiu
chla
chlach
chlachain
chlachair
chlachan
chladach
chladaich
chladh
chlaidheimh
chlais
chlamhain
chlann
chlarc
chlas
chlasaichean
chlasaigeach
chle
chleachadh
chleachd
chleachdadh
chleachdaidh
chleachdar
chleachdas
chleas
chleasaiche
chleasaichean
chli
chliaid
chliamhainn
chlis
chliu
chlo
chloich
chloiche
chloichridh
chloinn
chloinne
chluaidh
chluais
chluanaidh
chluarain
chlub
chluich
chluiche
chluicheadair
chluicheadairean
chluicheadh
chluichean
chluinntinn
chna
chnapain
chneagaidh
chno
chnoc
chnocain
chnuic
cho
chobhan
choco
choconta
chod
choeradodis
chofaidh
chogadh
chogaidh
chogaidhean
choice
choilean
choileanadh
choill
choille
choilltean
choimeas
choimheach
choimhead
choimhearsnachd
choimhearsnachdan
choimisean
choimiseanaich
choimisein
choimpiutair
choimpiutaireachd
choimpiutairean
choin
choineagan
choinneachadh
choinneamh
choinneimh
choinnich
choir
choirce
choire
choireach
choireal
choirealan
choireigin
chois
choise
choiseachd
choisich
choisinn
choisneadh
choitcheann
choitchinn
cholaiste
cholchester
cholistan
choll
cholla
chologne
choloimbia
cholonachadh
cholonaidh
cholonaidhean
cholorado
choltach
choltais
choltas
choluim
cholumbia
chom
chomainn
chomann
chomannd
chomas
chomasach
chomasan
chomataidh
chomhair
chomhairle
chomhairlean
chomhairleteamplaid
chomhairliche
chomharra
chomharrachadh
chomharradh
chomharraich
chomharraicheadh
chomharran
chomhghain
chomoro
chompanaich
chompanaidh
chompanaidhean
chomraich
chomuinn
chomunn
chomunnaich
chon
chonaill
chonainn
chonakry
chonaltradh
chongo
chongqing
chonnacht
chonnadh
chonnrag
chonnspaideach
chontae
choose
chopenhagen
chopin
chor
chorcai
chorcaigh
chorcaraich
chordata
chornell
choro
chorp
chorr
chorra
chorrain
choru
chosg
chosnadh
chosnaidhean
chosta
chothrom
chothromach
chothromachaidh
chothromachd
chothroman
chra
chraiceann
chraicinn
chran
chrann
chraobh
chraobhan
chraoibh
chraoladair
chraoladh
chrasgaidh
chre
chreach
chreachadh
chreadha
chreag
chreagach
chreagan
chreid
chreideadh
chreideamh
chreideamhan
chreideimh
chreidimh
chreidmheach
chreidsinn
chreig
chri
chridh
chridhe
chridheil
chriom
chrios
chriosach
chriosd
chriost
chriostal
chris
christ
christer
christiaan
christian
christianity
christie
christina
christine
christmas
christoph
christopher
chrith
chro
chrochadh
chrodh
chrois
chroit
chroitear
chroitearachd
chroitearan
chrom
chrombaidh
chrombaigh
chronicle
chronicles
chronik
chru
chruaidh
chruidh
chruimh
chruinn
chruinne
chruinneachadh
chruinneachaidh
chruinneachaidhean
chruinnein
chruinnich
chruinnicheadh
chruithneach
chruth
chrutha
chruthach
chruthachadh
chruthaich
chruthaicheadh
chruthaicheas
chryston
chrzano
chu
chuach
chuaich
chuain
chuairt
chuairteachadh
chuairtich
chuala
chualann
chualas
chuan
chuaraidh
chuartachadh
chubhait
chubut
chuck
chudromach
chudromaiche
chudthromach
chudthromaiche
chuibheasach
chuibhle
chuid
chuideachadh
chuideachd
chuideam
chuidean
chuideigin
chuidich
chuidiche
chuidir
chuil
chuileag
chuileagan
chuileige
chuilinn
chuiltheann
chuilthinn
chuimein
chuimhne
chuimhneachadh
chuimhneachain
chuimhneachan
chuimreach
chuimrigh
chuimris
chuimseach
chuinnidh
chuip
chuir
chuireadh
chuirear
chuireas
chuirm
chuirp
chuis
chuisle
chuithbeirt
chulaibh
chultair
chultar
chultarach
chultarail
chultaran
chum
chumadh
chumaidhean
chumail
chumanta
chumantas
chumas
chumberland
chumhachd
chumhachdach
chumhachdail
chumhachdaile
chumhachdan
chumhaing
chun
chunbhalach
chungaidhean
chunnacas
chunnaic
chunnart
chunnartach
chunntadh
chunntais
chunntas
chupa
chur
chura
churaidh
church
churches
churchill
churitiba
chuspair
chuspairean
chuthag
chuthaich
ci
cia
ciaaw
ciad
ciadain
ciall
ciallachadh
ciallan
ciamar
cian
cianalas
cianjur
ciar
ciara
ciarrai
cicero
cidades
cidhe
cie
ciechanover
cien
cienti
cifuentes
cileameatair
cilemeatair
cilemeatairean
cill
cille
cina
cincinnati
cinema
cinerea
cingoli
cinn
cinne
cinneadh
cinneide
cinnidh
cinnidhean
cinnt
cinnte
cinnteach
cinntinn
ciod
ciolos
cion
cionn
ciontach
ciorramaich
cipriano
circa
circle
circuit
circus
cirileach
cirillach
cisneros
ciste
citadel
citation
cite
cities
citroe
citta
citty
city
ciu
ciuc
ciudad
ciudades
ciuil
ciutat
ciutha
civil
civilization
civilizations
ck
cken
cl
cla
clach
clachain
clachair
clachairean
clachan
clackmannanshire
cladach
cladaich
cladaichean
cladh
cladhach
cladhan
clag
claid
claidheamh
claidheamhag
claigeann
clainn
claire
clais
claise
clamhan
clan
clancy
clann
clannad
claon
claonadh
claonaig
clar
clara
clare
clarence
clarencefield
clarification
clark
clarke
clas
clasach
clasaichean
clasaigeach
clasan
clases
clash
class
classes
classic
classical
classification
classified
classora
claude
claudia
claudius
clav
clay
claye
clayton
cle
cleachadh
cleachd
cleachdach
cleachdadh
cleachdaiche
cleachdaidh
cleachdaidhean
cleachdar
cleachdte
cleamhnas
clean
cleap
clear
clearance
clearances
cleared
cleas
cleasachd
cleasaiche
cleasaichean
cleasan
cleat
clemens
clement
clemente
cleopatra
clerk
clermont
cleve
clevedon
cleveland
cleves
clg
cli
cliabhaireachd
cliath
cliatha
clilstore
climate
cling
clint
clinton
cliu
clive
clo
clock
clocks
clogaid
cloich
cloiche
cloimhein
cloinn
cloinne
close
closer
cloth
cloud
clough
cluaidh
cluain
cluainidh
cluanaidh
cluaran
cluas
cluasan
club
clubaichean
cluich
cluiche
cluicheadair
cluicheadairean
cluichear
cluichidh
cluichte
cluinnear
cluinntinn
cluj
cluster
clwyd
clydach
clyde
clydebank
clydesdale
clynes
cm
cn
cna
cnag
cnap
cnapadal
cnapan
cnatan
cnd
cnn
cno
cnoc
cnocan
cnoidheag
cnoimheag
cnrs
cnuic
cnuimh
cnuimheag
cnuimheagan
co
coal
coala
coase
coast
coastal
coat
coatbridge
cobhair
coburg
coc
coca
cocorna
cocuy
coda
codaichean
code
codes
codex
coed
coenonympha
coerulescens
coetzee
cofaidh
coflein
cogadh
cogaidh
cogaidhean
cogais
cohen
coibhneil
coigreach
coigrich
coilea
coileach
coileachan
coileanta
coill
coille
coillte
coilltean
coilltearachd
coimbra
coimeas
coimeasach
coimeasta
coimheach
coimhead
coimhearsnachd
coimhearsnachdan
coimisean
coimiseanair
coimpiutair
coimpiutaireachd
coimpiutairean
coin
coineagan
coineanach
coinneach
coinneachadh
coinneamh
coinneamhan
coinneimh
coinnich
coinnigh
coir
coirbeachd
coirce
coire
coirea
coireach
coireachan
coireal
coireall
coireaman
coireo
cois
coisce
coisdealbha
coise
coiseachd
coisrigte
coit
coitcheann
coitchinne
coitir
col
cola
colaisde
colaiste
colaistean
colbh
colbhan
colbhasa
colchester
cold
coldingham
cole
colegio
colias
colin
coll
colla
collected
collection
collections
college
collie
collin
collins
collision
colloquial
colm
colmar
colo
cologne
coloimbia
coloimbianach
cololmbia
colombey
colombia
colombian
colombiana
colombiano
colombianos
colombo
colonaidh
colonaidhean
colonel
colonia
color
colorado
colour
colours
coltach
coltachd
coltaiche
coltais
coltas
coltejer
coluim
colum
columba
columbia
columbus
com
coma
comadaidh
comaig
comainn
comais
comann
comannach
comannachd
comannaich
comannaichte
comannan
comar
comaraidh
comas
comasach
comasan
comataidh
comataidhean
combination
combined
come
comes
comh
comhachag
comhain
comhainn
comhair
comhairle
comhairleachadh
comhairlean
comhairliche
comhairlichean
comhann
comharra
comharrachadh
comharradh
comharraich
comharraichte
comharraidhean
comharran
comhdha
comhla
comhlan
comhnard
comhstri
coming
comitatus
commentarii
commentary
commission
committee
common
commonly
commons
commonwealth
commune
communist
communities
community
como
compact
companach
companaich
companaidh
companaidhean
companion
company
companys
comparative
compare
compared
compendium
competition
competitive
comple
complete
completion
compostela
compounds
comprehensive
comprising
compton
computer
comraich
comte
comune
comunidad
comunist
comunista
comunn
comunnach
comunnaich
comyn
con
cona
conaire
conakry
conall
conaltradh
conaltraidh
conan
conbhairean
concepcio
concert
concha
conchobair
conchobhar
concise
conco
concolor
concord
concurrence
conditions
conference
confessions
confirms
conflict
confused
cong
conga
conghaile
congo
congress
congridae
conn
connacht
connadh
connaidh
connecticut
connections
connery
connochaetes
connolly
connor
connrag
connragan
connsachadh
connspaid
connspaideach
conon
conquest
conrad
conradh
consairt
consan
consciousness
consecutive
consejeri
conservation
conservative
conservatoire
consider
considered
constable
constance
constant
constantin
constantine
constantinople
constitucio
constituencies
constituency
constitution
construction
consult
contact
contacted
contacting
contacts
contae
contaetha
containing
contains
contemporary
content
contes
contest
context
conti
continental
contra
contrast
contribution
contributions
control
convention
conventions
conversion
convert
conway
conwy
cook
cooper
cop
copacabana
copair
copar
cope
copenhagen
copernicus
copley
coprag
cor
cora
coracle
corail
coral
corbett
corbijn
corbusier
corbyn
corcaigh
corcarach
corcasgil
cordillera
cordulegaster
corg
coridon
corintianach
corinto
cormac
cormack
corn
cornelis
corneliu
cornelius
cornell
corner
cornforth
cornish
coro
corona
corp
corpas
corpeo
corporation
corporra
corpus
corr
corra
corrachadh
corrag
corragan
corran
correa
corresponding
corsaca
corsaig
corse
corsini
corte
cortes
coru
corun
corvus
corwen
cos
cosagach
cosg
cosgadh
cosgail
cosgair
cosgais
cosgaisean
cosmology
cosnadh
cosnaidh
cosnaidhean
cosobho
cost
costa
costner
costumbrismo
cot
cotan
cothlamadh
cothrom
cothromach
cothromachaidh
cothroman
cotonou
cottbus
could
council
councillors
count
counties
countries
country
countryside
county
coup
courier
course
court
courtney
courts
couters
covasna
cove
coventry
cover
covers
covid
cow
cowan
cowboy
cowdenbeath
cowdery
cox
cra
crab
cradle
craiceann
craicinn
craig
craigie
crain
craiova
cram
crane
crann
craobh
craobhan
craoibh
craoibhe
craoladair
craoladh
craolaidh
craskie
crawford
crayfish
cre
creach
creachan
creag
creagach
creagan
create
created
creathall
cree
creeban
creek
creideamh
creideamhach
creideamhan
creideas
creideimh
creididh
creidimh
creidsinn
creig
creige
creimiche
creole
cresingham
cresskill
cretaceous
creutair
creutairean
crevichon
crex
cri
criadh
cricetidae
crichton
crick
cricket
crickets
cridhe
crime
crimea
crimes
criogaid
criomagan
criopton
crios
criostal
criostalan
criquet
crisis
crispus
cristo
cristoforo
crith
crithean
critical
criticatac
criticism
cro
croa
croatais
croatia
croceus
crochadh
crochte
crodh
croft
crofters
crofting
crogaid
croichte
croimheag
crois
croise
croisean
croit
croitean
croitear
croitearachd
croitearan
croix
crom
cromadh
cromaig
cromarty
cromba
cromwell
cron
crona
cronin
cros
crosbie
cross
crossarchus
crossing
crotach
crotal
crothaidh
crowe
crowfoot
crowley
crown
croy
cru
cruach
cruachan
cruadal
cruadhtan
cruaidh
cruaidhe
cruces
cruel
cruidh
cruimh
cruimheag
cruinn
cruinne
cruinneachadh
cruinneachaidh
cruinneachaidhean
cruinneadaireachd
cruinneteamplaid
cruinniche
cruinnichte
cruise
cruit
cruithneach
cruithneachd
cruithnich
cruth
cruthachadh
cruthachaidh
cruthachail
cruthaich
cruthaicheadh
cruthaichte
cruthan
crutzen
cruyff
cruz
crystal
cs
csa
cso
css
ct
ctor
cu
cuach
cuacos
cuaich
cuaigearan
cuain
cuairt
cuairteachadh
cuairtean
cuairtear
cuan
cuantamach
cuantan
cuaraidh
cuaraidhean
cuartachadh
cuartas
cuasach
cuba
cubhait
cuckoo
cuculus
cucunuba
cudromach
cudromaiche
cudthrom
cudthromach
cudthromaiche
cue
cuenca
cuervo
cues
cugallach
cuibhe
cuibheas
cuibheasach
cuibheasachd
cuibhle
cuibhlichean
cuibhreann
cuid
cuide
cuideach
cuideachadh
cuideachaidh
cuideachail
cuideachd
cuideam
cuidean
cuideigin
cuidhle
cuidhteas
cuil
cuilags
cuilc
cuilce
cuilcean
cuileag
cuileagan
cuilean
cuileann
cuileig
cuileige
cuilinn
cuillin
cuiltheann
cuimhne
cuimhneachadh
cuimhneachan
cuimreach
cuimrich
cuimrigh
cuimris
cuin
cuine
cuingealach
cuir
cuireadh
cuirear
cuiridh
cuirm
cuirmean
cuirp
cuisean
cuisle
cuithir
cul
culaidh
culicoides
cullen
cultair
cultar
cultarach
cultarail
cultaran
cultura
culturach
culturail
cultural
culture
cum
cumadair
cumadh
cumaidh
cumaidhean
cumail
cumaisg
cumann
cumanta
cumantan
cumar
cumaradh
cumberland
cumbernauld
cumbria
cumha
cumhachan
cumhachd
cumhachdach
cumhachdail
cumhachdan
cumhagaidh
cumhang
cumhnant
cumnag
cumnaig
cumnock
cunbhal
cunbhalach
cunchillos
cundinamarca
cungaidh
cungaidhean
cunha
cunnart
cunnartach
cunningham
cunninghame
cunnradh
cunntadh
cunntaidh
cunntais
cunntas
cunntasachd
cunntasan
cup
cupa
cupal
cupannan
cupar
cupido
cur
curac
curaidh
curcuma
curie
curitiba
curium
curl
curling
curracag
currach
curran
current
curriculum
currie
curry
curse
curtis
curve
curved
cus
cushion
cushions
cuspair
cuspaireach
cuspairean
cut
cuta
cuthag
cuthaig
cuthaige
cuthbert
cuvier
cuza
cv
cw
cwm
cyanea
cyaniris
cycle
cygnus
cymraeg
cymru
cynon
cynwyl
cyr
cyril
cyrillic
cz
czesław
cœur
d
da
daar
dabeiba
dabhach
dach
dacha
dachaigh
dachaighean
dachannan
dachas
dachau
daci
dacia
dacian
dad
dada
dadh
dafydd
dag
dagbladet
dagger
dagua
dahlstro
dahna
daibhidh
daich
daidh
daidhean
daig
daigearraidh
dail
daily
daimh
dain
daingeann
daingneach
daingneachadh
daingnichte
dair
daire
dais
daisy
dakar
dakota
dal
dalach
dalai
dalain
dalan
dalarnas
dalbeattie
dalberg
dale
dali
dall
dallain
dallan
dallas
dalry
dalrymple
dalswinton
daltan
dalton
dam
dama
damaichean
damaliscus
damascus
dame
damh
damhair
damhan
damien
damme
damnaglaur
dan
dana
danakil
danann
dance
dancing
danderyd
dane
dangerous
daniel
danmarks
danmhairg
danmhairge
danmhairgeach
danmhairgis
danns
dannsa
dannsadh
dannsaichean
dannsaidh
dannsair
dannsairean
danny
danos
dans
dansk
danske
danson
dante
danu
danube
danzig
daoine
daol
daolag
daolagan
daon
daonna
daonnan
daor
daphne
dar
dara
darach
daraich
daralba
darby
dari
dario
dark
darling
darmstadt
darna
darnley
darra
darrach
darras
darren
dartford
darwin
das
dasg
dasht
dasypus
dat
data
database
date
dath
datha
dathach
dathadair
dathaichean
dathan
dathte
dau
daughter
dave
davenport
davi
david
davidson
davie
davies
davis
davy
dawn
dawson
day
days
dayton
db
dc
dd
ddinbych
ddr
ddu
de
dea
deach
deachdaire
deachdaireachd
deacon
dead
deadh
deadhman
deag
deagh
deala
dealachadh
dealachaidh
dealaichte
dealain
dealan
dealanach
dealanachd
dealanan
dealas
dealasach
dealbh
dealbhachadh
dealbhachaidh
dealbhachd
dealbhadair
dealbhadh
dealbhaiche
dealbhaichte
dealbhaidh
dealbhain
dealbhan
dealbhanan
dealgan
dealman
dealrach
dealta
deamach
deamaich
deamhan
deamocrasaidh
deamocratach
dean
deanamh
deannan
deanntaig
dear
dearbadain
dearbadan
dearbh
dearbha
dearbhadh
dearbhaidh
dearbhair
dearbhte
dearc
dearcan
dearcmhara
dearg
dearga
deargan
deas
deasach
deasachadh
deasachaidh
deasaiche
deasaichean
deasaichte
deasail
deasbad
deasbadan
deasbaid
deasgabhalach
deatach
deatamach
death
deathan
debije
deborah
debreu
debye
december
deckers
declaration
declarations
decline
deep
deer
defeat
defined
definition
definitions
deflection
degli
degree
degrees
dei
deich
deichead
deicheadan
deicheamh
deichnear
deidh
deidheadh
deidhinn
deigh
deighe
deigheadh
deil
deilbh
deilbhear
deiligeadh
deimhidh
deimhinne
deimhinnte
deirdre
deireadh
deireannach
deirg
deiridh
deis
deise
deiseil
deisenhofer
dej
del
delaware
dele
deledda
delescluze
deletant
delft
delhi
deliblatska
dell
della
delle
delta
dem
democracy
democrat
democratic
dems
den
deng
denice
denis
dennis
denver
deo
deoch
deochan
deogracias
department
depending
deportivo
depressa
deputy
der
derby
derbyshire
derek
derick
derived
derives
dermanlands
derry
des
describe
describes
describing
description
desert
deserts
desiderius
designated
designed
desired
dessau
destatis
destruction
det
detail
details
determined
detmold
detroit
deuchainn
deuchainnean
deucoin
deug
deugaire
deur
deuteronomi
deutsch
deutsche
deutschen
deutscher
deutsches
deutschland
deux
deva
developed
development
deventer
device
devil
devine
devon
devonshire
dewar
deze
dh
dha
dhabi
dhach
dhachaidh
dhachaigh
dhachd
dhag
dhaibh
dhaibhidh
dhaibhsan
dhaich
dhaiche
dhaigh
dhail
dhaingneach
dhaingneachadh
dhaingnich
dhais
dhaka
dhakar
dhalladh
dham
dhamh
dhan
dhaoine
dhaoineachadh
dhaonna
dhas
dhasach
dhasan
dhathan
dhathte
dhe
dhea
dheachdaire
dheadhain
dheadhan
dheagh
dhealachadh
dhealachaidhean
dhealaich
dhealaichte
dhealain
dhealbh
dhealbhachadh
dhealbhadair
dhealbhadh
dhealbhaich
dhealbhan
dheall
dheamocrach
dheamocrasaidh
dheamocratach
dheanamh
dhearbh
dhearbhadh
dhearbhaich
dhearg
dheas
dheasachadh
dheasachaidh
dheasaich
dheasaiche
dheasaicheadh
dheasaichte
dheasbad
dheathain
dheich
dheidheadh
dheidhinn
dheiragain
dheireadh
dheireannach
dheirg
dheis
dhelaware
dhen
dheo
dheth
dheuchainn
dheuchainnean
dheug
dhi
dhia
dhiadhaire
dhill
dhiofar
dhith
dhithis
dhiu
dhiuba
dhiubh
dhle
dhlear
dhleastanas
dhligheachas
dhlu
dho
dhobhrain
dhodoma
dhoiminicia
dhoirbh
dhoire
dhol
dhomh
dhonn
dhonna
dhonnchaidh
dhorcha
dhotair
dhotaireachd
dhra
dhraoidheachd
dhraoidheil
dhreachmhor
dhreuchd
dhreuchdail
dhreuchdan
dhroch
dhrochaid
dhrogaichean
dhru
dhruim
dhu
dhuais
dhual
dhualchas
dhubh
dhubha
dhubhadh
dhubhthaich
dhuibh
dhuilleag
dhuilleagach
dhuilleagan
dhuine
dhuinn
dhuinne
dhuit
dhuitsis
dhunle
dhut
di
dia
diabhail
diabhal
diadhach
diadhachd
diadhaidh
diadhair
diadhaire
diadhaireachd
diagram
dialect
dialects
diamond
diamonds
dian
diana
diardaoin
diario
diary
diathad
diathan
dibhe
diccionario
dicerorhinus
diciadain
dick
dickens
dickie
dico
dict
dictator
dictionarium
dictionary
dictionnaire
dicuil
did
diderik
dido
didseatach
die
dieckhoff
died
diego
diels
diep
dies
dieter
dietrich
dieu
differ
difference
differences
different
differentiis
difficult
difir
dig
digby
digital
digiteach
digitus
dihaoine
dijon
dik
dillon
diluain
dima
dimitriu
din
dinas
dinbych
dinger
dingo
dingwall
dinnsear
dio
diobutaidh
diofair
diofar
diofaran
diofraichte
diog
diogan
dioplo
dios
diosg
dir
dirac
direach
direct
direction
directly
directory
dirleton
dirty
dis
disaster
disathairne
discipline
discours
discover
discovery
disease
displaystyle
disraeli
distance
distances
distillery
distinct
distribution
district
districto
distrital
dit
dith
dithis
ditions
diu
diuba
diubh
diugh
dium
div
diversitate
divided
division
dixie
dixon
diyarbakır
diz
dj
djamena
djibouti
dju
dleasdanas
dleasnasan
dleastanas
dleastanasan
dlighe
dligheach
dlu
dluth
dluths
dmitri
dna
dnipro
dnipropetrovska
do
dobhair
dobhraid
dobhrain
doc
docha
dochard
doctor
document
documentation
documents
docx
dodoma
does
doesburg
doet
dog
dogs
doha
doi
doimhne
doimhneachd
doiminicia
doineann
doing
doiragat
doirbh
doire
doireanach
dol
dolair
dolar
dolj
dolores
dolphin
dom
domanovic
dome
domestic
domestica
domestication
domesticus
domhain
domhainn
domhainneachd
domhainnead
domhan
domhnach
domhnaill
domhnall
domhnallach
dominant
domingo
dominion
dominique
domowina
don
dona
donaidh
donald
donaldson
donau
done
donetsk
donetska
dong
donn
donna
donnag
donnagan
donnaige
donnain
donnan
donnchadh
donnell
donnie
donostia
donovan
donside
donu
door
doorley
doors
dorado
dorans
doras
dorcas
dorch
dorcha
dorchadas
dordrecht
dorian
doris
dornabac
dorothy
dorsan
dorset
dortmund
dos
dosgainne
dossiers
dostoyevsky
dotair
dotaireachd
dotairean
dots
double
doubles
dougie
douglas
douglass
dove
dover
down
download
downs
doyle
dr
dra
drabasta
dracula
dragh
draghan
dragon
draig
drake
drama
drannd
draoidh
draoidheachd
draoidhean
draoidheil
draw
drawn
dre
dreach
dreachan
dreachd
dreachmhor
dream
dreams
drem
drenthe
dresden
dresdner
dreuchd
dreuchdail
dreuchdan
dreux
drexler
drian
drilseach
dris
drise
driseig
driu
drive
driven
driver
dro
droch
drochaid
drochaide
drochaidean
drogaichean
droichead
droighinn
droighnein
droim
drom
droma
dromadair
dronaig
dronnach
drop
drowning
dru
drugaichean
druim
drum
druma
drumaichean
drummond
ds
dsear
dt
dtirol
du
duain
duais
duaise
duaisean
dual
dualchainnt
dualchainntean
dualchais
dualchas
dualchasach
dualchasan
duan
duanaire
dubai
dubh
dubha
dubhach
dubhadh
dubhais
dubhan
dubhar
dubhghlas
dubhras
dubhthaich
dublin
dubna
dubochet
dubrovnik
dubuisson
ducation
duck
dudley
dudum
due
duero
duff
duffy
dugdale
duhamel
duibh
duibhe
duiker
duil
duileasg
duilgheadas
duilgheadasan
duilich
duilleach
duilleag
duilleagan
duilleig
duilleige
duin
duine
duinn
duirche
duiseal
duitseach
duitsich
duitsis
duiveland
duke
dul
dull
duluth
dumbarton
dumfries
dumfriesshire
dumha
dumhach
dumitru
dun
dunbar
dunbartonshire
dunbeg
dunblane
duncan
duncansby
dundee
dunedin
dunfermline
dunkeld
dunlop
dunn
dunvegan
duque
dur
dura
duran
durania
durham
during
durra
dusan
dushanbe
duslach
duslaich
dust
dustin
dutch
duvaucelii
dux
dv
dvd
dvor
dwarf
dwarfie
dwelly
dwellys
dwight
dx
dy
dyalŋuy
dydd
dyddiau
dyffryn
dyfrdwy
dyirbal
dyke
dylan
dynamics
dynasty
dyson
dz
dzoosotoyn
dztwo
dɔ
dɔun
də
dɥdd
dɥddiau
dɯ
e
ea
eabhra
eabhraig
each
eachaidh
eachainn
eachann
eachdraiche
eachdraichean
eachdraidh
eachdraidhe
eachdraidheal
eachdraidhean
eachdraidheil
eachdraigh
eachraidh
eaconamach
eaconamachd
eaconamaiche
eaconamaidh
eaconomacachd
eaconomach
eaconomachd
eaconomaiche
eaconomaidh
eacuador
eadailt
eadailte
eadailteach
eadailtis
eadar
eadarach
eadaraig
eadarainn
eadarli
eadarra
eadhan
eadhon
eadie
eadraig
eadraiginn
eag
eagach
eagal
eagalach
eagar
eaglais
eaglaise
eaglaiseach
eaglaisean
eaglaiseil
eagle
eaglesfield
eagnaidh
eagrachadh
eagran
eain
eairdsidh
eala
ealaghol
ealaidh
ealain
ealaine
ealainean
ealainn
ealan
ealanta
ealantair
ealasaid
eallach
ean
eanaigh
eanchainn
eanraig
eanstair
ear
earb
earball
earbsa
earbsach
eared
earl
earliest
early
earr
earra
earrach
earraich
earrainn
earrainnean
earran
earrann
earrannan
earranta
earth
eartra
eas
easa
easabhal
easag
easaidh
easain
easan
easbaig
easbaigeach
easbaigeachd
easbaigean
easchruthach
eascu
easg
easgaid
easgainne
easgann
easgannan
easily
easpag
easpaig
east
eastbourne
easter
eastern
eastman
easto
eastoinis
eastriggs
eastwood
easy
eatarra
eathain
eathar
eatorra
ebe
eberhard
ebersdorf
ebert
ec
echandi
echegaray
eclesiastes
ecology
economic
economics
economy
ecser
ecsodus
ecuador
ed
eda
edad
eday
edda
eddie
eden
edgar
edge
edicio
ediciones
edil
edinburgh
edirne
edit
edited
edith
edition
editions
editor
editora
editores
editorial
editors
editura
edmonton
edmund
edn
edo
eds
edu
eduard
eduardo
educac
educacio
education
edward
edwards
edwin
eemil
een
eesti
effect
effects
eftir
eg
eggerz
egilsstaðir
eglwys
ego
egypt
egyptian
eh
ehir
ehrenstrahl
ehrlich
ei
eibhir
eich
eichmann
eicrich
eicrioch
eideann
eideard
eididh
eige
eigen
eigg
eigh
eighe
eigheach
eight
eighteenth
eigin
eiginn
eijkman
eil
eilbheis
eilbheise
eilbheiseach
eile
eileach
eileachaidh
eileagtron
eileagtronan
eileamaid
eileamaidean
eilean
eileanach
eileanan
eileannan
eileans
eilear
eilein
eilfean
eilg
eilginn
eilid
eilidh
eilreig
eilthireach
eilthireachd
eilthirich
eimhir
ein
einar
einarsson
eindhoven
eine
einer
eines
einfu
einnsean
einnseanair
einnseanaireachd
einstein
einsteinium
einthoven
eiphit
eireabhal
eireachdail
eireann
eireannach
eiridinn
eirinn
eis
eiseimpleir
eisenach
eisenhower
eisg
eisgeann
eisimealachd
eisimeil
eisimeileach
eisimeileachd
eisimeilich
eisimileach
eisimpleir
eisimpleirean
eisimplir
eisirean
eisleben
either
eithne
eizaguirre
ej
eje
ek
ekberg
el
elaine
elaphus
elazowa
elba
elbe
elder
eldii
eldja
eleanor
elected
election
elections
electoral
electric
electronic
elek
element
elements
elena
elephant
elephas
elevation
eleven
elfrida
elfriede
elgenstierna
elgin
eli
elias
elidius
elie
eliecer
elimination
eliogar
eliot
elisabeth
elisen
eliseo
elite
elizabeth
elizate
elk
ella
ellan
ellen
ellesmere
ellis
ellon
elmar
elphinstone
elsa
else
elsevier
elster
elva
elvis
ely
elytis
em
emberiza
embo
emeritus
emil
emilia
emilio
emily
eminescu
emma
emmanuel
emperor
empire
employed
employment
en
enciclopedia
encyclopaedia
encyclope
encyclopedia
encyclopædia
end
endangered
ends
eneas
enemies
enemy
energy
engativa
engel
engels
engineering
england
english
engus
enicyn
enig
enit
enkel
enlightenment
enlli
ennis
ennor
enough
enpr
enrico
enrique
enriqueta
enschede
enterprise
entire
entomology
entre
entrerri
entry
envigado
environment
environmental
enwau
enya
eo
eobhann
eochaid
eochair
eoclaideach
eoghain
eoin
eol
eolas
eorpa
eorpach
ep
epdlp
epes
ephemeris
epictetus
epiphron
episode
equator
equipment
equivalent
equus
er
era
erasmus
ercilla
erdog
erebia
erfurt
erg
eric
erich
erie
erik
eriksson
erinaceus
eriskay
ernaux
ernest
ernesto
ernst
error
erskine
eru
ervie
erwin
eryri
erza
erzurum
es
esan
esbjerg
escalante
escher
esclavage
escobar
escu
eseciel
eskdalemuir
eske
eskilstuna
eskob
esky
espan
espasa
especially
espectador
esperanto
espn
esra
essay
essays
essential
essex
est
established
estado
estate
esteban
ester
estiano
estimates
estrella
estremen
estudio
estudios
eswatini
et
eta
etc
eth
ethel
ethiopia
ethnologue
ethnoterritorial
etnoculturala
eton
ett
ettelijke
ettrick
etxebarri
etxebarria
etymological
etymologiebank
etymology
eu
euchdan
eucken
eucoir
eucoireach
eucoirich
eucorach
eudorcas
eug
euge
eugen
eugene
eugenio
eugsamhail
eugsamhaile
euler
eun
eunan
eunlaith
eup
euphydryas
eurabol
eurasia
eurasian
eure
euro
europa
europaeus
europe
european
eurovision
eusebio
euskadi
euskal
euskaltzaindia
euskirchen
euslainteach
euslaintich
eustasio
eustice
eustorgio
eva
evan
evans
eve
evelyn
even
evening
event
events
evenveel
ever
everest
every
everyday
everything
evi
evidence
evil
evo
evolution
ewan
ewart
ewen
ewing
ex
exact
exactly
example
examples
except
executive
exeter
expected
expedition
experience
explained
explore
explorer
express
expressen
expressions
extended
extension
extinct
extra
extremadura
extreme
ey
eye
eyre
eysteinn
eystra
eysturoy
eyvind
ez
ezequiel
ezra
f
fa
faber
fabian
fabiani
fabio
fabricius
faca
facail
facal
facchinetti
face
facebook
faced
faces
fachach
facing
facings
faclair
faclairean
faclairiche
faclan
fact
factar
factaraidh
factaraidhean
factaran
factbook
facto
factor
factors
factory
facts
fad
fada
fadalach
fadhla
faic
faiceadh
faiceallach
faicear
faiche
faichean
faicibh
faicinn
faicsinneach
faid
faide
faidhbhile
faidhle
faidhlichean
faigh
faigheadh
faighean
faighear
faighinn
faighneachd
faightear
faileas
failure
fainne
fair
faire
faireachdainn
faireachdainnean
fairge
fairport
faisg
faisge
faisisteach
faisisteachas
faisistich
faith
fala
falach
falaich
falaichte
falamh
falamhantas
falbh
falco
falkirk
falkland
falko
fall
fallada
falling
falls
falt
falun
fame
familiaris
families
family
famine
famke
famous
fan
fanaich
fanaichean
fanaid
fang
fann
fanny
fano
fantastic
faobhar
faochag
faod
faodadh
faodaidh
faodar
faoghla
faoi
faoighiche
faoileag
faoilleach
faoilteach
faoin
faol
faotainn
faothachadh
far
fara
faraclett
faraday
faragaidh
farair
faray
farc
farcharson
farewell
farfar
farlane
farm
faro
farpais
farpaiseach
farpaisean
farrais
farrar
farsaing
farsaingeachd
farsi
farsuinnead
fartairchill
fas
fasanta
fasgadh
fashion
faso
fast
fastadh
fastaidh
fat
fate
father
fattah
faulkner
fault
fauna
fawr
fay
fayard
fc
fe
fea
feabhas
feachd
feachda
feachdan
feadag
feadarail
feadh
feadhainn
feadhna
fealla
feallsanach
feallsanachail
feallsanachd
feallsanaich
feallsanaiche
feallsanaichean
fealsu
feamad
feamainn
feannag
feannagan
feansaichean
fear
fearainn
fearann
fearas
fearchar
fearg
feargach
fearghas
fearghus
fearn
fearna
fearrann
feart
feartan
feasgair
feasgar
feather
features
february
federal
federalism
federation
federico
feed
feel
feimineach
feirste
feis
feise
feitheamh
felice
felidae
felipe
felis
felix
fell
fellows
fellowship
felt
female
feminine
femme
femp
feng
fenn
feo
fer
ferdinand
ferenc
fergie
fergus
ferguson
fergusson
ferio
fermi
fermium
ferna
fernando
ferney
ferrand
ferrari
ferret
ferretti
ferrier
ferries
ferrol
ferry
festival
festschrift
fetlar
feuch
feuchainn
feum
feumach
feumadh
feumaidh
feumail
feumalachdan
feumar
feur
feurach
feusag
feusgan
few
feynman
fez
ff
fferi
ffestiniog
fflint
fha
fhaca
fhacail
fhacal
fhaclachd
fhaclair
fhaclan
fhaclanan
fhactaraidh
fhad
fhada
fhadalach
fhadalaiche
fhaic
fhaicear
fhaicinn
fhaicsinneach
fhaid
fhaide
fhaigh
fhaighean
fhaighear
fhaighinn
fhaighnich
fhaili
fhaireachdainn
fhairich
fhaisg
fhaisge
fhalach
fhalaich
fhalbh
fhan
fhaod
fhaodadh
fhaodamaid
fhaodar
fhaodte
fhaoidte
fhaoilleach
fhaoilteach
fhaolain
fhaotainn
fhar
fharpais
fharpaiseach
fharpaisean
fharsaing
fharsainge
fharsaingeachd
fhas
fhasa
fhasanta
fhaso
fhastadh
fhathast
fhe
fhea
fheachd
fheachdan
fheadain
fheadan
fheadarail
fheadhainn
fheadhna
fheallsanach
fheallsanachd
fheallsanaiche
fheamainn
fheannag
fhear
fhearainn
fhearann
fhearchair
fhearr
fheart
fheartan
fheasgair
fheichin
fhein
fheo
fheuch
fheuchainn
fheudar
fheum
fheumadh
fheumas
fheur
fhi
fhiabhras
fhiach
fhiacha
fhiaclan
fhiadh
fhiadhaich
fhianais
fhichead
fhicheadamh
fhidheall
fhighe
fhilleadh
fhillte
fhilm
fhilmeadh
fhilmichean
fhinn
fhinnein
fhiodh
fhiodha
fhiolm
fhiolmaichean
fhionghain
fhionn
fhionna
fhionnach
fhionnainn
fhionnlaidh
fhionnlaigh
fhios
fhiosaiche
fhiosaigeach
fhiosaigiche
fhiosda
fhiosrachadh
fhiosrachaidh
fhiosta
fhir
fhireann
fhireannach
fhireannaich
fhirenze
fhithich
fhiu
fhlaitheach
fhlaitheas
fhlaitheis
fhlat
fhleisginn
fhliche
fhlu
fho
fhoghair
fhoghar
fhoghlaim
fhoghlam
fhoillseachadh
fhoillseachaidh
fhoillsich
fhoillsicheadh
fhoillsichte
fhoirbeis
fhoirm
fhoirmeil
fhoirthe
fhollaiseach
fhorsa
fhorsætisra
fhortan
fhortanach
fhosgail
fhosgaileadh
fhosgailte
fhosgladh
fhraing
fhraingis
fhranco
fhrangach
fhrangaich
fhraoich
fhreagair
fhreagairt
fhreagarrach
fhreagarraiche
fhreiceadan
fhreumh
fhreumhan
fhri
fhrida
fhriseal
fhrith
fhrithealadh
fhrithealaich
fhrodo
fhu
fhuadach
fhuadachadh
fhuadaich
fhuaim
fhuaimneachadh
fhuaimreag
fhuair
fhuaire
fhuaireadh
fhuamhair
fhuar
fhuaradh
fhuarain
fhuaran
fhuaras
fhuasgail
fhuasgladh
fhuil
fhuiling
fhuilteach
fhuireach
fhuirich
fhulaing
fhulang
fhulangas
fi
fia
fiabhras
fiach
fiachan
fiachanais
fiaclach
fiaclan
fiadh
fiadhach
fiadhaich
fialaidh
fialaidheachd
fianais
fianaise
fianna
fiaradh
fiathachadh
fica
fichead
ficheadamh
ficheadan
fico
ficsean
ficseanail
fiction
fiddle
fiddles
fidel
fidheall
field
fields
fifa
fife
fifteen
fifteenth
figaro
figear
figearan
fighe
fight
figueres
figures
file
fileanta
files
filip
filipineach
fille
filleadh
fillmore
fillte
film
filmean
filmg
filmichean
filologi
filth
fin
final
financial
find
fine
fineachan
fingal
finger
finish
finlay
finlayson
finn
finnbogado
finnie
finta
fiobha
fiodh
fiodha
fiold
fiolm
fiolmaichean
fiona
fionn
fionna
fionnach
fionnais
fionnghal
fionnlagh
fionnlannais
fionnsgeul
fionnsgeulan
fionnuala
fior
fios
fiosachd
fiosagaiche
fiosaiche
fiosaig
fiosaigeach
fiosaigiche
fiosaigs
fiosrachadh
fiosrachaidh
fiosraichte
fir
fire
fireann
fireannach
fireannaich
firefox
firenze
firinn
firm
first
firth
fischer
fish
fishbase
fishbein
fisher
fisherfield
fisheries
fishes
fishing
fishman
fitch
fitheach
fithich
fitty
fitzgerald
fitzpatrick
fitzroy
fiu
five
fix
fixed
fizzgig
fjall
fjo
fl
fladaigh
flag
flags
flat
flaubert
flava
flavia
flavirostris
flavius
flea
fleamach
fleet
fleidsear
fleming
fleo
flerovium
fletcher
flevoland
flew
flight
flin
flint
fliuch
flo
flodden
flokkur
flokkurinn
floor
flora
florence
florencia
florenszoon
florida
florin
flory
flower
flowers
flu
fluaraid
fluarain
fluke
fly
flybe
flynn
fm
fo
foclo
focs
fodha
fodhan
foghair
foghar
fogharach
foghlaim
foghlaimte
foghlam
foill
foills
foillseachadh
foillseachaidh
foillseachaidhean
foillsichear
foillsichidh
foillsichte
foini
foireann
foirm
foirmeil
foirmle
foirthe
fois
folk
folklore
folkminnen
follais
follaiseach
follow
following
fon
fondation
fondo
fonds
fonn
fonndas
fonscolombii
fonseca
fontane
fontibo
food
foot
football
for
forbes
forcaichean
force
forces
ford
foreign
forest
forever
forks
form
formal
format
formation
formed
former
formerly
forms
formula
forsa
forsaichean
forseti
forsyth
forsætisra
fort
fortanach
forth
fortoul
fortress
fortrose
fortune
forty
forum
forward
fosfaras
fosgailte
fosgladh
fosglaidh
fossil
foster
fotha
fothair
foto
fou
foul
fouls
found
foundation
founder
four
fourier
fourteenth
fowlis
fox
fp
fr
fra
frac
fradharc
fraenkel
fraing
frainge
fraingeach
fraingeis
fraingich
fraingis
fraingium
framboð
frame
frames
framso
framti
franc
franca
france
frances
francesco
franche
francis
francisco
franciszek
franco
frangach
frangaich
frangais
frangan
frank
frankfort
frankfurt
frankivsk
frankivska
franklin
franko
frans
frantis
franz
fraoch
fraoich
fras
fraser
fraserburgh
frater
fratercula
frau
frauen
frauenfeld
frauenkirche
fre
freagairt
freagairtean
freagarrach
fred
freddie
frederic
fredericia
frederick
frederik
fredonia
fredrik
fredriksson
free
freedom
freeman
freetown
freiberg
freiburg
freiceadan
freihung
freire
french
frequent
frequently
fresenius
fresh
freud
freumh
freumhan
fri
fria
fribourg
frid
frida
friday
friedman
friedrich
friend
friends
frisch
friseal
frisealach
frith
frithealadh
frithealaidh
fritilean
frits
fritz
friu
friuli
fro
frodo
frodsham
froese
froila
from
fromantiou
frombork
fromme
front
fronted
frost
frozen
frs
frse
fru
frysk
frysla
fss
ft
fu
fuachd
fuadach
fuadachadh
fuadaichean
fuadaichte
fuadain
fuaidreag
fuaim
fuaime
fuaimean
fuaimneachadh
fuaimneachail
fuaimreag
fuaimreagan
fuar
fuarain
fuaran
fuasgail
fuasgladh
fuath
fuego
fuendetodos
fuente
fuentes
fuerteventura
fuglesang
fugloy
fuigheall
fuil
fuilteach
fuincsean
fuinn
fuireach
fuirich
fuirichidh
fujian
fukui
fulaing
fulang
fulangach
fulangas
fulgencio
full
fully
fulton
func
funchal
fund
fundacio
fundamentos
fungas
fungi
funza
fur
furasda
furasta
further
fury
future
fuðborgarsvæðið
fynwy
fyodor
fyvie
g
ga
gaan
gaat
gaba
gabh
gabhadh
gabhaidh
gabhail
gabhaltach
gabhaltais
gabhaltas
gabhar
gable
gables
gabon
gaborone
gabriel
gabriela
gabyggð
gach
gad
gaddafi
gadelica
gadh
gadolin
gaeilge
gael
gaelach
gaelg
gaelic
gaels
gaeltacht
gaeltachta
gaerfyrddin
gagarin
gahn
gaichean
gaidh
gaidheal
gaidhealach
gaidhealtachd
gaidhleach
gaidhlig
gail
gailearaidh
gailearaidhean
gailflingean
gaili
gailisis
gailium
gaillimh
gaillimhe
gain
gaineimh
gainmheach
gainmhich
gainnead
gair
gairlich
gairm
gairn
gairsay
gaiseadh
gaisgeach
gaisgeil
gaisgich
gaita
gaitnip
gaitskell
gaius
gal
gala
galar
galaran
galashiels
galat
galathea
galavi
gale
galen
galerella
galerie
galicia
galilei
galileo
gall
galla
gallacher
gallagher
gallaibh
gallarta
gallda
galldachd
gallen
galleries
gallery
gallica
gallie
gallimard
gallinago
gallobha
galloway
gallta
gallus
galore
galsworthy
gam
gama
gamal
gambetta
gambling
game
games
gamma
gan
ganach
ganachd
ganaich
gandalf
gandhi
gandolfini
gandolfo
ganganelli
ganilly
gann
gao
gaoil
gaoir
gaoisideach
gaoith
gaoithe
gaol
gaor
gaoth
gaothach
gaposchkin
gar
garadh
garaidh
garbh
garbha
garbhan
garbo
garce
garci
garcia
garcilaso
gard
garde
garden
gardens
gardiner
gardner
gareth
garfield
garg
garioch
garland
garman
garmon
garonne
garrabost
garrach
garradh
garraich
garret
garrido
garrigue
garry
garsbheinn
garth
garthim
gary
garzanti
garðabær
gas
gasa
gasaet
gasaichean
gasan
gascon
gaspar
gasteiz
gate
gates
gath
gathain
gathair
gathan
gathering
gatwick
gauge
gaulle
gaur
gauthier
gav
gavia
gavin
gaviria
gavrilo
gay
gaza
gazella
gazelle
gazette
gazetteer
gaziantep
gb
gbhean
gcis
gd
gdan
gdp
gdr
gdynia
ge
gea
gead
geal
geala
gealach
gealag
gealaich
gealan
gealbhonn
geall
gealladh
gealltainn
geama
geamaichean
geamannan
geamhradh
geamhraidh
gean
geansaidh
gear
gearailt
gearain
gearan
gearanan
gearasdan
gearastan
gearmailt
gearmailte
gearmailteach
gearmailtich
gearmailtis
gearmaineach
gearmanach
gearo
gearr
gearra
gearradh
gearraidhean
gearrain
gearran
geata
gebze
ged
gedd
geddes
geen
gegenwart
geidh
geiger
geikie
geir
geiria
gelderland
gelfling
gelsenkirchen
gelukkig
gemeente
gemeinde
geminac
gen
gender
gene
genealogy
genera
general
generally
generation
generic
genes
genesis
geneva
genga
geni
genocide
genoeg
genolier
genomics
genova
gent
gentle
gentleman
gentlemen
gentry
genus
genzel
geo
geoffrey
geoffroy
geogra
geografi
geograph
geographic
geographical
geography
geoimeatrach
geoimeatras
geological
geology
geonames
geophysical
georg
george
georgemas
georges
georgescu
georgetown
georgi
georgia
geoscience
ger
gera
gerais
gerald
gerard
gerardus
gerchunoff
gere
gerhard
gerhardus
gerhart
german
germany
germinal
gerrard
gerry
gershom
gertrude
geschichte
gesellschaft
gessle
gestapo
get
gets
getting
getty
geug
geugan
geur
gh
gha
ghabh
ghabhadh
ghabhail
ghabhas
ghabhsainn
ghabhsgabhaig
ghabon
ghach
ghad
ghadal
ghaeilge
ghaid
ghaidh
ghaidheal
ghaidhealaibh
ghaidhealtachd
ghail
ghaill
ghaillimh
ghaimbia
ghainmhich
ghainn
ghairm
ghairmeadh
ghaisgeach
ghaisgich
ghalaigh
ghalair
ghalar
ghall
ghallaibh
ghallais
ghallda
ghalldachd
ghallta
ghalltachd
ghan
ghann
ghaoil
ghaoith
ghaoithe
ghaol
ghaolaich
ghaoth
gharadh
gharbh
gharbhain
ghartain
ghas
ghasagach
ghasgain
ghath
ghathair
ghdachadh
ghdair
ghdan
ghdar
ghdaran
ghdarrais
ghdarras
ghdarrasan
ghde
ghe
ghea
ghead
gheal
gheala
ghealach
ghealaich
gheall
gheallaidh
gheama
gheamannan
gheamhradh
gheamhraidh
ghean
ghearasdain
ghearasdan
ghearastan
ghearmailt
ghearmailteach
ghearmailtich
ghearmailtis
ghearmaineach
ghearmanach
ghearr
ghearradh
ghearraidh
ghearrain
ghearran
gheasachd
gheasaibh
gheibh
gheibheadh
gheibhear
gheil
ghene
gheo
gheorghe
gheorghiu
gherman
ghetto
gheug
gheur
ghez
ghiblean
ghiblein
ghibson
ghil
ghill
ghille
ghillean
ghilleasbuig
ghin
ghinealach
ghini
ghinn
ghiorra
ghiorso
ghiota
ghiu
ghiubhais
ghiulain
ghiuthsaich
ghlac
ghlacadh
ghlainne
ghlais
ghlan
ghlanadh
ghlas
ghlasa
ghlaschu
ghlasraich
ghle
ghleann
ghleansach
ghleidheadh
ghleusaiche
ghlinn
ghlinne
ghlo
ghloine
ghlu
ghluais
ghluaiseadh
ghluasad
ghluasaid
ghna
ghne
ghni
ghnothach
ghnothaich
ghnothaichean
gho
ghob
ghobach
ghobha
ghobhainn
ghobhar
ghobharaidh
ghobhraidh
ghoid
ghoireas
ghoireasan
ghoirid
ghoirteachadh
ghorm
ghorma
ghort
ghorta
ghost
ghot
ghra
ghrainnse
ghranada
ghrand
ghrannd
ghraonlainn
ghraz
ghre
ghreadaidh
ghrean
ghreim
ghreugach
ghreugaich
ghreugais
ghreumach
ghri
ghrian
ghrianain
ghriogaraich
ghritheach
ghrithich
ghro
ghroningen
ghru
ghruag
ghrunnd
ghrunnda
ghruthain
ghuail
ghual
ghuirm
ghunna
ghuth
ghutha
ghuthach
gi
giacomo
giant
giauque
gibb
giblean
gibson
gica
gide
gidheadh
giennenses
gifford
giganteus
gijo
gikhman
gil
gilb
gilbert
gildenlo
gile
gill
gillard
gille
gillean
gilleasbaig
gilleasbuig
gillian
gillies
gin
ginczanka
gine
gineachan
ginealach
gineamhainn
ginearalta
ging
ginger
gini
ginideach
ginteil
gintinneachd
gioban
giobraltair
giofnag
giogha
giomach
gion
giorgio
giorgos
giorra
giorrachadh
giosue
giota
giovanni
gipuzkoa
girardot
girardota
girl
girls
giro
girolamo
girona
gisborne
giu
giulia
giulio
giurgiu
giuseppe
giuthais
giuthas
give
given
giving
gjellerup
gla
glac
glacadh
glacte
gladstone
glainne
glaisean
glamorgan
glan
glanadh
glaodhach
glarus
glas
glasa
glasag
glascho
glaschu
glasgow
glasraich
glass
gle
gleann
gleanntan
gleannteamplaid
gleidheadh
gleidhidh
glen
glencoe
glengarry
glenkens
glenn
glenrothes
gleus
glic
glinn
glinne
glises
glo
global
globe
globo
gloinne
gloria
glossary
gloucestershire
glu
gluais
gluasad
gluasadan
gluasaid
glunimore
glyn
glyndw
glyndwr
glynn
gmbh
gmh
gmhios
gna
gne
gneiss
gni
gnothach
gnothachas
gnothaich
gnothaichean
gnou
gnu
go
goal
goat
gob
gobach
goban
gobernantes
gobha
gobhair
gobhal
gobhar
gobhlach
gobhlachan
gobhlan
gobi
goc
gocan
goch
god
godfather
goebbels
goed
goeppert
goes
goethe
gogaireachd
gogh
gogol
goibhrean
goid
goilear
goilearan
goilf
goill
goillspidh
going
goireas
goireasan
goirid
goiriola
goirt
goirte
gold
golden
goldie
golding
golf
gollum
golowji
golspie
gomera
gon
gone
gonza
gonzalo
gonzo
good
goodenough
google
goose
gorbachev
gordimer
gordon
gorilla
gorin
goriot
gorj
gorm
gorma
gormain
gorman
gorseinon
gort
goslabh
goslaibhia
got
gotach
gotais
gotha
gothenburg
gothic
gotland
gottfried
gottlieb
gouazoubira
gould
gov
govan
government
governor
gower
goya
gr
gra
grabhair
grace
grad
grade
gradh
grady
graeme
graf
grafaiche
grafaigeach
grafton
graham
graim
gram
gramaidh
graman
grammar
grampian
gran
granada
grand
grande
grandes
grandis
grands
granit
grannd
granndach
grant
granville
graonlainn
grapefruit
graphium
grass
graveland
gravesend
gravina
gray
graz
grazia
grd
gre
greanada
greanadach
greasadair
great
greater
greatest
greatna
greco
greece
greek
green
greene
greenhill
greenock
greens
greentrax
greenwich
greenwood
greeny
greg
gregor
gregory
greiff
greifswald
greim
greine
greis
greiseag
greiseig
greiz
grenjaðarstaður
grenoble
grenville
greta
gretna
greugach
greugaich
greugais
greumach
greusaiche
grey
gri
griais
grian
grianach
grianaig
grianan
grierson
griffin
griffith
griffiths
grignard
grigore
grigory
grimble
grimm
grimsby
grimstad
grinn
griogair
griogarach
griomasaigh
grischuns
gro
groats
grog
groidheal
groningen
groot
grossman
grottammare
ground
group
groups
grove
growing
growth
große
großherzogtum
gru
gruag
gruagach
gruaige
grubbs
gruber
gruf
gruffydd
gruisia
gruney
grunn
grunnan
grunnd
gruyter
grytviken
grænt
gu
gua
guadalajara
guadalquivir
guadeloupe
guail
guaini
guaira
guajira
gual
gualain
gualainn
gualan
guaranaidh
guarani
guardian
guasca
guatamala
guatavita
guatemala
guateque
guaviare
guayaquil
guen
guernsey
guerra
guerre
guerrilla
guerrillas
guevara
guez
guga
gugh
gui
guiana
guide
guides
guidheana
guido
guillaume
guillermo
guinea
guinness
guirm
guitar
gulag
gulf
gulfport
gull
gullstrand
gum
guma
gun
gunn
gunna
gunnaichean
gunnair
gunnar
gunnarsdo
gunnlaugsson
gur
gurnah
gurraig
gus
gustaf
gustav
gustave
gustavo
gut
gutenberg
guth
guthan
guthrie
gutie
guy
guys
guzma
guð
guðmundsdo
guðmundsson
guðmundur
guðni
gw
gweal
gwent
gwilen
gwithial
gwynedd
gyle
gylfi
gymnippers
gyo
gyula
h
ha
haag
haagen
haakon
haar
haarde
haarlem
haavelmo
habacuc
habana
haber
habilitation
habsburg
had
haddington
hafnarfjo
hafnium
hafstein
hagai
hagstofa
hague
hahn
hai
haidridean
haidridein
haifa
haile
haining
hair
hairtebreac
hairy
haiti
hajnal
hal
halafacs
haldane
haldsflokkurinn
halen
half
halifax
hall
hallaig
hallands
halldo
halle
hallgri
halls
halmstad
halonen
halt
ham
hama
hamaltan
hamalton
hamar
hamburg
hamhaig
hami
hamilton
hamish
hamlet
hammars
hammarskjo
hampden
hampshire
hamstair
hamsun
han
hand
handbook
handbuch
handicap
handke
handle
hands
hangeul
hanja
hanks
hanmer
hann
hanna
hannah
hannes
hannesson
hannibal
hannover
hannsson
hano
hanoi
hans
hansa
hansard
hanse
hants
haoine
happiness
happy
har
harald
haraldur
harare
harbin
harbour
harcourt
hard
hardcover
harden
hardie
harding
hare
harem
harghita
hari
harlow
harmenszoon
harold
harp
harper
harriet
harris
harrison
harry
harsanyi
hart
hartabhal
hartebeest
hartford
hartis
hartmut
harvard
harvest
harvey
harvie
harwich
harz
has
hasco
hassan
hassel
hasselhoff
hassium
hastings
haswell
hat
hatchett
hatfield
hatun
hau
hauer
haugh
hauptman
hauptmann
haus
haute
hauts
hav
havana
have
havel
haven
having
hawaii
hawaiian
hawass
hawk
hawke
hawking
hawley
haworth
hay
hayek
hayes
hazard
hazzan
hd
hdl
he
heachthairn
heactair
head
headhra
heads
healabhal
health
heaney
hearach
hearadh
heard
hearsagobhana
heart
hearts
heartsagobhana
heath
heather
heathrow
heaven
heavy
heb
hebben
hebe
hebrew
hebridean
hebriden
hebrides
hechingen
heck
hecla
hector
heeft
heeger
hegel
heide
heidegger
heidelberg
heidenstam
heights
heike
heileacoptair
heimastjo
heinemann
heinrich
heinse
heisenberg
heiðru
held
heldburg
helder
heleboel
helen
helena
helgason
heliconia
helin
helium
hell
heller
helmut
help
helsa
helsingborg
helsingør
helsinki
hemiechinus
hemingway
hen
henares
henderson
hendrick
hendrik
hendrikse
hendry
henley
henning
henri
henricus
henrietta
henrik
henry
henryk
henryson
henson
heochaidh
hepburn
her
heraklion
herald
herashchenko
herbert
hercules
here
herge
heriot
heritage
herm
herman
hermann
hermannsson
herminez
herna
heron
herpestes
herr
herra
herrera
herschbach
herschel
herself
hershko
herta
hertfordshire
hertogenbosch
hertz
herzberg
herzog
herzogtum
hess
hesse
hessen
heston
hestur
het
hevesy
hewish
heydrich
heyman
heyrovsky
heyse
hg
hi
hiarmhi
hibernian
hibs
hicks
hidalgo
hidden
hideki
hie
hier
hieronymus
hierro
higgins
higgs
high
higher
highest
highland
highlanders
highlands
hightae
highway
hij
hijra
hilario
hilda
hildasay
hildburghausen
hildesheim
hill
hills
hillsboro
hilma
hilmar
hilton
hily
him
himalaya
himmler
himself
hind
hindi
hindu
hinduachd
hinshelwood
hionduthach
hionduthachd
hiort
hip
hippo
hippopotamus
hippotragus
hir
hiragana
hiroshima
hirst
his
hispania
hispaniola
histo
histoire
historia
historic
historical
historique
historische
historisches
historisk
history
hit
hitler
hitlerputsch
hits
hitting
hizmetka
hja
hjalmar
hjaltadalur
hlau
hler
hlung
hm
hms
hng
ho
hobart
hobbit
hocaidh
hoddan
hoddom
hodes
hodges
hodgkin
hoeveel
hof
hoff
hoffman
hoffmann
hofmann
hog
hogainn
hogarth
hogg
hohenzollern
hoi
hoilmium
hokkaido
holbrook
hold
holding
hole
holes
holgui
holland
hollander
hollandsch
holly
hollywood
holm
holmer
holmes
holmiæ
holmr
holocaust
holodomor
holstein
holt
holy
holyhead
holyrood
holywood
hombre
homburg
home
homepage
homer
homme
homo
hon
hond
honda
hondu
honduras
honey
hong
honolulu
honore
honoris
honour
honshu
hood
hooft
hook
hooked
hoover
hop
hope
hopkins
hopper
hora
horabhaig
horat
horizons
horizontal
horizonte
horn
horne
horned
horodok
horse
horton
hosea
hosie
hosni
hospital
hot
hotel
hou
houghton
houmet
hour
hours
hous
house
household
households
houses
houston
houten
how
howard
howe
however
howff
hoy
hr
hrad
hradec
hreyfing
hrsg
hrung
hrus
htm
html
http
https
hu
huang
huber
hubert
huck
hudson
huelva
huesca
hugh
hughes
hugo
huila
huis
huisman
huizen
hull
humaine
human
humberto
humboldt
hume
hump
humphrey
humphry
huna
hundland
hundred
hunedoara
hungarian
hungary
hunndaidh
hunt
hunter
hunteri
huntington
huntly
hunza
huron
hurtado
hurwicz
hus
hussein
hustler
hutcheson
hutchinson
hutton
huub
huw
hy
hyde
hydra
hydro
hydropotes
hye
hyelaphus
hyperantus
hywel
i
ia
iad
iadaigh
iadhtag
iadsan
iaimeuca
iain
iaineatan
iall
ialomit
ian
iapain
iapan
iapanach
iapanaich
iapanais
iar
iarach
iarainn
iarann
iarla
iarlachd
iarlan
iarmailt
iarmain
iarmhi
iarnro
iarr
iarradh
iarraidh
iarrainn
iarrtais
iarrtas
iarrtasan
iaruinn
ias
iasad
iasaid
iasg
iasgach
iasgachd
iasgaich
iasgair
iasgaireachd
iasgairean
iau
iauliai
ib
iba
ibadan
ibague
ibe
ibearach
ibearaich
ibearais
iberia
ibex
ibh
ibhe
ibhead
ibheadh
ibhear
ibhearan
ibhia
ibhidh
ibhinn
ibhtean
ibi
ibia
ibidem
ibiza
ibn
ibrahim
ibrox
ic
ica
icar
icarus
ice
icearachd
iceland
ich
icheil
ichi
id
ida
idaho
ide
idea
ideach
ideadh
ideagan
ideal
idean
ideanach
ideann
idear
ideard
ideart
ideas
ideil
idein
ideirt
identity
ideo
idh
idhchead
idhe
idheach
idheachadh
idheachaidh
idheachd
idheadair
idheadh
idheal
idhealach
idhealaibh
idhealaich
idhealtachd
idhean
idheil
idhich
idhicheadh
idhichte
idhidh
idhidheachd
idhinn
idhle
idhleach
idhlig
idhte
idhteach
idhteachail
idhteachais
idhteachas
idianach
ididh
ididheachd
idigh
idinn
idio
idir
idire
idiseanta
idium
idse
idsear
ie
ieder
iei
iekeliene
iemen
ieremiah
ierusalem
iets
if
ifan
ifeachdach
ifeachdaiche
ifrinn
ig
iga
ige
igeach
igeamh
igeamhan
igean
igh
ighe
igheachd
igheadh
ighean
igheas
igheil
ighne
igich
iginn
iginneach
igis
ignacio
ignatz
ignear
ignichte
igor
igridh
igsinn
igte
ii
iii
ijmuiden
ik
ikapa
ikc
il
ila
ilarri
ildeag
ile
ileach
ileachd
ileadh
ileag
ileagan
ilean
ileasg
ilein
ileisg
ilfov
ili
ilia
ilianach
ilidh
ilidhean
ilig
ilige
iligeadh
iligeas
ilinn
ilis
ilise
ill
ille
illeabh
illeabha
illeach
illeachd
illeadh
illealachd
illean
illear
illeathain
illegal
illeibh
illeir
illibh
illidh
illig
illigeadh
illinois
illmhor
illtean
illustrated
illustration
ilmari
ilnich
ilt
ilte
ilu
ilves
ilya
im
image
images
imaginary
imber
imdb
ime
imeachd
imh
imhdean
imhe
imheach
imheachadh
imheachd
imhean
imheil
imhseachadh
imhseachaidh
imhseachan
imleach
immanuel
imola
imp
impact
impala
imparted
imperator
imperfect
imperia
imperial
impire
impireachd
impirean
impireil
important
impossible
impreiseanachd
imprenta
impudicus
impunctatus
imre
imrich
in
ina
inbhe
inbheach
inbheachd
inbhean
inbhich
inbhir
inbhirnis
inc
inca
incas
inch
inches
include
includes
including
incoming
incorporated
incorporating
increase
increasingly
ind
independence
independent
index
india
indian
indiana
indianapolis
indias
indicate
indicus
indigenous
indium
individual
indo
indonesia
indre
indus
industrial
industry
ine
ineabhal
ineach
ineachd
ineadh
ineag
ineagan
inean
ineas
ineasan
ineil
inermis
infantes
inferences
inferior
inferno
influence
info
infoalso
information
infty
ing
inga
ingearach
ingenioso
inghean
ingi
ingibjo
ingmar
ingo
ingold
ingrid
inhabited
inhabits
ini
inia
inianach
inianaich
inich
inidh
inig
ining
inis
inistear
initiative
inn
inna
innd
inne
inneach
inneachan
inneadair
inneadairean
inneadh
inneag
inneagan
inneal
innealach
innealadaireachd
innealan
innean
innear
innearachd
innearan
inneige
inneil
innerrhoden
innes
innich
innil
inning
innings
innireach
innis
innise
innleachd
innleachdail
innleachdair
innleachdan
innleadair
innleadaireachd
innleadairean
innlean
innlich
innlichidh
innocent
innocentius
innsbruck
innse
innseachan
innseadh
innsean
innseanach
innseas
innt
innte
innteach
inntealta
inntich
inntinn
inntinneach
inntinneil
inntis
inntleachdail
inntrig
inntrigeadh
inntrigidh
inquiry
insch
inseach
insects
insee
inseeteamplaid
inside
insir
instance
instead
institiu
institiud
institiudan
institut
institute
institutet
institution
instituto
institutul
inte
inteach
intean
integrated
intellectual
intelligence
intended
intention
intentionally
interest
interests
interior
internal
international
internationale
internationalist
internet
internetteamplaid
interprint
intersection
interview
intich
into
intransitive
introducerade
introduction
inuit
inuktitut
invalid
inver
inverclyde
inverness
invias
invisible
io
ioan
iob
iochd
iochdmhor
ioel
iol
iolair
iolaire
iolairean
iolra
iom
ioma
iomadach
iomadachadh
iomadachaidh
iomadachd
iomadaich
iomadaidh
iomadair
iomadh
iomagain
iomaill
iomain
iomainichte
iomaire
iomairt
iomairteachd
iomairtean
iomall
iomallach
iomallaiche
iomanaichte
iomaratan
iomarra
iomchaidh
iomhair
iomlaid
iomlaideach
iomlan
iompachadh
iompaich
iompaire
iompaireachd
iomradh
iomraidh
iomraidhean
iomraiteach
iomsgaradh
ion
iona
ionad
ionadach
ionadail
ionadal
ionadan
ionah
ionaid
ional
ionaltraidh
ionann
ionar
iondail
ionescu
iongantach
iongantas
iongnadh
ionlaid
ionmhais
ionmhas
ionmhasail
ionmhasair
ionnan
ionnanach
ionnanachd
ionnanas
ionnann
ionnannachd
ionndrainn
ionnlaid
ionnsachadh
ionnsachaidh
ionnsaich
ionnsaichte
ionnsaidh
ionnsaigh
ionnsaighean
ionnsramaid
iora
iorac
iordan
iorgu
iosa
iosaid
iosail
iosal
iosato
iosd
iosif
ioslam
ioslamach
iosrael
iosraeleach
iosua
iowa
ip
ipa
ipear
ipearan
ipeir
ipheit
iphit
ippolito
ipuu
ir
ira
iran
irb
irbhinn
irbis
irc
irce
ircean
ird
irde
irdeach
irdean
irdeanan
irdeas
irdeasach
irdeasachd
irdeasan
irdeil
irdeis
irdsidh
ire
ireach
ireachail
ireadh
ireamh
ireamhachd
ireamhaiche
ireamhan
irean
ireann
ireannach
ireannaich
ireimh
ireland
irene
irge
iri
iria
irich
iriche
irichean
iridh
iridheach
iridhean
iridium
irig
irigh
irim
irina
irinis
irinn
irinneach
iris
irisean
irisgeigh
irish
irisleabhar
irleach
irlich
irmheas
irn
irne
irneach
irneal
irnealair
irneart
irneid
irnein
irneis
irnis
iron
irpin
irr
irsea
irsgeul
irsgeulach
irsia
irsinn
irsinneach
irt
irte
irteach
irteachadh
irteachas
irtean
irtear
irteil
irti
irtiche
irtichean
irtidh
irun
irvine
irving
irwin
iryna
is
isaac
isaacs
isabel
isabella
isaf
isaiah
isambard
isan
isbeanan
isbn
isc
ische
isd
isde
isdeachd
isdeal
isdean
ise
iseabail
iseach
iseachadh
iseachaidh
iseachan
iseachd
iseact
iseactan
iseadh
isealach
isealachd
isealaich
isealta
isealtas
iseam
iseamaid
isean
iseanan
iseanta
iseantach
iseantachas
iseantachd
iseantaich
isear
iseas
iseasan
iseict
iseil
isein
iseis
isenburg
iseo
isg
isge
isgte
ishiguro
isia
isianach
isich
isicheadh
isichidh
isidh
isidro
isimeid
isir
isire
isirean
isis
isla
islam
islamabad
island
islands
islas
islay
isle
isles
islig
isneachd
iso
isotopic
israel
israeli
issn
isss
issue
issues
ist
istanbul
iste
isteachd
istean
istear
istva
it
itagu
italgraf
italia
italian
italy
itapu
ite
iteach
iteachadh
iteachaidh
iteachaidhean
iteachail
iteachais
iteachan
iteachas
iteachd
iteag
itealaich
itealain
itealan
itealanachd
itean
iteig
iteigin
itein
items
iterbium
ith
ithaca
ithbeirt
ithe
itheach
itheachan
itheachd
itheadh
ithean
itheanta
itheas
itheil
ithich
ithidh
ithne
ithneach
ithreach
ithrean
ithtean
itich
itiche
itichean
itinn
itiop
itire
itis
itrium
its
itself
itv
iu
iubhair
iubhar
iuch
iucha
iuchair
iuchar
iuchraichean
iucn
iukon
iulia
iulianach
iulius
iupac
iv
iva
ivan
ivano
ivar
ivasyuk
ivchenko
ivo
ivoire
ivory
ivy
iwan
ix
iz
izyum
iəbɛr
j
ja
jacinto
jack
jackal
jackie
jackson
jacob
jacobs
jacobus
jacqueline
jacques
jade
jae
jagger
jagiellon
jagiellonian
jaguar
jahre
jahrhundert
jaime
jakarta
jakob
jakobsdo
jamaica
jamala
james
jamestown
jamie
jan
jane
janeiro
janet
janez
janovics
janssen
janszoon
january
japan
japanese
jar
jaramillo
jaran
jardine
jaroslav
jarosław
jason
jaume
java
javeriana
javier
jaws
jay
jayanti
jazz
je
jean
jeanne
jedburgh
jeddah
jefferson
jelinek
jell
jen
jena
jenkins
jennifer
jenny
jeno
jens
jensen
jeremy
jero
jeroen
jerome
jerry
jersey
jerusalem
jesse
jesu
jesus
jethou
jeune
jewish
jgambnst
ji
jico
jihlava
jilava
jim
jime
jimmy
jiu
jo
joa
joachim
joan
joanna
joaqui
jobs
jocelyn
jock
jocky
joe
joel
joey
jogaila
johan
johann
johanna
johannes
johannesburg
johansson
john
johnny
johns
johnson
johnston
johnstone
joie
joint
joliot
jolla
jon
jonas
jonathan
jones
jong
jordi
jorge
joris
jornada
jose
josef
josefa
josep
joseph
josephus
josh
joshua
jou
joule
journal
journals
journey
jours
jover
jovice
jovovich
joy
joyce
jpg
jpl
jr
jstor
ju
juan
juana
judeanach
juden
judet
judique
judith
judy
juin
jules
julia
julian
julie
julien
julio
julius
jullie
july
jump
juncea
junction
june
juneteenth
jung
jungle
juni
jura
jure
jurtina
just
justice
justin
justus
juventus
jɔ
k
ka
kabaddi
kabul
kaczyn
kafka
kahlo
kahneman
kai
kaiser
kalahari
kaliningrad
kalmar
kalsoy
kalundborg
kalush
kame
kameneva
kamerlingh
kami
kamianets
kamianske
kamke
kampala
kan
kanal
kansas
kant
kanton
kantorovich
kaohsiung
kappa
kara
karakum
karel
karen
karenina
karl
karle
karlfeldt
karlskrona
karlsruhe
karlstad
karol
karolinska
karplus
karrer
kary
kashmir
kassel
kat
kate
katharine
katherine
kathleen
kathmandu
kati
katowice
katri
kattegat
katz
kaufman
kaunas
kaurin
kavir
kawabata
kawagoe
kayak
kayser
kazakh
kazakhstan
kazimierz
kazuo
kb
ke
kearney
kee
keep
keeping
keiller
keir
keith
kekule
kelk
kelly
kelvin
kelvingrove
kemal
kemp
kemper
ken
kendrew
kenichi
kennedy
kenneth
kenny
kent
kentucky
kenya
kenyon
kenzaburo
keow
kepler
keric
kerk
kerr
kerte
kesey
kettleholm
ketto
kevin
key
kezia
kg
kgalema
kgb
khabarovsk
khali
khan
kharkiv
kharkivska
khartoum
khayr
kherson
khinshasa
khmelnytska
khmelnytskyi
kholkova
khoruzhivka
ki
kiado
kick
kid
kidd
kidnapped
kids
kiel
kielce
kierfea
kierkegaard
kigali
kilbride
kilda
kill
killed
killer
kilmarnock
kilsyth
kim
kin
kincardine
kind
king
kingdom
kingdoms
kings
kingston
kinnock
kinross
kinsey
kinshasa
kinship
kip
kipling
kira
kirchhoff
kiribati
kirk
kirkcaldy
kirkcudbright
kirkmichael
kirkpatrick
kirkwall
kirovohradska
kirsteen
kirsten
kirsty
kirtlebridge
kiryat
kiss
kissling
kist
kit
kitchen
kitsman
kitty
kjølen
klaas
klagenfurt
klaipe
klallam
klaproth
klas
klaus
klein
kleine
kleiner
klerk
klevenhaus
klint
klippan
klm
klondykers
klug
km
kmaq
knap
knarflokkurinn
knesset
knight
knock
knoevenagel
know
knowledge
knowles
known
knox
knoydart
knuckle
knuckles
knut
ko
kobe
kobilka
kobus
koch
koestler
kohn
kohtla
kolbru
kolkata
koltur
kom
komi
kommu
kommun
kommune
komt
kon
kong
kongelige
konrad
konstanz
konsterna
konya
koolhaas
koopmans
kopparberg
korrigum
kos
kosterlitz
kostiantyn
kotsiubynsky
koval
kr
kra
krabbe
kraj
krako
krakowa
kramatorsk
krasnow
krefeld
kreis
kreisfreie
kremenchuk
kreminna
kreuzau
kris
krishna
kristel
kristja
kro
kropotkin
kropyvnytskyi
kroto
krugman
krumlov
kruse
kryvyi
krzysztof
ks
ksson
ku
kuhn
kuindzhi
kull
kultur
kum
kungliga
kunis
kunnen
kunoy
kuopio
kur
kurfu
kuro
kurt
kutsal
kuznets
kv
kvennalistinn
kvorecky
kw
kydland
kyiv
kyivska
kyle
kyo
kyoto
kyzyl
kz
kɑ
kɔ
l
la
laat
labem
labhair
labhairt
labhairtean
labhdair
labhraiche
labhraichean
labhrainn
labhruidh
laboratory
labour
labrador
labs
lac
lach
lachdann
lachlainn
lachlan
lachlann
lack
ladair
ladairean
ladh
ladhar
ladies
lado
lady
lafayette
lafsdo
lafsfjo
lafsson
lafur
lag
laga
lagachadh
lagain
lagan
lagerkvist
lagerlo
lagh
lagha
laghail
laghan
lagopus
lagos
lagra
lagu
laguna
laibh
laich
laiche
laichean
laid
laideann
laideannach
laidh
laidinn
laidinneach
laidir
laidlaw
laidon
laig
laige
laigearraidh
laigh
laighe
laighean
laimhrig
laimrig
lain
laind
laindeach
lainn
lainne
lainneach
lainnis
laird
laire
lais
laisgeir
laitbhe
laitbhia
laithean
laj
lake
lakes
lakesteamplaid
lam
lama
lamascaig
lamb
lambert
lament
laminaria
lammermoor
lamont
lampa
lampetra
lan
lanair
lanairean
lanark
lanarkshire
lanca
lancashire
lancaster
lancelot
land
landau
landeskunde
landet
landgraf
landing
landkof
landkreis
landna
landranger
lands
landscape
landschaft
landsfjo
landskjo
landskrona
lane
lang
langaig
langaim
langais
lange
langmuir
language
languages
languedoc
langues
lanka
lann
lannan
lanner
lannraig
lannsa
lanntair
lansbury
lansing
lant
lantach
lantanach
lantanaich
lanzarote
lao
laoch
laogh
laoghail
laoghaire
laoich
laoidh
laoidhean
laoigh
laois
laoise
laomainn
laomann
lapa
lapaich
lapain
laphroaig
lapworth
lar
larach
larbha
laren
largacha
large
largely
larger
largest
larousse
lars
larsson
larus
las
lasach
lasadh
lasaich
lasair
lasan
lasanta
lasiommata
lasrach
lassga
lassie
last
latbhais
late
later
lath
latha
lathaich
latharan
latharna
latin
latina
latreille
latter
lauder
lauderdale
lauenburg
lauingen
laura
laureano
laureate
laureates
laurence
laurentius
laurie
lausanne
lausitz
laval
lavoisier
law
lawrence
lawrencium
laws
laxness
lay
layout
lazarillo
lazio
lb
lc
lcdt
lcea
ld
ldeig
le
lea
leab
leabaidh
leabanon
leabhair
leabhar
leabharlainn
leabharlann
leabharlannaiche
leabharmor
leabhraichean
leabhran
leac
leacach
leacan
leach
lead
leader
leaders
leadership
leading
leaf
leag
leagail
leaghadair
leaghadh
leaghaidh
league
leagues
leam
leamhan
leamhna
lean
leanabachd
leanaban
leanabas
leanabh
leanadh
leanaidh
leanas
leanmhainn
leann
leanna
leannain
leannan
leannanachd
leannanan
leanntainn
leantach
leantail
leantainn
leantainneach
leap
lear
learg
leargaidh
learmonth
learn
learners
learngaelic
learning
leas
leasach
leasachadh
leasachaidh
leasachaidhean
leasachain
leasachair
leasachan
leasaich
leasaicheadh
leasaichte
leasan
leasanan
leasbach
leasbaich
leasoto
least
leat
leath
leatha
leathad
leathain
leathainn
leathainne
leathair
leathan
leathann
leathar
leather
leatrom
leatruim
leave
leaves
leaving
lebanon
leben
lebhiticus
lebkuchen
lebor
lech
lechwe
lecoq
lecture
lectures
led
lee
leeds
leeuwarden
left
legacy
legal
legend
legends
legged
legio
legislation
lehn
leibh
leibhinis
leicester
leid
leiden
leifear
leig
leigeadh
leigeas
leigeil
leigheas
leigheasan
leigheis
leighis
leigidh
lein
leine
leinibh
leintean
leipzig
leipziger
leir
leis
leisgeul
leith
leithghlinne
leithid
leitir
leksikon
leloir
lelwel
lelystad
lemass
lemmon
lemon
lemonade
lemos
lemy
len
lena
lendi
length
lengthwise
lengua
lenin
leningrad
lenman
lennart
lenngren
lennon
lennox
leo
leodhas
leon
leonard
leonardo
leonid
leonora
leonov
leontief
leopard
leopardus
leopold
leopoldina
leopoldo
leotha
lepidoptera
ler
leroux
lervia
lerwick
les
lesley
leslie
less
lesser
lessing
lessons
lester
lesya
let
leth
lethbhreac
leticia
letter
letterman
letters
lettres
leud
leudachadh
leudaich
leugh
leughadair
leughadairean
leughadh
leughaidh
leughar
leughte
leuke
leum
leumadair
leumadairean
leus
leusair
leusairean
leuven
lev
levec
level
levels
leven
leverhulme
levi
levitan
levitt
levy
lewis
lexical
lexicon
lexikon
lexington
lexy
leyen
leyman
lez
lfsdo
lfsson
lfstæðisflokkurinn
lfur
lga
lgbc
lheim
lholt
li
lia
liam
liath
liatha
liathach
liatroim
liatroma
lib
libby
libe
libearal
libearalach
libearalaich
libearalas
libeirte
libellula
liber
liberal
liberec
liberman
libertad
libertarian
libhrigeadh
libia
libianach
liborina
librairie
libraries
library
libre
libreoffice
libreville
libris
libull
lic
lica
lichtenstein
lichtensteinii
liddell
lide
lidean
lie
liebe
liebig
liechtenstein
liestal
lietuvos
life
liger
lighiche
lighichean
light
lighthill
lighthouse
liguria
lihou
lika
like
likelihood
likely
lila
lille
lillehammer
lilongwe
lim
lima
limburg
limenitis
limited
limoges
limousin
lin
lina
lincoln
lincolnshire
linda
lindahl
lindgren
lindisfarne
lindqvist
lindsay
line
linen
lines
linga
lingua
linguae
linguistic
linguistics
linie
link
linko
links
linlithgow
linn
linnaeus
linne
linnean
linnet
linntean
linnæus
lint
linton
linus
linux
linwood
linz
liola
lion
lionadh
lioncs
lionn
lionna
lionnach
lior
lios
liosan
liosta
liostaichean
liota
liotua
lippe
lipscomb
lir
liriceach
lis
lisa
lisboa
lisbon
lise
lismore
list
lista
listed
lite
literacy
literary
literatur
literatura
literature
litir
litireil
litium
litocranius
litomys
litreach
litreachadh
litreachaidh
litreachaidhean
litreachail
litreachais
litreachan
litreachas
litrichean
litte
little
littlejohn
litvakov
liu
liubhairt
liudmyla
liuravay
live
liverpool
lives
livia
living
livingston
livingstone
livius
lix
liz
ljo
ljubljana
ljung
lkerrechtliche
lksins
ll
lla
llach
llan
llanbadarn
llanbedr
llanddewi
llandeilo
llanelli
llanfair
llanfihangel
llangynog
llanos
llanrhaeadr
llanystumdwy
llasat
llc
lleachan
lleida
lleoedd
ller
lleras
lli
llorona
llosa
lloyd
lltaichte
llui
llull
llwybr
lly
llyfr
llywelyn
lmb
lmhor
lmhorachd
lmsson
lmur
ln
lng
lnlycke
lo
lobenstein
lobhair
lobith
lobster
local
localities
locality
locarbaidh
location
locations
loch
locha
lochabar
lochaber
lochaidh
lochain
lochair
lochan
lochar
lochfoot
lochhead
lochinver
lochlainn
lochlann
lochlannach
lochlannaich
lochlannais
lochs
locis
lock
lockerbie
lockhart
lockyer
locust
lodainn
lodair
lodge
log
logainm
logan
loganair
logarbaidh
logh
logi
logic
logie
logo
logron
logsdon
loidhne
loidhneach
loidhnichean
loidig
loighne
loingeas
loinsigh
loir
loire
lois
loisg
loisgeadh
loisgte
lom
loma
lomair
lombardia
lombardo
lome
lomond
lon
lonachan
london
lonely
long
longaigh
longan
longer
longfoirt
longfort
longniddry
longuet
longyearbyen
look
looks
loop
loose
lop
lope
lopen
lora
lorak
lord
lords
lore
loreena
lorentz
lorenzo
lorg
lorgadh
lorgaidh
lorgan
lorgar
lorgas
lorient
lorimer
lorna
lorne
lorraine
los
losaidh
lose
loser
loses
losgadh
losgaidh
losgann
losing
loss
lost
lot
lothar
lothian
loudoun
loughlin
louis
louisbourg
louise
louisiana
louisville
loup
louse
louvre
love
low
lower
lowest
lowland
lowry
loxia
loxodonta
loyola
lozano
lp
lru
lsch
lse
lseach
lseachd
lsean
lsoy
lsson
lt
lta
ltadh
ltd
ltean
ltskog
lu
lua
luach
luachan
luachmhor
luachrach
luaidh
luaidhe
luail
luain
luaithe
luaithre
luanda
luas
luath
luatha
luatharan
luathas
luaths
lublin
lucas
luch
lucha
luchd
luci
lucia
luciano
lucius
luck
lucky
lucret
lucsamburg
lucus
lucy
ludendorff
ludovisi
ludwig
ludwigsburg
luft
luftlinie
lugano
lugh
lugha
lughad
lughdachadh
lughdaich
lugo
lugoj
lugosi
luhansk
luhanska
lui
luib
luibh
luibhean
luid
luigi
luimneach
luimnigh
luing
luinge
luingean
luinn
luinne
luirg
luirginn
luis
luke
lulea
lulworth
luna
lunainn
lunatus
lund
lunenburg
lunn
lunnainn
lunndaidh
lupus
lurg
lus
lusaka
lusan
lusatia
lusi
lusitania
lut
lutetium
luther
lutherstadt
lutjegast
lutsk
luttel
luz
luzern
lvarez
lvaro
lviv
ly
lycaena
lycalopex
lyle
lynch
lyngstad
lynn
lynx
lyon
lyons
lyrics
lys
lysianskyi
lystry
lyudmila
lɛ
m
ma
maar
maarten
maas
maastricht
mab
mabo
mabou
mac
macailpein
macamhlaigh
macan
macanta
macaoidh
macaonghais
macartair
macarthur
macasgaill
macaskill
macau
macaulay
macbain
macbeth
macbhatair
macbheatha
maccalmain
maccodrum
maccoinnich
maccoll
maccolla
macconaill
maccormaig
macdhiarmaid
macdho
macdhonnchaidh
macdhu
macdhunle
macdiarmaid
macdiarmid
macdonald
macdougall
mace
maceachainn
maceachen
macfarlane
macfhearghais
macfhionghain
macfhionghuin
macfhionnlaigh
macgill
macgilleathain
macgillebha
macgilleeathain
macgillemha
macgillemhi
macgilli
macgregor
macgriogair
macguaire
mach
machado
machair
machaire
machine
machlag
machrach
maci
maciain
macilleathain
macillebha
macilledhuibh
macillemhi
macinnes
macintosh
maciomhair
mackay
mackenzie
mackie
mackinnon
mackintosh
maclachlainn
maclachlan
maclaren
maclean
maclellan
macleo
macleod
macmhaoilein
macmhaolain
macmhathain
macmhi
macmhuirich
macmillan
macne
macneacail
macneil
maco
macpha
macphaidein
macpherson
macquarrie
macquart
macra
macrae
macrath
macshuibhne
mactalla
mactho
mactutor
macuilleim
mad
madach
madadh
madagascar
madaiche
madaidhean
madainn
madame
maddrell
made
madeira
madeleine
mademoiselle
madison
madoqua
madras
madrid
maes
maeterlinck
maffeo
mag
magaidh
magalha
magangue
magazine
magdalena
magdeburg
maggie
maggiore
magh
magic
magma
magnaiteach
magne
magnesium
magnetic
magnu
magnus
magnusson
maguire
magyar
mahfouz
mahon
mai
maich
maid
maide
maidean
maidh
maidne
maigh
maighdeann
maighdeannan
maighdinn
maighread
maighstir
maighstireachd
maighstirean
mail
maile
mailisidh
mailisidhean
maille
mailt
maimonides
main
maine
mainia
mainis
mainisdear
mainistir
mainn
mains
mainstream
maint
maintenance
mainz
mair
mairbh
maircnidh
maire
mairead
maireadh
maireann
maireannach
mairearad
mairi
mairidh
mairsinn
mais
maise
maison
maith
maitheanas
maitheas
maitland
majdanek
majesty
major
majority
make
makes
making
mal
mala
malabhaidh
malabo
malachi
malaidhis
malaidhsia
malaig
malairt
malairte
malairteach
malakhov
malaria
malcolm
malcom
male
malformed
mali
mall
mallachd
mallaig
mallarino
mallet
mallon
mallorca
malmberg
malmo
malt
malta
malvae
mamal
mamalan
mammal
mammalia
mammalogy
mammals
mammern
mammuthus
man
manach
manachainn
manachainnean
manadh
management
managua
manaich
manaidsear
manaidsearan
manainneach
manannan
manawatu
mancha
manchester
mandairinis
mandela
mane
manfred
mangaineis
manhattan
manichaean
manifesto
manila
maniola
manisa
manitoba
manizales
mankell
mann
mannan
manne
manner
mannheim
manosalbas
mantis
manual
manuel
manuela
manul
manus
manuscripts
manvell
manx
many
mao
maoile
maoilios
maoim
maoin
maoineachadh
maoineachaidh
maoir
maoirne
maol
maola
maolalaigh
maolros
maor
maorach
maori
maoth
map
mapa
mapaichean
maps
maputo
mar
mara
marach
maradona
maraiche
maraichean
maramures
maran
marannan
marat
marbh
marbhadh
marbhaidh
marbhaidhean
marbhrann
marbhtach
marc
marcachd
marcaich
marcaichean
marcas
marcel
march
marcha
marche
marco
marcos
marcus
mare
marengo
margadh
margaid
margaidean
margaidh
margaidhean
margaree
margaret
margarita
margoh
margot
marguerite
mari
maria
marian
mariana
mariannus
mariano
marie
mariehamn
marignano
marilyn
marilyns
marin
marina
marine
marinka
marino
marinus
mario
marion
mariquita
maritime
mariupol
mariyka
marjorie
mark
marked
market
marks
marktl
marlborough
marlon
marmat
marne
maroco
marquess
marquis
marra
marriage
marroqui
mars
marsaili
marsanta
marseille
marsh
marshall
marsupialis
marsyuk
mart
marta
martensz
martes
martha
marti
martin
martinique
martinson
martinus
martos
martyn
marvin
marx
marxach
marxachas
marxism
mary
maryland
mas
masach
masadoinia
masaraineach
masaryk
masculine
maseru
mask
maskin
mason
mass
massachusetts
masse
mastai
master
mat
mata
matamataig
matamataigeach
matamataigear
matamataigs
match
matches
mateo
material
materials
math
matha
mathachaidh
mathaid
mathain
mathair
mathan
mathanas
mathbf
mathematics
matheson
matilde
mats
matsuri
matt
matter
matters
matthes
matthew
matthi
mattison
maugham
maui
mauk
maupassant
mauriac
maurice
mauritius
maurits
mawr
max
maxim
maximilian
maximilien
maximum
maximus
maxton
maxwell
may
maya
maybole
mayer
mayo
mayor
mazama
mbabane
mbe
mbeki
mbovit
mc
mccain
mccartney
mcclure
mcconnell
mcdonald
mcewan
mcgill
mcgraw
mcgregor
mcguire
mcilvanney
mcintyre
mckennitt
mckenzie
mcleish
mcleod
mcmanus
mcmillan
mcnaught
mcneill
mcqueen
md
me
mea
meacanaigs
meadaigeach
meadal
meade
meadhain
meadhan
meadhanach
meadhanan
meadhannach
meadhannan
meadhoin
meadhon
meadhonach
meagsago
meala
mealabhaig
mealainin
meall
mealladh
meallain
meallan
mealt
mean
meanbh
meanbhach
meanbhan
meaning
means
mearachd
mearcair
mearcar
mearns
meas
measach
measadh
measail
measan
measar
measg
measgachadh
measgaichte
measgte
meatailt
meatailte
meatailtean
meatair
meatairean
mecca
mechanical
mechanism
mechanisms
mecklenburg
med
medal
medb
medea
medelli
media
medical
medici
medicine
medieval
medina
mediterranean
medium
medway
mee
meek
meenkyro
meer
meerdere
meest
meet
meeting
meg
megaloceros
megantereon
megawatt
megera
mehedint
mehmed
mehmet
meidigeach
meiklie
meilge
meilich
mein
meiningen
meinrad
meirle
meitner
meißen
meji
mel
melampus
melanargia
melanchthon
melba
melbourne
melchiorre
meles
melgar
melilla
melitopol
melo
melvin
member
members
memoiren
memoirs
memorial
memorials
memorias
memories
memory
memphis
men
menachem
menai
mendel
mendeleev
mendelssohn
mendoza
mene
menen
mengele
mengs
menig
menntasko
menor
menorca
mental
meo
meppel
meppen
meque
mer
mercat
merced
mercedes
mercer
merchant
mercury
meredith
merkel
merlin
merrifield
merry
mersin
merthyr
merton
mes
mesa
mesis
message
messier
mestizos
met
meta
metair
metal
metallica
metals
metellus
meteo
method
methods
methuen
metre
metreachd
metro
metz
meud
meudachadh
meudachd
meudan
meudon
meur
meuran
meurchla
mexican
mexico
meyer
mez
meßkirch
með
mg
mgm
mgr
mh
mha
mhaastricht
mhabain
mhac
mhach
mhacha
mhachd
mhadaidh
mhadainn
mhadrid
mhag
mhagdalena
mhagdeburg
mhagh
mhagnaiteach
mhaid
mhaidean
mhaigh
mhaighdean
mhaighdeann
mhaighstir
mhail
mhailisidh
mhain
mhainisdeir
mhainistir
mhainn
mhair
mhairbh
mhaireadh
mhaireann
mhaireannach
mhaireas
mhairi
mhairt
mhais
mhaise
mhal
mhaladaibh
mhalaig
mhalairt
mhalairte
mhalairteach
mhall
mhallachd
mhalmo
mhamal
mhan
mhanach
mhanachainn
mhanaich
mhanaidsear
mhanainn
mhanann
mhanchester
mhann
mhanta
mhaoilein
mhaoin
mhaoineachadh
mhaoineachaidh
mhaoineas
mhaoirne
mhaois
mhaol
mhaor
mhaorach
mhapa
mhapaichean
mhaputo
mhara
mharaiche
mharbh
mharbhadh
mharbhtach
mharcaich
mhargaidh
mharmara
mharoco
mharseille
mhata
mhatamataig
mhatamataigeach
mhath
mhdach
mhdachadh
mhdaichte
mhdhail
mhdhalach
mhe
mhea
mheadhain
mheadhan
mheadhanach
mheadhanaich
mheadhanan
mheadhoin
mheagsago
mhealaboist
mhealbhaich
mheall
mhealladh
mhean
mheanbh
mheannt
mhearnaig
mheas
mheasadh
mheasail
mheasgachadh
mheasgaich
mheasgaichte
mheatailt
mheatailtean
mheatair
mhecklenburg
mhedelli
mhelanchthon
mheo
mheud
mheudachadh
mheudachd
mheudaich
mheur
mhi
mhial
mhiann
mhiannach
mhiannachd
mhiannaich
mhic
mhicamhlaigh
mhicaoidh
mhiccoinnich
mhicdhuibh
mhicgill
mhicgilleathain
mhichigan
mhicillfhaolain
mhicleo
mhicneacail
mhicpha
mhicshimidh
mhictho
mhilano
mhill
mhilleadh
mhillean
mhin
mhinistear
mhinistearan
mhinisteir
mhinn
mhinnesota
mhion
mhionaid
mhios
mhiosa
mhira
mhiseanaraidh
mhississippi
mhiu
mhla
mhlachaidh
mhlachd
mhlain
mhlan
mhlanan
mhna
mhnadh
mhnaich
mhnaidh
mhnaill
mhnall
mhnallach
mhnallaich
mhnant
mhnantaich
mhnantan
mhnard
mhnardan
mhnathan
mho
mhoch
mhodal
mhodh
mhodhail
mhoileciuilean
mhoire
mhoireach
mhoireasdan
mhoireibh
mhoiriseas
mhojave
mhol
mholadh
mhonaco
mhonadh
mhonaidh
mhonar
mhonarcachd
mhor
mhorail
mhorair
mhorbhairne
mhorchuid
mhort
mhosg
mhosgo
mhotha
mhothachadh
mhothaich
mhradh
mhrag
mhraidh
mhraidhean
mhraig
mhstri
mhu
mhuc
mhuic
mhuile
mhuileann
mhuilich
mhuilinn
mhuilleir
mhuillidh
mhuineacha
mhuinntir
mhuir
mhuire
mhuirich
mhuiris
mhuirt
mhullach
mhullaich
mhullaidh
mhurchaidh
mhurt
mi
mia
mial
mialach
mialan
miami
mianmar
miann
miasta
miasto
mic
mica
micah
michael
michea
michel
michelangelo
michele
michelin
michelle
michelsen
michie
michiel
michigan
michua
mick
micmac
microsoft
mid
middelburg
middle
middlebie
middleton
midge
midi
midland
midlothian
mie
miercurea
mieszko
miffia
mifflin
mifune
might
migration
miguel
mihai
mihail
mijn
mike
mikhail
miklo
mil
mila
milan
milano
mile
miles
miliband
milis
milita
military
mill
milla
millard
milldoe
milleadh
millean
milleanan
millennium
miller
mills
milne
milngavie
milos
miltean
milton
milvus
milwaukee
min
minas
mind
minder
mine
mines
minginis
minh
minig
minimus
mining
ministear
ministearan
minister
ministers
ministreachd
ministrealachd
ministry
minn
minneapolis
minnesota
minor
minority
minquiers
minsk
minst
minutes
mio
mion
mionaid
mionaideach
mionaidean
mios
miosa
miotas
miotasach
mip
mir
mira
miraflores
miranda
mire
mirean
mirrlees
mirror
misael
miscellaneous
mise
misean
miseanan
miseanaraidh
misneachail
misneachd
miss
missed
missing
mission
mississippi
missouri
mistral
mit
mitchell
mitchison
mitchum
mith
mitrokhin
mittelalter
mitu
miu
mium
mixta
miðflokkurinn
miłosz
mm
mn
mna
mnaoi
mnathan
mo
moan
moch
mocoa
mod
modail
modailean
modal
mode
model
modern
moderne
modesto
modh
modhail
modhan
modhannan
modiano
modigliani
moel
moerner
moffat
mogadishu
mogos
mohamed
mohammad
mohammed
mohr
moiche
moileciuil
moileciuilean
moilibdeanum
moine
moines
moire
moireabh
moireach
moireasdan
moireibh
moisei
moisil
moissan
moiteil
mol
molach
moladh
molaidh
molaidhean
molaise
molda
moldobha
molecular
moledo
molina
molise
moll
moluag
moluaig
moment
mommsen
mompo
mon
mona
monaco
monadh
monaidh
monaidhean
monar
monarc
monarcachd
monarchia
monde
mondriaan
money
mongabay
mongo
mongol
mongolia
monica
monique
monod
monreith
monroe
monrovia
mons
monsieur
monster
mont
montagnola
montale
montan
montana
montauban
monte
monteri
monterrey
montevideo
montgomery
month
monthly
montler
montpellier
montreal
montreuil
montrose
monty
monument
monuments
moon
moor
moore
moose
mor
mora
morabhia
morair
morairean
moral
morales
moralta
moraltachd
moran
morar
moratainia
moray
mordant
mordor
more
moreno
morf
morgan
morgannwg
morgen
morgunblaðið
mori
morning
morocco
moroni
morphological
morris
morrison
morsi
mort
morte
morton
moryntsi
mosander
moscobha
moscovium
moscow
moselle
moses
mosfellsbær
mosg
mosgo
moshe
mosque
mosquera
moss
most
motacilla
motala
motha
mothachadh
mothachaidhean
mothachail
mother
motherwell
motion
motlanthe
moto
motor
mount
mountain
mountaineering
mountains
mounted
mousa
mouswald
mouton
move
movement
moves
movie
moving
moya
moysey
mozart
mozilla
mp
mpa
mpire
mpireachd
mpireil
mplidh
mps
mr
mraichean
mrs
ms
msa
msaa
msho
msp
msps
msson
msz
mt
mu
muammar
muasdal
mubarak
muc
mucan
much
muckle
muerte
muerto
muhammad
muhammed
muic
muice
muigh
muile
muileach
muileann
muillean
muilnean
muin
muine
muineacha
muinntir
muir
muireadhach
muirt
muirthead
muisca
mukawa
mulhouse
mull
mullach
mullagrach
mullaich
mullaichean
mullardoch
mulliken
mullis
multi
multidict
multilingual
multiple
mum
mumaidh
mumbai
mumford
mumhan
mun
muncaidhean
mundell
mundo
mungan
mungo
mungos
munich
munici
municipal
municipio
municipios
munro
munromagic
muntenia
munthe
muntiacus
muntjac
muntjak
mur
mura
murad
muraisc
muralto
murchadh
murchan
murchison
murcia
murdo
murdoch
mures
murfatlar
murfreesboro
muridae
murillo
murphy
murray
murt
mus
muscaria
muscat
muse
museum
museums
music
musical
musik
musique
muslamach
muslamaich
muslim
musquodoboit
musselburgh
mussolini
must
mustafa
mustela
muthaich
muy
muyskkubun
mv
mvezo
mw
my
myerson
mykhailo
mykines
mykola
mykolaiv
mykolaivska
myllar
mynydd
myrdal
myrhorod
myself
mystery
myth
mythology
mə
mədɛr
mən
n
na
naar
nabhair
nach
nachadh
nacht
nacio
nacional
nad
nadarra
nadh
nadia
nadine
nafarroa
nag
nagasaki
naguib
nagy
nagyva
nahuatl
nahum
nai
naich
naichean
naid
naidh
naidheachd
naidheachdan
naidheachdas
naidhean
naidhlean
naig
naigh
naighear
naill
naimibia
nain
naipaul
nair
naire
nairean
nairn
nairobi
nais
naiseanta
naish
naitridean
nak
naked
nall
nam
name
named
names
namh
namib
namibia
nan
nana
nanach
nanachais
nanachas
nanaiche
nanan
nanas
nancy
nanger
nantes
naofa
naoi
naoidh
naoidheamh
naoidhean
naoimh
naoinear
naoise
naomh
naomhan
naoned
nap
napi
napier
naples
napoca
napole
napoleon
napoli
nar
narann
narin
narrow
narrows
narva
nas
nasa
nasdal
nasgadh
nash
nashville
nassau
nasser
nasson
nastail
nastal
nat
natale
natalie
natan
nathair
nathan
nathrach
nathraichean
nation
national
nationale
nationalencyklopedin
nationalism
nations
native
nato
natta
naturae
natural
nature
naturæ
naum
nauru
naval
navarra
navas
navy
nazi
nb
nc
ncbi
nchen
nchez
ncia
ncipe
ncus
nd
ndaigh
ndairnis
ndal
nde
ndel
nder
ndez
ndorfi
ne
neacail
neach
neachadh
neachaidhean
neachan
neachdain
nead
neadachadh
neadh
neag
neagrach
neamhnaid
neamhnaideach
neamt
nean
neapa
neaptun
near
nearly
neart
neartachadh
neartail
neartan
neartmhor
neas
neasaig
neasair
neasca
neathach
nebraska
neburg
neburger
necessary
neck
necked
ned
neda
nedbaylo
nedd
nederland
nederlands
need
needed
needing
needs
neeson
neeve
nefud
negev
negishi
nehemiah
neil
neill
neimhe
neiptiunium
neirt
neither
neithich
neiva
nek
nel
nelissen
nelly
nelson
nemosto
nen
neo
neodar
neodimium
neodrach
neofelis
neoini
neon
neoni
neotoma
neotragus
neovison
neozephyrus
nephi
ner
nernst
neruda
nes
nesc
neskaupstaður
ness
nest
net
neth
network
neu
neucha
neue
neuilly
neul
neumann
neumu
neuruppin
neustadt
neustrelitz
nevada
never
neville
nevis
new
newark
newcastle
newfoundland
newlands
newly
newman
newport
news
newspaper
newton
newtonmore
next
ney
nez
nezhdana
nf
ng
ngall
nge
ngel
ngora
ngstro
nh
nhausen
nhs
ni
nia
niall
niamey
nibheis
nic
nica
nicalasdair
nicaoidh
nicaonghais
nicaragua
niccoinnich
niccolo
nicdho
nice
niceal
nicgilli
nicgumaraid
nich
nicholas
nicholson
nicht
nichte
nicilleathain
nick
niclaomainn
nicleo
nicne
nico
nicol
nicola
nicolae
nicolas
nicolaus
nicole
nicollier
nicolson
nicosia
nictaux
nicualraig
nid
nidh
nidwalden
nie
niedersachsen
niel
niels
nielsen
niemendal
niet
nieto
niets
nietzsche
nieuw
nieuwland
nig
nigeadh
nigel
niger
nighe
nighean
nigheanan
nigheannan
nighinn
nighneag
night
nights
nigreich
nigripes
nigsberg
nigswinter
nihonium
nijmegen
nikita
nikolai
nikolaus
nikolay
nikolayevich
nikos
nil
nile
nils
nimheil
nimi
nimo
nimos
nin
nina
nine
nineteenth
ninian
nio
niobium
niocaragua
nippon
nir
niro
nirribheach
nirribhidh
nirribhis
nis
nise
niseach
nist
nistaflokkur
nit
niteworks
nith
nithean
nithear
niu
niue
nium
nivalis
niven
nixon
nizhyn
nj
nk
nkieli
nko
nl
nleibh
nls
nm
nn
nndb
no
noah
nobel
nobelprize
nobhail
nobhaileag
nobhailean
nobhailiche
nobhar
noble
nocaima
nochd
nochdadh
nochdaidh
nochdas
nodaway
nodha
noel
noemi
nog
nohlen
noir
nokia
nollaig
nollaige
noma
nomenclature
noms
non
noord
noorda
nooteboom
nor
nord
nordrhein
norfolk
norge
nori
norma
normal
normally
norman
normanach
normanaich
normandie
nornais
norrard
norrbottens
norris
norrish
norrko
norse
norsk
norske
norstedt
norte
north
northern
northland
northlink
northrop
northumbria
northwestern
norton
norwich
norður
norðurland
norðvesturkjo
nos
nose
nosed
noses
not
nota
notable
notaichean
note
notes
nothing
notice
noticias
notre
nottingham
nouakchott
noume
noun
nouns
nouveau
nouvelle
nov
nova
novel
novela
november
novemberrevolution
novgorod
novo
novohrad
novospasivka
now
noy
noyori
nr
nrachadh
nrachaidh
nraichte
nran
nrigh
nrighinn
nrs
ns
nsdo
nsi
nsson
nster
nt
nta
ntacht
ntan
ntara
nte
nter
ntgen
nther
ntico
ntu
nu
nua
nuadh
nuadhachadh
nuadhachail
nuaidh
nuair
nuas
nubianach
nuclear
nuestra
nueva
nuevo
nui
null
number
numbered
numbers
numea
numerals
numerical
nun
nunavut
nunn
nuoro
nur
nurs
nurse
nursultan
nus
nutritionist
nx
ny
nya
nyi
nyko
nyok
nzburg
nə
nən
nərəx
nɪd
o
oaia
oak
oakland
oara
oasis
ob
oba
obadh
obadiah
obaill
obair
obaire
obaireachd
obairean
obairt
obairteach
obairtich
obaldi
oball
oballach
obama
oban
obando
obann
obar
obe
oberlausitz
oberndorf
obh
obha
obhach
obhadair
obhadairean
obhadh
obhaiche
obhaichean
obhaideach
obhaidh
obhaidhean
obhain
obhainn
obhainnean
obhair
obhairean
obhaite
obhalta
obhaltach
obhaltaich
obhann
obhar
obhas
obhta
obhte
obituary
object
oblast
obrach
obrachadh
obrachaidh
obrachaidhean
obrachail
obraich
obraiche
obraichean
obraicheas
observatory
observer
obsolete
obvious
obwalden
oc
ocampo
ocan
occidental
occidentalis
occidente
occupied
occurrence
ocean
oceania
oceans
och
ochach
ochail
ochain
ochan
ochantair
ochantas
ochd
ochdad
ochdair
ochdamh
ochdar
ochdarach
ochdnar
ochnach
ochnachadh
ochnaich
ochnaichte
ocht
ochtarach
ochuimhneachadh
oclc
ocseadanais
octavia
octavio
octeville
october
octobre
od
oda
odach
odd
oddsson
odense
oder
odesa
odeska
odhair
odhar
odharan
odhlacadh
odhlacaidh
odhlachadh
odhlaiceadh
odhlaicean
odo
odobenus
odocoileus
odra
odysseas
oe
of
off
offa
office
officer
official
officially
oftedal
often
og
oga
ogaim
ogam
oganesson
oge
ogh
ogha
oghachadh
oghachd
oghachdan
oghaichean
oghail
oghain
oghairean
oghaltas
ogham
oghrasach
oghrasaich
ogmhios
ogsaid
ogsaidean
ogsaidicheadh
ogsatanais
ogwr
oh
ohio
ohlin
oi
oibre
oibreachadh
oibrichean
oide
oideachadh
oideachaidh
oideachas
oideas
oidhche
oidhcheannan
oidhirp
oidhirpean
oifig
oifigeach
oifigeal
oifigear
oifigearan
oifigeil
oifigich
oifis
oifisean
oighre
oighreachd
oighreachdan
oil
oilbheint
oilea
oileanach
oileanaich
oilimpeach
oillteil
oilthigh
oilthighe
oilthighean
oir
oirbh
oirean
oirnn
oirre
oirrese
oirthir
oirthire
ois
oise
oisean
oiseanach
oisein
oithigh
oitir
ok
okinawa
oklahoma
okres
oksana
ol
ola
olachadh
olachan
oladh
olaf
olag
olah
olaidh
olain
olan
olaya
olbia
olc
olca
old
oldenburg
older
oleg
oleh
oleksandr
oleksandriya
olga
olha
oliveira
oliver
olivier
oll
ollaid
ollaideach
ollaimh
ollamh
ollamhachd
ollamhan
ollscoil
olmu
olof
olomouc
olor
olsson
olt
olta
olteniei
olympia
olympics
om
oma
omaha
oman
omh
omha
omhach
omhachail
omhachais
omhachas
omhachasail
omhachasan
omhachd
omhadair
omhadh
omhaich
omhaiche
omhaichte
omhaid
omhaidh
omhaigh
omhaigheach
omhaigheachd
omhaighean
omhain
omhair
omhaire
omhaireachd
omhairean
omhan
omhann
omhasachadh
omniglot
ompaire
ompaireachd
on
ona
onach
onadach
onadair
onadh
onag
onagoga
onaich
onaid
onaidh
onail
onain
onais
onan
onarach
onca
once
one
ones
ongar
online
onlineteamplaid
only
onmhor
onnes
onomastic
onopka
onorach
onra
ons
onsager
onta
ontario
ooi
oort
op
opa
opach
opachais
opachas
opaich
opaichean
opanas
opara
oparan
open
opening
openoffice
opera
operated
opinio
opinion
opinions
opponent
opposed
opposite
opra
opras
option
or
ora
orachas
oradea
orail
orain
orains
orais
oral
oran
orange
oras
orasaigh
orasan
oratorio
orbhail
orbhaileach
orbis
orbital
orcastra
orchardton
orchestra
ord
ordanance
order
ordinary
ordines
ordnance
ordo
ordos
oregon
oreotragus
org
organ
organisation
organization
orgastan
orhan
ori
oriental
orientales
orientalis
origin
original
originally
origine
origins
orion
orita
orkney
orkneyinga
orkneyjar
orlando
orle
orleans
orlu
orm
ormiston
orne
oro
orra
orrachd
orraidh
orrasan
orsa
orsay
orsini
ort
ortac
ortadogsach
orthetrum
orthographic
ortiz
ortnamnslexikon
ortodogsaich
orwell
oryx
os
osa
osachain
osachan
osaid
osaigh
osail
osain
osaka
osal
osamu
osan
osanach
osanachadh
osanaich
osanan
osbairn
oscar
osd
osda
osdachadh
osdaidh
osdaidheachd
osdaidhean
osdail
osipenko
oslavy
oslo
osman
osmanlı
osmium
osnabru
osos
ospadail
ospadal
ospadalan
ospina
osrach
osradh
osraich
oss
ossian
ost
osta
ostaidh
ostaidhean
ostaig
ostail
ostair
ostaire
ostaireach
ostfriesisches
ostrava
ostwald
oswald
osypenko
oszk
osztra
ot
ota
otago
other
otherwise
otoe
otomanach
otomanaich
ott
ottaviano
ottawa
otter
otto
ottoman
ou
ouagadougou
ouija
oulu
our
ourense
ourselves
out
outcome
outdoor
outer
outside
ov
over
overijssel
overs
overview
oviedo
ovis
ovseenko
owain
owen
owl
own
owyhee
ox
oxford
oxfordshire
oz
p
pa
pabaigh
pabail
pablo
pacastan
pacelli
pachd
pacho
pacific
pacino
pack
padova
padruig
padua
paganini
pagasta
page
pages
paget
pago
pai
paichean
paidhir
paidhleat
pailt
pailte
pailteas
painting
pairt
pais
paisa
paisley
pal
palace
palach
palacios
paladium
palaemon
palais
palastain
palau
palencia
paleogenomic
paleogenomics
paleontology
palermo
palgrave
pallas
palm
palma
palmas
palme
palmira
palnackie
palo
pamphili
pamphilj
pamplona
pamuk
pan
pana
panach
panama
panche
paneve
panolia
pantheon
panthera
paolo
papa
papazoglu
papeete
paper
paperback
papers
papey
papilio
papua
par
para
paracelsus
paradis
paradise
paraechinus
paraguaidh
paraguay
parailealogram
paraiste
parallel
paramadair
parameter
parameters
paras
parbh
parc
pardo
pardubice
pardus
pari
paris
pariser
parish
park
parker
parkgate
parks
parlamaid
parliament
parliamentary
parma
parme
parr
parra
parraist
parraiste
parraistean
parral
parrot
part
partaidh
partaig
partan
partement
partements
parthala
partick
particular
particularly
partido
parties
partnership
parton
parts
party
pas
pasadena
pascal
pasgan
paso
pass
passage
passamaquoddy
passenger
passer
passing
passion
passy
past
pasternak
pasteur
pasto
pastrana
pat
paterson
path
pathways
paton
patran
patricia
patrick
patten
pattern
pau
pauker
paul
paula
pauli
pauling
paulo
pauly
pavlenko
pavlichenko
pavlo
pavogur
paya
payne
pays
paz
pc
pdf
pe
peacadh
peace
peach
peacock
peadair
peadar
peairt
peakbagger
peallag
peanas
peann
peant
peantadh
peantair
pearl
pears
pearsa
pearsanta
pearsantachd
pearson
pearu
peata
peathar
peathraichean
peatrail
pecci
pedagogia
pedersen
pedro
peel
peighinn
peilear
peilearan
peirce
pelagicus
pelecanus
pelham
pelican
pelistry
pembroke
pembrokeshire
pemmican
pen
penalty
penfro
penguin
penh
penicillin
peninsula
penn
pennant
pennsylvania
penny
penpont
penrhyn
penrhyndeudraeth
penrith
penrose
pentland
pentlands
pentre
pentru
people
peploe
peppa
pepper
per
percentage
percy
pereira
perestroika
perfect
perform
performance
performed
perio
period
perkin
pero
perpendicular
perpignan
perri
perry
pers
perse
perseus
persistence
person
personal
perspective
perspectives
perth
perthshire
peru
perugia
perutz
peruvian
pes
peshkova
pete
peter
peterburg
peters
petersburg
petit
petite
petliura
petra
petro
petromyzontiformes
petrov
petrus
petty
peucag
peutan
pez
pfalz
pfer
pg
pgm
ph
pha
phabaigh
phadova
phaidhleat
phalacrocorax
phallus
phanama
phantom
pharaguaidh
pharaiste
pharas
pharis
pharraist
pharraiste
phartaidh
phatago
phd
pheadair
pheairt
pheallaidh
pheant
pheantadh
pheantair
phearsa
phearsain
phearsanta
phearu
pheata
pheathar
pheathraichean
pheatrail
pheatroil
phelps
phennsylvania
pheofhair
pheofharain
phersia
phetro
phi
phia
phil
philadelphia
philip
philipp
philippe
philippine
phillip
phillips
phillipsi
philomelos
philosopher
philosophical
philosophy
phiogto
phiuthair
phiuthar
phla
phlaeas
phlana
phlanaichean
phlanaid
phlatanum
phle
phloc
phluic
phnom
pho
phobaill
phoball
phoblach
phoblachd
phoblachdach
phoblaich
phoenix
phoileagain
phoileagan
phoileas
phoileasaidhean
phoileataigeach
phoileataigs
phoiliteagach
phoilitigeach
pholl
phomerania
phonemic
phopaya
phort
phortagail
phortagailis
phorto
photo
photos
phoznan
php
phra
phrase
phreas
phreasantair
phreastabhaig
phretoria
phri
phrinceton
phriomh
phrionnsa
phrionnsabal
phrionnsalachd
phris
phro
phrobhaist
phroifeasair
phrosbaig
phru
phruis
phu
phuerto
phuill
phuing
phuingean
phuirt
phuist
phunnd
phylloscopus
physical
physics
physiology
pi
pia
piaf
piano
piast
piatra
picasso
pictavia
pictou
picts
pictures
pidal
pidhiryanka
pidmohylny
pie
piece
pied
piedra
piedras
piemonte
pierce
pieridae
pieris
pierre
piet
pieter
pietro
pig
pigeard
pike
pillteach
pilot
pin
pinc
pine
ping
pings
pinilla
pink
pinn
pins
pinter
pinyin
piobar
piogto
pioneer
pios
pipe
piping
pipit
pippin
piraeus
pirandello
pirate
pirelli
pisa
piseach
pistoia
pistols
pites
pitman
pitre
pitt
pittsburgh
pius
piuthar
pizarro
pl
pla
place
placed
placement
placenames
placenmes
places
placing
pladaigh
plague
plain
plan
plana
planadh
planaichean
planaid
planaidean
planck
planet
planeta
planetary
planets
planning
plant
plants
plastaig
plastic
plata
platanum
plate
platform
plath
plato
platon
platt
plattdu
play
played
player
players
playfair
playing
plays
plaza
ple
plea
pleasant
please
pleasence
pleistocene
plenty
pliu
ploc
ploies
plouzane
plu
plummer
plunkett
plus
pluto
plutonium
plymouth
plzen
pm
pmatrix
pmc
pmid
pms
pnan
pnas
pne
po
poblach
poblachd
poblachdach
poblachdan
poblado
poca
pocket
pocketed
pocketing
pockets
podilskyi
podlaski
podolsk
poe
poem
poemas
poems
poesi
poet
poetry
poets
poileagain
poileagan
poilean
poileas
poileasaidh
poileasaidhean
poileatagach
poileataics
poileataigeach
poileataigs
poileis
poilimearan
poiline
poilis
poiliteagach
poilitigeach
poilitigs
point
pointe
points
poit
poiteag
poitean
poitou
pokhrel
polais
poland
polanyi
polar
polasaidh
polasaidhean
polen
poli
police
policy
polina
polis
polish
political
politics
polk
poll
pollachius
pollaidh
pollaig
polloi
polo
polonium
polskie
poltava
poltavska
polygon
polygonia
polyommatus
polytechnic
polytechnique
pombo
pomerania
pommern
pompidou
pond
pongail
ponsati
pont
ponte
pontevedra
pontificia
pontoppidan
pontus
pontypridd
pool
poor
pop
popasna
popaya
pope
pople
popov
popular
population
por
porfirio
porphyra
port
portagail
portagaile
portagaileach
portagailis
portal
porter
porth
porthloo
portion
portland
portmeirion
porto
portobello
portrait
portsmouth
portugal
porzana
posada
position
positioned
possible
possum
post
posta
posterstein
pot
potasium
pots
potsdam
potted
potter
potting
poulter
pour
powder
powell
power
powerpoint
powfoot
powiat
powys
poznan
pp
ppen
pr
pra
practical
practice
pragt
prague
prahova
praia
praid
prairie
prasodimium
pratense
pravda
prawn
prayer
prc
pre
preantasachd
preas
preasantair
preastabhaig
preda
preferred
pregl
prehistoric
preitiriteach
preliminary
prelog
premiership
premio
prensa
prepared
pres
presbyterian
prescott
presence
present
presented
preserved
presidencia
president
presidents
presley
press
pressure
preston
prestonpans
pretoria
previous
pri
price
priestley
prieto
prigogine
primaria
primarily
primary
primaryteamplaid
primavera
prime
primigenius
primo
primrose
prince
princeton
princip
principal
principally
print
printed
printing
prints
prioga
priomh
prionnsa
prionnsabal
prionnsabalan
prionnsalachd
prior
priory
pris
priscus
prishtina
prison
prisoner
private
privateers
prix
prize
prizes
pro
probably
probhaist
problem
problems
procapra
proceedings
process
prodi
production
productions
products
prof
professional
professor
profile
progcovers
program
programme
programmes
progress
proifeasair
proifeasan
proifeasanta
proifeiseanta
project
prokofiev
prometium
pronnasg
pronouncing
pronunciation
proper
properly
property
proposed
proppe
prose
prospero
protection
protest
protestant
prothaid
proto
provan
provenc
provence
provide
provided
providence
providencia
provincia
provincie
prozac
pru
prudhomme
pruise
pruiseanach
pruisia
prunariu
pruni
prunus
ps
pss
psu
pszamlalas
pt
ptolemy
ptolomaidh
pu
pub
public
publication
publications
publique
published
publisher
publishers
publishing
puccini
pudu
pueblo
pueblos
puente
puerto
puffin
puffinus
puglia
puig
puilean
puing
puingean
puinnseanach
puirt
puist
pujalo
pullar
puma
pumarejo
punc
punjab
punjabi
punk
punnd
purchase
pure
purpaidh
purple
purpose
purt
push
put
putadh
putain
putan
putin
putumayo
pygargus
pygmalion
pygmy
pyotr
pyramid
pyre
pyrgus
pyrrhocorax
q
qaidam
qc
qingdao
qinnuayuak
qquad
quality
quarter
quasimodo
quatre
quay
que
quebec
quechua
queen
queens
queensberry
queensferry
queensland
quemuenchatocha
quercus
quesada
quevedo
qui
quibdo
quick
quickfacts
quiet
quijote
quindi
quinte
quintus
quit
quito
quits
qunu
quo
qusqu
r
ra
raasay
rabat
rabbi
rabhadh
rabhaidh
rabindranath
rables
race
races
rach
rachadh
rachael
rachaidh
rachaidhean
rachas
rachd
rachel
racine
racing
rack
racked
racking
racks
rad
radaigeach
radain
radal
radan
radh
radharcach
radical
radio
radium
radius
radoje
radon
radu
raf
rafael
rafferty
rag
ragan
raghnaill
raghnall
raghnallsaigh
ragnar
ragnheiður
ragolta
rahden
raib
raibeart
raich
raiche
raichean
raichte
raid
raide
raideach
raidean
raiders
raidh
raidheach
raidhean
raidhich
raidiannan
raidiche
raidigeach
raidio
raig
raige
rail
rails
railway
railways
raim
rain
raineach
rainer
rainich
rainn
rainneach
rainneachd
rainnean
rainse
rair
rais
raise
raisg
raitear
raithin
rajora
rajoy
ral
raleigh
ralph
ram
ramach
ramakrishnan
ramaphosa
rami
ramiriqui
ramla
ramli
ramo
ramon
ramsaigh
ramsay
ramses
ran
ranaiche
ranais
ranas
rancho
randall
randolph
random
rang
rangachadh
range
rangers
rangifer
rangipo
rankin
ranking
rann
rannaibh
rannan
rannoch
rannsachadh
rannsachaidh
rannsachaidhean
rannsachair
rannsaich
rannsaiche
rannsaichear
ranntair
ranntairean
rant
rantan
ranunculus
raoh
raoin
raointean
raoird
raon
raonaid
raonasa
raoul
rap
rapae
rapair
rapal
raphael
raphicerus
rapids
rapunsail
raquel
rar
rard
rare
rarely
ras
rasaig
rasan
raspberry
rastafarachd
rat
ratar
rath
ratha
rathad
rathadan
rathaid
rathaidean
rathaile
rathain
rathais
ratharsair
rather
ration
ratti
ratzeburg
ratzinger
rau
ravenna
ray
rayleigh
raymond
rba
rbach
rbaich
rbais
rbasdail
rbost
rc
rcahms
rcaibh
rcan
rchuid
rd
rda
rdach
rdachadh
rdachd
rdadh
rdag
rdagh
rdaich
rdaichean
rdaichte
rdaidh
rdaidhean
rdaig
rdail
rdain
rdainealan
rdainn
rdair
rdais
rdal
rdalur
rdamon
rdan
rdanach
rdanaich
rdi
rdia
rdoba
rdte
rdugh
rdughan
rduigh
rdæmi
re
reabh
reach
reachas
reachd
reachdadair
reachdail
reachdan
reachdas
reached
reactar
read
reader
readh
readhactaran
reading
reagan
real
reales
really
realm
reamhair
reamhaire
reamhar
reamhra
rean
reason
reatha
rebound
rebounds
rebro
rec
recent
recep
recife
recommendations
recommended
record
records
recovery
rector
red
reden
redford
redland
redondo
reds
redunca
reed
reedbuck
reeder
reel
rees
reeves
ref
refer
referee
reference
referendum
referred
referring
refers
reform
reformation
reformed
regan
regard
regardless
regency
regensburg
reggio
regina
regio
region
regional
regione
regions
registan
register
regna
regnault
regni
regulation
regulus
rei
reic
reiceadair
reiceadh
reich
reicheit
reichstag
reichstein
reid
reidius
reifreann
reign
reihe
reil
reilly
reina
reindeer
reine
reiner
reinhard
reinhold
reir
reiss
reithe
reithean
related
relation
relations
relative
relatively
release
religion
religious
rem
remaining
remains
rembrandt
remek
remigius
removes
ren
renaissance
renault
rendered
rendo
rene
renfrew
renfrewshire
renn
rennes
rennie
reno
renton
reo
report
reports
repression
reprint
reptiles
repu
repubblica
republic
republik
republika
require
required
requires
rer
res
research
reserve
reservoir
reshuffle
resign
resigns
resolution
resource
resources
respectively
rest
resting
restoration
restrepo
result
resulting
results
resund
resurrection
resurse
reteamplaid
retrieved
return
returned
returns
reubainnear
reubaltach
reubaltaich
reudan
reul
reuladair
reultan
reusan
reusanta
reuters
reuß
rev
revenge
reverse
reversing
review
revised
revision
revista
revival
revolucio
revolution
revolutionary
revue
revutskiy
rey
reyes
reykjavi
reykjavik
reymont
rez
rezzonico
rfha
rg
rga
rgairean
rgan
rgen
rgens
rgische
rgovis
rgu
rgy
rhallsson
rhead
rhein
rheinland
rhely
rhildur
rhin
rhine
rhinoceros
rho
rhoda
rhode
rhododendron
rhodri
rhona
rhondda
rhonehouse
rhopalocera
rhos
rhus
ri
ria
riabhach
riabhachan
riabhag
riada
riaghail
riaghailt
riaghailteach
riaghailteachd
riaghailtean
riaghaladh
riaghalaidh
riaghaltais
riaghaltas
riaghaltasan
riaghlach
riaghladair
riaghladh
riaghlaich
riaghlaidh
riaghlatais
riamh
rian
rianachail
rianachd
rianachdail
rianaire
rianais
rianan
riascos
riata
riatanach
riatanasan
ribe
ribh
ric
rica
ricardo
ricaurte
rich
richard
richards
richardson
riche
riches
richet
richmond
richter
richtersveld
rico
rida
ridge
ridire
ridirean
ridley
ridseard
riemann
riese
rieure
rifkind
riga
righ
righinn
right
rights
rigid
rih
rihanna
riihima
rij
rijeka
rijksmuseum
rijn
rika
riksarkivet
riksbank
rilke
rim
rin
ring
ringen
ringer
ringford
ringo
rings
rinn
rinne
rinneach
rinneadh
rinnean
rio
riochd
riochdachadh
riochdachail
riochdaich
riochdaichte
riochdail
riochdair
riochdaire
riochdairean
riochdaireil
riof
rioghachd
rioghail
riohacha
rioja
rionegro
rionnach
rionnag
rionnagan
ripper
ris
risaralda
rise
rising
risk
rita
ritchie
rith
rithe
rithis
rithist
riu
rium
rius
riut
riutha
rival
river
rivera
rivers
riverside
rivie
rivier
rivne
riyadh
rj
rk
rkd
rkro
rl
rlabhagh
rlabhaigh
rlach
rlad
rlag
rlaich
rlain
rlair
rlamaid
rlamaide
rlamaideach
rlamaidean
rlann
rlar
rlitz
rlot
rlts
rmainn
rmat
rmhoir
rmhor
rmland
rms
rn
rna
rnabhagh
rnabhaigh
rnach
rnadaireachd
rnadh
rnag
rnagach
rnagan
rnaich
rnaidh
rnaidhean
rnaig
rnaigh
rnaighean
rnailear
rnaileir
rnain
rnaire
rnaireachd
rnais
rnan
rnaraigh
rnarflokkurinn
rnarrað
rnarraðið
rnarriðið
rnason
rnberg
rni
rnia
rnium
rno
rnol
rnsaidh
rnsson
rnu
ro
roa
road
roads
roald
rob
roban
robasdan
robbie
robert
roberto
roberts
robertson
robh
robhar
robhsaigh
robin
robinson
robison
robledo
roc
rocaidean
rochaid
rochelle
rochester
rock
rockas
rocket
rockingham
rocks
rocky
rod
rodach
rodas
roddy
roderick
rodin
rodney
rodri
rodrigo
rodrigues
rody
roe
roelofs
roentgenium
roger
rogers
roghainn
roghnachadh
roghnaich
roi
roibeard
roid
roimh
roimhe
roimhpe
roinn
roinne
roinneadh
roinnean
roinneil
roinneteamplaid
roinniche
roinnidh
roinnte
roinntean
rois
roise
roisteach
rojas
roland
role
rolf
roll
rolland
rolling
rolls
rom
roma
romagna
romain
romaji
roman
romana
romanach
romani
romania
romanian
romano
romansach
romansachd
rombas
rome
romero
romhainn
romhpa
romhsaigh
romulus
ron
rona
ronald
ronaldinho
ronaldsay
roncalli
ronnie
room
roosevelt
roots
roquebrune
rory
ros
rosa
rosain
rosal
rosario
rosbrog
rosbroig
rose
rosenblatt
rosenheim
roses
rosevear
rosg
rosheim
rosmarus
rosnait
ross
rostock
rostov
rotaru
rotation
roth
rothach
rothadair
rothaich
rothair
rothais
rotterdam
rouen
rouge
rough
rougon
round
rourke
rousse
rousseau
roussillon
route
routes
routledge
roux
row
rowland
rowley
rowohlt
roxburgh
roxette
roy
royal
roßlau
rp
rpa
rpach
rpaich
rpais
rpteamplaid
rquez
rr
rra
rrabost
rradh
rraidh
rraidhean
rras
rrez
rri
rriais
rrloch
rroma
rrsadh
rruri
rs
rsa
rsach
rsachadh
rsachan
rsachd
rsadh
rsaich
rsaiche
rsaichean
rsaid
rsaideach
rsaidh
rsaidheachd
rsail
rsair
rsan
rshavn
rspb
rsson
rsten
rstentum
rt
rtadh
rtaidh
rtaidhean
rtainn
rte
rterbuch
rth
rttemberg
ru
rua
ruadh
ruadha
ruadhail
ruadhainn
ruadhan
ruagadh
ruagaire
ruagairean
ruaidh
ruaidhe
ruaig
ruairi
ruairidh
ruanda
ruaraidh
rub
rubair
rubber
rubha
rubi
rubin
rucervus
rud
rudan
rudeigin
rudha
rudolf
rudolph
rudolstadt
rudyard
rue
rues
rufifrons
rufina
rufino
rufus
rug
rugadh
rugbaidh
rugby
ruhr
rui
ruibhe
ruibidium
ruig
ruige
ruigeadh
ruigear
ruigeas
ruigh
ruighe
ruigheachd
ruighinn
ruigidh
ruigsinn
ruis
ruise
ruiseach
ruiseal
ruiseanach
ruiseanaich
ruiseis
ruisg
ruisis
ruisteil
ruith
ruithe
ruitheam
ruitheas
ruithidh
ruiz
rul
rule
rules
rulesets
rum
ruma
rumantsch
run
runeberg
runner
running
runrig
runs
rupert
ruprecht
rural
rus
rusa
russel
russell
russia
russian
rut
ruta
rutger
ruth
rutherford
rutherfordium
rutherglen
rutilus
rutte
ruyter
ruz
rva
rve
rwanda
ry
ryan
ryanair
rybakov
ryder
ryle
ryn
ryoji
rz
rzburg
rzzuschlag
rð
rðarson
rðungur
rður
rı
rɔ
rʃd
s
sa
saa
saale
saalfeld
saarbru
saarland
saba
sabaid
sabaidean
sabaneta
sabatier
sabhail
sabhal
sabhd
sable
sac
sach
sachadh
sachasan
sachd
sachs
sachsan
sachsen
sackville
sacramento
sacred
sad
sadat
sadh
sadi
sadler
saenredam
safe
safety
safjo
sag
saga
sagail
sagairt
sagamap
sagart
sagartachd
sagartan
sagsainn
sagsannaich
saguamanchica
sahara
saiceo
saich
saicheadh
saichean
saichte
said
saideal
saidealan
saidh
saidhe
saidhean
saidheans
saidheansail
saidheansan
saiga
saighdear
saighdearach
saighdearachd
saighdearan
saighdeir
saighead
sail
saile
sailead
sailing
saillte
saillteach
sailm
saimbia
saimbic
saint
sainte
saints
sair
saitama
sakhalin
sal
sala
salaam
salach
salainn
salamanca
salann
salannachd
salas
salazar
salbhador
salcraig
sale
salem
salgar
salinas
salisbury
sally
salm
salmaidh
salmon
salmond
salt
saltire
salvador
salvatore
salvius
salzburg
sam
samaca
samarium
samband
sambar
same
samfylkingin
samhail
samhain
samhainn
samhla
samhlachadh
samhlachail
samhladh
samhlaichean
samhlaidhean
samhna
samhradh
samhraidh
samhraidhean
sami
samoa
samper
sampla
samson
samuel
samuelson
samuelsson
samurai
san
sanach
sanaich
sanais
sanakirja
sanas
sanasan
sancho
sanclemente
sand
sandaigh
sanday
sander
sanderson
sandhead
sandison
sandoy
sandpiper
sandra
sandy
sanfourche
sanger
sankt
sanmarti
sann
sanna
sanndag
sanndaigh
sanndraigh
sanssouci
sant
santa
santamari
santana
santander
santarcangelo
santayana
sante
santi
santiago
santillana
santo
santos
santuario
sao
saobhaidhe
saoghail
saoghal
saoghalta
saoidhean
saoil
saoir
saoirse
saor
saora
saorach
saorachadh
saoradh
saoraidh
saoranachd
saorsa
saothair
saothrachadh
saothrachaidh
sapir
sappho
sar
sara
sarah
sarajevo
saramago
sarc
sardainia
sark
sarmiento
sarto
sartre
saruman
sarwar
saryesik
sas
sasainn
sasainneach
sasann
sasannach
sasannaich
saskatchewan
saskatoon
sasuinn
sasunnach
satarn
sathairne
sathara
satu
saturday
saturn
satyrium
saud
saudi
saul
saunders
sauron
saussure
sauða
savage
savannah
save
saved
savoie
savoy
saw
sawyer
saxe
saxony
say
says
sc
sca
scablands
scaigh
scalloway
scamadal
scandinavian
scandium
scannell
scb
sce
scene
scha
schaffhausen
schaumburg
scheduled
scheele
schelling
scheme
scheubner
scheving
schiller
schla
schleswig
schmidt
schmiterlo
schneider
scho
scholar
scholars
scholes
school
schools
schoolteamplaid
schottland
schouwen
schrieke
schrijven
schro
schrock
schulten
schultz
schumann
schutzgebiete
schutzstaffel
schwa
schwarzburg
schwarze
schwarzenegger
schweiz
schwerin
schwyz
sci
sciaf
science
sciences
scientific
scientifique
scientist
scientists
sciurus
scoil
score
scored
scoring
scot
scotch
scotia
scotica
scotland
scotlandsnature
scoto
scotrail
scots
scotsman
scott
scotti
scottish
scottishgeology
scrabble
scrabster
scran
scratch
screw
script
scrol
scruton
scu
sd
sda
sdanach
sdanachas
sdean
sdo
se
sea
seabhag
seabhagair
seabhagairean
seaborg
seac
seacais
seach
seachad
seachd
seachdad
seachdadan
seachdain
seachdainean
seachdaineil
seachdainn
seachdamh
seachdnar
seachnadh
seachrain
seachran
seadh
seagal
seagh
seaghan
seal
sealach
sealaid
sealainn
sealbh
sealbhachadh
sealbhadair
sealbhanach
sealg
sealgair
sealgairean
sealink
sealladh
seallaibh
seallaidh
seallaidhean
sealltainn
sealtainn
seamraig
seamraige
seamus
sean
seana
seanachaidh
seanadair
seanadh
seanagal
seanaiche
seanaid
seanaidh
seanail
seanailear
seanaileir
seanair
seanalair
seanbhail
seanchaidh
seanchas
seanmhair
seann
seannach
seannaich
seannduaig
seannsalair
seansalair
seantansan
seapaine
seapan
seapanach
seapanais
sear
searbais
searbh
searbhag
searbhagan
search
seas
seasadh
seasaidh
seasamh
seasgadan
seasmhach
seasmhachd
seasmhaiche
season
seasons
seat
seata
seataichean
seathach
seattle
sebastia
sebastian
sechariah
sechura
second
secret
secretary
secrets
section
secundum
securitate
security
sedang
see
seen
seferis
segovia
segunda
seic
seice
seiceach
seicich
seicis
seifert
seil
seilbh
seilbhe
seilbheach
seile
seileach
seilg
seilich
seillean
seilleanan
seillein
seimeach
sein
seine
seinn
seinneadair
seinneadairean
seinnse
seipeal
seirbheis
seirbheiseach
seirbheisean
seirbhis
seirbhisean
seisean
seiseanan
seisein
selected
selection
selenium
seleznov
self
selfoss
selim
selkirk
sellar
selleck
selma
selten
sem
semana
semi
semiargus
semyonov
sen
send
seneca
senedd
senegal
senigallia
senior
senon
sense
sentimentale
seo
seoc
seonag
seonaidh
seorsa
seotal
seoul
sep
separate
sephaniah
sept
september
septembre
sequamur
ser
serbia
serge
sergei
sergio
serhii
serie
series
serious
serrano
sert
service
services
sescu
session
sessions
set
setanta
seton
sets
settlement
settlements
seudan
seudraidh
seula
seumas
seumasach
seumasaich
seunta
seusan
sevastopol
seven
seventeenth
seventh
several
severin
sevilla
sex
seymour
sfa
sfaras
sfondrati
sg
sga
sgadain
sgadan
sgadh
sgaig
sgairinis
sgaiteach
sgalpaigh
sgamhain
sgaoil
sgaoileadh
sgaoileas
sgaoilidh
sgaoilte
sgaorishal
sgap
sgapadh
sgapte
sgar
sgaradh
sgaraich
sgaraichte
sgaraidh
sgaraidhean
sgarbh
sgarr
sgarradh
sgat
sgath
sge
sgeadachadh
sgeadaichte
sgeama
sgeamaichean
sgeap
sgeir
sgeireach
sgeirean
sgeirsson
sgeith
sgeo
sgeul
sgeulach
sgeulachd
sgeulachdan
sgeulaiche
sgeulan
sgi
sgiabair
sgiabairean
sgian
sgiath
sgiathach
sgiathaich
sgiathan
sgiathanach
sgilean
sgileil
sgillinn
sgioba
sgiobaichean
sgiobaidhean
sgiobair
sgiobalta
sgiobannan
sgiogarstaigh
sgiolag
sgiollag
sgiorradh
sgire
sgitheach
sgitheanach
sgitheanaich
sgiu
sglapaid
sglapaide
sglapaidean
sgle
sgo
sgoil
sgoile
sgoilear
sgoilearach
sgoilearachd
sgoilearan
sgoilt
sgoiltean
sgoinneil
sgoir
sgoltadh
sgorr
sgoth
sgrab
sgrail
sgreapadal
sgreuchail
sgri
sgriobh
sgriobhadair
sgriobt
sgriobtaichean
sgrios
sgriosadh
sgrog
sgru
sgu
sguab
sguabadh
sgudail
sguideil
sguir
sgumain
sgur
sgurr
sh
sha
shabaid
shabaideadh
shabhal
shadow
shaffy
shaft
shagart
shagsainn
shaidheans
shaidheansail
shaighdear
shaighdearan
shakespeare
shalainn
shalamanca
shalcraig
shall
shalmhaigh
shambellie
shamhain
shamhla
shamhladh
shamhna
shamhnan
shan
shanais
shanghai
shannon
shanta
shantander
shaoghal
shaoil
shaoir
shaor
shaorachadh
shaoradh
shaoraich
shaorsa
shaothair
shaothrachadh
shape
shaped
shapley
sharansky
sharett
shark
sharon
sharp
sharpe
sharpless
shasainn
shasannach
shasannaich
shasunnach
shaw
shawnee
she
shea
sheabhal
sheacais
sheachdain
sheachnadh
shealainn
shealbhach
shealbhaich
shealg
sheall
sheallach
shealladh
sheallas
shealltainn
shealtainn
shean
sheanadair
sheanadh
sheanailear
sheanair
sheanalair
sheanar
sheanmhair
sheann
sheannsalair
sheansalair
sheanta
shear
sheas
sheasamh
sheasgaich
sheasmhach
sheat
sheba
shechtman
sheep
sheet
sheffield
sheila
sheilbh
sheile
sheileach
sheinn
sheinneadair
sheinneadh
sheinnse
sheirbheis
sheirbheisean
sheiseall
sheisean
shelburne
shelf
sheo
shepherd
sheridan
sherlock
sherwood
shetland
sheumais
sheumas
shevchenko
shevilla
shi
shia
shiar
shidni
shield
shift
shikoku
shilo
shimomura
shimpson
shimshon
shin
shine
shineach
shinn
shinto
shinty
shiombabue
shiorrachd
shiorrachdan
shiostam
shiostaman
ships
shir
shirakawa
shire
shirianach
shirley
shiu
shiubhail
shiubhal
shla
shlainte
shle
shlighe
shligheach
shligigh
shliochd
shloc
shluagh
shluaigh
shmuel
shna
shnaidhte
shneachda
shni
sho
shobhiat
shochairean
shocraich
shoidhnich
shoilleir
shoirbheachail
shoirbheachaile
shoirbheachas
shoirbhich
shoitheach
shoithichean
sholaimh
sholais
sholokhov
shomhairle
shon
shona
shonora
shool
shoot
shooter
shooting
shop
shopping
shore
short
shorter
shot
shots
shotts
should
show
showing
shra
shrapnel
shrath
shreap
shreath
shrewsbury
shrimp
shropshire
shruighlea
shruth
shruthas
shu
shuaineach
shuas
shubhairne
shuidh
shuidhe
shuidheachadh
shuidhich
shuidhichte
shuim
shultain
shultan
shuo
shurreigh
shuttle
si
sia
siad
siadar
sianal
sianar
sianfan
siar
siarach
siaras
siarra
siathamh
siberia
sibh
sibhse
sibiu
sic
sica
sich
sicilia
sicut
sid
side
sidney
sidni
sie
siebenbu
siegbahn
siena
sienkiewicz
sierra
sievierodonetsk
sigfu
sighetu
sighis
siglo
sigmaringen
sigmund
sigmundur
significant
signora
sigrid
sigurd
sigurðardo
sigurðsson
sigurður
sil
sile
sileacon
sileadh
silence
silent
silesia
silesianach
silidh
silis
sillanpa
silva
silver
silvestris
silvia
silvio
sim
similar
simmonds
simo
simon
simone
simphnidh
simplidh
simply
simpson
simum
sin
sinatra
sinc
since
sincelejo
sinclair
sine
sing
singapore
singeapo
singer
singilte
single
sinich
sink
sinking
sinn
sinne
sinnsear
sinnsearachd
sinnsearan
sinnsireachd
sint
siolandair
siolastair
siombabue
sion
siona
sionach
sionagog
sionnach
sionnaich
siorcair
siorco
siorrachd
siorrachdan
siorraim
siorram
siorramachd
sios
siosalach
siostaim
siostam
siostaman
sioux
siouzana
sir
sireadh
siria
sirol
sirte
sis
sisi
sister
sistercities
site
sith
sitheann
situation
situations
siu
siubhail
siubhal
siud
six
sixteenth
sixtus
size
sja
sjo
sjælland
sk
ska
skagerrak
skar
skara
skarphe
skarsson
skattungbyn
skaw
skeksis
skene
skerries
skerry
sketch
ski
skie
skill
skilled
skinner
skipinnish
skird
sko
skopje
skorokhod
skou
sku
sky
skye
skype
sla
slabhais
slabhraidh
slado
slaic
slands
slaodach
slaodadh
slaodaidh
slason
slastion
slat
slatan
slate
slater
slatina
slave
slavery
sle
sleagh
slendingabo
slenskra
sli
sliabh
sliding
slige
sligeach
sligean
sligh
slighe
slighean
slightly
slioch
sliochd
slip
slo
slobhacais
slobhaigia
slobozia
sloc
sloibhi
sloinneadh
sloinnidh
slop
slovenia
slow
sluagh
sluaghan
sluaigh
slugain
slugan
sluyter
sma
smachd
small
smaller
smalley
smaoin
smaoineachadh
smaoinich
smaointean
smaointinn
smash
smeo
smetana
smeur
smhi
smhor
smith
smithson
smithsonian
smo
smolensk
smolka
smooth
smu
smuain
smuainealas
smuaintean
smuanairt
smuid
smundsson
sna
snaidheadair
snaidhm
snaidhpear
snaidhte
snaighte
snap
sne
sneachd
sneachda
sneek
snejana
sneosdal
snerpa
snh
sni
snog
snooker
snookered
snow
snowdonia
snp
snu
so
soacha
soaigh
soas
soay
sobhiat
sobhiatach
sobhiataich
sobhietach
sobre
soc
socach
socair
soccerbase
sochairean
social
socialist
sociedad
societies
society
sociology
socorro
socrates
soddy
sodhail
sodium
sofia
soft
software
sogamoso
soidhne
soidhnichean
soillearachaidh
soilleir
soilleirachadh
soilleire
soilleireachadh
soillse
soillseachadh
soillseachaidh
soirbh
soirbheachadh
soirbheachail
soirbheachaile
soirbheachas
soirbheas
soirbidh
soisgeul
soitheach
soithichean
sokiryansky
sol
sola
soladach
solais
solar
solarachadh
solas
soldier
soledad
solid
solidarnos
solids
solna
solo
solomon
solothurn
solow
solus
solz
solzhenitsyn
som
soma
somalia
somatochlora
some
someone
somerset
somerville
something
sometimes
somewhat
somhairle
somme
sommige
sommigen
son
sona
sonaid
sonas
sonata
sondershausen
song
songs
sonraichte
sons
sophie
soraidh
sorbach
sorbaich
sorbais
sorbian
sorbonne
sorgh
soria
sorley
sorochyntsi
sotelo
soto
sotto
souilly
soul
sound
sounds
source
sources
south
southampton
southeastern
southern
southland
southwark
southwest
sovereignty
soviet
sovietach
soyinka
sp
spa
space
spadaidh
spaideil
spain
span
spanish
sparkford
sparradh
spartacus
spe
speactram
speactromachd
speak
speakers
speaking
spealadh
special
specialized
species
specific
specifically
specimen
speech
speed
speireig
spencer
speuclairean
speur
speuradair
speuradaireachd
speuran
spey
sphingidae
spi
spidean
spider
spiegel
spin
spinoza
spionnaidh
spiorad
spioradail
spioradan
spioraid
spioraideach
spitteler
split
spo
spokane
spoken
sport
sporting
sports
spot
spots
spotted
spp
spra
sprache
spre
spread
spreadh
spreadhadh
spree
spring
springbok
springer
springfield
springholm
springs
springsteen
spu
sq
sqa
sqrt
square
squez
squid
sr
sra
sraid
sraith
srath
sratha
sreang
sreap
sreapadair
sreapadairean
sreath
sreatha
sreathan
sri
sro
srt
sru
sruighlea
sruth
srutha
sruthadh
sruthaidh
sruthail
sruthan
sruthas
ss
sseldorf
ssjo
sson
sspck
st
sta
stac
stack
stad
stadastaigeil
stadium
stadsrechten
stadt
stafa
stafainn
staff
stafford
stag
stage
staid
staidh
staidhre
staigh
stail
stailc
stailcean
staile
staing
stainge
stair
stait
staitean
staitistearachd
staitistig
stakes
stalin
stalineach
stalineachd
stalingrad
stalino
stallman
stallone
stamag
stamford
stamh
stampaichean
stanach
stanaich
stanbul
stand
standard
standards
standing
stanford
stange
stanislaw
stanisław
stanley
staoin
star
stark
starmer
starnberg
starr
starra
stars
starsaich
start
starting
state
statement
states
station
stationery
stations
statistica
statistical
statistics
statistiek
statistik
statistika
statistisches
statline
statoids
stats
status
staudinger
stavanger
ste
stea
steach
steachd
steafain
steafan
steall
steallair
stean
steel
stefa
stefan
stefania
steidheachadh
steidhich
steidhichte
steiermark
stein
steinbeck
steiner
steingri
steinþo
steisean
steitz
stellung
stena
stendal
stendhal
stenhousemuir
steo
steornabhagh
stephen
stephens
steps
ster
stera
stercorarius
stergo
sterling
stern
sterna
sternorrlands
sterreich
stersund
stettin
steve
steven
stevenson
stewart
stewiacke
sti
stiall
stiallach
stiallaich
stica
stick
stigh
stiglitz
still
stire
stirean
stirling
stiu
stiubhart
stjo
sto
stob
stobadh
stoc
stocainnean
stock
stockholm
stockholms
stoddard
stoddart
stoer
stoidhl
stoidhle
stoidhlean
stoidhlichean
stoirm
stoirmeil
stoith
stoithe
stone
stonehaven
stonehouse
stones
stony
stoop
stop
stopping
storab
storas
store
storey
stories
storm
stornoway
story
stoth
stotha
stow
str
stra
strabo
stradonitz
straight
strait
straiton
strange
stranger
stranraer
strasbourg
strath
strathclyde
strathpeffer
strathspey
strauven
stream
streap
streath
street
strelitz
streptopelia
streymoy
stri
strijdom
strijen
strike
strikes
striking
string
strings
striolatum
striped
stripes
stro
stroessner
stroke
stroking
stromness
strong
strontian
strontium
strow
struck
structair
structar
structarail
structaran
structurae
structure
struibhle
struth
struycken
strzelecki
stu
stuart
stub
stuc
student
students
studies
studio
study
stugh
stuic
stulabhal
stun
sturgeon
sturm
sturt
stuth
stutha
stuthan
stuttgart
stv
style
styron
su
sua
suaicheantais
suaicheantas
suain
suaine
suaineach
suaineart
suainis
suarach
suardalain
suas
suasaidh
suathadh
sub
suba
subfamily
subject
sublevacio
subsp
subspecies
success
successful
successive
suceava
such
sucks
sucre
sud
suda
sudan
suddenly
sudoplatov
sue
sugamuxi
sugar
sui
suidhe
suidheachadh
suidheachaidh
suidheachaidhean
suidhiche
suidhichte
suil
suim
suimeadh
suimidh
suirbhidh
suirghe
suirgheil
suisse
suit
sul
sula
sulawesi
sulfar
sullivan
sully
sult
sultain
sultan
sum
suman
sumapaz
sumatra
sumatrensis
sumburgh
summer
summit
sumner
sumo
sumska
sumy
sun
sund
sunda
sunday
sune
sunne
suo
suomais
suomi
supe
super
superior
suppl
supplement
support
supporters
suprun
sur
surajprasad
suranam
surface
suricata
suricatta
surrey
survey
sus
susan
susana
susbaint
sushi
sussex
sutherland
sutton
suzuki
suðurland
suðurnes
suðuroy
svalbard
svandi
svante
svavarsdo
svedberg
sveinn
sveinsson
sveitarfe
svensk
svenska
svenskt
sveriges
svetlana
svi
swallow
swan
swansea
swayne
swayze
sweden
sweet
sweyn
swift
swinson
swiss
sword
swordtail
swr
sy
sydney
sydow
syllan
sylvester
sylvestris
sylvia
symbol
symbols
symon
sympetrum
syncerus
synge
synonymis
syntax
syracuse
sysbio
syste
system
systema
systematic
systems
syt
sz
sza
szabo
szathma
szczecin
sze
szeged
szerk
szlo
szo
sztvay
szymborska
sæland
søren
sɑ
sɔn
sə
sɛ
sɛlf
t
ta
tabhainn
tabhann
tabhartach
tabhartas
table
tables
taboo
taca
tachair
tachairidh
tachairt
tachartas
tachartasan
tachdaidh
tachradh
tachraidh
tachyglossus
tacitus
tacson
tadeus
tadh
tadhail
tadhal
tadhalan
taf
tafel
taft
tag
tagh
taghadh
taghaidh
taghaidhean
taghan
taghta
taghte
tagore
tagradh
tagraiche
tagraichean
tagraidh
tahiti
tahoe
tahr
tai
taibhse
taibhsean
taic
taice
taiceil
taichean
taidh
taidigeasta
taifa
taigh
taighe
taigheadais
taigheadas
taighean
tailed
tailium
tailleir
tain
taing
taingeil
taino
taipei
tair
tairbeart
tairbeirt
tairbh
taireachd
tairgse
taisbeanadh
taisbeanaidh
taisbeanaidhean
taisead
taisgaidh
taisgealadh
taisgealaiche
taistealachd
tait
taiwan
tak
take
taken
takin
taking
taklamakan
tal
talamh
talands
talbot
talc
tale
tales
taliesin
talisker
talk
tall
talla
tallahassee
tallaichean
tallandier
tallinn
talmhaidh
talmhainn
talmud
talu
talyllyn
tam
tamara
tamayo
tambo
tampa
tampere
tan
tana
tanach
tanachais
tanakh
tanami
tancaichean
tang
tangabhal
tannahill
tannan
tannara
tansaini
tantallon
tantalum
tantawi
tanulma
taobh
taobhan
taoibh
taoiseach
taoisigh
taosgaire
tapaidh
tar
tara
tarain
taran
taranaki
tarandus
taras
tarav
tarbert
tarbet
tarbh
tarbhain
tarbhan
tarbhanan
targaid
target
targeted
tarja
tarmachan
tarn
tarradale
tarragona
tarraing
tarraingeach
tarraingiche
tarro
tarruinn
tarsaing
tarsainn
tarsgabhaig
tarsuinn
tarsuinnead
tarsus
tartan
tartar
tartesianais
tartu
tasg
tasgaidh
tasgaidhean
tasglann
tashkent
tasman
tat
tatacoa
tatarais
tatarica
tate
tatha
taubate
taube
taunton
taupo
taurinus
taurus
tavau
tavish
tawantinsuyu
tax
taxicolor
taxonomic
taxonomicon
tay
taylor
tb
tbh
tbilisi
tc
td
tdd
te
tea
teach
teachd
teachdail
teachdaire
teachdaireachd
teacher
teaching
teacs
teacsa
teacsaichean
teadh
teagaisg
teagamh
teagamhan
teagasg
teaghlach
teaghlaich
teaghlaichean
teagmhach
teairrds
teallach
team
teampaill
teampall
teamplaid
teamplaide
teampull
teams
teanas
teanga
teann
teanna
teannachadh
tearc
tearlach
tearmann
teas
teasad
teasairginn
teatha
teau
teborg
teborgs
technique
technology
tecnolo
ted
teddy
tefan
tehran
teiche
teicheadh
teicneo
teicneolas
teicnigeach
teil
teillean
teine
teinidh
teintean
teiripiche
teirm
teirmean
teis
teisteanas
tel
tele
telebhisean
telebhisein
teleg
telegraph
teleorman
television
telford
tell
telurium
templand
template
templates
temple
temps
ten
tenerife
tengger
tennant
tennessee
tennessine
tennyson
tense
tenth
teo
teodhachd
teodor
teotha
teothachd
ter
terbium
teresa
tereshkova
teresita
term
terminology
terms
tern
ternes
terneuzen
ternopil
ternopilska
terra
terre
territoire
territories
territory
terror
terry
tersloh
teruel
tes
tesalonianach
tesco
tess
test
teth
teud
teudan
texas
text
texts
tez
tfrac
tg
th
tha
thabernas
thabhann
thabhartas
thabo
thach
thachadh
thachaidh
thachair
thachairt
thachartas
thachartasan
thachas
thachd
thachradh
thachras
thadair
thadairean
thadh
thadhail
thadhal
thagadh
thagair
thagh
thaghadh
thagraiche
thaic
thaich
thaichean
thaicheas
thaid
thaidh
thaidhean
thaigh
thaighean
thail
thailand
thain
thainig
thair
thaireach
thaireachd
thairean
thaireil
thairis
thaisbean
thaisbeanadh
thaise
thaitneach
thal
thalamh
thall
thalmann
thalmhainn
thames
than
thana
thanachais
thaobh
thaobhach
thaobhan
thaoiseach
thar
tharraing
tharrang
tharruinn
thas
thasan
thasglannadh
thasman
that
thatcher
thatha
thathar
thathas
thcha
thchail
thchanan
thchannan
thchas
thchasach
thchasail
the
thea
theab
theach
theachd
theacsa
theacsaichean
theagaisg
theagasg
theaghlach
theaghlaich
theaghlaichean
thean
theangachadh
theangachaidh
theangachaidhean
theangachas
theangadair
theangaich
theangaiche
theangaichte
theangair
theannas
thear
thearc
thearlaich
theas
theasachadh
theasaich
theater
theatre
thecla
thee
theeself
theich
theiche
theicheadh
theid
theil
thein
theine
theinnteach
their
theireadh
theirear
theirm
them
themselves
then
theo
theodor
theodore
theol
theology
theophrastus
theorell
theoretical
theory
theothachd
thepeerage
theravada
there
therefore
theresa
these
thesis
thessaloniki
theta
theth
theusais
thewliss
thexas
they
thi
thiar
thiche
thichean
thidh
thidsear
thidsearan
thig
thigeadh
thighearna
thighinn
thilg
thilgeil
thilgidh
thill
thilleadh
thimcheall
thin
thing
things
think
thiobraid
thiodhlacadh
thiomnadh
thiomnaidh
thiomsach
thional
thionndadh
thionndaich
thionndaidh
thionnsgail
thioram
thiormachadh
thiotal
thiotalan
third
thiriodh
thirty
this
thistle
thmhor
tho
thobar
thobhta
thog
thogadh
thogail
thogalach
thogalaichean
thogas
thoil
thoileach
thoileachas
thoilich
thoilichte
thoir
thoirbheartain
thoirbheartan
thoirbheartanach
thoirmeasg
thoirmisg
thoirt
thoiseach
thoisich
thokyo
tholkien
tholl
thom
thomas
thomhais
thomhas
thompson
thomson
thor
thoradh
thoreau
thorlacius
thormaid
thormoid
thorne
thornton
thoroddsen
thoronto
thorrach
thors
thory
thos
those
thosgair
thou
though
thought
thouless
thousand
thra
thraichean
thraidiseanta
thrasnaidh
thre
threatened
three
threo
thri
thriantanachd
thric
thrich
thriobaid
thrioblaid
thro
throm
throne
through
throw
thrust
ths
thsaich
thte
thu
thuaidh
thuaiream
thuairmse
thuama
thuath
thuatha
thuathach
thuathaich
thuathanach
thubaist
thubhairt
thug
thugadh
thugainn
thuice
thuig
thuige
thuigse
thuigsinn
thuill
thuilleadh
thuilm
thuineachadh
thuirt
thuirteadh
thuit
thuiteam
thuiteas
thumb
thurais
thuras
thurasachd
thurgau
thursan
thursday
thurzo
thus
thusa
thymelicus
thyself
ti
tianjin
tiarna
tibet
tibetan
tibirita
tica
ticino
tico
tider
tidsear
tidsearan
tiempo
tien
tienne
tier
tierra
tig
tigeadh
tiger
tigh
tighe
tighean
tighearna
tighearnan
tighearnas
tighinn
tight
tigris
tihamah
tikhonov
til
tilburg
tile
tilgeil
tilgeir
till
tilleadh
tim
timanfaya
timcheall
time
timeline
times
timis
timoshenko
timoteuis
timothy
timra
tin
tinbergen
tinbheal
tine
tinn
tinneas
tinneasan
tintin
tinwald
tiobraid
tiodhlacadh
tiomnadh
tiomor
tional
tionndadh
tionndaidh
tionnsgain
tionnsgnadh
tioraim
tioram
tiormachadh
tiotal
tiotalan
tip
tips
tir
tirana
tirari
tire
tiree
tiriodh
tiro
tirol
tiselius
titanium
title
titov
titus
tiu
tiugh
tjalling
tla
tlachd
tlachdmhor
tlahtolo
tlands
to
tobago
tobair
tobar
tobarandualchais
tobha
tobhta
tobhtaichean
tobias
tobin
toboso
tobraichean
toc
tocaima
tocasaid
tochradh
tocqueville
today
todd
todhair
todhar
todo
todos
togadh
togaidh
togail
togalach
togalaich
togalaichean
together
toglach
toglaichean
togo
togte
toigh
toil
toilichte
toinnte
toir
toirbheartan
toirdhealbhach
toireadh
toirmeasg
toirmisgte
toirt
toiseach
toiseachadh
toisich
toisichidh
tokarczuk
tokyo
toledo
tolima
tolkien
toll
tolmie
tolmount
tolochenaz
tolstoj
tolypeutes
tom
toma
tomad
tomadach
tomadan
tomas
tomb
tombaca
tome
tomhais
tomhaisean
tomhaisear
tomhas
tomhasan
tomkins
tommy
tomo
tomos
tomus
ton
tonach
tong
tonga
tongland
tongue
toni
tonight
tonn
tonna
tonnan
tony
too
tooin
took
tool
toomas
toothed
top
topi
topo
topographical
topography
toponimia
tor
tora
torach
toradh
torah
toraidhean
torc
torda
tore
torfaen
torgny
torino
torium
torm
tormachan
tormagan
torman
tormes
tormod
toro
toronto
torr
torrach
torrachas
torraibh
torrain
torran
torrance
torre
torres
torsten
tort
torthorwald
torun
torvalds
tory
toscana
tosgair
toshiro
total
tottori
tou
touch
touching
toulouse
tour
tourism
tourist
tournament
tournaments
tours
tovar
toward
towards
tower
towers
town
towns
tr
tra
trabzon
trachdadh
trachdas
track
tractair
tractar
tractaran
trad
tradaisean
tradaiseanta
trade
trades
tradiseanta
tradition
traditional
trads
trafaig
trafalgar
tragedy
tragelaphus
traian
traidisean
traidiseanan
traidiseanta
trail
trails
train
trainge
training
trainspotting
trajan
trama
tran
tranent
trang
trannsa
trans
transactions
transcontinental
transcription
transfermium
transilvania
translated
translation
translations
transport
transsilvania
transtro
traon
trapesium
trasnadh
trast
trastach
trastan
travel
travelling
travnik
tre
trea
treabh
treabhadh
treabhaidh
treas
treasa
treasamh
treasure
treasures
treaty
tredegar
tree
trees
trent
trentino
trenton
treo
tres
tresco
treubh
treubhan
treudan
treun
trevor
tri
tria
triall
trian
trianaid
trianaide
triangle
triangular
triantain
triantan
triantanachaidh
triantanachd
triath
tribute
tric
trice
tricead
trichead
trick
trier
trieste
trimble
tringa
trinidad
trioblaid
trioblaidean
trip
triple
tripoli
tristan
trithead
tritheamh
triu
triuirebheinn
tro
troglodytes
troichean
troigh
troighean
troimh
troimhe
troimhpe
trom
troma
tron
trondheim
tropaigeach
trosaichean
trosg
trostianets
trotsky
trout
trowieglen
truagh
truaill
truailleadh
truaillidh
true
truime
truinnsearan
trujillo
trump
truro
trusadh
trust
truth
truthail
try
tryggvado
tryggvason
tryggvi
trygve
ts
tsa
tsar
tsch
tserkva
tsessebe
tsien
tsunami
tt
ttarr
ttartavlor
tte
ttern
ttingen
ttir
tu
tuagh
tuaim
tuairisgeul
tuairmse
tuairmsean
tuairneir
tuama
tuar
tuath
tuatha
tuathach
tuathaich
tuathail
tuathal
tuathanach
tuathanachail
tuathanachas
tuathanaich
tuathanais
tuathanas
tuathanasan
tuba
tubaist
tubaiste
tubara
tuc
tuckwell
tucson
tudes
tudful
tudor
tug
tugadh
tuig
tuigse
tuigsinn
tuil
tuilium
tuill
tuilleadh
tuilm
tuiltean
tuim
tuineachadh
tuineachaidh
tuineachaidhean
tuineachas
tuinichean
tuinisia
tuinn
tuinneachadh
tuirc
tuirce
tuirceach
tuireadh
tuirt
tuiseal
tuit
tuiteam
tuiteamas
tuitidh
tulach
tulaich
tulaigh
tulard
tulcea
tullia
tulloss
tulsa
tunail
tunescu
tung
tunga
tunis
tunja
tunna
tunnag
tur
turaid
turais
turas
turasachd
turbay
turcach
turcaich
turcais
turcmanasta
turdus
turing
turismo
turkewich
turkey
turkish
turku
turn
turner
turns
tursa
tursachan
tursan
tursson
turtle
tut
tutankhamun
tv
tva
twee
tweed
tweeddale
twelve
twentieth
twenty
twilight
twin
twincities
twinning
twitter
two
twynholm
ty
tycho
tyler
tymoshenko
tyne
tynron
type
types
typhoid
typical
typically
typo
tywyn
tz
tze
tɔ
tə
tər
u
ua
uabhas
uabhasach
uachdair
uachdar
uachdarach
uachdarain
uachdarair
uachdaran
uachdaranach
uachdaranachd
uachdranachd
uachtara
uachtarach
uaigh
uaighe
uaighean
uaigneas
uaimh
uaimhe
uain
uaine
uair
uaireadair
uairean
uaireanan
uaireannan
uaireigin
uairibh
uairsin
uais
uaiseabuc
uaisle
uaislean
uallach
uallais
uallas
uamh
uamha
uamhan
uamhann
uamhas
uamhasach
uan
uarach
uaraidh
uasail
uasal
ubhal
ubhlan
uc
ucc
uchd
ucla
ucle
ucra
ud
uddingston
ue
uefa
uetersen
uganda
ugh
ughdarrais
ughdarraisteamplaid
ugo
ugres
uhi
ui
uibhir
uibhist
uicipeid
uicipeidean
uidh
uidhe
uidheam
uidheamachd
uidheamaichte
uidhir
uig
uige
uighean
uil
uilc
uile
uilebheist
uilinn
uill
uilleam
uilleim
uillt
uilne
uime
uimhir
uimpe
uine
uinneag
uinneagan
uinneig
uiread
uirsgeul
uirsgeulach
uirsgeulan
uiseag
uiseig
uisge
uisgeach
uisgeachan
uisnich
uist
uit
uitenhage
uk
ukcensus
ukraine
ukrainian
ukrainka
ukrexport
ul
uladh
ulaidh
ulan
ulapul
ulbha
ulf
ullachadh
ullaich
ullamh
ullapul
ulloa
ulm
ulrich
ulster
ultima
ultimate
ulva
ulvaeus
ulysses
um
uma
umachan
umaill
uman
umbria
umea
umha
umhach
umhaich
umhaill
umpa
un
una
uncail
uncia
und
under
undercut
unders
understanding
undiscovered
undiscoveredscotland
undset
une
unesco
ungair
ungaire
ungaireach
ungairianaich
ungairis
ungulate
uni
unicef
unichman
unicode
unicornis
unio
union
unison
unite
united
univ
universal
universidad
universidade
universita
universitas
universitat
universite
universiteit
universitet
universities
university
uniwersytet
unknown
unless
unlike
unrecognized
uns
unst
until
unusually
up
uplands
upon
upper
uppsala
upvalue
ur
ura
uraba
urach
uralach
uranium
uranus
urbain
urban
urbino
urbs
urchadain
urchaidh
urchair
urchardan
urdaneta
urdu
urey
uri
urial
uribe
uritsky
urk
url
urla
urquhart
urr
urra
urrach
urraim
urrainn
urrainnear
urrais
urram
urramach
urraman
urras
ursus
urticae
uruguaidh
urza
us
usa
usage
usaque
usbagasta
use
used
user
uses
using
usingen
ussr
ustinov
ustyurt
usually
ut
utah
utilities
utopia
utrecht
uzhhorod
v
va
vaasa
vaduz
val
valais
valdimarsson
vale
valence
valencia
valenciana
valentina
valentine
valentyna
valera
valerian
valerii
valid
valladolid
valle
valledupar
vallejo
vallenato
valletta
valley
value
valverde
van
vanchor
vancouver
vandelvira
vanellus
vanessa
vanguardia
vanishing
var
vara
varadkar
varberg
varde
varese
vargas
variant
variants
variation
variations
various
varlin
varna
varnothing
vary
varði
vasco
vashem
vasil
vasily
vaslui
vasylkivsky
vatar
vatican
vaud
vaughan
vaupe
vaz
ve
veel
vega
vegas
veksler
vel
vela
velarde
velocipede
veltman
velyki
vende
veneto
venezia
venezuela
venice
venkatraman
vent
venue
venus
ver
vera
veraguas
verb
verde
verdi
verhoeven
verlag
vermeer
vermont
vermorel
verner
vernon
verona
vers
versa
versailles
verscheiden
verschillende
verse
version
verslunarmannafe
verstappen
versunda
vertical
verus
verwoerd
very
vestfirðir
vestra
vesturland
veturliði
veur
vevey
vi
via
vice
vicente
vicenza
vichada
vicious
vickrey
victor
victoria
victorian
victory
vicugna
vicun
vid
vida
vidas
video
videos
vidiadhar
vie
vieco
viejo
vienna
vienne
vientiane
vier
vietnam
view
vigdi
vigneaud
vii
viii
viking
viktor
vila
vilhelm
vilhja
viljandi
villa
village
villages
villanueva
villavicencio
ville
villegas
villeta
vilnius
vincent
vincenzo
vinci
vinnytsia
vinnytska
vinstrihreyfingin
vintage
vioara
viola
violencia
vir
vira
virgen
virgilio
virgin
virginia
virtanen
virtual
vis
visby
vision
visions
visit
visitor
visits
vissen
vistula
vita
vitae
vitalina
vitaliy
viterbo
vitoria
viva
við
viðoy
viðreisn
vlad
vladimi
vladimir
vlc
vle
vleborgs
vlissingen
vo
vocabulary
voce
voff
voice
voices
vojna
vol
volapu
voldoende
volkmer
volodymyr
voltaire
volume
volynskyi
vom
von
voor
vopnafjo
vor
vora
voronezh
voronin
vorpommern
vorster
voru
vosges
vote
voth
voue
voy
voyage
voyager
vozes
vraag
vrancea
vre
vres
vs
vukovar
vulgaris
vulpes
vulture
vus
vuur
vy
vər
vɛn
w
wa
waals
waar
wade
wadowice
wagner
wagtail
wahlberg
waikato
wakame
walcott
wald
waldeck
wales
walk
walker
walkerton
walkhighlands
walking
walks
wall
wallace
wallach
walleri
wallyford
walpole
walsh
walter
walther
wamphray
wang
wangerooge
want
wapiti
war
warbler
warcup
ward
wards
waren
warfare
warick
warm
warner
warren
wars
warsaw
warshel
warszawa
wart
warwick
was
washabuck
washington
wassen
wassermann
wassily
wat
watch
water
waterbeck
waterloo
watson
watt
watts
waun
wave
waverley
way
wayback
wayne
ways
wałe
we
weald
weapons
wear
weather
web
webarchive
webb
weber
website
webster
wedding
weedon
week
weeks
weer
weg
wehrheim
weiden
weight
weights
weilburg
weimar
weinig
weir
weiss
weisstein
weiß
weiße
wel
welcome
well
welle
wellesley
wellington
wells
welsbach
welsh
welt
wemyss
wendell
wendy
went
wentworth
werd
werden
were
werk
werner
west
western
westfalen
westfield
westminister
westminster
westphalen
westport
westray
westwood
weymouth
wg
wh
whale
whalsay
whanga
whanganui
what
whauphill
wheeler
wheels
when
where
which
whig
while
whisky
white
whitefish
whithorn
whittingham
who
whom
whore
whose
why
whyte
wi
wicca
wichita
wick
wickenburg
wickerman
wide
wideford
widely
wider
wie
wieck
wieland
wielkie
wielkopolska
wien
wiener
wiesbaden
wiesel
wife
wig
wightman
wigner
wigtown
wiki
wikileaks
wikimedia
wikipedia
wikivoyage
wiktionary
wil
wild
wildcat
wilde
wildebeest
wildernis
wildlife
wiley
wilhelm
wilhelmshaven
wilhelmus
wilkinson
will
willa
willard
willem
william
williamina
williams
willie
willis
willow
willstatter
wilmette
wilmington
wilson
wilt
wiltshire
win
wind
windaus
windhoek
windows
winds
windsor
wing
winged
winner
winners
winnie
winning
winnipeg
wins
winston
winter
winters
winterthur
wire
wisconsin
wise
wisell
wishart
wishaw
wisława
witchcraft
with
withers
within
without
witt
wittenberg
witter
wittig
wladyslaw
wo
wojewo
wojtyła
wola
wole
wolf
wolff
wolfgang
wolfram
wollaston
woman
women
won
wood
woodard
woodbridge
wooden
woodrow
woods
woodward
woolf
woordenboek
worcester
word
worden
wordlist
wordpress
words
wordt
work
working
works
world
worldcat
worlds
wormald
worms
worth
would
wozencraft
wpa
wreck
wrecsam
wreyford
wright
write
writer
writers
writing
writings
written
wrocław
wu
wuppertal
www
wyddfa
wyman
wyoming
wyre
władysław
x
xa
xavier
xca
xhosa
xi
xico
xii
xiii
xingjian
xiv
xix
xjo
xo
xunta
xv
xvi
xx
xxii
xxiii
xy
y
ya
yad
yale
yam
yamoussoukro
yan
yang
yaounde
yard
yarmouth
yarrellii
yasunari
yatsenyuk
yawmu
ye
year
years
yeats
yell
yellow
yellows
yerevan
yes
yeshiva
yet
yetholm
yfke
yi
yitzhak
yiv
yn
ynys
ynysow
yo
yolombo
yonath
yonne
yopal
york
yosef
yosemite
yossele
yossi
you
young
younger
your
yourself
youth
youtube
youyou
yr
ys
ystrad
ytterby
yu
yuan
yucata
yukon
yulia
yuri
yushchenko
yuste
yuʔ
yverdon
yves
z
za
zaandam
zachariadis
zachary
zadar
zaglossus
zagreb
zahi
zala
zaldi
zaldu
zalishchyky
zalta
zaluzhnyi
zamora
zandvoort
zantman
zanzibar
zapatero
zaporizhzhia
zaporizka
zappa
zaque
zar
zaragoza
zarathustra
zaro
zat
zavaroni
ze
zealand
zebra
zedong
zee
zeeland
zeeman
zef
zeit
zeitschrift
zeitung
zelnik
zen
zeppelin
zernike
zetterling
zewail
zhdanov
zhores
zhvanetska
zhytomyr
zi
ziegler
zierikzee
zij
zijn
zimbabwe
zimmerman
zinoviev
zio
ziortza
zip
zipa
zipaquira
zittau
zmir
zo
zoe
zola
zolochiv
zolta
zone
zoo
zoological
zoology
zorn
zoroastrianism
zou
zoveel
zquez
zsigmondy
zu
zuckermann
zuera
zug
zuid
zulu
zum
zuma
zundert
zur
zurbara
zusamaltheim
zuzanna
zvi
zwolle
{
|
}
~
¡
£
§
¨
ª
«
­
°
²
³
´
µ
¶
·
º
»
¼
½
¾
¿
×
ß
æ
ð
ðe
ðherra
ði
ðubandalagið
ðuflokkurinn
ður
ðvaki
÷
ø
øy
þ
þa
það
þeir
þingvellir
þjo
þo
þorgerður
þorla
þorleifsdo
þorsteinn
þorsteinsson
þu
ı
ło
łobez
ŋ
œ
œuvres
œx
ƛ
ɐ
ɑ
ɒ
ɔ
ɔr
ə
əc
əl
əm
ən
ər
əs
əx
əŋ
ɛ
ɛlɛvan
ɛr
ɜ
ɡ
ɡe
ɣ
ɣo
ɣə
ɪ
ɪjərnə
ɪn
ɪr
ɪt
ɪtɕ
ɫ
ɬq
ɰ
ɲ
ɴ
ɵ
ɹ
ɾ
ɾi
ʃ
ʃe
ʃi
ʃo
ʃɛl
ʉ
ʊ
ʋ
ʎ
ʒ
ʔ
ʔc
ʨ
ʰ
ʲ
ʲˈ
ʷ
ʹ
ʻ
ʼ
ʾ
ʿ
ˀ
ˇ
ˈ
ˈˈ
ˌ
ː
ːˈ
ˑ
˚
ˠ
ˢ
˽
̀
́
̂
̃
̄
̆
̇
̈
̉
̊
̋
̌
̑
̓
̔
̕
̚
̛
̝
̞
̣
̥
̦
̧
̨
̩
̪
̮
̯
̱
̸
̹
̺
̻
͂
͜
͝
͞
͡
α
β
γ
δ
ε
ζ
η
θ
ι
κ
λ
μ
ν
ξ
ο
π
ρ
ς
σ
τ
τα
της
υ
φ
χ
ψ
ω
ϸ
а
б
бласть
большая
в
влади
віктор
г
голова
д
довідник
е
енциклопедія
ж
з
за
и
к
кавказ
ке
киі
л
лович
любовь
м
мир
михаи
н
на
нан
нас
не
ни
нська
о
область
ович
он
п
петербург
ппен
про
р
ред
редкол
россии
с
санкт
сергіи
смоліи
советская
ссср
т
та
том
у
украі
ф
федорович
х
ц
ч
ш
щ
ъ
ы
ь
э
энциклопедия
ю
я
ђ
є
ѕ
і
іванович
ім
ін
інститут
історіі
љ
ћ
џ
ө
ְ
ֲ
ִ
ֵ
ֶ
ַ
ָ
ֹ
ּ
־
ׁ
א
ב
ג
ד
ה
ו
ז
ח
ט
י
ך
כ
ל
ם
מ
ן
נ
ס
ספר
ע
ף
פ
ץ
צ
ק
ר
ש
ת
ا
الا
ب
ة
ت
د
ر
س
ط
ع
ف
ق
ل
م
محمد
ن
ي
يوم
َ
ُ
ِ
ّ
ْ
ٓ
ٔ
ٕ
ं
क
ग
ट
ड
त
थ
द
ध
प
ब
भ
म
य
र
ल
ष
स
ह
ा
ि
ी
ु
े
ो
ौ
्
।
ং
ক
ত
দ
ধ
ন
প
ব
ভ
ম
য
র
ল
স
়
া
ি
ী
ু
ৃ
ে
্
ા
க
ங
ச
ட
த
ப
ர
ா
ி
ு
ே
்
ಬ
ಲ
ೆ
་
ག
མ
ོ
ᨀ
ᨁ
ᨄ
ᨆ
ᨈ
ᨉ
ᨊ
ᨑ
ᨒ
ᨓ
ᨔ
ᨕ
ᨗ
ᨘ
ᨙ
ᨚ
ᨛ
ᵊ
ᵝ
​
‌
‎
‐
‒
–
—
‘
’
‚
“
”
„
†
•
…
‬
‮
′
″
‿
⁄
⁊
⁡
⁻
⁽
⁾
₂
₤
€
№
™
⅔
⅝
→
↔
↷
∀
∃
∅
∈
∋
∏
∑
−
∘
√
∞
∠
∩
∪
≅
≈
≤
⊂
⊃
⊆
⊇
⊕
⊙
⋂
⋃
⋅
⋯
③
④
⑦
☉
♀
♦
♭
⯓
⺀
⺄
⺆
⺈
⺊
⺌
⺕
⺝
⺸
⺼
⿰
⿱
⿲
⿳
⿴
⿵
⿶
⿷
⿸
⿹
⿺
⿻
、
。
《
》
〢
い
う
え
お
か
き
く
け
す
た
ち
つ
て
と
な
に
の
は
ひ
む
も
よ
り
わ
ん
゙
゚
ア
イ
ウ
エ
オ
カ
キ
ク
コ
サ
シ
ス
タ
チ
ッ
テ
ト
ナ
ニ
ヌ
ハ
フ
マ
ム
ユ
ヨ
ラ
リ
ル
レ
ワ
ン
・
ー
㇁
㇂
㇄
㇇
㇈
㇉
㇓
㐁
㐄
㐅
㐌
㐫
㐬
㐭
㐮
㐱
㑒
㒵
㒸
㒼
㓁
㓞
㔾
㕛
㕣
㖾
㘝
㚅
㚇
㚔
㚘
㝉
㝡
㝴
㝵
㞋
㞢
㞷
㠩
㠭
㠯
㡀
㡭
㡿
㢲
㢴
㣇
㣺
㥯
㪅
㫄
㫐
㫒
㫺
㬅
㬎
㬥
㬰
㲋
㳄
㷠
㸒
㸚
㸦
㼌
㼲
㽞
㿟
䀠
䂞
䍃
䏍
䒑
䖍
䖒
䖝
䖵
䙴
䚻
䜌
䝿
䡛
䧹
䪞
一
丁
丂
七
丄
丅
丆
万
丈
三
上
下
丌
不
与
丏
丐
丑
专
且
丕
世
丘
丙
业
东
丞
丢
丣
两
严
並
丨
丩
个
丫
丬
中
丮
丰
丱
串
丵
丶
丷
丸
丹
为
主
丽
丿
乀
乂
乃
久
乆
乇
么
义
之
乌
乍
乎
乏
乐
乑
乔
乖
乗
乘
乙
乚
乛
乜
九
乞
也
习
乡
乳
乾
亀
亅
了
亇
予
争
事
二
亍
于
亏
亐
云
互
亓
五
井
亘
亚
亜
亞
亟
亠
亡
亢
交
亥
亦
产
亨
亩
享
京
亭
亮
亯
亰
亲
亳
亶
亷
人
亻
亼
亾
仁
今
介
仌
从
仐
仑
仒
仓
仕
他
付
仝
代
令
以
任
企
伊
伏
伐
休
会
伯
但
位
何
佘
余
作
佥
使
來
侈
侌
侖
侯
侵
便
保
俞
信
修
倉
倍
候
倠
健
備
僉
僕
儿
兀
允
兂
元
兄
充
兆
兇
先
光
兊
克
兌
免
兑
兒
兓
兔
党
兜
兟
入
全
兩
兪
八
公
六
兮
兰
共
关
兵
其
具
典
兹
兼
冀
冂
冃
冄
内
冈
冉
冊
冋
册
再
冎
冏
冐
冒
冓
冖
冗
冘
军
农
冝
冡
冥
冫
冬
冷
几
凡
凢
凵
凶
凷
凸
凹
出
函
凾
刀
刁
刂
刃
刄
刅
分
切
刍
刑
刕
刖
列
刘
则
初
別
利
别
到
制
刺
則
削
剌
前
剡
剽
劉
力
功
加
劦
助
劫
劳
劵
勃
勇
勉
勒
動
務
勞
勤
勹
勺
勻
勾
勿
匀
匂
包
匆
匈
匊
匋
匍
匕
化
北
匚
匝
匡
匪
匱
匸
匹
区
医
匽
匿
區
十
卂
千
卄
卅
卆
升
午
卉
半
卌
华
卑
卒
卓
单
卖
南
卜
卝
卞
占
卡
卢
卣
卤
卦
卩
卪
卬
卯
印
危
即
却
卵
卷
卸
卻
厂
厃
厄
历
厈
厉
厌
厓
厘
厚
原
厤
厥
厨
厭
厲
厶
厷
厸
去
厼
厽
叀
参
參
叅
又
叉
及
友
双
反
叐
发
叒
叔
叕
取
受
叚
叜
叟
口
古
句
另
叩
只
召
可
台
叱
史
右
叵
号
司
叹
吂
各
吅
合
吉
吊
吋
同
名
后
吏
向
吕
君
吝
吞
否
含
启
吳
吴
吹
吾
呂
呆
呈
告
员
呙
呦
周
命
咅
和
咎
咠
咢
咨
咸
咼
哀
品
哉
員
哥
哲
唐
商
啇
問
啚
啬
啻
善
喜
喬
單
喿
嗇
噩
嚴
囊
囗
囘
囙
囚
四
回
囟
因
囧
囬
困
囱
図
囷
固
国
圂
圅
國
圍
圓
土
圡
圣
圥
在
圭
地
圶
圼
坐
坒
坚
坴
垂
垔
垚
埀
埋
埶
執
基
堂
堅
堆
堇
堯
塞
墨
壘
士
壬
壯
声
壳
壴
壹
壺
壽
夂
处
夅
夆
备
夊
夋
夌
复
夏
夒
夕
外
夗
夘
多
夜
夢
大
夨
天
太
夫
夬
夭
央
失
夲
头
夷
夸
夹
夻
夾
奂
奄
奇
奈
奉
奎
奏
奐
契
奓
奔
奚
奞
奠
奢
奥
奭
女
奴
奻
好
如
妄
妙
妟
妥
妻
妾
姑
委
姜
威
娄
婁
婴
媛
嬰
嬴
子
孑
孔
孕
孖
字
存
孚
孛
孝
孟
季
孤
学
孫
孱
學
宀
宁
宂
它
宅
宇
守
安
宋
完
宏
宓
宗
官
宙
定
宛
宜
宝
客
宣
室
宮
宰
害
家
容
宾
宿
寄
寅
密
富
寒
察
寧
審
寫
寬
寮
寸
对
寺
寻
寽
対
寿
封
尃
射
将
將
專
尉
尊
尋
尌
對
小
少
尒
尓
尔
尖
尗
尚
尞
尢
尣
尤
尧
尨
尭
就
尸
尹
尺
尻
尼
尽
尾
尿
局
居
屈
屋
屎
屏
屑
展
屖
屚
属
屠
屡
屬
屮
屯
屰
山
屵
屾
岁
岂
岑
岡
岩
岳
岸
峯
島
崇
崑
崔
崖
崙
崩
嵬
嶲
巂
巛
川
州
巟
巠
巢
巤
工
左
巧
巨
巩
巫
差
己
已
巳
巴
巷
巸
巽
巾
巿
帀
市
布
希
帚
帛
帝
带
師
席
帶
常
干
平
年
幵
并
幷
幸
幺
幻
幼
幽
幾
广
広
庄
床
库
底
店
庚
府
度
庫
庭
庶
康
庸
廉
廌
廛
廣
廩
廴
延
廷
建
廾
廿
开
弁
弃
弄
弇
弋
式
弓
弔
引
弗
弘
弜
弟
弥
弦
弱
張
強
强
彊
彌
彎
彐
彑
当
彔
录
彖
彗
彡
形
彥
彦
彧
彭
彳
役
彼
往
待
律
徒
得
徙
從
復
微
徵
心
忄
必
忌
忍
志
忝
忠
忩
快
念
忽
忿
思
怠
急
怱
恆
恒
恩
恭
息
悉
患
悤
悲
悶
惠
惡
惢
愁
愈
意
愛
感
慈
慧
慮
憂
憲
應
戀
戈
戉
戊
戋
戌
戍
戎
成
我
戒
戔
或
戚
戠
戢
截
戲
戶
户
戸
戹
戼
戾
房
所
扁
扇
手
扌
才
打
托
执
承
折
报
拉
拜
拿
掌
推
提
摩
攝
支
攴
攵
收
攸
改
放
政
敄
敏
敕
敖
敗
教
敝
敞
敢
散
敦
敫
敬
数
敷
數
斂
文
斉
斊
斗
斤
斥
斩
斬
斯
新
方
於
施
斿
旁
旋
族
无
旡
既
旣
日
旦
旧
旨
早
旬
旱
旲
时
旾
昆
昇
昌
昍
明
昏
易
昔
昗
昜
星
春
昬
是
昱
昴
昷
時
晃
晋
晏
普
景
晶
智
暑
暴
曇
曜
曩
曰
曲
曳
更
曷
書
曹
曼
曾
替
最
朁
會
月
有
朋
服
朔
朕
朗
望
朝
木
朩
未
末
本
札
朮
术
朱
朵
朶
朿
杀
杏
村
杜
束
条
来
東
杲
杳
松
析
林
枚
果
枝
枲
枼
某
柔
查
柬
柰
柴
树
栗
核
格
桀
桑
桼
梁
條
梟
梨
棘
棠
棥
森
楚
業
楽
榮
樂
樊
欠
次
欣
欮
欲
欶
欽
款
歆
歇
歛
止
正
此
步
武
歨
歪
歮
歯
歰
歲
歴
歷
歸
歹
歺
死
殳
段
殷
殸
殹
殺
殻
殿
毋
毌
母
每
毒
比
毕
毚
毛
毳
氏
氐
民
气
氣
水
氵
氶
氷
永
氺
氾
求
汝
汞
江
池
沃
沓
沙
沝
河
治
泉
法
波
泣
泥
泰
洛
津
洪
活
派
流
济
浜
浦
浪
浮
海
淡
淮
清
渚
渠
湯
湾
滿
漠
漸
灣
火
灬
灭
灰
灵
灷
炅
炎
炏
炗
炙
炭
為
烈
烏
烝
焉
無
焦
焱
然
煞
熊
熏
燕
營
燮
爪
爫
爭
爯
爰
爱
爲
爵
父
爻
爽
爾
爿
片
牙
牚
牛
牜
牟
牢
牧
牪
特
牽
犀
犬
犭
犮
狂
狄
狊
独
狺
猋
猒
猪
献
獻
玄
率
玉
王
玟
玨
现
珎
珠
班
琴
瑟
瑩
璠
瓜
瓦
甘
甚
生
産
用
甫
甬
田
由
甲
申
电
甶
男
甸
甹
町
画
甾
畀
界
畏
畐
留
畜
畟
畢
畧
畨
番
畫
異
畱
當
畺
畾
疊
疋
疌
疑
疒
疾
癶
癸
癹
登
發
白
百
皀
皃
的
皆
皇
皋
皐
皕
皮
皷
皿
盃
盆
盇
盈
益
盍
盎
监
盒
盖
盛
盡
監
盤
盧
目
直
相
盾
省
眇
眉
看
県
眔
眞
真
眷
眼
眾
着
睘
睪
睿
瞏
瞢
瞿
矍
矛
矞
矢
矣
知
矦
短
石
研
破
碎
磊
磨
示
礻
礼
社
神
祟
票
祭
禀
禁
福
禸
禹
禺
离
禽
禾
禿
秀
私
秃
秉
秋
科
秝
秦
移
稟
穀
穌
穴
究
穹
空
穿
突
窄
窒
立
竒
竜
竝
竟
章
童
竹
笑
笠
筆
等
答
箕
算
箴
節
篤
篭
米
粉
粛
粟
粤
粦
粲
糖
糞
糸
糹
系
約
納
素
索
紫
累
細
絜
絫
絲
絵
維
綿
縣
繇
纍
纟
红
缶
网
罒
罔
罕
罗
罙
罡
罢
罪
署
罷
羅
羊
羌
羍
美
羔
羕
羗
羞
羡
羣
群
義
羲
羸
羽
翁
翏
習
翕
翟
翠
翼
老
耂
考
者
耆
而
耎
耑
耒
耳
耴
耶
耷
聂
聊
聖
聚
聶
聿
肀
肃
肅
肉
肖
肙
肥
肩
肯
育
肴
胃
背
胡
胥
能
脊
脩
膚
臣
臤
臧
自
臬
臭
臯
臱
至
致
臺
臼
臽
臾
臿
舀
舂
舄
與
興
舉
舌
舍
舛
舜
舞
舟
般
艮
良
色
艸
艹
艾
芒
芔
芬
芮
花
芳
芺
芻
苔
苗
苟
若
苦
英
茶
茸
荅
草
荒
荣
荼
莆
莧
莫
莽
菆
菊
菐
華
萬
落
葉
著
葛
董
葵
蒙
蒦
蒼
蓋
蓬
蓺
蔑
蔡
蕉
蕭
薄
薛
薦
薰
藍
藏
藥
蘭
虍
虎
虐
虒
虔
處
虖
虗
虘
虚
虛
虜
虞
虫
虽
蚤
蚩
蜀
蜜
螽
蟋
蟲
蠡
血
行
衍
衛
衣
衤
表
衮
衰
袁
袞
褭
褱
襄
襾
西
覀
要
覃
見
規
覓
覧
親
覽
见
角
解
言
訁
訇
計
詞
詹
語
誩
諸
讠
谷
豆
豈
豊
豐
豕
豖
豙
象
豦
豩
豪
豸
貇
貝
貞
貟
負
貢
貧
貪
貫
責
貳
貴
買
費
賁
資
賈
賏
賓
賔
賛
賞
賢
賣
質
賴
贊
贝
贡
责
贯
贲
贵
赖
赞
赤
赦
走
越
足
路
蹇
身
躬
車
軍
軎
軟
輦
车
辛
辜
辟
辥
辰
辱
農
辵
辶
边
达
过
近
连
迷
追
退
送
逆
逐
通
速
造
逢
連
逮
進
遀
遂
過
道
達
遣
適
遷
遺
邊
邑
邕
那
邦
邪
郎
部
郭
都
鄉
酉
酋
配
酒
酓
釆
采
里
重
野
量
金
釒
錢
鎌
钅
長
镸
长
門
閃
閉
開
閏
閑
閒
間
閔
閵
閻
闌
门
间
闷
阑
阜
阝
阿
降
陳
隆
隊
隋
隡
隨
隱
隶
隹
隺
隻
隼
隽
难
雀
雁
集
雈
雋
雍
雐
雔
雙
雚
雜
雝
離
難
雨
雩
雪
雲
零
雷
需
霍
霜
霝
霞
霸
靈
靑
青
非
靡
面
靣
革
韋
韦
韭
韯
韱
音
頁
頃
項
須
頗
頡
頻
顛
页
風
风
飛
飞
食
飠
餅
養
饣
首
香
馬
馮
駦
马
骨
高
髟
鬥
鬯
鬲
鬼
魚
魯
鮮
鱼
鲁
鳥
鳳
鸟
鹵
鹿
麃
麗
麥
麦
麻
黃
黄
黍
黎
黑
黒
黨
黹
黽
黾
鼎
鼓
鼠
鼻
齊
齋
齐
齒
齿
龍
龙
龜
龟
龠
龰
龱
龴
龵
龶
龷
龸
龹
ꜥ
ꞌ
ꭲ
ꭴ
ꭶ
ꭹ
ꮎ
ꮑ
ꮕ
ꮝ
ꮣ
ꮩ

者
艹
ﺑ
ﺱ
ﻂ
ﻠ
ﻮ
ﻴ
﻿
（
）
，
；
？
𝄆
🜨
𠀁
𠀃
𠀆
𠀉
𠀎
𠀐
𠁁
𠁣
𠂆
𠂇
𠂈
𠂉
𠂊
𠂋
𠂎
𠂒
𠂔
𠂛
𠂡
𠂢
𠂤
𠂬
𠂭
𠂹
𠃊
𠃋
𠃌
𠃍
𠃎
𠃑
𠃓
𠃔
𠃜
𠄌
𠄎
𠄠
𠄢
𠆢
𠆥
𠇍
𠈌
𠌵
𠓜
𠔉
𠔥
𠔼
𠔽
𠔿
𠕀
𠕁
𠕋
𠘧
𠘨
𠙻
𠙼
𠚏
𠚒
𠚤
𠚪
𠣏
𠤎
𠤕
𠥓
𠦄
𠦑
𠦝
𠧒
𠧗
𠧪
𠩺
𠪚
𠫓
𠫔
𠫤
𠬛
𠬝
𠬞
𠬢
𠬤
𠬶
𠮛
𠮦
𠮷
𠯑
𠱠
𠳮
𠷎
𡈼
𡉀
𡉵
𡌥
𡍮
𡏳
𡕒
𡕩
𡕰
𡖅
𡗗
𡗜
𡘆
𡘤
𡧱
𡨄
𡩧
𡬠
𡭽
𡰣
𡰥
𡰪
𡰯
𡰱
𡷈
𡸁
𡿨
𡿩
𡿪
𡿺
𢀖
𢀛
𢀩
𢁙
𢆉
𢆰
𢆶
𢇁
𢇇
𢉖
𢌬
𢌿
𢏚
𢑑
𢑚
𢖻
𢙣
𢛳
𢦏
𢦒
𢧵
𢼄
𢾕
𣁋
𣄼
𣅀
𣅽
𣍘
𣎳
𣎵
𣏋
𣏼
𣗥
𣥂
𣥖
𣦵
𣦼
𣧄
𣪊
𣪠
𣬉
𣳾
𣶒
𤇾
𤊽
𤐫
𤓰
𤔔
𤕨
𤣩
𤰇
𤰔
𤰞
𤴓
𤴔
𤽄
𥁑
𥁕
𥃦
𥃩
𥃭
𥇡
𥑟
𥘅
𥘈
𥝢
𥫗
𥱡
𦈢
𦉪
𦉬
𦉼
𦍌
𦍒
𦎧
𦐇
𦓔
𦔮
𦘒
𦙃
𦚏
𦣝
𦣞
𦣻
𦥑
𦥔
𦥯
𦨉
𦭝
𦰩
𧆞
𧈧
𧘇
𧰨
𧴪
𧴮
𧵩
𧾷
𨸏
𨾴
𩙿
𩠐
𩫏
𩵋
𪉷
𪜀
𪟽
𪠲
𪩲
𫇦
𫔭
𫜸
𫝀
𫠣
𫠩
𫢉
𫥞
𫩏
𫩠
𫪡
𫲽
𫶧
𬀷
𬐘
𬗌
𬙙
𬛸
𬜯
𬟩
𬯁
𬴘
𬺻
𬼉
𬼖
𭀰
𭁈
𭁨
𭅰
𭑈
𭕄
𭗼
𭤨
𭥫
𭻾
𮅕
𮊿
𮍌
𮍏
𮓗
𮥼
𮧮
廾
𰀁
𰀄
𰀈
𰀉
𰀕
𰀠
𰀡
𰀢
𰀪
𰁜
𰃮
𰆊
𰆘
𰋙
𰕎
𰢴
𰧭
𰯲
00--
001--
002--
003--
009--
01--
011--
015--
018--
019--
02--
024--
025--
027--
03--
030--
034--
035--
04--
05--
054--
06--
067--
068--
07--
08--
084--
086--
088--
09--
093--
108--
116--
118--
130--
137--
203--
205--
206--
207--
209--
210--
211--
212--
213--
216--
218--
219--
220--
221--
222--
223--
225--
226--
227--
231--
233--
234--
236--
240--
241--
245--
246--
247--
249--
253--
255--
257--
259--
262--
265--
270--
272--
275--
278--
280--
283--
291--
292--
302--
306--
309--
312--
323--
326--
331--
334--
340--
341--
342--
353--
355--
370--
373--
374--
378--
387--
397--
405--
406--
409--
416--
419--
431--
441--
447--
448--
449--
452--
462--
465--
471--
479--
480--
481--
485--
486--
492--
494--
501--
504--
509--
511--
513--
515--
528--
530--
531--
534--
538--
559--
569--
58--
583--
591--
592--
595--
596--
606--
613--
614--
616--
620--
621--
623--
628--
637--
638--
64--
645--
659--
66--
665--
672--
675--
676--
680--
686--
688--
691--
695--
696--
702--
706--
711--
712--
713--
736--
756--
759--
76--
760--
762--
769--
777--
781--
783--
793--
795--
797--
803--
81--
817--
82--
824--
826--
829--
840--
842--
848--
851--
865--
866--
87--
872--
878--
883--
885--
898--
899--
90--
900--
902--
905--
906--
910--
911--
92--
920--
929--
93--
933--
935--
937--
94--
940--
943--
945--
946--
950--
955--
959--
962--
965--
966--
967--
968--
969--
970--
972--
975--
978--
978019--
979--
98--
980--
987--
990--
993--
995--
997--
999--
a--
aa--
ab--
aba--
abc--
aber--
abh--
ac--
aca--
acant--
accom--
accor--
ach--
acro--
ad--
ada--
adh--
advan--
ae--
af--
ag--
agricul--
ah--
ai--
ail--
ain--
air--
ait--
aithr--
ak--
al--
ala--
albi--
ale--
ali--
all--
alm--
alo--
alt--
alta--
altna--
am--
ama--
ambas--
ame--
amh--
an--
ana--
anar--
ances--
and--
ang--
ann--
ant--
anti--
any--
ao--
aobhra--
aon--
ap--
apa--
ar--
ara--
arc--
ard--
are--
argi--
ark--
arm--
art--
as--
ash--
asp--
ass--
ast--
astro--
at--
ata--
ath--
atmosp--
atti--
au--
aus--
auto--
av--
aven--
ay--
az--
b--
ba--
bac--
bad--
bag--
bak--
bal--
ban--
bar--
baras--
barn--
bas--
bat--
bay--
be--
bea--
beag--
bei--
beir--
bel--
ben--
beo--
ber--
bern--
bess--
bh--
bha--
bhan--
bhe--
bhea--
bhi--
bho--
bhra--
bhrabh--
bhreaba--
bhro--
bhru--
bhu--
bi--
bio--
bla--
blanc--
ble--
blo--
blue--
bo--
bod--
bog--
bol--
bom--
bon--
bor--
boy--
br--
bra--
bre--
bri--
bria--
bro--
bru--
bu--
buach--
buadh--
buan--
buch--
buck--
buids--
bun--
butter--
by--
bæ--
c--
ca--
cad--
caid--
cail--
cala--
calb--
calc--
cam--
can--
cana--
caoch--
caoi--
cap--
car--
carthan--
cas--
cat--
ce--
cea--
ceann--
cele--
cer--
ceratopogon--
ch--
cha--
chabh--
chal--
chaoch--
chaoi--
char--
chart--
chat--
che--
chea--
cheang--
cheum--
chi--
chla--
chli--
chna--
cho--
choin--
chom--
chon--
chonalt--
chor--
chro--
chru--
chry--
chsis--
chu--
chuairt--
chum--
chur--
ci--
cinneas--
city--
cl--
cla--
clar--
claus--
cle--
cli--
cliab--
clo--
cly--
cn--
cno--
co--
coc--
coimhears--
coin--
coit--
col--
cold--
colo--
com--
comh--
compo--
con--
conn--
contro--
cop--
cor--
corn--
corres--
cos--
cot--
cra--
cre--
creat--
creid--
cri--
crios--
cro--
crom--
cross--
crow--
cru--
cu--
cue--
cuim--
cuimhne--
cul--
cum--
cunn--
cur--
cus--
cut--
cwm--
cy--
cyn--
cz--
d--
da--
dag--
dain--
dal--
dam--
dan--
daoi--
dar--
daw--
de--
dea--
dear--
dei--
del--
dem--
demok--
den--
depart--
depen--
der--
des--
desig--
deter--
dh--
dha--
dhe--
dhea--
dhi--
dhia--
dho--
dhu--
di--
dia--
diag--
dik--
din--
dio--
dipl--
dis--
div--
do--
doc--
doch--
dok--
dol--
dom--
don--
dou--
dr--
dra--
dre--
dro--
dru--
dry--
du--
dubh--
dum--
dun--
dur--
dy--
dynam--
dz--
dɔ--
e--
ea--
eacon--
eag--
ealta--
ean--
ear--
earra--
ec--
ed--
edu--
eg--
eh--
ei--
eil--
ein--
eiseim--
ek--
el--
eli--
em--
en--
eo--
ep--
ephesia--
eq--
er--
es--
estab--
et--
eth--
eu--
eud--
eun--
ex--
expan--
expl--
ey--
f--
fa--
fad--
fal--
fan--
fanta--
faoi--
faoin--
far--
farqu--
fas--
favo--
fe--
fea--
feld--
fer--
feum--
fh--
fha--
fhar--
fhas--
fhe--
fhi--
fhics--
fho--
fhosg--
fhr--
fhreag--
fhu--
fi--
fia--
film--
fin--
find--
fionn--
fios--
fire--
fl--
flo--
flu--
fly--
fo--
foinc--
foir--
folk--
for--
fra--
fre--
freag--
free--
fri--
fring--
fro--
fu--
ful--
fur--
fy--
fyr--
g--
ga--
gabh--
gail--
gair--
gal--
gam--
gar--
gas--
ge--
gea--
geal--
gear--
ged--
geo--
ger--
gh--
gha--
ghe--
ghin--
ghinea--
ghiu--
gho--
gi--
gil--
gin--
gioll--
giorra--
giov--
giu--
gla--
glas--
gle--
glen--
glo--
gni--
go--
gob--
god--
got--
gra--
grass--
gre--
green--
gri--
griog--
gro--
gru--
gry--
gu--
gua--
gui--
gur--
gut--
guy--
gw--
gwer--
gy--
gɔrɔ--
h--
ha--
hack--
had--
hai--
hal--
ham--
han--
hano--
har--
hart--
hat--
hay--
he--
hel--
helga--
hen--
her--
herac--
het--
hi--
hip--
hir--
his--
ho--
hog--
holi--
hon--
hoog--
hr--
hu--
hum--
hurl--
hus--
hy--
hypo--
i--
ia--
iar--
ib--
iba--
ic--
ich--
id--
ie--
if--
ig--
ige--
ik--
il--
ill--
illus--
ilte--
im--
imh--
imp--
improve--
in--
inc--
ind--
indep--
ine--
infan--
ing--
inimr--
inn--
interna--
inve--
inver--
io--
iom--
ioma--
ion--
ionns--
ip--
ir--
irb--
ird--
iron--
is--
ise--
ist--
it--
ite--
ith--
iu--
iupat--
iz--
j--
ja--
jan--
jar--
je--
jeff--
jen--
ji--
jo--
ju--
jud--
jy--
k--
ka--
kan--
kat--
ke--
kee--
kel--
ken--
kers--
kes--
kess--
key--
ki--
kil--
kin--
kirk--
ko--
kob--
kon--
kr--
kra--
ku--
kur--
kv--
kw--
ky--
køben--
l--
la--
laag--
lac--
lag--
lam--
lan--
land--
lang--
lar--
las--
laur--
lavi--
law--
lay--
ld--
le--
lean--
legi--
lehr--
len--
les--
let--
leth--
leuc--
lev--
ley--
li--
lia--
lic--
life--
lim--
lin--
lis--
liver--
ll--
llan--
llanfa--
llw--
lly--
lo--
loch--
lom--
lt--
lta--
lu--
lua--
lui--
lus--
ly--
lys--
m--
ma--
mac--
mach--
macla--
mad--
mag--
mai--
mail--
main--
mal--
mala--
man--
manu--
mao--
maoil--
map--
mar--
mara--
marsair--
mary--
mas--
mata--
may--
mc--
mcle--
me--
mea--
mean--
mel--
men--
mer--
merid--
merse--
mes--
meta--
mh--
mha--
mhe--
mhi--
mhic--
mhinist--
mho--
mhoile--
mhor--
mhu--
mi--
mia--
mic--
mid--
mik--
mil--
mill--
min--
mir--
mm--
mo--
mod--
mon--
mona--
monog--
mont--
mor--
mp--
mt--
mu--
muir--
mun--
mur--
mus--
my--
n--
na--
nais--
nam--
nan--
naoch--
nar--
nas--
nat--
nc--
nd--
ne--
nebu--
neo--
neu--
new--
news--
ng--
nh--
ni--
nic--
nie--
nig--
nir--
niu--
nn--
no--
nor--
north--
norð--
nos--
nr--
nrai--
ns--
nt--
nta--
nu--
nuadh--
ny--
nə--
o--
ob--
obe--
oc--
occas--
occi--
od--
odh--
oe--
of--
og--
oga--
ogh--
oh--
oi--
oil--
oir--
ois--
ok--
ol--
ola--
oly--
om--
oma--
on--
onra--
ons--
op--
opa--
or--
ora--
ord--
ori--
ort--
os--
ost--
ot--
ou--
out--
ov--
ox--
p--
pa--
pai--
pal--
pan--
par--
para--
part--
pas--
pat--
pe--
peaca--
peas--
peat--
peir--
pen--
per--
perce--
pereg--
ph--
pha--
phea--
phen--
pho--
phoileata--
phro--
phu--
phy--
pi--
pia--
pie--
pig--
pil--
pioc--
pl--
pla--
plannta--
ple--
plu--
po--
poca--
poili--
pol--
por--
port--
poss--
pot--
pra--
pre--
preuß--
pri--
pro--
proxi--
ps--
psycho--
pu--
put--
pyr--
q--
qua--
que--
qui--
r--
ra--
rad--
rag--
ral--
ram--
ran--
rann--
rap--
ras--
rat--
rc--
rd--
re--
rec--
red--
reflect--
regi--
regu--
rei--
reisea--
rem--
remem--
ren--
reo--
res--
reu--
reyk--
rg--
rha--
rhy--
ri--
ria--
rib--
ring--
riochd--
ris--
rk--
rl--
rn--
rna--
ro--
rob--
rochu--
rock--
rod--
rom--
ron--
ros--
rose--
row--
rp--
rr--
rs--
rt--
ru--
rua--
rui--
rum--
rus--
rð--
s--
sa--
sac--
sag--
sal--
salm--
sam--
san--
sand--
sao--
sar--
sc--
sca--
sch--
scho--
schu--
scor--
sd--
se--
sea--
sear--
searmona--
seas--
see--
seen--
seite--
sel--
sem--
sen--
seo--
ser--
set--
seðla--
sg--
sga--
sge--
sgi--
sgu--
sh--
sha--
shaw--
she--
shea--
shi--
ship--
shli--
shlo--
sho--
shoidh--
shu--
si--
sia--
sig--
sigi--
sigur--
sil--
sim--
sin--
sk--
sla--
sle--
sli--
slo--
sma--
sna--
snæ--
so--
sobi--
soc--
soemmer--
sol--
son--
sorbis--
sound--
soziali--
sp--
spa--
spe--
spect--
spi--
spo--
sq--
sra--
sri--
sru--
ss--
st--
sta--
stad--
stann--
stati--
ste--
sti--
stiu--
sto--
str--
stra--
strath--
strep--
strome--
stu--
su--
sua--
sub--
sui--
sul--
sun--
suo--
sur--
svein--
swa--
swe--
swin--
sy--
symp--
sz--
t--
ta--
tag--
tagh--
tai--
tair--
tais--
tait--
tak--
tal--
tam--
tamh--
tan--
taos--
tar--
tat--
tay--
te--
tea--
teas--
tech--
teic--
teil--
temp--
tempera--
ten--
teo--
terri--
th--
tha--
thas--
the--
thea--
thean--
thi--
tho--
thog--
thor--
thra--
thu--
ti--
tid--
tig--
til--
tim--
tin--
tiodh--
tiom--
tionns--
tip--
to--
toil--
tol--
tor--
tr--
tra--
trans--
tre--
trea--
tref--
tri--
tro--
trom--
trou--
ts--
tt--
tte--
tu--
tuar--
tug--
tur--
turn--
tutank--
twi--
ty--
u--
ua--
uachd--
uaig--
uc--
ucra--
ud--
ui--
uinn--
ul--
um--
un--
uni--
uns--
unter--
up--
ur--
ura--
us--
ut--
v--
va--
val--
van--
var--
ve--
vel--
ver--
vera--
vespa--
vest--
veter--
vi--
via--
vie--
vir--
vis--
vo--
vol--
volks--
vri--
vul--
vy--
w--
wa--
wait--
wales--
walew--
war--
wat--
water--
we--
west--
westersc--
wh--
whit--
white--
wi--
wiki--
win--
wissen--
wo--
won--
wood--
wu--
wy--
wyn--
x--
xa--
xi--
xx--
y--
ya--
yayı--
ye--
yes--
yi--
yo--
ys--
yu--
z--
za--
ze--
zee--
zelen--
zen--
zhi--
zi--
zo--
zoo--
zu--
ß--
æ--
ð--
ði--
þ--
þo--
þor--
ɐ--
ɑ--
ɔ--
ə--
ɛ--
ɡ--
ɣ--
ɦ--
ɪ--
ɬ--
ɾ--
ʃ--
ʃi--
ʋ--
ʒ--
ʔ--
ː--
α--
γ--
δ--
κ--
λ--
μ--
ν--
π--
ρ--
а--
акад--
але--
б--
в--
володи--
ві--
г--
ге--
го--
д--
де--
е--
и--
к--
ко--
л--
ле--
ль--
м--
мо--
н--
наці--
нсь--
п--
пе--
р--
ро--
с--
се--
ск--
т--
те--
ч--
шевч--
є--
י--
ب--
--0
--00
--006
--01
--013
--02
--032
--04
--048
--05
--056
--06
--08
--09
--099
--1
--11
--12
--13
--14
--15
--16
--17
--19
--2
--21
--22
--23
--24
--25
--26
--27
--28
--29
--3
--31
--32
--33
--34
--38
--39
--4
--41
--42
--43
--44
--45
--46
--47
--48
--49
--5
--51
--52
--53
--55
--56
--58
--59
--6
--602
--61
--62
--63
--64
--65
--66
--662
--67
--68
--69
--7
--71
--72
--73
--74
--75
--76
--77
--78
--8
--81
--82
--822
--83
--84
--844
--85
--86
--87
--88
--89
--9
--91
--92
--93
--94
--95
--96
--97
--98
--a
--aa
--aal
--aar
--abh
--ach
--achadh
--achail
--achain
--achais
--achan
--achas
--achd
--achdainn
--acio
--acus
--ad
--adail
--adair
--adairean
--adh
--ads
--ae
--aeus
--ag
--aga
--agail
--agan
--age
--ah
--ai
--aib
--aibh
--aich
--aiche
--aichean
--aichidh
--aichte
--aid
--aidh
--aidhean
--aig
--aigh
--ail
--aill
--ain
--ainn
--air
--aire
--aireachd
--airean
--ais
--ak
--al
--alaich
--alaichean
--all
--alog
--am
--ama
--amh
--an
--ana
--anach
--anan
--ance
--ander
--ang
--ania
--ann
--ano
--ant
--ao
--ap
--ar
--aran
--ard
--ari
--aria
--aro
--ary
--as
--asa
--asach
--asan
--asi
--at
--ata
--ate
--ated
--ation
--ations
--ative
--ats
--atus
--au
--aven
--aw
--ay
--b
--ba
--bair
--bank
--bar
--be
--bee
--ben
--bes
--bet
--bh
--bi
--bia
--bie
--bjo
--bl
--ble
--bly
--bo
--bok
--bon
--borough
--brainz
--bu
--burg
--burn
--bury
--by
--c
--ca
--cail
--can
--ce
--ch
--cha
--chadh
--chail
--chan
--chas
--chd
--che
--chi
--cht
--chte
--chy
--cia
--cies
--cio
--ck
--cker
--cle
--co
--craft
--cript
--ct
--ctus
--cu
--cus
--cut
--cy
--d
--da
--dair
--dal
--dan
--day
--dder
--de
--dean
--ded
--den
--dh
--di
--dia
--die
--dis
--dle
--do
--don
--dor
--dorf
--dower
--ds
--dt
--du
--duced
--duct
--dus
--dw
--dy
--e
--ea
--each
--eachadh
--eachan
--eachd
--ead
--eadh
--eag
--eal
--ealas
--eam
--ean
--eanan
--eann
--eanta
--ear
--earan
--eas
--east
--eau
--ec
--eck
--ect
--ection
--ed
--ee
--een
--ef
--eg
--ega
--ehouse
--ei
--eid
--eil
--eimh
--ein
--einn
--eir
--eis
--eit
--ek
--eka
--el
--ele
--elg
--ell
--ello
--elo
--em
--en
--ena
--enaeus
--ence
--encia
--end
--enden
--ens
--ense
--ensis
--ent
--ente
--ential
--eo
--eon
--eously
--er
--era
--ered
--eren
--eria
--ern
--ero
--eros
--ers
--ersity
--ert
--es
--ese
--esi
--ess
--est
--et
--eth
--ets
--eu
--eur
--eus
--evium
--ex
--ey
--ez
--eze
--f
--fa
--fach
--fax
--fe
--feld
--fer
--ff
--ffe
--ffen
--field
--fjo
--fo
--foot
--ford
--ft
--ften
--ful
--g
--ga
--gach
--gaid
--gal
--gan
--gat
--ge
--gebirge
--geil
--gen
--ger
--gh
--ghais
--ght
--ghuis
--gi
--gidh
--gie
--gis
--go
--gr
--gra
--gs
--gt
--gte
--gton
--gu
--gus
--gwm
--gy
--h
--ha
--hach
--haidh
--hain
--ham
--hanaich
--he
--head
--hean
--heas
--heim
--hem
--hes
--hi
--hia
--hin
--hip
--hl
--hment
--hmore
--hn
--ho
--hodox
--hs
--ht
--hte
--hu
--hurst
--hy
--i
--ia
--iae
--iai
--ial
--iam
--ian
--iana
--ianach
--ianaich
--ianich
--ians
--ias
--ib
--ibh
--ible
--ic
--ica
--ich
--iche
--ichean
--ichen
--ichidh
--ichte
--icia
--ick
--icka
--ics
--icus
--id
--idae
--ide
--idh
--idhean
--idich
--ido
--idri
--ie
--ied
--iel
--ien
--iensis
--ier
--iers
--ies
--ig
--ige
--igh
--igin
--ign
--ii
--ik
--il
--ila
--ile
--ill
--ils
--ily
--im
--ims
--in
--ina
--inal
--ine
--ing
--inge
--ings
--ini
--inis
--inn
--ino
--int
--io
--iog
--ion
--ions
--ior
--ios
--ipelago
--iq
--ir
--ire
--is
--isation
--ische
--ischen
--isg
--ish
--isi
--ism
--ispidh
--ist
--ista
--ists
--it
--itas
--ite
--ith
--ities
--ition
--ito
--ity
--itz
--iu
--ium
--ius
--ive
--ively
--ix
--iz
--ize
--ized
--ið
--j
--ja
--je
--jet
--jo
--k
--ka
--kar
--ke
--ked
--kel
--kell
--ken
--ker
--kes
--ket
--kh
--ki
--ko
--ks
--kt
--kton
--ku
--ky
--l
--la
--lach
--lan
--land
--lann
--laus
--lav
--law
--lbh
--lc
--ld
--lde
--le
--lean
--led
--leg
--len
--ler
--les
--let
--ley
--lf
--lg
--li
--lia
--lich
--lie
--lig
--lin
--ling
--link
--lis
--ll
--lla
--lle
--llion
--lm
--lo
--logy
--lops
--ls
--lt
--lus
--ly
--m
--ma
--mad
--maen
--man
--mas
--mb
--mba
--mbo
--me
--mea
--mee
--men
--ment
--mh
--mhar
--mi
--mia
--mis
--mna
--mo
--moin
--more
--mos
--mouth
--ms
--mus
--my
--n
--na
--nach
--nadh
--naich
--nais
--nal
--nan
--nant
--nas
--nce
--nche
--nd
--nda
--ndair
--ndo
--ne
--neachd
--nean
--neau
--negro
--neis
--ner
--nes
--net
--newydd
--ng
--nga
--nham
--nheim
--ni
--nia
--nicus
--nik
--ning
--nis
--nk
--nn
--nna
--nnan
--nne
--no
--ns
--nsa
--nsay
--nsis
--nson
--nt
--nta
--ntas
--ntin
--ntis
--nts
--nus
--ny
--nz
--o
--oa
--oc
--och
--ock
--od
--ode
--og
--oi
--oidh
--oin
--ois
--ok
--oka
--ol
--ola
--olo
--ologi
--ology
--om
--on
--ona
--ond
--oni
--onia
--ons
--oo
--oon
--op
--opus
--or
--ore
--ores
--orf
--orum
--ory
--os
--osa
--osg
--ot
--ote
--oth
--ou
--ough
--ound
--ous
--ov
--ova
--ove
--ovich
--ovo
--ow
--owitz
--owners
--oy
--p
--pa
--pach
--pag
--pal
--pe
--pf
--ph
--phain
--phone
--posed
--pp
--pped
--ps
--pt
--pter
--pton
--pus
--q
--que
--r
--ra
--rach
--rain
--ram
--ran
--rc
--rch
--rd
--re
--reamh
--red
--rel
--rell
--res
--ret
--rf
--rfeld
--rg
--rge
--ri
--ria
--rie
--rien
--ries
--rig
--rim
--rina
--ris
--rit
--rk
--rma
--rn
--rna
--rne
--ro
--ros
--rr
--rrow
--rs
--rst
--rt
--rta
--rtan
--ru
--rus
--ry
--s
--sa
--sach
--saigh
--sainn
--sais
--sal
--san
--sation
--sbok
--sby
--sch
--schen
--sco
--se
--see
--sen
--ses
--sey
--sg
--sgal
--sh
--shchyna
--shire
--si
--sia
--side
--sie
--sir
--sirean
--sis
--sity
--sjo
--sk
--ska
--sky
--sm
--so
--son
--ss
--sse
--sson
--st
--sta
--stal
--stan
--stear
--ston
--stown
--sts
--sville
--sy
--sø
--t
--ta
--tach
--tail
--tainn
--tan
--tand
--tas
--te
--teamplaid
--tean
--tear
--tearan
--ted
--teen
--tein
--ten
--ter
--teria
--tes
--th
--tha
--than
--ti
--tia
--tial
--tic
--tich
--tics
--tie
--ties
--tik
--tin
--ting
--tion
--tions
--tis
--tive
--tje
--tl
--tle
--tn
--to
--toin
--ton
--tone
--tor
--tos
--town
--tra
--trach
--tro
--ts
--tska
--tt
--tta
--tte
--tu
--tum
--tun
--tur
--tus
--ty
--tz
--u
--ua
--ual
--ubh
--uca
--uch
--ud
--ue
--ug
--uki
--ul
--ula
--ulu
--um
--un
--ung
--ungen
--unn
--up
--ur
--ure
--ures
--uro
--urs
--urus
--us
--uss
--ut
--ux
--v
--va
--vaal
--vaig
--vakia
--vas
--ve
--ved
--ven
--ver
--ves
--vey
--vi
--via
--vich
--ville
--vin
--vo
--vshchyna
--vy
--w
--wa
--way
--we
--wed
--wen
--wr
--ws
--wyn
--x
--xy
--y
--ya
--yar
--yd
--ydd
--ye
--yen
--yer
--ying
--yn
--yo
--ys
--z
--za
--ze
--zel
--zheim
--zi
--zo
--zon
--zt
--zy
--ß
--ð
--ða
--ði
--ðingafjo
--ðið
--ø
--ŋ
--ə
--əx
--ɨ
--ɪ
--ɯ
--ʃ
--ʊ
--ʔ
--α
--ι
--ν
--ς
--а
--ан
--андр
--в
--ва
--да
--е
--и
--ии
--к
--ка
--л
--ла
--н
--нко
--о
--ои
--р
--ч
--ь
--я
--ів
--іи
--אל
--ة
--ن
--ي
--ية
