!
"
#
##0
##1
##10
##11
##12
##13
##14
##15
##16
##17
##18
##19
##2
##20
##21
##22
##23
##24
##25
##26
##27
##28
##29
##3
##30
##31
##32
##33
##34
##35
##36
##37
##38
##39
##4
##40
##41
##42
##43
##44
##45
##46
##47
##48
##49
##5
##50
##51
##52
##53
##54
##55
##56
##57
##58
##59
##6
##60
##61
##62
##63
##64
##65
##66
##67
##68
##69
##7
##70
##71
##72
##73
##74
##75
##76
##77
##78
##79
##8
##80
##81
##82
##83
##84
##85
##86
##87
##88
##89
##9
##90
##91
##92
##93
##94
##95
##96
##97
##98
##99
$
%
&
'
(
)
*
+
,
-
.
/
0
00
000
0007692714
001
002
003
004
005
007
009
01
011
012
0140136495
015
016
02
020
021
025
029
03
033
0333567617
036
04
0415278805
05
050
0508
052
055
06
060
063
065
067
07
0748602763
08
084
0861521501
0861522214
087
089
09
0903204215
094
096
097
1
10
100
1000
100000
1001
1003
1005
1006
1008
1009
101
1010
1016
1019
102
1020
1023
1024
1025
103
1030
1031
1032
1034
1038
104
1040
1041
105
1050
1056
1057
1058
106
1060
1062
1065
1066
1067
107
1070
1071
1073
1079
108
1080
1085
1088
109
1090
1091
1093
1099
11
110
1100
1103
1106
111
1110
1119
112
1120
1124
1128
1129
113
1130
1135
1138
1139
114
1140
1141
1142
1143
1145
115
1150
1152
1153
1156
1157
1158
116
1160
1165
117
1170
1171
1172
1173
1174
1178
118
1180
1185
119
1190
1191
1195
1198
12
120
1200
1204
1208
121
1210
1212
1213
1214
12148
1215
1216
122
1220
1221
1222
1224
1226
1229
123
1230
1233
1234
1235
1236
1237
1238
1239
124
1240
1241
1245
1246
1247
1249
125
1250
1254
1257
1258
126
1260
1263
1265
1266
1269
127
1270
1272
1274
1275
128
1280
1282
1283
1284
1286
1289
129
1290
1291
1293
1295
1296
1297
1298
1299
13
130
1300
1303
1305
1306
1307
1308
131
1310
1312
1313
1314
1315
1316
1317
1319
132
1320
1321
1324
1325
1326
1327
1329
133
1330
1332
1333
1335
1338
1339
134
1340
1341
1343
1346
1348
1349
135
1350
1356
1359
136
1360
1361
1362
1363
1364
1368
1369
137
1370
1371
1372
138
1380
1382
1385
1386
1388
1389
139
1390
1391
1392
1394
1395
1397
1398
14
140
1400
1401
1402
1403
1404
1405
1406
1408
141
1410
1411
1413
1415
1419
142
1420
1422
1423
1424
1427
1428
1429
143
1430
1431
1434
1435
1437
1438
144
1440
1442
1444
1446
1447
1448
145
1450
1451
1452
1453
1455
1456
1457
1459
146
1460
1461
1463
1464
1465
1466
1468
1469
147
1470
1471
1472
1473
1474
1475
1476
1477
1478
1479
148
1480
1481
1482
1483
1484
1485
1488
149
1490
1491
1492
1493
1494
1495
1496
1497
1498
1499
15
150
1500
1501
1502
1503
1504
1505
1506
1507
1508
1509
151
1510
1511
1512
1513
1514
1515
1516
1517
1518
1519
152
1520
1521
1522
1523
1524
1525
1526
1527
1528
153
1530
1532
1533
1534
1535
1536
1537
1538
1539
154
1540
1541
1542
1543
1544
1545
1546
1547
1548
1549
155
1550
1551
1552
1553
1554
1555
1556
1557
1558
1559
156
1560
1561
1562
1563
1564
1565
1566
1567
1568
1569
157
1570
1571
1572
1574
1575
1576
1578
1579
158
1580
1581
1582
1583
1584
1585
1587
1588
1589
159
1590
1591
1592
1593
1594
1595
1596
1597
1598
1599
16
160
1600
1601
1602
1603
1604
1605
1606
1607
1608
1609
161
1610
1611
1612
1613
1614
1615
1616
1617
1618
1619
162
1620
1621
1622
1623
1624
1625
1626
1627
1628
1629
163
1630
1631
1632
1633
1634
1635
1636
1637
1638
1639
164
1640
1641
1642
1644
1645
1646
1647
1648
1649
165
1650
1651
1652
1653
1654
1655
1656
1657
1658
1659
166
1660
1661
1662
1663
1664
1665
1666
1667
1669
167
1670
1671
1672
1673
1674
1675
1676
1677
1679
168
1680
1681
1682
1683
1684
1685
1686
1688
1689
169
1690
1691
1692
1693
1694
1695
1696
1697
1698
1699
17
170
1700
1701
1702
1703
1704
1705
1706
1707
1708
1709
171
1710
1711
1712
1713
1714
1715
1716
1717
1718
1719
172
1720
1721
1722
1723
1724
1725
1726
1727
1728
1729
173
1730
1731
1732
1733
1734
1735
1736
1737
1738
1739
174
1740
1741
1742
1743
1744
1745
1746
1747
1748
1749
175
1750
1751
1752
1753
1754
1755
1756
1757
1758
1759
176
1760
1761
1762
1763
1764
1765
1766
1767
1768
1769
177
1770
1771
1772
1773
1774
1775
1776
1777
1778
1779
178
1780
1781
1782
1783
1784
1785
1786
1787
1788
1789
179
1790
1791
1792
1793
1794
1795
1796
1797
1798
1799
18
180
1800
1801
1802
1803
1804
1805
1806
1807
1808
1809
181
1810
1811
1812
1813
1814
1815
1816
1817
1818
1819
182
1820
1821
1822
1823
1824
1825
1826
1827
1828
1829
183
1830
1831
1832
1833
1834
1835
1836
1837
1838
1839
184
1840
1841
1842
1843
1844
1845
1845027116
1846
1847
1848
1849
185
1850
1851
1852
1853
1854
1855
1856
18568
1857
1858
1859
186
1860
1861
1862
1863
1864
1865
1866
1867
1868
1869
187
1870
1871
1871901391
1872
1873
1874
1875
1876
1877
1878
1879
188
1880
1881
1882
1883
1884
1885
1886
1887
1888
1889
189
1890
1891
1892
1893
1894
1895
1896
1897
1898
1899
19
190
1900
1901
1902
1903
1904
1905
1906
1907
1908
1909
191
1910
1911
1912
1913
1914
1915
1916
1917
1918
1919
192
1920
1921
1922
1923
1924
1925
1926
1927
1928
1929
193
1930
1931
1932
1933
1934
1935
1936
1937
1938
1939
194
1940
1941
1942
1943
1944
1945
1946
1947
1948
1949
195
1950
1951
1952
1953
1954
1955
1956
1957
1958
1959
196
1960
1961
1962
1963
1964
1965
1966
1967
1968
1969
197
1970
1971
1972
1973
1974
1975
1976
1977
1978
1979
198
1980
1981
1982
1983
1984
1985
1986
1987
1988
1989
199
1990
1991
1992
1993
1994
1995
1996
1997
1998
1999
2
20
200
2000
2001
2002
2003
2004
2005
2006
2007
2008
2009
201
2010
2011
2012
2013
2014
2015
2016
2017
2018
2019
202
2020
2021
2022
203
204
205
206
207
208
209
21
210
211
212
213
214
215
216
217
218
219
22
220
221
222
223
224
225
226
227
228
229
23
230
231
232
233
234
235
236
237
238
239
24
240
2400
241
242
243
244
245
246
247
248
249
25
250
2500
251
252
253
254
255
256
257
258
259
26
260
261
262
263
264
265
266
267
268
269
27
270
271
272
273
274
275
276
277
278
279
28
280
2800
281
282
283
284
285
286
287
288
289
29
290
291
292
293
294
295
296
297
29761
2977
298
299
3
30
300
3000
301
302
303
304
305
306
307
308
309
31
310
311
312
313
314
315
316
317
318
319
32
320
321
322
323
324
325
326
327
328
329
33
330
331
332
333
334
335
336
337
338
339
34
340
341
342
343
344
345
346
347
348
349
35
350
351
352
353
354
355
356
357
358
359
36
360
361
362
363
364
365
366
367
368
369
37
370
371
372
373
374
375
376
377
378
379
38
380
381
382
383
384
385
386
387
388
389
39
390
391
392
393
394
395
396
397
398
39816686
399
4
40
400
4000
401
402
403
404
405
406
407
408
409
41
410
411
412
413
414
415
416
417
418
419
42
420
421
422
423
424
425
426
427
428
429
43
430
431
432
433
434
435
436
437
439
44
440
441
442
443
444
445
446
447
448
449
45
450
451
453
454
455
456
457
458
459
46
460
461
462
463
464
465
466
467
469
47
470
471
472
473
474
475
476
478
479
48
480
481
482
483
484
485
486
487
488
489
49
490
491
492
494
495
496
497
498
499
5
50
500
5000
501
502
503
504
505
506
507
508
509
51
510
511
512
513
514
515
516
517
518
519
52
520
521
522
523
524
525
526
527
528
529
53
530
531
533
534
535
536
537
538
539
54
540
541
542
543
544
545
546
547
548
549
55
550
551
552
553
554
555
556
557
558
559
56
560
5609
561
562
563
564
567
568
569
57
570
571
572
573
574
575
576
577
578
579
58
580
581
582
583
586
587
589
59
590
591
592
593
594
595
597
599
6
60
600
6000
601
60251199
603
60485
606
607
608
61
610
611
612
613
614
615
616
617
618
619
62
620
621
623
624
625
626
627
628
629
63
630
631
632
633
634
635
636
637
638
639
64
640
641
642
643
645
647
648
65
650
652
653
654
655
656
657
658
659
66
660
661
664
665
666
667
668
669
67
670
671
672
673
674
675
676
679
68
680
681
682
683
684
685
686
687
688
689
69
690
691
692
695
696
697
698
699
7
70
700
702
703
704
705
706
708
709
71
710
711
712
713
714
715
718
719
72
720
721
722
723
724
725
726
727
728
729
73
730
731
733
734
735
736
737
738
739
74
740
741
742
743
745
746
747
748
7486
749
75
750
7509
751
752
753
754
755
756
757
759
76
760
761
763
766
768
769
77
770
771
772
773
774
775
776
777
778
78
780
781
783
784
785
786
787
788
789
79
790
791
792
793
794
795
796
798
799
8
80
800
801
802
803
804
805
806
80606
807
81
810
811
813
814
815
816
818
82
820
823
825
826
828
829
829941
83
830
831
832
8329
833
834
835
836
837
838
839
84
840
841
843
845
846
847
84734
848
849
85
850
851
852
8526
853
854
855
856
857
859
86
860
860764
861
86152
862
865
866
867
869
87
870
871901
872
874
875
876
877
879
88
880
881
88182
882
883
884
885
886
887
888
889
89
890
891
892
893
894
895
896
897
899
9
90
900
9000
900901
902
903204
904
906
907
908
909
91
910
911
912
913
914
915
918
92
920
921
923
924
925
926
927
928
929
93
930
933
934
935
936
936625
937
938
94
940
943
944
945
946
946427
947
948
949
95
950
951
954
955
956
957
958
959
96
960
961
962
963
965
966
967
968
969
97
970
971
972
973
974
975
976
977
978
9781847672773
979
98
980
981
982
986
987
988
989
99
990
992
993
995
996
997
998
999
:
;
<
=
>
?
@
\
^
_
`
a
aa
aachen
aachener
aaiu
aalge
aarberg
aardvark
aaron
ab
aba
ababa
abadi
abaid
abair
abairt
abairtean
abairthusa
abar
abba
abbasi
abbey
abbr
abc
abd
abdel
abderhalden
abdu
abdullah
abe
abegg
abel
abenteuer
abeokuta
aberdeen
abertawe
aberystwyth
abhach
abhag
abhainn
abhainne
abhaist
abhaisteach
abhann
abhlaid
abhlaideach
abhlaidich
able
about
above
abovestyle
aboyne
abraham
abrar
abroad
abs
abstol
abstolach
abu
abuja
aburra
abyssinian
ac
aca
acadaimigeach
acadamaidh
acadamh
acade
academia
academic
academy
acaill
acain
acainn
acair
acanthops
acarsaid
acasan
accepted
accepts
access
accessdate
accessed
accipiter
according
accordion
account
accra
acfhainn
ach
achadh
achaidh
achaidhean
achar
achd
achdan
achieve
achlais
achlaise
acinonyx
acla
acosta
acquire
acras
acres
acrocephalus
acromantis
across
act
acta
actair
actanach
actinium
action
acts
actual
aculeatus
ad
ada
adag
adainn
adam
adams
adamson
adan
adana
adas
add
addax
addcat
addclass
added
addington
addis
additional
addr
addrow
adds
adelaide
adelns
adeva
adger
adh
adha
adhadaireachd
adhair
adhamh
adhar
adharc
adharcach
adhart
adhartach
adhartachadh
adhartaiche
adhartas
adhartasan
adhbhar
adhbharachadh
adhbharaich
adhbharan
adhbhrachadh
adhbhraich
adhere
adhlacadh
adhlaic
adhradh
adhraidh
adjust
administration
adolf
adolfo
adolph
adomna
adopted
adriaan
adrian
advanced
advent
adventures
advisor
ae
aegagrus
aemet
aepyceros
aer
aerial
aetio
af
affairs
affric
afganastan
afghanistan
afon
afraga
afragach
afraganach
afraganais
afraig
africa
african
afrika
afrikaans
afro
after
ag
agad
agaibh
again
againn
againne
against
agallamh
agallamhan
agam
age
agency
ages
agh
agha
aghaidh
aghaidhean
aghaigh
agnes
agnetha
agnon
agordo
agrado
agre
agricultural
agus
agusti
ah
ahern
ahmed
ai
aibe
aibhe
aibhne
aibhneachan
aibhnichean
aibidil
aice
aicese
aicseaman
aid
aidan
aideachadh
aidheon
aidheonan
aidhodain
aidich
aidmheint
aids
aifreann
aifrinn
aig
aige
aigesan
aigese
aighean
aikin
ail
ailbhe
ailbhean
aildiria
aile
ailean
ailein
ailig
aille
aillse
ailpein
ailseabra
ailseabrach
ailt
ailtire
ailtireachd
ailtirean
aimearaga
aimearagaidh
aimearagan
aimearaganach
aimearaganaich
aimearganach
aimeireaga
aimeireagach
aimeireaganach
aimeireaganaich
aimeirigeanach
aimerigeanach
aimhreit
aimn
aimsir
aimsire
aimsireil
ain
aindeoin
aindheoin
aingeal
ainglean
ainm
ainme
ainmeachadh
ainmean
ainmear
ainmearan
ainmeil
ainmeile
ainmh
ainmhich
ainmhidhean
ainmich
ainmicheadh
ainmichte
ainmneach
ainneamh
ainneart
ainneartach
ainneirt
ainnirean
ainslie
aintilia
ainu
ainur
air
airceig
aircleid
aird
airde
aire
aireamh
aires
airgead
airgid
airidh
airlines
airm
airmeanais
airmeinia
airport
airsan
airson
airth
airways
ais
aise
aiseag
aiseagan
aiseal
aiseig
aiseirigh
aisia
aisig
aisle
aisling
aislingean
aiste
aistean
aistear
aistidhean
ait
aite
aithghearr
aithisg
aithisgean
aithne
aithneachadh
aithnich
aithnicheadh
aithnichear
aithnichearan
aithnichte
aithris
aithriseach
aithrisean
aitken
aix
akademie
akademien
akerbeltz
akhenaten
akhmatova
akira
akranes
aks
akureyri
al
ala
alabama
alacant
alach
alain
alamhagh
alan
alanais
alanya
alasca
alasdair
alaska
alastair
alauda
alba
albacete
albainn
albais
albam
albanach
albani
albann
albannach
albannaich
albany
albatrosses
albert
alberta
alberto
albertus
albicilla
albifrons
albino
albiventris
albojubatus
albonotata
albrecht
album
albuquerque
alca
alcaileach
alcala
alcalaidh
alcalde
alcaraz
alcedo
alcelaphus
alces
alcol
alder
alderney
aldrin
ale
alec
alegre
alejandro
aleksandr
alert
alessandro
alex
alexander
alexandra
alexandria
alexandru
alexis
alfaguara
alfonso
alford
alfred
alfredo
alfve
algeria
algiers
algirus
ali
alias
aliases
aliasesp
alice
alighieri
align
alignbars
alina
alison
alistair
alive
all
allah
allaidh
allais
allan
alle
allen
allende
allgemeine
alliance
allmhagh
allmhaigh
allow
allowed
allows
allt
alltan
allvar
alma
almanach
almaty
almaz
almeida
almere
almeri
almost
alofi
aloidhean
alois
alone
alonso
alpes
alpha
alpin
alpine
alpujarra
already
als
alsace
also
alt
altachadh
altair
altan
altaussee
altdorf
altenburg
alter
although
altieri
altman
alto
aluiminium
aluinn
alva
alvarez
always
alþingi
alþy
am
ama
amach
amadan
amadeus
amaga
amail
amain
amais
amanda
amannan
amar
amaral
amartya
amas
amasan
amasya
amazon
ambedkar
amber
ambitions
ame
ameireaga
ameireagach
ameireagaidh
ameireaganach
ameireaganaich
ameireagium
amelia
amen
america
american
americana
americanus
amersfoort
amh
amhach
amhaich
amhail
amhainn
amhairc
amharas
amharasach
amharc
amharclann
amhlaidh
amhlaoibh
ami
amis
amman
ammodorcas
ammotragus
amo
amon
among
amor
amount
amsaa
amstelveen
amsterdam
amun
amundsen
amur
amurensis
amus
amy
an
ana
anabarrach
anabharr
anadais
anadas
anadh
anaichean
anaidh
anail
anailis
anailise
anailiseach
anainn
anais
anakkale
analachadh
analysis
analyze
anam
anamh
anann
anar
anarcach
anart
anas
anatidae
anatole
anatoliy
anchor
ancient
and
andalus
andalusia
andean
andere
anders
andersen
anderson
andersson
andes
andijewska
andorra
andra
andre
andrea
andreas
andrew
andrews
andric
andriy
andu
andy
anfinsen
angasii
ange
angel
angela
angeles
angelfish
angelica
angelique
angelita
angelo
angels
angelshark
angharad
angla
anglais
angle
angler
anglerfish
anglesey
anglo
ango
angola
angostura
angus
anhalt
ani
animal
anita
ankara
ankhesenamun
anm
anmoch
anmoiche
ann
anna
annabel
annabelle
annaladh
annals
annan
annandale
annapolis
annas
annasach
anndra
anne
anneke
anni
annibale
annie
anns
annta
annuaire
anoa
another
ans
anser
ant
anta
antalop
antalya
antamonaidh
antananarivo
antarctic
antargtaga
ante
antelope
antelopes
anthology
anthony
anthus
anti
antich
antidorcas
antigonis
antigua
antilles
antilope
antilopinae
antioquia
antiquarian
antiquities
antiquus
antoine
antoinette
anton
antonescu
antoni
antonia
antonine
antonio
antonov
antony
ants
antwerpen
anu
anwar
any
anylang
anything
ao
aobhar
aobharachadh
aodach
aodaich
aodainn
aodann
aodh
aodha
aodou
aoibhneas
aoidh
aoidhe
aoigh
aoigheachd
aoil
aoin
aoine
aoir
aoireil
aois
aoise
aoiseach
aoisean
aoiseil
aol
aon
aona
aonach
aonachadh
aonachaidh
aonachain
aonachd
aonad
aonadach
aonadan
aonadh
aonaich
aonaichte
aonaidh
aonaidhean
aonais
aonan
aonar
aonaran
aonghais
aonghas
aonghus
aonta
aontachadh
aontachail
aontaich
aontar
aontaran
aontroim
aontroma
aora
aosda
aosmhor
aosta
aotrom
ap
apache
apaichean
apann
aparan
apartheid
aphra
apodidae
apollo
apostrophe
appearing
appears
append
appended
appendix
appenzell
apple
applied
applies
apply
appropriate
april
aptenodytes
apulo
apus
aquila
aquileo
aquiminzaque
aquitaine
ar
ara
arab
araba
arabach
arabachadh
arabaich
arabais
arabia
arabian
arabica
arabitragus
aracataca
arach
arad
arago
aragon
aragonais
araibianach
araidh
arailt
arain
arainn
arainte
arainteachd
aral
aramach
aramais
aran
arango
arann
aranzazu
araon
arascain
arasgain
arauca
araucana
arawak
arb
arbeitskreis
arbela
arbhair
arbhar
arboleda
arbor
arbuckle
arc
arcach
arcaibh
arch
archaeological
archer
archibald
archie
archipelago
architecture
archiv
archive
archived
archivedate
archives
archiveurl
arctic
arctica
ard
arda
ardach
arde
ardea
ardenne
ardnamurchan
are
area
areas
aren
arenas
arenberg
arendt
arezzo
arfordirol
arfwedson
arg
argamaid
argamaidean
argantain
argantaineach
argentina
argkeys
args
argscfg
argsf
argsi
argsk
argst
argsv
argtables
argtach
argument
arguments
argyll
arias
arida
arie
arieh
aries
aristote
aristoteles
aristotelis
aristotle
arizona
ark
arkansas
arkhip
arlington
arm
armach
armachd
armadail
armadal
armadillidium
armadillo
armaibh
armaichte
armailt
armailteach
armailteachd
armainn
armand
armann
arme
armed
armenia
armero
armies
arms
armstrong
army
arnaldo
arne
arnee
arnhem
arno
arnold
arnoldson
arnott
arouet
around
arpitan
arr
arran
array
arrays
arrhenius
arrow
ars
arsenal
arseniy
arsnaig
art
artagail
artagailean
artaigil
artaigilean
artair
arte
arthur
article
articles
artist
arts
artturi
artur
arundinum
arvensis
arvor
arxiv
as
asaint
asainte
asal
asar
asarbaidea
asarbaideanais
aschaffenburg
ascii
ascrib
asgaidh
asgaig
ash
asia
asian
asiatic
asin
asio
asmara
asp
asperger
asquith
ass
assembleoutput
assembly
assen
assendelft
asser
assert
assessment
assign
assigned
assignment
assistance
associated
association
assume
assynt
ast
asta
astacus
astair
astana
astar
astatain
asterix
aston
astra
astrailia
astronomy
asturias
astute
asuncio
at
ata
atacama
atadail
atadal
atair
atam
atamach
ataman
atatu
atawallpa
atdate
atelerix
atelocynus
ath
atha
athaill
athair
athall
athar
atharrachadh
atharrachaidh
atharrachaidhean
atharrachail
atharraich
atharraicheadh
atharraichean
atharraicheas
atharraichidh
atharraichte
atharraidhean
atharrais
athletic
atla
atlanta
atlantel
atlantic
atlas
atle
atleast
atoll
atomgevitter
atomic
attempt
attempts
atthis
attlee
attr
attributes
au
aubrey
auckland
aude
audio
audrey
auf
auflage
aughra
augsburg
augur
august
augusta
auguste
augustine
augusto
augustus
auld
aurelius
aureus
auritus
aurora
aus
auschwitz
austen
austin
australia
australian
australis
austria
austropotamobius
austurland
author
authorities
authority
authors
auto
autobiography
automatically
autumn
auvergne
aux
außenpolitik
av
ava
available
avant
avenue
avidom
avignon
aviv
avoch
avoid
avon
avram
award
awards
away
axel
axes
axis
ay
ayala
aymar
aymer
ayr
ayrshire
aythya
ayuntamiento
az
azan
aznar
azov
aztec
azul
azur
að
b
ba
bab
baba
babirusa
baby
bac
baca
bacadh
bacata
bach
bachrain
back
backed
background
backgroundcolors
bacteria
bactrian
bactrianus
bad
badaig
badajoz
badan
baden
badenoch
badge
badger
badges
badh
bae
baeyer
baeza
bag
bagge
bagging
baggins
baghasdail
baghdad
bahia
baia
baichte
baictear
baid
baidh
baidhean
baikal
bail
baile
bailey
bailiu
bailiwick
bailte
bailtean
bailteil
bain
bainne
bainnse
bainnsean
bains
baintighearna
baird
baisteadh
baistidh
baja
baker
baku
bal
balabanoff
balach
balaich
balance
balassi
balbh
balcain
balder
baldvinsson
baldwin
bale
balfour
balg
balgair
balgan
ball
balla
ballachan
ballaichean
ballan
ballester
ballet
balliol
ballrachd
balt
baltach
baltaich
balthasar
balthazar
baltimore
balzac
bamako
ban
bana
banachdaich
banais
banaltram
banbh
banca
bancaichean
bancair
band
banded
banes
bang
bangkok
bangla
bangladais
bangladesh
bangor
bangs
bangui
bangweulu
banjul
bank
banks
bann
bannan
bannerman
bannockburn
banntrach
banrepcultural
banri
banrigh
banrighinn
bantrach
baoghail
baoill
baptiste
bar
barabhas
barach
barack
baraich
barail
baraille
baralachas
baran
baranachd
baranachdan
baranoa
barantas
barba
barbacoas
barbados
barbara
barbary
barbosa
barbuda
barca
barcelona
barclay
barco
bard
bardachd
bardata
bards
bardsey
bare
barichara
barium
bark
barker
barlow
barmen
barn
barnaba
barnacle
barns
barnum
barocach
baroja
barpa
barr
barra
barrachan
barrachd
barracuda
barraigh
barrancabermeja
barranquilla
barrathon
barre
barreiro
barreto
barrie
barrow
barry
bartholdy
bartlett
bartolome
barton
baru
baruch
bas
basalt
base
based
basel
basestyle
basgach
basgaich
basgaid
basgais
basgaise
bashevis
basic
basil
basin
basque
bass
basse
basses
bastille
bastos
bat
bata
bataichean
batail
batailean
bataille
batal
batan
bataraidh
bataraidhean
batcheller
bateman
bates
batesi
bath
bathair
bathais
bathar
bathgate
bathymetrical
batista
bator
bats
battista
battle
bauer
bauhaus
baumkuchen
bautzen
bavaria
bay
bayern
bayezid
bbc
bc
bce
bd
be
bea
beach
beachd
beachdachadh
beachdaireachd
beachdan
beag
beaga
beagan
beagatlas
beagdu
beagfeuch
beagmap
beairt
beairteach
beairteas
beaked
bealach
bealaruisis
bealltainn
bean
beann
beannacharan
beannchar
beanntach
beanntaibh
beanntain
beanntainn
beanntan
beantainn
bear
bearaig
bearded
bearsden
beart
beartach
beartaiche
beartas
beasts
beath
beatha
beathach
beathachadh
beathaich
beathaichean
beathannan
beatles
beatragus
beatrice
beattie
beattock
beaufort
beauly
beaumont
beautiful
beaux
beaver
bec
became
because
beck
becker
beckett
become
becoming
becquerel
bed
beda
bedr
bedwyr
bee
beech
been
bees
beethoven
beetle
beetles
before
began
begin
beginning
behavior
behaviour
behind
behn
bei
beijing
beilge
beilise
being
beinidict
beinin
beinn
beinne
beinntean
beir
beira
beireadh
beirilium
beiris
beirm
beirut
beisa
beith
beithe
bela
bele
belediye
belediyesi
belgrade
belisario
bell
bella
belleville
bellied
bello
bellow
bellshill
belluno
belmont
belo
below
belowstyle
beluga
ben
benavente
benedict
benedikt
benediktsson
benfro
bengal
bengalensis
bengt
beni
benito
benjami
benjamin
bennett
bennettii
benny
bentinck
benz
beo
bep
ber
bera
berdiansk
berdychiv
bereslavka
berg
bergamo
bergen
bergius
bergman
bergson
bergstro
berkeley
berkenbru
berlin
berlinstadt
berlusconi
bermeo
bermuda
bern
bernadette
bernard
bernardo
bernburg
berne
bernhard
berri
berry
bert
bertie
bertil
bertioga
bertram
bertrand
berwick
berzelius
besanc
best
besti
bestrank
beta
betancur
bethlehem
better
betula
between
betws
beul
beulaibh
beum
beurla
beus
beverley
beverly
bey
beyond
bg
bh
bha
bhac
bhacadh
bhacais
bhach
bhachd
bhad
bhaden
bhaffin
bhaich
bhaidh
bhaidhean
bhaidhearn
bhail
bhaile
bhaileintin
bhailte
bhailteachd
bhailtean
bhailteil
bhain
bhainidh
bhainis
bhainne
bhaintighearna
bhair
bhairt
bhais
bhaist
bhaisteach
bhaisteadh
bhal
bhalach
bhaladh
bhalg
bhalgaidh
bhall
bhalla
bhallach
bhallrachd
bhaltach
bhaltaich
bhaltair
bhaltos
bhamako
bhan
bhana
bhanaltram
bhanbh
bhanca
bhancair
bhancu
bhann
bhanna
bhannan
bhanntachd
bhanrigh
bhaoghail
bhar
bharach
bharail
bharailean
bharanachd
bharbhais
bharcelona
bhard
bharganachadh
bharr
bharra
bharrachd
bharraigh
bhart
bhartach
bhartachd
bhartaich
bhasel
bhasgach
bhasgais
bhatacain
bhatail
bhatain
bhatarsaigh
bhathair
bhathama
bhathar
bhathas
bhautzen
bhayern
bhbc
bhe
bhea
bheachd
bheachdachadh
bheachdan
bheactar
bheactaran
bheag
bheaga
bheagain
bheagan
bheairt
bheairteach
bheairtean
bhealach
bhealaich
bhealaruis
bhean
bheann
bheanntan
bhearaig
bheart
bheartach
bheartas
bheasantian
bheastraigh
bheataireachd
bheatha
bheathach
bheathaich
bheathaichean
bheathain
bheil
bheilear
bheilg
bheiniseala
bheinn
bheir
bheireadh
bheirear
bheireas
bheirsinn
bheithe
bheo
bheothachadh
bhergen
bherkeley
bherlin
bhern
bheul
bheulaibh
bheurla
bheus
bhghlas
bhi
bhiadh
bhicto
bhictoria
bhideo
bhideothan
bhidio
bhiet
bhig
bhile
bhilean
bhinn
bhinnean
bhioball
bhioctoria
bhiodh
bhionsant
bhiorach
bhios
bhirginia
bhirmingham
bhite
bhith
bhitheadh
bhithear
bhitheas
bhla
bhlachd
bhlain
bhlan
bhlanach
bhlanaich
bhlas
bhliadhna
bhliadhnachan
bhliadhnaichean
bhliadhnail
bhloigh
bhloighean
bho
bhochd
bhocsa
bhocsair
bhodach
bhoden
bhodhaig
bhog
bhogha
bhogota
bhogsa
bhoid
bhoilibhia
bhoireann
bhoireannach
bhoireannaich
bholca
bholi
bhologna
bhon
bhonn
bhonnaich
bhordeaux
bhorgh
bhoston
bhoth
bhothan
bhp
bhpa
bhra
bhradain
bhraidh
bhrain
bhraisil
bhran
bhrandenburg
bhraoin
bhraona
bhratach
bhrath
bhre
bhreac
bhreatainn
bhreatann
bhreatannach
bhreatannaich
bhreith
bhreitheamh
bhremen
bhri
bhric
bhrigeadh
bhris
bhriseadh
bhrist
bhriste
bhristeadh
bhritheamh
bhriuthainn
bhro
bhroinn
bhrosnachadh
bhrosnachaidh
bhrosnaich
bhrothaig
bhru
bhruach
bhruachaidh
bhruaich
bhruich
bhruid
bhruidhinn
bhruis
bhruiseal
bhruthaich
bhu
bhuachaille
bhuachair
bhuaidh
bhuail
bhuailte
bhuain
bhuaipe
bhuairidh
bhuaithe
bhualadair
bhualadh
bhualaidh
bhuam
bhuan
bhuanaich
bhuannachadh
bhuannachd
bhuannaich
bhuapa
bhucaramanga
bhucharest
bhuia
bhuidhe
bhuidhean
bhuidheann
bhuidhinn
bhuidhne
bhuidhnean
bhuidseach
bhuidseachd
bhuil
bhuileachadh
bhuilich
bhuill
bhuin
bhuineadh
bhuineas
bhuinn
bhuinneadh
bhuinneas
bhuirgh
bhun
bhunait
bhunaiteach
bhunta
bhur
bhus
bhusaichean
bhutan
bi
biadh
biadhtach
bialik
bian
biast
biastagan
biastan
biała
bible
bibliography
biblioteca
bibliothe
bidean
biden
bidh
bidhe
bidhis
bieber
bifro
big
bige
bigear
bihan
bihor
bila
bilbao
bilberry
bilbo
bildt
bildungsroman
bile
bileag
bilean
bili
biliashivskiy
bilingual
bilkis
bill
billean
billed
billia
billiard
billion
billy
biloxi
bin
bingen
binn
binnean
binneas
binnein
biocas
biodag
biodh
biografi
biographical
biographie
biography
biology
bior
biorach
bioran
biosmat
bira
birch
bird
birds
birlinn
birmingham
birsay
birth
birthday
bis
bishkek
bishop
bishops
bismarck
bison
bissau
bistrit
bit
bith
bitheadh
bitheagan
bitheanas
bitheanta
bitheantas
bithear
bithidh
biting
bittern
bizkaia
bjarnason
bjarni
bjo
bla
black
blackbird
blackbuck
blackburn
blackfin
blackford
blackie
blacklist
blacklisted
blacklisting
blackwater
blackwell
blackwood
blaenau
blaidneach
blair
blake
blanca
blanco
blank
blar
blas
blastocerus
blazin
bleideir
bleith
blekinge
blenny
bler
blesbok
bliadhn
bliadhna
bliadhnachan
bliadhnaichean
bliadhnail
blica
blico
blind
bliogh
blix
blo
bloca
block
blockade
bloembergen
bloemfontein
blog
bloigh
bloighe
bloighean
blood
bloomington
bloomsbury
blotchnie
blue
bluebuck
blues
bmi
bnf
bo
boadilla
board
boas
boat
bob
bobby
bobolink
bocas
bochanan
bochd
bochda
bochdainn
bocholt
bochum
bocsa
bocsair
bod
bodach
bodaich
boden
bodfari
bodhaig
bodhaige
bodhar
body
boer
boeyens
boff
bog
bogart
bogha
boglach
bogota
bogotazo
bogsa
bogsaichean
bohemia
bohr
bohrium
boilibhia
boireann
boireannach
boireannaich
boisbaudran
bokma
boksburg
bold
bolesław
boleti
boli
bolibar
bolivariana
bolivarianach
bologna
boma
bomaichean
bombus
bombyx
bon
bonaparte
bonar
bonasus
bonaventura
bond
bongo
bonham
bonhoeffer
boniface
bonifacio
bonifatius
bonn
bonnach
bono
bont
bontebok
book
booker
books
boolean
booth
bor
bora
boraraig
borb
borbo
borch
bord
bordeaux
border
bordernet
borders
borealis
borg
borgarnes
borgh
borgstro
boris
bormann
born
bornean
borneo
bororo
borrero
borth
borðeyri
bos
bosa
bosch
bosco
boselaphus
bosley
bosna
bosnia
boson
bostoin
boston
boswell
bot
botail
botal
botero
both
botha
bothaich
bothan
botos
botsuana
bottlenose
bottom
boulder
boulevard
boulogne
bound
bourbon
bourgeois
bourgogne
bournemouth
bovary
bow
bowhead
box
boxer
boxtable
boxtype
boy
boyaca
boyack
boyd
boydell
boyer
boyle
boys
bp
bpa
bpt
br
bra
brabant
brabhsair
bracaist
brachadh
brachyurus
bracketed
brackets
brad
bradain
bradan
bradford
bradh
bradley
brae
braemar
braes
brahe
braisil
braisileach
bran
branch
brandenburg
brando
brandt
branta
branting
braonan
bras
brasi
brasil
brasiliensis
brat
bratach
brataich
brataichean
bratan
brath
brathaidh
bratislava
braunau
brauner
braunschweig
brave
brazilian
brazzaville
bre
breabach
breabadair
breac
breacaidh
breacais
breacan
breach
breadhaig
break
breasted
breatainn
breatainne
breatainneach
breatann
breatannach
breatannaich
breatannais
breathan
breatuinn
brecqhou
breda
breisgau
breith
breithe
breitheamh
breithean
breithneachadh
breithneachail
breithniche
bremen
bremerhaven
brendan
brennan
brentwood
bres
breslau
brest
breton
breugach
breugan
brewer
brewery
brewster
brexit
brezhnev
brezhneva
bri
bria
brian
brianann
briathar
briathrachais
briathrachas
briathran
bric
brice
bride
bridge
bridgeport
bridgetown
brief
briefe
brigantia
briggs
brigh
brighton
brill
brillean
briog
briogais
brisbane
briseadh
brisg
briste
bristol
britain
britannica
brith
britheamh
britheamhan
british
brittonic
brno
bro
broad
broc
broch
brocket
brod
broilleach
broinn
broinne
broken
bronn
bronte
brood
brook
brookfield
broom
brosnachadh
brosnachaidh
brot
brother
brothers
brough
brought
brown
browski
bru
bruach
bruachan
bruadar
bruaich
bruaichean
bruce
brueghel
brugge
bruich
bruid
bruidhinn
bruijnii
bruis
bruiseal
brunel
brunneria
bruno
brunswick
brus
brusach
brussels
bruthach
bruthaich
bruthaichean
bruxelles
bryan
bryce
bryn
brynjo
brønsted
bs
bte
bu
buabhall
buachaille
buachair
buadhach
buadhaiche
buadhair
buadhan
buaidh
buaidhean
buain
buaireadh
bualadh
bualaidh
buan
buannachadh
buannachd
buannachdan
buannaiche
buannaichean
bubal
bubalis
bubalus
bubo
bucaramanga
bucha
buchach
buchan
buchanan
bucharest
buchner
buck
buckley
budapest
budde
buddha
buddhachd
buddhist
buddy
bude
budorcas
budys
buen
buenaventura
buenos
buffalo
buffer
bug
buga
bugs
bui
buidhe
buidheag
buidhean
buidheann
buidheannan
buidhinn
buidhne
buidhnean
buidseachd
buidseat
buidsichean
buidsidh
buil
build
building
buildings
buileach
buill
buille
built
builtin
buin
buineadh
buinidh
buinn
buinneadh
buircina
buiri
bujumbura
bulga
bulgakov
bull
bulletin
bumblebee
bun
bunachas
bunadas
bunaichte
bunait
bunaiteach
bunan
bunasach
bundesamt
bundesarchiv
bunin
bunker
bunsen
bunta
buntainn
bunting
bureau
burg
burgess
burgh
burghs
burgos
burhou
burke
burkina
burlington
burma
burman
burmeister
burn
burnell
burnham
burns
burr
burra
burras
bursa
burundaidh
bus
busaichean
buselaphus
bush
business
buske
but
buta
butastur
butenandt
buteo
buthaid
butler
butt
butterfly
buxtoni
buza
buzz
buzzard
bwrdeistref
by
bydgoszcz
byrne
byron
byte
byzantium
c
ca
caama
cabal
caballero
cabar
cabassous
cabha
cabhcas
cabhcasach
cabhlach
cabhsair
cabhsairean
cabral
cac
cachd
cachdan
cadail
cadair
cadal
cadell
cadha
caecilius
caen
caer
caerdydd
caerffili
caerfyrddin
caergybi
caerlaverock
caernarfon
caesar
caesium
cafaidh
cafe
cafetero
caffer
cagney
cahors
caibeal
caibideil
caibineat
caibineit
caibineitean
caicedo
caid
caidreabhaich
caidreabhas
caidreachais
caidreachas
cailc
caile
caileag
caileagan
cailean
cailein
caill
cailleach
cailleachag
cailleachan
cailleanach
cailleann
caillte
cailtidh
caimbeul
caimbeulaich
cain
caineal
caingisich
cainn
cainneach
cainnt
cainnte
caiptean
cair
caird
caire
caireachd
cairean
cairgean
cairibianach
cairisti
cairn
cairo
cairt
cairte
cairteal
cairtealan
cairtean
cais
caise
caisead
caislea
caismeachd
caisteal
caistealan
caisteil
cait
caitheamh
caitheimh
caithness
caithte
caitliceach
caitligeach
caitligich
cala
caladar
caladh
calafo
calais
calandra
calasraid
calavie
calcium
calculator
caldas
caldero
caldwell
caledonia
caledonian
calendar
calf
calg
calgary
cali
calicut
calidris
california
call
callaghan
calle
called
calling
calls
calltainn
calman
calpa
calpachas
calpe
caltech
calum
calvin
calvo
calw
cam
camanachd
camara
camargo
camaro
camarun
camas
cambodia
cambridge
cambuidea
came
camel
camels
camelus
cameron
cameroon
cami
camille
camillo
camilo
camino
camo
camp
campa
campachadh
campaichean
campaign
campamento
campas
campbell
campestris
campinas
campo
campoalegre
campos
campus
camshron
camshronaich
camus
can
cana
canada
canadach
canadensis
canadh
canadian
canadianach
canaich
canaidh
canaigh
canal
canale
canan
cananaich
canar
canaria
canberra
cancer
candelaria
candiacervus
cane
canetti
canis
canmore
cannabina
cannes
cannich
cannon
cannot
cano
canolfan
canon
canongate
canorus
canta
cantabria
cantainn
cantal
canterbury
canto
canton
cantonais
cantone
cantos
canu
canvas
caochladair
caochladairean
caochladh
caochlaideach
caochlaidhean
caoil
caoile
caoin
caoineadh
caol
caola
caolas
caomh
caora
caorach
caoraich
caorainn
caorann
caothaich
cap
capall
cape
capercaillie
capital
capitalism
capra
capreolus
captain
caption
caqueta
car
caracal
caracas
caracol
caractar
caractarachd
caractaran
caraibeach
caraid
caraidean
caran
carann
carbad
carbadan
carbaid
carbo
carbon
carbost
carcassonne
carco
cardiff
cardinal
carducci
carduelis
care
carel
carey
cargo
caribbean
caribou
carice
carius
carl
carlaw
carle
carlisle
carlo
carlos
carlsson
carmarthen
carme
carmen
carmichael
carmina
carn
carnegie
carnie
caro
carol
carolina
caroline
carpenter
carps
carr
carragh
carraig
carraighean
carrainn
carrann
carrasquilla
carren
carrick
carrie
carrion
carron
carson
cartagena
cartas
carter
cartesach
cartography
cartu
cary
cas
casa
casablanca
casach
casachsta
casachstan
casaid
casaidean
casan
casares
cascade
case
cases
casg
cash
casnewydd
caspach
caspian
casquets
cassowaries
cassowary
cast
castel
castell
castello
castile
castilla
castillo
castle
castries
castro
castrum
casuarius
caswell
cat
catach
cataibh
catailis
catalais
catalana
catalanais
catalina
catalo
catalog
catalogue
catalonia
catalunya
catan
catar
catedral
categoria
categories
categorisation
categorise
categorize
categorizes
categorizing
category
categoryhandler
cath
catha
cathag
cathair
cathaireil
cathal
cathan
catharra
cathartes
cathcart
cathedral
catherine
catholic
cathrach
cathraiche
cathraichean
cathy
cato
catopuma
catri
catriona
cats
cattle
cauca
caucasian
caucasica
caudatus
causa
cause
causes
cave
cavendish
caycedo
cayenne
cb
cbda
cc
cd
cdot
cdtrax
ce
cea
cead
ceadachas
ceadaichte
cealla
ceallan
cealsach
ceana
ceanadach
ceangail
ceangailte
ceangailtean
ceangal
ceanglaichean
ceann
ceannach
ceannachd
ceannadach
ceannaich
ceannaiche
ceannaichean
ceannairceach
ceannaircich
ceannard
ceannardan
ceannardas
ceannas
ceannsachadh
ceannsaiche
ceannsaichean
ceap
ceapaich
cearbhalla
cearc
cearcaill
cearcall
cearcallan
cearclach
cearra
cearrara
ceart
ceartais
ceartas
ceatharlach
ceathrad
ceathramh
ceathramhnan
ceathrar
ceathru
ceaus
cecil
cecilia
cedar
cef
cefet
cefn
ceic
ceilbhinn
ceileiriche
ceilidh
ceilt
ceilteach
ceiltich
ceiltis
ceimigeach
ceimigeachd
ceimigear
ceimigearan
cein
ceinia
ceist
ceisteach
ceistean
ceit
ceitean
ceiteirein
ceithear
ceithir
ceithreamh
ceitidh
ceja
cela
cell
cellar
celli
celsius
celt
celtic
celtica
celticae
celticum
celts
census
cent
center
centraal
central
centralbyra
centre
centro
centru
centuries
century
cenus
ceo
ceol
ceolto
cephalophus
ceratotherium
cerdocyon
ceredigion
ceres
cerium
cern
cerro
certain
certificate
cervantes
cervicapra
cervidae
cervus
cesar
cesena
ceud
ceudad
ceudan
ceudna
ceum
ceuman
ceumannan
ceumnachadh
ceusair
ceuta
ceylon
cf
cfb
cfg
cfrac
ch
cha
chabha
chabhalaich
chabhlach
chabhlachd
chabhlaich
chaco
chadal
chadh
chadha
chaetophractus
chaibineit
chaid
chaidh
chaidreachais
chaidreachas
chaidreamhach
chaileag
chaileig
chailein
chaill
chailleach
chailleadh
chailleann
chailleannach
chaim
chaimbeul
chainn
chainneir
chainnigh
chainnt
chainntean
chaiptean
chair
chairibi
chairibianach
chairo
chairt
chairtbheil
chairte
chairtean
chais
chaislea
chaisteal
chaisteil
chaith
chaitheamh
chaitheas
chaitligeach
chaitligich
chala
chaladain
chalafo
chalanais
chalfie
chali
chalifornia
chall
challdainn
chalmers
chaluim
chalum
chamais
chamara
chamas
chamber
chamberlain
chambers
chambridge
chamois
champa
champagne
chamshron
chan
chana
chanada
chanadh
chanaich
chanaigh
chanal
chananaich
chanar
chanas
chandelaria
chane
change
changed
changing
channan
channel
chanso
chantainn
chantilly
chaochail
chaochladh
chaoidh
chaoil
chaol
chaolais
chaolas
chaorach
chaoraich
chaorainn
chaparral
chapel
chaplin
chapman
chapter
chapterformat
chapterurl
char
charachtair
charactair
charactar
charactaran
character
characters
charadrius
charaibeach
charaid
charaidean
charan
charbad
charbaid
chardin
charentes
charles
charleston
charlie
charlotte
charlton
charolina
charragh
charraig
chart
charter
chartres
chartreuse
charts
chas
chasach
chasaid
chasaidean
chasan
chasg
chastilla
chat
chataibh
chatalo
chath
chatha
chathair
chathaireil
chatham
chatharra
chathraiche
chauca
chauvin
chaux
chd
chdas
che
chea
chead
cheadaich
cheagailte
cheal
cheall
chean
cheana
cheangail
cheangailte
cheangal
cheanglaichean
cheanglas
cheann
cheannach
cheannachadh
cheannachd
cheannaich
cheannard
cheannardan
cheannas
cheannsachadh
cheannsaich
cheap
cheape
chearcaill
chearcall
chearsabhagh
cheart
cheartachadh
cheartais
cheartas
cheathaich
cheatharlach
cheathramh
cheathru
check
checking
checks
checktype
checkvalue
cheetah
cheil
cheilbhinn
cheilteach
cheiltich
cheiltis
cheimigeach
cheimigeachd
cheimigear
cheinia
cheist
cheistean
cheithir
chelbhinn
chelpin
chelsea
chemistry
chemnitz
cheo
chepman
cher
cherbourg
cherkaska
cherkasy
chernihiv
chernihivska
chernivetska
chernivitsi
chernivtsi
chesapeake
chester
chesterton
cheud
cheudna
cheum
cheumnaich
cheusair
chi
chiad
chiall
chiallachadh
chian
chiar
chiarain
chiarrai
chibcha
chicago
chichester
chicken
chidhe
chief
chiesa
chigi
child
children
chile
chilean
chilemeatair
chill
chille
china
chinchilla
chinensis
chinese
chinkara
chinn
chinne
chinneadh
chinneas
chinnidh
chinnidhean
chinnteach
chinntinn
chion
chionn
chionns
chiontach
chiosmuil
chip
chipping
chis
chisholm
chiste
chitaga
chitheadh
chithear
chiu
chla
chlach
chlachain
chlachair
chlachan
chladach
chladaich
chladh
chlaidheimh
chlais
chlamhain
chlann
chlas
chlasaichean
chlasaigeach
chle
chleachadh
chleachd
chleachdadh
chleachdaidh
chleachdar
chleachdas
chleas
chleasaiche
chleasaichean
chli
chliaid
chlis
chliu
chlo
chloich
chloiche
chloichridh
chloinn
chloinne
chloris
chluaidh
chluais
chluanaidh
chluasach
chlub
chluich
chluiche
chluicheadair
chluicheadairean
chluicheadh
chluichean
chluinntinn
chna
chneagaidh
chno
chnoc
chnocain
chnuic
cho
chobhan
choco
choconta
chod
choeradodis
chofaidh
chogadh
chogaidh
chogaidhean
choice
choilean
choileanadh
choill
choille
choilltean
choimheach
choimhead
choimhearsnachd
choimisean
choimiseanaich
choimisein
choimpiutair
choimpiutaireachd
choimpiutairean
choin
choineagan
choinneachadh
choinneamh
choinneimh
choinnich
choirce
choire
choireach
choireigin
chois
choise
choiseachd
choisich
choisinn
choisneadh
choitcheann
choitchinn
cholaiste
cholchester
cholla
chologne
choloimbia
cholonachadh
cholonaidh
cholonaidhean
choltach
choltais
choltas
choluim
cholumbia
chom
chomainn
chomann
chomannd
chomas
chomasach
chomasan
chomataidh
chomhair
chomhairle
chomhairleachadh
chomhairliche
chomharra
chomharrachadh
chomharradh
chomharraich
chomharraicheadh
chomharran
chomhghain
chomoro
chompanaich
chompanaidh
chompanaidhean
chomraich
chomsky
chomuinn
chomunn
chomunnaich
chonaill
chonainn
chonakry
chonaltraidh
chongo
chongqing
chonnacht
chonnadh
chonnrag
chonnspaideach
chontae
choose
chopenhagen
chopin
chor
chorcai
chorcaigh
chordata
choro
chorp
chorporra
chorr
chorra
chorrain
choru
chosg
chosnadh
chosta
chothrom
chothromach
chothromachaidh
chothromachd
chothroman
chough
chr
chra
chraiceann
chraicinn
chran
chrann
chraobh
chraobhan
chraoibh
chraoladair
chraoladh
chrasgaidh
chre
chreach
chreachadh
chreachaidh
chreag
chreagach
chreagan
chreid
chreideadh
chreideamh
chreideamhan
chreideimh
chreidimh
chreidmheach
chreidsinn
chreig
chri
chridh
chridhe
chridheil
chriom
chrios
chriosach
chriost
chriostail
chriostal
chris
christ
christer
christi
christiaan
christian
christianity
christie
christina
christine
christmas
christoph
christopher
chrith
chro
chrochadh
chrodh
chrois
chroit
chroitearachd
chroitearan
chrom
chromba
chrombaidh
chrombaigh
chronicle
chronicles
chru
chruaidh
chruidh
chruinn
chruinne
chruinneachadh
chruinneachaidh
chruinneachaidhean
chruinnein
chruinnich
chruithneach
chruth
chruthach
chruthachadh
chruthaich
chruthaicheadh
chruthaicheas
chrysaetos
chrysocyon
chryston
chrzano
chu
chuaich
chuain
chuairt
chuairteachadh
chuairtich
chuala
chualann
chualas
chuan
chuartachadh
chuartachaidh
chubhait
chubut
chudromach
chudromaiche
chudthromach
chudthromaiche
chuibheasach
chuibhle
chuid
chuideachadh
chuideachd
chuideam
chuidean
chuidich
chuidiche
chuidir
chuil
chuileag
chuileagan
chuilinn
chuiltheann
chuilthinn
chuimein
chuimhne
chuimhneachadh
chuimhneachain
chuimhneachan
chuimreach
chuimrigh
chuimris
chuimseach
chuinnidh
chuip
chuir
chuireadh
chuirear
chuireas
chuirm
chuirp
chuis
chuisle
chuithbeirt
chulaibh
chultair
chultar
chultarach
chultarail
chultaran
chum
chumadh
chumaidhean
chumail
chumanta
chumantas
chumas
chumberland
chumhachd
chumhachdach
chumhachdaile
chumhachdan
chumhaing
chun
chunbhalach
chungaidhean
chunnacas
chunnaic
chunnart
chunntadh
chunntais
chunntas
chupa
chur
churaidh
church
churches
churchill
churitiba
chuspair
chuspairean
chuthag
chuthaich
ci
cia
ciad
ciall
ciallachadh
ciamar
cian
cianalas
cianjur
ciar
ciara
ciarrai
cicero
cichlids
ciconia
cid
cidades
cidhe
ciechanover
cien
cienti
cileameatair
cilemeatair
cilemeatairean
cill
cille
cina
cincinnati
cinclus
cinema
cinerea
cingoli
cinn
cinne
cinneachdach
cinneadh
cinneide
cinnidh
cinnidheachd
cinnidhean
cinnt
cinnteach
cinntinn
ciod
cion
cionn
ciontach
ciorramaich
cipriano
circ
circa
circle
circuit
circus
cirileach
cirillach
cisneros
ciste
cisteachan
citadel
citation
citationclass
citations
cite
citeparams
citeq
citeweb
cities
citrinella
citroe
citta
citty
city
ciu
ciudad
ciuil
ciutat
ciutha
civil
civilizations
ck
cken
cl
cla
clach
clachain
clachair
clachan
cladach
cladaich
cladaichean
cladh
cladhach
cladhan
clag
claid
claidheamh
claigeann
claim
claimcommands
claims
claire
clais
claise
clamhan
clan
clancy
clangula
clann
clannad
claon
claonadh
claonaig
clar
clara
claran
clare
clark
clarke
clarkei
clas
clasach
clasaichean
clasaigeach
clasan
clases
clash
class
classes
classic
classical
classified
classora
claude
claudia
claudius
clav
clawed
claye
clayton
cle
cleachadh
cleachdach
cleachdadh
cleachdaiche
cleachdaichean
cleachdaidh
cleachdaidhean
cleachdar
cleachdte
cleamhnas
cleannumber
cleap
clear
clearance
clearances
cleas
cleasachd
cleasaiche
cleasaichean
cleasan
clemens
clement
cleo
cleopatra
clerk
clermont
cleve
clevedon
cleveland
clg
cli
cliabhaireachd
cliath
cliatha
cliffs
clilstore
climate
climbing
clint
clinton
cliu
clive
clo
clogaid
cloich
cloiche
cloinn
cloinne
close
closer
closeup
cloud
clouded
clough
cluaidh
cluain
cluainidh
cluanaidh
cluaran
cluasan
club
clubaichean
cluich
cluiche
cluicheadair
cluicheadairean
cluichear
cluichidh
cluichte
cluinnear
cluinntinn
cluj
clyde
clydesdale
cm
cn
cna
cnag
cnap
cnapadal
cnapan
cnd
cnf
cnn
cno
cnoc
cnocan
cnuic
cnuimh
co
coal
coast
coastal
coat
coatbridge
coauthors
cobar
cobhair
coburg
coc
coca
coccothraustes
cocorna
cocuy
cod
coda
codaichean
code
codes
codex
coed
coelebs
coetzee
cofaidh
cogadh
cogaidh
cogaidhean
cogais
cohen
coigreach
coigrich
coilea
coileach
coileachan
coileanta
coill
coille
coillte
coilltean
coilltearachd
coimbra
coimeas
coimeasach
coimeasta
coimhead
coimhearsnachd
coimhearsnachdan
coimisean
coimiseanair
coimpiutair
coimpiutaireachd
coimpiutairean
coin
coineagan
coineanach
coinneach
coinneachadh
coinneamh
coinneamhan
coinneimh
coinnich
coinnigh
coins
coir
coirbeachd
coirce
coire
coirea
coireach
coireachan
coireall
coireaman
coirean
coireo
cois
coisce
coise
coiseachd
coisichear
coisrigte
coitcheann
coiteachadh
coitir
coke
cokii
col
cola
colaisde
colaisdean
colaiste
colaistean
colbh
colbhan
colbhasa
colchester
colchicus
cold
coldingham
cole
colegio
colin
coll
colla
collapse
collared
collaris
collect
collected
collection
collections
college
collie
collins
colm
cologne
coloimbia
coloimbiach
coloimbiadu
coloimbianach
cololmbia
colombey
colombia
colombialeabharlann
colombian
colombiana
colombiano
colombianos
colombo
colon
colonaidh
colonaidhean
colonel
colonia
color
colorado
colors
colspan
coltach
coltachadh
coltachd
coltaiche
coltais
coltas
coltejer
coltraiche
coluim
colum
columba
columbarius
columbia
columbus
com
coma
comadaidh
comaig
comainn
comais
comann
comannach
comannachd
comannaich
comannaichte
comannan
comar
comas
comasach
comasan
comataidh
comataidhean
combat
combined
come
comh
comhachag
comhainn
comhair
comhairle
comhairleachadh
comhairlean
comhairliche
comhairlichean
comhann
comharra
comharrachadh
comharrachaidhean
comharradh
comharraich
comharraichte
comharraidhean
comharran
comhdha
comhla
comhlan
comhnard
comhstri
coming
comitatus
command
comments
commercial
commission
common
commons
commonwealth
commune
communis
communist
communities
community
como
companach
companaidh
companaidhean
companion
company
companys
comparative
compared
comparison
comple
complete
complex
compostela
comprehensive
compton
computer
comraich
comte
comunidad
comunn
comunnach
comyn
con
cona
conakry
conall
conaltradh
conaltraidh
conan
conas
conbhairean
concat
concatenated
concepcio
concert
concha
conchobhar
conco
concolor
concord
concurrence
condor
conf
conference
conferenceurl
confessions
config
configuration
configured
conflict
cong
conga
congo
congress
conjunction
conn
connacht
connadh
connaidh
connecticut
connections
connery
connochaetes
connor
connrag
connragan
connsachadh
connspaid
connspaideach
conon
conquest
conrad
conradh
consairt
consan
consciousness
conservatoire
consider
considered
constable
constance
constant
constantin
constantine
constantinople
constitucio
construction
consult
contae
contain
containing
contains
content
contents
contes
conti
continental
continue
contra
control
convention
conventions
conversion
convert
converted
converting
conway
conwy
cook
cooper
coord
coordinate
coordinates
coordinatespec
copacabana
copar
cope
copenhagen
copernicus
copley
copy
copytable
cor
cora
coracle
coral
corax
corbett
corbijn
corbusier
corbyn
corcaigh
cordillera
corg
corinto
corleone
cormack
corn
cornelis
corneliu
cornell
corner
cornforth
cornish
coro
corona
corone
corp
corpas
corpeo
corporation
corporra
corpus
corr
corra
corrachadh
corrag
corran
correa
correct
corresponding
corsac
corse
corsican
corte
cortes
coru
corun
corvus
cos
cosagach
cosg
cosgadh
cosgail
cosgais
cosgaisean
cosmology
cosnadh
cosnaidh
cosnaidhean
cosobho
costa
costner
cot
cotan
cothlamadh
cothrom
cothromach
cothromachaidh
cothroman
cotonou
cottage
cottbus
coturnix
could
council
count
counter
counties
countnotempty
countries
country
countryside
county
coup
courier
course
court
courtney
courts
couters
cove
coventry
covid
cow
cowan
cowboy
cowdenbeath
cowdery
cox
cra
crab
crabs
craiceann
craicinn
craig
craigie
crain
craiova
crake
cram
cramer
crane
cranes
crangon
crann
craobh
craobhan
craoibh
craoibhe
craoladair
craoladairean
craoladh
craolaidh
craskie
crawford
crayfish
cre
creach
creachadairean
creachaidh
creachan
creag
creagach
creagan
create
created
creative
creek
creideamh
creideamhach
creideamhan
creideas
creideimh
creididh
creidimh
creidsinn
creig
creige
creimiche
creole
crested
cretensis
creutair
creutairean
crevichon
crex
cri
criadh
crichton
crick
cricket
crickets
cridhe
crime
crimea
criogaid
criomagan
crios
criostal
criostalan
criquet
crisis
crispus
cristatus
cristo
cristoforo
crith
crithean
critical
criticatac
cro
croa
croatais
crochadh
crochte
crodh
croft
crofters
crofting
croichte
croinn
crois
croise
croisean
croit
croitean
croitear
croitearachd
croitearan
croix
crom
cromadh
cromarty
cromba
cromwell
cron
crona
cronin
crop
cropped
cros
cross
crossarchus
crossbill
crosses
crossing
crotach
crotal
crothaidh
crow
crowe
crowfoot
crowley
crown
cru
cruach
cruachan
cruadal
cruadhtan
cruaidh
cruaidhe
cruidh
cruinn
cruinne
cruinneachadh
cruinneachaidh
cruinneachaidhean
cruinneadaireachd
cruinniche
cruinnichte
cruit
cruithneach
cruithneachd
cruithnich
cruth
cruthach
cruthachadh
cruthachaidh
cruthachail
cruthaich
cruthaicheadh
cruthaichte
cruthan
crutzen
cruyff
cruz
cryptolithodes
crystal
cs
csa
css
csstext
ct
ctor
cu
cuach
cuacos
cuaich
cuaigearan
cuain
cuairt
cuairtchearcall
cuairteachadh
cuairtean
cuairtear
cuan
cuantamach
cuantan
cuaraidh
cuaraidhean
cuartachadh
cuartas
cuasach
cuasai
cuba
cubhait
cuckoo
cuculus
cucunuba
cudromach
cudromaiche
cudthrom
cudthromach
cudthromaiche
cuenca
cuervo
cugallach
cuibheas
cuibheasach
cuibheasachd
cuibhle
cuibhlichean
cuibhreann
cuid
cuide
cuideachadh
cuideachaidh
cuideachd
cuideam
cuidean
cuideigin
cuidhteas
cuil
cuilags
cuilc
cuilce
cuileag
cuileagan
cuilean
cuileann
cuilidh
cuilinn
cuillin
cuiltheann
cuimhne
cuimhneachadh
cuimhneachan
cuimreach
cuimrich
cuimrigh
cuimris
cuin
cuine
cuingealach
cuir
cuireadh
cuirear
cuiridh
cuirm
cuirmean
cuirp
cuisean
cuisle
cul
culaidh
culaidhean
culicoides
cullen
cultair
cultar
cultarach
cultarail
cultaran
cultura
culturach
culturail
cultural
culture
cum
cumadair
cumadh
cumaidh
cumaidhean
cumail
cumann
cumanta
cumantan
cumar
cumaradh
cumberland
cumha
cumhachd
cumhachdach
cumhachdail
cumhachdan
cumhang
cumhnant
cumnag
cumnaig
cunbhal
cunbhalach
cunbhalan
cundinamarca
cungaidh
cungaidhean
cunha
cunnart
cunnartach
cunnartan
cunningham
cunnradh
cunntadh
cunntais
cunntas
cunntasachd
cunntasan
cuon
cup
cupa
cupal
cupannan
cupar
cur
curac
curaidh
curcuma
curie
curitiba
curium
curl
curlew
currach
current
currie
curstate
curtis
curvirostra
cus
cuspair
cuspairean
custom
cut
cuta
cuthag
cuthaig
cuthaige
cuthbert
cuvier
cuvieri
cuza
cv
cwm
cy
cycle
cygnus
cymraeg
cymru
cynictis
cynon
cypriniformes
cyr
cyril
cyrillic
cyrus
czesław
cœur
d
da
dab
dabeiba
dabhach
dach
dachaigh
dachaighean
dachannan
dachas
dachau
daci
dacia
dad
dada
daddy
dadh
dafydd
dag
dagbladet
dagua
dahlstro
daibhidh
daich
daichean
daidh
daidhean
daig
daigearraidh
dail
daily
daimh
dain
daingeann
daingneach
daingneachadh
daingnichte
dair
daire
dais
daisean
daisy
dakar
dakota
dal
dalach
dalai
dalberg
dale
dali
dall
dallas
dalrymple
dalton
dam
dama
damaichean
damaliscus
damascus
dame
damh
damhair
damien
dammah
dan
dana
danann
dance
dancing
danderyd
dane
daniel
danmarks
danmhairg
danmhairge
danmhairgeach
danmhairgis
dannsa
dannsadh
dannsaichean
dannsaidh
dannsair
dannsairean
danny
dans
dansk
danske
dante
danu
danube
danzig
daoine
daolag
daolagan
daon
daonna
daonnan
daor
daphne
dar
dara
darach
daraich
daralba
darby
dari
dario
dark
darkgrey
darling
darmstadt
darna
darnley
darra
darrach
darras
dartford
darwin
das
dasht
dasypus
data
database
datacell
dataid
dataset
datastyle
datatype
datavalue
date
dateformat
dates
dath
datha
dathach
dathachadh
dathachd
dathadair
dathaichean
dathan
dathte
dau
dave
davi
david
davidson
davie
davies
davis
davor
davy
dawn
dawson
day
days
dayton
db
dc
dd
ddinbych
ddr
ddu
de
dea
deach
deachdaire
deachdaireachd
deacon
dead
deadurl
deagh
deal
dealachadh
dealachaidh
dealaichte
dealain
dealan
dealanach
dealanachd
dealas
dealasach
dealbh
dealbhachadh
dealbhachaidh
dealbhachd
dealbhadair
dealbhadairean
dealbhadh
dealbhag
dealbhaiche
dealbhaichte
dealbhaidh
dealbhan
dealgan
dealing
deamach
deamaich
deamocrasaidh
deamocratach
dean
dear
dearbh
dearbha
dearbhadh
dearbhaidh
dearbhair
dearbhte
dearc
dearcan
dearcmhara
dearg
dearga
deargan
deas
deasach
deasachadh
deasachaidh
deasaiche
deasaichean
deasaichte
deasail
deasbad
deasbadan
deasbaid
deasgabhalach
deatach
deatamach
death
deathan
debije
deborah
debreu
debug
debye
dec
decade
december
decimal
decimalprecision
deckers
decode
deep
deer
default
defaultkey
defaults
defaultseparators
defeat
define
defined
deg
degree
degrees
dei
deich
deichead
deicheadan
deicheamh
deichnear
deidh
deidheadh
deidhinn
deigh
deighe
deigheadh
deilbh
deilbhear
deiligeadh
deimhidh
deimhinne
deimhinnte
deirdre
deireadh
deireannach
deirg
deiridh
deis
deise
deiseal
deiseil
deisenhofer
dej
del
delaware
deledda
delescluze
deletant
delft
delhi
dell
della
delta
dem
democratic
demospace
den
denbighshire
dendrocopos
denis
dennis
dent
denver
deo
deoch
deochan
deogracias
department
depend
dependencies
depending
dependvalue
deportivo
deprecated
depressicornis
der
derbianus
derby
derbyshire
derek
derick
dermanlands
deroplatys
derry
des
description
descriptions
desert
desiderius
desired
dessau
destatis
destruction
det
detail
details
detect
detected
determine
determines
detmold
detroit
deuchainn
deuchainnean
deug
deugaire
deugan
deutsch
deutsche
deutschen
deutscher
deutsches
deutschland
deux
deva
developing
development
deventer
devil
devils
devine
devon
dewar
dh
dha
dhabi
dhach
dhachaidh
dhachaigh
dhachd
dhaibh
dhaibhidh
dhaich
dhaigh
dhail
dhaingneach
dhaingneachadh
dhaingnich
dhais
dhakar
dham
dhan
dhaoine
dhaoineachadh
dhaonna
dhas
dhasach
dhasaich
dhasan
dhathan
dhe
dhea
dheachdaire
dheadhain
dheadhan
dheagh
dhealachadh
dhealachaidhean
dhealaich
dhealaichte
dhealain
dhealbh
dhealbhachadh
dhealbhadair
dhealbhadh
dhealbhaich
dhealbhan
dheall
dheamocrach
dheamocrasaidh
dheamocratach
dheanamh
dhearbh
dhearbhadh
dhearbhaich
dhearg
dheas
dheasachadh
dheasachaidh
dheasaich
dheasaiche
dheasaicheadh
dheasaichte
dheathain
dheidheadh
dheidhinn
dheiragain
dheirbh
dheireadh
dheireannach
dheirg
dheis
dhelaware
dhen
dheo
dheth
dheuchainn
dheuchainnean
dheug
dhi
dhia
dhiadhaire
dhill
dhiofar
dhith
dhithis
dhiu
dhiuba
dhiubh
dhle
dhlear
dhleastanas
dhligheachas
dhlu
dho
dhobhrain
dhodoma
dhoiminicia
dhoirbh
dhoire
dhol
dhomh
dhomhnaill
dhonn
dhonnchaidh
dhorcha
dhotair
dhotaireachd
dhra
dhraoidheil
dhreuchd
dhreuchdan
dhroch
dhrochaid
dhrogaichean
dhru
dhruim
dhu
dhuais
dhual
dhualchas
dhubh
dhubha
dhubhadh
dhubhthaich
dhuibh
dhuilleag
dhuilleagach
dhuilleagan
dhuine
dhuinn
dhuinne
dhuit
dhun
dhunle
dhut
di
dia
diabhal
diadhach
diadhachd
diadhaidh
diadhair
diadhaire
diadhaireachd
diagram
dialect
dialects
dian
diana
diardaoin
diardi
diario
diary
diathad
diathan
dibatag
dibhe
diccionario
diciadain
dick
dickens
dickie
dico
dict
dictionarium
dictionary
dictionnaire
did
diderik
dido
didseatach
die
dieckhoff
died
diego
diels
dies
diesel
dieter
dietrich
dieu
differences
different
difir
digby
dighe
digit
digital
digiteach
digits
digitus
dihaoine
dik
dillon
diluain
dima
dimitriu
din
dinger
dingo
dingwall
dinnsear
dio
diobutaidh
diofair
diofar
diofaran
diofraichte
diog
diogan
dioplo
dios
diosg
dir
dirac
direach
direction
directly
directory
dirty
disaster
disathairne
discours
discover
discovery
disp
display
displayed
displaying
displays
distance
distillery
distribution
district
dith
dithis
ditions
diu
diugh
div
divers
diversitate
division
dixie
dixon
diyarbakır
diz
dj
djamena
djibouti
dl
dleasdanas
dleasnasan
dleastanas
dleastanasan
dlighe
dligheach
dlu
dluth
dluths
dm
dmitri
dms
dmstest
dna
dnb
dnipro
dnipropetrovska
do
dobhair
dobhar
dobhrain
dobhran
doc
docha
dochard
doctor
document
documentation
documents
dodoma
does
doesburg
doesn
dog
dogs
doha
doi
doigh
doimhne
doimhneachd
doiminicia
doineann
doirbh
doire
dol
dolair
dolar
dollar
dollfus
dolores
dolphin
dolphins
dom
domain
domanovic
dome
domestic
domestica
domesticus
domhain
domhainn
domhainneachd
domhainnead
domhan
domhnach
domhnaill
domhnall
domhnallach
domingo
dominique
domowina
don
dona
donaidh
donald
donaldson
donau
done
donetsk
donetska
dong
donn
donna
donnain
donnchadh
donnie
donostia
donovan
door
doorley
doors
dorado
doras
dorcas
dorcatragus
dorch
dorcha
dorchester
dordrecht
dorian
doris
dorothy
dorsan
dorset
dortmund
dos
dosgainne
dostoyevsky
dotair
dotaireachd
dotairean
double
dougie
douglas
dove
dover
down
downcase
download
downs
downtown
doyle
dprec
dr
dra
drabasta
dracula
dragh
draghan
dragon
draig
drake
drama
drannd
draoidh
draoidheachd
draoidhean
draoidheil
dre
dreach
dreachan
dream
dreams
dreathan
drenthe
dresden
dresdner
dreuchd
dreuchdail
dreuchdan
dreux
drian
drilseach
dris
drise
driseig
driu
drive
dro
droch
drochaid
drochaide
drochaidean
drogaichean
droichead
droighinn
droighnein
droim
drom
droma
dronaig
dronnach
drowning
dru
drugaichean
druid
druim
druiminn
drum
druma
drumaichean
drummond
ds
dsear
dsm
dt
dtxt
dtype
du
duain
duais
duaise
duaisean
dual
dualchainnt
dualchainntean
dualchais
dualchas
dualchasach
dualchasan
duan
duanaire
dubai
dubh
dubha
dubhadh
dubhag
dubhan
dubhar
dubhghlas
dubhthaich
dublin
dubna
duc
ducation
duck
dudley
due
duff
duffy
dugdale
duhamel
duibh
duibhe
duiker
duil
duileasg
duilgheadas
duilgheadasan
duilich
duilleach
duilleag
duilleagan
duilleig
duilleige
duine
duinn
duirche
duiseal
duitseach
duitsich
duitsis
duke
dul
dumbarton
dumfries
dumfriesshire
dumha
dumitru
dummy
dun
dunbar
duncan
dundee
dunedin
dunlop
dunn
duplicate
duque
dur
dura
duran
durania
durham
during
durra
dusan
dusicyon
duslach
duslaich
dust
dustin
dutch
duthaich
duty
duvaucelii
dv
dvd
dvor
dvur
dwarf
dwarfie
dwelly
dwellys
dwight
dx
dy
dyalŋuy
dyffryn
dyfrdwy
dyirbal
dyke
dylan
dymock
dynasty
dyson
dz
dztwo
e
ea
eabhra
eabhraig
each
eachaidh
eachainn
eachann
eachdraiche
eachdraichean
eachdraidh
eachdraidhe
eachdraidheal
eachdraidhean
eachdraidheil
eachdraigh
eachraidh
eaconamach
eaconamachd
eaconamaiche
eaconamaidh
eaconomacachd
eaconomach
eaconomachd
eaconomaiche
eaconomaidh
eacuador
eadailt
eadailte
eadailteach
eadailtis
eadar
eadarach
eadaraig
eadarainn
eadarli
eadarra
eadhan
eadhon
eadie
eadraig
eafit
eag
eagach
eagal
eagalach
eagar
eaglais
eaglaise
eaglaiseach
eaglaisean
eaglaiseil
eagle
eaglesfield
eagnaidh
eagrachadh
eagrachaidhean
eagran
eain
eairdsidh
eala
ealaghol
ealaidhean
ealain
ealaine
ealainean
ealainn
ealan
ealanta
ealantair
ealasaid
ealasaideach
eallach
ean
eanchainn
eanchainne
eanraig
eantan
ear
earb
earbaill
earball
earballach
earbsa
earbsach
eared
earl
earless
earliest
early
earr
earra
earrach
earraich
earrainn
earrainnean
earran
earrann
earrannan
earranta
earth
eartra
eas
easa
easabhal
easag
easaidh
easain
easan
easbaig
easbaigeach
easbaigeachd
easbaigean
easchruthach
easg
easpag
easpaig
east
easter
eastern
eastman
easto
eastoinis
eastriggs
eastwood
easy
eatarra
eathain
eathar
eating
eatorra
ebe
eberhard
ebersdorf
ebert
ec
echandi
echegaray
echidna
economic
economics
economy
ecuador
ed
eda
edad
eday
edda
eddie
eden
edgar
edge
edicio
ediciones
edinburgh
edirne
edit
edited
edition
editions
editor
editora
editores
editorial
editors
editura
edmonton
edmund
edn
edo
eds
edu
eduard
eduardo
educac
educacio
education
edward
edwards
edwin
eels
eemil
een
eesti
eftir
eg
egg
eggerz
eggs
egilsstaðir
eglwys
ego
egret
egypt
egyptian
eh
ehir
ehrenstrahl
ehrlich
ei
eibhir
eich
eichmann
eicrich
eicrioch
eid
eideann
eideard
eider
eididh
eige
eigen
eigh
eighe
eigheach
eight
eighteenth
eigin
eijkman
eil
eilbheis
eilbheise
eilbheiseach
eile
eileachaidh
eileagtron
eileagtronan
eileamaid
eileamaidean
eilean
eileanach
eileanan
eileannan
eileaps
eilear
eilein
eilfean
eilg
eilginn
eilid
eilidh
eilreig
eilthireach
eilthireachd
eilthirich
eimhir
ein
einar
einarsson
eindhoven
eine
einer
eines
einnsean
einnseanair
einnseanaireachd
einstein
einsteinium
eiphit
eireabhal
eireachdail
eireann
eireannach
eiridinn
eirinn
eis
eiseimpleir
eisenach
eisenhower
eisg
eisimealachd
eisimeil
eisimeileach
eisimeileachd
eisimeilich
eisimileach
eisimpleir
eisimpleirean
eisimplir
eisirean
eisleben
either
eithne
eizaguirre
ej
eje
ek
el
elaine
eland
elaphodus
elaphurus
elaphus
elba
elbe
eld
eldens
elder
eldii
eldja
eleanor
election
elections
electric
elek
element
elements
elena
elephant
elephants
elephas
elevation
elfrida
elfriede
elgenstierna
eli
elias
elie
eliecer
eliogar
eliot
elisabeth
eliseo
elite
elizabeth
elizate
elk
ella
ellan
ellen
ellipsiprymnus
ellis
ellon
elsa
else
elseif
elster
eluma
elva
elvis
elytis
em
embargo
emberiza
emeritus
emil
emilia
emilio
emily
eminescu
emma
emmanuel
emperor
empire
empty
en
enciclopedia
encode
encyclopaedia
encyclope
encyclopedia
encyclopædia
end
endemic
endparam
endtime
endtimey
eneas
enemy
energy
engativa
engel
engels
england
english
enicyn
enit
enlarged
enlightenment
enlli
ennis
enrico
enrique
enriqueta
enschede
enterprise
entity
entityid
entre
entrerri
entry
envigado
environment
enya
eo
eobhan
eobhann
eochaid
eochair
eoclaideach
eoghain
eoin
eol
eolas
eorpa
eorpach
ep
epes
epictetus
episode
epistimeo
equal
equinus
equivalent
er
era
erasmus
ercilla
erdog
erfurt
eric
erich
erie
erik
erinaceus
eriskay
erithacus
erne
ernest
ernesto
ernst
err
errcat
errclass
errclasses
errhide
errmiss
errns
error
errorprinter
errors
erskine
eru
ervie
erwin
eryri
erza
erzurum
es
esan
esbjerg
escape
escher
eschscholtz
esclavage
escobar
escu
eske
eskilstuna
esky
espan
espasa
especially
espectador
esperanto
essay
essays
essential
essex
est
established
estado
estate
esteban
estiano
estimates
estrella
estudio
estudios
et
eta
etc
eth
ethel
ethnologue
ethnoterritorial
etnoculturala
eton
etxebarria
etymological
eu
euchd
euchdan
eucken
eucoir
eucoireach
eucorach
eudorcas
eug
euge
eugen
eugene
eugenio
eugsamhail
eugsamhaile
euler
eun
eunlaith
eup
eurasian
eure
euro
europa
europaeus
europe
european
eurovision
eurycerus
eusebio
euskadi
euskal
euskaltzaindia
euskirchen
euslainteach
euslaintich
eustasio
eustice
eustorgio
ev
eva
evan
evans
eve
even
evening
ever
everest
every
everyday
everything
evidence
evolution
ewan
ewart
ewen
ewing
ex
exactly
examination
example
exampleargs
examples
except
exeter
exist
exists
expandtemplate
expedition
experience
explained
explorer
export
express
expressen
extend
extended
extension
extensiontag
external
externallink
extinct
extra
extremadura
ey
eye
eyed
eynhallow
eyre
eysteinn
eystra
eyvind
ez
ezequiel
f
fa
faber
fabian
fabiani
fabio
fabricius
faca
facail
facal
facebook
faced
faclair
faclaireachd
faclairean
faclairiche
faclan
fact
factar
factaraidh
factaraidhean
factaran
factbook
factor
factory
facts
faculty
fad
fada
fadalach
fadhla
faic
faiceallach
faicear
faiche
faichean
faicibh
faicinn
faicsinneach
faid
faide
faidhle
faidhlichean
faigh
faigheadh
faighean
faighear
faighinn
faighneachd
fail
faileas
failed
failsafe
failure
fainne
fair
faire
faireachdainn
faireachdainnean
fairge
fairport
fairy
faisg
faisge
faisisteach
faisisteachas
faisistich
faith
fala
falach
falaichte
falamh
falamhantas
falbh
falco
falconeri
falkirk
falkland
falko
fall
fallada
fallback
falling
fallow
falls
false
falt
falun
fame
familiaris
families
family
famine
famke
famname
famous
fan
fanaich
fanaichean
fanaid
fann
fanny
fano
faochag
faod
faodadh
faodaidh
faodar
faoghla
faoi
faoighiche
faoileag
faoilleach
faoilteach
faoin
faol
faotainn
faothachadh
far
fara
faraclett
faraday
farair
faray
farc
farcharson
farfar
fargs
farm
faro
farpais
farpaiseach
farpaisean
farrais
farrar
farsaing
farsaingeachd
farsi
farsuinnead
fartairchill
fas
fasan
fasanta
fasgadh
faso
fast
fastaidh
father
faulkner
fault
fawr
fawrenwau
fay
fayard
fc
fdate
fe
fea
feabhas
feachd
feachda
feachdan
feadag
feadaig
feadarail
feadh
feadhainn
feadhna
fealla
feallsanach
feallsanachail
feallsanachd
feallsanaich
feallsanaiche
feallsanaichean
fealsu
feamad
feamainn
feannag
feannagan
feansaichean
fear
fearainn
fearann
fearchar
fearg
feargach
fearghas
fearna
fearrann
feart
feartan
feasgair
feasgar
feather
features
february
fed
federal
federalism
federation
federico
feed
feel
fehler
feimineach
feirste
feis
feise
feitheamh
felder
feldheuschrecken
felice
felidae
felipe
felis
felix
female
feminine
femme
fenn
fenneropenaeus
feo
fer
ferdinand
ferenc
fergie
fergus
ferguson
fergusson
fermi
ferna
fernando
ferney
ferrari
ferret
ferrol
ferruginea
ferry
festival
festschrift
festung
fetch
fetches
fetchwikidata
fetlar
feuch
feuchainn
feudalism
feum
feumach
feumaidh
feumail
feumalachd
feumalachdan
feumar
feun
feur
feurach
feusag
feusgan
few
feynman
fez
ff
fflint
fha
fhaca
fhacail
fhacal
fhaclachd
fhaclair
fhaclan
fhactaraidh
fhad
fhada
fhadalach
fhadalaiche
fhaic
fhaiceadh
fhaicear
fhaicinn
fhaicsinneach
fhaicsinneachd
fhaid
fhaide
fhaigh
fhaighean
fhaighear
fhaighinn
fhaighnich
fhaili
fhaireachdainn
fhairich
fhaisg
fhaisge
fhalach
fhalaich
fhalbh
fhan
fhaod
fhaodadh
fhaodar
fhaodte
fhaoidte
fhaoighris
fhaoileag
fhaoilleach
fhaoilteach
fhaolain
fhaotainn
fhar
fharfair
fharpais
fharpaiseach
fharpaisean
fharsainge
fharsaingeachd
fhas
fhasa
fhasanta
fhaso
fhastadh
fhathast
fhe
fhea
fheachd
fheachdan
fheadain
fheadan
fheadarail
fheadhainn
fheadhna
fheallsanach
fheallsanachd
fheallsanaiche
fheamainn
fheannag
fhear
fhearainn
fhearann
fhearchair
fhearr
fheart
fheartan
fheasgair
fheasgar
fheichin
fhein
fheo
fheuch
fheuchainn
fheudar
fheum
fheumadh
fheumas
fheur
fhi
fhiabhras
fhiach
fhiacha
fhiaclan
fhiadhaich
fhiadhaichan
fhianais
fhichead
fhicheadamh
fhicsean
fhidheall
fhighe
fhilleadh
fhillte
fhilm
fhilmeadh
fhilmichean
fhinn
fhinnein
fhiodh
fhiodha
fhiolm
fhiolmaichean
fhionghain
fhionn
fhionnlaidh
fhionnlaigh
fhios
fhiosaigiche
fhiosda
fhiosrachadh
fhiosrachaidh
fhir
fhireann
fhireannach
fhireannaich
fhirenze
fhithich
fhiu
fhlaitheach
fhlaitheas
fhlaitheis
fhlat
fhleisginn
fhliche
fhlorence
fhlu
fho
fhoghair
fhoghar
fhoghlaim
fhoghlam
fhoillseachadh
fhoillseachaidh
fhoillsich
fhoillsicheadh
fhoillsichte
fhoirbeis
fhoirm
fhoirmeil
fhoirthe
fhois
fhollaiseach
fhorsætisra
fhortan
fhortanach
fhosgail
fhosgailte
fhosgladh
fhraing
fhraingis
fhranco
fhrangach
fhrangaich
fhraoich
fhreagair
fhreagairt
fhreagarrach
fhreiceadan
fhreumh
fhreumhan
fhri
fhrida
fhriseal
fhrith
fhrithealadh
fhrithealaich
fhrodo
fhu
fhuadach
fhuadachadh
fhuadaich
fhuadain
fhuaim
fhuaimneachadh
fhuaimreag
fhuair
fhuaire
fhuaireadh
fhuamhair
fhuar
fhuaradh
fhuarain
fhuaran
fhuaras
fhuasgail
fhuasgladh
fhuil
fhuiling
fhuilteach
fhuireach
fhuirich
fhulaing
fhulang
fhulangas
fi
fia
fiabhras
fiach
fiachan
fiaclan
fiadh
fiadhaich
fialaidh
fialaidheachd
fiamh
fianais
fianna
fiaradh
fichead
ficheadamh
ficheadan
fico
ficsean
ficseanail
fiction
fiddle
fiddles
fidel
fidheall
field
fieldname
fields
fifa
fife
fifteenth
figaro
figearan
fighe
fight
fighting
figure
file
fileanta
files
filip
filipineach
fillmore
fillte
film
filmean
filmg
filmichean
filologi
filter
fin
final
finalize
find
finder
findlang
finds
fine
fineachan
fineag
fingal
finlay
finlayson
finn
finnbogado
finned
finnie
finta
fiobha
fiodh
fiodha
fiolan
fiold
fiolm
fiolmaichean
fiona
fionn
fionnais
fionnghal
fionnlagh
fionnlannais
fionnsgeul
fionnuala
fior
fios
fiosachd
fiosagaiche
fiosaiche
fiosaig
fiosaigeach
fiosaigiche
fiosaigichean
fiosaigs
fiosrach
fiosrachadh
fiosrachaidh
fiosraichte
fir
fire
fireann
fireannach
fireannaich
fireannta
firefox
firenze
firinn
firm
first
firstpostfix
firth
fischer
fish
fisher
fisherfield
fisheries
fisherman
fishes
fishing
fishman
fitch
fitheach
fithich
fitty
fitzgerald
fitzroy
fiu
five
fix
fixed
fizzgig
fjall
fjo
fladaigh
flag
flags
flamingos
flannach
flat
flaubert
flava
flavia
flavirostris
flavius
flea
fleet
fleidsear
fleming
fleo
fletcher
fleurs
flevoland
flew
flickr
flies
flight
flin
flint
fliuch
flo
float
flodden
flokkur
flokkurinn
floor
flop
flora
florence
florencia
florenszoon
florida
floridasistercities
flory
flower
flowers
flu
fly
flybe
flycatcher
flying
fm
fmt
fn
fo
focail
focs
fodha
fodhan
fogel
foghair
foghar
fogharach
foghlaim
foghlaimte
foghlam
foill
foillseachadh
foillseachaidh
foillseachaidhean
foillsichear
foillsichidh
foillsichte
foini
foirm
foirmeil
foirmle
foirthe
fois
folk
folklore
follais
follaiseach
following
folly
fon
fondo
fonds
fonn
fonndas
fonseca
font
fontane
fontibo
fontsize
fontstyle
foo
foot
football
footed
for
forbes
forcaichean
force
forces
ford
foreign
forest
forks
form
format
formatattributes
formatdate
formation
formatlink
formatmessage
formatparams
formats
formatted
formattest
formatting
formatvalue
formed
former
formosan
forms
formula
forrow
forsa
forsaichean
forseti
forsyth
forsætisra
fort
fortanach
forth
fortoul
fortress
forum
fosailean
fosgailte
fosgladh
fosglaidh
fossil
foster
fotha
foto
found
foundation
four
fourteenth
fourth
fowl
fowlis
fox
fr
fra
frac
fraing
frainge
fraingeach
fraingeis
fraingich
fraingis
fraingium
framboð
frame
frameless
frameonly
framso
framti
franc
franca
france
frances
francesco
franche
francis
francisco
franciszek
franco
frangach
frangaich
frangais
frangan
frank
frankfort
frankfurt
frankivsk
frankivska
franklin
franko
frans
frantis
franz
fraoch
fraoich
fras
fraser
frater
fratercula
frau
frauen
frauenfeld
frauenkirche
fre
freagairt
freagairtean
freagarrach
fred
freddie
frederic
fredericia
frederick
frederik
fredonia
fredrik
fredriksson
free
freedom
freeman
freetown
freiberg
freiburg
freiceadan
freire
french
frequent
fresenius
fresh
freshwater
freud
freumahn
freumh
freumhan
fri
fria
fribourg
frid
frida
friedman
friedrich
friend
friends
fringilla
fringillidae
frisch
friseal
frisealach
frith
frithealadh
frithealaidh
frits
fritz
friu
fro
frodo
frog
frogs
froila
from
fromantiou
frombork
front
frontalis
fronted
frs
frse
fru
frysk
frysla
ft
fu
fuachd
fuadach
fuadachadh
fuadaichean
fuadaichte
fuadain
fuaim
fuaime
fuaimean
fuaimneachadh
fuaimneachail
fuaimreag
fuaimreagan
fuar
fuarain
fuaran
fuasgail
fuasgladh
fuath
fuego
fuendetodos
fuente
fuentes
fuerteventura
fuglesang
fuigheall
fuil
fuilteach
fuincsean
fuireach
fuirich
fuirichidh
fujian
fukui
fulaing
fulang
fulangach
fulangas
fulgencio
full
fullargs
fullpagename
fulvorufula
func
funchal
funcname
function
functions
fundacio
fungas
fungi
fungus
funza
fur
furasda
furasta
further
fusca
future
fuðborgarsvæðið
fynwy
fyodor
fyvie
g
ga
gaba
gabh
gabhadh
gabhaidh
gabhail
gabhaltas
gabhar
gable
gables
gabon
gaborone
gabriel
gabriela
gabyggð
gach
gad
gaddafi
gadelica
gadh
gadolin
gaeilge
gael
gaelach
gaelg
gaelic
gaels
gaeltacht
gaerfyrddin
gafanhoto
gagarin
gahn
gaidh
gaidheal
gaidhealach
gaidhealtachd
gaidhleach
gaidhlig
gail
gailearaidh
gailearaidhean
gailfling
gailflingean
gaili
gailium
gaillimh
gaillimhe
gainmheach
gainmhich
gairm
gairsay
gaiseadh
gaisgeach
gaisgeil
gaisgich
gaita
gaitnip
gaius
gal
gala
galar
galaran
galat
galavi
gale
galerella
galerie
galicia
galilei
galileo
gall
gallacher
gallagher
gallaibh
gallaraidh
gallarta
gallda
galldachd
gallen
gallery
gallica
gallimard
gallinago
gallobha
galloway
gallta
gallus
galore
galsworthy
gam
gama
gamal
gambetta
game
games
gan
ganach
ganachd
ganaich
gandalf
gandhi
gandolfini
gandolfo
gann
gaoil
gaoir
gaoith
gaoithe
gaol
gaoth
gaposchkin
gar
garadh
garaidh
garbh
garbha
garbhan
garbo
garce
garci
garcia
gard
garde
garden
gardens
gardner
garfield
garg
garioch
garland
garman
garonne
garrabost
garrach
garradh
garrag
garraich
garret
garrido
garrigue
garrulus
garry
gartan
garthim
gary
garðabær
gas
gasaichean
gasan
gaspar
gasteiz
gate
gates
gath
gathain
gathan
gatwick
gauge
gaulle
gaur
gauthier
gav
gavia
gavin
gaviria
gay
gaza
gazella
gazelle
gazelles
gazette
gazetteer
gaziantep
gb
gd
gdan
gdr
gdynia
ge
gea
gead
geal
geala
gealach
gealag
gealaich
gealan
gealbhonn
geall
gealladh
geama
geamaichean
geamannan
geamhradh
geamhraidh
gear
gearailt
gearain
gearan
gearanan
gearasdan
gearastan
gearmailt
gearmailte
gearmailteach
gearmailtich
gearmailtis
gearmanach
gearo
gearr
gearra
gearradh
gearraidhean
gearran
geata
gebirge
gebze
ged
gedd
gedichte
geer
geiger
geikie
geir
geiria
gel
gelderland
gelfling
geliebte
gelsenkirchen
gemeente
gen
gene
general
generalcommands
generally
generate
generation
genes
genesis
geneva
genga
geni
genocide
genolier
genova
gent
genus
genzel
geo
geoffrey
geoffroy
geogra
geografi
geograph
geographic
geographical
geography
geoimeatras
geological
geology
geonames
georg
george
georges
georgescu
georgetown
georgia
ger
gera
gerais
gerald
gerard
gerardus
gerchunoff
gerenuk
gerhard
gerhardus
gerhart
german
germany
germinal
gerry
gershom
gershwin
gertrude
geschichte
gesetz
gessle
gestapo
get
getallstatements
getargnums
getargs
getbeststatements
getcommonslink
getcontentlanguage
getcurrentframe
getcurrenttitle
getentity
getentityidforcurrentpage
getitemlangcode
getlabel
getlabelbylang
getmapparams
getmetatable
getparameters
getparent
gets
getsitelink
getsumofparts
gettitle
getvalue
getvaluebyqual
geug
geur
gg
gh
gha
ghabh
ghabhadh
ghabhail
ghabhas
ghabhsainn
ghach
ghad
ghaeilge
ghaid
ghaidh
ghaidheal
ghaidhealach
ghaidhealaibh
ghaidhealtachd
ghail
ghaill
ghaillimh
ghaimbia
ghainmhich
ghainn
ghairm
ghairmeadh
ghaisgeach
ghaisgich
ghalaigh
ghalair
ghalar
ghalaran
ghall
ghallaibh
ghallais
ghallda
ghalldachd
ghallta
ghalltachd
ghan
ghann
ghaoil
ghaoith
ghaoithe
ghaol
ghaolaich
ghaoth
gharadh
gharbh
gharbhain
ghartain
ghas
ghdachadh
ghdaich
ghdair
ghdairean
ghdan
ghdar
ghdaran
ghdarrais
ghdarras
ghdarrasan
ghde
ghe
ghea
ghead
gheal
ghealach
ghealaich
gheall
gheallaidh
gheama
gheamannan
gheamhradh
gheamhraidh
ghean
ghearasdain
ghearasdan
ghearastan
ghearmailt
ghearmailteach
ghearmailtich
ghearmailtis
ghearmaineach
ghearmanach
ghearr
ghearradh
ghearraidh
ghearrain
ghearran
gheasaibh
gheibh
gheibheadh
gheibhear
gheil
ghene
gheo
gheorghe
gheorghiu
gherman
ghetto
gheur
ghiblean
ghiblein
ghil
ghille
ghillean
ghilleasbuig
ghin
ghinealach
ghinn
ghiorraich
ghiorso
ghiota
ghiu
ghiubhais
ghiulain
ghiuthais
ghiuthsaich
ghlac
ghlacadh
ghlainne
ghlais
ghlan
ghlanadh
ghlas
ghlasa
ghlaschu
ghle
ghleann
ghleidheadh
ghleusaiche
ghlinn
ghlinne
ghlo
ghloine
ghlu
ghluais
ghluasad
ghluasaid
ghmhor
ghna
ghne
ghni
ghnothach
ghnothaich
ghnothaichean
gho
ghob
ghobha
ghobhainn
ghobhar
ghobharaidh
ghobhraidh
ghoid
ghoidhealach
ghoireas
ghoireasan
ghoirid
ghoirteachadh
ghorm
ghort
ghorta
ghost
ghot
ghra
ghrainnse
ghranada
ghrand
ghrannd
ghraonlainn
ghraz
ghre
ghrean
ghreugach
ghreugaich
ghreugais
ghreumach
ghrian
ghrianain
ghriogaraich
ghritheach
ghrithich
ghro
ghroningen
ghru
ghruag
ghrunnd
ghrunnda
ghruthain
ghuail
ghual
ghuilbneach
ghuirm
ghunna
ghuth
ghutha
ghuthach
gi
giacomo
giai
giant
giauque
gib
giblean
gibson
gica
gide
gidheadh
gif
gifford
giganteus
giglets
gijo
gikhman
gil
gilb
gilbert
giles
gill
gille
gillean
gilleasbaig
gilleasbuig
gillian
gillies
gin
gine
gineachan
ginealach
gineamhainn
ginean
ginearalta
ginger
gini
ginideach
ginidh
ginteil
gintinneachd
giobraltair
giofnag
giogha
giomach
gion
gions
giorra
giorrachadh
giorrachaidhean
giosue
giota
giovanni
gipuzkoa
girardot
girardota
girl
girls
giro
girona
giu
giulio
giurgiu
giuseppe
giuthais
giuthas
give
given
gje
gjellerup
gl
gla
glac
glacadh
glacte
gladstone
glainne
glaisean
glaiste
glan
glanadh
glaodhach
glarus
glas
glasa
glascho
glaschu
glasgow
glasian
glasraich
glasraichean
glass
gle
gleann
gleanna
gleanntan
gleidheadh
gleidhidh
glen
glencoe
glengarry
glenn
gleoc
gleus
glic
glinn
glinne
glises
glo
global
globalframe
globals
globe
globo
gloria
glu
gluais
gluasad
gluasadan
gluasaid
glyndw
gmatch
gmbh
gmh
gmhios
gna
gnats
gnd
gne
gneiss
gni
gnothach
gnothachas
gnothaich
gnothaichean
gnou
gnu
go
goa
goat
goats
gob
goban
gobernantes
gobha
gobhachan
gobhair
gobhal
gobhar
gobhlach
gobhlachan
gobhlan
goc
gocan
god
godfather
godwit
goebbels
goeppert
goes
goethe
goeze
gogh
gogol
goia
goibhrean
goid
goilearan
goilf
goill
goillspidh
goireas
goireasan
goirid
goirt
goirte
goitered
goku
gold
golden
goldfinch
goldie
golding
golf
gollancz
gollum
gomera
gon
gonan
gone
gonza
gonzalo
gonzo
good
google
goose
goosefish
goral
gorbachev
gordimer
gordon
gorilla
gorin
goriot
gorm
gorma
gorman
gormshuil
gorseinon
gort
goslabh
goslaibhia
got
gotach
gotha
gothenburg
gothic
gottfried
gottlieb
gouazoubira
gould
gouramy
gov
government
governor
gower
goya
gpc
gpio
gra
grabhair
grace
gracilis
grad
gradh
graeme
graf
grafaiche
grafaigeach
grafen
grafton
graham
graim
gram
gramaidh
graman
grammar
grammy
grampian
gran
granada
grand
granddaddy
grande
grandes
grands
granit
grannd
granndach
grant
granti
granville
graonlainn
graphium
grass
grasshopper
grasshoppers
graveland
gravesend
gravina
gray
graz
grazia
grd
gre
greanada
greanadach
greannach
greasadair
great
greater
greatest
greatna
grebe
grebes
greco
greek
green
greene
greenhill
greenwich
greenwood
greeny
greg
gregor
gregory
greiff
greifswald
greim
greine
greis
greiseag
greiseig
greiz
grenjaðarstaður
grenoble
grenville
greta
gretna
greugach
greugaich
greugais
greumach
grey
gri
griais
grian
grianach
grianaig
grianan
gridcolor
grierson
griffin
griffith
griffiths
grignard
grigore
grigory
grimble
grimm
grinn
griogair
griogarach
griomasaigh
griseus
gro
grog
groningen
groot
gropecunt
grossman
grottammare
ground
group
groups
grouse
grove
große
großer
großherzogtum
gru
gruag
gruagach
gruaige
gruber
gruf
gruffydd
gruisia
gruney
grunn
grunnan
grunnd
grunniens
grus
gruyter
grysbok
grytviken
grænt
gsub
gtin
gu
gua
guadalajara
guadalquivir
guadeloupe
guail
guajira
gual
gualain
gualainn
gualan
guaranaidh
guardian
guasca
guatamala
guatavita
guatemala
guateque
guaviare
guayabal
guayaquil
gue
guernsey
guerra
guerre
guerrillas
guevara
guez
guga
gui
guiana
guide
guido
guillermo
guinea
guinness
guirm
guitar
guitarfish
gulf
gulfport
gull
gullstrand
gulo
gum
guma
gun
gunn
gunna
gunnaichean
gunnar
gunnarsdo
gunnlaugsson
gur
gus
gustaf
gustav
gustave
gustavo
gut
gutenberg
guth
guthan
guthrie
gutie
gutturosa
guy
guys
guzma
guð
guðmundsdo
guðmundsson
guðmundur
guðni
gv
gw
gwent
gwilen
gwynedd
gyle
gylfi
gymnippers
gyo
gyula
h
ha
haag
haagen
haakon
haarde
haarlem
haavelmo
habana
haber
habsburg
had
hafnarfjo
hafstein
hagstofa
hague
hahn
hai
haidridean
haidridein
haifa
haile
haining
hair
hairtebreac
hairy
haiti
hajnal
hal
halafacs
haldane
haldsflokkurinn
halen
half
haliaeetus
halifax
hall
hallaig
halldo
halle
hallgri
halmstad
halonen
halt
halter
ham
hamalton
hamar
hamburg
hamhaig
hamilton
hamish
hammars
hammarskjo
hampden
hampshire
hamsun
han
hanawalt
hand
handbook
handbuch
handle
handler
handlers
hanks
hann
hanna
hannah
hannes
hannesson
hannibal
hannover
hannsson
hano
hanoi
hans
hansa
haplophthalmus
happy
harald
haraldur
harare
harbin
harbour
hard
hardcover
harden
hardie
hare
harem
hares
hari
harmenszoon
harmony
harold
harp
harper
harrassowitz
harrier
harriet
harris
harrison
harry
harsanyi
hart
hartebeest
hartford
hartis
hartmann
hartmut
harvard
harvey
harvie
harwich
harz
has
hasco
hash
hassan
hassel
hassium
hastings
haswell
hat
hatfield
hatnote
hatun
hauer
haughey
hauptman
hauptmann
haus
haut
haute
hautes
hauts
havana
have
havel
haven
having
hawaii
hawaiian
hawk
hawking
hawley
haworth
hay
hayek
hayes
haystack
hazzan
hd
he
heachthairn
heactair
head
headed
header
headerid
headhra
healabhal
health
heaney
hearach
hearadh
heard
hearsagobhana
heart
hearts
heartsagobhana
heath
heather
heathrow
heaven
hebe
hebridean
hebrides
hechingen
heck
hecla
hector
heddle
hedgehog
heeger
hegel
heide
heidegger
heidelberg
heidenstam
height
heights
heike
heileacoptair
heimastjo
heineken
heinrich
heinse
heisenberg
heldburg
helen
helena
helgafell
heliconia
helium
hell
heller
helmut
helogale
help
helper
helsa
helsingborg
helsingør
helsinki
hemiechinus
hemingway
hemisphere
hemitragus
hen
henares
henderson
hendrick
hendrik
hendrikse
hendry
henicopernis
henley
henning
henri
henricus
henrietta
henrik
henry
henryk
henryson
henson
heochaidh
hepburn
her
heraklion
herald
herashchenko
herbert
hercules
here
hereford
herge
heriot
heritage
herm
herman
hermann
hermannsson
herminez
herna
heron
herpestes
herr
herra
herrera
herria
herrings
herschbach
herschel
hershko
herta
hertfordshire
hertogenbosch
hertz
herzberg
herzog
herzogtum
hesse
hessen
heston
het
heures
hevesy
hewish
hey
heydrich
heyman
heyrovsky
heyse
hg
hi
hibernian
hibs
hicks
hidalgo
hidden
hideki
hie
hierodula
hieronymus
hierro
higgins
higgs
high
higher
highland
highlanders
highlands
highway
hijra
hilario
hilda
hildasay
hildburghausen
hildesheim
hill
hills
hillsboro
hilma
hilmar
hilton
him
himalaya
himalayan
himmler
hind
hindi
hindu
hinshelwood
hionduthachd
hiort
hip
hippo
hippocamelus
hippopotamus
hippotragus
hircus
hirola
hiroshima
hirst
hirundo
his
hispania
hispaniola
histo
histoire
historia
historic
historical
historique
historische
historisches
historisk
history
hitler
hitlerputsch
hits
hizmetka
hja
hjalmar
hjaltadalur
hlau
hler
hlist
hm
hms
hng
ho
hobart
hobbit
hoddan
hodes
hodges
hodgkin
hof
hoff
hoffman
hoffmann
hofmann
hog
hogainn
hogarth
hogg
hohenzollern
hoi
hokkaido
holbrook
holds
hole
holgui
holland
hollander
holly
hollywood
holm
holmer
holmes
holocaust
holodomor
holstein
holt
holy
holyhead
holyrood
holywood
homarus
hombre
homburg
home
homepage
homer
homme
homo
honda
hondu
honduras
honey
hong
honolulu
honore
honoris
honour
honshu
hood
hooded
hooft
hook
hooks
hookworms
hoopoes
hoover
hop
hope
hopkins
hopper
hora
horat
horemheb
horizonte
horn
horne
horned
horns
horodok
horse
horses
horton
hosie
hospital
hot
hotel
hou
houghton
houmet
houmets
hours
hous
house
households
houses
houston
houten
how
howard
howe
however
howff
hoy
hr
hradec
hreyfing
hrsg
hrung
hrus
htm
html
http
https
hu
huang
huber
hubert
huck
hudson
huelva
huesca
huge
hugh
hughes
hugo
huila
huisman
hull
human
humanus
humberto
humble
humboldt
hume
hummingbird
hummingbirds
hump
humpback
humphrey
humphry
hundland
hundred
hungarian
hungary
hunndaidh
hunt
hunter
hunteri
hunting
huntington
huntly
huntsman
hunza
huron
hurtado
hurwicz
hus
hussein
hutcheson
hutchinson
hutton
hy
hyde
hyderabad
hydra
hydro
hydropotes
hye
hyelaphus
hymn
hyphen
hyphens
hypomelas
hywel
hz
i
ia
iac
iad
iadaigh
iadhtag
iadsan
iaimeuca
iain
iaineatan
iall
ian
iapain
iapan
iapanach
iapanaich
iapanais
iar
iarach
iarainn
iarann
iarla
iarlachd
iarlan
iarmain
iarmhi
iarnro
iarr
iarradh
iarraidh
iarrainn
iarrtas
iarrtasan
iarsmadh
iaruinn
ias
iasad
iasaid
iasg
iasgach
iasgachd
iasgaich
iasgair
iasgaireachd
iasgairean
iauliai
ib
iba
ibadan
ibague
ibe
ibearais
iberia
ibex
ibh
ibhe
ibhead
ibheadh
ibhear
ibhearan
ibhia
ibhidh
ibhinn
ibhtean
ibia
ibidem
ibiza
ibn
ibrox
ic
ica
ice
icearachd
iceland
ich
icheil
ichi
icon
id
ida
idaho
ide
ideach
ideadh
ideagan
ideal
idean
ideanach
ideann
idear
ideard
ideart
ideas
ideil
idein
ideirt
identical
identifier
identities
identity
ideo
idh
idhchead
idhe
idheach
idheachadh
idheachaidh
idheachd
idheadair
idheadh
idheal
idhealach
idhealaibh
idhealaich
idhealtachd
idhean
idheil
idhich
idhicheadh
idhichte
idhidh
idhinn
idhleach
idhlig
idhte
idhteach
idhteachail
idhteachais
idhteachas
idianach
ididh
ididheachd
idigh
idio
idir
idire
idiseanta
idium
ids
idse
idsear
idx
ie
iei
iekeliene
iemen
ierusalem
ies
if
ifan
ifeachdach
ifeachdaiche
ifrinn
ig
iga
ige
igeach
igeamh
igeamhan
igean
igh
ighe
igheachd
igheadh
ighean
igheas
igheil
iginn
iginneach
iglesia
igna
ignacio
ignatz
ignear
ignore
ignored
igor
igridh
igsinn
igte
iguanas
ii
iii
ijmuiden
ikapa
il
ila
ile
ileach
ileachd
ileadh
ileag
ilean
ileasg
ileisg
ili
ilia
ilianach
ilidh
ilidhean
ilig
ilige
iligeadh
iligeas
ilinn
ilis
ilise
ill
ille
illeabh
illeach
illeachd
illeadh
illealachd
illean
illear
illeathain
illeibh
illeir
illibh
illidh
illig
illigeadh
illinois
illtean
illustrated
ilmari
ilnich
ilt
ilte
ilu
ilves
ilya
im
image
imageleft
imageright
images
imagesize
imber
imberbis
imdb
ime
imeachd
imean
img
imh
imhdean
imhe
imheach
imheachadh
imheachaidh
imheachd
imhean
imheil
imhseachadh
imhseachaidh
imhseachan
imi
imleach
immanuel
impact
impala
imperativ
imperfect
imperia
imperial
impire
impireachd
impireachdan
impireil
implemented
implements
important
impossible
impreiseanachd
imprenta
impunctatus
imre
imrich
in
ina
inarray
inbhe
inbheach
inbheachd
inbhean
inbhich
inbhir
inbhirnis
inc
inca
incas
include
included
including
increasingly
increment
ind
independence
independent
index
india
indian
indiana
indianapolis
indias
indicate
indicus
indium
indo
indochinese
indonesia
indonesian
indre
indus
ine
ineabhal
ineach
ineachd
ineadh
ineag
ineagan
inean
ineas
ineasan
ineil
inermis
inexpectatus
infantes
infantry
influence
info
infoalso
infobox
information
infty
ing
inga
ingearach
ingenioso
inghean
ingi
ingibjo
ingmar
ingo
ingold
ingrid
inhabited
inhabits
ini
inia
inianach
inianaich
inich
inidh
inig
ining
inis
inistear
init
inline
inn
innd
inne
inneach
inneachan
inneadair
inneadairean
inneadh
inneal
innealach
innealadaireachd
innealan
innean
innear
innearachd
innearan
inneil
inner
innes
innich
innil
innireach
innis
innise
innleachd
innleachdail
innleachdair
innleachdairean
innleachdan
innleadair
innleadaireachd
innleadairean
innlean
innlich
innlichidh
innocentius
innsbruck
innse
innseachan
innseadh
innsean
innseanach
innseas
innt
innte
innteach
inntealta
inntich
inntinn
inntinneach
inntinneil
inntis
inntleachdail
inntrig
inntrigeadh
inntrigidh
input
inquiry
insects
insee
insert
inset
inside
instance
instead
institiu
institiud
institut
institute
institutet
institution
instituto
institutul
instructions
inte
inteach
intean
integer
integers
intellectual
intended
intentionally
interest
interior
internal
international
internationale
internet
interview
intich
into
introducerade
introduction
inuit
inuktitut
invalid
invalidpar
inver
inverness
invias
invoke
io
ioan
iochd
iochdmhor
iol
iolair
iolaire
iolairean
iolra
iom
ioma
iomadach
iomadachadh
iomadachaidh
iomadachd
iomadaich
iomadaidh
iomadair
iomadh
iomagain
iomaill
iomain
iomairt
iomairteachd
iomairtean
iomall
iomallach
iomallaiche
iomaratan
iomchaidh
iomhair
iomlaid
iomlaideach
iomlaideachd
iomlan
iompachadh
iompaich
iompaire
iompaireachd
iomradh
iomraidh
iomraidhean
iomraiteach
iomsgaradh
ion
iona
ionad
ionadail
ionadal
ionadan
ionaid
ional
ionaltraidh
ionann
ionanna
ionar
iondail
ionescu
iongantach
iongantas
iongnadh
ionlaid
ionmhais
ionmhas
ionmhasail
ionmhasair
ionnan
ionnanachd
ionnann
ionnannachd
ionnlaid
ionnsachadh
ionnsachaidh
ionnsaich
ionnsaidh
ionnsaigh
ionnsaighean
ionnsramaid
iora
iorac
iordan
iorgu
iosa
iosaid
iosail
iosal
iosato
iosif
ioslam
ioslamach
iosrael
iosraeleach
iowa
ipa
ipairs
ipear
ipearan
ipeir
ipheit
iphit
ippolito
ipuu
ir
ira
iran
irb
irbhinn
irbis
irc
irce
ircean
ird
irde
irdeach
irdean
irdeanan
irdeas
irdeasach
irdeasachd
irdeasan
irdehill
irdeil
irdeis
irdsidh
ire
ireach
ireachadh
ireachail
ireadh
ireamh
ireamhachd
ireamhaiche
ireamhail
ireamhan
irean
ireann
ireannach
ireannaich
ireimh
ireland
irene
irge
iri
iria
irich
iriche
irichean
iridh
iridhean
iridium
irig
irigh
irim
irina
irinis
irinn
irinneach
iris
irisean
irisgeigh
irish
irisleabhar
irleach
irlich
irmheas
irn
irne
irneach
irneal
irnealachd
irnealair
irneart
irneid
irnein
irneis
irnis
iron
irpin
irr
irrds
irsea
irsgeul
irsgeulach
irsgeulan
irsia
irsinn
irsinneach
irt
irte
irteach
irteachadh
irteachas
irtean
irtich
irtichean
irtidh
irun
irvine
irving
irwin
iryna
is
isaac
isaacs
isabel
isabella
isambard
isbeanan
isbn
isbnfactory
ische
isd
isde
isdeachd
isdean
isdoi
ise
iseabail
iseach
iseachadh
iseachaidh
iseachan
iseachd
iseact
iseactan
iseadh
isealach
isealachd
isealaich
isealta
isealtas
iseam
iseamaid
isean
iseanan
iseanta
iseantach
iseantachas
iseantachd
iseantaich
isear
iseas
iseasan
iseict
iseil
isein
isenburg
iseo
isg
isge
isgealachd
isgte
ishandle
isia
isianach
isich
isicheadh
isichidh
isidh
isidro
isimeid
isir
isire
isirean
isissnvalid
isla
islabel
islam
island
islandia
islands
isle
isles
islig
isn
isneachd
iso
isok
israel
israeli
issmall
issn
issnfactory
isss
issue
issues
ist
istanbul
iste
isteachd
istean
istear
istva
isxn
it
itagu
italia
italic
italictitle
ite
iteach
iteachadh
iteachaidh
iteachail
iteachais
iteachan
iteachas
iteachd
iteag
itealaich
itealain
itealan
itealanachd
itean
iteigin
itein
item
itemid
items
iterate
iterator
ith
ithaca
ithbeirt
ithe
itheach
itheachan
itheachd
itheadh
ithean
itheanta
itheas
itheasach
itheil
ithich
ithidh
ithne
ithreach
ithrean
ithtean
itich
itiche
itichean
itinn
itiop
itire
itis
ito
itrium
its
itself
itv
iu
iubhair
iubhar
iuch
iucha
iuchair
iuchar
iulia
iulianach
iulius
iupac
iv
iva
ivan
ivano
ivar
ivasyuk
ivo
ivy
ix
iz
izyum
j
ja
jacinto
jack
jackal
jackie
jackson
jacob
jacobs
jacobus
jacques
jade
jae
jaeger
jag
jagger
jagiellon
jagiellonian
jaguar
jahre
jahrhundert
jaime
jakarta
jakob
jakobsdo
jamaica
jamala
james
jamie
jan
jane
janeiro
janet
janovics
janssen
janszoon
january
japan
japanese
jar
jara
jaramillo
jardine
jaroslav
jarosław
jason
jaume
java
javan
javanicus
javeriana
javier
jawed
jaws
jay
jayakari
jazz
je
jean
jeanne
jeder
jefferson
jekyll
jelinek
jell
jellyfish
jen
jena
jenkins
jennifer
jenny
jeno
jens
jensen
jeremy
jero
jeroen
jerome
jerry
jersey
jerusalem
jesse
jesu
jesus
jethou
jewish
jfalu
ji
jico
jihlava
jilava
jim
jime
jimela
jimmy
jir
jiu
jo
joa
joachim
joan
joanna
joaqui
jobs
jocelyn
jock
jocky
joe
joel
jogaila
johan
johann
johanna
johannes
johannesburg
john
johnny
johns
johnson
johnston
johnstone
johnstoni
joliot
jon
jonas
jonathan
jones
jordi
jorge
joris
jose
josef
josefa
josep
joseph
josephus
josh
joshua
joule
journal
journey
jover
jovice
joy
joyce
jpeg
jpg
jr
json
ju
juan
juana
jubatus
juden
judet
judique
judith
judy
jules
julia
julian
julie
julio
julius
july
junction
june
jung
jungle
juni
junior
jupiter
jura
just
justice
justify
justin
justus
juventus
k
ka
kabul
kaczyn
kafka
kahlo
kahneman
kai
kaiser
kalahari
kaliningrad
kalmar
kalush
kame
kameneva
kamerlingh
kami
kamianets
kamianske
kamke
kan
kanal
kangaroo
kansas
kant
kanton
kantorovich
kaohsiung
kappa
kara
karel
karen
karenina
karl
karle
karlfeldt
karlskrona
karlsruhe
karlstad
karol
karplus
karrer
kashmir
kassel
kate
kategori
kategorie
kategorija
katharine
katherine
kathleen
kathmandu
katowice
katri
kattegat
katydids
katz
kaufman
kaunas
kaurin
kawabata
kawagoe
kayak
kayser
kazakh
kazimierz
kb
ke
kearney
kee
keelylang
keep
keir
keith
kekule
kelly
kelvin
kelvingrove
kemal
kemp
kemper
ken
kendrew
kenichi
kennedy
kenneth
kenny
kent
kentucky
kenya
kenzaburo
kepler
kern
kerr
kesey
kev
kevin
key
keyboard
keys
kezia
kg
kgb
khabarovsk
khan
kharkiv
kharkivska
khartoum
khayr
kherson
khersonska
khmelnytska
khmelnytskyi
khoruzhivka
ki
kiado
kiang
kidd
kidnapped
kids
kiel
kierfea
kierkegaard
kigali
kilda
kilkenny
killer
kim
kinahan
kind
king
kingdom
kingdoms
kingfishers
kings
kingston
kinross
kinsey
kinshasa
kinship
kipling
kira
kirche
kirchhoff
kirk
kirkcudbright
kirkii
kirkpatrick
kirkwall
kirovohradska
kirsteen
kirsten
kirsty
kiryat
kiss
kist
kit
kite
kitsman
kitty
kiwis
kj
klaas
klagenfurt
klaipe
klaproth
klas
klaus
klein
kleine
kleiner
klerk
klevenhaus
klint
klippan
klipspringer
klm
klondykers
km
kmaq
knap
knarflokkurinn
knebworth
knesset
knight
know
knowledge
known
knox
knut
ko
kob
kobe
kobilka
kobus
koch
koestler
kohn
kohtla
kolkata
kom
komi
kommu
kommun
kommune
kon
kong
konrad
konsterna
konya
koolhaas
koopmans
kopparberg
korean
korrigum
koval
kra
krabbe
kraits
kraj
krako
krakowa
kramatorsk
krasnow
krefeld
kreis
kreisfreie
kremenchuk
kreminna
kreuzau
kri
krimi
kris
kristel
kristja
kro
kropotkin
kropyvnytskyi
kroto
krugman
krumlov
kryvyi
ks
ksson
ku
kuala
kudu
kuhn
kuindzhi
kull
kultur
kum
kungliga
kunis
kur
kurfu
kurt
kutsal
kv
kvennalistinn
kvorecky
kw
kwh
kyiv
kyivska
kyle
kyo
kyoto
kz
l
la
label
labelid
labelorid
labels
labem
labhair
labhairt
labhairtean
labhdair
labhraiche
labhraichean
labhrainn
labhruidh
labour
labrador
lac
lach
lachlainn
lachlan
lachlann
ladair
ladairean
ladh
ladhar
ladies
lado
lady
lafayette
lafsdo
lafsson
lafur
lag
laga
lagachadh
lagain
lagan
lagerkvist
lagerlo
lagh
lagha
laghail
laghan
lagopus
lagos
lagra
lagu
laguna
laibh
laich
laiche
laichean
laid
laideann
laideannach
laidh
laidheachd
laidinn
laidinneach
laidlaw
laidon
laig
laige
laigearraidh
laigh
laighe
laighean
laimrig
lain
laind
lainn
lainne
lainneach
lainnis
laire
lais
laisgeir
laitbhe
laitbhia
laithean
laj
lake
lakes
lama
lamarck
lamb
lambda
lambert
lambs
lament
laminaria
lammermoor
lamont
lan
lanair
lanairean
lanark
lanca
lancashire
lancaster
lancelot
land
landeskunde
landet
landgraf
landkof
landkreis
landna
landranger
lands
landscape
landsfjo
landskjo
landskrona
lane
lang
langaig
langaim
langais
langcode
langmuir
langobj
language
languages
languedoc
langues
lanka
lann
lannan
lanner
lannraig
lannsa
lanntair
lansing
lantach
lantanach
lantanaich
lanzarote
lao
laoch
laogh
laoghail
laoghaire
laoich
laoidh
laoidhean
laoigh
laoise
laomainn
lapa
lapaich
laphroaig
lapsus
lapwing
lapworth
lar
larach
laren
largacha
large
largely
largest
lark
larousse
lars
larsson
larus
las
lasach
lasadh
lasail
lasair
lasan
last
lastarg
lastauthoramp
lasthtml
lat
latbhais
latdegrees
late
later
lath
latha
latharna
latifrons
latin
latitude
latminutes
latrans
latreille
latseconds
lauder
lauderdale
lauenburg
lauingen
laura
laureano
laurence
lausanne
lausitzer
laval
lavoisier
law
lawrence
lawrencium
laxness
lay
laydate
laysource
lazarillo
lazily
lazio
lazy
lb
lbl
lc
lccn
lcdt
ld
le
leab
leabaidh
leabanon
leabhair
leabhar
leabharlainn
leabharlann
leabharlannaiche
leabhraichean
leabhran
leac
leacach
leacan
leach
leader
leading
leaf
leag
leagail
leaghadair
leaghadh
leaghaidh
league
leam
leamhna
leamhnach
lean
leanabachd
leanaban
leanabas
leanabh
leanadh
leanaidh
leanas
leanmhainn
leann
leanna
leannain
leannan
leannanachd
leanntainn
leantach
leantail
leantainn
leantainneach
leap
lear
learg
learga
leargaidh
learn
learngaelic
learning
leas
leasach
leasachadh
leasachaidh
leasachaidhean
leasachail
leasachain
leasachair
leasachan
leasaich
leasaicheadh
leasaichte
leasan
leasanan
leasbach
leasbaich
leasoto
least
leat
leatha
leathad
leathain
leathainn
leathainne
leathan
leathann
leathar
leatromach
leatruim
leben
lebkuchen
lebor
lech
leche
lechwe
lecoq
led
lee
leeds
leeuwarden
left
legacy
legal
legged
legislation
legless
legs
lehn
leicester
leiden
leig
leigeadh
leigeas
leigeil
leigheas
leigheasan
leigheis
leighis
leigidh
lein
leine
leinibh
leintean
leipzig
leipziger
leir
leis
leisgeul
leith
leithid
leitir
leloir
lelwel
lelystad
lemos
lemy
len
lena
length
lengua
lenient
lenin
leningrad
lenman
lennart
lenngren
lennon
lens
leo
leodhas
leon
leonard
leonardo
leonid
leonov
leontief
leopard
leopardus
leopold
leotha
leptoceros
ler
lervia
lerwick
les
lesley
leslie
less
lesser
lessing
lessons
lester
lesya
let
leth
lethbhreac
leticia
letters
lettres
leucophaeus
leucopsis
leucoryx
leud
leudachadh
leudaich
leugh
leughadair
leughadairean
leughadh
leughaidh
leughar
leughte
leum
leumadair
leumadairean
leusair
leusairean
leuven
lev
level
leven
leverhulme
levi
levitan
levitt
levy
lewes
lewis
lexical
lexicon
lexikon
lexington
lexy
leyen
leyman
lez
lfsdo
lfsson
lfstæðisflokkurinn
lfur
lga
lgbc
lheim
lholt
li
lia
liam
liath
liatha
liatroim
lib
libby
libe
libearal
libearalach
libearalaich
libearalas
liberal
liberec
liberiensis
liberman
libertad
libertarian
libhrigeadh
libia
liborina
libraries
library
libraryutil
libre
libreoffice
libreville
libris
lic
lica
lice
lichtenstein
lichtensteinii
lide
lidean
lie
liebe
liebig
liechtenstein
liestal
lietuvos
life
liga
liger
lighiche
lighichean
light
lightgrey
lighthill
lighthouse
ligia
lihou
lika
like
lila
lille
lillehammer
lilongwe
lim
lima
limburg
limit
limited
limosa
limousin
lin
lina
lincoln
linda
lindahl
lindgren
lindisfarne
lindsay
line
linegrey
lines
linga
lingua
linguae
linguistic
linguistics
linie
link
linked
linko
linkprefix
linkredir
links
linn
linnaeus
linne
linnean
linnet
linntean
lint
linton
linus
linux
linz
lion
lionadh
lioncs
lionn
lionna
lionnach
lior
lios
liosan
liosta
liostaichean
liota
liotua
lip
lippe
lipscomb
lir
liriceach
lis
lisa
lisboa
lisbon
lisbonlisboa
lise
lismore
lissabon
list
lista
listed
listnum
lists
lite
literary
literatura
literature
lithodes
litir
litium
litocranius
litomys
litopenaeus
litreach
litreachadh
litreachaidh
litreachail
litreachais
litreachan
litreachas
litrichean
little
littlejohn
liu
live
liverpool
lives
livia
living
livingston
livingstone
livius
lix
liz
lizard
lizards
ljo
ljubljana
ljung
lkerrechtliche
lksins
ll
lla
llach
llan
llanddwyn
llanfair
llanfihangel
llanos
llasat
lle
lleachan
lleida
lleoedd
ller
lleras
lli
llorona
llosa
lloyd
llui
llwybr
lly
llyfr
llywelyn
lmb
lmhor
lmhorachd
lmur
ln
lnlycke
lnstadt
lo
loaches
load
loaddata
loaded
loadi
lobenstein
lobhair
lobster
local
located
location
locations
loch
locha
lochabar
lochaber
lochaidh
lochain
lochan
lochar
lochhead
lochinver
lochlainn
lochlann
lochlannach
lochlannaich
lochlannais
lochs
lockerbie
lockhart
lockyer
locust
locusta
locusts
lodainn
lodair
lodge
log
logainm
logan
loganair
logarbaidh
logi
logic
logie
logo
logron
logsdon
loidhne
loidhneach
loidhnichean
loidig
loighne
loin
loingeas
loir
loire
lois
loisg
loisgeadh
loisgean
loisgte
lom
loma
lomair
lombardia
lombardo
lome
lomond
lon
londegrees
london
lonely
long
longaigh
longan
longfort
longitude
longlegs
longniddry
longuet
longyearbyen
lonminutes
lonseconds
look
looking
looks
loons
loop
loos
lope
lopholithodes
lora
lord
lords
lore
loreena
lorentz
lorenzo
lorg
lorgadh
lorgaidh
lorgan
lorgar
lorgas
lorimer
lorna
lorne
lorraine
los
losaidh
losgadh
losgaidh
losgann
lost
lot
lothar
lothian
louis
louisbourg
louise
louisiana
louisville
louse
louvre
love
low
lowe
lower
lowercase
lowland
lowry
loxia
loxodonta
loxosceles
loyola
lozano
lp
lpost
lpre
lru
lsch
lse
lseach
lseachd
lsson
lt
lta
ltadh
ltd
ltean
ltskog
lu
lua
luach
luachan
luachmhor
luachrach
luadh
luaidh
luaidhe
luail
luain
luaithe
luaithre
luanda
luas
luath
luatha
luatharan
luathas
luaths
lublin
lucas
luch
lucha
luchd
luci
lucia
lucius
luck
lucky
lucret
lucsamburg
lucus
lucy
ludendorff
ludwig
ludwigsburg
luft
luftlinie
lugano
lugh
lugha
lughdachadh
lughdaich
lugo
lugosi
luhansk
luhanska
lui
luib
luibh
luibhean
luigi
luimneach
luimnigh
luing
luinge
luingean
luinn
luirg
luirginn
luis
luke
lulea
lumphanan
lumpur
luna
lunainn
lunatus
lund
lunenburg
lunn
lunnainn
lupus
lurg
lus
lusaka
lusan
lusi
lusitania
luth
luther
lutherstadt
lutra
lutsk
luz
luzern
lv
lvarez
lvaro
lviv
ly
lycalopex
lycaon
lynch
lyngstad
lynn
lynx
lyon
lys
lyudmila
m
ma
maastricht
mabo
mabou
mac
macailpein
macamhlaigh
macanta
macaoidh
macaonghais
macartair
macarthur
macasgaill
macaskill
macau
macaulay
macbain
macbeth
macbhatair
macbheatha
maccalmain
maccodrum
maccoinnich
maccolla
macconaill
maccormaig
macdhiarmaid
macdho
macdhonnchaidh
macdhu
macdhunle
macdiarmaid
macdiarmid
macdonald
macdougall
macduff
maceachainn
maceachen
macfarlane
macfhearghais
macfhearghuis
macfhionghain
macfhionghuin
macfhionnlaigh
macgill
macgilleathain
macgillebha
macgilleeathain
macgillemha
macgillemhi
macgilli
macgregor
macgriogair
macguaire
mach
macha
machado
machair
machaire
machairodus
machine
machlag
machlagan
machrach
maci
maciain
macilleathain
macillebha
macilledhuibh
macillemhaoil
macillemhi
macinnes
macintosh
maciomhair
mackay
mackenzie
mackerel
mackerels
mackie
mackinnon
mackintosh
maclabhruinn
maclachlainn
maclachlan
maclean
macleay
maclellan
macleo
macleod
macleoid
macmhaoilein
macmhaolain
macmhathain
macmhi
macmhuirich
macmillan
macne
macneacail
maco
macpha
macphaidein
macpherson
macquarrie
macra
macrae
macrath
mactho
macuilleim
mad
madach
madadh
madagascar
madaiche
madaidhean
madainn
madame
maddrell
made
madeleine
madison
madoqua
madrid
maes
maeterlinck
mag
magaidh
magangue
magazine
magdalena
magdeburg
maggie
magh
magic
magma
magne
magnesium
magnu
magnus
magnusson
magpie
magyar
mahfouz
mahon
mai
maich
maid
maide
maidh
maidne
maigh
maighdeann
maighdeannan
maighread
maighstir
maighstireachd
maighstirean
mail
maile
mailisich
mailisidh
mailisidhean
maille
maimonides
main
maincat
maine
mainia
mainis
mainistir
mainly
mainn
mainsnak
maint
maintenance
mainz
mair
mairbh
maircnidh
maire
mairead
maireann
maireannach
mairearad
mairi
mairidh
mairsinn
mais
maise
maison
maith
maitheanas
maitheas
majdanek
major
make
makes
making
mal
mala
malabhaidh
malabo
malachi
malaidhsia
malaig
malairt
malairte
malairteach
malakhov
malaria
malaysia
malaysian
malcolm
male
mali
malibran
mall
mallarino
mallet
mallorca
malmberg
malmo
malo
malta
mamal
mamalan
mammalia
mammals
mammern
mammuthus
man
manach
manachainn
manachainnean
management
managua
manaich
manaiche
manaidsear
manaidsearan
manainneach
manannan
mancha
manchester
manchurian
mandairinis
mandatory
mandela
mandtii
mane
manfred
mangaineis
manichaean
manifesto
manikyo
manila
manisa
manitoba
manizales
mankell
mann
mannan
manne
manosalbas
mansach
mantis
manual
manuel
manuela
manul
manx
many
mao
maoile
maoilios
maoim
maoin
maoineachadh
maoineachaidh
maoir
maoirne
maois
maol
maola
maolalaigh
maolros
maor
maorach
maori
maoth
map
mapa
mapaichean
mappings
maps
maputo
mar
mara
marach
maradona
maraich
maraiche
maraichean
maral
maramongabay
maramures
marannan
marbh
marbhadh
marbhaiche
marbhaidhean
marbhrann
marbhtach
marbled
marc
marcachd
marcaich
marcaichean
marcas
marcel
march
marche
marco
marcus
mare
margadh
margaid
margaidh
margaidhean
margaree
margaret
margarita
margin
marguerite
marguments
mari
maria
marian
mariana
mariannus
mariano
marie
mariehamn
marilyn
marin
marina
marine
marinka
marino
marinus
mario
marion
mariquita
maritime
mariupol
marjorie
mark
marker
market
markowitz
marks
marksize
marktl
markup
marlon
marmat
marmorata
marne
maroco
marque
marquess
marquis
marra
marriage
marroqui
mars
marsaili
marsanta
marseille
marsh
marshall
marsupialis
mart
marta
martensz
martes
martha
marti
martin
martinique
martinson
martinus
martos
martyn
marvin
marx
marxach
marxachas
mary
maryland
mas
masach
masadoinia
masai
masaryk
mask
mason
mass
massachusetts
master
mata
matamataig
matamataigeach
matamataigear
matamataigs
match
matches
matching
mateo
mater
math
matha
mathachaidh
mathaid
mathan
mathanas
mathbf
mathematical
matheson
matilde
mats
matschie
matsuri
matt
matter
matters
matthew
matthi
mattison
maugham
maui
maupassant
mauriac
maurice
mauritius
maurits
mawr
max
maxarg
maximilian
maximilien
maximum
maximus
maxvals
maxwell
may
maya
mayer
mayo
mayor
mazama
mb
mbabane
mbe
mbeki
mbi
mbik
mbmix
mbox
mbpairs
mc
mccain
mccartney
mcclure
mcconnell
mcdonald
mcewan
mcgill
mcilvanney
mckennitt
mckenzie
mcleish
mcleod
mcmanus
mcmillan
mcneill
mcqueen
md
me
mea
meacanaigs
meadaigeach
meadal
meade
meadhain
meadhan
meadhanach
meadhanan
meadhannach
meadhannan
meadhoin
meadhon
meadhonach
meadow
meagsago
meala
mealabhaig
mealainin
meall
mealladh
meallain
meallan
meallta
mealtainn
mean
meanbh
meanbhach
meaning
meanmna
means
meant
mearachd
mearachdach
mearcair
meas
measa
measach
measadh
measail
measan
measg
measgachadh
measgaichte
measgte
meatailt
meatailte
meatailtean
meatair
meatairean
mecca
mecklenburg
med
medal
medb
medelli
medellin
media
mediawiki
medical
medici
medicine
medieval
medina
medio
mediterranean
medium
medway
meek
meenkyro
meer
meeting
meeusei
meg
megaceros
megaloceros
megalotis
megantereon
mehmed
meidh
meidigeach
meiklie
meilge
meilich
mein
meiningen
meirle
meitner
meji
mekabu
mel
melampus
melanchthon
melanitta
melanotis
melba
melbourne
melchiorre
meles
melgar
melitopol
melleri
melo
melopsittacus
melvin
memoiren
memoirs
memorial
memorials
memories
memory
memphis
men
menai
menarche
mendel
mendeleev
mendelssohn
mendoza
mene
mengele
mengs
menntasko
menor
menorca
mental
meo
meppel
meppen
meque
mer
mercat
merced
mercedes
mercer
merchant
mercury
meredith
merganser
mergus
merkel
merlin
merrifield
merry
merseburg
mersin
merthyr
merton
merula
mes
mesa
mesechinus
mesis
message
messages
mestizos
meta
metaargs
metadata
metair
metatable
metellus
meteo
method
methods
methuen
metreachd
metro
meud
meudachadh
meudachd
meur
meuran
meurchla
mexican
mexico
meyer
mez
meßkirch
með
mg
mgr
mh
mha
mhaastricht
mhabain
mhac
mhach
mhacha
mhachd
mhadaidh
mhadainn
mhadrid
mhagdalena
mhagdeburg
mhagh
mhagnaiteach
mhaid
mhaidean
mhaigh
mhaighdean
mhaighdeann
mhaighstir
mhail
mhain
mhainisdeir
mhainistir
mhainn
mhair
mhairbh
mhaireadh
mhaireann
mhaireannach
mhaireas
mhairi
mhais
mhaise
mhal
mhaladaibh
mhalaig
mhalairt
mhalairte
mhalairteach
mhall
mhalmo
mhamal
mhan
mhanach
mhanachainn
mhanaich
mhanaidsear
mhanainn
mhanann
mhanchester
mhanhattan
mhann
mhanta
mhaoil
mhaoilein
mhaoin
mhaoineachadh
mhaoineachaidh
mhaoineas
mhaoirne
mhaol
mhaola
mhaor
mhaorach
mhapa
mhapaichean
mhaputo
mhara
mharaiche
mharbh
mharbhadh
mharbhtach
mhargaidh
mharmara
mharoco
mharseille
mhata
mhatamataig
mhath
mhatnote
mhdach
mhdachadh
mhdaichte
mhdhail
mhdhalach
mhe
mhea
mheadhain
mheadhan
mheadhanach
mheadhanaich
mheadhoin
mheagsago
mhealaboist
mhealbhaich
mheall
mhean
mheanbh
mheannt
mhearnaig
mheas
mheasadh
mheasail
mheasgachadh
mheasgaich
mheasgaichte
mheatailt
mheatailtean
mheatair
mhecklenburg
mhedelli
mhelanchthon
mheo
mheud
mheudachadh
mheudachd
mheudaich
mheur
mheurchla
mhgr
mhi
mhial
mhiann
mhiannach
mhiannachd
mhiannaich
mhic
mhicamhlaigh
mhicaoidh
mhiccoinnich
mhicgill
mhicgilleathain
mhichigan
mhicillfhaolain
mhicleo
mhicneacail
mhicshimidh
mhictho
mhilano
mhill
mhilleadh
mhillean
mhin
mhinistear
mhinistearan
mhinisteir
mhinn
mhion
mhionaid
mhios
mhiosa
mhira
mhiseanaraidh
mhississippi
mhiu
mhla
mhlachaidh
mhlachd
mhlain
mhlan
mhlanan
mhna
mhnadh
mhnaich
mhnaidh
mhnaill
mhnall
mhnallach
mhnallaich
mhnant
mhnantaich
mhnantan
mhnard
mhnardan
mhnathan
mhnt
mho
mhoch
mhodal
mhodh
mhodhail
mhoileciuilean
mhoire
mhoireach
mhoireasdan
mhoireibh
mhoiriseas
mhol
mholadh
mhonaco
mhonadh
mhonaidh
mhonar
mhonarcachd
mhor
mhorail
mhorair
mhoralta
mhorbhairne
mhort
mhosg
mhosgo
mhotha
mhothachadh
mhothaich
mhradh
mhrag
mhraidh
mhraidhean
mhraig
mhstri
mhu
mhuc
mhuic
mhuile
mhuileann
mhuilich
mhuilinn
mhuilleir
mhuillidh
mhuineacha
mhuinntir
mhuir
mhuire
mhuirich
mhuiris
mhuirt
mhullach
mhullaich
mhurchaidh
mhurt
mi
mia
mial
miami
mianmar
miann
miasta
mic
mica
michael
michel
michelangelo
michele
michelin
michelle
michelsen
michie
michiel
michigan
michua
mick
micmac
microsoft
mid
middelburg
middle
midge
midi
midland
midlothian
mie
miers
miffia
mifflin
mifune
might
migrateur
migration
migratoria
miguel
mihai
mihail
mike
mikhail
miklo
miktoniscus
mil
mila
milan
milano
milbenka
mile
miles
milis
military
mill
millard
milldoe
milleadh
millean
milleanan
millennium
miller
million
mills
milne
milos
miltean
milton
milvus
milwaukee
min
minas
mind
mindanao
mindorensis
mines
minginis
minh
mini
minig
minimus
ministear
ministearan
minister
ministreachd
ministrealachd
ministry
mink
minke
minn
minneapolis
minnesota
minor
minority
minquiers
minsk
minutes
mio
miomachairodus
mion
mionaid
mionaideach
mionaidean
mios
miosa
miotas
miotasach
mir
mira
miracinonyx
miraflores
miranda
mire
mirean
mirren
mirrlees
mirror
misael
mise
misean
miseanan
miseanaraidh
misneachd
miss
missing
mission
mississippi
missouri
mistral
mit
mitchell
mitchison
mitchum
mitrokhin
mitu
miu
mium
miðflokkurinn
miłosz
mj
mk
ml
mlt
mm
mn
mna
mnaoi
mnathan
mo
moby
moch
mocoa
mod
modail
modailean
modal
mode
model
modern
moderne
modesto
modh
modhail
modhan
modhannan
modiano
modigliani
module
modules
moffat
mogos
mohammad
mohammed
mohr
moiche
moileciuil
moileciuilean
moine
moines
moire
moireabh
moireach
moireasdan
moireibh
moisil
moissan
moiteil
mol
molach
moladh
molaidhean
molda
moldobha
mole
molecular
moledo
molina
mollissima
moluag
mommsen
mompo
mon
mona
monaco
monadh
monaghan
monaid
monaidh
monaidhean
monar
monarc
monarcachd
monde
mondriaan
monedula
money
mongabay
mongalla
mongo
mongolia
mongolian
mongoose
monica
monique
monitor
monk
monkey
monkfish
monod
monreith
monroe
monrovia
mons
monster
monsters
mont
montagnola
montale
montan
montana
montanus
montauban
monte
monteri
monterrey
montevideo
montgomery
month
monthly
months
monticola
montifringilla
montmartre
montpellier
montreal
montrose
monty
monument
monuments
moon
moor
moore
moose
mor
mora
morabhia
morair
morairean
moral
morales
moralta
moraltachd
moran
moratainia
moray
mordant
mordor
more
moreargumentsexist
moreno
morf
morgan
morgannwg
morgen
morgoth
morgunblaðið
morning
moroni
morris
morrison
mort
morton
moschatus
moscobha
moscow
moselle
moses
mosfellsbær
mosg
mosgo
moshe
mosque
mosquera
most
motacilla
motala
motha
mothachadh
mothachaidhean
mothachail
mother
motherwell
motlanthe
moto
motor
mount
mountain
mountaineering
mountains
mousa
mouse
mouton
movement
movie
moya
mozart
mozilla
mozuku
mp
mpa
mpire
mpireachd
mpireil
mplidh
mr
mraichean
mrs
ms
msa
msaa
msg
msp
msson
mt
mu
muammar
muc
mucan
much
muckle
muerte
mugdock
muhammad
muhammed
muic
muice
muigh
muile
muileach
muileann
muillean
muilnean
muin
muine
muineacha
muinntir
muinntire
muir
muireann
muirt
muirthead
muisca
mukawa
mule
mulhouse
mull
mullach
mullaich
mullaichean
mullardoch
mulliken
multidict
multilingual
multiple
mum
mumaidh
mumbai
mumford
mumhan
mun
muncaidhean
mundell
mundo
mungan
mungo
mungos
munich
municipal
municipio
municipios
munro
munromagic
muntenia
munthe
muntiacus
muntjac
muntjak
mur
mura
murad
muraisc
muralto
murchadh
murchan
murchison
murcia
murdo
murdoch
mures
murfatlar
murfreesboro
murillo
murphy
murray
murt
mus
muse
museum
musgach
music
musik
muskox
muslamach
muslamaich
mussolini
must
mustafa
mustela
mustelidae
muta
mute
muthaich
mutus
muy
muyskkubun
mv
mvezo
mw
my
myerson
mykola
mykolaiv
mykolaivska
myllar
mynydd
myrdal
myrhorod
mystery
myth
mythology
n
na
nabhair
nach
nachadh
nacht
nacio
nacional
nad
nadarra
nadh
nadine
naemorhedus
nafarroa
nag
nagasaki
naguib
nagurus
nagy
nahuatl
nai
naich
naichean
naid
naidh
naidheachd
naidheachdan
naidheachdas
naidhean
naig
naigh
naighear
naill
naimibia
nain
nainean
naipaul
nair
naire
nairean
nairn
nairobi
nais
naiseanta
naitridean
naked
nall
nam
name
named
names
namespace
namespaces
namh
namibia
nan
nana
nanach
nanachais
nanachas
nanaiche
nanaichean
nanan
nanas
nancy
nanger
nantes
nanus
naofa
naoi
naoidheamh
naoidhean
naoimh
naoinear
naoise
naomh
naomhan
naoned
napier
naples
napoca
napole
napoleon
napoli
nar
narann
narin
narrow
narva
nas
nasa
nasdal
nasgadh
nash
nashville
nasomaculatus
nassau
nasser
nasson
nastal
nat
natalie
natan
nathair
nathan
nathraichean
nation
national
nationale
nationalencyklopedin
nationalism
nations
native
nato
natta
natural
nature
naunton
nauru
naval
navarra
navas
navbar
navbox
navy
nazi
nb
nbsp
ncbi
nchen
nchez
ncia
ncipe
ncus
nd
ndaigh
ndairnis
ndal
ndargs
ndataset
nde
ndef
ndel
nder
ndez
ndorfi
ne
nea
neacail
neach
neachadh
neachaidhean
neachan
neachdain
nead
neadachadh
neadh
neag
neagrach
neamt
nean
neapa
near
neart
neartachadh
neartan
neartmhor
neas
neasaig
neasair
neasan
neasca
neathach
nebraska
nebulosa
neburg
neburger
necessary
necked
ned
neda
nedd
nederland
nederlands
need
needed
needle
needs
neeson
neferneferuaten
nefertiti
negative
negishi
neil
neill
neiptiunium
neirt
neis
neither
neithich
neiva
nek
nel
nelissen
nelly
nelson
nematodes
nemed
nemosto
nen
neo
neodimium
neodrach
neofelis
neoini
neon
neoni
neotragus
neovison
nepal
nephi
ner
nernst
neruda
nes
nesc
neskaupstaður
ness
nest
net
neth
netherlands
network
neu
neucha
neul
neumu
neuruppin
neustadt
nevada
nevado
never
neville
nevis
new
newark
newcastle
newlands
newline
newman
newport
news
newspapers
newt
newton
newts
next
nextarg
nez
nezhdana
ng
ngall
ngel
ngora
ngstro
nh
nhausen
ni
nia
niall
niamey
nibheis
nic
nica
nicalasdair
nicaoidh
nicaonghais
nicasgaill
niccoinnich
niccolo
nicdho
nice
niceal
nicgilli
nicgumaraid
nich
nicheadh
nicholas
nicholson
nicht
nichte
nicilleathain
nick
niclaomainn
nicleo
nicne
nico
nicol
nicola
nicolae
nicolas
nicolaus
nicole
nicollier
nicolson
nicosia
nictaux
nicualraig
nid
nidh
nie
niedersachsen
niel
niels
nielsen
nieto
nietzsche
nieuwland
nig
niger
nigeria
nighe
nighean
nigheanan
nighinn
night
nightingale
nigra
nigreich
nigripes
nigsberg
nigswinter
nihonium
nijmegen
nikita
nikolai
nikolaus
nikolay
nikolayevich
nikos
nil
nile
nilgiritragus
nils
nimi
nimo
nimos
nin
nina
nine
nineteenth
ninian
niobium
niocaragua
nios
nippon
nir
niro
nirribheach
nirribhidh
nirribhis
nis
nise
niseach
nist
nistaflokkur
nit
niteworks
nithean
nithear
niu
niue
nium
nivalis
niven
nixon
nizhyn
nk
nkieli
nko
nl
nleibh
nls
nm
nn
nndb
nntas
no
noah
nobel
nobelprize
nobhail
nobhaileag
nobhailean
nobhailiche
nobhar
noble
nocaima
nocat
nochd
nochdadh
nochdaidh
nochdas
nodes
nodha
noel
noemi
nohlen
noicon
noir
nokia
nollaig
nollaige
noma
non
none
noop
noord
noorda
nooteboom
nooverwrite
nor
nord
nordrhein
norfolk
norge
nori
norma
normal
norman
normanach
normanaich
normandie
normandy
nornais
norrbottens
norris
norrish
norrko
norse
norsk
norske
norstedt
norte
north
northern
northrop
northumbria
northwestern
norton
norwegian
norwich
norður
norðurland
norðvesturkjo
nos
nosed
not
nota
notaichean
note
notes
nothing
noticias
notoc
notre
nottingham
nouakchott
noume
nouveau
nouvelle
nova
novalue
novel
november
novemberrevolution
novgorod
novo
novohrad
now
nowiki
nowrap
noyori
nr
nrachadh
nrachaidh
nraichte
nran
nrigh
nrighinn
nrs
ns
nsdo
nsi
nsid
nsson
nstable
nster
nt
nta
ntacht
ntan
ntara
nte
nter
ntgen
nther
ntico
nu
nua
nuada
nuadh
nuadhachadh
nuadhachail
nuaidh
nuair
nuas
nubian
nuclear
nuestra
nueva
nuevo
nui
null
num
number
numbered
numbers
numdigits
numea
numenius
numeric
nums
nun
nunavut
nunn
nuoro
nur
nuthatch
nutritionist
nw
ny
nya
nyala
nyctereutes
nyi
nyko
nyok
nzburg
nzerin
o
oak
oakland
oaks
oara
oasis
ob
oba
obadh
obaill
obair
obaire
obaireachd
obairean
obairt
obairteach
obairtean
obairtich
obaldi
oball
obama
oban
obando
obann
obar
obe
oberlausitz
oberndorf
obh
obha
obhach
obhadair
obhadairean
obhadh
obhaiche
obhaichean
obhaideach
obhaidh
obhaidhean
obhainn
obhainnean
obhair
obhaite
obhalta
obhaltach
obhaltaich
obhann
obhar
obhas
obhta
obhte
obituary
obj
object
objects
oblast
obrach
obrachadh
obrachaidh
obrachaidhean
obrachail
obrachan
obraich
obraiche
obraichean
obraicheas
obscurus
observer
oc
ocampo
ocan
occidental
occidentalis
occidente
occitania
occurrence
ocean
oceania
och
ochach
ochail
ochain
ochan
ochantas
ochd
ochdair
ochdamh
ochdar
ochdarach
ochdnar
ochnachadh
ochnaich
ochnaichte
ocht
ochtarach
ochuimhneachadh
ocinsoutput
oclc
ocseadanais
octavia
octavio
october
octobre
od
oda
odach
odd
oddsson
odense
oder
odesa
odeska
odhair
odhar
odharan
odhlac
odhlacadh
odhlacaidh
odhlachadh
odhlaiceadh
odo
odobenus
odocoileus
odysseas
oe
oenanthe
of
off
offa
office
official
oftedal
often
og
oga
ogaim
ogam
oganesson
oge
ogh
ogha
oghachadh
oghachd
oghachdan
oghaichean
oghail
oghain
oghairean
oghaltas
ogharraidh
oghladh
oghrasach
oghrasaich
ogilby
ogsaid
ogsaidean
ogsaidicheadh
ogsatanais
ogwr
oh
ohio
ohlin
ohne
oi
oibre
oibreachadh
oibrichean
oibrichteachd
oid
oide
oideachadh
oideachaidh
oideachas
oideas
oidhche
oidhcheannan
oidhirp
oidhirpean
oifig
oifigeach
oifigeal
oifigear
oifigearan
oifigeil
oifigich
oifis
oifisean
oighre
oighreachd
oighreachdan
oil
oilbheint
oilea
oileanach
oileanaich
oillteil
oilthigh
oilthighe
oilthighean
oir
oirbh
oireachtas
oirean
oirnn
oirre
oirthir
oirthire
ois
oise
oisean
oiseanach
oisein
oithigh
okinawa
oklahoma
okres
oksana
ol
ola
olachadh
oladh
olaf
olaidh
olain
olaya
olbia
olc
olca
old
oldenburg
oleksandr
oleksandriya
oleracea
olga
olha
olive
oliveira
oliver
olivier
oll
ollaid
ollaimh
ollamh
ollamhachd
ollamhan
olmu
olof
olomouc
olor
olsson
olt
olta
olympics
om
oma
omaha
omaighean
oman
omh
omha
omhach
omhachail
omhachais
omhachas
omhachasail
omhachasan
omhachd
omhadair
omhadh
omhaich
omhaiche
omhaichte
omhaid
omhaidh
omhaigh
omhaigheach
omhaighean
omhain
omhair
omhaire
omhaireachd
omhairean
omhan
omhanas
omhann
omhasachadh
omniglot
ompaire
ompaireachd
omrabhagh
on
ona
onach
onadach
onadair
onadh
onag
onager
onagoga
onaich
onaidh
onail
onain
onais
onan
onarach
onca
once
one
ones
ongar
online
only
onlysourced
onlysrc
onmhor
onnes
onomastic
onorach
onra
onsager
onslow
onta
ontario
oort
op
opach
opachais
opachas
opaichean
opanas
opara
oparan
open
openoffice
opera
operator
opra
opras
ops
opt
option
optional
optionalarg
options
or
ora
orachas
oradea
orain
orains
orainsear
orainsearan
orais
oral
oran
orange
oras
orasaigh
orasan
oratorio
orb
orbhail
orbhaileach
orca
orcan
orcastra
orchardton
orchestra
orchid
ord
ordanance
order
ordinal
ordinary
ordnance
oreamnos
oregon
oreotragus
org
organ
organization
orgastan
orhan
ori
oribi
oriental
orientales
orientalis
orientation
orig
origargs
origin
original
origink
origins
orinoco
orion
orkney
orkneyinga
orkneyjar
orlando
orle
orleans
orlu
ornate
oro
orra
orrachd
orraidh
orraidheachd
orrasan
orsa
ort
ortac
ortadogsach
orthographic
ortiz
ortnamnslexikon
ortodogsaich
ortogo
orwell
oryx
os
osa
osachain
osachan
osail
osain
osaka
osal
osan
osanach
osanachadh
osanaich
osanan
osbeck
oscar
osd
osda
osdachadh
osdaidh
osdaidheachd
osdaidhean
osdail
osipenko
oslavy
oslo
osman
osmanlı
osmium
osnabru
osos
ospadail
ospadal
ospadalan
ospina
osprey
osrach
osradh
osraich
oss
ossian
ost
osta
ostaidh
ostaidhean
ostaig
ostail
ostair
ostaire
ostaireach
ostara
ostfriesisches
ostrava
ostwald
oswald
osypenko
oszk
ota
other
others
otherwise
otocolobus
otocyon
otomanach
otomanaich
ottawa
otter
otto
ottoman
ou
ouagadougou
oulu
our
ourebi
ourebia
ourense
out
outer
output
outre
outstr
ov
over
overijssel
overridden
overwrite
ovibos
oviedo
ovis
ovseenko
owain
owen
owl
own
ox
oxford
oxfordshire
oz
ozotoceros
p
pa
pabaigh
pabail
pablo
pacaid
pacastan
pachd
pacho
pacifastacus
pacific
pacino
padding
padova
padruig
padua
paganini
pagasta
page
pagename
pageobject
pages
pago
pagos
pai
paichean
paidhir
paidhleat
pailt
pailte
pailteas
painting
paintings
pairs
pairt
paisa
paisley
pal
palace
palach
palacios
paladium
palaemon
palais
palastain
palau
pale
palencia
palermo
palgrave
pallas
palm
palma
palmas
palme
palmira
palo
palumbus
palustris
pampas
pamplona
pamuk
pan
pana
panach
panama
panda
paneve
panolia
panorama
panther
panthera
pantholops
paolo
papa
papeete
paper
paperback
papers
papilio
papua
par
para
paracelsus
paradis
paradise
paraechinus
paraguaidh
paraguay
parailealogram
paraiste
parakeet
paralithodes
param
paramachairodus
paramadair
parameter
parameters
params
paramsaliasesp
paras
paraset
parasitic
parbh
parc
pardofelis
pardubice
pardus
parent
parentargs
parentfirst
parentonly
parentt
pargs
pari
paris
pariser
parish
park
parker
parlamaid
parliament
parm
parme
parproblem
parr
parra
parraist
parraisteanirish
parral
parrot
parrots
parse
parsedec
parsedformat
parsedms
parseformat
parseinput
parseparam
part
partaidh
partaig
partan
partement
partements
parthala
particular
particularly
partido
parties
parton
partridge
parts
party
pas
pasadena
pascal
pasgan
pass
passage
passamaquoddy
passed
passenger
passer
passion
passy
past
pasternak
pasteur
pasto
pastrana
pat
paterson
path
patience
patiencei
paton
patran
patricia
patrick
pattaya
patten
pattern
patterns
pau
pauker
paul
paula
pauli
pauling
paulo
pavlenko
pavlichenko
pavlo
pavogur
paya
payne
pays
paz
pc
pcall
pd
pdf
pe
peace
peach
peacock
peadair
peadar
peairt
peakbagger
peallag
peann
peant
peantadh
peantair
peantairean
pearl
pearraid
pears
pearsa
pearsanta
pearsantachd
pearson
pearu
peata
peataichean
peathar
peathraichean
peatrail
pedagogia
pedersen
pedro
peel
peighinn
peilear
peilearan
peirce
peireid
pelagicus
pelea
pelecanus
pelham
pelican
pelorovis
pembrokeshire
pen
penaeus
penguin
penguins
penh
penicillata
peninsula
penn
pennant
pennsylvania
penny
penpont
penrhyn
penrhyndeudraeth
penrose
pentlands
pentre
pentru
people
pepito
peploe
peppa
per
percent
perches
percy
perdix
peregrinus
pereira
perfect
performance
period
periodical
periodicals
periods
perkin
permitted
pernis
pero
perse
perseus
persian
persistence
person
personal
perspective
perspectives
perth
perthshire
peru
perutz
peruvian
peter
peterburg
peters
petersburg
petersi
petit
petliura
petra
petrel
petrels
petro
petrov
petrus
petty
peucag
peutan
pez
pfalz
pfer
pframe
pg
pgs
ph
pha
phabaigh
phadova
phadua
phaidhleat
phalacrocorax
phanama
phantom
phaputhach
pharaguaidh
pharaiste
pharas
pharis
pharraist
phartaidh
phasianus
phd
pheadair
pheairt
pheant
pheantadh
pheantair
phearsa
phearsain
phearsanta
phearu
pheasant
pheathar
pheathraichean
pheatrail
phennsylvania
pheofhair
pheofharain
phi
phia
phil
philadelphia
philanthus
philantomba
philip
philipp
philippe
philippine
philippines
phillip
phillips
phillipsi
philomelos
philosophical
philosophy
phiogto
phiuthair
phiuthar
phla
phlana
phlanaichean
phlanaid
phlatanum
phle
phloc
phluic
phmm
phnom
pho
phobaill
phoball
phoblach
phoblachd
phoblaich
phoenicurus
phoenix
phoileagain
phoileagan
phoileas
phoileasaidhean
phoileataigeach
phoileataigs
phoiliteagach
phoilitigeach
pholl
phomerania
phonemic
phopaya
phort
phortagail
photo
photos
phoznan
php
phra
phreas
phreasantair
phreastabhaig
phretoria
phri
phrinceton
phrionnsa
phrionnsabal
phrionnsalachd
phris
phro
phrobhaist
phroifeasair
phrosbaig
phru
phruis
phu
phuill
phuing
phuirt
phuist
phunnd
phutain
phylloscopus
physalia
physical
physics
pi
pia
piacentinii
piano
pias
piast
piatra
pica
picadilly
picasso
pick
pictavia
picticaudata
pictou
pictures
pid
pidmohylny
pie
piece
pied
piedra
piedras
piemonte
pierce
pierre
piet
pieter
pietro
pig
pigeard
pigeon
pikas
pike
pill
pillteach
pilot
pinc
pine
ping
pings
pinilla
pink
pinn
pinter
pinyin
piobar
pioghaid
pioneer
pios
pipe
piping
pipit
pippin
pirandello
pirate
pisa
piseach
pistoia
pistols
pites
pitre
pitt
pittsburgh
pius
piuthar
pizarro
pl
pla
place
placenames
placenmes
places
plague
plain
plains
plan
plana
planadh
planaichean
planaid
planaidean
planck
planet
planeta
planning
plant
plants
plastaig
plata
platanum
plate
platform
plath
plato
platt
plattdu
platypus
platyrhynchos
play
played
player
playfair
plaza
ple
plea
pleasant
please
pleistocene
ploc
plockton
ploies
plotarea
plotdata
plover
plu
plunkett
plural
plus
pluto
plutonium
pluvialis
plymouth
plzen
pm
pmatrix
pmc
pmid
pne
png
po
poblach
poblachd
poblachdach
poblachdan
poblado
pocanach
pochard
pocket
podcast
podiceps
podilskyi
poe
poem
poemas
poems
poet
poetry
poets
poileagain
poileagan
poileas
poileasaidh
poileasaidhean
poileatagach
poileataics
poileataigeach
poileataigs
poileis
poilimearan
poilis
poiliteagach
poilitigeach
poilitigs
point
points
poit
poitean
poitou
pol
polais
poland
polanyi
polar
polasaidhean
polecat
polen
poli
police
policy
polina
polis
polish
political
politics
polk
poll
pollaidh
pollaig
pollaran
polloi
pollution
polo
polonium
poltava
poltavska
polygon
polytechnique
pombo
pomerania
pompidou
pond
pongail
pont
pontevedra
pontificia
pontoppidan
pontus
pop
popasna
popaya
pople
popov
popular
population
por
porcellio
porcellionides
porcinus
porfirio
porphyra
porpoise
port
portagail
portagaile
portagaileach
portagailis
portal
porter
portland
portmeirion
porto
portrait
portsmouth
portugal
portunus
porzana
pos
posada
position
positional
positive
possible
possibly
possum
post
posta
postcondition
posterstein
postfix
postscript
pot
potasium
potato
potsdam
potter
poulter
pour
power
powerpoint
powys
poznan
pp
ppen
pr
pra
practice
prag
pragt
prague
praia
praid
prairie
pratensis
prawn
prayer
praying
pre
preachan
preantasachd
preas
preasantair
preastabhaig
precision
precondition
preda
preferred
prefix
prefixedtext
prefixtable
pregl
prehistoric
prelog
premio
prensa
preprocess
preprocessargs
preprocesssinglearg
prescott
presence
present
presentation
presented
preserve
preserved
presidencia
president
presidents
presley
press
preston
presumable
pretoria
prev
prevent
preview
previous
prevp
pri
prieto
prigogine
primary
primavera
prime
primigenius
primitive
primo
primrose
prince
princeton
princip
principal
print
printed
prints
priomh
prionailurus
prionnsa
prionnsabal
prionnsabalan
prionnsalachd
priory
pris
priscus
prishtina
prison
private
privateers
prix
prize
pro
probably
probhaist
problem
problems
procapra
proceedings
process
processed
processing
processitem
produced
produces
prof
professor
profile
program
proifeasair
proifeasan
proifeasanta
proifeiseanta
project
prokofiev
pronouncing
prop
proper
properties
property
propertyid
propertyvalue
propertyvalueandquals
proppe
props
prose
prospero
protection
protest
protestant
prothaid
proto
provenc
provence
provided
providence
provides
provincia
provincias
provincie
prozac
pru
prudhomme
pruise
pruiseanach
pruisia
prunariu
przewalski
przewalskii
ps
pseudois
pseudoryx
psolea
pss
psu
pszamlalas
pt
ptarmigan
ptolemy
ptolomaidh
pu
pub
public
publicationdate
publicationplace
publications
publique
published
publisher
publishername
publishers
publishing
pudu
pueblo
pueblos
puente
puerto
puffin
puffinus
puglia
puig
puilean
puing
puinge
puingean
puinnseanach
puirt
puist
pujalo
puku
pullar
pulo
puma
pumarejo
punc
punctuation
punjab
punjabi
punk
punnd
purchase
purpaidh
purple
purt
put
putadh
putan
putin
putorius
putumayo
pval
px
pygargus
pygmaeus
pygmy
pyotr
pyre
pyrrhocorax
pyrrhula
q
qc
qid
qingdao
qinnuayuak
qlist
qquad
quail
qual
qualid
qualifier
qualifiers
qualifierscount
quals
quarlesi
quasimodo
quatre
que
quebec
quechua
quedlinburg
queen
queens
queensberry
queensferry
queensland
quemuenchatocha
quercus
quesada
quevedo
qui
quibdo
quiet
quijote
quinte
quintus
quito
qunu
quo
quoich
quote
quoted
quotes
qusqu
qv
qval
r
ra
raasay
rabat
rabbi
rabbits
rabhadh
rabhaidh
rabindranath
rables
rach
rachadh
rachaidh
rachaidhean
rachas
rachd
rachel
racine
rad
radaigeach
radain
radal
radan
radh
radical
radio
radium
radius
radoje
radon
raf
rafael
rafferty
rafinesque
rag
raga
raghnaill
raghnall
raghnallsaigh
ragnar
ragnheiður
ragolta
rahden
raib
raibeart
raich
raiche
raichean
raichte
raid
raide
raideach
raidean
raiders
raidh
raidheach
raidhean
raidhich
raidiannan
raidiche
raidichean
raidigeach
raidio
raig
rail
raileach
rails
railway
railways
raim
rain
rainbirder
rainbow
raineach
rainer
rainn
rainne
rainneach
rainneachd
rainnean
rair
rais
raisean
raitear
raithin
rajasthan
ral
ralph
ram
ramach
ramakrishnan
rami
ramiriqui
ramla
ramli
ramo
ramsaigh
ramsay
ramses
ran
ranaiche
ranais
ranas
rancho
rand
randolph
random
rang
rangachadh
range
rangers
rangersceltic
ranges
rangifer
rank
rankin
ranking
rankpos
ranks
rann
rannaibh
rannan
rannoch
rannsachadh
rannsachaidh
rannsachaidhean
rannsachair
rannsachairean
rannsaich
rannsaiche
rannsaichear
ranntair
ranntairean
rant
rantan
ranunculus
raoh
raoin
raointean
raon
raonaid
raonasa
raoul
rap
rapair
rapal
raphael
raphicerus
rapids
rapunsail
raquel
rar
rard
rare
ras
rasaig
rasan
raspberry
rat
ratar
rath
ratha
rathad
rathadan
rathaid
rathaidean
rathaile
rathais
ratharsair
rathaus
rather
ration
ratreut
ratzeburg
ratzinger
rau
raven
ravenna
raw
rawequal
rawget
rawkeyself
rawset
rawvalue
ray
rayleigh
raymond
rays
rb
rba
rbach
rbais
rbasdail
rbost
rc
rcaibh
rcan
rchuid
rd
rda
rdach
rdachadh
rdachd
rdadh
rdag
rdagh
rdaich
rdaichean
rdaichte
rdaidh
rdaidhean
rdaig
rdail
rdain
rdainn
rdais
rdalur
rdamon
rdan
rdanach
rdia
rdoba
rdova
rdte
rdugh
rdughan
rduighean
rdæmi
re
reabh
reach
reachas
reachd
reachdadair
reachdail
reachdan
reachdas
reactar
read
reader
readh
readhactaran
reading
readonly
reagan
real
really
reamhair
reamhaire
reamhar
rean
reason
reatha
rebro
recent
recluse
record
records
recovery
red
redford
redirect
redland
redshank
redunca
redundant
reed
reedbuck
reel
reels
reeperbahn
reeves
ref
reference
references
referenceurl
referendum
refhash
reform
reformation
regency
regensburg
regina
regio
region
regional
regione
register
regnault
regular
regulus
reic
reiceadair
reiceadh
reich
reicheit
reichstag
reichstein
reid
reidius
reifreann
reign
reihe
reil
rein
reina
reindeer
reine
reiner
reinhard
reinhold
reir
reithe
reithean
related
relative
relatively
release
religion
religious
rem
remains
rembrandt
remek
remigius
remove
removeblanks
removed
removes
remus
ren
renaissance
renault
rendersnak
rendo
rene
renfrewshire
renn
rennes
rennie
reno
renton
reo
rep
repeat
replace
replacedecimalmark
replacement
replacetext
report
represents
repression
reprint
reptiles
repu
republic
republik
republika
reqranks
requested
requiem
require
required
rer
res
research
reserve
reservoir
resolver
resource
resources
rest
restoration
restrepo
result
results
resurse
ret
retrieve
retrieved
return
returned
returns
retval
reubainnear
reubaltach
reubaltaich
reul
reuladair
reultan
reusan
reusanta
reuß
rev
revenge
reverse
reversing
review
revised
revista
revival
revolucio
revolution
revolutionary
revue
rey
reyes
reykjavi
reykjavik
reymont
rez
rft
rg
rga
rgairean
rgan
rgb
rgen
rgische
rgovis
rgu
rgy
rhallsson
rhea
rhebok
rhein
rheinland
rhely
rhildur
rhim
rhin
rhine
rhino
rhinoceros
rhizosmilodon
rho
rhoda
rhode
rhododendron
rhodri
rhona
rhondda
rhos
rhus
rhynchogale
ri
ria
riabhach
riabhag
riada
riaghail
riaghailt
riaghailteach
riaghailteachd
riaghailtean
riaghaladh
riaghalaidh
riaghaltais
riaghaltas
riaghaltasan
riaghlach
riaghladair
riaghladh
riaghlaich
riaghlaidh
riaghlatais
riamh
rian
rianachail
rianachd
rianachdail
rianaire
rianan
riascos
riata
riatanach
ribe
ribh
ric
rica
ricardo
ricaurte
riccarton
rich
richard
richards
richardson
riche
riches
richmond
richter
rico
rida
ridge
ridire
ridirean
ridseard
riese
rieure
rifkind
riga
righ
righinn
right
rights
rih
riihima
rij
rijeka
rijn
rika
riksarkivet
rilke
rim
rin
ring
ringed
ringen
ringer
ringo
rings
rinn
rinne
rinneach
rinneadh
rinnean
rio
riochd
riochdachadh
riochdaich
riochdair
riochdaire
riochdairean
rioghachd
rioghail
riohacha
rioja
rionegro
rionnach
rionnag
rionnagan
riparia
ris
rise
rising
rita
ritchie
rith
rithe
rithis
rithist
rium
riut
riutha
river
rivera
rivers
rivie
rivne
rivnenska
riyadh
rj
rk
rkro
rl
rlabhagh
rlabhaigh
rlach
rlad
rlaich
rlain
rlair
rlamaid
rlamaide
rlamaideach
rlamaidean
rlann
rlar
rlinn
rlitz
rmachan
rmainn
rmhoir
rmhor
rms
rn
rna
rnabhagh
rnabhaigh
rnach
rnachail
rnadh
rnag
rnagach
rnagan
rnaich
rnaidh
rnaidhean
rnaig
rnaigh
rnaighean
rnailear
rnaileir
rnain
rnaireachd
rnais
rnan
rnaraigh
rnarflokkurinn
rnarrað
rnarraðið
rnarriðið
rnason
rnberg
rni
rnia
rnium
rno
rnol
rnsaidh
rnsson
rnu
ro
roa
road
roads
roald
rob
robain
roban
robasdan
robbie
robert
roberto
roberts
robertson
robh
robhar
robin
robinson
robledo
roc
rocaidean
rochester
rock
rockas
rocket
rocks
rocky
rod
rodach
rodas
roddy
roderick
rodin
rodney
rodri
rodrigo
rodrigues
rody
roe
roelofs
roentgenium
roger
rogers
roghainn
roghnachadh
roghnaich
roi
roibeard
roid
roimh
roimhe
roimhpe
roinn
roinne
roinneadh
roinnean
roinneil
roinniche
roinnidh
roinnseachadh
roinnte
roinntean
rois
roise
roja
rojas
roland
role
rolf
roll
rolland
roller
rollers
rolling
roly
roma
romagna
romain
roman
romana
romanach
romani
romania
romanian
romano
romansach
romansachd
rombas
rome
romero
romhainn
romhpa
romhsaigh
romulus
ron
rona
ronald
ronaldinho
ronaldsay
roncalli
ronnie
room
roosevelt
root
roots
ropa
rory
ros
rosa
rosain
rosal
rosario
rosbrog
rose
rosenblatt
rosenheim
roses
rosg
rosmarus
rosnait
ross
rostock
rostov
roth
rothach
rothadair
rothaich
rothair
rothais
rothschild
rotterdam
rouen
rouge
rough
rougon
round
roundto
rourke
rousse
rousseau
roussillon
route
routledge
roux
row
rowargs
rowcellstyle
rowclass
rowid
rowland
rowley
rowohlt
rows
rowstyle
roxburgh
roxette
roy
royal
royale
roßlau
rpa
rpach
rpaich
rpais
rquez
rr
rra
rrabost
rradh
rraidh
rraidhean
rras
rrez
rrloch
rroma
rruri
rs
rsa
rsach
rsachadh
rsachan
rsachd
rsadh
rsaich
rsaiche
rsaichean
rsaideach
rsaidh
rsaidheachd
rsail
rsair
rsan
rscottish
rshavn
rspb
rsson
rsten
rstentum
rt
rtadh
rtaidh
rtaidhean
rtainn
rte
rth
rttemberg
ru
rua
ruadh
ruadha
ruadhail
ruadhainn
ruagadh
ruaidh
ruaidhe
ruaig
ruairi
ruairidh
ruanda
ruaraidh
rubair
rubecula
rubens
rubha
rubin
rucervus
rud
rudan
rudeigin
rudha
rudolf
rudolph
rudolstadt
rudyard
rue
rufifrons
rufina
rufino
rufous
rufus
rug
rugadh
rugbaidh
rugby
ruhr
ruibhe
ruibidium
ruig
ruige
ruigeadh
ruigear
ruigeas
ruigh
ruighe
ruigheachd
ruighinn
ruigidh
ruigsinn
ruis
ruise
ruiseach
ruiseal
ruiseanach
ruiseanaich
ruiseis
ruisg
ruisis
ruith
ruithe
ruitheam
ruitheas
ruithidh
ruiz
rul
rule
rum
ruma
rumantsch
run
runeberg
runner
runrig
rupicapra
ruptured
rural
rus
rusa
russel
russell
russia
russian
rustica
rusticola
rusticolus
rutger
ruth
rutherford
rutherfordium
ruyter
ruz
rva
rve
ry
ryan
ryanair
rybakov
ryder
ryle
ryoji
rzburg
rzzuschlag
rð
rðarson
rðungur
rður
rı
s
sa
saale
saalfeld
saarbru
saarbruecken
saba
sabaid
sabaidean
sabaneta
sabatier
saber
sabhail
sabhal
sabhd
sable
sac
sach
sachadh
sachd
sachs
sachsen
sackville
sacred
sadh
sadi
sadler
saenredam
safjo
sag
saga
sagail
sagairt
sagart
sagartachd
sagartan
sagsainn
sagsannaich
saguamanchica
sahara
saiceo
saich
saichean
said
saideal
saidealan
saidh
saidhe
saidhean
saidheans
saidheansail
saidheansan
saiga
saighdear
saighdearach
saighdearachd
saighdearan
saighdeir
saighead
sail
saile
sailead
saillte
sailm
saimbia
saimbic
saint
sainte
saints
sair
sal
sala
salaam
salach
salainn
salamanca
salamanders
salann
salannachd
salas
salbhador
salcraig
salem
salgar
salinas
salisbury
sally
salm
salmaidh
salmon
salmond
salon
salt
saltiana
saltire
salvador
salvatore
salzburg
sam
samaca
samarium
samband
sambar
same
samfylkingin
samhail
samhain
samhainn
samhla
samhlachadh
samhladh
samhlaichean
samhlaidhean
samhna
samhradh
samhraidh
samhraidhean
sami
samoa
samper
sampla
samuel
samuelson
samurai
san
sanach
sanaich
sanakirja
sanas
sanasan
sancho
sanclemente
sanctuary
sand
sandaigh
sandbox
sander
sanderson
sandhead
sandison
sandpiper
sandra
sandstone
sandy
sanfourche
sanger
sankt
sanndaigh
sanndraigh
sanssouci
sant
santa
santamari
santana
santander
santarcangelo
santayana
sante
santi
santiago
santillana
santo
santolla
santos
santuario
sao
saoghail
saoghal
saoghalta
saoil
saoir
saoirse
saor
saora
saoradh
saoraidh
saoranachd
saorsa
saothair
saothrachadh
saothrachaidh
sapir
sappho
sar
sara
sarah
sarajevo
saramago
saratoga
sardainia
sark
sarmiento
sars
sarto
sartre
saruman
sarwar
sas
sasainn
sasainneach
sasainnich
sasann
sasannach
sasannaich
saskatchewan
sasuinn
sasunnach
satellite
sathara
satu
saturday
saturn
saud
saudi
saudiya
saul
sauron
saussure
sauterelle
sauða
savage
save
savoie
savoy
sawfish
sawflies
saxe
saxicola
say
sbn
sc
sca
scale
scaled
scalemajor
scaleminor
scalloway
scan
scandiacus
scandinavian
scandium
scb
sce
scene
schaffhausen
schaumburg
scheduled
scheele
scheme
scheubner
schiller
schistocerca
schla
schleswig
schlieffen
schloss
schlosskirche
schmidt
schmiterlo
schneider
scho
scholars
scholes
school
schools
schouwen
schrieke
schro
schultz
schumann
schutzgebiete
schwa
schwarzburg
schwarze
schwarzenegger
schweiz
schwerin
schwyz
sciaf
science
sciences
scientific
scientifique
sclateri
scoil
scolopax
scope
scorpions
scot
scotch
scoter
scotia
scotica
scotland
scoto
scots
scotsman
scott
scotti
scottis
scottish
script
scripttitle
scriptus
scu
sda
sdanach
sdanachas
sdean
sdo
se
sea
seabhag
seaborg
seac
seacais
seacal
seach
seachad
seachd
seachdad
seachdadan
seachdain
seachdainean
seachdaineil
seachdainn
seachdamh
seachdnar
seachnadh
seadh
seagal
seagh
seal
sealach
sealainn
sealbh
sealbhachadh
sealbhadair
sealbhanach
sealg
sealgair
sealgairean
seall
sealladh
seallaibh
seallaidh
seallaidhean
sealltainn
sealtainn
seamus
sean
seana
seanachaidh
seanadair
seanadh
seanagal
seanaiche
seanaid
seanaidh
seanail
seanailear
seanair
seanalair
seanchaidh
seanchas
seanmhair
seann
seannach
seannduaig
seannsalair
seansalair
seantansan
seapaine
seapan
seapanach
seapanais
sear
searbais
searbh
searbhag
search
seas
seasadh
seasaidh
seasamh
seasgadan
seasmhach
seasmhachd
seasmhaiche
season
seasons
seat
seata
seataichean
seattle
sebastia
sebastian
sec
sechura
second
secondary
secondpostfix
seconds
secret
secrets
sect
section
securitate
security
see
seen
seferis
segovia
segunda
seic
seice
seiceach
seicich
seicis
seifert
seil
seilbh
seilbhe
seile
seileach
seilg
seilich
seillean
seilleanan
seimeach
sein
seine
seinn
seinneadair
seinneadairean
seinnse
seirbheis
seirbheiseach
seirbheisean
seirbhis
seirbhisean
seisean
seiseanan
seisein
select
selected
selenium
self
selfoss
selim
sellar
selma
selten
sem
semyonov
sen
seneca
sennet
sense
sentimentale
seo
seoc
seonag
seonaidh
seorsa
seotal
seoul
sep
separate
separated
separator
separators
sepc
seps
september
septembre
sequamur
sequence
serbia
serbski
serengeti
sergei
sergio
serhii
serial
serie
series
serrano
sert
service
services
serville
sescu
session
sessions
set
seterror
setmetatable
setranks
sets
settings
settlement
settlements
seudan
seudraidh
seula
seumas
seumasach
seumasaich
seunta
seusan
sevastopol
seven
seventeenth
seventh
several
severin
sevilla
sex
seymour
seyðisfjo
sfa
sfaras
sfondo
sg
sga
sgadain
sgadair
sgadan
sgadh
sgaig
sgairinis
sgaiteach
sgalpaigh
sgamhain
sganaichean
sgaoil
sgaoileach
sgaoileadh
sgaoileas
sgaoilidh
sgaoilte
sgap
sgapadh
sgapte
sgar
sgaradh
sgaraidh
sgaraidhean
sgarba
sgarbh
sgarr
sgarradh
sgat
sgath
sge
sgeadachadh
sgeadaichte
sgeama
sgeamaichean
sgeap
sgeir
sgeireach
sgeirean
sgeirsson
sgeith
sgeo
sgeul
sgeulach
sgeulachd
sgeulachdan
sgeulaiche
sgeulaichean
sgeulan
sgi
sgian
sgiath
sgiathach
sgiathan
sgiathanach
sgilean
sgileil
sgillinn
sgioba
sgiobaichean
sgiobaidhean
sgiobair
sgioban
sgiobannan
sgiogarstaigh
sgiorradh
sgire
sgitheanach
sgitheanaich
sgiu
sgle
sgo
sgoil
sgoila
sgoile
sgoilear
sgoilearach
sgoilearachd
sgoilearan
sgoilt
sgoiltean
sgoinneil
sgoir
sgoltadh
sgorr
sgoth
sgraicheag
sgrail
sgreapadal
sgreuchag
sgri
sgriobhadair
sgriobt
sgriobtaichean
sgrios
sgriosadh
sgru
sgu
sguab
sguabadh
sgudail
sgudal
sguideil
sguir
sgumain
sgur
sgurr
sh
sha
shabaid
shabaideadh
shabhal
shadow
shaffy
shagart
shagsainn
shaidheans
shaidheansail
shaighdear
shaighdearan
shakespeare
shalcraig
shalmhaigh
shambellie
shamhain
shamhla
shamhna
shan
shanais
shanghai
shannon
shanta
shantander
shaoghal
shaoil
shaoir
shaor
shaorachadh
shaoradh
shaoraich
shaorsa
shaothair
shaothrachadh
shapley
sharansky
sharett
shark
sharks
sharon
sharp
sharpe
sharpei
sharpless
shasainn
shasannach
shasannaich
shasunnach
shaw
shawnee
she
shea
sheabhal
sheacais
sheachdain
sheachnadh
shealainn
shealbhach
shealbhaich
sheall
sheallach
shealladh
sheallas
shealltainn
shealtainn
shean
sheanadair
sheanadh
sheanailear
sheanair
sheanalair
sheanar
sheann
sheannsalair
sheanta
shear
shearwater
shearwaters
sheas
sheasamh
sheasgaich
sheasmhach
sheat
sheba
shechtman
sheep
sheffield
sheila
sheilbh
sheile
sheileach
sheillean
sheinn
sheinneadair
sheinneadh
sheirbheis
sheirbheisean
sheiseall
sheisean
shelburne
sheo
shepherd
sherlock
sherwood
shetland
sheumais
sheumas
shevchenko
shevilla
shi
shia
shiar
shidni
shield
shift
shikoku
shimomura
shin
shine
shineach
shinn
shinto
shinty
shiombabue
shiorrachd
shiorrachdan
shiostam
ships
shir
shirakawa
shire
shirley
shiu
shiubhail
shiubhal
shla
shle
shlighe
shligigh
shliochd
shloc
shluagh
shluaigh
shmuel
shna
shnaidhte
sho
shochairean
shocraich
shoidhnich
shoilleir
shoirbheachail
shoirbheachaile
shoirbheachas
shoirbhich
shoitheach
shoithichean
sholais
shomhairle
shon
shona
shool
shore
short
shortname
shot
shotts
should
show
showarticle
showing
shown
showname
shra
shrapnel
shrath
shreap
shreath
shrimp
shropshire
shruighlea
shruth
shruthas
shu
shuas
shubhairne
shuidh
shuidhe
shuidheachadh
shuidhich
shultan
shuo
si
sia
siabann
siad
siadar
sianal
sianar
sianfan
siar
siarach
siarra
siathamh
siberia
siberian
sibh
sibiu
sic
sica
sich
sichuan
sid
side
sided
sidney
sidni
sie
siebenbu
siegbahn
siena
sienkiewicz
sierra
sievierodonetsk
sigfu
sighetu
sighis
siglo
sigmaringen
sigmund
sigmundur
sign
signature
significant
sigrid
sigurd
sigurðardo
sigurðsson
sigurður
sile
sileadh
silence
silent
silesia
silesianach
silidh
silkmoth
sillanpa
silmarillion
silva
silver
silvestris
silvia
silvio
sim
simien
similar
simmonds
simo
simon
simphnidh
simple
simplidh
simpson
simum
sin
sinatra
sinc
since
sincelejo
sinclair
sine
sing
singapore
singeapo
singer
singilte
single
sings
sinich
sinking
sinn
sinne
sinnsear
sinnsearachd
sinnsearan
sinnsir
sinnsireachd
sint
siobhan
siolandair
siolastair
siombabue
sion
siona
sionach
sionagog
sionnach
sionnaich
siorcair
siorco
siorrachd
siorrachdan
siorraim
siorram
siorramachd
sios
siosalach
siostaim
siostam
siostaman
sioux
sir
sireadh
siria
sirol
sirte
sis
sister
sistercities
sitatunga
site
siteid
sitelink
sith
sitheann
siu
siubhail
siubhal
siud
six
sixteenth
sixtus
size
sja
sjo
sjælland
sk
ska
skagerrak
skar
skara
skarsson
skeksil
skeksis
skeleton
skene
skerries
skerry
skew
ski
skie
skip
skipinnish
skird
sko
skopje
skorokhod
skou
sku
skua
sky
skye
skyline
skype
sl
sla
slabhais
slabhraidh
slado
slaic
slands
slaodach
slaodaidh
slason
slastion
slat
slatan
slate
slater
slatina
slavery
sle
sleachadh
slender
slendingabo
slenskra
sli
sliabh
slige
sligeach
sligean
sligh
slighe
slighean
slink
slioch
sliochd
slo
slobozia
sloc
sloibhi
sloinneadh
sloinnidh
sloinnidhean
slovenia
sluagh
sluaghan
sluaigh
slug
slugain
sluyter
sm
sma
smachd
small
smalley
smaoin
smaoineachadh
smaoinich
smaointean
smaointinn
smart
sme
smeo
smetana
smeur
smhi
smhor
smilodon
smith
smithson
smo
smoam
smofeuch
smolensk
smolka
smomap
smu
smuain
smuainealas
smuaintean
smuanairt
smuid
smundsson
sna
snagan
snaidhm
snaidhpear
snaidhte
snaighte
snak
snake
snakes
snaks
snaksaliasesp
snaktype
sne
sneachd
sneachda
sneek
snerpa
sni
snich
snipe
snog
snow
snowdon
snowdonia
snp
snu
so
soacha
soas
soay
sobhiat
sobhiatach
sobhiataich
sobhietach
sobre
socach
socair
sochairean
social
sociedad
societies
society
sociology
socorro
socrates
soddy
sodhail
sodium
soemmerring
soemmerringii
sofia
software
sogamoso
soidhne
soidhnichean
soillearachaidh
soilleir
soilleire
soilleireachadh
soillse
soillseachadh
soillseachaidh
soirbh
soirbheachadh
soirbheachail
soirbheachas
soirbheas
soirbidh
soisgeil
soisgeul
soitheach
soithichean
sokiryansky
sol
sola
soladach
solais
solar
solarachadh
solas
soldier
soldiers
soledad
solenodon
solidarnos
solna
solo
solomon
solothurn
solow
solus
solz
som
soma
somali
somateria
some
somecat
somerset
somerville
something
sometimes
somevalue
somhairle
somme
son
sona
sonas
sonata
sondershausen
song
songs
sonraichte
sons
sophie
soraidh
sorbach
sorbaich
sorbais
sorbische
sorbisches
sorgh
soria
sorley
sorochyntsi
sort
sorted
sotelo
soto
souilly
soul
sound
source
sourced
sources
south
southampton
southeast
southern
southwest
sovereignty
soviet
sovietach
soyinka
sp
spa
space
spaces
spadaidh
spade
spadefish
spaideil
spain
span
spanish
sparkford
sparradh
sparrow
spe
speactram
speactromachd
speak
speakers
speaking
spealadh
special
species
specific
specified
specify
specimen
specprinter
spectacled
speech
speireig
speke
spekei
spencer
speothos
sperm
speuclairean
speur
speuradair
speuradaireachd
speuran
sphenisciformes
sphodromantis
spi
spidean
spider
spiders
spiegel
spinoza
spinus
spiny
spionnaidh
spiorad
spioradail
spioradan
spioraideach
spitteler
split
spo
spoken
spot
spotted
spp
spra
sprache
spre
spreadh
spreadhadh
spree
spring
springbok
springer
springfield
springs
springsteen
spu
sq
sqa
sqrt
square
squez
squid
sr
sra
sraid
sraith
srath
sratha
sreang
sreap
sreapadair
sreath
sreatha
sreathan
sri
sro
sru
sruighlea
sruth
srutha
sruthadh
sruthaidh
sruthail
sruthan
ss
sseldorf
ssjo
sson
sspck
st
sta
stable
stac
stack
stad
stadastaigeil
stadium
stadsrechten
stadt
stafa
stafainn
stag
staid
staidh
staidhre
staigh
stail
stailc
stailcean
staile
staing
stainge
stair
staircase
stait
staitean
staitistearachd
staitistig
stalin
stalineach
stalineachd
stalingrad
stalino
stallman
stallone
stamag
stamford
stamh
stampaichean
stanach
stanaich
stanbul
stand
standard
standing
stanford
stange
stanley
staoin
star
stark
starnberg
starr
starra
stars
start
starting
starttime
starttimey
state
stated
statedin
statement
statements
states
statesparam
statesparameters
station
stations
statistica
statistical
statistics
statistiek
statistik
statistika
statistisches
statline
statoids
stats
status
staudinger
stavanger
ste
stea
steach
steachd
steafain
steafan
steall
steallair
stean
stearnal
steel
steenbok
stefa
stefan
stefani
stefania
steidheachadh
steidhich
steidhichte
steiermark
stein
steinbeck
steingri
steinþo
steisean
steitz
stellung
stena
stendal
stendhal
stenhousemuir
steo
steornabhagh
step
stephen
stephens
steppe
ster
stera
stercorarius
stergo
sterling
sterna
stersund
stettin
steve
steven
stevenson
stewart
stewiacke
sti
stiall
stica
stick
stigh
stil
still
stimpson
sting
stirling
stiu
stiubhart
stjo
sto
stob
stobadh
stoc
stockholm
stockholms
stoer
stoidhl
stoidhle
stoidhlean
stoidhlichean
stoirm
stoirmeil
stoith
stoithe
stone
stonehaven
stones
stoop
stop
stopping
store
stored
stores
storey
stories
stork
storks
storm
stornoway
story
stoth
stow
str
stra
strabo
strait
straiton
strange
stranraer
strasbourg
strath
strathspey
strauven
stream
streap
streath
street
strelitz
strepsiceros
streptopelia
stri
striatus
strijdom
strijen
string
strings
strip
striped
stripped
stro
stroessner
stromness
strong
strontium
strout
strow
structair
structairean
structar
structarail
structaran
structure
struibhle
struth
struthio
strzelecki
stt
stu
stuart
stuc
students
studies
studio
study
stugh
stuic
stulabhal
sturgeon
sturm
stuth
stutha
stuthan
stuttgart
stv
style
styron
su
sua
suaicheantais
suaicheantas
suaimean
suain
suaine
suaineach
suaineart
suainis
suarach
suas
suasaidh
suathadh
suathaich
sub
suba
subfamily
subgroup
subgutturosa
subheader
subheaderrowclass
subheaderstyle
subject
subjectns
sublevacio
subpage
subpages
subspecies
substitute
subtype
success
suceava
such
sucre
sud
suda
sudan
sudoplatov
sue
suffix
sugamuxi
sugar
suggestions
sui
suidhe
suidheachadh
suidheachaidh
suidheachaidhean
suidheleabharlann
suidhich
suidhiche
suidhichte
suim
suimeadh
suimidh
suirbhidh
suirghe
suisse
suite
sula
sulawesi
sullivan
sully
sult
sultain
sultan
sum
sumapaz
sumatra
sumatran
sumburgh
summer
summit
sumner
sumo
sumska
sumy
sun
sund
sunda
sunday
sune
sunfish
suni
sunne
sunrise
sunset
suo
suomais
supe
super
superior
superstes
supplement
supplied
support
supported
supporters
sur
sure
suricata
suricatta
survey
sus
susan
susbaint
sussex
sutherland
sutton
suzuki
suðurland
suðurnes
sv
svalbard
svandi
svante
svavarsdo
svedberg
sveinbjo
sveinn
sveinsson
sveitarfe
svensk
svenska
svenskt
sveriges
svg
svi
sw
swaardstert
swallow
swallowtail
swamp
swan
swans
swansea
swastika
swayne
swaynei
swayze
sweden
sweet
sweyn
swift
swifts
swimming
swing
swinson
swinton
swiss
switch
sword
swordtail
swr
sydney
sydow
syllan
sylvester
sylvia
symbol
symbols
symon
syncerus
synge
syntactically
syntax
syracuse
syrian
syste
system
systems
sz
sza
szabo
szathma
szczecin
sze
szerk
szlo
szo
szymborska
sæland
søren
sɔn
sɛ
t
ta
tab
tabhainn
tabhann
tabhartach
tabhartas
table
tablemerge
tables
tabletools
taboo
taca
tachair
tachairt
tachartan
tachartas
tachartasan
tachdaidh
tachraidh
tachyglossus
tachymarptis
tacitus
tadeus
tadh
tadhail
tadhal
tadhalan
tadorna
taf
tag
taggart
taghadh
taghaidh
taghaidhean
taghan
taghta
tagore
tagradh
tagraiche
tagraichean
tagraidh
tags
tahiti
tahoe
tahr
tai
taibhse
taibhsean
taic
taice
taichean
taidh
taidigeasta
taifa
taigh
taighe
taigheadais
taigheadas
taighean
tail
tailed
tailium
tailleir
tain
taing
taingeil
taino
taipei
tair
tairbeart
tairbeirt
tairbh
tairgse
taisbeanadh
taisbeanaidh
taisbeanaidhean
taisead
taisgaidh
taisgealadh
taisgealaiche
taistealachd
tait
taiwan
take
taken
takes
takin
talamh
talands
talbot
tales
taliesin
talisker
talk
talking
talktitle
talla
tallahassee
tallaichean
tallandier
tallinn
talmhaidh
talmhainn
talmud
talu
talyllyn
tam
tamara
tamayo
tambo
tampa
tampere
tan
tana
tanach
tanachais
tancaichean
tang
tangabhal
tangle
tango
tannahill
tannara
tansaini
tantallon
tanulma
taobh
taobhan
taoibh
taoiseach
taoisigh
taosgaire
tapaidh
tar
tara
tarandus
taras
tarbert
tarbh
target
tarja
tarmachan
tarn
tarnovo
tarradale
tarragona
tarraing
tarraingeach
tarro
tarruinn
tarsainn
tarsgabhaig
tarsuinn
tarsuinnead
tarsus
tartan
tartar
tartu
tasg
tasgaidh
tasglann
tashkent
tasman
tat
tatarica
tate
tatha
taubate
taube
taunton
taurinus
taurotragus
taurus
tavau
tavish
tawantinsuyu
taxicolor
taxus
tay
taylor
tb
tbh
tbilisi
tbl
td
tdd
te
tea
teach
teachd
teachdail
teachdaire
teachdaireachd
teacs
teacsa
teacsaichean
teadh
teagaisg
teagamh
teagamhan
teagasg
teaghlach
teaghlaich
teaghlaichean
teagmhach
teallach
teampaill
teampall
teamplaid
teamplaidean
teampull
teanga
teann
teannachadh
tearc
tearlach
tearmann
teas
teasairginn
teatha
teau
teborg
teborgs
technology
techreport
tecnolo
ted
teddy
tefan
tehran
teiche
teicheadh
teicneo
teicneolas
teicnigeach
teid
teil
teilhard
teine
teintean
teiripiche
teirm
teirmean
teis
teisteanas
tel
tele
telebhisean
telebhisein
teleg
telegraph
television
telford
tell
telurium
temp
temperate
template
templateerrorcategory
templatepar
templates
temple
templutl
temps
ten
tenderloin
tenerife
tennant
tennessee
teo
teodhachd
teodor
teotha
teothachd
ter
teresa
tereshkova
teresita
terms
tern
ternes
terneuzen
ternopil
ternopilska
terra
terre
territories
territory
terror
terry
tersloh
teruel
tes
tesco
test
testing
teth
tetracerus
tetrao
tetrix
teud
teudan
texas
text
texts
textyear
tfrac
tg
th
tha
thabhann
thabhartas
thabo
thach
thachadh
thachaidh
thachair
thachairt
thachartas
thachartasan
thachas
thachd
thachradh
thachras
thadh
thadhail
thadhal
thag
thagair
thagh
thaghadh
thagraiche
thai
thaic
thaich
thaichean
thaichte
thaid
thaidh
thaidhean
thaigh
thaighean
thail
thailand
thain
thainig
thair
thaireach
thaireachd
thairean
thaireil
thairis
thaisbeanadh
thaise
thaitneach
thal
thalamh
thall
thalmhainn
thames
thamin
than
thana
thanachais
thaobh
thaobhach
thaobhan
thaoiseach
thar
tharraing
tharruinn
thas
thasan
thasman
that
thatcher
thatha
thathar
thathas
thcha
thchabailtean
thchail
thchanan
thchannan
thchas
thchasach
thchasail
the
thea
theab
theach
theachd
theacsa
theacsaichean
theagaisg
theagasg
theaghlach
theaghlaich
theaghlaichean
thean
theangachadh
theangachaidh
theangachaidhean
theangachas
theangadair
theangaich
theangaiche
theangaichean
theangaichte
theangair
thear
thearc
thearlaich
theas
theasachadh
theasaich
theater
theatre
theich
theiche
theicheadh
theid
theil
thein
theine
theinnteach
their
theireadh
theirear
theirm
theirte
them
then
theo
theodor
theodore
theology
theophrastus
theorell
theory
theothachd
theravada
there
theresa
these
thesis
thessaloniki
theta
thetable
theth
theusais
thexas
they
thi
thiar
thiche
thichean
thidh
thidsear
thidsearan
thig
thigeadh
thighearna
thighinn
thilg
thilgeil
thilgidh
thill
thilleadh
thimcheall
thing
things
thiodhlacadh
thiomnadh
thiomsach
thiomsachd
thional
thionndadh
thionndaich
thionndaidh
thionnsgail
thioram
thiotal
thiotalan
third
thiriodh
this
thistle
thmhor
tho
thobar
thobhta
thog
thogadh
thogail
thogalach
thogalaichean
thogas
thoglaichean
thoil
thoileach
thoileachas
thoilichte
thoir
thoirbheartain
thoirbheartan
thoirbheartanach
thoirmeasg
thoirmisg
thoirt
thoiseach
thoisich
thokyo
tholkien
thom
thomain
thomas
thomhais
thomhas
thompson
thomson
thomsonii
thor
thoradh
thoreau
thorlacius
thormoid
thorne
thornton
thoroddsen
thoronto
thorrach
thors
thory
thos
those
thosgair
thought
thouless
thousand
thra
thraichean
thraidiseanta
thrannsa
thrasnaidh
thre
threatened
three
threo
thri
thriantanachd
thrich
thriobaid
thrioblaid
thro
throated
throm
throne
through
thru
thruisg
thrupp
thrush
thrust
ths
thsaich
thte
thu
thuaidh
thuaiream
thuairmse
thuama
thuath
thuatha
thuathanach
thubaist
thubhairt
thug
thugadh
thugainn
thuice
thuig
thuige
thuigse
thuigsinn
thuill
thuilleadh
thuilm
thuineachadh
thuirt
thuirteadh
thuit
thuiteam
thuiteas
thumb
thumbnail
thurais
thuras
thuringia
thursan
thurzo
thus
ti
tianjin
tibet
tibetan
tibirita
tica
ticino
ticks
tico
ticonderoga
tidsear
tidsearan
tidyval
tiempo
tien
tienne
tierra
tig
tigeadh
tiger
tigh
tighean
tighearna
tighearnan
tighearnas
tighinn
tigris
tikhonov
til
tilburg
tile
tilgeil
tilgeir
tilgidh
till
tilleadh
tim
timanfaya
timcheall
time
timeaxis
timecaption
times
timis
timothy
timra
tin
tinbergen
tine
tinn
tinneas
tinneasan
tinsert
tintin
tinwald
tiobraid
tiomnadh
tiomor
tionail
tional
tionndadh
tionndaidh
tionnsgain
tionnsgnadh
tioraim
tioram
tiormachadh
tiotal
tiotalan
tipula
tir
tirana
tire
tiree
tiriodh
tiro
tirol
tiselius
tit
titanic
title
titlecell
titlecolspan
titled
titleformats
titlelink
titlenote
titles
titlestyle
titletype
titov
tits
tiu
tiugh
tjalling
tla
tlachd
tlahtolo
tlands
tmcid
tnt
to
tobago
tobair
tobar
tobarandualchais
tobha
tobhta
tobhtaichean
tobias
tobin
tobraichean
tocaima
tochradh
tocqueville
tod
today
todd
todhair
todhar
todo
todos
togadh
togaidh
togail
togalach
togalaich
togalaichean
together
toglach
toglaichean
togo
togte
toigh
toil
toilichte
toinnte
toir
toirbheartan
toirdhealbhach
toireadh
toirmeasg
toirmisgte
toirt
toiseach
toiseachadh
toisich
toisichidh
tokyo
toledo
tolima
tolkien
toll
tolmie
tolochenaz
tolstoj
tolypeutes
tom
toma
tomad
tomadach
tomas
tomb
tombaca
tome
tomhais
tomhaisean
tomhaisear
tomhas
tomhasan
tommy
tomo
tomos
ton
tonach
tong
tonga
tongue
toni
tonight
tonn
tonnan
tonumber
tony
too
tooin
took
tools
toothed
top
topi
topic
topo
topography
toponimia
tor
tora
torach
toradh
toraidhean
torda
torfaen
torgny
torino
torium
torm
tormes
tormod
toro
toronto
torr
torrach
torrachas
torrain
torran
torrance
torre
torres
torsten
torthorwald
torun
torvalds
toscana
tosgair
toshiro
tostring
total
toulouse
tour
tourism
tourist
tours
tovar
towards
tower
towers
town
towns
tr
tra
trabzon
trachdadh
trachdas
track
tracking
tractair
tractar
tractaran
trad
tradaisean
tradaiseanta
tradaisein
trade
tradiseanta
tradition
traditional
trafaig
trafalgar
tragedy
tragelaphus
traian
traidisean
traidiseanan
traidiseanta
traigh
trail
trailing
train
trainge
training
trainspotting
trajan
tran
tranent
trang
trannsa
trans
transactions
transchapter
transcript
transcripturl
transilvania
translated
translation
translations
transmilenio
transport
transsilvania
transtitle
transvaal
traon
trapesium
trasnadh
trast
trastach
trastan
travel
travelling
travnik
tre
trea
treabh
treabhadh
treabhaidh
treas
treasa
treasamh
treasure
treat
tree
trent
trenton
treo
tres
treubh
treubhan
treudan
treun
tri
triall
trian
trianaid
trianaide
triangle
triantain
triantan
triantanachaidh
triantanachd
triath
tribe
tribute
tric
trice
tricead
trichead
trichoniscus
trier
trig
trim
trimmed
tringa
trinidad
trinitatis
trioblaid
trioblaidean
trip
tripoli
tristan
tristis
trithead
triu
triuirebheinn
tro
trochilidae
troglodytes
troichean
troigh
troighean
troimh
troimhe
troimhpe
trom
troma
trombaid
trombon
tron
trondheim
troops
tropaigeach
tropical
trosaichean
trosg
trostianets
trotsky
trout
trowieglen
truagh
truaill
truailleadh
truaillidh
true
truime
truinnsearan
truiseil
trujillo
truman
trump
truro
trusadh
trust
try
tryggvado
tryggvason
tryggvi
ts
tsa
tsar
tsch
tserkva
tsessebe
tsien
tsunami
tt
ttarr
ttartavlor
tte
ttern
ttingen
ttir
tu
tuagh
tuaim
tuairisgeul
tuairmse
tuairmsean
tuairneir
tuama
tuar
tuath
tuatha
tuathach
tuathail
tuathal
tuathanach
tuathanachas
tuathanaich
tuathanais
tuathanas
tuathanasan
tuba
tubaist
tubaiste
tuc
tuckwell
tucson
tudful
tudor
tufted
tug
tugadh
tuig
tuigse
tuigsinn
tuil
tuill
tuilleadh
tuilm
tuiltean
tuim
tuineachadh
tuineachaidh
tuineachaidhean
tuineachas
tuinichean
tuinisia
tuinn
tuinneachadh
tuirc
tuirce
tuirceach
tuireadh
tuirt
tuiseal
tuit
tuiteam
tuiteamas
tuitidh
tulach
tulaich
tulaigh
tulard
tulcea
tunail
tunas
tunescu
tunga
tunis
tunja
tunna
tunnag
tur
turaid
turais
turas
turasachd
turbay
turcach
turcaich
turcais
turcmanasta
turdus
turing
turismo
turkestan
turkewich
turkey
turkish
turku
turn
turner
tursa
tursachan
tursan
tursson
turtle
tuscany
tut
tutankhamun
tv
tva
tweed
twelve
twilight
twite
twitter
two
txtlang
ty
tyler
tyne
type
types
tyto
tz
u
ua
uabbr
uabhas
uabhasach
uachdair
uachdar
uachdarach
uachdarain
uachdaran
uachdaranach
uachdaranachd
uachtara
uachtarach
uaigh
uaighe
uaighean
uaigneas
uaimh
uaimhe
uaine
uair
uaireadair
uairean
uaireanan
uaireannan
uaireigin
uairibh
uairsin
uais
uaisle
uaislean
uallach
uallais
uallas
uamh
uamha
uamhan
uamhann
uamhas
uamhasach
uan
uarach
uaraidh
uasal
ubhal
ubhlan
uc
ucc
uchd
ucle
ucode
ucra
ud
uddingston
ue
uefa
uetersen
ug
uganda
ugh
ughdarrais
ugres
uhi
ui
uibhir
uibhist
uibhistich
uicipeid
uicipeidean
uidh
uidhe
uidheam
uidheamachd
uidheamaichte
uidhir
uig
uige
uighean
uil
uilc
uile
uileann
uilebheist
uill
uilleam
uilleim
uillt
uilne
uime
uimhir
uimhirean
uimpe
uine
uinneag
uinneagan
uiread
uirsgeul
uirsgeulach
uirsgeulan
uiseag
uiseig
uisge
uisgeach
uisgeachan
uist
uitenhage
uk
ukcensus
ukraine
ukrainian
ukrainka
ukrexport
ul
uladh
ulaidh
ulan
ulapul
ulbha
ulf
ullachadh
ullaich
ullamh
ullapul
ulloa
ulm
ulrich
ulster
ultaich
ultimate
ulva
ulvaeus
um
uma
umachan
uman
umea
umha
umhail
umhaill
un
una
uncail
uncia
und
undefined
under
understand
understands
undiscovered
undiscoveredscotland
undset
undulatus
une
unesco
unexpected
ungair
ungaire
ungaireach
ungairianaich
ungairis
uni
unicef
unichman
unicode
unicolor
unicornis
unio
union
unison
unit
unite
united
unitonly
units
universal
universidad
universidade
universita
universitaet
universitaria
universite
universiteit
universitet
universiteti
universities
university
uniwersytet
unknown
unless
unnamed
unpack
unset
unst
until
up
upland
upon
upper
uppsala
upright
ur
ura
uranium
urbain
urban
urbino
urbs
urca
urchadain
urchaidh
urchair
urchardan
urdaneta
urdu
urey
uri
uria
urial
uribe
uricomponents
uriutil
url
urla
urls
urn
urocyon
urogallus
urquhart
urr
urra
urrach
urrainn
urrainnear
urrais
urram
urramach
urraman
urras
uruguaidh
urza
us
usa
usage
usaque
usbagasta
use
usecollapsibletextfields
used
useful
uselang
uselbl
user
uses
using
usingen
ussr
ustinov
ustring
usual
usually
ut
utah
utrecht
uzhhorod
v
va
vaduz
val
valais
valaraich
valdimarsson
vale
valence
valencia
valentina
valera
valerian
valerii
valid
validate
validation
valla
valladolid
valle
valledupar
vallejo
vallenato
valletta
valley
vals
value
valuefunc
values
valuesarray
vampire
van
vancouver
vandel
vandelvira
vanellus
vanguardia
var
vara
varberg
vardonii
varese
vargas
variable
variables
various
varlin
varna
varnothing
varði
vasco
vashem
vasily
vaslui
vasylkivsky
vatar
vatican
vaud
vaz
ve
vega
vegas
veined
veksler
vela
velarde
veliko
veltman
velyki
vende
veneto
venezia
venezuela
venezuelan
venice
venkatraman
venus
ver
vera
veraguas
verb
verde
verdi
verhoeff
verhoeven
verlag
vermeer
vermont
vermorel
verner
vernon
vernunft
verona
vers
versailles
verse
version
verslunarmannafe
versunda
vertical
verwoerd
very
vessels
vestfirðir
vestra
vesturland
veturliði
vevey
vi
via
viaf
vicente
vicious
vickrey
victor
victoria
vicugna
vicun
vid
vida
vidas
video
vie
vieco
viejo
vienna
vienne
vietnam
view
vigdi
vigneaud
vignei
vii
viii
viking
viktor
vila
vilhelm
vilhja
viljandi
villa
villadompardo
village
villanueva
villavicencio
ville
villegas
villeta
vilnius
vincent
vincenzo
vinci
vinnytsia
vinnytska
vinstrihreyfingin
vintage
viola
violencia
violin
virgen
virgilio
virgin
virginia
viridis
virtanen
virtual
visby
visigoths
vision
visit
vista
vistula
vita
viterbo
vito
vitoria
við
viðreisn
vlad
vladimi
vladimir
vlc
vle
vlissingen
vo
vocabulary
voce
voice
voices
vojna
vol
volapu
volkmer
volodymyr
voltaire
volume
volynska
volynskyi
vom
von
voor
vopnafjo
vor
vora
vorlage
voronezh
vorpommern
vorster
vosges
voue
voyage
voyager
vozes
vqualifiersv
vres
vs
vsn
vukovar
vulgare
vulgaris
vulpes
vulture
vus
vy
w
wa
waals
wade
wadowice
wagner
wagtail
wakame
wald
waldeck
wales
walk
walker
walkerton
walkhighlands
walking
wall
wallace
walleri
wally
walter
walther
wanderers
wangerooge
want
wapiti
war
warbler
warblers
warcup
ward
warfare
warick
warner
warren
wars
warsaw
warsawurza
warshel
warszawa
wart
wartburg
warthog
warty
warwick
was
washabuck
washington
wasps
wassermann
wassily
wat
water
waterbuck
waterloo
waters
watson
watt
watts
waverley
way
wayne
wałe
we
weapons
weather
weaver
web
webarchive
weber
website
webster
weedon
weilburg
weimar
weir
weiss
weiße
welcome
well
wellesley
wellington
wells
welsbach
welsh
welt
wemyss
wendell
wendy
wentworth
were
werk
werner
west
western
westfalen
westminister
westminster
westphalen
westport
westray
westwood
weta
weymouth
whacking
whale
whales
whalsay
what
whauphill
when
where
whether
which
while
whip
whisky
white
whitefish
whitei
whitelist
whitelisting
whitespace
whitethroat
whithorn
whitings
who
whooper
whose
why
whyte
wicca
wickenburg
wickerman
wide
wideford
width
wie
wieck
wieland
wielkopolska
wien
wiener
wiesbaden
wiesel
wightman
wigner
wigtown
wiki
wikibase
wikidata
wikidataib
wikileaks
wikilink
wikimedia
wikipedia
wikis
wikitext
wikivoyage
wild
wildcat
wilde
wildebeest
wildernis
wildlife
wiley
wilhelm
wilhelmshaven
wilhelmus
wilkinson
will
willa
willard
willem
william
williams
willie
willis
willow
willstatter
wilmington
wilson
wiltshire
win
wind
windaus
windhoek
window
windows
windsor
wing
winged
winners
winnie
winning
winnipeg
winston
winter
winters
winterthur
wisconsin
wisent
wishart
wishaw
wisława
witchcraft
with
withers
within
without
witt
wittenberg
witter
wittig
wo
wojewo
wojtyła
wola
wole
wolf
wolff
wolfgang
wollaston
woman
women
won
wood
woodbridge
woodcock
woodlouse
woodpecker
woodpeckers
woodrow
woods
woodward
woolf
worcester
word
wordpress
words
work
works
world
worldcat
worm
wormald
worms
worth
wosnessenskii
would
wrap
wrapped
wrapper
wreck
wrecsam
wren
wreyford
wright
write
writers
writing
writings
written
wrocław
wrong
wu
wuerzburg
wuppertal
wurza
www
wyddfa
wyman
wyoming
władysław
x
xavier
xca
xhosa
xi
xii
xiii
xiv
xix
xjo
xliii
xo
xunta
xv
xvi
xx
xxiii
xy
y
ya
yad
yak
yale
yamoussoukro
yan
yang
yaounde
yarmouth
yarrellii
yasunari
yatsenyuk
ye
year
years
yeats
yell
yellow
yepes
yes
yesno
yet
yfactor
yfke
yi
yitzhak
yn
ynys
yo
yolombo
yonne
yopal
york
yosef
yosemite
yossele
yossi
you
young
your
youth
youtube
yr
yround
ys
ytterby
yu
yuan
yukon
yulia
yuri
yushchenko
yuste
yves
yyyy
z
za
zaandam
zachariadis
zachary
zadar
zaglossus
zagreb
zala
zaldi
zaldu
zalishchyky
zaluzhnyi
zamora
zandvoort
zanzibar
zaporizhzhia
zaporizka
zappa
zaque
zaragoza
zaro
zavaroni
ze
zea
zealand
zebra
zedong
zeeland
zeeman
zef
zeit
zeitschrift
zeitung
zelnik
zen
zeppelin
zeren
zernike
zero
zetterling
zewail
zh
zhdanov
zhvanetska
zhytomyr
zhytomyrska
zi
zichyu
ziegler
zierikzee
zimbabwe
zimmerman
zinoviev
zio
ziortza
zip
zipa
zipaquira
zittauer
zmir
zoe
zola
zolochiv
zolta
zona
zone
zoo
zorn
zquez
zsigmondy
zu
zuckermann
zuera
zug
zuid
zulu
zum
zuma
zundert
zur
zurbara
zusamaltheim
zuzanna
zvi
zwolle
{
|
}
~

¡
£
§
ª
«
¬
­
°
²
³
´
µ
¶
·
º
»
¼
½
¾
¿
×
ß
æ
ð
ðe
ðherra
ði
ðubandalagið
ðuflokkurinn
ður
ðvaki
÷
ø
øy
þ
þeir
þingvellir
þjo
þo
þorgerður
þorla
þorleifsdo
þorsteinn
þorsteinsson
þu
ı
ło
łobez
œ
œuvres
œx
ɐ
ɑ
ɔ
ə
ɛ
ɟ
ɡ
ɣ
ɦ
ɪ
ɰ
ɲ
ɴ
ɾ
ɾi
ʃ
ʃe
ʉ
ʊ
ʋ
ʎ
ʒ
ʔ
ʰ
ʲ
ʹ
ʻ
ʼ
ʾ
ʿ
ˀ
ˁ
ˇ
ˈ
ˈˈ
ˌ
ː
ːˈ
ˑ
˚
ˠ
ˤ
̀
́
̂
̃
̄
̆
̇
̈
̉
̊
̋
̌
̓
̔
̛
̝
̞
̣
̥
̦
̧
̨
̩
̪
̮
̯
̱
̸
̺
͂
͜
͡
α
β
γ
δ
ε
ζ
η
θ
ι
κ
λ
μ
ν
ξ
ο
π
ρ
ς
σ
τ
υ
φ
χ
ψ
ω
ϸ
а
б
бласть
большая
в
г
д
для
довідник
е
енциклопедія
ж
з
за
и
к
кавказ
ке
киі
л
лович
м
мир
михаи
н
на
нан
ни
нська
о
область
ович
п
ппен
про
р
ред
редкол
роман
россии
с
сергіи
советская
т
та
у
украі
ф
х
ц
ч
ш
щ
ъ
ы
ь
э
энциклопедия
ю
я
ђ
є
ѕ
і
ін
інститут
історіі
љ
ћ
џ
ө
ְ
ֲ
ִ
ֵ
ֶ
ַ
ָ
ֹ
ּ
־
ׁ
א
ב
ג
ד
ה
ו
ז
ח
י
ך
כ
ל
ם
מ
ן
נ
ס
ע
ף
פ
ץ
צ
ק
ר
ש
ת
ا
الا
ب
ة
ت
ث
ح
خ
د
ر
ز
س
ش
ص
ض
ط
ظ
ع
غ
ف
ق
ل
م
محمد
ن
ي
ٌ
َ
ُ
ِ
ّ
ْ
ٓ
ٔ
ٕ
ं
ग
थ
द
ध
प
भ
म
ल
स
ह
ा
ि
ी
ु
े
ो
ौ
्
।
ং
ক
ত
দ
ধ
ন
প
ব
ভ
ম
য
র
ল
স
়
া
ি
ী
ু
ে
্
ા
க
ங
ச
ட
த
ர
வ
ா
ி
ு
ே
்
ಬ
ಲ
ೆ
್
ാ
േ
്
ต
น
ั
ิ
ู
์
ນ
ັ
་
ག
མ
ོ
​
‌
‎
‏
‐
‒
–
—
‘
’
‚
“
”
„
†
•
…
‬
‮
‰
′
″
⁄
⁊
⁻
⁽
⁾
₂
₤
€
№
⅔
⅜
⅝
→
↔
↷
∀
∃
∅
∈
∋
−
√
∠
∩
∪
≅
≈
≤
⊂
⊃
⊆
⊇
⊕
⊙
⋂
⋃
⋅
③
④
⑦
☉
♂
♦
♭
⺀
⺄
⺆
⺈
⺊
⺌
⺕
⺝
⺸
⺼
⿰
⿱
⿲
⿳
⿴
⿵
⿶
⿷
⿸
⿹
⿺
⿻
、
。
《
》
「
」
〢
い
お
か
き
す
た
つ
て
と
な
に
の
は
ふ
ま
む
め
り
れ
わ
゙
゚
ア
イ
ウ
エ
オ
カ
キ
ク
コ
サ
シ
ス
セ
タ
チ
ッ
テ
ト
ナ
ニ
ヌ
ハ
フ
マ
メ
モ
ユ
ヨ
ラ
リ
ル
レ
ワ
ン
・
ー
㇁
㇂
㇄
㇇
㇈
㇉
㇓
㐁
㐄
㐅
㐌
㐫
㐬
㐭
㐮
㐱
㑒
㒵
㒸
㒼
㓁
㓞
㔾
㕛
㕣
㖾
㘝
㚅
㚇
㚔
㚘
㝉
㝡
㝴
㝵
㞋
㞢
㞷
㠩
㠭
㠯
㡀
㡭
㡿
㢲
㢴
㣇
㣺
㥯
㪅
㫄
㫐
㫒
㫺
㬅
㬎
㬥
㬰
㲋
㳄
㷠
㸒
㸚
㸦
㼌
㼲
㽞
㿟
䀠
䂞
䍃
䏍
䒑
䖍
䖒
䖝
䖵
䙴
䚻
䜌
䝿
䡛
䧹
䪞
一
丁
丂
七
丄
丅
丆
万
丈
三
上
下
丌
不
与
丏
丐
丑
专
且
丕
世
丘
丙
业
东
丞
丢
丣
两
严
並
丨
丩
个
丫
丬
中
丮
丰
丱
串
丵
丶
丷
丸
丹
为
主
丽
丿
乀
乂
乃
久
乆
乇
么
义
之
乌
乍
乎
乏
乐
乑
乔
乖
乗
乘
乙
乚
乛
乜
九
乞
也
习
乡
书
乳
乾
亀
亅
了
亇
予
争
事
二
亍
于
亏
亐
云
互
亓
五
井
亘
亚
亜
亞
亟
亠
亡
亢
交
亥
亦
产
亨
亩
享
京
亭
亮
亯
亰
亲
亳
亶
亷
人
亻
亼
亾
仁
今
介
仌
从
仐
仑
仒
仓
仕
他
付
仝
代
令
以
任
企
伊
伏
伐
休
会
伯
但
位
何
佘
余
作
佥
使
來
侈
侌
侖
侯
侵
便
保
俞
信
修
倉
倍
候
倠
健
備
僉
像
僕
儿
兀
允
兂
元
兄
充
兆
兇
先
光
兊
克
兌
免
兑
兒
兓
兔
党
兜
兟
入
全
兩
兪
八
公
六
兮
兰
共
关
兴
兵
其
具
典
兹
兼
冀
冂
冃
冄
内
冈
冉
冊
冋
册
再
冎
冏
冐
冒
冓
冖
冗
冘
军
农
冝
冡
冥
冫
冬
冷
几
凡
凢
凵
凶
凷
凸
凹
出
函
凾
刀
刁
刂
刃
刄
刅
分
切
刍
刑
刕
刖
列
刘
则
初
判
別
利
别
到
制
刺
則
削
剌
前
剡
剽
劉
力
功
加
劦
助
劫
劳
劵
勃
勇
勉
勒
動
務
勞
勤
勹
勺
勻
勾
勿
匀
匂
包
匆
匈
匊
匋
匍
匕
化
北
匚
匝
匡
匪
匱
匸
匹
区
医
匽
匿
區
十
卂
千
卄
卅
卆
升
午
卉
半
卌
华
卑
卒
卓
单
卖
南
卜
卝
卞
占
卡
卢
卣
卤
卦
卩
卪
卬
卯
印
危
即
却
卵
卷
卸
卻
厂
厃
厄
历
厈
厉
厌
厓
厘
厚
原
厤
厥
厨
厭
厲
厶
厷
厸
去
厼
厽
叀
参
參
叅
又
叉
及
友
双
反
叐
发
叒
叔
叕
取
受
叚
叜
叟
口
古
句
另
叩
只
召
可
台
叱
史
右
叵
号
司
叹
吂
各
吅
合
吉
吊
吋
同
名
后
吏
向
吕
君
吝
吞
否
含
启
吳
吴
吹
吾
呂
呆
呈
告
员
呙
呦
周
命
咅
和
咎
咠
咢
咨
咸
咼
哀
品
哉
員
哥
哲
唐
商
啇
問
啚
啬
啻
善
喜
喬
單
喿
嗇
噩
嚴
囊
囗
囘
囙
囚
四
回
囟
因
囧
囬
困
囱
図
囷
固
国
圂
圅
國
圍
圓
土
圡
圣
圥
在
圭
地
圶
圼
坐
坒
坚
坴
垂
垔
垚
埀
埋
埶
執
基
堂
堅
堆
堇
堯
場
塘
塞
墨
壘
士
壬
壯
声
壳
壴
壹
壺
壽
夂
处
夅
夆
备
夊
夋
夌
复
夏
夒
夕
外
夗
夘
多
夜
夢
大
夨
天
太
夫
夬
夭
央
失
夲
头
夷
夸
夹
夻
夾
奂
奄
奇
奈
奉
奎
奏
奐
契
奓
奔
奚
奞
奠
奢
奥
奭
女
奴
奻
好
如
妄
妙
妟
妥
妻
妾
姑
委
姜
威
娄
婁
婴
媛
嬰
嬴
子
孑
孔
孕
孖
字
存
孚
孛
孝
孟
季
孤
学
孫
孱
學
宀
宁
宂
它
宅
宇
守
安
宋
完
宏
宓
宗
官
宙
定
宛
宜
宝
审
客
宣
室
宮
宰
害
家
容
宾
宿
寄
寅
密
富
寒
察
寧
審
寫
寬
寮
寸
对
寺
寻
寽
対
寿
封
尃
射
将
將
專
尉
尊
尋
尌
對
小
少
尒
尓
尔
尖
尗
尚
尞
尢
尣
尤
尧
尨
尭
就
尸
尹
尺
尻
尼
尽
尾
尿
局
居
屈
屋
屎
屏
屑
展
屖
屚
属
屠
屡
屬
屮
屯
屰
山
屵
屾
岁
岂
岑
岡
岩
岳
岸
峯
島
崇
崑
崔
崖
崙
崩
嵬
嶲
巂
巛
川
州
巟
巠
巢
巤
工
左
巧
巨
巩
巫
差
己
已
巳
巴
巷
巸
巽
巾
巿
帀
市
布
希
帚
帛
帝
带
帧
師
席
帶
常
干
平
年
幵
并
幷
幸
幺
幻
幼
幽
幾
广
広
庄
床
库
底
店
庚
府
度
庫
庭
庶
康
庸
廉
廌
廛
廣
廩
廴
延
廷
建
廾
廿
开
弁
异
弃
弄
弇
弋
式
弓
弔
引
弗
弘
弜
弟
张
弥
弦
弱
張
強
强
彊
彌
彎
彐
彑
当
彔
录
彖
彗
彡
形
彥
彦
彧
彭
彳
役
彼
往
待
律
徒
得
徙
從
復
微
徵
心
忄
必
忌
忍
志
忝
忠
忩
快
念
忽
忿
思
怠
急
怱
恆
恒
恩
恭
息
悉
悟
患
悤
悲
悶
惠
惡
惢
愁
愈
意
愛
感
慈
慧
慮
憂
憲
應
戀
戈
戉
戊
戋
戌
戍
戎
成
我
戒
戔
或
戚
戠
戢
截
戲
戶
户
戸
戹
戼
戾
房
所
扁
扇
手
扌
才
打
托
执
承
折
报
拉
拜
拿
持
授
掌
探
推
描
提
摩
攝
支
攴
攵
收
攸
改
放
政
敄
敏
敕
敖
敗
教
敝
敞
敢
散
敦
敫
敬
数
敷
數
斂
文
斉
斊
斗
斤
斥
斩
斬
斯
新
方
於
施
斿
旁
旋
族
无
旡
既
旣
日
旦
旧
旨
早
旬
旱
旲
时
旾
昆
昇
昌
昍
明
昏
易
昔
昗
昜
星
春
昬
是
昱
昴
昷
時
晃
晋
晏
普
景
晶
智
暑
暴
曇
曩
曰
曲
曳
更
曷
書
曹
曼
曾
替
最
朁
會
月
有
朋
服
朔
朕
朗
望
朝
木
朩
未
末
本
札
朮
术
朱
朵
朶
朿
杀
杏
村
杜
束
条
来
東
杲
杳
松
析
林
枚
果
枝
枲
枼
某
柔
查
柬
柰
柴
树
栗
核
格
桀
桑
桼
梁
條
梟
梨
棋
棘
棠
棥
森
楚
業
楽
榮
樂
樊
欠
次
欣
欧
欮
欲
欶
欽
款
歆
歇
歛
止
正
此
步
武
歨
歪
歮
歯
歰
歲
歴
歷
歸
歹
歺
死
殊
殳
段
殷
殸
殹
殺
殻
殿
毋
毌
母
每
毒
比
毕
毚
毛
毳
氏
氐
民
气
氣
水
氵
氶
氷
永
氺
氾
求
汝
汞
江
池
沃
沓
沙
沝
河
油
治
泉
法
波
泣
泥
泰
洋
洛
津
洪
洲
活
派
流
济
浜
浦
浪
浮
海
淡
淮
清
渚
渠
湯
湾
源
滿
漠
漸
灣
火
灬
灭
灰
灵
灷
炅
炎
炏
炗
炙
炭
為
烈
烏
烝
焉
無
焦
焱
然
煞
熊
熏
燕
燙
營
燮
爪
爫
爭
爯
爰
爱
爲
爵
父
爻
爽
爾
爿
片
版
牙
牚
牛
牜
牟
牢
牧
牪
特
牽
犀
犬
犭
犮
状
狂
狄
狊
独
狺
猋
猒
猪
献
獻
玄
率
玉
王
玟
玨
珎
珠
班
理
琴
瑟
瑩
璠
瓜
瓦
甘
甚
生
産
用
甫
甬
田
由
甲
申
电
甶
男
甸
甹
町
画
甾
畀
界
畏
畐
留
畜
畟
畢
畧
畨
番
畫
異
畱
當
畺
畾
疊
疋
疌
疑
疒
疾
癞
癶
癸
癹
登
發
白
百
皀
皃
的
皆
皇
皋
皐
皕
皮
皷
皿
盃
盆
盇
盈
益
盍
盎
监
盒
盖
盛
盡
監
盤
盧
目
直
相
盾
省
眇
眉
看
県
眔
眞
真
眷
眼
眾
着
睘
睪
睿
瞏
瞢
瞿
矍
矛
矞
矢
矣
知
矦
短
石
研
破
碎
磊
磨
示
礻
礼
社
神
祟
票
祭
禀
禁
福
禸
禹
禺
离
禽
禾
禿
秀
私
秃
秉
秋
科
秘
秝
秦
移
稀
稟
穀
穌
穴
究
穹
空
穿
突
窄
窒
立
竒
竜
竝
竟
章
童
竹
笑
笠
筆
等
答
箕
算
箴
節
篤
篭
米
粉
粛
粟
粤
粦
粲
糖
糞
糸
糹
系
約
納
素
索
紫
累
細
絜
絫
絲
絵
維
綿
縣
繇
纍
纟
红
纪
绍
绘
缶
网
罒
罔
罕
罗
罙
罡
罢
罪
署
罷
羅
羊
羌
羍
美
羔
羕
羗
羞
羡
羣
群
義
羲
羸
羽
翁
翏
習
翕
翟
翠
翼
老
耂
考
者
耆
而
耎
耑
耒
耳
耴
耶
耷
聂
聊
聖
聚
聶
聿
肀
肃
肅
肉
肖
肙
肥
肩
肯
育
肴
胃
背
胡
胥
能
脊
脩
膚
臣
臤
臧
自
臬
臭
臯
臱
至
致
臺
臼
臽
臾
臿
舀
舂
舄
與
興
舉
舌
舍
舛
舜
舞
舟
般
船
艮
良
色
艸
艹
艾
芒
芔
芬
芮
花
芳
芺
芻
苔
苗
苟
若
苦
英
茶
茸
荅
草
荒
荣
荼
莆
莧
莫
莽
菆
菊
菐
華
萬
落
葉
著
葛
董
葵
蒙
蒦
蒼
蓋
蓬
蓺
蔑
蔡
蕉
蕭
薄
薛
薦
薰
藍
藏
藥
蘭
虍
虎
虐
虒
虔
處
虖
虗
虘
虚
虛
虜
虞
虫
虽
蚤
蚩
蜀
蜜
螽
蟀
蟋
蟲
蠡
血
行
衍
衛
衣
衤
表
衮
衰
袁
袞
裁
裕
褭
褱
襄
襾
西
覀
要
覃
見
規
覓
覧
親
覽
见
角
解
言
訁
訇
計
記
詹
語
誩
諸
讠
谷
豆
豈
豊
豐
豕
豖
豙
象
豦
豩
豪
豸
貇
貝
貞
貟
負
貢
貧
貪
貫
責
貳
貴
買
費
賁
資
賈
賏
賓
賔
賛
賞
賢
賣
質
賴
贊
贝
贡
责
贯
贲
贵
赖
赞
赤
赦
走
起
越
足
路
踊
蹇
身
躬
車
軍
軎
軟
輝
輦
车
辛
辜
辟
辥
辨
辰
辱
農
辵
辶
边
达
过
近
连
迷
追
退
送
逆
逐
通
速
造
逢
連
逮
進
遀
遂
過
道
達
遣
適
遷
遺
邊
邑
邕
那
邦
邪
郎
部
郭
都
鄉
酉
酋
配
酒
酓
釆
采
里
重
野
量
金
釒
錢
鎌
钅
長
镸
长
門
閃
閉
開
閏
閑
閒
間
閔
閵
閻
闌
门
间
闷
阑
阜
阝
阿
降
院
陳
隆
隊
隋
隡
隨
隱
隶
隹
隺
隻
隼
隽
难
雀
雁
集
雈
雋
雍
雐
雔
雙
雚
雜
雝
離
難
雨
雩
雪
雲
零
雷
需
霍
霜
霝
霞
霸
靈
靑
青
非
靡
面
靣
革
韋
韦
韭
韯
韱
音
頁
頃
項
須
頗
頡
頻
顛
页
風
风
飛
飞
食
飠
餅
養
饣
首
香
馬
馮
駦
马
驼
骨
高
髟
鬥
鬯
鬲
鬼
魚
魯
鮮
鱼
鲁
鳥
鳳
鵡
鸟
鸣
鹤
鹵
鹿
麃
麗
麥
麦
麻
黃
黄
黍
黎
黑
黒
黨
黹
黽
黾
鼎
鼓
鼠
鼻
齊
齋
齐
齒
齿
龍
龙
龜
龟
龠
龰
龱
龴
龵
龶
龷
龸
龹
ꜥ
ꞌ

者
艹
ﺎ
ﺑ
ﺟ
ﺭ
ﺮ
ﺱ
ﻂ
ﻠ
ﻤ
ﻫ
ﻮ
ﻳ
ﻴ
（
）
，
；
？
𝄆
𠀁
𠀃
𠀆
𠀉
𠀎
𠀐
𠁁
𠁣
𠂆
𠂇
𠂈
𠂉
𠂊
𠂋
𠂎
𠂒
𠂔
𠂛
𠂡
𠂢
𠂤
𠂬
𠂭
𠂹
𠃊
𠃋
𠃌
𠃍
𠃎
𠃑
𠃓
𠃔
𠃜
𠄌
𠄎
𠄠
𠄢
𠆢
𠆥
𠇍
𠈌
𠌵
𠓜
𠔉
𠔥
𠔼
𠔽
𠔿
𠕀
𠕁
𠕋
𠘧
𠘨
𠙻
𠙼
𠚏
𠚒
𠚤
𠚪
𠣏
𠤎
𠤕
𠥓
𠦄
𠦑
𠦝
𠧒
𠧗
𠧪
𠩺
𠪚
𠫓
𠫔
𠫤
𠬛
𠬝
𠬞
𠬢
𠬤
𠬶
𠮛
𠮦
𠮷
𠯑
𠱠
𠳮
𠷎
𡈼
𡉀
𡉵
𡌥
𡍮
𡏳
𡕒
𡕩
𡕰
𡖅
𡗗
𡗜
𡘆
𡘤
𡧱
𡨄
𡩧
𡬠
𡭽
𡰣
𡰥
𡰪
𡰯
𡰱
𡷈
𡸁
𡿨
𡿩
𡿪
𡿺
𢀖
𢀛
𢀩
𢁙
𢆉
𢆰
𢆶
𢇁
𢇇
𢉖
𢌬
𢌿
𢏚
𢑑
𢑚
𢖻
𢙣
𢛳
𢦏
𢦒
𢧵
𢼄
𢾕
𣁋
𣄼
𣅀
𣅽
𣍘
𣎳
𣎵
𣏋
𣏼
𣗥
𣥂
𣥖
𣦵
𣦼
𣧄
𣪊
𣪠
𣬉
𣳾
𣶒
𤇾
𤊽
𤐫
𤓰
𤔔
𤕨
𤣩
𤰇
𤰔
𤰞
𤴓
𤴔
𤽄
𥁑
𥁕
𥃦
𥃩
𥃭
𥇡
𥑟
𥘅
𥘈
𥝢
𥫗
𥱡
𦈢
𦉪
𦉬
𦉼
𦍌
𦍒
𦎧
𦐇
𦓔
𦔮
𦘒
𦙃
𦚏
𦣝
𦣞
𦣻
𦥑
𦥔
𦥯
𦨉
𦭝
𦰩
𧆞
𧈧
𧘇
𧰨
𧴪
𧴮
𧵩
𧾷
𨸏
𨾴
𩙿
𩠐
𩫏
𩵋
𪉷
𪜀
𪟽
𪠲
𪩲
𫇦
𫔭
𫜸
𫝀
𫠣
𫠩
𫢉
𫥞
𫩏
𫩠
𫪡
𫲽
𫶧
𬀷
𬐘
𬗌
𬙙
𬛸
𬜯
𬟩
𬯁
𬴘
𬺻
𬼉
𬼖
𭀰
𭁈
𭁨
𭅰
𭑈
𭕄
𭗼
𭤨
𭥫
𭻾
𮅕
𮊿
𮍌
𮍏
𮓗
𮥼
𮧮
廾
𰀁
𰀄
𰀈
𰀉
𰀕
𰀠
𰀡
𰀢
𰀪
𰁜
𰃮
𰆊
𰆘
𰋙
𰕎
𰢴
𰧭
𰯲
01--
02--
03--
04--
05--
052--
06--
07--
07486--
08--
08615--
09--
103--
112--
315--
315576--
60--
74--
79--
82--
84--
87--
90--
900--
902--
94--
978--
97801--
978052--
97808--
978190090--
a--
aa--
ab--
aba--
abc--
abe--
abh--
above--
ac--
aca--
accom--
ach--
act--
ad--
ada--
add--
addit--
adel--
adh--
admini--
ae--
aegi--
aer--
af--
ag--
agricul--
ah--
ai--
aibh--
aibi--
aid--
aig--
ail--
ain--
air--
ais--
ait--
aithr--
ak--
aka--
al--
ala--
alba--
ale--
aleks--
alge--
ali--
all--
alo--
als--
alt--
alter--
alum--
am--
ama--
ambas--
ame--
amh--
an--
ana--
anar--
anato--
anaxi--
ance--
and--
ankhe--
ann--
ant--
ao--
aon--
aonta--
aotra--
ap--
aphrod--
appro--
aqua--
aqui--
ar--
ara--
arb--
arc--
arcas--
arch--
ard--
are--
arg--
argen--
args--
aris--
ark--
arm--
armad--
arr--
art--
as--
ash--
asp--
ass--
assemb--
ast--
astro--
at--
ata--
ath--
atrica--
atta--
au--
aus--
auto--
av--
ava--
aven--
aw--
awa--
ay--
az--
azerbai--
b--
ba--
bab--
bac--
baca--
bach--
back--
bad--
bag--
bai--
baile--
bal--
ban--
bar--
barn--
bas--
base--
bat--
bay--
be--
bea--
beag--
bean--
beann--
bear--
bec--
bed--
bee--
bei--
beir--
bel--
ben--
beo--
ber--
berg--
bern--
bess--
beuk--
bezo--
bh--
bha--
bhaile--
bhan--
bhar--
bhe--
bhea--
bheo--
bher--
bhi--
bho--
bhog--
bhra--
bhrabh--
bhre--
bhreaba--
bhreith--
bhri--
bhriath--
bhro--
bhru--
bhu--
bhun--
bi--
big--
bin--
biograp--
bior--
bios--
birk--
bis--
bjørn--
bla--
black--
blan--
blas--
ble--
blia--
blo--
blue--
bly--
bo--
bod--
body--
bog--
bol--
bomb--
bomby--
bon--
book--
bor--
borg--
bos--
bot--
boul--
bow--
boy--
br--
bra--
braigh--
bran--
bre--
bri--
bria--
bro--
bru--
bry--
bu--
buadh--
buan--
buch--
buck--
budd--
bui--
buids--
bul--
bun--
bunab--
burgen--
bus--
but--
by--
bæ--
c--
ca--
caci--
caid--
cairt--
cal--
cala--
calb--
calc--
calder--
call--
cam--
campa--
can--
cana--
caoch--
caoi--
caoir--
cap--
car--
carl--
carthan--
cas--
cat--
cc--
cd--
ce--
cea--
ceang--
ceann--
ceap--
ceimeag--
cele--
cer--
cess--
ceum--
cfg--
ch--
cha--
chabh--
chaib--
chal--
chalp--
champ--
chan--
chaoch--
chaochlaid--
chaoi--
char--
chart--
chat--
che--
chea--
check--
cheum--
chi--
chla--
chle--
chli--
chna--
cho--
choin--
cholb--
chom--
chonalt--
chond--
chonn--
chonr--
chons--
chor--
chre--
chro--
chru--
chrys--
chsis--
chu--
chuairt--
chuid--
chum--
chun--
chur--
ci--
cimbi--
city--
cityof--
ck--
cl--
cla--
cle--
cleamh--
cli--
cliab--
cliff--
clo--
cly--
cm--
cml--
cn--
cna--
cno--
co--
cob--
coc--
cockb--
cod--
coda--
coibh--
coimhears--
coin--
cois--
coit--
col--
cold--
colu--
com--
comh--
compi--
con--
cong--
conn--
conse--
copy--
cor--
corn--
corres--
cos--
cow--
cra--
craw--
cre--
creat--
creid--
cri--
crios--
cro--
crom--
cross--
cru--
cs--
cu--
cuibh--
cuil--
cuim--
cuimhne--
cuin--
cul--
cum--
cunn--
cur--
cus--
cw--
cwm--
cy--
cz--
cze--
d--
da--
dab--
dag--
dal--
dam--
dan--
daoi--
dar--
data--
date--
dau--
daugh--
daw--
day--
dc--
de--
dea--
deal--
dear--
deas--
dec--
definit--
deg--
dei--
del--
dem--
demo--
democ--
demon--
den--
deo--
depart--
der--
des--
deter--
dev--
deve--
dh--
dha--
dhe--
dhea--
dhi--
dhia--
dhli--
dho--
dhu--
di--
dia--
did--
die--
diff--
din--
dio--
dipl--
dir--
direc--
disam--
diso--
dissertat--
div--
dj--
dl--
dm--
do--
doc--
doi--
dol--
dom--
don--
donn--
dos--
doug--
dr--
dra--
dre--
drex--
dro--
dry--
dryi--
ds--
dt--
du--
dubh--
duc--
dul--
dun--
dur--
dy--
dz--
e--
ea--
eacon--
eag--
eala--
ealta--
ean--
ear--
earra--
eas--
east--
ec--
ed--
edit--
edu--
eff--
eg--
egil--
eh--
ei--
ein--
eis--
ek--
el--
elap--
elbsandstein--
elec--
eli--
em--
emer--
en--
end--
enig--
eo--
ep--
equa--
er--
ere--
err--
ery--
es--
espi--
est--
et--
eter--
eth--
ethio--
ethno--
ety--
eu--
eun--
ev--
eva--
ex--
expe--
expl--
extra--
ey--
ez--
f--
fa--
fal--
fan--
fanta--
faoch--
faoi--
faoin--
far--
fas--
fe--
fea--
fear--
fed--
feld--
feo--
fer--
fetch--
ff--
ffest--
fh--
fha--
fhala--
fhaoigh--
fhar--
fhas--
fhe--
fhi--
fhiadha--
fhios--
fho--
fhosg--
fhr--
fhreag--
fhreagar--
fhu--
fi--
fia--
figue--
fil--
film--
fin--
find--
fionn--
fire--
fitz--
fla--
flag--
flat--
fle--
flea--
flo--
flu--
fo--
foill--
foinc--
foir--
folk--
fomor--
foot--
for--
forsee--
fort--
fr--
fra--
frag--
fre--
freag--
free--
fri--
fro--
ft--
fu--
fuaim--
ful--
full--
funa--
fund--
fur--
fy--
fyr--
g--
ga--
gabh--
gad--
gaine--
gal--
gam--
gan--
gar--
garten--
gas--
ge--
gea--
geal--
geans--
gear--
gel--
gen--
geo--
geoimeat--
ger--
get--
getall--
gh--
gha--
ghe--
ghea--
ghil--
ghin--
ghinea--
ghio--
ghiorra--
ghiu--
ghlas--
gho--
ghrio--
ghua--
ghui--
gi--
gib--
gil--
gin--
gioll--
giu--
gl--
gla--
glas--
gle--
glen--
glio--
glo--
glu--
gni--
go--
gob--
god--
goga--
goibh--
gold--
gon--
gong--
got--
gra--
gram--
gre--
green--
gri--
griog--
gro--
gru--
grund--
gry--
gu--
gua--
gual--
gue--
gueri--
gui--
gun--
gur--
guð--
gw--
gy--
gyr--
h--
ha--
hack--
had--
hai--
hal--
half--
hall--
ham--
hammer--
han--
hano--
happ--
har--
has--
hat--
hav--
haw--
hay--
he--
head--
hel--
helga--
help--
hemipt--
hen--
her--
herac--
hespe--
hi--
hie--
him--
hip--
his--
hja--
hlu--
hm--
ho--
hoch--
hodg--
hof--
hog--
hold--
horn--
how--
hr--
html--
hu--
hum--
hus--
hy--
hydro--
hyper--
i--
ia--
iar--
ib--
iba--
ibe--
ibra--
ic--
ice--
ich--
id--
identif--
idh--
idhe--
ie--
if--
ig--
ige--
igh--
ik--
il--
ile--
ili--
ill--
ille--
illus--
ilt--
ilte--
ilu--
im--
imag--
image--
imh--
imple--
improve--
in--
ina--
inc--
inch--
ind--
indep--
ine--
ing--
inia--
inimr--
inn--
innt--
inter--
interna--
intro--
inve--
inver--
io--
iom--
ioma--
iomral--
ion--
ionnstra--
ir--
irb--
ird--
is--
isbn--
ise--
isia--
isn--
issn--
ist--
it--
italien--
ite--
ith--
iu--
iuch--
iupat--
iv--
iz--
j--
ja--
jacque--
jan--
jar--
jay--
je--
jeff--
jen--
ji--
jo--
ju--
jy--
k--
ka--
kai--
kal--
kan--
kau--
ke--
kee--
ken--
kepp--
ket--
key--
kg--
kham--
kho--
ki--
kib--
kil--
kilb--
kim--
kincar--
kinl--
kinn--
kirk--
kit--
kj--
kno--
ko--
kom--
kon--
kosti--
kra--
kre--
krono--
krzeszow--
ks--
ku--
kur--
kv--
kw--
ky--
kyr--
kø--
l--
la--
lac--
lady--
lag--
lan--
land--
lang--
lar--
las--
lat--
laur--
lavi--
law--
lay--
lb--
lc--
lccn--
ld--
le--
leada--
lean--
lect--
lef--
lei--
leith--
len--
leo--
lepid--
les--
let--
leth--
leum--
lev--
lew--
ley--
li--
lia--
lib--
libe--
ligi--
lim--
lin--
link--
linn--
lir--
lis--
list--
litt--
liu--
live--
lju--
ll--
lla--
llan--
lle--
lo--
loch--
log--
lom--
lon--
long--
los--
lot--
lt--
lta--
lu--
lua--
lub--
lui--
lung--
lus--
lute--
luxem--
ly--
lys--
m--
ma--
mac--
macgille--
mach--
macille--
maclao--
mad--
mag--
magnai--
mai--
mail--
main--
maine--
mak--
make--
mal--
mall--
man--
manus--
mao--
map--
mar--
mara--
mark--
maroc--
mary--
mas--
mata--
max--
may--
mb--
mc--
mcc--
mccc--
mcccl--
mccclxx--
mcccxx--
mccl--
mcclxx--
mccx--
mccxx--
mcdl--
mcdlxx--
mcdx--
mcke--
mcl--
mclxx--
mcm--
mcml--
mcmlxx--
mcmx--
mcmxx--
mcx--
mcxx--
md--
mdc--
mdcc--
mdccc--
mdcccl--
mdccclxx--
mdcccxx--
mdccl--
mdcclxx--
mdccxx--
mdcl--
mdclxx--
mdcx--
mdcxx--
mdl--
mdlxx--
mdx--
mdxx--
me--
mea--
mean--
meg--
mein--
mel--
melan--
men--
mephi--
mer--
merid--
mes--
meta--
mg--
mh--
mha--
mhac--
mharc--
mharga--
mhe--
mhea--
mhi--
mhic--
mhinist--
mho--
mhoile--
mhor--
mhu--
mi--
mia--
mic--
mid--
migra--
mik--
miko--
mil--
mill--
min--
mini--
mio--
mir--
misne--
mit--
mittel--
ml--
mlxx--
mm--
mo--
mod--
moilibd--
mol--
mon--
mona--
monog--
monol--
mont--
mor--
morga--
mort--
mosc--
mosq--
mota--
mous--
moy--
mp--
mr--
ms--
mt--
mu--
muir--
muirea--
mult--
mum--
mun--
mur--
mus--
musci--
mw--
mx--
mxx--
my--
myk--
n--
na--
nad--
nai--
nais--
nam--
nan--
nar--
nas--
nat--
naum--
nd--
ne--
nea--
ned--
neo--
net--
neu--
new--
news--
ng--
nh--
ni--
nic--
nid--
nie--
nig--
nil--
nin--
nir--
nis--
niu--
niz--
nk--
nm--
nn--
no--
non--
nor--
nord--
north--
nos--
not--
now--
nr--
nrai--
ns--
nt--
nta--
nu--
nuadh--
num--
nur--
ny--
o--
ob--
oba--
obe--
ober--
oc--
occas--
och--
od--
odd--
odh--
odhla--
odo--
oe--
of--
offen--
og--
oga--
ogh--
oh--
oi--
oil--
oillt--
oir--
ois--
ok--
oka--
ol--
ola--
old--
oll--
oly--
om--
oma--
omha--
on--
ona--
one--
onis--
onra--
op--
or--
ora--
ord--
ori--
oro--
orra--
ort--
os--
osa--
ost--
ostfries--
ou--
out--
ov--
over--
ox--
oystercat--
oz--
p--
pa--
pai--
pal--
pamp--
pan--
par--
para--
park--
pas--
pat--
paw--
pe--
peaca--
peas--
peat--
pein--
peir--
pen--
penic--
per--
perce--
ph--
pha--
phea--
phen--
pher--
pheu--
phi--
pho--
phoenic--
phro--
phu--
phys--
pi--
pia--
pie--
pig--
pil--
pioc--
pipe--
pit--
pl--
pla--
plannta--
play--
ple--
plea--
plou--
plu--
po--
pobla--
podl--
poe--
poeci--
poili--
poj--
pol--
poly--
polytech--
pom--
pomp--
por--
port--
porto--
pos--
pot--
pow--
pp--
pr--
pra--
pract--
pre--
presbyte--
pri--
pro--
procyon--
prome--
pru--
pry--
præ--
ps--
pseu--
pseudos--
psitta--
psycho--
pu--
pulc--
pur--
py--
pyr--
q--
qua--
quadrill--
quan--
que--
qui--
quick--
quint--
r--
ra--
rad--
radh--
raf--
rag--
rain--
ral--
ram--
ran--
rang--
rann--
rap--
ras--
rat--
raw--
rb--
rba--
rc--
rd--
re--
rece--
reco--
red--
reduc--
ref--
regi--
relat--
reli--
rem--
remem--
ren--
render--
reo--
rep--
res--
result--
ret--
reu--
rev--
rg--
rha--
rhe--
rhu--
rhy--
ri--
ria--
rib--
rid--
rig--
rih--
rijks--
riks--
rin--
ring--
rio--
riochd--
ris--
rk--
rl--
rml--
rn--
rna--
ro--
rob--
roc--
roche--
rock--
rod--
roe--
ron--
ros--
rose--
row--
rr--
rs--
rsa--
rt--
ru--
rufi--
rum--
run--
rus--
ry--
s--
sa--
saar--
sac--
safe--
sag--
sail--
sak--
sal--
salt--
sam--
samhla--
san--
sand--
sao--
saora--
sar--
sas--
sau--
saw--
sc--
sca--
sce--
sch--
sche--
scho--
schott--
schu--
scor--
scot--
scre--
se--
sea--
sean--
sear--
seas--
sec--
see--
seen--
sef--
sei--
sel--
sem--
sen--
seo--
sep--
ser--
serra--
set--
sex--
sg--
sga--
sge--
sgeada--
sgi--
sgo--
sgra--
sgreuc--
sgri--
sgu--
sh--
sha--
shaw--
she--
shea--
shean--
shi--
ship--
shla--
shli--
sho--
shoill--
shola--
show--
shu--
shuai--
shuidhe--
si--
sia--
siar--
sic--
sie--
sig--
sigi--
sigur--
sil--
sim--
sin--
siou--
siphono--
sis--
siu--
sk--
ska--
sko--
sky--
sl--
sla--
sle--
sli--
slo--
sm--
sma--
small--
sme--
smo--
sna--
sne--
so--
soci--
socra--
sol--
som--
son--
song--
sorb--
sound--
soziali--
sp--
spa--
spe--
spi--
spo--
spoon--
sport--
spre--
spu--
sq--
squa--
sr--
sra--
sru--
ss--
st--
sta--
stad--
stadt--
staff--
stann--
ste--
ster--
sti--
stiu--
sto--
stoc--
stodd--
str--
stra--
strep--
struc--
stu--
stylonis--
su--
sua--
sub--
sue--
sugg--
sui--
sul--
sum--
sun--
suo--
super--
supp--
sur--
sv--
sver--
svet--
sw--
swain--
sy--
sylv--
symp--
syn--
syr--
sz--
sze--
słow--
t--
ta--
tab--
tag--
tai--
tail--
tair--
tais--
tait--
tal--
talk--
tam--
tamh--
tan--
taos--
tar--
tarsa--
tat--
taxi--
te--
tea--
teas--
teic--
tek--
tel--
temm--
temp--
template--
ten--
teo--
ter--
terri--
teut--
text--
tg--
th--
tha--
thag--
thais--
thar--
thas--
the--
thea--
thean--
theo--
thi--
thior--
tho--
thor--
thra--
thri--
thru--
thu--
ti--
tid--
tig--
til--
tim--
time--
tin--
tiom--
tionns--
tior--
tir--
tit--
title--
to--
tod--
toil--
tol--
tom--
too--
tor--
toten--
tr--
tra--
trans--
tre--
trea--
tri--
tro--
tru--
trun--
ts--
tt--
tte--
tu--
tuar--
tug--
tung--
tur--
turn--
tutank--
tv--
tw--
twe--
ty--
type--
tz--
u--
ua--
uachd--
uaig--
uc--
ucra--
ud--
ue--
ug--
ui--
uinn--
uk--
ul--
um--
un--
una--
und--
ungu--
uni--
unter--
up--
ur--
ura--
uri--
urn--
us--
use--
user--
ut--
v--
va--
val--
van--
var--
ve--
velo--
vent--
ver--
vespa--
vest--
veter--
vi--
via--
vie--
vil--
vill--
vin--
visc--
vita--
vitt--
vle--
vo--
vol--
volks--
vor--
vul--
vy--
w--
wa--
wai--
wal--
wall--
war--
was--
wat--
water--
wax--
we--
web--
wehr--
weih--
wel--
west--
whe--
whi--
whip--
whis--
whit--
white--
whitting--
wi--
wid--
wie--
wig--
wiki--
wil--
wild--
win--
wis--
wit--
wo--
woj--
won--
wood--
wry--
wu--
wy--
wyn--
x--
xant--
xi--
xx--
xy--
y--
ya--
yan--
ye--
year--
yes--
yi--
yo--
york--
yoshi--
you--
yr--
ys--
yu--
yve--
z--
za--
zaka--
ze--
zen--
zh--
zi--
zoo--
zu--
zw--
zwe--
ß--
æ--
ð--
ði--
ø--
þ--
þo--
đ--
ł--
ɐ--
ɑ--
ɔ--
ɕ--
ə--
ɛ--
ɡ--
ɣ--
ɦ--
ɪ--
ɾ--
ʁ--
ʃ--
ʋ--
ʎ--
ʒ--
α--
γ--
δ--
ε--
κ--
λ--
μ--
ν--
ο--
π--
ρ--
σ--
τ--
а--
акад--
але--
ан--
ар--
б--
в--
ве--
вел--
вл--
г--
го--
гол--
гор--
д--
до--
ду--
ев--
и--
к--
ка--
кате--
ко--
коб--
кр--
л--
м--
ма--
ми--
мо--
н--
націо--
нсь--
о--
ол--
ор--
п--
пе--
по--
пол--
пр--
р--
ро--
рус--
с--
са--
ск--
сс--
су--
т--
те--
у--
ц--
шевч--
я--
є--
і--
א--
ה--
י--
יו--
ס--
ا--
ال--
الم--
ب--
--0
--00
--01
--02
--03
--05
--07
--08
--1
--10
--11
--12
--16
--17
--19
--2
--20
--21
--23
--24
--28
--29
--3
--32
--33
--36
--4
--40
--41
--48
--49
--5
--51
--53
--57
--58
--6
--64
--67
--68
--7
--70
--71
--74
--75
--76
--78
--79
--8
--80
--81
--82
--84
--86
--89
--9
--90
--91
--94
--95
--96
--97
--99
--a
--aa
--ab
--abad
--abh
--abhal
--able
--ac
--ach
--acha
--achadh
--achaidh
--achail
--achain
--achais
--achan
--achas
--achd
--achdain
--achdainn
--acio
--ack
--acoa
--ad
--ada
--adach
--adaidh
--adail
--adain
--adair
--adairean
--adan
--ade
--ades
--adh
--adi
--ado
--ae
--ag
--aga
--agach
--agail
--agan
--age
--agh
--agu
--ah
--ai
--aib
--aibh
--aica
--aich
--aiche
--aichean
--aichidh
--aichte
--aid
--aidean
--aidh
--aidhean
--aig
--aigeach
--aigh
--ail
--aile
--ain
--ainmean
--ainn
--air
--aire
--aireachd
--airean
--ais
--ait
--ak
--aki
--al
--ala
--alaich
--alaichean
--alba
--ale
--ales
--alis
--ality
--all
--ally
--altach
--altais
--am
--amaid
--amh
--ams
--an
--ana
--anach
--anaich
--anan
--ance
--and
--ander
--ane
--ang
--ani
--ann
--annuaire
--ano
--anos
--ant
--anus
--ao
--ap
--ar
--ara
--arachd
--aran
--ard
--are
--arg
--argname
--args
--ari
--aria
--aribo
--arn
--arna
--aro
--art
--ary
--as
--asa
--asach
--asaich
--asan
--asg
--asi
--at
--ata
--atach
--ate
--ated
--ath
--ation
--ations
--ative
--atlas
--ator
--ats
--atus
--au
--auer
--aw
--ay
--b
--ba
--bach
--bad
--bair
--bank
--bar
--batidae
--bau
--bay
--bb
--bbc
--bble
--bbs
--be
--beg
--bel
--ben
--berg
--bes
--bet
--bh
--bha
--bhaig
--bi
--bia
--bie
--bio
--bium
--bl
--blank
--ble
--bo
--bol
--borough
--bost
--bourne
--box
--bri
--bs
--bu
--buch
--burg
--burgh
--burn
--bury
--bus
--by
--c
--ca
--cail
--cal
--can
--case
--cat
--cca
--cd
--ce
--ceach
--cell
--ces
--ch
--cha
--chadh
--chaft
--chail
--chain
--chan
--chas
--chd
--chdach
--chdan
--che
--chen
--ches
--chi
--cht
--chte
--chy
--ci
--cia
--ciidae
--cil
--cin
--cing
--cio
--cise
--city
--ck
--cke
--cker
--cks
--class
--cle
--co
--coe
--cq
--crest
--cs
--ct
--ctar
--cu
--cus
--cut
--cy
--d
--da
--dab
--dae
--dair
--dal
--dale
--dan
--das
--dat
--data
--date
--daw
--day
--db
--dd
--dder
--de
--dean
--ded
--den
--der
--des
--det
--dh
--di
--dia
--dica
--die
--dini
--dinn
--dis
--dition
--dium
--div
--dler
--dley
--do
--dor
--dora
--dorf
--dra
--ds
--dt
--du
--dur
--dus
--dy
--e
--ea
--each
--eachadh
--eachas
--eachd
--ead
--eadair
--eadh
--eae
--eag
--eagan
--eal
--ealas
--eam
--ean
--eanach
--eann
--eanta
--ear
--earan
--earn
--eas
--eater
--eau
--ec
--ech
--ection
--ed
--ede
--ee
--een
--eg
--ega
--egus
--ehouse
--ei
--eid
--eidae
--eig
--eil
--eim
--ein
--einn
--eir
--eiro
--eis
--eit
--ek
--el
--ela
--ele
--ell
--elli
--elo
--em
--ement
--en
--ena
--enas
--enc
--ence
--encia
--end
--ene
--enia
--enne
--eno
--ens
--ensis
--ent
--enta
--ente
--entia
--ento
--enwau
--enz
--eo
--eon
--ep
--er
--era
--ere
--ered
--erg
--eri
--ering
--ern
--ero
--ers
--ert
--erto
--ery
--es
--ese
--esisch
--ess
--est
--et
--eta
--eth
--ets
--ett
--ette
--etti
--eu
--eur
--eus
--euse
--evium
--ex
--ey
--ez
--eza
--f
--fa
--face
--fall
--fax
--fe
--feld
--ff
--ffe
--ffel
--fi
--field
--finch
--fish
--fjo
--fo
--foot
--ford
--fowl
--fs
--ft
--fu
--ful
--g
--ga
--gach
--gaich
--gaid
--gaig
--gain
--gair
--gais
--gal
--gan
--gat
--ge
--geach
--gean
--gebiet
--ged
--geil
--gen
--ger
--ges
--gh
--gha
--ghais
--ght
--gi
--gia
--gich
--gid
--gidae
--gie
--gio
--gis
--gne
--go
--gor
--gr
--gra
--gs
--gt
--gte
--gton
--gu
--gy
--h
--ha
--hach
--hadh
--haft
--haidh
--hain
--hall
--ham
--han
--har
--has
--hd
--he
--hea
--heach
--head
--heal
--hean
--heil
--heim
--hem
--henwau
--hes
--hi
--hia
--hidae
--hill
--hin
--hion
--hip
--hir
--hl
--hla
--hn
--hna
--hnear
--ho
--holder
--hon
--honiscoides
--hor
--horn
--hra
--hran
--hs
--ht
--hta
--hte
--html
--http
--https
--hu
--huis
--hurst
--hy
--i
--ia
--iae
--iah
--iai
--iain
--ial
--ialis
--ials
--iam
--ian
--iana
--ianach
--ianaich
--ians
--iard
--ias
--ib
--ibh
--ibus
--ic
--ica
--ice
--ich
--iche
--icheadh
--ichean
--ichear
--icheas
--ichidh
--ichte
--ici
--icia
--icidae
--ick
--ico
--ics
--icus
--id
--ida
--idad
--idae
--ide
--idh
--idhean
--idich
--ido
--ids
--idus
--idx
--ie
--iec
--ied
--iel
--ien
--iensis
--ienwau
--ier
--iers
--ies
--if
--ifi
--ification
--ified
--iformes
--ig
--ige
--igeadh
--igh
--igia
--igich
--igin
--ign
--ii
--iidae
--ija
--ik
--ika
--il
--ila
--ile
--ill
--illi
--ils
--ilurus
--ily
--im
--ima
--imdb
--imh
--in
--ina
--ine
--iner
--ing
--inge
--ingham
--ings
--ington
--ini
--inis
--ink
--inn
--ino
--inosus
--ins
--int
--inus
--io
--ion
--ions
--ionth
--ionths
--ior
--ios
--iot
--ip
--ipes
--iq
--ir
--ira
--ire
--iro
--irt
--is
--isation
--isbn
--isch
--ische
--ischen
--ise
--ised
--ish
--ishu
--isi
--isk
--ism
--isme
--ismo
--ismus
--issn
--ist
--ista
--ists
--it
--ita
--itas
--ite
--iteid
--ith
--ities
--ito
--itt
--ity
--itz
--iu
--ium
--ius
--iv
--iva
--ive
--ivna
--ix
--iz
--izacio
--ization
--ized
--iß
--iße
--ið
--j
--ja
--jar
--je
--jet
--ji
--jo
--ju
--k
--ka
--kan
--kar
--kau
--ke
--kei
--kel
--kell
--ken
--ker
--kes
--ket
--key
--kh
--ki
--kie
--kii
--kin
--kk
--kle
--ko
--kov
--ks
--kt
--kton
--ku
--ky
--l
--la
--lach
--lag
--lair
--lais
--lam
--lan
--land
--lann
--lar
--las
--late
--lav
--law
--lbh
--lc
--lccn
--ld
--lde
--le
--lea
--lean
--led
--leg
--len
--ler
--les
--less
--let
--ley
--lf
--lg
--li
--lia
--lich
--lidae
--lidh
--lie
--lig
--lin
--line
--ling
--lings
--link
--lio
--lis
--list
--lit
--lk
--ll
--lla
--lle
--llean
--lli
--llia
--llis
--llo
--llus
--lm
--lo
--lock
--logy
--ls
--lt
--lta
--lte
--lum
--lus
--ly
--lyn
--m
--ma
--mad
--man
--map
--mar
--mas
--mba
--mbo
--me
--mea
--men
--ment
--ments
--mer
--mh
--mhar
--mho
--mhor
--mi
--mia
--ming
--mis
--mmer
--mo
--moin
--mon
--mor
--more
--mos
--mot
--mouth
--mp
--ms
--mu
--my
--n
--na
--nach
--nadh
--nae
--nah
--naich
--nais
--nal
--name
--nan
--nas
--nasan
--nberg
--nburg
--nc
--nca
--nce
--ncy
--nd
--nda
--ndair
--nde
--ndi
--ndo
--ne
--neachaidh
--neachd
--nean
--negro
--nell
--ner
--nes
--ney
--ng
--nga
--nge
--ngen
--ngo
--ngs
--ni
--nia
--nich
--nidae
--niformes
--nii
--nik
--nin
--ning
--nis
--nk
--nka
--nko
--nlean
--nn
--nna
--nnan
--nnasg
--nne
--nner
--nnes
--no
--nock
--nov
--nquira
--ns
--nsa
--nsay
--nse
--nsis
--nson
--nst
--nstadt
--nt
--nta
--nte
--nti
--ntia
--ntin
--ntis
--nto
--nts
--ntyre
--num
--nums
--nus
--nwau
--ny
--nz
--nza
--nzo
--o
--oa
--ob
--obar
--object
--oc
--och
--ock
--od
--ode
--oe
--oes
--og
--ogi
--ogue
--ogy
--oi
--oid
--oidh
--oin
--ok
--ol
--ola
--old
--ole
--oles
--oli
--olo
--ologie
--ology
--om
--omatidae
--omh
--omi
--on
--ona
--ondo
--one
--ong
--oni
--onia
--only
--onn
--ons
--ony
--oo
--oon
--op
--ope
--opus
--or
--ora
--ore
--ores
--orf
--orn
--oro
--ors
--ort
--orum
--os
--osa
--oscia
--osg
--osus
--ot
--ote
--oth
--otidae
--ott
--ou
--ough
--oun
--ous
--oux
--ov
--ova
--ovic
--ovich
--ovitch
--ovium
--ovna
--ow
--owa
--own
--ows
--oy
--p
--pa
--pach
--pad
--pag
--page
--pain
--pal
--pe
--ped
--pes
--pf
--ph
--pha
--pi
--pin
--po
--poda
--port
--pos
--pped
--pro
--ps
--pt
--pton
--ptus
--pus
--q
--qid
--que
--r
--ra
--rab
--rach
--racy
--rain
--ram
--ran
--ras
--rbium
--rby
--rc
--rch
--rd
--rdi
--rdy
--re
--rea
--red
--ree
--ref
--rel
--rell
--res
--reuil
--rf
--rfeld
--rg
--ri
--ria
--ric
--ride
--rie
--rien
--ries
--rig
--riidae
--rina
--rio
--ris
--rit
--rius
--rk
--rm
--rma
--rn
--rna
--rne
--rnis
--rns
--ro
--rol
--rom
--ron
--ropus
--ros
--rotis
--row
--rr
--rra
--rre
--rri
--rs
--rsko
--rt
--rta
--rtacus
--rton
--rty
--ru
--rum
--rus
--rut
--rv
--ry
--ryn
--rza
--s
--sa
--sabhal
--sach
--sad
--saigh
--sain
--saing
--sal
--san
--say
--sby
--sch
--schaft
--schaften
--sche
--scher
--sco
--scus
--sd
--sdo
--se
--see
--sel
--sen
--ser
--ses
--sey
--sg
--sgal
--sh
--shchyna
--ship
--shire
--si
--sia
--side
--sie
--sik
--sio
--sis
--sius
--sive
--sjo
--sk
--ska
--sky
--skyi
--sm
--smo
--sn
--so
--son
--sos
--span
--spine
--ss
--ssa
--sse
--sser
--sskill
--sson
--st
--sta
--stadt
--stal
--stan
--ste
--stear
--sto
--ston
--str
--sts
--style
--su
--sus
--sville
--swell
--sy
--sym
--sz
--sø
--t
--ta
--tach
--tachd
--tad
--tag
--tail
--tainn
--tair
--tais
--tal
--tan
--tar
--tas
--tbl
--tch
--te
--tean
--tear
--ted
--teen
--tein
--ten
--ter
--tera
--tes
--teur
--text
--th
--tha
--the
--thon
--ths
--ti
--tia
--tian
--tic
--tice
--tich
--tiche
--tics
--tidae
--tie
--tier
--tik
--ting
--tinn
--tion
--tions
--tis
--tischen
--title
--tius
--tive
--tje
--tl
--tle
--tn
--to
--ton
--tor
--tos
--town
--tr
--tra
--trach
--trix
--tro
--try
--ts
--tska
--tsky
--tt
--tta
--tte
--tti
--tu
--tum
--ture
--tus
--ty
--tyle
--tz
--tzer
--u
--ua
--uage
--ual
--uatu
--ub
--uca
--uch
--ud
--udan
--ude
--udes
--udi
--udii
--ue
--uen
--ug
--ugh
--ui
--uin
--uinn
--uis
--uish
--uk
--ukelen
--ul
--ula
--ular
--ult
--ulus
--um
--ume
--un
--ung
--ungen
--unn
--up
--ur
--ura
--ure
--ures
--urg
--url
--urn
--uro
--urs
--urus
--us
--usen
--uss
--ut
--ute
--uth
--utus
--uw
--ux
--uz
--v
--va
--val
--vale
--value
--vas
--ve
--ved
--vel
--ven
--ver
--ves
--vey
--vi
--via
--vic
--vich
--vik
--ville
--vin
--vis
--vitch
--vka
--vna
--vnik
--vo
--vy
--w
--wa
--wau
--way
--ways
--we
--wen
--wer
--wi
--wick
--wicz
--wijk
--witz
--wn
--wood
--ws
--wy
--wyn
--x
--xa
--xi
--xis
--xv
--xx
--xxi
--xxv
--xxx
--y
--ya
--yar
--ych
--yd
--ye
--yer
--yi
--ying
--yl
--yle
--ym
--yn
--yna
--yne
--yon
--yps
--ys
--z
--za
--zan
--zar
--zas
--ze
--zel
--zer
--zheim
--zhou
--zi
--zo
--zoa
--zon
--zong
--zt
--zu
--zy
--zza
--ß
--ð
--ða
--ðar
--ði
--ðingafjo
--ðir
--ðið
--ø
--ı
--ł
--ław
--ŋ
--ɐ
--ɑ
--ɔ
--ə
--ən
--ər
--ɛ
--ɪ
--ɾ
--ʁ
--ʃ
--ʊ
--ʒ
--α
--ε
--η
--ι
--ν
--ο
--ον
--ος
--ρα
--ς
--υ
--ω
--а
--аи
--андр
--б
--в
--ва
--г
--го
--д
--да
--ди
--е
--евич
--еи
--енко
--и
--ии
--к
--ка
--ки
--кии
--ко
--кои
--л
--ль
--м
--н
--не
--нко
--ня
--ні
--нія
--о
--ов
--ои
--ор
--оі
--п
--р
--ро
--с
--са
--скии
--ськии
--т
--ти
--у
--х
--цька
--ч
--ы
--ь
--ька
--ькии
--я
--і
--ів
--іи
--ія
--אל
--ה
--ל
--ן
--ר
--ان
--ة
--د
--ر
--ق
--ن
--ي
--ية
