!
"
#
##0
##1
##10
##11
##12
##13
##14
##15
##16
##17
##18
##19
##2
##20
##21
##22
##23
##24
##25
##26
##27
##28
##29
##3
##30
##31
##32
##33
##34
##35
##36
##37
##38
##39
##4
##40
##41
##42
##43
##44
##45
##46
##47
##48
##49
##5
##50
##51
##52
##53
##54
##55
##56
##57
##58
##59
##6
##60
##61
##62
##63
##64
##65
##66
##67
##68
##69
##7
##70
##71
##72
##73
##74
##75
##76
##77
##78
##79
##8
##80
##81
##82
##83
##84
##85
##86
##87
##88
##89
##9
##90
##91
##92
##93
##94
##95
##96
##97
##98
##99
$
%
&
'
(
)
*
+
,
-
.
/
0
00
000
001
002
003
004
005
006
007
008
01
010
016
02
03
030
04
05
050
06
063
07
08
081
083
09
1
10
100
1000
10000
1001
1002
10024
1009
101
1010
1011
1012
1015
1016
1017
1019
102
1020
1024
1025
103
1030
1035
1037
1038
104
1040
1048
105
1050
1054
1058
1059
106
1060
1063
1066
107
1070
1071
1075
1076
108
1080
1085
1086
109
1090
1093
1094
1095
1097
1098
1099
11
110
1100
1101
1104
1105
111
1111
1118
112
1120
1125
1126
113
1130
1131
1135
1136
1137
114
1140
1147
1148
1149
115
1150
1151
1152
1153
1154
1157
116
1160
1162
1163
117
1170
1173
1174
1175
118
1180
1185
1187
1189
119
1190
1191
1192
1194
1195
1196
1198
1199
12
120
1200
1202
1203
1204
1205
1206
1207
1208
1209
121
1210
1211
1212
1213
1214
1215
1216
1217
1218
1219
122
1220
1221
1225
1226
1227
1228
1229
123
1230
1231
1233
1234
1235
1236
1237
1238
1239
124
1240
1241
1242
1243
1244
1245
1246
1247
1248
1249
125
1250
1251
1252
1253
1254
1256
1257
1258
126
1260
1261
1262
1264
1265
1266
1267
1268
127
1270
1271
1272
1274
1275
1276
1277
1278
1279
128
1280
1282
1283
1284
1285
1286
1288
1289
129
1290
1291
1292
1294
1295
1296
1298
1299
13
130
1300
1301
1302
1303
1304
1305
1306
1307
1308
1309
131
1310
1311
1312
1313
1314
1315
1316
1317
1318
1319
132
1320
1321
1322
1323
1324
1325
1326
1327
1328
1329
133
1330
1333
1335
1336
1339
134
1340
1341
1342
1343
1344
1345
1346
1347
1348
1349
135
1350
1351
1352
1355
1356
1358
1359
136
1360
1361
1362
1363
1364
1365
1368
1369
137
1370
1371
1373
1375
1377
1378
138
1380
1381
1382
1383
1384
1385
1386
1387
1388
1389
139
1390
1391
1392
1393
1394
1395
1396
1397
1398
1399
14
140
1400
1401
1402
1403
1404
1405
1406
1407
1408
1409
141
1410
1411
1412
1413
1414
1415
1416
1417
1418
1419
142
1420
1421
1422
1423
1424
1425
1427
1428
1429
143
1430
1431
1432
1433
1434
1435
1436
1437
1438
1439
144
1440
1441
1442
1443
1444
1445
1446
1447
1448
1449
145
1450
1451
1452
1453
1455
1457
1458
1459
146
1460
1461
1462
1463
1464
1465
1466
1467
1468
1469
147
1470
1471
1472
1473
1474
1475
1476
1477
1478
1479
148
1480
1481
1482
1483
1484
1485
1486
1488
149
1490
1491
1492
1493
1494
1495
1496
1497
1498
1499
15
150
1500
1501
1502
1503
1504
1505
1506
1507
1508
1509
151
1510
1511
1512
1513
1514
1515
1516
1517
1518
1519
152
1520
1521
1522
1523
1524
1525
1526
1527
1528
1529
153
1530
1531
1532
1533
1534
1535
1536
1537
1538
1539
154
1540
1541
1542
1543
1544
1545
1546
1547
1548
1549
155
1550
1551
1552
1553
1554
1555
1556
1557
1558
1559
156
1560
1561
1562
1563
1564
1565
1566
1567
1568
1569
157
1570
1571
1572
1573
1574
1575
1576
1577
1578
1579
158
1580
1581
1582
1583
1584
1585
1586
1587
1588
1589
159
1590
1591
1592
1593
1594
1595
1596
1597
1598
1599
16
160
1600
1601
1602
1603
1604
1605
1606
1607
1608
1609
161
1610
1611
1612
1613
1614
1615
1616
1617
1618
1619
162
1620
1621
1622
1623
1624
1625
1626
1627
1628
1629
163
1630
1631
1632
1633
1634
1635
1636
1637
1638
1639
164
1640
1641
1642
1643
1644
1645
1646
1647
1648
1649
165
1650
1651
1652
1653
1654
1655
1656
1657
1658
1659
166
1660
1661
1662
1663
1664
1665
1666
1667
1668
1669
167
1670
1671
1672
1673
1674
1675
1676
1677
1678
1679
168
1680
1681
1682
1683
1684
1685
1686
1687
1688
1689
169
1690
1691
1692
1693
1694
1695
1696
1697
1698
1699
17
170
1700
1701
1702
1703
1704
1705
1706
1707
1708
1709
171
1710
1711
1712
1713
1714
1715
1716
1717
1718
1719
172
1720
1721
1722
1723
1724
1725
1726
1727
1728
1729
173
1730
1731
1732
1733
1734
1735
1736
1737
1738
1739
174
1740
1741
1742
1743
1744
1745
1746
1747
1748
1749
175
1750
1751
1752
1753
1754
1755
1756
1757
1758
1759
176
1760
1761
1762
1763
1764
1765
1766
1767
1768
1769
177
1770
1771
1772
1773
1774
1775
1776
1777
1778
1779
178
1780
1781
1782
1783
1784
1785
1786
1787
1788
1789
179
1790
1791
1792
1793
1794
1795
1796
1797
1798
1799
18
180
1800
1801
1802
1803
1804
1805
1806
1807
1808
1809
181
1810
1811
1812
1813
1814
1815
1816
1817
1818
1819
182
1820
1821
1822
1823
1824
1825
1826
1827
1828
1829
183
1830
1831
1832
1833
1834
1835
1836
1837
1838
1839
184
1840
1841
1842
1843
1844
1845
1846
1847
1848
1849
185
1850
1851
1852
1853
1854
1855
1856
1857
1858
1859
186
1860
1861
1862
1863
1864
1865
1866
1867
1868
1869
187
1870
1871
1872
1873
1874
1875
1876
1877
1878
1879
188
1880
1881
1882
1883
1884
1885
1886
1887
1888
1889
189
1890
1891
1892
1893
1894
1895
1896
1897
1898
1899
19
190
1900
1901
1902
1903
1904
1905
1906
1907
1908
1909
191
1910
1911
1912
1913
1914
1915
1916
1917
1918
1919
192
1920
1921
1922
1923
1924
1925
1926
1927
1928
1929
193
1930
1931
1932
1933
1934
1935
1936
1937
1938
1939
194
1940
1941
1942
1943
1944
1945
1946
1947
1948
1949
195
1950
1951
1952
1953
1954
1955
1956
1957
1958
1959
196
1960
1961
1962
1963
1964
1965
1966
1967
1968
1969
197
1970
1971
1972
1973
1974
1975
1976
1977
1978
1979
198
1980
1981
1982
1983
1984
1985
1986
1987
1988
1989
199
1990
1991
1992
1993
1994
1995
1996
1997
1998
1999
2
20
200
2000
2001
2002
2003
2004
2005
2006
2007
2008
2009
201
2010
2011
2012
2013
2014
2015
2016
2017
2018
2019
202
2020
2021
2022
2023
203
204
205
206
207
208
209
21
210
211
212
213
214
215
216
217
2178
218
219
22
220
221
222
223
224
225
226
227
228
229
23
230
231
232
233
234
235
236
237
238
239
24
240
241
242
243
244
245
246
247
248
249
25
250
2500
251
252
253
254
255
256
257
258
259
26
260
261
262
263
264
265
266
2661
267
268
269
27
270
271
272
273
274
275
276
277
278
279
28
280
281
282
283
284
285
286
287
288
289
29
290
291
292
293
294
295
296
297
298
299
3
30
300
3000
301
302
303
304
305
306
307
308
309
31
310
311
312
313
314
315
316
3166
317
318
319
32
320
321
322
323
324
325
326
327
328
329
33
330
331
332
333
334
335
336
337
338
339
34
340
341
342
343
344
3443
345
346
347
348
349
35
350
351
352
353
354
355
356
357
358
359
36
360
361
362
363
364
365
366
367
368
369
37
370
371
372
373
374
375
376
377
378
379
38
380
381
382
383
384
385
386
387
388
389
39
390
391
392
393
394
395
396
397
398
399
4
40
400
4000
401
402
403
404
405
406
407
408
409
41
410
411
412
413
414
415
416
417
418
419
42
420
421
422
423
424
425
426
427
428
429
43
430
431
432
433
434
435
436
437
438
439
44
440
441
442
443
444
445
446
447
448
449
45
450
451
452
453
454
455
456
457
458
459
46
460
461
462
463
464
465
466
467
468
469
47
470
471
472
473
474
475
476
477
478
479
48
480
481
482
483
484
485
486
487
488
489
49
490
491
492
493
494
495
496
497
498
499
5
50
500
5000
501
502
503
504
505
506
507
508
509
51
510
511
512
513
514
515
516
517
518
519
5192
52
520
521
522
523
524
525
526
527
528
529
53
530
531
532
533
534
535
536
537
538
539
54
540
541
542
543
544
545
546
547
548
549
55
550
551
552
553
554
555
556
557
558
559
56
560
561
562
563
564
565
566
567
568
569
57
570
571
572
573
574
575
576
577
578
579
58
580
581
582
583
584
585
586
587
588
589
59
590
591
592
593
594
595
596
597
598
599
6
60
600
6000
601
602
603
604
605
606
607
608
609
61
610
611
612
613
614
615
616
617
618
619
62
620
621
622
623
624
625
626
627
628
629
63
630
631
632
633
634
635
636
637
638
639
64
640
641
642
643
644
645
646
647
648
649
65
650
651
652
653
654
655
656
657
658
659
66
660
661
662
663
664
665
666
667
668
669
67
670
671
672
673
674
675
676
677
678
679
68
680
681
682
683
684
685
686
687
688
689
69
690
691
692
693
694
695
696
697
698
699
7
70
700
701
702
703
704
705
706
707
708
709
71
710
711
712
713
714
715
716
717
718
719
72
720
721
722
723
724
725
726
727
728
729
73
730
731
732
733
734
735
736
737
738
739
74
740
741
742
743
744
745
746
747
748
749
75
750
751
752
753
754
755
756
757
758
759
76
760
761
762
763
764
765
766
767
768
769
77
770
771
772
773
774
775
776
777
778
779
78
780
781
782
783
784
785
786
787
788
789
79
790
791
792
793
794
795
796
797
798
799
8
80
800
8000
801
802
803
804
805
806
807
808
809
81
810
811
812
813
814
815
816
817
818
819
82
820
821
822
823
824
825
826
827
828
829
83
830
831
832
833
834
835
836
837
838
839
84
840
841
842
843
844
845
846
847
848
849
85
850
851
852
853
854
855
856
857
858
859
86
860
861
862
863
864
865
866
867
868
869
87
870
871
872
873
874
875
876
877
878
879
88
880
881
882
883
884
885
886
887
888
889
89
890
891
892
893
894
895
896
897
898
899
9
90
900
901
902
903
904
905
906
907
908
909
91
910
911
912
913
914
915
916
917
918
919
92
920
921
922
923
924
925
926
927
928
929
93
930
931
932
933
934
935
936
937
938
939
94
940
941
942
943
944
945
946
947
948
949
95
950
951
952
953
954
955
956
957
958
959
96
960
961
962
963
964
965
966
967
968
969
97
970
971
972
973
974
975
976
977
978
979
98
980
981
982
983
984
985
986
987
988
989
99
990
991
992
993
994
995
996
997
998
999
:
;
<
=
>
?
@
\
^
_
`
a
aa
aaron
ab
aba
abad
abadessa
abadesses
abadia
abando
abandona
abandonada
abandonades
abandonament
abandonant
abandonar
abandonaren
abandonat
abandonats
abandone
abandonen
abans
abast
abasta
abastar
abasten
abat
abatre
abats
abatut
abba
abbas
abbey
abbott
abc
abd
abdicacio
abdicar
abdomen
abdominal
abdul
abdullah
abe
abel
abella
abelles
abello
aberdeen
abi
abkha
aboca
abolicio
abolida
abolir
abolit
aborda
abordar
abori
about
abr
abrac
abraham
abrams
abreujat
abreviatura
abric
abril
abrs
abse
absent
absents
absis
absolt
absolut
absoluta
absolutament
absolutisme
absolutista
absorbeix
absorbida
absorbir
absorbit
absorcio
abstencio
abstenir
abstraccio
abstract
abstracta
abstracte
abstractes
absurd
abu
abunda
abundant
abundants
abunden
abusos
ac
aca
acaba
acabada
acabades
acaballes
acabament
acabant
acabar
acabara
acabaren
acabaria
acabat
acabats
acabava
acabaven
acabe
acaben
acabi
acabo
acad
acade
academia
academic
academy
acaia
acampar
acb
accademia
acce
accedeix
accedir
accedit
accelera
acceleracio
accelerar
accelerat
accent
accents
accepta
acceptable
acceptacio
acceptada
acceptades
acceptant
acceptar
acceptat
acceptats
acceptava
accepten
access
accessed
accessibilitat
accessible
accessibles
accessoris
accessos
accident
accidental
accidentalment
accidentat
accidents
accio
accionista
accionistes
accions
account
ace
acer
acetat
aci
acid
acidesa
aclamat
aclaparadora
aclarir
acoblament
acollida
acolliment
acollir
acollit
acomiadament
acomiadar
acomiadat
acompanya
acompanyada
acompanyades
acompanyament
acompanyant
acompanyar
acompanyat
acompanyats
acompanyava
acompanyaven
acompanyen
acompliment
aconsegueix
aconsegueixen
aconsegui
aconseguia
aconseguida
aconseguien
aconseguint
aconseguir
aconseguiren
aconseguiria
aconseguit
aconseguits
aconsella
aconsellar
acord
acorda
acordar
acordat
acords
acosta
acostament
acostar
acostuma
acostumen
acre
acreditar
acreditat
acres
acro
acroba
acs
act
acta
acte
actes
actina
action
actitud
actituds
actiu
actius
activa
activacio
activament
activar
activat
active
actives
activisme
activista
activistes
activitat
activitats
actor
actores
actors
actriu
actrius
actua
actuacio
actuacions
actual
actualitat
actualitzacio
actualitzacions
actualitzada
actualitzar
actualitzat
actualment
actuals
actuant
actuar
actuat
actuava
actuaven
actuen
acu
acudir
acull
acumula
acumulacio
acumulada
acumular
acumulat
acurada
acuradament
acurat
acusa
acusacio
acusacions
acusada
acusant
acusar
acusat
acusats
acusava
ad
ada
adagio
adalbert
adam
adams
adapta
adaptacio
adaptacions
adaptada
adaptades
adaptant
adaptar
adaptat
adaptats
add
addiccio
addicio
addicional
addicionalment
addicionals
additius
ade
adela
adelaida
ademu
aden
adequacio
adequada
adequadament
adequades
adequat
adequats
ades
adherir
adhesio
adient
adjacent
adjacents
adjectiu
adjectius
adjudicar
adjunt
adjunta
adjunts
adler
adme
admesa
admet
admeten
admetre
administra
administracio
administracions
administrada
administrador
administradors
administrar
administrat
administration
administratiu
administratius
administrativa
administrativament
administratives
admiracio
admirador
admirar
admissibilitat
admissible
admissio
adn
adobe
adolesce
adolescent
adolescents
adolf
adolfo
adolphe
adona
adonar
adopcio
adopta
adoptada
adoptades
adoptant
adoptar
adoptat
adopten
adoptiu
ador
adora
adoracio
adorns
adors
adossada
adossades
adossat
adossats
adovellada
adovellat
adq
adquireix
adquireixen
adquiri
adquirida
adquirides
adquirint
adquirir
adquirit
adquirits
adquisicio
adquisicions
adrec
adreces
adria
adrian
adriana
adriano
adrien
adscripcio
adscrit
adult
adulta
adulteri
adultes
adults
advance
advanced
adveniment
adventure
adventures
adversari
adversaris
adversos
adverte
adverteix
advertir
advocacio
advocada
advocat
advocats
ae
aequo
aeri
aeris
aero
aerodina
aeroli
aerona
aeronau
aeronaus
aeroport
aeroports
af
afany
afavoreix
afavorir
afavorit
afc
afeccio
afeccionats
afeccions
afecta
afectacio
afectada
afectades
afectant
afectar
afectat
afectats
afectava
afecte
afecten
afegeix
afegeixen
afegi
afegia
afegida
afegides
afegint
afegir
afegiren
afegit
afegits
afegiu
afer
afers
affair
affairs
afgane
afganesos
afganistan
afi
aficio
aficionat
aficionats
afiliacio
afiliar
afiliat
afiliats
afinitat
afins
afirma
afirmacio
afirmacions
afirmant
afirmar
afirmat
afirmava
afirmen
aflue
afluent
afluents
afonso
afores
afr
africa
african
africana
africanes
africans
afrique
afroamerica
afroamericana
afroamericans
afrodita
afrontar
after
afusellat
afusellats
ag
aga
agafa
agafant
agafar
agafat
agafen
again
against
agave
age
agency
agenda
agent
agents
agermanades
agermanaments
ages
agha
agitacio
agli
aglomeracio
agne
agnes
ago
agost
agostino
agosto
agra
agrada
agradable
agradar
agradaria
agradava
agraden
agrai
agrair
agramunt
agrari
agregacio
agregar
agregat
agregats
agressio
agressions
agressiu
agressiva
agreujar
agri
agricoles
agricultors
agricultura
agriculture
agro
agrupa
agrupacio
agrupacions
agrupades
agrupament
agrupar
agrupats
agrupen
agua
aguantar
aguda
agudes
aguilar
aguilera
aguilo
aguirre
agulla
agulles
agusti
agut
aguts
ah
ahir
ahmad
ahmed
ahont
ai
aida
aigu
aigua
aiguamolls
aime
ain
aina
air
airbus
aircraft
aire
aires
airlines
airways
ais
aise
aisne
aix
aixeca
aixecada
aixecament
aixecar
aixecat
aixi
aixo
aixot
ajax
ajornar
ajuda
ajudant
ajudants
ajudar
ajudat
ajudava
ajuden
ajudes
ajuntament
ajuntaments
ajuntar
ajust
ajusta
ajustar
ajut
ak
aka
akademie
akbar
aki
akira
al
ala
alabama
alabastre
alacant
alacanti
alada
alain
alan
alar
alarco
alarma
alaska
alat
alats
alave
alba
albacete
albaida
albane
albanesos
albe
albedo
albera
alberga
albergar
albert
alberta
alberti
alberto
albi
albin
albrecht
albufera
album
albums
albuquerque
alc
alca
alcala
alcalde
alcaldes
alcaldessa
alcaldia
alcalins
alcaloides
alcoho
alcohol
alcoholisme
alcohols
alcoi
alcoia
alcora
alcover
alcu
aldarulls
aldea
aldo
ale
aleato
aleatori
alec
alegre
alegri
alegria
aleix
alejandra
alejandro
aleksandr
aleksei
alella
alemany
alemanya
alemanyes
alemanys
alep
alera
aleres
alerta
ales
aleshores
alessandria
alessandro
aleta
aletes
alex
alexander
alexandra
alexandre
alexandria
alexis
alfa
alfabe
alfabet
alfabetitzacio
alfabets
alfaro
alfil
alfons
alfonso
alfred
alfredo
algarve
alge
algebraica
alger
algorisme
algorismes
algu
alguer
algues
algun
alguna
algunas
algunes
alguns
alhambra
alhora
ali
alia
aliada
aliades
alianc
aliances
alianza
aliar
aliat
aliatge
aliatges
aliats
alicante
alice
alicia
alie
alien
alieni
aliens
alier
align
alignbars
aliment
alimenta
alimentacio
alimentar
alimentari
alimentaris
alimentat
alimenten
aliments
alineacio
alinear
alison
alive
all
alla
allah
allan
allarga
allargada
allargades
allargar
allargat
allau
alle
allegro
allen
allende
alleujar
alli
alliance
allibera
alliberada
alliberament
alliberant
alliberar
alliberat
alliberats
alliberen
allison
allistar
allmusic
allo
allotja
allotjament
allotjar
allunya
allunyada
allunyades
allunyant
allunyar
allunyat
allunyats
alma
almagro
almeida
almenys
almeri
almeria
almirall
almodo
almoga
almora
alo
aloe
alone
along
alonso
alou
alp
alpha
alphonse
alpi
alpina
alps
alqueria
alqui
als
alsa
alsacia
alsina
also
alt
alta
altai
altament
altar
altars
alte
altera
alteracio
alteracions
alterada
alterar
alterat
altern
alterna
alternanc
alternant
alternatiu
alternatius
alternativa
alternativament
alternatives
alternen
altes
altesa
alti
altipla
altitud
altituds
alto
altra
altrament
altre
altres
alts
altura
altures
alumini
alumna
alumnat
alumne
alumnes
alvarado
alve
alves
always
alzheimer
alzina
alzines
alzira
am
ama
amable
amadeu
amadeus
amador
amaga
amagada
amagar
amagat
amagats
amanda
amant
amants
amar
amarg
amat
amateur
amateurs
amazic
amazics
amazing
amazo
amazon
amazones
amb
ambaixada
ambaixades
ambaixador
ambaixadors
ambdo
ambdues
ambic
ambicio
ambicions
ambient
ambientacio
ambientada
ambientades
ambiental
ambientals
ambients
ambigu
ambique
ambre
ambro
ambula
amd
ame
amelia
amenac
amenaces
ament
aments
amer
ameri
america
american
americana
americanes
americans
amerindis
ametlla
amfi
amfibi
amfibis
amfiteatre
amfitrio
ami
amic
amical
amics
amida
amiens
amiga
amigo
amigos
amigues
amin
aminoa
amir
amirs
amistat
amistats
amisto
amistosos
amnistia
amo
amon
among
amoni
amor
amore
amoro
amorosa
amors
amos
amour
amparo
ampit
ampla
amplada
ample
amples
ampli
amplia
ampliacio
ampliacions
ampliada
ampliant
ampliar
ampliat
amplis
amplitud
ampolla
ampolles
amposta
amr
amsterdam
amunt
amur
amy
an
ana
anada
anagrama
anal
anales
analge
anali
analista
analistes
analitza
analitzar
analo
analogia
analysis
anand
anant
anar
anaren
anarquia
anarquisme
anarquista
anarquistes
anas
anat
anato
anatoli
anatomia
anatomy
anava
anaven
anc
ancestral
ancestrals
ancestre
ancestres
ancia
ancians
ancient
ancona
and
andalu
andaluci
andalusa
andalusia
andalusos
andante
anders
andersen
anderson
andes
andorra
andorrana
andorrans
andrade
andre
andrea
andreas
andrei
andreu
andrew
andrews
andro
android
andy
ane
anell
anells
anem
anes
anessin
aneste
anet
ang
ange
angel
angela
angeles
angelina
angelo
angels
angers
anglada
anglaterra
angle
angles
anglesa
angleses
anglesola
anglesos
anglo
anglosaxo
anglosaxona
anglosaxons
angoixa
angola
angular
angulema
anhalt
ani
anima
animacio
animacions
animada
animador
animal
animals
animar
animat
animation
animats
anime
anio
anions
anira
aniran
aniria
anita
aniversari
anjou
ankara
ann
anna
annales
annals
anne
annex
annexa
annexes
annexio
annexionar
annexionat
annexos
anni
annie
anno
annotated
annual
ano
anoia
anomalia
anomalies
anomena
anomenada
anomenades
anomenant
anomenar
anomenaren
anomenat
anomenats
anomenava
anomenaven
anomenem
anomenen
anormal
anotacio
anotacions
anotar
another
ans
anselm
ansietat
ant
anta
antagonista
ante
antecedent
antecedents
antecessor
antena
antenes
antequera
anterior
anterioritat
anteriorment
anteriors
antes
anthology
anthony
anthurium
anti
antiae
antibio
antic
antich
antico
anticossos
antics
antifeixista
antifeixistes
antiga
antigament
antigen
antigua
antigues
antiguitat
antiguitats
antilles
antimoni
antioquia
antisemitisme
antitancs
anto
antoine
antologi
antologia
antologies
anton
antoni
antonia
antonieta
antonio
antony
antropo
antropolo
antropologia
anual
anualment
anuals
anuari
anul
anunci
anuncia
anunciacio
anunciada
anunciant
anunciar
anunciat
anunciava
anuncis
anvers
any
anys
anza
ao
aosta
ap
apa
apache
apagar
aparcament
apare
aparegue
aparegueren
aparegui
aparegut
apareix
apareixen
apareixent
apareixia
apareixien
aparell
aparellament
aparells
aparenc
aparent
aparentment
aparicio
aparicions
apart
apartament
apartaments
apartar
apartat
apartats
apartheid
apassionat
ape
apel
apertura
api
aplec
aplega
aplegar
aplica
aplicable
aplicacio
aplicacions
aplicada
aplicades
aplicant
aplicar
aplicat
aplicats
aplicava
apliquen
apo
apocalipsi
apoderar
apogeu
apol
apollo
aporta
aportacio
aportacions
aportades
aportant
aportar
aportat
aporten
aposta
apostar
apostes
aposto
app
apple
applied
approach
approx
apre
aprecia
apreciada
apreciar
apreciat
aprecien
aprendre
aprenent
aprenentatge
apres
april
aprofita
aprofitament
aprofitant
aprofitar
aprofitat
aprofiten
aprofundir
apropa
apropar
apropiada
apropiat
aprova
aprovacio
aprovada
aprovades
aprovar
aprovat
aprovats
aprox
aproxima
aproximacio
aproximacions
aproximada
aproximadament
aproximar
aproximat
apte
aptes
apunta
apuntada
apuntant
apuntar
apuntat
apuntats
apunten
apunts
aq
aqu
aqua
aquarel
aquari
aquarien
aquarium
aquatab
aquatic
aqueix
aquell
aquella
aquelles
aquells
aqueme
aques
aquest
aquesta
aquestes
aquestos
aquests
aqui
aquil
aquila
aquino
aquisgra
aquita
ar
ara
arab
arago
aragone
aragonesa
aragonesos
arameu
aran
arana
aranda
araneus
aranjuez
aranya
aranyes
arbitra
arbitratge
arbo
arboc
arborea
arbori
arbre
arbres
arbu
arbust
arbustos
arbusts
arc
arca
arcada
arcade
arcades
arcaic
arcaica
arch
archaeology
arche
archer
archie
archipelago
architecture
archive
archived
archives
archivo
arco
arcs
arctic
arctos
arde
ardecha
ardenes
ardent
ardiaca
are
area
aren
arena
arenas
arenys
ares
aresta
arestes
arg
argelers
argent
argenti
argentina
argentino
argentins
argento
argentona
argila
argo
argos
argot
args
argument
argumenta
argumentant
argumentar
argumenten
arguments
ari
aria
ariadna
arias
arieja
ariel
aristo
aristocra
aristote
aritme
arizona
arkansas
arle
arles
arm
arma
armada
armades
armadura
armadures
armament
armand
armando
armar
armari
armas
armat
armats
arme
armengol
armeni
armenis
armes
armin
armistici
armored
arms
armstrong
army
arn
arnau
arnaud
arnaugir
arne
arnes
arnm
arnold
aro
aroma
around
arpa
arquebisbat
arquebisbe
arquebisbes
arqueo
arqueolo
arqueologia
arquers
arquimedes
arquitecte
arquitectes
arquitecto
arquitectura
arquitectures
arran
arranjament
arranjaments
array
arrebossada
arrebossat
arrebossats
arreglar
arreglat
arrel
arrels
arrenca
arrencada
arrencar
arrest
arrestar
arrestat
arrestats
arreu
arri
arriba
arribada
arribant
arribar
arribara
arribaren
arribaria
arribat
arribats
arribava
arribaven
arribe
arriben
arribessin
arribi
arro
arrodonida
arrodonides
arrodonit
arrodonits
arrossegament
arrossegar
arroyo
arrui
ars
arse
arsenal
arslan
art
arta
arte
artefacte
artefactes
artemisia
arterial
artes
artesa
artesanal
artesania
artesans
arthur
arti
article
articles
articula
articulacio
articulacions
articular
artificial
artificialment
artificials
artigas
artilleria
artist
artista
artistes
artists
artois
artritis
artro
arts
artu
artur
arturo
aru
arxidio
arxiduc
arxipe
arxiu
arxius
arxiver
arxivi
as
asa
ascende
ascendeix
ascendent
ascendi
ascendir
ascendit
ascens
ascensio
ascensor
asco
ase
asfalt
ash
ashley
asi
asia
asian
asil
asime
asma
aso
asociacio
asp
aspecte
aspectes
asperger
aspiracio
aspiracions
aspirant
aspirants
aspres
aspx
assabenta
assabentar
assagista
assagistes
assaig
assaigs
assajos
assalt
assaltar
assalts
assam
assassi
assassina
assassinada
assassinar
assassinat
assassinats
assassins
assecar
asseguda
assegura
asseguranc
assegurances
assegurant
assegurar
assegurat
assegurava
asseguren
assegut
assembla
assemblea
assemblees
assemblen
assenta
assentament
assentaments
assentar
assenyala
assenyalant
assenyalar
assenyalat
assenyalen
assessment
assessor
assessora
assessorament
assessors
assetjada
assetjament
assetjar
assetjat
assetjats
assi
assigna
assignacio
assignada
assignades
assignar
assignat
assignats
assignatura
assignatures
assimilacio
assimilar
assiri
assiris
assiste
assisteix
assistent
assistents
assisti
assistir
assistit
associa
associacio
associacions
associada
associades
associar
associat
associated
association
associats
associen
assolar
assoleix
assoleixen
assoli
assoliment
assoliments
assolint
assolir
assolit
assumeix
assumi
assumint
assumir
assumit
assumpcio
assumpte
assumptes
asta
aste
asteca
asteroid
asteroide
asteroides
asti
aston
astracan
astro
astrofi
astrologia
astronauta
astronautes
astrono
astronomia
astronomical
astronomy
astu
asturia
asturiana
asturians
asturias
asuncio
at
ata
atac
ataca
atacada
atacant
atacants
atacar
atacaren
atacat
atacats
atacs
ataquen
atari
ate
ateisme
atemptat
atemptats
atena
atencio
atendre
atenenc
atenencs
atenent
atenes
atenesos
ateneu
aterrar
aterratge
atesa
athletic
ati
ations
atla
atlanta
atlantic
atlantis
atlas
atle
atles
atleta
atletes
atletisme
atmosfe
atmosfera
ato
atol
atorga
atorgada
atorgant
atorgar
atorgat
atorgats
atorgava
atorguen
atp
atraccio
atraccions
atractiu
atractius
atractiva
atrapar
atrapat
atrapats
atraure
atret
atreu
atreure
atri
atribucio
atribucions
atribueix
atribueixen
atribui
atribuir
atribut
atributs
atrocitats
ats
attack
atur
atura
aturada
aturades
aturar
aturat
atzar
atzur
au
aube
aubin
auckland
aude
audenaerde
audicio
audie
audio
audiovisual
audiovisuals
auditori
audrey
auf
auge
augment
augmenta
augmentada
augmentant
augmentar
augmentat
augmentava
augmenten
augsburg
august
augusta
auguste
augustin
augusto
augustus
aula
aules
aura
aure
aureli
aurelio
aurora
aus
auschwitz
ausia
austeritat
austin
austra
austral
australia
australian
australiana
australians
australis
austri
austria
austrohongare
austrohongaresos
aute
autenticitat
author
authority
autisme
autistes
auto
autobiogra
autobiografia
autobu
autobusos
autodeterminacio
autodidacta
autoescola
autoescoles
autogovern
automa
automatitzacio
automo
automobili
automobilisme
autono
autonomia
autonomista
autopista
autopistes
autor
autora
autores
autoretrat
autoria
autoritari
autoritat
autoritats
autoritza
autoritzacio
autoritzada
autoritzar
autoritzat
autoritzats
autors
autovia
autres
aux
auxerre
auxili
auxiliar
auxiliars
av
ava
available
avairon
avall
avalua
avaluacio
avaluar
avanc
avant
avantatge
avantatges
avantguarda
avantpassat
avantpassats
avatar
ave
avec
aven
avenc
avengers
avenir
aventura
aventurer
aventures
avenue
avi
avia
aviacio
aviat
aviation
avile
avinguda
avingudes
avinyo
avio
avions
avis
avisar
avisos
aviv
avn
avortament
avril
avui
avuy
award
awards
away
ax
axel
axelrod
axi
axial
axioma
axiomes
axo
ay
ayala
aygua
ayuntamiento
az
azan
azerbaidjan
aziz
aznar
azov
azul
b
ba
bab
baba
babel
babilo
baby
bac
bacalla
bach
bachelor
back
background
backgroundcolors
bacon
bacteri
bacteriana
bacteris
bactriana
bad
badajoz
badalona
baden
badia
bae
baehr
baensch
bafta
baga
bagdad
bages
baha
bahadur
bahames
bahia
bahrain
bai
baile
bailey
bains
baiona
baix
baixa
baixada
baixant
baixar
baixen
baixes
baixista
baixos
baja
bajo
baker
bakr
baku
bal
bala
balada
balades
balaguer
balanc
balca
balcans
balcells
balco
balconada
balcons
baldui
baldwin
balear
baleares
balears
balena
balenes
bales
bali
balkh
ball
balla
ballant
ballar
ballari
ballarina
ballarins
ballester
ballet
ballets
balls
balmes
balneari
balompie
baltasar
baltimore
baluard
balustrada
bambu
ban
banc
banca
bancari
banco
bancs
band
banda
bandera
banderes
bandes
bandits
bandolers
bang
bangkok
bangladesh
bank
banks
banquer
banquet
banqueta
banu
bany
banya
banyes
banyoles
banys
banyuls
bao
baptismal
baptisme
baptista
baptiste
baptisteri
bar
bara
barack
baralla
baralles
barana
baranes
barat
barata
barba
barbara
barber
barbera
barbus
barc
barca
barcelo
barcelona
barcelone
barceloneta
barceloni
barcelonina
barcelonins
barcino
barco
bardata
bardem
bari
barker
barnes
barney
baro
baron
baronia
barons
baroque
barques
barra
barraca
barral
barranc
barrancs
barraques
barre
barregen
barreja
barrejant
barrejar
barrejat
barrejats
barrera
barreres
barres
barret
barrets
barrett
barri
barril
barrio
barris
barroc
barroca
barrocs
barroques
barry
bars
bart
bartolome
bartolomeo
bartomeu
barton
bas
basa
basada
basades
basal
basament
basant
basar
basat
basats
basava
basc
basca
bascos
base
based
basen
bases
basi
basic
basil
basilea
basili
basilical
basin
basket
basketball
basquetbol
bass
bassa
basses
basset
basta
bastant
bastants
bastard
bastida
bastidor
bastien
bastio
bastir
bastit
basto
bastons
bat
bata
batalla
batalles
batallo
batallons
batasuna
bateig
batejada
batejar
batejat
batejats
bateria
bateries
bates
bath
batista
batle
batlle
batllo
batman
batre
battista
battle
batuda
batxillerat
bauchot
bauer
bautista
bavaresos
baviera
bay
bayer
bayern
bayreuth
bb
bbc
bc
bcn
bd
bdfutbol
bdits
be
beach
bean
bear
bearn
beasley
beast
beat
beata
beatificacio
beatles
beatrice
beatriu
beatriz
beats
beaufort
beaumont
beautiful
beauty
beaux
bebe
bec
beca
beck
becker
beckett
beda
bedui
been
beethoven
before
beg
begin
beguda
begudes
behavior
behind
bei
beijing
being
beirut
beisbol
beit
bel
bele
belfast
belga
belgrad
belgrano
belgues
belize
bell
bella
bellas
belle
bellera
belles
bellesa
bellini
bellmunt
bello
bellpuig
bells
bellver
beltra
bemoll
ben
bene
benedetto
benediccio
benedict
benedicti
benedictina
benedictins
benefice
benefici
beneficia
beneficiar
beneficis
benei
benestant
benestar
benet
benfica
bengala
bengali
beni
benidorm
benito
benjami
benjamin
bennett
benny
benoi
bens
benson
bento
bentopela
benvinguda
benz
beo
beques
ber
bera
berenguer
berg
berga
bergen
berger
bergman
bergueda
bering
berkeley
berli
berlin
berliner
berlioz
berna
bernabe
bernadette
bernal
bernard
bernardino
bernardo
bernat
bernhard
bernstein
berry
bert
berta
bertran
bertrand
bes
besalu
besanc
besiers
beso
besso
bessones
bessons
best
bestiar
bestiasonica
bet
beta
beth
bethesda
betis
betlem
better
betty
between
beu
beure
beusson
beverly
bey
beyond
bf
bhutan
bi
bia
biaix
bianca
bianchi
bible
biblio
bibliogra
bibliografia
biblioteca
bibliotecari
bibliotecaris
biblioteques
bibliothe
bic
bica
bicicleta
bicicletes
bicolor
bics
bida
biden
bids
biel
bieloru
bien
biennal
bies
big
biga
bigues
bihar
bil
bilateral
bilbao
bilingu
bilions
bill
billar
billboard
billy
bils
bin
bina
binari
binaris
bing
bingen
bio
biodiversitat
biodiversity
biogra
biografi
biografia
biografies
biographical
biographie
biography
biol
biolib
biolo
biologia
biological
biology
biome
bioqui
biosfera
bir
bird
birdlife
birds
birma
birmingham
birth
bis
bisbal
bisbat
bisbats
bisbe
bisbes
biscai
biscaia
bisexual
bisexuals
bishop
bismarck
bissau
bit
bitat
bitats
biti
bitllet
bitllets
bits
bizanci
bizanti
bjo
bla
black
blackburn
blackwell
blade
blai
blair
blake
blanc
blanca
blanch
blanche
blanco
blancs
blanes
blanques
blas
blasco
blasonament
blast
blat
blau
blaugrana
blaus
blava
blaves
ble
bles
blia
blic
blica
blicament
blico
blics
blind
blindada
blindat
blindatge
blindats
bliques
bloc
bloca
blocar
bloch
block
blocs
blog
blogs
blogspot
blois
blood
bloom
bloqueig
bloquejar
bloquejat
blu
blue
blues
bluetooth
bm
bmatrix
bmw
bner
bo
boa
boada
board
boat
bob
bobby
bobina
bobines
boca
boda
body
boe
boeing
bofarull
bofill
bogeria
bogota
bohe
boi
boicot
boig
boira
bois
boix
boja
bol
bola
boldsymbol
boles
bolet
boleti
bolets
boli
bolivia
bolo
bologna
bolonya
bols
bolton
bolxevic
bolxevics
bomba
bombai
bombardeig
bombardeigs
bombardejar
bombardejos
bombarder
bombarders
bombers
bombes
bombolla
bombolles
bon
bona
bonaparte
bonaventura
bond
bondat
bones
bonet
bonic
bonica
bonifaci
bonn
bonnie
bono
bons
bonus
bony
book
books
boom
boques
bor
bora
borbo
bord
borda
border
bordes
bordeus
borg
borges
borgonya
bori
boris
borja
born
borneo
borra
borrell
borriana
borsa
borussia
bosc
bosch
bosco
boscos
boscoses
boscs
bose
boso
boss
bossa
bosses
boston
bot
bota
botanical
botes
boti
botiga
botiges
botigues
boto
botons
botreversor
bots
botswana
bottom
bou
boulenger
boulevard
boulogne
bourg
bourges
bous
bovi
bovina
bowie
bowl
box
boxa
boxejador
boy
boyd
boyer
boyle
boys
bp
br
bra
brabant
brac
brad
bradford
bradley
brady
braga
braganc
brahms
brain
branca
brancals
branco
brand
brandenburg
brandon
branques
bras
brasi
brasil
brasiler
brasilera
brasilers
bratislava
brau
braun
brava
bravo
bray
brazil
bre
break
brecht
breda
breder
brega
bregas
bremen
brescia
breslau
bressol
brest
bretagne
bretanya
breto
breton
bretona
bretons
brett
bretxa
breu
breument
breus
breve
bri
bria
brian
brica
bricolatge
brid
brida
brides
bridge
brids
brie
brief
brien
brigada
brigades
brigadier
bright
brighton
brigitte
brill
brillant
brillantor
brillants
briques
brisbane
bristol
brita
britain
britannica
british
britten
brno
bro
broadcasting
broadway
broken
broma
bromera
bromes
bronx
bronze
brook
brooke
brooker
brooklyn
brooks
bros
brossa
brot
brother
brothers
brots
brou
brown
browning
bru
bruc
bruce
bruges
bruguera
bruixa
bruixeria
bruixes
bruna
brunei
brunet
bruno
brunsvic
brunswick
bruscament
brussel
brut
bruta
brutal
bryan
bryant
bu
buc
bucarest
buck
bucle
bucs
buda
budapest
buddy
budisme
budista
budistes
bue
buen
buena
bueno
buenos
bufa
bufeta
buffalo
bufo
bug
buida
buides
building
buit
buits
bukhara
bul
bula
bules
bulga
bull
bullet
bulletin
bulls
buls
bultaco
bulto
bun
bundesliga
bunny
bureau
burge
burgesa
burgesia
burgesos
burgess
burgos
burke
burkina
burla
burma
burns
buro
burocra
burr
burt
burton
burundi
bus
busca
buscant
buscar
buscat
buscava
buscaven
bush
business
busquen
busquets
bust
buster
but
butaca
butler
butlla
butlleti
butterfly
butxaca
bv
bviament
bwv
by
byrne
byron
bytes
c
ca
cabal
caballero
cabana
cabanes
cabanyes
cabaret
cabdal
cabdella
cabdill
cabdills
cabell
cabells
cabeza
cabildo
cabina
cable
cables
cabo
cabot
cabra
cabral
cabre
cabrera
cabres
cabuda
cac
cacau
cacera
caces
cactus
cada
cadafalch
cadaque
cadascu
cadascun
cadascuna
cadastre
cade
cadena
cadenes
cades
cadet
cadi
cadira
cadires
cadis
caen
caesar
cafe
cafeteria
cage
cahiers
cai
caient
caiguda
caigudes
caigue
caigut
caiguts
caire
cairo
caixa
caixes
caixmir
caja
cal
cala
calafell
calais
calatrava
calb
calc
calca
calci
calcio
calcita
calcula
calcular
calculat
calcuta
caldera
calderes
caldero
calders
caldes
caldra
caldre
caldria
caledo
calefaccio
calella
calen
calendari
calent
calenta
calents
calgui
cali
calia
calibre
calidris
calif
califa
califat
califo
california
californians
call
calle
called
calma
calmar
calo
calonge
calor
calpe
calvados
calvari
calvet
calvi
calvin
calvo
calze
cam
cama
camarasa
cambio
cambo
cambodja
cambra
cambrer
cambrera
cambres
cambridge
cambrils
came
camell
camells
cameo
camera
cameron
camerun
cames
cami
camil
camille
camilo
camina
caminant
caminar
camino
camins
camio
camions
camisa
camises
camp
campa
campaign
campament
campaments
campana
campanar
campanes
campanya
campanyes
campbell
camperol
camperola
camperols
campio
campiona
campionat
campionats
campiones
campions
campo
campos
camprodon
camps
campus
camus
can
cana
canaan
canada
canadenc
canadenca
canadencs
canadenques
canadian
canal
canals
canari
canaria
canarias
canaris
canberra
canc
cancel
canceller
cancelleria
cancer
cancio
canciones
candela
candidat
candidata
candidates
candidats
candidatura
candidatures
canes
canet
cangur
cani
canigo
cannes
cano
canon
canonada
canonades
canonge
canonges
canons
cansat
cant
canta
cantada
cantant
cantants
cantar
cantat
cantata
cantatas
cantates
cantautor
cantautors
cantava
canten
canterbury
canto
canton
cantonada
cantonades
cantonal
cantonals
cantons
cantor
cants
canvas
canvi
canvia
canviant
canviar
canviat
canvien
canvis
canya
canyella
canyelles
canyes
canyo
canyon
cao
caos
cap
capa
capac
capaces
capacitat
capacitats
capado
capbaix
capc
capdamunt
capdavant
capdevila
cape
capell
capella
capellans
capelles
capes
capi
capil
capita
capital
capitalisme
capitalista
capitalitat
capitals
capitana
capitania
capitans
capitell
capitells
capitol
capitoli
capitulacio
capitular
capo
caporiacco
capri
caps
capsa
captacio
captain
captar
captius
captivitat
captura
capturada
capturant
capturar
capturat
capturats
captures
caputxins
capvespre
car
cara
caracas
caraciformes
caracteri
caracteritza
caracteritzacio
caracteritzada
caracteritzar
caracteritzat
caracteritzava
caracteritzen
caragol
caravana
caravanes
carbo
carbonat
carbonats
carbonell
carboni
carbonis
carboxi
carcassa
carcassona
card
cardedeu
cardenal
cardenals
cardener
cardi
cardiff
cardinal
cardinals
cardo
cardona
care
carena
carener
cares
carey
cargol
cargols
cari
carib
caribbean
caricatura
carisma
caritat
carl
carla
carlemany
carles
carli
carlina
carlines
carlins
carlista
carlo
carlos
carlota
carlsen
carme
carmel
carmelites
carmelo
carmen
carmona
carn
carnaval
carne
carnegie
carner
carnestoltes
carni
carnisseria
carnisseries
carns
caro
carol
caroli
carolina
caroline
carolingi
carpats
carpenter
carr
carrasco
carre
carrega
carregada
carregades
carregador
carregar
carregat
carregats
carrer
carrera
carreras
carreres
carrero
carrers
carretera
carreteres
carreu
carreus
carrie
carril
carrillo
carrils
carrio
carro
carroll
carros
carrosseria
cars
carson
carta
cartagena
cartagine
cartaginesos
cartago
cartas
cartell
cartells
carter
cartera
cartes
carto
cartogra
cartografia
cartoixa
cartro
cartutx
cartutxos
carvajal
carvalho
cary
cas
casa
casablanca
casada
casades
casado
casal
casals
casament
casanova
casanovas
casar
casares
casas
casat
casats
casc
cascada
cascades
case
casella
caselles
caserna
casernes
cases
caseta
casey
casi
casimir
casino
caso
casos
casp
casquet
cassa
cassi
cassini
cast
casta
castan
castany
castel
castell
castella
castellana
castellanes
castellano
castellanolleonesos
castellans
castellar
castellbo
castellcir
castelldefels
casteller
castellera
castellers
castellet
castellnou
castello
castells
castellterc
castellvi
castelo
castes
castigar
castigat
castilla
castillo
castle
castor
castro
casual
casualitat
cat
cata
catala
catalan
catalana
catalanes
catalanisme
catalanista
catalanistes
catalano
catalanoparlant
catalans
catali
catalina
catalitzador
catalog
catalogacio
catalogada
catalogat
catalogue
catalonia
catalun
catalunya
catarina
catastro
cate
catedra
catedral
catedrals
categoria
categories
categoritzacio
categoritzar
category
caterina
catfish
catfishes
catherine
catholic
catifa
catifes
catio
cations
cato
catolicisme
catorze
cau
caualler
cauca
caucas
caudal
cauen
caure
caus
causa
causada
causades
causant
causar
causat
causats
cause
causen
causes
cautxu
cava
cavall
cavaller
cavalleria
cavallers
cavalls
cave
cavendish
cavitat
cavitats
cawiki
cb
cbs
cc
ccd
cd
cdc
cdot
cdota
cdotes
cdots
cds
ce
ceba
cebria
cec
ceci
cecil
cecilia
cecs
cedeix
cedi
cedida
cedir
cedit
cedits
cee
cega
cegues
ceilan
cel
celebra
celebracio
celebracions
celebrada
celebrades
celebrant
celebrar
celebraren
celebrat
celebrats
celebrava
celebraven
celebren
celebritats
celeste
celestes
celestial
celia
cell
celler
cellera
cellers
celoni
cels
celta
celtes
celtic
celtics
cementeri
cementiri
cementiris
cendra
cendres
cens
censats
censos
censura
census
cent
centelles
centenar
centenari
centenars
center
centes
centi
centra
centrada
centrades
central
centrale
centralitzat
centrals
centrant
centrar
centrat
centrats
centre
centreafricana
centreame
centren
centres
centri
centro
cents
centu
century
ceo
cer
cera
cerca
cercador
cercant
cercar
cercle
cercles
cerda
cerdanya
cerdanyola
cereals
cerebral
cerebrals
ceres
ceret
cerimo
cerimonial
cerimonials
cerimonio
cero
cerques
cerro
cert
certa
certain
certamen
certament
certes
certesa
certificacio
certificat
certificats
certs
cervantes
cervell
cervello
cervera
cervesa
ces
cesare
cesarea
cesi
cesis
cessament
cessar
cessio
cest
cet
cetacis
ceuta
cf
cfg
cg
cgi
ch
cha
chaco
chain
chal
challenge
challenger
chamber
chamberlain
chamberlin
champ
champagne
champion
champions
championship
championships
champs
chan
chance
chandler
chang
change
changes
channel
chao
chapelle
chaplin
chapman
chapter
characidae
characiformes
characoids
characters
charente
charles
charlie
charlotte
chart
chartres
chase
che
check
checklist
chelsea
chemical
chemistry
chen
cheng
cher
cherokee
chess
chester
chevalier
chez
chi
chiang
chiapas
chica
chicago
chico
chief
chiesa
child
children
chile
chin
china
chinese
cho
choctaw
choice
chomsky
chopin
chre
chris
christ
christi
christian
christie
christina
christine
christmas
christoph
christophe
christopher
chronicle
chronicles
chu
chuck
church
churchill
ci
cia
cic
cicero
cichlid
cichlidae
cichliden
cichlids
cicle
cicles
ciclisme
ciclista
ciclistes
ciclo
ciclocro
cid
cida
cidar
cides
cidi
cids
cie
cielo
ciencia
ciencias
cienti
cies
cigne
cil
cili
cilindrada
cilindre
cilindres
cilment
cils
cim
cima
cimen
cimens
ciment
cimera
cims
cinasa
cinc
cinca
cincinnati
cinco
cine
cineasta
cineastes
cinema
cinematogra
cinematografia
cinemes
cingles
cinquanta
cinquantena
cinque
cinquena
cinta
cintes
cintura
cinturo
cio
cipri
cipriniformes
ciprinodontiformes
cir
circ
circa
circle
circuit
circuits
circula
circulacio
circular
circulars
circulen
circumdant
circumdants
circumfere
circumscripcio
circumscripcions
circumsta
circus
cirera
ciri
ciril
cirurgia
cis
cisjorda
cisma
cisneros
cistella
cisterna
cit
cita
citacio
citacions
citada
citades
citament
citant
citar
citat
citats
cite
citen
cites
cities
citoplasma
cits
citta
city
ciu
ciudad
ciutada
ciutadana
ciutadania
ciutadans
ciutadella
ciutat
ciutats
civada
civil
civilitzacio
civilitzacions
civilization
civils
ck
cken
cl
cla
clade
clades
clair
claire
clan
clandesti
clandestina
clandestinitat
clans
clar
clara
clarament
claramunt
clare
claredat
clarence
clares
claret
clari
clariana
clarinet
clark
clarke
claro
claror
clars
class
classe
classes
classic
classical
classicisme
classics
classifica
classificacio
classificacions
classificada
classificades
classificar
classificat
classification
classificats
classifiquen
clau
claude
claudi
claudia
claudio
claus
claustre
clausura
clave
claverol
clay
clayton
cle
clement
clemente
cleo
cleopatra
clergat
clergue
clergues
clermont
cleveland
cli
clic
clica
clics
clids
client
clients
cliff
clifford
clima
climate
climent
climes
clint
clinton
clip
clive
clofeta
cloffa
clor
clorur
clos
closa
closca
close
clot
clots
cloud
clu
club
clube
clubiona
clubs
cluj
clyde
cm
cn
cnic
cnica
cnicament
cnics
cniques
cnn
cnt
co
coa
coagulacio
coalicio
coast
coastal
coat
coautor
cobalt
cobert
coberta
cobertes
coberts
cobertura
cobla
cobles
cobra
cobrar
cobreix
cobreixen
cobria
cobrint
cobrir
coburg
coca
cocai
coccio
coco
coda
code
codex
codi
codifica
codificacio
codificar
codina
codis
coe
coeficient
coeficients
coet
coets
cofundador
cognitiu
cognitiva
cognom
cognoms
cohen
cohere
coherent
cohesio
coi
coincide
coincideix
coincideixen
coincidint
coincidir
coixi
col
cola
cold
cole
coleccio
colegio
coleman
coles
colesterol
coli
colibri
colin
coll
colla
collada
collades
collage
collar
collaret
colle
collected
collection
collections
college
colles
collet
collette
collins
collita
collites
colls
collserola
colo
colom
coloma
colombia
colombiana
colombians
colombo
colomer
colomina
coloms
colon
colonia
colonial
colonialisme
colonials
colonitzacio
colonitzadors
colonitzar
colonna
colons
color
coloracio
colorado
colored
colors
colpeja
colpejar
colpejat
cols
colt
colu
columba
columbia
columbus
columna
columnes
columnista
colze
com
coma
comanador
comanda
comandada
comandades
comandament
comandaments
comandant
comandants
comandar
comandat
comandats
comandes
comando
comandos
comarca
comarcal
comarcals
comarques
comas
combat
combatent
combatents
combatre
combats
combina
combinacio
combinacions
combinada
combinades
combinant
combinar
combinat
combinats
combinava
combinen
comboi
combois
combustible
combustibles
combustio
come
comedia
comedy
comenc
comence
comencen
comenta
comentar
comentari
comentaris
comentarista
comentaristes
comentat
comerc
comercial
comercialitza
comercialitzacio
comercialitzar
comercialitzat
comercialment
comercials
comerciant
comerciants
comerciar
comes
comesos
comestible
comestibles
comet
cometa
cometes
cometre
comi
comiat
comic
comicis
comics
coming
comique
comissari
comissaria
comissaris
comissio
comissionat
comissions
comite
comitiva
command
comme
commemora
commemoracio
commemorar
commemoratiu
commemorativa
comments
commerce
commercial
commission
committee
commodore
common
commons
commonwealth
commune
communication
communications
community
comne
como
comoditat
comp
compa
compacta
compacte
compactes
compagno
compan
companion
company
companya
companyes
companyia
companyies
companys
compara
comparable
comparacio
comparacions
comparada
comparant
comparar
comparat
comparative
compare
comparteix
comparteixen
compartia
compartida
compartien
compartiment
compartiments
compartint
compartir
compartit
compartits
compassio
compassos
compatibilitat
compatible
compatibles
compatriota
compendi
compensacio
compensar
compete
competeix
competeixen
competent
competi
competicio
competicions
competidor
competidors
competint
competir
competitiu
competitiva
competitivitat
compilacio
compilador
compilar
compleix
compleixen
complement
complementa
complementar
complementari
complementaris
complements
complert
complet
completa
completada
completament
completant
completar
completat
complete
completen
completes
complets
complex
complexa
complexes
complexitat
complexos
complia
complicacions
complicada
complicat
complicitat
compliment
complint
complir
complot
complutense
compon
compondre
componen
component
components
compongue
componia
comporta
comportament
comportaments
comportar
comportava
comporten
composicio
composicions
compositae
composition
compositor
compositora
compositors
compost
composta
compostel
compostela
compostes
compostos
composts
compra
comprada
comprador
compradors
comprar
comprat
compre
comprehensive
compren
comprendre
comprenen
comprenia
comprensio
compres
compresa
compressio
compressor
comprimit
comprome
compromesa
comprometre
compromi
compromisos
comprovar
comprovat
compta
comptabilitat
comptable
comptador
comptant
comptar
comptat
comptava
comptaven
compte
compten
comptes
computacio
computacional
computadora
computer
comtal
comtat
comtats
comte
comtes
comtessa
comu
comuna
comunal
comunals
comunament
comune
comunes
comunica
comunicacio
comunicacions
comunicar
comunicat
comunicava
comunidad
comunio
comuniquen
comunisme
comunista
comunistes
comunita
comunitari
comunitat
comunitats
comuns
con
conan
conca
conce
concebre
concebuda
concebut
concedeix
concedi
concedia
concedida
concedir
concedit
concedits
concejo
concentra
concentracio
concentracions
concentrada
concentrar
concentrat
concentren
concepcio
concepcions
concepte
conceptes
conceptual
concert
concerto
concerts
concessio
concessions
concha
concili
conciliar
concilis
conclave
conclo
concloent
conclou
concloure
conclusio
conclusions
conco
concordat
concret
concreta
concretament
concretar
concretes
concrets
concurs
concursants
concursos
conde
condecoracio
condecoracions
condecorat
condemna
condemnada
condemnar
condemnat
condemnats
condemnes
condensacio
condensador
condicio
condicional
condicionat
condicions
condita
conduccio
conducta
conducte
conductes
conductivitat
conductor
conductors
condueix
condueixen
condui
conduint
conduir
cone
coneguda
conegudes
conegue
conegut
coneguts
coneix
coneixedor
coneixem
coneixement
coneixements
coneixen
coneixent
coneixia
coneixien
confeccio
confederacio
confederats
confere
confereix
conference
confessa
confessar
confessio
confessions
confessor
confia
confianc
confiar
confiat
configura
configuracio
configuracions
configurar
configuren
confinament
confirma
confirmacio
confirmada
confirmar
confirmat
confirmats
confirmen
confiscacio
confiscar
conflent
conflict
conflicte
conflictes
conflue
confo
confon
confondre
conforma
conformacio
conformar
conformat
conforme
conformen
conformitat
confraria
confraries
confrontacio
confusio
conge
congelacio
congelats
congo
congost
congre
congregacio
congregacions
congreso
congress
congressos
coni
conill
conills
conjectura
conjugacio
conjuncio
conjunt
conjunta
conjuntament
conjunts
connecta
connectada
connectades
connectar
connectat
connectats
connectava
connecten
connecticut
connector
connectors
connexio
connexions
connor
connotacions
conopial
conquerida
conqueridor
conqueridors
conquerir
conquerit
conques
conquesta
conquestes
conquilla
conquista
conquistar
conrad
conrea
conrear
conreu
conreus
cons
consagra
consagracio
consagrada
consagrar
consagrat
conscie
conscient
conscients
consecucio
consecutiu
consecutius
consecutiva
consecutives
consegu
consejo
consell
conseller
consellera
conselleria
consellers
consells
consens
consentiment
consequ
conserva
conservacio
conservada
conservades
conservador
conservadora
conservadors
conservant
conservar
conservat
conservation
conservatoire
conservatori
conservats
conservava
conserven
considera
considerable
considerablement
considerables
consideracio
consideracions
considerada
considerades
considerant
considerar
considerat
considerats
considerava
consideraven
considerem
consideren
consideri
consiste
consisteix
consisteixen
consistent
consistents
consistia
consistien
consistir
consistori
consol
consola
consolat
consoles
consolida
consolidacio
consolidant
consolidar
consolidat
consona
consonant
consonants
consorci
consort
consorts
conspiracio
conspiradors
consta
constanc
constant
constanti
constantin
constantinoble
constantment
constants
constar
constatar
constava
constel
consten
constitucio
constitucional
constitucionals
constitucions
constitueix
constitueixen
constituent
constituents
constitui
constituint
constituir
construccio
construccions
construction
constructiu
constructius
constructiva
constructives
constructor
constructors
construeix
construeixen
construi
construint
construir
consuelo
consular
consulta
consultado
consultar
consultat
consultes
consultiu
consultor
consum
consumeix
consumeixen
consumidor
consumidors
consumir
conta
contactar
contacte
contactes
contaminacio
contaminants
contar
conte
contempla
contemplacio
contemplar
contempora
contemporani
contemporanis
contemporary
contencio
contenen
contenia
contenidor
contenidors
contenien
contenir
content
contes
contesa
contesta
contestar
context
contextos
conti
continent
continental
continentals
continents
contingent
contingents
continguda
contingut
continguts
continu
continua
continuacio
continuada
continuant
continuar
continuara
continuaren
continuaria
continuat
continuava
continuaven
continue
continuen
continui
continus
contorn
contorns
contra
contraatac
contrabaix
contraban
contraccio
contracta
contractacio
contractada
contractar
contractat
contractats
contracte
contractes
contradiccio
contradiccions
contradicto
contrafort
contraforts
contralt
contraposicio
contrapunt
contrarellotge
contrarestar
contrari
contraris
contrast
contrasta
contraure
contre
contreras
contreure
contrib
contribucio
contribucions
contribueix
contribueixen
contribui
contribuint
contribuir
contribution
contributions
control
controla
controlada
controlades
controlador
controladors
controlant
controlar
controlat
controlats
controlava
controlaven
controlen
controls
controve
controvertida
controvertit
contundent
conve
convenc
convencio
convencional
convencionals
convencions
conveni
convenie
convenient
convenis
convent
convents
converge
conversa
converses
conversio
conversos
converteix
converteixen
converti
convertia
convertida
convertint
convertir
convertira
convertiren
convertiria
convertit
convertits
conviccio
convida
convidada
convidar
convidat
convidats
conviure
convive
convoca
convocada
convocar
convocat
convocato
conway
cook
cool
cooper
cooperacio
cooperar
cooperatiu
cooperativa
cooperatives
coord
coordenades
coordina
coordinacio
coordinador
coordinadora
coordinar
coordinat
cop
copa
cope
copeia
copenhaguen
copes
copia
copiar
copiat
copies
coppa
coppola
copri
coproduccio
cops
copyright
cor
cora
coral
corall
corals
coratge
corazo
corb
corba
corbera
corbes
corbs
cord
corda
cordes
cordo
cords
core
corea
coreana
coreans
coreo
coreografia
cori
corint
cork
corn
corneli
cornelius
cornell
cornella
cornisa
cornualla
coro
corol
corominas
coromines
corona
coronacio
coronada
coronament
coronar
coronat
coronavirus
coronel
corones
corp
corporacio
corporacions
corporal
corporals
corporation
corporativa
corps
corpus
corral
corrals
corre
correa
correccio
correccions
correcta
correctament
correcte
correctes
corredor
corredors
corregint
corregir
corregut
correlacio
corren
corrent
corrents
correo
corresa
correspon
corresponde
correspondre
correspondria
corresponen
corresponent
corresponents
corresponia
corresponien
corresponsal
correu
correus
corria
corrientes
corrosio
corrupcio
cors
corsaris
cort
cortal
corte
cortes
cortesia
cortina
corts
corun
corunya
cos
cosa
cosacs
cosas
coses
cosi
cosina
cosins
cosme
cosmo
cosmologia
cosmopolita
cosmos
cossos
cost
costa
costaner
costanera
costaneres
costaners
costar
costat
costats
costelles
coster
costera
costes
costo
costos
costum
costums
costura
cota
cotes
cotlliure
coto
cotxe
cotxes
could
council
count
countries
country
county
coupe
coure
course
court
cov
cova
cover
coves
covid
cox
cp
cpu
cr
cra
craco
craig
crambidae
cranc
crani
cras
crata
crater
crates
crawford
crazy
cre
crea
creacio
creacions
creada
creades
creador
creadora
creadors
creant
crear
crearen
creat
creatiu
creativa
creative
creativitat
creats
creava
crec
credibilitat
credo
cree
creek
creen
creenc
creences
cregut
crei
creia
creien
creient
creients
creix
creixement
creixen
creixent
creixents
creixia
crema
cremada
cremades
cremallera
cremant
cremar
cremat
cremats
cremona
crescut
crespo
cresta
crestes
creta
cretaci
creu
creua
creuada
creuant
creuar
creuat
creuen
creuer
creueria
creuers
creure
creus
cri
cria
criada
crianc
criar
criat
criats
criatura
criatures
crida
cridant
cridar
cridat
cridats
crides
cries
crim
crime
crimea
criminal
criminals
crims
crioll
cripta
criptografia
crisi
crisis
crist
cristal
cristall
cristalls
cristia
cristiana
cristiandat
cristianes
cristianisme
cristiano
cristians
cristina
cristo
crit
crite
criteri
criteris
critica
criticada
critical
criticar
criticat
critics
crits
cro
croa
croada
croades
croat
croata
croats
croix
crom
croma
cromosoma
cromosomes
cromwell
cronista
cronistes
crono
cronolo
cronologia
cros
crosby
cross
crossman
crow
crown
cru
crua
crucial
crucificat
crucifixio
cruel
crueltat
cruesa
crugies
crui
crusafont
crustacis
cruyff
cruz
cry
crystal
cs
csic
csiro
css
ct
cter
cters
ctia
ctic
ctica
cticament
ctics
ctil
ctils
ctima
ctimes
ctiques
ctona
ctones
ctons
ctor
ctric
ctrica
ctrics
ctriques
ctrode
ctrodes
cu
cua
cuadernos
cuando
cuatro
cub
cuba
cubana
cubans
cuc
cucs
cue
cuenca
cuentos
cuerpo
cues
cuesta
cuevas
cugat
cuidar
cuina
cuinar
cuiner
cuines
cuir
cuirassada
cuirassat
cuirassats
cuita
cuixa
cul
cula
cules
cullera
culmina
culminacio
culminant
culminar
culo
culos
culpa
culpabilitat
culpable
culpables
culs
cult
culta
culte
cultes
cultiu
cultius
cultiva
cultivar
cultura
cultural
culturalment
culturals
culture
cultures
culum
cum
cunningham
cunyat
cup
cura
curacio
curar
cures
curial
curie
curio
curiosa
curiosament
curiositat
curiositats
current
curri
curs
cursa
cursar
curses
cursiva
cursos
curt
curta
curtes
curtis
curtmetratge
curtmetratges
curts
curvatura
cusco
custo
cut
cuta
cuvier
cv
cxd
cy
cybium
cycle
cyclebase
cycling
cyclisme
cyprinidae
cypriniformes
cyr
cyril
cyrus
cz
d
da
dac
dada
dades
daget
daguestan
dahl
dai
daily
daisy
dakar
dakota
dal
dalai
dale
dali
dall
dalla
dallas
dalma
dalmau
dals
dalt
dalton
dam
dama
damasc
dame
dames
damia
damon
damunt
dan
dana
dance
dancing
dane
danesa
danesos
dangerous
dani
daniel
daniela
daniele
daniels
danny
dans
dansa
danses
dante
danubi
dany
danyar
danyat
danys
dar
dara
darago
darfur
dari
dario
darios
dark
darkgrey
darkness
darmstadt
darrer
darrera
darrerament
darrere
darreres
darreria
darreries
darrers
darth
darwin
das
dat
data
database
datacio
datada
datades
datar
datat
datats
date
dateformat
daten
dates
datos
dau
daughter
dauphine
daurada
daurades
daurat
daurats
daus
davall
davalla
davallada
davant
davanter
davantera
dave
david
davidpar
davidson
davies
davis
dawla
dawn
dawson
day
days
db
dc
dd
de
dea
dead
deal
dean
death
debat
debate
debatre
debats
debilitat
debo
deborah
debussy
debut
debuta
debutant
debutar
dec
decade
decantar
decaure
december
decepcio
decideix
decideixen
decidi
decidida
decidir
decidiren
decidit
decimal
decisio
decisions
decisiu
decisiva
declara
declaracio
declaracions
declarada
declarant
declarar
declarat
declarats
declarava
declinacio
declinar
declivi
decoracio
decoracions
decorada
decorades
decorar
decorat
decoratiu
decoratius
decorativa
decoratives
decorats
decreixent
decret
decretar
decreto
decrets
decurs
dedica
dedicacio
dedicada
dedicades
dedicant
dedicar
dedicat
dedicato
dedicats
dedicava
dedicaven
dediquen
dedueix
deduir
dee
deep
deessa
deesses
def
default
defecte
defectes
defensa
defensada
defensant
defensar
defensat
defensava
defensaven
defense
defensen
defenses
defensiu
defensiva
defensives
defensor
defensora
defensors
deficie
deficient
defineix
defineixen
definia
definicio
definicions
definida
definides
definint
definir
definit
definitiu
definitiva
definitivament
definits
deformacio
defuncio
dega
degeneracio
degli
degradacio
deguda
degudes
degue
degut
dei
deia
deien
deir
deixa
deixalles
deixant
deixar
deixara
deixaren
deixaria
deixat
deixava
deixaven
deixe
deixeble
deixebles
deixen
deixi
deixo
dejuni
del
delaware
delegacio
delegacions
delegada
delegat
delegats
delfi
delfos
delgado
delhi
deliberadament
delicada
delicat
delicte
delictes
delimitacio
delimitada
delimitat
delinqu
delit
dell
della
delle
dels
delta
deluxe
dem
dema
demana
demanant
demanar
demanat
demanava
demanaven
demanda
demandes
demanen
demano
demarcacio
deme
demersal
demetri
demo
democra
democracia
democracy
democratic
demogra
demografia
demolicio
demostra
demostracio
demostracions
demostrada
demostrant
demostrar
demostrat
demostren
dempeus
demunt
den
dena
deng
denis
denise
dennis
denomina
denominacio
denominacions
denominada
denominades
denominar
denominat
denominats
denominen
denota
dens
densa
densament
densitat
densos
dent
dental
dents
denu
denuncia
denunciar
denunciat
denver
deo
deos
departament
departamental
departamentals
departaments
department
depe
depende
dependent
dependents
dependra
dependre
depenen
depenent
depenia
depenien
deportacio
deportat
deportats
deportes
deportiu
deportiva
deportivo
deposar
deposat
deposicio
depredadors
depressio
dept
depuis
depuracio
der
derbi
derby
derecho
derek
deriva
derivacio
derivada
derivades
derivar
derivat
derivats
deriven
derrocar
derrota
derrotada
derrotades
derrotant
derrotar
derrotat
derrotats
derrotes
ders
des
desa
desacord
desafiament
desafiar
desagradable
desambiguacio
desamortitzacio
desapare
desapareguda
desaparegudes
desaparegue
desaparegut
desapareguts
desapareix
desapareixen
desapareixent
desaparicio
desarmament
desarrollo
desastre
desastres
desavantatge
desavantatges
desavinences
desca
descalc
descans
descansa
descansar
descansen
descarregar
descarregat
descartar
descartes
descende
descendeix
descendent
descendents
descendir
descens
descobert
descoberta
descobertes
descoberts
descobreix
descobreixen
descobri
descobridor
descobriment
descobriments
descobrint
descobrir
descomposicio
descomptat
desconeguda
desconegudes
desconegut
desconeguts
desconeix
desconfianc
descontentament
descripcio
descripcions
description
descriptions
descriptiu
descrit
descrita
descrites
descrits
descriu
descriuen
descriure
descrivia
descrivint
desde
dese
desembarcament
desembarcar
desemboca
desembocadura
desembocar
desembre
desempat
desena
desencadenar
desenes
desenllac
desenvolupa
desenvolupada
desenvolupades
desenvolupador
desenvolupadors
desenvolupament
desenvolupaments
desenvolupant
desenvolupar
desenvoluparen
desenvolupat
desenvolupats
desenvolupava
desenvolupen
desert
desertar
deserts
desesperacio
desesperada
desesperat
desfer
desfeta
desfilada
desfilades
desforestacio
desgast
desgra
deshabitada
desig
design
designa
designacio
designada
designades
designar
designat
designats
designava
desigual
desiguals
desigualtat
desigualtats
desintegracio
desitja
desitjada
desitjat
desitjava
desitjos
desmond
desnivell
desobedie
desocupat
desocupats
desordre
despatx
desperta
despertar
despesa
despeses
desplac
desplacen
desplegament
desplegar
despoblat
despossei
despre
despue
despulles
destaca
destacable
destacables
destacada
destacades
destacament
destacant
destacar
destacat
destacats
destacava
destaquen
desterrat
desti
destil
destinacio
destinacions
destinada
destinades
destinar
destinat
destinats
destino
destitucio
destitui
destituir
destral
destrals
destresa
destruccio
destructor
destructors
destrueix
destrui
destruint
destruir
desu
desviacio
desviar
desxifrar
det
details
detall
detalla
detallada
detallades
detallat
detalls
deteccio
detecta
detectar
detectat
detectiu
detective
detector
detectors
detencio
detencions
detenir
deteriorament
determina
determinacio
determinada
determinades
determinant
determinants
determinar
determinat
determinats
determinen
detinguda
detingut
detinguts
detractors
detriment
detroit
deu
deuen
deure
deures
deus
deute
deutes
deutsch
deutsche
deutschen
deutscher
deutschland
deux
dev
devant
devastar
development
devesa
devi
devia
devien
devil
devocio
devolucio
devon
dex
deya
dez
df
dg
dh
dharma
dhuc
di
dia
diabetis
diable
diables
diablo
diaca
diada
diafragma
diagno
diagnosticar
diagonal
diagrama
diagrames
diale
dialectal
dialecte
dialectes
diamant
diamants
diamond
diana
diane
diari
diario
diaris
diarrea
diary
dias
dibuix
dibuixa
dibuixant
dibuixants
dibuixar
dibuixat
dibuixos
dic
dica
dicament
diccionari
diccionario
diccionaris
dice
dich
dici
diciembre
dick
dickens
dico
dics
dicta
dictador
dictadura
dictar
dictionary
dictionnaire
did
dida
dides
didier
dids
die
diec
diego
diem
dient
dies
dieta
diete
dieter
dietrich
dieu
diez
difere
difereix
difereixen
diferencia
diferenciacio
diferenciada
diferenciades
diferencial
diferencials
diferenciar
diferenciat
diferenciats
diferencien
diferent
diferents
different
difi
dificulta
dificultar
dificultat
dificultats
difo
difondre
difosa
difunt
difunts
difusio
digestio
digestiu
digital
digitalitzacio
digitals
digna
digne
dignes
dignitat
digue
digues
digui
dijon
dijous
dilige
dilluns
dilui
dimarts
dimecres
dimensio
dimensions
dimissio
dimiti
dimitir
dimitri
dimoni
dimonis
din
dina
dinamarca
dinamisme
dinamo
dinar
dinastia
dinasties
diner
diners
ding
dino
dinosaure
dinosaures
dinou
dins
dintre
dio
diocesa
dioclecia
diodor
dioni
dios
dip
diploma
dipo
dipositar
dipositat
diptera
diputacio
diputada
diputat
diputats
diques
dir
dira
dire
direccio
direccions
direct
directa
directament
directe
directes
direction
directiu
directius
directiva
director
directora
directori
directors
directrius
diria
dirigeix
dirigeixen
dirigent
dirigents
dirigi
dirigia
dirigida
dirigides
dirigien
dirigint
dirigir
dirigit
dirigits
dirty
dis
disc
discapacitat
discapacitats
disciplina
disciplines
disco
discogra
discografia
discorre
discos
discoteca
discovery
discrepa
discret
discreta
discriminacio
discs
discurs
discursos
discussio
discussions
discuteix
discutida
discutir
discutit
disease
disfressa
disfressat
disminucio
disminueix
disminueixen
disminui
disminuint
disminuir
disney
dispara
disparant
disparar
disparat
dispersa
dispersar
disperses
dispersio
dispersos
display
disponibilitat
disponible
disponibles
disposa
disposada
disposades
disposar
disposat
disposats
disposava
disposaven
disposen
disposicio
disposicions
dispositiu
dispositius
disputa
disputada
disputades
disputant
disputar
disputaren
disputat
disputats
disputava
disputen
disputes
dissabte
dissabtes
disseny
dissenya
dissenyada
dissenyades
dissenyador
dissenyadora
dissenyadors
dissenyar
dissenyat
dissenyats
dissenys
disset
dissidents
dissol
dissoldre
dissolt
dissolta
dissolucio
dissolvent
dista
distant
distants
distincio
distincions
distingeix
distingeixen
distingida
distingir
distingit
distingits
distintes
distintiu
distintius
distints
distorsio
distribucio
distribucions
distribueix
distribueixen
distribui
distribuir
distribution
district
districte
districtes
disturbis
dit
dita
dites
dition
ditions
dits
diu
diuen
diumenge
diumenges
dius
diva
divendres
diverge
divers
diversa
diverses
diversio
diversitat
diversity
diversos
divertida
divertit
divi
divideix
divideixen
dividi
dividia
dividida
dividides
dividint
dividir
dividit
dividits
divina
divinitat
divinitats
divisio
division
divisions
diviso
divorci
divorciar
divuit
divulgacio
divulgar
dix
dixon
diz
dj
djibouti
dl
dm
dmitri
dna
dnie
do
doblada
doblades
doblar
doblat
doblatge
doble
dobles
doblet
doc
doce
docent
docents
docosong
docs
doctor
doctora
doctoral
doctorar
doctorat
doctors
doctrina
doctrines
document
documenta
documentacio
documentada
documentades
documental
documentals
documentar
documentat
documentats
documentos
documents
dodge
does
dofi
dofins
dog
dogc
dogma
dogv
doi
dol
dolc
dolces
dolent
dolenta
dolents
doll
dolls
dolly
dolmen
dolor
dolores
dolorosa
dolors
dols
dom
domain
domaine
domat
dome
domenico
domi
domicili
domina
dominacio
dominada
dominant
dominants
dominar
dominat
dominava
dominaven
dominen
domingo
domini
dominic
dominica
dominicana
dominics
dominique
dominis
don
dona
donacio
donacions
donada
donades
donald
donant
donants
donar
donara
donaren
donaria
donat
donatello
donats
donava
donaven
donchs
doncs
donde
done
donen
dones
donetsk
dong
doni
donizetti
donkey
donna
donne
donnell
dons
donya
donzella
doom
door
dopatge
doppler
dor
dora
dordonya
doria
doris
dormir
dormitori
dorothy
dors
dorsal
dorsals
dortmund
dos
dosi
dosis
dossier
dot
dota
dotacio
dotada
dotar
dotat
dotats
dots
dotze
dotzena
dotzenes
douard
double
doubs
douce
doug
douglas
dovelles
dover
down
doyle
dr
dra
drac
dracs
dracula
draft
drag
drago
dragon
dragons
drake
drama
dramatu
dramaturg
dramaturgs
drames
drap
drassanes
dream
dreams
drenatge
dresden
dret
dreta
dretes
drets
drew
dric
drica
drics
drive
droga
drogueria
drogues
drom
droma
drug
ds
dsm
dt
du
dua
dual
dualitat
duana
duanes
duarte
duas
dubai
dubli
dublin
dubta
dubtar
dubte
dubtes
dubto
dubtosa
duc
ducal
ducat
ducats
duck
ducs
dudley
due
duel
duen
duent
duero
dues
duet
dugue
duia
duien
duke
dul
dula
dulce
duls
dumas
dun
duncan
dunes
dunkerque
dunn
duo
duplicar
duque
duquessa
dur
dura
duracio
durada
duradora
durament
duran
durand
durango
durant
durante
durar
dures
duresa
durham
during
durs
dut
duta
dutch
dutes
duts
duty
duu
dux
dvb
dvd
dwight
dx
dy
dylan
dynamics
dynasty
dz
e
ea
eagle
earl
early
earth
east
eastern
eastwood
easy
eau
eaux
eb
ebert
ebre
ebro
ebullicio
ec
echo
ecle
eclesia
eclipsi
eco
ecolo
ecologia
ecological
ecologista
ecologistes
ecology
econo
economi
economia
economic
economics
economies
economista
economistes
economy
ecoregio
ecosistema
ecosistemes
ecuador
ecume
ed
edad
edat
edats
edda
eddie
eddy
eden
edessa
edgar
edge
edicio
ediciones
edicions
edicte
edificacio
edificacions
edificada
edificar
edificat
edifici
edificis
edimburg
edinburgh
edipucrs
edison
edit
edita
editada
editades
editant
editar
editat
editats
edited
edith
edition
editions
editor
editora
editore
editores
editorial
editorials
editors
edmond
edmund
edo
edre
eds
edu
eduard
eduardo
educacio
educada
educador
educar
educat
education
educatiu
educatius
educativa
educatives
educte
edward
edwards
edwin
ee
ef
efecte
efectes
efectiu
efectius
efectiva
efectivament
efectives
efectivitat
efectua
efectuar
efectuat
efeme
efes
effect
effects
efi
efica
eficac
eficie
eficient
eficients
egea
egeu
egi
egipci
egipcis
egipte
egipto
ego
egypt
eh
ei
eibar
eiffel
eigenmann
eight
ein
eina
eindhoven
eine
einer
eines
einstein
eisenhower
eivissa
eix
eixa
eixample
eixe
eixida
eixir
eixos
eje
ek
el
ela
elabora
elaboracio
elaborada
elaborades
elaborar
elaborat
elaborats
elaine
elba
elda
ele
eleanor
eleccio
eleccions
electe
electes
elector
electoral
electorals
electorat
electors
electra
electric
electricista
electricistes
electricitat
electro
electrodome
electroesta
electromagne
electronic
electrons
elefant
elefants
elega
elegans
elegant
elegi
elegida
elegir
elegit
elegits
element
elemental
elementals
elements
elena
elenc
eles
eleva
elevacio
elevacions
elevada
elevades
elevar
elevat
elevats
eleven
elfs
eli
elia
elias
elies
elimina
eliminacio
eliminada
eliminant
eliminar
eliminat
eliminato
eliminats
eliminen
elionor
eliot
elisa
elisabet
elisabeth
elit
elits
elizabeth
ell
ella
ellas
elle
ellen
elles
elliot
elliott
ellis
ells
elm
elna
elo
elogi
elogiar
elogis
eloi
eloqu
els
elsa
else
elseif
elst
elvira
elvis
elx
em
emancipacio
emanuel
embara
embarassada
embarassades
embarcacio
embarcacions
embarcar
embargament
embassament
embassaments
emberiza
emblema
embolcall
embolicat
emboscada
embrio
eme
emerge
emergent
emergents
emergir
emesa
emeses
emesos
emet
emeten
emetia
emetre
emi
emigracio
emigrants
emigrar
emigrat
emil
emile
emili
emilia
emilio
emily
eminent
eminentment
emir
emirat
emirats
emirs
emissio
emissions
emissor
emissora
emissores
emma
emmagatzema
emmagatzemar
emmagatzematge
emmagatzemen
emmanuel
emmarca
emmarcada
emmarcades
emmarcat
emmurallat
emmy
emocio
emocional
emocionals
emocions
empara
emparentat
empat
empata
empatar
empatat
empe
empenta
empeny
emperador
emperadors
emperadriu
empero
empi
empire
empitjorar
emplac
empleat
empleats
emploi
emporda
emporta
emportar
empra
emprada
emprades
emprant
emprar
emprat
emprats
emprava
empraven
empre
empremta
empremtes
empren
emprendre
empresa
empresari
empresarial
empresarials
empresaris
empreses
empresonament
empresonar
empresonat
empresonats
empu
emv
en
ena
enamora
enamorada
enamorar
enamorat
enc
enca
encant
encapc
encara
encarna
encarnacio
encarrega
encarregada
encarregades
encarregar
encarregat
encarregats
encarregava
encarreguen
ence
encendre
encesa
enci
encial
enciclope
enciclopedia
enclavament
enclavaments
encomanar
encontre
encoratjar
encreuament
encunyar
encunyat
encyclopaedia
encyclopedia
encyclopædia
end
endavant
ende
endema
endeme
endemisme
enderrocada
enderrocament
enderrocar
enderrocat
endins
endinsar
endo
endur
enduro
ene
enemic
enemics
enemiga
enemigues
energe
energia
energies
energy
enero
enfant
enfila
enfocament
enfocaments
enfocar
enfonsa
enfonsament
enfonsar
enfonsat
enfortiment
enfortir
enfront
enfronta
enfrontament
enfrontaments
enfrontant
enfrontar
enfrontat
enfrontava
enfronten
enganxar
engany
enganyar
engegar
engels
engine
engineering
enginy
enginyer
enginyeria
enginyers
england
english
engloba
engranatges
enigma
enlairament
enlairar
enlla
enllac
enllacen
enlloc
enllumenat
enmig
enorme
enormement
enormes
enquesta
enquestes
enraonem
enregistrada
enregistrament
enregistraments
enregistrar
enregistrat
enrere
enri
enric
enrico
enrique
enriqueta
enriquiment
enriquir
ens
ensemble
ensen
ensenya
ensenyament
ensenyaments
ensenyanc
ensenyant
ensenyar
ensenyat
ensenyava
ent
entaulament
ente
entenc
entendre
entenen
entenent
entenia
enteniment
enter
enterament
enterprise
enterrada
enterrades
enterrament
enterraments
enterrar
enterrat
enterrats
enters
entertainment
entesa
entitat
entitats
entment
entomology
entorn
entorns
entra
entrada
entrades
entramat
entrant
entrar
entraren
entrat
entrava
entraven
entre
entrega
entregar
entregat
entreguerres
entrellac
entremig
entren
entrenador
entrenadora
entrenadors
entrenament
entrenaments
entrenar
entrenat
entreteniment
entrevista
entrevistar
entrevistes
entropia
entry
ents
entusiasme
entusiasta
enunciat
envai
envair
enveja
envelliment
envergadura
enverinament
enverinat
envers
envia
enviada
enviades
enviament
enviant
enviar
enviat
enviats
enviava
envien
environment
environmental
envolta
envoltada
envoltades
envoltant
envoltar
envoltat
envoltats
envoltava
envoltaven
envolten
enz
enzim
enzima
enzims
enzo
eo
eoce
ep
epi
epic
epide
epile
epir
episcopal
episcopat
episode
episodi
episodis
epo
epsilon
equ
equacio
equacions
equador
equatorial
equilibri
equip
equipada
equipades
equipament
equipaments
equipar
equipat
equipats
equips
equival
equivale
equivalent
equivalents
equivocat
er
era
eran
erau
erc
ere
ereccio
eremita
eren
eres
erevan
eric
erich
erigida
erigir
erigit
erik
erill
eritrea
ermengol
ermessenda
ermita
ermites
ernest
ernesto
ernst
ero
eros
erosio
erra
erradicar
erro
error
errors
ers
erudit
erudits
erupcio
erupcions
erwin
es
esa
esbarjo
esbart
esbo
esborra
esborrament
esborrany
esborranys
esborrar
esborrat
esbossos
esbrinar
esca
escac
escacs
escairats
escala
escalada
escalar
escaldes
escales
escalfa
escalfament
escalfar
escalinata
escamot
escandina
escandinaus
escapa
escapada
escapament
escapar
escapat
escape
escarser
escassa
escasses
escassetat
escassos
escates
escau
esce
escena
escenari
escenaris
escenes
esceno
escenografia
escepticisme
eschmeyer
escipio
escissio
escites
esclat
esclata
esclatar
esclau
esclaus
esclava
esclavatge
esclavitud
esco
escobar
escoce
escocesa
escocesos
escola
escolar
escolars
escoles
escollida
escollir
escollit
escollits
escolta
escoltar
escoltat
escoltes
escombraries
escons
escorc
escorial
escorta
escorxador
escrigue
escriptor
escriptora
escriptores
escriptori
escriptors
escriptura
escriptures
escrit
escrita
escrites
escrits
escriu
escriuen
escriure
escriva
escrivi
escrivia
escrivint
escu
escuderia
escuela
escull
esculls
esculpida
esculpit
esculpits
esculto
escultor
escultors
escultura
escultures
escuma
escurc
escut
escuts
esdeve
esdevenen
esdevenia
esdeveniment
esdeveniments
esdevenint
esdevenir
esdevindra
esdevindria
esdevingue
esdevingueren
esdevingut
esfe
esfera
esferes
esforc
esgle
esgotament
esgotar
esgrafiats
esgrima
esla
eslau
eslaus
eslava
eslaves
eslo
eslova
eslovac
eslovaca
eslovacs
eslove
eslovens
esmalt
esmena
esmenes
esment
esmenta
esmentada
esmentades
esmentar
esmentat
esmentats
esmenten
esmirna
esmorzar
eso
esp
espa
espacial
espacials
espacio
espada
espadanya
espai
espais
espaitemps
espan
espanya
espanyol
espanyola
espanyoles
espanyols
esparreguera
esparta
espartans
espartero
espasa
espases
espatlla
espatlles
espe
especi
especial
especialista
especialistes
especialitat
especialitats
especialitza
especialitzacio
especialitzada
especialitzades
especialitzar
especialitzat
especialitzats
especialment
especials
especies
especifica
especificacio
especificacions
especificar
especificat
especificitat
espectacle
espectacles
espectacular
espectaculars
espectador
espectadors
espectral
espectre
espectrosco
especulacio
especular
espejo
espelmes
espera
esperanc
esperances
esperant
esperanto
esperanza
esperar
esperat
esperava
esperaven
esperen
esperit
esperits
espero
espessa
espi
espia
espies
espiga
espina
espinal
espines
espinosa
espionatge
espira
espiral
espirals
espiritual
espiritualitat
espirituals
espitlleres
esplai
esplanada
esple
esplendor
espluga
esplugues
espn
espo
esponta
espora
espores
esport
esportista
esportistes
esportiu
esportius
esportiva
esportives
esports
esposa
esposes
espot
esprint
espriu
esquadra
esquadro
esquadrons
esqueixada
esquele
esquelet
esquelets
esquema
esquemes
esquena
esquerda
esquerdes
esquerra
esquerre
esquerres
esqui
esquinc
esquirol
esquizofre
essai
essays
esse
essencial
essencialment
essencials
essent
esser
essex
est
esta
estabilitat
estabilitzacio
estabilitzar
estable
estableix
estableixen
establert
establerta
establertes
establerts
estables
establi
establia
establiment
establiments
establint
establir
establiren
estacio
estacions
estada
estades
estadi
estadis
estado
estalvi
estalviar
estalvis
estaments
estampa
estams
estan
estanc
estancament
estances
estandarditzacio
estant
estany
estanys
estar
estara
estaran
estaria
estarien
estat
estatal
estatals
estatge
estats
estatueta
estatunidenc
estatunidenca
estatunidencs
estatunidenques
estatus
estatut
estatuts
estava
estavellar
estaven
este
esteban
estel
estela
esteles
estella
estelle
estels
estem
estendard
estendre
estenen
estenent
estengue
estenia
estepa
estepes
ester
estereotips
esterlines
estes
estesa
esteses
esteve
esther
esti
estic
estigue
estiguessin
estigui
estiguin
estil
estili
estils
estima
estimacio
estimacions
estimada
estimar
estimat
estimats
estimava
estimen
estimula
estimulacio
estimulant
estimular
estio
estionar
estions
estirar
estiu
estiueig
estius
esto
estocolm
estol
estona
estonia
estonians
estos
estrabo
estrada
estralls
estranger
estrangera
estrangeres
estrangers
estrany
estranya
estranyes
estranys
estrasburg
estrat
estrate
estrats
estre
estrella
estrelles
estrena
estrenada
estrenades
estrenar
estrenat
estrenes
estret
estreta
estretament
estretes
estrets
estri
estricta
estrictament
estricte
estrictes
estris
estrofa
estrofes
estructura
estructurada
estructural
estructurals
estructurat
estructures
estu
estuari
estuc
estudi
estudia
estudiada
estudiades
estudiant
estudiantes
estudiantil
estudiants
estudiar
estudiat
estudiats
estudiava
estudien
estudio
estudios
estudiosos
estudis
et
eta
etanol
etapa
etapes
etc
etce
ete
etern
eterna
eternitat
ethan
ethnologue
eti
etienne
etimolo
etimologia
etio
etiqueta
etiquetes
etno
etnogra
etnografia
etnolo
etnologia
eto
etrusc
etrusca
etruscs
ets
ettore
eu
eua
eucalyptus
eucariotes
eucaristia
euclides
euclidia
eudes
eufo
eufrates
euge
eugen
eugene
eugeni
eugenia
eugenio
eula
euler
eura
eure
euri
euro
eurocopa
eurolliga
europa
europaea
europe
europea
european
europees
europeu
europeus
euros
eurovisio
eusebi
eusebio
euskadi
euskal
ev
eva
evacuacio
evacuar
evan
evange
evangeli
evangelis
evangelista
evangelistes
evangelitzacio
evans
evaporacio
evasio
eve
evelyn
evening
event
events
eventual
eventualment
ever
everest
everett
every
everything
evide
evidence
evidencia
evident
evidentment
evidents
evil
evita
evitant
evitar
eviten
evoca
evolucio
evoluciona
evolucionant
evolucionar
evolucionat
evolution
evolutionary
evolutiu
evolutiva
ex
exa
exacta
exactament
exacte
exactes
exactitud
exaltacio
examen
examinar
excavacio
excavacions
excavada
excavades
excavar
excavat
exce
excel
excentricitat
excepcio
excepcional
excepcionalment
excepcionals
excepcions
excepte
exceptuant
excessiu
excessiva
excessivament
excessos
exchange
excitacio
exclo
excloent
exclosos
exclou
excloure
exclusio
exclusiu
exclusius
exclusiva
exclusivament
exclusive
excursio
excursionista
excursionistes
excursions
excusa
exe
execucio
execucions
executa
executada
executades
executant
executar
executat
executats
executiu
executius
executiva
exempcio
exemplar
exemplars
exemple
exemples
exempt
exempta
exerceix
exerceixen
exerci
exercia
exercici
exercicis
exercida
exercint
exercir
exercit
exfutbolista
exhaustiva
exhibeix
exhibicio
exhibicions
exhibir
exhibition
exige
exigeix
exigia
exigint
exigir
exili
exiliar
exiliat
exiliats
existe
existeix
existeixen
existeixi
existent
existents
existi
existia
existien
existint
existir
existit
exjugador
exo
exotic
exp
expandir
expansio
expectatives
expedicio
expedicions
expedient
expedition
experie
experience
experiment
experimenta
experimentacio
experimental
experimentals
experimentar
experimentat
experimentats
experimenten
experiments
expert
experta
experts
expli
explica
explicacio
explicacions
explicada
explicant
explicar
explicat
explicava
expliquen
exploitations
explor
explora
exploracio
exploracions
explorador
exploradors
explorar
exploration
explorer
explosio
explosions
explosiu
explosius
explosiva
explota
explotacio
explotacions
explotar
expo
exponencial
exponent
exponents
exportacio
exportacions
exportar
exposa
exposada
exposades
exposar
exposat
exposats
exposen
exposicio
exposicions
expre
expresident
express
expressa
expressada
expressament
expressant
expressar
expressat
expressen
expressio
expressionisme
expressions
expressiva
expulsa
expulsada
expulsar
expulsat
expulsats
expulsio
extens
extensa
extensament
extenses
extensio
extensions
extensos
exterior
exteriorment
exteriors
extermini
extern
externa
externes
externs
extincio
extingir
extingit
extint
extinta
extints
extra
extraccio
extracel
extracte
extractes
extractiva
extractives
extraordina
extraordinari
extraordinaris
extraterrestre
extraterrestres
extrem
extrema
extremadament
extremadura
extremes
extremitats
extrems
extres
extret
extreta
extretes
extrets
extreu
extreure
eyck
eye
eyes
ez
f
fa
faber
fabi
fabia
fabio
fabra
fabre
fabrica
fabricacio
fabricada
fabricades
fabricant
fabricants
fabricar
fabricat
fabricats
fabriquen
fabrizio
fac
faccio
faccions
face
facebook
faceta
facey
faci
facial
facials
facilita
facilitant
facilitar
facilitat
faciliten
facin
facsi
fact
facto
factor
factoria
factors
factory
facts
factura
facultat
facultats
fad
fada
fades
fag
fagot
fags
fai
faig
fair
faith
faixa
fal
falange
falc
falco
falcon
falda
faldilla
fall
falla
fallada
fallar
falles
fallida
fallit
falls
fals
falsa
false
falses
falset
falsos
falta
faltar
faltava
falten
faltes
fam
fama
fame
fami
familia
familiar
familiars
families
family
famo
famosa
famoses
famosos
famous
fan
fana
fanes
fang
fanny
fans
fanta
fantasia
fantasies
fantasma
fantasmes
fantastic
fantasy
fao
far
fara
faran
farao
faraons
fare
farga
faria
farien
farina
farm
farma
farmace
farmacolo
farners
farnese
faro
farre
farrell
fars
farsa
fas
fase
fases
faso
fast
fat
fatal
father
fatiga
fatimita
fatimites
fauna
faune
faust
fausto
favor
favorable
favorables
favorit
favorita
favorits
fayard
fbi
fc
fda
fe
fear
feat
feature
features
feb
feble
febles
feblesa
febr
febre
febrer
febrero
february
fec
federacio
federacions
federal
federals
federation
federer
federico
feedback
feeding
feel
feia
feien
feina
feines
feix
feixisme
feixista
feixistes
feixos
felanitx
felic
felice
felicitat
felip
felipe
feliu
felix
fellini
fellow
fem
female
femella
femelles
femeni
femenina
femenines
femenins
feminisme
feminist
feminista
feministes
femme
femmes
feni
fenici
fenicis
feno
fenomen
fent
fer
fera
ferbr
ferdinand
ferdinando
feren
feres
ferguson
ferida
ferides
ferir
ferit
ferits
ferm
ferma
fermament
fermat
fermentacio
fermi
ferna
fernand
fernando
ferotge
ferra
ferradura
ferran
ferrando
ferrara
ferrari
ferraris
ferre
ferreira
ferrer
ferri
ferro
ferrocarril
ferrocarrils
ferrol
ferrovia
ferroviari
ferroviaris
ferry
fers
fertilitat
fes
fessin
fest
festa
festes
festiu
festius
festival
festivals
festivitat
festivitats
fet
feta
fetes
fetge
fets
fetus
feu
feudal
feudals
feus
fex
feya
ff
fgc
fi
fia
fiabilitat
fiable
fiables
fianc
fiat
fiba
fibra
fibres
fic
fica
ficament
ficar
ficas
ficcio
ficha
ficit
fico
ficos
fics
ficti
fictici
fiction
fide
fidel
fidelitat
fidels
fids
field
fields
fiesta
fifa
fig
figaro
fight
fighter
fighting
figuera
figueras
figueres
figueroa
figuerola
figura
figurar
figurava
figuren
figures
fiji
fil
fila
filade
filades
filaments
file
filera
fileres
files
filferro
filharmo
filiacio
filial
filials
filip
filipines
filippo
fill
filla
fille
filles
fills
film
filmacio
filmada
filmaffinity
filmar
filmat
filmografia
filmoteca
films
filo
filoge
filogene
filolo
filologia
filoso
filosofi
filosofia
fils
filtracio
filtrar
filtre
filtres
fim
fin
fina
final
finale
finalista
finalistes
finalitat
finalitats
finalitza
finalitzacio
finalitzada
finalitzant
finalitzar
finalitzat
finalment
finals
financ
financer
financera
financeres
financers
finances
financial
finca
find
findley
fine
fines
finestra
finestral
finestrals
finestres
finit
finita
finla
finlande
finlandesa
finlandesos
finn
finques
fins
fio
fiord
fiques
fira
fire
firefox
fires
firma
firmar
first
fis
fiscal
fiscalia
fiscals
fiscaux
fischer
fish
fishbase
fisher
fisheries
fishery
fishes
fishing
fisiolo
fisiologia
fissio
fit
fita
fites
fits
fitxa
fitxar
fitxat
fitxatge
fitxer
fitxers
fitxes
fitzgerald
five
fix
fixa
fixacio
fixada
fixar
fixat
fixes
fixos
fk
fl
fla
flac
flag
flagel
flaix
flama
flamenc
flamenca
flamencs
flames
flanc
flancs
flandes
flanquejada
flanquejat
flash
flat
flauta
flautes
flavi
fleca
fleet
fleming
fleques
fletcher
fletxa
fletxes
flexibilitat
flexible
flexibles
flexio
flickr
flight
flo
flor
flora
floracio
floral
florals
flore
floreix
florence
florenti
florentins
flores
flori
florida
florir
floristeria
floristeries
flors
flota
flotant
flotes
flow
flower
flowers
floyd
flueix
flui
fluid
fluids
fluor
fluvia
fluvial
fluvials
flux
fluxos
fly
flying
flynn
fm
fn
fo
foc
focal
foch
focs
focus
fogatge
foguera
foix
fol
folc
folch
foli
folk
folklo
folklore
folre
fols
foment
fomenta
fomentar
fon
fona
fonament
fonamenta
fonamental
fonamentalment
fonamentals
fonaments
fonda
fondo
fondre
fone
fonema
fonemes
fong
fongs
fonolo
fonologia
fons
fonseca
font
fontaine
fontainebleau
fontana
fontanals
fonte
fonts
fontsize
food
foot
football
footer
for
fora
foradada
foral
forall
forat
forats
forbes
forc
forca
force
forces
ford
fore
foreign
foren
forense
forest
forestal
forestals
forever
forja
forjar
forjat
form
forma
formacio
formacions
formada
formades
formal
formalitzar
formalment
formals
formant
formar
formaren
formaria
format
formatge
formatges
formation
formats
formava
formaven
forme
formen
formentera
formes
formigo
formiguera
formigues
formosa
formula
formulacio
formular
forn
forni
forns
forques
forquilla
fors
forster
fort
forta
fortalesa
fortaleses
fortament
fortes
forti
fortificacio
fortificacions
fortificada
fortificades
fortificar
fortificat
forts
fortuna
fortune
fortuny
forum
fos
fosa
fosc
fosca
foscor
foscos
fosfat
fosfats
fosforilacio
fosques
fossa
fossat
fosse
fosses
fossin
foster
foto
fotogra
fotografia
fotografiar
fotografies
fotograma
fotogramas
fotogrames
fotons
fotos
fotosi
fou
found
foundation
four
fourier
fourth
fowler
fox
fr
fra
frac
fraca
fracassa
fracassar
fracassat
fracassos
fraccio
fraccions
fractura
fractures
fraga
fragata
fragment
fragmentacio
fragments
frame
fran
franc
franca
france
frances
francesa
francesc
francesca
francesco
franceses
francesos
francia
francis
francisca
franciscans
francisco
franck
franco
francoli
francs
franges
franja
frank
frankenstein
frankfurt
franklin
franqui
franquisme
franquista
franquistes
frans
franz
frare
frares
frase
fraser
frases
fraternitat
frau
fray
fre
fred
freda
freddie
freddy
frederic
frederick
fredes
freds
free
freedom
freeman
freguesia
freire
frenar
french
frens
frente
frequ
fresc
fresca
frescos
frescs
fresh
freshwat
freshwater
fresques
freud
fri
friburg
frica
friccio
friedman
friedrich
friend
friends
fris
friso
fritz
friu
from
front
frontal
frontals
frontera
fronterer
fronterera
frontereres
fronterers
fronteres
frontier
frontis
fronto
fronts
frost
fru
fructi
fructosa
fruit
fruita
fruiters
fruites
fruits
frustracio
frustrat
ft
fu
fue
fuego
fuente
fuentes
fuga
fugen
fugi
fugida
fugien
fugint
fugir
fugit
fugitius
fuig
fuita
fuji
full
fulla
fuller
fulles
fulleto
fulls
fum
fumar
fun
funcio
funciona
funcional
funcionalitat
funcionalitats
funcionals
funcionament
funcionant
funcionar
funcionari
funcionaris
funcionava
funcionaven
funcionen
funcions
function
fund
funda
fundacio
fundacional
fundacions
fundada
fundades
fundador
fundadora
fundadors
fundant
fundar
fundaren
fundat
fundats
funera
funeral
funerals
funerari
funeraris
funk
fur
furio
furs
fury
fuselatge
fusell
fusellers
fusells
fusio
fusiona
fusionar
fusionat
fust
fusta
fuster
fusteria
fusteries
fustes
futbol
futboli
futbolista
futbolistes
futebol
futur
futura
future
futures
futuro
futurs
g
ga
gabinet
gabon
gabriel
gabriela
gabriele
gaceta
gadiformes
gae
gaetano
gaga
gai
gaia
gaire
gairebe
gaires
gais
gal
gala
galaxy
galceran
gale
galega
galera
galeres
galeri
galeria
galerie
galeries
galetes
gali
galicia
galilea
galileo
galileu
gall
gallardo
gallec
gallecs
gallega
gallego
gallery
gallimard
gallina
gallines
gallo
galo
gals
galtes
gama
gamba
gambit
game
gamecube
games
gamma
gan
gana
gandhi
gandia
ganes
gang
ganges
ganivet
ganivets
gant
ganxo
gao
gap
gara
garanteix
garantia
garanties
garantir
garatge
garce
garci
garcia
gard
garde
garden
gardens
gardner
gari
garibaldi
garland
garo
garona
garraf
garrido
garriga
garrigues
garros
garrotxa
gary
garzo
gas
gasco
gascunya
gaso
gasolina
gasos
gaspar
gastar
gasto
gaston
gastrono
gastronomia
gat
gata
gate
gates
gato
gats
gaudeix
gaudeixen
gaudi
gaudia
gaudien
gaudir
gauguin
gaulle
gauss
gava
gavi
gavin
gay
gaya
gaza
gazette
gb
gbif
ge
gear
gec
gegant
gegants
gehrels
gel
gelabert
gelades
gelat
gelosia
geltru
gemini
gemma
gemmes
gen
gena
gencat
gendarmeria
gender
gendre
gene
genealo
genealogia
gener
genera
generacio
generacions
generada
generades
generador
generadors
general
generali
generalitat
generalitzacio
generalitzada
generalitzar
generalitzat
generalment
generals
generant
generar
generat
generation
generats
generen
genero
genes
genesis
genet
genetic
genets
genguis
geni
genital
genitals
genitiu
geno
genocidi
genoll
genolls
genoma
genove
genovesos
gens
gent
gente
gentil
gents
genui
genus
geo
geode
geoffrey
geogra
geografia
geographic
geographical
geolo
geologia
geological
geome
geometria
geopoli
georg
george
georges
georgia
georgiana
georgians
ger
gerais
gerald
gerard
gerardo
gerent
gerhard
germa
germain
german
germana
germanastre
germandat
germanes
germano
germanor
germans
germany
gers
gertrude
gertsch
gervasi
ges
geschichte
gesellschaft
gespa
gest
gesta
gestacio
gestapo
gestes
gestio
gestiona
gestionada
gestionar
gestionat
gestions
gestor
gestora
gestos
get
getafe
ghana
ghazi
ghost
ghz
gi
gia
giacomo
gian
gianni
giant
gibbs
gibert
gibraltar
gibson
gic
gica
gicament
gico
gics
gid
gida
gids
gie
gies
gif
gijo
gil
gilbert
gilberto
giles
gili
gill
gilles
gilmour
gils
gim
gime
gimeno
gimna
gimnasta
gimnastes
gims
gina
ginas
gine
ginebra
giner
gines
gion
giordano
giorgio
giovanni
giques
gir
gira
girant
girar
girard
giray
giren
gires
girl
girls
giro
girolamo
girona
gironda
girone
gironella
gironins
girs
gitana
gitano
gitanos
gits
giulia
giuliano
giulio
giuseppe
give
gla
glac
glacera
glaceres
glacial
glacials
gland
glasgow
glass
gle
glen
glenn
gli
glise
glo
global
globalitzacio
globalment
globals
globe
globus
gloria
gloriosa
glory
gloucester
glu
glucosa
gm
gmbh
gne
gneu
gnia
gnies
gno
gnome
gnu
go
goa
gobierno
gobiidae
god
godo
godoy
gods
goebbels
goes
goethe
gogh
goig
goigs
going
gol
gola
gold
goldberg
golden
goldman
goldstein
goldwyn
golejador
golejadors
golf
golfes
gols
goma
gomes
gon
gonc
gone
gong
gons
gonza
gonzaga
gonzalo
good
goodman
google
gor
gora
gordon
gore
gores
gorg
gorges
goril
gorki
gorra
gos
gosse
gossos
got
gota
gotes
gotha
gots
gott
gottfried
gould
gov
govern
governa
governacio
governada
governador
governadors
governamental
governamentals
governant
governants
governar
governat
governats
governava
government
governs
goya
gp
gps
gr
gra
grace
gracia
gracilis
gradient
gradua
graduacio
gradual
gradualment
graduar
graduat
graella
graf
grafa
grafia
grafit
grafs
graham
grahamstown
gram
grama
gramatical
gramaticals
gramenet
grami
grammar
grammy
grams
gran
granada
granades
granados
grand
granda
grande
grandes
grandesa
graner
granera
granger
granges
grani
granit
granja
granollers
granota
granotes
grans
grant
graons
grapat
graphics
gras
grassos
grat
gratacels
gratui
grau
graus
grava
gravacio
gravacions
gravada
gravades
gravador
gravar
gravat
gravats
grave
graves
gravetat
gravitacional
gravitato
gray
graz
gre
great
greatest
grec
greco
grecoromana
grecs
greece
greek
green
greene
greenwich
greenwood
greg
grega
gregori
gregoria
gregoriana
gregorio
gregory
gregues
greix
greixos
gremi
gremis
grenoble
gres
greta
greu
greuges
greument
greus
grey
gridcolor
griffin
griffith
grimes
grimm
grip
gris
grisa
grisos
gro
groc
grocs
groeneveld
groenla
groga
groguenc
grogues
groningen
gros
grossa
grosses
grosso
grossos
ground
group
grove
growth
gru
grua
gruix
gruixuda
gruixudes
gruixut
gruixuts
grup
grupo
grups
gruta
gs
gsub
gt
gu
gua
guadalajara
guadalupe
guaiana
guaita
gual
guam
guan
guangdong
guants
guany
guanya
guanyada
guanyador
guanyadora
guanyadores
guanyadors
guanyant
guanyar
guanyaria
guanyat
guanyats
guanyava
guanyen
guanys
guarani
guarda
guardapols
guardar
guardava
guarden
guardia
guardian
guardians
guardiola
guardo
guardonada
guardonat
guardonats
guardons
guarir
guarnicio
guarnicions
guatemala
guayaquil
gue
guerau
guerra
guerre
guerrer
guerrera
guerrero
guerrers
guerres
guerrilla
guerriller
guerrillers
guerrilles
guevara
guez
guggenheim
guglielmo
gui
guia
guiar
guide
guido
guies
guifre
guila
guild
guillaume
guille
guillem
guillermo
guimera
guinardo
guinea
guineu
guingueta
guinness
guio
guionista
guionistes
guions
guipu
guipuscoans
guisa
guissona
guitar
guitarra
guitarres
guitarrista
guitarristes
guiu
guix
guixaire
guixaires
gujarat
gula
gules
gulf
gun
guns
gupta
gur
guru
gus
gust
gustau
gustav
gustave
gustavo
gustos
gutenberg
guthrie
gutie
guy
guyana
guzma
gyo
h
ha
haarlem
haas
hab
habana
haber
habilitat
habilitats
habita
habitacio
habitacions
habitada
habitades
habitant
habitants
habitar
habitat
habitatge
habitatges
habitats
habitaven
habiten
habitual
habitualment
habituals
habsburg
hac
hach
had
hadawi
hades
hagen
hagi
hagin
hague
haguera
hagueren
haguessin
hagut
hahn
hai
haia
haifa
hainaut
haiti
haja
hal
hale
haleakala
half
hall
halle
halo
halurs
ham
hama
hamburg
hamilton
hamlet
hammer
hammond
hampshire
hampson
hampton
han
hancock
hand
handbol
handbook
hanna
hannah
hannover
hanoi
hans
hansen
haplochromis
haplogrup
happy
hara
harald
harbor
harcourt
hard
hardcore
hardy
hare
harlem
harley
harmo
harmonia
harmony
haro
harold
harper
harriet
harris
harrison
harry
hart
hartmann
harvard
harvey
has
hasan
haskell
hassan
hasta
hastings
hat
hauia
haura
hauran
hauri
hauria
haurien
haut
haute
hautes
havana
have
haven
havent
haver
havi
havia
havien
hawaii
hawaiian
hawkins
hawks
haworthia
hay
haydn
hayes
hb
hbo
hc
hd
he
head
header
health
heart
hearts
heat
heath
heather
heaven
heavy
hebrea
hebreu
hebreus
hebron
hecta
hector
heemstra
hegemonia
heidelberg
height
heights
heimtierkunde
heinrich
heinz
hel
helen
helena
helfman
heli
helico
hell
hello
helmut
help
hem
hemeroteca
hemisferi
hemoglobina
hemorra
henares
henderson
hendrik
henri
henrik
henry
hepa
hepatitis
hepburn
her
hera
herald
herat
herba
herbert
herbes
herbi
hercegovina
here
heredia
heredita
hereditari
hereta
heretar
heretat
heretgia
hereu
hereus
hereva
heritage
herman
hermann
hermanos
herme
hermes
hermo
hermosa
herna
hernando
hero
herodes
heroes
heroi
heroica
herois
herre
herrera
herrero
herve
herzog
hessen
het
hetero
heu
hewitt
hexa
hexagonal
hg
hi
hidalgo
hidden
hidra
hidro
hidrocarburs
hidroele
hidrogen
hidrogra
hidrografia
hierarchy
hierro
higgins
high
higher
highway
higiene
hijo
hijos
hilaire
hilari
hilbert
hilda
hill
hills
hilton
him
hima
himmler
himne
himnes
hindi
hindu
hinduisme
hip
hiperbo
hipermercat
hipertensio
hipo
hipote
hiroshima
his
hisenda
hispa
hispana
hispaniola
hispano
hist
histo
histoire
historia
historiador
historiadora
historiadors
historial
historias
historic
historical
historieta
historietes
historiogra
historiografia
historique
history
hit
hitchcock
hitita
hitites
hitler
hits
hivern
hivernacle
hiverns
hl
hler
hm
hmad
hms
ho
hoboken
hoc
hockey
hoese
hoffman
hoffmann
hogwarts
hohenzollern
hokkaido
hola
holanda
holande
holandesa
holandesos
hold
holden
hole
holiday
holland
holly
hollywood
holmes
holocaust
holstein
holt
holy
hom
hombre
hombres
home
homenaje
homenatge
homenatges
homens
homer
homes
homi
homicidi
homme
homo
homofo
homoge
homogenei
homogeni
homosexual
homosexualitat
homosexuals
homs
hon
honda
hondures
hong
hongare
hongaresa
hongaresos
hongria
honolulu
honor
honorable
honorari
honorat
honore
honori
honoris
honors
honrat
hont
hood
hook
hop
hope
hopkins
hopper
hoquei
hora
horace
horaci
horacio
horari
horaris
horas
horda
hores
horitzo
horitzons
horitzontal
horitzontalment
horitzontals
hormona
hormones
horn
horrible
horror
horse
hort
horta
hortalisses
hortoneda
horts
horus
hospital
hospitalers
hospitalet
hospitals
host
hostal
hostatgeria
hoste
hostes
hostil
hostilitat
hostilitats
hostils
hot
hotel
hotels
houghton
hour
house
houston
houten
how
howard
howe
hoy
hp
hr
hrer
hrsg
htm
html
http
https
hu
hua
huang
huatl
hubble
huber
hubert
hudson
hue
huelva
hug
hugh
hughes
hugo
huguet
hui
hulk
hull
huma
human
humana
humanes
humanisme
humanista
humanistes
humanita
humanitari
humanitat
humanitats
humans
humbert
humboldt
hume
humida
humides
humil
humilitat
humils
humit
humitat
humits
humor
humori
humorista
humphrey
hun
huns
hunt
hunter
huraca
huracans
hureau
hurtado
husayn
hussein
huston
huxley
huygens
hwv
hyde
hyderabad
hypostomus
hyrule
hz
i
ia
iai
ian
iardes
ib
iba
ibarra
ibe
iberia
iberoamericana
ibers
ibi
ibid
ibm
ibn
ibrahim
ic
ica
icc
ice
ich
ichthyol
ichthyological
ichthyology
ico
icon
icona
icones
iconogra
iconografia
ictiologia
icv
id
ida
idaho
ide
idea
ideal
ideals
idear
ideari
ideas
ideat
idees
identifica
identificacio
identificada
identificades
identificador
identificar
identificat
identification
identificats
identifiquen
identitat
identitats
identity
ideolo
ideologia
ideologies
idi
idies
idioma
idiomes
ido
ids
ie
iec
ieee
iemen
ies
iev
if
iga
igle
iglesia
iglesias
ign
ignacio
ignasi
ignora
ignorant
ignorar
igo
igor
igual
igualada
igualar
igualment
iguals
igualtat
ii
iii
ij
ik
il
ile
iler
ili
illa
ille
illes
illinois
illot
illots
illustrated
ilustracio
im
ima
image
images
imagesize
imagina
imaginacio
imaginar
imaginari
imam
imatge
imatges
imdb
img
imita
imitacio
imitant
imitar
immaculada
immadur
immaterial
immediat
immediata
immediatament
immediats
immens
immensa
immersio
immigracio
immigrant
immigrants
imminent
immo
immobilia
immoble
immobles
immortal
immortalitat
immune
immunita
immunitari
immunitat
imp
impact
impactar
impacte
impactes
imparteix
impartir
impedeix
impedeixen
impedia
impedint
impedir
imperi
imperial
imperialisme
imperials
imperio
imperis
implantacio
implantar
implementacio
implementar
implementat
impli
implica
implicacio
implicacions
implicada
implicades
implicar
implicat
implicats
implicava
impliquen
imponent
import
importa
importacio
importacions
important
importants
importar
importats
imposa
imposada
imposades
imposant
imposar
imposat
imposicio
impossibilitat
impossible
impossibles
impost
impostes
impostos
impre
impremta
imprenta
impresa
imprescindible
impreses
impresos
impressio
impressionant
impressionants
impressionar
impressionat
impressions
impressor
impressora
imprimir
improbable
improvisacio
impuls
impulsa
impulsada
impulsar
impulsat
impulsor
impulsors
impulsos
impureses
in
ina
inacabada
inacabat
inactiu
inactius
inactives
inaugura
inauguracio
inaugurada
inaugural
inaugurar
inaugurat
inc
inca
incapac
incapacitat
incendi
incendiar
incendis
incert
incerta
incertesa
incide
incident
incidents
incipient
incitar
inclinacio
inclinada
inclinar
inclinat
inclo
incloent
inclogue
incloi
inclosa
incloses
inclosos
inclou
inclouen
incloure
inclu
including
inclusio
inco
incompatible
incomplet
incompleta
incompliment
incondicional
inconscient
inconvenient
inconvenients
incorpora
incorporacio
incorporada
incorporades
incorporant
incorporar
incorporat
incorporats
incorporava
incorporen
incorrecta
incorrecte
increi
increment
incrementa
incrementant
incrementar
incrementat
incubacio
incursio
incursions
indefinidament
indemnitzacio
independe
independence
independent
independentista
independentistes
independentment
independents
independiente
independitzar
indeterminat
index
indi
india
indian
indiana
indianapolis
indians
indica
indicacio
indicacions
indicada
indicador
indicadors
indicant
indicar
indicat
indicatiu
indicava
indicis
indie
indignacio
indiquen
indirecta
indirectament
indirecte
indirectes
indis
indiscutible
indispensable
indistintament
individu
individual
individualment
individuals
individus
indo
indone
indonesia
indoor
indoxina
indre
indret
indrets
indu
induccio
indueix
indui
induir
indumenta
indus
industria
industrial
industrialitzacio
industrials
industries
industry
ine
inesperada
inesperat
inestabilitat
inestable
inevitable
inexistent
infa
infant
infanta
infanteria
infantesa
infantil
infantils
infants
infart
infeccio
infeccions
infeccioses
infectades
infectats
inferior
inferiors
infermera
infermeria
infern
infinit
infinita
infinitat
inflacio
inflamacio
inflamato
inflexio
infloresce
influe
influeix
influeixen
influencia
influenciada
influenciar
influenciat
influent
influents
influi
influir
info
informa
informacio
informacions
informal
informant
informar
informat
information
informatiu
informatius
informativa
informe
informen
informes
infotaula
infraccio
infraestructura
infraestructures
infraroig
infraroja
infty
inge
ingesta
ingestio
ingle
ingre
ingredient
ingredients
ingressa
ingressar
ingressos
ingrid
inherent
inhibeix
inhibicio
inhibidor
inhibidors
inici
inicia
iniciacio
iniciada
inicial
inicialment
inicials
iniciant
iniciar
iniciaren
iniciat
iniciativa
iniciatives
iniciava
inicien
inicis
injeccio
injusti
inland
innecessa
innoce
innocenci
innocent
innocents
innombrables
innovacio
innovacions
innovador
innovadora
innovadores
innovadors
innsbruck
inofensiu
inorga
inques
inquisicio
inquisidor
inreve
ins
inscripcio
inscripcions
inscrit
inscrita
inscrits
inscriu
inscriure
insecte
insectes
insects
insee
insercio
insereix
inserir
insert
insi
inside
insiste
insisteix
insistir
inso
inspeccio
inspector
inspira
inspiracio
inspirada
inspirades
inspirant
inspirar
inspirat
inspirats
inst
insta
instagram
instal
instant
instanta
instar
instauracio
instaurar
instint
institucio
institucional
institucionals
institucions
institui
instituir
institut
institute
institution
instituto
instituts
instruccio
instruccions
instructor
instrui
instrument
instrumentacio
instrumental
instrumentals
instruments
insuficie
insuficient
insular
insulars
insulina
insults
insurgents
insurreccio
int
intacta
intacte
intactes
inte
integra
integracio
integrada
integrades
integral
integrals
integrant
integrants
integrar
integrat
integrats
integraven
integren
integritat
intel
intelligence
intencio
intencions
intende
intendent
intens
intensa
intensament
intenses
intensificar
intensitat
intensiva
intensos
intent
intenta
intentant
intentar
intentaren
intentat
intentava
intentaven
intenten
intents
inter
interaccio
interaccions
interactiu
interactive
intercanvi
intercanviar
intercanvis
interceptar
intercontinental
intere
interessa
interessada
interessades
interessant
interessants
interessar
interessat
interessats
interessos
interestel
interfere
interferir
interfi
interi
interior
interiors
interme
intermedi
intermediari
intermedis
intermitent
intern
interna
internacional
internacionalment
internacionals
internament
internat
international
internationale
internes
internet
interns
interpreta
interpretacio
interpretacions
interpretada
interpretades
interpretant
interpretar
interpretat
interpretats
interpretava
interpreten
interrompre
interrompuda
interromput
interrupcio
interrupcions
interseccio
interval
intervals
interve
intervencio
intervencions
intervenen
intervenir
interview
intervingue
intervingut
intesti
intestinal
intimitat
into
intoxicacio
intracel
intri
intriga
intrigues
introduccio
introduction
introdueix
introdueixen
introdui
introduint
introduir
intui
inu
inuit
inundacio
inundacions
inusual
inusuals
invasio
invasions
invasores
invasors
invencio
invent
inventa
inventada
inventar
inventari
inventat
inventor
inventors
invents
invers
inversa
inversio
inversions
inversors
invertebrats
invertida
invertir
invertit
investidura
investiga
investigacio
investigaciones
investigacions
investigador
investigadora
investigadors
investigant
investigar
investigat
investit
invisible
invitacio
involucra
involucrada
involucrar
involucrat
involucrats
io
iode
ioga
ion
ions
ios
iowa
ip
iphone
ipv
ir
ira
iradibot
iran
irania
iraniana
iranians
iraq
iraquia
iraquians
ire
ireland
irene
iris
irish
irlanda
irlande
irlandesa
irlandesos
iro
iron
ironia
irregular
irregularitats
irregulars
irrigacio
irun
irving
is
isa
isaac
isabel
isabella
isabelle
isbn
ise
isfahan
isia
isidor
isidre
isidro
isis
iskandar
isla
islam
islamic
islamistes
island
islande
islands
islas
isle
ismael
ismai
ismail
isme
isnb
iso
isona
israel
israelia
israeliana
israelianes
israelians
iss
issn
issue
ist
ista
istanbul
istat
istes
istme
it
ita
italia
italian
italiana
italianes
italiani
italiano
italians
italo
italy
itat
item
itinerant
itinerari
itineraris
its
itunes
iu
iucn
iugosla
iugoslau
iugoslaus
iugoslava
iuri
ius
iv
iva
ivan
ivie
ivori
iwamoto
ix
ixer
ixola
iz
izquierda
izquierdo
j
ja
jac
jaca
jaciment
jaciments
jacint
jacinto
jack
jackie
jackson
jacob
jacobs
jacopo
jacqueline
jacques
jade
jae
jaguar
jahan
jaime
jake
jakob
jam
jamaica
james
jamie
jan
jana
jane
janeiro
janet
january
japan
japanese
japo
japone
japonesa
japoneses
japonesos
jaqueta
jar
jardi
jardineria
jardins
jason
jaume
java
javascript
javi
javier
jay
jazz
je
jean
jeanne
jedi
jeff
jefferson
jeffrey
jehova
jena
jenkins
jennifer
jenny
jens
jensen
jera
jerarquia
jeremy
jerez
jero
jerogli
jerome
jeroni
jerry
jersey
jerusalem
jesse
jessica
jesu
jesucrist
jesui
jesus
jet
jeu
jeune
jewish
jey
ji
jia
jiang
jill
jim
jime
jimmy
jin
jnict
jo
joa
joachim
joan
joana
joanjoc
joanna
joanot
joaqui
joaquim
joaquin
job
joc
jocque
jocs
joe
joel
joey
jofre
joguina
joguines
johan
johann
johanna
johannes
johannesburg
john
johnny
johns
johnson
johnston
joia
joieria
joies
join
joint
jon
jonas
jonathan
jones
jong
jorda
jordan
jordana
jordi
jordicollcosta
jorge
jorn
jornada
jornades
jose
josef
josefa
josefina
josep
josepa
joseph
josephine
josh
joshua
jota
jou
jour
journal
journey
jours
jove
jovent
joventut
joventuts
joves
joy
joyce
jp
jpeg
jpg
jr
js
ju
jua
juan
juana
jubilacio
jubilades
jubilar
jubilat
juda
judaisme
judea
judes
judesba
judici
judicial
judicials
judicis
judit
judith
judo
judy
juego
jueu
jueus
jueva
jueves
juga
jugabilitat
jugada
jugades
jugador
jugadora
jugadores
jugadors
jugant
jugar
jugat
jugats
jugava
juguen
jul
jules
juli
julia
julian
juliana
julie
julien
julieta
juliette
julio
juliol
julius
july
jump
jun
june
jung
jungla
jungle
juni
junio
junior
juniors
juno
junt
junta
juntament
juntes
junts
juny
junyent
jura
jurament
jurar
jurat
jurats
juri
jurisdiccio
jurisdiccions
jurisprude
jurista
juristes
jussa
just
justa
justament
justi
justice
justicia
justifica
justificacio
justificar
justify
justin
justinia
justo
jutge
jutges
jutgessa
jutjar
jutjat
jutjats
juvenil
juvenils
juventud
juventus
k
ka
kabul
kahn
kai
kailola
kaiser
kalanchoe
kali
kamtxatka
kan
kanat
kane
kang
kans
kansas
kant
kara
karate
karel
karen
karim
karin
karl
karlsruhe
karnataka
karrer
kart
kaspa
kassel
kate
katherine
kathleen
katie
kaufman
kaunas
kay
kazakh
kazakhs
kazakhstan
kazan
kb
ke
keaton
keep
keith
keller
kelly
ken
kennedy
kenneth
kenny
kent
kentucky
kenya
kepler
kerr
kerry
kevin
key
keynes
keys
keyserling
kg
kha
khalil
khan
khmer
khoja
khorasan
khov
khrusxov
khu
khurasan
khwarizm
khz
ki
kid
kids
kiel
kill
killer
killing
kilo
kim
kind
king
kingdom
kings
kingston
kippelboy
kirby
kirguizistan
kirk
kirman
kiss
kit
kita
kitt
kitty
klaus
klein
km
knight
knights
know
knowledge
known
knox
ko
kobayashi
koch
kodak
kofi
kon
kong
konrad
korea
korean
kos
kosovo
kottelat
kov
kova
kra
kramer
krasnodar
krasnoiarsk
kremlin
krls
krupp
ktor
ku
kuban
kubrick
kullander
kung
kunst
kurd
kurda
kurdistan
kurds
kurt
kuwait
kv
kw
ky
kyle
kyo
kyoto
l
la
lab
laba
label
laberint
labes
labor
labora
laboracio
laboracions
laborador
laboradora
laboradors
laboral
laborals
laborant
laborar
laborat
laboratori
laboratoris
laboratory
laborista
labrador
labridae
labs
lac
lachner
laci
lacio
lacions
lacta
lada
lades
ladi
ladies
ladislau
lado
lador
lady
lag
laga
lago
lagos
lagrange
lags
laguna
lah
lahore
lai
laia
laic
laica
laics
lake
lakers
lakes
lam
lama
lamb
lambda
lambert
lament
lampisteria
lampisteries
lan
lana
lancashire
lancaster
lance
land
landa
landes
lane
lang
lange
langle
language
languages
langue
lanka
lant
lao
laos
lapse
lar
lara
laren
large
largo
larry
lars
larson
larus
larva
larves
las
lasioglossum
last
lat
late
latent
later
latera
lateral
lateralment
laterals
latin
latina
latitud
latituds
lats
laura
lauren
laurence
laurent
laurie
lausana
lava
laval
law
lawrence
layer
lb
lbum
lbums
lc
lcd
lcul
lculs
ld
ldic
ldica
ldots
le
lea
leader
league
leal
leandro
learning
leb
leben
lebre
lebres
leccio
leccionista
leccionistes
leccions
lectiu
lectius
lectiva
lectivament
lectives
lectivitat
lector
lectors
lectual
lectuals
lectura
lectures
led
lee
leeds
left
leg
lega
legacy
legal
legalitat
legalitzacio
legalment
legals
legant
legar
legat
legend
legends
legi
legiata
legio
legionaris
legions
legis
legislacio
legislatiu
legislativa
legislatives
legislatura
legislatures
legitimitat
lego
legoria
legs
legues
leguminosae
lei
leibniz
leica
leicester
leiden
leigh
leipzig
leita
lel
lela
lelament
leles
lelisme
lels
lem
lema
lemmon
len
lena
length
lengua
lenguas
leni
lenin
leningrad
lenni
lennon
lens
lent
lenta
lentament
lents
leo
leon
leonard
leonardo
leone
leonid
leonor
leopold
leopoldo
lepido
leptictidium
leq
ler
lera
les
lesa
lesbiana
lesbianes
lesio
lesionat
lesions
leslie
lesos
lester
let
letal
leto
letons
letras
letter
letters
lettres
leuce
lev
levante
level
levi
levy
lewis
lex
lexicon
lexikon
ley
leyenda
lez
lfia
lg
lgar
lgara
lgars
lgbt
lgebra
lgia
lgica
lgid
li
lia
liang
lib
libe
liber
liberal
liberalisme
liberals
liberation
libertad
liberty
library
libre
libri
libro
libros
lic
lica
licament
lice
liceu
licini
licita
licitar
licitat
licitud
licituds
lico
licor
lics
lid
lida
lidera
liderada
liderar
liderat
lideratge
liderats
lides
lids
lie
liebe
liechtenstein
lied
lieder
lieja
lies
life
liga
lige
ligent
ligents
light
lightgrey
ligne
ligrafia
ligu
ligue
lik
like
lil
lila
lilla
lille
lily
lim
lima
limburg
limfa
limfo
limi
limita
limitacio
limitacions
limitada
limitades
limitant
limitar
limitat
limitats
limitava
limited
limiten
limits
lin
lina
linares
lincoln
linda
lindsay
line
lineal
lineals
linear
lines
ling
lingu
lingua
linguistics
link
links
linnaeus
linne
lins
linux
lio
lion
lionel
lions
liques
liquidacio
lir
lira
lis
lisa
lisboa
lisi
lisio
lisis
list
lista
listes
listing
liszt
lit
lita
litat
lite
litera
literal
literalment
literari
literaria
literaris
literary
literatura
literature
liti
litigi
lito
litoral
litres
lits
litte
little
litu
litua
lituana
lituans
litza
liu
live
liverpool
lives
livi
living
livo
livre
lix
ljubljana
ll
lla
llac
llach
llacs
llacuna
llacunes
llada
llades
llado
lladre
lladres
llagostera
llament
llamp
llana
llanc
llances
llano
llant
llanterna
llapis
llar
llarg
llarga
llargada
llargmetratge
llargmetratges
llargs
llargues
llars
llat
llati
llatina
llatines
llatinoame
llatinoamerica
llatinoamericans
llatins
llats
llau
llauto
llavi
llavis
llavor
llavors
lle
llebre
llegat
llegats
llegeix
llegenda
llegendari
llegendes
llegint
llegir
llegit
llegums
llei
lleial
lleials
lleialtat
lleida
lleidatans
lleis
llemosi
llemotges
llenc
llengu
llengua
llenguadoc
llenguatge
llenguatges
llenya
lleo
lleons
ller
llera
lles
llest
llet
lletra
lletres
lleu
lleuger
lleugera
lleugerament
lleugeres
lleugers
lleure
lleus
lleva
llevant
llevar
llevat
llevats
lli
llibertari
llibertat
llibertats
llibre
llibreria
llibreries
llibres
llibret
llic
llice
llicencia
llicenciada
llicenciar
llicenciat
llicenciatura
lliga
lligada
lligades
lligadura
lligam
lligams
lligar
lligat
lligats
lligues
llimona
llinatge
llinatges
llinda
llindar
llindes
llis
llisa
llises
llisos
llista
llistat
llistats
llistes
llit
llitera
llits
lliura
lliurada
lliurament
lliurar
lliurat
lliurats
lliure
lliurement
lliures
llo
lloar
llobera
llobet
llobregat
lloc
lloch
llocs
lloctinent
llogar
llogaret
llogarets
llogat
llogaters
llogats
lloguer
llombard
llombardia
llombards
llop
llops
llorca
llorenc
llorens
llorente
llorer
lloret
llosa
lloses
llotja
lloyd
llu
lluc
lluch
llucmajor
lluentor
llui
lluis
lluita
lluitador
lluitadors
lluitant
lluitar
lluitat
lluitava
lluitaven
lluiten
lluites
llull
llum
llumino
lluminosa
lluminositat
llums
lluna
llunes
llunetes
lluny
llunya
llunyana
llunyans
llur
llurs
ln
lnius
lo
lobo
loc
loca
locacio
locada
locades
local
localitat
localitats
localitza
localitzacio
localitzacions
localitzada
localitzades
localitzar
localitzat
localitzats
localitzen
localment
locals
locant
locar
locat
location
locats
loch
locke
lockheed
loco
locomotora
locomotores
locus
locutor
locutors
lodi
log
loga
logan
logement
logements
logi
logic
logo
logos
logotip
logronyo
logues
lohen
loi
loir
loira
loire
loiret
lois
lok
lola
lom
lon
lond
londinencs
london
londres
lonely
loneos
long
longevitat
longitud
longitudinal
longitudinals
longituds
longrightarrow
loni
look
looking
lope
lopez
loquen
lorca
lord
lords
lorena
lorenzo
loreto
lori
lorica
loricariidae
los
lost
lot
lotari
lotus
lou
louis
louise
louisiana
lourdes
louvre
lov
lovaina
love
loves
low
lowe
lower
lozano
lp
ls
lsinki
lt
ltd
ltic
ltica
ltics
ltim
ltima
ltimes
ltimo
ltims
ltiple
ltiples
ltiques
lu
lua
luanda
luc
luca
lucas
lucca
lucena
luci
lucia
luciano
lucien
lucio
lucius
lucknow
lucky
lucre
lucy
ludeix
ludovico
ludwig
luftwaffe
lugo
lui
luigi
luis
luisa
luke
lula
lular
lulars
lules
lulosa
lulu
lum
lumie
lumina
luminacio
luminar
luminat
luna
lunar
lunars
lund
lune
lur
lus
luscs
lusignan
lusio
lusions
lustra
lustracio
lustracions
lustrada
lustrador
lustradors
lustrar
lustrat
lustrats
lustre
lustres
luter
luterana
luther
lux
luxe
luxembourg
luxemburg
luxemburgue
luz
lv
lvarez
lvaro
lvez
lvia
lviv
lvora
lvula
lvules
ly
lyce
lydia
lynch
lynn
lynx
lyon
m
ma
maastricht
mabel
mac
macau
macba
macbeth
macdonald
macedo
macedoni
macedonis
maces
mach
machado
machine
maci
macia
macintosh
mack
mackenzie
macmillan
macro
macrouridae
mad
mada
madagascar
madame
made
madeira
madeleine
mades
madison
madonna
madoz
madre
madrid
madrileny
madrilenya
madrilenys
madrona
madur
madura
maduracio
maduresa
mae
maestrat
maestro
mag
magallanes
magatzem
magatzems
magazine
magda
magdalena
magdeburg
maggie
magi
magic
magister
magisteri
magistrat
magistrats
magma
magna
magne
magnesi
magneto
magni
magnitud
magnituds
magnus
mago
magrana
magrib
mags
magu
maha
maharaja
maharashtra
mahdi
mahler
mahmud
mahoma
mai
maia
maies
maig
mail
maillot
main
maine
maire
maison
majestat
major
majordom
majoria
majorita
majoritari
majorment
majors
maju
make
maker
making
mal
mala
malabarba
malaia
malalt
malalta
malaltia
malalties
malalts
malament
malatesta
malauradament
malawi
malaysia
malbe
malcolm
malden
maldives
maldonado
male
malediccio
malei
males
malestar
malgrat
mali
malik
mall
malla
mallorca
mallorques
mallorqui
mallorquina
mallorquins
mallot
malme
malmesa
malmo
malnom
malo
mals
malta
malvat
malvines
malwa
mama
mameluc
mamelucs
mami
mammals
man
mana
manacor
management
manager
manar
manat
manca
mancances
mancava
mancha
manche
manchester
mancomunitat
mandari
mandat
mandats
mandela
mandi
maneig
manejar
manel
manent
manera
maneres
manfred
manga
mangane
mangues
manhattan
mani
manifest
manifesta
manifestacio
manifestacions
manifestants
manifestar
manifestat
manifesten
manila
maniobra
maniobres
manipulacio
manipular
manitoba
manlleu
manlleus
mann
mannheim
manning
mano
manolo
manquen
manresa
mans
mansio
mansur
mante
mantega
mantell
mantenen
mantenia
mantenien
manteniment
mantenint
mantenir
mantes
mantindra
mantindria
mantinguda
mantingue
mantingueren
mantingut
manu
manual
manualment
manuals
manuel
manuela
manufactura
manuscrit
manuscrits
manxa
manxu
many
mao
maons
maori
map
mapa
mapes
maps
maputo
maqueta
maquetes
maquillatge
maquina
maquinari
mar
mara
maragall
maratha
marathes
marato
marbre
marc
marca
marcada
marcades
marcador
marcadors
marcant
marcar
marcat
marcats
marcava
marcel
marcelino
marcello
marcelo
marcgravi
march
marche
marcia
marcial
marcials
marco
marcos
marcs
marcus
mare
marea
marees
marenda
mares
maresme
margalida
margaret
margarida
margarit
margarita
marge
marges
marginal
marginals
marguerite
mari
maria
marian
mariana
marianne
mariano
marie
marilyn
marin
marina
marine
mariner
mariners
marines
marino
marinos
marins
mario
marion
marisa
marisalr
mariscal
marit
marits
marius
mark
market
marlborough
marne
marque
marquen
marques
marquesa
marquesat
marquesos
marra
marro
marroc
marrons
marroqui
marroquins
mars
marseille
marsella
marsh
marshall
mart
marta
martell
martha
marti
martin
martina
martinet
martinez
martini
martinica
martino
martiri
martorell
marty
marvel
marvin
marx
marxa
marxant
marxar
marxat
marxes
marxisme
marxista
marxistes
mary
maryland
marzo
mas
mascle
mascles
mascota
mascotes
masculi
masculina
masculines
masculins
masia
masies
masnou
maso
mason
masos
mass
massa
massachusetts
massacre
massacres
massana
masses
massi
massimo
massiu
massius
massiva
massives
master
masters
masud
mat
mata
matanc
matant
matar
mataro
matas
matat
match
mate
mateix
mateixa
mateixes
mateixos
matema
maten
mateo
mater
materia
material
materialisme
materialitzar
materials
matern
materna
maternal
maternitat
mates
mateu
math
mathbb
mathbf
mathcal
mathematical
mathematics
mathieu
mathrm
mati
maties
matilda
matilde
matinada
matisos
mato
matollars
matolls
matri
matricular
matrimoni
matrimonial
matrimonials
matrimonis
matriu
matrius
matrix
matt
matteo
matter
matthew
matthews
matthias
matx
maura
mauri
maurice
maurici
mauricio
maurita
maurizio
mauro
mausoleu
max
maxil
maxim
maximilia
maxwell
may
maya
mayenne
mayer
mayo
mayor
mazda
mb
mbia
mbic
mbit
mbits
mbol
mbols
mbosch
mbox
mbra
mbria
mbul
mc
mcallister
mccarthy
mccartney
mcdonald
mcgraw
mclaren
md
me
meaux
meca
mecanisme
mecanismes
mecanitzacio
mecenes
mecklenburg
med
meda
medal
medalla
medaller
medalles
medallista
medallistes
medallo
medallons
medea
medelli
medes
medi
media
mediacio
mediador
mediambiental
mediambientals
mediana
mediawiki
medical
medicament
medicaments
medici
medicina
medicinal
medicinals
medicine
medieval
medievals
medina
medio
medis
meditacio
mediterra
mediterranean
mediterrani
mediterranis
medol
medul
medusa
meet
meeting
mega
megali
mehmed
mehmet
mei
meiji
mein
meitat
meitats
mejor
mekong
mel
melanie
melbourne
meldor
mele
melilla
melissa
melle
mello
melo
melodia
melodies
melodrama
melville
mem
membrana
membranes
membre
membres
memo
memoire
memoirs
memoria
memorial
memorias
memory
memphis
men
mena
mencio
menciona
mencionada
mencionar
mencionat
mencions
mendelssohn
mendes
mendoza
mene
menes
menezes
mengen
menja
menjador
menjar
menjars
menjat
menor
menorca
menors
menos
mens
mensual
mensuals
ment
mental
mentalitat
mentals
mentida
mentides
mentor
mentre
mentres
mentrestant
ments
menu
menuda
menut
menys
menyspreu
mequinensa
mer
mera
merament
meravelles
mercadal
mercader
mercaderia
mercaderies
mercaders
mercant
mercantil
mercants
mercat
mercats
merce
mercedes
mercenaris
mercer
mercuri
mercury
mere
mereix
mereixen
meres
mergus
meridia
meridional
meridionals
merino
merle
merlets
merli
mero
meros
mers
mes
mesa
mescla
mescles
mesi
mesoame
mesopota
mesos
mesquita
mesquites
message
messe
messi
messies
messina
mestalla
mestra
mestratge
mestre
mestres
mestressa
mesura
mesurada
mesurament
mesuraments
mesurar
mesurat
mesurava
mesuren
mesures
met
meta
metabo
metabolisme
metacritic
metadades
metafi
metal
metall
metallica
metalls
metastasio
metel
meteorit
meteorits
meteorolo
meteorologia
metes
metge
metges
metgessa
method
metil
metodolo
metodologia
metralladora
metralladores
metre
metres
metro
metropolita
metropolitan
metropolitana
metz
meu
meua
meurthe
meus
meva
meves
mexica
mexicana
mexicano
mexicans
mexico
meyer
meyrick
mez
mezzosoprano
mfasi
mg
mgm
mhz
mi
mia
miami
mic
mica
micament
mice
mich
michael
michel
michelangelo
michele
michelle
michigan
mick
mickey
mico
micos
micro
microones
microorganismes
microsco
microscopi
microsoft
mics
mid
mida
middle
mide
mides
midi
midnight
mido
mids
mie
mies
mifflin
mig
migcampista
migdia
migjorn
migracio
migracions
migrants
migrato
miguel
mike
mikel
mikhai
mikhail
mil
mila
milan
milano
mile
miler
milers
miles
milet
mili
milicians
milio
milions
milita
militant
militants
militar
militarment
militars
military
mill
milla
millars
mille
miller
milles
millet
millidge
million
millor
millora
millorada
millorant
millorar
millorat
milloren
millores
millors
mills
milo
milos
mils
milton
milwaukee
mimi
min
mina
minas
mind
mine
miner
minera
mineral
mineralo
mineralogia
minerals
mineres
mineria
miners
minerva
mines
ming
minh
mini
miniatura
miniatures
minimitzar
minise
ministeri
ministerial
ministerio
ministeris
ministra
ministre
ministres
ministry
minneapolis
minnesota
minor
minoria
minories
minorita
minsk
minu
minut
minutos
minuts
minyons
mio
miocardi
mioce
miquel
miques
mir
mira
miracle
miracles
mirada
mirador
mirall
miralles
miralls
miran
miranda
mirant
mirar
mirat
miravet
mireia
miren
mireu
miriam
miro
mirror
mirza
mis
misc
miscel
mise
miserico
mismo
miss
missa
missatge
missatger
missatgers
missatges
misses
missing
missio
mission
missioner
missioners
missions
mississipi
mississippi
missouri
misteri
misterio
misteriosa
misteris
mit
mitchell
mite
mites
mitgeres
mitges
mitj
mitja
mitjan
mitjana
mitjanc
mitjanes
mitjanit
mitjans
mito
mitocondrial
mitolo
mitologia
mitra
mitridates
mits
mitsubishi
mix
mixt
mixta
mixtes
mixtos
mixts
mk
ml
mm
mmad
mn
mnac
mnium
mo
mobile
mobiliari
mobilitat
mobilitzacio
mobilitzar
moble
mobles
moc
mocador
mocio
mod
moda
modalitat
modalitats
mode
model
modelar
modelat
modelatge
models
moderada
moderat
moderats
modern
moderna
modernament
moderne
modernes
modernisme
modernista
modernistes
modernitat
modernitzacio
modernitzar
moderns
modes
modest
modesta
modifica
modificacio
modificacions
modificada
modificades
modificant
modificar
modificat
modificats
modo
modulacio
modular
module
mogol
mogols
mogut
mohamed
mohammad
mohammed
mohs
moi
moia
moiane
moire
moires
moise
mol
mola
molar
molda
mole
molecular
moleculars
moles
molestar
moli
molie
molina
moliner
molins
moll
molla
mollerussa
mollet
mollo
molls
molly
mols
molt
molta
moltes
molti
molto
molts
moluques
moment
momenta
moments
mon
mona
monaco
monarca
monarques
monarquia
monarquies
mondadori
monde
mondo
moneda
monedes
monestir
monestirs
moneta
monetari
money
monges
mongo
mongol
mongola
mongols
monica
monistrol
monitor
monitors
monja
monjo
monjos
monkey
mono
monocli
monogra
monografia
monografies
monoli
monoparentals
monopoli
monoti
monroe
mons
monsenyor
monsieur
monso
monster
monsters
monstre
monstres
mont
montagut
montalba
montan
montana
montaner
montanya
montblanc
montbui
montcada
monte
montecarlo
montenegro
montero
monterrey
montes
montesa
monteverdi
montevideo
montferrat
montferrer
montfort
montgomery
montgri
month
monthly
monti
montjui
montoliu
montpeller
montreal
monts
montsant
montse
montsec
montseny
montserrat
montsia
monty
monument
monumental
monumentals
monuments
moon
moore
mor
mora
moral
morales
moralitat
morals
moran
morato
more
moreau
morell
morella
moren
morena
moreno
morera
morfolo
morfologia
morgan
mori
moria
morint
morir
moriren
moriria
moriscos
moritz
morning
moro
moros
morris
morrison
morro
morse
mort
morta
mortal
mortalitat
mortals
morte
morter
morters
mortes
morton
morts
mos
mosa
mosaic
mosaics
mosca
moscou
moscow
mosel
moses
mosques
moss
mossa
mosse
mossos
mossul
most
mostra
mostrant
mostrar
mostrat
mostrava
mostraven
mostreig
mostren
mostres
mot
mota
motets
mother
moti
motion
motiu
motius
motivacio
motivacions
motivar
motivat
motlle
motlles
motllura
motllurada
motllurat
motllures
moto
motocicleta
motocicletes
motociclisme
motocro
motor
motors
motos
motriu
mots
mou
mouen
mount
mountain
mountains
moure
mouse
mov
move
movement
movent
movie
movies
moviment
moviments
movimiento
moya
mozart
mozilla
mp
mpada
mpades
mpeg
mpia
mpic
mpica
mpics
mpiques
mpla
mplia
mpliament
mplies
mptoma
mptomes
mr
mrac
mrs
ms
msnm
mt
mtv
mu
much
mucosa
muda
mudar
mude
mudes
muerte
muha
muhammad
mujer
mujeres
mul
mula
mules
mulk
muller
muls
multa
multi
multijugador
multime
multinacional
multiplicacio
multiplicar
multitud
mun
mundi
mundial
mundialment
mundials
mundo
munic
munich
municio
municions
municipal
municipalitat
municipals
municipi
municipis
munt
munta
muntada
muntaner
muntants
muntanya
muntanyenc
muntanyenca
muntanyes
muntanyo
muntanyosa
muntanyoses
muntar
muntat
muntatge
muntatges
muntats
muntura
mur
mura
murad
mural
muralla
muralles
murals
murat
murcia
murder
murillo
muro
murphy
murray
murs
mus
musa
musaranya
muscular
musculars
muse
musei
musell
museo
museociclismo
museu
museum
museus
music
musica
musical
musicalment
musicals
musicians
musico
musik
musique
mussa
mussol
mussolini
must
mustafa
musulma
musulmana
musulmanes
musulmans
mut
mutacio
mutacions
mutant
mutants
mutu
muy
mv
mvp
mw
mx
my
myanmar
myctophidae
myers
mystery
mythology
n
na
nabla
nach
nacho
nacio
nacional
nacionalisme
nacionalista
nacionalistes
nacionalitat
nacionalitats
nacionals
nacions
naco
nad
nada
nadal
nadan
nadia
nadie
nadir
nadiu
nadiua
nadius
nado
nadons
nadu
naga
nagasaki
nager
nages
nai
nairobi
naix
naixement
naixements
naixent
nakamura
nal
nam
name
names
nami
nams
namur
nan
nana
nancy
nanes
nans
nantes
naomi
napoleo
napoli
nar
nara
narbona
narci
narcissus
narra
narracio
narracions
narrador
narratiu
narrativa
narratives
narva
nas
nasa
nasal
nasals
nascuda
nascut
nascuts
nash
nashville
nasir
nasque
nasqueren
nasr
nassau
nasser
nat
nata
natacio
natal
natalia
natalie
natalitat
nathalie
nathan
nation
national
nationale
nations
natiu
natius
nativa
native
natives
nativitat
natl
nats
natur
natura
naturae
natural
naturales
naturalesa
naturalis
naturalisme
naturalista
naturalistes
naturalment
naturals
nature
naturelle
natzaret
nau
naufragi
naus
nava
navajo
naval
navals
navarra
navarre
navarresos
navarro
navas
nave
navegable
navegacio
navegador
navegadors
navegant
navegants
navegar
navili
navy
nawab
naxos
nazi
nazionale
nazis
nazisme
nba
nbc
nberg
nc
ncaa
ncep
nceps
ncer
ncers
nchen
nchez
ncia
ncies
ncipe
ncrees
ncton
nd
ndal
ndals
ndalus
ndard
ndards
nde
ndel
ndem
nder
ndex
ndexs
ndez
ndia
ndic
ndida
ndies
ndix
ndol
ndols
ndor
ndric
ndrica
ndriques
ndrome
ndula
ndules
ndum
ne
nea
neal
near
neat
neboda
nebot
nebraska
nebre
nebulosa
nec
neca
necessa
necessari
necessaris
necessita
necessitar
necessitat
necessitats
necessitava
necessitaven
necessiten
nech
necro
necrolo
necs
ned
nedador
nedadora
nedadores
nedadors
nedar
need
neerlande
neerlandesa
neerlandeses
neerlandesos
nega
negacio
negar
negat
negatiu
negatius
negativa
negativament
negatives
negava
negoci
negociacio
negociacions
negociar
negocis
negra
negre
negres
negreta
negri
negro
neguen
neil
neill
neix
neixen
nel
nell
nella
nels
nelson
nem
nen
nena
nenes
nens
neo
neocla
neoclassicisme
neogo
neoli
neopla
neotropical
nepal
neptu
neptune
ner
nere
neres
neri
nero
nervi
nervio
nerviosa
nervis
nes
nesa
neses
nesi
nesos
net
neta
neteja
netejar
netflix
neto
nets
network
neu
neue
neuilly
neumann
neuro
neurolo
neuronal
neuronals
neurones
neus
neutral
neutralitat
neutralitzar
neutrals
neutre
neutres
neutro
neutrons
neuville
nevada
never
nevers
neville
new
newcastle
newman
newport
news
newton
next
nez
nf
ng
ngc
ngel
ngela
ngeles
ngels
nger
ngia
nguez
nguyen
nh
ni
nia
niament
nic
nica
nicament
nicaragua
nicas
niccolo
nice
nicea
nicholas
nichols
nicholson
nicht
nick
nickel
nico
nicola
nicolas
nicolau
nicole
nicos
nics
nid
nida
nides
nids
nie
nielsen
niem
nies
nieto
nietzsche
nig
nige
nigel
niger
nigeria
night
nights
nigra
nigsberg
nigues
nikita
nikola
nikolai
nikon
nil
nilo
nilsson
nim
nima
nime
nimes
nimfa
nimfes
nimo
nims
nin
nina
nine
nines
ningu
ninja
nino
nintendo
nio
nior
niques
nirvana
nis
nissaga
nissan
nit
nita
nitrat
nitrogen
nits
niu
nius
nivell
nivells
nix
nixon
niz
nizam
nj
nk
nkvd
nl
nm
no
noaa
noah
nobel
nobiliari
noble
nobles
noblesa
nobunaga
noces
noche
nocio
nocions
nocturn
nocturna
nocturnes
nocturns
nodc
node
nodes
noe
noel
nogensmenys
nogue
noguera
noi
noia
noies
noir
noire
nois
nokia
nol
nola
nolan
nols
nom
noma
nombre
nombres
nombro
nombrosa
nombroses
nombrosos
nome
nomena
nomenada
nomenament
nomenant
nomenar
nomenat
nomenats
nomencla
nomenclatura
nomenclature
nomes
nominacio
nominacions
nominada
nominal
nominalment
nominat
nominats
noms
non
none
nons
nor
nora
noranta
norbert
nord
norfolk
norma
normal
normale
normalitat
normalitzacio
normalment
normals
norman
normand
normanda
normandia
normands
normatiu
normativa
normatives
normes
norte
north
northern
northu
northwest
northwestern
norton
noruec
noruecs
noruega
norwich
nos
nosaltres
nosta
nostra
nostre
nostres
not
nota
notabilitat
notable
notablement
notables
notacio
notar
notari
notas
note
notes
nothing
noti
noticia
noticias
noto
notoc
notorietat
notre
notte
nottingham
nou
noucentisme
noucentista
noucentistes
nous
nouveau
nouvelle
nouvelles
nouvinguts
nov
nova
novaiorquesos
novament
novas
nove
novel
novela
novell
novells
november
novembre
novena
noves
novetat
novetats
novi
noviembre
novo
now
np
nquing
nr
ns
nscrit
nsit
nsol
nsols
nster
nsula
nsules
nt
ntara
ntegrament
nter
ntesi
ntesis
nther
ntia
ntic
ntica
ntics
ntida
ntids
ntim
ntima
ntimament
ntims
ntiques
ntric
ntrica
ntrics
ntriques
ntua
nu
nua
nuament
nuclear
nuclears
nucleo
nucli
nuclis
nues
nuestra
nuestro
nueva
nuevas
nuevo
nuevos
nuit
nul
nuls
num
numa
number
numbers
nume
numeracio
numerals
numisma
nun
nunca
nunci
nur
nuremberg
nus
nusos
nutricio
nutrients
nxol
nxols
ny
nyer
nz
o
oak
oakland
oasi
oasis
oaxaca
ob
obac
obaga
obama
obe
obedie
obeir
obert
oberta
obertament
obertes
oberts
obertura
obertures
obesitat
obi
objeccio
objeccions
object
objecte
objectes
objectiu
objectius
objectiva
oblidar
oblidat
obliga
obligacio
obligacions
obligada
obligades
obligant
obligar
obligat
obligato
obligatori
obligats
obligava
oblit
oboe
obra
obrador
obras
obre
obren
obrer
obrera
obreres
obrers
obres
obri
obria
obrint
obrir
obs
obscura
observa
observacio
observacions
observada
observades
observador
observadors
observant
observar
observat
observations
observatori
observatory
observats
observen
obsessio
obsolet
obstacle
obstacles
obstant
obte
obtencio
obtenen
obtenia
obtenint
obtenir
obtindre
obtinguda
obtingudes
obtingue
obtingut
obtinguts
oc
oca
ocasio
ocasional
ocasionalment
ocasionals
ocasionar
ocasions
occident
occidental
occidentals
occita
occitana
occitans
oce
ocea
ocean
oceania
oceanographic
oceans
ocell
ocells
och
ochoa
oci
oclc
oco
ocorre
ocorregut
ocorren
ocre
oct
octa
octava
octavi
october
octogonal
octubre
ocular
ocult
oculta
ocultar
ocults
ocupa
ocupacio
ocupacions
ocupada
ocupades
ocupant
ocupants
ocupar
ocuparen
ocupat
ocupats
ocupava
ocupaven
ocupen
oda
ode
oder
odes
odessa
odi
odin
odissea
odo
oest
of
ofegar
ofensiu
ofensiva
ofensives
ofereix
ofereixen
oferi
oferia
oferien
oferint
oferir
ofert
oferta
ofertes
off
office
official
offs
ofici
oficial
oficialment
oficials
oficina
oficines
oficis
ofrena
ofrenes
og
oh
ohio
oi
oil
ois
oise
ojos
ok
okinawa
oklahoma
ol
ola
olaf
olana
olans
olas
old
ole
oles
olesa
olga
oli
oliba
olimpi
olis
oliva
olivares
olive
oliveira
oliver
olivera
oliveres
olives
olivia
olivier
olla
oller
olo
olor
olot
ols
olympia
olympic
olympique
om
oman
omar
ombra
ombres
ombri
omega
omeia
omple
omplir
oms
on
ona
onada
onades
once
oncle
onda
ondas
one
oner
oneria
ones
ong
oni
online
only
ono
onoma
ons
onta
ontario
ontinyent
onu
onze
onzena
op
opcio
opcional
opcions
ope
open
opera
operacio
operacional
operacions
operador
operadora
operadors
operant
operar
operat
operation
operatiu
operatius
operativa
operatorname
operava
operen
opereta
operi
ophrys
opi
opinio
opinions
oponent
oponents
oportunitat
oportunitats
oposa
oposada
oposades
oposar
oposat
oposats
oposava
oposaven
oposen
oposicio
oposicions
opositor
opositors
opressio
ops
opta
optar
optimitzacio
option
options
opus
or
ora
oracio
oracions
oracle
orador
oradors
oral
orals
orange
oratori
orbita
orbital
orbitals
orbiter
orcau
orchestra
orchidaceae
orde
orden
ordena
ordenacio
ordenada
ordenades
ordenament
ordenant
ordenar
ordenat
ordenats
order
ordes
ordi
ordina
ordinador
ordinadors
ordinari
ordo
ordre
ordres
ore
oregon
orella
orelles
ores
orfe
orfebreria
orfeo
orfes
org
orga
organisme
organismes
organista
organistes
organitza
organitzacio
organitzacions
organitzada
organitzades
organitzador
organitzadors
organitzant
organitzar
organitzat
organitzats
organitzava
organitzen
organization
orgue
orgues
orgull
orgullo
ori
orient
orientacio
orientada
orientades
oriental
orientals
orientar
orientat
orientation
orientats
oriente
origen
origin
origina
original
originalitat
originalment
originals
originar
originari
originaris
originat
originen
origins
orina
orinoco
orio
oriol
oriola
orissa
orlando
orleans
ornamentacio
ornamental
ornamentals
ornaments
orne
ornito
ornitolo
oro
orografia
orquestra
orquestracio
orquestral
orquestrals
orquestres
orqui
ors
orsini
orstom
ortega
ortiz
ortodo
ortodox
ortodoxa
ortodoxes
ortodoxos
ortofotomapes
ortogonal
ortogra
ortografia
ortoro
os
osa
osaka
osasuna
osborne
osca
oscar
oscars
oscil
osiris
oskar
oslo
osman
osona
ossa
ossos
ostariophysi
ostatge
ostatges
ostenta
ostentar
oswald
ot
otan
otero
other
oto
otoma
otomana
otomanes
otomans
otra
otras
otro
otros
ottawa
otto
ou
ouest
our
ourense
ous
out
output
ouvrage
ov
ova
oval
ovari
ovella
ovelles
over
overline
overview
ovi
ovidi
oviedo
owen
own
oxford
oxidacio
oxigen
oz
ozo
p
pa
pablo
pac
pace
pacheco
paci
pacie
pacient
pacients
pacific
pacifista
pack
paco
pactar
pacte
pactes
padilla
padre
padri
padro
paella
pag
paga
pagament
pagaments
pagans
pagant
pagar
pagat
pagats
pagava
pagaven
page
pages
pagesia
pagesos
pagina
pagos
pai
painting
pairal
paisatge
paisatges
paisatgi
paixa
pakistan
pal
pala
palabras
palace
palacio
palacios
palafrugell
palais
palamo
palanca
palati
palatinat
palau
palaus
palazzo
pale
palea
paleo
paleoli
paleonto
paleontologia
palerm
pales
palesa
palesti
palestina
palestine
palestins
paleta
paletes
palla
pallaresa
pallars
pallissa
palm
palma
palmare
palmas
palmer
palmera
palmeres
palmesans
palo
paloma
palomar
palos
pals
pam
pamela
pamplona
pan
panama
panamericans
panda
pandanus
pande
pandora
panell
panells
panjab
panno
panora
panorama
panotxa
pans
panta
pantalla
pantalles
pantalons
pantans
panteo
pantera
panther
pany
panzer
paola
paolo
pap
papa
papal
papallona
papallones
papals
papat
paper
papers
papes
papir
papua
paquet
paquets
par
para
parabo
paracaigudes
paracaigudistes
parada
parade
parades
paradi
paradigma
paradise
paradoxa
paraguai
parai
paral
parali
parament
paraments
parameters
paramilitars
paramount
parana
parany
parar
paratge
paraula
paraules
parc
parcel
parcial
parcialment
parcials
parcs
pardo
pardosa
pare
paredat
paredes
parell
parella
parelles
parells
parent
parentiu
parents
parer
pares
paret
parets
pari
paris
parisenc
parisenca
parisencs
paritat
park
parker
parkinson
parks
parla
parlada
parlades
parlament
parlamenta
parlamentari
parlamentaris
parlaments
parlant
parlants
parlar
parlat
parlava
parlaven
parle
parlem
parlen
parma
paro
parque
parra
parro
parroquial
parroquials
pars
parsons
part
parte
parteix
parti
partial
particio
participa
participacio
participacions
participant
participants
participar
participaren
participat
participava
participaven
participen
participi
particular
particularitat
particularitats
particularment
particulars
particuliers
partida
partidari
partidaris
partides
partido
partint
partir
partisans
partit
partits
partitura
partitures
parts
party
pas
pascal
pascual
pasha
pasio
paso
pasqua
pasqual
pasquale
pass
passa
passada
passades
passadi
passadissos
passant
passaport
passar
passara
passarel
passaren
passaria
passat
passatge
passatger
passatgers
passatges
passats
passava
passaven
passe
passeig
passen
passeriformes
passes
passi
passio
passion
passions
passiu
passiva
passos
past
pasta
pasteur
pasti
pastissos
pastor
pastora
pastoral
pastorals
pastors
pastura
pastures
pat
patago
patata
patates
pateix
pateixen
patent
patentar
patents
pater
patern
paterna
path
pathe
pati
patia
patien
patiment
patinatge
patins
patint
patir
patis
patit
pato
patogen
patolo
patologia
patologies
patra
patri
patria
patriarca
patriarcal
patriarcat
patriarques
patrice
patrici
patricia
patricis
patrick
patrimoni
patrimonial
patrimonials
patrimonio
patrio
patriotes
patro
patrocinador
patrocinadors
patrocinat
patrocini
patrona
patronals
patronat
patrons
patrulla
patrulles
patterns
patton
pau
paugy
paul
paula
pauli
pauline
paulo
paulus
pauly
pausa
pautes
pavel
pavello
pavellons
pavia
paviment
pax
paxton
payne
pays
paz
pb
pbs
pc
pce
pcia
pcies
pcr
pd
pdf
pe
peace
peak
pearl
pearson
pebre
pec
pecat
pecats
peces
peci
peckham
pectorals
peculiar
pedago
pedagog
pedagogia
pedagogs
pedal
pedestal
pedra
pedralbes
pedrera
pedreres
pedres
pedro
peer
pega
peggy
peguera
peix
peixateria
peixes
peixos
pel
pela
pelatge
pelayo
pele
pelegri
pelegrinatge
pelegrins
peli
pell
pellicer
pells
pelopone
pels
pen
pena
penal
penals
penat
pendent
pendents
pendre
penede
penes
penetra
penetracio
penetrar
penguin
peni
penicil
peninsular
penis
penite
penja
penjant
penjar
penjat
penjats
penn
pennsilva
pennsylvania
penny
pensa
pensada
pensador
pensadors
pensament
pensaments
pensant
pensar
pensat
pensava
pensaven
pense
pensen
pensio
pensions
penso
penta
penu
penya
peo
peons
people
pep
pepa
pepe
pequen
pequi
per
pera
peralada
peralta
percebre
percentatge
percep
percepcio
perciformes
percussio
percy
perd
perde
perden
perdent
perderen
perdia
perdo
perdonar
perdre
perduda
perdudes
perdura
perdut
perduts
pere
peregrinacio
pereira
perello
perenne
peres
perez
perfeccio
perfeccionar
perfect
perfecta
perfectament
perfecte
perfectes
perfil
perfils
perforacio
performance
perfum
perfumeria
pergami
peri
perife
perill
perillo
perillosa
perilloses
perillosos
perills
perio
period
periodi
periodicitat
periodisme
periodista
periodistes
peris
perjudicar
perjudici
perjudicial
perjudicials
perkins
perla
perles
perlidae
perllongar
permane
permanent
permanentment
permanents
perme
permet
permete
permeten
permetent
permeteren
permeti
permetia
permetien
permetin
permetra
permetre
permetria
permi
permisos
pero
perpe
perpendicular
perpendiculars
perpetu
perpinya
perque
perrin
perruqueria
perruqueries
perry
persa
perse
persecucio
persecucions
persegueix
perseguir
perseguit
perseguits
perses
perseu
persiste
persistent
person
persona
personal
personalitat
personalitats
personalment
personals
personas
personatge
personatges
persones
perspectiva
perspective
perspectives
persuadir
perta
pertany
pertanyen
pertanyent
pertanyents
pertanyia
pertanyien
perth
pertinenc
pertinents
pertorbacions
peru
perua
peruana
peruans
perusa
perxa
pes
pesa
pesada
pesades
pesant
pesants
pesar
pesat
pesats
pesava
pesca
pescador
pescadors
pescar
peshwa
pesos
pessetes
pesta
pet
pete
peter
peters
petersburg
peterson
peticio
peticions
petit
petita
petite
petites
petits
petjada
petjades
peto
petra
petri
petro
petroli
petrus
petxina
petxines
peu
peus
pex
pez
pg
ph
phane
phantom
phi
phil
philadelphia
philip
philipp
philippe
philippine
philippines
philips
phillip
phillips
philosophical
philosophy
phoenix
phone
photo
photos
php
phylogenetic
phylogeny
physical
physics
pi
pia
piament
pianista
pianistes
piano
pianos
piazza
pib
pic
pica
picada
picament
picant
picasso
picat
pico
picot
pics
picto
pictorial
picture
pictures
pid
pida
pidament
pides
pids
pie
piece
piemont
pier
piera
pierce
piero
pierre
pies
pietat
pieter
pieto
pietro
piga
pigment
pigments
pila
pilar
pilars
pilastres
piles
pillet
pilo
pilot
pilota
pilotes
pilots
pin
pina
pinacles
pine
pineda
pinell
ping
pingu
pink
pino
pins
pinta
pintada
pintades
pintant
pintar
pintat
pintats
pinto
pintor
pintora
pintors
pintura
pintures
pinus
pinya
pinyin
pio
pioneer
pioner
pionera
pioners
piotr
piper
pipi
piques
pir
pira
piragu
piramidal
pirata
pirateria
pirates
pirineu
pirineus
pis
pisa
pisces
piscina
piscines
piso
pisos
pissarra
pista
pistes
pisto
pistola
pistoles
pistons
pit
pita
pitago
piter
pitjor
pitjors
pits
pitt
pittsburgh
piu
pius
pivot
pixar
pizarro
pl
pla
plac
placa
place
places
plaer
plaers
plafons
plaga
plagues
plain
plan
plana
planas
planck
plane
planeja
planejar
planejat
planell
planes
planet
planeta
planetari
planetary
planetes
planetoce
planificacio
planificar
planning
plans
plant
planta
plantacio
plantacions
plantar
plantarum
plantas
planteja
plantejament
plantejaments
plantejar
plantejat
planter
plantes
plantilla
plantilles
plants
planxa
planxes
plaques
plasma
plasmar
plat
plata
plataforma
plataformes
plate
platges
plati
platja
platnick
plato
plats
plau
play
playa
playbill
player
players
playoffs
playstation
plaza
ple
please
plebeu
plebeus
plebs
plec
pleco
plecoptera
plecs
plegat
plegats
plena
plenament
plenes
plenitud
plens
plet
plica
plini
pliques
plistoce
plom
ploma
plomatge
plomes
plora
plorant
plorar
plotarea
plotdata
pls
pluges
pluja
plural
plus
plutarc
pluto
plymouth
pm
pmatrix
pnb
pneuma
pneumo
png
po
poa
poaceae
pobla
poblacio
poblacional
poblacions
poblada
poblades
pobladors
poblament
poblat
poblats
poble
poblenou
pobles
poblet
pobra
pobre
pobres
pobresa
poc
poca
poch
pocket
poco
pocock
pocs
pode
podem
poden
podent
poder
podero
poderosa
poderoses
poderosos
poders
podes
podeu
podi
podia
podien
podra
podran
podrem
podri
podria
podrien
poe
poema
poemari
poemas
poemes
poems
poesi
poesia
poesies
poeta
poetes
poetessa
poetry
pogue
pogueren
poguessin
pogut
point
points
poissons
poitiers
poitou
poke
pol
pola
polar
polaritzacio
polars
pole
poli
polibi
police
polici
policia
policial
policials
policies
policromada
policy
poliesportiu
poligonal
polimerasa
poline
polinomi
polinomis
polis
politburo
polite
political
politics
politique
polito
poll
pollastre
pollenc
polo
polone
polonesa
poloneses
polonesos
pols
polzades
polze
poma
pomera
pomes
pompeia
pompeu
pon
ponc
ponce
pone
ponent
pons
pont
ponte
pontevedra
ponti
pontifi
pontificat
pontifici
pontificis
ponts
pool
pop
popa
pope
popular
popularitat
popularitzar
popularitzat
popularment
populars
population
poques
por
porc
porcellana
porcio
porcions
porcs
porno
pornogra
pornografia
porpra
porsche
port
porta
portaavions
portada
portades
portador
portadors
portal
portalada
portals
portant
portar
portara
portaren
portaria
portat
portats
portava
portaven
portaveu
portbou
porte
portella
porten
porter
porteria
porters
portes
porti
portland
porto
portrait
ports
portsmouth
portua
portugal
portugue
portuguesa
portugueses
portuguesos
porus
porxo
porxos
pos
posa
posada
posades
posant
posar
posaren
posaria
posat
posats
posava
posaven
pose
posem
posen
posi
posicio
posicionament
posicionar
posicions
posido
position
positiu
positius
positiva
positivament
positives
poso
posseeix
posseeixen
possei
posseir
possessio
possessions
possibilitat
possibilitats
possible
possiblement
possibles
possio
possiolki
post
posta
postal
postals
posterior
posterioritat
posteriorment
posteriors
postgrau
postguerra
postproduccio
postres
postula
postulats
postura
postures
pot
pota
potable
potassi
pote
potencia
potencial
potencialment
potencials
potenciar
potent
potents
potes
potestat
potosi
pots
potsdam
potser
potter
pou
poum
pour
pous
powell
power
powers
poznan
pp
pr
pra
practica
practicant
practicants
practicar
practicat
practicava
practicaven
practice
practiquen
prada
praderies
prades
pradesh
prado
praga
pragma
praia
prat
prats
pratt
pre
prea
preca
precaucio
precedeix
precedent
precedents
precedida
precedir
precedit
preceptes
preci
precioses
preciosos
precipitacio
precipitacions
precipitar
precisa
precisament
precisar
precises
precisio
precisos
precoc
precursor
precursora
precursors
predecessor
predecessors
predicacio
predicador
predicar
prediccio
prediccions
predir
predomina
predominant
predominantment
predominen
predomini
prefaci
prefecte
prefectura
prefectural
prefectures
prefere
prefereix
prefereixen
preferent
preferentment
preferia
preferible
preferida
preferir
preferit
preferits
prefix
prega
pregar
prego
pregunta
preguntar
preguntes
prehisto
prejudicis
prelat
preliminar
preliminars
preliminary
preludi
prematura
premi
premia
premiada
premiar
premiat
premiats
premier
premio
premios
premis
premissa
premsa
pren
prendre
prenen
prenent
prengue
prengueren
prenia
prenien
prensa
prentice
preocupa
preocupacio
preocupacions
preocupar
preocupat
prepara
preparacio
preparacions
preparada
preparades
preparant
preparar
preparat
preparatius
preparats
preparava
preparen
preroma
pres
presa
presbiteri
prese
presencia
presenciar
present
presenta
presentacio
presentacions
presentada
presentades
presentador
presentadora
presentadors
presentant
presentar
presentaren
presentat
presentats
presentava
presentaven
presente
presenten
presents
preservacio
preservar
preses
preside
presideix
presidencial
presidencials
president
presidenta
presidente
presidents
presidi
presidia
presidida
presidir
presidit
preso
presoner
presoners
presons
presos
press
pressa
presses
pressio
pressionar
pressions
pressupost
pressuposta
pressupostos
presta
prestacio
prestacions
prestar
prestigi
prestigio
prestigiosa
prestigiosos
preston
presumiblement
presumpta
presumptament
presumpte
presumptes
prete
pretemporada
pretendent
pretendents
pretendre
pretenen
pretenia
pretenien
pretensio
pretensions
pretext
preto
pretor
pretty
preu
preus
prevalenc
preveia
prevencio
prevenir
preventiva
prevere
preveres
preveu
preveure
previ
preview
previs
previsio
previst
prevista
previstes
previstos
pri
price
pride
prieto
prim
prima
primacia
primari
primaris
primat
primats
primavera
prime
primer
primera
primerament
primerenc
primerenca
primerencs
primerenques
primeres
primers
primes
primetime
primitiu
primitius
primitiva
primitives
primo
primoge
primordial
prims
prince
princesa
princeses
princess
princeton
principal
principalment
principals
principat
principats
principi
principis
principles
print
prior
priorat
priori
prioritat
prioritats
prisma
privada
privades
privat
private
privats
privilegi
privilegiada
privilegis
prix
prize
prlpz
pro
proa
probabilitat
probabilitats
probable
probablement
problem
problema
problemes
problems
proc
proce
procede
procedeix
procedeixen
procedent
procedents
procedia
procedien
procediment
procediments
procedir
proceedings
process
processador
processadors
processament
processar
processat
processats
processo
processons
processos
proclama
proclamacio
proclamada
proclamant
proclamar
proclamat
proco
procura
procurador
procurar
procyclingstats
produccio
produccions
producte
productes
production
productions
productiu
productiva
productivitat
productor
productora
productores
productors
produeix
produeixen
produeixi
produi
produint
produir
produira
produiria
prof
profecia
professio
professional
professionalment
professionals
professions
professor
professora
professorat
professors
profeta
profetes
profile
profit
profund
profunda
profundament
profundes
profunditat
profunditats
profunds
program
programa
programacio
programada
programador
programadors
programar
programari
programat
programes
programme
progre
progress
progressar
progressio
progressista
progressistes
progressiu
progressiva
progressivament
progressos
prohibeix
prohibia
prohibicio
prohibida
prohibides
prohibir
prohibit
prohibits
projeccio
projeccions
project
projecta
projectada
projectades
projectar
projectat
projecte
projectes
projectil
projectils
projector
projectors
proletariat
proli
proliferacio
prolongacio
prome
promesa
promeses
promet
prometre
prominent
prominents
promocio
promocional
promocionar
promoguda
promogut
promontori
promotor
promotora
promotors
promou
promouen
promoure
promovent
prompte
promulgacio
promulgar
prono
pronom
pronoms
pronu
pronuncia
pronunciacio
pronunciada
pronunciar
pronunciat
prop
propagacio
propaganda
propagandi
propagar
proper
propera
properes
propers
property
propi
propia
propiciar
propieta
propietari
propietaris
propietat
propietats
propis
propo
proponent
proporcio
proporciona
proporcionada
proporcional
proporcionant
proporcionar
proporcionat
proporcionava
proporcionen
proporcions
proposa
proposada
proposades
proposant
proposar
proposat
proposats
proposava
proposen
proposicio
proposicions
proposo
proposta
propostes
propulsio
prosa
prosperar
prosperitat
prosseguir
prostitucio
prostituta
prostitutes
protagonisme
protagonista
protagonistes
protagonitza
protagonitzada
protagonitzar
protagonitzat
proteccio
protection
protector
protectora
protectorat
protectors
protegeix
protegeixen
protegia
protegida
protegides
protegint
protegir
protegit
protegits
protei
protein
protesta
protestant
protestantisme
protestants
protestar
protestes
proto
protocol
protocols
protons
prototip
prototips
prototipus
protubera
prou
proust
prova
provar
provat
prove
proveeix
provei
proveir
provenc
provence
provenen
provenia
provenien
provenir
proves
provi
provide
province
provincia
provincial
provincials
provincias
provinent
provinents
provisio
provisional
provisionalment
provisions
provoca
provocada
provocades
provocant
provocar
provocaren
provocat
provocats
provocava
provoquen
proximitat
proximitats
proyecto
pru
prudent
prunus
prussia
prussiana
prussians
ps
psc
pseudo
psi
psia
psico
psicoana
psicode
psicolo
psicologia
psids
psiquia
psiquiatre
psiquiatria
psoe
pspv
psuc
psula
psules
psychodidae
psychology
pt
pter
pters
ptic
ptica
ptics
ptid
ptids
ptils
ptim
ptima
ptiques
ptolemeu
pu
pua
pub
pubilla
publ
publi
public
publica
publicacio
publicaciones
publicacions
publicada
publicades
publicant
publicar
publicaren
publicat
publication
publications
publicats
publicava
publicita
publicitari
publicitaris
publicitat
publique
publiquen
published
publishers
publishing
puc
puccini
puch
pue
puebla
pueblo
puede
puente
puerta
puerto
pues
puga
pugen
pugui
puguin
puig
puigcerda
puigdemont
puix
puja
pujada
pujades
pujant
pujar
pujat
pujol
pujols
pula
pules
pulitzer
pulla
pulmo
pulmonar
pulmons
punk
punt
punta
puntes
punto
punts
puntuables
puntuacio
puntuacions
puntual
puntuals
puntuar
puny
pupil
pur
pura
purament
purcell
pure
pures
puresa
purga
purgatori
puri
purificacio
purple
purposes
purs
pus
put
putin
px
pyre
python
q
qa
qatar
qi
qin
qing
qquad
qu
qua
quad
quadern
quaderns
quadra
quadrada
quadrades
quadrangle
quadrangular
quadrant
quadrat
quadrats
quadre
quadres
qual
qualifica
qualificacio
qualificacions
qualificada
qualificar
qualificat
qualificats
qualitat
qualitats
quals
qualsevol
quan
quant
quantes
quantificacio
quantitat
quantitats
quants
quaranta
quarantena
quaresma
quarks
quars
quart
quarta
quarter
quarterly
quartet
quartets
quarts
quasi
quatre
que
quebec
queda
quedant
quedar
quedara
quedaren
quedaria
quedat
quedava
quedaven
quede
queden
quedi
queen
queens
queensland
queer
queix
queixa
queixar
queixes
quel
quelcom
quels
quens
quentin
quer
queralt
quercus
quero
querol
ques
quesada
quest
question
questions
quet
quevedo
queviures
quez
qui
quia
quid
quida
quids
quie
quiem
quien
quiero
quies
quiet
quilo
quilograms
quilos
quim
quin
quina
quines
quinn
quins
quint
quinta
quintana
quintet
quinti
quinze
quinzena
quio
quios
quipements
quiro
quiroga
quiru
quirze
quito
quixot
quo
quocient
quota
quoted
quotes
quotidia
quotidiana
r
ra
rab
rabat
rabbit
rabi
rabs
rac
race
races
rachel
racial
racials
racing
racional
racionalisme
racionalista
racionals
racisme
racista
racles
raco
racons
rada
radar
radi
radiacio
radial
radials
radical
radicalment
radicals
radio
radioactius
radioactivitat
radiodifusio
radiofo
radis
rae
raf
rafa
rafael
rafel
raffles
rahman
raho
rai
raid
raig
raigs
rail
railway
raimon
rain
rainbow
rainer
raion
raj
raja
rajasthan
rajola
rajoles
rajos
rajoy
rajputs
ral
rale
rally
ralph
ram
rama
ramadera
ramaderia
ramaders
ramal
ramat
ramats
rambla
rami
ramir
ramiro
ramis
ramo
ramon
ramos
rampa
rampes
rams
ramse
ran
rana
rand
randall
randolph
random
randy
rang
range
rangers
rangle
rangs
rao
raonable
raonament
raons
raoul
rap
raper
raphael
rapid
rapidesa
raquel
rar
rara
rarament
rard
rare
rares
rars
ras
rasa
rashid
raspall
rastre
rastres
rat
rata
rate
rates
ratificacio
ratificar
ratificat
ration
ratlla
ratllat
ratlles
ratoli
ratolins
ratpenat
ratpenats
ratxa
rau
raval
ravel
raven
ravenna
raw
rax
ray
raymond
rayo
rays
rayy
razo
rb
rbara
rbars
rbia
rbita
rbites
rbitre
rbitres
rc
rca
rcd
rcel
rcia
rcit
rcito
rcits
rcol
rcols
rcules
rculo
rd
rda
rdenas
rdia
rdic
rdica
rdics
rdies
rdoba
rdova
rdua
rdues
re
rea
reaccio
reacciona
reaccionar
reaccions
reactiu
reactius
reactor
reactors
read
reader
reading
reafirmar
reagan
reagrupament
real
realisme
realista
realistes
realitat
realitats
reality
realitza
realitzacio
realitzada
realitzades
realitzador
realitzadors
realitzant
realitzar
realitzaren
realitzat
realitzats
realitzava
realitzaven
realitzen
realment
reals
reanomenar
reanomenat
reapare
rebaixat
rebatejada
rebatejat
rebe
rebecca
rebel
rebels
reben
rebent
reberen
rebia
rebien
rebots
rebra
rebre
rebria
rebuda
rebudes
rebuig
rebut
rebutgen
rebutja
rebutjada
rebutjant
rebutjar
rebutjat
rebutjats
rebuts
rec
recaptacio
recaptar
recau
recaure
recensement
recent
recentment
recents
recepcio
recepta
receptes
receptor
receptors
recerca
recerques
recessio
recherche
reci
reciclatge
recinte
recintes
recipient
recipients
recital
recitals
recitatiu
reclama
reclamacio
reclamacions
reclamant
reclamar
reclamat
reclamava
reclutament
reclutar
reclutes
reco
recobert
recoberta
recobriment
recol
recollia
recollida
recollides
recollint
recollir
recollit
recollits
recolza
recolzada
recolzant
recolzar
recolzat
recolzats
recolzen
recomana
recomanable
recomanacio
recomanacions
recomanar
recomanat
recompensa
recompenses
recompte
reconciliacio
reconciliar
recone
reconeguda
reconegudes
reconegue
reconegut
reconeguts
reconeix
reconeixement
reconeixements
reconeixen
reconeixent
reconeixia
reconquerir
reconquesta
reconstruccio
reconstrui
reconstruir
recopa
recopilacio
recopilar
recopilatori
record
recorda
recordant
recordar
recordat
recordava
recorden
recording
recordings
recordo
records
recorre
recorregut
recorreguts
recorren
recorrent
recreacio
recrear
recreativa
recreatives
recta
rectangle
rectangular
rectangulars
recte
rectes
rector
rectoria
rectors
recull
recullen
reculls
recupera
recuperacio
recuperada
recuperant
recuperar
recuperat
recuperats
recurre
recurrent
recurrents
recurs
recursos
red
redaccio
redacta
redactar
redactat
redactor
redactors
redempcio
redireccio
redireccions
redirect
redondo
reduccio
redueix
redueixen
redui
reduint
reduir
reed
reedicio
reeditar
reeditat
reef
reeixida
reeixides
reeixir
reeixit
reeixits
reeleccio
reelegit
reemplac
rees
reescriure
reestructuracio
ref
refer
refere
refereix
refereixen
reference
referent
referents
referia
referida
referint
referir
referit
refinat
reflecteix
reflecteixen
reflectida
reflectir
reflectit
reflex
reflexio
reflexionar
reflexions
reflexos
reforc
reforma
reformada
reformar
reformat
reformes
reformista
reformistes
refraccio
refredament
refredar
refrigeracio
refugi
refugiar
refugiat
refugiats
refugis
refusa
refusar
reg
rega
regadiu
regal
regalar
regals
regan
regard
rege
regeix
regeneracio
regent
reggae
reggio
regia
regida
regidor
regidora
regidors
regiment
regiments
regina
reginald
regio
region
regional
regionalista
regionals
regions
regis
register
registra
registrada
registrades
registrar
registrat
registrats
registre
registren
registres
regla
reglament
reglaments
regles
regna
regnant
regnar
regnat
regnats
regne
regnes
regressio
regula
regulacio
regulacions
regulada
regulador
reguladora
regular
regularitat
regularment
regulars
regulat
regulen
rehabilitacio
rehabilitat
rei
reial
reialesa
reialistes
reialme
reials
reich
reid
reig
reilly
reims
reina
reines
reinhard
reinhold
reino
reinodocogumelo
reis
reivindica
reivindicacio
reivindicacions
reivindicar
reixa
reixac
reixes
relacio
relaciona
relacionada
relacionades
relacionar
relacionat
relacionats
relacionen
relacions
relat
relata
related
relations
relationships
relatiu
relatius
relativa
relativament
relatives
relativitat
relats
relaxacio
release
reli
religio
religion
religions
religiosa
religioses
religiosos
rellanc
relleu
relleus
relleva
rellevant
rellevants
rellotge
rellotger
rellotges
rem
remadors
remake
remarca
remarcable
remarcables
remarcar
rematada
rematat
rembrandt
remei
remer
reminisce
remix
remodelacio
remot
remota
remots
rems
remunta
remuntar
remunten
ren
rena
renaissance
renaixement
renaixenc
renaixentista
renaixentistes
renal
renato
renault
renda
rendes
rendibilitat
rendible
rendicio
rendiment
rendir
rene
renfe
rennes
renoir
renom
renova
renovables
renovacio
renovada
renovar
renovat
rent
rentar
rentat
renu
renuncia
renunciar
reo
reobrir
reorganitzacio
reorganitzar
rep
reparacio
reparacions
reparar
reparteixen
repartia
repartides
repartiment
repartir
repartit
repartits
repel
repercussio
repercussions
repertori
repeteix
repeteixen
repeti
repeticio
repeticions
repetidament
repetides
repetint
repetir
repetit
repetits
replicacio
repo
repoblacio
report
reportar
reportatge
reportatges
reported
reporter
reports
reposa
reposar
repre
reprendre
represa
representa
representacio
representacions
representada
representades
representant
representants
representar
representat
representatiu
representatius
representativa
representatives
representats
representava
representaven
representen
repressio
reprimir
reprise
reproduccio
reproduccions
reproduction
reproductor
reproductors
reprodueix
reprodueixen
reprodui
reproduir
repte
reptes
repu
republic
republica
republicana
republicanes
republicans
reputacio
requena
requereix
requereixen
requeria
requerida
requerien
requeriments
requerir
requerit
requesens
requiem
require
requisit
requisits
rer
rere
rerefons
rereguarda
res
rescat
rescatar
resclosa
research
reserva
reservada
reservar
reservat
reservats
reserves
reside
resideix
resideixen
residencial
residencials
resident
residents
residia
residir
residu
residual
residuals
residus
resina
resistance
resiste
resistent
resistents
resistir
resol
resoldre
resolt
resolucio
resolucions
resource
resources
respecta
respectant
respectar
respectat
respecte
respectius
respectivament
respectives
respiracio
respirar
respirato
respiratori
respon
respondre
responen
respongue
responia
responsabilitat
responsabilitats
responsable
responsables
resposta
respostes
ressaltar
ressenya
ressenyes
resso
ressona
ressorgiment
rest
resta
restabliment
restablir
restant
restants
restar
restaura
restauracio
restauracions
restaurada
restaurant
restaurants
restaurar
restaurat
restava
restaven
resten
restes
restitucio
restitui
restriccio
restriccions
restringida
restringir
restringit
result
resulta
resultant
resultants
resultar
resultat
resultats
resultava
resulten
resultes
results
resum
resumeix
resumir
resurreccio
ret
retallades
retard
retardar
retards
retaule
retaules
rete
retencio
retenir
reticle
retina
retir
retira
retirada
retirant
retirar
retirat
retirats
retiro
reto
retorn
retorna
retornant
retornar
retornat
retrat
retrata
retratar
retrats
retre
retrieved
retro
retroba
retrobar
retroce
retrocedir
retrospectiva
return
returns
reu
reuneix
reuneixen
reuni
reunia
reunien
reunificacio
reunint
reunio
reunions
reunir
reunit
reunits
reus
reusencs
reuters
rev
revalidar
reve
revela
revelacio
revelar
revelat
revelen
revenge
revenja
revenus
reverend
revers
reversible
revertir
revestiment
review
reviews
revisada
revisar
revisat
revised
revisio
revision
revisions
revista
revistes
reviure
revival
revo
revolt
revolta
revoltar
revoltat
revoltats
revoltes
revolucio
revoluciona
revolucionari
revolucionaris
revolucions
revolution
revue
rex
rey
reyes
reykjavi
reyna
reynolds
rez
rf
rfc
rfiques
rg
rgam
rgan
rgans
rgb
rgen
rgia
rgic
rgica
rgics
rgies
rgiques
rh
rho
rhode
rhodes
rhododendron
rhythm
ri
ria
rialb
riament
riba
ribagorc
ribas
ribeira
ribeiro
ribera
ribes
ric
rica
ricament
ricard
ricardo
ricart
ricas
riccardo
ricci
rice
rich
richard
richards
richardson
richelieu
richmond
richter
rick
ricky
rico
ricos
rics
rid
rida
ride
rider
rides
ridge
ridi
ridley
rids
rie
riehl
riells
riemann
riera
rieres
rierol
rierols
ries
rieure
rif
rifle
rifles
rift
riga
right
rightarrow
rights
rigidesa
rigor
rigoro
rigorosa
ril
riley
rima
rin
rinco
ring
rio
rioja
rios
ripoll
ripolle
riquer
riques
riquesa
riqueses
ris
risc
riscos
rise
rising
rit
rita
rite
ritme
ritmes
rits
ritter
ritu
ritual
rituals
ritus
riu
riullop
rium
riure
rius
rival
rivalitat
rivals
rivas
river
rivera
rivers
rivie
rix
riz
rk
rkiv
rko
rlids
rm
rmac
rmacs
rmia
rmic
rmica
rmics
rmiques
rmula
rmules
rn
rna
rne
rnia
rnic
ro
road
rob
roba
robar
robat
robatori
robatoris
robbie
robbins
robert
roberto
roberts
robertson
robes
robin
robins
robinson
robles
robo
robot
robots
robust
robusta
roc
roca
rocaberti
rocafort
rocca
rocha
roche
rochefort
rochester
roci
rock
rockefeller
rocket
rockets
rocky
roco
rococo
rocosa
rocoses
rocosos
rod
roda
rodada
rodades
rodalia
rodalies
rodant
rodar
rodat
rodatge
rode
rodejat
rodes
rodgers
rodo
rodolf
rodolfo
rodona
rodones
rodoreda
rodri
rodrigo
rodrigues
rodriguez
roe
roewer
rogenc
roger
rogers
roges
rohan
roi
roig
roine
roja
rojas
rojo
rojos
rol
roland
role
rolf
roll
rolling
rolls
rols
rom
roma
romain
roman
romana
romanc
romance
romandre
romane
romanen
romanent
romanes
romanesa
romaneses
romanesos
romangue
romani
romania
romanitzacio
romano
romanogerma
romans
romanticisme
romanya
rome
romea
romeo
romero
romeu
rommel
ron
ronald
ronaldo
ronda
rondalles
rondes
rondo
ronyo
ronyons
room
roosevelt
root
roque
roques
ros
rosa
rosada
rosari
rosario
rosas
rosat
rosca
rose
rosegador
rosegadors
rosell
rosen
rosenberg
roser
roses
roseta
ross
rossa
rossell
rossello
rossi
rossini
rossinyol
rosso
rostov
rostre
rostres
rota
rotacio
roth
rothschild
rotonda
rotor
rotten
rotterdam
roubaix
rouen
rouge
round
roure
roures
rousseau
route
routledge
roux
rov
rover
rovers
rovira
row
rowling
roy
royal
royale
royce
rpm
rpret
rprets
rqueting
rquez
rquic
rquica
rquics
rquing
rr
rrec
rrecs
rrega
rregues
rrer
rrez
rria
rroga
rs
rsega
rsia
rsic
rsies
rss
rsssf
rsula
rt
rtebres
rtel
rtex
rtexs
rtia
rtic
rtica
rtics
rtida
rtil
rtils
rtiques
rtir
rtirs
rttemberg
rtve
ru
rua
ruanda
rube
rubens
rubi
rubin
rubinstein
rubio
ruby
rudolf
rue
rueda
ruffy
rufus
rugbi
rugby
rui
ruiz
rukh
rule
rules
rum
rumb
rumba
rumor
rumors
rums
run
runes
running
rupert
rupestre
rupestres
ruptura
rural
rurals
rus
rush
rusin
russa
russell
russes
russia
russian
russo
russos
ruta
rutes
ruth
rutherford
rutina
ruy
rv
rvol
rvols
rwanda
ry
ryan
ryu
ryukyu
rzburg
s
sa
saavedra
sab
saba
sabadell
sabadellencs
sabana
sabanes
sabate
sabater
sabateria
sabates
sabe
sabem
saben
sabent
saber
sabeu
sabi
sabia
sabien
sabina
sable
sabo
sabor
sabre
sabut
sac
sacerdot
sacerdotal
sacerdots
sachs
sacra
sacramento
sacre
sacred
sacrificar
sacrifici
sacrificis
sacs
sad
saddle
sadie
sadurni
sae
safa
safareig
safor
saga
sagan
sagarra
sage
sagnant
sagra
sagrada
sagrades
sagrament
sagraments
sagrat
sagrats
sagrera
sagristia
sagues
sagunt
sahib
sai
said
saint
sainte
saints
sal
sala
salada
saladi
salamanca
salari
salaris
salas
salat
salazar
saldanha
sale
salem
salern
sales
salinas
salines
salinitat
salisbury
salle
sallent
sally
salm
salmo
salms
salo
salome
salomo
salon
salons
salou
salpar
sals
salsa
salses
salt
salta
saltant
saltar
salto
salts
salud
saludable
salut
salutacio
salutacions
salva
salvacio
salvador
salvament
salvar
salvat
salvatge
salvatges
salvatore
salve
salvi
salvia
salzburg
sam
sama
samantha
samarcanda
samarreta
samba
same
sami
samnites
samoa
samos
samsung
samuel
samurai
samurais
san
sana
sanc
sanch
sanchis
sancho
sancio
sancions
sancti
sand
sanders
sandoval
sandra
sandro
sands
sandy
sang
sangre
sangui
sanguini
sanguinis
sanita
sanitari
sanitaris
sanitat
sankt
sanpere
sanremo
sans
sant
santa
santana
santander
santedat
santes
santi
santiago
santo
santos
sants
santuari
santuaris
sanz
sao
saona
sap
sapiens
saps
saqueig
saquejada
saquejar
sar
sara
saragossa
sarah
sarajevo
sarco
sard
sarda
sardana
sardanes
sardenya
sarmiento
sarrai
sarria
sarroca
sars
sarsuela
sarthe
sas
saskatchewan
sassa
sastre
sate
satellite
sati
satisfa
satisfaccio
satisfacto
satisfer
satisfet
saturacio
saturday
saturn
sau
saudita
sauma
saura
sauro
savage
savall
save
savi
saviesa
savis
savoia
saxo
saxons
say
says
sayyid
sb
sc
scala
scale
scalemajor
scaleminor
scar
scara
scares
scene
scha
schaefer
scherzo
schiller
schleswig
schmidt
schneider
scho
school
schro
schu
schubert
schultz
schumacher
schumann
schuster
schwartz
schwerin
sci
science
sciences
scientific
scoa
scola
score
scotland
scott
scottish
scratch
screen
script
scriptstyle
scul
scula
scules
sculs
sd
se
sea
sean
search
seas
season
seat
seattle
sebastia
sebastian
sec
seca
seccio
seccions
secessio
second
secrecio
secret
secreta
secretament
secretari
secretaria
secretariat
secretaris
secretes
secreto
secrets
secs
secta
section
sector
sectors
secular
seculars
secunda
secundari
secundaris
security
seda
sedan
sede
sedimenta
sediments
seduir
see
sega
segadors
segarra
segat
segats
segell
segells
segimon
segle
segles
segment
segments
sego
segon
segona
segones
segons
segre
segregacio
segrest
segrestar
segrestat
segria
segu
segueix
segueixen
segui
seguia
seguici
seguida
seguidament
seguides
seguidor
seguidors
seguien
seguiment
seguint
seguir
seguira
seguiren
seguiria
seguit
seguits
segunda
segundo
segur
segura
segurament
segures
seguretat
segurs
sei
seient
seients
seine
seixanta
sel
sele
seleccio
seleccionada
seleccionades
seleccionador
seleccionar
seleccionat
seleccionats
seleccions
selected
selectiva
selenografia
self
selju
sella
selva
selves
sema
semana
sembla
semblanc
semblances
semblant
semblants
semblar
semblava
semblaven
semblen
sembli
sembra
semestre
semi
semicircular
semiconductor
semiconductors
semifinal
semifinals
seminari
seminaris
sempre
sen
sena
senador
senadors
senar
senat
sencer
sencera
senceres
sencers
sender
senderisme
senecio
senegal
senglar
sengles
senior
sens
sensacio
sensacions
sense
sensibilitat
sensible
sensibles
sensor
sensorial
sensorials
sensors
sent
sente
senten
senti
sentia
sentien
sentiment
sentimental
sentiments
sentint
sentir
sentit
sentits
sentmenat
sento
seny
senyal
senyalitzacio
senyals
senyera
senyor
senyora
senyoreta
senyoria
senyorial
senyorials
senyoriu
senyors
senzill
senzilla
senzillament
senzilles
senzillesa
senzills
sep
separa
separacio
separada
separades
separant
separar
separat
separats
separava
separen
sept
september
septentrional
septentrionals
septiembre
septima
sepulcre
sepulcres
sepultura
sequ
sequera
seques
ser
sera
serafi
seran
serbi
serbis
sere
serena
serge
sergei
sergent
sergi
sergio
serguei
seria
serial
serie
serien
series
serio
seriosa
seriosament
serioses
seriosos
sermo
sermons
serp
serps
serra
serradell
serralada
serralades
serrallonga
serrano
serrat
serres
sers
sert
serv
servei
serveis
serveix
serveixen
servent
servents
server
servi
servia
service
services
servicio
servidor
servidors
servien
servint
servir
serviria
servit
servitud
ses
sessio
sessions
set
setanta
sete
setembre
setena
setge
setges
seth
setmana
setmanal
setmanals
setmanari
setmanes
sets
setze
seu
seua
seues
seuil
seure
seus
seva
seven
sever
severa
severament
severes
seves
sevilla
sex
sexe
sexes
sexo
sext
sexta
sexual
sexualitat
sexualment
sexuals
seychelles
seymour
sf
sfondo
sfor
sforza
sg
sh
sha
shackleton
shadow
shadows
shah
shakespeare
shan
shane
shang
shanghai
shannon
shao
sharks
sharon
sharp
shaw
she
sheets
sheffield
shell
shelley
shen
sheridan
sherlock
sherman
shi
shield
shift
shin
shirley
sho
shogunat
shop
shore
short
shot
should
show
shows
shu
si
sia
siam
sias
sibe
sibil
sic
sica
sicament
sichuan
sici
sicilia
siciliana
sicilians
sico
sics
sid
sida
side
sidi
siding
sidney
sido
sids
sie
siegfried
siempre
sien
siena
sierra
sies
siete
sig
siga
sigles
siglo
siglos
sigma
sigmund
sign
signa
signada
signal
signant
signants
signar
signat
signats
signatura
signatures
signe
signes
significa
significacio
significant
significar
significat
significatiu
significatius
significativa
significativament
significatives
significats
significava
sigui
siguin
sigut
sikhs
sil
sile
silence
silenci
silencio
silent
silicat
silicats
silici
silla
silueta
siluriformes
silva
silver
silvestre
silvestres
silvia
silvio
sim
sima
simbad
simbo
simbolisme
simbolitza
simbolitzen
simbologia
sime
simeo
simetria
simfo
simfonia
simfonies
similar
similars
similitud
similituds
simmons
simo
simon
simone
simpa
simpatia
simpatitzants
simple
simplement
simples
simplicitat
simplificacio
simplificada
simplificar
simplificat
simpson
sims
simulacio
simular
simulta
sin
sina
sinagoga
sinai
sinatra
since
sinclair
sincronitzacio
sind
sindical
sindicalista
sindicalistes
sindicals
sindicat
sindicats
sine
sing
singapur
singer
singh
single
singles
singular
singularitat
singulars
sinn
sino
sinoni
sinopsi
sint
sinta
sintaxi
sinte
sintetitzador
sintetitzadors
sintetitzar
sinus
sio
sion
sionista
sioux
siques
sir
siracusa
sire
sirena
siri
siria
siriana
sirians
sis
sise
sisena
siste
sistema
sistemes
sister
sisters
sit
site
sites
sitges
sitio
sitiodeciclismo
sito
sits
situ
situa
situacio
situacions
situada
situades
situant
situar
situat
situats
situava
situen
six
sixt
size
sk
ska
ski
skin
sky
sl
slam
sleep
slesvig
slim
sm
small
smart
smash
smic
smica
smith
smiths
smithsonian
smp
sms
sn
snake
snia
snow
so
soares
sobira
sobirana
sobirania
sobirans
sobre
sobrenatural
sobrenaturals
sobrenom
sobrepassar
sobresurt
sobresurten
sobretot
sobreviscut
sobreviu
sobreviuen
sobreviure
sobtada
sobtadament
sobtat
sobte
soc
soca
soccer
soci
social
socialdemo
sociales
socialisme
socialista
socialistes
socialment
socials
socie
sociedad
societat
societats
society
socio
socioecono
sociolingu
sociolo
sociologia
socis
socket
socorro
socors
sodi
sof
sofa
sofert
sofi
sofia
sofre
sofreix
sofriment
sofrir
sofs
soft
software
sogorb
sogre
soiuz
soja
sol
sola
solament
solana
solar
solars
solda
soldadura
soldat
soldats
solde
soldevila
soldier
sole
soledad
soledat
soleil
solemne
solen
soler
soles
soli
solia
solid
solida
solidaritat
solien
solista
solistes
solita
solitari
solitud
solo
solomon
solos
sols
solsona
solsone
solstici
soltera
solteres
soluble
solubles
solucio
solucionar
solucions
som
soma
somali
sombra
some
somerset
something
somme
sommer
somni
somnis
somos
somriure
son
sona
sonar
sonata
sonates
sonda
sondes
sondheim
sonets
song
songs
sonia
sonic
sonor
sonora
sonores
sonors
sons
sony
sopa
sopar
sophia
sophie
soprano
sopranos
soques
sor
sora
sorbona
sorda
sorgeix
sorgeixen
sorgi
sorgida
sorgiment
sorgir
sorgiren
sorgit
soria
soriano
soroll
sorolls
sorpre
sorprendre
sorprenent
sorprenentment
sorpresa
sorra
sort
sorteig
sorti
sortia
sortida
sortides
sortien
sortint
sortir
sortit
sos
sospita
sospitar
sospites
sospito
sospitosos
soste
sostenen
sostenia
sostenibilitat
sostenible
sostenint
sostenir
sostinguda
sostingut
sostre
sostres
sot
sota
sotelo
soterrani
sotme
sotmesa
sotmeses
sotmesos
sotmet
sotmetre
soto
sots
sou
soul
sound
source
sources
sous
sousa
south
southampton
southern
southwest
sovie
soviet
sovint
soy
sp
spa
space
spacewatch
spain
spanish
spd
spears
spec
special
species
specimen
speed
spencer
sper
spera
spia
spider
spielberg
spin
spirit
split
spora
sport
sporting
sports
spp
spring
springer
springfield
springs
spurs
sqrt
square
squet
sr
sra
sri
ss
ssa
ssan
sseldorf
sser
ssers
ssia
ssic
ssica
ssics
ssida
ssides
ssil
ssils
ssim
ssima
ssimes
ssims
ssin
ssiques
ssir
ssit
ssola
ssora
ssos
ssov
ssp
sss
ssuf
st
sta
stade
stadium
staff
stage
stalin
stalingrad
stan
stand
standard
stanford
stanley
star
stark
starr
starrs
stars
start
stasi
stat
stata
state
states
station
statistics
statistique
status
ste
stec
stecs
steel
stefan
stefano
stein
steiner
stella
stenes
step
stephanie
stephen
ster
sterling
stern
sters
steve
steven
stevens
stevenson
stewart
stia
stic
stica
sticament
sticas
stico
stics
sties
stig
stigs
still
sting
stiques
stirling
sto
stock
stol
stola
stoles
stols
stone
stoneflies
stones
stop
stor
store
storia
stories
storm
story
str
strand
strange
strauss
stravinski
stream
streaming
street
stria
stries
strike
string
strofe
strong
structure
strunz
sts
stuart
stud
student
studies
studio
studios
study
stum
stuma
stumament
stuttgart
style
su
sua
suau
suaus
sub
subcampio
subclasse
subconjunt
subcontinent
subdivisio
subdivisions
subespe
subfami
subfamily
subge
subgrup
subgrups
subhasta
subjacent
subjecta
subjecte
subjectes
subjectiva
submari
submarina
submarins
subministrament
subministraments
subministrar
submissio
subordinat
subordinats
subordre
subprefectura
subratllar
subsahariana
subscripcio
subscriptors
subsegu
subsidia
subsiste
subsistir
subso
subsp
substa
substancial
substancialment
substantiu
substantius
substitucio
substitueix
substitui
substituint
substituir
substitut
substrat
substrats
subterra
subterrani
subterranis
subti
subtil
subtipus
subtropical
subtropicals
subunitat
subunitats
suburbi
suburbis
subvencio
subvencions
suc
succe
succeeix
succeeixen
succei
succeint
succeir
successio
successius
successivament
successives
successor
successora
successors
successos
such
sucre
sucres
sud
sudan
sue
suec
sueca
suecs
sueichan
suen
sueques
suert
suez
suffolk
sufi
suficient
suficientment
suficients
sufix
sufixos
sufocar
sufraga
sufragi
sugar
suggereix
suggereixen
suggeriment
suggeriments
suggerint
suggerir
suggerit
sui
suisse
suite
sul
sulawesi
sulayman
sulfat
sulfats
sulfu
sulfur
sulfurs
sullivan
sulta
sultan
sultanat
sultans
sum
suma
sumant
sumar
sumari
sumatra
sume
sumen
sumes
summament
summary
summer
sun
sundance
sunday
sung
sunnites
sunyer
supe
super
supera
superada
superant
superar
superat
superava
supercopa
superen
superfami
superfi
superficial
superficials
superherois
superintendent
superior
superioritat
superiors
superman
supermercat
supermercats
supernova
superposicio
supervisar
supervisio
supervisor
supervive
supervivent
supervivents
suplement
suplements
suplent
supo
suport
suporta
suportar
suporten
suports
suposa
suposada
suposadament
suposant
suposar
suposat
suposats
suposava
suposem
suposen
suposo
suppl
supplement
support
suprem
suprema
supremacia
supressio
suprimida
suprimir
suprimit
sur
sureda
surf
surface
surinam
suro
surrealisme
surrealista
surrey
surt
surten
surti
survey
sus
susa
susan
susana
susanna
susceptible
susceptibles
suspe
suspendre
suspens
suspensio
suspesa
sussex
sutherland
sutton
suzanne
suzuki
sv
sven
svg
swedish
sweet
swift
swing
switch
sword
sydney
sylvia
symbol
symphony
synop
synopsis
system
systema
systematic
systematics
systems
t
ta
tab
tabac
table
tablissements
tabriz
tabu
tac
taca
tacte
tadjikistan
tag
tahiti
tai
taila
taipei
taiwan
taixkent
tajo
take
takes
tal
tala
talaia
talaio
talarn
talavera
talbot
tale
talent
talents
tales
talibans
talk
tall
talla
tallada
tallades
tallant
tallar
tallat
tallats
tallen
taller
tallers
talles
tallinn
talls
talmud
talo
tals
tam
tamara
tambe
tambie
tambor
tambors
tament
tamerla
tamil
tampoc
tan
tanc
tanca
tancada
tancades
tancament
tancant
tancar
tancat
tancats
tancs
tang
tanganyika
tangent
tango
tank
tanmateix
tanquen
tanques
tant
tanta
tantes
tantost
tants
tanza
tao
tap
tapa
tapi
tapissos
taps
taques
taquilla
tar
tara
taranna
taraxacum
tard
tarda
tardana
tardar
tarde
tardor
target
targeta
targetes
tarifa
tarifes
tarn
taro
taronges
taronja
tarot
tarraconense
tarragona
tarragone
tars
tarzan
tas
tasca
tasma
tasques
tassa
tat
tata
tate
tatiana
tats
tau
taula
tauler
taules
tauleta
tauletes
tauro
taurons
taurus
taverna
taxa
taxes
taxi
taxono
taxonomia
taxonomic
taxonomicon
taxonomy
taylor
tb
tbilissi
tbol
tc
td
te
tea
team
teams
teatral
teatrals
teatre
teatres
teatro
teau
tebes
teborg
tec
tech
technical
technologies
technology
tecla
teclat
teclats
tecles
tecnolo
tecnologia
tecnologies
tecto
ted
tedra
teen
teheran
teixidor
teixit
teixits
tel
tela
tele
telecinco
telecomunicacions
telefilm
telefo
telefonia
telegraph
telenovel
teleostei
teles
telescopi
telescopis
televisio
television
televisions
televisiu
televisius
televisiva
televisives
tell
telo
tem
tema
tement
temes
temia
temor
temperades
temperament
temperat
temperatura
temperatures
tempesta
tempestes
template
temple
templers
temples
tempo
temporada
temporades
temporal
temporalment
temporals
temps
temptativa
tems
ten
tena
tenda
tende
tendeix
tendeixen
tendes
tendra
tenen
tenerife
teni
tenia
tenien
tenim
tenint
tenir
teniu
tennessee
tenni
tennis
tennista
tennistes
tenor
tenors
tens
tensio
tensions
tensor
teo
teodor
teodoric
teodoro
teodosi
teolo
teologia
teorema
teoremes
teori
teoria
teories
ter
tera
terape
terc
tercer
tercera
terceres
tercers
tercia
terciari
terence
terenci
teresa
termals
termcat
terme
termenal
termes
terminacio
terminal
terminals
termini
terminis
terminologia
termo
termodina
tero
terol
terra
terracota
terranova
terrassa
terrasses
terrat
terratinent
terratinents
terratre
terre
terreny
terrenys
terres
terrestre
terrestres
terrible
terribles
terrissa
territori
territorial
territorials
territoris
terror
terrorisme
terrorista
terroristes
terry
ters
tertu
tervuren
tes
tesi
tesis
tessa
tessalo
test
testa
testament
testimoni
testimoniatge
testimonis
tests
tet
tetra
tetragnatha
tetuan
teu
teugels
teula
teulada
teulades
teulat
teules
teus
teuto
teva
tex
texans
texas
text
textdata
textos
texts
textual
textura
textures
tez
tf
tfrac
tg
th
tha
thailand
thakur
thames
than
that
thatcher
the
theater
theatre
theft
their
them
then
theo
theodor
theodore
theory
there
theridion
these
thesis
theta
they
thierry
thing
things
think
third
this
thomas
thompson
thomson
thor
thorell
thorpe
those
thought
thousand
threatened
three
thriller
thrillers
through
thumb
thunder
thys
ti
tia
tiana
tiberi
tibet
tibeta
tibidabo
tic
tica
ticament
ticas
tico
ticos
tics
tid
tides
tids
tie
tiempo
tiempos
tien
tiene
tienne
tierra
tiger
tiges
tigre
tigres
tigris
tija
til
till
tillon
tils
tim
tima
timbre
time
timeaxis
times
timo
timoner
timor
timothy
timpa
tims
timu
timur
tin
tina
tinc
tinch
tindra
tindran
tindre
tindria
tindrien
tinent
ting
tingue
tingueren
tinguessin
tingui
tinguin
tingut
tinta
tinti
tintoreria
tintoreries
tio
tip
tipo
tipogra
tipografia
tipologia
tipologies
tipus
tiques
tir
tira
tirada
tirador
tiradors
tirania
tirant
tirar
tires
tirol
tiroteig
tirrena
tirs
tis
tit
tita
titani
titanic
titans
titella
titelles
title
tito
titula
titulada
titular
titularitat
titulars
titulat
titus
tiva
tm
tmic
tmica
tn
tnia
tnic
tnica
tnics
tnies
tniques
to
tobago
tobias
toc
toca
tocant
tocar
tocat
tocava
tocs
tod
toda
todas
today
todd
tode
todes
todo
todos
toe
together
togo
tokugawa
tokyo
tol
toledo
tolera
tolkien
toll
tolo
tolosa
tols
tolstoi
tom
toma
tomas
tomatoes
tomb
tomba
tombes
tome
tommaso
tommy
tomo
tomorrow
toms
ton
tona
tonal
tonalitat
tonalitats
tones
tonga
toni
tonight
tons
tony
too
tools
top
topa
topo
topogra
topografia
topolo
topologia
toponi
tops
toquen
tor
tora
toralla
torc
tordera
torello
tori
torino
torn
torna
tornada
tornado
tornant
tornar
tornara
tornaren
tornaria
tornat
tornava
tornaven
torne
torneig
torneigs
tornejos
tornen
torni
torno
torns
toro
toronto
toros
torpedes
torra
torras
torrassa
torre
torredembarra
torrelles
torrent
torrents
torres
torreta
torretes
torroella
tors
torsio
tort
tortonese
tortosa
tortuga
tortugues
tortura
torturat
tortures
torxa
tos
tosca
toscana
tossa
tossal
tot
tota
total
totalitat
totalment
totals
totas
totes
tothom
tots
tottenham
totxo
tou
touch
toulouse
tour
tours
tous
tout
tov
tova
tower
town
townie
township
toxicitat
toxines
toy
toyota
tp
tr
tra
trabajo
trac
traccio
traces
track
tracta
tractada
tractades
tractament
tractaments
tractant
tractar
tractaria
tractat
tractats
tractava
tractaven
tracte
tracten
tracti
traction
tracy
trad
trade
tradicio
tradicional
tradicionalista
tradicionalment
tradicionals
tradicions
tradition
traduccio
traduccions
traductor
traductora
traductors
tradueix
tradui
traduir
trage
trai
traient
trail
train
traite
traja
trajecte
trajecto
tram
trama
trames
trampa
trampes
trampoli
trams
tramuntana
tramvia
tramvies
tranquil
trans
transaccions
transactions
transatla
transbordador
transcende
transcorre
transcripcio
transcripcions
transcrit
transcurs
transfere
transferida
transferir
transferit
transfermarkt
transforma
transformacio
transformacions
transformada
transformant
transformar
transformat
transformen
transge
transicio
transicions
transistor
transistors
transito
translacio
translate
translated
translation
translations
transliteracio
transme
transmesa
transmet
transmeten
transmetre
transmissio
transmissions
transmissor
transoxiana
transpare
transparent
transparents
transport
transporta
transportar
transportat
transportats
transports
transsepte
transsilva
transvaal
transversal
transversals
trapa
tras
trasllada
traslladada
traslladades
traslladant
traslladar
traslladat
traslladats
trasllat
traspa
traspassar
traspassat
trasplantament
trastorn
trastorns
tratado
trauma
trave
travel
travers
travessa
travessant
travessar
travessat
travessava
travessen
travessera
travessia
tre
treatment
treball
treballa
treballada
treballades
treballador
treballadora
treballadores
treballadors
treballant
treballar
treballat
treballats
treballava
treballaven
treballen
treballs
trebisonda
tree
trek
tremp
tren
trenc
trenca
trencaclosques
trencada
trencament
trencant
trencar
trencat
trencats
trenquen
trens
trent
trenta
trentena
trentino
trento
tres
tresor
tresorer
tresors
tret
trets
tretze
treu
treure
treva
trevor
tri
tria
triada
trial
triangle
triangles
triangular
triangulars
triar
trias
triat
triats
tribal
tribals
tribe
tribu
tribuna
tribunal
tribunals
tribune
tribuns
tribus
tribut
tributa
tributari
tributaris
tributs
tric
trica
tricament
trics
tridimensional
trienni
trieste
triga
trigar
trigonome
trilogia
trimestre
trinidad
trinitat
trinity
trinquet
trinxeres
trio
triomf
triomfal
triomfar
triomfs
triple
tripulacio
tripulacions
tripulants
tripulat
triques
trist
trista
tristan
tristesa
triunfo
trivial
tro
troba
trobada
trobades
trobador
trobadors
troballa
troballes
trobant
trobar
trobara
trobarem
trobaren
trobaria
trobat
trobats
trobava
trobaven
trobe
trobem
troben
trobi
trobin
trobo
trofeu
trofeus
trofs
troia
troians
trois
trombo
trompa
trompes
trompeta
trompetes
tron
tronc
troncs
trondheim
trons
trop
tropa
tropes
trophy
tropical
tropicals
tros
trossos
trouble
troy
troyes
truc
trucada
trucades
trucar
trucs
true
truita
trujillo
truman
trump
trust
truth
ts
tsar
tse
tsia
tsunami
tt
ttingen
ttir
tu
tua
tuament
tub
tuberculosi
tubs
tubular
tuc
tuci
tucker
tucuma
tude
tudela
tudes
tudor
tues
tui
tula
tulo
tum
tumor
tumors
tundra
tuni
tunis
tura
turbina
turbines
turbo
turc
turca
turcmans
turcs
turdus
turi
turia
turing
turisme
turistes
turkey
turkmenistan
turn
turner
turo
turons
turques
turquia
tus
tutela
tutor
tutsis
tv
tve
twentieth
twenty
twilight
twin
twitter
two
txad
txaikovski
txe
txec
txeca
txecoslova
txecoslovacs
txecs
txetxe
txua
tyler
type
tz
tzer
u
ua
uab
uai
ub
ubica
ubicacio
ubicacions
ubicada
ubicades
ubicar
ubicat
ubicats
ubuntu
uc
ucd
uci
ucida
ucrai
ud
uda
udia
udine
udio
ue
uefa
uel
uela
uganda
ugo
ugt
ui
uicn
uk
ukraine
ul
ulic
ulica
ulisses
ull
ulldecona
ulleres
ulls
ulrich
ulster
ultima
ultimate
ultra
ultramar
ultraviolada
um
uma
umar
umberto
un
una
unam
unanimitat
und
under
underground
une
uneix
uneixen
unep
unes
unesco
ungles
uni
unia
unicode
unida
unides
unificacio
unificada
unificar
unificat
uniforme
uniformes
unint
unio
union
unions
unipersonals
unir
uniren
unit
unita
unitari
unitat
unitats
united
units
univ
univers
universal
universals
universe
universidad
universidade
universita
universitari
universitaris
universitat
universitats
universite
university
unix
unknown
uno
uns
uoc
up
upc
update
updated
upon
upper
uppsala
upright
ur
ura
urani
urba
urban
urbana
urbanes
urbani
urbanisme
urbanitzacio
urbanitzacions
urbans
urbe
urbino
urdu
urge
urgell
urgent
uri
uria
url
urna
urnes
urpes
urss
uruguai
uruguaia
uruguaiana
uruguaians
uruguay
uruk
us
usa
usada
usades
usant
usar
usat
usats
usava
usaven
usb
use
used
usen
user
users
using
uso
usos
uss
ustria
ustring
usual
usualment
usuari
usuaris
usula
usules
usurpador
ut
utah
utc
uthman
utic
utica
utics
utilitat
utilitza
utilitzacio
utilitzada
utilitzades
utilitzant
utilitzar
utilitzat
utilitzats
utilitzava
utilitzaven
utilitzen
utilitzi
utiques
uto
utopia
utrecht
uts
uttar
uv
uzbekistan
uzbeks
v
va
vaca
vacances
vacant
vacante
vacil
vacuna
vacunes
vaga
vagi
vagin
vagina
vago
vagons
vagues
vaig
vaixell
vaixells
vaja
val
vala
valais
valclusa
valde
vale
valencia
valenciana
valencianes
valencianista
valenciano
valencians
valenciennes
valent
valenti
valentia
valentina
valentine
valer
valeri
valeria
valero
vali
validesa
valira
vall
valladolid
vallbona
valle
vallecano
vallejo
vallespir
valley
vallfogona
valls
valo
valois
valona
valor
valora
valoracio
valoracions
valorada
valorar
valorat
valors
valparai
vals
value
values
valuo
valuosa
valuosos
valverde
vam
vampir
vampire
vampirs
van
vancouver
vandalisme
vanessa
vanguardia
vapor
vaques
var
vara
varela
varen
varepsilon
vargas
vari
varia
variabilitat
variable
variables
variacio
variacions
variada
variades
variant
variants
variar
variat
variats
varien
varietat
varietats
variety
varis
varphi
varso
vas
vasari
vasco
vascular
vasos
vassall
vassallatge
vassalls
vassili
vast
vasta
vatica
vaughan
ve
vec
vector
vectorial
vectorials
vectors
vedella
vega
vegada
vegades
vegas
vegetacio
vegetal
vegetals
vegeu
vegi
vegueria
vehicle
vehicles
vei
veia
veie
veiem
veien
veient
veig
vel
vela
velasco
veles
vell
vella
velles
vellesa
vells
vellut
velo
velocitat
velocitats
vem
ven
vena
venc
vencedor
vencedora
vencedors
venda
vende
vendes
vendo
vendre
vendrell
vene
venec
venecia
veneciana
venecians
venedor
venedors
venen
venent
venera
venerable
veneracio
venerada
venerat
venes
venezia
venezuela
vengue
venia
venien
venir
venjanc
venjar
vent
venta
ventall
ventilacio
vento
ventral
ventre
vents
ventura
venuda
venudes
venus
venut
venuts
ver
vera
veracitat
veracruz
verano
verb
verbal
verbals
verbs
verd
verda
verdad
verdader
verdadera
verdaguer
verde
verdes
verdi
verdo
verds
verdu
verdun
verdures
vergara
verge
verges
vergonya
veri
verificacio
verificar
verifiquin
veris
veritable
veritablement
veritables
veritat
veritats
verlag
vermell
vermella
vermelles
vermello
vermells
vermont
verne
vernet
vernon
vero
verola
verona
veronica
vers
versa
versalles
versio
version
versions
verso
versos
versus
vert
vertader
vertadera
vertebral
vertebrats
vertical
verticalment
verticals
very
ves
vescomtat
vescomte
vescomtes
vesi
vespa
vespasia
vespre
vespres
vessament
vessant
vessants
vesteix
vesti
vestida
vestigis
vestimenta
vestir
vestit
vestits
vestuari
vet
vetera
veterans
veterina
veterinari
veterinaris
vetlla
vetllar
veu
veuen
veura
veure
veurem
veuria
veus
vez
vgorod
vhs
vi
via
viabilitat
viable
viaje
viament
viana
vianants
viatge
viatgen
viatger
viatgers
viatges
viatja
viatjant
viatjar
viatjava
viatjaven
vibracio
vibracions
vic
vica
vicari
vicariat
vice
vicenc
vicens
vicent
vicente
vicenza
vicepreside
vicepresident
vicepresidenta
viceversa
vichy
victo
victor
victoria
victoriana
victorio
victory
vid
vida
vidal
vidas
video
videoclip
videoclips
videojoc
videojocs
videos
vides
vidre
vidres
vidu
vie
vieira
viejo
vielha
viena
viene
vienesos
vienna
vies
vietnam
vietnamita
vietnamites
vieux
view
vige
vigent
vigents
vigi
vigila
vigilant
vigilar
vigo
vigor
vih
vii
viii
viking
vikings
viktor
vil
vila
vilafranca
vilaine
vilallonga
vilamajor
vilanova
vilar
vilaseca
vilassar
vilatans
vilaweb
viles
villa
village
villanueva
villar
villarroel
ville
villena
villeneuve
villers
villiers
vin
vinagre
vinalopo
vinaro
vinc
vince
vincent
vincenzo
vinci
vincle
vincles
vincula
vinculacio
vinculada
vinculades
vincular
vinculat
vinculats
vindra
vindria
vine
vinguda
vingue
vingut
vini
vinil
vins
vint
vintena
vinya
vinyes
viola
violacio
violacions
violant
violar
viole
violence
violent
violenta
violentament
violentes
violents
violeta
violi
violin
violinista
violinistes
violins
violoncel
viqui
viquimarato
viquipe
viquipedista
viquipedistes
viquiprojecte
viral
virgen
virgi
virgili
virgin
virginia
virregnat
virrei
virtual
virtualment
virtuals
virtuo
virtut
virtuts
virus
vis
visca
visconti
viscositat
viscut
visibilitat
visible
visibles
visigo
visigot
visigots
visio
vision
visions
visir
visita
visitada
visitant
visitants
visitar
visitat
visiten
visites
visor
visque
visqueren
vist
vista
vistes
vistos
visual
visualitzacio
visualitzar
visualment
visuals
vit
vita
vital
vitali
vitalici
vitalitat
vitals
vitamina
vitamines
vito
vitralls
vitro
vits
vittorio
vitx
viu
viuda
viuen
viure
vius
viva
vivaldi
vive
vivent
vivents
viver
vives
vivia
vivien
vivint
vivir
vivo
vladi
vladimir
vn
vo
voca
vocabulari
vocacio
vocal
vocalista
vocals
voces
vogel
voice
voices
voivodat
vol
vola
volada
volador
volant
volar
volca
volcans
voldemort
voldria
voleibol
volem
volen
volent
voler
voleu
volga
volgue
volgut
voli
volia
volien
volkswagen
vols
volta
voltaire
voltant
voltants
voltatge
voltes
volts
volum
volume
volumen
volums
volunta
voluntari
voluntaris
voluntat
volution
vom
von
voor
vor
vora
vores
vors
vos
vosaltres
vosges
voste
vostra
vostre
vostres
vot
vota
votacio
votacions
votada
votants
votar
votat
vots
vous
vox
voyage
voyager
voz
vp
vre
vres
vriullop
vs
vskaia
vu
vuelta
vuit
vuitanta
vuite
vuitena
vuitens
vulgar
vulgaris
vulgui
vulguin
vull
vulnerabilitat
vulnerable
vulnerables
vv
vy
w
wa
wade
wadi
wagner
wales
walk
walker
walking
wall
wallace
walsh
walt
walter
walther
wan
wanderers
wang
want
war
ward
warhol
warner
warren
warrior
warriors
wars
warwick
was
washington
watch
water
waterloo
waterpolo
waters
watson
watt
watts
wave
way
wayne
wcmc
wd
we
web
webb
webber
weber
webs
website
webster
wed
wedding
week
weekly
wehrmacht
wei
weimar
weiss
welcome
well
welles
wellington
wells
welt
wen
wendy
were
werner
wesley
wessex
west
western
westfa
westminster
what
wheeler
when
where
which
while
whisky
white
whitehead
whitney
who
why
wi
wide
width
wie
wien
wiener
wiesbaden
wife
wii
wiki
wikidata
wikimedia
wikipedia
wikis
wild
wilde
wilder
wildlife
wiley
wilhelm
wilkinson
will
willem
william
williams
williamson
willie
willis
willy
wilson
wilton
wimbledon
win
winchester
wind
windows
windsor
wing
winston
winter
wisconsin
wise
with
within
without
wittgenstein
wo
wolf
wolff
wolfgang
woman
women
won
wonder
wong
woo
wood
woods
woody
word
words
work
working
works
workshop
world
worlds
worms
worth
would
wp
wrestling
wright
writer
writers
writing
wta
wu
wunderlich
wwe
www
wyoming
x
xa
xah
xai
xalet
xampanya
xangai
xapa
xarxa
xarxes
xassi
xat
xavi
xavier
xbox
xe
xeic
xel
xels
xemeneia
xemeneies
xen
xeno
xenofont
xerrades
xerxes
xevi
xi
xia
xic
xica
xico
xicot
xicota
xics
xid
xids
xies
xifra
xifrat
xifratge
xifres
xii
xiii
xile
xilena
xilens
xim
xima
ximes
ximo
ximpanze
xims
xina
xine
xinesa
xineses
xinesos
xip
xipre
xips
xiques
xiquet
xiquets
xit
xits
xiv
xiva
xix
xl
xml
xoc
xocar
xocolata
xocs
xode
xols
xon
xons
xose
xostako
xou
xp
xs
xtil
xtils
xtv
xu
xv
xvi
xvii
xviii
xx
xxi
xxii
xxiii
xxiv
xxv
xxvi
xxx
xysticus
y
ya
yahoo
yahya
yale
yamaha
yan
yang
yazid
ye
year
years
yellow
yes
yeung
yi
yin
yo
yolanda
yonne
york
yorkshire
yoshi
you
young
your
youth
youtube
ys
yu
yuan
yucata
yue
yukon
yunnan
yuri
yusuf
yvelines
yves
yvonne
z
za
zagreb
zaire
zamora
zanne
zanzi
zapatero
zar
zaragoza
zaro
ze
zealand
zeit
zeitung
zel
zelanda
zelda
zelotes
zen
zenit
zeno
zeppelin
zero
zeta
zeus
zhang
zhao
zheng
zhou
zhu
zi
zia
zimba
zimbabwe
zinc
zn
zo
zoarcidae
zoe
zombis
zona
zone
zones
zoo
zoogeography
zool
zoolo
zoologia
zoological
zoology
zoom
zootaxa
zquez
zu
zum
zur
zuric
zwick
{
|
}
~

¡
£
¥
¦
§
¨
©
ª
«
¬
­
®
°
±
²
³
´
µ
·
¹
º
»
¼
½
¿
×
ß
æ
ð
ø
ı
ł
ŋ
ƒ
ɔ
ə
ɛ
ʃ
ʰ
ʲ
ʷ
ʻ
ʼ
ʾ
ʿ
ˀ
ˁ
ˈ
ˌ
ː
̀
́
̂
̃
̄
̆
̇
̈
̉
̊
̋
̌
̓
̔
̛
̣
̥
̦
̧
̨
̪
̮
̯
̱
̲
̸
͂
ͅ
͡
α
β
γ
δ
ε
ζ
η
θ
ι
κ
και
λ
μ
ν
ξ
ο
π
περι
ρ
ς
σ
τ
υ
φ
χ
ψ
ω
а
б
в
г
д
е
з
и
к
л
м
н
на
о
от
п
р
с
т
у
ю
я
і
ְ
ִ
ֵ
ֶ
ַ
ָ
ֹ
ּ
ׁ
א
ב
ה
ו
י
ל
מ
ר
ש
ת
ا
َ
ُ
ِ
ّ
ْ
ٓ
ٔ
ٕ
ं
क
त
द
न
म
र
ल
स
ा
ि
ी
ु
े
ो
्
র
া
ি
্
ா
ி
்
്
ั
ิ
ี
่
้
་
​
‎
‏
‐
‑
‒
–
—
―
‘
’
“
”
„
†
‡
•
…
‰
′
″
‹
›
⁄
⁣
⁵
⁶
₁₂
₂
₃
₄
₅
₆
₇
₈
€
№
ℝ
™
ℤ
←
↑
→
↔
↷
⇒
∈
−
∗
√
∞
≈
≡
≤
≥
⊕
⋅
③
④
⑦
─
│
└
├
★
♀
♭
♯
✉
⟨
⟩
ⴰ
ⴱ
ⴷ
ⵉ
ⵍ
ⵎ
ⵏ
ⵓ
ⵔ
ⵙ
ⵜ
ⵡ
ⵢ
⺀
⺄
⺆
⺈
⺊
⺌
⺕
⺝
⺸
⺼
⿰
⿱
⿲
⿳
⿴
⿵
⿶
⿷
⿸
⿹
⿺
⿻
、
。
《
》
「
」
〢
あ
い
う
え
お
か
き
く
け
こ
さ
し
す
た
ち
っ
つ
て
と
な
に
の
は
ひ
ま
み
も
ら
り
る
れ
を
ん
゙
゚
ア
ィ
イ
ウ
ェ
エ
オ
カ
キ
ク
ケ
コ
サ
シ
ス
セ
タ
チ
ッ
ツ
テ
ト
ナ
ニ
ノ
ハ
ヒ
フ
ヘ
ホ
マ
ミ
ム
メ
モ
ャ
ュ
ユ
ョ
ラ
リ
ル
レ
ロ
ワ
ン
・
ー
㇁
㇂
㇄
㇇
㇈
㇉
㇓
㐁
㐄
㐅
㐌
㐫
㐬
㐭
㐮
㐱
㑒
㒵
㒸
㒼
㓁
㓞
㔾
㕛
㕣
㖾
㘝
㚅
㚇
㚔
㚘
㝉
㝡
㝴
㝵
㞋
㞢
㞷
㠩
㠭
㠯
㡀
㡭
㡿
㢲
㢴
㣇
㣺
㥯
㪅
㫄
㫐
㫒
㫺
㬅
㬎
㬥
㬰
㲋
㳄
㷠
㸒
㸚
㸦
㼌
㼲
㽞
㿟
䀠
䂞
䍃
䏍
䒑
䖍
䖒
䖝
䖵
䙴
䚻
䜌
䝿
䡛
䧹
䪞
一
丁
丂
七
丄
丅
丆
万
丈
三
上
下
丌
不
与
丏
丐
丑
专
且
丕
世
丘
丙
业
东
丞
丢
丣
两
严
並
丨
丩
个
丫
丬
中
丮
丰
丱
串
丵
丶
丷
丸
丹
为
主
丽
丿
乀
乂
乃
久
乆
乇
么
义
之
乌
乍
乎
乏
乐
乑
乔
乖
乗
乘
乙
乚
乛
乜
九
乞
也
习
乡
乳
乾
亀
亅
了
亇
予
争
事
二
亍
于
亏
亐
云
互
亓
五
井
亘
亚
亜
亞
亟
亠
亡
亢
交
亥
亦
产
亨
亩
享
京
亭
亮
亯
亰
亲
亳
亶
亷
人
亻
亼
亾
仁
今
介
仌
从
仐
仑
仒
仓
仕
他
付
仝
代
令
以
任
企
伊
伏
伐
休
会
伯
但
位
何
佘
余
作
佥
使
來
侈
侌
侖
侯
侵
便
保
俞
信
修
倉
倍
候
倠
備
僉
僕
儿
兀
允
兂
元
兄
充
兆
兇
先
光
兊
克
兌
免
兑
兒
兓
兔
党
兜
兟
入
全
兩
兪
八
公
六
兮
兰
共
关
兵
其
具
典
兹
兼
冀
冂
冃
冄
内
冈
冉
冊
冋
册
再
冎
冏
冐
冒
冓
冖
冗
冘
军
农
冝
冡
冥
冫
冬
冷
几
凡
凢
凵
凶
凷
凸
凹
出
函
凾
刀
刁
刂
刃
刄
刅
分
切
刍
刑
刕
刖
列
刘
则
初
別
利
别
到
制
刺
則
削
剌
前
剡
剽
劉
力
功
加
劦
助
劫
劳
劵
勃
勇
勉
勒
動
務
勞
勤
勹
勺
勻
勾
勿
匀
匂
包
匆
匈
匊
匋
匍
匕
化
北
匚
匝
匡
匪
匱
匸
匹
区
医
匽
匿
區
十
卂
千
卄
卅
卆
升
午
卉
半
卌
华
卑
卒
卓
单
卖
南
卜
卝
卞
占
卡
卢
卣
卤
卦
卩
卪
卬
卯
印
危
即
却
卵
卷
卸
卻
厂
厃
厄
历
厈
厉
厌
厓
厘
厚
原
厤
厥
厨
厭
厲
厶
厷
厸
去
厼
厽
叀
参
參
叅
又
叉
及
友
双
反
叐
发
叒
叔
叕
取
受
叚
叜
叟
口
古
句
另
叩
只
召
可
台
叱
史
右
叵
号
司
叹
吂
各
吅
合
吉
吊
吋
同
名
后
吏
向
吕
君
吝
吞
否
含
启
吳
吴
吹
吾
呂
呆
呈
告
员
呙
周
命
咅
和
咎
咠
咢
咨
咸
咼
哀
品
哉
員
哥
哲
唐
商
啇
問
啚
啬
啻
善
喜
喬
單
喿
嗇
噩
嚴
囊
囗
囘
囙
囚
四
回
囟
因
囧
囬
困
囱
囷
固
国
圂
圅
國
圍
圓
土
圡
圣
圥
在
圭
地
圶
圼
坐
坒
坚
坴
垂
垔
垚
埀
埋
城
埶
執
基
堂
堅
堆
堇
堯
塞
墨
壘
士
壬
壯
声
壳
壴
壹
壺
壽
夂
处
夅
夆
备
夊
夋
夌
复
夏
夒
夕
外
夗
夘
多
夜
夢
大
夨
天
太
夫
夬
夭
央
失
夲
头
夷
夸
夹
夻
夾
奂
奄
奇
奈
奉
奎
奏
奐
契
奓
奔
奚
奞
奠
奢
奥
奭
女
奴
奻
好
如
妄
妙
妟
妥
妻
妾
姑
委
姜
威
娄
婁
婴
嬰
嬴
子
孑
孔
孕
孖
字
存
孚
孛
孝
孟
季
孤
学
孫
孱
學
宀
宁
宂
它
宅
宇
守
安
宋
完
宏
宓
宗
官
定
宛
宜
宝
実
客
宣
室
宮
宰
害
家
容
宾
宿
寄
寅
密
富
寒
察
寧
審
寫
寬
寮
寸
对
寺
寻
寽
対
寿
封
尃
射
将
將
專
尉
尊
尋
尌
對
小
少
尒
尓
尔
尖
尗
尚
尞
尢
尣
尤
尧
尨
尭
就
尸
尹
尺
尻
尼
尽
尾
尿
局
居
屈
屋
屎
屏
屑
展
屖
屚
属
屠
屡
屬
屮
屯
屰
山
屵
屾
岁
岂
岑
岡
岩
岳
岸
峯
島
崇
崑
崔
崖
崙
崩
嵬
嶲
巂
巛
川
州
巟
巠
巢
巤
工
左
巧
巨
巩
巫
差
己
已
巳
巴
巷
巸
巽
巾
巿
帀
市
布
希
帚
帛
帝
带
師
席
帶
常
干
平
年
幵
并
幷
幸
幺
幻
幼
幽
幾
广
広
庄
床
底
店
庚
府
度
庫
庭
庶
康
庸
廉
廌
廛
廣
廩
廴
延
廷
建
廾
廿
开
弁
弃
弄
弇
弋
式
弓
弔
引
弗
弘
弜
弟
弥
弦
弱
張
強
强
彊
彌
彎
彐
彑
当
彔
录
彖
彗
彡
形
彥
彦
彧
彭
彳
役
彼
往
待
律
徒
得
徙
從
復
微
徵
德
心
忄
必
忌
忍
志
忝
忠
忩
快
念
忽
忿
思
怠
急
怱
恆
恒
恩
恭
息
悉
患
悤
悲
悶
惠
惡
惢
愁
愈
意
愛
感
慈
慧
慮
憂
憲
應
戀
戈
戉
戊
戋
戌
戍
戎
成
我
戒
戔
或
戚
戠
戢
戦
截
戲
戶
户
戹
戼
戾
房
所
扁
扇
手
扌
才
打
托
执
承
折
拉
拜
拳
拿
掌
推
提
摩
支
攴
攵
收
攸
改
放
政
敄
故
敏
敕
敖
敗
教
敝
敞
敢
散
敦
敫
敬
数
敷
數
斂
文
斉
斊
斗
斤
斥
斩
斬
斯
新
方
於
施
斿
旁
旋
族
无
旡
既
旣
日
旦
旧
旨
早
旬
旱
旲
时
旾
昆
昇
昌
昍
明
昏
易
昔
昗
昜
星
春
昬
是
昱
昴
昷
時
晃
晋
晏
普
景
晶
智
暑
暴
曇
曩
曰
曲
曳
更
曷
書
曹
曼
曾
替
最
朁
會
月
有
朋
服
朔
朕
朗
望
朝
木
朩
未
末
本
札
朮
术
朱
朵
朶
朿
杀
李
杏
村
杜
束
条
来
東
杲
杳
松
析
林
枚
果
枝
枲
枼
某
柔
查
柬
柰
柴
栗
桀
桑
桼
梁
條
梟
梨
棘
棠
棥
森
楚
業
楽
榮
樂
樊
欠
次
欣
欮
欲
欶
欽
款
歆
歇
歌
歛
止
正
此
步
武
歨
歪
歮
歯
歰
歲
歴
歷
歸
歹
歺
死
殳
段
殷
殸
殹
殺
殻
殿
毋
毌
母
每
毒
比
毕
毚
毛
毳
氏
氐
民
气
氣
水
氵
氶
氷
永
氺
氾
求
汝
汞
江
沃
沓
沙
沝
河
治
泉
法
波
泣
泥
泰
洛
洪
活
派
流
浦
浪
浮
海
淡
淮
清
渚
渠
湯
滿
漢
漸
火
灬
灭
灰
灵
灷
炅
炎
炏
炗
炙
炭
為
烈
烏
烝
焉
無
焦
焱
然
煞
熊
熏
燕
營
燮
爪
爫
爭
爯
爰
爱
爲
爵
父
爻
爽
爾
爿
片
牙
牚
牛
牜
牟
牢
牧
物
牪
牽
犀
犬
犭
犮
狂
狄
狊
独
狺
猋
猒
猪
献
獻
玄
率
玉
王
玟
玨
珎
班
琴
瑟
瑩
瓜
瓦
甘
甚
生
産
用
甫
甬
田
由
甲
申
电
甶
男
甸
甹
町
画
甾
畀
界
畏
畐
留
畜
畟
畢
畧
畨
番
畫
異
畱
當
畺
畾
疊
疋
疌
疑
疒
疾
癶
癸
癹
登
發
白
百
皀
皃
的
皆
皇
皋
皐
皕
皮
皷
皿
盃
盆
盇
盈
益
盍
盎
监
盒
盖
盛
盡
監
盤
盧
目
直
相
盾
省
眇
眉
看
眔
眞
真
眷
眼
眾
着
睘
睪
睿
瞏
瞢
瞿
矍
矛
矞
矢
矣
知
矦
短
石
破
碎
磊
磨
示
礻
礼
社
神
祟
票
祭
禀
禁
福
禸
禹
禺
离
禽
禾
禿
秀
秃
秉
秋
科
秝
秦
移
稟
穀
穌
穴
究
穹
空
穿
突
窄
窒
立
竒
竜
竝
竟
章
童
竹
笑
笠
筆
等
答
箕
算
箴
節
篤
篭
米
粉
粛
粟
粤
粦
粲
糞
糸
糹
系
約
納
素
索
紫
累
細
絜
絫
絲
維
綿
縣
繇
纍
纟
缶
网
罒
罔
罕
罗
罙
罡
罢
罪
署
罷
羅
羊
羌
羍
美
羔
羕
羗
羞
羡
羣
群
義
羲
羸
羽
翁
翏
習
翕
翟
翠
翼
老
耂
考
者
耆
而
耎
耑
耒
耳
耴
耶
耷
聂
聊
聖
聚
聶
聿
肀
肃
肅
肉
肖
肙
肥
肩
肯
育
肴
胃
背
胡
胥
能
脊
脩
膚
臣
臤
臧
自
臬
臭
臯
臱
至
致
臺
臼
臽
臾
臿
舀
舂
舄
與
興
舉
舌
舍
舛
舜
舞
舟
般
艮
良
色
艸
艹
艾
芒
芔
芬
芮
花
芳
芺
芻
苔
苗
苟
若
苦
英
茶
茸
荅
草
荒
荣
荼
莆
莧
莫
莽
菆
菊
菐
菜
華
萬
落
葉
著
葛
董
葵
蒙
蒦
蒼
蓋
蓬
蓺
蔑
蔡
蕉
蕭
薄
薛
薦
薰
藍
藏
藥
蘭
虍
虎
虐
虒
虔
處
虖
虗
虘
虚
虛
虜
虞
虫
虽
蚤
蚩
蜀
蜜
蟲
蠡
血
行
衍
衛
衣
衤
表
衮
衰
袁
袞
褭
褱
襄
襾
西
覀
要
覃
見
規
覓
覧
親
覽
见
角
解
言
訁
訇
計
記
話
詹
語
誩
諸
讠
谷
豆
豈
豊
豐
豕
豖
豙
象
豦
豩
豪
豸
貇
貝
貞
貟
負
貢
貧
貪
貫
責
貳
貴
買
費
賁
資
賈
賏
賓
賔
賛
賞
賢
賣
質
賴
贊
贝
贡
责
贯
贲
贵
赖
赞
赤
赦
走
越
足
路
蹇
身
躬
車
軍
軎
軟
輦
车
辛
辜
辟
辥
辰
辱
農
辵
辶
边
达
过
近
连
迷
追
退
送
逆
逐
通
速
造
逢
連
逮
進
遀
遂
過
道
達
遣
適
遷
遺
邊
邑
邕
那
邦
邪
郎
郡
部
郭
都
鄉
酉
酋
配
酓
釆
采
里
重
野
量
金
釒
錢
钅
長
镸
长
門
閃
閉
開
閏
閑
閒
間
閔
閵
閻
闌
门
间
闷
阑
阜
阝
阳
阿
降
陳
隆
隊
隋
隡
隨
隱
隶
隹
隺
隻
隼
隽
难
雀
雁
集
雈
雋
雍
雐
雔
雙
雚
雜
雝
離
難
雨
雩
雪
雲
零
雷
需
霍
霜
霝
霞
霸
靈
靑
青
非
靡
面
靣
革
韋
韦
韭
韯
韱
音
頁
頃
項
須
頗
頡
頻
顛
页
風
风
飛
飞
食
飠
養
饣
首
香
馬
馮
駦
马
骨
高
髟
鬥
鬯
鬲
鬼
魚
魯
鮮
鱼
鲁
鳥
鳳
鸟
鹵
鹿
麃
麗
麥
麦
麻
黃
黄
黍
黎
黑
黒
黨
黹
黽
黾
鼎
鼓
鼠
鼻
齊
齋
齐
齒
齿
龍
龙
龜
龟
龠
龰
龱
龴
龵
龶
龷
龸
龹
者
艹
！
（
）
，
：
？
～
�
𠀁
𠀃
𠀆
𠀉
𠀎
𠀐
𠁁
𠁣
𠂆
𠂇
𠂈
𠂉
𠂊
𠂋
𠂎
𠂒
𠂔
𠂛
𠂡
𠂢
𠂤
𠂬
𠂭
𠂹
𠃊
𠃋
𠃌
𠃍
𠃎
𠃑
𠃓
𠃔
𠃜
𠄌
𠄎
𠄠
𠄢
𠆢
𠆥
𠇍
𠈌
𠌵
𠓜
𠔉
𠔥
𠔼
𠔽
𠔿
𠕀
𠕁
𠕋
𠘧
𠘨
𠙻
𠙼
𠚏
𠚒
𠚤
𠚪
𠣏
𠤎
𠤕
𠥓
𠦄
𠦑
𠦝
𠧒
𠧗
𠧪
𠩺
𠪚
𠫓
𠫔
𠫤
𠬛
𠬝
𠬞
𠬢
𠬤
𠬶
𠮛
𠮦
𠮷
𠯑
𠱠
𠳮
𠷎
𡈼
𡉀
𡉵
𡌥
𡍮
𡏳
𡕒
𡕩
𡕰
𡖅
𡗗
𡗜
𡘆
𡘤
𡧱
𡨄
𡩧
𡬠
𡭽
𡰣
𡰥
𡰪
𡰯
𡰱
𡷈
𡸁
𡿨
𡿩
𡿪
𡿺
𢀖
𢀛
𢀩
𢁙
𢆉
𢆰
𢆶
𢇁
𢇇
𢉖
𢌬
𢌿
𢏚
𢑑
𢑚
𢖻
𢙣
𢛳
𢦏
𢦒
𢧵
𢼄
𢾕
𣁋
𣄼
𣅀
𣅽
𣍘
𣎳
𣎵
𣏋
𣏼
𣗥
𣥂
𣥖
𣦵
𣦼
𣧄
𣪊
𣪠
𣬉
𣳾
𣶒
𤇾
𤊽
𤐫
𤓰
𤔔
𤕨
𤣩
𤰇
𤰔
𤰞
𤴓
𤴔
𤽄
𥁑
𥁕
𥃦
𥃩
𥃭
𥇡
𥑟
𥘅
𥘈
𥝢
𥫗
𥱡
𦈢
𦉪
𦉬
𦉼
𦍌
𦍒
𦎧
𦐇
𦓔
𦔮
𦘒
𦙃
𦚏
𦣝
𦣞
𦣻
𦥑
𦥔
𦥯
𦨉
𦭝
𦰩
𧆞
𧈧
𧘇
𧰨
𧴪
𧴮
𧵩
𧾷
𨸏
𨾴
𩙿
𩠐
𩫏
𩵋
𪉷
𪜀
𪟽
𪠲
𪩲
𫇦
𫔭
𫜸
𫝀
𫠣
𫠩
𫢉
𫥞
𫩏
𫩠
𫪡
𫲽
𫶧
𬀷
𬐘
𬗌
𬙙
𬛸
𬜯
𬟩
𬯁
𬴘
𬺻
𬼉
𬼖
𭀰
𭁈
𭁨
𭅰
𭑈
𭕄
𭗼
𭤨
𭥫
𭻾
𮅕
𮊿
𮍌
𮍏
𮓗
𮥼
𮧮
廾
𰀁
𰀄
𰀈
𰀉
𰀕
𰀠
𰀡
𰀢
𰀪
𰁜
𰃮
𰆊
𰆘
𰋙
𰕎
𰢴
𰧭
𰯲
000--
01--
02--
03--
04--
07--
104--
203--
204--
205--
206--
207--
208--
209--
210--
211--
212--
213--
215--
216--
458--
459--
460--
461--
462--
463--
464--
465--
466--
467--
468--
469--
470--
471--
472--
473--
474--
475--
476--
477--
479--
480--
481--
482--
483--
484--
485--
486--
487--
488--
489--
490--
493--
495--
496--
497--
498--
499--
500--
501--
502--
503--
505--
506--
507--
508--
509--
510--
511--
512--
513--
514--
515--
516--
517--
518--
520--
522--
a--
aa--
ab--
aba--
abd--
abe--
aberr--
abi--
abr--
abrevia--
absor--
abu--
ac--
aca--
acant--
ace--
aci--
acla--
aclar--
acob--
acol--
acom--
acos--
acre--
act--
activ--
acu--
ad--
ada--
add--
addit--
ade--
adhe--
adher--
adi--
adju--
adop--
ador--
ae--
aero--
af--
afav--
afeb--
afec--
afi--
afloram--
afortu--
afr--
afuse--
ag--
aga--
age--
agerm--
agili--
aglu--
ago--
agressi--
agri--
agro--
ah--
ai--
aigua--
air--
aix--
aixaf--
aj--
aju--
ak--
aka--
al--
ala--
alba--
albi--
alc--
alca--
alde--
ale--
alek--
alge--
algorit--
ali--
alinea--
all--
alla--
alle--
allge--
alli--
allo--
alma--
almo--
alo--
alp--
als--
alt--
alta--
alti--
am--
ama--
amalg--
amar--
amb--
ame--
amet--
ami--
amo--
amor--
amphi--
an--
ana--
anacro--
anar--
anc--
and--
ane--
ang--
anglo--
angos--
angui--
ani--
anna--
anni--
ano--
anota--
ans--
ant--
antagon--
ante--
anthrop--
anti--
any--
ao--
ap--
apa--
apara--
apass--
ape--
api--
apo--
app--
apro--
apropia--
apun--
aq--
aqu--
ar--
ara--
arab--
arc--
arca--
arcua--
are--
arg--
ari--
arist--
arm--
arn--
aro--
arqui--
arrabas--
arre--
arrep--
arri--
arro--
arrosse--
arru--
art--
arta--
arte--
arti--
aru--
as--
ase--
ash--
asi--
aso--
asp--
assa--
asse--
asset--
assi--
aste--
astro--
at--
ata--
ate--
aterr--
ati--
ato--
atrac--
atrap--
atro--
au--
audit--
auf--
auricul--
aus--
aute--
auto--
av--
ava--
avant--
ave--
avi--
avia--
avor--
aw--
awa--
ax--
ay--
az--
b--
ba--
bab--
bac--
back--
bad--
bag--
bai--
baix--
bak--
bal--
bali--
ball--
balus--
ban--
bany--
bar--
barba--
barru--
bas--
base--
bat--
bata--
bau--
bax--
bay--
bb--
bc--
bd--
be--
beau--
bec--
beg--
bei--
bel--
bell--
bella--
ben--
bene--
beni--
bent--
ber--
beren--
berk--
bert--
bes--
bet--
beu--
bey--
bha--
bhu--
bi--
bia--
bic--
bifur--
big--
bil--
bin--
bio--
bir--
bis--
bit--
bla--
black--
blan--
ble--
blo--
bloque--
blu--
blue--
bo--
boa--
bob--
bocc--
bog--
boi--
bol--
bomb--
bon--
bona--
bonif--
bor--
bord--
bos--
bot--
bou--
bow--
boy--
br--
bra--
bran--
bras--
bre--
bren--
brevi--
bri--
bro--
broad--
bron--
bru--
brun--
bry--
bu--
buc--
budd--
buena--
bug--
bul--
bun--
bur--
burg--
bus--
but--
bv--
by--
c--
ca--
caban--
cac--
caducif--
cai--
cal--
cala--
cali--
cam--
cama--
camp--
camu--
can--
cana--
cani--
cant--
cap--
capa--
car--
cara--
carbo--
carci--
cardiova--
carr--
cars--
cas--
casa--
cast--
cat--
cata--
cathe--
cato--
cau--
cay--
cc--
cd--
ce--
cec--
cel--
celeb--
cent--
centre--
cer--
cera--
ces--
cet--
cey--
cf--
ch--
cha--
chal--
chan--
char--
che--
cher--
chev--
chi--
cho--
chron--
chry--
chu--
ci--
cia--
ciber--
cic--
ciclo--
cim--
cin--
cine--
cing--
cir--
circum--
cis--
cit--
ck--
cl--
cla--
cle--
cli--
clo--
clu--
cm--
cn--
co--
coa--
coadj--
coch--
cock--
coe--
coesc--
coexi--
cog--
coi--
coinc--
col--
cola--
cold--
coll--
com--
coma--
come--
commun--
comp--
comput--
con--
condi--
confe--
confide--
confis--
confu--
conglo--
cons--
consul--
contra--
convuls--
cop--
cope--
cor--
cord--
corn--
cory--
cos--
cosmo--
cott--
coul--
cour--
cout--
cov--
cova--
cow--
cp--
cr--
cra--
cre--
cresc--
cri--
cro--
cru--
cruci--
cs--
ct--
cu--
cua--
cub--
cuc--
cucur--
cue--
cuida--
cul--
cum--
cup--
cur--
cut--
cuy--
cy--
cyano--
cycl--
cypri--
cyr--
cz--
cœ--
d--
da--
dac--
dai--
dal--
dam--
dan--
dar--
das--
data--
dau--
day--
dc--
dd--
de--
dea--
debil--
dec--
deceb--
deduc--
dee--
def--
defor--
degra--
dei--
del--
dem--
demo--
den--
dendr--
dent--
deo--
depre--
depreda--
der--
derog--
des--
desa--
desacre--
desca--
dese--
desemb--
desenc--
desequi--
desit--
det--
detec--
deter--
deterio--
deu--
dev--
dex--
df--
dg--
dh--
di--
dia--
dic--
dick--
did--
die--
diff--
difi--
dift--
difu--
dig--
dilat--
dimor--
din--
dio--
dip--
dir--
dis--
disc--
discri--
dissemi--
dissi--
dit--
divulg--
diz--
dj--
dl--
dm--
do--
dob--
doc--
dog--
dol--
dom--
dome--
don--
donos--
dopam--
dor--
dos--
down--
dr--
dra--
drey--
drum--
ds--
du--
dua--
duc--
dul--
dun--
dur--
dy--
dz--
e--
ea--
eb--
eber--
ec--
eccle--
eche--
eco--
ed--
edif--
ediz--
edu--
ee--
ef--
efec--
eg--
egi--
ego--
eh--
ei--
eich--
ein--
eivis--
eixa--
ek--
el--
ela--
elasm--
elastic--
ele--
elect--
electro--
elek--
eleph--
eli--
elm--
elo--
em--
eme--
emfatit--
emi--
emma--
emot--
emple--
empo--
emul--
en--
ena--
enc--
enca--
encerc--
encon--
encunya--
encycl--
end--
endar--
endo--
ene--
enfoc--
enfos--
enfuris--
engan--
engel--
engen--
enlai--
enri--
enrot--
ens--
ensor--
ent--
entom--
entre--
enum--
enumera--
enva--
envi--
eo--
ep--
epi--
equ--
equili--
equiv--
er--
era--
erc--
ere--
eri--
ero--
eru--
es--
esca--
esceni--
esci--
escla--
escle--
esco--
escolt--
escri--
escru--
escu--
esfon--
esgla--
esp--
espa--
espe--
espi--
esqui--
est--
esta--
estalin--
esti--
esto--
et--
eth--
ethi--
etno--
eto--
eu--
euph--
euphor--
euro--
eusk--
eusta--
ev--
eva--
ever--
ex--
exa--
exce--
excla--
excre--
exe--
exempli--
exha--
exhi--
exi--
exit--
exo--
exp--
expec--
expo--
export--
expro--
exqui--
exter--
extra--
exub--
ey--
ez--
f--
fa--
fabri--
fac--
fad--
fag--
fai--
fair--
fak--
fal--
falang--
faldi--
fan--
far--
fas--
fasci--
fat--
faw--
fc--
fe--
fec--
feder--
feld--
fem--
fen--
feno--
fer--
ferro--
fes--
feu--
fey--
ff--
fi--
fig--
figue--
figur--
fil--
fila--
film--
filo--
fin--
fio--
fire--
fis--
fish--
fisio--
fit--
fitz--
fl--
fla--
flamm--
flan--
flaut--
flip--
flo--
fluctua--
fn--
fo--
foc--
fogue--
fol--
fon--
font--
for--
fora--
fos--
foto--
fou--
four--
fox--
fr--
fra--
fran--
franc--
franco--
fre--
fred--
free--
freix--
fri--
fron--
fru--
ft--
fu--
fue--
fuku--
ful--
fulg--
full--
fum--
fun--
funda--
fur--
g--
ga--
gai--
gal--
gala--
gamb--
gan--
gang--
gar--
gara--
garb--
garf--
garg--
garr--
gas--
gastro--
gat--
gau--
gaut--
gav--
gay--
gaz--
gb--
ge--
gel--
gen--
geo--
ger--
ges--
get--
gha--
ghe--
ghi--
gi--
gia--
[...]
