!
"
#
##0
##1
##10
##11
##12
##13
##14
##15
##16
##17
##18
##19
##2
##20
##21
##22
##23
##24
##25
##26
##27
##28
##29
##3
##30
##31
##32
##33
##34
##35
##36
##37
##38
##39
##4
##40
##41
##42
##43
##44
##45
##46
##47
##48
##49
##5
##50
##51
##52
##53
##54
##55
##56
##57
##58
##59
##6
##60
##61
##62
##63
##64
##65
##66
##67
##68
##69
##7
##70
##71
##72
##73
##74
##75
##76
##77
##78
##79
##8
##80
##81
##82
##83
##84
##85
##86
##87
##88
##89
##9
##90
##91
##92
##93
##94
##95
##96
##97
##98
##99
$
%
&
'
(
)
*
+
,
-
.
/
0
00
000
0002
0004
001
002
0022
003
004
005
006
007
008
009
01
010
011
012
013
014
015
016
017
018
019
02
020
021
0210
0212
022
023
028
03
030
031
033
0356107158
0356107159
0362
04
042
0471250317
0471250319
05
050
0521335000
06
063
07
08
081
083
09
1
10
100
1000
1001
1002
10024
1006
1007
101
1010
1011
1016
1017
102
1021
1023
1024
1025
1029
103
1030
1035
1037
1038
104
1040
1046
105
1050
1051
1055
1056
106
1060
1063
1066
107
1070
1071
10715
1073
1074
1075
108
1080
1085
1086
1088
109
1090
1093
1095
1096
1097
1098
1099
11
110
1100
1101
1103
1104
1109
111
1111
1112
1118
112
1120
1126
1128
113
1130
1131
1133
1134
1135
1136
1137
1139
114
1145
1146
1147
1148
115
1150
1152
1154
1155
1157
1159
116
1160
1162
1163
11646
117
1170
1173
1175
1177
1179
118
1180
1182
1185
1186
1187
119
1190
1192
1194
1197
1198
1199
12
120
1200
1204
1205
1209
121
1210
1212
1213
1214
1215
1216
1218
122
1220
1221
1225
1227
1229
123
1230
1233
1234
1235
1236
1237
1238
124
1240
1241
1242
1243
1244
1245
1246
1248
125
1250
1258
126
1260
1261
1265
1266
127
1270
1271
1275
1276
1278
1279
128
1280
1282
1283
1285
1288
1289
129
1290
1291
1294
1295
1296
1299
13
130
1300
1301
1302
1303
1304
1305
1307
1308
1309
131
1310
1311
1312
1313
1314
1315
1316
1317
1318
132
1320
1324
1325
1327
1328
133
1330
1336
134
1340
1341
1342
1343
1344
1345
1346
1347
1348
1349
135
1350
1351
1353
1356
1358
1359
136
1360
1361
1362
1363
1364
1365
1368
1369
137
1370
1371
1375
1377
1378
138
1380
1381
1382
1383
1384
1385
1386
1387
1388
1389
139
1390
1391
1392
1393
1394
1396
1397
1398
1399
14
140
1400
1401
1402
1403
1404
1405
1405124946
1406
1407
1408
1409
141
1410
1411
1412
1413
1414
1415
1416
1418
1419
142
1420
1421
1423
1424
1425
1427
143
1430
1431
1432
1434
1435
1438
1439
144
1440
1444
1445
145
1450
1451
1452
1453
1455
1458
146
1460
1461
1462
1463
1464
1465
1466
1467
1468
1469
147
1470
1471
1472
1473
1474
1475
1476
1477
1478
1479
148
1480
1481
1482
1483
1484
1485
1488
149
1490
1491
1492
1493
1494
1495
1496
1497
1498
1499
15
150
1500
1501
1502
1503
1504
1505
1506
1507
1508
1509
151
1510
1511
1512
1513
1514
1515
1516
1517
1518
1519
152
1520
1521
1522
1523
1524
1525
1526
1527
1528
1529
153
1530
1531
1532
1533
1534
1535
1536
1537
1538
1539
154
1540
1541
1542
1543
1544
1545
1546
1547
1548
1549
155
1550
1551
1552
1553
1554
1555
1556
1557
1558
1559
156
1560
1561
1562
1563
1564
1565
1566
1567
1568
1569
157
1570
1571
1572
1573
1574
1575
1576
1577
1578
1579
158
1580
1581
1582
1583
1584
1585
1586
1587
1588
1589
159
1590
1591
1592
1593
1594
1595
1596
1597
1598
1599
16
160
1600
1601
1602
1603
1604
1605
1606
1607
1608
1609
161
1610
1611
1612
1613
1614
1615
1616
1617
1618
1619
162
1620
1621
1622
1623
1624
1625
1626
1627
1628
1629
163
1630
1631
1632
1633
1634
1635
1636
1637
1638
1639
164
1640
1641
1642
1643
1644
1645
1646
1647
1648
1649
165
1650
1651
1652
1653
1654
1655
1656
1657
1658
1659
166
1660
1661
1662
1663
1664
1665
1666
1667
1668
1669
167
1670
1671
1672
16728
1673
1674
1675
1676
1677
1678
1679
168
1680
1681
1682
1683
1684
1685
1686
1687
1688
1689
169
1690
1691
1692
1693
1694
1695
1696
1697
1698
1699
17
170
1700
1701
1702
1703
1704
1705
1706
1707
1708
1709
171
1710
1711
1712
1713
1714
1715
1716
1717
1718
1719
172
1720
1721
1722
1723
1724
1725
1726
1727
1728
1729
173
1730
1731
1732
1733
1734
1735
1736
1737
1738
1739
174
1740
1741
1742
1743
1744
1745
1746
1747
1748
1749
175
1750
1751
1752
1753
1754
1755
1756
1757
1758
1759
176
1760
1761
1762
1763
1764
1765
1766
1767
1768
1769
177
1770
1771
1772
1773
1774
1775
1776
1777
1778
1779
178
1780
1781
1782
1783
1784
1785
1786
1787
1788
1789
179
1790
1791
1792
1793
1794
1795
1796
1797
1798
1799
18
180
1800
1801
1802
1803
1804
1805
1806
1807
1808
1809
181
1810
1811
1812
1813
1814
1815
1816
1817
1818
1819
182
1820
1821
1822
1823
1824
1825
1826
1827
1828
1829
183
1830
1831
1832
1833
1834
1835
1836
1837
1838
1839
184
1840
1841
1842
1843
1844
1845
1846
1847
1848
1849
185
1850
1851
1852
1853
1854
1855
1856
1857
1858
1859
186
1860
1861
1862
1863
1864
1865
1866
1867
1868
1869
187
1870
1871
1872
1873
1874
1875
1876
1877
1878
1879
188
1880
1881
1882
1883
1884
1885
1886
1887
1888
1889
189
1890
1891
1892
1893
1894
1895
1896
1897
1898
1899
19
190
1900
1901
1902
1903
1904
1905
1906
1907
1908
1909
191
1910
1911
1912
1913
1914
1915
1916
1917
1918
1919
192
1920
1921
1922
1923
1924
1925
1926
1927
1928
1929
193
1930
1931
1932
1933
1934
1935
1936
1937
1938
1939
194
1940
1941
1942
1943
1944
1945
1946
1947
1948
1949
195
1950
1951
1952
1953
1954
1955
1956
1957
1958
1959
196
1960
1961
1962
1963
1964
1965
1966
1967
1968
1969
197
1970
1971
1972
1973
1974
1975
1976
1977
1978
1979
198
1980
1981
1982
1983
1984
1985
1986
1987
1988
1989
199
1990
1991
1992
1993
1994
1995
1996
1997
1998
1999
2
20
200
2000
2001
2002
2003
2004
2005
2006
2007
2008
2009
201
2010
2011
2012
2013
2014
2015
2016
2017
2018
2019
202
2020
2021
2022
2023
203
2032
204
205
206
207
208
209
20917
21
210
211
212
213
214
215
216
217
2178
218
219
22
220
221
222
223
224
225
226
227
228
229
23
230
2307
231
232
233
234
235
236
237
238
239
24
240
241
242
243
244
245
246
247
248
249
25
250
2500
251
252
253
254
255
256
257
258
259
26
260
261
262
263
264
265
266
2661
267
268
269
27
270
271
272
273
274
275
276
277
278
279
28
280
281
282
283
284
285
286
287
288
289
29
290
291
292
293
294
295
296
297
298
299
3
30
300
3000
301
302
303
304
305
306
307
308
309
31
310
311
312
313
314
315
316
3166
317
318
319
32
320
321
322
323
324
325
326
327
328
329
33
330
331
332
333
334
335
336
337
338
339
3390
34
340
341
342
343
344
3443
345
346
347
348
349
35
350
351
352
353
354
35469
355
356
357
358
359
36
360
361
362
363
364
365
366
367
368
369
37
370
371
372
373
374
375
376
377
378
379
38
380
381
382
383
384
385
386
387
388
389
39
390
391
392
393
394
395
396
397
398
399
4
40
400
4000
401
402
403
404
405
4051
406
407
408
409
41
410
411
412
413
414
415
416
417
418
419
42
420
421
422
423
424
425
426
427
428
429
43
430
431
432
433
4331
434
435
436
437
438
439
44
440
441
442
443
444
445
446
447
448
449
45
450
451
452
453
454
455
456
457
458
459
46
460
461
462
463
464
465
466
467
468
469
47
470
471
472
473
474
475
476
477
478
479
48
480
481
482
483
484
485
486
487
488
489
49
490
491
492
493
494
495
496
497
498
499
5
50
500
5000
501
502
503
504
505
506
507
508
509
51
510
511
512
513
514
515
516
517
518
519
5192
52
520
521
522
523
524
525
526
527
528
529
53
530
531
532
533
534
535
536
537
538
539
54
540
541
542
543
544
54414
545
546
547
54713
548
549
55
550
551
552
553
554
555
556
557
558
559
56
560
561
562
563
564
565
566
567
568
569
57
570
571
572
573
574
575
576
577
578
579
58
580
581
582
583
584
585
586
587
588
589
59
590
591
592
593
594
595
596
597
598
599
6
60
600
6000
601
602
603
604
605
606
607
608
609
61
610
611
612
613
614
615
616
617
618
619
62
620
621
622
623
624
625
626
627
628
629
63
630
631
632
633
634
635
6354
636
6361
637
638
639
64
640
641
642
643
644
645
646
647
648
649
65
650
651
652
653
654
655
656
657
658
6582
659
66
660
661
662
663
664
665
666
667
668
669
67
670
671
672
673
674
675
676
677
678
679
68
680
681
682
683
684
685
686
687
688
689
69
690
691
692
693
694
695
696
697
698
699
7
70
700
701
702
703
704
705
706
707
708
709
71
710
711
712
713
714
715
716
717
718
719
72
720
721
722
723
724
725
7256
726
727
728
7283
729
73
730
7306
731
732
733
734
735
736
737
738
739
74
740
741
742
743
744
745
746
747
748
749
75
750
751
752
753
754
755
756
757
758
759
76
760
761
762
763
764
765
766
767
768
769
77
770
771
772
773
7739
774
775
776
777
778
779
78
780
781
782
783
784
785
786
7864
787
788
789
79
790
791
792
793
794
795
796
797
798
799
8
80
800
801
8018
802
803
804
805
806
807
808
809
81
810
811
812
813
814
815
81528
816
817
818
819
82
820
821
823
824
825
826
827
828
829
83
830
832
833
8332
835
836
837
838
839
84
840
841
842
843
844
845
846
847
848
849
85
850
851
85180
85194
852
85233
853
854
855
856
857
858
859
86
860
861
862
863
864
865
866
8661702
867
868
869
87
870
871
872
873
874
875
876
87666
877
878
879
88
880
881
882
883
884
885
886
887
888
889
89
890
891
892
893
894
895
896
897
898
899
9
90
900
901
902
903
904
905
906
907
908
909
91
910
911
912
913
913135
914
915
917
918
919
92
920
921
922
923
924
925
926
927
928
929
93
930
931
932
933
934
935
936
936389
937
938
939
94
940
940228
941
942
943
944
945
946
947
948
95
950
951
952
953
954
955
956
957
958
959
96
960
961
962
963
964
965
966
967
968
969
97
970
971
972
973
974
975
976
977
978
9780130112828
9780865422568
9780866228916
9784486050544
9788496061972
9788574303611
979
98
980
981
982
983
984
985
986
987
988
989
99
990
991
992
993
994
995
996
997
998
999
:
;
<
=
>
?
@
[
\
]
^
_
`
a
aa
aaron
aas
ab
aba
abad
abadal
abadessa
abadesses
abadia
abando
abandona
abandonada
abandonades
abandonament
abandonant
abandonar
abandonaren
abandonat
abandonats
abandone
abandonen
abans
abast
abasta
abastar
abat
abatre
abats
abatut
abba
abbas
abbe
abbey
abbott
abc
abd
abdicacio
abdicar
abdomen
abdominal
abdul
abdullah
abe
abel
abella
abelles
abello
aberdeen
abi
abkha
ablatiu
able
aboca
abocar
abolicio
abolir
abolit
aborda
abordar
abori
about
abr
abrac
abraham
abrams
abre
abreujada
abreujat
abreviacio
abreviatura
abric
abril
abrs
abs
abse
absent
absents
absis
absolt
absolut
absoluta
absolutament
absolutiu
absorbeix
absorbida
absorbir
absorbit
absorcio
abstenir
abstraccio
abstract
abstracta
abstracte
abstractes
absurd
abu
abunda
abundant
abundants
abunden
abuse
abusos
ac
aca
acaba
acabada
acabades
acabament
acabant
acabar
acabara
acabaren
acabaria
acabat
acabats
acabava
acabaven
acabe
acaben
acabi
acad
acade
academia
academic
academy
acaia
acampar
acb
accademia
acce
accedeix
accedir
accedit
acceleracio
accelerar
accent
accepcions
accepta
acceptable
acceptacio
acceptada
acceptades
acceptant
acceptar
acceptat
acceptava
accepten
access
accessed
accessibilitat
accessible
accessibles
accessoris
accessos
accident
accidental
accidentalment
accidents
accio
accionista
accionistes
accions
according
account
ace
acer
achievement
aci
acid
aclamat
aclariment
aclarir
acm
aco
acoblament
acollida
acolliment
acollir
acollit
acomiadar
acomiadat
acompanya
acompanyada
acompanyades
acompanyament
acompanyant
acompanyar
acompanyat
acompanyats
acompanyava
acompanyen
aconsegueix
aconsegueixen
aconsegui
aconseguia
aconseguida
aconseguint
aconseguir
aconseguiren
aconseguiria
aconseguit
aconseguits
aconsella
aconsellar
acord
acorda
acordar
acordat
acords
acosta
acostament
acostar
acostuma
acostumen
acre
acreditar
acreditat
acres
acro
acroba
across
acs
act
acta
actas
acte
actes
action
actitud
actituds
actiu
actius
activa
activacio
activament
activar
active
actives
activisme
activista
activistes
activitat
activitats
activities
activity
actor
actores
actors
actress
actriu
actrius
actua
actuacio
actuacions
actual
actualidad
actualitat
actualitzacio
actualitzacions
actualitzada
actualitzar
actualitzat
actualitzi
actualment
actuals
actuant
actuar
actuat
actuava
actuaven
actuen
acu
acudir
acull
acumula
acumulacio
acumular
acumulat
acurada
acuradament
acusa
acusacio
acusacions
acusada
acusant
acusar
acusat
acusatiu
acusats
acute
ad
ada
adagio
adalbert
adam
adams
adapta
adaptacio
adaptacions
adaptada
adaptades
adaptant
adaptar
adaptat
adaptats
add
addiccio
addicio
addicional
addicionalment
addicionals
addis
addison
additiu
additius
address
ade
adela
adelaida
adelaide
aden
adequacio
adequada
adequadament
adequades
adequat
adequats
ades
adherir
adhesio
adi
adient
adif
adio
adjacent
adjacents
adjectiu
adjectius
adjudicar
adjunt
adjunta
adler
adme
admesa
admet
admetre
administra
administracio
administracions
administrada
administrador
administradors
administrar
administrat
administration
administratiu
administratius
administrativa
administrativament
administrative
administratives
admiracio
admirar
admissio
adn
ado
adobe
adolesce
adolescent
adolescents
adolf
adolfo
adolphe
adona
adonar
adopcio
adopta
adoptada
adoptant
adoptar
adoptat
adopten
adoptiu
ador
adora
adoracio
adors
adossada
adossades
adossat
adossats
adovellada
adovellat
adquireix
adquireixen
adquiri
adquirida
adquirint
adquirir
adquirit
adquirits
adquisicio
adrec
adreces
adria
adrian
adriana
adriano
adrien
adscrit
adult
adulta
adultes
adults
advance
advanced
advances
adveniment
adventure
adventures
adverbial
adversari
adversaris
adverte
adverteix
advertir
advocacio
advocada
advocat
advocats
ae
aelc
aequo
aeri
aeris
aero
aerodina
aeroli
aerona
aeronau
aeronaus
aeroport
aeroports
af
afany
afavoreix
afavorir
afavorit
afc
afeccio
afeccionats
afecta
afectacio
afectada
afectades
afectar
afectat
afectats
afecte
afecten
afegeix
afegeixen
afegi
afegida
afegint
afegir
afegit
afegits
afer
afers
affair
affairs
afgane
afganistan
afghanistan
afi
aficio
aficionat
aficionats
afiliacio
afiliar
afiliat
afiliats
afinitat
afins
afirma
afirmacio
afirmacions
afirmant
afirmar
afirmat
afirmava
afirmen
aflue
afluent
afluents
afonso
afores
afp
afr
africa
african
africana
africanes
africans
afrique
afro
afroamericana
afroamericans
afrodita
afrontar
after
afusellat
ag
aga
agafa
agafant
agafar
agafat
again
against
agassiz
agata
agave
age
agencia
agency
agenda
agent
agents
ages
agha
agitacio
aglomeracio
agne
agnes
ago
agost
agostino
agosto
agra
agrada
agradable
agradar
agradava
agrai
agramunt
agrari
agreement
agregar
agregat
agregats
agressio
agressions
agressiu
agressiva
agri
agricoles
agricultors
agricultura
agricultural
agriculture
agro
agrupa
agrupacio
agrupacions
agrupades
agrupament
agrupar
agrupats
agrupen
agu
agua
aguantar
aguas
aguda
aguilar
aguilera
aguilo
aguirre
agulla
agulles
agullo
agusti
agut
aguts
ah
ahead
ahir
ahmad
ahmed
ahont
ahora
ai
aid
aida
aigu
aigua
aiguamolls
aiguate
aime
ain
aina
air
airbus
aircraft
aire
aires
airlines
airport
airways
ais
aise
aisne
aix
aixeca
aixecada
aixecament
aixecar
aixecat
aixi
aixo
aixot
aj
ajax
ajornar
ajuda
ajudant
ajudants
ajudar
ajudat
ajudava
ajuden
ajudes
ajuntament
ajuntaments
ajuntar
ajust
ajusta
ajustar
ajut
ak
aka
akad
akademie
akal
akbar
aki
akira
al
ala
alabama
alacant
alacanti
alada
alain
alan
alar
alarco
alarma
alaska
alat
alats
alave
alba
albacete
albaida
alban
albane
albany
albe
albedo
albera
alberga
albergar
albert
alberta
alberti
alberto
albi
albin
albrecht
albufera
album
albums
albuquerque
alc
alca
alcala
alcalde
alcaldes
alcaldessa
alcaldia
alcoho
alcohol
alcoi
alcoia
alcora
alcover
alcoy
alcu
aldarulls
aldea
aldo
ale
aleato
aleatori
alec
alegre
alegri
alegria
aleix
alejandra
alejandro
aleksandr
aleksei
alema
alemany
alemanya
alemanyes
alemanys
alep
alera
alerta
ales
aleshores
alessandro
aleta
aletes
alex
alexander
alexandra
alexandre
alexandria
alexis
alfa
alfabe
alfabet
alfabetitzacio
alfaro
alfil
alfons
alfonso
alfred
alfredo
algarve
alge
algebra
algebraica
alger
algeria
algorisme
algorismes
algu
alguer
alguere
algueresa
algues
algun
alguna
algunas
algunes
algunos
alguns
alhambra
alhora
ali
alia
aliada
aliades
alianc
aliances
alianza
aliar
aliat
aliatge
aliatges
aliats
alicante
alice
alicia
alie
alien
aliens
alier
aligned
aliment
alimenta
alimentacio
alimentar
alimentari
alimentaris
alimentat
alimenten
aliments
alineacio
alinear
alison
alive
all
alla
allah
allan
allarga
allargada
allargades
allargar
allargat
alle
allegro
allen
allende
alleujar
allgemeine
alli
alliance
allibera
alliberada
alliberament
alliberant
alliberar
alliberat
alliberats
alliberen
allison
allistar
allium
allmusic
allo
allocine
allotja
allotjament
allotjar
allunya
allunyada
allunyar
allunyat
allunyats
alma
almagro
almanac
almeida
almenys
almeri
almeria
almirall
almodo
almoga
almora
alo
aloe
alone
along
alonso
alosa
alou
alpha
alphonse
alpi
alpina
alpine
alps
alqueria
alqui
als
alsa
alsacia
alsina
also
alt
alta
altai
altament
altar
altars
alte
alter
altera
alteracio
alteracions
alterar
alterat
alterna
alternanc
alternant
alternar
alternatiu
alternatius
alternativa
alternativament
alternative
alternatives
altes
altesa
alti
altipla
altitud
altituds
alto
altra
altrament
altre
altres
alts
altura
altures
alumini
alumna
alumnat
alumne
alumnes
alvarado
alvarez
alve
alves
always
alzheimer
alzina
alzines
alzira
am
ama
amable
amades
amadeu
amadeus
amador
amaga
amagada
amagar
amagat
amagats
amalia
amanda
amant
amants
amaoka
amar
amarg
amat
amateur
amateurs
amazic
amazics
amazing
amazo
amazon
amazones
amb
ambaixada
ambaixador
ambaixadors
ambdo
ambdues
amber
ambic
ambicio
ambicions
ambient
ambientada
ambiental
ambientals
ambiente
ambients
ambigu
ambique
ambro
ambula
amd
ame
amelia
amenac
amenaces
amendi
ament
aments
amer
ameri
america
american
americana
americanes
americano
americans
americas
amerindis
ames
ametlla
amfi
amfibi
amfibis
amfiteatre
amfitrio
ami
amic
amich
amics
amida
amiens
amiga
amigo
amigos
amigues
amin
amino
aminoa
amir
amirs
amistat
amistats
amisto
amnistia
amo
amon
among
amoni
amor
amore
amoro
amorosa
amors
amos
amour
amparo
ampit
ampla
amplada
ample
amples
ampli
amplia
ampliacio
ampliacions
ampliada
ampliant
ampliar
ampliat
amplis
amplitud
ampolla
ampolles
amposta
amr
amsterdam
amt
amunt
amy
an
ana
anacroneuria
anada
anagrama
anagrames
anal
anales
anali
analista
analitza
analitzar
analo
analogia
analysis
anand
anant
anar
anaren
anarquia
anarquisme
anarquista
anarquistes
anas
anat
anato
anatoli
anatomia
anatomica
anatomy
anava
anaven
anc
ancestral
ancestre
ancestres
ancia
ancians
ancient
and
andalu
andaluci
andalusa
andalusi
andalusia
andante
anders
andersen
anderson
andersson
andes
andorra
andorrana
andorrans
andrade
andre
andrea
andreas
andrei
andreu
andrew
andrews
andria
andro
android
andrzej
andy
ane
anell
anells
anem
anes
aneste
anet
ang
ange
angel
angela
angeles
angelina
angelo
angels
angers
anglada
anglaterra
angle
angles
anglesa
angleses
anglesola
anglesos
anglo
anglosaxo
anglosaxona
anglosaxons
angoixa
angola
anguera
angular
angulema
anhalt
ani
anima
animacio
animacions
animada
animador
animal
animals
animar
animat
animated
animation
animats
anime
anions
anira
aniria
anita
aniversari
anjou
ankara
ann
anna
annales
annals
anne
annette
annex
annexa
annexes
annexio
annexionar
annexionat
annexos
anni
annie
anniversary
anno
annotated
announced
announces
annual
ano
anoia
anomalies
anomena
anomenada
anomenades
anomenant
anomenar
anomenat
anomenats
anomenava
anomenaven
anomenen
anos
anotacio
anotacions
anotar
another
ans
anselm
ansietat
ant
anta
antagonista
antarctic
ante
antecedent
antecedents
antecessor
antena
antenes
antequera
anterior
anterioritat
anteriorment
anteriors
antes
anthology
anthony
anthropology
anthurium
anti
antibio
antic
antich
antico
anticossos
antics
antifeixista
antiga
antigament
antigen
antigu
antigua
antigues
antiguitat
antiguitats
antiguo
antilles
antioquia
antiquities
antiquity
antisemitisme
anto
antoine
antologi
antologia
anton
antoni
antonia
antonieta
antonio
antony
antropo
antropolo
antropologia
anual
anualment
anuals
anuari
anuario
anul
anunci
anuncia
anunciacio
anunciada
anunciant
anunciar
anunciat
anunciava
anuncis
anvers
any
anys
anza
ao
aosta
ap
apa
apache
apagar
aparcament
apare
aparegue
aparegueren
aparegut
apareix
apareixen
apareixent
apareixia
apareixien
aparell
aparellament
aparells
aparenc
aparent
aparentment
aparicio
aparicions
apart
apartament
apartaments
apartar
apartat
apartats
apartheid
apassionat
ape
apel
apertura
api
aplec
aplega
aplegar
aplica
aplicable
aplicacio
aplicacions
aplicada
aplicades
aplicant
aplicar
aplicat
aplicava
apliquen
apo
apocalipsi
apoderar
apogeu
apogon
apol
apollo
aporta
aportacio
aportacions
aportant
aportar
aportat
aporten
aposta
apostar
aposto
app
apple
appleton
application
applications
applied
approach
approaches
apps
apr
apre
aprecia
apreciada
apreciar
apreciat
aprendre
aprenent
aprenentatge
apres
april
aprofita
aprofitament
aprofitant
aprofitar
aprofitat
aprofiten
aprofundir
apropa
apropar
apropiada
apropiat
aprova
aprovacio
aprovada
aprovades
aprovar
aprovat
aprovats
aproximacio
aproximacions
aproximada
aproximadament
aproximar
aproximat
apt
apte
aptes
apunta
apuntada
apuntar
apuntat
apuntats
apunten
apuntes
apunts
aq
aqu
aqua
aquarel
aquari
aquarien
aquarium
aquatab
aquatic
aqueix
aqueixa
aquell
aquella
aquelles
aquells
aqueme
aques
aquest
aquesta
aquestas
aquestes
aquestos
aquests
aqui
aquil
aquila
aquino
aquisgra
aquita
ar
ara
arab
arabia
arabic
araga
arago
aragon
aragone
aragonesa
aragonesos
arameu
aran
arana
aranda
arane
araneus
aranya
aranyes
arbitra
arbitratge
arbo
arboc
arbor
arborea
arbori
arbre
arbres
arbu
arbust
arbustos
arbusts
arc
arca
arcada
arcade
arcades
arcadi
arcaic
arcaica
arcaiques
arcaisme
arce
arch
archaeological
archaeology
arche
archer
archibald
archie
archipelago
architecture
archive
archived
archives
archivo
archivos
arco
arcs
arctic
arctos
ard
arde
ardenes
ardent
ardiaca
are
area
areas
aren
arena
arenas
arenys
ares
aresta
arestes
arg
argelers
argent
argenti
argentina
argentino
argentins
argento
argentona
argila
argo
argos
argot
argu
argument
argumenta
argumentant
argumentar
argumenten
arguments
ari
aria
ariadna
arias
arieja
ariel
arij
aristo
aristocra
aritme
arizona
ark
arkansas
arle
arles
arlington
arm
arma
armada
armades
armadura
armament
armand
armando
armar
armari
armas
armat
armats
arme
armengol
armeni
armenia
armenian
armenis
armes
armin
armistici
armored
arms
armstrong
army
arn
arnau
arnaud
arne
arnes
arnold
aro
aroma
around
arpa
arquebisbat
arquebisbe
arqueo
arqueolo
arqueologi
arqueologia
arquers
arquitecta
arquitecte
arquitectes
arquitecto
arquitectura
arrabassar
arran
arranjament
arranjaments
array
arrebossada
arrebossat
arrebossats
arreglar
arrel
arrels
arrenca
arrencada
arrencar
arrest
arrestar
arrestat
arrestats
arreu
arriba
arribada
arribant
arribar
arribara
arribaren
arribaria
arribat
arribats
arribava
arribaven
arribe
arriben
arribi
arro
arrodonida
arrodonides
arrodonit
arrossegament
arrossegar
arroyo
arrui
ars
arse
arsenal
arslan
art
arta
arte
artefacte
artefactes
artemisia
arterial
artes
artesa
artesanal
artesania
artesans
arthur
arti
article
articles
articulacio
articulacions
articular
artificial
artificials
artigas
artilleria
artist
artista
artistas
artistes
artists
artois
artritis
artro
arts
artu
artur
arturo
aru
arxidio
arxiduc
arxiduquessa
arxipe
arxiu
arxius
arxiv
arxivada
arxivat
arxiver
arxivi
as
asa
ascende
ascendent
ascendi
ascendir
ascendit
ascens
ascensio
ascensor
asco
ase
ases
asfalt
ash
ashley
asi
asia
asian
asiatic
asil
asime
asimov
asma
aso
asociacio
asp
aspecte
aspectes
aspects
asperger
aspiracio
aspiracions
aspirant
aspres
aspx
assabenta
assabentar
assagista
assaig
assaigs
assajos
assalt
assaltar
assalts
assam
assassi
assassina
assassinada
assassinar
assassinat
assassinats
assassins
assecar
asseguda
assegura
assegurances
assegurant
assegurar
assegurat
assegurava
asseguren
assegut
assembla
assemblea
assemblees
assemblen
assembly
assenta
assentament
assentaments
assentar
assenyala
assenyalant
assenyalar
assenyalat
assenyalen
assessment
assessor
assessora
assessorament
assessors
assetjada
assetjament
assetjar
assetjat
assetjats
asseure
assi
assigna
assignacio
assignada
assignar
assignat
assignats
assignatura
assimilacio
assimilar
assiri
assiris
assiste
assisteix
assistent
assistents
assisti
assistir
assistit
associa
associacio
associacions
associada
associades
associar
associat
associated
associates
association
associations
associats
associazione
associen
assolar
assoleix
assoleixen
assoli
assoliment
assolint
assolir
assolit
assumeix
assumi
assumint
assumir
assumit
assumpcio
assumpte
assumptes
asta
astana
aste
asteca
asteroide
asteroides
asti
aston
astor
astre
astro
astrofi
astrogeology
astrologia
astronauta
astronautes
astrono
astronomia
astronomical
astronomy
astrophysical
astrophysics
astu
asturia
asturiana
asturias
asuncio
at
ata
atac
ataca
atacada
atacant
atacants
atacar
atacat
atacats
atacs
ataque
ataquen
atari
ate
atemptat
atemptats
atena
atencio
atendre
atenenc
atenencs
atenent
atenes
ateneu
aterrar
aterratge
atesa
athens
athletic
athletics
ati
ations
atkinson
atla
atlanta
atlantic
atlantis
atlas
atle
atles
atleta
atletes
atletisme
atmosfe
atmosfera
atmospheric
ato
atol
atomic
atorga
atorgada
atorgar
atorgat
atorgats
atorgava
atorguen
atp
atraccio
atraccions
atractiu
atractius
atractiva
atrapar
atrapat
atrapats
atraure
atret
atreu
atreure
atri
atribucio
atribucions
atribueix
atribueixen
atribui
atribuir
atribut
atributs
ats
attack
atur
atura
aturada
aturades
aturar
aturat
atzar
atzur
au
aube
aubin
auckland
aude
audenaerde
audi
audicio
audie
audiencia
audio
audiovisual
audiovisuals
auditori
audrey
auf
aug
auge
augment
augmenta
augmentada
augmentant
augmentar
augmentat
augmenten
augsburg
august
augusta
auguste
augustin
augusto
augustus
aula
aules
aun
aura
aure
aureli
aurelio
aurora
aus
auschwitz
ausia
aust
austeritat
austin
austra
austral
australia
australian
australiana
australians
australis
austri
austria
austrohongare
aute
autenticitat
author
authority
autism
autisme
auto
autobiogra
autobiografia
autobiography
autobu
autobusos
autodeterminacio
autodidacta
autoescola
autogovern
automa
automo
automobili
automobilisme
autono
autonomia
autonomista
autopista
autopistes
autor
autora
autores
autoretrat
autoria
autoritat
autoritats
autoritza
autoritzacio
autoritzada
autoritzar
autoritzat
autors
autovia
autres
aux
auxerre
auxili
auxiliar
auxiliars
av
ava
available
avall
avaluacio
avaluar
avanc
avant
avantatge
avantatges
avantguarda
avantpassat
avantpassats
avatar
ave
avec
avem
aven
avenc
avengers
avenir
aventura
aventures
avenue
avery
aves
avew
avi
avia
aviacio
aviat
aviation
avile
avinguda
avingudes
avinyo
avio
avions
avis
avisar
avisos
aviv
avn
avortament
avril
avui
avuy
aw
award
awards
away
ax
axel
axelrod
axi
axial
axioma
axis
axo
ay
ayala
ayer
aygua
ayuntamiento
az
azan
azerbaidjan
azerbaijan
aziz
aznar
azul
aŋ
aɫ
aɾ
aɾem
aɾen
aɾes
aɾew
aɾse
b
ba
bab
baba
babilo
baby
bac
bacalla
bach
back
background
bacon
bacteri
bacteria
bacteris
bad
badajoz
badalona
baden
badia
bae
baensch
bafta
baga
bagdad
bages
baha
bahadur
bahames
bahia
bahrain
bai
baile
bailey
bains
baiona
baird
baix
baixa
baixada
baixant
baixar
baixen
baixes
baixista
baixos
baja
bajo
baker
bakr
baku
bal
bala
balada
balaguer
balanc
balca
balcans
balcells
balco
balconada
balcons
baldui
baldwin
balea
balear
baleares
balears
balena
balenes
bales
bali
balkh
ball
balla
ballant
ballar
ballari
ballarina
ballarins
ballester
ballesteros
ballet
ballets
balls
balmes
balneari
baltasar
baltimore
baluard
balustrada
bam
bambu
ban
banc
banca
banco
bancs
band
banda
bande
bandera
banderes
bandes
bandits
bang
bangkok
bangladesh
bank
banks
banquer
banquet
banqueta
banu
bany
banya
banyes
banyoles
banys
banyuls
bao
baptisme
baptista
baptiste
bar
bara
barack
baralla
baralles
barana
baranes
barat
barata
barba
barbara
barber
barbera
barbus
barc
barca
barcelo
barcelona
barcelone
barceloneta
barceloni
barcelonina
barcelonins
barcino
barco
bardem
bari
barker
barnes
barney
baro
baron
baronia
barons
baroque
barques
barr
barra
barraca
barral
barranc
barrancs
barraques
barre
barregen
barreja
barrejar
barrejat
barrejats
barrera
barreres
barres
barret
barrett
barri
barrier
barrio
barrios
barris
barroc
barroca
barron
barros
barrow
barry
bars
bart
barthe
bartlett
bartolome
bartolomeo
bartomeu
barton
bas
basa
basada
basades
basal
basament
basant
basar
basat
basats
basava
basc
basca
bascos
base
based
basen
bases
basi
basic
basil
basilea
basili
basilical
basin
basis
basket
basketball
basquetbol
bass
bassa
basse
bassegoda
basses
basta
bastant
bastants
bastard
bastida
bastides
bastien
bastio
bastir
bastit
basto
bastons
bat
bata
batalla
batalles
batallo
batallons
bateig
batejada
batejar
batejat
batejats
bateria
bateries
bates
bath
batista
batle
batlle
batllia
batllo
batman
batre
battista
battle
batuda
batxillerat
bauchot
bauer
baumann
bautista
baviera
baxter
bay
bayer
bayern
bayreuth
baza
baɫ
baɾ
bb
bbc
bc
bcn
bd
bdfutbol
bdits
be
bea
beach
bean
bear
bearn
beasley
beast
beat
beata
beatificacio
beatles
beatrice
beatriu
beatriz
beats
beau
beaufort
beaumont
beautiful
beauty
beaux
bebe
bec
beca
became
becat
because
beck
becker
beckett
become
becomes
beda
bedford
bee
been
beer
beethoven
before
beg
begin
beginning
begins
beguda
begudes
behavior
behind
bei
beijing
being
beirut
beisbol
beit
beitra
bel
bela
bele
belfast
belga
belgique
belgium
belgrad
belgrano
belgues
believe
belize
bell
bella
bellas
bellaterra
belle
bellera
belles
bellesa
bellini
bellmunt
bello
bellpuig
bells
bellver
belmonte
beltra
bemoll
ben
bend
bene
benedetto
benediccio
benedict
benedicti
benefactiu
benefice
benefici
beneficiar
beneficis
benei
benestant
benestar
benet
benfica
bengala
bengali
beni
benicarlo
benidorm
benine
benito
benjami
benjamin
bennett
benny
benoi
benoit
benoni
bens
benson
benth
bentley
bento
bentopela
benvinguda
benz
beolens
beques
ber
bera
berenguer
berg
berga
bergen
berger
bergman
bergueda
bering
berkeley
berli
berlin
berlinale
berliner
bermu
berna
bernabe
bernadette
bernal
bernard
bernardino
bernardo
bernat
bernhard
bernstein
berry
bert
berta
bertaco
bertran
bertrana
bertrand
bes
besalu
besanc
beso
besso
bessones
bessons
best
bestiar
bet
beta
beteve
beth
bethesda
betis
betlem
better
betty
between
beu
beure
beverly
bey
beyond
beɾ
bf
bhutan
bi
bia
biaix
bianca
bianchi
bibcode
bible
biblio
bibliogra
bibliografia
bibliography
biblioteca
bibliotecari
biblioteques
bibliothe
bic
bica
bicicleta
bicicletes
bicolor
bics
bid
bida
biden
bids
bie
biel
bieloru
bien
biennal
bies
big
biga
biggest
bigues
bihar
bil
bilateral
bilbao
bilingu
bill
billar
billboard
billie
billy
bils
bin
bina
binari
bing
bingen
bio
biochemistry
biodiversitat
biodiversity
biogeography
biogra
biografi
biografia
biografico
biografies
biographical
biographie
biographies
biography
biol
biolib
biolo
biologi
biologia
biological
biology
biome
bioqui
biosfera
biotechnology
bir
bird
birdlife
birds
birma
birmingham
birth
birthday
bis
bisbal
bisbat
bisbe
bisbes
biscaia
bisexual
bisexuals
bishop
bismarck
bissau
bit
bitat
bitats
biti
bitllet
bitllets
bits
bizanci
bizanti
bjo
bl
bla
black
blacks
blackwell
blade
blai
blair
blake
blanc
blanca
blanch
blanche
blanco
blancs
blanes
blanques
blas
blasco
blasonament
blast
blat
blau
blaugrana
blaus
blava
blaves
ble
bleeker
blenniidae
bles
blia
blic
blica
blicament
blico
blics
blind
blindat
blindatge
blindats
bliques
bloc
bloch
block
blocs
blog
blogs
blogspot
blois
blood
bloom
bloomberg
bloomington
bloomsbury
bloqueig
bloquejar
blu
blue
blues
blume
bm
bmatrix
bmc
bmw
bner
bnf
bo
boa
boada
board
boat
bob
bobby
bobina
boc
boca
boda
body
boe
boeing
bofarull
bofill
bogeria
bogota
bohe
boi
boicot
boig
boira
bois
boiss
boix
boja
bol
bola
boldsymbol
boles
bolet
boleti
bolets
boli
bolivia
bolo
bologna
bolonya
bolton
bolxevic
bolxevics
bom
bomb
bomba
bombai
bombardeig
bombardejar
bombardejos
bombarder
bombarders
bomber
bombers
bombes
bombolla
bon
bona
bonaparte
bonaventura
bond
bondat
bone
bones
bonet
bonic
bonica
bonifaci
bonificacio
bonn
bonnie
bono
bons
bonus
bony
book
books
boom
booth
boques
bor
bora
borbo
bord
borda
border
bordes
bordeus
borg
borges
borgonya
bori
boris
borja
born
borneo
borra
borrell
borriana
borsa
bos
bosc
bosch
bosco
boscos
boscoses
boscs
bose
bosnia
boso
bosque
boss
bossa
bosses
boston
bosworth
bot
bota
botanic
botanical
botany
botes
both
boti
botiga
botigues
boto
botons
bots
botswana
bou
boulenger
boulevard
boulogne
boundary
bourg
bous
bovi
bowen
bowie
bowl
box
boxa
boy
boyd
boyer
boyle
boys
boɾ
bp
br
bra
brabant
brac
brad
bradford
bradley
brady
braga
braganc
brahms
brain
branca
brancals
branch
brand
brandenburg
brandon
brandt
branques
bras
brasi
brasil
brasileira
brasileiro
brasiler
brasilera
brasilers
brass
bratislava
brau
braun
brava
bravo
bray
brazil
brazilian
bre
break
breaking
brecht
breda
breder
brega
bregas
bremen
brenda
brent
brescia
breslau
bressol
brest
bretagne
bretanya
breto
breton
bretons
brett
bretxa
breu
breument
breus
breve
brewer
bri
bria
brian
brica
bricolatge
brid
brida
brides
bridge
bridges
brids
brie
brief
brien
brigada
brigades
brigadier
bright
brighton
brigitte
brill
brillant
brillantor
brillants
briques
brisbane
bristol
brita
britain
britannica
british
brito
britten
brno
bro
broadcasting
broadway
broken
broma
bromera
bronx
bronze
brook
brooke
brooker
brooklyn
brooks
bros
brossa
brot
brother
brothers
brots
brou
brown
browne
browning
bru
bruc
bruce
bruges
bruguera
bruixa
bruixeria
bruixes
bruna
brunei
brunet
bruno
brunsvic
brunswick
brussel
brut
bruta
brutal
bruxelles
bryan
bryant
bu
buc
bucarest
buch
buchanan
buck
buckley
buckup
bucle
bucs
buda
budapest
budisme
budista
budistes
bue
buen
buena
bueno
buenos
bufa
bufeta
buffalo
bufo
buida
buides
build
building
buit
buits
buj
bukhara
bul
bula
bules
bulga
bull
bulletin
bullir
bulls
buls
bultaco
bun
bundesliga
bunny
bur
bureau
burg
burge
burgesa
burgesia
burgesos
burgess
burgos
burke
burkina
burla
burma
burn
burning
burns
burocra
burr
burt
burton
burundi
bus
busca
buscant
buscar
buscat
buscava
buscaven
bush
business
busquen
busquets
bussey
bust
buster
but
butaca
butler
butlla
butlleti
butterfly
butxaca
buɫ
bv
bviament
bwv
by
byrne
byron
bytes
byzantine
byzantium
bə
bən
bər
bəs
bəɫ
bɫa
bɫə
bɾa
bɾe
bɾi
bɾo
bɾu
bɾə
c
ca
cabal
caballero
cabana
cabanes
cabanyes
cabaret
cabdal
cabdella
cabdill
cabell
cabells
cabeza
cabildo
cabina
cable
cables
cabo
cabot
cabra
cabral
cabre
cabrera
cabres
cabuda
cac
cacau
cacera
caces
cactus
cada
cadafalch
cadaque
cadascu
cadascun
cadascuna
cade
cadena
cadenes
cades
cadet
cadi
cadira
cadires
cadis
caen
caesar
caf
cafe
cage
cahiers
cai
caient
caiguda
caigudes
caigue
caigut
caiguts
caire
cairo
caironat
caixa
caixes
caixmir
caja
cajal
cal
cala
calafell
calais
calatrava
calb
calc
calca
calci
calcio
calcita
calcula
calcular
calculat
calcuta
caldera
calderes
caldero
calders
caldes
caldra
caldria
cale
caledo
calefaccio
calella
calendar
calendari
calent
calenta
calents
cali
calia
calibre
calif
califa
califat
califo
california
call
calle
called
calls
calma
calmar
calo
calonge
calor
calpe
calvados
calvari
calvet
calvin
calvo
calze
cam
cama
camacho
camarasa
cambio
cambo
cambodja
cambra
cambrer
cambres
cambridge
cambrils
came
camells
cameo
camera
cameron
camerun
cames
cami
camil
camille
camilo
camina
caminant
caminar
camino
camins
camio
camions
camisa
camp
campa
campagne
campaign
campament
campaments
campan
campana
campanar
campanes
campanya
campanyes
campbell
campeo
campeonato
camperol
camperols
campio
campiona
campionat
campionats
campions
campo
campos
camprodon
camps
campus
camus
can
cana
canada
canadenc
canadenca
canadencs
canadian
canal
canals
canari
canaria
canarias
canberra
canc
cancel
canceller
cancelleria
cancer
cancio
canciones
candela
candidat
candidata
candidate
candidates
candidats
candidatura
candidatures
canes
canet
cangur
cani
canigo
canis
cannes
cannon
cano
canon
canonada
canonades
canonge
canonges
canons
cansat
cant
canta
cantada
cantant
cantants
cantar
cantat
cantata
cantatas
cantates
cantautor
cantava
canten
canterbury
canto
canton
cantonada
cantonades
cantonal
cantonals
cantons
cantor
cantos
cants
canvi
canvia
canviant
canviar
canviat
canvien
canvis
canya
canyella
canyelles
canyes
canyon
cao
caos
cap
capa
capac
capaces
capacitat
capacitats
capado
capbaix
capc
capcir
capdamunt
capdavant
capdevila
cape
capell
capella
capellans
capelles
capes
capi
capil
capita
capital
capitalisme
capitalista
capitalitat
capitals
capitania
capitans
capitell
capitells
capitol
capitoli
capitulacio
capitular
capmany
capo
caporiacco
capri
caps
capsa
captacio
captain
captar
captius
captivitat
captura
capturada
capturant
capturar
capturat
capturats
captures
caputxins
car
cara
caracas
caraciformes
caracteri
caracteritza
caracteritzacio
caracteritzada
caracteritzar
caracteritzat
caracteritzen
caragol
caramel
caravana
caravanes
carbo
carbon
carbonat
carbonats
carbonell
carboni
carcassa
carcassona
card
cardedeu
cardenal
cardenals
cardi
cardiff
cardinal
cardinals
cardiovascular
cardo
cardona
care
career
carena
carener
cares
carey
cargo
cargol
cargols
cari
carib
caribbean
caricatura
carisma
caritat
carl
carla
carlemany
carles
carli
carlina
carlines
carlins
carlista
carlo
carlos
carlota
carlsen
carme
carmel
carmelites
carmelo
carmen
carmona
carn
carnaval
carne
carnegie
carner
carnestoltes
carni
carnisseria
carnisseries
carns
caro
carol
caroli
carolina
caroline
carolingi
carolyn
carpats
carpenter
carr
carrasco
carre
carrega
carregada
carregar
carregat
carregats
carrer
carrera
carreras
carreres
carrero
carrers
carretera
carreteres
carreu
carreus
carrie
carril
carrillo
carrio
carro
carroll
carros
carrosseria
cars
carson
carta
cartagena
cartagine
cartaginesos
cartago
cartas
carte
cartell
cartells
carter
cartera
cartes
carto
cartogra
cartografia
cartoixa
cartro
cartutx
cartutxos
carvajal
carvalho
cary
cas
casa
casablanca
casada
casades
casado
casal
casals
casament
casanova
casanovas
casar
casares
casas
casat
casats
casc
cascada
cascades
case
casella
caselles
caserna
casernes
cases
caseta
casey
cash
casi
casimir
casino
caso
casos
casp
casquet
cassa
cassati
cassi
cassini
cassola
cast
casta
castan
castany
castel
castell
castella
castellana
castellanes
castellanisme
castellano
castellanos
castellans
castellar
castellbo
castellcir
castelldefels
casteller
castellera
castellers
castellet
castellnou
castello
castells
castellterc
castellvi
castelo
castes
castigar
castilla
castillo
castle
castor
castro
casual
casualitat
cat
cata
catala
catalan
catalana
catalanes
catalanisme
catalanista
catalano
catalans
catali
catalina
catalitzador
catalog
catalogacio
catalogada
catalogat
catalogue
catalonia
cataloniae
catalun
catalunya
catarina
catastro
cate
catedra
catedral
catedrals
categoria
categories
caterina
catfish
catfishes
catherine
catholic
catifa
catifes
cations
cato
catolicisme
catorze
catorzena
cats
cau
caualler
cauallers
cauca
caucas
caudal
cauen
caure
caus
causa
causada
causades
causal
causant
causar
causat
causats
cause
causen
causes
cautxu
cava
cavall
cavaller
cavalleria
cavallers
cavalls
cave
cavendish
cavitat
cavitats
cb
cbc
cbs
cc
cccb
ccma
cd
cdc
cdot
cdota
cdotes
cdots
cds
ce
ceba
cebria
cec
cech
ceci
cecil
cecilia
cecs
cedeix
cedi
cedida
cedir
cedit
cedits
cee
cega
cegues
cel
celebra
celebracio
celebracions
celebrada
celebrades
celebrant
celebrar
celebraren
celebrat
celebrats
celebrava
celebraven
celebren
celebritats
celeste
celestes
celestial
celia
cell
celler
cellera
cellers
celles
cells
celoni
cels
celta
celtes
celtic
cementeri
cementiri
cementiris
cen
cendra
cendres
cens
censats
censos
censura
census
cent
centelles
centenar
centenari
centenario
centenars
center
centes
centi
centra
centrada
central
centrale
centrals
centrant
centrar
centrat
centre
centreafricana
centreame
centren
centres
centri
centro
cents
centu
centuries
century
ceo
cep
cer
cera
cerca
cercador
cercant
cercar
cercaterm
cercle
cercles
cerda
cerdanya
cerdanyola
cereals
cerebral
cerebrals
ceres
ceret
cerimo
cerimonial
cerimonio
cero
cerro
cert
certa
certain
certamen
certament
certes
certesa
certificacio
certificat
certificats
certs
cervantes
cervell
cervello
cervera
cervesa
ces
cesa
cesare
cesarea
cesi
cesis
cessament
cessar
cessio
cet
cette
ceuta
ceylon
cf
cg
cgi
ch
cha
chaco
chad
chain
chal
challenge
challenger
challenges
chamber
chamberlain
chamberlin
chambers
champ
champagne
champion
champions
championship
championships
champs
chan
chance
chandler
chandra
chang
change
changed
changes
changing
channel
chao
chaos
chapel
chapelle
chaplin
chapman
chapter
characidae
characiformes
characins
characoids
character
characteristics
characterization
characters
charente
charge
charles
charlie
charlotte
chart
chartres
charts
chase
che
check
checklist
chef
chelsea
chem
chemical
chemistry
chen
cheng
cher
cherokee
cherry
chess
chessbase
chessgames
chester
chevalier
chez
chi
chiang
chiapas
chica
chicago
chico
chief
chiesa
child
children
chile
chin
china
chine
chinese
chip
chisholm
chloe
cho
choctaw
choi
choice
choir
chopin
chre
chris
christ
christensen
christi
christian
christianity
christie
christina
christine
christmas
christoph
christophe
christopher
chromosome
chronic
chronicle
chronicles
chronology
chu
chuck
chung
church
churchill
ci
cia
cias
cicero
cichlid
cichlidae
cichliden
cichlids
cicle
cicles
ciclisme
ciclismo
ciclista
ciclistes
ciclo
ciclocro
cid
cida
cidade
cidar
cides
cidi
cido
cids
cie
cielo
cien
ciencia
ciencias
cienti
cies
cigne
cil
cili
cilindrada
cilindre
cilindres
cilment
cils
cim
cima
cimen
cimens
ciment
cimera
cims
cinc
cinca
cinch
cincinnati
cinco
cine
cineasta
cineastes
cinema
cinematogra
cinematografia
cinemes
cingles
cinquanta
cinquantena
cinque
cinquena
cinta
cintes
cintura
cinturo
cio
cipri
cipriniformes
ciprinodontiformes
cir
circ
circa
circle
circuit
circuits
circula
circulacio
circular
circulars
circulen
circumdant
circumdants
circumfere
circumscripcio
circumscripcions
circumsta
circus
cirera
ciri
cirurgia
cis
cisjorda
cisma
cisneros
cistella
cisterna
cit
cita
citacio
citacions
citada
citament
citant
citar
citat
citats
cite
citen
cites
cities
citoplasma
cits
citta
city
ciu
ciudad
ciutada
ciutadana
ciutadania
ciutadans
ciutadella
ciutat
ciutats
civada
civil
civilitzacio
civilitzacions
civilization
civils
ck
cken
cl
cla
clade
clades
claims
clair
claire
clan
clandestina
clandestinitat
clans
clar
clara
clarament
claramunt
clare
claredat
clarence
clarendon
clares
claret
clari
clarinet
clark
clarke
claro
claror
clars
clase
clash
class
classe
classes
classic
classical
classicisme
classics
classifica
classificacio
classificacions
classificada
classificades
classificar
classificat
classification
classificats
classifiquen
clau
claude
claudi
claudia
claudio
claus
claustre
clausura
clave
clay
clayton
cle
clear
clemens
clement
clemente
clementine
cleo
cleopatra
clergat
clergue
clergues
clermont
cles
cleveland
cli
clic
clica
clics
clids
client
clients
cliff
clifford
clima
climate
climent
climes
clin
clinical
clinton
clio
clip
clive
clo
clofeta
cloffa
clor
clorur
clos
closa
closca
close
clot
cloud
clu
club
clube
clubiona
clubs
cluj
clusters
clyde
cm
cn
cnic
cnica
cnicament
cnico
cnics
cniques
cnn
cnrs
cnt
co
coa
coach
coalicio
coast
coastal
coautor
cobalt
cobert
coberta
cobertes
coberts
cobertura
cobla
cobles
cobra
cobrar
cobreix
cobreixen
cobria
cobrint
cobrir
coburg
coca
cocai
coccio
cocks
coco
code
codex
codi
codifica
codificacio
codina
codis
coe
coeficient
coeficients
coet
coets
cofundador
cognitiva
cognitive
cognom
cognomen
cognoms
cohen
cohere
coherent
cohesio
coi
coincide
coincideix
coincideixen
coincidint
coincidir
coixi
col
cola
cold
cole
coleccio
colegio
coleman
coles
colesterol
coli
colibri
colin
coll
colla
collaboration
collada
collades
collado
collar
colle
collected
collection
collections
college
colles
collet
collette
collins
collita
collites
colls
collserola
colo
colom
coloma
colombia
colombiana
colombo
colomer
coloms
colon
colonia
colonial
colonials
colonitzacio
colonitzadors
colonna
colons
color
coloracio
colorado
colored
colors
colpeja
colpejar
cols
colt
colu
columba
columbia
columbus
columna
columnes
columnista
com
coma
comanador
comanda
comandada
comandades
comandament
comandaments
comandant
comandants
comandar
comandat
comandats
comandes
comando
comarca
comarcal
comarcals
comarques
comas
combat
combatent
combatents
combatre
combats
combina
combinacio
combinacions
combinada
combinades
combinant
combinar
combinat
combinats
combinen
comboi
combustible
combustibles
combustio
come
comedia
comedy
comenc
comence
comencen
comenta
comentar
comentari
comentaris
comentarista
comentat
comerc
comercial
comercialitza
comercialitzacio
comercialitzar
comercialitzat
comercialment
comercials
comerciant
comerciants
comercio
comes
comesos
comestible
comestibles
comet
cometa
cometes
cometre
comi
comiat
comic
comicis
comics
coming
comisio
comissari
comissaria
comissaris
comissio
comissionat
comissions
comitatiu
comite
command
commander
comme
commemora
commemoracio
commemorar
commemoratiu
commemorativa
comment
commentary
comments
commerce
commercial
commission
committee
common
commons
commonwealth
communaute
commune
communes
communication
communications
communities
community
comne
como
comoditat
comp
compa
compacta
compacte
compactes
compaginar
compagno
compan
companion
company
companya
companyes
companyia
companyies
companys
compara
comparable
comparacio
comparada
comparant
comparar
comparat
comparatiu
comparativa
comparative
compare
comparison
comparteix
comparteixen
compartia
compartida
compartien
compartiment
compartiments
compartint
compartir
compartit
compartits
compassio
compassos
compatibilitat
compatible
compatibles
compatriota
compendi
compensacio
compensar
compete
competeix
competeixen
competent
competi
competicio
competicions
competidor
competidors
competint
competir
competition
competitiu
compilacio
compilador
compilar
compilation
compleix
compleixen
complement
complementa
complementar
complementari
complements
complert
complet
completa
completada
completament
completant
completar
completat
complete
completes
complets
complex
complexa
complexes
complexitat
complexos
complicacions
complicada
complicat
complicitat
compliment
complir
complot
complutense
compon
compondre
componen
component
components
compongue
componia
comporta
comportament
comportaments
comportar
comportava
comporten
composer
composers
composicio
composicions
compositae
composition
compositor
compositora
compositors
compost
composta
compostel
compostela
compostes
compostos
composts
compra
comprada
comprar
comprat
compre
comprehensive
compren
comprendre
comprenen
comprenia
comprensio
compres
compresa
compressio
comprimit
comprome
compromesa
comprometre
compromi
compromisos
comprovar
compta
comptabilitat
comptable
comptador
comptant
comptar
comptat
comptava
comptaven
compte
compten
comptes
compton
computacio
computacional
computadora
computer
computing
comtal
comtat
comtats
comte
comtes
comtessa
comu
comuna
comunal
comunals
comunament
comune
comunes
comunica
comunicacio
comunicacions
comunicar
comunicat
comunidad
comunio
comuniquen
comunisme
comunista
comunistes
comunita
comunitari
comunitat
comunitats
comuns
con
conan
conca
concacaf
conce
concebre
concebuda
concebut
concedeix
concedi
concedida
concedir
concedit
concedits
concejo
concentra
concentracio
concentracions
concentrar
concentrat
concentren
concepcio
concept
concepte
conceptes
concepts
conceptual
concert
concerto
concerts
concessio
concessions
concha
concili
conciliar
concise
conclave
conclou
concloure
conclusio
conclusions
conco
concordat
concret
concreta
concretament
concretar
concretes
concrets
concurs
concursants
concursos
conde
condecoracio
condecoracions
condecorat
condemna
condemnada
condemnar
condemnat
condemnats
condensacio
condensador
conder
condicio
condicional
condicionat
condicions
condita
conditions
conduccio
conducta
conducte
conductes
conductivitat
conductor
conductors
condueix
condueixen
condui
conduir
cone
coneguda
conegudes
conegue
conegut
coneguts
coneix
coneixem
coneixement
coneixements
coneixen
coneixia
coneixien
confeccio
confederacio
confederats
confere
confereix
conference
confessa
confessar
confessio
confessions
confessor
confia
confianc
confiar
confiat
confidencial
configura
configuracio
configuracions
configurar
configuren
confirma
confirmacio
confirmada
confirmar
confirmat
confirmed
confiscar
conflent
conflict
conflicte
conflictes
conflue
confo
confon
confondre
conforma
conformacio
conformar
conformat
conforme
conformen
conformitat
confraria
confrontacio
confusio
conge
congelacio
congo
congost
congre
congregacio
congregacions
congreso
congress
congressos
coni
conill
conills
conjectura
conjugacio
conjuncio
conjunt
conjunta
conjuntament
conjunts
connecta
connectada
connectades
connectar
connectat
connectats
connecten
connecticut
connection
connector
connectors
connexio
connexions
connor
connotacions
conopial
conquerida
conqueridor
conqueridors
conquerir
conquerit
conques
conquest
conquesta
conquestes
conquilla
conquista
conquistar
conrad
conrea
conrear
conreu
conreus
cons
consagra
consagracio
consagrada
consagrar
consagrat
conscie
conscient
conscients
consecucio
consecutiu
consecutius
consecutiva
consecutives
consegu
conseil
consejo
consell
conseller
consellera
conselleria
consellers
consells
consens
consentiment
consequ
conserva
conservacio
conservada
conservades
conservador
conservadora
conservadors
conservant
conservar
conservat
conservation
conservatori
conservats
conservava
conserven
considera
considerable
considerablement
considerables
consideracio
consideracions
considerada
considerades
considerant
considerar
considerat
considerats
considerava
consideraven
considerem
consideren
consiste
consisteix
consisteixen
consistent
consistia
consistien
consistir
consistori
consol
consola
consolat
consoles
consolida
consolidacio
consolidar
consolidat
consona
consonant
consonants
consorci
consort
conspiracio
conspiradors
consta
constanc
constanci
constant
constanti
constantin
constantinoble
constantment
constants
constar
constatar
constava
constel
consten
constitucio
constitucional
constitucionals
constitucions
constitueix
constitueixen
constituent
constituents
constitui
constituint
constituir
constitution
construccio
construccions
construction
constructiu
constructiva
constructives
constructor
constructors
construeix
construeixen
construi
construint
construir
consuelo
consular
consulta
consultada
consultado
consultar
consultat
consultes
consultiu
consultor
consum
consumeix
consumeixen
consumidor
consumidors
consumir
conta
contact
contactar
contacte
contactes
contador
containing
contaminacio
contaminants
contar
conte
contempla
contemplacio
contemplar
contempora
contemporani
contemporanis
contemporary
contencio
contenen
contenia
contenidor
contenidors
contenien
contenir
content
contents
contes
contesa
contest
contesta
contestar
context
contextos
conti
continent
continental
continentals
continents
contingent
contingents
continguda
contingut
continguts
continu
continua
continuacio
continuada
continuant
continuar
continuara
continuaren
continuaria
continuat
continuava
continuaven
continue
continuen
continui
continus
continuum
contorn
contra
contraatac
contrabaix
contraban
contraccio
contracta
contractacio
contractada
contractar
contractat
contracte
contractes
contradiccio
contradiccions
contrafort
contraforts
contralt
contraposicio
contrapunt
contrarellotge
contrarestar
contrari
contraris
contrast
contrasta
contraure
contre
contreras
contreure
contrib
contribucio
contribucions
contribueix
contribueixen
contribui
contribuint
contribuir
contribution
contributions
control
controla
controlada
controlades
controlador
controladors
controlar
controlat
controlats
controlava
controlaven
controlen
controls
controve
controvertida
controvertit
contundent
conve
convenc
convencio
convencional
convencionals
convencions
conveni
convenie
convenient
convenis
convent
convention
convents
converge
conversa
converses
conversio
converteix
converteixen
converti
convertia
convertida
convertint
convertir
convertira
convertiren
convertiria
convertit
convertits
conviccio
convida
convidada
convidar
convidat
convidats
conviure
convive
convoca
convocada
convocar
convocat
convocato
conway
cook
cooke
cool
cooper
cooperacio
cooperar
cooperation
cooperatiu
cooperativa
cooperatives
coord
coordenades
coordinacio
coordinador
coordinadora
coordinar
coordinat
cop
copa
cope
copeia
copenhagen
copenhaguen
copes
copia
copiar
copies
coppa
coppola
copri
coproduccio
cops
copy
copyright
cor
cora
coral
corall
corals
coratge
corazo
corb
corba
corbera
corbes
cord
corda
cordes
cordo
cords
core
corea
coreana
coreans
coreo
coreografia
cori
corint
cork
corn
corneli
cornelius
cornell
cornella
corner
cornisa
cornualla
coro
corol
corominas
coromines
corona
coronacio
coronada
coronament
coronar
coronat
coronavirus
coronel
corones
corp
corporacio
corporacions
corporal
corporals
corporation
corporativa
corps
corpus
corral
corre
correa
correccio
correccions
correcta
correctament
correcte
correctes
corredor
corredors
corregint
corregir
corregut
correlacio
corren
corrent
corrents
correo
correspon
corresponde
correspondencia
correspondre
correspondria
corresponen
corresponent
corresponents
corresponia
corresponsal
correu
correus
corria
corrosio
corrupcio
cors
cort
cortal
corte
cortes
cortina
corts
corun
corunya
cos
cosa
cosacs
cosas
coses
cosi
cosina
cosins
cosme
cosmo
cosmologia
cosmopolita
cosmos
cosseta
cossos
cost
costa
costaner
costanera
costaneres
costaners
costar
costat
costats
costelles
costera
costes
costos
costum
costums
costura
cot
cota
cotes
coto
cotton
cotxe
cotxes
could
council
count
countries
country
county
coup
coupe
coure
courier
cours
course
court
cov
cova
cover
coves
covid
cox
cp
cpu
cr
cra
craco
craig
crambidae
cranc
crani
cras
crash
crata
crates
crawford
crazy
crc
cre
crea
creacio
creacions
creada
creades
creador
creadora
creadors
creant
crear
crearen
creat
creation
creatiu
creativa
creative
creativitat
creats
creava
crec
credo
cree
creek
creen
creenc
creences
crei
creia
creien
creient
creients
creix
creixement
creixen
creixent
crema
cremada
cremades
cremallera
cremant
cremar
cremat
cremats
cremona
crescut
crespo
cresta
crestes
creta
cretaceous
cretaci
creu
creua
creuada
creuant
creuar
creuat
creuen
creuer
creueria
creuers
creure
creus
crew
cri
cria
criada
criar
criat
criats
criatura
criatures
crida
cridant
cridar
cridat
cries
crim
crime
crimea
crimen
crimes
criminal
criminals
crims
crioll
cripta
crisi
crisis
crist
cristal
cristall
cristalls
cristia
cristian
cristiana
cristianes
cristianisme
cristiano
cristians
cristina
cristo
crit
crite
criteri
criteris
critica
criticada
critical
criticar
criticat
critics
critique
crits
cro
croa
croada
croades
croat
croata
croats
croix
crom
croma
cromosoma
cromosomes
cromwell
cronista
cronistes
crono
cronolo
cronologia
cros
crosby
cross
crossing
crossman
crow
crown
cru
crua
crucial
crucificat
crucifixio
cruel
crueltat
crugies
crui
cruise
crustacis
cruz
cry
crystal
cs
csic
csiro
ct
cter
cters
ctia
ctic
ctica
cticament
ctics
ctil
ctils
ctima
ctimes
ctiques
ctona
ctones
ctons
ctor
ctric
ctrica
ctrics
ctriques
ctrode
ctrodes
cu
cua
cuadernos
cuando
cuatro
cub
cuba
cubana
cubans
cuc
cucs
cucut
cue
cuenca
cuentos
cuerpo
cues
cuesta
cueva
cuevas
cugat
cui
cuidar
cuina
cuinar
cuiner
cuines
cuir
cuirassat
cuirassats
cuita
cuixa
cul
cula
culas
cules
cullen
cullera
culmina
culminacio
culminant
culminar
culo
culos
culpa
culpable
culpables
culs
cult
culta
culte
cultes
cultiu
cultius
cultiva
cultivar
cultura
cultural
culturalment
culturals
culture
cultures
culum
cum
cunningham
cunyat
cup
cura
curacio
curar
cures
curial
curie
curio
curiosa
curiosament
curiositat
current
curri
curs
cursa
cursar
curses
cursiva
curso
cursos
curt
curta
curtes
curtis
curtmetratge
curtmetratges
curts
curvatura
cusco
custo
cut
cuta
cuvier
cv
cxd
cy
cybium
cycle
cyclebase
cycling
cyclisme
cynthia
cyprinidae
cypriniformes
cyr
cyril
cyrus
cz
czech
cə
d
da
dac
dacco
dada
dades
daget
dahl
dai
daily
daisy
dakar
dakota
dal
dalai
dale
dali
dall
dalla
dallas
dalma
dalmau
dals
dalt
dalton
dam
dama
damasc
dame
dames
damia
damon
dampierre
damunt
dan
dana
dance
dancing
dane
danesa
danesos
dangerous
dani
daniel
daniela
daniele
daniels
danish
danny
dans
dansa
danses
dante
danubi
dany
danyar
danyat
danys
danza
dar
dara
darago
darfur
dari
dario
darios
dark
darkness
darmstadt
darrer
darrera
darrerament
darrere
darreres
darreria
darreries
darrers
darwin
das
dat
data
database
datacio
datada
datades
datar
datat
datats
date
daten
dates
datiu
datos
dau
daughter
dauphine
daurada
daurat
daurats
daus
davall
davalla
davallada
davant
davanter
davantera
dave
david
davidson
davies
davis
dawla
dawn
dawson
day
days
db
dc
dcvb
dd
ddaa
de
dea
dead
deadline
deal
dean
death
debat
debate
debatre
debats
debilitat
debo
deborah
debussy
debut
debuta
debutant
debutar
dec
decade
decantar
decaure
december
decideix
decideixen
decidi
decidida
decidir
decidiren
decidit
decimal
decisio
decision
decisions
decisiu
decisiva
declara
declaracio
declaracions
declarada
declarant
declarar
declarat
declarats
declarava
declinacio
declinada
declinar
decline
declivi
decoracio
decoracions
decorada
decorades
decorar
decorat
decoratiu
decoratius
decorativa
decoratives
decorats
decreixent
decret
decretar
decreto
decrets
decurs
dedica
dedicacio
dedicada
dedicades
dedicant
dedicar
dedicat
dedicato
dedicats
dedicava
dedicaven
dediquen
dedueix
deduir
dee
deep
deessa
def
defecte
defectes
defence
defensa
defensada
defensant
defensar
defensat
defensava
defensaven
defense
defensen
defenses
defensiu
defensiva
defensives
defensor
defensora
defensors
deficie
deficient
defineix
defineixen
definia
definicio
definicions
definida
definides
definir
definit
definition
definitiu
definitiva
definitivament
definits
deformacio
defuncio
dega
degli
degradacio
deguda
degudes
degue
degut
deh
dei
deia
deien
deir
deixa
deixant
deixar
deixara
deixaren
deixaria
deixat
deixava
deixaven
deixe
deixeble
deixebles
deixen
deixi
deja
del
dela
delaware
delegacio
delegacions
delegada
delegat
delegats
delfi
delfos
delgado
delhi
deliberadament
delicada
delicat
delicte
delictes
delimitacio
delimitada
delimitat
delinqu
delit
dell
della
delle
dello
dels
delta
dem
dema
demana
demanant
demanar
demanat
demanava
demanaven
demanda
demandes
demanen
demarcacio
deme
demersal
demetri
demo
democra
democracia
democracy
democratic
demogra
demolicio
demostra
demostracio
demostracions
demostrant
demostrar
demostrat
demostren
dempeus
demunt
den
dena
deng
denis
denise
denmark
dennis
denomina
denominacio
denominacions
denominada
denominades
denominar
denominat
denominats
denominen
denota
dens
densa
densament
densitat
densos
dent
dental
dents
denu
denuncia
denunciar
denunciat
denver
deo
deos
dep
departament
departamental
departamento
departaments
department
depe
depende
dependent
dependents
dependre
depenen
depenent
depenia
depenien
deportacio
deportats
deporte
deportes
deportiu
deportiva
deportivo
deposar
deposat
deposicio
depredadors
depredat
depressio
dept
depuis
depuracio
der
derbi
derby
derecho
derechos
derek
deriva
derivacio
derivada
derivades
derivar
derivat
derivats
deriven
derrota
derrotada
derrotant
derrotar
derrotat
derrotats
derrotes
ders
des
desa
desacord
desafiament
desafiar
desagradable
desaigua
desamortitzacio
desapare
desapareguda
desaparegudes
desaparegue
desaparegut
desapareguts
desapareix
desapareixen
desapareixent
desaparicio
desarrollo
desastre
desastres
desavantatge
desca
descalc
descans
descansa
descansar
descansen
descarregar
descartar
descartes
descende
descendeix
descendent
descendents
descendir
descens
descobert
descoberta
descobertes
descoberts
descobreix
descobreixen
descobri
descobridor
descobriment
descobriments
descobrint
descobrir
descomposicio
descomptat
desconeguda
desconegudes
desconegut
desconeguts
desconeix
descontentament
descripcio
descripcions
description
descriptions
descriptiu
descriptiva
descrit
descrita
descrites
descrits
descriu
descriuen
descriure
descrivia
descrivint
desde
dese
desembarcament
desembarcar
desemboca
desembocadura
desembocar
desembre
desempat
desena
desencadenar
desenes
desenvolupa
desenvolupada
desenvolupades
desenvolupador
desenvolupadors
desenvolupament
desenvolupaments
desenvolupant
desenvolupar
desenvolupat
desenvolupats
desenvolupava
desenvolupen
desert
deserts
desesperacio
desesperada
desfer
desfeta
desfilada
desforestacio
desgast
desgra
deshabitada
desig
design
designa
designacio
designada
designar
designat
designats
desigual
desigualtat
desigualtats
desil
desine
desintegracio
desire
desitja
desitjada
desitjat
desitjava
desitjos
desmond
desnivell
desocupat
desocupats
desordre
despatx
desperta
despertar
despesa
despeses
desplac
desplegament
desplegar
despoblat
despossei
despre
despue
destaca
destacable
destacables
destacada
destacades
destacament
destacant
destacar
destacat
destacats
destacava
destaquen
desterrat
desti
destil
destinacio
destinacions
destinada
destinades
destinar
destinat
destinats
destino
destitucio
destitui
destituir
destral
destruccio
destructor
destructors
destrueix
destrui
destruint
destruir
desu
desviacio
desviar
det
details
detall
detalla
detallada
detallades
detallat
detalls
deteccio
detecta
detectar
detectat
detection
detectiu
detective
detector
detencio
detencions
detenir
deteriorament
determina
determinacio
determinada
determinades
determinant
determinants
determinar
determinat
determinats
determinen
detinguda
detingut
detinguts
detriment
detroit
deu
deuen
deure
deures
deus
deute
deutes
deutsch
deutsche
deutschen
deutscher
deutschland
deux
dev
devant
devastar
development
devesa
devi
devia
devien
devil
devocio
devon
dex
deya
dez
df
dg
dh
dhabi
dharma
dhuc
di
dia
diabetis
diable
diables
diablo
diaca
diada
diafragma
diagno
diagnosis
diagnosticar
diagonal
diagrama
diagrames
diale
dialectal
dialecte
dialectes
dialnet
diamant
diamants
diamond
diana
diane
diari
diario
diaris
diarrea
diary
dias
diaz
dibuix
dibuixa
dibuixant
dibuixants
dibuixar
dibuixat
dibuixos
dic
dica
dicament
diccionari
diccionario
diccionaris
dice
dich
dici
diciembre
dick
dickens
dickinson
dico
dics
dicta
dictador
dictadura
dictar
dictionary
dictionnaire
did
dida
dides
didier
dids
die
diec
died
diego
diem
dient
dies
diet
dieta
dieter
dietrich
dieu
diez
difere
difereix
difereixen
diferencia
diferenciacio
diferenciada
diferenciades
diferencial
diferencials
diferenciar
diferenciat
diferenciats
diferencien
diferent
diferents
different
difi
dificulta
dificultat
dificultats
difo
difondre
difunt
difunts
difusio
digest
digestio
digestiu
digital
digitalitzacio
digitals
digna
digne
dignes
dignitat
digue
digui
dijon
dijous
dilige
dillon
dilluns
dimarts
dimecres
dimensio
dimensional
dimensions
diminutiu
dimissio
dimiti
dimitir
dimitri
dimoni
dimonis
din
dina
dinamarca
dinamo
dinar
dinastia
dinasties
diner
diners
ding
dino
dinosaur
dinosaure
dinosaures
dinosaurs
dinou
dinovena
dins
dintre
dio
diocesa
diocese
dioclecia
diodor
dioni
dios
dip
diploma
diplomat
dipo
dipositar
dipositat
diptera
diputacio
diputada
diputados
diputat
diputats
diques
dir
dira
dire
direccio
direccional
direccions
direct
directa
directament
directe
directes
direction
directiu
directius
directiva
director
directora
directori
directors
directory
directrius
diria
dirigeix
dirigeixen
dirigent
dirigents
dirigi
dirigia
dirigida
dirigides
dirigien
dirigint
dirigir
dirigit
dirigits
dirk
dirty
dis
disc
discapacitat
discapacitats
disciplina
disciplines
disco
discogra
discografia
discogs
discorre
discos
discoteca
discovered
discovery
discrepa
discret
discreta
discriminacio
discs
discurs
discurso
discursos
discussio
discussion
discussions
discuteix
discutida
discutir
discutit
disease
diseases
disen
disminucio
disminueix
disminui
disminuint
disminuir
disney
disorder
disorders
dispara
disparar
dispersa
dispersar
disperses
dispersio
dispersos
display
displaystyle
disponibilitat
disponible
disponibles
disposa
disposada
disposades
disposar
disposat
disposats
disposava
disposaven
disposen
disposicio
disposicions
dispositiu
dispositius
disputa
disputada
disputades
disputant
disputar
disputaren
disputat
disputats
disputava
disputen
disputes
dissabte
dissabtes
disseny
dissenya
dissenyada
dissenyades
dissenyador
dissenyadora
dissenyadors
dissenyar
dissenyat
dissenyats
dissenys
disset
dissidents
dissol
dissoldre
dissolt
dissolta
dissolucio
dissolvent
dista
distance
distancia
distant
distincio
distincions
distingeix
distingeixen
distingida
distingir
distingit
distingits
distintes
distintiu
distintius
distints
distorsio
distribucio
distribucions
distribueix
distribueixen
distribui
distribuir
distribution
district
districte
districtes
disturbis
dit
dita
diterrane
dites
dition
ditions
dits
diu
diuen
diumenge
diumenges
diva
divendres
diverge
divers
diversa
diverses
diversio
diversitat
diversity
diversos
divertida
divertit
divi
divideix
divideixen
dividi
dividia
dividida
dividides
dividint
dividir
dividit
dividits
divina
divinitat
divinitats
divisa
divisio
division
divisions
diviso
divorci
divorciar
divuit
divulgacio
divulgar
dix
dixon
diz
dizionario
dj
djibouti
djvu
dk
dl
dm
dminton
dmitri
dn
dna
dnie
dnv
do
doblada
doblar
doblat
doblatge
doble
dobles
doblet
doc
doce
docent
docents
docs
doctor
doctora
doctoral
doctorar
doctorat
doctors
doctrina
doctrines
document
documenta
documentacio
documentada
documentades
documental
documentals
documentar
documentary
documentat
documentation
documentats
documentos
documents
dodge
dodson
does
dofi
dofins
dog
dogc
dogma
dogs
dogv
doha
doi
dol
dolc
dolces
dolent
dolenta
dolents
doll
dollfus
dolly
dolmen
dolor
dolores
dolorosa
dolors
dols
dom
doma
domain
domaine
dome
domenico
domi
domicili
domina
dominacio
dominada
dominant
dominants
dominar
dominat
dominava
dominaven
dominen
domingo
domini
dominic
dominica
dominicana
dominics
dominique
dominis
domus
don
dona
donacio
donacions
donada
donades
donald
donant
donar
donara
donaren
donaria
donat
donatello
donats
donava
donaven
donchs
doncs
donde
done
donen
dones
donetsk
dong
doni
donizetti
donkey
donna
donne
donnell
dons
donya
donzella
doom
door
dopatge
dor
dora
dorado
dordonya
doria
doris
dorling
dormir
dormitori
dorothy
dors
dorsal
dorsals
dorset
dortmund
dos
dosi
dosis
dossier
dot
dotacio
dotada
dotar
dotat
dots
dotze
dotzena
dotzenes
douard
double
doubleday
doubs
douce
douces
doug
douglas
dovelles
dover
down
download
doyle
dp
dr
dra
drac
dracs
dracula
draft
drag
drago
dragon
dragons
drake
drama
dramaturg
drames
drap
drassanes
dre
dream
dreams
drenatge
dresden
dret
dreta
dretes
drets
drew
dric
drica
drics
drive
driver
dro
droga
drogues
droit
drom
drug
drugs
ds
dsm
dt
du
dua
dual
duarte
duas
dubai
dubli
dublin
dubois
dubtar
dubte
dubtes
dubtosa
duc
ducal
ducat
ducats
duch
duck
ducs
dudley
due
duel
duen
duent
duero
dues
duet
duffy
dugue
duia
duien
duke
dul
dulce
duls
dumas
dumont
dun
duncan
dunes
dunkerque
dunn
duo
duplicar
dupont
duque
duquessa
dur
dura
duracio
durada
duradora
durament
duran
durand
durango
durant
durante
durar
dures
duresa
durham
during
durs
dust
dut
duta
dutch
dutes
duty
duu
dux
dvb
dvd
dw
dwarf
dwight
dx
dy
dylan
dynamics
dynasty
dz
də
dəs
dəz
dɾi
e
ea
eagle
earl
earliest
early
earth
east
eastern
easy
eaton
eau
eaux
eb
ebert
ebola
ebre
ebro
ebullicio
ec
ecclesiae
echo
ecle
eclesia
eclipse
eclipsi
eco
ecolo
ecologia
ecological
ecologista
ecology
econo
economi
economia
economic
economics
economies
economist
economista
economistes
economy
ecoregio
ecosistema
ecosistemes
ecuador
ecume
ed
eda
edad
edat
edats
edda
eddie
eddy
eden
edessa
edgar
edge
edicio
ediciones
edicions
edicte
edificacio
edificacions
edificada
edificar
edificat
edifici
edificis
edimburg
edinburgh
edipucrs
edison
edit
edita
editada
editar
editat
editats
edited
edith
editio
edition
editions
editor
editora
editore
editores
editorial
editorials
editors
editrice
edizioni
edmond
edmund
edo
edre
eds
edu
eduard
eduardo
educacio
educada
educador
educar
educat
education
educational
educatiu
educatius
educativa
educatives
educte
edward
edwards
edwin
ee
een
ef
efe
efecte
efectes
efectiu
efectius
efectiva
efectivament
efectivitat
efectua
efectuar
efectuat
efeme
efes
effect
effects
efi
efica
eficac
eficie
eficient
eficients
egea
egeu
egg
egi
egipci
egipcis
egipte
egipto
ego
egypt
egyptian
eh
ei
eibar
eigenmann
eight
ein
eina
eine
einer
eines
einstein
eisenhower
eivissa
eix
eixa
eixample
eixe
eixida
eixir
eixos
ej
ejar
eje
ek
eks
el
ela
elabora
elaboracio
elaborada
elaborades
elaborar
elaborat
elaborats
elaine
elba
elda
elder
eldiario
ele
eleanor
eleccio
elecciones
eleccions
electe
electes
election
elections
elector
electoral
electorals
electors
electric
electricista
electricistes
electricitat
electro
electrodome
electromagne
electronic
electronics
electrons
elefant
elefants
elega
elegans
elegant
elegi
elegida
elegir
elegit
elegits
element
elemental
elementals
elements
elena
elenc
eles
eleva
elevacio
elevacions
elevada
elevades
elevar
elevat
elevats
eleven
elfs
eli
elia
elias
elies
elijah
elimina
eliminacio
eliminada
eliminant
eliminar
eliminat
eliminato
eliminats
elionor
eliot
elisa
elisabet
elisabeth
elisenda
elit
elite
elits
eliza
elizabeth
ell
ella
ellas
elle
ellen
elles
elliot
elliott
ellis
ells
elm
elmundo
elna
elo
elogi
elogiar
elogis
eloi
eloqu
elpais
els
elsa
else
elsevier
elvira
elvis
elx
em
emancipacio
emanuel
embara
embarassada
embarcacio
embarcacions
embarcar
embargament
embassament
embassaments
emblema
embolcall
emboscada
embrio
eme
emerge
emergency
emergent
emergents
emergir
emerson
emesa
emesos
emet
emeten
emetia
emetre
emi
emigracio
emigrants
emigrar
emigrat
emil
emile
emili
emilia
emilio
emily
eminent
eminentment
emir
emirat
emirats
emirs
emissio
emissions
emissor
emissora
emissores
emma
emmagatzema
emmagatzemar
emmagatzematge
emmalaltir
emmanuel
emmarca
emmarcada
emmarcades
emmarcat
emmurallat
emmy
emocio
emocional
emocionals
emocions
empara
emparentat
empat
empata
empatar
empatat
empe
empenta
emperador
emperadors
emperadriu
empero
emperor
empi
empire
empitjorar
emplac
empleat
empleats
emploi
emporda
emporta
emportar
empra
emprada
emprades
emprant
emprar
emprat
emprats
emprava
empraven
empre
empremta
empremtes
empren
emprendre
empresa
empresari
empresarial
empresarials
empresaris
empreses
empresonament
empresonar
empresonat
empresonats
empu
emv
en
ena
enamora
enamorada
enamorar
enamorat
enc
enca
encaixar
encant
encapc
encara
encarna
encarnacio
encarrega
encarregada
encarregades
encarregar
encarregat
encarregats
encarregava
encarreguen
ence
encendre
encesa
enci
encial
enciclope
enciclopedia
enclavament
encomanar
encontre
encoratjar
encreuament
encuentro
encunyar
encunyat
encyclopaedia
encyclope
encyclopedia
encyclopædia
end
endangered
endavant
ende
endema
endeme
endemic
endemisme
enderroca
enderrocada
enderrocament
enderrocar
enderrocat
enderrock
endins
endo
endur
enduro
ene
enemic
enemics
enemiga
enemigues
enemy
energe
energia
energies
energy
enero
enfants
enfocament
enfocaments
enfocar
enfonsa
enfonsament
enfonsar
enfonsat
enfortir
enfront
enfronta
enfrontament
enfrontaments
enfrontar
enfrontat
enfronten
eng
enganxar
engany
enganyar
engegar
engel
engels
engine
engineering
engineers
enginy
enginyer
enginyeria
enginyers
engl
england
english
engloba
enigma
enlairament
enlairar
enlla
enllac
enlloc
enllumenat
enmig
eno
enorme
enormement
enormes
enquadrat
enquesta
enquestes
enregistrada
enregistrament
enregistraments
enregistrar
enregistrat
enrere
enri
enric
enrico
enrique
enriqueta
enriquir
ens
ensayo
ensemble
ensen
ensenya
ensenyament
ensenyaments
ensenyanc
ensenyant
ensenyar
ensenyat
ensenyava
ent
entaulament
ente
entenc
entendre
entenia
enteniment
enter
enterament
enterprise
enterrada
enterrament
enterraments
enterrar
enterrat
enterrats
enters
entertainment
entesa
entitat
entitats
entment
entomology
entorn
entorns
entra
entrada
entrades
entramat
entrant
entrar
entraren
entrat
entrava
entre
entrega
entregar
entregat
entrellac
entremig
entren
entrenador
entrenadora
entrenadors
entrenament
entrenaments
entrenar
entrenat
entreteniment
entrevista
entrevistar
entrevistes
entropia
entry
ents
entusiasme
entusiasta
envai
envair
enveja
envelliment
envergadura
enverinat
envers
envia
enviada
enviades
enviament
enviant
enviar
enviat
enviats
enviava
envien
environ
environment
environmental
envolta
envoltada
envoltant
envoltar
envoltat
envoltats
envoltava
envolten
enz
enzim
enzima
enzims
enzo
eo
eoce
eos
ep
epa
epi
epic
epide
epile
epir
episcopal
episode
episodi
episodis
epo
eponym
epsilon
equ
equacio
equacions
equador
equation
equatorial
equilibri
equip
equipada
equipades
equipament
equipaments
equipar
equipat
equipats
equipo
equips
equival
equivale
equivalent
equivalents
er
era
eran
erau
erc
ere
ereccio
eren
eres
erevan
ergatiu
eric
erica
erich
erigida
erigir
erigit
erik
erika
erill
eritrea
erling
ermengol
ermessenda
ermita
ernest
ernesto
ernst
ero
eros
erosio
erra
erro
error
errors
ers
erudit
erudits
erupcio
erupcions
erwin
es
esa
esadir
esbarjo
esbart
esbo
esborrany
esborrar
esbossos
esbrinar
esca
escac
escacs
escairats
escala
escalada
escalar
escaldes
escales
escalfa
escalfament
escalfar
escalinata
escamot
escampar
escandina
escapa
escapada
escapament
escapar
escape
escaquistes
escarser
escassa
escasses
escassetat
escassos
escates
escau
esce
escena
escenari
escenaris
escenes
esceno
escenografia
eschmeyer
escipio
escissio
esclat
esclata
esclatar
esclau
esclaus
esclava
esclavitud
esco
escobar
escoce
escocesa
escocesos
escola
escolar
escolars
escoles
escollida
escollir
escollit
escollits
escolta
escoltar
escoltat
escoltisme
escombraries
escons
escorc
escorial
escorta
escorxador
escrigue
escriptor
escriptora
escriptori
escriptors
escriptura
escriptures
escrit
escrita
escrites
escritores
escrits
escriu
escriuen
escriure
escriva
escrivi
escrivia
escrivint
escu
escuderia
escudero
escuela
escull
esculls
esculpida
esculpit
esculto
escultor
escultora
escultors
escultura
escultures
escuma
escurc
escut
escuts
esdeve
esdevenen
esdevenia
esdeveniment
esdeveniments
esdevenint
esdevenir
esdevindra
esdevindria
esdevingue
esdevingueren
esdevingut
esem
esen
eses
esew
esfe
esfera
esferes
esforc
esgle
esgotament
esgotar
esgrafiats
esgrima
esim
esin
esis
esiw
esla
eslau
eslaus
eslava
eslo
eslova
eslovac
eslove
esmalt
esmena
esment
esmenta
esmentada
esmentades
esmentar
esmentat
esmentats
esmenten
esmirna
esmorzar
eso
esp
espa
espacial
espacials
espacio
espada
espadanya
espagne
espai
espais
espan
espanya
espanyol
espanyola
espanyoles
espanyols
esparreguera
esparta
espartans
espasa
espases
espatlla
espatlles
espe
especi
especial
especialista
especialistes
especialitat
especialitats
especialitza
especialitzacio
especialitzada
especialitzades
especialitzar
especialitzat
especialitzats
especialment
especials
especie
especies
especifica
especificacio
especificacions
especificar
espectacle
espectacles
espectacular
espectaculars
espectador
espectadors
espectral
espectre
espectrosco
especulacio
especular
espejo
espelmes
espera
esperanc
esperances
esperant
esperanto
esperanza
esperar
esperat
esperava
esperaven
esperen
esperit
esperits
espero
espessa
espi
espia
espies
espiga
espina
espinal
espines
espinosa
espionatge
espira
espiral
espiritual
espiritualitat
espirituals
espitlleres
esplai
esplanada
esple
esplendor
espluga
esplugues
espn
espo
esponta
espora
espores
esport
esportista
esportistes
esportiu
esportius
esportiva
esportives
esports
esposa
esposes
espot
esprint
espriu
esquadra
esquadro
esquadrons
esqueixada
esquela
esquelet
esquelets
esquema
esquemes
esquena
esquerda
esquerdes
esquerra
esquerre
esquerres
esqui
esquinc
esquirol
essa
essai
essay
essays
esse
essencial
essencialment
essencials
essent
essential
esser
essex
essi
esso
est
esta
estabilitat
estabilitzacio
estabilitzar
estable
establecimiento
estableix
estableixen
establert
establerta
establertes
establerts
estables
establi
establia
establiment
establiments
establint
establir
establiren
estacio
estacions
estada
estades
estadi
estadio
estadis
estado
estados
estalvi
estalviar
estalvis
estaments
estampa
estams
estan
estanc
estances
estandarditzada
estanislau
estant
estany
estanys
estar
estara
estaran
estaria
estarien
estat
estatal
estatals
estatge
estats
estatueta
estatunidenc
estatunidenca
estatunidencs
estatunidenques
estatus
estatut
estatuts
estava
estavellar
estaven
este
esteban
estel
estela
esteles
estella
estelle
estels
estem
estendard
estendre
estenen
estenent
estengue
estenia
estepa
estepes
ester
estereotips
estes
estesa
esteses
esteve
esther
esti
estic
estigue
estiguessin
estigui
estiguin
estil
estili
estils
estima
estimacio
estimacions
estimada
estimar
estimat
estimates
estimats
estimava
estimen
estimulacio
estimular
estio
estionar
estions
estirar
estiu
estiueig
estius
esto
estocolm
estol
estona
estonia
estos
estrabo
estrada
estranger
estrangera
estrangeres
estrangers
estrany
estranya
estranyes
estranys
estrasburg
estrat
estrate
estrats
estre
estrella
estrellas
estrelles
estrena
estrenada
estrenar
estrenat
estrenes
estreno
estret
estreta
estretament
estretes
estrets
estri
estricta
estrictament
estricte
estrictes
estris
estrofa
estrofes
estructura
estructurada
estructural
estructurals
estructurat
estructures
estu
estuari
estuc
estudi
estudia
estudiada
estudiant
estudiantes
estudiantil
estudiants
estudiar
estudiat
estudiats
estudiava
estudien
estudio
estudios
estudiosos
estudis
et
eta
etanol
etapa
etapes
etc
etce
ete
etern
eterna
eternitat
ethan
ethics
ethiopia
ethnic
ethnologue
eti
etienne
etimolo
etimologia
etio
etiqueta
etiquetes
etno
etnogra
etnolo
etnologia
eto
etruscs
ets
eu
eua
eubel
eucalyptus
eucariotes
euclides
eudes
eufo
eufrates
euge
eugen
eugene
eugeni
eugenia
eugenio
eula
euler
eumo
eur
eura
eure
euri
euro
eurocopa
europa
europaea
europe
europea
european
europees
europeo
europeu
europeus
euros
eurosport
eurovisio
eurovision
eus
eusebi
eusebio
euskadi
euskal
euskera
eusko
eustomias
ev
eva
evacuacio
evacuar
evaluation
evan
evange
evangeli
evangelis
evangelista
evans
evaporacio
evasio
eve
evelyn
even
evening
event
events
eventual
eventualment
ever
everest
everett
every
everything
evic
evide
evidence
evidencia
evident
evidentment
evidents
evil
evita
evitant
evitar
evoca
evolucio
evoluciona
evolucionant
evolucionar
evolucionat
evolution
evolutionary
evolutiva
ew
ewen
ex
exa
exacta
exactament
exacte
exactes
exactitud
exaltacio
examen
examinar
excavacio
excavacions
excavada
excavar
excavat
exce
excel
excentricitat
excepcio
excepcional
excepcionalment
excepcionals
excepcions
excepte
exceptuant
excessiu
excessiva
excessivament
excessos
exchange
excitacio
exclo
excloent
excloure
exclusio
exclusiu
exclusiva
exclusivament
exclusive
excursio
excursionista
excursionistes
excursions
excusa
exe
execucio
execucions
executa
executada
executar
executat
executats
executiu
executius
executiva
executive
exemplar
exemplars
exemple
exemples
exempt
exerceix
exerceixen
exerci
exercia
exercici
exercicis
exercida
exercint
exercir
exercit
exfutbolista
exhaustiva
exhibeix
exhibicio
exhibir
exhibition
exige
exigeix
exigia
exigint
exigir
exili
exiliar
exiliat
exiliats
existe
existeix
existeixen
existent
existents
existi
existia
existien
existint
existir
existit
exjugador
exo
exotic
exp
expandir
expansio
expansion
expe
expectatives
expedicio
expedicions
expedient
expedition
experie
experience
experiment
experimenta
experimentacio
experimental
experimentals
experimentar
experimentat
experimenten
experiments
expert
experta
experts
explained
expli
explica
explicacio
explicacions
explicant
explicar
explicat
explicava
expliquen
exploitations
explor
explora
exploracio
exploracions
explorador
exploradors
explorar
exploration
explorer
explosio
explosions
explosiu
explosius
explota
explotacio
explotacions
explotar
expo
exponencial
exponent
exponents
exportacio
exportacions
exportar
exposa
exposada
exposades
exposar
exposat
exposats
exposen
exposicio
exposicions
expre
expresident
express
expressa
expressada
expressament
expressar
expressat
expressen
expressio
expression
expressionisme
expressions
expulsada
expulsar
expulsat
expulsats
expulsio
extended
extends
extens
extensa
extensament
extenses
extensio
extensions
extensos
exterior
exteriorment
exteriors
extermini
extern
externa
externes
externs
extincio
extinction
extingir
extingit
extint
extinta
extra
extraccio
extracel
extracte
extractes
extractiva
extractives
extraordina
extraordinari
extraordinaris
extrasolar
extraterrestre
extrem
extrema
extremadament
extremadura
extreme
extremes
extremitats
extrems
extres
extret
extreta
extretes
extreu
extreure
eyck
eye
eyes
eyl
eyls
ez
eŋ
eɱ
eɾ
f
fa
faber
fabi
fabia
fabio
fabra
fabre
fabrica
fabricacio
fabricada
fabricades
fabricant
fabricants
fabricar
fabricat
fabricats
fabricius
fabriquen
fac
faccio
faccions
face
facebook
faces
faceta
facey
faci
facial
facilita
facilitar
facilitat
faciliten
facin
facsi
fact
factbook
facto
factor
factoria
factors
factory
facts
factura
facultad
facultat
facultats
faculty
fad
fada
fades
fag
fagot
fags
fai
faig
fair
faire
fait
faith
faixa
fal
falange
falc
falco
falcon
falda
fall
falla
fallada
fallar
fallece
falles
fallida
fallit
falls
fals
falsa
false
falses
falset
falsos
falta
faltar
falten
fam
fama
fame
fami
familia
familiar
familiars
families
famille
family
famo
famosa
famoses
famosos
famous
fan
fana
fanes
fang
fanny
fans
fanta
fantasia
fantasies
fantasma
fantasmes
fantastic
fantasy
fao
faq
far
fara
faran
farao
faraons
fare
farem
farga
faria
farien
farina
farm
farma
farmace
farners
farnese
faro
farre
farrell
fars
farsa
fas
fase
fases
fashion
faso
fast
fat
fatal
fate
father
fatiga
fatimita
fauna
faune
faure
faust
fausto
favor
favorable
favorables
favorit
favorita
favorits
fay
fayard
faye
fbi
fc
fda
fe
fear
feat
feature
features
feb
feble
febles
febre
febrer
febrero
february
fec
federacio
federacions
federal
federals
federation
federico
feeding
feel
fei
feia
feien
feina
feines
feix
feixisme
feixista
feixistes
felanitx
felic
felice
felicitat
felip
felipe
feliu
felix
fellini
fellow
fem
female
femella
femelles
femeni
femenina
femenines
femenino
femenins
feminisme
feminist
feminista
feministes
femme
femmes
feng
feni
fenici
fenicis
feno
fenolleda
fenomen
fent
fer
fera
ferdinand
feren
feres
ferguson
ferida
ferides
ferir
ferit
ferits
ferm
ferma
fermament
fermat
fermentacio
fermi
ferna
fernand
fernandes
fernandez
fernando
feroe
ferotge
ferra
ferradura
ferran
ferrando
ferrara
ferrari
ferraris
ferre
ferreira
ferrer
ferri
ferrie
ferro
ferrocarril
ferrocarrils
ferrol
ferrovia
ferroviari
ferry
fers
fertilitat
fes
fessin
fest
festa
festes
festiu
festius
festival
festivals
festivitat
festivitats
fet
feta
fetes
fetge
fets
fetus
feu
feudal
feudals
feus
fever
fex
feya
ff
fgc
fi
fia
fiabilitat
fiable
fiables
fianc
fiat
fiba
fibra
fibres
fic
fica
ficament
ficar
ficas
ficcio
ficha
ficit
fico
ficos
fics
ficti
fictici
fiction
fide
fidel
fidelitat
fidels
fids
field
fields
fiesta
fifa
fifth
fig
figaro
fight
fighter
fighters
fighting
figuera
figueras
figueres
figueroa
figuerola
figura
figurar
figurava
figure
figuren
figures
fiji
fil
fila
filade
filades
filaments
file
filemo
filera
fileres
files
filferro
filharmo
filiacio
filial
filials
filip
filipines
filippo
fill
filla
fille
filles
fills
film
filmacio
filmada
filmaffinity
filmar
filmografia
filmoteca
films
filo
filogene
filolo
filologia
filoso
filosofi
filosofia
fils
filtracio
filtre
filtres
fim
fin
fina
final
finale
finalista
finalistes
finalitat
finalitats
finalitza
finalitzacio
finalitzada
finalitzant
finalitzar
finalitzat
finalment
finals
financ
finance
financer
financera
financeres
financers
finances
financial
finca
find
finder
findley
fine
fines
finestra
finestral
finestrals
finestres
finit
finita
finla
finlande
finlandesa
finn
finques
fins
fio
fiord
fiques
fir
fira
fire
firefox
firenze
fires
firma
firmar
first
fis
fiscal
fiscalia
fiscals
fiscaux
fisch
fische
fischer
fish
fishbase
fisher
fisheries
fishery
fishes
fishing
fisiolo
fisiologia
fissio
fit
fita
fites
fits
fitxa
fitxar
fitxat
fitxatge
fitxer
fitxers
fitxes
fitzgerald
five
fix
fixa
fixacio
fixada
fixar
fixat
fixes
fixos
fixtures
fk
fl
fla
flac
flag
flagel
flaix
flama
flamenc
flamenca
flamencs
flames
flammarion
flanc
flancs
flandes
flanquejada
flanquejat
flash
flat
flauta
flautes
flavi
fle
fleca
fleet
fleming
fleques
fletcher
fletxa
fletxes
flexibilitat
flexible
flexibles
flexio
flight
flix
flo
floor
flor
flora
floracio
floral
florals
flore
floreix
florence
florent
flores
flori
florian
florida
florir
floristeries
flors
flota
flotant
flotes
flow
flower
flowers
floyd
flu
flueix
flui
fluid
fluids
fluvia
fluvial
fluvials
flux
fluxos
fly
flying
flynn
fm
fn
fo
foc
focal
foch
focs
focus
fogatge
foguera
foix
fol
folc
folch
foli
folk
folklo
folklore
following
folre
fols
foment
fomentar
fon
fona
fonament
fonamenta
fonamental
fonamentalment
fonamentals
fonaments
fonch
fonda
fondation
fondo
fondre
fone
fonema
fonemes
fong
fongs
fono
fons
fonseca
font
fontaine
fontainebleau
fontana
fontanals
fontenay
fonts
food
foot
football
for
fora
foral
forall
forat
forats
forbes
forc
forca
force
forces
ford
fordham
fore
foreign
foren
forense
forest
forestal
forestals
forests
forever
forgotten
forja
forjar
forjat
form
forma
formacio
formacions
formada
formades
formal
formalment
formals
formant
formar
formaren
formaria
format
formatge
formatges
formation
formats
formava
formaven
forme
formen
formentera
former
formes
formigo
formigues
formosa
forms
formula
formulacio
formular
forn
forni
forns
foro
forques
forquilla
fors
forsa
forster
fort
forta
fortalesa
fortaleses
fortament
fortes
forti
fortificacio
fortificacions
fortificada
fortificar
fortificat
forts
fortuna
fortune
fortuny
forum
forward
fos
fosa
fosc
fosca
foscor
foscos
fosfat
fosfats
fosques
fossa
fossat
fosse
fosses
fossil
fossin
foster
foto
fotogra
fotografi
fotografia
fotografiar
fotografies
fotograma
fotogramas
fotogrames
fotons
fotos
fotosi
fou
found
foundation
foundations
founder
four
fourier
fourth
fowler
fox
foɾ
fr
fra
frac
fraca
fracassa
fracassar
fracassat
fraccio
fraccions
fractura
fraga
fragata
fragment
fragmenta
fragmentacio
fragments
frame
framework
fran
franc
franca
france
frances
francesa
francesc
francesca
francesch
francesco
franceses
francesos
franch
francia
francis
francisca
franciscans
francisco
franck
franco
francoli
francs
franges
franja
frank
frankenstein
frankfurt
franklin
franqui
franquisme
franquismo
franquista
franquistes
frans
franz
frare
frares
frase
fraser
frases
fraternitat
frau
fray
fre
freak
fred
freda
freddie
freddy
frederic
frederick
fredes
freds
free
freedom
freeman
freguesia
freire
frenar
french
frens
frente
frequ
fresc
fresca
frescos
frescs
fresh
freshwat
freshwater
freshwaters
freud
fri
friburg
frica
friccio
fricke
friday
friedman
friedrich
friend
friends
fris
friso
fritz
friu
fro
from
front
frontal
frontera
fronterer
fronterera
frontereres
fronterers
fronteres
frontier
frontis
fronto
fronts
frost
fru
fructi
fruit
fruita
fruiters
fruites
fruits
ft
fu
fuchs
fue
fuego
fuente
fuentes
fuera
fuerza
fuga
fugi
fugida
fugint
fugir
fugit
fugitius
fuig
fuji
full
fulla
fuller
fulles
fulleto
fulls
fum
fumar
fun
funcio
funciona
funcional
funcionalitat
funcionalitats
funcionals
funcionament
funcionant
funcionar
funcionari
funcionaris
funcionava
funcionen
funcions
function
functional
functions
fund
funda
fundacio
fundacional
fundacions
fundada
fundador
fundadora
fundadors
fundant
fundar
fundaren
fundat
funera
funeral
funerari
funeraris
fungi
funk
fur
furio
furs
further
fury
fus
fuselatge
fusell
fusellers
fusells
fusio
fusiona
fusionar
fust
fusta
fuster
fusteria
fusteries
fustes
futbol
futboli
futbolista
futbolistes
futebol
futur
futura
future
futures
futuro
futurs
fə
fɾa
fɾe
fɾi
fɾə
g
ga
gabinet
gabon
gabriel
gabriela
gabriele
gaceta
gadiform
gadiformes
gae
gaetano
gaga
gai
gaia
gaire
gairebe
gaires
gais
gal
gala
galactic
galaxies
galaxy
galceran
gale
galega
galego
galera
galeres
galeri
galeria
galerie
galeries
galetes
gali
galicia
galilea
galileo
galileu
galindo
gall
gallagher
gallardo
gallec
gallecs
gallega
gallego
gallen
gallery
gallica
gallimard
gallina
gallo
galo
gals
galtes
gama
gamba
gambit
game
games
gamespot
gaming
gamma
gams
gan
gana
ganadores
gandhi
gandia
ganes
gang
ganges
ganivet
ganivets
gant
ganxo
gao
gap
gar
gara
garanteix
garantia
garanties
garantir
garatge
garbo
garce
garci
garcia
gard
garde
garden
gardens
gardiner
gardner
gargallo
gari
garibaldi
garland
garo
garona
garraf
garrett
garrido
garriga
garrigues
garros
garrotxa
gary
garzo
gas
gasco
gascunya
gaso
gasolina
gasos
gaspar
gastar
gasto
gaston
gastrono
gastronomia
gat
gata
gate
gates
gato
gats
gau
gaudeix
gaudeixen
gaudi
gaudia
gaudir
gauguin
gaulle
gauss
gava
gavi
gavin
gay
gaya
gaza
gazeta
gazette
gazetteer
gb
gbe
gbif
gc
gcatholic
gdlc
ge
gear
gec
gegant
gegants
gel
gelabert
gelat
gelosia
geltru
gemini
gemma
gemmes
gen
gena
genas
gencat
gendarmeria
gender
gendre
gene
genealo
genealogia
genealogy
gener
genera
generacio
generacions
generada
generador
generadors
general
generales
generali
generalitat
generalitzacio
generalitzada
generalitzar
generalitzat
generalment
generals
generant
generar
generat
generation
generats
generen
genero
genes
genesis
genet
genetic
genetics
genets
genevie
genguis
geni
genital
genitals
genitiu
genius
geno
genocide
genocidi
genoll
genolls
genoma
genome
genove
genovesos
genre
gens
gent
gente
gentil
gentilici
gents
genui
genus
geo
geode
geoffrey
geogra
geografi
geografia
geographic
geographical
geography
geolo
geologia
geological
geology
geome
geometria
geometry
geopoli
georg
george
georges
georgetown
georgia
georgiana
georgians
geq
ger
gerais
gerald
gerard
gerardo
gerent
gerhard
germa
germain
german
germana
germanastre
germandat
germanes
germano
germanor
germans
germany
gerona
gers
gertrude
gertsch
gerundi
gervasi
ges
geschichte
gesellschaft
gespa
gest
gesta
gestacio
gestapo
gestes
gestio
gestiona
gestionada
gestionar
gestionat
gestions
gestor
gestora
gestos
get
getafe
gets
getting
ghana
ghats
ghazi
ghost
ghz
gi
gia
giacomo
gian
gianni
giant
giants
gibbs
gibert
gibraltar
gibson
gic
gica
gicament
gicas
gico
gicos
gics
gid
gida
gids
gie
gies
gijo
gil
gilbert
gilberto
giles
gili
gill
gilles
gilmour
gils
gim
gime
gimeno
gimna
gimnasta
gims
gina
ginas
gine
ginebra
giner
gines
gino
gion
giordano
giorgio
giovanni
giques
gir
gira
giralt
girant
girar
girard
giray
giren
gires
girl
girls
giro
girolamo
girona
gironda
girone
gironella
gironi
gironines
gis
gisbert
gisela
git
gitana
gitano
gitanos
gits
giuliano
giulio
giuseppe
give
given
gl
gla
glac
glacera
glaceres
glacial
gland
glasgow
glass
gle
glen
glenn
gli
glise
glo
global
globalitzacio
globals
globe
globiz
globo
globus
gloria
gloriosa
glory
glossary
gloucester
glover
glu
glucosa
gm
gmbh
gne
gneu
gnia
gnies
gnome
gnu
go
goa
goal
gob
gobierno
gobies
gobiidae
god
goddard
godo
godoy
gods
goebbels
goes
goethe
gogh
goig
goigs
going
gol
gola
gold
goldberg
golden
goldman
goldstein
goldwyn
golejador
golf
golfes
golpe
gols
goma
gomes
gomez
gomis
gon
gonc
gone
gong
gons
gonza
gonzaga
gonzalez
gonzalo
good
goodbye
goodman
google
gor
gora
gordon
gore
gores
gorges
gorra
gos
gospel
gosse
gossos
got
gota
gotes
gotha
gots
gott
gottfried
gould
gouvernement
gov
govern
governa
governacio
governada
governador
governadors
governamental
governamentals
governant
governants
governar
governat
governats
governava
government
governs
goya
gp
gps
gr
gra
grac
grace
gracia
gracias
gracilis
gradient
gradua
graduacio
gradual
gradualment
graduar
graduat
graella
graf
grafa
grafia
grafit
grafs
graham
grahamstown
gralla
gram
grama
gramatical
gramaticals
gramenet
grami
grammar
grammy
grams
gran
granada
granados
grand
granda
grande
grandes
grandesa
graner
granera
granger
granges
grani
granit
granja
granollers
granota
granotes
grans
grant
graons
grapat
graphics
gras
grass
grassos
grat
gratui
grau
graus
grava
gravacio
gravacions
gravada
gravades
gravador
gravar
gravat
gravats
grave
graves
gravetat
gravitacional
gravitato
gray
grayson
graz
gre
great
greater
greatest
grec
greco
grecoromana
grecs
gredos
greece
greek
green
greenberg
greene
greenland
greenwich
greenwood
greg
grega
gregori
gregoria
gregorio
gregory
gregues
greix
greixos
gremi
gremis
grenoble
gres
greta
greu
greuges
greument
greus
grey
gri
griffin
griffith
griffiths
grimal
grimaldi
grimes
grimm
grin
grip
gris
grisa
grisos
gro
groc
grocs
groenla
groga
groguenc
grogues
groningen
gros
gross
grossa
grosses
grosso
grossos
ground
group
groupe
groups
grove
growth
gru
grua
gruix
gruixuda
gruixudes
gruixut
grup
grupo
grups
gruta
gruyter
gs
gt
gu
gua
guadalajara
guadalupe
guaiana
guaita
gual
guam
guan
guangdong
guants
guany
guanya
guanyada
guanyador
guanyadora
guanyadors
guanyant
guanyar
guanyat
guanyats
guanyava
guanyen
guanys
guarani
guard
guarda
guardapols
guardar
guarden
guardia
guardian
guardians
guardiola
guardo
guardonada
guardonat
guardonats
guardons
guarir
guarner
guarnicio
guarnicions
guatemala
guayaquil
gudiol
gue
guerau
guerra
guerre
guerrer
guerrero
guerrers
guerres
guerrilla
guerriller
guerrillers
guerrilles
gues
guest
guevara
guez
guggenheim
guglielmo
gui
guia
guiana
guiar
guide
guides
guido
guies
guifre
guila
guild
guillaume
guille
guillem
guillermo
guimera
guinardo
guinea
guineu
guinness
guio
guionista
guionistes
guions
guipu
guisa
guitar
guitarra
guitarres
guitarrista
guiu
guix
guixaire
guixaires
gujarat
gula
gules
gulf
gun
gunnar
guns
guo
gupta
gur
guru
gus
gust
gustau
gustav
gustave
gustavo
gustos
gutenberg
gutie
guy
guyana
guzma
gva
gymnastics
gyo
h
ha
haaland
haarlem
haas
hab
habana
haber
habilitar
habilitat
habilitats
habita
habitable
habitacio
habitacions
habitada
habitades
habitant
habitants
habitar
habitat
habitatge
habitatges
habitats
habitaven
habiten
habits
habitual
habitualment
habituals
habsburg
hac
hace
hacer
hach
hachette
hacia
had
hadawi
hagen
hagi
hagin
hague
hagueren
haguessin
hagut
hahn
hai
haia
hainaut
haiti
haja
hal
hale
half
hall
halle
halo
ham
hama
hamburg
hamburger
hamid
hamilton
hamlet
hammer
hammond
hampshire
hampson
hampton
han
hand
handbol
handbook
handel
hands
hanna
hannah
hannover
hanoi
hans
hansen
haplochromis
happy
hara
harald
harbor
harcourt
hard
hardcore
harding
hardware
hardy
hare
harlem
harley
harmattan
harmo
harmonia
harmony
haro
harold
harper
harpercollins
harriet
harris
harrison
harry
hart
hartmann
harvard
harvey
has
hasan
haskell
hassan
hasta
hastings
hat
hauer
hauia
haura
hauran
hauri
hauria
haurien
haut
haute
hautes
havana
have
havem
haven
havent
haver
havi
havia
havien
hawaii
hawaiian
hawk
hawkins
hawks
haworthia
hay
haydn
hayes
hb
hbo
hc
hd
he
head
health
heart
hearts
heat
heath
heather
heaven
heavy
hebrea
hebreu
hebreus
hebron
hecho
hecta
hector
heemstra
hegemonia
heidelberg
heights
heimtierkunde
heinrich
heinz
hel
held
helen
helena
helfman
heli
helico
hell
hello
helmut
help
hem
hemeroteca
hemisferi
hemoglobina
hemorra
henares
henderson
hendrik
henri
henrik
henry
hepa
hepatitis
hepburn
her
hera
herald
heraldo
herat
herba
herbari
herbert
herbes
herbi
hercegovina
herder
here
heredia
heredita
hereditari
hereta
heretar
heretat
heretgia
hereu
hereus
hereva
heritage
herman
hermann
hermanos
herme
hermes
hermo
hermosa
herna
hernando
hero
herodes
heroes
heroi
heroica
herois
herre
herrera
herrero
herreros
herschel
herve
herzog
hessen
het
hetero
heterograma
heu
hewitt
hexa
hexagonal
hg
hi
hidalgo
hidden
hidra
hidro
hidrocarburs
hidroele
hidrogen
hidrogra
hidrografia
hierarchy
hierro
higgins
high
higher
highland
highway
higiene
hija
hijo
hijos
hilaire
hilari
hilbert
hilda
hill
hillary
hills
hilton
him
hima
himne
himnes
hindi
hindu
hinduisme
hip
hipermercat
hipertensio
hipo
hipote
hipparcos
hiroshima
his
hisenda
hispa
hispana
hispania
hispano
hispanoamericana
hist
histo
histoire
historia
historiador
historiadora
historiadors
historial
historias
historic
historica
historical
histories
historieta
historietes
historiografia
historique
historiques
history
hit
hitchcock
hitita
hitites
hitler
hits
hiv
hivern
hivernacle
hiverns
hl
hler
hm
hmad
hms
ho
hoboken
hoc
hockey
hoese
hoffman
hoffmann
hofmann
hokkaido
hola
holanda
holande
holandesa
holandesos
hold
holden
hole
holiday
holland
holly
hollywood
holmes
holocaust
holstein
holt
holy
hom
hombre
hombres
home
homenaje
homenatge
homens
homer
homes
homicidi
homme
hommes
homo
homoge
homogenei
homosexual
homosexualitat
homosexuals
homs
hon
honda
hondures
hong
hongare
hongaresa
hongaresos
hongria
honolulu
honor
honorable
honorari
honore
honori
honoris
honors
honour
honra
honrat
hont
hood
hook
hooper
hop
hope
hopkins
hopper
hoquei
hora
horace
horaci
horacio
horari
horaris
horas
horda
hores
horitzo
horitzontal
horitzontalment
horitzontals
hormona
hormones
horn
horrible
horror
horse
horst
hort
horta
hortalisses
hortoneda
horts
horus
hospital
hospitalet
hospitals
host
hostal
hostatgeria
hoste
hostes
hostil
hostilitat
hostilitats
hostils
hosts
hot
hotel
hotels
houghton
hour
hours
house
houston
how
howard
howe
hoy
hoyo
hp
hr
hrer
hrsg
htm
html
http
https
hu
hua
huang
huatl
hub
hubble
huber
hubert
hudson
huelva
huerta
huertas
huesca
huffington
hug
hugh
hughes
hugo
huguet
hui
hulk
hull
huma
human
humana
humanes
humanisme
humanista
humanita
humanitat
humanitats
humanos
humans
humbert
humboldt
hume
humida
humides
humil
humilitat
humit
humitat
humits
humor
humori
humorista
humphrey
hun
hundred
hung
huns
hunt
hunter
huntington
huraca
hureau
hurricane
hurtado
husayn
hussein
hutchinson
huxley
hwv
hyde
hyderabad
hypostomus
hz
i
ia
iaaf
ian
iardes
ias
iata
iau
ib
iba
ibarra
ibe
iberia
iberoamericana
ibers
ibi
ibid
ibiza
ibm
ibn
ibrahim
ic
ica
icc
ice
ich
ichthyol
ichthyological
ichthyology
ico
icona
icones
iconogra
iconografia
ictiologia
icv
id
ida
idaho
ide
idea
ideal
ideals
idear
ideas
ideat
idees
identifica
identificacio
identificada
identificades
identificador
identificar
identificat
identification
identificats
identifiquen
identitat
identitats
identity
ideolo
ideologia
ideologies
idescat
idioma
idiomes
ido
idol
ids
ie
iec
ieee
iem
iemen
ien
ies
iev
ievgueni
iew
if
ig
iga
igle
iglesia
iglesias
ign
ignacio
ignasi
ignora
ignorant
ignorar
igo
igor
igual
igualada
igualar
igualment
iguals
igualtat
ii
iii
ij
ik
il
ile
iler
ili
ill
illa
ille
illes
illinois
illot
illots
illustrated
illustrations
ilustracio
ilustrada
im
ima
image
imagen
images
imagina
imaginacio
imaginar
imaginari
imaging
imam
imatge
imatges
imdb
imita
imitacio
imitant
imitar
immaculada
immadur
immediat
immediata
immediatament
immens
immensa
immersio
immigracio
immigrant
immigrants
imminent
immo
immobilia
immoble
immobles
immortal
immune
immunitari
immunitat
imp
impact
impactar
impacte
impactes
imparteix
impartir
impedeix
impedia
impedir
imperatiu
imperfet
imperi
imperial
imperialisme
imperials
imperio
imperis
implantacio
implantar
implementacio
implementar
impli
implica
implicacio
implicacions
implicada
implicades
implicar
implicat
implications
implicats
implicava
impliquen
imponent
import
importa
importacio
importacions
important
importants
importar
imposa
imposada
imposades
imposant
imposar
imposat
imposicio
impossibilitat
impossible
impost
impostes
impostos
impr
impre
impremta
imprenta
impresa
imprescindible
impreses
impresos
impressio
impressionant
impressionar
impressionat
impressions
impressor
impressora
imprimerie
imprimir
improbable
improvisacio
impuls
impulsa
impulsada
impulsar
impulsat
impulsor
impulsors
impulsos
impureses
in
ina
inacabada
inactius
inactives
inan
inaugura
inauguracio
inaugurada
inaugural
inaugurar
inaugurat
inc
inca
incapac
incapacitat
incendi
incendiar
incendis
incert
incerta
incertae
incertesa
incide
incident
incidents
incipient
incitar
inclinacio
inclinada
inclinar
inclinat
inclo
incloent
incloi
inclosa
incloses
inclosos
inclou
inclouen
incloure
inclu
including
inclusio
inco
incoativa
incompleta
incomptable
inconscient
inconvenient
inconvenients
incorpora
incorporacio
incorporada
incorporant
incorporar
incorporat
incorporated
incorporats
incorporava
incorporen
incorrecta
increi
increment
incrementa
incrementant
incrementar
incursio
incursions
inde
indefinit
indemnitzacio
independe
independence
independencia
independent
independentista
independentistes
independentment
independents
independiente
independitzar
index
indi
india
indian
indiana
indianapolis
indians
indias
indica
indicacio
indicacions
indicada
indicador
indicadors
indicant
indicar
indicat
indicatiu
indicava
indicis
indie
indigenous
indignacio
indiquen
indirecta
indirectament
indirecte
indis
indiscutible
indispensable
individu
individual
individualment
individuals
individus
indo
indone
indonesi
indonesia
indoor
indoxina
indre
indret
indrets
indu
induccio
induced
indueix
indui
induir
indumenta
indus
industria
industrial
industrialitzacio
industrials
industries
industry
ine
inesperada
inesperat
inessiu
inestabilitat
inestable
inevitable
inexistent
infa
infant
infanta
infanteria
infantesa
infantil
infantils
infants
infart
infeccio
infeccions
infect
infectats
infection
inferior
inferiors
infermera
infermeria
infern
infinit
infinita
infinitat
infinitiu
inflacio
inflamacio
inflexio
infloresce
influe
influeix
influence
influencia
influenciada
influenciar
influenciat
influent
influents
influi
influir
info
informa
informacio
informacions
informal
informant
informar
informat
information
informatiu
informatius
informativa
informe
informes
infraestructura
infraestructures
infraroig
infty
inge
ingesta
ingle
ingre
ingredient
ingredients
ingressa
ingressar
ingressos
ingrid
inherent
inhibicio
inhibidor
inhibidors
inici
inicia
iniciacio
iniciada
inicial
inicialment
inicials
iniciant
iniciar
iniciaren
iniciat
iniciativa
iniciatives
inicien
inicis
initiative
injeccio
injusti
inland
innoce
innocenci
innocent
innocents
innombrables
innovacio
innovacions
innovador
innovadora
innovadores
innovadors
innovation
innsbruck
ino
inofensiu
inorga
inquietud
inquisicio
inquisidor
ins
inscripcio
inscripcions
inscriptions
inscrit
inscrita
inscrits
inscriure
insecta
insecte
insectes
insects
insee
insercio
inserir
insi
inside
insider
insiste
insisteix
insistir
inso
inspeccio
inspector
inspira
inspiracio
inspirada
inspirades
inspirar
inspirat
inspirats
inst
insta
instagram
instal
instant
instanta
instar
instauracio
instaurar
instint
institucio
institucional
institucionals
institucions
institui
instituir
institut
institute
institution
instituto
instituts
instruccio
instruccions
instructor
instrui
instruir
instrument
instrumentacio
instrumental
instrumentals
instruments
insuficie
insuficient
insular
insulars
insulina
insurgents
insurreccio
int
intacte
inte
integra
integracio
integrada
integrades
integral
integrals
integrant
integrants
integrar
integrat
integrated
integrats
integraven
integren
integritat
intel
intelligence
intencio
intencions
intende
intendent
intens
intensa
intensament
intenses
intensificar
intensitat
intensiva
intensos
intent
intenta
intentant
intentar
intentat
intentava
intentaven
intenten
intents
inter
interaccio
interaccions
interactiu
interactiva
interactive
intercanvi
intercanviar
intercanvis
interceptar
intercontinental
intere
interessa
interessada
interessades
interessant
interessants
interessar
interessat
interessats
interessos
interest
interface
interfere
interferir
interfi
interi
interior
interiors
interme
intermedi
intermediari
intermedis
intermitent
intern
interna
internacional
internacionalment
internacionals
internament
internat
international
internationale
internes
internet
interns
interpreta
interpretacio
interpretacions
interpretada
interpretades
interpretant
interpretar
interpretat
interpretats
interpretava
interpreten
interrompre
interrompuda
interromput
interrupcio
interseccio
interval
intervals
interve
intervencio
intervencions
intervenen
intervenir
interview
intesti
intestinal
intimitat
into
intoxicacio
intr
intri
intriga
intrigues
introduccio
introduction
introdueix
introdueixen
introdui
introduint
introduir
intui
inu
inuit
inundacio
inundacions
inusual
inv
invariable
invasio
invasion
invasions
invasors
invencio
invent
inventa
inventada
inventar
inventari
inventat
inventor
invents
invers
inversa
inversio
inversions
inversors
invertebrats
invertida
invertir
invertit
investidura
investiga
investigacio
investigaciones
investigacions
investigador
investigadora
investigadors
investigant
investigar
investigat
investigation
investit
invisible
invitacio
involucra
involucrada
involucrar
involucrat
involucrats
io
ioc
ioga
ion
ions
ios
iowa
ip
iphone
ipv
ir
ira
iran
irania
iraniana
iranica
iraq
iraquia
ire
ireland
irene
irina
iris
irish
irlanda
irlande
irlandesa
irlandesos
irma
iro
iron
ironia
irregular
irregularitats
irregulars
irving
irwin
is
isa
isaac
isabel
isabella
isabelle
isbn
ise
isern
isfahan
isia
isidor
isidoro
isidre
isidro
isis
iskandar
isla
islam
islamic
island
islande
islands
islas
isle
ismael
ismai
ismail
isme
isnb
iso
isona
israel
israeli
israelia
israeliana
israelianes
israelians
iss
issn
issue
issues
ist
ista
istanbul
istat
istes
istituto
istme
it
ita
italia
italian
italiana
italianes
italiani
italiano
italians
italo
italy
itat
item
itinerant
itinerari
itineraris
itis
ito
its
itunes
iu
iucn
iugosla
iugoslau
iugoslava
iupac
iuri
ius
iv
iva
ivan
ives
ivori
iwamoto
ix
ixer
iz
izquierda
izquierdo
iŋ
iɱ
j
ja
jac
jaca
jaciment
jaciments
jacint
jacinto
jack
jackie
jackson
jacob
jacobi
jacobs
jacopo
jacqueline
jacques
jade
jae
jaguar
jahan
jaime
jakarta
jake
jakob
jalisco
jam
jama
jamaica
james
jamie
jan
jana
jane
janeiro
janet
january
jap
japan
japanese
japo
japone
japonesa
japoneses
japonesos
japonica
jaqueta
jar
jardi
jardineria
jardins
jas
jason
jaume
java
javi
javier
jay
jazeera
jazz
jc
je
jean
jeanne
jedi
jefe
jeff
jefferson
jeffrey
jena
jenkins
jennifer
jenny
jens
jensen
jera
jerarquia
jeremy
jerez
jero
jerogli
jerome
jeroni
jerry
jersey
jerusalem
jerzy
jesse
jessica
jesu
jesucrist
jesui
jesus
jet
jeu
jeune
jewish
jews
ji
jia
jiang
jill
jim
jime
jimmy
jin
jm
jnict
jo
joa
joachim
joan
joana
joanna
joaqui
joaquim
joaquin
job
joc
jocs
joe
joel
joey
jofre
joguina
joguines
johan
johann
johanna
johannes
johannesburg
john
johnny
johns
johnson
johnston
joia
joieria
joies
join
joins
joint
jon
jonas
jonathan
jones
jong
jorba
jorda
jordan
jordana
jordi
jorge
jorn
jornada
jornades
jornal
jos
jose
josef
josefa
josefina
josep
josepa
joseph
josephine
josh
joshua
josiah
jou
jour
journal
journey
jours
jove
joven
jovent
joventut
joventuts
jover
joves
joy
joyce
jp
jpg
jpl
jr
js
jstor
ju
jua
juan
juana
jubilacio
jubilades
jubilar
jubilat
juda
judaisme
judea
judes
judge
judici
judicial
judicials
judicis
judit
judith
judo
judy
juego
juegos
jueu
jueus
jueva
jueves
juez
juga
jugada
jugades
jugador
jugadora
jugadores
jugadors
jugant
jugar
jugara
jugat
jugava
juguen
juin
jul
jules
juli
julia
julian
juliana
julie
julien
julieta
juliette
julio
juliol
julius
julivert
july
jump
jun
junction
june
jung
jungla
jungle
juni
junio
junior
juno
junt
junta
juntament
juntes
junts
juny
junyent
jupiter
jura
jurado
jurament
jurar
jurassic
jurat
jurats
juri
jurisdiccio
jurisprude
jurista
juristes
jury
jusqu
jussa
just
justa
justament
justi
justice
justicia
justifica
justificacio
justificar
justin
justinia
justo
jutge
jutges
jutgessa
jutjar
jutjat
jutjats
juvenil
juvenils
juventud
juventus
jə
k
ka
kabul
kah
kahn
kai
kailola
kaiser
kaj
kalanchoe
kali
kalmbach
kam
kan
kanat
kane
kang
kans
kansas
kant
kaplan
kapoor
kappa
kar
kara
karabakh
karate
karel
karen
karim
karin
karl
karlsruhe
karnataka
karrer
kart
kas
kaspa
kassel
kat
kate
katharine
katherine
kathleen
kathryn
katie
katz
kaufman
kawasaki
kay
kazakh
kazakhstan
kazan
kaɫ
kaɾ
kb
kde
ke
keaton
keep
keith
keller
kelly
kemp
ken
kendall
kennedy
kenneth
kenny
kensington
kent
kentucky
kenya
kepler
kerala
kerr
kerry
kes
kevin
kew
key
keynes
keys
keyserling
kg
kh
kha
khalil
khan
khmer
khoja
khorasan
khrusxov
khu
khurasan
khz
ki
kid
kids
kiel
kigali
kill
killed
killer
killing
kilo
kim
kin
kind
king
kingdom
kings
kingston
kirby
kirguizistan
kirk
kirman
kis
kiss
kit
kita
kitchener
kitty
kl
kla
klapa
klaus
klein
km
knight
knopf
know
knowledge
known
knox
ko
koch
kodak
kofi
koh
kom
kon
kong
konrad
korea
korean
kos
kosovo
kottelat
kov
kova
koŋ
koɫ
koɱ
koɾ
kr
kra
kramer
krasnodar
kremlin
krishna
kro
krupp
ks
ktor
ku
kuban
kuiter
kullander
kum
kumar
kun
kung
kunst
kur
kurd
kurda
kurdistan
kurds
kurt
kuwait
kuɫ
kv
kw
kwa
kwə
ky
kyle
kyo
kyoto
kɔ
kə
kən
kər
kəs
kəɫ
kɛ
kɫa
kɫe
kɫi
kɫə
kɾa
kɾe
kɾi
kɾo
kɾu
kɾə
l
la
lab
laba
laberint
labes
labor
labora
laboracio
laboracions
laborador
laboradora
laboradors
laboral
laborals
laborant
laborar
laborat
laboratori
laboratoris
laboratory
laborista
labour
labrador
labridae
labs
lac
lace
lachner
laci
lacio
lacions
lacta
lada
lades
ladi
ladies
ladislau
lado
lady
lag
laga
lago
lagos
lagrange
laguna
lah
lahore
lai
laia
laic
laics
lake
lakers
lakes
lam
lama
lamb
lambda
lambert
lament
lampisteria
lampisteries
lan
lana
lancaster
lance
lancet
land
landa
landes
landing
lands
landscape
lane
lang
lange
langeani
langle
language
languages
langue
languedoc
lanka
lant
lao
laos
lapse
lar
lara
laren
large
largest
largo
larousse
larry
lars
larsen
larson
larus
larva
larves
las
lasioglossum
last
lat
late
later
latera
lateral
laterals
latest
latimeriidae
latin
latina
latino
latitud
latituds
latiu
lats
lau
launch
launches
laura
laurel
lauren
laurence
laurent
laurie
lausana
lava
laval
lavanguardia
law
lawrence
laws
lbum
lbums
lc
lcd
lcul
lculs
ld
ldic
ldica
ldots
le
lea
lead
leader
leaders
leadership
leading
league
leal
leandro
learning
least
leave
leaves
leb
lebanon
leben
lebre
lebres
lec
leccio
leccionista
leccionistes
leccions
lectiu
lectius
lectiva
lectivament
lectives
lector
lectors
lectual
lectuals
lectura
lecture
lectures
led
lee
leeds
left
leg
lega
legacy
legal
legalitat
legalment
legals
legant
legar
legat
legend
legends
legi
legiata
legio
legions
legis
legislacio
legislatiu
legislativa
legislatives
legislatura
legislatures
legitimitat
lego
legoria
legs
legues
leguminosae
leh
lei
leibniz
leicester
leiden
leigh
leipzig
leita
lek
lel
lela
lelament
leles
lels
lem
lema
len
lena
length
lengua
lenguas
leni
lenin
leningrad
lenni
lennon
lens
lent
lenta
lentament
lents
leo
leon
leonard
leonardo
leone
leonid
leonor
leopold
leopoldo
lepido
lepidoptera
leq
ler
lera
les
lesa
lesbian
lesbiana
lesbianes
lesio
lesions
leslie
less
lessons
lester
let
letal
leto
letras
letter
letters
lettres
leuce
leur
lev
levante
level
levi
levin
levine
levy
lewis
lex
lexicon
lexikon
lexington
ley
leyenda
leyes
lez
lfia
lg
lgar
lgara
lgars
lgbt
lgebra
lgia
lgica
lgid
li
lia
liang
liar
lib
libe
liber
liberal
liberalisme
liberals
liberation
libertad
liberty
librairie
libraries
library
libre
libreri
libri
libro
libros
lic
lica
lice
license
liceo
liceu
licini
licita
licitar
licitat
licitud
lico
licor
lics
lid
lida
lidera
liderada
liderar
liderat
lideratge
liderats
lides
lids
lie
liebe
liechtenstein
lieder
lieja
lies
life
liga
lige
ligent
ligents
light
lights
ligne
ligrafia
ligu
ligue
lih
lik
like
lil
lila
lilla
lille
lillian
lily
lim
lima
limburg
limfa
limfo
limi
limita
limitacio
limitacions
limitada
limitades
limitant
limitar
limitat
limitats
limitava
limited
limiten
limits
lin
lina
linares
lincoln
linda
lindsay
line
lineal
lineals
linear
lines
ling
lingu
lingua
linguistic
linguistics
link
links
linn
linnaeus
linne
linnean
lins
linux
lio
lion
lionel
lions
liques
lir
lira
lis
lisa
lisboa
lise
lisi
lisio
lisis
list
lista
liste
listing
lists
liszt
lit
lita
litat
lite
litera
literal
literalment
literari
literaria
literario
literaris
literary
literatura
literature
lites
liti
lito
litoral
litre
litres
lits
litte
little
littlefield
litu
litua
lituana
lituans
litza
litzar
liu
live
liverpool
lives
livi
living
livre
lix
liz
ljubljana
ll
lla
llac
llach
llacs
llacuna
llacunes
llada
llades
llado
lladre
lladres
llagostera
llament
llamp
llana
llanc
llances
llano
llant
llanterna
llapis
llar
llarg
llarga
llargada
llargmetratge
llargmetratges
llargs
llargues
llars
llat
llati
llatina
llatines
llatinoame
llatinoamerica
llatins
llats
llau
llauto
llavi
llavis
llavor
llavors
llc
lle
llebre
llega
llegar
llegat
llegeix
llegenda
llegendari
llegendes
llegint
llegir
llegit
llegums
llei
lleial
lleials
lleialtat
lleida
lleis
llemosi
llenc
llengu
llengua
llenguadoc
llenguatge
llenguatges
llenya
lleo
lleons
ller
llera
lles
llet
lletra
lletres
lleu
lleuger
lleugera
lleugerament
lleugeres
lleugers
lleure
lleus
lleva
llevant
llevar
llevat
lli
llibertari
llibertat
llibertats
llibre
llibreria
llibreries
llibres
llibret
llibreter
llic
llice
llicencia
llicenciada
llicenciar
llicenciat
llicenciatura
lliga
lligada
lligades
lligam
lligams
lligar
lligat
lligats
lligues
llimona
llinatge
llinatges
llinda
llindar
llindes
llis
llisa
llises
llisos
llista
llistat
llistats
llistes
llit
llitera
llits
lliura
lliurada
lliurament
lliurar
lliurat
lliurats
lliure
lliurement
lliures
llo
lloar
llobera
llobet
llobregat
lloc
lloch
llocs
lloctinent
llogar
llogaret
llogarets
llogaters
llogats
lloguer
llombard
llombardia
llop
llopis
llops
llorca
llorenc
llorens
llorente
llorer
lloret
llosa
lloses
llotja
lloyd
llu
lluc
lluch
llucmajor
lluentor
llui
lluis
lluita
lluitador
lluitadors
lluitant
lluitar
lluitat
lluitava
lluitaven
lluiten
lluites
llull
llum
llumino
lluminosa
lluminositat
llums
lluna
llunes
llunetes
lluny
llunya
llunyana
llunyans
llur
llurs
ln
lnius
lo
lobo
loc
loca
locacio
locada
locades
local
locales
localidades
localitat
localitats
localitza
localitzacio
localitzacions
localitzada
localitzades
localitzar
localitzat
localitzats
localitzen
localment
locals
locant
locar
locat
location
locatiu
locats
loch
locke
lockheed
loco
locomotora
locomotores
locus
locutor
lodge
lodi
log
loga
logan
logement
logements
logi
logic
logo
logos
logotip
logronyo
loi
loir
loira
loire
lois
lok
lola
lom
lon
lond
london
londres
lonely
long
longitud
longitudinal
longituds
longman
longmans
loni
look
looking
lope
lopes
lopez
loquen
loqui
loquial
loquials
lorca
lord
lords
lorena
lorenzo
loreto
lori
lorica
loricariidae
loro
lorraine
los
loss
lost
lot
lotari
lotus
lou
louis
louise
louisiana
loup
lourdes
louvre
lov
lovaina
love
loves
low
lowe
lower
lozano
lp
lroc
ls
lsinki
lt
ltd
ltic
ltica
ltics
ltim
ltima
ltimes
ltimo
ltims
ltiple
ltiples
ltiques
lu
lua
luanda
luc
luca
lucas
lucca
luce
lucena
lucha
luci
lucia
luciano
lucien
lucio
lucius
lucknow
lucky
lucre
lucy
ludeix
ludovico
ludwig
luftwaffe
lugar
lugo
lui
luigi
luis
luisa
luiz
luka
luke
lula
lular
lulars
lules
lulosa
lulu
lum
lumie
lumina
luminacio
luminar
luminat
luna
lunar
lunars
lund
lune
luo
lupus
lur
lus
luscs
lusignan
lusio
lusions
lustra
lustracio
lustracions
lustrada
lustrador
lustrar
lustrat
lustrats
lustre
lustres
luter
luterana
luther
lutz
lux
luxe
luxembourg
luxemburg
luxemburgue
luz
lv
lvarez
lvaro
lvez
lvia
lviv
lvora
lvula
lvules
ly
lydia
lynch
lynn
lynx
lyon
lyons
lɪ
m
ma
maastricht
mabel
maberly
mac
macau
macba
macbeth
macdonald
macedo
macedoni
mach
machado
machine
machines
maci
macia
macintosh
mack
mackenzie
macmillan
macro
macrouridae
mactutor
mad
mada
madagascar
madame
made
madeira
madeleine
mades
madison
madonna
madoz
madre
madrid
madrileny
madrilenya
madrona
madur
madura
maduracio
maduresa
mae
maestrat
maestro
mag
magatzem
magatzems
magazine
magda
magdalena
magdeburg
maggie
magi
magic
magister
magisteri
magistral
magistrat
magistrats
magma
magna
magne
magnesi
magnetic
magneto
magni
magnitud
magnituds
magnum
magnus
mago
magrana
magrib
mags
magu
mah
maharaja
maharashtra
mahdi
mahler
mahmud
mahoma
mai
maia
maiden
maies
maig
mail
main
maine
maior
maire
mais
maison
majestat
major
majordom
majoria
majorita
majoritari
majorment
majors
maju
make
maker
makes
making
mal
mala
malabarba
malaia
malalt
malalta
malaltia
malalties
malalts
malament
malatesta
malauradament
malawi
malaysia
malbe
malcolm
malda
malden
maldives
maldonado
male
malediccio
malei
males
malestar
malgrat
mali
malik
mall
malla
mallol
mallorca
mallorques
mallorqui
mallorquina
mallorquins
mallot
malme
malmesa
malmo
malnom
malo
mals
malta
malvat
malwa
mama
mameluc
mamelucs
mami
mammal
mammals
man
mana
manacor
management
manager
manar
manat
manca
mancava
mancha
manche
manchester
mancomunitat
mandat
mandats
mandela
mandi
mane
maneig
manejar
manel
manent
manera
maneres
manfred
manga
mangane
manglars
manhattan
mani
manifest
manifesta
manifestacio
manifestacions
manifestants
manifestar
manifestat
manifesten
manila
maniobra
maniobres
manipulacio
manipular
manitoba
manlleu
mann
mannheim
manning
mano
manolo
manos
manquen
manresa
manrique
mans
mansio
mansur
mante
mantega
mantell
mantenen
mantenia
mantenien
manteniment
mantenint
mantenir
mantindria
mantingue
mantingut
manu
manual
manualment
manuals
manuel
manuela
manufactura
manuscrit
manuscrits
manxa
manxu
many
manzano
mao
maons
maori
map
mapa
mapes
mapping
maps
maputo
maqueta
maquillatge
maquina
maquinari
mar
mara
maragall
maratha
marathes
marato
marbre
marc
marca
marcada
marcades
marcador
marcadors
marcant
marcar
marcat
marcats
marcel
marcelino
marcello
marcelo
marcgravi
march
marcha
marche
marcia
marcial
marcials
marco
marcos
marcs
marcus
mare
marea
marees
marenda
mares
maresme
margalida
margaret
margarida
margarit
margarita
marge
marges
marginal
margot
marguerite
mari
maria
marian
mariana
marianne
mariano
marie
marilyn
marin
marina
marine
mariner
mariners
marines
marino
marinos
marins
mario
marion
mariona
marisa
mariscal
marit
maritime
marius
marjorie
mark
market
marketing
marks
markus
marne
marque
marquen
marques
marquesa
marquesat
marquesos
marra
marriage
marro
marroc
marrons
marroqui
mars
marseille
marsella
marsh
marshall
mart
marta
martell
martha
marti
martin
martina
martinet
martinez
martini
martino
martins
martiri
martorell
marty
marvel
marvin
marx
marxa
marxant
marxar
marxes
marxisme
marxista
marxistes
mary
maryland
marzo
mas
mascaro
mascle
mascles
mascota
masculi
masculina
masculines
masculins
masia
masies
masnou
maso
mason
masos
mass
massa
massachusetts
massacre
massacres
massana
masses
massi
massimo
massiu
massius
massiva
massives
masso
masson
massot
master
masters
masud
masuda
mat
mata
matanc
matant
matar
mataro
matas
matat
match
mate
mateix
mateixa
mateixes
mateixos
matema
mateo
mater
materia
material
materials
matern
materna
maternal
maternals
maternitat
mates
mateu
math
mathbb
mathbf
mathcal
mathe
mathematical
mathematics
mathieu
mathrm
mathworld
mati
maties
matilda
matilde
matinada
matisos
mato
matollars
matolls
matri
matricular
matrimoni
matrimonial
matrimonis
matriu
matrius
matrix
mats
matt
matteo
matter
matthew
matthews
matthias
matx
mau
maura
mauri
maurice
maurici
mauricio
maurita
maurizio
mauro
mausoleu
max
maxil
maxim
maximilia
maxwell
may
maya
mayenne
mayer
mayo
mayor
maɫ
maɾ
mb
mbia
mbic
mbit
mbits
mbol
mbols
mbox
mbria
mc
mcallister
mccarthy
mccartney
mcdonald
mcdowell
mcfarland
mcgraw
mckay
mclaren
md
me
mead
mean
meaning
means
meat
meca
mecanisme
mecanismes
mecenes
mechanics
mechanisms
mecklenburg
med
meda
medal
medalla
medallas
medalles
medallista
medallo
medea
medelli
medes
medi
media
mediacio
mediambiental
mediambientals
mediana
medical
medicament
medicaments
medici
medicina
medicinal
medicinals
medicine
medieval
medievals
medina
medinaceli
medio
medios
medis
meditacio
mediterra
mediterranean
mediterrani
mediterranis
medium
medul
meet
meeting
mega
megali
megan
mehmed
mehmet
mei
meiji
mein
meitat
meitats
mejor
mejores
mekong
mel
melanie
melbourne
mele
melilla
melissa
melle
mello
melo
melodia
melodies
melodrama
melville
mem
member
members
membrana
membranes
membre
membres
memo
memoir
memoire
memoirs
memorable
memoria
memorial
memoriam
memorias
memories
memory
memphis
men
mena
mencio
menciona
mencionada
mencionar
mencionat
mendelssohn
mendes
mendoza
mene
menes
menezes
mengen
menja
menjador
menjar
menjars
menor
menorca
menorqui
menors
menos
mens
mensual
mensuals
ment
mental
mentalitat
mentals
mente
mentida
mentor
mentre
mentres
mentrestant
ments
menu
menuda
menut
menys
menyspreu
menzel
mer
mera
merament
meravelles
mercadal
mercader
mercaderia
mercaderies
mercaders
mercado
mercant
mercantil
mercat
mercats
merce
mercedes
mercenaris
mercer
mercuri
mercury
mere
meredith
mereix
meres
mergus
meridia
meridional
meridionals
merino
meritxell
merle
merlets
merli
mero
meros
merriam
mers
mes
mesa
mescla
mescles
mesi
mesnil
mesopota
mesos
mesquita
mesquites
message
messe
messi
messies
messina
mestra
mestratge
mestre
mestres
mestressa
mesura
mesurament
mesurar
mesurat
mesuren
mesures
met
meta
metabo
metabolisme
metacritic
metadades
metafi
metal
metall
metallica
metalls
metastasio
metel
meteorit
meteorits
meteorolo
meteorologia
metes
metge
metges
metgessa
method
methods
metodolo
metodologia
metralladora
metralladores
metre
metres
metro
metropolita
metropolitan
metropolitana
metz
meu
meurthe
meus
meuse
meva
meves
mexica
mexican
mexicana
mexicano
mexicans
mexico
meyer
meyrick
mez
mezzosoprano
mfasi
mg
mgm
mhz
mi
mia
miami
mic
mica
micament
micas
mice
mich
michael
michel
michelangelo
michele
michelle
michigan
mick
mickey
mico
micos
micro
microbiol
microbiology
microones
microorganismes
microsco
microscopi
microsoft
mics
mid
mida
middle
mide
mides
midi
midnight
mido
mids
midway
mie
mies
mifflin
mig
migcampista
migdia
migjorn
migracio
migracions
migrants
migration
migrato
miguel
mike
mikel
mikhai
mikhail
mil
mila
milan
milano
mile
milenio
miler
milers
miles
milet
mili
milicians
milio
milions
milita
militant
militants
militar
militares
militarment
militars
military
milk
mill
milla
millars
mille
millennium
miller
milles
millet
million
millones
millor
millora
millorada
millorant
millorar
millorat
millores
millors
mills
milne
milo
milos
mils
milton
milwaukee
mim
mimi
min
mina
minas
mind
mindat
mine
miner
minera
mineral
mineralo
mineralogia
mineralogy
minerals
mineres
mineria
miners
minerva
mines
ming
minh
mini
miniatura
miniatures
minimitzar
minise
ministe
minister
ministeri
ministerial
ministerio
ministeris
ministra
ministre
ministres
ministro
ministry
minnaert
minneapolis
minnesota
minor
minoria
minories
minorita
minsk
minu
minut
minutes
minutos
minuts
minyons
mio
mioce
miquel
miques
mir
mira
miracle
miracles
mirada
mirador
mirall
miralles
miralls
miramar
miran
miranda
mirant
mirar
mireia
miren
miret
miriam
miro
mirror
mirza
mis
miscel
mise
miserico
mismatch
mismo
miss
missa
missatge
missatger
missatgers
missatges
misses
missing
missio
mission
missioner
missioners
missions
mississipi
mississippi
missouri
misteri
misterio
misteriosa
misteris
mit
mitchell
mite
mites
mitgeres
mitges
mitj
mitja
mitjan
mitjana
mitjanc
mitjanes
mitjanit
mitjans
mito
mitochondrial
mitocondrial
mitolo
mitologia
mitra
mitridates
mits
mix
mixt
mixta
mixtes
mj
mk
ml
mm
mmad
mme
mn
mnac
mnium
mo
mobile
mobiliari
mobilitat
mobilitzacio
mobilitzar
moble
mobles
moc
mocador
mocio
mod
moda
modalitat
modalitats
mode
model
modelar
modelatge
modelo
models
moderada
moderat
moderats
modern
moderna
modernament
moderne
modernes
modernisme
modernista
modernistes
modernitat
modernitzacio
modernitzar
moderno
moderns
modes
modest
modesta
modifica
modificacio
modificacions
modificada
modificades
modificant
modificar
modificat
modificats
modo
modulacio
modular
mogol
mogols
mogut
mohamed
mohammad
mohammed
mohs
moi
moia
moiane
moire
moires
moise
moix
mojo
mol
mola
molar
molas
molda
mole
molecular
moleculars
moles
molestar
moli
molie
molina
moliner
molins
moll
molla
mollet
mollo
molls
molly
mols
molt
molta
moltes
molti
molto
molts
moma
moment
moments
mon
mona
monaco
monarca
monarques
monarquia
mondadori
monde
mondo
moneda
monedes
monestir
monestirs
moneta
monetari
money
monges
mongo
mongol
mongols
monica
monistrol
monitor
monitoring
monitors
monja
monjo
monjos
monkey
mono
monocli
monogra
monografia
monografies
monograph
monoli
monoparentals
monopoli
monoti
monroe
mons
monsenyor
monsieur
monster
monsters
monstre
monstres
mont
monta
montagne
montagut
montalba
montan
montana
montaner
montanya
montblanc
montbui
montcada
monte
montecarlo
montenegro
montero
monterrey
montes
montesa
montevideo
montferrat
montferrer
montfort
montgomery
montgri
month
monthly
monti
montigny
montjui
montner
montoliu
montoriol
montpeller
montpellier
montre
montreal
montreuil
monts
montsant
montse
montsec
montseny
montserrat
montsia
monument
monumental
monumentals
monuments
monzo
moon
moore
mor
mora
moral
morales
morals
moran
morato
more
moreau
morell
morella
moren
morena
moreno
morera
morfolo
morfologia
morgan
mori
moria
morint
morir
moriren
moriria
moriscos
moritz
morning
moro
morocco
moros
morphology
morris
morrison
morro
morrow
morse
mort
morta
mortal
mortalitat
mortals
morte
morter
mortes
morton
morts
mos
mosa
mosaic
mosaics
mosca
moscou
moscow
mosel
moser
moses
mosques
moss
mossa
mosse
mossen
mossos
mossul
most
mostra
mostrant
mostrar
mostrat
mostrava
mostraven
mostreig
mostren
mostres
mot
mota
motets
mother
moti
motion
motiu
motius
motivacio
motivar
motivat
motlle
motllura
motllurada
motllurat
motllures
moto
motocicleta
motocicletes
motociclisme
motocro
motocross
motogp
motor
motors
motos
mots
mou
mouen
mount
mountain
mountains
moure
mouse
mov
move
movement
movent
movie
movies
moviment
moviments
movimiento
moving
movistar
moya
moyen
moyle
mozambique
mozart
mozilla
moɫ
moɾ
mp
mpades
mpeg
mpia
mpic
mpica
mpics
mpiques
mpla
mplia
mpliament
mplies
mptoma
mptomes
mr
mrac
mrs
ms
msnm
mt
mtv
mu
much
mucosa
muda
mudar
mude
muere
muerte
muertos
muha
muhammad
mujer
mujeres
mul
mula
mulet
mulk
muller
muls
multa
multi
multijugador
multime
multinacional
multiple
multiplicacio
multiplicar
multitud
mun
mundi
mundial
mundialment
mundials
mundo
munic
munich
municio
municions
municipal
municipalitat
municipals
municipi
municipios
municipis
munt
munta
muntada
muntaner
muntants
muntanya
muntanyenc
muntanyes
muntanyo
muntanyosa
muntanyoses
muntar
muntat
muntatge
muntatges
muntats
mur
mura
murad
mural
muralla
muralles
murals
murat
murcia
murder
muriel
murillo
muro
murphy
murray
murs
mus
musa
musaranya
muscular
musculars
musculus
muse
musei
musell
museo
museociclismo
museu
museum
museums
museus
music
musica
musical
musicals
musicians
musico
musicologia
musik
musique
muslim
mussa
mussol
mussolini
must
mustafa
musulma
musulmana
musulmanes
musulmans
mut
mutacio
mutacions
mutants
mutu
muy
muɫ
mv
mvp
mw
mx
my
myanmar
myctophidae
myers
myspace
mystery
myth
mythology
mɔ
mə
mən
mər
məs
mɛ
n
na
nabla
nach
nacho
nacio
nacional
nacionales
nacionalisme
nacionalista
nacionalistes
nacionalitat
nacionalitats
nacionals
nacions
naco
nad
nada
nadal
nadia
nadie
nadir
nadiu
nadiua
nadius
nado
nadons
naga
nagasaki
nager
nages
nah
nai
nairobi
naix
naixement
naixements
naixent
nakamura
nal
nam
name
named
names
nami
namibia
naming
nams
namur
nan
nana
nancy
nano
nans
nant
nantes
naomi
napoleo
napoleon
napoli
nar
nara
narbona
narci
narciso
narcissus
narra
narracio
narracions
narrador
narratiu
narrativa
narrative
narratives
narva
nas
nasa
nasal
nasals
nascuda
nascut
nascuts
nash
nashville
nasir
nasque
nasqueren
nasr
nassau
nat
nata
natacio
natal
natalia
natalie
nathalie
nathan
nation
national
nationale
nations
natiu
natius
nativa
native
natives
nativitat
natl
nats
natur
natura
naturae
natural
naturales
naturalesa
naturaleza
naturalis
naturalisme
naturalista
naturalment
naturals
nature
naturelle
natzaret
nau
naus
nava
navajo
naval
navals
navarra
navarre
navarro
navas
nave
navegable
navegacio
navegador
navegant
navegar
navili
navy
nawab
naxos
nazi
nazionale
nazis
nazisme
naɾ
nba
nbc
nberg
nc
ncbi
ncep
nceps
ncer
nchen
nchez
ncia
ncies
ncipe
ncton
nd
ndals
ndalus
ndard
ndards
nde
ndel
ndem
nder
ndex
ndexs
ndez
ndia
ndic
ndida
ndies
ndix
ndol
ndols
ndor
ndric
ndrica
ndrome
ndula
ndules
ndum
ne
nea
neal
near
neas
neboda
nebot
nebraska
nebre
nebulosa
nec
neca
necessa
necessari
necessaris
necessita
necessitar
necessitat
necessitats
necessitava
necessitaven
necessiten
nech
necro
necrolo
necs
ned
nedador
nedadora
nedar
need
needham
needs
neerlande
neerlandesa
neerlandeses
neerlandesos
nega
negacio
negar
negat
negatiu
negatius
negativa
negativament
negatives
negoci
negociacio
negociacions
negociar
negocis
negra
negre
negres
negreta
negri
negro
neh
neil
neill
neix
neixen
nel
nell
nella
nellie
nels
nelson
nem
nen
nena
nenes
nens
neo
neocla
neogo
neoli
neotropical
nepal
neptu
neptune
ner
nere
neres
neri
nero
nervi
nervio
nervis
nes
nesa
nesi
nesos
net
neta
neteja
netejar
netflix
netherlands
neto
nets
network
networks
neu
neue
neuilly
neumann
neural
neuro
neurolo
neuronal
neurones
neus
neutral
neutralitat
neutre
neutro
neutrons
neuville
nevada
never
nevers
neville
new
newcastle
newman
newport
news
newsletter
newspaper
newton
next
nez
nf
nfl
ng
ngc
ngel
ngela
ngeles
ngels
nger
ngia
nguez
nguyen
nh
ni
nia
niament
nic
nica
nicament
nicaragua
nicas
niccolo
nice
nicea
nicholas
nichols
nicholson
nicht
nick
nickel
nico
nicola
nicolas
nicolau
nicole
nicos
nics
nid
nida
nides
nids
nie
niels
nielsen
niem
nies
nieto
nietzsche
nig
nige
nigel
niger
nigeria
night
nights
nigra
nigsberg
nih
nikita
nikola
nikolai
nil
nils
nilsson
nim
nima
nime
nimes
nimfa
nimo
nims
nin
nina
nine
nines
nineteenth
ningu
ninja
nino
nintendo
nio
nior
niques
nis
nissaga
nissan
nit
nita
nitrat
nitrogen
nits
niu
nius
nivell
nivells
nix
nixon
niz
nizam
nj
nk
nl
nm
no
noaa
noah
nobel
nobelprize
nobiliari
noble
nobles
noblesa
noces
noche
nocio
nocions
nocturn
nocturna
nocturnes
nocturns
nodc
node
nodes
noe
noel
nogensmenys
nogue
noguera
noh
noi
noia
noies
noir
noire
nois
noise
nokia
nol
nola
nolan
nols
nom
noma
nombra
nombre
nombres
nombro
nombrosa
nombroses
nombrosos
nome
nomen
nomena
nomenada
nomenament
nomenar
nomenat
nomenats
nomencla
nomenclatura
nomenclature
nomes
nominacio
nominacions
nominada
nominal
nominalment
nominat
nominations
nominatiu
nominats
nominees
noms
non
nonell
nons
nor
nora
noranta
norbert
nord
norfolk
norma
normal
normalitat
normalitzacio
normalment
normals
norman
normand
normanda
normandia
normands
normatiu
normativa
normatives
normes
norris
norske
norte
north
northern
northwest
northwestern
norton
noruec
noruecs
noruega
norway
norwegian
norwich
nos
nosaltres
nosta
nostra
nostre
nostres
not
nota
notable
notablement
notables
notacio
notar
notari
notas
note
notes
nothing
noti
notice
notices
noticia
noticias
noto
notorietat
notre
nottingham
nou
noucentisme
noucentista
nous
nouveau
nouveaux
nouvelle
nouvelles
nov
nova
novament
novas
nove
novel
novela
novell
november
novembre
novena
noves
novetat
novetats
novi
noviembre
novo
now
noy
noya
np
npr
nquing
nr
ns
nsa
nscrit
nsit
nsol
nsols
nster
nsula
nsules
nt
ntara
ntegrament
nter
ntesi
ntesis
nther
ntia
ntic
ntica
ntico
ntics
ntida
ntids
ntim
ntima
ntimament
ntims
ntiques
ntric
ntrica
ntrics
ntriques
ntua
nu
nua
nuament
nuclear
nuclears
nucleo
nucli
nuclis
nues
nuestra
nuestro
nuestros
nueva
nuevas
nuevo
nuevos
nuit
nul
nuls
num
numa
number
numbers
nume
numeracio
numisma
nun
nunca
nunci
nuova
nuovo
nur
nuremberg
nus
nusos
nutricio
nutrients
nutrition
nxol
nxols
ny
nya
nyer
nyi
nytimes
nz
nɔ
nə
nən
nəs
nɛ
nɪ
o
oa
oak
oakland
oaks
oasi
oasis
oaxaca
ob
obaga
obama
obe
obedie
obeir
obert
oberta
obertament
obertes
oberts
obertura
obertures
obi
obituary
object
objecte
objectes
objectiu
objectius
objects
oblidar
oblidat
obliga
obligacio
obligacions
obligada
obligant
obligar
obligat
obligato
obligatori
obligats
obligava
oblit
oboe
obra
obrador
obras
obre
obren
obrer
obrera
obreres
obrers
obres
obri
obria
obrint
obrir
obscura
observa
observacio
observacions
observada
observador
observadors
observant
observar
observat
observations
observatori
observatory
observats
observen
observer
observing
obsessio
obsolet
obstacle
obstacles
obstant
obte
obtencio
obtenen
obtenia
obtenint
obtenir
obtindre
obtinguda
obtingudes
obtingue
obtingut
obtinguts
oc
oca
ocan
ocasio
ocasional
ocasionalment
ocasionals
ocasionar
ocasions
occident
occidental
occidentals
occidente
occita
occitana
occitans
oce
ocea
ocean
oceania
oceanographic
oceans
ocell
ocells
och
ochoa
oci
oclc
oco
ocorre
ocorregut
ocorren
oct
octa
octava
octavi
october
octobre
octogonal
octubre
ocular
ocult
oculta
ocultar
ocupa
ocupacio
ocupacions
ocupada
ocupades
ocupant
ocupants
ocupar
ocuparen
ocupat
ocupats
ocupava
ocupaven
ocupen
oda
ode
oder
odes
odessa
odi
odissea
odo
odyssey
oest
of
ofegar
ofensiu
ofensiva
ofensives
ofereix
ofereixen
oferi
oferia
oferien
oferint
oferir
ofert
oferta
ofertes
off
office
official
officiel
officielle
ofici
oficial
oficialment
oficials
oficina
oficines
oficis
ofrena
ofrenes
og
ographie
oh
ohio
oi
oil
ois
oise
ojos
ok
okinawa
oklahoma
ol
ola
olaf
olana
olas
old
ole
oleg
oles
olesa
olga
oli
oliba
olimpbase
olimpi
olis
oliva
olivares
olive
oliveira
oliver
olivera
oliveres
olives
olivia
olivier
olla
oller
ologie
ologique
olor
olot
ols
olsen
olympedia
olympia
olympic
olympics
olympique
om
oman
omar
ombra
ombres
ombri
omega
omeia
omple
omplir
oms
on
ona
onada
onades
once
oncle
onda
ondas
one
oner
oneria
ones
ong
oni
online
only
ono
onoma
onomasticon
ons
ont
onta
ontario
ontinyent
onu
onze
onzena
op
opcio
opcional
opcions
ope
open
opening
openthesaurus
opera
operacio
operacions
operador
operadora
operadors
operant
operar
operat
operation
operations
operatiu
operatius
operativa
operatorname
operen
opereta
operi
ophrys
opi
opinio
opinion
opinions
oponent
oponents
oportunitat
oportunitats
oposa
oposada
oposades
oposar
oposat
oposats
oposava
oposaven
oposicio
oposicions
opositor
opositors
opressio
ops
opta
optar
optical
optimitzacio
optimot
opus
or
ora
oracio
oracions
oracle
orador
oral
orals
orange
oratori
orbit
orbita
orbital
orbitals
orbiter
orchestra
orchidaceae
orde
orden
ordena
ordenacio
ordenada
ordenades
ordenament
ordenar
ordenat
ordenats
order
orders
ordes
ordi
ordina
ordinador
ordinadors
ordinal
ordinari
ordo
ordre
ordres
ore
oregon
orella
orelles
ores
orfe
orfebreria
orfeo
orfes
org
orga
organic
organisation
organisme
organismes
organisms
organista
organitza
organitzacio
organitzacions
organitzada
organitzades
organitzador
organitzadors
organitzant
organitzar
organitzat
organitzats
organitzava
organitzen
organizacio
organization
orgue
orgues
orgull
orgullo
ori
orient
orienta
orientacio
orientada
orientades
oriental
orientales
orientals
orientar
orientat
orientats
oriente
origen
origin
origina
original
originalitat
originalment
originals
originar
originari
originaris
originat
origine
originen
origines
origins
orina
orinoco
orio
oriol
oriola
orion
orlando
orleans
ornamentacio
ornamental
ornamentals
ornaments
orne
ornitolo
ornitologia
oro
orografia
orquesta
orquestra
orquestral
orquestrals
orquestres
orqui
ors
orsini
orstom
ortega
ortiz
ortodo
ortodox
ortodoxa
ortodoxes
ortodoxos
ortofotomapes
ortogra
ortografia
ortoro
os
osa
osaka
osasuna
osborne
osca
oscar
oscars
oscil
osiris
oskar
oslo
osman
oso
osona
osprey
ossa
ossos
ostariophysi
ostatge
ostatges
osteichthyes
ostenta
ostentar
oswald
ot
otan
otero
other
others
oto
otoma
otomana
otomanes
otomans
otra
otras
otro
otros
otrs
ottawa
otto
ottoman
ou
ouen
ouest
our
ourense
ous
out
ov
ova
oval
ovari
ovella
ovelles
over
overline
overview
ovi
ovidi
oviedo
owen
own
oxford
oxidacio
oxigen
oyakawa
oz
ozo
oɾ
p
pa
pablo
pac
pace
pacheco
paci
pacie
pacient
pacients
pacific
pacifista
pack
paco
pactar
pacte
pactes
padilla
padre
padri
padro
paella
pag
paga
pagament
pagaments
pagans
pagant
pagar
pagat
pagava
pagaven
page
pages
pagesia
pagesos
pagina
pagos
pai
pain
painting
paintings
pairal
pais
paisatge
paisatges
paisatgi
paixa
pak
pakistan
pal
pala
palabra
palabras
palace
palacio
palacios
palafrugell
palais
palamo
palanca
palati
palatinat
palau
palaus
palazzo
pale
paleo
paleobiology
paleoli
paleonto
paleontolo
paleontologia
paleontology
palerm
palermo
pales
palesa
palesti
palestina
palestine
palestinian
palestins
paleta
paletes
palgrave
palla
pallare
pallaresa
pallars
pallissa
palm
palma
palmare
palmas
palmer
palmera
palmeres
palmira
palo
paloma
palomar
palos
palou
pals
pam
pamela
pamplona
pan
panama
panamericans
panda
pandanus
pande
pandora
panel
panell
panells
panjab
panora
panorama
panta
pantalla
pantalles
pantalons
pantans
panteo
pantera
panther
pany
panzer
paola
paolo
pap
papa
papal
papallona
papallones
papals
papat
papel
paper
paperback
papers
papes
papir
papua
paquet
paquets
par
para
parabo
paracaigudes
paracaigudistes
parada
parade
parades
paradi
paradigma
paradigmes
paradise
paradoxa
paraguai
paraguay
parai
paral
parali
parament
paraments
parameters
paramount
parana
parany
parar
paratge
paraula
paraulas
paraules
parc
parcel
parcial
parcialment
parcials
parcs
pardo
pare
paredat
paredes
parell
parella
parelles
parells
parent
parentiu
parents
parer
pares
paret
parets
pari
paris
park
parker
parkinson
parks
parla
parlada
parlades
parlament
parlamenta
parlamentari
parlamentaris
parlant
parlants
parlar
parlars
parlat
parlava
parlaven
parlem
parlen
parliament
parma
paro
parque
parra
parramon
parro
parroquial
parroquials
pars
parsons
part
parte
parteix
parti
partial
particio
participa
participacio
participacions
participant
participants
participar
participaren
participat
participava
participaven
participen
participi
particular
particularitat
particularment
particulars
particuliers
partida
partidari
partidaris
partides
partido
partidos
partie
parties
partint
partir
partisans
partit
partitiu
partits
partitura
partitures
partners
parts
party
pas
pasa
pasado
pascal
pascual
pasha
pasio
paso
pasqua
pasqual
pasquale
pass
passa
passada
passades
passadi
passadissos
passant
passaport
passaports
passar
passara
passarel
passaren
passaria
passat
passatge
passatgers
passatges
passats
passava
passaven
passe
passeig
passejar
passen
passes
passi
passio
passion
passions
passiu
passiva
passos
past
pasta
pasteur
pasti
pastor
pastora
pastoral
pastors
pastura
pastures
pat
patago
patata
patates
pateix
pateixen
patent
patentar
patents
pater
patern
paterna
path
pathe
pati
patia
patients
patiment
patinatge
patins
patint
patir
patis
patit
pato
patolo
patologia
patra
patri
patria
patriarca
patriarcal
patriarcat
patrice
patrici
patricia
patrick
patrimoni
patrimonial
patrimonials
patrimonio
patrio
patriotes
patro
patrocinador
patrocinat
patrocini
patrona
patronals
patronat
patroni
patrons
patrulla
pats
patterns
patterson
patton
pau
paugy
paul
paula
pauli
paulina
pauline
paulo
paulus
pauly
pausa
pautes
pavanelli
pavel
pavello
pavellons
pavia
paviment
pax
paxton
pay
payne
pays
paz
paɫ
paɾ
pb
pbs
pc
pce
pcia
pcies
pcr
pd
pdf
pe
peace
peak
pearl
pearson
pebre
pec
pecat
pecats
peces
peci
peckham
pectorals
peculiar
pedago
pedagog
pedagoga
pedagogia
pedal
pedestal
pedra
pedralbes
pedrera
pedreres
pedres
pedro
peer
pega
peggy
peix
peixateria
peixes
peixos
pel
pela
pelatge
pelayo
pelegri
pelegrinatge
pelegrins
peli
pell
pellicer
pells
pelopone
pels
pen
pena
penal
penals
penat
pendant
pendent
pendents
pendre
penede
penes
penetra
penetracio
penetrar
penguin
peni
peninsula
peninsular
penis
penite
penja
penjant
penjar
penjat
penn
pennsilva
pennsylvania
penny
pensa
pensada
pensador
pensadors
pensament
pensaments
pensamiento
pensant
pensar
pensat
pensava
pensaven
pense
pensen
pensio
pensions
penso
penta
penu
penya
peo
peons
people
peoples
pep
pepa
pepe
pepper
pequen
pequi
per
pera
peralada
peralta
percebre
percentatge
percep
percepcio
perciformes
percussio
percy
perd
perde
perden
perdent
perdia
perdo
perdonar
perdran
perdre
perduda
perdudes
perdura
perdut
perduts
pere
peregrinacio
pereira
perello
perenne
peres
perez
perfeccio
perfeccionar
perfect
perfecta
perfectament
perfecte
perfectes
perfet
perfil
perfils
perforacio
performance
perfumeria
pergami
peri
perife
perifra
perill
perillo
perillosa
perilloses
perillosos
perills
perio
period
periodi
periodicitat
periodisme
periodismo
periodista
periodistes
peris
perjudici
perkins
perla
perles
perlidae
perllongar
permane
permanent
permanentment
permanents
permanyer
perme
permet
permete
permeten
permetent
permeti
permetia
permetien
permetin
permetra
permetre
permetria
permi
permisos
pero
perpe
perpendicular
perpendiculars
perpignan
perpinya
perque
perrin
perruqueria
perruqueries
perry
pers
persa
perse
persecucio
persecucions
persegueix
perseguir
perseguit
perseguits
perses
perseu
persian
persiste
persistent
person
persona
personal
personalitat
personalitats
personalment
personals
personas
personatge
personatges
persones
perspectiva
perspective
perspectives
persuadir
perta
pertany
pertanyen
pertanyent
pertanyents
pertanyia
pertanyien
perth
pertinenc
peru
perua
peruana
perusa
perxa
pes
pesa
pesada
pesant
pesants
pesar
pesat
pesats
pesava
pesca
pescador
pescadors
pescar
peshwa
pesos
pessetes
pesta
pet
pete
peter
peters
petersburg
petersen
peterson
peticio
peticions
petit
petita
petite
petites
petits
petjades
peto
petra
petri
petro
petroli
petrus
petxina
petxines
peu
peus
pex
pez
pezzi
peɾ
pg
ph
phane
phantom
phase
phi
phil
phila
philadelphia
philharmonic
philip
philipp
philippe
philippine
philippines
philips
phillip
phillips
philosophical
philosophy
phoenix
phone
photo
photographic
photography
photometry
photos
php
phylogenetic
phylogenetics
phylogeny
phys
physical
physics
physiology
pi
pia
piament
pianista
piano
pianos
piazza
pib
pic
pica
picada
picament
picant
picard
picasso
picat
pick
pico
picot
pics
picto
pictorial
picture
pictures
pid
pida
pidament
pide
pides
pids
pie
piece
piedra
piemont
piens
pier
piera
pierce
piero
pierre
pies
pietat
pieter
pieto
pietro
piga
pigment
pigments
pila
pilar
pilars
pilastres
piles
pilo
pilot
pilota
pilotes
pilots
pin
pina
pinc
pine
pineda
ping
pingu
pink
pino
pins
pinta
pintada
pintades
pintar
pintat
pintats
pinto
pintor
pintora
pintors
pintura
pintures
pinus
pinya
pinyin
pio
pioneer
pioner
pionera
pioners
piotr
piper
pipi
pique
piqueras
piques
pir
pira
piragu
piramidal
pirata
pirateria
pirates
pirinenca
pirineu
pirineus
pis
pisa
pisces
piscina
piscines
piscium
piso
pisos
pissarra
pista
pistes
pisto
pistola
pistoles
pistons
pit
pita
piter
pitjor
pitjors
pits
pitt
pittsburgh
piu
pius
pivot
pixar
pizarro
pl
pla
plac
placa
place
places
plaer
plaers
plafons
plaga
plagues
plain
plains
plan
plana
planas
planck
plane
planeja
planejar
planejat
planes
planet
planeta
planetari
planetary
planetes
planetoce
planets
planificacio
planificar
planning
plans
plant
planta
plantacio
plantacions
plantar
plantarum
plantas
planteja
plantejament
plantejaments
plantejar
plantejat
planter
plantes
plantilla
plantilles
plants
planxa
planxes
plaques
plasma
plasmar
plat
plata
plataforma
plataformes
plate
plateau
plates
platform
platges
plati
platja
platnick
plato
plats
plau
play
playa
playas
playbill
playboy
player
players
playing
playoffs
plays
playstation
plaza
plc
ple
pleasant
please
plebeu
plebs
plec
pleco
plecoptera
plecs
plegar
plegat
plegats
plena
plenament
plenes
plenitud
plens
plet
pli
plica
plini
pliques
plistoce
plo
plom
ploma
plomatge
plomes
plora
plorant
plorar
plos
plou
pls
pluges
pluja
plural
plus
plutarc
pluto
plymouth
pm
pmatrix
pmc
pmid
pnas
pnb
pneuma
pneumo
po
poa
poaceae
pobla
poblacio
poblacional
poblacions
poblada
poblades
pobladors
poblament
poblat
poblats
poble
poblenou
pobles
poblet
pobra
pobre
pobres
pobresa
poc
poca
poch
pocket
poco
pocock
pocs
podcast
pode
podem
podemos
poden
podent
poder
podero
poderosa
poderoses
poderosos
poders
podes
podeu
podi
podia
podien
podra
podran
podreu
podri
podria
podrien
poe
poema
poemari
poemas
poemes
poems
poesi
poesia
poesies
poeta
poetes
poetessa
poetry
pogue
pogueren
poguessin
pogut
point
points
poiss
poissons
poitiers
poitou
poke
pol
pola
poland
polar
polaritzacio
polars
pole
poli
polibi
police
polici
policia
policial
policials
policies
policromada
policy
poliesportiu
poligonal
poline
polinomi
polinomis
polis
polish
polite
politica
political
politics
politique
poll
pollastre
pollenc
polo
polone
polonesa
poloneses
polonesos
pols
polzades
polze
poma
pomera
pomes
pompeia
pompeu
pon
ponc
ponce
pone
ponent
pons
ponsich
pont
ponte
pontevedra
ponti
pontifi
pontificat
pontifici
pontificis
ponts
pool
poor
pop
popa
pope
popular
popularitat
popularitzar
popularment
populars
population
populations
poques
por
porc
porcellana
porcio
porcions
porcs
porn
porno
pornogra
pornografia
porpra
porque
porsche
port
porta
portaavions
portada
portades
portador
portadors
portal
portalada
portals
portant
portar
portara
portaren
portaria
portat
portats
portava
portaven
portaveu
porte
portella
porten
porter
porteria
portes
portland
porto
portrait
ports
portua
portugal
portugue
portuguesa
portuguese
portugueses
portuguesos
porus
porxada
porxo
porxos
pos
posa
posada
posades
posant
posar
posaren
posat
posats
posava
posaven
pose
posen
posesiones
posicio
posicionament
posicionar
posicions
posido
position
positiu
positius
positiva
positivament
positives
posseeix
posseeixen
possei
posseir
possessio
possessions
possibilitat
possibilitats
possible
possiblement
possibles
possio
post
posta
postal
postals
posterior
posterioritat
posteriorment
posteriors
postgrau
postguerra
postres
postulats
postura
postures
pot
pota
potable
potassi
pote
potencial
potencialment
potencials
potenciar
potent
potential
potents
potes
potestat
potosi
pots
potsdam
potser
potter
pou
poum
pour
pous
powell
power
powers
poznan
pozo
poɾ
pp
pr
pra
practica
practical
practicant
practicar
practicat
practicava
practicaven
practice
practiquen
prada
praderies
prades
pradesh
prado
praga
pragma
praia
prairie
prat
prats
pratt
pre
preca
precedeix
precedent
precedents
precedida
precedit
preci
precioses
precipitacio
precipitacions
precisa
precisament
precises
precisio
precisos
precoc
precursor
precursors
predecessor
predecessors
predicacio
predicador
predicar
prediccio
prediccions
predir
predomina
predominant
predominantment
predominen
predomini
prefaci
prefecte
prefectura
prefectures
prefere
prefereix
prefereixen
preferent
preferentment
preferia
preferida
preferir
preferit
prefix
prega
pregar
prego
pregunta
preguntar
preguntes
prehisto
prejudicis
preliminar
preliminars
preliminary
preludi
prematura
premi
premia
premiada
premiat
premiats
premie
premier
premiere
premiership
premio
premios
premis
premissa
premsa
pren
prendre
prenen
prenent
prengue
prengueren
prenia
prenien
prenom
prensa
prentice
preocupa
preocupacio
preocupacions
preocupar
preocupat
prepara
preparacio
preparada
preparant
preparar
preparat
preparatius
preparats
preparava
preparen
preroma
pres
presa
presbiteri
prese
presencia
present
presenta
presentacio
presentacions
presentada
presentades
presentador
presentadora
presentant
presentar
presentara
presentaren
presentat
presentation
presentats
presentava
presentaven
presente
presented
presenten
presents
preservacio
preservar
preservation
preses
preside
presideix
presidencia
presidencial
presidencials
president
presidenta
presidente
presidential
presidents
presidi
presidida
presidir
presidit
preso
presoner
presoners
presons
presos
press
pressa
presse
presses
pressio
pressionar
pressions
pressupost
pressupostos
presta
prestacio
prestacions
prestar
prestigi
prestigio
prestigiosa
prestigiosos
preston
presumiblement
presumptament
presumpte
presumptes
prete
pretendent
pretendents
pretendre
pretenen
pretenia
pretenien
pretensio
pretensions
pretext
pretor
pretty
preu
preus
prevalenc
preveia
prevencio
prevenir
prevention
preventiva
prevere
preveres
preveu
preveure
previ
preview
previs
previsio
previst
prevista
previstes
pri
price
pride
priest
prieto
prim
prima
primari
primaris
primary
primat
primats
primavera
prime
primer
primera
primerament
primerenc
primerenca
primerencs
primerenques
primeres
primers
primes
primetime
primitiu
primitius
primitiva
primitives
primo
primoge
primordial
prims
prince
princesa
princess
princeton
principal
principales
principalment
principals
principat
principats
principi
principios
principis
principles
print
printing
prior
priorat
prioritat
prisma
prison
privada
privades
privat
private
privats
privilegi
privilegiada
privilegis
prix
prize
pro
proa
probabilitat
probabilitats
probable
probablement
problem
problema
problemas
problemes
problems
proc
proce
procede
procedeix
procedeixen
procedent
procedents
procedia
procediment
procediments
procedir
proceedings
proceso
process
processador
processadors
processament
processar
processat
processes
processing
processo
processons
processos
proclama
proclamacio
proclamada
proclamar
proclamat
proco
procurador
procurar
procyclingstats
produccio
produccions
product
producte
productes
production
productions
productiu
productiva
productivitat
productor
productora
productores
productors
products
produeix
produeixen
produeixi
produi
produint
produir
prof
profecia
profesional
professio
professional
professionalment
professionals
professions
professor
professora
professorat
professors
profeta
profetes
profile
profit
profund
profunda
profundament
profundes
profunditat
profunditats
profunds
program
programa
programacio
programada
programador
programadors
programar
programari
programat
programes
programme
programming
progre
progress
progressar
progressio
progressista
progressistes
progressiu
progressiva
progressivament
progressos
prohibeix
prohibia
prohibicio
prohibida
prohibides
prohibir
prohibit
prohibits
projeccio
projeccions
project
projecta
projectada
projectar
projectat
projecte
projectes
projectil
projectils
projector
projects
proletariat
proli
proliferacio
prolongacio
prome
promesa
promeses
promet
prometre
prominent
prominents
promocio
promocional
promocionar
promoguda
promogut
promomallorca
promontori
promotor
promotora
promotors
promou
promoure
prompte
promulgacio
promulgar
pron
prono
pronom
pronominal
pronoms
pronu
pronuncia
pronunciacio
pronunciada
pronunciar
pronunciat
prop
propagacio
propaganda
propagar
proper
propera
properes
propers
properties
propi
propia
propiciar
propieta
propietari
propietaris
propietat
propietats
propis
propo
proporcio
proporciona
proporcional
proporcionant
proporcionar
proporcionat
proporcionava
proporcionen
proporcions
proposa
proposada
proposar
proposat
proposava
proposen
proposicio
proposicions
proposta
propostes
propulsio
prosa
prosperar
prosperitat
prosseguir
prostitucio
prostituta
prostitutes
protagonisme
protagonista
protagonistes
protagonitza
protagonitzada
protagonitzar
protagonitzat
proteccio
protection
protector
protectora
protectorat
protectors
protegeix
protegeixen
protegia
protegida
protegides
protegir
protegit
protegits
protei
protein
proteins
protest
protesta
protestant
protestantisme
protestants
protestar
protestes
proto
protocol
protocols
protons
prototip
prototips
prototipus
prou
proust
prova
provar
provat
prove
proveeix
provei
proveir
provenc
provence
provenen
provenia
provenien
provenir
proves
provi
provide
province
provinces
provincia
provincial
provincials
provincias
provinent
provinents
provisional
provisionalment
provisionals
provisions
provoca
provocada
provocant
provocar
provocat
provoquen
proximitat
proximitats
proyecto
pru
prudent
prunus
prussia
prussiana
ps
psc
pseudo
psi
psia
psico
psicoana
psicolo
psicologia
psiquia
psiquiatre
psiquiatria
psoe
pspv
psuc
psula
psules
psychiatry
psychoda
psychodidae
psychology
pt
pter
pters
ptic
ptica
ptics
ptid
ptids
ptils
ptim
ptima
ptiques
ptolemeu
pu
pua
pub
pubilla
publ
publi
public
publica
publicacio
publicaciones
publicacions
publicada
publicades
publicant
publicar
publicaren
publicat
publication
publications
publicats
publicava
publicita
publicitari
publicitaris
publicitat
publique
publiquen
published
publisher
publishers
publishing
puc
puccini
puch
pue
puebla
pueblo
pueblos
puede
puente
puerta
puerto
pues
puga
pugen
pugui
puguin
puig
puigcerda
puigdemont
puix
puja
pujada
pujades
pujant
pujar
pujat
pujol
pujols
pul
pula
pules
pulitzer
pulla
pulmo
pulmonar
pulmons
pun
punk
punt
punta
puntas
puntes
punto
punts
puntuables
puntuacio
puntuacions
puntual
puntuals
puny
pupil
pur
pura
purament
purcell
pure
pures
puresa
puri
purificacio
purple
purposes
purs
pus
put
putin
putnam
py
pyre
python
pɔ
pə
pən
pər
pəɫ
pəɾ
pɛ
pɫa
pɫi
pɫu
pɫə
pɾe
pɾi
pɾo
pɾu
pɾə
q
qa
qatar
qi
qin
qing
qquad
qu
qua
quad
quadern
quaderns
quadra
quadrada
quadrades
quadrangular
quadrat
quadrats
quadre
quadres
qual
qualifica
qualificacio
qualificada
qualificar
qualificat
qualificats
qualitat
qualitats
quality
quals
qualsevol
quan
quant
quantes
quantitat
quantitats
quants
quantum
quaranta
quarantena
quaresma
quarks
quars
quart
quarta
quarter
quarterly
quartet
quartets
quarts
quasi
quate
quatre
que
quebec
queda
quedant
quedar
quedara
quedaren
quedaria
quedat
quedava
quedaven
quede
queden
quedi
queen
queens
queensland
queer
queix
queixa
queixar
queixes
quel
quelcom
quelques
quels
quem
quen
quens
quentin
quer
queralt
quercus
quero
querol
ques
quesada
quest
question
questions
quet
quevedo
queviures
quez
qui
quia
quick
quid
quida
quids
quie
quiem
quien
quiero
quies
quiet
quilo
quilograms
quilos
quim
quin
quina
quines
quinn
quinquennal
quins
quint
quinta
quintana
quintet
quinti
quinze
quinzena
quio
quipements
quiro
quiroga
quiru
quirze
quis
quito
quixot
quo
quocient
quota
quoted
quotes
quotidia
quotidiana
r
ra
rab
rabat
rabe
rabi
rabs
rac
race
races
rachel
racial
racials
racing
racional
racionalista
racionals
racisme
racles
raco
rada
radar
radcliffe
radi
radiacio
radial
radials
radiation
radical
radicalment
radicals
radio
radiodifusio
radiofo
radis
rae
raf
rafa
rafael
rafel
raffles
rahman
raho
rai
raid
raids
raig
raigs
rail
railway
raimon
rain
rainbow
rainer
raion
raire
raj
raja
rajola
rajoles
rajos
rajoy
rajputs
ral
rale
rally
ralph
ram
rama
ramadera
ramaderia
ramaders
ramal
ramat
ramats
rambla
rami
ramir
ramiro
ramis
ramo
ramon
ramona
ramos
rampa
rams
ramsay
ramse
ran
rana
rand
randall
randolph
random
randy
rang
range
rangers
rangle
rangs
ranking
rao
raonable
raonament
raons
raoul
rap
raper
raphael
rapid
rapidesa
raquel
raqueta
rar
rara
rarament
rard
rare
rares
rars
ras
rasa
rashid
raspall
rastre
rastres
rat
rata
rate
rates
ratificar
ratificat
ratings
ration
ratlla
ratllat
ratlles
ratoli
ratolins
ratpenat
ratpenats
rature
ratxa
rau
raval
ravel
raven
ravenna
raw
rax
ray
raymond
rayo
rays
rayy
razo
rb
rba
rbara
rbars
rbia
rbita
rbites
rbitre
rbitres
rc
rca
rcd
rcel
rcia
rcit
rcito
rcits
rcol
rcules
rculo
rd
rda
rdenas
rdia
rdic
rdica
rdics
rdies
rdoba
rdova
rdua
rdues
re
rea
reaccio
reacciona
reaccionar
reaccions
reactiu
reactius
reactor
reactors
read
reader
reading
ready
reafirmar
reagan
real
realidad
realisme
realista
realistes
realitat
realitats
reality
realitza
realitzacio
realitzada
realitzades
realitzador
realitzant
realitzar
realitzaren
realitzat
realitzats
realitzava
realitzaven
realitzen
really
realment
reals
reapare
rebaixat
rebatejada
rebatejat
rebe
rebecca
rebel
rebels
reben
rebent
reberen
rebia
rebien
rebots
rebre
rebuda
rebudes
rebuig
rebut
rebutja
rebutjada
rebutjar
rebutjat
rebutjats
rebuts
rec
recaptacio
recaptar
recau
recaure
recensement
recent
recentment
recents
recepcio
recepta
receptes
receptor
receptors
recerca
recerques
recessio
recherche
recherches
reci
reciclatge
recinte
recipient
recipients
recital
recitals
recitatiu
reclama
reclamacio
reclamacions
reclamant
reclamar
reclamava
reclutament
reclutar
reco
recobert
recobriment
recognition
recol
recollia
recollida
recollides
recollint
recollir
recollit
recollits
recolza
recolzada
recolzar
recolzat
recolzats
recolzen
recomana
recomanable
recomanacio
recomanacions
recomanar
recomanat
recompensa
recompenses
recompte
reconciliacio
reconciliar
recone
reconeguda
reconegudes
reconegue
reconegut
reconeguts
reconeix
reconeixement
reconeixements
reconeixen
reconeixent
reconeixia
reconquerir
reconquesta
reconstruccio
reconstrui
reconstruir
recopa
recopilacio
recopilar
recopilatori
record
recorda
recordant
recordar
recordat
recordava
recorden
recording
recordings
records
recorre
recorregut
recorren
recorrent
recreacio
recrear
recreativa
recta
rectangle
rectangular
rectangulars
recte
rectes
rector
rectoria
recull
recullen
recupera
recuperacio
recuperada
recuperant
recuperar
recuperat
recurrent
recurrents
recurs
recursos
red
redaccio
redacta
redactar
redactat
redactor
redactors
redo
redondo
reduccio
reduction
redueix
redueixen
redui
reduint
reduir
reed
reeder
reedicio
reeditat
reef
reeixida
reeixir
reeixit
reeleccio
reelegit
reemplac
rees
reestructuracio
reeves
ref
refer
refere
refereix
refereixen
reference
referent
referents
referia
referida
referint
referir
referit
reflecteix
reflecteixen
reflectida
reflections
reflectir
reflectit
reflex
reflexio
reflexionar
reflexions
reflexos
reforc
reform
reforma
reformada
reformar
reformat
reformes
reformista
refraccio
refranys
refredament
refredar
refrigeracio
refugi
refugiar
refugiat
refugiats
refugis
refusa
refusar
reg
rega
regadiu
regal
regalar
regals
regan
rege
regeix
regeneracio
regent
reggae
reggio
regia
regida
regidor
regidora
regidors
regiment
regiments
regina
reginald
regio
region
regional
regionalista
regionals
regions
regis
register
registra
registrada
registrades
registrar
registrat
registrats
registre
registres
regla
reglament
regles
regna
regnant
regnar
regnat
regne
regnes
regressio
regula
regulacio
regulacions
regulada
regulador
reguladora
regular
regularitat
regularment
regulars
regulat
regulation
regulen
rehabilitacio
rehabilitat
rei
reial
reialesa
reialistes
reialme
reials
reich
reid
reig
reilly
reims
reina
reine
reines
reinhard
reinhardt
reinhold
reino
reis
reivindica
reivindicacio
reivindicacions
reivindicar
reixa
reixac
reixes
rel
relacio
relaciona
relacionada
relacionades
relacionar
relacionat
relacionats
relacionen
relaciones
relacions
relat
relata
related
relation
relations
relationship
relationships
relatiu
relatius
relativa
relativament
relatives
relativitat
relats
release
released
releases
reli
religio
religion
religions
religiosa
religioses
religiosos
religious
rellanc
relleu
relleus
relleva
rellevant
rellevants
rellotge
rellotges
rem
remake
remarcable
remarcar
rematada
rematat
rembrandt
remei
remer
reminisce
remix
remodelacio
remot
remota
rems
remunta
remuntar
remunten
ren
rena
renaissance
renaixement
renaixenc
renaixentista
renaixentistes
renal
renato
renault
renda
rendes
rendible
rendicio
rendiment
rendir
rene
renfe
rennes
renoir
renom
renova
renovacio
renovada
renovar
renovat
rent
rentar
renu
renuncia
renunciar
reo
reobrir
reorganitzacio
reorganitzar
rep
reparacio
reparacions
reparar
repartia
repartides
repartiment
repartir
repartits
repel
repercussio
repertori
repeteix
repeteixen
repeti
repeticio
repetidament
repetides
repetint
repetir
replicacio
repo
repoblacio
report
reportar
reportatge
reportatges
reported
reporter
reports
reposa
reposar
repositori
repre
reprendre
represa
representa
representacio
representacions
representada
representades
representant
representants
representar
representat
representatiu
representatius
representativa
representatives
representats
representava
representaven
representen
repressio
reprimir
reprint
reproduccio
reproduccions
reproduction
reproductor
reproductors
reprodueix
reprodueixen
reprodui
reproduir
repte
reptes
reptiles
repu
repubblica
republic
republica
republicana
republicanes
republicans
reputacio
requena
requereix
requereixen
requeria
requerida
requeriments
requerir
requerit
requesens
requiem
requisit
requisits
rer
rere
rerefons
rereguarda
res
rescat
rescatar
resclosa
research
reserva
reservada
reservar
reservat
reserve
reserves
reside
resideix
residencial
residencials
resident
residents
residia
residir
residu
residuals
residus
resina
resistance
resiste
resistent
resistents
resistir
resol
resoldre
resolt
resolucio
resolucions
resolution
resource
resources
respecta
respectant
respectar
respectat
respecte
respectius
respectivament
respectives
respiracio
respirar
respirato
respiratori
respon
respondre
responen
respongue
responsabilitat
responsabilitats
responsable
responsables
response
resposta
respostes
ressaltar
ressenya
ressenyes
resso
ressona
ressorgiment
rest
resta
restabliment
restablir
restant
restants
restar
restauracio
restaurada
restaurant
restaurants
restaurar
restaurat
restava
resten
restes
restitui
restriccio
restriccions
restringida
restringir
restringit
result
resulta
resultados
resultant
resultants
resultar
resultat
resultats
resultava
resulten
resultes
results
resum
resumeix
resumen
resumir
resurreccio
ret
retallades
retard
retardar
retards
retaule
retaules
rete
retencio
retenir
reticle
retina
retir
retira
retirada
retirant
retirar
retirat
retirats
retiro
reto
retorn
retorna
retornant
retornar
retornat
retrat
retrata
retratar
retrats
retre
retrieved
retro
retrobar
retroce
retrocedir
retrospectiva
rets
return
returns
reu
reuneix
reuneixen
reuni
reunia
reunien
reunificacio
reunint
reunio
reunions
reunir
reunit
reunits
reus
reusenc
reusencs
reuters
rev
reve
revealed
reveals
revela
revelacio
revelar
revelat
revelen
revenge
revenja
revenus
reverend
revers
reverte
revestiment
review
reviews
revisada
revisar
revisat
revised
revisio
revision
revisions
revisited
revista
revistes
reviure
revival
revo
revolt
revolta
revoltar
revoltat
revoltats
revoltes
revolucio
revoluciona
revolucionari
revolucionaris
revolucions
revolution
revolutionary
revue
rex
rey
reyes
reyna
reynolds
reys
rez
rf
rfc
rg
rgam
rgan
rgans
rgen
rgia
rgic
rgica
rgics
rgiques
rgph
rh
rho
rhode
rhodes
rhododendron
ri
ria
rialb
rialp
riament
riba
ribagorc
ribas
ribeira
ribeiro
ribera
ribes
ric
rica
ricament
ricard
ricardo
ricart
ricas
riccardo
ricci
rice
rich
richard
richards
richardson
richelieu
richmond
richter
rick
ricky
rico
ricos
rics
rid
rida
ride
rider
rides
ridge
ridi
ridley
rids
rie
riehl
riells
riemann
riera
rierol
rierols
ries
rieure
rif
rifle
rift
riga
right
rightarrow
rights
rigidesa
rigor
ril
riley
rima
rimes
rin
rinco
ring
rings
rio
rioja
rios
ripoll
ripolle
rique
riquer
riques
riquesa
riqueses
ris
risc
riscos
rise
rising
risk
rit
rita
rite
ritme
ritmes
rito
rits
ritter
ritu
ritual
rituals
ritus
riu
rium
riure
rius
riva
rival
rivalitat
rivals
rivas
river
rivera
rivers
rivie
rix
riz
rizoto
rk
rkiv
rlids
rm
rmac
rmacs
rmia
rmic
rmica
rmiques
rmula
rmules
rn
rna
rne
rnia
rnic
ro
road
rob
roba
robar
robat
robatori
robatoris
robbie
robbins
robert
roberto
roberts
robertson
robes
robin
robins
robinson
robles
robo
robot
robots
robust
robusta
roc
roca
rocaberti
rocafort
rocha
roche
rochefort
rochelle
rochester
roci
rock
rockefeller
rocket
rocks
rocky
roco
rococo
rocosa
rocoses
rocosos
rod
roda
rodada
rodalia
rodalies
rodar
rodat
rodatge
rode
rodejat
rodes
rodgers
rodo
rodolf
rodolfo
rodona
rodones
rodoreda
rodri
rodrigo
rodrigues
rodriguez
roe
roes
roewer
rogenc
roger
rogers
roges
rohan
roi
roig
roine
roja
rojas
rojo
rojos
rol
roland
rolda
role
rolf
roll
rolling
rolls
rols
rom
roma
romain
roman
romana
romanc
romance
romandre
romane
romanen
romanent
romanes
romanesa
romanesos
romangue
romani
romania
romanian
romanitzacio
romano
romanogerma
romans
romanticisme
romanya
rome
romea
romeo
romero
romeu
rommel
ron
ronald
ronaldo
ronda
rondalles
rondes
rondo
ronyo
room
roosevelt
root
roots
roque
roques
ros
rosa
rosada
rosali
rosari
rosario
rosas
rosat
rosca
rose
rosegador
rosegadors
rosell
rosen
rosenberg
roser
roses
roseta
ross
rossa
rossell
rossello
rossi
rossini
rossinyol
rosso
rostov
rostre
rostres
rota
rotacio
rotational
roth
rothschild
rotor
rotten
rotterdam
roubaix
rouen
rouge
rough
round
roura
roure
roures
rousseau
roussillon
route
routledge
roux
rov
rover
rovira
row
rowling
rowman
roy
royal
royale
rp
rpm
rpret
rprets
rqueting
rquez
rquic
rquica
rquics
rquing
rr
rrec
rrecs
rrega
rregues
rrer
rrez
rria
rroga
rs
rsega
rsia
rsic
rsies
rss
rsssf
rsula
rt
rte
rtebres
rtel
rtex
rtexs
rtia
rtic
rtica
rtics
rtida
rtil
rtils
rtiques
rtir
rtirs
rttemberg
rtve
ru
rua
ruanda
rube
rubens
rubi
rubin
rubinstein
rubio
ruby
rudolf
rudolph
rue
rueda
rufus
rugbi
rugby
rugbyrama
rui
ruiz
rukh
rule
rules
rum
rumb
rumor
rumors
rums
run
runes
runner
running
rupert
rupestre
rupestres
ruptura
rural
rurals
rus
rush
rusin
russ
russa
russell
russes
russia
russian
russo
russos
ruta
rutes
ruth
rutherford
rutina
ruy
rv
rvol
rvols
rwanda
ry
ryan
ryu
ryukyu
rɔ
rə
rəs
rɛ
rɪ
rʊm
s
sa
saavedra
sab
saba
sabadell
sabana
sabanes
sabate
sabater
sabateria
sabates
sabe
sabem
saben
sabent
saber
sabi
sabia
sabien
sabina
sabine
sable
sabo
sabor
sabre
sabut
sac
sacerdot
sacerdotal
sacerdots
sachs
sacra
sacramento
sacre
sacred
sacrificar
sacrifici
sacrificis
sacs
sad
saddle
sadie
sadir
sadurni
sae
safa
safareig
safety
safor
saga
sagan
sagarra
sage
sagnant
sagrada
sagrades
sagrament
sagrat
sagrats
sagrera
sagristia
sagunt
sahara
sahib
sai
said
saint
sainte
saints
sal
sala
salada
saladi
salamanca
salari
salaris
salas
salat
salazar
saldanha
sale
salem
sales
salgado
salinas
salines
salinitat
salisbury
salle
sallent
sally
salm
salmo
salms
salo
salome
salomo
salon
salons
salou
sals
salsa
salses
salt
salta
saltant
saltar
salto
salts
salud
saludable
salut
salutacio
salva
salvacio
salvador
salvament
salvar
salvat
salvatge
salvatges
salvatore
salve
salvia
salzburg
sam
sama
samantha
samarcanda
samarreta
samba
same
sami
samnites
samoa
samos
sample
samsung
samuel
samurai
san
sana
sanc
sanch
sanchez
sanchis
sancho
sancio
sancions
sancti
sand
sanders
sandoval
sandra
sandro
sands
sandy
sang
sangre
sangui
sanguini
sanguinis
sanita
sanitari
sanitaris
sanitat
sankt
sanremo
sans
sant
santa
santana
santander
santedat
santes
santi
santiago
santo
santos
sants
santuari
santuaris
sanz
sao
saona
sap
sapiens
saqueig
saquejada
saquejar
sar
sara
saragossa
sarah
sarajevo
sarco
sard
sarda
sardana
sardanes
sardanista
sardegna
sardenya
sarmiento
sarpe
sarrai
sarria
sarroca
sars
sarsuela
sarthe
sas
saskatchewan
sassa
sastre
sat
sate
satellite
satellites
sati
satisfaccio
satisfacto
satisfer
satisfet
sato
saturacio
saturday
saturn
sau
saudi
saudita
sauma
saunders
saura
savage
savall
save
savi
saviesa
savis
savoia
saw
saxo
saxon
saxons
say
says
sayyid
saɾ
sb
sc
scala
scale
scales
scar
scara
scarecrow
scares
scene
scha
schaefer
scherzo
schiller
schleswig
schmidt
schneider
scho
school
schools
schro
schu
schubert
schultz
schumacher
schumann
schuster
schwartz
schwerin
sci
scialabba
science
sciences
scientific
scientifique
scientist
scientists
scoa
scola
score
scotland
scott
scottish
scratch
screen
script
scriptstyle
scul
scula
scules
sculpture
sculs
sd
se
sea
seal
sean
search
seas
season
seat
seattle
sebastia
sebastian
sec
seca
seccio
seccions
secessio
second
secrecio
secret
secreta
secretament
secretari
secretaria
secretariat
secretary
secretes
secreto
secrets
secs
secta
section
sector
sectors
secular
seculars
secunda
secundari
secundaris
secundum
security
seda
sedan
sede
sedimenta
sediments
sedis
seduir
see
sega
segadors
segarra
segat
segats
segell
segells
segimon
segle
segles
segment
segments
sego
segon
segona
segones
segons
segovia
segre
segregacio
segrest
segrestat
segria
segu
segueix
segueixen
segui
seguia
seguici
seguida
seguidament
seguides
seguidor
seguidors
seguien
seguiment
seguint
seguir
seguira
seguiren
seguiria
seguit
seguits
segunda
segundo
segur
segura
segurament
segures
seguretat
seguridad
segurs
sei
seient
seients
seine
seis
seixanta
sel
sele
seleccio
seleccionada
seleccionades
seleccionador
seleccionar
seleccionat
seleccionats
seleccions
selecta
selected
selection
selectiva
selenografia
self
selju
sella
selma
selva
selves
sem
sema
semana
sembla
semblanc
semblances
semblant
semblants
semblar
semblava
semblaven
semblen
sembra
semi
semicircular
semiconductor
semiconductors
semifinal
semifinals
seminari
seminaris
sempre
sen
sena
senador
senadors
senat
sencer
sencera
senceres
sencers
sender
senecio
senegal
senglar
sengles
senior
sens
sensacio
sensacions
sense
sensibilitat
sensible
sensibles
sensor
sensorial
sensorials
sensors
sent
sente
senten
sentencia
senti
sentia
sentiment
sentimental
sentiments
sentint
sentir
sentit
sentits
sentmenat
sento
seny
senyal
senyalitzacio
senyals
senyera
senyor
senyora
senyoreta
senyoria
senyorial
senyorials
senyoriu
senyors
senzill
senzilla
senzillament
senzilles
senzillesa
senzills
sep
separa
separacio
separada
separades
separant
separar
separat
separats
separen
sept
september
septembre
septentrional
septentrionals
septiembre
septima
sepulcre
sepulcres
sepultura
sequ
sequence
sequera
seques
ser
sera
serafi
seran
serbi
serbis
sere
serena
serge
sergei
sergent
sergi
sergio
serguei
seri
seria
serial
serie
serien
series
serio
seriosa
seriosament
seriosos
sermo
sermons
serna
serp
serps
serra
serradell
serralada
serralades
serrallonga
serrano
serrat
serres
sert
serv
servei
serveis
serveix
serveixen
servent
servents
server
servi
servia
service
services
servicio
servicios
servidor
servidors
servien
servint
servir
servit
servitud
ses
sessio
session
sessions
set
setanta
sete
setembre
setena
setge
seth
setmana
setmanal
setmanals
setmanari
setmanes
sets
settlement
setze
seu
seua
seues
seuil
seure
seus
seva
seven
sever
severa
several
severament
seves
sevilla
sew
sex
sexe
sexes
sexo
sext
sexta
sexual
sexualitat
sexualment
sexuals
seychelles
seymour
seɾ
sf
sfor
sforza
sg
sh
sha
shackleton
shadow
shadows
shah
shakespeare
shall
shan
shane
shang
shanghai
shannon
shao
share
sharks
sharon
sharp
sharpe
shaw
shawn
she
sheet
sheets
sheffield
sheldon
shell
shelley
shen
sheridan
sherlock
sherman
shi
shield
shin
ship
ships
shirley
sho
shock
shogunat
shooting
shop
shore
short
shot
should
show
shows
shu
si
sia
siam
sias
sibe
sibil
sic
sica
sicament
sichuan
sici
sicilia
siciliana
sico
sicos
sics
sid
sida
side
sidi
sidney
sido
sids
sie
siegfried
siemens
siempre
sien
siena
sierra
sies
siete
sig
siga
sigles
siglo
siglos
sigma
sigmund
sign
signa
signada
signal
signant
signants
signar
signat
signats
signatura
signatures
signe
signes
significa
significacio
significant
significar
significat
significatiu
significatius
significativa
significativament
significatives
significats
significava
signs
sigue
sigui
siguin
sigut
sil
sile
silence
silenci
silencio
silent
silicat
silicats
silici
silicon
silla
silueta
siluriform
siluriformes
silva
silver
silvestre
silvestres
silvia
silvio
sim
sima
simbad
simbo
simbolisme
simbolitza
sime
simeo
simetria
simfo
simfonia
simfonies
similar
similars
similitud
similituds
simmons
simo
simon
simone
simpa
simpatia
simpatitzants
simple
simplement
simples
simplicitat
simplificada
simplificar
simplificat
simpson
sims
simulacio
simular
simulta
sin
sina
sinagoga
sinai
since
sinclair
sincronitzacio
sind
sindical
sindicalista
sindicals
sindicat
sindicats
sine
sing
singapore
singapur
singer
singh
single
singles
singular
singularitat
singulars
sinn
sino
sint
sinta
sintaxi
sinte
sintetitzar
sinus
sio
sion
sionista
sioux
siques
sir
siracusa
sire
sirena
siri
siria
siriana
sis
sise
sisena
siste
sistema
sistemes
sister
sisters
sit
sita
site
sites
sitges
sitio
sitiodeciclismo
sito
sits
situ
situa
situacio
situacions
situada
situades
situant
situar
situat
situation
situats
situava
situen
siu
sive
siw
six
size
siŋ
siɫ
sja
sjo
sjon
sjoŋ
sjɔ
sk
ska
skates
skelton
ski
skin
sky
sl
slam
slave
slavery
sleep
slesvig
slim
sm
small
smart
smash
smica
smith
smiths
smithson
smithsonian
sms
sn
snake
snia
snow
snyder
so
soares
sobira
sobirana
sobirania
sobirans
sobre
sobrenatural
sobrenom
sobrepassar
sobresurt
sobresurten
sobretot
sobreviscut
sobreviu
sobreviuen
sobreviure
sobtada
sobtadament
sobte
soc
soca
soccer
soccerway
soci
social
socialdemo
sociales
socialisme
socialista
socialistes
socialment
socials
socie
sociedad
societa
societat
societats
society
socio
socioecono
sociolingu
sociolo
sociologia
socis
socors
sodi
sof
sofa
sofert
sofi
sofia
sofre
sofreix
sofriment
sofrir
sofs
soft
softcatala
software
sogorb
sogre
soil
soiuz
sol
sola
solament
solana
solar
solars
sold
solda
soldadura
soldat
soldats
soldevila
soldier
soldiers
sole
soledad
soledat
soleil
solemne
solen
soler
soles
soli
solia
solid
solida
solidaritat
solien
solista
solistes
solita
solitari
solitud
solo
solomon
sols
solsona
solsone
solstici
soltera
solteres
soluble
solucio
solucionar
solucions
solution
solutions
som
soma
somali
somalia
sombra
some
somerset
something
somme
sommer
somni
somnis
somos
somriure
son
sona
sonar
sonata
sonates
sonda
sondes
song
songs
sonia
sonic
sono
sonor
sonora
sonores
sonors
sons
sont
sony
sopa
sopar
sophia
sophie
soprano
soques
sor
sorbona
sorda
sorgeix
sorgeixen
sorgi
sorgida
sorgiment
sorgir
sorgit
soria
soriano
soroll
sorolla
sorpre
sorprendre
sorprenent
sorprenentment
sorpresa
sorra
sorrenca
sort
sorteig
sorti
sortia
sortida
sortides
sortien
sortint
sortir
sortit
sos
sosa
sospita
sospitar
sospites
sospito
sospitosos
soste
sostenen
sostenia
sostenibilitat
sostenible
sostenint
sostenir
sostinguda
sostingut
sostre
sostres
sot
sota
sotelo
soterrani
sotme
sotmesa
sotmeses
sotmesos
sotmetre
soto
sots
sou
soul
sound
sounds
soundtrack
source
sources
sous
sousa
south
southampton
southeast
southeastern
southern
southwest
souza
sovie
soviet
sovint
soy
sp
spa
space
spacex
spain
spanish
spd
spe
spec
special
species
specific
specimen
spectral
spectrum
speech
speed
spencer
sper
spera
spes
spia
spider
spiders
spiegel
spielberg
spike
spin
spirit
split
spora
sport
sporting
sports
spot
spp
spring
springer
springfield
springs
spudis
spy
sqrt
squad
square
squet
sr
sra
sri
ss
ssa
ssan
sseldorf
ssem
sser
ssers
sseu
ssia
ssic
ssica
ssics
ssida
ssil
ssils
ssim
ssima
ssimes
ssims
ssin
ssiques
ssir
ssiu
ssom
ssora
ssos
ssou
ssov
ssp
ssuf
st
sta
stade
stadium
staff
stage
stalin
stan
stand
standard
standards
standing
stanford
stanley
star
stark
starr
stars
start
stasi
stat
stata
state
statement
states
station
statistical
statistics
statistique
statpearls
stats
status
stay
ste
steam
stec
stecs
steel
stefan
stefano
stein
steindachner
steiner
stella
stellar
stem
stenes
step
stephan
stephanie
stephen
stephens
ster
sterling
stern
sters
steve
steven
stevens
stevenson
stewart
sti
stia
stic
stica
sticament
sticas
stico
sticos
stics
sties
stig
still
sting
stiques
stirling
sto
stock
stockholm
stokes
stol
stola
stoles
stols
stone
stoneflies
stones
stop
stor
store
storia
stories
storm
story
stra
straight
strand
strange
stranger
strategic
strategies
strategy
strauss
stravinski
stream
streaming
street
stria
stries
strike
string
strofe
strong
structural
structure
structures
struggle
strunz
sts
stu
stuart
stud
student
students
studi
studies
studio
studios
study
stum
stuma
stumament
stuttgart
style
su
sua
suau
suaus
sub
subcampio
subclasse
subconjunt
subcontinent
subdivisio
subdivisions
subespe
subfami
subfamily
subge
subgrup
subgrups
subhasta
subjacent
subject
subjecta
subjecte
subjectes
subjuntiu
submari
submarina
submarins
subministrament
subministraments
subministrar
submissio
subordinat
subordinats
subordre
subratllar
subsahariana
subscripcio
subscriptors
subsegu
subsidia
subsiste
subsistir
subso
subsp
substa
substancial
substancialment
substantiu
substantius
substitucio
substitueix
substitui
substituint
substituir
substitut
substrat
substrats
subterra
subterrani
subti
subtil
subtropical
subtropicals
subunitats
suburbi
suburbis
subvencio
subvencions
suc
succe
succeeix
succeeixen
succei
succeint
succeir
success
successio
successius
successivament
successives
successor
successora
successors
successos
such
sucre
sucres
sud
sudan
sue
suec
sueca
suecs
sueichan
suen
suert
suetoni
suez
sufi
suficient
suficientment
suficients
sufix
sufixat
sufocar
sufraga
sufragi
sugar
suggereix
suggereixen
suggeriment
suggerir
suggerit
sui
suicide
suides
suisse
suite
sul
sulawesi
sulayman
sulfat
sulfats
sulfu
sulfur
sulfurs
sulla
sullivan
sulta
sultan
sultanat
sultats
sum
suma
sumant
sumar
sumari
sumatra
sume
sumen
summa
summary
summer
summit
sun
sundance
sunday
sung
sunyer
supe
super
supera
superada
superant
superar
superat
supercopa
superen
superfami
superfi
superficial
superficials
superherois
superior
superioritat
superiors
superlatiu
superman
supermercat
supermercats
supernova
superposicio
supervisar
supervisio
supervisor
supervive
supervivent
supervivents
supi
suplement
suplent
supo
suport
suporta
suportar
suporten
suports
suposa
suposada
suposadament
suposant
suposar
suposat
suposats
suposava
suposem
suposen
suppl
supplement
support
suprem
suprema
supremacia
supreme
supressio
suprimida
suprimir
suprimit
sur
sureda
surf
surface
surgery
surinam
suro
surrealisme
surrealista
surrey
surt
surten
survey
survival
sus
susa
susan
susana
susanna
susceptible
susceptibles
suspe
suspendre
suspens
suspensio
suspesa
sussex
sutherland
sutton
suzanne
suzuki
sv
svalbard
sven
svenska
swan
sweden
swedish
sweet
swift
swimming
swing
swiss
switch
sword
sy
sydney
sylvia
symphony
symposium
syndrome
synop
synopsis
synthesis
syria
syrian
syste
system
systema
systematic
systematics
systems
sɔ
sə
səm
sən
səs
səw
sɛ
sɪ
t
ta
tab
tabac
table
tables
tablissements
tabriz
tabu
tac
taca
tacte
tadjikistan
tag
tah
tahiti
tai
taila
taipei
taiwan
taixkent
taj
tajo
take
takes
taking
tal
tala
talaia
talaio
talavera
talbot
tale
talent
talents
tales
talibans
talk
talking
talks
tall
talla
tallada
tallades
tallant
tallar
tallat
tallats
tallen
taller
tallers
talles
tallinn
talls
talmud
talo
tals
tam
tamara
tambe
tambie
tambor
tambors
tament
tamerla
tamil
tampoc
tan
tanc
tanca
tancada
tancades
tancament
tancant
tancar
tancat
tancats
tancs
tang
tanganyika
tangent
tango
tank
tanmateix
tanquen
tanques
tans
tant
tanta
tantes
tanto
tantost
tants
tanza
tanzania
tao
tap
tapa
tapar
tapi
taques
taquilla
tar
tara
taraxacum
tard
tarda
tardana
tardar
tarde
tardor
target
targeta
targetes
tarifa
tarn
taro
taronges
taronja
tarot
tarraconense
tarragona
tarragone
tarre
tars
tarzan
tas
tasca
task
tasma
tasques
tassa
tat
tata
tate
tatiana
tats
tau
taula
tauler
taules
tauleta
tauletes
tauro
taurons
taurus
taverna
taxa
taxes
taxi
taxono
taxonomia
taxonomic
taxonomicon
taxonomy
taylor
taɾ
tb
tbol
tc
td
te
tea
teacher
teaching
team
teams
teatral
teatrals
teatre
teatres
teatro
teau
tebeosfera
tebes
teborg
tec
tech
technical
technique
techniques
technologies
technology
tecla
teclat
teclats
tecles
tecnolo
tecnologi
tecnologia
tecnologies
tecto
ted
tedra
teen
teh
teheran
teil
teixidor
teixit
teixits
tel
tela
tele
telecinco
telecomunicacions
telefilm
telefo
telefonia
telegraph
telenovel
teleostei
teles
telescope
telescopes
telescopi
telescopis
televisa
televisio
television
televisions
televisiu
televisius
televisiva
tell
telo
tem
tema
temas
tement
temes
temia
temor
temperades
temperament
temperat
temperatura
temperature
temperatures
tempesta
tempestes
temple
templers
temples
tempo
temporada
temporades
temporal
temporalment
temporals
temps
temptativa
tems
ten
tena
tenda
tende
tendeix
tendeixen
tendes
tendra
tendre
tenen
tenerife
teni
tenia
tenien
tenim
tenint
tenir
teniu
tennessee
tenni
tennis
tennista
tennistes
tenor
tens
tensio
tensions
tensor
teo
teodor
teodoric
teodoro
teodosi
teolo
teologia
teorema
teori
teoria
teories
ter
tera
terape
terc
tercer
tercera
terceres
tercers
tercia
terence
terenci
teresa
term
termals
termcat
terme
termenal
termes
terminacio
terminal
terminals
terminatiu
termini
terminologia
termo
termodina
terms
tero
terol
terra
terracota
terranova
terrassa
terrasses
terrat
terratinent
terratinents
terratre
terre
terreny
terrenys
terres
terrestre
terrestres
terrestrial
terrible
terribles
terrissa
territori
territorial
territorials
territoris
territory
terror
terrorisme
terrorista
terroristes
terry
ters
tertu
tervuren
tes
tesi
tesis
tessa
tessalo
test
testa
testament
testimoni
testimoniatge
testimonis
testing
tests
tet
tetra
tetuan
teu
teugels
teula
teulada
teulades
teulat
teules
teus
teuto
teva
tex
texas
text
texto
textos
texts
textstyle
textual
textura
textures
tez
teɾ
tf
tfh
tfrac
th
tha
thai
thailand
thakur
thames
than
that
thatcher
the
theater
theatre
theft
their
them
theme
then
theo
theodor
theodore
theory
therapy
there
these
thesis
theta
they
thierry
thing
things
think
third
this
thomas
thompson
thomson
thor
thorell
thornton
thorpe
those
thought
thousand
threatened
three
thriller
thrones
through
thunder
thys
ti
tia
tiberi
tibet
tibeta
tic
tica
ticament
ticas
tico
ticos
tics
tid
tides
tids
tie
tiempo
tiempos
tien
tiene
tienne
tierra
ties
tiger
tiges
tigre
tigres
tigris
tija
tik
til
till
tillon
tils
tim
tima
timbre
time
timeline
times
timo
timoner
timor
timothy
timpa
tims
timu
timur
tin
tina
tinc
tinch
tindra
tindran
tindre
tindria
tindrien
tinent
ting
tingue
tingueren
tinguessin
tingui
tinguin
tingut
tinta
tinti
tintoreria
tio
tip
tipo
tipogra
tipografia
tipologia
tipologies
tipus
tique
tiques
tir
tira
tirada
tirador
tiradors
tirant
tirar
tires
tiro
tirol
tiroteig
tirrena
tirs
tis
tit
tita
titan
titani
titanic
titans
titella
titelles
title
tito
titula
titulada
titular
titularitat
titulars
titulat
titus
tiva
tm
tmica
tn
tnia
tnic
tnica
tnics
tnies
tniques
to
tobago
tobias
toc
toca
tocant
tocar
tocat
tocava
tocs
tod
toda
todas
today
todd
tode
todes
todo
todos
together
togo
toh
toile
toj
tojn
tokai
tokugawa
tokyo
tol
toledo
tolera
tolkien
toll
tolo
tolosa
tols
tom
toma
tomas
tomatoes
tomb
tomba
tombes
tome
tommaso
tommy
tomo
tomorrow
toms
ton
tona
tonalitat
tonalitats
tones
tonga
toni
tonight
tons
tony
too
tools
top
topa
topar
topo
topogra
topografia
topolo
topologia
toponi
tops
toquen
tor
tora
toralla
torc
tordera
torello
tori
torino
torn
torna
tornada
tornado
tornant
tornar
tornara
tornaren
tornaria
tornat
tornava
tornaven
torne
torneig
torneigs
tornejos
tornen
torneo
torni
torno
torns
toro
toronto
toros
torra
torras
torrassa
torre
torredembarra
torrelles
torrent
torrents
torres
torreta
torroella
tors
torsio
tort
tortonese
tortosa
tortuga
tortugues
tortura
tortures
tos
tosca
toscana
tossa
tossal
tost
tot
tota
total
totalitat
totalment
totals
totas
totes
tothom
tots
totxo
tou
touch
toulouse
tour
tourism
tournament
tournaments
tours
tous
tout
tov
tova
toward
towards
tower
town
towns
township
toxicitat
toy
toyota
toɾ
tp
tr
tra
trabajo
trac
traccio
traces
track
tracta
tractada
tractament
tractaments
tractant
tractar
tractat
tractats
tractava
tractaven
tracte
tracten
tracti
tracy
trad
trade
tradicio
tradicional
tradicionalista
tradicionalment
tradicionals
tradicions
tradition
traditional
traduccio
traduccions
traductor
traductora
tradueix
tradui
traduir
trage
trai
trail
trailer
train
training
trair
traite
traja
trajecte
trajecto
tram
trama
trames
trampa
trampoli
trams
tramuntana
tramvia
tramvies
tranquil
trans
transaccions
transactions
transbordador
transcende
transco
transcorre
transcripcio
transcripcions
transcrit
transcurs
transfer
transfere
transferida
transferir
transferit
transfermarkt
transforma
transformacio
transformacions
transformada
transformant
transformar
transformat
transformation
transformen
transge
transicio
transistor
transistors
transition
transito
translated
translation
transliteracio
transme
transmesa
transmet
transmeten
transmetre
transmissio
transmission
transmissions
transoxiana
transpare
transparent
transparents
transport
transporta
transportar
transportat
transportats
transports
transsepte
transsilva
transversal
transversals
trap
trapa
tras
trasllada
traslladada
traslladades
traslladar
traslladat
traslladats
trasllat
traspa
traspassar
traspassat
trastorn
trastorns
tratado
trauma
traure
trave
travel
travels
travers
travessa
travessant
travessar
travessat
travessava
travessen
travessia
travis
tre
treatment
treaty
treball
treballa
treballada
treballador
treballadora
treballadores
treballadors
treballant
treballar
treballat
treballats
treballava
treballaven
treballen
treballs
trebisonda
treccani
tree
trees
trek
tremp
tren
trenc
trenca
trencada
trencament
trencant
trencar
trencat
trends
trenquen
trens
trent
trenta
trentena
trento
tres
tresor
tresorer
tresors
tret
trets
tretze
tretzena
treu
treure
treva
trevor
trewavas
tri
tria
triada
trial
trials
triangle
triangles
triangular
triangulars
triar
trias
triat
triats
tribal
tribals
tribe
tribes
tribu
tribuna
tribunal
tribunals
tribune
tribus
tribut
tributa
tributari
tributaris
tribute
tributs
tric
trica
tricament
trics
tridimensional
trienni
trieste
triga
trigar
trilogia
trimestre
trinidad
trinitat
trinity
trinquet
trinxeres
trio
triomf
triomfal
triomfar
triomfs
trip
triple
tripulacio
tripulacions
tripulants
triques
trist
trista
tristan
tristesa
triumph
triunfo
tro
troba
trobada
trobades
trobador
trobadors
troballa
troballes
trobant
trobar
trobara
trobaren
trobat
trobats
trobava
trobaven
trobe
trobem
troben
trobi
trofeu
trofs
troia
troians
trois
trombo
trompa
trompes
trompeta
trompetes
tron
tronc
troncs
trondheim
trop
tropa
tropes
trophy
tropical
tropicale
tropicals
tropicos
tros
trossos
trouble
troy
troyes
tru
truc
trucada
trucades
trucar
trucs
true
truita
trujillo
truman
trump
trust
truth
ts
tsar
tse
tsunami
tt
ttingen
tu
tua
tuament
tub
tuberculosi
tubs
tubular
tuci
tucker
tucuma
tude
tudela
tudes
tudor
tues
tui
tul
tula
tulo
tum
tumor
tumors
tundra
tuni
tunis
tunisia
tur
tura
turbina
turbines
turbo
turc
turca
turcmans
turcs
turi
turia
turing
turisme
turismo
turistes
turkey
turkish
turkmenistan
turn
turnbull
turner
turo
turons
turques
turquia
tus
tutela
tutor
tv
tve
twentieth
twenty
twilight
twin
twitter
two
txad
txaikovski
txe
txec
txeca
txecoslova
txetxe
txua
ty
tycho
tyler
type
types
tz
tzer
tɔ
tə
tən
tər
təs
tɛ
tɪ
tɾa
tɾas
tɾe
tɾi
tɾo
tɾu
tɾə
tɾəs
u
ua
uab
uai
ub
ubica
ubicacio
ubicacions
ubicada
ubicades
ubicar
ubicat
ubicats
ubio
ubuntu
uc
ucd
uci
ucida
ucla
ucrai
ud
uda
udia
udio
ue
uefa
uel
uela
uganda
ugo
ugt
ui
uicn
uk
ukraine
ukrainian
ul
ulic
ulica
ulisses
ull
ulleres
ulls
ulrich
ulster
ultima
ultimate
ultra
ultramar
ultraviolada
um
uma
umar
umberto
un
una
unam
unanimitat
unas
und
under
underground
understanding
une
uned
uneix
uneixen
unep
unes
unesco
ungles
uni
unia
unicode
unida
unidad
unides
unidos
unificacio
unificada
unificar
unificat
uniforme
uniformes
unint
unio
union
unions
unipersonals
unir
uniren
unit
unita
unitari
unitat
unitats
united
units
unity
univ
univers
universal
universalis
universals
universe
universidad
universidade
universita
universitaires
universitari
universitaria
universitario
universitaris
universitat
universitats
universite
university
universo
unix
unknown
uno
uns
until
uoc
up
upc
update
updated
upon
upper
uppsala
ups
ur
ura
urani
urba
urban
urbana
urbanes
urbani
urbanisme
urbanitzacio
urbanitzacions
urbano
urbans
urbe
urdu
urge
urgell
urgent
uri
uria
url
urna
urnes
urpes
urss
ursula
uruguai
uruguaia
uruguaiana
uruguay
us
usa
usada
usades
usant
usar
usat
usats
usava
usaven
usb
usda
use
used
usen
user
uses
usgs
using
uso
usos
uss
usted
ustria
usual
usualment
usuari
usuaris
usula
usurpador
ut
uta
utah
utc
uthman
utic
utica
utics
utilitat
utilitza
utilitzacio
utilitzada
utilitzades
utilitzant
utilitzar
utilitzat
utilitzats
utilitzava
utilitzaven
utilitzen
utiques
uto
utopia
utrecht
uts
uv
uyeno
uzbekistan
uzbeks
v
va
vaca
vacances
vacant
vacante
vaccine
vacil
vacuna
vacunes
vaga
vagi
vagina
vagons
vagues
vaig
vaixell
vaixells
vaja
val
vala
valde
vale
valencia
valenciana
valencianes
valencianista
valenciano
valencianos
valencians
valenciennes
valent
valenti
valentia
valentin
valentina
valentine
valer
valeri
valeria
valerie
valero
vali
validation
validesa
vall
valladolid
vallbona
valle
vallejo
vallespir
valley
valls
valo
valois
valona
valor
valoracio
valorar
valorat
valors
valparai
vals
value
valuo
valuosa
valuosos
valverde
vam
vampir
vampire
van
vancouver
vanessa
vanguardia
vapor
vaques
var
vara
varela
varen
varepsilon
vargas
vari
varia
variabilitat
variable
variables
variacio
variacions
variada
variades
variant
variants
variar
variat
variation
variats
varien
varietat
varietats
variety
varios
various
varis
varphi
varso
vas
vasari
vasco
vascular
vasos
vassall
vassallatge
vassalls
vassili
vast
vasta
vatica
vatican
vaticana
vaughan
vaux
vayreda
ve
vec
vector
vectorial
vectorials
vectors
vedella
vega
vegada
vegades
vegas
vegetacio
vegetal
vegetals
vegeu
vegi
vehicle
vehicles
vei
veia
veie
veiem
veien
veient
veig
vel
vela
velasco
veles
vell
vella
velles
vellesa
vells
velo
velocitat
velocitats
velocities
veloppement
vem
ven
vena
venc
vence
vencedor
vencedora
vencedors
vench
venda
vende
vendes
vendre
vendrell
vene
venec
venecia
veneciana
venecians
venedor
venedors
venen
venent
venera
venerable
veneracio
venerada
venerat
venes
venezia
venezuela
vengue
veni
venia
venice
venien
venir
venjanc
venjar
vent
venta
ventall
ventilacio
vento
ventosa
ventral
ventre
vents
ventura
venuda
venudes
venus
venut
venuts
ver
vera
veracruz
verano
verb
verbal
verbals
verbs
verd
verda
verdad
verdader
verdadera
verdaguer
verde
verdes
verdi
verdo
verds
verdu
verdun
verdures
vergara
verge
verger
verges
vergonya
veri
verificacio
verificar
veris
veritable
veritablement
veritables
veritat
verlag
vermell
vermella
vermelles
vermello
vermells
vermont
verne
vernet
vernon
vero
verola
verona
veronica
vers
versa
versalles
versio
version
versions
verso
versos
versus
vert
vertader
vertebral
vertebrate
vertebrates
vertebrats
vertical
verticalment
verticals
very
ves
vescomtat
vescomte
vescomtes
vesi
vespa
vespre
vespres
vessament
vessant
vessants
vesti
vestida
vestigis
vestimenta
vestir
vestit
vestits
vestuari
vet
vetera
veterans
veterina
veterinari
veterinaris
vetlla
vetllar
veu
veuen
veura
veure
veurem
veus
vevers
vew
vez
veɾ
vgorod
vhs
vi
via
viabilitat
viable
viaje
viament
viana
vianants
viatge
viatgen
viatger
viatgers
viatges
viatja
viatjant
viatjar
viatjava
vibracio
vibracions
vic
vica
vicari
vicariat
viccionari
vice
vicenc
vicens
vicent
vicente
vicepreside
vicepresident
vicepresidenta
viceversa
vichy
victo
victor
victoria
victorio
victory
vid
vida
vidal
vidas
video
videoclip
videojoc
videojocs
videos
vides
vidre
vidres
vidu
vie
vieira
viejo
viena
viene
vienna
vienne
viento
vies
vietnam
vietnamita
viette
vieux
view
vige
vigent
vigents
vigi
vigila
vigilant
vigilar
vigo
vigor
vih
vii
viii
viking
vikings
viktor
vil
vila
vilafranca
vilallonga
vilamajor
vilanova
vilar
vilaseca
vilassar
vilatans
vilaweb
viles
villa
village
villages
villalba
villalonga
villanueva
villar
ville
villena
villeneuve
villers
villiers
vin
vinagre
vinalopo
vinaro
vinc
vince
vincent
vincenty
vincenzo
vinci
vincle
vincles
vincula
vinculacio
vinculada
vinculades
vincular
vinculat
vinculats
vindra
vine
vinguda
vingue
vingut
vini
vinil
vins
vint
vintage
vintena
vinya
vinyes
vio
viola
violacio
violacions
violant
violar
viole
violence
violencia
violent
violenta
violentament
violentes
violents
violeta
violi
violin
violinista
violins
violoncel
viquiespe
viquipe
viral
virgen
virgi
virgili
virgin
virginia
virregnat
virrei
virtual
virtuals
virtuo
virtut
virtuts
virus
vis
visats
visca
visconti
viscut
visibilitat
visible
visibles
visigot
visigots
visio
vision
visions
visir
visit
visita
visitada
visitant
visitants
visitar
visitat
visiten
visites
visor
visque
visqueren
vist
vista
vistes
vistos
visual
visualitzacio
visualitzar
visualment
visuals
vit
vita
vitae
vital
vitali
vitalici
vitalitat
vitals
vitamina
vitamines
vito
vitoria
vitralls
vitro
vittorio
vitx
viu
viuda
viuen
viure
vius
viva
vivaldi
vive
vivent
vivents
viver
vives
vivia
vivian
vivien
vivint
vivir
vivo
vladi
vladimir
vn
vna
vo
voca
vocabulari
vocacio
vocal
vocalista
vocals
vocatiu
voces
vogel
vogue
voi
voice
voices
vol
vola
volada
voladi
volador
volant
volar
volca
volcano
volcans
voldria
voleibol
volem
volen
volent
voler
voleu
volga
volgue
volgut
voli
volia
volien
volkswagen
volo
vols
volta
voltaire
voltant
voltants
voltatge
voltes
volts
volum
volume
volumen
volumes
volums
volunta
voluntari
voluntaris
voluntat
volution
vom
von
voor
vor
vora
vores
vors
vos
vosaltres
vosges
voste
vostra
vostre
vostres
vot
votacio
votada
votants
votar
votat
vote
vots
vous
vox
voyage
voyager
voz
vre
vres
vrier
vs
vskaia
vu
vuelta
vuelve
vuit
vuitanta
vuite
vuitena
vuitens
vulgar
vulgaris
vulgui
vull
vulnerabilitat
vulnerable
vulnerables
vv
vy
və
vəm
vən
vər
vəs
vəw
w
wa
wade
wadi
wagner
wake
wales
walk
walker
walking
wall
wallace
wallis
walsh
walt
walter
walther
walton
wan
wang
want
wanted
war
ward
warfare
warhol
warner
warren
warrior
warriors
wars
warwick
was
wash
washington
watch
water
waterloo
waterpolo
waters
watkins
watson
watt
watts
wave
way
wayback
wayne
ways
wcmc
we
weapons
weather
weaver
web
webb
webber
weber
webs
website
webster
wedding
week
weekend
weekly
weeks
wehrmacht
wei
weight
weimar
weir
weiss
weisstein
welcome
well
welles
wellington
wells
welsh
welt
wen
wendy
were
werner
wesley
wessex
west
western
westfa
westminster
weston
westport
wethey
wgpsn
what
wheeler
when
where
which
while
whitaker
white
whitehead
whitley
whitney
who
whole
why
wi
wide
wie
wien
wiener
wiesbaden
wife
wii
wiki
wikidata
wikimedia
wikipedia
wild
wilde
wilder
wildlife
wiley
wilhelm
wilkins
wilkinson
will
willem
william
williams
williamson
willie
willis
willy
wilson
wilton
wimbledon
win
winchester
wind
windows
windsor
wine
wing
winner
winners
winning
wins
winston
winter
wire
wired
wisconsin
wise
wiss
wissenschaften
with
within
without
wlasuk
wo
wolf
wolfe
wolff
wolfgang
wolfram
woman
women
won
wonder
wong
woo
wood
woods
woody
woolf
word
wordpress
words
work
workers
working
works
workshop
world
worldcat
worlds
worldwide
worms
worth
would
wrestling
wright
writer
writers
writing
writings
written
wrong
wta
wu
wunderlich
wwe
wwf
www
wyoming
x
xa
xah
xai
xalet
xampanya
xangai
xarxa
xarxes
xassi
xavi
xavier
xbox
xe
xeic
xel
xels
xemeneia
xen
xeno
xenofont
xerrades
xi
xia
xiao
xic
xica
xico
xicot
xicota
xics
xid
xids
xie
xies
xifra
xifrat
xifres
xii
xiii
xile
xilena
xim
xima
ximes
ximo
xims
xina
xine
xinesa
xineses
xinesos
xip
xipre
xips
xiques
xiquets
xit
xits
xiv
xiva
xix
xl
xml
xo
xoc
xocar
xocolata
xode
xols
xon
xons
xose
xou
xp
xtil
xtils
xu
xv
xvi
xvii
xviii
xx
xxi
xxii
xxiii
xxiv
xxv
xxvi
xxvii
xxviii
xxx
y
ya
yahoo
yahya
yale
yamaha
yan
yang
yao
yazid
ye
year
years
yellow
yes
yet
yi
yin
yo
yolanda
yonne
york
yorker
yorkshire
yoshino
you
young
your
youth
youtube
yu
yuan
yucata
yue
yunnan
yuri
yusuf
yvelines
yves
yvonne
z
za
zagreb
zaire
zamora
zan
zanne
zant
zanzi
zapatero
zar
zaragoza
zaro
zarzuela
zat
zats
ze
zealand
zeit
zeitschrift
zeitung
zel
zelanda
zelda
zem
zen
zenit
zeno
zeppelin
zeri
zero
zes
zeta
zeus
zhang
zhao
zheng
zhou
zhu
zi
zia
zimba
zimbabwe
zin
zinc
zis
zn
zo
zoarcidae
zoe
zona
zone
zones
zoo
zoogeography
zool
zoolo
zoologia
zoological
zoologie
zoology
zoom
zootaxa
zorrilla
zos
zquez
zu
zum
zur
zuric
zus
zwick
zə
zəm
zəs
{
|
}
~


¡
£
¦
§
¨
©
ª
«
¬
­
®
¯
°
±
²
³
´
µ
·
¹
º
»
¼
½
¿
×
ß
æ
ð
ða
ðe
ðen
ðes
ði
ðo
ðos
ðu
ðə
ðəs
ðɾi
ø
ı
ł
ŋ
œ
ƒ
ɐ
ɑ
ɔ
ə
əks
əm
ən
ər
əs
əw
əz
əŋ
əɫ
əɱ
əɲ
ɛ
ɛm
ɛw
ɡ
ɡa
ɡe
ɡi
ɡo
ɡu
ɡə
ɡɾa
ɡɾi
ɡɾə
ɣ
ɣa
ɣan
ɣaɾ
ɣe
ɣes
ɣi
ɣo
ɣu
ɣə
ɣɾa
ɣɾe
ɣɾi
ɣɾə
ɪ
ɫa
ɫan
ɫe
ɫen
ɫes
ɫi
ɫin
ɫis
ɫo
ɫu
ɫɔ
ɫə
ɫən
ɫəs
ɫɛ
ɲ
ɲa
ɲe
ɲi
ɲo
ɲu
ɲə
ɹ
ɾ
ɾa
ɾah
ɾan
ɾas
ɾaɾ
ɾe
ɾeh
ɾem
ɾen
ɾes
ɾew
ɾi
ɾis
ɾo
ɾu
ɾə
ɾəm
ɾən
ɾəs
ɾəw
ɾɛ
ɾɛm
ɾɛw
ʃ
ʃa
ʃaɾ
ʃe
ʃi
ʃo
ʃu
ʃə
ʎa
ʎan
ʎe
ʎes
ʎi
ʎis
ʎo
ʎu
ʎə
ʎəm
ʎəs
ʒ
ʒa
ʒan
ʒant
ʒat
ʒats
ʒaɾ
ʒe
ʒem
ʒen
ʒes
ʒew
ʒi
ʒin
ʒis
ʒo
ʒu
ʒus
ʒə
ʒən
ʒəs
ʒɛm
ʒɛw
ʝ
ʝa
ʝe
ʝə
ʰ
ʲ
ʷ
ʹ
ʻ
ʼ
ʾ
ʿ
ˈ
ˌ
ː
ːˈ
˙
ˠ
̀
́
̂
̃
̄
̆
̇
̈
̉
̊
̋
̌
̓
̔
̛
̞
̣
̥
̦
̧
̨
̩
̪
̮
̯
̱
̲
̸
͂
ͅ
͡
α
ας
β
γ
δ
ε
ζ
η
θ
ι
κ
και
λ
μ
ν
ξ
ο
ου
π
περι
ρ
ς
σ
τ
της
το
του
υ
φ
χ
ψ
ω
ϕ
ϵ
а
б
в
владимирскои
г
года
городских
д
е
з
закон
и
к
края
л
м
н
на
населе
населения
нных
о
об
области
она
от
п
по
пунктов
р
раи
республики
россии
с
скои
т
у
украі
ф
федерации
х
ю
я
і
ј
ְ
ִ
ֵ
ֶ
ַ
ָ
ֹ
ּ
ׁ
א
ב
ד
ה
ו
ח
י
ל
מ
ן
נ
ע
ר
ש
ת
ا
الا
المعهد
الوطني
ب
بن
ة
حصاء
د
ر
س
ل
للا
م
ن
و
ي
َ
ُ
ِ
ّ
ْ
ٓ
ٔ
ٕ
ं
क
ग
च
ज
ड
त
द
न
प
ब
म
य
र
ल
व
श
स
ह
़
ा
ि
ी
ु
ू
े
ो
्
র
া
ি
ে
্
ா
ி
்
്
්
ั
ิ
ี
ุ
่
้
์
་
်
្
​
‌
‎
‐
‑
–
—
―
‖
‘
’
“
”
„
†
‡
•
…
‰
′
″
‹
›
⁂
⁄
⁡
⁣
⁵
⁶
₁₂
₂
₃
₄
₅
₆
₇
₈
€
ℏ
ℓ
№
ℝ
™
ℤ
ℵ
←
↑
→
↓
↔
↦
↷
⇒
∀
∂
∃
∅
∇
∈
∏
∑
−
∕
∖
∗
∘
∙
√
∞
∣
∧
∨
∩
∪
∫
∼
≈
≡
≤
≥
⊂
⊆
⊕
⊗
⊥
⋅
⋮
⋯
⋱
③
④
⑦
─
│
└
├
△
◻
★
♀
♭
⟨
⟩
⟶
ⴰ
ⴱ
ⴳ
ⴷ
ⴼ
ⴽ
ⵃ
ⵄ
ⵉ
ⵍ
ⵎ
ⵏ
ⵓ
ⵔ
ⵕ
ⵖ
ⵙ
ⵜ
ⵡ
ⵢ
ⵣ
⺀
⺄
⺆
⺈
⺊
⺌
⺕
⺝
⺸
⺼
⿰
⿱
⿲
⿳
⿴
⿵
⿶
⿷
⿸
⿹
⿺
⿻
、
。
《
》
「
」
『
』
【
】
〢
あ
い
う
え
お
か
き
く
け
こ
さ
し
す
せ
そ
た
ち
っ
つ
て
と
な
に
の
は
ひ
ふ
へ
ほ
ま
み
め
も
ゃ
や
よ
ら
り
る
れ
ろ
わ
を
ん
゙
゚
ァ
ア
ィ
イ
ウ
ェ
エ
オ
カ
キ
ク
ケ
コ
サ
シ
ス
セ
ソ
タ
チ
ッ
ツ
テ
ト
ナ
ニ
ネ
ノ
ハ
ヒ
フ
ヘ
ホ
マ
ミ
ム
メ
モ
ャ
ュ
ユ
ョ
ラ
リ
ル
レ
ロ
ワ
ン
・
ー
㇁
㇂
㇄
㇇
㇈
㇉
㇓
㐁
㐄
㐅
㐌
㐫
㐬
㐭
㐮
㐱
㑒
㒵
㒸
㒼
㓁
㓞
㔾
㕛
㕣
㖾
㘝
㚅
㚇
㚔
㚘
㝉
㝡
㝴
㝵
㞋
㞢
㞷
㠩
㠭
㠯
㡀
㡭
㡿
㢲
㢴
㣇
㣺
㥯
㪅
㫄
㫐
㫒
㫺
㬅
㬎
㬥
㬰
㲋
㳄
㷠
㸒
㸚
㸦
㼌
㼲
㽞
㿟
䀠
䂞
䍃
䏍
䒑
䖍
䖒
䖝
䖵
䙴
䚻
䜌
䝿
䡛
䧹
䪞
一
丁
丂
七
丄
丅
丆
万
丈
三
上
下
丌
不
与
丏
丐
丑
专
且
丕
世
丘
丙
业
东
丞
丢
丣
两
严
並
丨
丩
个
丫
丬
中
丮
丰
丱
串
丵
丶
丷
丸
丹
为
主
丽
丿
乀
乂
乃
久
乆
乇
么
义
之
乌
乍
乎
乏
乐
乑
乔
乖
乗
乘
乙
乚
乛
乜
九
乞
也
习
乡
书
乳
乾
亀
亅
了
亇
予
争
事
二
亍
于
亏
亐
云
互
亓
五
井
亘
亚
亜
亞
亟
亠
亡
亢
交
亥
亦
产
亨
亩
享
京
亭
亮
亯
亰
亲
亳
亶
亷
人
亻
亼
亾
仁
今
介
仌
从
仐
仑
仒
仓
仕
他
付
仝
代
令
以
任
企
伊
伍
伏
伐
休
会
伝
伯
但
位
体
何
佘
余
作
佥
使
來
侈
侌
侖
侯
侵
便
保
俞
信
修
倉
倍
候
倠
備
僉
僕
儿
兀
允
兂
元
兄
充
兆
兇
先
光
兊
克
兌
免
兑
兒
兓
兔
党
兜
兟
入
全
兩
兪
八
公
六
兮
兰
共
关
兵
其
具
典
兹
兼
冀
冂
冃
冄
内
冈
冉
冊
冋
册
再
冎
冏
冐
冒
冓
冖
冗
冘
军
农
冝
冡
冥
冫
冬
冷
几
凡
凢
凵
凶
凷
凸
凹
出
函
凾
刀
刁
刂
刃
刄
刅
分
切
刍
刑
刕
刖
列
刘
则
初
別
利
别
到
制
刺
則
削
剌
前
剡
剽
劉
力
功
加
劦
动
助
劫
劳
劵
勃
勇
勉
勒
動
務
勞
勤
勹
勺
勻
勾
勿
匀
匂
包
匆
匈
匊
匋
匍
匕
化
北
匚
匝
匡
匪
匱
匸
匹
区
医
匽
匿
區
十
卂
千
卄
卅
卆
升
午
卉
半
卌
华
卑
卒
卓
单
卖
南
博
卜
卝
卞
占
卡
卢
卣
卤
卦
卩
卪
卬
卯
印
危
即
却
卵
卷
卸
卻
厂
厃
厄
历
厈
厉
厌
厓
厘
厚
原
厤
厥
厨
厭
厲
厶
厷
厸
去
厼
厽
县
叀
参
參
叅
又
叉
及
友
双
反
叐
发
叒
叔
叕
取
受
叚
叜
叟
口
古
句
另
叩
只
召
可
台
叱
史
右
叵
号
司
叹
吂
各
吅
合
吉
吊
吋
同
名
后
吏
向
吕
君
吝
吞
否
含
启
吳
吴
吹
吾
呂
呆
呈
告
员
呙
周
命
咅
和
咎
咠
咢
咨
咸
咼
哀
品
哉
員
哥
哲
唐
商
啇
問
啚
啬
啻
善
喜
喬
單
喿
嗇
噩
嚴
囊
囗
囘
囙
囚
四
回
囟
因
囧
囬
困
囱
図
囷
固
国
圂
圅
國
圍
園
圓
土
圡
圣
圥
在
圭
地
圶
圼
坐
坒
坚
坴
垂
垔
垚
埀
埋
城
埶
執
基
堂
堅
堆
堇
堯
報
場
塞
墨
壘
士
壬
壯
声
売
壳
壴
壹
壺
壽
夂
处
夅
夆
备
夊
夋
夌
复
夏
夒
夕
外
夗
夘
多
夜
夢
大
夨
天
太
夫
夬
夭
央
失
夲
头
夷
夸
夹
夻
夾
奂
奄
奇
奈
奉
奎
奏
奐
契
奓
奔
奚
奞
奠
奢
奥
奭
女
奴
奻
好
如
妄
妙
妟
妥
妻
妾
姑
委
姜
威
娄
婁
婴
嬰
嬴
子
孑
孔
孕
孖
字
存
孚
孛
孝
孟
季
孤
学
孫
孱
學
宀
宁
宂
它
宅
宇
守
安
宋
完
宏
宓
宗
官
定
宛
宜
宝
実
客
宣
室
宮
宰
害
家
容
宾
宿
寄
寅
密
富
寒
察
寧
審
寫
寬
寮
寸
对
寺
寻
寽
対
寿
封
尃
射
将
將
專
尉
尊
尋
尌
對
小
少
尒
尓
尔
尖
尗
尚
尞
尢
尣
尤
尧
尨
尭
就
尸
尹
尺
尻
尼
尽
尾
尿
局
居
屈
屋
屎
屏
屑
展
屖
屚
属
屠
屡
屬
屮
屯
屰
山
屵
屾
岁
岂
岑
岡
岩
岳
岸
峯
島
崇
崎
崑
崔
崖
崙
崩
嵬
嶲
巂
巛
川
州
巟
巠
巢
巤
工
左
巧
巨
巩
巫
差
己
已
巳
巴
巷
巸
巽
巾
巿
帀
市
布
希
帚
帛
帝
带
師
席
帶
常
干
平
年
幵
并
幷
幸
幺
幻
幼
幽
幾
广
広
庄
床
底
店
庚
府
度
庫
庭
庶
康
庸
廉
廌
廛
廣
廩
廴
延
廷
建
廾
廿
开
弁
弃
弄
弇
弋
式
弓
弔
引
弗
弘
弜
弟
张
弥
弦
弱
張
強
强
彊
彌
彎
彐
彑
当
彔
录
彖
彗
彡
形
彥
彦
彧
彭
影
彳
役
彼
往
待
律
後
徒
得
徙
從
復
微
徵
德
心
忄
必
忌
忍
志
忝
忠
忩
快
念
忽
忿
思
怠
急
性
怱
恆
恒
恩
恭
息
悉
患
悤
悲
悶
情
惠
惡
惢
愁
愈
意
愛
感
慈
慧
慮
憂
憲
應
戀
戈
戉
戊
戋
戌
戍
戎
成
我
戒
戔
或
戚
戠
戢
戦
截
戲
戶
户
戹
戼
戾
房
所
扁
扇
手
扌
才
打
托
执
承
折
拉
拜
拿
掌
探
推
提
摩
支
攴
攵
收
攸
改
放
政
敄
敏
敕
敖
敗
教
敝
敞
敢
散
敦
敫
敬
数
敷
數
斂
文
斉
斊
斗
斤
斥
斩
斬
斯
新
方
於
施
斿
旁
旋
族
无
旡
既
旣
日
旦
旧
旨
早
旬
旱
旲
时
旾
昆
昇
昌
昍
明
昏
易
昔
昗
昜
星
映
春
昬
是
昱
昴
昷
時
晃
晋
晏
普
景
晶
智
暑
暴
曇
曩
曰
曲
曳
更
曷
書
曹
曼
曾
替
最
朁
會
月
有
朋
服
朔
朕
朗
望
朝
木
朩
未
末
本
札
朮
术
朱
朵
朶
朿
杀
李
杏
村
杜
束
条
来
東
杲
杳
松
析
林
枚
果
枝
枲
枼
某
柔
查
柬
柰
柴
栗
校
株
桀
桑
桼
梁
條
梟
梨
棘
棠
棥
森
楚
業
楽
榮
樂
樊
橋
機
欠
次
欣
欮
欲
欶
欽
款
歆
歇
歌
歛
止
正
此
步
武
歨
歪
歮
歯
歰
歲
歴
歷
歸
歹
歺
死
殳
段
殷
殸
殹
殺
殻
殿
毋
毌
母
每
毒
比
毕
毚
毛
毳
氏
氐
民
气
氣
水
氵
氶
氷
永
氺
氾
求
汉
汝
汞
江
沃
沓
沙
沝
河
治
泉
法
波
泣
泥
泰
洋
洛
洪
活
派
流
浦
浪
浮
海
淡
淮
清
渚
渠
港
湯
滿
演
漢
漫
漸
火
灬
灭
灰
灵
灷
炅
炎
炏
炗
炙
炭
為
烈
烏
烝
焉
無
焦
焱
然
煞
熊
熏
燕
營
燮
爪
爫
爭
爯
爰
爱
爲
爵
父
爻
爽
爾
爿
片
版
牙
牚
牛
牜
牟
牢
牧
物
牪
特
牽
犀
犬
犭
犮
狂
狄
狊
独
狺
猋
猒
猪
献
獻
玄
率
玉
王
玟
玨
珎
班
球
理
琴
瑟
瑩
瓜
瓦
甘
甚
生
産
用
甫
甬
田
由
甲
申
电
甶
男
甸
甹
町
画
甾
畀
界
畏
畐
留
畜
畟
畢
畧
畨
番
畫
異
畱
當
畺
畾
疊
疋
疌
疑
疒
疾
癶
癸
癹
発
登
發
白
百
皀
皃
的
皆
皇
皋
皐
皕
皮
皷
皿
盃
盆
盇
盈
益
盍
盎
监
盒
盖
盛
盡
監
盤
盧
目
直
相
盾
省
眇
眉
看
眔
眞
真
眷
眼
眾
着
睘
睪
睿
瞏
瞢
瞿
矍
矛
矞
矢
矣
知
矦
短
石
研
破
碎
磊
磨
示
礻
礼
社
神
祟
票
祭
禀
禁
福
禸
禹
禺
离
禽
禾
禿
秀
秃
秉
秋
科
秝
秦
移
稟
穀
穌
穴
究
穹
空
穿
突
窄
窒
立
竒
竜
竝
竟
章
童
竹
笑
笠
第
筆
等
答
箕
算
箴
節
篤
篭
米
类
粉
粛
粟
粤
粦
粲
糞
糸
糹
系
紀
約
納
素
索
紫
累
細
絜
絫
絲
維
綿
縣
繇
纍
纟
统
缶
网
罒
罔
罕
罗
罙
罡
罢
罪
署
罷
羅
羊
羌
羍
美
羔
羕
羗
羞
羡
羣
群
義
羲
羸
羽
翁
翏
習
翕
翟
翠
翼
老
耂
考
者
耆
而
耎
耑
耒
耳
耴
耶
耷
聂
聊
聖
聚
聞
聶
聿
肀
肃
肅
肉
肖
肙
肥
肩
肯
育
肴
胃
背
胡
胥
能
脊
脩
膚
臣
臤
臧
自
臬
臭
臯
臱
至
致
臺
臼
臽
臾
臿
舀
舂
舄
與
興
舉
舌
舍
舛
舜
舞
舟
般
艮
良
色
艸
艹
艾
芒
芔
芬
芮
花
芳
芺
芻
苔
苗
苟
若
苦
英
茶
茸
荅
草
荒
荣
荼
莆
莧
莫
莽
菆
菊
菐
華
萬
落
葉
著
葛
董
葵
蒙
蒦
蒼
蓋
蓬
蓺
蔑
蔡
蕉
蕭
薄
薛
薦
薰
藍
藏
藤
藥
蘭
虍
虎
虐
虒
虔
處
虖
虗
虘
虚
虛
虜
虞
虫
虽
蚤
蚩
蜀
蜜
蟲
蠡
血
行
衍
術
衛
衣
衤
表
衮
衰
袁
袞
褭
褱
襄
襾
西
覀
要
覃
見
規
覓
覧
親
覽
见
角
解
言
訁
訇
計
記
詹
語
誩
説
諸
議
讠
谷
豆
豈
豊
豐
豕
豖
豙
象
豦
豩
豪
豸
貇
貝
貞
貟
負
貢
貧
貪
貫
責
貳
貴
買
費
賁
資
賈
賏
賓
賔
賛
賞
賢
賣
質
賴
贊
贝
贡
责
贯
贲
贵
赖
赞
赤
赦
走
越
足
路
蹇
身
躬
車
軍
軎
軟
輦
车
辛
辜
辞
辟
辥
辰
辱
農
辵
辶
边
达
过
近
连
迷
追
退
送
逆
逐
通
速
造
逢
連
逮
進
遀
遂
過
道
達
遣
適
遷
選
遺
邊
邑
邕
那
邦
邪
郎
郡
部
郭
都
鄉
酉
酋
配
酓
釆
采
里
重
野
量
金
釒
錢
鑑
钅
長
镸
长
門
閃
閉
開
閏
閑
閒
間
閔
閵
閻
闌
门
间
闷
阑
阜
阝
阪
阳
阿
降
院
陳
陽
隆
隊
隋
隡
隨
隱
隶
隹
隺
隻
隼
隽
难
雀
雁
雄
集
雈
雋
雍
雐
雔
雙
雚
雜
雝
離
難
雨
雩
雪
雲
零
雷
電
需
霍
霖
霜
霝
霞
霸
靈
靑
青
非
靡
面
靣
革
韋
韦
韭
韯
韱
音
頁
頃
項
須
頗
頡
頻
顛
類
页
風
风
飛
飞
食
飠
養
館
饣
首
香
馬
馮
駦
马
骨
高
髟
鬥
鬯
鬲
鬼
魔
魚
魯
鮮
鱼
鲁
鳥
鳳
鸟
鹵
鹿
麃
麗
麥
麦
麻
黃
黄
黍
黎
黑
黒
黨
黹
黽
黾
鼎
鼓
鼠
鼻
齊
齋
齐
齒
齿
龍
龙
龜
龟
龠
龰
龱
龴
龵
龶
龷
龸
龹
者
艹
ﬁ
﻿
！
（
）
，
－
：
？
［
］
～
�
𠀁
𠀃
𠀆
𠀉
𠀎
𠀐
𠁁
𠁣
𠂆
𠂇
𠂈
𠂉
𠂊
𠂋
𠂎
𠂒
𠂔
𠂛
𠂡
𠂢
𠂤
𠂬
𠂭
𠂹
𠃊
𠃋
𠃌
𠃍
𠃎
𠃑
𠃓
𠃔
𠃜
𠄌
𠄎
𠄠
𠄢
𠆢
𠆥
𠇍
𠈌
𠌵
𠓜
𠔉
𠔥
𠔼
𠔽
𠔿
𠕀
𠕁
𠕋
𠘧
𠘨
𠙻
𠙼
𠚏
𠚒
𠚤
𠚪
𠣏
𠤎
𠤕
𠥓
𠦄
𠦑
𠦝
𠧒
𠧗
𠧪
𠩺
𠪚
𠫓
𠫔
𠫤
𠬛
𠬝
𠬞
𠬢
𠬤
𠬶
𠮛
𠮦
𠮷
𠯑
𠱠
𠳮
𠷎
𡈼
𡉀
𡉵
𡌥
𡍮
𡏳
𡕒
𡕩
𡕰
𡖅
𡗗
𡗜
𡘆
𡘤
𡧱
𡨄
𡩧
𡬠
𡭽
𡰣
𡰥
𡰪
𡰯
𡰱
𡷈
𡸁
𡿨
𡿩
𡿪
𡿺
𢀖
𢀛
𢀩
𢁙
𢆉
𢆰
𢆶
𢇁
𢇇
𢉖
𢌬
𢌿
𢏚
𢑑
𢑚
𢖻
𢙣
𢛳
𢦏
𢦒
𢧵
𢼄
𢾕
𣁋
𣄼
𣅀
𣅽
𣍘
𣎳
𣎵
𣏋
𣏼
𣗥
𣥂
𣥖
𣦵
𣦼
𣧄
𣪊
𣪠
𣬉
𣳾
𣶒
𤇾
𤊽
𤐫
𤓰
𤔔
𤕨
𤣩
𤰇
𤰔
𤰞
𤴓
𤴔
𤽄
𥁑
𥁕
𥃦
𥃩
𥃭
𥇡
𥑟
𥘅
𥘈
𥝢
𥫗
𥱡
𦈢
𦉪
𦉬
𦉼
𦍌
𦍒
𦎧
𦐇
𦓔
𦔮
𦘒
𦙃
𦚏
𦣝
𦣞
𦣻
𦥑
𦥔
𦥯
𦨉
𦭝
𦰩
𧆞
𧈧
𧘇
𧰨
𧴪
𧴮
𧵩
𧾷
𨸏
𨾴
𩙿
𩠐
𩫏
𩵋
𪉷
𪜀
𪟽
𪠲
𪩲
𫇦
𫔭
𫜸
𫝀
𫠣
𫠩
𫢉
𫥞
𫩏
𫩠
𫪡
𫲽
𫶧
𬀷
𬐘
𬗌
𬙙
𬛸
𬜯
𬟩
𬯁
𬴘
𬺻
𬼉
𬼖
𭀰
𭁈
𭁨
𭅰
𭑈
𭕄
𭗼
𭤨
𭥫
𭻾
𮅕
𮊿
𮍌
𮍏
𮓗
𮥼
𮧮
廾
𰀁
𰀄
𰀈
𰀉
𰀕
𰀠
𰀡
𰀢
𰀪
𰁜
𰃮
𰆊
𰆘
𰋙
𰕎
𰢴
𰧭
𰯲
000--
02--
03--
04--
05--
06--
07--
08--
09--
82--
842--
843--
847--
848--
849--
978--
97805--
97807--
97808--
978844--
978847--
978848--
978849--
a--
aa--
ab--
aba--
abd--
abe--
aberr--
abi--
abor--
abr--
abs--
absol--
absor--
abu--
aby--
ac--
aca--
acamp--
acant--
acce--
ace--
aci--
acla--
aclar--
aco--
acomia--
acomp--
acqui--
acre--
acro--
act--
actino--
activ--
acu--
ad--
ada--
addit--
ade--
adhe--
adher--
adi--
adju--
ado--
adopt--
ador--
adsc--
ae--
aero--
af--
afai--
afav--
afeb--
afec--
afg--
afi--
afortu--
afr--
afro--
afuse--
ag--
aga--
age--
agerm--
agili--
aglu--
ago--
agreu--
agri--
agro--
agu--
ah--
ai--
aigua--
air--
aix--
aj--
ajor--
ajun--
ak--
aki--
al--
ala--
alba--
albe--
albi--
alc--
alca--
ale--
aleks--
ales--
alfa--
alge--
algorit--
ali--
all--
alla--
alle--
alli--
alma--
almo--
alo--
als--
alt--
alta--
alti--
alum--
aly--
am--
ama--
amalg--
amar--
amb--
ame--
amet--
ami--
amo--
amon--
amor--
amphi--
an--
ana--
analy--
anar--
anc--
and--
ane--
ang--
anglo--
angui--
ani--
anna--
ano--
anota--
ans--
ant--
antagon--
ante--
anthropolog--
anti--
any--
ao--
ap--
apa--
apadr--
apara--
apass--
ape--
api--
aplau--
apo--
app--
appea--
apr--
apre--
apro--
aprof--
aq--
aqu--
ar--
ara--
arach--
aran--
arc--
arch--
architec--
arcua--
ard--
are--
arg--
ari--
ark--
arm--
arma--
arn--
aro--
arqui--
arre--
arren--
arrep--
arro--
arrosse--
arru--
ars--
art--
arte--
arti--
aru--
as--
ase--
ash--
asi--
aso--
asp--
assa--
assem--
asset--
assi--
assole--
aste--
astro--
at--
ata--
ate--
aterr--
athe--
athl--
ati--
ato--
atrac--
atrap--
atres--
atrev--
atro--
atroci--
atten--
au--
audi--
auf--
aug--
aus--
aute--
autis--
auto--
av--
ava--
avant--
ave--
avi--
avor--
aw--
ax--
ay--
az--
aɾ--
b--
ba--
bab--
bac--
back--
bad--
bag--
bai--
bal--
bali--
ball--
balus--
bam--
ban--
bany--
baptis--
bar--
bas--
base--
bat--
bata--
batxi--
bau--
bay--
bb--
bc--
[...]
