!
"
#
##0
##1
##10
##11
##12
##13
##14
##15
##16
##17
##18
##19
##2
##20
##21
##22
##23
##24
##25
##26
##27
##28
##29
##3
##30
##31
##32
##33
##34
##35
##36
##37
##38
##39
##4
##40
##41
##42
##43
##44
##45
##46
##47
##48
##49
##5
##50
##51
##52
##53
##54
##55
##56
##57
##58
##59
##6
##60
##61
##62
##63
##64
##65
##66
##67
##68
##69
##7
##70
##71
##72
##73
##74
##75
##76
##77
##78
##79
##8
##80
##81
##82
##83
##84
##85
##86
##87
##88
##89
##9
##90
##91
##92
##93
##94
##95
##96
##97
##98
##99
$
%
&
'
(
)
*
+
,
-
.
/
0
00
000
001
002
003
004
005
006
007
01
010
012
013
014
015
018
019
02
020
022
024
025
03
034
04
043
05
050
06
07
077
078
08
09
1
10
100
1000
1001
101
102
103
104
105
1050
106
1061
107
108
109
11
110
1100
111
112
113
114
1140
1149
115
1150
116
117
118
119
12
120
1200
121
122
123
124
1247
125
1250
1252
126
127
1270
128
1288
129
13
130
1300
1308
131
1316
132
1328
133
1337
134
1340
1342
1343
1346
1349
135
1350
1358
136
1364
1365
137
1372
1378
138
1380
1384
139
14
140
1400
1404
141
1410
1415
1419
142
1420
143
1430
1435
144
145
1450
146
147
1475
1477
1478
1479
148
1480
1483
149
1492
1493
1494
1495
1498
15
150
1500
1501
1502
1503
1504
1506
1507
1509
151
1510
1512
1515
1516
1517
1519
152
1520
1521
1524
1525
1527
1528
153
1530
1531
1532
1533
1534
1535
1536
1537
1538
154
1540
1541
1542
1543
1544
1545
1547
1548
1549
155
1550
1551
1552
1553
1554
1555
1556
1557
1558
1559
156
1560
1562
1563
1564
1566
1567
1568
1569
157
1570
1571
1572
1573
1574
1575
1576
1577
1578
158
1580
1581
1582
1585
1588
1589
159
1590
1593
1594
1595
1596
1597
1598
1599
16
160
1600
1601
1602
1603
1604
1605
1606
1607
1608
1609
161
1610
1611
1612
1613
1614
1615
1616
1617
1618
1619
162
1620
1621
1622
1623
1624
1625
1626
1627
1628
1629
163
1630
1631
1632
1633
1634
1635
1636
1637
1638
1639
164
1640
1641
1642
1643
1644
1645
1646
1647
1648
1649
165
1650
1651
1652
1653
1654
1655
1656
1657
1658
1659
166
1660
1661
1662
1664
1665
1666
1667
1668
1669
167
1670
1671
1672
1673
1674
1675
1676
1677
1678
1679
168
1680
1681
1682
1683
1684
1685
1686
1687
1688
1689
169
1690
1691
1692
1693
1694
1695
1697
1698
1699
17
170
1700
1701
1702
1704
1705
1706
1707
1708
1709
171
1710
1711
1712
1713
1714
1715
1716
1717
1718
1719
172
1720
1721
1722
1723
1724
1725
1726
1727
1728
1729
173
1730
1731
1732
1733
1734
1735
1736
1737
1738
1739
174
1740
1741
1742
1743
1744
1745
1746
1747
1748
1749
175
1750
1751
1752
1753
1754
1755
1756
1757
1758
1759
176
1760
1761
1762
1763
1764
1765
1766
1767
1768
1769
177
1770
1771
1772
1773
1774
1775
1776
1777
1778
1779
178
1780
1781
1782
1783
1784
1785
1786
1787
1788
1789
179
1790
1791
1792
1793
1794
1795
1796
1797
1798
1799
18
180
1800
1801
1802
1803
1804
1805
1806
1807
1808
1809
181
1810
1811
1812
1813
1814
1815
1816
1817
1818
1819
182
1820
1821
1822
1823
1824
1825
1826
1827
1828
1829
183
1830
1831
1832
1833
1834
1835
1836
1837
1838
1839
184
1840
1841
1842
1843
1844
1845
1846
1847
1848
1849
185
1850
1851
1852
1853
1854
1855
1856
1857
1858
1859
186
1860
1861
1862
1863
1864
1865
1866
1867
1868
1869
187
1870
1871
1872
1873
1874
1875
1876
1877
1878
1879
188
1880
1881
1882
1883
1884
1885
1886
1887
1888
1889
189
1890
1891
1892
1893
1894
1895
1896
1897
1898
1899
19
190
1900
1901
1902
1903
1904
1905
1906
1907
1908
1909
191
1910
1911
1912
1913
1914
1915
1916
1917
1918
1919
192
1920
1921
1922
1923
1924
1925
1926
1927
1928
1929
193
1930
1931
1932
1933
1934
1935
1936
1937
1938
1939
194
1940
1941
1942
1943
1944
1945
1946
1947
1948
1949
195
1950
1951
1952
1953
1954
1955
1956
1957
1958
1959
196
1960
1961
1962
1963
1964
1965
1966
1967
1968
1969
197
1970
1971
1972
1973
1974
1975
1976
1977
1978
1979
198
1980
1981
1982
1983
1984
1985
1986
1987
1988
1989
199
1990
1991
1992
1993
1994
1995
1996
1997
1998
1999
2
20
200
2000
2001
2002
2003
2004
2005
2006
2007
2008
2009
201
2010
2011
2012
2013
2014
2015
2016
2017
20170629041236
2018
2019
202
2020
2021
2022
2023
2024
2025
2029
203
2030
204
205
206
207
208
209
21
210
2100
211
212
213
214
215
216
2160
217
218
219
22
220
2200
221
222
2220
223
224
225
226
227
228
229
23
230
2300
231
232
233
234
235
236
237
238
239
24
240
2400
241
242
243
244
245
246
247
248
249
25
250
2500
251
252
253
254
255
256
257
258
259
26
260
261
262
263
264
265
266
267
268
269
27
270
271
272
273
274
275
276
277
278
279
28
280
28049
281
282
283
284
285
286
287
288
289
29
290
291
292
2926
293
294
295
296
297
298
299
3
30
300
3000
301
302
303
304
305
306
307
308
309
31
310
311
312
313
314
315
316
3166
317
318
319
32
320
321
322
323
324
325
326
327
328
329
33
330
331
332
333
334
335
336
337
338
339
34
340
341
342
343
344
345
346
347
348
349
35
350
3500
3501
351
352
353
354
355
356
357
358
359
36
360
3600
361
362
363
364
365
366
367
368
369
37
370
371
372
373
374
375
376
377
378
379
38
380
381
382
383
384
385
386
387
388
389
39
390
391
392
393
394
395
396
397
398
399
4
40
400
4000
4001
401
402
403
404
405
406
407
408
409
41
410
411
412
413
414
415
416
417
418
419
42
420
421
422
423
424
425
426
427
428
429
43
430
431
432
433
434
435
436
437
438
439
44
440
441
442
443
444
445
446
447
448
449
45
450
4500
451
452
453
454
455
456
457
458
459
46
460
461
462
463
464
465
466
467
468
469
47
470
471
472
473
474
475
476
477
478
479
48
480
481
482
483
484
485
486
487
488
489
49
490
491
492
493
494
495
496
497
498
499
5
50
500
5000
501
502
503
504
505
506
507
508
509
51
510
511
512
513
51300
514
515
516
517
518
519
52
520
521
522
523
524
525
526
527
528
529
53
530
531
532
533
534
535
536
537
538
539
54
540
541
542
543
544
545
546
547
548
549
55
550
5500
551
552
553
554
555
556
557
558
559
56
560
561
562
563
564
565
566
567
568
569
57
570
571
572
574
575
576
577
578
579
58
580
581
582
583
584
585
586
587
588
589
59
590
591
592
593
594
595
596
597
598
599
6
60
600
6000
601
602
603
604
605
606
607
608
609
61
610
611
612
613
614
615
616
617
618
619
62
620
621
622
623
624
625
626
627
628
629
63
630
631
632
633
634
635
636
637
638
639
64
640
641
642
643
644
645
646
647
648
65
650
6500
651
652
653
654
655
656
657
658
659
66
660
661
662
663
664
666
667
668
669
67
670
671
672
673
674
675
676
677
678
679
68
680
681
683
684
685
686
687
688
689
69
690
691
692
693
694
695
697
698
699
7
70
700
7000
70000
701
702
703
704
705
706
707
708
71
710
711
712
713
714
715
716
717
718
719
72
720
721
722
723
724
725
727
728
729
73
730
732
733
734
735
736
737
738
739
74
740
741
742
743
744
745
746
747
748
749
75
750
751
752
753
754
755
756
757
758
759
76
760
761
762
763
766
767
768
769
77
770
771
772
773
774
775
776
777
778
779
78
780
781
782
784
785
786
787
788
789
79
790
791
792
793
795
796
797
798
799
8
80
800
8000
801
80140
802
803
804
805
806
809
81
810
811
813
814
815
816
817
818
819
82
820
822
824
825
826
8274
828
83
830
831
832
833
835
838
839
84
840
841
842
843
844
845
846
847
848
849
85
850
851
852
854
855
856
85744
858
859
86
860
861
862
864
865
866
867
869
87
870
871
872
874
875
876
877
878
879
87953
87954
87963
87964
87967
87996
88
880
881
882
883
884
885
886
887
888
88865
889
89
890
891
892
893
895
896
89602
897
898
899
9
90
900
901
902
903
904
905
906
908
91
910
911
912
914
915
916
918
919
919933
919999
92
920
921
924
925
926
927
928
93
930
931
932
935
936
937
938
939
94
940
941
942
944
946
947
948
949
95
950
951
954
955
956
957
958
959
96
960
961
962
963
964
965
966
968
97
970
971
972
973
974
975
976
977
978
979
9793
98
980
981
982
983
984
985
986
987
988
99
990
991
992
994
995
996
998
999
99959
:
;
<
=
>
?
@
\
^
_
`
a
aa
aaa
aachen
aacht
aachtelsfinall
aachtmol
aadler
aalt
aan
aansebuerg
aarbecht
aarbechte
aarbechten
aarbechter
aarbechterpartei
aarbechtsgrupp
aarbechtsplaz
aarbechtsplazen
aarm
aarme
aarmut
aarnescht
aaron
aart
aarte
aarten
aascht
aasselbuer
ab
abattre
abbaye
abbe
abberzuel
abbeville
abbey
abbott
abc
abd
abdullah
abe
abegraff
abel
abell
abend
abens
abenteuer
abenteuerfilm
abenteuerfilmer
aber
aberdeen
aberuff
abezunn
abgerufen
abitur
able
abner
abord
about
above
abr
abraham
abrams
abre
abril
abroch
abruecht
abschied
abschnitt
abse
abseits
absence
absolut
absolutismus
absolutter
absolve
absorbe
absorptioun
abstract
abstrakt
abt
abtei
abteikierch
abu
ac
acade
academia
academic
academy
acce
accelere
accent
accepte
accident
accidenter
accord
accorde
accueil
accuse
ace
acel
ach
achard
achille
achim
achs
achsen
acht
achternbusch
achtung
acie
ackeren
ackermann
ackland
acl
across
act
acta
acte
actes
acteur
acteuren
acteurs
action
actionfilmer
active
activite
actor
actors
actress
actualite
actuel
ad
ada
adalbert
adam
adames
adams
adamson
adaptatioun
adapte
addams
addio
additioun
ade
adel
adele
adeleg
adelegen
adelheid
aden
adenauer
adieu
adjani
adjektiv
adjoint
adjoua
adjudant
adlegen
adler
adlon
administrateur
administratif
administration
administrations
administratioun
administrativ
administrative
administrativen
admirol
ado
adobe
adolf
adolfo
adolph
adolphe
adonis
adopte
adore
adorf
adour
adr
adress
adresse
adria
adrian
adriana
adriano
adriatico
adrien
adrienne
ads
advanced
adventure
adventures
ady
ae
aegaeon
aen
aequo
aeronautics
aerospace
af
afa
afc
afe
affa
affair
affaire
affaires
affairs
affekot
affekoten
affekotin
affer
affiche
affilie
affleck
affu
afghanistan
afle
afloss
aflossra
afonso
afraid
africa
african
afrika
afrikanesch
afrikanesche
afrikanescher
afrique
afroamerikaner
after
afternoon
ag
agaangen
again
against
agank
agar
agatha
agathe
age
agebaut
agedeelt
agedroe
agedroen
agefall
agefe
agefouert
agegliddert
agehale
ageholl
ageleet
agen
agena
agence
agency
agent
agente
agenten
agentur
agereecht
ageriicht
ages
agesat
ageschloen
ageschra
ageschriwwen
agespaart
agespillt
agestallt
agestraalte
agestuuft
agetratt
agetrueden
agewandert
ageweit
agezeechent
agezu
agezunn
agglome
agglomeratioun
aggressiv
aghion
agne
agnes
agnieszka
agora
agostina
agostini
agra
agre
agren
agricola
agricole
agriculture
agronom
aguilar
aguirre
agusti
agutter
ah
aherne
ahmad
ahmed
ai
aida
aide
aids
aigle
aignan
ailes
ailleurs
aime
aiment
aimer
ain
ainsi
air
airbus
aircraft
aire
aires
airlines
airport
airways
airy
ais
aischylos
aise
aises
aisne
aitken
aix
ajaccio
ak
aka
akadeemesch
akademie
akademischer
akafszentrum
akerbau
akerman
aki
akim
akira
akkad
aklasse
akommes
akronym
akt
akte
akten
aktie
aktiegesellschaft
aktien
aktiona
aktioun
aktioune
aktiounen
aktiv
aktive
aktiven
aktiver
aktivist
aktivite
aktualise
aktualite
aktuell
aktuelle
aktuellen
aktueller
aktuellt
akustesch
akustik
akzepte
al
alabama
alain
alamein
alamo
alan
alari
alarm
alarme
alaska
alastair
alba
albaach
albach
alban
albanesch
albanescher
albani
albania
albanien
albano
albedo
alben
albers
albert
alberta
albertazzi
alberti
albertini
albertkanal
alberto
albertville
albi
albicocco
albin
albino
albrecht
album
albume
albumen
alcala
alcatraz
alcyon
alda
alden
alder
aldo
aldrich
aldringen
ale
alec
alejandro
aleksandar
aleksander
aleksandr
alen
alenc
alentejo
aler
alerme
alerte
ales
alesch
alessandra
alessandrini
alessandro
alex
alexander
alexanderplatz
alexandra
alexandre
alexandria
alexandrowitsch
alexei
alexis
alf
alfa
alfons
alfonso
alfred
alfredo
algarve
alger
algerien
algol
algorithmus
algriichesch
algriicheschen
ali
alias
alibi
alice
alicia
alida
alien
aliens
align
alignbars
aline
alise
alison
alive
alix
alkohol
all
alla
allah
allan
allasio
alldag
alldeegleche
alle
allebe
allee
allegro
alleguer
allein
allem
allemagne
allemand
allen
aller
allerde
allere
alles
alley
allez
allgemeine
allgemeng
allgemenge
allgemengen
allgemenger
allgemenges
allgemengt
alliance
allianz
allie
allier
alligator
allio
allison
allke
allmusic
allo
allocine
ally
allyson
alma
almagest
almanach
alme
almeida
almodo
almost
alogie
aloi
alois
alone
along
alonso
alors
aloyse
alpe
alpen
alpes
alpha
alphabet
alphabetesch
alphabetescher
alphonse
alric
als
alsace
alschent
also
alstad
alstom
alt
alta
altai
altair
altariba
alte
alten
alter
alternativ
alternative
alters
altersheem
altertum
altes
altman
alto
altor
altra
altre
altri
altro
altwies
altwis
aluminium
alvaro
alves
alvin
alvina
always
alwin
aly
alzeng
alzette
am
amadeus
amadio
amadori
amalia
amalric
amance
amand
amanda
amant
amante
amanti
amants
amar
amare
amarsch
amarsche
amateau
amateur
amateurastronom
amateurastronomen
amateuren
amato
amazing
amazon
amazonas
ambassade
ambassadeur
ambassadeuren
amber
ambesser
amble
ambo
ambrosius
ambulanz
ame
ameche
amedeo
amel
amenage
amendola
ament
america
american
americano
amerigo
amerika
amerikaner
amerikanesch
amerikanesche
amerikaneschen
amerikanescher
amerikanescht
amerikanische
ames
ami
amicale
amici
amico
amidou
amie
amiens
amigo
amin
aminosaieren
amira
amis
amitie
amleto
ammann
ammelrooy
ammoniak
amne
amnesty
amo
amok
among
amont
amor
amore
amori
amos
amour
amoureuse
amoureux
amours
amphibien
amphitheater
amplaz
amstel
amsterdam
amt
amte
amtsza
amur
amy
an
ana
anai
anali
analog
analys
analyse
analysen
analysis
analytique
ananke
anastasia
anatole
anatolien
anatomie
ance
ances
anche
ancien
ancienne
anciens
ancient
anconina
ancora
and
andalusien
ande
andeelen
andeelung
andeelungen
andeem
andeems
anden
ander
andere
anderen
andergast
anderlecht
anders
andersen
anderson
andersson
andie
andorra
andra
andre
andrea
andreas
andree
andrei
andress
andreu
andrew
andrews
andrex
andrey
androck
andromeda
andromedaniwwel
andrzej
andy
ane
anen
anengems
aner
anere
anerem
aneren
anerer
anerersa
anert
anescht
anfa
anfang
ange
angekommen
angel
angela
angelduerf
angeles
angeli
angelica
angelika
angelina
angelini
angelo
angels
anger
angers
anges
angie
angkor
anglade
anglais
angle
angleur
anglo
angola
angolanesch
angolanesche
angolanescher
angoule
angry
angscht
angst
anhalt
anhuelen
ani
anice
anima
animal
animals
animateur
animation
animatioun
animatiounsfilm
animatiounsfilmer
animaux
anime
anise
anita
anja
anjanette
anjelica
anjou
anlag
anlage
anlagen
ann
anna
annabella
annakin
annales
annamirl
annaud
anne
annecy
annekte
anneliese
annemarie
annette
annexe
annexioun
anni
annibale
annick
annie
anniversaire
anniversary
anno
annonce
annuaire
annual
annuel
annule
anny
anomalie
anonym
anonyme
anonymus
another
anouilh
anouk
anquetil
ans
ansara
ansatsukyoshitsu
anscheinend
anstalt
ant
antares
antarktis
ante
antel
antenn
antenne
antennen
anthologie
anthony
anthropolog
anthropologie
anti
antibes
anticker
antigone
antik
antike
antillen
antiquite
antisemitismus
antje
anto
antoine
antoinette
anton
antonella
antonelli
antoni
antonia
antonin
antonio
antonioni
antonius
antony
antre
antrieden
ants
antwerpen
anvers
any
anything
anzefe
anzehuelen
anzeiger
anzeriichten
anzesetzen
anzuchsgebitt
ao
aoc
aou
ap
apache
apartheid
apdikt
apdikter
ape
apel
aperc
apertur
aperture
apes
apess
aphel
aphorismen
aphrodite
apocalisse
apocalypse
apogeum
apokalyps
apollo
apostel
apostolesche
apotheker
app
apparat
apparater
appartement
appel
appelle
apple
application
applications
applied
applikatioun
applique
applize
appointment
approche
approuve
approx
appuntamento
apre
apremont
april
apted
aquarell
aquarius
aqueduc
aquila
aquilae
aquitaine
ar
ara
arab
araber
arabesch
arabesche
arabeschen
arabescher
arabia
arago
aragon
aragonien
arama
aranda
ararat
arbed
arbeit
arbeiten
arbitter
arboretum
arbre
arbres
arc
arcady
arcelor
arcelormittal
arch
archa
archainbaud
archangelsk
arche
archeolog
archeologen
archeologesch
archeologesche
archeologie
archer
archie
archime
archimedes
archipel
architectes
architectural
architecture
architekt
architekte
architektebu
architekten
architektur
archiv
archive
archiven
archiver
archives
archivist
ard
ardant
ardavi
arde
arden
ardenne
ardennen
ardennenoffensiv
ardennes
ardisson
arditi
are
area
areal
arecibo
arel
areler
arelerland
arem
arena
arenberg
arend
arendt
arent
ares
arestrup
argelander
argent
argentan
argenteuil
argentina
argentinesch
argentinesche
argentineschen
argentinie
argentinien
argento
argon
argonne
argos
argument
argumente
ari
aria
ariadne
ariane
aribert
arie
ariel
arielle
aries
ariichtung
ariichtunge
ariichtungen
aris
aristocrates
aristoteles
arizona
ark
arkansas
arkin
arktis
arlen
arlene
arles
arlette
arletty
arliss
arlon
arm
armagnac
armand
armando
armata
arme
armee
armeenesch
armeenier
armenda
armenien
armes
armin
armoiries
armontel
armor
arms
armstrong
army
arnaud
arne
arno
arnold
arnoldo
arnoul
arnoux
arnulf
around
arp
arquette
arr
arrange
arrangement
arras
array
arre
arrest
arriva
arrivano
arrive
arrondissement
arrondissementer
arrow
ars
arse
arsenal
arsenalstrooss
art
artagnan
arte
artemis
arthur
article
articles
artikel
artikele
artikelen
artillerie
artist
artiste
artisten
artistes
artistique
artists
artois
arts
artur
arturo
artus
arxiv
arzfeld
arzt
as
asa
asaz
asbl
ascenseur
ascension
aschlag
aschlagkrater
aschlagkrateren
aschle
aschman
aschra
ascott
asellus
aserbaidschan
asetzen
asetzt
ash
ashby
ashcan
asher
ashley
asia
asian
asiatesch
asien
ask
aslan
asp
aspects
aspekt
aspekter
asphalt
asphalte
aspx
asquith
ass
assante
assassin
assassination
assassine
assassino
assassins
assayas
asselborn
assemble
assembly
assia
assignment
assisi
assistant
assistent
association
associations
associatioun
associatiounen
associe
assoss
assurance
assurances
assure
asta
astaire
astdys
aste
astellung
asteraceae
asterix
asteroid
asteroide
asteroidefamill
asteroiden
asteroidenentdecker
asti
astor
astra
astrid
astrium
astro
astrofotografie
astrologie
astrometrie
astronaut
astronaute
astronauten
astronautica
astronews
astronom
astronome
astronomen
astronomer
astronomesch
astronomesche
astronomeschen
astronomescher
astronomescht
astronomical
astronomie
astronomin
astronomische
astronomy
astrophysical
astrophysics
astrophysik
astrophysiker
astruc
asturien
asw
asyl
at
atacama
atelier
ateliere
atelieren
aten
atert
atertdall
atertlinn
athe
athen
athena
athene
athener
athenesch
atheneum
athus
ation
atkine
atkins
atlanta
atlanteschen
atlantic
atlantide
atlantik
atlantique
atlantiques
atlantis
atlas
atmospha
atmosphere
ato
atoll
atom
atomer
atommass
atomzentral
atout
atrice
attache
attack
attacke
attacken
attal
attem
atten
attenborough
attendre
attentat
attentater
attente
attention
attert
atteste
attic
attika
attila
atto
au
aube
auber
auberge
aubert
aubier
aubigny
aubin
aubrac
aubrey
aubry
auch
auclair
aud
audace
aude
audiard
audie
audio
audiovisuel
audiovisuelle
audran
audret
audrey
audry
audun
auer
auerza
auf
aufbau
aufgab
aufgabe
aufgaben
aufkla
aufl
auflage
aufs
aufsa
aufstieg
aufzeichnungen
aug
auge
augen
auger
augsburg
august
augusta
auguste
augustin
augusto
augustus
aujourd
auleba
aulin
aulnay
aumo
aumont
aura
aure
aurel
aureus
auriga
aurigae
aurillac
aurora
aurore
aus
ausbau
ausbildung
ausble
ausbre
ausbreedung
ausbroch
auschwitz
ausdeenung
ausdehnung
ausdre
ausdrock
ausernee
auserneen
ausfe
ausgaangen
ausgab
ausgabe
ausgaben
ausgang
ausgangspunkt
ausgank
ausgebaut
ausgebilt
ausgebrach
ausgebreet
ausgedeent
ausgedre
ausgedroe
ausgedroen
ausgeet
ausgefall
ausgefe
ausgefouert
ausgeglach
ausgegruewen
ausgelaf
ausgele
ausgeliwwert
ausgeluecht
ausgemaach
ausgenotzt
ausgepra
ausgere
ausgeriicht
ausgeruff
ausgesa
ausgesat
ausgeschafft
ausgescheet
ausgeschloss
ausgeschwat
ausgesi
ausgesinn
ausgestallt
ausgestraalt
ausgestuerwe
ausgestuerwen
ausgetosch
ausgetrueden
ausgeu
ausgewa
ausgewandert
ausgewielt
ausgezeechent
ausginn
ausgla
ausgoen
ausgruewunge
ausgruewungen
ausla
ausland
ausle
ausleee
ausleefer
ausmaachen
ausme
ausnam
ausname
ausnamen
ausre
ausriichtung
ausschliisslech
ausschne
aussebeze
ausseministe
ausseminister
ausseministere
aussenhandel
aussepolitik
ausser
ausserdeem
aussergewe
ausserhalb
aussi
aussiicht
ausso
aussoe
aussoen
aussprooch
ausstellung
ausstellunge
ausstellungen
ausstellungskatalog
austausch
austerlitz
austin
australe
australesch
australesche
australeschen
australia
australian
australien
australis
austrasien
austre
austria
ausu
ausverkaaft
auswa
auswiel
auswierkunge
auswierkungen
auszebauen
auszeechnung
auszeechnunge
auszeechnungen
auszefe
auszeschaffen
auszuch
autant
auteuil
auteur
auteure
auteuren
auteurs
auteursrechter
author
authority
auto
autobiographesch
autobiographie
autobiography
autobunn
autobunnen
autobus
autodidakt
autoe
autoen
automatesch
automne
automobile
automotrice
automotricen
autonom
autonome
autonomer
autonomie
autor
autorenlexikon
autorin
autorisatioun
autorise
autorita
autorite
autosaccident
autour
autre
autres
autumn
autun
auvergne
aux
auxerre
av
ava
avait
avalanche
avallon
avalon
avance
avant
avantage
avati
avdw
ave
avec
avengers
avenir
aventure
aventuren
aventures
aventurier
aventuriers
avenue
averstanen
avertissement
avesnes
aveyron
avez
aviation
aviatioun
avignon
avildsen
avion
avis
aviv
avl
avoir
avon
avraham
avranches
avril
avventura
avventure
aw
awanderer
award
awards
away
awd
aweiung
awer
awunner
awunnerzuel
axel
ay
aya
ayant
aykroyd
ayres
aywaille
az
azai
aze
azimut
aziz
aznavour
azteken
azur
azzurra
b
ba
baach
baache
baachen
baade
baal
baarova
baaschtnech
baastenduerf
baba
babel
babette
babeuf
babilonia
baby
babylon
bac
bacall
bach
bachelor
bachmann
baci
bacio
back
backes
backgroundcolors
backhaus
backus
bacon
bacri
bad
badel
baden
badge
badham
badminton
baer
baffie
bafta
bagdad
bagne
bagnole
baha
bahamas
bahia
bahn
bahnhof
bai
baikonur
bailey
bailleul
bailly
bain
bains
baiser
baisers
baker
bako
bakterien
baku
bal
balaban
balade
balance
balasko
balca
balcon
baldauff
baldi
baldini
balducci
baldwin
bale
bali
balibar
balin
balkan
balkespiralgalaxis
ball
ballad
ballade
balladur
ballasko
ballbese
ballet
ballon
ballons
balmer
balpe
balsam
balser
baltesche
balthasar
baltimore
bam
bamberg
ban
bana
banco
bancroft
band
banda
bande
bandera
banderas
bandgeschicht
bandiere
bandit
bandits
bandleader
bands
bang
bangkok
bangladesch
bank
banken
bankhead
banks
banlieue
bann
banne
bannen
bannenan
bannenhaff
bannent
bannenzeg
bannenzege
bannenzegen
bannenzeger
bannenzegt
banner
banneraum
bannescht
bannmillen
banque
banquier
banzie
baptist
baptiste
bar
barabbas
barack
baratier
barbados
barbanson
barbara
barbe
barber
barbet
barbier
barbra
barcelona
barcelonnette
barclay
bardata
bardem
bardot
bare
barefoot
bari
bariton
barka
barker
barkin
barks
barma
barnard
barnes
barock
baron
baroncelli
barong
baronnies
baroux
barr
barrage
barrault
barray
barre
barreau
barreto
barrett
barrie
barrier
barrois
barroso
barry
barrymore
bart
bartel
barth
barthe
barthel
bartholoma
bartholomew
bartlett
bartok
bartolomeo
barton
bartreng
bas
basalt
bascharage
baschkortostan
base
basehart
basel
baseng
basic
basie
basil
basilika
basinger
basis
baskeland
basket
basketball
basketballspiller
basketballspillerin
basler
bass
basse
bassermann
basset
bassi
bassin
bassing
bassist
basso
bastardi
bastia
bastide
bastien
bastille
bastioun
bastiounen
bastogne
bat
bataille
bataillon
batailloun
bateau
bates
bath
batman
battaglia
battant
batter
batterie
batterien
batteur
battin
battista
battle
batty
bau
bauaarbechte
bauaarbechten
bauch
bauchau
baudelaire
baudouin
baue
bauen
bauer
bauere
baueren
bauerenha
bauerenhaff
baufa
baugla
bauha
bauingenieur
baujoer
baukultur
bauler
baum
baumann
baume
baumeeschter
baur
bausch
bauschelt
bausse
baussen
baussent
baussenzeg
baussenzege
baussenzegen
baussenzeger
baut
bauteminister
bauten
bauverwaltung
bauweis
bauwierk
bauwierker
bava
baxevanos
baxter
bay
baye
bayer
bayerescher
bayern
bayonne
bazzoni
bb
bbc
bbe
bc
bd
bde
be
bea
beach
beaflossen
beaflosst
beaflossung
beals
beamte
beamten
bean
bear
bears
beast
beat
beate
beatles
beatrice
beatrix
beatty
beau
beauce
beaudine
beaufort
beaujolais
beaulieu
beaumarchais
beaumont
beaune
beaute
beautiful
beauty
beauvais
beauvoir
beauvois
beaux
beaver
beba
bec
because
bech
becher
bechet
beck
becken
becker
beckerich
beckett
beckius
beckmann
becquerel
bed
bede
bedeckt
bedeckung
bedeckungsvera
bedeelegt
bedeelegung
bedeit
bedeiten
bedeitend
bedeitende
bedeitenden
bedeitendst
bedeitendste
bedeitendsten
bedeitung
bedeitungen
bedeuten
bedeutung
bedford
bedingungen
bedos
bedre
bedreet
bedreift
bedreiwe
bedreiwen
bedreiwer
bedriwwe
bedriwwen
bee
beefort
beem
been
beer
beery
beetebuerg
beetebuerger
beethoven
befaasst
befe
befehl
befestegt
beffort
before
befre
befreien
befreit
befreiung
befuer
bege
begeeschtert
begeeschterung
begegnung
beggen
beggener
begin
beginning
beginnt
begins
begleeder
begleedung
begleet
begleetsta
begley
begra
begre
begrenzt
begriefnes
begruewe
begruewen
beha
behaapt
behaapten
behalen
behan
behandelt
behandlung
behe
beherrscht
behind
behr
behrendt
behrens
behuele
behuelen
bei
beicht
beiden
beidler
beienee
beieneen
beijing
beim
beine
beineix
being
beirut
beispiel
beispill
beispiller
beispillsweis
beissel
beitra
beitrag
beka
bekannt
bekannte
bekannten
bekannter
bekanntst
bekanntste
bekanntsten
beke
bekenntnisse
bekim
bel
bela
belaaschtung
belafonte
belagert
belagerung
belair
bele
beleee
beleet
beleriand
belfast
belfort
belge
belges
belgica
belgie
belgique
belgium
belgo
belgorod
belgrad
believe
beliicht
beliichtung
belinda
beliwwert
bell
bella
bellamy
belle
bellegarde
belles
bellevaux
belleville
bellevue
belley
belli
bellion
bello
bellocchio
bellon
bells
bellucci
belmondo
belmont
beloved
below
belsch
belsche
belschen
belscher
belscht
belt
beluecht
belushi
belval
belvaux
belve
bemannt
bemannte
bemannter
beme
bemierkbar
bemierken
bemierkenswa
bemierkt
bemierkungen
ben
benannt
benannte
benchetrit
bender
bendix
bene
beneath
benedek
benedetti
benedict
benedikt
benediktiner
benediktinerabtei
benediktinerpater
benelux
benennung
benevolat
beneyton
benfica
bengt
benguigui
beni
beniamino
benicio
benigni
benin
bening
benito
benjamin
benkhoff
bennati
bennent
bennet
bennett
benno
benny
benoi
benoit
benotze
benotzen
benotzer
benotzt
benotzung
benoy
benrath
bensinn
benson
bentivoglio
bentley
benton
benussi
benz
beobachtungen
beoptraagt
beppo
ber
bera
berall
berbe
berben
berblick
berbuerg
berchem
bercy
berdorf
bere
berechent
berechnen
berechnung
berechnunge
berechnungen
bereet
berend
berenger
berenices
berens
berenson
beresford
berg
berge
bergen
berger
bergerac
bergisch
bergman
bergmann
bergner
bergonzelli
bericht
berichte
berke
berkeley
berle
berley
berlin
berlinale
berliner
berling
berlusconi
bern
bernadette
bernard
bernardi
bernardo
bernd
berner
bernhard
bernhardt
bernheim
bernhoeft
bernie
bernstein
beroder
berout
berri
berry
bersetzt
bersetzung
bert
bertelmann
bertels
bertelsmann
bertemes
bertha
berthe
berthier
berthold
bertholet
berthomieu
berti
bertin
berto
bertolt
bertolucci
bertram
bertrand
bertrange
bertuccelli
beru
beruff
beruffer
berufflech
beruffsausbildung
berval
beryl
besanc
besat
besate
besatzer
besatzung
besch
bescha
besche
bescheed
beschiedegt
beschle
beschloss
beschoss
beschra
beschreibung
beschreift
beschreiwen
beschreiwung
beschriwwe
beschriwwen
bescht
beschte
beschten
beschter
beschu
bese
besetzen
besetzt
besetzung
besichen
besicht
besidelt
besiegt
besnard
besoin
besonnesch
besonnesche
besonnesches
besonnescht
bess
besse
bessel
besser
bessere
besseren
besserer
besson
best
besta
bestallt
bestand
bestanddeel
bestanddeeler
bestanen
beste
besteet
besten
bester
besti
bestietnes
bestinn
bestit
bestoe
bestoen
bestoung
bestrooft
bestseller
bestuede
bestueden
bestuet
besuch
beta
beth
bethmann
betount
betounung
betrachtungen
betraff
betraffene
betrag
betre
betreffen
betreit
betrib
betriber
betribssystem
betruecht
betsy
bett
betta
bette
bettel
bettendorf
bettendorff
bettenduerf
betteng
better
bettina
bettoia
betty
between
betzder
beuechten
beulah
beuys
beve
beverly
bevilacqua
bewa
bewaacht
beware
beweege
beweegen
beweeglech
beweegt
beweegung
beweegunge
beweegungen
bewegung
beweis
beweisen
beweiser
bewierkt
bewing
bewisen
bewosst
bewosstsinn
bewuess
bewunner
bewunnt
bey
beyer
beyond
beyren
beze
bezeechent
bezeechnen
bezeechnung
bezeechnunge
bezeechnungen
beziehungen
bezierk
bezierker
bezierksgeriicht
bezitt
bezuch
bezuele
bezuelen
bezuelt
bezunn
bgl
bhutan
bi
bianca
bianche
bianchetti
bianchi
bianchini
bianco
biarritz
bibal
bibel
biberman
bibi
bible
bibliogr
bibliographie
bibliographisches
bibliothe
bibliothecaire
bibliothek
bibliotheken
bic
bichebe
bichen
bicher
bickford
bidde
bidden
bideau
bidinger
bidscht
bie
biebereg
biedem
bieden
biederstaedt
biekerech
biel
bielefeld
bieles
bielesser
bien
biennale
biens
bienvenue
bier
bierbichler
bierchem
bieren
biereng
bierg
biergaarbechter
biergbau
biergem
bierger
biergerkrich
biergerlech
biergerrechter
biergerrechtler
biergertum
biergketten
biergklassement
biergof
biergop
biergpra
biermann
biermereng
biever
big
bigorre
bihan
biissen
bijouen
bikini
bil
bilal
bilan
bilbao
bild
bildchen
bilde
bilden
bilder
bildern
bildnis
bildt
bildung
bill
billancourt
billard
bille
biller
billet
billian
billie
billion
billjeee
billon
billy
bilschdref
bilt
biltgen
bim
bin
bina
binder
bindung
bing
bingen
binger
binoche
binsfeld
bintener
bintz
bio
biografie
biographesch
biographie
biographien
biographique
biographiques
biographische
biography
biolog
biologen
biologesch
biologie
biology
biospha
bip
bir
biraud
bird
birds
bireler
biren
birgel
birgit
birkin
birmingham
birsens
birth
birthday
bis
bishop
bismarck
bissau
bissen
bisset
bist
bistum
bit
bitburg
bitche
bitt
bitte
bitter
bitto
bius
biver
bivort
biwels
biwer
bjo
bla
blaaschent
black
blackman
blade
blaeu
blain
blair
blaise
blake
blakely
blanc
blanca
blanchar
blanchard
blanche
blanches
blanchett
blanchette
blanco
blancs
blank
blann
blanne
blannen
blas
blasen
blasetti
blasius
blat
blatt
blau
blaue
blauen
blaye
ble
blech
bleiben
bleibt
bleibtreu
bleift
bleiwe
bleiwen
blend
bler
blesse
bleu
bleue
bleues
bleus
blica
blick
blieder
blier
blieskastel
blin
blind
blinde
bliss
bliste
blitz
bliwwe
bliwwen
blo
bloch
blochausen
block
blocke
bloe
bloen
blog
blois
blond
blonde
blondell
blonden
blondes
blood
bloody
bloom
blos
blosorchester
blot
blouf
bloussem
blouwen
blow
blu
bluddeg
blue
bluebird
blues
bluff
blum
blume
blumen
blumenberg
blummen
blut
blutt
bluttbuch
bluwal
blystone
blyth
blythe
bmw
bner
bnl
bnp
bo
board
boat
bob
bobby
bobfuerer
bobigny
bobo
bocage
boccaccio
boch
bochum
bock
bockel
bockfiels
bode
boden
bodensee
bodo
bodry
bodson
body
boe
boeing
boeres
boese
boettcher
boetticher
boever
bofferding
bogarde
bogart
bogdanovich
bohe
bohm
bohr
bohringer
boi
bois
boisrond
boisset
boissie
boissol
boisson
boist
boit
boitel
bol
boldi
boleslawski
bolivien
bolkan
bollendorf
bollenduerfer
bollmann
bologna
bolognini
bolva
bolzan
bomb
bombarde
bombardement
bombardementer
bombardier
bombe
bomber
bomm
bommeleee
bommen
bon
bona
bonaparte
bond
bondi
bone
bongo
bonham
bonheur
boni
bonifatius
bonita
bonitzer
bonjour
bonn
bonnaffe
bonnaire
bonnard
bonne
bonner
bonnes
bonnet
bonneville
bonnevoie
bonnie
bonnot
bons
bonsoir
bonvoisin
boogie
book
books
boom
boomerang
boon
boone
boonen
boorman
booster
boosteren
boot
booter
bootes
booth
boots
bor
borchers
bord
bordeaux
border
borderie
borealis
borg
borghese
borgia
borgnine
borgo
boris
bormann
born
borne
borowczyk
borrelly
borromeo
borsalino
borsche
borschette
borsody
bory
borzage
bos
bosc
bosch
boschero
bosco
bose
bosnien
boss
bosseler
bossi
bossu
bost
boston
botanesch
botanesche
botanik
botaniker
botanique
botschaft
botschafter
botswana
botter
bottom
bottoms
botzen
bou
boubre
bouche
boucher
bouches
bouchet
bouchez
bouf
bouferdeng
bouguereau
bouille
bouillon
bouise
bouix
boujenah
boukels
boulanger
boulay
boule
boulevard
bouli
boulogne
boulting
boum
bouminutten
bouneweg
bouneweger
bounty
bouquet
bour
bourbon
bourbonen
bourdon
bourg
bourgeois
bourgeoisie
bourger
bourges
bourgine
bourgmestre
bourgmestres
bourgogne
bourguignon
bourscheid
bourse
bourvil
bous
bousche
bousekonne
bousekonnen
bout
boutel
boutron
bouvier
bouwen
bova
bovary
bove
bow
bowen
bowie
bowman
box
boxen
boxer
boy
boyd
boyer
boyle
boys
bozzuffi
bp
br
bra
braas
brabant
bracco
brach
bracken
braconnier
brad
bradbury
bradford
bradley
brady
bragaglia
brahe
brahm
brahms
braie
braille
brain
bram
branagh
branche
brand
brandauer
brandenburg
brando
brandon
brandt
brandy
branebuerg
branson
bras
brasilianesch
brasilianesche
brasilien
brass
brasserie
brasseur
brassica
bratislava
brauch
brauche
brauchen
braucht
brauer
brauerei
brauereien
braun
braunschweig
brausewetter
braut
brave
bravo
bray
braz
brazil
brazzi
bre
break
breakfast
breaking
brecht
breck
breed
breede
breeden
breeder
breedewee
breet
breetegrad
breillat
breisgau
breitman
brel
brem
bremen
bremer
bremsen
brenda
brendan
brennan
brenndauer
brenner
brennpunkt
brennt
brennwa
brent
brentano
bres
brescia
breslau
bresse
bressler
bresson
brest
bretagne
breton
brett
breuer
breuil
brevet
brewery
brialy
brian
brianc
brice
bricoleurs
briddel
bridder
bride
brides
bridge
bridges
bridget
brie
brief
briefe
briefwechsel
brien
brienne
briet
brieuc
briey
brigade
brigadier
brigands
briganti
briggs
bright
brighton
brigitte
brignone
brill
brimmeyr
bring
brink
brion
brioude
briques
bris
brisbane
bristol
britain
britannica
british
britt
britte
britten
brittesch
brittesche
britteschen
brittescher
brittescht
britton
brive
brjansk
bro
broadcast
broadcasting
broadway
broca
broch
brochard
brochet
brochste
brochure
brockhaus
broderick
brodie
brody
broken
brolin
bromberger
brong
bronge
brongen
bronsheim
bronson
bronte
bronx
bronz
bronze
bronzemedail
bronzeza
brook
brooke
brooklyn
brooks
broscht
broschthe
broschu
brosius
brosnan
brosset
brot
brother
brothers
brout
brouwer
brown
browne
browning
browser
bru
bruce
bruch
bruck
brudder
bruder
bruecht
bruel
bruges
bruit
brumaire
brun
brunello
bruni
brunnen
bruno
brunoy
brunswick
brusati
brussel
brussels
brutal
bruxelles
bruye
bryan
brynner
bryozoa
bryozoans
bs
bsdeelercher
bt
bu
buccella
buch
buchanan
buchholtz
buchholz
buchpra
buchs
bucht
buck
bud
budapest
budd
buddenbrooks
buddha
buddhismus
buddy
budget
buedem
buedemstatioun
buenos
buer
buerg
buergen
buergermeeschter
buergermeeschtere
buergermeeschteren
buergermeeschtesch
buergfrid
buergle
buergplaz
buerschent
buffalo
buffet
bug
bugey
buick
building
buisson
bujold
bukarest
bulgaresch
bulgarien
bulge
bull
bulldog
bulle
bullet
bulletin
bullets
bullock
bun
bunch
bund
bundesarchiv
bundeskanzler
bundesla
bundesland
bundespresident
bundesrepublik
bundesstaat
bundesstaaten
bundestag
bundesverdienstkreuz
bung
bungeref
bunker
bunn
bunnbeste
bunndaten
bunne
bunneegenschafte
bunnelementer
bunnen
bunnexzentrizite
bunnresonanz
bunnschre
bunnste
bunnvitess
bunny
bunuel
buono
bur
bure
bureau
buren
burg
burgen
burgess
burgos
burgtheater
burguet
burgund
burgunder
burian
burjatien
burke
burkhard
burkina
burl
burma
burning
burns
burr
burroughs
burstyn
burt
burton
burundi
bus
busby
buscemi
busch
buschmann
buschtaf
buschtawe
buschtawen
busey
bush
business
buslinn
buslinnen
busse
bussen
busser
bussie
bust
buste
buster
but
butler
butschebuerg
butte
buttek
butteker
butterfly
buttons
buxtehude
buy
buzz
buzzanca
buzzell
bwv
bxc
by
bye
byrd
byrne
byron
byzantinesche
byzanz
c
ca
caan
cabaret
cabinda
cabinet
cable
cabo
cabot
caccia
cache
cachet
cacoyannis
cactus
cadastre
cade
cadeau
cadet
cadets
cadillac
cadre
caduta
caen
caesar
cafe
cage
cagney
cahen
cahier
cahiers
cahn
cahors
cai
caiano
cain
caine
caire
cairo
caisse
cal
cala
calais
calcio
cale
calef
calfan
calgary
calhern
calhoun
california
caligula
call
callan
callas
called
calling
calmes
caltech
calteux
calvados
calvert
calvet
calvi
calvin
calvo
cam
camarda
cambrai
cambre
cambridge
came
camelopardalis
camembert
cameo
camera
camerini
cameron
camilla
camille
camillo
caminho
camino
camion
camionen
cammage
camp
campagne
campagnes
campan
campanile
campanini
campbell
campe
camping
campion
campo
campogalliani
campos
campus
camus
can
canada
canadian
canaille
canal
canale
canards
canaveral
cancer
cancri
candice
candidate
candide
candy
cane
canes
canet
canique
canis
cannabis
cannes
cannon
cannonball
canon
canonge
cantal
canterbury
cantinflas
canto
canton
cantons
canvas
canyon
canzone
canzoni
cao
cap
capacite
cape
capella
capellani
capelle
capellen
capitaine
capital
capitale
capitan
capitani
capitano
capitaux
capitol
capo
capone
caporal
cappella
capra
capri
caprice
caprices
caprioli
captain
captive
capuano
capucine
capus
car
cara
caracte
caravaca
caravan
carax
carbonnaux
carcassonne
card
cardiff
cardinal
cardinale
cardona
cardone
cardoso
cards
care
caregari
carette
carey
cargo
cargolux
caribbean
carignan
carina
carinae
carine
carion
caritas
carl
carla
carlate
carle
carletti
carlisle
carlo
carlos
carlsen
carlson
carlyle
carme
carmel
carmen
carmet
carmichael
carminati
carmine
carnaval
carne
carnegie
carnet
carnets
carnimeo
carnival
caro
carol
carola
carole
carolina
caroline
carolyn
caron
carotenuto
carpenter
carpi
carr
carradine
carre
carrefour
carrel
carrell
carrera
carreras
carrey
carrie
carrier
carrillo
carrol
carroll
carry
cars
carson
carsta
carstairs
carsten
carstens
carstensen
carte
carter
cartes
cartier
carton
cartoon
cartoons
cartouche
caruso
carvalho
carver
cary
cas
casa
casablanca
casanova
casar
casares
casaril
cascade
cascadeur
case
caselli
casey
cash
casino
caso
caspar
cass
cassandra
cassavetes
casse
cassegrain
cassel
cassenti
cassidy
cassini
cassiopeia
cassot
cast
casta
castan
castel
castellane
castellani
castellano
castellari
castelli
castellitto
castello
castelnau
castelnuovo
castelo
castelot
castelsarrasin
castilla
castillo
castillon
casting
castle
castor
castres
castro
cat
catala
catalina
catalog
catalogue
catalogueoflife
catalunya
catani
catania
catch
cate
catena
catenaire
caterina
cates
cathe
cathedral
cathelineau
catherine
cathol
catholic
catholique
cathy
cats
cattenom
cattle
cattrall
cauchy
caud
caught
caulfield
caunes
causa
cause
causes
causse
caussimon
caux
cava
cavalcade
cavalcanti
cavale
cavalier
cavaliere
cavalieri
cavallo
cavani
cave
caven
cavendish
caves
cayatte
cayenne
cbs
cc
ccd
cd
cden
cdot
cds
cdu
ce
cebra
ceca
ceccaldi
cecil
cecilia
cedric
cegani
cegedel
ceinture
celentano
celi
celia
cell
celle
celles
cellier
cello
celsius
celui
cembre
cemetery
cena
census
cent
centaur
centaure
centauri
centaurus
centenaire
center
cento
central
centrale
centre
centres
centro
cents
century
ceo
cephei
cepheiden
cepheus
cerami
cerca
cerchio
cercle
ceres
cerf
cern
cerro
certain
cervantes
cerveau
cervi
ces
cesar
cesare
cet
ceti
cette
cetus
ceux
cev
cf
cfa
cfl
cgdis
cgi
ch
cha
chabat
chabrol
chacun
chad
chadwick
chafaud
chaffey
chai
chain
chair
chakiris
chal
chalet
challenge
challenger
chalon
chalonge
chambe
chamber
chamberlain
chamberpresident
chamberwale
chamberwalen
chambon
chamborant
chambre
chamonix
champ
champagne
champignon
champignons
champion
championat
championnat
champions
championship
champs
chan
chanas
chance
chandler
chandra
chanel
chaney
chang
change
changement
changementer
changes
channel
channing
chanois
chanson
chansonnier
chansons
chansonsa
chant
chantal
chante
chanteur
chantier
chants
chaos
chaotesch
chapa
chapdelaine
chapeau
chapelle
chaplin
chapman
chapot
chappe
chapter
chaque
characters
charade
charakter
charakterise
charakteristesch
charakteristik
charakteristike
charakteristiken
charel
charell
charente
charette
charge
chariklia
charisse
charite
charlemagne
charleroi
charles
charleville
charley
charlie
charlize
charlot
charlots
charlotte
charlton
charly
charme
charon
charpentier
charpin
charrier
charta
chartres
chartreuse
charts
chase
chasma
chasse
chasseur
chat
chateau
chatel
chatiliez
chatte
chaucer
chauffer
chaufferen
chauffeur
chaumont
chausse
chaux
chazel
chc
chd
che
chec
checchi
check
checs
cheemesch
cheemesche
cheemeschen
cheemescher
cheemescht
cheemiker
chef
cheffe
chefredakter
chefs
cheg
cheirel
chel
chela
cheln
chelo
chelsea
chelskierch
chem
cheme
chemical
chemie
chemin
chemins
chemistry
chen
chenal
chene
chent
chentemperatur
cher
cherbourg
cherche
cherchez
chere
cheren
cherheet
cherheetsrot
cherlech
cherry
chert
cherung
ches
chesnais
chess
chester
chet
chette
cheur
cheval
chevalier
chevin
chevrier
chevrolet
cheyenne
chez
chi
chiama
chiamavano
chiara
chiari
chicago
chief
chien
chiens
chiers
chiffre
child
children
chile
chileenesch
chileenesche
chili
chill
chimay
chime
chimie
chin
china
chine
chineesesch
chineesesche
chineeseschen
chineesescher
chinese
chinois
chinon
chiny
chips
chirac
chirurg
chirurgie
chl
chlech
chlein
chler
chlodwig
chloe
chlor
chnen
chner
cho
choc
chocolate
choice
choiseul
choix
cholera
cholet
chome
chomette
chomsky
chondritte
chondritten
chopin
chor
chorale
chorus
chose
choses
chotin
chouans
choucroute
chouer
chouraqui
choureau
choux
chr
chre
chris
christ
christa
christel
christen
christensen
christi
christiaan
christian
christiane
christianise
christians
christie
christina
christine
christl
christliche
christmas
christnach
christo
christoph
christophe
christopher
christus
christy
chromospha
chronicle
chronicles
chronik
chronique
chroniques
chronogramm
chronologesch
chronologie
chst
chste
chsten
chstens
chster
chstwarscheinlech
cht
chte
chteg
chtege
chtegen
chtegt
chten
chter
chtlingen
chtnis
chu
chuck
church
churchill
chute
chœur
ci
cia
cial
ciale
ciampi
ciao
ciccio
cicero
ciclista
cid
cie
ciel
cielo
cifariello
cigarettes
cile
cilento
cimetie
cimino
cincinnati
cinderella
cindy
cine
cinema
cineuropa
cinq
cinque
cinquecento
cinquie
cio
cipa
circ
circle
circuit
circulation
circus
cirelli
cirio
cis
cisions
cit
cite
cities
citizen
cito
citroe
citta
citti
city
ciudad
civil
civile
civilisation
civirani
ck
ckble
ckblick
ckbruecht
cke
ckel
ckele
ckelen
ckelmann
ckelt
ckelte
ckelten
cken
cker
ckerei
ckeruewert
ckfe
ckga
ckgaangen
ckgeet
ckgefouert
ckgegraff
ckgetruede
ckgetrueden
ckgezunn
ckginn
ckkomm
ckkommen
cklech
ckleefeg
ckler
cklich
ckliche
cklung
cklunge
cklungen
ckner
cks
cksa
ckschle
ckstoff
ckt
ckte
ckten
cktre
ckung
ckze
ckzefe
ckzeze
ckzuch
cl
cla
clair
claire
clairefontaine
clamecy
clan
clancy
clara
clare
clarence
clarer
clarin
clariond
clark
clarke
clasen
clash
class
classe
classes
classic
classics
classique
claude
claudel
claudette
claudia
claudine
claudio
claudius
claus
clausen
clausener
clav
clavier
clay
clayburgh
clayton
cle
clear
cleef
clef
clefs
clemens
clement
clementine
cleopatra
clerk
clermont
clervaux
cles
clesse
cleveland
clia
clibb
clichy
client
cliente
clienten
clierf
cliff
clifford
clift
clifton
climate
clinique
clint
clinton
clio
clive
cliver
clm
clo
clochard
cloche
clock
clooney
cloris
clos
close
clotilde
cloud
clouds
clouzot
clovis
clown
clowns
clt
club
cluny
cluse
cluster
clusters
cluzet
clyde
cm
cn
cna
cnl
cnrs
co
coach
coast
coat
coauteur
cobb
cobra
coburg
coburn
cochran
cocker
cockerill
cocktail
coco
coconino
cocteau
coda
code
coden
codex
codice
cody
coe
coen
coeur
coggio
cognac
cohen
cohn
coimbra
coin
col
cola
colbert
cold
cole
coleen
coleman
coles
colette
coletti
colin
coline
coll
collaboration
collande
collart
colle
collected
collection
collectivite
colleen
college
colleges
collegium
collet
collette
collier
collin
collinder
colline
colling
collins
collinson
colloque
colman
colmar
colmer
colnet
cologie
cologique
colombe
colombes
colombier
colombo
colonel
colonia
colonnes
color
colorado
colors
colour
colpach
colpo
colt
coltrane
coluche
columbia
columbus
com
coma
comarca
combat
comblain
combret
come
comeback
comedian
comedy
comencini
comer
comes
comet
comets
comfort
comic
comics
comicszeechner
comiczeechner
coming
comite
command
commandant
commande
commandements
commander
commanderie
commandeur
commandments
commando
comme
commence
comment
commerce
commercial
commerciale
commercy
commissaire
commissariat
commissario
commission
committee
common
commons
commonwealth
commun
communal
communale
communales
communaute
communaux
commune
communes
communication
communications
communique
community
como
compact
compagnie
compagnons
companeez
companion
companions
company
compare
compartiment
compe
compie
comple
complete
complex
complot
composition
compostela
comptabilite
compte
comptes
compton
computer
computerbegre
computere
computeren
computerspillindustrie
comte
comtesse
comunidad
con
conan
concepcio
concernant
concert
concerte
concerten
concerto
conchita
concierge
concorde
concordia
concours
concourse
concoursen
condamne
conde
condom
condor
condroz
conducteurs
conduite
confe
conference
confession
confessions
confiance
confidences
confidential
confirme
conflict
conflit
conforme
conge
congo
congre
congress
conjugale
connai
connaissance
connect
connecticut
connection
connell
connelly
connery
connie
connolly
connor
connors
connu
connus
conny
conomie
conomique
conomiques
conquest
conquistatore
conrad
cons
conscience
conseil
conseiller
conseilleren
conservateur
conservation
conservatoire
conside
considere
consigny
consolatrix
conspiracy
constance
constant
constantin
constantine
constellation
constituante
constitution
constitutionnel
constitutioun
construction
consulat
consultative
contact
container
conte
contemporain
contemporaine
contemporary
content
contenu
conter
contern
contes
contessa
contest
conti
continental
continue
contournement
contra
contract
contraire
contre
contribution
contributions
contro
control
convention
conway
conzemius
coogan
cook
cool
coolidge
coope
cooper
coordonne
cop
copains
cope
copernicus
coplan
copley
coppa
coppi
coppola
copyright
coq
coque
cor
corbeau
corbett
corbie
corbucci
cord
corda
corday
corde
cordes
cordova
cordula
cordy
core
corey
corin
corinna
corinne
corleone
corman
corneau
corneille
cornel
cornelia
cornelis
cornelius
cornell
corner
cornet
corniche
cornillac
cornwall
corny
corona
coronae
coronavirus
corot
corpo
corporation
corps
corpse
corpus
corrado
corre
correspondance
correspondant
corri
corrida
corrigan
corsaro
corse
corsini
cort
corte
cortese
cortez
cortina
corto
cos
cosa
cosetta
cosi
cosmatos
cosmic
cosmology
cosne
costa
costello
coster
costner
cote
cotillard
cotta
cottafavi
cotten
cottenc
cotton
cou
couche
could
couleur
couleurs
council
count
counties
countries
country
county
coup
coupable
coupe
coupegewe
couple
coups
cour
courage
courau
courcel
courcelles
coureur
coureure
coureuren
courir
couronne
courrier
cours
course
coursen
coursse
courssen
court
courte
courtenay
courtine
courtland
courtney
courtois
cousin
coute
couteau
couture
couturier
couverte
couzinet
cover
covid
covidcheck
cow
coward
cowboy
cowboys
cowl
cox
coyote
cpll
cr
crabbe
crack
cradle
craig
crain
cramer
cran
crane
crash
crater
crauchet
cravatte
craven
cravenne
crawford
crazy
cre
creature
creek
cremer
crenna
cressoy
creuse
crew
cri
cribbins
crichton
cricketspiller
crime
crimen
crimes
criminal
criminale
crimson
crippen
cris
crise
crisis
crispin
crispino
cristal
cristina
cristo
crite
critical
critique
crits
crivains
croce
crocodiles
croise
croisie
croissance
croix
cromwell
cronaca
cronenberg
cronyn
crooked
crop
cropped
crosby
cross
crossbow
crossing
crossroads
crowd
crowe
crown
croze
cru
cruchten
cruise
cruises
crusade
crux
cruz
cry
crystal
cs
cseligman
csi
csu
csv
csy
ct
ctor
cu
cuba
cube
cucciolla
cuenca
cuir
cuisine
cuisse
cukor
cul
culottes
culp
cultura
cultural
culture
culturel
culturelle
culturelles
cum
cummings
cunningham
cuny
cuore
cuori
cup
curazia
curd
cure
curie
curiosity
curite
curse
curt
curtain
curtelin
curtis
curtiz
cusack
cushing
cut
cution
cv
cvn
cxd
cy
cybill
cyclable
cyclables
cycle
cycles
cycling
cyclisme
cycliste
cyclisten
cyclistes
cyclo
cyclocross
cyd
cygni
cygnus
cynthia
cyprien
cyr
cyrano
cyrielle
cyril
cyrus
cz
cziffra
czuga
cœur
cœurs
d
da
daach
daags
dach
dachau
dacks
dacqmine
dactyl
dad
daddy
dae
daf
dafoe
dafrika
dafrikanesch
dafrikanesche
dafrikaneschen
dafsteen
dag
dageszeitung
dagli
dagmar
dagobert
dagogique
dagover
dague
dahl
dahlbeck
dahlberg
dahlke
dai
dailey
daille
daily
daisy
dakar
dakota
dal
dalaran
dalban
dale
daleiden
dalheim
dalhem
dali
daliah
dalila
dalio
dall
dalla
dallamano
dallas
dalle
dallesandro
dalton
daly
dam
damar
dame
damerika
dames
damian
damiani
damiano
damien
damiens
damm
damme
dammebasketballnationalekipp
dammefoussballnationalekipp
dammegambit
dammen
dammenekipp
damned
damon
damp
dampierre
dan
dana
dance
dancer
dancing
dane
danger
dangereux
dangerous
dani
danie
daniel
daniela
daniele
danielle
daniels
danik
danilo
dank
dann
danning
danny
danova
dans
danse
dante
danton
dany
danz
danzeg
daphne
daphnia
daphnis
daquin
dar
darby
darc
darcey
dard
dare
dareios
darf
darfeuil
dargaud
darin
daring
dario
dark
darkgrey
darkness
darling
darmon
darmstadt
darnell
daroy
darras
darren
darrieux
darroussin
darrow
darry
darstellung
darvi
darwin
dary
daryl
das
dass
dassin
dat
data
database
date
datebank
dateformat
datei
daten
dato
datt
datum
datzig
daucht
dauer
dauere
daueren
dauerhaft
dauert
daughter
daughters
daumier
dauphin
dauphine
dausend
dausende
dave
davenport
daves
david
davide
davidson
davies
davis
davison
davoli
davy
dawn
dawson
dax
day
dayan
dayle
days
dazu
daß
db
dbe
dc
dchen
dd
dden
ddi
ddr
de
dea
dead
deadly
deadpool
deal
dean
deanna
dear
dearden
dearly
death
deauville
debar
debatt
debatte
debbie
deborah
debout
debra
debre
debucourt
debussy
debut
dec
decca
december
deception
dech
deche
dechen
decide
decin
decine
decins
decision
decisioun
decisioune
decisiounen
deck
deckel
decken
decker
deckt
deco
decock
decoin
dee
deefer
deeg
deeglech
deel
deelbera
deele
deelen
deeler
deelercher
deelgeholl
deelhuelen
deelle
deels
deelste
deelt
deelung
deelweis
deelzehuelen
deem
deementspriechend
deemno
deemoleg
deemolege
deemolegen
deemoleger
deemools
deen
deene
deenen
deep
deepfrozen
dees
deet
defence
defense
deferre
define
definitioun
definitiv
definitive
degas
degen
degli
dehelly
dehner
dehon
dei
deier
dein
deine
deit
deiten
deitz
dekanat
dekanatskierch
dekker
deklaratioun
deklare
deklasse
deklinatioun
dekoratioun
dekore
dekret
del
dela
delacroix
delair
delamare
delannoy
delaporte
delaunay
delbert
delbez
delcourt
delegatioun
delege
delgado
delhaize
delhi
delia
delikter
delingen
delisle
delitto
dell
della
delle
dellere
delles
dello
delluc
delmer
delmont
delon
delorme
delphi
delphine
delpy
dels
delta
deltgen
delubac
delvaux
dem
demain
demand
demande
dembo
demeter
demetrios
demeure
demi
demicheli
demick
demille
demissione
demissioun
demme
demo
demofilo
demographie
demoiselle
demokraten
demokratesch
demokratesche
demokratescher
demokratie
demon
demongeot
demonstre
demuth
demy
den
denain
dench
deneb
deneuve
denham
denholm
deniaud
denicourt
denis
denise
denke
denken
denkmal
denkmalschutz
denkt
denn
dennehy
denner
denning
dennis
denoe
dents
denver
denys
denzel
deodato
depardieu
depart
departement
departementale
departementer
department
deplace
depliant
deporte
depose
depot
depp
deppe
depuis
depute
dequenne
der
deray
derba
derbaum
derby
derduerch
dere
derek
derge
dermat
dern
dernie
dernieft
dernier
derniers
derrick
derrie
ders
derte
dervu
dervun
derzou
des
desagnat
desailly
descente
deschamps
descrie
description
desert
deserte
deserto
design
designe
designer
desire
desmarets
desmond
desny
desperate
desplechin
dessau
dessin
dessine
dessins
dessous
dessus
destin
destination
destine
destino
destiny
destre
det
detail
detailer
detaille
details
detective
detekte
detekter
detekteren
detektiv
detektive
detlef
detlev
detmers
detroit
deu
deutsch
deutsche
deutschen
deutscher
deutsches
deutschland
deutschlands
deux
deuxie
devaivre
devant
development
deventer
devere
devil
deville
devils
devis
devise
devito
devon
devos
dewaere
dexia
dexter
deyers
dez
dezember
dfrankra
dh
dhallefkugel
dhe
di
dia
diable
diablo
diagram
diagramm
dialekt
dialekter
dialog
dialogue
diamant
diamond
diamonds
diana
diane
dianne
diario
diary
dias
diavolo
diaz
dical
dicales
dicaprio
dice
dich
dicht
dichte
dichter
dichtung
dick
dickinson
dicks
dictionary
dictionnaire
dictionnairen
did
diddeleng
diddelenger
diddenuewen
diderich
didi
didier
die
diech
dieci
died
diederich
diefenthal
diego
diehl
diekirch
dien
dienst
dieppe
dier
diere
dieren
dierfer
dierft
dies
dieschbourg
diese
diesel
diesem
dieser
dieses
diessl
dieter
dieterle
dietl
dietmar
dietrich
dietz
dieu
dieudonne
dieux
diffe
differdange
differdingen
differenz
differenze
differenzen
difficile
diffring
diffuse
diffusion
diger
diggiloo
digital
digitale
digitalise
digne
dijon
dikrech
dikrecher
diktator
diktatur
dilk
dillman
dillon
dimanche
dimensioun
dimensioune
dimensiounen
dimitri
dimmer
din
dina
dinan
dinant
ding
dinn
dinner
dino
dinosaurier
dio
diogenes
diois
diokletian
dion
dione
dionisio
dionysos
dios
diplo
diplom
diplomat
diplomaten
diplomatesch
diplomatie
dippech
dir
dire
direct
directeur
direction
directoire
director
direkt
direkte
direkten
direkter
direkteren
direktesch
direktioun
direktor
dirige
dirigent
dirigente
dirigenten
dirk
dirty
dis
disco
discographie
discours
discovery
discret
discworld
disk
diskrimine
diskussioun
diskussiounen
diskute
disney
disparu
disparus
disponibel
dispositioun
dispute
diss
dissertation
dissertatioun
distance
distant
distanz
distanzbeste
distanze
distanzen
distinctions
distingue
distribution
district
distrikt
distrikter
distriktskommissa
disziplin
disziplinnen
dit
dita
dite
diten
diterrane
dites
diteur
diteurs
dith
dition
ditions
dits
diva
dive
divers
diverse
diversite
divine
division
divisioun
divisioune
divisiounen
divorce
dix
dixie
dixon
diz
dizier
dj
django
dk
dkorea
dlech
dleche
dlechen
dlecher
dler
dliche
dlr
dm
dmitri
dmytryk
dna
dnr
do
doba
dobservatoire
doc
doch
docteur
doctor
doctors
doctrine
document
documentaire
documentairen
documentation
documents
dodd
dodge
dodran
doduerch
doe
doermer
dofir
dog
doge
dogma
dogs
doheem
dohi
dohier
dohin
dohinner
dohm
doi
doigt
doillon
doit
dokter
dokteraarbecht
dokteren
dokterthees
doktertitel
doktesch
doktor
doktorat
dokument
dokumentarfilm
dokumentarfilmer
dokumentation
dokumentatioun
dokumente
dokumenter
dol
dolce
dolci
dole
dolibois
doll
dollar
dollari
dollaro
dollars
dolly
dolores
dom
doma
domaine
domani
domat
dombasle
dome
domenica
domenico
domergue
domicile
dominant
dominatioun
domine
domingo
dominic
dominici
dominik
dominikaner
dominikanesch
dominique
domino
dommartin
dompierre
don
donahue
donald
donaldson
donat
donato
donatus
donatuskapell
donau
donauwo
donc
donckel
dondelinger
done
donen
dong
donieft
doniol
donkel
donkele
donkeler
donkels
donlevy
donna
donnadieu
donne
donnell
donner
donneschdeg
dono
donovan
dont
donzelli
door
doors
doosber
doping
doppler
dor
dora
dorado
doradus
doran
doraus
dordogne
dore
dorelli
doren
dorf
dorff
dorian
doris
dorit
doriwwer
dorle
dorn
dorop
dorophin
doropshi
doropshin
dorothe
dorothea
dorothy
dors
dorsa
dorsch
dorsum
dort
dortmund
doru
doruechter
dorun
dorziat
dos
dose
dosen
dosende
dossier
dossiers
dostasien
doste
dosten
dostert
dot
dote
douai
douane
douanes
douard
double
doubs
douce
doud
doudeg
doudege
doudegen
doudeger
doudesaffer
doudesannonce
doudesdag
doudesstrof
doug
douglas
dougnac
doum
dourif
dout
doutgemaach
douze
dove
dover
dovu
dovun
dowe
down
downey
download
downtown
doyen
doyle
dozen
dozent
dozou
dp
dpol
dr
dra
draach
drach
drache
draco
dracula
dragan
drage
drago
dragon
dragons
drake
drale
draleeft
dram
drama
dramatesch
dramatesche
dramatiker
dramatique
drame
dramen
dramma
dran
drapeau
draper
draufelt
draus
dre
dream
dreams
dreem
drei
dreifstoff
dreifwierk
dreifwierker
dreiwen
dreiwend
drescher
dresden
dress
dreux
drew
dreyer
dreyfus
dreyfuss
dric
driedaagse
dritte
dritten
drive
driver
driwwer
dro
drock
drockversioun
droe
droen
drogen
droit
droite
droits
droitsportal
drop
drorake
drot
dru
druck
drucker
druckerei
drum
drummer
drummond
drums
drun
dry
ds
dsa
dschingis
dsee
dss
dt
dtiroul
dtische
dtv
du
dubai
dubbel
dublin
dubois
dubosc
dubost
duby
duc
ducal
ducale
ducation
ducaux
duccio
duchaussoy
duche
duchesne
duchesse
duchscher
ducis
duck
dudelange
dudley
dudrumet
due
duebel
duebele
duebeler
duebelsta
duebelt
duechter
duechtere
duechteren
duechtergesellschaft
duel
duelem
duell
duer
duerch
duerchaus
duerchbroch
duerchdre
duerchfe
duerchga
duerchgank
duerchgefouert
duerchgesat
duerchleeft
duerchmiesser
duerchmusterung
duerchschne
duerchsetzen
duerchzefe
duerchzesetzen
duerf
duerfir
duerfka
duergaangen
duergestallt
duerno
duerstellen
duerstellt
duerstellung
duerzestellen
duett
duff
duffy
dufilho
dufour
dugan
dugowson
duhamel
duhour
duhr
duilio
duisburg
dujardin
duke
dullea
dumas
dumesnil
dummeldeng
dummeldenger
dumont
dumoulin
dun
dunaway
duncan
dundee
dune
dunkerque
dunkle
dunlop
dunn
dunne
dunnebre
dunst
duo
duperey
dupong
dupont
dupontel
dupuis
dupuy
dur
dura
durable
durand
duras
durbin
durbuy
durch
dure
durham
during
duris
durning
durs
duryea
duse
dussollier
dust
dustin
dutch
dutreux
dutronc
duval
duvall
duvalle
duvivier
dux
duxall
dvd
dvdbeaver
dvdclassic
dvdclassik
dvorak
dwan
dwarf
dwest
dweste
dwesten
dwestlech
dwestleche
dwestlecher
dwight
dxc
dxd
dxe
dy
dyan
dying
dyke
dylan
dynamesch
dynamics
dynamik
dynamit
dynamite
dynastie
dz
e
ea
eads
eagle
eagles
ean
earl
early
earth
east
eastern
eastman
eastwood
easy
eat
eaton
eau
eaux
ebd
eberhard
ebert
ebu
ec
ech
echec
echevins
echo
echt
echternach
echternacher
eck
ecker
eckhardt
eckhart
eckste
eco
ecole
economic
economics
economie
ecran
ecstasy
ecuador
ecurie
ed
eddi
eddie
eddington
eddy
edel
eden
edgar
edge
edikt
edinburgh
edison
edit
edite
edited
editeur
editeuren
edith
edition
editions
editioun
editioune
editiounen
editor
editpress
edmond
edmund
edna
edoardo
edouard
eds
edu
eduard
eduardo
education
educatioun
educatiounsministe
edvard
edward
edwards
edwige
edwin
edy
ee
eeben
eech
eeche
eechelen
eechen
eecher
eed
eedem
eee
eege
eegebeweegung
eegen
eegene
eegenen
eegener
eegenschaft
eegenschafte
eegenschaften
eegent
eegesta
eegeverlag
eelef
eeler
eelere
eeleren
eelst
eelste
eelsten
eemol
een
eendeiteg
eenegt
eenegung
eenheet
eenheete
eenheeten
eenheetesystem
eenheetlech
eens
eent
eenzeg
eenzegaarteg
eenzege
eenzegen
eenzeger
eenzegt
eenzel
eenzele
eenzelen
eenzelsta
eenzelza
eenzuel
eescheler
eescht
eesebuer
eeste
eethik
ef
effectif
effects
effekt
effektiv
effenterre
effet
effizient
efrem
eg
ega
egal
egan
ege
egg
eggar
egger
eggerth
egkeet
egkeeten
eglise
ego
egon
egypt
egypte
egypten
egypter
egyptesch
egyptesche
egyptescher
egyptian
eh
ehe
ehre
ehrenzeichen
ehrenzeichens
ei
eich
eichberg
eicher
eichhorn
eidel
eifel
eiffel
eiffeltuerm
eigentlech
eigentleche
eigentlechen
eigentlecher
eigenverlag
eight
eileen
ein
eine
einem
einen
einer
eines
einfach
einfache
einfachen
einfacher
einfacht
einfu
einige
einmal
eins
einsatz
einst
einstein
eis
eischen
eise
eisebunn
eisebunnen
eisebunner
eisebunnsbre
eisebunnsgesellschaft
eisebunnslinn
eisebunnslinnen
eisebunnsnetz
eisebunnsstreck
eisebunnsstrecken
eisem
eisen
eisena
eisenach
eisenhower
eisenstein
eiser
eiserne
eist
ek
ekberg
ekipe
ekipement
ekipp
ekippe
ekippeklassement
ekippen
ekland
ekliptik
ekman
ekologesch
ekologie
ekonomesch
ekonomesche
ekonomeschen
ekonomie
ekonomist
ekonomisten
el
ela
elaine
elam
elbaz
elbe
elder
eldo
eldoradio
eldorado
ele
eleanor
election
elections
electric
elefant
elei
elektra
elektresch
elektresche
elektreschen
elektrescher
elektrifize
elektrizite
elektro
elektromagne
elektrone
elektronen
elektronesch
elektronesche
elektronescher
elektronik
elektrotechnik
element
elementer
elena
eleng
eleonora
elephant
eleven
eley
elf
elfebeeku
elfie
elfriede
elga
eli
elia
elias
elie
elijah
elimine
elina
elio
eliot
elisa
elisabeth
elise
elissa
elite
eliteprospects
elizabeth
elke
ell
ella
elle
ellen
elleng
elles
elliot
elliott
ellips
ellipsoid
elliptesch
elliptesche
elliptescher
ellis
elma
elmaleh
elmar
elmer
elo
elorrieta
elsa
elsass
else
elsner
elst
elsy
elter
eltere
elteren
eltern
eluxemburgensia
elvey
elvinger
elvire
elvis
elyse
em
email
emanuel
emanuele
embassy
embryo
emergency
emeric
emerson
emi
emigranten
emigre
emil
emile
emilfork
emilia
emilie
emilio
emily
emir
emirater
emissioun
emissioune
emissiounen
emissiounsniwwel
emitte
emma
emmanuel
emmanuelle
emmer
emmerich
emmy
emo
emol
empereur
emperor
empfa
empfaange
empfaangen
empfang
empfindlech
empire
emploi
employe
empreinte
empty
en
enceladus
encerie
encke
encore
encourage
encouragement
encyclopaedia
encyclope
encyclopedia
end
ende
endeavour
endeemesch
endfield
endlech
ends
endstation
endung
eneco
enemy
energie
energien
energiequell
energieversuergung
energy
enfance
enfant
enfants
enfer
eng
engage
engagement
engagementer
enge
engel
engelen
engelmann
engels
engem
engen
enger
engersa
enges
engineering
engl
engla
england
englesch
englesche
engleschen
englescher
engleschsproocheg
engleschsproochege
englescht
engling
englisch
english
enigma
enk
enke
enkel
enken
enker
enki
enklav
enn
enne
ennemi
ennemis
enner
ennes
ennio
enorm
enough
enque
enrage
enregistre
enregistrement
enrica
enrico
enright
enrique
enro
ens
ensch
enseignant
enseignanten
enseigne
enseignement
ensembel
ensembelen
ensemble
entdecken
entdecker
entdeckt
entdeckte
entdeckten
entdeckung
entdeckunge
entdeckungen
entente
enter
enterprise
entertainer
entertainment
entfe
entfouert
entge
entha
enthalen
entite
entkommen
entlooss
entre
entreprener
entrepreneren
entrepreneur
entreprise
entreprisen
entreprises
entretien
entretiens
entsche
entscheeden
entscheedend
entscheedung
entscheet
entscheidung
entsprach
entspre
entspriechen
entspriechend
entspriechende
entstane
entstanen
entsteet
entstehung
entsti
entstinn
entstoe
entstoen
entstoung
entta
entwa
entwe
entweeder
entwicklung
entworf
entzu
entzunn
envers
environment
environnement
environs
envol
enzo
enzyklopa
enzyklopedie
eo
eos
ep
epen
epidemie
epilog
epimetheus
episod
episode
episoden
epoch
epoche
epochen
epoque
epos
eppelduerf
eppes
eppler
epsilon
epstein
equatioun
equator
equatorial
equatorplang
equinoxe
equipage
equipe
equipier
equivalent
er
era
eran
erasmus
erasmy
eraus
erausbruecht
erausfonnt
erausfuerderung
erausg
erausgeha
erausgeholl
erausgesicht
erausgestallt
erausgi
erausginn
erauske
erauskomm
erauskommen
erauskoum
erauskoumen
erauszefannen
erauszekommen
erba
erbe
erben
erch
ercole
erd
erda
erdachs
erdatmospha
erdbiewe
erdbiewen
erdbunn
erde
erdeg
erdegbruecht
erdeggestallt
erden
erder
erdgas
erdkuuscht
erdmagne
erdmantel
erdmass
erdmassen
erdme
erdmound
erdmoundsa
erdno
erdnoen
erdobservatioun
erdorbit
erdre
erdref
erdrotatioun
erdspha
erdstram
erduerch
erduercht
erduewerfla
erdzougedre
ere
ereegnesser
eren
erf
erfaassen
erfaasst
erfarung
erfarunge
erfarungen
erfe
erfen
erfinder
erfindung
erfindungen
erfolg
erfolleg
erfolleger
erfollegra
erfollegt
erfonnt
erft
erfuerdert
erfuersche
erfuerschen
erfuerscht
erfuerschung
erfurt
erfurth
erga
erge
erginn
ergra
ergraff
erha
erhale
erhalen
erhard
erhardt
erhe
erhuewe
erhuewen
eric
erica
erich
erickson
ericson
eridani
eridanus
erik
erika
erin
eringer
erinnerung
erinnerungen
erinnerungsorte
eriprando
eris
eritrea
eriwwer
erjeng
erkannt
erkels
erken
erkennbar
erkenne
erkennen
erkennt
erkenntnes
erkenntnesser
erker
erkla
erkst
erkste
erksten
erkt
erkung
erla
erlaabt
erlaben
erlabnes
erland
erlangen
erle
erliefnesser
erlieft
erliewen
erm
erme
ermelkanal
ermesinde
ermt
ermuerdung
ermuert
erna
ernannt
erneiert
erneierung
ernennt
ernennung
ernest
ernesto
ernie
ernierung
ernimmen
ernimmt
erno
ernst
ernster
erny
ernzer
ero
erode
eroe
erof
erofgaangen
erofgefall
erofgeholl
erofgesat
erofzelueden
eroi
erop
eropgaangen
eros
erosioun
erotesch
erpelding
err
erreeche
erreechen
erreecht
erreechte
errol
ersat
ersatz
ersche
erschoss
erschwe
ersetze
ersetzen
ersetzt
ersg
erst
erstallt
erste
ersten
erster
erstreckt
ert
ertchen
erte
erteg
erten
erter
ertert
ertes
ertner
erts
ertung
ertvoll
erueweren
eruewerer
eruewert
eruewerung
erun
eruptioun
ervir
ervirgaange
ervirgaangen
ervirgeruff
erwa
erwaarden
erwaart
erwe
erweidert
erweiderung
erweiterte
erwin
erwisen
erwuesse
erwuessene
erwuessener
erz
erza
erzbe
erzbistum
erze
erzeg
erzeng
erzengel
erzer
erzherzog
erzherzogin
erzielen
erzieler
erzielt
erzielung
erzielunge
erzielungen
es
esa
esc
escadrille
escadron
escale
escalier
escande
escapade
escape
escarpe
escaut
esch
eschduerf
esche
eschem
eschen
escher
escht
eschweiler
escorial
escriva
esel
esmond
eso
esou
esouguer
esp
espace
espagne
espan
espe
esperanto
espion
espions
espoir
espoirs
esposito
esprit
esprofesser
esprofesseren
essai
essais
essay
essayen
essayist
essays
essen
essence
essentiel
essex
essonne
est
esta
estaing
estate
este
estella
estelle
estevez
esther
estland
estrada
estre
esway
et
eta
etable
etablissement
etablissementer
etapp
etappe
etappecourse
etappegewe
etappen
etappestied
etat
etc
etchika
eternal
eternity
etgen
eth
ethan
ethel
ethiopien
ethnesch
ethnologie
etienne
etoile
etringer
ettelbre
ettelbru
ettelbruck
ettlech
ettleche
ettlechen
ettore
etu
etude
etwas
etymologesch
etymologie
etzella
eu
euch
euge
eugen
eugene
eugenia
eugenio
eulenspiegel
euler
eupen
eure
euro
eurobasket
eurocity
eurohandball
europa
europadepute
europameeschterschaft
europameeschterschaften
europaparlament
europarot
europas
europawa
europawalen
europe
european
eurovision
eurovisioun
eurozon
eusebio
eux
ev
eva
evakue
evan
evangeelesch
evangelium
evans
eve
evelyn
evelyne
even
evenement
evenementer
evening
event
events
eventuell
ever
everest
everett
everling
every
everybody
everyday
everyman
everything
evi
evidence
evil
evite
evolution
evolutioun
evp
evy
ewa
ewald
ewan
ewe
ewech
ewechgeholl
ewechgelooss
ewechgerappt
ewell
ewen
ewersauer
ewert
ewg
ewig
ewige
ewiv
ex
exakt
examen
exchange
exd
exe
executive
exekute
exekutiv
exemplaire
exemplairen
exemplare
exemple
exil
exile
exilregierung
existe
existenz
exit
exklav
exklusiv
exodus
exoplane
expansioun
expe
expeditioun
expeditiounen
experience
experiment
experimente
experimentell
experimenter
expert
experten
explode
exploitation
exploitatioun
exploite
exploration
explorer
explosion
explosioun
expo
export
exporte
expose
exposition
express
exte
extensioun
extra
extragalactic
extrait
extraordinaire
extraordinaires
extrasolar
extrasolare
extre
extreem
extrem
extreme
exupe
exzellent
exzentresch
exzentrizite
eyck
eydt
eye
eyes
eyre
eyschen
ez
ezio
f
fa
faarf
faart
faarwe
faarweg
faarwege
faarwen
faasst
faber
fabian
fabien
fabienne
fabio
fabiola
fabre
fabrice
fabricius
fabrick
fabrik
fabrikant
fabrikatioun
fabrique
fabrize
fabrizi
fabrizio
fabuleux
fabulous
fac
faccia
face
facebook
facebookgrupp
faces
fach
fache
fachen
facher
facht
fachza
facile
facility
facteur
facto
factor
factory
facts
faculte
faenza
fahne
fahrenheit
fahrt
fai
faillite
fair
fairbanks
fairchild
faire
fairy
fais
faisant
fait
faite
faites
faith
faits
fajardo
fakten
faktor
fakulte
falco
falcon
fale
falen
falk
falkenstein
fall
fallen
falling
fallize
falls
fallschierm
falsch
falsche
falschen
falscher
fame
famenne
famiglia
familia
familie
familienchronik
familiennamen
familiennamenatlas
famill
famille
famillen
familles
famillje
familljememberen
familljen
familljennimm
familljennumm
family
famous
fan
fandel
fanfan
fanfare
fanfaren
fang
fanger
fanne
fannen
fanning
fanny
fans
fansten
fantasie
fantasio
fantasma
fantasmi
fantastesch
fantastic
fantastique
fantasy
fanto
fantoni
far
faraldo
fare
farell
farewell
farge
fargo
farkas
farley
farm
farmer
farnese
faro
farr
farrar
farrell
farrow
fasc
faschismus
fascicule
faso
fassad
fassade
fassbinder
fassung
fast
faszine
fat
fata
fatal
fatale
fate
father
fatigue
fatima
fats
fatto
faubourg
faulke
fauna
faune
faure
faurez
fausse
faust
fausti
fausto
faustrecht
faut
faute
fautsch
fauves
faux
faveur
favorise
favorite
fawcett
fay
fayard
faye
fayette
fayot
faz
fbi
fc
fdp
fe
fear
feat
feature
feb
februar
february
fechten
fechter
fecture
fecunditatis
federal
federale
federation
federatioun
federatiounskrees
federico
federspiel
federspil
feel
feele
feelen
feeler
feeling
feelstart
feelt
feet
fehlen
fehmiu
feier
feierdag
feierdeeg
feiere
feiereisen
feieren
feierkrop
feierlech
feiert
feil
feiler
fein
feind
feinde
feinden
feist
feit
feld
felder
feldha
feldman
feldmarschall
feldzuch
felgen
felice
felicia
felipe
felix
feller
fellini
fellow
fellowship
felmy
fels
felten
feltes
feltgen
female
femi
femme
femmes
femmine
fen
fene
fenech
fense
fenster
fenton
fer
ferch
ferd
ferdinand
ferdinando
ferdy
ferenc
ferguson
ferien
ferjac
ferm
ferme
fern
ferna
fernand
fernande
fernandel
fernandez
fernando
fernau
fernsee
fernseefilm
fernseeserie
ferrand
ferrant
ferrantia
ferrara
ferrari
ferre
ferreira
ferrer
ferreri
ferrero
ferres
ferrie
ferro
ferron
ferroni
ferruccio
ferry
ferte
ferzetti
fescourt
fest
festa
feste
festen
fester
festgehale
festgehalen
festgeholl
festgeluecht
festgemaach
festgestallt
festival
festland
festleee
festleet
festsall
festschre
festschrift
feststellen
feststoffrake
festung
festunge
festungen
festzestellen
fetschenhaff
fett
feu
feuer
feuillade
feuille
feuilles
feuilleton
feux
fever
few
feyder
ff
ffe
ffel
ffen
ffentlech
ffentleche
ffentlechen
ffentlecher
ffentlechkeet
ffentlecht
ffentlechung
ffentlichen
ffentlichkeit
ffentlicht
ffer
fferot
fffaart
ffleng
fflenger
ffnung
ffnungen
ffslift
fft
fi
fiacre
fiance
fiat
fiba
fiche
fichier
fiction
fictionfilmer
fidani
fiddert
fide
fidel
fie
fiedem
fieder
fiedler
fiel
field
fields
fiels
fielse
fielsen
fiennes
fiermonte
fiert
fiesta
fiez
fifa
fifth
fig
figaro
figeac
figgis
fight
fighter
fighting
figli
figlia
figlio
figur
figure
figuren
fiicht
fiichte
fiichtegkeet
fiichten
fiichtgebitt
fiisschen
fiktioun
fiktiv
fil
file
files
filial
filialkierch
filialkierche
filip
filippo
fille
filles
fillie
fillt
film
filmakademie
filmcarrie
filmdramen
filme
filmediteur
filmer
filmfestival
filmfong
filmfund
filmindustrie
filmkritiker
filmmusek
filmmusekkomponisten
filmographie
filmportal
filmpra
filmproduktioun
filmproduzent
filmproduzenten
filmregisseur
filmregisseure
filmregisseuren
filmregisseurin
filmregisseurinnen
films
filmschauspiller
filmschauspillerin
filmschauspillerinnen
filmzentrale
fils
filter
fin
final
finale
finalist
finall
finance
finances
financial
financie
finanz
finanze
finanzen
finanziell
finanzielle
finanzieller
finanzministe
finanzminister
finanzministere
finanzplaz
finanzsecteur
finch
finck
find
findel
finding
finds
fine
finger
fingers
finiste
finkenzeller
finlay
finn
finnesch
finnesche
finneschen
finney
finnland
fiona
fiore
fiorentino
fir
fire
firenze
firma
firme
firmen
firmin
first
firth
firwat
fis
fisch
fischbach
fischer
fish
fishburne
fisher
fisherman
fit
fita
fitoussi
fitz
fitzgerald
fitzmaurice
fiume
five
fix
fixe
fixsta
fk
fl
fla
flaach
flaache
flaachen
flaacher
flaachland
flag
flags
flam
flame
flamen
flamma
flammang
flammarion
flamme
flamsteed
flanc
flandern
flank
flares
flash
flat
flavio
flavius
fle
flec
fleck
flecken
fledermaus
fleeg
fleegeheemer
fleesch
fleet
fleischer
fleischmann
fleming
flemyng
flener
flesch
flesh
fletcher
fleur
fleurs
fleury
fleuve
flew
flexions
flf
flh
flic
flich
flicht
flick
flickenschildt
flies
fligel
fliger
fligerdre
fligere
fligeren
flight
flillek
flilleke
flilleken
flingueurs
flint
flitt
flo
flon
floor
flora
florac
flore
florelle
florence
florent
florenz
flores
florestano
florey
florian
florida
florinda
floss
flossof
flossop
flott
flotte
flouer
flouernimm
flouernumm
flour
flow
flower
flowers
floyd
flu
fluch
fluchbunn
fluchfeld
fluchgesellschaft
fluchgesellschaften
fluchha
fluchhafe
fluchhafen
fluchkierper
flucht
fluessweiler
flut
fly
flying
flynn
fm
fn
fnel
fnla
fo
foa
foch
focus
foehr
foerster
fofze
fofzeg
fog
fohrmann
foi
foire
fois
foix
fokker
fokus
fola
folco
foley
folge
folgen
folie
folies
folk
folklor
folklore
folle
folleg
follegen
follegt
folles
follge
follgen
follgend
follgende
follgenden
follgender
follgendermoossen
follow
folscht
fonck
fonction
fonctionnaire
fonctionnement
fonctions
fonctioun
fond
fonda
fondation
fondatioun
fondatiounen
fondato
fonds
fong
foni
fonnt
fons
fonseca
font
fontaine
fontainebleau
fontaines
fontane
fontanel
fontenay
fontsize
food
fool
fools
foot
football
for
forbach
forbes
forbidden
forcalquier
force
forces
ford
forde
fore
foreign
foreman
forest
forestier
forever
forge
forges
forget
form
formal
forman
format
formation
formatioun
formatioune
formatiounen
forme
formel
formell
formen
former
formt
formule
fornax
forque
forrest
forrester
forschung
forschungsstelle
forst
forster
forstingenieur
forstverwaltung
forsyth
forsythe
fort
forte
fortell
forteresse
fortgeet
fortgelaf
fortis
fortlafen
fortress
fortschre
fortsetzung
fortuna
fortune
forty
forum
forza
fosco
fosse
fossey
fossil
foster
foto
fotoalbum
fotoapparat
fotoe
fotoen
fotograf
fotografe
fotografen
fotografesch
fotografesche
fotografie
fotografin
fotos
fotothe
fou
foucaud
foucault
fouche
fouer
fouge
fougerolles
fouls
found
foundation
four
fourmies
fourneaux
fournier
fourth
fous
fouss
foussball
foussballclibb
foussballclub
foussballla
foussballnationalekipp
foussballspiller
foussballspillerin
foussballtrainer
foussballtraineren
foussballvera
foussga
fowler
fox
foy
foyer
fr
fra
frac
fracasse
fracht
frack
frae
fraen
fraerechtlerin
frage
fragen
fragment
fragmente
fragmenter
fragments
frai
fraktioun
fraleit
frame
framed
fran
franc
franca
france
francen
frances
francesca
francesco
francey
franche
franchi
franchot
francia
francine
franciolini
franciosa
francis
francisci
francisco
franciscus
franciska
franck
franco
francois
francophone
francophones
francophonie
francs
frang
franju
frank
franke
frankel
franken
frankenheimer
frankenstein
frankera
frankeur
frankfurt
frankfurter
frankie
franklin
frankra
frankreich
franquin
frans
franse
fransous
fransouse
fransousen
frantisek
frantz
frantzen
franz
franziska
franziskaner
franzo
fraser
fratelli
fratello
frau
frauen
frauenarzt
fraunhofer
fre
frears
fred
freda
freddie
freddo
freddy
frederic
frederick
frederik
fredersdorf
fredric
free
freed
freedom
freeman
freet
fregonese
frei
freiburg
freideg
freides
freie
freiheit
freiherr
freitag
fremde
fremden
french
frend
frequenz
frequenzbera
frequenzen
fresez
freshwater
fresnay
fresnes
fresson
freud
freude
freund
freunde
freundin
frey
fribourg
fric
frick
friday
fridde
fridden
friddensgeriicht
friddensnobelpra
friddensriichter
friddensvertrag
friddlech
fried
frieda
friedemann
frieden
friederike
friedkin
friedl
friedman
friedmann
friedrich
friem
frieme
friemsprooch
friend
friends
friesland
friesse
friessen
friichte
friichten
frisch
frisco
frising
frisoni
fritsch
fritz
fro
froboess
froe
froelich
froen
froid
froide
from
fromme
front
frontie
frontier
frost
frot
frou
fru
fruchtbar
fruges
fruit
fruits
fruucht
frydtberg
fryer
ft
fte
fteg
ftege
ftegen
ftegt
ftegung
ften
fter
ftlech
ftsleit
ftsmann
ftste
ftsteller
ftstellerin
ftstellerverband
ftung
fu
fuchs
fuchsberger
fudder
fuedem
fuego
fuerbunn
fuerdert
fuerderung
fuere
fueren
fuerplang
fuerscher
fuerschung
fuerschunge
fuerschungen
fuerschungszentrum
fuest
fuetterer
fuga
fugitive
fugue
fuite
fulci
full
fuller
fume
fun
funchal
funck
fund
fundamental
fune
funeral
fung
funk
funktione
funktioun
funktioune
funktiounen
funktiounsfa
funny
fuoco
furax
furen
furet
furi
furia
furie
furneaux
furtwa
fury
fusier
fusille
fusion
fusione
fusioun
fussball
futbol
futti
futur
future
fuuss
fux
g
ga
gaalgebierg
gaang
gaange
gaangen
gaart
gaasch
gaascht
gaasperech
gaasperecher
gab
gabel
gabin
gable
gabor
gabriel
gabriela
gabriele
gabriella
gabrielle
gabrio
gabun
gaby
gad
gade
gae
gaetano
gagarin
gage
gai
gaia
gail
gaillard
gaillarde
gainsbourg
gainville
gaioni
gaius
gal
gala
galabru
galactic
galaktesch
galaktesche
galakteschen
galapagos
galaxie
galaxien
galaxies
galaxis
galaxy
gale
galerie
galerien
gales
galex
galgen
galicien
galiena
galile
galilei
galileo
galite
gall
gallagher
gallais
galland
galle
gallen
galleria
gallery
galli
gallien
gallier
gallimard
gallipoli
gallo
gallone
galva
gambia
gambit
gamblin
game
games
gamey
gamma
gammable
gammastralung
gance
gand
gander
gandhi
gandolfini
gang
gangler
gangster
gans
ganymed
ganz
ganze
ganzen
ganzer
ganzt
gap
garage
garante
garantie
garat
garbarski
garbo
garc
garce
garci
garcia
garcin
gard
garde
garden
gardenia
gardens
gardner
gardy
gare
garen
garer
garfield
gargan
gariazzo
garin
garko
garland
garnech
garner
garnett
garnier
garnisoun
garonne
garrani
garrel
garrett
garrone
garry
gars
garson
garten
garton
gary
gas
gascogne
gase
gasen
gasfe
gasmantel
gaspar
gaspard
gasperich
gasplane
gassman
gast
gastauer
gaston
gastone
gastoni
gastronomie
gate
gates
gation
gatto
gattopardo
gattung
gattungen
gaubert
gauche
gaudi
gauguin
gaul
gauleiter
gaulle
gauner
gauthier
gautier
gauß
gaven
gavin
gavras
gay
gayet
gayle
gaynor
gazzara
gb
gd
gdan
ge
gea
geaffert
geb
geba
gebai
gebaier
gebak
gebaut
gebaute
gebauten
gebe
gebidder
gebiet
gebilt
gebitt
geble
gebonne
gebonnen
gebra
gebrach
gebrannt
gebrauch
gebrauche
gebrauchen
gebraucht
gebrecht
gebu
gebueden
gebuer
gebuere
gebuert
gebuertsdag
gebuertsdatum
gebuertshaus
geburtstag
geck
geda
gedanke
gedanken
gedauert
geddes
gede
gedeck
gedeckt
gedeeft
gedeelt
gedeit
gedenken
gedenkme
gedenkplack
gedicht
gedichte
gedichter
gedoen
gedre
gedriwwe
gedriwwen
gedroe
gedroen
gedronk
geduecht
gee
geer
geerk
geescht
geeschteg
geeschter
geeschtlech
geeschtleche
geeschtlechen
geeson
geessekna
geet
gefa
gefaange
gefaangen
gefaangenschaft
gefaart
gefaasst
gefahr
gefalen
gefall
gefangene
gefe
gefeelt
gefeiert
gefesselt
gefiddert
gefier
gefierer
gefierft
gefill
gefiller
gefillt
gefilmt
gefle
geflu
geflunn
gefollegt
gefoltert
gefor
geformt
geformte
gefouert
gefriess
gefrot
gefu
gefuer
gefuerdert
gefuerscht
gegen
gegenwart
geglach
gegleeft
gegollt
gegoss
gegre
gegruewen
geha
gehaangen
gehaansbierg
gehais
gehale
gehalen
gehalt
gehandelt
gehat
gehe
geheelt
geheescht
geheien
geheim
geheimde
geheime
geheimen
geheimnis
geheimnisse
geheimnisvolle
geheit
gehen
gehier
gehn
geho
gehofft
geholl
gehollef
gehrels
gehret
geht
gehuewen
gei
geierft
geiger
geimer
geimpft
geissendo
geist
gejot
geka
gekacht
geke
gekennzeechent
gekierzt
gekillt
gekla
geklappt
geklaut
geklommen
gekoppelt
gekra
gekre
gekuckt
gel
gela
gelaf
gelagert
gelant
gelbe
gelben
geld
geldern
geldscha
geldstrof
gele
geleee
geleefeg
geleescht
geleet
gelernt
gelhausen
gelidden
geliebte
gelieft
gelies
geliwwert
gelonge
gelongen
gelooss
gelount
geluecht
geluede
gelueden
gelueft
gema
gemaach
gemaacht
gemarkung
geme
gemeinde
gemeinsam
gemeinsame
gemeinsamen
gemeinschaft
gemellt
gemeng
gemenge
gemengebezierk
gemengefusioun
gemengegrenz
gemengen
gemengenhaus
gemengenzuel
gemengepolitiker
gemengere
gemengereform
gemengerot
gemengeverwaltung
gemengewale
gemengewalen
gemengt
gemenkerhand
gemierkt
gemini
geminorum
gemma
gemoolt
gemooss
gemser
gemu
gen
gena
genannt
genannte
genannten
genauegkeet
gence
gendarme
gendarmerie
gende
gender
gene
genealogie
geneanet
genee
geneee
geneesou
genen
general
generaldirekter
generale
generalklassement
generals
generalsekreta
generalsta
generalstreik
generalversammlung
generalvikar
generation
generatioun
generatioune
generatiounen
genere
genereel
generell
generol
generolmajouer
genesis
genest
genevie
genevois
genf
gengler
genie
genina
genio
genitiv
genius
genn
gennaro
genozid
genre
genren
gens
gensac
gent
gente
gentil
gentilomo
gentleman
gentlemen
genua
genuch
genus
geo
geodesie
geodet
geodetesch
geoff
geoffrey
geograph
geographesch
geographesche
geographeschen
geographescher
geographesches
geographic
geographie
geolog
geologen
geologesch
geological
geologie
geometer
geometresch
geometrie
geophysik
geophysiker
geoportail
georg
george
georges
georgesch
georgesche
georgette
georgia
georgien
geostationa
geowe
gepa
gepackt
gepasst
geplangt
geplangte
geplangten
geplanzt
geple
geplot
gepra
geprafft
ger
gera
gerais
gerald
geraldine
gerappt
gerard
geraumt
gerd
gerda
gere
gerechent
gerecht
gerechtegkeet
gereegelt
gereest
gerett
gerges
gerhard
gerhart
gericht
geriicht
geriichter
geriichtshaff
gering
gerlache
gerlinde
germa
germain
germaine
german
germanen
germanesch
germanistik
germany
germi
germinal
gern
gero
geroch
gerode
geroden
gerpark
gerron
gerry
gers
gerson
gert
gertrud
gertrude
gerued
geruff
gervais
ges
gesa
gesammelt
gesammelte
gesamtwierk
gesang
gesank
gesat
gescha
geschaaft
geschaf
geschafft
geschah
geschat
geschaten
gesche
gescheet
geschenkt
geschicht
geschichte
geschichten
geschichtlech
geschichtleches
geschichtsfre
geschichtsmuse
geschichtsprofesser
geschichtsschreiwung
geschichtswissenschaft
geschier
geschitt
geschlecht
geschleeft
geschloe
geschloen
geschloss
geschmolt
geschonneck
geschoss
geschouch
geschriwwe
geschriwwen
geschu
geschwa
geschwat
geschwe
gese
geseent
gesellschaft
gesellschafte
gesellschaften
gesellschaftlech
gesent
gesetz
gesetzer
gesetzlech
gesetzleche
gesi
gesicht
gesiicht
gesiichtsfeld
gesinn
gesond
gesondheet
gesondheetleche
gesondheetsministe
gesondheetsminister
gesondheetsministesch
gesonge
gesongen
gesot
gespa
gespaart
gespeist
gespillt
gespillthttp
gesple
gespra
gesprach
gespre
gesprengt
gessner
gesta
gestaamt
gestach
gestallt
gestalt
gestalten
gestaltung
gestapo
gestart
geste
gesteiert
gestengs
gestengsplane
gestern
gestiermt
gestierzt
gestion
gestioun
gestohlene
gestoppt
gestorben
gestouss
gestrach
gestre
gestreet
gestuerwe
gestuerwen
gesucht
gesuergt
get
getest
getosch
getraff
getrennt
getrennte
getrueden
gets
getting
gewa
gewaart
gewalt
gewalteg
gewan
gewanne
gewannen
gewarnt
gewe
geweit
gewerbe
gewerkschaft
gewerkschaften
gewerkschaftler
gewidmet
gewielt
gewielte
gewierkt
gewiert
gewierzer
gewiescht
gewiesselt
gewiicht
gewiichthiewer
gewinnt
gewise
gewisen
gewissen
gewonne
gewonnen
gewosst
gewuer
gewuess
gewunnt
gex
geza
geze
gezeechent
gezei
gezielt
geziicht
gezillt
gezu
gezunn
gezwonge
gezwongen
ghana
ghetto
ghita
ghost
ghosts
ghul
ghz
gi
gia
giachetti
giacomo
giallo
gian
giancarlo
gianfranco
giani
gianna
giannetti
gianni
giannini
giant
gibraltar
gibson
gibt
gidder
gidderzich
gidderzuch
gide
gideon
gie
giehse
giel
gielchen
giele
gielen
gielercher
gielgud
gielzeg
gier
gies
giess
giewel
giewelsmillen
gießen
gif
gift
gig
gigi
gigli
gigolo
giischterklaus
gil
gila
gilbert
gilberto
gildo
gill
gillain
gillen
giller
gilles
gillespie
gilliam
gillian
gilliat
gilling
gillois
gilmore
gilsdref
gilson
gime
giment
gimpera
gin
gina
gindt
gine
ginette
ging
ginger
ginkgo
ginn
gino
gioco
gioi
gioia
gion
gional
gions
giordano
giorgetti
giorgi
giorgia
giorgio
giornata
giorni
giorno
giotto
giovane
giovani
giovanna
giovanni
gipi
gips
gir
gira
giraldi
girard
girardon
girardot
giraud
giraudeau
girault
girl
girls
giro
girod
girolami
gironde
girondins
girotti
gis
gise
gisela
giselle
gish
gitai
gitane
gitime
gittar
gittarist
gittaristen
gitte
gitter
giu
giudizio
giuffre
giulia
giuliano
giulietta
giulio
giungla
giuseppe
give
givet
givray
gje
gks
gl
gla
glace
glach
glacis
gladbach
gladiatore
gladiatori
gladys
glaesener
glaive
glanz
glas
glasgow
glasmalerei
glass
glat
glawe
glawen
gle
gleason
gleewen
gleich
gleis
gleiser
gleize
glement
glen
glenda
glenn
glenville
glesener
gletscher
gli
glich
gliddeg
gliese
glise
global
globale
globe
gloden
gloesener
gloire
gloria
glorie
glory
glover
glowna
glu
gluck
glynis
gm
gmbh
gnade
gne
gner
go
gobbi
gobert
goblack
god
godard
godart
godchaux
goddard
godefroid
godet
godfather
godfrey
godre
gods
goe
goebbels
goebel
goedert
goen
goerens
goergen
goes
goethe
goetz
goetzinger
goffredo
gogh
going
goire
gol
golan
gold
goldberg
goldblum
golden
goldene
goldenen
goldenes
goldie
goldman
goldmann
goldmedail
goldschmidt
goldschmit
goldsmith
goldstone
goler
golf
golfkrich
goliath
golino
golkipp
gollenstein
golsche
gomes
gomez
gon
goncourt
gondor
gone
gonner
gonnereng
gonschte
gonza
gonzalo
good
goodbye
goodman
goodyear
google
gora
gorbatschow
gordon
gore
goretta
gorge
gorilla
gorille
gorilles
goring
goscinny
goslar
goss
gosse
got
gotesch
gotesche
gotha
gothic
gott
gottes
gottesde
gottfried
gottheet
gottlieb
gottschalk
gou
gouf
goufe
goufen
gough
gould
goulding
goung
gounge
goungen
goupil
gourdon
gourguet
gourmet
gouschteng
gousseldeng
gouvernement
gouverneur
gouvy
gov
govar
government
govinda
goya
gp
gps
gr
gra
graas
grable
grabley
grabmal
grace
grad
gradsecteur
gradsecteuren
gradue
graf
grafen
graff
graffiti
grafsteng
graham
grahame
grain
gramm
grammaire
grammy
gran
granada
granass
grand
grande
grandes
grandeur
grandi
grands
granger
granges
grangier
granier
granit
granowsky
grant
granville
graphic
graphik
graphiker
grapp
grappelli
gras
grass
grasse
grasset
gratis
grau
grauman
grave
graves
graveur
gravey
gravina
gravitatioun
gravitatiounsfeld
gravitativ
gravity
gray
grayson
graz
grazia
gre
great
greater
greatest
greci
greco
gredt
greek
green
greenaway
greene
greenpeace
greenstreet
greenwich
greenwood
greer
greg
gregg
greggory
gregor
gregorianesche
gregorio
gregory
gregson
greisch
greiweldeng
gremm
grenobel
grenoble
grenz
grenzbre
grenze
grenzen
grenzt
gret
greta
grete
gretel
grethe
grethen
gretl
gretler
gretsch
grevenmacher
grey
greydon
gricius
gridcolor
griecht
grieco
grief
griem
grier
gries
griewer
griffi
griffin
griffith
griffiths
griich
griiche
griicheland
griichen
griichesch
griichesche
griicheschen
griichescher
griichescht
grillet
grimaldi
grimblat
grimm
grimpeurs
grinberg
grinde
gringo
gris
grit
gro
groben
grock
grodecki
grodin
grof
grofe
grofen
grofschaft
grofschafte
gromper
gromperen
grond
grondbese
grondhaff
grondlag
grondlage
grondleee
grondre
grondsa
grondschoul
grondstee
grondsteen
groningen
gronn
gros
grosbard
grosbusch
grospierre
gross
grosse
grosser
grosses
grossherzogliches
grossherzogtum
grossherzogtums
grosskreuzes
grosso
grote
grothum
grott
grotte
grotten
grouf
ground
group
groupe
groupement
grouss
groussbrand
groussbritannien
groussbus
groussdeel
grousse
groussem
groussen
grousser
groussgaass
groussherzog
groussherzogin
groussherzoglech
groussherzogleche
groussherzoglechen
groussherzoglecher
groussherzoglecht
groussherzogtum
groussja
groussmamm
groussmeeschter
grousspapp
groussrabbiner
groussraum
groussregioun
groussstad
groussstied
grousst
grouwen
groß
große
großen
großer
großes
großherzogtum
großherzogtums
gru
gruber
gruef
grund
grundlagen
grune
grupp
gruppe
gruppen
grus
gruyter
gsm
gt
gto
gu
guadeloupe
guard
guardia
guardian
guardino
guards
guatemala
guay
gudde
guddem
gudden
gudder
gudrun
gue
guebwiller
guedber
guer
guerilla
guerra
guerre
guerres
guerrier
guerrieri
guerrini
guerritore
guers
guest
gueule
gueules
guevara
guez
guggenheim
guglielmo
gui
guichet
guida
guide
guiden
guides
guido
guignol
guilin
guillaume
guillemins
guillermin
guillermo
guillon
guillotine
guilty
guimara
guin
guinea
guinness
guiomar
guise
guisol
guissart
guitar
guitry
gulden
gun
gundlach
gunfighter
gung
gunn
gunnar
gunnel
guns
gunter
gunther
gur
gus
gust
gustaf
gustav
gustave
gustavo
gusti
gusty
gut
gute
guten
gutenberg
guter
gutie
gutland
guts
gutt
guttenberg
guttgeheescht
guttland
gutwell
guy
guyana
guyane
guybet
guyenne
guys
guzma
gwenn
gwisdek
gwyneth
gyllenhaal
gymnase
gymnasium
gyo
gypsy
h
ha
haaaptacteuren
haack
haaf
haag
haagen
haapt
haaptacateuren
haaptacteur
haaptacteuren
haaptacteurern
haaptakteuren
haaptaktiona
haaptaltor
haaptartikel
haaptasteroidenceinture
haaptaufgab
haaptceinture
haaptceintureasteroiden
haaptdacteuren
haaptdeel
haaptduersteller
haaptentre
haaptgebai
haaptleit
haaptpersonnage
haaptquarte
haaptrei
haaptreiesta
haaptroll
haaptrollen
haaptsa
haaptsaach
haaptse
haaptspigel
haaptsta
haaptstad
haaptstadregioun
haaptstied
haaptstrooss
haapttrainer
haaptuert
haaptuertschaften
haaptvariant
haaptwierk
haaptzil
haarde
haart
haas
haass
hab
habay
habe
haben
habib
habich
habit
habitabel
habitabeler
habitable
habitabler
habitat
habsburg
habsburger
habscht
hachette
hackett
hackin
hackman
had
hades
hadir
hadley
hafe
hafen
hafestad
hafestied
haff
haffmarschall
hagen
haggard
haguet
hahn
hai
haid
haie
hainaut
haine
haines
hair
haiser
haiteg
haitege
haitegen
haiteger
haitegt
haiti
hal
halb
hale
halen
haler
haley
half
halifax
hall
halle
hallef
hallefachs
hallefbrudder
halleffinall
halleffinallen
hallefinsel
hallefnuecht
hallefreegelme
halleft
haller
hallervorden
halles
halley
halliday
hallo
halloween
hallschecht
hallschent
hallstro
hallwachs
hallwe
hallwer
hallyday
halm
halo
hals
halsdorf
halsey
halt
halte
halten
haltung
ham
hamburg
hamburger
hamel
hamer
hames
hamilius
hamill
hamilton
hamlet
hamm
hammer
hammett
hammond
hamoir
hampshire
hampton
han
hana
hanck
hancock
hand
handball
handballspiller
handballspillerhttp
handbook
handbuch
handel
handele
handelen
handelsrege
handelt
handicape
handle
handlung
handlungen
hands
handschre
handwierk
handwierker
handwierkerschoul
handwierksgeschier
handy
haneke
hang
hanin
hank
hanks
hanna
hannah
hanne
hannelore
hannen
hannendru
hannendrun
hanner
hannerenee
hannereneen
hannergrond
hannerlooss
hannert
hannes
hannescht
hannibal
hanno
hannover
hanns
hans
hansen
hanser
hansi
hansjo
hanson
happened
happiness
happy
haptacteuren
har
hara
harald
harbor
hard
hardcore
hardi
hardin
harding
hardt
hardware
hardwicke
hardy
hare
harel
harell
harem
harf
harfouch
hargitay
hari
hark
harlan
harlem
harley
harlow
harm
harmattan
harmon
harmonie
harmstorf
harnack
haro
harold
harper
harps
harrelson
harriet
harrington
harris
harrison
harry
hart
hartford
hartl
hartley
hartman
hartmann
hartmut
harvard
harvest
harvey
hary
has
hasard
haskin
hass
hassan
hasse
hasselt
hasso
hasteng
hastert
hastings
hat
hate
haten
hathaway
hatheyer
hatt
hatte
haudepin
hauer
hauff
haugk
haumea
haunted
haupert
haupt
hauptbahnhof
hauptmann
hauptstadt
haus
hausde
hause
hausemer
hauser
hausmeier
haut
hautbois
hautdesdaags
haute
hautes
hauteville
hauts
havana
havanna
have
havel
haven
havilland
havre
hawaii
hawass
hawk
hawke
hawking
hawkins
hawks
hawn
hay
hayabusa
hayakawa
hayde
hayden
haydn
haye
hayek
hayers
hayes
hayley
haynes
hayward
hayworth
hazanavicius
hazel
hb
hc
hd
he
head
health
heard
heart
hearts
heat
heath
heather
heaven
heavy
hebdo
hebra
hecht
heck
heckefra
hecken
hector
hedren
hedwig
hedy
hee
heefeg
heefegkeet
heefegst
heem
heemecht
heemechtsland
heemechtsstad
heemesch
heemlech
heemspiller
heeschbreg
heeschdref
heesche
heeschen
heescht
heesters
heffron
heflin
heft
hefteg
hehn
hei
heiansdo
heiba
heiberg
heide
heidelberg
heidelberger
heidelinde
heidemann
heidemarie
heiderscheid
heidi
heifir
height
heights
heike
heilige
heiligen
heim
heimat
heimkehr
heimweh
hein
heinen
heiner
heino
heinrich
heintje
heintz
heinz
heirate
heiraten
heisbourg
heischent
heischtergronn
heisler
heite
heiten
heizou
heiß
heiße
hektar
hel
helbig
held
helden
heldenstein
helen
helena
helene
helga
helge
heli
helikopter
helios
helium
hell
helle
helleg
hellege
hellegen
helleger
hellegkeet
hellegt
hellegtum
hellen
helleng
heller
hellers
hellewull
hellman
hellmut
hello
hellst
hellste
hellsten
helm
helminger
helmut
helmuth
help
helpe
helperknapp
helpert
helsinki
helzen
hemingway
hemispha
hemmen
hemmer
hemmings
hemstel
hemsworth
hen
henckels
henderson
hendrik
hendriks
hendrix
hendry
heng
hengen
hengescht
henker
hennicot
henning
henninger
henny
henreid
henri
henrietta
henriette
henrik
henry
henschel
hentgen
hentges
hepburn
hephaistos
her
hera
herakles
heraldik
herausgegeben
herb
herbe
herbert
herbier
herbig
herbst
hercule
hercules
herder
here
heredia
herge
heritage
herkules
herlihy
herman
hermann
hermes
hermine
herna
herno
hero
herodot
heroes
herr
herrand
herren
herrera
herrin
herrmann
herrn
herrschaft
herrscher
herschel
hershey
herstal
herta
hertha
hertz
hertzsprung
herve
hervorragender
herz
herzegowina
herzen
herzens
herzog
herzoge
herzogin
herzogtum
hesbaye
hesper
hess
hessen
hessler
heston
het
heuertz
heure
heures
heureux
heusch
heuser
heute
hevelius
hex
hexen
hexer
hey
heyart
heymann
heyne
heynemann
heywood
hg
hi
hibbs
hible
hickox
hicules
hidalgo
hidden
hide
hie
hiefbre
hiefenech
hieft
hiel
hielen
hielscher
hien
hier
hierarchie
hierber
hiergestallt
hierke
hieronymus
hierscht
hiersteller
hierstellung
hiert
hierzestellen
hiewen
higelin
higeriicht
higewisen
higgins
high
higher
highway
hilaire
hilary
hilbert
hilda
hilde
hildebrand
hildegard
hildesheim
hilfe
hilger
hilgert
hill
hillary
hiller
hills
hilpert
hilton
him
himalaya
himmel
himmelbett
himmelfaart
himmels
himmelsequator
himmelskierper
himmelskugel
himmelsmechanik
himmelsobjeten
himmelspol
hin
hinault
hind
hindenburg
hinduismus
hinne
hinnen
hinrich
hinter
hinz
hinzert
hinzerter
hip
hipparchos
hipparcos
hippert
hippodrom
hippolyte
hir
hiram
hire
hirem
hiren
hirer
hirersa
hiriichtung
hirsch
his
hisiicht
histoire
histoires
historesch
historesche
historeschen
historescher
historesches
historescht
historia
historical
historien
historiker
historikerin
historiographie
historique
historiques
historisch
historische
historischen
historischer
historisches
history
hit
hitchcock
hitler
hits
hitten
hiv
hiver
hiwa
hiweisen
hiweiser
hiweist
hiwwel
hiwwele
hiwweleg
hiwwelen
hl
hle
hlen
hler
hlich
hliche
hline
hling
hlt
hlte
hlung
hlungen
hm
hmann
hms
hn
hne
hnen
hner
hnker
ho
hobart
hobbit
hobby
hobsbawm
hobson
hoch
hochbaum
hochkant
hochschule
hochstaplerin
hochza
hochzeit
hochzeitsnacht
hockey
hodges
hodiak
hoe
hoen
hoer
hof
hofbauer
hoff
hoffman
hoffmann
hoffmeister
hoffnung
hofmann
hogan
hoger
hohe
hoheit
hohenzollern
holbrook
hold
holden
holding
hole
holger
holiday
holla
holland
hollande
holler
hollerech
hollerecher
hollerich
hollow
holloway
holly
hollywood
holm
holmes
holocaust
holst
holstein
holt
holtz
holy
holz
holzem
hombre
hombres
homburg
home
homepage
homer
homicide
hommage
homme
hommel
hommes
homo
homolka
homonymie
homosexualite
homosexuell
hond
honduras
honey
honeymoon
hong
honger
hongersnout
hongkong
honne
honnert
honnerte
honnertja
honneur
honor
honorable
honoraire
honore
honorifiques
honour
honte
hood
hook
hooker
hool
hooper
hoover
hop
hope
hopkins
hopp
hoppe
hopper
hora
horace
horatio
horizon
horizons
horizont
horizontal
horn
horne
horner
horney
horror
horrorfilm
horrorfilmer
horrors
hors
horse
horsemen
horses
horst
horta
horton
hoscheid
hoscheit
hoskins
hospice
hospital
hospitalier
hoss
hossein
hostert
hot
hotel
hotelier
hotellen
hotton
houdremont
houfelt
houffalize
hough
hound
hour
hours
housch
houschent
house
housen
houssin
houston
houten
houwald
hoven
how
howard
howe
howell
howland
hr
hre
hren
hrer
hrige
hrigen
hring
hrliche
hrsg
hrt
hrung
hs
hst
hstu
ht
htm
html
htmlhttp
http
https
hu
huart
hub
hubble
huber
hubert
hubertus
huberty
hubschmid
hudson
huel
huele
huelen
huelmes
hues
hueschtert
huet
huez
hugh
hughes
hugo
hugon
hugues
hui
huit
hulbert
huldang
hulk
hull
hulten
humaine
humaines
human
humanist
humanita
humanite
humberstone
humboldt
hume
hummer
humor
humphrey
hun
hunchereng
hund
hunde
hundert
hundred
hunebelle
hung
hunger
hungry
hunn
hunnicutt
hunt
hunter
hunters
huntgeburth
hunting
huntington
huppert
hur
hurdalek
hurra
hurricane
hurst
hurt
hury
husar
husband
hush
huss
hussein
hussey
huster
huston
hut
hutchinson
hutt
hutton
huy
huygens
hy
hyams
hybrid
hyde
hydra
hydrographie
hyer
hygie
hygiene
hyme
hymenoptera
hymn
hyperion
hypothe
hypothees
hz
i
ia
iaarbechte
iade
iain
ian
iapetus
iata
iau
ib
iba
ibau
ibeerescher
ibehalen
ibeng
iber
ibicher
ibierg
ibiza
ibn
ibrahim
ibre
ibreg
ibruecht
ibuch
ibuchauteur
ibuchauteuren
ibuchautorin
ic
icarus
ice
icehockey
ich
ichaltor
ichbar
ichda
iche
ichel
ichen
icher
icherdang
icheren
ichert
icherwierk
ichesch
ichesche
icheschen
ichescher
ichgestallt
ichgewiicht
ichheet
ichiewen
ichiro
ichland
ichlech
ichme
ichople
ichorchester
ichplateau
ichpunkt
ichschoul
ichschoulen
ichst
ichste
ichsten
ichstroum
icht
ichte
ichtefuerschungsrake
ichten
ichtendifferenz
ichtene
ichtum
ichuewen
ichung
ichunge
ichwa
ichwaasser
ichza
ici
id
ida
idaho
iddi
iddie
iddien
ide
idea
ideal
ideale
idealer
ideg
iden
idener
ideng
identesch
identification
identifize
identita
identite
ideologie
ider
idere
ideren
iderer
iderhi
iderhin
idert
idi
idiot
idisfilm
idisfilmer
idisste
idiste
idlech
ido
idol
idole
idroen
idsbeng
ie
iech
iechternach
iechternacher
ieck
ielwen
iem
ien
ier
ierbar
ierchen
ierdesche
iere
iereck
ieregkeet
ierekreeszeechen
ierel
ieremember
ieren
ierend
ierende
ierenden
ierender
ierepresident
ierepromotioun
ierer
ierfeld
ierffollegkrich
ierfgroussherzog
ierfschaft
ierga
iergare
iergelooss
iergeluecht
ierin
ierkraaft
ierlag
ierlech
ierleche
iermetaller
iermol
iermsdref
iernz
iernzen
ierpad
ierpeldeng
ierpunkt
ierpunkte
iers
iersme
ierssche
ierst
ierste
ierstull
ierswarnsche
iert
ierte
iertem
iertemandat
iertemlecherweis
ierten
ierter
iertgre
ierthe
ierthttp
ierung
ierunge
ierungen
ierungsaarbechten
ierwe
ierwen
ierze
ierzeg
iesch
iesel
iesse
iessen
iewerleng
iewescht
ieweschte
ieweschten
ieweschter
if
ifach
ifachsta
ifaltegkeet
ifaltegkeetskierch
ife
ifel
ifelkrees
ifen
ifend
ifer
ifferdeng
ifferdenger
iffra
ifmillen
ifst
ifste
ifsten
ift
ifte
iften
ifuerer
ige
igebaut
igedroen
igel
igelooss
igeluecht
igemeng
igen
igend
igende
igendeel
igenden
igeniwwer
igenzuch
igesa
igesat
igesaz
igesta
igestand
igeste
igetrueden
iggers
iglech
igleche
iglechen
iglecher
iglecherweis
iglechkeet
iglechkeete
iglechkeeten
iglechst
iglecht
iglesias
ign
ignace
ignacio
igner
igneresche
ignore
ignoti
igor
iguana
iheet
iheeten
iheetsbre
ihm
ihn
ihr
ihre
ihrem
ihren
ihrer
ii
iii
iimpuls
ije
ijem
ijen
ijer
ijoer
ijoerspunkt
ijung
ik
ike
iken
ikomm
ikommen
il
ila
ilag
iland
ile
ileg
ilen
iler
ilereng
ilias
ilja
iljen
ill
ille
illegal
illinois
illusion
illustrateur
illustration
illustrations
illustratioun
illustratioune
illustratiounen
illustre
illustrierte
ilona
ilres
ils
ilse
ilt
im
ima
image
imager
images
imagesize
imaginaire
imaging
imaurer
imbrium
imdb
ime
imech
imen
imer
imerech
imerza
imesch
imesche
imeschen
imescher
imescht
img
iminister
immaterielle
immens
immer
immigranten
immigration
immigratioun
imo
imol
impact
impakt
impe
imperial
imperium
impfung
importance
important
importe
impossible
impr
impre
imprimerie
improvise
impuls
imre
imung
imungen
in
ina
inamerika
inauguration
inauguratioun
inc
incendie
inch
incident
inconnu
inconnue
incredible
increment
ind
inde
indeg
independence
independent
indes
indesch
indesche
indeschen
indescher
index
india
indian
indiana
indianer
indians
indication
indien
indies
indique
indirekt
indische
individuell
individuelle
indochina
indoeuropa
indonesien
indovina
indre
industrialise
industrie
industriell
industrielle
industriellen
industrieller
industrien
industrieschoul
industriezon
ine
ineg
inege
inegen
ineger
inen
iner
inerei
inesch
inesche
infanterie
infascelli
infe
infektioun
inferno
infirmie
infize
inflatioun
influence
info
informatik
informatiker
information
informationen
informatioun
informatioune
informatiounen
informatiounspanneau
informe
infrabel
infrared
infraroude
infrarout
infraroutastronomie
infraroutbera
infraroutstralung
infrastruktur
infrastrukture
infrastrukturen
ing
inga
inge
ingeborg
ingen
ingenieur
ingenieuren
inger
ingmar
ingo
ingolstadt
ingrassia
ingrid
inhalt
inheet
ini
initiation
initiativ
initiative
initiativen
initie
inka
inklinatioun
inklusiv
inland
inlech
inleche
inlechen
inlecher
inlechkeet
inlechkeete
inlechkeeten
inlecht
inn
inneministe
inneminister
innen
inner
innocence
innocent
innocents
innovation
innsbruck
inoffiziell
ins
inscription
inscriptions
insecta
insee
insekten
insel
insele
inselen
inselgrupp
inselstaat
insgeschicht
inside
insolent
inspecteur
inspector
inspekter
inspiratioun
inspire
inst
instabilite
installatioun
installatioune
installatiounen
installe
instant
instanz
inste
instens
instinct
institut
institute
instituter
institution
institutions
institutioun
institutioune
institutiounen
instituto
instituts
instruction
instrument
instrumente
instrumenter
instruments
insulin
inszene
int
inte
integral
integratioun
integre
intellektuellen
intelligence
intelligent
intelligenz
intelsat
inten
intendant
inteneen
intensite
intensiv
intensive
inter
interaktiv
intercity
intercommunal
interdiction
interdisziplina
interdit
interdite
interessant
interesse
interessen
interessi
interesting
interferometer
interieur
interim
interior
interkommunal
interkommunale
interkontinentalrake
interlenghi
intern
internacional
internat
internationaalt
international
internationale
internationalem
internationalen
internationaler
internationales
internazionale
interne
internet
internetdoma
internetsa
internetsite
interplanetare
interpret
interpretatioun
interprete
interregio
intersection
interstellar
interstellare
interstellarer
intervene
intervention
interventioun
interview
interviewen
interviews
intime
intiwwer
into
intressant
intresse
intressi
introduction
intruder
inumm
inung
invalides
invasion
invasioun
invasiv
inventaire
investe
investigation
investissement
investment
invincibile
invisible
invitation
invitatioun
invite
io
iommi
ion
ionen
ionesch
ionise
ionospha
iowa
ip
ipac
ipen
iperlek
ipt
iquino
ir
ira
irak
iran
iranesch
iranesche
iras
ire
irel
ireland
irelsfinall
iren
irene
irer
iresch
iresche
ireschen
irina
iris
irish
irkutsk
irland
irm
irma
iron
ironie
irons
irre
irregula
irrel
irung
irvin
irving
irwin
is
isa
isaac
isabel
isabella
isabelle
isasi
isasmendi
isbergues
isbn
isch
ischdall
ischdref
ische
ischem
ischen
ischer
ischluecht
ischpelt
ischsproocheg
ischsproochege
ischt
ischte
ischten
ischter
ischtere
ischteren
ischterin
ischtert
ischterten
ischtref
isdre
isdref
ise
iseelbre
iseker
isen
iseng
iser
iserbann
ises
ishockey
ishockeynationalekipp
ishockeyspiller
isidore
iskuuscht
isla
islam
islamesch
islamesche
islamescher
island
islands
isle
islek
isleker
isles
ismael
iso
isola
isole
isotop
isou
israe
israeelesch
israeelesche
israel
iss
issche
isse
isseg
issege
issegen
isseger
issegkeet
issegkeeten
issegt
issel
isseler
issem
issen
issend
isseng
issenger
isser
issere
isserei
isseren
isserer
issert
isserung
issn
issrussland
isst
isste
issteklass
issten
isstendeels
isster
issue
ist
ista
istaat
istanbul
iste
istra
istrien
istrooss
istva
isung
isunge
isungsme
isungsverme
iswampech
isza
it
ital
italia
italian
italiana
italiani
italiano
italie
italieener
italieenesch
italieenesche
italieeneschen
italieenescher
italien
italo
italowestern
italter
italy
itantiquite
itche
itchen
ite
iteg
itege
itegen
iteka
itekra
itele
item
iten
itenalta
itenaltor
itenentdecker
iteng
itenger
iter
itersbuerg
itesch
itesche
itescher
itesystem
itesystemer
itfeld
itfelder
itfueren
itgene
itgeschicht
itgla
itine
itlech
itleche
itlechen
itlecher
itleefeg
itnant
itokawa
itospha
itpunkt
itra
itrag
itraim
itraum
itre
itrechnung
itrus
itruss
itrussdall
its
itsch
itsche
itschen
itscher
itschland
itschre
itschsproocheg
itschsproochege
itschsproocheger
itscht
itskala
itspan
itsprofesser
itsstad
itsstied
itste
itstens
itstheorie
itunes
itwe
itweileg
itweis
itzeien
itzenplitz
iung
iunge
iungen
iv
iva
ivan
ive
ivens
ivernel
ives
ivo
ivory
ivy
iw
iwan
iwanowitsch
iwe
iweg
iwegt
iwel
iwels
iwemaacher
iwen
iweng
iwer
iwwer
iwwerall
iwwerble
iwwerdeckt
iwwerdeems
iwwerdre
iwwerdroe
iwwerdroen
iwwereg
iwweregens
iwwerenee
iwwereneeste
iwwerfa
iwwerfall
iwwerfamill
iwwerfle
iwwerfouert
iwwergaangen
iwwergang
iwwergank
iwwergeet
iwwerginn
iwwergoen
iwwerhaapt
iwwerhe
iwwerholl
iwwerhuele
iwwerhuelen
iwwerlagert
iwwerleee
iwwerleeungen
iwwerlieft
iwwerliewe
iwwerliewen
iwwerliwwert
iwwerliwwerung
iwwerlooss
iwwerloossen
iwwerme
iwwerpre
iwwerraschend
iwwerrascht
iwwerreecht
iwwerrescht
iwwerreschter
iwwerris
iwwersat
iwwerschafft
iwwerschratt
iwwerschre
iwwerschwemmt
iwwerschwemmungen
iwwerse
iwwersetzer
iwwersetzung
iwwersetzungen
iwwersiicht
iwwerstanen
iwwert
iwwertraff
iwwerwaachen
iwwerwaacht
iwwerwaachung
iwwerwannen
iwwerzeegen
iwwerzeegt
iwwerzeegung
iwwerzunn
iwwreg
iwwregens
ix
ixelles
iz
iza
ize
izeg
izeger
izegung
izen
izer
izerdaul
izetrieden
izgank
izkapell
izt
izuel
izung
izuucht
izwee
izzuch
j
ja
jack
jackal
jackie
jackman
jackpot
jackson
jacky
jacob
jacobi
jacobs
jacobsen
jacobsson
jacobus
jacoby
jacopo
jacqueline
jacques
jacquot
jade
jae
jaeckin
jaenicke
jagd
jagger
jaglom
jagt
jaguar
jahn
jahr
jahrbuch
jahre
jahren
jahrhundert
jahrhunderts
jaime
jake
jakob
jakobiner
jakobswee
jalabert
jamaica
jamaika
jamais
jambes
james
jamie
jan
jana
jancso
jane
janeiro
janet
janette
jang
jangli
janice
janine
janis
jannings
jans
jansen
jansky
janson
janssen
januar
january
janus
janvier
jany
jaoui
jap
japan
japaner
japanesch
japanesche
japaneschen
japanescher
japanese
jaque
jar
jardin
jardinier
jardins
jared
jarmusch
jaroslawl
jarrott
jasmine
jason
jaune
java
javier
jaxa
jay
jayet
jayne
jazz
jazzmuseker
je
jean
jeanette
jeanine
jeanmaire
jeanne
jeannette
jeannot
jeans
jedem
jeder
jee
jeee
jeeweileg
jeeweilege
jeeweilegen
jeeweileger
jeeweils
jeff
jefferson
jeffrey
jeffries
jeitz
jekyll
jemen
jemp
jempy
jena
jeng
jenkins
jennifer
jennings
jenny
jens
jenseits
jensen
jeremiah
jeremy
jeroen
jerome
jerry
jersey
jerusalem
jerzy
jess
jesse
jessica
jessie
jessua
jesu
jesuitt
jesuitte
jesuittekierch
jesuittekolle
jesuitten
jesuittenuerden
jesuittepater
jesus
jet
jets
jett
jetzt
jeu
jeudi
jeune
jeuner
jeunes
jeunesse
jeunet
jeux
jewish
jewison
jg
jh
jhemp
ji
jiddereen
jiddesch
jiddesche
jiddeschen
jiddescher
jiddwer
jiddweree
jiddwereen
jiddwerengem
jill
jim
jimi
jimmy
jo
joa
joachim
joan
joanna
joanne
joannes
joannon
joaqui
joaquim
joaquin
job
jobert
jocelyn
jochen
jock
jodie
joe
joel
joer
joerdausend
joergang
joerhonnert
joerhonnerte
joerhonnerten
joers
joerze
joey
joffe
joffer
joh
johan
johann
johanna
johannes
johannesburg
johanns
johansson
john
johnny
johns
johnson
johnston
johny
johr
joie
joint
joli
jolie
jolivet
joly
jon
jonas
jonathan
jones
jong
jonge
jongelyce
jongen
jongfra
jongle
jonk
jonke
jonken
jonker
jonkt
jonny
jonques
joop
jor
jordan
jordanien
jordi
jore
jorelaang
joren
joresdag
joresza
joreszuel
jorge
joris
jory
jos
jose
josef
josep
joseph
josephine
josephson
josephus
josette
josh
joshua
josiane
josipovici
joss
josseline
jost
josy
jouan
jouanneau
joue
joueur
jour
jourdan
journal
journalismus
journalist
journalisten
journalistes
journalistin
journe
journey
jours
jousef
jousefskierch
jouvet
jouy
jovovich
joy
joyce
joyeuse
joyeux
jozef
jpeg
jpg
jpl
jr
ju
juan
jubila
judas
judd
judde
judden
juddentum
jude
juden
judge
judgment
judi
judiciaire
judith
judoka
judt
judy
juegd
juego
juge
jugement
jugend
jugendbuch
jugendherberg
jugendherbergen
jugendlechen
jugendlecher
jugendstil
jugert
jugnot
jugo
jugoslawesch
jugoslawesche
jugoslawien
juhnke
juif
juifs
juillet
juin
juive
jul
jules
juli
julia
julian
juliana
julianesche
julianne
julie
julien
julienne
juliet
juliette
julio
julius
july
jumelage
jumelagen
jumele
jump
jun
junck
juncker
june
jung
jungblut
junge
jungels
jungen
jungfrau
jungle
junglinster
juni
junie
junior
junioren
juniors
junius
junkers
juno
jupiter
jupitermassen
jupitermound
jupitermounden
jura
jurado
juraj
juran
jurassic
jure
juri
jurist
juristen
juristesch
juristesche
juristin
jury
jus
jusqu
just
juste
justice
justify
justin
justine
justiz
justizkra
justizminister
justizministere
justus
jutta
jutzi
juventus
k
ka
kaaft
kaalber
kaalmes
kaart
kaarte
kaarten
kaas
kabarettist
kabel
kabes
kabinn
kach
kachen
kachke
kaczyn
kad
kadaster
kader
kaf
kafe
kafen
kaffi
kafka
kahla
kahn
kahnt
kai
kairo
kaiser
kaiserin
kaiserslautern
kal
kale
kalenner
kaler
kalfon
kalifornien
kaliningrad
kalium
kallek
kalleksteen
kallisto
kaluga
kam
kama
kambodscha
kame
kamen
kamera
kameraden
kameraen
kamerama
kameramann
kamerun
kaminka
kammermusek
kamp
kampers
kampf
kan
kana
kanada
kanadesch
kanadesche
kanadeschen
kanadescher
kanadier
kanal
kanalisatioun
kanalise
kanaresch
kand
kandheet
kandidat
kandidate
kandidaten
kandidatur
kandide
kandinsky
kandskand
kane
kanech
kann
kanner
kannerbicher
kannerbuch
kannt
kanoun
kanoune
kanounen
kansas
kant
kantat
kantate
kantaten
kanton
kantonalreform
kantone
kantonen
kanut
kanzler
kap
kapazite
kapell
kapelle
kapellen
kapita
kapital
kapitalismus
kapitel
kapitulatioun
kapitule
kaplan
kaploun
kapp
kappa
kappgare
kapps
kaprisky
kapsel
kapstad
kapteyn
kapuzinertheater
kar
karate
kardineel
kardinol
karel
karen
karenina
karibik
karier
kariger
karikatur
karikaturen
karikaturist
karim
karin
karina
karl
karlheinz
karloff
karlowa
karls
karlson
karlspra
karlsruhe
karma
karneval
karol
karolenger
karolina
karoline
karpaten
karria
karriere
karsten
karte
karthago
kartheiser
kartograph
kartographie
karyo
kasa
kasachstan
kaschmir
kascht
kasdan
kasematte
kasematten
kasemattentheater
kaspar
kass
kassel
kassovitz
kast
kastilien
kat
kata
katalog
kataloge
katalogen
katalogise
katalounien
katar
katastroph
katastrophen
kate
kategorie
kategorien
katharina
katharine
kathedral
katherine
kathleen
katholicken
katholische
katholizismus
kathoulesch
kathoulesche
kathouleschen
kathoulescher
kathrin
kathryn
kathy
katia
katie
katja
katrin
katt
katy
katz
katzin
kauffman
kauffmann
kaufman
kaufmann
kaukasus
kaum
kauneref
kaurisma
kautebaach
kauthen
kavallerie
kaviar
kay
kaye
kayl
kayser
kaz
kazan
kazen
kb
kbit
ke
kea
keach
kean
keanu
keaton
keck
kee
keefe
keefer
keeft
keel
keeler
keelt
keen
keenan
keep
keeser
keesere
keeserin
keeserlech
keeserra
keespelt
kehlmann
keiffer
keigel
keighley
kein
keine
keinen
keir
keira
keitel
keith
kellaway
keller
kellerman
kelly
kelten
keltesch
keltesche
kelteschen
kelvin
kemerowo
kemp
ken
kendall
keng
kengem
kenger
kenia
kenne
kennedy
kennegele
kennen
kenneth
kennt
kenntnesser
kenny
kennzeeche
kennzeechen
kent
kentucky
kepler
ker
keramik
kerg
kerger
kern
kerr
kerry
kersch
kershner
kervine
kerwin
kessel
kessler
kette
kettel
ketten
ketter
ketti
ketty
keup
kev
kevelaer
kevin
kew
key
keyboard
keyes
keys
kg
khan
khm
khz
ki
kiberlain
kiche
kichegeschier
kichen
kid
kidder
kidman
kidnapped
kids
kiefer
kieffer
kiel
kielen
kieling
kiem
kiemen
kiepenheuer
kiepura
kier
kierch
kierchbierg
kierche
kierchefabre
kierchefe
kierchemusek
kierchen
kiercherot
kierchesche
kierchlech
kierchtuerm
kierfecht
kierfechter
kiermes
kieron
kierper
kierperbau
kierperlech
kies
kiesel
kiew
kiischpelt
kill
killed
killer
killers
killing
killy
kilmer
kilo
kilogramm
kilometer
kilometersteen
kim
kimmins
kin
kind
kinder
kinepolis
king
kingdom
kings
kingsley
kinnear
kinnek
kinneke
kinneken
kinneklech
kinnekleche
kinneklechen
kinneklecher
kinnekra
kinnekshaus
kinnen
kinnigin
kino
kinoen
kinos
kinosfilm
kinosfilmer
kinsch
kinski
kiosk
kirby
kirch
kirchberg
kirche
kirchen
kirchhoff
kirchner
kirgisistan
kirk
kirkland
kirow
kirpach
kirps
kirsanoff
kirsch
kirsten
kiss
kisses
kitchen
kitt
kitty
kitzmiller
kjellin
kk
kla
klack
klacke
klackege
klacken
klackentuerm
klak
klameren
klammen
klang
klapisch
klappen
klarinett
klass
klasse
klassement
klassementer
klassen
klassesch
klassesche
klasseschen
klassescher
klassifikatioun
klassifize
klassik
klassiker
klauen
klaus
klausju
klavier
kle
klecker
klee
kleeder
klees
kleeschen
kleider
klein
kleine
kleinen
kleiner
kleines
kleist
kleng
klengasien
klengbetten
klenge
klengem
klengen
klenger
klengplane
klengst
klengste
klengsten
klengt
klensch
kleopatra
kleriker
klerus
klett
klierf
klierfer
klima
klimovsky
kline
klingenberg
klinger
klingler
klinick
klo
kloer
klopp
kloster
klouschter
kluge
km
kmec
kn
kna
knaff
knapp
knapphouschent
knapps
knaur
kne
knef
kneip
knepper
knew
kniet
knight
knightley
knights
knock
knokke
knopf
knossos
knoteck
know
knowles
knox
knuedler
knuet
knupp
knuth
ko
koalitioun
koalitiounskricher
koalitiounsregierung
koblenz
kobler
kobs
koch
kock
kockelscheier
kockelscheuer
kockisch
koczian
koenig
koerich
koffer
kohl
kohn
kohnen
kohner
kohoutek
kokain
kolbach
koler
kollaboratioun
kollaps
kolldehoff
kolle
kolleeg
kolleege
kolleegen
kollektioun
kollektiv
kollektive
kollektiver
kollide
kollisioun
kolonie
kolonien
kolonn
kolpech
koltz
kolumbien
kolumbus
koma
kombinatioun
kombine
kome
komesch
komi
komiker
komm
komma
kommandant
kommande
kommando
komme
kommen
kommentar
kommente
kommerziell
kommerzielle
kommerziellen
kommissa
kommissar
kommissioun
kommitee
kommt
kommunikatioun
kommunismus
kommunisten
kommunistesch
kommunistesche
kommunistescher
kommunize
komo
kompakt
kompanie
kompass
kompense
kompetenz
kompetenzen
kompetitioun
kompetitiounen
kompilatioun
kompilatiounen
komplett
komplette
kompletten
kompletter
komplex
komplize
komplott
kompone
komponent
komponente
komponenten
komponist
komponiste
komponisten
komponistin
kompositioun
kompositioune
kompositiounen
komprime
komprome
konditioun
konditioune
konditiounen
konen
konfederatioun
konferenz
konferenzen
konfessioun
konfiguratioun
konfirme
konflikt
konflikter
konfronte
kong
kongo
kongregatioun
kongress
kongreß
konjunktioun
konkreet
konkurrent
konkurrenz
konnt
konnte
konnten
konrad
konsbruck
konscht
konschtgeschicht
konschthistoriker
konschtschafenden
konschtschra
konschtwierk
konschtwierker
konsdref
konsekre
konsequent
konsequenz
konsequenze
konsequenzen
konservativ
konservative
konservativer
konserve
konsonant
konstant
konstantin
konstantinopel
konstanz
konstellatioun
konstem
konstitutionell
konstrue
konstruktioun
konstruktiounen
konsul
konsulat
konsum
kontakt
kontakter
konter
konteste
kontext
kontinent
kontinenter
kontinue
kontrabass
kontrakt
kontrast
kontributioun
kontroll
kontrolle
kontrovers
konvektioun
konventioun
konvikt
konzentratioun
konzentratiounslager
konzentre
konzentresch
konzept
konzepter
konzeptioun
konzern
konzert
konzessioun
konzil
konzipe
koob
kooperatioun
kooperativ
koordinate
koordinaten
koordinatesystem
koordinatesystemer
koordinatioun
koordine
kope
kopenhagen
kopernikus
kopf
kopie
koplescht
kopp
koppe
koppel
koppelen
koppen
koppes
kopplung
koproduktioun
koran
korber
korda
kore
korea
koreakrich
korinth
korona
korrekt
korrektur
korrespondent
korrespondenz
korrige
korruptioun
korsika
kortner
kos
koscina
koseng
kosmesch
kosmescher
kosmodrom
kosmologie
kosmonaut
kosmonaute
kosmos
kosovo
koster
kostroma
kostu
kotcheff
kotteng
kou
koum
koume
koumen
koup
kourou
kova
kovacs
kowa
kowalski
kowalsky
kox
kp
kpl
kra
kraaft
kraaftme
krabbe
krack
kraemer
kraft
krahl
kraider
krakau
krako
krallen
kramer
kramp
krank
kranke
krankheet
krankheeten
krantz
krasnodar
krasnojarsk
krater
kraterbuedem
kratere
krateren
kraterrand
kratzenberg
kraus
krause
krauss
krautmaart
krawczyk
krazy
kre
kreatioun
krecke
kree
krees
kreesbunn
kreesen
kreesfe
kreesfra
kreesser
kreest
kreis
kreisler
kremart
kremer
kremlin
kreta
kretschmann
kreutz
kreuz
kreuzer
kreysler
krich
kricher
krichsfilm
krichsfilmer
krichsmonument
krichsmonumenter
krichssche
krieg
krieger
krieps
krier
kriibs
krim
krimi
kriminalfilm
kriminalfilmer
kriminalite
kriminalroman
kriminalromaner
krippel
krippler
kris
krise
krista
kristall
kristel
kristen
kristin
kristina
kristofferson
kritesch
kriticke
kriticken
kritik
kritiker
kritische
kritise
kritt
kro
kroatesch
kroatien
kroll
krombach
krone
kronos
kroun
krounpre
kru
krug
kruger
krut
krute
kruten
kruuchten
kryovulkanismus
krypta
krzysztof
ku
kuba
kubanesch
kubanesche
kubikmeter
kubitschek
kuborn
kubrick
kuch
kuck
kucke
kucken
kuckeswa
kuckt
kuddel
kueb
kuel
kuelebierg
kuelegrouwen
kuelen
kuelendioxid
kuelestoff
kuelewaasserstoffer
kuer
kuerf
kuerz
kuerzbiographie
kuerze
kuerzem
kuerzen
kuerzer
kuerzfilm
kuerzfilmer
kuerzform
kuerzfristeg
kuerzgeschicht
kuerzgeschichten
kuerzza
kugel
kugelfe
kugelsta
kugelstadt
kugener
kuhn
kuiper
kuiperceinture
kulenkampff
kulik
kull
kulminatioun
kult
kultive
kultur
kulture
kulturell
kulturelle
kulturellen
kultureller
kulturen
kulturfabrik
kulturgeschichte
kulturhaaptstad
kulturhaus
kulturierwen
kulturlandschaft
kulturministe
kulturminister
kulturzenter
kulturzentrum
kultus
kummer
kunigunde
kunnert
kunst
kuppel
kurfu
kurgan
kurie
kurs
kursk
kurt
kurth
kurys
kurz
kurze
kusin
kutsch
kutschen
kutter
kuurne
kuuscht
kuwait
kuß
kv
kw
kwan
ky
kyle
kyoto
kz
l
la
laach
laage
laang
laange
laangegronn
laangem
laangen
laanger
laangfilm
laangfilmer
laangfristeg
laangja
laangt
laangza
laanscht
laanschtflich
laanschtfluch
labastide
labber
label
labo
labor
laboratoire
laboratory
labour
labourdette
labourier
labro
labyrinth
lac
lacaille
lach
lachaise
lachen
lachman
lacht
lacombe
lacourt
lacroix
lacus
ladd
laden
ladies
ladislao
lado
ladri
ladro
lady
laeis
laetitia
laf
lafayette
lafe
lafen
lafend
laffin
laffont
lafitte
lafont
lafore
lafza
lag
laga
lage
lager
lago
lagrange
lahn
lahr
lahti
lahure
lai
laisse
laisser
lait
lake
lalande
lalleng
lam
lama
lamac
lamadelaine
lamarr
lamas
lamb
lambda
lambert
lamberto
lamberty
lamboray
lamesch
lamont
lamort
lamotte
lamour
lamoureux
lampech
lampertsbierg
lampin
lamprecht
lamy
lan
lana
lanaye
lancaster
lance
land
landa
landau
lande
landekapsel
landen
landeplaz
lander
landers
landes
landesmeeschter
landesmeeschteren
landesmeeschterschaft
landesmeeschterschaften
landesobservatoire
landesond
landesplanung
landesverband
landeswa
landewyck
landfla
landgrebe
landi
landing
landis
landkaart
landkrees
landkreesser
lando
landry
landscape
landschaft
landschaften
landshut
landtag
landung
landwirtschaft
landwirtschaftlech
landwirtschaftleche
lane
lanfield
lang
langdon
lange
langella
langen
langers
langes
langini
langres
language
langue
languedoc
langues
lanie
lanka
lann
lannen
lannenallee
lanners
lannes
lannoy
lanoux
lansbury
lant
lanter
lanvin
lanza
lanzarote
laon
laos
laplace
lar
lara
laraine
laramie
larceny
large
largo
larie
larochette
laroque
larquey
larrieu
larry
lars
larsen
lary
las
lascombes
laser
laslo
lass
lassander
lasse
lassen
lassie
last
lat
lata
late
later
latimore
latin
latour
latte
lattuada
lauden
laughing
laughton
launch
launder
laura
laure
laureat
laureate
laureaten
laurel
lauren
laurence
laurent
laurenti
laurentius
laurie
lausanne
lausbubengeschichten
lauschteren
lauschterspill
laut
lauter
lauterbach
lauterbuer
lautner
laux
lav
lava
laval
lavanant
lavant
lavase
laven
lavi
laviron
law
lawford
lawless
lawrence
lay
laye
layer
layout
lazaga
lazare
lazure
lazzaro
laß
lb
lc
lcgb
ld
lder
le
lea
leachman
lead
leader
leaf
league
lean
leander
leandro
lear
learning
leave
lebe
lebeau
leben
lebens
leberecht
leblanc
lebon
leboursier
lebrun
lebt
lebten
lec
lech
lecle
leclerc
leconte
lection
lections
lectrique
lecture
lectureship
leda
leder
lederer
lederman
ledoux
ledoyen
leduc
lee
leed
leeden
leeder
leeds
leedung
leee
leefer
leefilm
leeft
leem
lees
leesch
leescht
leeschten
leeschtung
leeschtunge
leeschtungen
leeschtungsfa
leesfilm
leesserie
leet
lefaur
lefe
lefebvre
lefort
lefranc
left
leg
legacy
legal
legend
legenda
legende
legenden
legge
leggenda
legilux
legion
legislativ
legitime
legrand
lehmann
lehners
lehrer
lei
leibelt
leica
leideleng
leidelenger
leiden
leidenschaft
leider
leie
leien
leif
leigh
leighton
leiner
leipnitz
leipzig
leipziger
leise
leisen
leit
leitenberger
leitner
lejeune
lellgen
lellouche
lelouch
lemaire
lemercier
lemke
lemmon
lemmy
lemoine
lemonnier
lemovicensis
lemy
len
lena
lenert
lenertz
leni
lenin
leningrad
lenneng
lennon
lenoir
lens
lentz
leny
lenz
lenzi
leo
leon
leonard
leonardo
leonardy
leone
leonhard
leoni
leonid
leonis
leonora
leonviola
leopard
leopold
leopoldo
leos
lepage
leprince
lequotidien
ler
lerin
lerner
leroy
les
lesaffre
lesch
lescht
leschte
leschten
leschter
lescure
lesley
leslie
lesse
lessentiel
lestat
leste
lester
let
leterrier
leti
leto
letsch
letter
letters
lettland
lettre
lettres
letzebuerg
letzebuerger
letzeburg
letzeburger
letzte
letzten
leu
leuck
leudelange
leur
leurs
leute
leuwerik
leve
level
levi
leviathan
levin
levinson
levy
lew
lewin
lewis
lex
lexicon
lexikon
ley
leyder
leysen
lez
lf
lfa
lfe
lg
lgs
lgv
lh
lhermitte
li
lia
liaison
liaisons
liam
lian
liana
liane
liar
liard
lias
libanon
libe
liber
libera
liberal
liberale
liberalen
liberaler
liberation
liberatioun
liberia
libert
liberta
liberte
liberty
libraire
librairie
libramont
library
libratioun
libre
libretto
libri
libyen
licence
lich
licht
licie
licien
licite
lick
lidd
lidder
lidderme
lidderschreiwer
lie
lieb
liebe
lieben
liebeneiner
lieber
liebesbriefe
liebeserkla
liebig
liebling
liebt
liechtenstein
lied
lieder
liedtke
lieft
liefza
liegt
lien
liens
lier
lies
liesch
liese
liesen
lieser
liest
lieu
lieutenant
lieux
lieven
liewe
lieweg
liewen
liewensdauer
liewenslaf
liewensme
liewensraum
liewensweis
liewenswierk
liewensza
liewewiesen
liez
life
lifetime
lift
liga
light
lightgrey
lightning
lights
ligne
ligny
ligue
liicht
liichtathlet
liichtathletik
liichtathletin
liichte
liichten
liichtjoer
liichtkra
liichtkraaft
liichtkraaftklass
liichtschwaach
liichtschwaache
liichtsta
liichttuerm
liichtvitess
like
lil
lila
lilas
lili
lilian
liliana
liliane
lilienthal
lilla
lille
lilli
lillian
lilly
lily
lima
limbourg
limburg
limit
limite
limited
limits
limitt
limoges
limousin
limpach
limpertsberg
limur
lin
lina
linceul
lincoln
linda
lindblom
linden
lindfors
lindon
lindsay
line
linear
lines
lingen
linguist
linguistik
linguistique
link
linke
linken
linkin
linklater
links
linn
linne
linnen
lino
linster
linus
linux
linz
lio
lion
lionel
lionello
lions
lioret
liotta
lipezk
lippmann
lique
liquide
lire
lis
lisa
lisabeth
lisbon
lise
liselotte
lisi
lisieux
lissabon
list
liste
liszt
lit
litauen
litauesch
litauesche
lite
liter
literaresch
literaresche
literareschen
literarescht
literatur
literaturconcours
literature
literaturkritiker
literaturnobelpra
literaturpra
literaturwe
literaturzentrum
lites
lithium
lithograph
litte
little
littrow
liturgie
litvak
liu
liv
live
liverpool
lives
living
livio
livre
livres
liwwere
liwweren
liwwert
lix
liz
liza
lizabeth
lizenz
lizzani
lizzi
lj
lker
lkerbond
lkerung
lkerungsdicht
lkerungszuel
lkerwanderung
ll
llchen
lle
llech
llechstrooss
llef
llefe
llefen
llefsme
llefsorganisatiounen
lleft
lleg
llege
llegen
lleger
llegt
llem
llementer
llen
llene
llenen
llener
ller
llerdall
lles
llewellyn
lloyd
llstand
llt
llte
llung
ln
lner
lo
lobo
local
locale
locarno
loch
lock
locke
locker
lockhart
lockheed
lockwood
loder
lodge
lodie
lodrom
loe
loen
loft
loftdrock
loftfaart
loftsche
loftwaff
log
logan
loge
logelin
logement
loggia
logik
logo
lohmeyer
lohner
loi
loin
loir
loire
loiret
lois
lokal
lokale
lokalen
lokaler
lokalhistoriker
lokalisatioun
lokalise
lokalpolitiker
lokalza
lokomotiv
lokomotive
lokomotiven
lola
lolita
lollobrigida
lom
loma
lombard
lombardei
lombardia
lommel
lon
loncar
london
londoner
londres
lone
lonely
long
longest
longo
longue
longwy
loni
lonkech
lons
lonsdale
look
looking
loos
loose
loosse
loossen
lope
lopes
lopez
lora
lorang
lord
lords
lorella
loren
lorent
lorente
lorenz
lorenzo
lorenzon
loretta
lori
lorient
lorna
lorrain
lorraine
lorre
lors
lorsque
lorys
los
losch
loscourse
loscourssen
losey
losfuerer
lospist
lospisten
lossport
lossportler
lossportlerin
losstrecke
lost
lot
lothaire
lothar
lothringen
lotte
lotti
lou
loubignac
louch
louche
louchen
louis
louise
louisiana
loup
loups
lourdes
lous
loutrengen
loutsch
louvain
louvigny
louvre
love
loved
lovejoy
lovell
lovelock
lovely
lover
lovers
loves
loving
low
lowe
lowell
lowitz
lowski
loy
loze
lp
lpl
lq
ls
lsap
lscher
lschlecherweis
lschung
lsemann
lt
ltd
lteg
lter
lteren
ltnes
ltnesme
ltnesser
lu
lualdi
luanda
lubin
lubitsch
lublin
luc
luca
lucas
luce
luchini
luchino
luchon
luci
lucia
luciana
luciano
lucidi
lucie
lucien
lucile
lucille
lucio
lucius
luck
lucky
lucre
lucrezia
lucy
lude
ludivine
ludmila
ludmilla
ludovic
ludovico
ludwig
ludwigshafen
luerenzweiler
lues
luft
lufthansa
lugano
lugosi
luguet
lui
luigi
luis
luisa
luise
luja
lukas
luke
lukschy
lull
lulli
lulling
lulu
lumet
lumie
lumumba
luna
lunar
lund
lundi
lune
lunga
lunghi
lupi
lupin
lupino
lupo
lupp
lupus
lure
lus
lust
lustigen
lutetia
lutgen
luther
lutte
lutz
luucht
luuchten
lux
luxair
luxe
luxemb
luxembourg
luxembourgeois
luxembourgeoise
luxembourgeoises
luxemburg
luxemburgensia
luxemburgensis
luxemburger
luxemburgia
luxemburgische
luxemburgischen
luxemburgischer
luxemburgs
luxexpo
luxfilmfest
luxroots
luxtram
luxus
luxusbuerg
luz
luzern
lvl
lvovsky
lw
lwen
lwer
lwere
lwermedail
lwerwolz
lx
lxc
ly
lyce
lydia
lydie
lyle
lyman
lynch
lynche
lynchen
lyndon
lyne
lynley
lynn
lynne
lynx
lyon
lyra
lyrae
lyrik
lyriker
lys
lyse
lz
lze
lzen
lzer
lzt
m
ma
maache
maachen
maacher
maar
maark
maarnech
maart
maartel
maarten
maartplaz
maas
maastricht
mabel
mabuse
mac
macao
macarthur
macau
macbeth
maccione
macdonald
macdowell
macgraw
mach
macha
machado
machen
machiavelli
machine
machines
macht
maciste
mack
mackendrick
mackenzie
maclaine
macmillan
macmurray
macrae
mad
madagaskar
madam
madame
madamm
maddalena
madden
made
madeira
madeleine
madeline
mademoiselle
madge
madigan
madison
madness
mado
madon
madonna
madre
madrid
madsen
mady
mae
maele
maes
maestro
maetzig
maffei
mafia
mag
magali
magazin
magazine
magda
magdalena
magdeburg
mage
magee
magellan
magellanesch
magellanescher
maggie
maggiore
maggy
magic
magie
magier
magimel
maginot
magique
magister
magistrat
magistraten
magma
magnani
magne
magnesium
magni
magnifica
magnificent
magnifico
magnifique
magnitude
magnum
magnus
magny
maguire
mahler
mahoney
mai
maid
maiden
maigret
mail
mailand
maillan
maillot
main
maine
mains
maintenon
mainz
maire
maires
mairesse
mairie
mais
maisch
maison
maisonnet
maisons
maisy
maj
maja
majano
majerus
majeste
majesty
majeur
major
majoris
majorita
majorite
majouer
make
makeba
makedonesch
makedonien
makes
making
maksutov
mal
mala
maladie
malakoff
malasomma
malatesta
malavoy
malawi
malaysia
malcolm
malden
maldiven
male
maledetto
maler
malet
maley
malfatti
malget
malgre
malheurs
mali
malick
malik
malin
malkovich
mall
mallarme
malle
mallorca
malmedy
malmo
malo
malone
malou
malraux
malta
mam
mama
maman
mambo
mamende
mamer
mameranus
mamerdall
mamie
mamm
mamma
mammekierper
mammesprooch
mammesproochler
mamoulian
man
management
manager
mancha
manche
manchester
manchu
mancini
mancuso
mandat
mandater
mandela
manderen
manderscheid
mandrin
mandy
mane
manet
manfred
manfredi
manga
mangaka
mangano
mangen
mangold
manhattan
mani
manie
manifest
manifestatioun
manifestatioune
manifestatiounen
manifeste
manila
manitoba
mankiewicz
manktem
mann
mannequin
mannequins
manner
mannerja
mannes
mannheim
manni
mannschaft
mannst
mano
manoel
manon
manou
mans
mansfeld
mansfield
manson
mantegna
mantel
manternach
manu
manual
manuel
manuela
manuell
manufaktur
manuscript
manuskript
many
manœuvres
mao
map
mapping
mapquest
maquette
maquis
mar
mara
marais
maraldi
marat
marathon
marber
marboeuf
marbot
marbre
marburg
marbœuf
marc
marcation
marceau
marcel
marcella
marcelle
marcellini
marcello
march
marchal
marchand
marchat
marche
marchent
marcia
marcilly
marcinelle
marck
marco
marconi
marcos
marcus
marcy
mard
mardi
mare
marek
marenbach
mareuil
margaret
margareta
margarete
margaretha
margarethe
margarita
marge
margherita
margheriti
margit
margo
margolin
margot
margret
margue
marguenat
marguerite
mari
maria
mariage
mariages
marian
mariangela
marianna
marianne
mariano
marie
mariella
marielle
mariendall
marienkalender
mariette
marigny
marika
marilu
marilyn
marin
marina
marine
marineesescher
mariner
marines
marinn
marino
mario
marion
maris
marisa
marischka
mariti
maritime
maritimes
marito
marius
marivaux
marjorie
mark
markant
marke
marken
market
marketing
markiewicz
markt
marktheidenfeld
markus
marle
marleen
marlen
marlene
marley
marlon
marlowe
marly
marmande
marmer
marne
marokko
maroldt
marquand
marquard
marque
marques
marquis
marquise
marriage
married
marry
mars
marsan
marsch
marschall
marsche
marsden
marseillaise
marseille
marsh
marsha
marshal
marshall
marskrater
marson
marsuewerfla
mart
marta
marte
martel
marteling
martell
marten
martens
marth
martha
marthe
marti
martial
martin
martina
martine
martinelli
martinez
martini
martinique
martino
martins
marton
marty
maruschka
marvel
marvin
marx
marxismus
mary
maryland
marzi
mas
mascha
maschera
maschinn
maschinne
maschinnebau
maschinnen
maselli
mashiro
masina
mask
maske
mason
masque
mass
massachusetts
massacre
massacro
massaker
massakre
massard
massari
masse
massen
massende
massera
massey
massi
massif
massimo
massiv
massive
masson
mast
master
masters
mastrocinque
mastroianni
mat
mata
mataarbecht
mataarbechter
mataarbechterin
matalon
matar
matarazzo
matbruecht
match
matcher
mate
matenee
mateneen
mater
material
materialien
materiell
maternite
matgedeelt
matgegre
matgeholl
matgemaach
matgeschafft
matgespillt
matgewierkt
matgre
math
mathbb
mathe
mathematesch
mathematesche
mathematik
mathematiker
mathews
mathias
mathieu
mathilda
mathilde
mathis
mathot
mathrm
matie
matin
matins
matique
matiques
matmaachen
matricule
matrimonio
matrix
matrosen
matt
matteo
matter
matterhorn
matterstock
mattes
mattha
matthau
matthes
matthew
matthews
matthias
matthieu
matti
mattia
matto
mattoli
mattsson
mature
matz
matzemaachen
matzen
mauban
maubeuge
maud
mauer
mauere
maueren
maul
maule
maulesmillen
mauna
maunder
maupassant
maur
maura
maureen
maurer
maurey
mauri
mauriac
maurice
maurienne
maurier
mauritius
maurizio
mauro
maury
maus
mausoleum
mauvais
max
maxi
maxim
maxima
maximal
maximaler
maxime
maximilian
maximin
maximum
maximus
maxwell
may
maya
mayans
mayen
mayenne
mayer
mayerhofer
mayerling
maynard
mayne
mayniel
mayo
mayor
mayring
mayrisch
mazedonien
mazursky
mb
mbau
mbenannt
mbre
mbruecht
mc
mcavoy
mcbain
mccallum
mccarey
mccarthy
mcclure
mcconaughey
mccormack
mccoy
mccrea
mcdonald
mcdonnell
mcdowall
mcdowell
mcenery
mceveety
mcgann
mcgill
mcgoohan
mcgovern
mcgowan
mcgrath
mcgregor
mcguckian
mcguire
mcintire
mckay
mckellen
mckenna
mckenzie
mclaglen
mclaughlin
mcleod
mcnally
mcnamara
mcqueen
mcshane
md
mdre
me
mean
meaux
mec
mecanicien
mech
mechanesch
mechanik
mechanismus
mechanissem
mechelen
mecht
mecklenburg
med
medail
medailen
medailespigel
medaillon
medak
medal
medea
medeiros
meder
medernach
medezin
medezinesch
medezinner
media
mediart
mediathe
medici
medicine
medico
medie
medien
medikamenter
medina
medinger
medium
medizin
medusa
mee
meechtem
meedche
meedchen
meedercher
meedercherslyce
meeker
meenung
meer
meescht
meeschte
meeschten
meeschtens
meeschter
meeschterschaft
meeschterschaften
meesebuerg
meet
meeting
meets
meg
mega
mehlen
mehr
mei
meier
meilleur
meilleure
mein
meine
meinen
meiner
meines
meinrad
meintz
meisch
meisel
meister
mel
melanie
melato
melbourne
melchior
meldung
meleng
melenger
melina
melinda
melissa
melki
mell
mellt
melodie
melodien
melody
melun
melusina
melvil
melville
melvin
melvyn
member
membere
memberen
memberla
memberschaft
memberstaat
memberstaate
memberstaaten
membre
membres
memoire
memoiren
memoirs
memorandum
memorial
memoriam
memories
memory
memphis
men
menace
menager
menahem
mende
mendes
mendoza
mene
menehould
menez
meng
mengen
mengt
menjou
menn
mens
mensch
menschen
mensonge
menster
ment
mentaire
mentalite
menti
mentine
mention
mentioun
mentor
ments
menu
menzel
menzies
mer
merad
mercader
mercadier
mercanti
mercanton
mercator
mercedes
merchant
merci
mercier
merckx
mercouri
mercure
mercury
mercy
meredith
merenda
meret
mergen
mergenthaler
meridian
merino
merjai
merkel
merkur
merle
merli
merlin
merlini
merowenger
merrill
merry
mersch
merschen
mertens
mertert
mertzig
merveilleuse
merveilleux
mervyn
mery
meryl
merzig
mes
mesch
mesche
mesdames
mesnier
mesnil
mesopotamien
mess
message
messe
messemer
messenger
messer
messier
messieurs
messina
mestral
mesure
mesuren
mesures
mesz
met
meta
metal
metalgruppen
metall
metalle
metaller
metallica
meteor
meteore
meteoren
meteorit
meteoritte
meteoritten
meteorologesch
meteorologie
meteorstre
meteorstroum
meter
methan
method
methode
methoden
metro
metropol
metropolesch
metropolis
metropolitan
metropolregioun
mett
mettlach
metz
metze
metzer
metzerlach
metzger
metzgete
metzler
meudon
meunier
meurisse
meurs
meurt
meurthe
meurtre
meurtrier
meuse
mexico
mexikanesch
mexikanesche
mexiko
meyen
meyendorff
meyer
meyerinck
meyers
meysel
mez
mezzo
mezzogiorno
mfaasst
mfang
mfangra
mfank
mfeld
mfonnt
mg
mgang
mgangssproochlech
mge
mgea
mgebaut
mgedeeft
mgedre
mgeke
mgenannt
mgesat
mgesidelt
mgewandelt
mgewielt
mgi
mginn
mgm
mgoen
mgr
mhz
mi
mia
miami
mich
michae
michael
michail
michailowitsch
michal
michaux
miche
michel
michelangelo
michele
micheline
michell
michelle
michels
michely
michigan
mick
mickey
microsoft
middle
midi
midler
midnight
midsummer
mie
miedernach
miei
miel
mier
mieren
mierer
mieresspigel
mierkt
miersch
mierscher
miesdref
miessung
miessunge
miessungen
mieux
mifune
mig
mighty
mignon
migrations
migratioun
miguel
mika
mikae
mikael
mike
mikhail
mikis
miklo
mikosch
mikrometer
mil
mila
milady
milan
milano
mildred
mile
milena
miles
milestone
milet
milia
milian
milie
milieu
milita
militaire
militaires
military
milius
miliz
mill
milla
milland
millau
mille
millebaach
millen
millennium
miller
milliard
milliarde
milliarden
milliards
millie
millimeter
million
milliona
millionen
millionendieb
millions
millioun
millioune
milliounen
millon
millowitsch
mills
milly
milmeister
milne
milo
milos
milou
milton
milva
mimas
mimi
mimieux
mimmo
mimsy
min
mina
minaire
minas
mind
minden
mindestens
mine
miner
mineral
mineraler
mineralogie
minerva
minervois
mines
minett
minettsge
minettstram
mineur
mineurs
ming
minghella
minh
mini
miniatur
minie
minier
minimal
minimum
minin
minine
miniserie
ministe
minister
ministere
ministeren
ministerpresident
ministerrot
ministesch
ministre
minnelli
minnen
minnesota
minnie
mino
minoesch
minor
minorite
minos
minotaur
minuit
minute
minuten
minutes
minutt
minutte
minutten
mio
miou
mique
miquette
mir
mira
mirabeau
miracle
miracles
mirage
miranda
mirande
mire
mireille
miriam
mirko
miro
miroir
mirren
mirror
mis
misa
misch
mischa
mische
mischen
mise
miss
missa
misse
missen
missile
missing
mission
missiona
missione
missions
missioun
missioune
missiounen
missiounsverlaf
mississippi
missouri
misst
misste
missten
mister
mistral
mistress
mit
mitchell
mitchum
mitock
mitrani
mittal
mitte
mittelalter
mittelalters
mitternacht
mitterrand
mittler
mitzi
miwwelen
mix
mixte
mizrahi
mizuki
mk
mkomm
mkrees
mkreese
mkreesen
mkreest
mkreesung
ml
mlaf
mlafbunn
mlafbunne
mlafbunnen
mlafza
mlech
mm
mme
mmeg
mmel
mmelsmarsch
mmen
mmer
mmere
mmeren
mmerhin
mmerin
mmert
mmerung
mmt
mmte
mmten
mmter
mmung
mmunge
mmungen
mmungsberechtegt
mn
mnha
mo
moati
mob
mobil
mobile
mobiliar
mobilier
mobilise
mobilite
mobutu
moby
mocky
mocratique
mod
modalite
mode
model
modell
modelle
modeller
models
modena
moderator
moderatorin
modere
modern
moderna
moderne
modernen
moderner
modernes
modernise
modernt
modert
modification
modifie
modifize
modine
modo
modul
module
modus
moe
moes
mogherini
moglie
moguy
mohamed
mohammed
mohr
moi
moien
moies
moin
moine
moins
moira
moire
moires
mois
mol
molander
moldawien
mole
moleku
molen
moler
molerei
molereien
molerin
molie
molina
molinaro
molitor
molkerei
moll
molly
molnar
moment
momentan
momenter
moments
mompech
mon
mona
monaca
monaco
monarch
monarchen
monarchie
monca
monceau
mond
monde
mondes
mondiale
mondo
mondorf
mondy
mone
monet
money
monfort
mongenast
mongolei
monica
monicelli
monie
monika
monique
monk
monkey
monlaur
monnaie
monnerech
monnet
monni
monoceros
monocle
monographie
monographien
monolith
monroe
mons
monsieur
monster
monsters
monstre
mont
montage
montagnani
montagnards
montagne
montaigu
montalban
montaldo
montana
montand
montargis
montauban
montazel
montbe
monte
montel
montenegro
monterey
montero
montes
montesano
montesquieu
montevideo
montez
montezuma
montfaucon
montfort
montgomery
month
monthly
monti
montiel
montigny
montluc
montmartre
montme
montmorency
montparnasse
montpellier
montre
montreal
montreuil
montreux
montrond
monts
montserrat
montsoreau
monty
monument
monumental
monumenter
monuments
monza
moon
moonlight
moonraker
moore
moorehead
moosmann
mooss
moosse
moosseenheet
moosseenheeten
moossen
moossinstrumenter
moossname
moossnamen
moossstaf
mora
moral
morale
morales
moralesch
moran
morante
morbihan
mord
mordillat
more
moreau
morel
morell
morelli
morena
moreno
moresnet
moretti
morgan
morgen
morgue
mori
morial
moriarty
morin
morire
moris
moritz
morlay
morley
morn
mornay
morning
moro
morphologie
morris
morrison
morrow
morse
mort
morta
mortagne
mortal
morte
mortensen
mortier
morto
morton
morts
morvan
mosaicker
mosaik
mosambik
mosar
mosbacher
moschee
moschettieri
moschin
moscow
mosel
mosellanes
moselle
moser
moses
moshe
moskau
moskauer
moslemen
mosquito
moss
mosse
most
mostri
mostro
moszkowicz
mot
motel
mother
motion
motiv
motive
motiver
moto
motor
motore
motoren
motorise
mots
motte
mottet
motto
mou
moud
moulder
moulin
moulins
mouloudji
mound
moundda
mounde
mounden
moundkaart
moundkrater
moundlandung
moundmierer
moundre
moundsa
moundsond
moundsonden
mounduewerfla
mount
mountain
mountains
mourir
mouse
mousel
mousquetaires
moussa
mousset
mousson
moussy
mouth
mouton
mouvement
mouvements
mouzon
move
movement
movie
movies
moving
moxey
moyen
moyenne
moyse
mozart
mp
mpc
mpec
mpel
mpf
mpfe
mpfen
mpfer
mpft
mpfung
mpla
mpt
mr
mrd
mro
mrs
ms
msaz
msc
msetzung
msoss
msou
msta
mstridden
mt
mte
mten
mter
mtlech
mtliche
mtv
mu
much
mudam
muecht
mueller
muer
muerd
mueres
muerte
muhammad
muir
mujer
mulhouse
mullen
mullendorff
muller
mulligan
mulot
multi
multimedia
multiple
mumm
mummy
mun
munchen
mundart
mundo
muni
munich
municipal
municipale
munitioun
munka
munnech
munneche
munnechmol
munnere
munneref
muno
munro
munster
munzen
muore
mur
murat
murcia
murder
murders
muret
muriel
murmansk
murnau
murphy
murray
murs
mus
musante
muse
museeuw
musek
museker
musekerin
museksgrupp
museksgruppen
musekspedagog
museksproduzent
museksschoul
museksvideo
musel
museldall
museldepartement
musen
museo
museu
museum
music
musica
musical
musicale
musiciens
musik
musikalesch
musikalesche
musikaleschen
musikanten
musique
musketeers
muss
musse
mussen
musset
mussolini
must
muster
mutfert
muti
mutiny
mutsch
mutter
muttergottes
muttergottesstatu
mutz
muxeneder
muß
mw
mwelt
mweltministe
mweltschutz
my
myanmar
myers
mykene
mykenesch
mykenescher
myle
mylius
myriam
myrna
myste
mysterie
mysterious
mystery
mythe
mythen
mythologie
mythos
mywort
mzebre
mzefannen
mzesetzen
n
na
naacp
nac
nach
nacher
nachmann
nachrichten
nachruf
nacht
nachts
nachwort
nacional
nada
nadar
nade
nader
nadia
nadine
nadja
naff
nagasaki
nage
nagel
nagement
nagisa
nagy
nahe
nai
naish
naissance
naked
nal
name
named
namen
names
namibia
namibien
namouer
namur
nan
nana
nancy
nando
nanni
nanny
nanterre
nantes
nantua
nanzeg
naomi
napier
napole
napoleon
napoleonsgaart
napoli
narbonne
nard
narizzano
narr
nas
nasa
nascht
naschy
nash
nashville
nassau
nastassja
nat
natale
natalia
natalie
natascha
natasha
natation
nathalie
nathan
nathaniel
natierlech
natierleche
natierlechen
natierlecher
nation
nationaalt
national
nationalarchiv
nationalbibliothe
nationaldivisioun
nationale
nationalekipp
nationalem
nationalen
nationaler
nationales
nationalfeierdag
nationalhymn
nationalismus
nationalistesch
nationalite
nationalkongress
nationalmannschaft
nationalmonument
nationalmuse
nationalpark
nationalparken
nationalsozialismus
nationalsozialisten
nationalspiller
nationalstrooss
nationalstroossen
nationalversammlung
nationaux
nations
natioun
natioune
natiounen
nato
natrium
natur
natura
natural
naturalistes
naturbe
nature
naturel
naturelle
naturelles
naturfuerscher
naturgeschicht
naturmuse
naturpark
naturschutz
naturschutzgebidder
naturschutzgebitt
naturwe
natzweiler
nau
nauer
naumann
naval
navarone
navarra
navarre
navarro
navigation
navigatioun
navy
nawell
naxos
nazaire
nazareth
nazarro
nazi
nazida
nazie
nazien
nazionale
nazz
nazzari
nberg
nbo
nch
nche
nchen
nchener
nchez
nchhausen
nchner
ncia
ncipe
nd
ndchen
nde
ndel
ndele
ndelen
ndels
nden
nder
ndet
ndez
ndgens
ndig
ndige
ndin
ndlech
ndleche
ndlecher
ndler
ndnes
ndnis
ndor
ndorff
ndschaft
ndschaftsmatch
ndung
ne
nea
neagle
neal
neame
neapel
near
nebbou
nebel
nebraska
nebula
nebulae
neburg
necker
ned
nederland
nee
need
needham
neel
neen
nees
neesantre
neeson
negativ
negativen
neger
negra
negri
negro
negulesco
nei
neibau
neiduerf
neie
neien
neier
neierde
neige
neigegre
neiguinea
neil
neill
neilson
neime
neimillen
neimound
nein
neioplo
neipperg
neipuertsgaass
neise
neist
neit
neits
neiwalen
neiza
nel
nell
nella
nelle
nelligan
nello
nelly
nelson
nemark
nement
nemes
nen
nenne
nennen
nennenswa
nennt
neo
nepal
nepomuk
neptun
neptune
ner
nera
neri
nero
nerval
nes
nesch
nesche
neschen
nescher
nesle
nessuno
nest
net
netflix
neto
network
netz
netzer
netzwierk
netzwierker
neu
neubach
neue
neuen
neuens
neuer
neuerburg
neues
neuf
neufcha
neufeld
neuilly
neuman
neumann
neumu
neuss
neustadt
neutral
neutralite
neutronesta
neuve
neuville
neuvy
neuzeit
nevada
neve
never
nevers
neveu
neville
new
newald
newell
newley
newman
news
newton
next
ney
neyen
nez
nf
nfteg
nftege
ng
ngc
nge
ngeg
ngege
ngegen
ngeger
ngegkeet
ngegkeetserkla
ngegkeetskrich
ngegt
ngel
ngela
ngelzeg
ngen
ngend
nger
ngerbre
ngere
ngeren
ngerin
ngerinnen
ngert
ngerte
ngerten
ngerung
ngerzon
ngesch
ngesche
ngeschen
ngescher
ngescht
ngewald
nglech
ngleche
nglechen
nglecher
ngler
ngmol
ngnis
ngs
ngscht
ngschter
ngschtleeschtungen
ngsen
ngst
ngste
ngsten
ngstro
ngt
ngte
ngtebera
ngtegrad
ngtelaang
ngten
ngter
ngung
ngunge
ngungen
ngy
nh
nheet
nheeten
nherr
ni
nia
nibelungen
nic
nica
nicaragua
nicaud
nice
nicholas
nichols
nicholson
nicht
nichte
nichts
nick
nickels
nicky
nicloux
nico
nicol
nicola
nicolae
nicolai
nicolas
nicolaus
nicole
nicoletta
nicoletti
nidderaanwen
nidderdonwen
niddere
nidderfeelen
niddergelooss
nidderka
nidderkuer
nidderla
nidderlande
nidderlanden
nidderpallen
niddersachsen
nidderschlag
nidderwolz
niddreg
niddrege
niddregen
niddreger
niddregst
niddregsten
nie
niederanven
nieft
niehaus
niels
nielsen
niemeyer
nien
niente
nier
niess
niethammer
nieto
nietzsche
nieur
nieves
nieweba
niewebaach
niewefle
niewefloss
niewekrater
niewekrateren
niewelaanscht
niewendrun
niewent
niewepatre
nieweroll
niewerollen
nig
nigel
niger
nigeria
nigh
night
nightmare
nights
nigin
niglich
nigra
nigs
nigsberg
nigssee
nigstuhl
nijni
nik
nike
niki
nikita
niklas
niklaus
niklos
nikloskapell
nikloskierch
nikloskierfecht
nikolai
nikolajewitsch
nikolaus
nikon
nil
nile
nilga
nilles
nils
nilsson
nimax
nimm
nimoy
nin
nina
ninchi
nine
ninetto
ning
ninja
nino
nintendo
nio
niort
niro
nisch
nite
nitia
nitouche
niveau
niveauen
nivelles
niven
niwwel
niwwele
niwweleg
niwwelegen
niwwelen
nix
nixon
nk
nkbre
nke
nkel
nkelausdehnung
nkelduerchmiesser
nkelen
nkelgre
nkelofstand
nkelvitess
nken
nkesch
nkesche
nkeschen
nks
nkse
nksen
nkser
nkt
nkwaasser
nl
nland
nlech
nleche
nlechen
nlecher
nlichkeiten
nm
nn
nnche
nnchen
nndokter
nne
nnef
nnefmol
nneft
nnefte
nneften
nnefter
nneg
nnege
nnegen
nneger
nnegkeet
nnegt
nnegung
nnen
nnendre
nner
nneraarten
nnerbrach
nnerbriechung
nnerbruecht
nnercher
nnerdaach
nnerdeelt
nnerdeelung
nnerdeelungen
nnerdre
nnere
nnereck
nnereie
nnereien
nneren
nnerenee
nnereneen
nnerfamill
nnerfra
nnergaangen
nnergang
nnergank
nnergrond
nnergrupp
nnerhalen
nnerhalt
nnerholl
nnerierdesch
nnerierdesche
nnerin
nnerklass
nnerla
nnerlech
nnerleche
nnerlechen
nnerlecher
nnermatch
nnermatcher
nnerprefecture
nnerriicht
nnersauer
nnerscheed
nnerscheede
nnerscheeden
nnerscheeder
nnerscheet
nnerschiddlech
nnerschiddleche
nnerschiddlechen
nnerschiddlecher
nnerschre
nnerschreiwen
nnerschriwwe
nnerschriwwen
nnersich
nnersiche
nnersichen
nnersicht
nnerstallt
nnerste
nnersteet
nnert
nnertitel
nneruerdnung
nnerung
nnerunge
nnerungen
nnerungsplack
nnerwee
nnerwelt
nnerworf
nnerzebre
nnesch
nnesche
nneschen
nnescher
nnescht
nneschte
nneschten
nneschter
nneschtgaass
nnlech
nnleche
nnlechen
nns
nnt
nnte
nnten
nnter
nnung
nnungsgemengen
nnungsmember
nnungsmembere
nnungsmemberen
nnzweck
no
noah
noao
noba
nobel
nobelpra
noble
nobody
noces
noch
noche
nocide
nocturne
nodeel
nodeeler
nodeem
nodeems
nodre
nodrock
noe
noel
noen
noenee
noeneen
noer
noesen
nofe
nofolleg
nofollger
nofollgerin
nofro
nogekuckt
nogent
nogere
nogewise
nogewisen
noginn
nohalteg
nohaltegkeet
noi
noir
noire
noiret
noirs
nokomme
nokommen
nokrichsza
nokucken
nol
nolan
nolte
nom
nombre
nome
nomen
nomenclature
nomenklatur
nomination
nominations
nominatioun
nominatiounen
nominativ
nomine
nomme
nommesch
noms
non
none
nonn
nonne
nontron
noon
nooste
noosten
noper
nopere
noperen
noperschaft
nopeschbre
nopeschgemeng
nopeschgemenge
nopeschgemengen
nopeschla
nopeschuertschaften
noppeney
nora
norbert
nord
nordafrika
nordamerika
nordatlantik
nordda
norde
norden
nordesch
nordescher
nordeuropa
nordhallefkugel
nordirland
nordkorea
nordmazedonien
nordmier
nordost
nordoste
nordosten
nordpol
nordrhein
nordsa
nordse
nordstad
nordstreck
nordstrooss
nordwest
nordweste
nordwesten
nordwestlech
nordwestleche
nordwestlecher
noriicht
noriichten
noris
norm
norma
normal
normale
normalen
normaler
normalerweis
normalschoul
norman
normandie
normannen
norme
normen
noro
norris
norte
north
northern
northwest
norton
noruff
norwegen
norweger
norwegesch
norwegesche
norwegeschen
nos
nosbusch
nospelt
nosseck
nostra
nostri
nostro
not
notaire
notairen
notamment
notatioun
note
notes
nothing
nothomb
notice
notices
notiz
notizen
notoc
notorious
notre
notte
notten
notti
notzlaascht
notzlaaschten
notzlaaschtkapazite
notzlaaschtverkleedung
noumer
nous
nouspelt
nout
noutem
noutwendeg
noutwenneg
nouveau
nouveaux
nouvel
nouvelle
nouvelles
nov
nova
novak
novarro
nove
novel
novell
novelle
novellen
novels
november
novembre
novo
now
nowa
noweisen
nowgorod
nowhere
nowosibirsk
noyade
noyce
noyelles
nozeweisen
nr
ns
nsbech
nsber
nsch
nschdeg
nsche
nschen
nscherechter
nschheet
nschlech
nschleche
nschlechen
nschlecher
nschlecht
nscht
nschteg
nschtlech
nschtleche
nschtlechen
nschtler
nschtleresch
nschtlerin
nschtlernumm
nsdap
nse
nsefe
nsel
nsen
nssdc
nste
nster
nstere
nsteren
nstler
nt
nten
nteng
nter
nterhier
nterlech
ntgen
ntgenastronomie
ntgenstralung
ntgenteleskop
ntger
nther
ntlech
ntreng
ntwert
ntwerten
nu
nubium
nuda
nue
nuecht
nues
nuets
nuetshimmel
nugent
nuit
nuits
null
nullmeridian
number
nume
numm
nummer
nummere
nummeren
nun
nunnally
nunzio
nuovo
nur
nurenberg
nurse
nus
nussgruber
nutte
nv
ny
nyi
nylons
nymph
nyon
nyons
nytimes
nz
nzbe
nzbistum
nze
nzebierg
nzeg
nzel
nzelt
nzen
nzer
nzerin
nzerinnen
nzt
nzz
o
oak
oakie
oates
ob
obama
obe
oberbayern
obermosel
oberon
oberweis
obispo
object
objects
objektiv
objektiver
objet
objete
objeten
oblast
obligatioun
obligatoire
obligatoresch
obligatoresche
obscho
obschonn
observateur
observation
observations
observatioun
observatioune
observatiounen
observatiounsastronomie
observatoire
observatoiren
observatory
observe
obsession
obwuel
occase
occasion
occhi
occhio
occident
occitanie
oce
ocean
oceanus
och
ochs
ochsenknecht
oct
octave
octavie
october
octobre
odd
ode
odemar
oder
odessa
odette
odile
odin
odio
odonym
odor
odore
odre
odyssee
odysseus
odyssey
oedipus
oeil
oeuvre
oeuvres
of
ofbau
off
offa
offaart
offenbach
offensiv
offer
office
officer
official
officiel
officier
offize
offiziell
offizielle
offiziellen
offizieller
offiziellt
offre
ofgebaut
ofgebilt
ofgebrach
ofgebremst
ofgedankt
ofgedeckt
ofgedroen
ofgehale
ofgehalen
ofgeholl
ofgekierzt
ofgele
ofgeleent
ofgeleet
ofgeluecht
ofgerappt
ofgeruff
ofgesat
ofgeschaaft
ofgeschaf
ofgeschalt
ofgeschloss
ofgeschoss
ofgesi
ofgesinn
ofgesot
ofgespillt
ofgesple
ofgeste
ofgetrennt
ofginn
ofgrenzung
ofha
ofhe
ofkaaft
ofkierzung
ofkommes
oflaf
ofrappe
ofschafe
ofschle
ofschloss
ofschne
ofspillt
ofsta
ofstamung
ofstand
ofste
ofstig
ofstuerz
oft
oftrennung
ofwa
ofwiesselnd
og
oggi
ogier
ographie
oh
ohio
ohn
ohne
oil
ois
oise
oiseau
oiseaux
ojos
ok
okeh
okkupant
okkupatioun
oklahoma
okt
oktav
oktober
okular
okzitanesch
ol
ola
olaf
oland
olbers
olbrychski
old
olden
oldenbourg
oldenburg
oldman
oldtimer
ole
oleg
olen
olga
olin
olingen
olinger
oliveira
oliver
olivia
olivier
ollem
olly
olm
ologie
ologique
ologiques
olonne
oloron
olsen
olson
olympesch
olympesche
olympia
olympiad
olympic
olympiens
olympionik
olympioniken
olympionikin
olympique
olympus
om
omaha
oman
omar
ombra
ombre
ombres
ombudsmann
omega
omen
omer
omloop
omnibus
omsk
on
onard
onbede
onbekannt
onbekannte
onbekannten
onbekannter
onbemannt
onbemannte
once
oncle
ondra
one
onendlech
onerwaart
ones
onge
ongefe
ongerued
ongewe
ongla
ongle
onide
onie
onkel
onkloer
online
only
onme
onne
onofha
onofrio
onomastique
onore
onreegelme
onrou
onrouen
ons
onsche
onse
ont
ontario
onteniente
onvera
onvere
onze
oochen
ooops
oort
oostende
op
opa
opbau
opbauen
opdeelung
ope
opec
open
openthalt
oper
opera
operation
operatioun
operatioune
operatiounen
operazione
opere
operen
operesa
operett
operette
operetten
opernball
operste
opfa
opfaassung
opfe
opfer
opgaangen
opgebaut
opgedaucht
opgedeelt
opgefall
opgefe
opgefouert
opgefuerdert
opgegraff
opgehale
opgehalen
opgeholl
opgehuewen
opgekla
opgele
opgeluecht
opgemaach
opgepasst
opgeriicht
opgeruff
opgesat
opgeschloen
opgesple
opgestallt
opgestigen
opgetratt
opgetruede
opgetrueden
opgewuess
opgezeechent
opgezielt
opginn
opgoung
opgrond
opha
ophalen
ophe
ophile
ophiuchus
ophu
ophuele
ophuelen
ophuls
opinion
opkaaft
opkaf
opkla
opkomm
opkomme
opl
oplag
ople
oplo
oploen
opmaachen
opmierksam
opmierksamkeet
opnam
opname
opnamen
opold
oppassen
oppe
oppen
oppene
oppenen
oppener
oppenheim
oppenheimer
opportunity
oppose
oppositioun
oprecht
opriichte
opriichten
opruff
opschlag
opschre
opschwong
opschwonk
opsiicht
opsta
opstand
opstelle
opstellung
opstig
optesch
optesche
opteschen
optescher
optescht
optical
optics
optik
optiker
optimal
optime
optimisme
optioun
optrag
optre
optriede
optrieden
opus
opwa
opwand
opweisen
opweises
opweist
opzebauen
opzehalen
opzehuelen
opzele
opzemaachen
opzeriichten
opzestellen
opzetrieden
or
ora
oradour
orage
orakel
oral
orange
orangerie
oranien
oratorium
orbis
orbit
orbital
orbiter
orchester
orchestra
orchestre
orchide
orchidea
orchidee
orchideee
order
orders
ordinaire
ordonnance
ordre
ordres
ore
oregon
orenburg
oreste
orf
orfei
org
organ
organer
organesch
organesche
organisateur
organisation
organisatioun
organisatioune
organisatiounen
organise
organismen
organismus
organist
organisten
organization
orge
orgel
orgue
orgueil
orgues
orie
orient
orientale
orientales
orientation
oriente
orig
origer
origin
original
originale
originaltext
originaltitel
origine
origines
originn
originne
originnen
origins
orion
orionis
orionniwwel
orjol
orlando
orle
orleans
orly
ormond
orne
ornella
ornitholog
oro
orphe
orsay
orsini
orson
ort
ortega
orthodox
orthodoxer
orthographe
orthographie
ortiz
orval
os
osbourne
oscar
oscarszeremonie
osch
oseille
osiris
oskar
oslo
osmanesche
osnabru
osper
oss
osservatorio
ost
ostblock
oste
osten
ostende
osteuropa
ostku
ostpreisen
ostsa
osvaldo
oswald
otard
otello
otero
oth
othello
other
othon
otien
ottavia
ottawa
otto
ottokar
ou
ouaknine
oublie
ouche
oudart
ouen
ouer
oueren
ouest
ougre
oui
ouljen
ouni
our
ourdall
ouren
ours
ourthe
oury
ouschteren
out
outer
outlaw
outre
outside
ouvert
ouverte
ouverture
ouvrages
ouvrie
ov
oval
over
overlord
overrightarrow
owen
owend
owens
owes
own
oxford
oye
oz
ozean
ozeane
ozeanien
ozeray
ozon
ozores
p
pa
paar
paart
paarten
pabeier
pablo
pabst
pac
pace
pacha
pacific
pacino
packt
paco
pacte
pacula
pad
paddy
paderborn
padovani
padre
padua
pafendall
pafendaller
paganini
pagano
page
pages
paget
pagliero
pagnol
pagny
pai
paie
paige
pailhas
paille
pain
painting
paintings
pair
paire
paix
pak
pakistan
pakt
pakula
pal
palace
palacio
palacios
palais
palaisen
palance
palast
palau
palazzo
pale
palermo
palestina
palgen
palisa
pallardy
pallas
palm
palma
palmare
palme
palmen
palmer
paloma
palomar
paltrow
palud
paluzzi
pam
pamela
pampanini
pan
panama
paname
panaro
pandemie
pandora
pane
panic
panik
panique
panne
panneau
panneauen
panorama
panoramio
pantagruel
panthe
pantheon
panther
pantin
panzer
panzerdivisioun
paola
paolella
paolinelli
paolo
papa
papas
paper
paperjam
papers
papier
papillon
papp
paprika
papua
papy
paquet
par
para
parabolantenn
parade
paradies
paradis
paradise
paradiso
paraguay
parai
parallax
parallel
parameter
paranal
parapluie
parc
parcours
pardaillan
pardon
pare
paren
parent
parenti
parents
parfait
parfum
pari
paribas
parigi
parillaud
paris
pariser
parisienne
parisiennes
parisy
park
parken
parker
parkierch
parking
parkplaz
parkplaze
parkplazen
parks
parlament
parlamentaresch
parlamenter
parlamentswale
parlamentswalen
parlement
parlementaire
parliament
parlo
parma
parmi
parnassus
parodie
paroisse
paroisses
parola
parole
paroles
parolini
parquet
parra
parrish
parry
parsec
parsons
part
parte
partei
parteie
parteien
parteipresident
partement
parti
participante
participatioun
participatiounen
participe
particulie
particulier
partido
partie
partiell
partielle
partien
partikelen
partir
partner
partners
partnerschaft
partout
parts
party
parverba
parverband
parverwalter
parzela
pas
pasadena
pascal
pascale
paschte
paschtouer
paschtoueschhaus
pasetti
pasiphae
pasolini
pasquale
pass
passage
passagen
passager
passau
passe
passen
passend
passer
passerell
passerelle
passerini
passeur
passion
passione
passioun
passiv
passt
past
pasteur
pastina
pastorale
pastoralregioun
pastore
pat
patellie
patent
patente
pater
patera
patere
pateren
path
pathfinder
patient
patienten
patisson
patre
patric
patrice
patricia
patrick
patrie
patrimoine
patriot
patriote
patrioten
patrol
patron
patroni
patronym
patsy
patte
patten
patterson
pattes
patti
patton
patty
paturel
patzak
pau
pauker
paul
paula
paule
paulette
pauli
paulin
pauline
paulo
paulsen
paulus
pauly
paura
paus
pauvre
pauvres
pavan
pave
pavel
pavillon
paviot
paxton
pay
payne
pays
paysage
paz
pazifeschen
pazifik
pc
pdf
pe
peace
peak
pearce
pearl
pearson
peau
peccato
pech
peck
peckinpah
pectinatella
pedagog
pedagogesch
pedall
pedersen
pedro
peebles
peepst
peer
peeters
peffer
pegasi
pegasus
peggy
peiffer
peintre
peintres
peinture
peking
pele
pelle
pellegrin
pellegrini
pelles
peloponnes
pelz
pen
pendance
pendant
pendante
pene
penelope
penguin
penicillium
penick
penn
penne
pennsylvania
penny
penrose
pensa
pense
pension
pensionat
pensione
pensionnat
pensioun
pensis
pente
people
pepe
pepinster
peppard
peppeng
pepper
peppino
per
perche
percy
perdrie
perdu
perdue
perdus
pereira
perez
perfect
perfekt
perfektione
perfetto
performance
pergament
pergamon
perigeum
perihel
period
periode
perioden
periodesch
periodesche
periodesystem
perkins
perkussioun
perl
perle
perlman
perm
permanent
permanente
permis
pernay
pero
perpignan
perret
perrette
perrey
perrin
perrine
perry
perschy
perse
persei
perser
perserkricher
persesch
persesche
perseschen
persescher
perseus
persien
perso
person
personal
personalunioun
personnage
personnagen
personnalite
personne
personnel
personnes
persoun
persoune
persounen
persounentransport
perspectives
perspektiv
perspektiven
peru
perugia
pescatore
pesch
pescht
pesci
pest
pete
peter
peters
petersburg
petersen
peterson
petit
petite
petites
petits
petr
petra
petri
petrie
petroni
petrovic
petrovich
petrus
petula
peu
peugeot
peuple
peur
peut
peuvent
pevney
peyre
pez
pfaffenthal
pfalz
pfarrei
pfarrer
pfarrkirche
pfeiffer
pfer
pferd
pfitzmann
pfleghar
pfung
ph
pha
phane
phanie
phant
phantom
pharao
phare
phas
phase
phasen
phd
phe
phenomeen
phenomeener
phi
phil
philadelphia
philae
philharmonie
philharmonique
philibert
philip
philipe
philipp
philippart
philippe
philippine
philippinnen
philippsgaass
philips
phillip
phillips
philolog
philologie
philosoph
philosophe
philosophen
philosophesch
philosophie
philosophy
phine
pho
phobos
phoebe
phoenix
phone
photo
photographic
photographie
photography
photometrie
photonen
photos
photoshop
photospha
php
phtml
phylactolaemata
phyllis
phys
physesch
physical
physics
physik
physikalesch
physikaleschen
physiker
physiologie
physique
physiques
pi
pia
piaf
pialat
pianist
pianisten
pianistin
piano
piat
piazza
piazzi
pib
pic
pica
picard
picardie
picasso
piccoli
piccolo
pichel
pick
pickering
pico
piconrue
picot
picture
pictures
pid
pidgeon
pie
pieces
pied
pieds
piel
piemont
piemonte
pier
pierce
piero
pierotti
pierre
pierres
pierret
pierreux
pierrot
piers
pierson
piet
pieta
pieter
pietrangeli
pietro
pigalle
pigaut
pik
pike
pilar
pilcher
pile
pilger
pilgrim
pilier
pilieren
pilot
pilote
piloten
pin
pina
pinal
pine
ping
pinheiro
pink
pinkas
pino
pinocchio
pinon
pinot
pinoteau
pins
pinter
pinto
pione
pioneer
piotr
piper
pippin
pique
piquet
pir
pira
pirate
piraten
piratepartei
pirates
pirati
pire
pirmin
piron
pis
pisa
pisces
piscine
pisier
pist
piste
pisten
pistola
pistole
pit
pitagora
pital
pitie
pitre
pitt
pittoresque
pitts
pittsburgh
piu
pius
pixel
pizza
pjotr
pk
pl
pla
place
places
placido
plack
placke
plackefirma
placken
plackett
plaffong
plage
plai
plain
plaine
plains
plainte
plaisir
plakeg
plakkapp
plan
planck
planckaert
plane
planet
planetaresch
planetareschen
planetarium
planetary
planeten
planetologie
planets
plang
plangen
plangt
planitia
planning
plans
plant
plantes
planum
planz
planze
planzen
planzenaart
plaque
plaquette
plasma
plastic
plastik
plat
plata
platan
plate
plateau
platen
platin
platon
platt
platte
plattform
platz
play
playboy
player
playerdetails
playerid
players
playhouse
playing
plays
plaz
plaza
plaze
plazen
plazeweis
ple
please
pleasence
pleasure
plein
pleine
pleins
plejaden
pleshette
plessis
pletschette
pleure
plo
plon
plot
plotarea
plotdata
plou
plowright
plu
pluhar
pluie
plumelec
plummer
plural
plurimedia
plus
plusieurs
plutarch
pluto
plymouth
plz
pm
png
po
pochath
poche
poches
pocket
podalyde
podcast
podesta
podiensis
poe
poelvoorde
poems
poesie
poet
poetry
poggio
poids
poie
poil
point
pointe
points
poire
poiret
poirier
poison
poisons
poisson
poitier
poitiers
poitou
poitrenaud
poivre
poker
pol
pola
polanski
polar
polarkrees
polarsta
pole
poleis
polen
polfer
poli
police
policy
poligny
polis
politesch
politesche
politeschen
politescher
politescht
political
politics
politik
politiker
politikerin
politikwe
politique
politiques
politische
politischen
politoff
politolog
polizeiruf
polizia
polizist
polizisten
polka
pollack
pollet
pollock
polly
polnesch
polnesche
polneschen
polnescher
polo
pologne
polvermillen
poly
polydor
polynormande
polyprint
polytechnique
pomme
pommern
pompadour
pompeius
pompeji
pompelen
pompelspa
pompidou
pompiers
pompjeee
pompjeeskantonalverband
pond
pons
pont
ponte
ponto
pontoise
ponts
pony
pooh
pool
poopst
poor
poos
pop
pope
popesco
popgruppen
poplidder
popmusek
popolo
popsa
popula
populac
populaire
popular
popularite
population
populatioun
populus
poque
por
porel
port
porta
portal
portant
portante
portation
porte
porten
porter
portes
portman
porto
portra
portrait
portraite
portraiten
portraits
portugal
portugise
portugisen
portugisesch
portugisesche
portugiseschen
portugisescher
pose
poseidon
posen
position
positione
positioun
positioune
positiounen
positiounhttps
positiounswe
positiv
positive
posse
possessed
possible
post
postal
postale
postcode
poste
posten
posthum
posto
pot
poteau
potential
potentiell
potere
potsdam
potter
pottier
pouilly
poulain
poule
poulet
poupaud
poupe
pour
pouret
pourquoi
poursuite
pouvoir
poveri
powell
power
powerpuff
powers
powershot
poznan
pozzetto
pp
ppche
ppchen
ppe
ppel
ppelen
ppelkrich
ppelt
ppen
ppercher
pperdang
ppt
pr
pra
prack
pradal
prades
pradier
prado
prag
prager
prague
prairie
prairies
praktesch
praktesche
praktize
pratchett
pratique
prato
praxis
prayer
pre
prefecture
prefekt
prefektur
preis
preise
preisen
preiser
preisesch
preisesche
preiseschen
preisescher
preiss
prejudice
premie
premier
premiere
premierminister
premierministere
premierministeren
premierministesch
premiers
preminger
premio
prend
prendre
prends
prentiss
prepare
present
presentatioun
presente
presents
presenz
preside
presidence
president
presidente
presidenten
presidentewalen
presidential
presidentin
presidentschaft
presidentschaftswale
presidentschaftswalen
presle
presley
presque
press
pressburger
presse
pressecommunique
pressehe
pressekonferenz
presses
pressessioun
prestige
prestigie
preston
prete
prett
pretty
preuve
prezessioun
prezis
prezise
prezisioun
pri
price
pride
priedegtstull
prien
priest
priester
priister
prijs
prim
prima
primaire
primaten
primavera
prime
primo
primus
prince
princes
princess
princesse
princeton
principal
principe
print
printemps
prinz
prinzessin
prinzip
prinzipie
prinzipiell
prinzipien
prior
priorite
pris
priscilla
prise
prisma
prison
prisone
prisoner
prisong
prisongen
prisonnier
prisonniers
prisons
privat
privatbese
private
privaten
privater
privatleit
privatliewen
prive
prix
prize
pro
probe
proble
problem
problematik
problemer
probst
proce
procede
proceedings
procellarum
processo
prochnow
procureur
production
productions
produit
produite
produiten
produkt
produkter
produktion
produktioun
produktiounen
produktiounsgesellschaft
produze
produzent
produzente
produzenten
proess
prof
professer
professeren
professesch
professeur
professeurs
profession
professionel
professionell
professionelle
professionellen
professionnel
professionnelle
professionnels
professor
professur
profi
profil
profile
profiscarrie
profite
program
programm
programme
programmer
progre
progress
progressiv
progymnase
proibito
proietti
project
projekt
projektioun
projet
projete
projeten
projets
projeze
proklamatioun
proklame
prokofjew
prolog
prologue
promenade
promesse
prometheus
prominent
promise
promotion
promotioun
promove
propaganda
prophe
proportionell
proporz
propos
propose
propositioun
propper
proprie
proprieta
propriete
propulsion
prosa
prosper
prosperi
prost
prostitue
protagonist
prote
protection
protege
proteinnen
protektioun
protektorat
protest
protestanten
protestantesch
protestantesche
protestantismus
proteste
protester
protocol
protokoll
proton
protonen
prototyp
protour
proud
prouf
proust
prove
provelo
provenc
provence
province
provinces
provincia
provincial
provinciale
provins
provisoire
provisoresch
provisoresche
provisoreschen
provoze
proximite
prozedur
prozent
prozentsaz
prozess
prozesser
pru
pryce
pryor
ps
pse
psen
pseudo
pseudonym
psh
pskow
psr
psyche
psychesch
psychiatrie
psycho
psycholog
psychologie
pt
ptolema
ptolemaios
pu
pub
publ
public
publicain
publication
publications
publicite
publics
publie
publik
publikatioun
publikatioune
publikatiounen
publikum
publikumspra
publique
publiques
published
publishers
publishing
publize
publizist
puccini
pucelle
puer
puermol
puerto
puf
puits
pujol
pula
pulitzer
pullman
pulp
pulsar
pulsatiounsvera
pulse
pulver
punch
punesche
punk
punkt
punkte
punkteklassement
punkten
punkteverdeelung
puo
pupi
puppis
pur
purcell
purdom
pure
purple
purzer
puschkin
pussycat
putain
pute
putin
putsch
putscht
putzulu
puy
px
py
pygmalion
pyramid
pyramide
pyre
pyrena
pythia
python
pøssy
q
qatar
qu
quad
quadflieg
quadrant
quadrat
quadratkilometer
quadratmeter
quai
quaid
quaien
qualifikatioun
qualifize
qualite
qualtinger
quand
quando
quantemechanik
quantite
quantum
quaoar
quarante
quart
quartet
quartett
quartier
quartiere
quartieren
quasar
quasaren
quasi
quatre
quattro
quatuor
quayle
que
queckse
queen
queens
queensland
queesch
quel
quell
quella
quelle
quellen
quelque
quelques
quentin
quercus
quercy
query
ques
quest
questa
questi
question
questions
queue
qui
quick
quie
quiet
quignon
quijote
quimper
quincy
quine
quinn
quintett
quintus
quipe
quitte
quo
quoi
quotidien
r
ra
raab
rabal
rabbi
rabbia
rabbiner
rabelais
raben
rabenalt
rables
rac
racconti
raccordements
race
rache
rachel
racine
racing
rack
raconte
rad
radar
radarinstrumenter
radcliffe
raddatz
rademakers
radford
radial
radialvitess
radiant
radikal
radio
radioastronomie
radiosspeaker
radiosspeakeren
radiostralung
radioteleskop
radioteleskope
radioteleskopen
radiowellen
radius
radley
radot
radu
radva
rae
raf
rafael
rafelson
raffaello
raft
rag
ragazza
ragazze
ragazzi
rage
ragno
ragtime
rahl
raid
raiders
raiffeisen
rail
railway
raim
raimlech
raimondo
raimu
raimund
rain
rainbow
rainer
rains
raire
raires
raison
raisonne
rajon
rake
rakoff
ral
rald
raldine
raldique
rale
rales
ralf
ralli
rallye
ralph
ralston
ram
rama
rami
ramm
rammen
rammerech
ramo
ramon
ramos
ramp
rampli
rampling
ramsay
ramsey
ran
rance
rancho
rand
randall
randell
randolph
random
randonne
randschelt
randy
rang
range
ranger
rangers
rangle
rangwee
ranieri
rank
rankfe
ranking
ranksystem
ranlag
ranner
ransom
rant
raoul
rap
raphae
raphael
rapid
rappel
rappen
rappeneau
rapper
rapport
rapporte
raquel
rar
rard
rare
ras
rascel
raschpe
rasmussen
rasp
raspoutine
rasqui
rasquin
rass
rasse
rassimov
rassismus
rat
rate
rathaus
rathbone
raths
ratifize
ratings
ration
rations
rative
ratoff
rats
ratti
rature
rau
raub
raubde
rauch
raud
raul
rault
raum
raumfa
raumfaart
raumfaartagentur
raumfaartmissiounen
raumfaarttechnik
raumfahrer
raumfahrt
raumfluch
raumfluchkierper
raumfuerer
raumgefierer
raumsche
raumsond
raumsonde
raumsonden
raumstatioun
raus
rausch
raux
ravel
ravelin
raven
raville
ravitaillement
raw
ray
rayet
raymond
raynaud
razzia
rbiger
rchen
rcher
rd
rde
rden
rder
rderen
rdert
rderung
rdlech
rdleche
rdlechen
rdlecher
rdoba
re
rea
read
reader
reading
ready
reagan
reage
reaktioun
reaktioune
reaktiounen
real
realisatioun
realise
realistesch
realite
reality
reason
reau
rebasketballnationalekipp
rebecca
rebel
rebell
rebelle
rebellen
rebellin
rebellioun
rebierg
rebild
rebiller
receptioun
recette
recherche
recherchen
recherches
rechnen
rechnung
rechnungshaff
recht
rechte
rechter
rechtlech
rechts
rechtwe
recken
reckeng
reckinger
recklinghausen
reclam
recommande
reconnaissance
record
recordings
records
rect
recueil
red
redakter
redaktioun
rede
reden
redford
redgrave
reding
redoute
redstone
reduit
reduktioun
reduze
reecht
reechwa
reed
reederei
reef
reegel
reegele
reegelen
reegelme
reegelrecht
reegelung
reel
reen
reent
reeperbahn
rees
reese
reesen
reest
reeve
reeves
ref
reference
referendum
referenz
referenzen
referenztabellen
reflections
reflekte
reflekter
reflexioun
reflexiounsniwwel
reform
reformatioun
reformator
reforme
reformen
refractaire
refrain
refrakter
refraktioun
refuge
refuse
reg
regard
regards
rege
regen
regensburg
regent
regenwetter
reger
reggae
reggiani
regie
regierung
regierunge
regierungen
regierungsbezierk
regierungschef
regierungsmemberen
regierungspresident
regierungsrot
regime
regiment
regimm
regina
reginald
regio
region
regional
regionale
regionalen
regioun
regioune
regiounen
regisseur
regisseure
regisseuren
regisseurin
register
registre
reglement
reglemente
reglementer
regnier
regruppe
regruppement
regula
regule
regulus
rei
reich
reichenbach
reichling
reichmann
reichskanzler
reichstag
reid
reider
reie
reiefolleg
reien
reiffers
reihe
reiland
reiler
reilly
reims
rein
reina
reinbek
reincke
reine
reiner
reinert
reinhard
reinhardt
reinhold
reinl
reis
reisch
reisduerf
reise
reisen
reiser
reisz
reiter
reitman
reitz
rekaart
rekatalog
reke
reklamm
rekonstrue
rekonstruktioun
rekord
rekorder
rekoup
rekrute
rektaszensioun
rekter
rel
relais
relations
relatioun
relatioune
relatiounen
relativ
relative
relativite
reldeng
release
reler
relevant
releve
relie
relief
relieffer
religieuse
religieux
religion
relioun
relioune
reliounen
reliounskricher
reliquie
reliquien
rellys
reluctant
rem
remake
remarquables
remberg
rembrandt
remember
remerschen
remich
remick
remise
remix
remo
remorque
remy
ren
rena
renaissance
renant
renard
renate
renato
renature
renaud
renault
renberg
rence
rences
rencontre
rencontres
rend
rendement
rendez
rendezvous
rendu
rendus
rene
renekipp
renert
reng
renge
renger
renhandballnationalekipp
renhimmel
renier
rennes
rennie
reno
renoir
renomme
renovatioun
renove
renseignement
rent
rentabel
rentre
renucci
renzdall
renzi
renzo
reorganisatioun
repare
repertoire
replaz
report
reportage
reportagen
reporter
reports
repos
repre
representant
representante
representantenhaus
representatioun
representativ
represente
repressioun
reprint
reprinted
repris
reproduktioun
reproduze
reptiller
repu
repubblica
republic
republik
republikaner
republikanesch
republikanesche
repus
requiem
rer
rercher
rerscha
res
resch
resche
reschen
rescher
rescht
reschter
rescue
rese
research
reseau
reserv
reserve
reserven
reservoir
resident
residenz
resistenz
resistenzler
resnais
resolutioun
resonanz
resources
resp
respectivement
respekt
respekte
respektiv
respektive
responsabel
responsabilite
ressche
ressource
ressourcen
rest
restaurant
restauranten
restauratioun
restaure
reste
restriction
resultat
resultater
resulte
results
resume
resurrection
resystem
resystemer
ret
retard
rete
rethel
reto
retour
retraite
retrograd
retrouve
retten
rettung
retty
return
returns
reuland
reunion
reunioun
reuter
rev
revanche
reve
revenge
revide
review
reviews
revisioun
revisited
revoir
revolt
revolte
revolution
revolutiona
revolutioun
revolver
revue
rewand
rewenig
rex
rey
reyer
reykjavi
reynaud
reynolds
rez
reza
rezensioun
rezent
rezept
rf
rfcul
rfer
rfler
rfligeren
rfusioun
rg
rgb
rgen
rgens
rger
rgermeister
rgtr
rgy
rha
rham
rhapsody
rhea
rhein
rheinland
rhin
rho
rhodes
rhodos
rhonda
rhys
rhythm
rhythmus
ri
ria
riale
rian
ribeauville
ribeiro
riberolles
ribes
ric
rica
ricain
ricaine
ricardo
riccardo
ricci
riccioli
rice
rich
richard
richardot
richards
richardson
riche
richebe
richelieu
riches
richmond
richteg
richtege
richtegen
richteger
richtegt
richter
richtung
richtunge
richtungen
rick
rickman
ricky
rico
ricourt
rida
ride
rideau
rider
riders
rides
ridge
riding
ridley
rie
ried
rieden
rieder
riedmann
rieds
riefzort
riefzorten
rieger
riel
riemann
rien
rier
ries
riets
rietse
rietsen
rietser
rietspartei
rietsschoss
rieur
rieure
rieurs
rieux
rifft
rififi
riga
rigaud
rigg
righelli
right
rightarrow
rights
rignault
rigord
rigueux
riicht
riichte
riichten
riichter
rik
ril
riley
rilla
rillen
rim
rima
rimae
rimbaud
rime
rin
rina
rinaldi
rinaldo
ring
ringen
ringer
ringo
rings
rinnen
rio
rioja
riom
riot
rip
ripley
ripoux
rippweiler
rique
rire
ris
risch
rischard
rischen
rise
riseg
risege
risegen
risen
riseslalom
risesta
risi
risiko
rising
risk
riske
risques
rita
ritage
ritchey
ritchie
rite
rites
ritier
ritorno
ritt
rittau
ritter
ritz
rium
riva
rivage
rivalen
rivalite
rive
river
rivers
rives
rivette
rivie
riviera
rivolta
rix
riz
rjasan
rjendaller
rjp
rk
rl
rlech
rlitz
rm
rmann
rme
rmeg
rmege
rmegen
rmeger
rmusek
rn
rnbacher
rnberg
rnberger
rner
rns
rnstrand
rnten
ro
roach
road
roald
roanne
rob
robards
robbe
robbery
robbie
robbins
robe
robert
roberto
roberts
robertson
robespierre
robin
robinson
robison
robot
roboter
robson
roby
roc
rocca
rocco
roch
rocha
rochant
roche
rochefort
rochelle
rocher
rochette
rochus
rock
rockband
rocket
rockgruppen
rockhal
rockmuseker
rocks
rocksa
rockwell
rocky
rod
rodange
roddy
rode
rodesch
rodez
rodin
rodney
rodniki
rodolfo
rodolphe
rodri
rodrigo
rodrigues
rodriguez
roe
roeg
roehler
roemen
roemer
roen
roer
rogell
roger
rogers
rogge
rogue
rohan
rohde
rohmer
roi
rois
rojo
rokoko
rol
roland
roldano
rolf
rolfe
roll
rollan
rolland
rolle
rollen
rolleng
rollengergronn
roller
rollin
rolling
rollinger
rollingergrund
rolls
roly
rom
roma
romagna
romain
romaine
roman
romana
romance
romandie
romane
romaner
romanesch
romanesche
romano
romanowsky
romans
romantic
romantik
romanum
romanze
romanzo
romay
rome
romeo
romero
romina
rommel
romolo
romuald
romy
ron
ronald
ronaldo
ronan
rond
ronde
rondere
rondi
rondre
ronds
ronet
ronique
ronn
ronne
ronnen
ronnie
ronny
roof
room
rooney
roos
roosevelt
roots
roper
roque
roquefort
roquevert
rory
ros
rosa
rosaceae
rosalba
rosalie
rosalind
rosamund
rosamunde
rosanna
rosar
rosario
rosat
rosati
rosay
rosch
roschdy
roscoe
rose
rosel
rosemarie
rosemary
rosen
rosenberg
roserei
roses
rosetta
rosette
rosi
rosie
rosier
rosine
roskosmos
rosport
ross
rossa
rossana
rossano
rosse
rossellini
rossen
rossi
rossini
rosso
rosson
rostock
rostow
rosy
rot
rotation
rotatioun
rotatiounsachs
rotatiounsdauer
rotatiounsperiod
rotatiounsrichtung
rote
roten
roter
roth
rothemund
rothermel
rothschild
rotterdam
rotunno
rou
roubaix
rouben
roude
roudelzeg
roudem
roudemer
rouden
rouder
roue
roueg
rouen
rouer
rouffio
rouge
rouges
rough
rouleau
roulet
roulette
roum
roumecht
round
roundtree
rourke
rouse
rouspert
rousseau
roussel
roussillon
roussy
rout
route
routes
routledge
routverre
rouve
rouvel
rouvroy
roux
rover
rovere
row
rowan
rowland
rowlands
rowohlt
roy
royal
royale
royalisten
royaume
royce
royer
rozier
rper
rputsch
rr
rrez
rrwer
rs
rschoul
rspigel
rst
rste
rsten
rstenberg
rstentum
rstin
rt
rta
rte
rten
rterbuch
rth
rtha
rthersee
rtl
rtlichkeit
rtner
rts
rttemberg
rtw
rtyrer
ru
ruanda
ruben
rubens
rubin
rubini
rubinstein
rubrik
rubus
ruby
rudder
rudi
rudolf
rudolph
rudy
rue
rued
rues
ruet
ruf
ruff
ruffen
ruffy
ruft
rufus
rugby
ruggero
ruggles
ruhr
rui
ruin
ruine
ruinen
ruisseau
ruiz
rule
rules
ruma
rumelange
rumigny
rumm
run
runaway
rund
rundfahrt
rundfunk
rundstedt
rung
runge
rungen
rungsunioun
runn
runner
running
runs
runze
rupe
rupert
rupes
rupp
ruppert
rupprecht
ruprecht
rupture
rural
rurgie
rus
rush
russ
russe
russel
russell
russen
russesch
russesche
russeschen
russescher
russescht
russia
russian
russland
russo
rust
rusty
rutger
ruth
rutherford
rwe
ry
ryan
rydell
ryder
rz
rzburg
rzte
s
sa
saach
saache
saachen
saad
saar
saarbre
saarbru
saarburg
saarla
saarland
saarlouis
sabato
sabbath
sabbatini
sabina
sabine
sable
sables
sabotage
sabrina
sac
sacha
sachbuch
sachs
sachsen
sack
sacramento
sacre
sacred
sad
saddam
saddle
sade
sadie
safari
safe
safy
sag
saga
sagal
sagan
sage
sagen
sagittarii
sagittarius
sagnier
sahara
sahl
sai
said
saier
sail
saile
sailen
sailer
sailor
saint
sainte
saintes
saints
saire
sais
saison
saisonen
saisons
sait
sak
sakall
sakgaass
sakristei
saks
sal
sala
salaire
salamanca
salamander
salamis
salarie
salaud
salazar
salce
sale
salem
salentiny
salerno
sales
salinger
salins
saljut
salkow
sall
salle
salles
sally
salm
salma
salome
salomon
salon
salou
salt
salto
salue
salut
salvador
salvatore
salvatori
salz
salzburg
salzburger
salzkammergut
sam
samantha
samara
sambia
sambre
same
samedi
sami
sammelen
sammelt
sammler
sammlung
sammlungen
sammy
samoa
samos
samperi
samsa
samschdeg
samschdes
samson
samu
samuel
samurai
samy
samyn
san
sanatorium
sancho
sand
sanda
sandalefilmer
sander
sanders
sandler
sandokan
sandra
sandre
sandrelli
sandrich
sandrine
sandro
sandrock
sands
sandsteen
sandweiler
sandy
sane
sanem
sang
sangen
sanger
sangre
sangue
sanita
sankt
sanktioun
sanremo
sans
sanson
sant
santa
santana
sante
santell
santer
santiago
santis
santo
santoni
santos
sao
sapeurs
sapritch
sar
sara
sarafian
saragossa
sarah
sarajevo
sarandon
saratow
sarcelles
sardinien
sardou
sargent
sarlat
saro
sarrazin
sarrebourg
sarreguemines
sars
sart
sartana
sarthe
sartre
sascha
saskia
saslavsky
sassard
sat
satan
satb
satellit
satellite
satellites
satellitte
satellitten
satiresch
sats
saturday
saturn
saturnin
saturnmound
saturnmounden
saturnre
sauber
saud
saudiarabien
sauer
sauerbre
sauerstoff
saul
saulx
saumur
saunders
saunier
saura
saut
sautet
sauvage
sauvages
sauve
sauvetage
sauveur
savage
saval
savalas
savary
save
saved
savignac
savigny
saville
savimbi
savoie
savoir
savona
savoy
sawyer
sax
saxon
saxophon
saxophonist
saxson
say
says
saz
sb
sbd
sc
scacchi
scala
scale
scalemajor
scaleminor
scandal
scandale
scapa
scar
scaramouche
scarlet
scarlett
scarpelli
scattini
sce
sceicco
scene
sch
scha
schaack
schaaf
schaaft
schaarf
schabloun
schablounen
schach
schachere
schachgroussmeeschter
schachgroussmeeschteren
schachnotatioun
schachspill
schachspiller
schachspillerin
schacko
schaefer
schaf
schafe
schafen
schaffe
schaffen
schaffner
schafft
schafung
schall
schaltjoer
schamoni
schanen
schank
schanken
schantje
schantjen
schanz
schartz
schatten
schatz
schaul
schaus
schauspieler
schauspielhaus
schauspill
schauspiller
schauspillerei
schauspillerin
schauspillerinnen
schaz
schbech
schbuer
schdref
sche
schebuch
scheedgen
scheedhaff
scheedung
scheef
scheer
scheffer
scheiden
scheider
scheier
scheierhaff
scheif
scheiner
scheitler
schelde
scheldeprijs
schell
schema
schen
schengen
schengener
schenk
schent
schenza
schepisi
scher
scherei
schetzel
scheuer
schi
schiaffino
schiaparelli
schiava
schibbreg
schicht
schichte
schichten
schicksal
schidsriichter
schiechtl
schied
schiele
schieren
schiet
schif
schifer
schiff
schifflange
schildkraut
schileefer
schiller
schilling
schiltz
schinn
schinne
schinnen
schintgen
schirmer
schkierfecht
schla
schlaang
schlacht
schlag
schlager
schlagerparade
schlagersa
schlange
schlass
schle
schlecht
schlechte
schlechtem
schlechten
schlechter
schleck
schleef
schleefe
schlegel
schleif
schleis
schleise
schleisen
schlesien
schlesinger
schlesser
schleswig
schley
schliemann
schliisslech
schlim
schlo
schloen
schlofen
schloss
schloß
schlu
schluecht
schluechte
schluechten
schluechtfeld
schluechthaus
schluechtsche
schluss
schlusse
schlussendlech
schmaart
schmadd
schme
schmelz
schmelze
schmelzen
schmelzha
schmid
schmidt
schmit
schmitt
schmitz
schmuel
schmuele
schmuelen
schne
schnee
schneiden
schneider
schnell
schniewel
scho
schock
schockela
schockmel
schoendoerffer
schoenhals
schoepges
schoetter
schof
schold
scholden
scholer
scholl
scholtes
scholz
schon
schong
schonn
schons
school
schools
schoos
schopenhauer
schortgen
schoss
schott
schotte
schottesch
schottesche
schotteschen
schottland
schoul
schoule
schoulen
schoulgesetz
schouljoer
schoulmeeschter
schoulmeeschteren
schoulza
schouster
schra
schraasseg
schrader
schramm
schre
schrei
schreiben
schreiber
schreift
schreifweis
schreiner
schreiwe
schreiwen
schriften
schriftsteller
schro
schrobiltgen
schroeder
schroell
schroeter
schrondweiler
schroth
scht
schtdag
schte
schtebam
schteg
schten
schtennis
schtentum
schtepunkt
schter
schtlech
schtleche
schtlechen
schtlecher
schtnech
schtung
schu
schub
schubert
schueberfouer
schued
schuel
schuh
schuld
schule
schuljahres
schuller
schultheis
schultz
schultze
schulz
schulze
schumacher
schuman
schumann
schummer
schung
schuster
schutz
schverwaltung
schwa
schwaach
schwaache
schwaacher
schwaarz
schwaarze
schwaarzem
schwaarzen
schwaarzer
schwaarzt
schwabe
schwammen
schwan
schwangerschaft
schwangerschaftswoch
schwankt
schwanz
schwartz
schwarz
schwarze
schwarzen
schwarzenegger
schwarzer
schwarzkopf
schwarzschild
schwarzwald
schwe
schwede
schweden
schweedesch
schweedesche
schweedeschen
schweedescher
schweigen
schweiger
schweikart
schweitzer
schweiz
schweizer
schwemm
schwester
schwestern
schwiefel
schwiereg
schwieregkeete
schwieregkeeten
schwiers
schwoer
schygulla
sci
science
sciences
scientific
scientifique
scientifiques
scilla
scj
scob
scofield
scola
scolaire
score
scorpius
scorsese
scotese
scotland
scott
scout
scouten
scream
screen
sculpte
sculpteur
sculpteuren
sculptor
sculptrice
sculpture
scuto
sd
se
sea
sean
search
sears
seas
season
seasonid
seasontype
seaton
seattle
seau
seaux
sebaldt
sebastia
sebastian
seberg
sebes
sec
secchi
sech
secher
sechs
sechsmol
sechst
sechste
sechsten
second
secondaire
secondairesstudien
seconde
secondo
seconds
secours
secre
secret
secretary
secrets
sect
secteur
secteuren
section
security
sed
sedan
sedgwick
sedna
seds
see
seechen
seeck
seed
seee
seegelsche
seeing
seel
seelbunn
seele
seelen
seeler
seen
seet
segal
segeln
segno
segreto
sehnsucht
sehr
sei
seide
seidelman
seigner
seigneur
seigneurerie
seil
seiler
seille
seimetz
sein
seine
seinem
seinen
seiner
seines
seit
seite
seiten
seiter
seitz
sekely
sekonn
sekonne
sekonnen
sekreta
sekretariat
sekt
sektioun
sektioune
sektiounen
sekunda
sel
selander
selbst
selbsta
selbstgol
selbststa
selected
selektioun
selenographesche
self
selinger
sellars
sellers
selon
selpin
seltsame
selwecht
selwechte
selwechten
selwechter
selwer
sem
semaine
semester
semi
seminaire
semois
sempre
sen
senat
senateur
senateuren
senator
sence
senden
sender
sendung
sendungen
senegal
seng
senge
sengem
sengen
senger
sengersa
sengerza
senior
senioren
senne
sennengerbierg
sens
sense
sensei
senses
sensibilise
sensor
sensore
sensoren
sent
senta
sentation
sente
sentier
sentimental
sentimentale
sentiments
senza
seo
seoul
sep
separat
separate
sepp
sept
september
septembre
septfontaines
septie
sequi
ser
sera
serafini
seraing
serato
serbesch
serbesche
serbien
serena
serenade
serenitatis
serge
sergeant
sergei
sergej
sergent
sergey
sergi
sergio
serie
serien
series
serio
serious
sernas
seront
serpent
serra
serrault
serre
serreau
serres
sert
servais
serve
server
service
servicer
services
servillo
servizio
ses
sesselmann
session
sessions
sessioun
sesso
sessue
set
seth
seti
seto
sette
setze
setzen
setzt
seuil
seul
seule
seuls
seven
seventh
sevilla
sewastopol
sewell
sex
sexe
sexo
sexualite
sexuell
sexy
seyfert
seymour
seyrig
sf
sfida
sg
sh
shade
shadow
shadows
shake
shakespeare
shall
shane
shanghai
shannon
shapley
sharif
shark
sharon
sharp
shatner
shatterhand
shavelson
shaw
she
shea
shearer
sheen
sheila
sheldon
shell
shelley
shelton
shenzhou
shepard
shepherd
sheppard
sher
sheridan
sheriff
sherlock
sherman
sherwood
shields
shift
shimkus
ship
ships
shire
shirley
shiva
sho
shoah
shock
shoemaker
shoes
shoot
shooting
shop
shore
short
shot
shots
should
show
shows
shtml
shu
shuttle
si
sia
siamo
sibelius
sibirien
sic
sica
sicec
sich
siche
sichen
sichenhaff
sicht
sicona
sid
side
sidec
siden
sidence
sident
siderurgie
sidney
sidor
sie
sieben
siebenbu
siedler
sief
sieg
siege
siegel
siegen
siegfried
sieghardt
siemens
siena
sierck
sierra
sieur
sigel
sigi
sigismund
sigma
sigmund
sign
signal
signaler
signaux
signe
signor
signora
signore
signoret
signori
signs
signy
sigourney
sigrid
siicht
siichtbar
siichtbare
siichtfeld
siidler
siidlung
siidlungen
silb
silence
silent
silenzio
silikatgestengs
silla
silva
silvana
silvano
silver
silverstein
silvia
silvio
sim
sima
simbabwe
simbad
simenon
simmer
simmons
simo
simon
simoncini
simone
simonelli
simonis
simons
simple
simpson
sin
sinai
sinatra
sinbad
since
sinclair
sind
sinden
sindoni
sinfonie
sing
singapore
singapur
singe
singelen
singen
singer
singing
single
singlen
singles
singleton
sings
singt
sinise
sinjen
sinkel
sinn
sinner
sinners
sint
sinus
siodmak
sir
sire
sireen
siren
sirius
sirk
siro
sis
sischen
sissi
sissy
sistance
sister
sisters
sit
sitcom
site
siteducyclisme
sites
sitten
sitting
situation
situatioun
situe
sitzung
siwe
siwebueren
siwemol
siwen
siwent
siwwenze
six
sixty
size
sizilien
sj
sjo
sk
ska
skala
skandal
skandinavien
skarsga
skelton
skerritt
sketch
ski
skies
skin
skizze
skizzen
sklaven
sklaverei
skolimowski
skorpioun
skull
skulptur
skulpture
skulpturen
sky
skylab
skyline
sl
slalom
slam
slater
slave
slawesch
sleep
sleeping
sleeps
slezak
slim
sloane
slogan
slowakei
slowakesch
slowakesche
sloweenesch
sloweenesche
slowenien
sluis
sm
smai
small
smart
smet
smight
smile
smiley
smith
smithee
smithsonian
smoke
smolensk
sms
smyrner
smyth
sn
snake
sncb
sncf
snipes
snl
snow
snyder
so
soares
sobieski
soc
social
sociale
sociales
socialiste
socialistes
socie
societe
society
socio
sockel
soderbergh
sodom
soe
soen
soeur
sofia
soft
software
sogni
sogno
sohn
soho
soi
soif
soir
soire
soissons
soit
sojus
soko
sol
sola
solange
solar
solarzellen
sold
soldat
soldaten
soldati
soldier
soldiers
sole
soledad
soleil
soler
solfe
soli
solidarite
solidarnos
solinas
solist
solisten
solitaire
soliti
soll
solle
sollen
soller
sollima
sollt
sollte
sollten
solo
sologne
solomon
solution
solutions
solvay
solveig
som
somalia
some
somebody
somerset
something
somewhere
somme
sommer
sommerfeld
sommes
sommet
son
sonat
sonate
sond
sonde
sonden
sonderlager
sondern
sonderstufe
sondra
song
songs
songwriter
sonia
sonic
sonja
sonn
sonndeg
sonndes
sonndesblad
sonne
sonneflecke
sonneflecken
sonnekorona
sonneliicht
sonnemass
sonnemassen
sonnen
sonnena
sonnenaktivite
sonnenastralung
sonnenda
sonnene
sonnenobservatioun
sonnenschein
sonnenuewerfla
sonnescheif
sonnestralung
sonnesystem
sonnewand
sonntag
sonny
sono
sons
sont
sony
sophia
sophie
sopran
sopranistin
sor
soral
sorbonne
sorcie
sordi
sordre
sorel
sorge
sorgen
soria
sort
sortie
sorvino
sos
soss
sosthe
sot
sothern
soto
sotto
sou
soubal
souchon
souci
soudatt
souffle
sougenannt
sougenannte
sougenannten
sougenannter
souguer
souheil
soul
soulaang
souls
soumagne
soumat
sound
soundtrack
soupe
soupert
souplex
source
sources
sourire
souris
sourza
sous
sousa
soutendijk
south
southern
soutter
souvenir
souvenirs
souvera
souvill
souwe
souwisou
souwuel
souz
souzen
souzesoen
sowa
sowie
sowjetesch
sowjetesche
sowjeteschen
sowjetescher
sowjetunioun
sozial
sozialdemokratesch
sozialdemokratescher
soziale
sozialen
sozialer
sozialgeschicht
sozialismus
sozialisten
sozialistesch
sozialistesche
sozialistescher
sozialverse
sozialwe
soziolog
soziologie
sp
spa
spaak
space
spacecraft
spacek
spacex
spacey
spada
spadaro
spader
spadse
spaghetti
spain
spang
spanier
spanish
spannung
spannungen
spano
spanwa
spara
sparta
spartacus
spartaner
spartz
spatial
spatz
spautz
spaweck
spd
spe
speaker
special
speciale
species
speck
spectateure
spectateuren
spectre
spectrograph
spectrometer
spedener
speed
speelmans
speer
speidel
spektakula
spektiv
spektralbera
spektralklass
spektralklasse
spektralklassen
spektrallinne
spektraltyp
spektre
spektren
spektrograph
spektrometer
spektroskopesch
spektroskopie
spektrum
spekule
spellchecker
spencer
spessart
speyer
spezialise
spezialist
spezialite
spezialpra
speziell
spezielle
speziellen
spezieller
spezifesch
spezifesche
spezifeschen
spha
sphinx
spideeler
spider
spidol
spie
spiegel
spiel
spielberg
spiele
spieler
spielt
spies
spiesser
spigel
spigelduerchmiesser
spigele
spigelen
spigelteleskop
spike
spill
spille
spillen
spiller
spillercarrie
spillerin
spillerinne
spillfilm
spillfilmer
spillgezei
spillklass
spillschoul
spillt
spin
spinne
spionage
spionagefilmer
spione
spioun
spira
spiral
spirala
spiralgalaxien
spiralgalaxis
spirit
spirou
spitzer
sple
split
spo
spontan
spoo
spoorgroep
spora
sport
sportif
sporting
sportive
sportlech
sportler
sportlerin
sports
sportscarrie
sportshal
spot
spottiswoode
sprach
sprache
sprangbur
sprangen
sprangpressessioun
spre
spricht
spriecher
sprimont
spring
springer
springs
springsteen
sprint
sprinter
sproch
sprong
sprooch
sprooche
sproochen
sproochewe
sproochgebrauch
sproochlech
sproochwe
sprunck
spuenesch
spuenesche
spueneschen
spuenescher
spuenie
spuenien
spuenier
spuer
spuere
spueren
spuerkeess
spur
spuren
sputnik
spy
sqrt
squad
squadra
squadron
square
squitieri
sr
sri
ss
ssbrauch
sse
sseg
ssege
ssegem
ssegen
sseger
ssegja
ssegkeet
ssegkeeten
ssegt
ssel
sselche
sseldorf
ssele
sselen
sselt
ssen
ssenschaft
ssenschafte
ssenschaften
ssenschaftlech
ssenschaftleche
ssenschaftlechen
ssenschaftlecher
ssenschaftler
ssenschaftlerin
sser
ssert
ssesch
ssi
ssr
sst
st
sta
staal
staamt
staark
staarke
staarken
staarker
staarkt
staat
staate
staaten
staatlech
staatleche
staatlechen
staatlecher
staats
staatsanwalt
staatsarchitekt
staatsbeamten
staatschef
staatsgebitt
staatslaboratoire
staatsmann
staatsministe
staatsminister
staatspresident
staatspresidente
staatsrot
staatssekreta
staatsstreech
stabil
stabilise
stabilite
stack
stacy
stad
stadbriedemes
staddeel
staddeeler
stade
stadgebitt
stadgronn
stadhaus
stadion
stadium
stadka
stadkrees
stadmauer
stadpark
stadrechter
stadt
stadtbredimus
stadzentrum
stafelter
staff
staffel
stafford
stage
stagecoach
stagiaire
stahl
stalin
stalingrad
stall
stallone
stame
stamen
stamm
stamp
stan
stanczak
stand
standard
standardise
standardmodell
stander
standplaz
standpunkt
standuert
stanford
stanislas
stanislaw
stanley
stanton
stanwyck
stanza
star
stardust
stare
stark
starke
starr
stars
start
starte
starten
startle
startmass
startopstellung
startplaz
startramp
state
statec
stater
states
station
stationa
statione
stationnement
statioun
statioune
statiounen
statistesch
statistik
statistique
statistiques
stato
statt
statu
statue
statuen
status
statut
statute
statuten
staud
staudamm
staudt
staudte
staumauer
stause
staustuf
stavelot
stawropol
stay
ste
steal
steckel
stee
steebre
steebroch
steedman
steee
steel
steele
steemetzer
steen
steenburgen
steenem
steenza
steesel
steet
stefan
stefania
stefanie
stefano
steffen
steg
stehres
steht
steichen
steier
steiere
steieren
steiermark
steierung
steierween
steiff
steiger
steil
stein
steinberg
steine
steiner
steinfort
steinhoff
steinmeier
steinmetz
steinmetzer
steinsel
steiwer
stella
stellan
stellar
stelle
stellen
stelli
stellt
stellung
stellvertrieder
stellwierk
stelvio
stelzer
stemmle
stempel
sten
steng
stenge
stengefort
stengeforter
stengel
steno
step
stephan
stephane
stephanie
stephen
stephens
stephenson
steppat
steps
ster
sterben
stere
steren
stereo
sterling
stern
sternberg
sterne
sternen
sterreich
sterreichle
steve
steven
stevens
stevenson
stewart
sti
stied
stierflech
stierft
stierm
stiermer
stierwe
stierwen
stierzen
stiftung
stig
stil
stiler
stilise
still
stille
stiller
stimme
stimmen
sting
stinn
stlech
stleche
stlechen
stlecher
stner
sto
stock
stockard
stocke
stockfeld
stockholm
stockwell
stoe
stoen
stoff
stoffel
stoffer
stol
stole
stolen
stolindustrie
stoll
stoloff
stolpersteine
stoltz
stolz
stolzebuerg
stommfilm
stommfilmer
stomp
stone
stones
stonn
stonne
stonnen
stooges
stop
stopp
stoppa
stoppen
stora
store
storia
storie
stories
storm
story
stot
stoung
stounge
stoungen
stoussen
stra
straalt
strack
strada
strahl
straight
strale
stralegank
stralen
stralung
stralungsceinture
strand
strange
stranger
strangers
straniero
strasberg
strasbourg
strassen
strasser
strateegesch
strategie
stratospha
straub
strauss
strauß
straße
straßennamen
stre
streck
strecke
strecken
streckt
streech
streep
street
streets
streeung
streidereien
streik
streisand
streng
strenge
strike
strikes
strikt
strip
stripes
stro
strode
strof
strogoff
stroheim
strom
strong
strooss
stroossbuerg
stroossbuerger
stroosse
stroossebre
stroossen
stroossennetz
stroossennimm
stroossesa
stroossesche
stroosseverke
stroph
stroum
stroyberg
structurae
structure
structures
struktur
strukture
strukturen
struve
sts
stu
stuart
stude
student
studente
studenten
studer
studie
studien
studies
studio
studios
studiosalbum
studiosalbumen
studium
study
stuerm
stuerz
stuf
stufe
stufen
stuff
stull
stumper
stunde
stunden
stung
sturges
sturm
stuttgart
style
styx
su
sua
submarine
submillimeter
subor
subside
substantiven
substanz
substanzen
subsystem
subway
succe
success
successeur
suche
sucht
sud
sudan
sue
suen
suerge
suergen
suergt
suessem
suez
suezkanal
suffit
sugar
suhrkamp
suicide
suis
suisse
suit
suite
suites
suivez
suivi
suivre
suizid
sujet
sujete
sujeten
sukowa
sul
sull
sulla
sullavan
sullivan
sully
sulpice
sultan
sultats
sum
sumatra
summer
summers
summerspiller
summervakanz
sun
sunday
sundown
sung
sunnen
sunrise
sunset
sunshine
suo
supe
super
supera
superheld
superhelden
superjhemp
superkoup
superman
supermarche
supernova
supernovae
supernovaen
superstar
supp
supple
supplement
support
supporter
supprime
sur
sure
surface
surge
surprise
surrey
sursis
surveillance
survey
surveyor
sus
susa
susan
susanna
susannah
susanne
susi
suspects
suspende
suspicion
sussex
suter
sutherland
sutton
suzanne
suzie
suzy
sv
sven
svg
swaim
swan
swank
swann
swanson
swapo
swayze
sweet
sweetheart
swerdlowsk
swift
swimming
swing
swinton
swiss
sword
sxd
sxe
sy
syberberg
sybil
sybille
sydne
sydney
sydow
sykes
sylva
sylvain
sylvan
sylvester
sylvia
sylvie
symbol
symbole
symboler
symbolesch
symbolik
symbolise
symmetrie
sympathie
symphonie
symphonique
symphony
symphorien
symposium
symptomer
syms
syn
synagog
synchron
synchronise
synchronspriecher
syndicat
syndikat
syndikater
syndrom
synonym
synthees
syr
syrakus
syrien
syste
system
systematesch
systematik
systemer
systems
syvicol
sz
sza
szabo
szlo
szwarc
sœur
sœurs
t
ta
tab
tabell
tabellen
tabernakel
table
tableau
tableauen
tables
tablier
tablissement
tablissements
tabu
tacchella
tadeusz
tafelen
tag
tage
tageblatt
tagebuch
tagen
tages
taglioni
tahiti
tai
taient
taiga
tail
taille
tain
taina
taire
tais
tait
taiwan
taix
takagi
take
takes
taking
takt
tal
talbot
tale
talent
talente
tales
talia
talk
talking
tall
talleyrand
tallinn
tallulah
talspa
tam
tamara
tamblyn
tambour
tambow
tamiroff
tamorphose
tan
tandel
tandy
tang
tange
tanger
tango
tani
tania
tanja
tank
tanks
tanksen
tankstelle
tanner
tansania
tanson
tant
tante
tanten
tanto
tanya
tanz
tanzende
tanzt
tape
tappert
tara
tarantini
tarantino
taranto
tarascon
tarbes
tard
target
tarn
tarride
tartari
tartu
tary
tarzan
taschen
taschenbuch
tashlin
taste
tat
tataresch
tatarstan
tate
tati
tatjana
tatort
tats
tatsa
tatsaach
tatta
tattoo
tatum
tau
tauber
tauri
taurog
taurus
tausend
tautou
taux
tavernier
taviani
tax
taxe
taxi
tay
taylor
tb
tc
tche
tchernia
te
tea
team
teamdetails
teamid
teams
tears
teatro
teau
teauneuf
teauroux
teaux
teborg
technesch
technesche
techneschen
technescher
technical
technik
technike
techniken
techniker
technique
techniques
technische
technologie
technologien
technologies
technology
tective
ted
teddy
tedeschi
tedesco
teen
teenage
teg
tegt
teheran
teide
teil
teins
tektonesch
tel
telbierg
tele
telefon
telegraph
telekommunikatioun
telescope
teleskop
teleskope
teleskopen
telet
television
televisioun
televisiouns
televisiounsfilm
televisiounsfilmer
televisiounsmoderateuren
televisiounsregisseuren
televisiounsschauspiller
televisiounsschauspillerinnen
televisiounssender
televisiounssenderen
televisiounsserie
televisiounsserien
tell
teller
tellerault
telly
tempe
tempel
tempelen
temperatur
temperature
temperaturen
tempere
tempesta
tempi
temple
tempo
tempora
temps
temptation
ten
tend
tende
tendenz
tendenzen
tender
tendre
tendresse
tendue
tenerife
teneriffa
tennant
tennessee
tennis
tennisspiller
tennisspillerin
tenor
tentation
ter
terence
teresa
teri
term
terme
terminal
terminus
ternel
ternes
terra
terrain
terraine
terrainen
terrasse
terrassen
terre
terrence
terres
terrestresch
terreur
terrible
terrier
territoire
territoiren
territorial
territory
terror
terrore
terrorismus
terroristen
terry
tertia
terzan
terzieff
tes
tesch
tesoro
tess
tessari
tessier
tessy
test
testa
testament
teste
testen
tester
testfluch
testi
testud
tet
tethys
tetzlaff
teufel
teufels
tex
texas
text
texte
texter
textes
textilindustrie
tez
tf
tgv
th
thai
thailand
thalbach
thales
thalys
thamar
than
thank
thann
that
thatcher
the
theater
theaterauteur
theateren
theaterplaz
theaterregisseur
theaterregisseuren
theaterschauspiller
theaterschauspillerinnen
theaterschre
theaterste
theatre
theben
theema
theeme
theemen
thees
theguardian
thein
their
theis
theisen
thellmann
thelma
them
thema
thematise
theme
themis
themistokles
themse
then
theo
theobald
theodor
theodorakis
theodore
theolog
theologen
theologesch
theologie
theoreetesch
theorie
theorien
theory
theplantlist
therapie
there
theresa
therese
theresia
thermal
thermalbad
thermen
thermes
thermesch
thermidor
thermospha
theron
these
theta
theux
theves
thewes
they
thibault
thie
thief
thiel
thiele
thierry
thiers
thieves
thil
thilges
thill
thilmany
thimig
thin
thing
things
think
thinnes
thionville
third
thirteen
thirty
this
tholl
thom
thoma
thomalla
thomas
thome
thommes
thompson
thomson
thonyi
thor
thorn
thornton
thorpe
those
thoss
thousand
thrakien
three
thriller
thrilleren
through
thu
thulin
thull
thumb
thun
thunder
thune
thurm
thurman
thyes
ti
tiangong
tibet
tice
tichy
ticket
tid
tide
tie
tien
tienne
tiens
tier
tiere
tierkei
tierken
tierkesch
tierkesche
tierm
tierney
tierra
tiers
tiffany
tiffin
tiger
tigre
til
tilda
tilia
till
tiller
tillmann
tillon
tilly
tilo
tim
tima
timber
timberen
time
timeaxis
timent
timents
times
timm
timor
timothy
timsit
tin
tina
tinant
tino
tinti
tintin
tinto
tip
tippi
tique
tir
tire
tirol
tiroul
tirreno
tissen
tissier
tissot
tit
titan
titane
titanen
titanic
titans
titel
titele
titelen
titelsa
titeuf
titius
title
tito
titre
titulaire
titus
tjumen
tm
tma
tns
to
tobago
tobias
toby
toc
toccata
tochter
tod
today
todd
tode
todes
todeschini
toelle
together
tognazzi
togo
toi
toile
toiles
toilette
toison
toit
tokio
tokyo
tol
told
toledo
tolkien
toll
tolle
tollen
toller
tolo
tom
toma
tomahawk
tomas
tomb
tombe
tome
tomlinson
tommaso
tommy
tomorrow
ton
tone
tong
tonga
tongeren
toni
tonie
tonight
tonino
tonnar
tonne
tonnen
tons
tontons
tony
too
toodler
toole
top
topographesch
topographescher
topographie
topol
topologie
toponymie
toppdoma
tor
tora
torcy
tordai
tore
torgny
torino
torn
tornaco
tornade
tornado
tornatore
toro
toronto
torpedo
torrado
torre
torrent
torres
torreton
torriani
torsten
tortue
tosca
toscana
toshiro
toskana
tot
total
totale
totaler
totalite
totalla
tote
toten
toth
toto
touch
touche
touchez
tough
toujours
toul
toulon
toulouse
toun
tounfilmer
tour
tourbe
toure
tourisme
tourismus
tourist
touriste
touristen
touristesch
tourjansky
tournai
tourne
tourneur
tournoi
tournon
tours
tous
tousch
toussaint
tout
toutain
toute
toutes
tower
towers
town
townsend
township
toy
tozzi
tpl
tr
tra
trabaud
trace
track
tracy
trade
tradition
traditionell
traditionelle
traditionellen
traditioneller
traditionellt
traditioun
traditioune
traditiounen
traduction
traffic
trafic
trage
tragedie
trago
trail
trailer
train
traine
trainer
training
trains
traisch
traite
traitement
traitor
trajet
tram
tramslinn
tramsschapp
tramway
tramways
tranche
trange
tranger
trangers
tranquille
tranquillitatis
trans
transbaikalien
transfer
transfere
transfermarkt
transfert
transforme
transit
transition
transitmethod
transkribe
transkriptioun
transnational
transneptuneschen
transport
transporte
transporter
transportme
transportminister
transports
trantow
trap
trapen
trapp
traque
tratten
trauer
trauffler
traum
trauma
traumschiff
trausch
travail
travaux
travel
travels
travers
traverse
travis
travolta
tre
treasure
treat
treatment
tree
treffe
treffen
trei
treinen
treize
trek
tremper
trenet
trenker
trennen
trennt
trennung
treno
trent
trente
trentino
tres
tresorier
tresse
tressler
trevor
trial
triangle
triangulum
triathlon
tribu
tribunal
tribute
tricheurs
trick
tricolore
trie
triede
trieden
trier
trierer
triest
trieste
trikot
trilogie
trinidad
trinite
trintignant
trio
triomphe
trip
triple
trise
trish
tristan
triste
triton
tritt
triumph
trivia
tro
trockner
troell
trofeo
trois
troisie
troja
trojaner
trojanesche
trol
trole
trombonn
tromm
trompe
trompett
trompettist
tronc
trondheim
trooger
trop
tropesche
tropez
trophe
tropospha
troppo
trotta
trotz
trotzdeem
trotzdem
trotzki
trou
trouble
troublemaker
troun
trouve
troy
troyes
tru
trude
true
truffaut
trujillo
truman
trump
trupp
truppe
truppen
trusse
trust
truth
truye
try
tryon
ts
tsch
tschad
tschechesch
tschechesche
tschecheschen
tschechescher
tschechien
tschechoslowakei
tschechowa
tscheed
tscheljabinsk
tschent
tschernobyl
tscht
tsel
tsubasa
tt
tte
tteg
ttel
ttelalter
ttelalterlech
ttelalterleche
ttelalterlechen
ttelalterlecher
ttelamerika
ttele
ttelen
tteleuropa
ttelfeld
ttelmier
ttelmierraum
ttelpunkt
ttelst
ttelstand
ttelsten
ttelt
tten
tteng
tter
ttes
ttgre
tthe
ttin
tting
ttingen
ttir
ttlech
ttleche
ttler
ttlere
ttleren
ttlerer
ttlerweil
ttlung
ttwoch
tu
tua
tubak
tuberkulos
tucker
tucson
tude
tudes
tudiants
tudor
tue
tuer
tuerm
tuesday
tueur
tueurs
tuileries
tukur
tula
tulio
tulipe
tulle
tullio
tully
tumulus
tun
tunc
tunesien
tunnel
tunnellen
tuo
turbinn
turckheim
ture
turi
turin
turkmenistan
turm
turmes
turn
turne
turnen
turner
turpel
turteltaub
turturro
tus
tushingham
tut
tutelle
tutta
tutte
tutti
tuttle
tutto
tv
tva
twain
twelve
twenty
twer
twice
twilight
twin
twist
twitter
two
tx
ty
tycho
tycoon
tyler
typ
type
typen
typesch
typesche
typescherweis
typescht
typhus
tyrann
tyrannis
tyrone
tz
tze
tzebuerg
tzebuergdoudesannonce
tzebuerger
tzebuergerin
tzebuergesch
tzebuergesche
tzebuergeschen
tzebuergescher
tzebuergeschsproocheg
tzebuergescht
tzebuergloi
tzeburger
tzeg
tzekandidat
tzen
tzer
tzlech
tzleche
tzlechen
tznumm
tzplazen
tzpunkt
tzsche
tzt
tzte
tzten
tzung
tzunge
tzungen
u
ua
ubau
ubelaangt
uber
ubidden
ubitt
ubruecht
uccide
uccidere
uccidi
uccle
uci
ucicky
ude
uderzo
udmurtien
udo
udssr
ueber
uebst
uecht
uechter
uechtert
uefa
uel
ueleg
uelzecht
uelzechtdall
uelzechtstrooss
uerde
uerden
uerder
uerdnung
uerdnungszuel
uerg
uergel
uergelbauer
uergelen
uergelmanufaktur
uert
uertschaft
uertschafte
uertschaften
uertsdeel
uertsgemeng
ueschdref
uespelt
uewe
uewen
uewendriwwer
uewendrop
uewer
uewerfeelen
uewerfla
uewerka
uewerkuer
uewermaartel
uewerpallen
uewersauer
uewerstad
uewerstuf
uewerwampech
ufa
ufank
ufanks
ufer
ufro
uft
ufuerderungen
ugaangen
uganda
uganks
ugda
uge
ugebaut
ugebuede
ugebueden
ugedoen
ugedriwwe
ugedriwwen
ugeet
ugefaange
ugefaangen
ugefaangenfiche
ugeflunn
ugefouert
ugefrot
ugefuer
ugegraff
ugehe
ugeholl
ugeke
ugeklot
ugelaf
ugeluecht
ugemaach
ugemellt
ugepasst
ugeplanzt
ugereegt
ugeschaaft
ugeschloss
ugesi
ugesinn
ugestach
ugestallt
ugestrach
ugetruede
ugetrueden
ugewant
ugewise
ugewisen
ugezunn
ugi
uginn
ugo
ugra
ugre
uhlen
uhlig
uhr
uk
uke
ukomm
ukommen
ukrain
ukraine
ukrainesch
ukrainesche
ula
ulb
uleee
ulein
ulf
uli
uljanowsk
ulla
ulli
ulliel
ullmann
ullrich
ullstein
ulm
ulmer
ulrich
ulrike
ultima
ultimate
ultimatum
ultimi
ultimo
ultimomondo
ultra
ultraviolet
ultraviolett
ulu
ulveling
ulysses
um
uma
umberto
umbrien
ume
umen
umgelter
umierkung
umler
ums
umt
un
una
unbekannte
uncle
und
undeel
undeeler
unden
undenken
under
underground
undriff
une
unerkannt
unerkannte
unerkennung
unesco
ungaresch
ungaresche
ungareschen
ungarescher
ungarn
ungeheuer
unha
unhand
unhe
unhuelen
uni
unicef
uniform
unio
union
unioun
unique
unis
unit
unita
unitary
unite
united
univ
universal
universe
universelle
universita
universitaire
universitaires
universite
university
universum
unknown
unmo
uno
uns
unschuld
unser
unsere
unserer
unsterbliche
unter
untergang
unternehmen
unterrecht
untersuchung
untersuchungen
until
untrieden
unvero
unze
unzebidden
unzeeche
unzefa
unzeginn
unzegra
unzehuelen
unzeleee
unzepassen
unzuel
uomini
uomo
up
update
upon
upper
uppsala
upright
upstairs
ur
ural
urania
uranometria
uranos
uranus
urauffu
urawunner
urbain
urban
urbanisation
urbanismus
urbanist
urbanistesch
urbany
ure
ureegung
uri
urknall
url
urlaub
uropfe
uropgefouert
urs
ursa
ursaach
ursaache
ursaachen
ursae
urspre
ursprong
urspronk
ursprung
ursula
ursus
urteel
uruguay
urwald
us
usa
usage
usammlung
usb
usbekistan
uschi
uschle
uschloss
uscht
uschung
usd
use
used
useldeng
user
usgs
usiicht
usm
uspre
usproch
uss
ussel
ussir
ussite
ussler
ust
ustinov
ustrach
ut
uta
utah
utc
ute
utner
utopia
utopolis
utrecht
uv
uvertraut
uwa
uwe
uweist
uwendung
uławski
v
va
vaast
vacances
vacanza
vacanze
vaccaro
vache
vade
vadim
vadis
vadrouille
vague
vai
vainqueur
vais
vajda
vakanz
vakuum
val
valcroze
vale
valence
valencia
valenciana
valenciennes
valente
valentin
valentina
valentine
valentino
valeri
valeria
valerie
valerii
valerio
valette
valeur
valiant
valkenburg
valladolid
valle
valley
valli
vallis
vallone
valmy
valois
valparaiso
valse
value
valverde
vampire
van
vancini
vancouver
vandenberg
vandenbroucke
vaneck
vanel
vanessa
vanguard
vanne
vannerus
vannes
vansina
vanuatu
vanzina
var
varda
varela
varennes
vargas
vari
variabel
variant
variante
varianten
variations
variatiounen
varie
variete
variety
varphi
varte
vas
vasco
vatel
vater
vaterland
vatican
vatikan
vatikanesche
vatikanstad
vauban
vaucluse
vaucorbeil
vaud
vaughan
vaughn
vaux
vdb
vdl
ve
veber
vec
vecchiali
vecchio
vedettes
vedova
vega
vegas
vegetatioun
vehicle
veianen
veianer
veidt
veil
veille
veinards
veiner
veit
vekene
vel
vela
velasco
velay
velle
veloppement
velutina
velvet
ven
venant
venantini
venantino
venatici
vende
vendetta
vendicatore
vendo
vendre
venedeg
venedig
venera
venere
venezia
venezuela
venganza
vengeance
venice
venin
venise
venn
vent
vente
[...]
