!
"
#
##0
##1
##10
##11
##12
##13
##14
##15
##16
##17
##18
##19
##2
##20
##21
##22
##23
##24
##25
##26
##27
##28
##29
##3
##30
##31
##32
##33
##34
##35
##36
##37
##38
##39
##4
##40
##41
##42
##43
##44
##45
##46
##47
##48
##49
##5
##50
##51
##52
##53
##54
##55
##56
##57
##58
##59
##6
##60
##61
##62
##63
##64
##65
##66
##67
##68
##69
##7
##70
##71
##72
##73
##74
##75
##76
##77
##78
##79
##8
##80
##81
##82
##83
##84
##85
##86
##87
##88
##89
##9
##90
##91
##92
##93
##94
##95
##96
##97
##98
##99
$
%
&
'
(
)
*
+
,
-
.
/
0
00
000
001
002
005
007
01
02
03
034
04
043
05
06
07
08
09
1
10
100
1000
1001
1002
1003
1004
1005
1006
1007
1008
101
1010
1011
1012
1013
1015
1016
1017
102
1020
1023
1024
1027
1028
103
1030
1038
1039
104
1040
1047
105
1050
1054
106
1060
1061
107
108
1083
109
1095
1096
1097
11
110
1100
111
1114
112
1128
113
1137
114
1140
1141
1143
1149
115
1150
116
117
1170
118
1180
1186
119
1190
1194
12
120
1200
1204
121
1212
1214
1215
122
1220
1225
1226
123
1235
1236
124
1240
1247
1248
125
1250
1252
1255
1257
126
1260
1263
127
1270
1271
1274
1275
1278
128
1280
1281
1282
1285
1288
129
1290
1291
1292
1294
1295
1296
1297
13
130
1300
1302
1305
1308
1309
131
1310
1311
1313
1314
1315
1316
1317
1318
132
1320
1322
1324
1326
1328
133
1330
1331
1337
134
1340
1342
1343
1345
1346
1347
1348
1349
135
1350
1353
1354
1357
1358
136
1360
1363
1364
1365
1366
1367
1368
1369
137
1370
1371
1372
1373
1374
1376
1377
1378
138
1380
1382
1383
1384
1386
1387
1388
139
1390
1393
1394
1396
1399
14
140
1400
1404
141
1410
1413
1414
1415
1417
1419
142
1420
1425
143
1430
1431
1432
1435
1437
144
1440
1441
1443
145
1450
1451
1452
1453
1455
1459
146
1461
1464
1465
1466
1467
1469
147
1470
1473
1475
1476
1477
1478
1479
148
1480
1481
1482
1483
1485
149
1490
1491
1492
1493
1494
1495
1497
1498
1499
15
150
1500
1501
1502
1503
1504
1505
1506
1507
1508
1509
151
1510
1511
1512
15120
1513
1514
1515
1516
1517
1518
1519
152
1520
1521
1522
1523
1524
1525
1526
1527
1528
1529
153
1530
1531
1532
1533
1534
1535
1536
1537
1538
1539
154
1540
1541
1542
1543
1544
1545
1546
1547
1548
1549
155
1550
1551
1552
1553
1554
1555
1556
1557
1558
1559
156
1560
1561
1562
1563
1564
1565
1566
1567
1568
1569
157
1570
1571
1572
1573
1574
1575
1576
1577
1578
1579
158
1580
1581
1582
1583
1584
1585
1586
1587
1588
1589
159
1590
1591
1592
1593
1594
1595
1596
1597
1598
1599
16
160
1600
1601
1602
1603
1604
1605
1606
1607
1608
1609
161
1610
1611
1612
1613
1614
1615
1616
1617
1618
1619
162
1620
1621
1622
1623
1624
1625
1626
1627
1628
1629
163
1630
1631
1632
1633
1634
1635
1636
1637
1638
1639
164
1640
1641
1642
1643
1644
1645
1646
1647
1648
1649
165
1650
1651
1652
1653
1654
1655
1656
1657
1658
1659
166
1660
1661
1662
1663
1664
1665
1666
1667
1668
1669
167
1670
1671
1672
1673
1674
1675
1676
1677
1678
1679
168
1680
1681
1682
1683
1684
1685
1686
1687
1688
1689
169
1690
1691
1692
1693
1694
1695
1696
1697
1698
1699
17
170
1700
1701
1702
1703
1704
1705
1706
1707
1708
1709
171
1710
1711
1712
1713
1714
1715
1716
1717
1718
1719
172
1720
1721
1722
1723
1724
1725
1726
1727
1728
1729
173
1730
1731
1732
1733
1734
1735
1736
1737
1738
1739
174
1740
1741
1742
1743
1744
1745
1746
1747
1748
1749
175
1750
1751
1752
1753
1754
1755
1756
1757
1758
1759
176
1760
1761
1762
1763
1764
1765
1766
1767
1768
1769
177
1770
1771
1772
1773
1774
1775
1776
1777
1778
1779
178
1780
1781
1782
1783
1784
1785
1786
1787
1788
1789
179
1790
1791
1792
1793
1794
1795
1796
1797
1798
1799
18
180
1800
1801
1802
1803
1804
1805
1806
1807
1808
1809
181
1810
1811
1812
1813
1814
1815
1816
1817
1818
1819
182
1820
1821
1822
1823
1824
1825
1826
1827
1828
1829
183
1830
1831
1832
1833
1834
1835
1836
1837
1838
1839
184
1840
1841
1842
1843
1844
1845
1846
1847
1848
1849
185
1850
1851
1852
1853
1854
1855
1856
1857
1858
1859
186
1860
1861
1862
1863
1864
1865
1866
1867
1868
1869
187
1870
1871
1872
1873
1874
1875
1876
1877
1878
1879
188
1880
1881
1882
1883
1884
1885
1886
1887
1888
1889
189
1890
1891
1892
1893
1894
1895
1896
1897
1898
1899
19
190
1900
1901
1902
1903
1904
1905
1906
1907
1908
1909
191
1910
1911
1912
1913
1914
1915
1916
1917
1918
1919
192
1920
1921
1922
1923
1924
1925
1926
1927
1928
1929
193
1930
1931
1932
1933
1934
1935
1936
1937
1938
1939
194
1940
1941
1942
1943
1944
1945
1946
1947
1948
1949
195
1950
1951
1952
1953
1954
1955
1956
1957
1958
1959
196
1960
1961
1962
1963
1964
1965
1966
1967
1968
1969
197
1970
1971
1972
1973
1974
1975
1976
1977
1978
1979
198
1980
1981
1982
1983
1984
1985
1986
1987
1988
1989
199
1990
1991
1992
1993
1994
1995
1996
1997
1998
1999
2
20
200
2000
2001
2002
2003
2004
2005
2006
2007
2008
2009
201
2010
2011
2012
2013
2014
2015
2016
2017
20170629041236
2018
2019
202
2020
2021
2022
2023
2024
2025
203
204
205
2050
206
207
208
209
21
210
2100
211
212
213
214
215
216
217
218
219
22
220
2200
221
222
223
224
225
226
227
228
229
23
230
2300
231
232
233
234
235
236
237
238
239
24
240
241
242
243
244
245
246
247
248
249
25
250
2500
251
252
253
254
255
256
257
258
259
26
260
261
262
263
264
265
266
267
268
269
27
270
271
272
273
274
275
276
277
278
279
28
280
28049
281
282
283
284
285
286
287
288
289
29
290
291
292
2926
293
294
295
296
297
298
299
3
30
300
3000
301
302
303
304
305
306
307
308
309
31
310
311
312
313
314
315
316
3166
317
318
319
32
320
321
322
323
324
325
326
327
328
329
33
330
331
332
333
334
335
336
337
338
339
34
340
341
342
343
344
345
346
347
348
349
35
350
3500
351
352
353
354
355
356
357
358
359
36
360
3600
361
362
363
364
365
366
367
368
369
37
370
371
372
373
374
375
376
377
378
379
38
380
381
382
383
384
385
386
387
388
389
39
390
391
392
393
394
395
396
397
398
399
4
40
400
4000
401
402
403
404
405
406
407
408
409
41
410
411
412
413
414
415
416
417
418
419
42
420
421
422
423
424
425
426
427
428
429
43
430
431
432
433
434
435
436
437
438
439
44
440
441
442
443
444
445
446
447
448
449
45
450
451
452
453
454
455
456
457
458
459
46
460
461
462
463
464
465
466
467
468
469
47
470
471
472
473
474
475
476
477
478
479
48
480
481
482
483
484
485
486
487
488
489
49
490
491
492
493
494
495
496
497
498
499
5
50
500
5000
501
502
503
504
505
506
507
508
509
51
510
511
512
513
514
515
516
517
518
519
52
520
521
522
523
524
525
526
527
528
529
53
530
531
532
533
534
535
536
537
538
539
54
540
541
542
543
544
545
546
547
548
549
55
550
551
552
553
554
555
556
557
558
559
56
560
561
562
563
564
565
566
567
568
569
57
570
571
572
573
574
575
576
577
578
579
58
580
581
582
583
584
585
586
587
588
589
59
590
59002
591
592
593
594
595
596
597
598
599
6
60
600
6000
601
602
603
604
605
606
607
608
609
61
610
611
612
613
614
615
616
617
618
619
62
620
621
622
623
624
625
626
627
628
629
63
630
631
632
633
634
635
636
637
638
639
64
640
641
642
643
644
645
646
647
648
649
65
650
6500
651
652
653
654
655
656
657
658
659
66
660
661
662
663
664
665
666
667
668
669
67
670
671
672
673
674
675
676
677
678
679
68
680
681
682
683
684
685
686
687
688
689
69
690
691
692
693
694
695
696
697
698
699
7
70
700
7000
701
702
703
704
705
706
707
708
709
71
710
711
712
713
714
715
716
717
718
719
72
720
721
722
723
724
725
726
727
728
729
73
730
731
732
733
734
735
736
737
738
739
74
740
741
742
743
744
745
746
747
748
749
75
750
751
752
753
754
755
756
757
758
759
76
760
761
762
763
764
765
766
767
768
769
77
770
771
772
773
774
775
776
777
778
779
78
780
781
782
783
784
785
786
787
788
789
79
790
791
792
793
794
795
796
797
798
799
8
80
800
8000
801
802
803
804
805
806
807
808
809
81
810
811
812
813
814
815
816
817
818
819
82
820
821
822
8228
823
824
825
826
827
8274
828
829
83
830
831
832
833
834
835
836
837
838
839
84
840
841
842
843
844
845
846
847
848
849
85
850
851
852
853
854
855
856
857
85744
858
859
86
860
861
862
863
864
8645
865
866
867
868
869
87
870
871
872
873
874
875
876
877
878
879
87953
87954
87963
87964
87967
87996
87999
88
880
881
882
883
883011
884
885
886
887
888
88865
889
89
890
891
892
893
894
895
896
89602
897
898
899
9
90
900
901
902
903
904
905
906
907
908
909
91
910
911
912
913
914
915
916
917
918
919
919903
919933
919999
92
920
921
922
923
924
925
926
927
928
929
93
930
930008
931
932
933
934
935
936
937
938
939
94
940
941
942
943
944
945
946
947
948
949
95
950
951
952
953
954
955
956
957
958
959
96
960
961
962
963
964
965
966
967
968
97
970
971
972
973
974
975
976
977
978
979
9793
98
980
981
982
983
984
985
986
987
988
989
99
990
991
992
993
994
9941
995
996
997
998
999
99959
:
;
<
=
>
?
@
[
\
]
^
_
`
a
aa
aach
aachen
aacht
aachte
aachtel
aachtelsfinall
aachter
aachtmol
aacsb
aadler
aalt
aan
aangel
aansebuerg
aarau
aarbecht
aarbechte
aarbechten
aarbechter
aarbechterklass
aarbechterpartei
aarbechtsgrupp
aarbechtsplaz
aarbechtsplazen
aarm
aarme
aarmen
aarmut
aarnescht
aaron
aart
aarte
aarten
aascht
aasselbuer
aasselbuerer
aat
ab
abbaye
abbe
abberzuel
abbeville
abbey
abbott
abc
abd
abdullah
abe
abegraff
abel
abell
abend
abens
abenteuer
abenteuerfilm
aber
aberdeen
aberuff
abetti
abezunn
abgerufen
abhandlungen
abitur
able
about
above
abr
abraham
abre
abril
abroch
abruecht
abschied
abschnitt
abse
abseits
absence
absolut
absolutismus
absolutter
absolve
absorbe
absorptioun
abstract
abstrakt
abt
abtei
abteikierch
abteilung
abu
ac
acade
academia
academic
academy
acc
accademia
acce
accelere
accent
accepte
accessibel
accident
accidenter
accompagne
accord
accorde
account
accredite
accueil
accuse
ace
acel
ach
achard
achille
achim
achs
achse
achsen
acht
achterbunn
achternbusch
achtung
achtzegja
acie
ackermann
acl
across
act
acta
acte
actes
acteur
acteuren
acteurs
action
actions
actioun
active
activite
actor
actors
actress
actrice
actualite
actuel
ad
ada
adalbert
adam
adames
adams
adaptation
adaptatioun
adapte
addams
addio
additionnel
additioun
ade
adel
adelaide
adele
adeleg
adelegen
adelheid
adem
aden
adenauer
adhe
adieu
adjani
adjektiv
adjoint
adlegen
adler
adlon
administrateur
administratif
administration
administrations
administratioun
administrativ
administrative
administrativen
administrativer
admiral
admirol
adobe
adolf
adolfo
adolph
adolphe
adonis
adopte
adorf
adour
adr
adrenalin
adress
adresse
adri
adria
adrian
adriana
adriano
adriatico
adrien
adrienne
ads
advanced
adventure
adventures
adverb
ady
ae
aen
aequo
aeronautics
aerospace
af
afa
afc
afe
affa
affair
affaire
affaires
affairs
affekot
affekoten
affekotin
affer
affiche
affilie
affleck
afghanistan
afle
afloss
aflossra
afonso
afraid
africa
african
afrika
afrikaans
afrikanesch
afrikanesche
afrikaneschen
afrikanescher
afrique
afroamerikaner
after
ag
aga
agaangen
again
against
agamemnon
agank
aganksdier
agar
agatha
age
agebaut
agebett
agebonnen
agedeelt
agedroe
agedroen
agefall
agefe
agefouert
agegliddert
agehale
ageholl
ageleet
ageluecht
agelueden
agen
agena
agence
agency
agenda
agent
agente
agenten
agentur
agereecht
ageriicht
ages
agesat
ageschloen
ageschra
ageschriwwen
ageseent
agespaart
agespillt
agestallt
agestraalte
agestuuft
agetratt
agetrueden
agewandert
ageweit
agezeechent
agezu
agezunn
agglome
agglomeratioun
aggressiv
agne
agnes
agora
agostina
agostini
agra
agrave
agre
agren
agricola
agricole
agriculture
agronom
aguirre
agutter
ah
aherne
ahmad
ahmed
ai
aid
aida
aide
aids
aigle
aignan
aigues
ailleurs
aime
aiment
aimer
ain
ainsi
air
airbus
aircraft
aire
aires
airlines
airport
airways
airy
ais
aischylos
aise
aises
aisne
aitken
aix
ajaccio
ak
aka
akademie
akademischer
akafszentrum
akerbau
akerbauschoul
akerman
akershus
aki
akim
akira
akkordeonist
akkretiounsscheif
akkusativ
aklasse
akommes
akronym
akt
akte
akten
aktie
aktiegesellschaft
aktien
aktiona
aktioun
aktioune
aktiounen
aktiv
aktive
aktiven
aktiver
aktivist
aktivistin
aktivite
aktualise
aktualite
aktuell
aktuelle
aktuellen
aktueller
aktuellt
akustesch
akustik
akut
akzepte
al
alabama
alain
alamein
alamo
alan
alarm
alarme
alaska
alastair
alba
albaach
albach
alban
albanesch
albani
albanien
albe
albedo
albers
albert
alberta
albertazzi
alberti
albertine
albertini
albertkanal
alberto
albertville
albi
albicocco
albin
albrecht
albright
album
albume
albumen
alcatraz
alda
alder
aldo
aldrich
aldringen
ale
alec
alejandro
aleksandar
aleksandr
alen
alenc
alentejo
aler
alerme
alerte
alesch
alessandra
alessandrini
alessandro
alex
alexander
alexanderplatz
alexandra
alexandre
alexandria
alexandrowitsch
alexei
alexis
alf
alfa
alfons
alfonso
alfred
alfredo
alfve
algarve
algeeresch
algeeresche
alger
algerien
algol
algorithmus
algriichesch
algriichesche
algriicheschen
alhe
ali
alias
alibi
alice
alicia
alida
alien
aliens
aline
alisation
alise
alison
alite
alive
alix
alkohol
all
alla
allah
allamano
allan
allasio
alldag
alldeegleche
alle
allebe
allee
allegro
alleguer
allein
allem
allemagne
allemand
allen
allende
aller
allerbuer
allerde
allere
allerhand
allerhellegen
alles
alley
allgemeine
allgemeng
allgemenge
allgemengen
allgemenger
allgemengheet
allgemengt
alliance
allianz
allie
allier
allio
allison
allke
allmusic
allocine
ally
allyson
alma
almagest
almanach
alme
almeida
almodo
alogie
aloi
alois
alone
along
alonso
alors
alouette
aloyse
alpe
alpen
alpes
alpha
alphabet
alphabetesch
alphabetescher
alphonse
alpine
alpinist
als
alsace
alschent
also
alstad
alstom
alt
alta
altai
altair
altdorf
alte
alten
alter
alternativ
alternative
alternativen
alters
altersheem
altertum
altertumsfuerscher
altes
altman
alto
altor
altra
altre
altri
altwies
altwis
aluminium
alvan
alves
alvin
alvina
always
alwin
aly
alyga
alz
alzeng
alzette
alzheimer
am
amadeus
amadio
amalia
amalric
amalthea
amance
amand
amanda
amant
amante
amants
amar
amarsch
amarsche
amateur
amateurastronom
amateurastronomen
amateuren
amato
amaury
amazing
amazon
amazonas
amba
ambassade
ambassadeur
amber
ambesser
amble
ambo
ambrosius
ambulanz
ame
ameche
amedeo
amel
amen
amenage
amenagement
amendola
ament
america
american
amerigo
amerika
amerikaner
amerikanesch
amerikanesche
amerikaneschen
amerikanescher
amerikanescht
amerikanische
ames
ami
amicale
amici
amico
amiens
amin
amis
amitie
ammelrooy
ammoniak
amne
amnesty
amo
amok
among
amont
amor
amore
amori
amos
amour
amoureux
amours
ampe
amphibien
amphitheater
amplaz
amstel
amsterdam
amt
amte
amtsza
amur
amy
an
ana
anai
analog
analogie
analys
analyse
analysen
analysis
analytique
ananke
anastasia
anatole
anatoli
anatolien
anatomie
ance
ances
anche
ancien
ancienne
anciennes
anciens
ancient
anconina
ancora
and
andalusien
ande
andeelen
andeelung
andeem
andeems
anden
andere
anderen
andergast
anderlecht
anders
andersen
anderson
andersson
andie
andonovic
andorra
andra
andre
andrea
andreas
andree
andrei
andrej
andress
andreu
andrew
andrews
androck
andromeda
andromedaniwwel
andrzej
andy
ane
anen
anengems
aner
anere
anerem
aneren
anerer
anerersa
anersa
anert
anescht
anfa
anfang
ange
angel
angela
angelduerf
angeles
angeli
angelica
angelika
angelina
angelo
angels
angelsa
angelsbierg
anger
angers
anges
angewandte
angie
angkor
anglade
anglais
angle
angles
angleur
anglo
angola
angolanesch
angolanesche
angolanescher
angoule
angry
angscht
angst
anhalt
anhang
anhuelen
ani
anice
anima
animal
animals
animateur
animation
animatioun
animatiounsfilm
animaux
anime
anise
anita
anja
anjou
anker
anlag
anlage
anlagen
anlier
anlux
ann
anna
annabella
annakin
annale
annalen
annales
annaud
anne
annecy
annekte
anneliese
annemarie
annette
annexe
annexes
annexioun
anni
annibale
annick
annie
anniversaire
anniversary
anno
annonce
annuaire
annual
annuel
annule
anny
anomalie
anonym
anonyme
anonymus
another
anouilh
anouk
anquetil
ans
anscheinend
anstalt
ant
antares
antarktis
ante
antel
antenn
antenne
antennen
anthologie
anthology
anthony
anthropolog
anthropologie
anti
antibes
anticken
anticker
antigone
antik
antike
antillen
antiochia
antique
antiquite
antisemitismus
antje
anto
antoine
antoinette
anton
antonella
antonelli
antoni
antonia
antonin
antonio
antonioni
antonius
antony
antre
antrieden
ants
antwerpen
anvers
any
anything
anzefe
anzehuelen
anzeiger
anzeriichten
anzesetzen
anzuchsgebidder
anzuchsgebitt
ao
aoc
aou
ap
apache
apartheid
apdikt
apdikter
ape
apea
apel
aperc
apertur
aperture
apes
apess
aphel
aphorismen
aphrodite
apocalypse
apogeum
apollo
apostel
apostolesche
apostouleschen
apotheker
app
apparat
apparater
appartement
appel
appelle
apple
applet
application
applications
applied
applikatioun
applique
applize
appointment
approach
approbation
approche
approuve
approx
appuntamento
apre
apremont
april
apsis
apt
apted
aqua
aquarell
aquarius
aqueduc
aquila
aquilae
aquino
aquitaine
ar
ara
arab
araber
arabesch
arabesche
arabeschen
arabescher
arabia
arago
aragon
aragonien
arama
aranda
ararat
arbed
arbeit
arbeiten
arbitter
arbor
arboretum
arbre
arbres
arc
arcady
arcelor
arcelormittal
arch
archa
archangelsk
arche
archeolog
archeologesch
archeologesche
archeologie
archer
arches
archie
archiepiscopal
archimedes
archipel
architecte
architectes
architectural
architecture
architekt
architekte
architektebu
architekten
architektonesch
architektur
archiv
archive
archiven
archiver
archives
archivist
ard
ardant
arde
ardenne
ardennen
ardennenoffensiv
ardenner
ardennes
ardisson
arditi
are
area
areal
arecibo
arel
areler
arelerland
arem
arena
arenberg
arend
arendt
arens
arent
ares
arestrup
argelander
argent
argentan
argenteuil
argentina
argentinesch
argentinesche
argentineschen
argentinie
argentinien
argento
argonne
argos
argument
argumente
ari
ariadne
ariane
arie
ariel
arielle
aries
ariichtung
ariichtunge
ariichtungen
aris
aristides
aristoteles
arizona
ark
arkansas
arkin
arktis
arlene
arles
arlette
arletty
arliss
arlon
arm
armagnac
armand
armando
arme
armee
armeenesch
armeenesche
armeenier
armenda
armenien
armes
armin
armor
arms
armstrong
army
arn
arnaud
arndt
arne
arno
arnold
arnoldo
arnoul
arnoux
arnulf
around
arp
arquette
arr
arrange
arrangement
arrangeur
arras
array
arre
arrest
arrive
arrondissement
arrondissementer
arrow
ars
arse
arsenal
arsenalstrooss
art
artagnan
arte
artemis
arthur
article
articles
artikel
artikele
artikelen
artillerie
artist
artiste
artisten
artistes
artistesch
artistique
artistiques
artists
artois
arts
artur
arturo
artus
artuso
arxiv
arzfeld
arzt
as
asa
asaz
asbl
ascenseur
ascension
aschlag
aschlagkrater
aschlagkrateren
aschle
aschman
aschra
ascott
asellus
aserbaidschan
asetzen
asetzt
ash
ashcan
asher
ashley
asia
asian
asiatesch
asiatesche
asien
ask
aslan
asp
aspects
aspekt
aspekter
aspx
asquith
ass
assal
assante
assassin
assassination
assassine
assassino
assassins
assayas
asselborn
assemble
assembly
assermentation
assia
assignment
assimile
assisi
assistant
assiste
assistent
association
associations
associatioun
associatiounen
associe
assoss
assurance
assurances
assure
asta
astaire
astana
astdys
aste
astellung
asteraceae
asterix
asteroid
asteroide
asteroiden
asteroidenceinture
asteroids
asti
aston
astor
astra
astrid
astrium
astro
astrofotografie
astrologie
astrometrie
astron
astronaut
astronaute
astronauten
astronautica
astronews
astronom
astronome
astronomen
astronomer
astronomers
astronomesch
astronomesche
astronomeschen
astronomescher
astronomescht
astronomical
astronomico
astronomie
astronomin
astronomische
astronomischen
astronomy
astrophysical
astrophysics
astrophysik
astrophysiker
astruc
asturien
asw
asyl
at
atacama
atelier
ateliere
atelieren
ateliers
aten
atert
atertdall
atertlinn
athe
athen
athena
athene
athener
athenesch
atheneum
athle
athlete
athus
ation
atlanta
atlanteschen
atlantic
atlantide
atlantik
atlantique
atlantiques
atlantis
atlas
atmospha
atmosphere
atmospheric
ato
atoll
atom
atombomm
atomer
atomka
atommass
atomza
atomzentral
atout
atp
atrice
attache
attack
attacke
attacken
attal
atteindre
attem
atten
attenborough
attentat
attentater
attente
attention
attert
atteste
attika
attila
attraktiv
attributer
attributiounen
au
aube
aubel
auber
auberge
aubert
aubier
aubigny
aubin
aubrac
aubrey
aubry
aubusson
auch
auclair
aud
aude
audiard
audie
audio
audiovisuel
audiovisuelle
audran
audret
audrey
audry
audun
auer
auerza
auf
aufbau
aufgab
aufgabe
aufgaben
aufkla
aufl
auflage
aufsa
aufstieg
aufzeichnungen
aug
auge
augen
auger
augsburg
august
augusta
auguste
augustin
augustinus
augusto
augustus
aujourd
auk
auleba
aulin
aulnay
aulne
aumo
aumont
aura
aure
aurel
aureus
auriga
aurigae
aurillac
aurora
aurore
aus
ausbau
ausbezuelt
ausbildung
ausbre
ausbreedung
ausbroch
auschwitz
ausdeenung
ausdehnung
ausdre
ausdrock
ausernee
auserneen
ausfall
ausfe
ausfluch
ausgaangen
ausgab
ausgabe
ausgaben
ausgang
ausgangspunkt
ausgank
ausgebaut
ausgebilt
ausgebrach
ausgebreet
ausgedeelt
ausgedeent
ausgedre
ausgedroe
ausgedroen
ausgeet
ausgefall
ausgefe
ausgefouert
ausgeglach
ausgegruewen
ausgelaf
ausgele
ausgeliwwert
ausgeluecht
ausgemaach
ausgenotzt
ausgepra
ausgere
ausgeriicht
ausgeruff
ausgesa
ausgesat
ausgeschafft
ausgescheet
ausgeschloss
ausgeschriwwen
ausgeschwat
ausgesi
ausgesinn
ausgestallt
ausgestouss
ausgestraalt
ausgestuerwe
ausgestuerwen
ausgetosch
ausgetrueden
ausgeu
ausgewa
ausgewandert
ausgewielt
ausgezeechent
ausginn
ausgla
ausgoen
ausgruewunge
ausgruewungen
ausla
ausland
ausle
ausleee
ausleefer
ausmaachen
ausme
ausnam
ausname
ausnamen
ausre
ausriichtung
ausschaffe
ausschliisslech
ausschne
aussebeze
ausseministe
ausseminister
ausseministesch
aussenhandel
aussepolitesch
aussepolitik
ausser
ausserdeem
aussergewe
ausserhalb
aussi
aussiicht
ausso
aussoe
aussoen
aussprooch
ausstaffe
ausstellung
ausstellunge
ausstellungen
ausstellungskatalog
austausch
austerlitz
austin
australe
australesch
australesche
australeschen
australescher
australia
australian
australien
australier
australis
australopithecus
austrasien
austre
austria
ausu
ausverkaaft
auswa
auswanderer
auswanderung
auswiel
auswierkunge
auswierkungen
auszebauen
auszedre
auszeechnung
auszeechnunge
auszeechnungen
auszefe
auszenotzen
auszeschaffen
auszuch
autant
auteuil
auteur
auteure
auteuren
auteurs
author
authority
auto
autobiographesch
autobiographie
autobiography
autobunn
autobunnen
autobus
autodidakt
autoe
autoen
automatesch
automatise
automne
automobile
automoteurs
automotrice
automotricen
autonom
autonome
autonomer
autonomie
autor
autoren
autorenlexikon
autorin
autorisant
autorisatioun
autorise
autorita
autorite
autoroute
autosaccident
autoscoureur
autour
autre
autres
autumn
autun
auvergne
aux
auxerre
av
ava
avait
avalon
avance
avant
avantage
ave
avec
avengers
avenir
aventure
aventuren
aventures
aventurier
avenue
averstane
averstanen
avertissement
avery
avesnes
aveyron
avez
aviation
aviatioun
avignon
avion
avis
aviv
avl
avn
avoir
avold
avon
avraham
avranches
avril
avventura
avventure
aw
awanderer
award
awards
away
awd
aweiung
awer
awunner
awunnerzuel
axel
ay
aya
ayant
aykroyd
ayres
aywaille
az
aze
azimut
aziz
aznavour
azoren
azur
azzurra
b
ba
baach
baache
baachen
baade
baal
baarova
baartelme
baaschtnech
baastenduerf
baba
babel
babenberger
babeuf
baby
babylon
bac
bacall
bach
bachelor
bachmann
back
backes
background
bacon
bacri
bad
badanstalt
baden
badminton
baer
baeyer
baez
baffie
bafta
bagdad
bagne
baha
bahamas
bahia
bahn
bahnhof
bahrain
bai
baikonur
bailey
bailleul
bailly
bain
bains
baiser
baisers
baker
bakterie
bakterien
baku
bal
balaban
balance
balasko
balca
balcon
baldauff
baldi
baldini
balducci
baldwin
bale
bali
balibar
balin
balkan
balkespiralgalaxis
ball
ballad
ballade
balladur
ballbese
ballet
ballon
ballons
balmer
balsam
balser
baltesche
balthasar
baltimore
baltzer
bam
bambe
bamberg
ban
banco
bancroft
band
banda
bandcamp
bande
banderas
bandit
bandits
bandleader
bands
bang
bange
bangkok
bangladesch
bank
banken
banks
banlieue
bann
banne
bannemaart
bannen
bannenan
bannendra
bannendran
bannenhaff
bannent
bannenzeg
bannenzege
bannenzegen
bannenzeger
bannenzegt
banner
banneraum
bannescht
bannmillen
banque
banquier
baptist
baptiste
bar
barack
baratier
barbados
barbanson
barbara
barbarossa
barbe
barbet
barbier
barbra
barcelona
barclay
bardem
bardot
bare
bari
bariton
barkai
barker
barks
barlow
barnard
barnes
barnich
barnig
barock
barocke
baron
baroncelli
barong
baroux
barr
barrage
barrault
barray
barre
barreau
barrie
barrier
barrois
barroso
barry
barrymore
bart
barth
barthe
barthel
bartholoma
bartholomew
bartlett
bartok
bartolomeo
barton
bartreng
bas
basalt
bascharage
baschkortostan
bascht
base
basehart
basel
baseline
baseng
basengen
basic
basie
basil
basilika
basinger
basis
baskeland
baskesch
basket
basketball
basketballspiller
basketballspillerin
basler
bass
basse
bassermann
basset
bassin
bassing
bassist
bastei
bastia
bastian
bastide
bastien
bastille
bastioun
bastiounen
bastogne
bat
bataille
bataillon
batailloun
bateau
bates
bath
batista
batman
battaglia
batter
batterie
batterien
batteur
battice
battin
battista
battle
batty
bau
bauaarbechte
bauaarbechten
bauch
bauchau
baudelaire
baudouin
baue
bauen
bauer
bauere
baueren
bauerenha
bauerenhaff
baufa
baugla
bauha
bauingenieur
baujoer
baukultur
bauler
baum
baumann
baumaterial
baume
baumeeschter
baumgartner
baumriesen
baur
bausch
bauschelt
bausse
baussen
baussent
baussenzeg
baussenzege
baussenzegen
baussenzeger
baustert
baut
bauteminister
bauten
bauvera
bauverwaltung
bauweis
bauwierk
bauwierker
bava
baxevanos
baxter
bay
baye
bayer
bayeresche
bayerescher
bayern
bayeux
bayonne
bayreuth
bazzoni
bb
bbc
bbe
bc
bd
bde
be
bea
beach
beaflossen
beaflosst
beaflossung
beagle
beamte
beamten
bean
beandrockt
bear
bearbeitet
beast
beat
beata
beate
beatles
beatrice
beatrix
beatty
beau
beauce
beaucoup
beaufort
beaujolais
beaulieu
beaumont
beaune
beaute
beautiful
beauty
beauvais
beauvoir
beauvois
beaux
beaver
beba
bec
bech
becher
bechet
beck
becken
becker
beckerich
beckett
beckius
becquerel
bed
bede
bedeckt
bedeckung
bedeckungsvera
bedeelegen
bedeelegt
bedeelegung
bedeit
bedeiten
bedeitend
bedeitende
bedeitenden
bedeitendst
bedeitendste
bedeitendsten
bedeitung
bedeitunge
bedeitungen
bedeuten
bedeutung
bedford
bedingunge
bedingungen
bedos
bedre
bedreet
bedreift
bedreiwe
bedreiwen
bedreiwer
bedriwwe
bedriwwen
bee
beefort
beeler
beem
been
beer
beery
beetebuerg
beetebuerger
beethoven
befaasst
befe
befestegt
befestegungen
beffort
before
befre
befreien
befreit
befreiung
befuer
beg
bege
begeeschtert
begeeschterung
begegnung
begegnungen
beggen
beggener
begin
beginn
beginning
begins
begleeden
begleeder
begleedung
begleet
begleetsta
begley
begra
begre
begrenzt
begriefnes
begru
begruewe
begruewen
beha
behaapt
behaapten
behalen
behandelen
behandelt
behandlung
behe
beherrscht
behind
behm
beho
behr
behrendt
behrens
behuele
behuelen
bei
beicht
beiden
beidler
beienee
beieneen
beijing
beilage
beim
beine
beineix
being
beirut
beispiel
beispill
beispiller
beispillsweis
beissel
beitra
beitrag
beka
bekannt
bekannte
bekannten
bekannter
bekanntschaft
bekanntst
bekanntste
bekanntsten
beke
bel
bela
belaaschtung
belafonte
belagert
belagerung
belair
bele
beleee
beleet
beleriand
belfast
belfort
belge
belges
belgica
belgie
belgien
belgique
belgium
belgo
belgorod
belgrad
believe
beliicht
beliichtung
beliichtungsza
belinda
beliwwert
bell
bella
bellamy
belle
bellegarde
belles
bellevaux
belleville
bellevue
belli
bellion
bello
bellocchio
bellon
bells
bellucci
belmondo
belmont
belounung
below
belsch
belsche
belschen
belscher
belscht
belt
beluecht
belushi
belval
belvaux
belve
bemannt
bemannte
bemannter
beme
bemierkbar
bemierken
bemierkenswa
bemierkt
bemierkung
ben
benannt
benannte
bender
bendix
bene
benedek
benedetti
benedict
benedikt
benediktiner
benediktinerabtei
benediktinerpater
benefice
benelux
benennung
benevolat
beneyton
benfica
bengt
benguela
beni
beniamino
benigni
benin
benito
benjamin
benkhoff
bennent
bennett
benno
benny
benoi
benoit
benotze
benotzen
benotzer
benotzt
benotzte
benotzung
benoy
benrath
bensinn
benson
bentley
benton
bentz
benussi
benz
beobachtung
beobachtungen
beoptraagt
beppo
ber
bera
berarbeitete
berbe
berben
berblick
berbuerg
berchem
bercy
berdorf
bere
berechent
berechnen
berechnung
berechnunge
berechnungen
bereet
berend
berenger
berenices
berens
berenson
berg
berge
bergen
berger
bergerac
bergisch
bergman
bergmann
bergonzelli
bericht
berichte
berichter
berkeley
berlaymont
berle
berlin
berlinale
berliner
berling
berlitz
berlusconi
bern
bernadette
bernard
bernardo
bernd
berner
bernhard
bernhardt
bernhoeft
bernie
bernis
bernstein
beroden
beroder
berout
berri
berry
bersetzt
bersetzung
bert
bertelmann
bertels
bertelsmann
bertemes
bertha
berthe
berthier
berthold
bertholet
berthomieu
berti
bertin
berto
bertogne
bertolt
bertolucci
bertrand
bertrang
bertrange
bertrix
bertuccelli
beru
beruff
beruffer
berufflech
beruffsausbildung
beruffschamber
beruffspompjeee
beryl
besanc
besat
besate
besatzer
besatzung
besch
bescha
besche
bescheed
beschiedegt
beschle
beschloss
beschoss
beschra
beschreibung
beschreift
beschreiwen
beschreiwung
beschriwwe
beschriwwen
bescht
beschte
beschten
beschter
beschu
beschwe
bese
besetzen
besetzung
besiche
besichen
besicht
besidelt
besiegt
besnard
besoin
besonnesch
besonnesche
besonneschen
besonnescher
besonnescht
besse
bessel
besser
bessere
besseren
besserer
besson
best
besta
bestallt
bestand
bestanddeel
bestanddeeler
bestanen
beste
besteet
besten
bester
besti
bestietnes
bestinn
bestit
bestoe
bestoen
bestoung
bestoungen
bestrooft
bestseller
bestuede
bestueden
bestuet
besuch
beta
beth
bethe
bethmann
betount
betounung
betrachtungen
betraff
betraffe
betraffene
betraffenen
betrag
betre
betreffen
betreffend
betreit
betreiung
betrib
betriber
betribssystem
betruecht
betsy
bett
bette
bettel
bettembourg
bettendorf
bettendorff
bettenduerf
betteng
better
bettina
bettoia
betty
between
betz
betzder
betzdorf
beuechten
beuys
beve
beverly
bevilacqua
beving
bevo
bewa
bewaacht
beweege
beweegen
beweeglech
beweegt
beweegung
beweegunge
beweegungen
bewegung
beweis
beweisen
beweiser
bewierken
bewierkt
bewing
bewisen
bewosst
bewosstsinn
bewuess
bewunner
bewunnt
bey
beyer
beyond
beyren
beze
bezeechent
bezeechnen
bezeechnung
bezeechnunge
bezeechnungen
beziehungen
bezierk
bezierker
bezierksgeriicht
bezitt
bezuch
bezuele
bezuelen
bezuelt
bezunn
bgl
bhutan
bi
bian
bianca
bianche
bianchi
bianchini
bianco
biarritz
bibal
bibel
biber
bibi
bible
bibliogr
bibliographie
bibliographiques
bibliographisches
bibliography
bibliothe
bibliothecaire
bibliothek
bibnet
bic
bichebe
bichelchen
bichen
bicher
bickford
bidde
bidden
bideau
bidinger
bidscht
bie
biebereg
biedem
bieden
biederstaedt
biekerech
biel
bielefeld
bieles
bielesser
bien
biennale
biennial
biens
bienvenue
bier
bierbichler
bierchem
bieren
biereng
bierg
biergaarbechter
biergbau
biergem
bierger
biergerkrich
biergerlech
biergerrechter
biergertum
biergkarabach
biergketten
biergmassiv
biergof
biergop
biergpra
biergre
biermann
biermereng
biever
big
bigard
bigorre
bigourdan
bihan
biissen
bijouen
bikini
bil
bilan
bilbao
bild
bildchen
bilde
bilden
bildenden
bilder
bildern
bildt
bildung
bill
billancourt
billard
billboard
bille
biller
billie
billion
billjeee
billon
billy
bilschdref
bilt
biltgen
bim
bin
bina
bindung
bing
bingen
bingenheimer
binger
binoche
binsfeld
bintz
bio
biochemiker
biodiversite
biografie
biographesch
biographical
biographie
biographien
biographique
biographiques
biographisch
biographische
biography
biolog
biologesch
biologesche
biologie
biologin
biology
biospha
biot
bip
bir
biraud
bird
birds
bireler
biren
birgel
birgit
birkin
birmingham
birnbaum
birsens
birth
birthday
bis
bischof
bisdorff
bishop
bismarck
bissau
bissen
bisset
bist
bistro
bistum
bit
bitburg
bitche
bitt
bitte
bitter
biver
bivort
biwels
biwer
bizet
bjo
bl
bla
blaaschent
black
blackman
blade
blaeu
blain
blair
blaise
blake
blakely
blanc
blanca
blanchar
blanchard
blanche
blanches
blanchett
blanchette
blanco
blancs
blankenberge
blann
blanne
blannen
blasen
blasetti
blasius
blat
blatt
blau
blaue
blauen
blaye
ble
blech
bleiben
bleibt
bleibtreu
bleift
bleiwe
bleiwen
blend
bler
blesse
bleu
bleue
bleus
blica
blick
blieder
blier
blieskastel
blin
blind
blinde
bliss
bliste
blitz
bliwwe
bliwwen
blo
bloch
blochausen
block
blocke
blockflu
bloe
bloen
blog
blois
blond
blonde
blondell
blondes
blood
bloody
bloom
blot
blouf
bloussem
blouwen
blow
blu
bluddeg
blue
bluebird
blues
bluff
blum
blume
blumen
blumm
blumme
blummen
blut
blutt
bluttbuch
bluwal
blyth
bmw
bner
bnl
bnp
bo
board
boat
boattini
bob
bobby
bobfuerer
bobigny
bobo
bocage
boccaccio
boch
bochum
bock
bockel
bockfiels
bode
boden
bodensee
bodo
bodry
bodson
body
boe
boeing
boeres
boese
boettcher
boetticher
boever
bofferding
bogarde
bogart
bogdanovich
bohe
bohm
bohr
bohringer
boi
bois
boisrond
boisset
boissie
boissol
boisson
boist
boitel
bok
bokassa
bolivien
bolkan
bollendorf
bollenduerfer
bollmann
bologna
bolognini
bolva
bolzan
bomb
bombarde
bombardement
bombardementer
bombardier
bomber
bomm
bommel
bommeleee
bommen
bommertz
bon
bona
bonaparte
bonchamps
bond
bongert
bongo
bonham
bonheur
bonifas
bonifatius
bonitzer
bonjour
bonn
bonnaffe
bonnaire
bonnard
bonne
bonner
bonnes
bonnet
bonneville
bonnevoie
bonnie
bons
bonsai
bonus
boogie
book
books
boom
boon
boone
boop
boorman
booster
boosteren
boot
booter
bootes
booth
bor
borchers
bord
bordeaux
border
borderie
borealis
borg
borges
borgia
borgnine
borgo
boris
borman
bormann
born
borne
borowczyk
borrelly
borromeo
borsche
borschette
borsody
borussia
bory
borzage
bos
bosch
boschero
bosco
bose
bosnien
boss
bosseler
bossi
bost
boston
botanesch
botanesche
botanik
botaniker
botanique
botschaft
botschafter
botswana
botter
botterblumm
bottom
bottoms
botzen
bou
boubre
bouche
boucher
bouches
bouchet
boucles
bouf
bouferdeng
bouillon
bouise
boujenah
boukels
boulange
boulanger
boulay
boule
boulevard
boulez
boulogne
boulting
boum
bouminutten
bouneweg
bouneweger
bounty
bouquet
bour
bourbon
bourbonen
bourdon
bourg
bourgeois
bourgeoisie
bourger
bourges
bourgmestre
bourgmestres
bourgogne
bourguignon
bourscheid
bourse
bourvil
bous
bousche
bousekonne
bousekonnen
bout
bouvier
bouwen
bovary
bove
bowen
bowie
box
boxen
boxer
boxing
boy
boyd
boyer
boyle
boys
bozzuffi
bp
br
bra
braas
brabant
brach
brad
bradbury
braderie
bradford
bradley
brady
bragaglia
braganc
brahe
brahm
brahms
braie
braille
brain
bram
branagh
branche
branco
brand
brandauer
brandebourg
brandenburg
brandenburger
brando
brandon
brandt
brandy
branebuerg
branson
braque
bras
brasilianesch
brasilianesche
brasilianeschen
brasilien
brass
brasserie
brasseur
brassica
bratislava
brauch
brauche
brauchen
braucht
brauer
brauerei
brauereien
braun
braunschweig
brausewetter
braut
brave
bravo
bray
braz
brazil
brazzi
bre
break
breakfast
breaking
brecht
breed
breede
breeden
breeder
breet
breetegrad
breeten
breillat
breisch
breisgau
breitman
brel
brem
bremen
bremer
bremsen
brenda
brendan
brennan
brenndauer
brenner
brennpunkt
brennt
brennwa
brent
brentano
bres
brescia
breslau
bresse
bressler
bresson
bressuire
brest
bretagne
breton
brett
breuer
brevet
brewery
brialmont
brialy
brian
brianc
brice
bricherhaff
briddel
bridder
bride
bridge
bridges
bridget
brie
briechen
brief
briefe
briefwechsel
brien
brienne
briet
brieuc
briey
brigade
brigands
briggs
bright
brighton
brigitte
brignone
brill
brillon
brimmeyr
bring
brink
brion
brioude
bris
brisbane
bristol
britain
britannica
british
britt
britten
brittesch
brittesche
britteschen
brittescher
brittescht
brive
brjansk
brno
bro
broadcast
broadcasting
broadway
broca
broch
brochant
brochard
brochet
brochste
brochure
brockhaus
broderick
brody
broken
brolin
bromberger
brong
bronge
brongen
bronsheim
bronson
bronte
bronx
bronz
bronze
bronzemedail
bronzeza
brook
brooke
brooklyn
brooks
brorsen
bros
broscht
broschthe
broschu
brosius
brosnan
brot
brother
brothers
brout
brouwer
brown
browne
browning
browser
brt
bru
bruce
bruch
bruck
brudder
bruder
bruecht
bruel
bruges
brugge
brumaire
brun
brunello
bruni
bruno
brunoy
brunswick
brussel
brussels
brutal
bruxelles
bruye
bryan
brynner
bryozoa
bs
bsdeelercher
bsp
bt
btissin
bu
bubble
buch
buchanan
buchdre
buchholtz
buchholz
buchpra
bucht
buck
bud
budapest
budd
buddenbrooks
buddha
buddhismus
buddy
budget
buedem
buedemstatioun
buenos
buer
buerg
buergen
buergermeeschter
buergermeeschtere
buergermeeschteren
buergermeeschtesch
buergfrid
buergle
buergplaz
buerschent
buerschter
buff
buffalo
buffet
bug
bugey
buick
building
buisson
bujold
bukarest
bulgaresch
bulgaresche
bulgarien
bulge
bull
bulle
bullet
bulletin
bulli
bullock
bun
bund
bundeskanzler
bundesla
bundesland
bundesliga
bundespresident
bundesrepublik
bundesstaat
bundesstaate
bundesstaaten
bundestag
bundeswehr
bung
bungeref
bunker
bunn
bunnbeste
bunne
bunneegenschafte
bunnelementer
bunnen
bunnexzentrizite
bunnresonanz
bunnschre
bunnste
bunnvitess
bunny
bunsen
buono
bur
burbach
bure
bureau
buren
burg
burgen
burger
burgess
burggraff
burgos
burgtheater
burgund
burgunder
burke
burkina
burl
burma
burning
burns
burr
burroughs
burstyn
burt
burton
burundi
bus
busby
busch
buschmann
buschtaf
buschtawe
buschtawen
bush
business
buslinn
buslinnen
busse
bussen
busser
bussie
buste
buster
but
butler
buts
butschebuerg
butte
buttek
butteker
butterfly
buy
buzz
buzzanca
buzzell
bwv
bxc
by
bye
byrd
byrne
byron
byzantinesche
byzanz
c
ca
caan
cabaret
cabinda
cabinet
cable
cabo
cabot
caccia
cache
cachet
cacoyannis
cactus
cadastre
cade
cadeau
cadet
cadre
caen
caesar
cafe
cage
cagney
cahen
cahier
cahiers
cahn
cahors
cai
caiano
cain
caine
caire
cairo
caisse
cal
cala
calais
calcio
caldera
cale
calef
calfan
calhern
calhoun
california
caligula
call
callan
callas
called
calling
calmes
caltech
calteux
calvados
calvert
calvet
calvi
calvin
calvo
cam
camarda
cambrai
cambre
cambridge
came
camelopardalis
camembert
cameo
camera
camerini
cameron
camilla
camille
camillo
caminho
camino
camion
camionen
cammage
camo
camp
campagne
campagnes
campan
campanile
campbell
campe
camping
campion
campo
campogalliani
campos
campus
campussen
camus
can
canada
canadian
canaille
canal
canale
canaveral
canberra
cancer
cancri
candice
candidate
candide
candy
cane
canes
canet
canique
canis
cannabis
cannes
cannon
canon
canonge
cantal
canterbury
canto
canton
cantons
canyon
canzoni
cao
cap
capacite
cape
capella
capelle
capellen
capitaine
capital
capitale
capitan
capitani
capitano
capitaux
capitol
capo
capone
caponnie
caporal
cappella
capra
capri
caprice
caprices
caprioli
captain
captive
capuano
capucine
capus
capybara
car
cara
caracte
carbon
carbonnaux
carcassonne
card
cardiff
cardinal
cardinale
cardona
cardoni
cardoso
care
career
caregari
carel
carette
carey
cargo
cargolux
caribbean
carignan
carina
carinae
carine
caritas
carl
carla
carle
carletti
carlo
carlos
carlsen
carlson
carlyle
carme
carmel
carmen
carmet
carmichael
carmine
carnaval
carne
carnegie
carnet
carnets
carnimeo
carnival
caro
carol
carola
carole
carolina
caroline
carolyn
caron
carotenuto
carpenter
carpentras
carpi
carr
carradine
carre
carrefour
carrel
carrell
carreras
carrie
carrier
carrol
carroll
carry
cars
carson
carstairs
carsten
carstens
carstensen
carte
carter
cartes
cartier
carton
cartoon
cartoons
cartouche
caruso
carvalho
carver
cary
cas
casa
casablanca
casanova
casar
casares
cascade
cascadeur
case
casey
cash
casino
caso
caspar
cassal
cassandra
cassavetes
casse
cassegrain
cassel
cassidy
cassini
cassiopeia
cast
casta
castan
castegnaro
castel
castellani
castellano
castellari
castelli
castellitto
castello
castelnau
castelnuovo
castelo
castelot
castelsarrasin
castilla
castillo
castillon
casting
castingshow
castle
castor
castres
castro
cat
catalina
catalog
catalogue
catalogueoflife
catalunya
catani
catania
catch
cate
catenaire
caterina
cathe
cathelineau
catherine
cathol
catholic
catholique
cathy
cats
cattenom
cauchy
caud
caunes
causa
cause
causes
causse
cava
cavalcanti
cavalier
cavaliere
cavalieri
cavani
cave
caven
cavendish
caves
cayatte
cayenne
cb
cbe
cbs
cc
ccd
cd
cden
cdot
cds
cdu
ce
cebra
ceca
ceccaldi
cecil
cecilia
cedric
cegani
cegedel
ceinture
cela
celentano
celi
celle
celles
celli
cellier
cellist
cello
celsius
celsus
celtic
celui
cembre
cemetery
census
cent
centaur
centaure
centauri
centaurus
centenaire
center
cento
central
centrale
centre
centres
centro
cents
century
ceo
cephei
cepheiden
cepheus
ceps
cerchio
cercle
ceres
cerf
cern
cerro
certain
cervantes
cervi
ces
cesar
cesare
cet
ceti
cette
cetus
ceux
cev
cf
cfa
cfl
cgdis
cgfp
cgi
ch
cha
chabat
chabrol
chacun
chad
chadwick
chaffey
chai
chain
chair
chakiris
chal
chalet
challenge
challenger
chalon
chalonge
chambe
chamber
chamberlain
chamberpresident
chamberwale
chamberwalen
chambon
chambre
chambres
chamonix
champ
champagne
champignon
champignons
champion
championat
championnat
champions
championship
championships
champs
chan
chanas
chance
chandler
chandra
chanel
chaney
chang
change
changement
changementer
changes
channel
channing
chanoine
chanois
chanson
chansonnier
chansons
chansonsa
chant
chantal
chante
chanteur
chantier
chants
chaos
chapeau
chapelle
chaplin
chapman
chappe
chapter
chaque
character
characters
charakter
charakterise
charakteristesch
charakteristik
charakteristike
charakteristiken
chardonnay
charel
charente
charette
charge
charges
chariklia
charisse
charite
charlemagne
charlemont
charleroi
charles
charleville
charley
charlie
charlier
charlize
charlots
charlotte
charlton
charly
charme
charon
charpentier
charpin
charrier
charta
charte
chartres
chartreuse
charts
chase
chasma
chasse
chasseur
chasseurs
chastel
chat
chatel
chaucer
chauffer
chauffere
chaufferen
chauffeur
chaumont
chausse
chauvin
chaux
chavannes
chazel
chc
chd
che
chec
checchi
check
checs
cheemesch
cheemesche
cheemeschen
cheemescher
cheemescht
cheemiker
chef
cheffe
cheffen
chefredakter
chefs
cheg
chel
chela
chelo
chelsea
chelskierch
chem
cheme
chemical
chemie
chemin
chemins
chemistry
chen
chenal
chenausdehnung
chene
chenhellegkeet
chent
chentemperatur
cher
cherbourg
cherche
cherchez
chere
cheren
cherheet
cherheetsgre
cherheetsrot
cherlech
chert
cherung
cherungen
ches
chesnais
chess
chessgames
chester
chet
cheval
chevalier
chevin
chevrier
chevrolet
chewisen
cheyenne
chez
chi
chiara
chiari
chicago
chicken
chief
chien
chiens
chiers
chiesanuova
chiffre
chiffres
child
children
chile
chileenesch
chileenesche
chili
chimay
chime
chimie
chin
china
chine
chineesesch
chineesesche
chineeseschen
chineesescher
chinese
chinois
chinon
chiny
chips
chirac
chirurg
chirurgie
chis
chl
chlech
chlein
chler
chlodwig
chloe
chlor
chlothar
chnen
chner
cho
choc
choice
choiseul
choix
cholera
cholet
chome
chomette
chomsky
chondritte
chondritten
chopin
chor
chorale
choreograph
chose
choses
chouannerie
chouans
chouer
chouraqui
choureau
choux
chr
chre
chris
christ
christa
christen
christensen
christi
christiaan
christian
christiane
christianise
christie
christina
christine
christliche
christmas
christnach
christo
christoph
christophe
christopher
christophory
christus
christy
chromospha
chronicle
chronicles
chronik
chroniken
chronique
chroniques
chronogramm
chronologesch
chronologie
chst
chste
chsten
chstens
chster
chstwarscheinlech
cht
chte
chteg
chtege
chtegen
chtegt
chten
chter
chtlingen
chtnis
chu
chuck
church
churchill
chute
ci
cia
cial
ciale
ciampi
ciao
ciccio
cicero
ciclista
cid
cie
ciel
cielo
cifariello
cigrang
cile
cilento
cimetie
cimino
cincinnati
cindy
cine
cinema
cinemathe
cineuropa
ciney
cinq
cinque
cinquie
cio
cipa
circ
circle
circuit
circulation
circus
cirelli
cis
cisions
cit
citadel
cite
cities
cito
citoyen
citroe
citta
citti
city
ciudad
civil
civile
civilisation
civirani
ck
ckble
ckblick
ckbruecht
cke
ckel
ckele
ckelen
ckelmann
ckelt
ckelte
ckelten
cken
ckentdeckung
cker
ckerei
ckeruewert
ckfe
ckga
ckgaangen
ckgeet
ckgefouert
ckgegraff
ckgetruede
ckgetrueden
ckgezunn
ckginn
ckgoen
ckkomm
ckkommen
ckkoum
cklech
ckleefeg
ckler
cklich
cklung
cklunge
cklungen
cklungshe
cklungsla
ckner
cks
cksa
ckschle
ckste
ckstoff
ckt
ckte
ckten
cktre
cktrieden
ckung
ckze
ckzefe
ckzekommen
ckzeze
ckzuch
cl
cla
clair
claire
clairefontaine
clan
clancy
clara
clarant
claration
clare
clarence
clarin
clarinval
clariond
clark
clarke
clasen
clash
class
classe
classement
classes
classic
classical
classics
classification
classique
claude
claudel
claudette
claudia
claudine
claudio
claudius
claus
clausen
clausener
clausse
clav
clavier
clay
clayburgh
clayton
cle
clear
cleef
clees
clef
clemen
clemens
clement
clementine
clemes
cleopatra
clerk
clermont
clervaux
cles
clesse
cleveland
clia
clibb
clichy
client
cliente
clienten
clierf
cliff
clifford
clift
clifton
climate
clinique
clint
clinton
clio
clip
clive
clm
clo
clochard
cloche
clock
clooney
clos
close
clotilde
cloud
clouds
clouzot
clovis
clown
clt
club
clubs
cluj
cluny
cluse
cluster
clusters
cluzet
clyde
cm
cn
cna
cnes
cnl
cnrs
co
coach
coast
coauteur
cobb
cobra
coburg
coburn
coca
cochran
cocker
cockerill
coco
cocteau
code
coden
codex
codice
cody
coe
coen
coeur
coggio
cognac
cohen
cohn
coimbra
coin
col
cola
colabianchi
colbach
colbert
cold
cole
coleman
coles
colette
coletti
colin
coline
coll
collaboration
collande
collart
colle
collected
collection
collections
collective
collectivite
colleen
college
collegium
collette
collier
collin
collinder
colline
colling
collins
collinson
colloque
colman
colmar
colmer
colnet
cologie
cologique
colombe
colombes
colombier
colombo
colonel
colonia
colonnes
color
colorado
colour
colpach
colpo
colt
coltrane
coluche
columbia
columbus
com
coma
comarca
comarcas
combat
comblain
combret
come
comeback
comedian
comedy
comencini
comer
comes
comet
comets
comfort
comic
comicfigur
comics
comicserie
comicszeechner
comiczeechner
coming
comite
command
commandant
commande
commandements
commander
commandeur
commandments
commando
comme
commemoratiounsplaz
commence
comment
commentaire
commerce
commercial
commerciale
commissaire
commissariat
commission
committee
common
commons
commonwealth
commun
communal
communale
communales
communaute
communaux
commune
communes
communication
communications
communique
communiste
community
como
compact
compagnie
companion
company
compare
compartiment
compe
compie
comple
complete
complex
composition
compostela
comptabilite
compte
comptes
compton
computer
computerbegre
computere
computeren
comte
comtesse
con
conan
concepcio
concernant
concert
concerte
concerten
concerto
conchita
concorde
concordia
concours
concourse
concoursen
condamne
conde
conditions
condom
condor
condroz
conducteurs
conduite
coner
confe
conference
confession
confessions
confiance
confidences
confidential
confirme
conflans
confolens
conforme
confre
conge
congo
congre
congress
connai
connaissance
connect
connecticut
connection
connell
connelly
connery
connie
connolly
connor
connors
connu
connus
conny
conomie
conomique
conomiques
conquest
conrad
conrardy
cons
conscience
consdorf
conseil
conseiller
conseilleren
conservateur
conservation
conservatoire
conside
considere
consolatrix
conspiracy
constance
constant
constantin
constantine
constituante
constitution
constitutionnel
constitutioun
construction
consulat
consultative
consulte
contact
container
conte
contemporain
contemporaine
contemporary
content
contenu
conter
contern
contes
contest
conti
continental
continue
contournement
contra
contract
contraire
contre
contribution
contributions
contro
control
convention
conway
conzemius
cook
cool
coope
cooper
coordonne
cop
copains
cope
copeland
copernicus
coppa
coppola
copyright
coq
coque
cor
coratifs
corbie
corbucci
corde
cordes
cordova
cordula
cordy
core
corey
corinna
corinne
corman
corneau
corneille
cornel
cornelia
cornelis
cornelius
cornell
corner
cornet
corniche
cornillac
cornwall
corny
corona
coronae
coronavirus
corot
corpo
corporation
corps
corpse
corpus
corre
correia
correspondance
correspondant
corrigan
corsaro
corse
cort
corte
cortese
cortez
cortina
corto
corvus
cos
cosa
cosi
cosl
cosmatos
cosmic
cosmology
costa
costello
coster
costner
cote
cotillard
cotta
cottafavi
cotten
cottenc
cotton
cou
couche
coude
could
couleur
couleurs
council
count
countdown
counties
countries
country
county
coup
coupable
coupe
coupegewe
couple
coups
cour
courage
courante
courcel
courcelles
coureur
coureure
coureuren
couronne
courrier
cours
course
coursen
coursse
courssen
court
courte
courtenay
courtine
courtney
courtois
courtrai
cousin
cousteau
coutances
coute
couture
couturier
couverte
couzinet
cover
coverband
covid
covidcheck
cowboy
cowboys
cowl
cox
coyote
cp
cpll
cr
crack
craig
crain
cramer
cran
crane
crash
crater
cravatte
craven
crawford
crazy
crc
cre
cream
creative
creek
cremer
cremona
crenna
cressoy
cret
creuse
crew
cri
crichton
cricketspiller
crime
crimen
crimes
criminal
crimson
cris
crise
crisis
crisium
crispin
cristal
cristina
cristo
crite
critical
critique
crits
crivains
croce
croise
croisie
croissance
croix
cromwell
cronaca
cronenberg
crooked
crosby
cross
crossing
crossroads
crowd
crowe
crown
cru
cruchten
cruise
cruises
cruising
crux
cruz
cry
crystal
cs
csa
csc
cseligman
csi
csj
csu
csv
csy
ct
ctor
cu
cuba
cube
cucciolla
cuir
cuisine
cukor
culottes
cultura
cultural
culture
culturel
culturelle
culturelles
culturels
cultures
cum
cummings
cunard
cunningham
cuno
cuny
cuore
cup
curazia
curd
cure
curie
curiosity
curite
curriculum
curse
curt
curtain
curtis
curtiz
cusack
cusanus
cushing
cut
cutif
cution
cv
cvn
cxd
cy
cyclable
cyclables
cycle
cycles
cycling
cyclisme
cyclist
cycliste
cyclisten
cyclistes
cyclo
cyclocross
cyd
cygni
cygnus
cyprien
cyr
cyrano
cyril
cyrus
cz
cziffra
czuga
cœur
d
da
daach
daachverband
daags
dach
dachau
dacks
dacqmine
dactyl
daddy
dae
daf
dafoe
dafrika
dafrikanesch
dafrikanesche
dafrikaneschen
dafsteen
dag
dageszeitung
dagmar
dagobert
dagogique
dagover
dahl
dahlke
dahm
dai
dailey
daille
daily
daisy
dakar
dakota
dal
dalban
dale
daleiden
dalheim
dalhem
dali
daliah
dalila
dalio
dall
dalla
dallamano
dallas
dalle
dallesandro
dalton
dam
damar
dame
damerika
dames
damian
damiani
damiano
damien
damit
damm
damme
dammebasketballnationalekipp
dammefoussballnationalekipp
dammegambit
dammen
dammenekipp
dammevolleyballnationalekipp
damned
damon
damp
dampierre
damvillers
dan
dana
dance
dancer
dancing
dane
dange
danger
dangereux
dangerous
dani
danie
daniel
daniela
daniele
danielle
daniels
danjon
dank
dann
danning
danny
danova
dans
danse
dante
danton
dany
danz
danzeg
danzen
daphne
daphnia
daphnis
daquin
dar
darby
darc
darcey
dard
dare
dareios
darf
darfeuil
dargaud
dargent
darin
daring
dario
dark
darkness
darling
darmon
darmstadt
darnell
darney
darras
darren
darrieux
darroussin
darry
darstellung
darvi
darwin
dary
daryl
das
dass
dassault
dassin
dat
data
database
date
datebank
datei
daten
datenbank
dativ
dato
datt
datum
daubenfeld
dauchen
daucht
dauer
dauere
daueren
dauerhaft
dauert
daughter
daughters
daumier
dauphin
dauphine
dausend
dausende
dave
davenport
daves
david
davide
davidson
davies
davis
davy
dawn
dawson
dax
day
days
dazu
daß
db
dbe
dbezierk
dc
dchen
dd
dden
ddeutsche
ddi
ddr
de
dea
dead
deadly
deadpool
deal
dean
dear
dearden
dearly
death
deauville
debar
debatt
debatte
debatten
debbie
debit
deborah
debra
debre
debris
debucourt
debussy
debut
dec
decca
december
dech
deche
dechen
decide
decin
decine
decins
decision
decisioun
decisioune
decisiounen
deck
deckblieder
deckel
decken
decker
deckt
decoin
decret
dedie
dee
deefer
deeg
deeglech
deel
deelbera
deele
deelen
deeler
deelercher
deelgebitt
deelgeholl
deelhuelen
deelle
deels
deelste
deelt
deelung
deelweis
deelzehuelen
deem
deementspriechend
deemno
deemoleg
deemolege
deemolegen
deemoleger
deemools
deen
deene
deenen
deep
deepfrozen
dees
deet
defence
defense
deferre
define
definitioun
definitiv
definitive
defizit
degen
degli
degrade
dehelly
dehner
dehon
dei
deier
deimos
dein
deine
deit
deiten
deitz
dekanat
dekanatskierch
dekker
deklaratioun
deklare
deklasse
deklinatioun
dekline
dekoratioun
dekore
dekret
del
dela
delacroix
delair
delannoy
delano
delaporte
delaware
delbert
delbez
delcourt
delegatioun
delege
delgado
delhaize
delhi
delia
delingen
delisle
delitto
dell
della
delle
dellere
delles
dello
delluc
delmer
delmont
delon
delorme
delors
delphi
delphine
delpy
dels
delta
deltgen
delubac
delvaux
dem
demain
demand
demande
demeter
demi
demicheli
demick
demille
demissione
demissioun
demme
demo
democracy
democratic
demoiselles
demokraten
demokratesch
demokratesche
demokratescher
demokratie
demongeot
demonstre
demuth
demy
den
denain
dench
deneb
deneuve
deng
denholm
deniaud
denis
denise
denke
denken
denker
denkmal
denkmalschutz
denkt
denn
denner
denning
dennis
denoe
dents
denver
denys
denzel
depardieu
depart
departement
departementale
departementer
department
deplace
depliant
deportatioun
deportatiounsmemorial
deporte
depose
depot
depp
deppe
depuis
depute
der
deray
derba
derbaum
derby
derduerch
dere
derek
deren
derge
dermat
dern
dernie
dernieft
dernier
derniers
derrick
derrie
ders
derte
dervu
dervun
derzou
des
desagnat
desailly
descartes
descente
deschamps
descrie
description
desert
deserte
deserto
design
designe
designer
desire
desmarets
desmond
desny
desperate
dessau
dessen
dessert
dessin
dessine
dessins
dessous
dessus
dest
destin
destination
destine
destino
destiny
destre
det
detache
detail
detailer
detaille
details
detection
detective
detekte
detekter
detektiv
detlef
detlev
detmers
detroit
detten
deu
deutsch
deutsche
deutschen
deutscher
deutsches
deutschland
deutschlands
deux
deuxie
devaivre
devant
development
deventer
devil
deville
devils
devis
devise
devito
devon
devos
dewaere
dexia
dexter
dez
dezember
dfrankra
dh
dhallefkugel
dhe
dhimmel
di
dia
diable
diablo
diagonal
diagramm
dialekt
dialekter
dialog
dialogue
diamant
diamond
diamonds
diana
diane
dianne
diary
dias
diavolo
diaz
dical
dicale
dicales
dicaprio
dich
dicht
dichte
dichter
dichtung
dick
dickinson
dicks
dico
dictionary
dictionnaire
dictionnairen
did
diddeleng
diddelenger
diddenuewen
diddenuewener
diderich
diderot
didi
didier
die
diech
dieci
died
diederich
diego
diehl
diekirch
dien
dienst
dieppe
dier
diere
dieren
dierfer
dierft
dies
dieschbourg
diese
diesel
diesem
dieser
dieses
diessl
dieter
dieterle
dietl
dietmar
dietrich
dietz
dieu
dieudonne
dieux
diffe
differdange
differdingen
differenz
differenze
differenzen
difficile
diffring
diffuse
diffusion
diger
diggiloo
digital
digitale
digitaler
digitalisat
digitalise
digne
dijle
dijon
dikrech
dikrecher
dikrich
diktator
diktatur
dill
dillenburg
dillman
dillon
dimanche
dimensioun
dimensioune
dimensiounen
diminutiv
dimitri
dimmer
din
dina
dinan
dinant
ding
dinge
dinn
dinner
dino
dinosaurier
dio
diogenes
diois
diokletian
dione
dionysos
diplo
diplom
diplomat
diplomatesch
diplomatesche
diplomatie
dippech
dir
dire
direct
directeur
direction
directoire
director
directrice
direkt
direkte
direkten
direkter
direktesch
direktioun
direktiv
direktor
dirige
dirigent
dirk
dirty
dis
disagreement
dische
disco
discographie
discogs
discours
discovered
discoverers
discovery
discworld
disk
diskrimine
diskussioun
diskussiounen
diskute
disney
disparu
displaystyle
disponibel
dispositions
dispositioun
dispute
disque
diss
dissertation
dissertatioun
dissident
distance
distant
distanz
distanzbeste
distanze
distanzen
distinction
distinctions
distingue
distribution
distributioun
district
distrikt
distrikter
distriktskommissa
disziplin
disziplinnen
dit
dita
dite
diten
diterrane
dites
diteur
diteurs
dith
dition
ditions
dits
diva
divers
diverse
diversite
divine
division
divisioun
divisioune
divisiounen
divorce
dix
dixie
dixon
diz
dizier
dj
django
dk
dkorea
dkoreanesche
dku
dlech
dleche
dlechen
dlecher
dlechst
dlechste
dler
dliche
dlr
dm
dmitri
dmytryk
dna
dnr
do
doba
dobaussen
dobservatoire
doc
doch
doctena
docteur
doctor
doctrine
document
documenta
documentaire
documentairen
documentation
documents
dodd
dodge
dodra
dodran
doduerch
doe
doen
dofir
dog
doge
dogma
dogs
doheem
dohi
dohier
dohin
dohinner
doi
doihl
doillon
doit
doivent
dokter
dokteraarbecht
dokteren
dokterthees
doktertitel
doktesch
doktor
doktorat
dokument
dokumentarfilm
dokumentarfilmer
dokumentation
dokumentatioun
dokumente
dokumenter
dol
dolce
dole
dolibois
doll
dollar
dollari
dollaro
dollars
dolly
dolores
dom
doma
domain
domaine
domaines
domani
domat
dombasle
dome
domenica
domenico
domicile
dominant
domine
domingo
dominic
dominik
dominikaner
dominikanesch
dominique
domino
domm
dommartin
dompierre
don
donald
donat
donati
donato
donatus
donatuskapell
donau
donc
donckel
dondel
dondelinger
done
donen
dong
donieft
doniol
donkel
donkele
donkeler
donkels
donlevy
donna
donne
donnen
donner
donneschdeg
donneschden
donneschdes
dono
donovan
dont
donzelli
door
doors
doosber
doping
doppler
dor
dora
dorado
doradus
doran
doranner
doraus
dordogne
dordrecht
dore
dorelli
doren
dorf
dorian
doris
doriwwer
dorle
dorop
dorophin
doropshi
doropshin
dorothe
dorothea
dorothy
dorpat
dors
dorsa
dorsch
dorsum
dort
dortmund
doru
doruechter
dorun
dorziat
dos
dose
dosen
dosende
dossier
dossiers
dost
dostasien
doste
dosten
dostert
dosteuropa
dostojewski
dot
dote
douai
douane
douanes
douard
double
doubs
douce
doud
doudeg
doudege
doudegen
doudeger
doudesaffer
doudesannonce
doudesdag
doudesstrof
doug
douglas
dougnac
doum
dourif
douro
dout
doutgemaach
douze
dove
dover
dovu
dovun
dowe
down
downey
download
doyen
doyle
doze
dozent
dozou
dp
dpol
dr
dra
draach
drach
drache
draco
draconis
dracula
drage
drago
dragon
dragons
draguignan
drake
drale
draleeft
dram
drama
dramatesch
dramatesche
dramatiker
dramatique
dramaturg
drame
dran
drapeau
draper
draufelt
draus
dre
dream
dreams
dreck
dreem
drei
dreifstoff
dreift
dreifwierk
dreifwierker
dreiwen
dreiwend
drescher
dresden
dreux
drew
dreyer
dreyfus
dreyfuss
dric
driedaagse
dritte
dritten
drive
driver
driwwer
dro
drock
drockversioun
droe
droemer
droen
droessaert
drogen
droit
droite
droits
droitsportal
drop
drophin
drorake
drot
dru
druck
drucker
druckerei
druid
drummer
drums
drun
ds
dsa
dschingis
dss
dt
dtiroul
dtische
dtv
du
dubai
dubbel
dublin
dubois
dubosc
dubost
duby
duc
ducal
ducale
ducation
ducaux
duccio
duchaussoy
duche
duchesne
duchesse
duchscher
ducis
duck
duddelsak
dudelange
duden
dudley
due
duebel
duebele
duebeler
duebelsta
duechter
duechtere
duechteren
duechtergesellschaft
duel
duelem
duell
duer
duerch
duerchaus
duerchbroch
duerchdre
duercherneen
duerchfe
duerchga
duerchgank
duerchgefouert
duerchgesat
duerchleeft
duerchmiesser
duerchmusterung
duerchschne
duerchsetze
duerchsetzen
duerchzefe
duerchzesetzen
duerf
duerfir
duerfka
duerfstrooss
duergaangen
duergestallt
duerno
duerstellen
duerstellt
duerstellung
duerstellunge
duerzestellen
duett
duff
dufilho
dufour
duhamel
duhour
duhr
duilio
duisburg
dujardin
duke
dullea
dullemajik
dumas
dumesnil
dummeldeng
dummeldenger
dumont
dumoulin
dun
dunaway
duncan
dundee
dune
dunkerque
dunkle
dunlop
dunn
dunne
dunnebre
duo
duperey
dupong
dupont
dupontel
dupuis
dupuy
dur
durable
durance
durand
duras
durbion
durbuy
durch
dure
durham
during
duris
durlet
durning
dury
duryea
dussollier
dust
dustin
dutch
dutreux
dutronc
duval
duvall
duvivier
dux
duxall
dvd
dvdbeaver
dvdclassic
dvdclassik
dw
dwan
dwarf
dwest
dweste
dwesten
dwestlech
dwestleche
dwestlechen
dwestlecher
dwight
dxc
dxe
dy
dying
dyke
dylan
dynamesch
dynamics
dynamik
dynamit
dynamite
dynastie
dz
e
ea
eads
eagle
eagles
earl
early
earth
east
eastern
eastman
eastwood
easy
eat
eaton
eau
eaux
ebd
eben
eberhard
ebert
ebu
ec
eccle
ech
echec
echevins
echo
echt
echte
echternach
echternacher
eck
ecker
eckhart
eckste
eco
ecole
econ
economic
economics
economie
ecran
ecuador
ecurie
ed
eddi
eddie
eddington
eddy
edel
eden
edgar
edge
edikt
edinburgh
edison
edit
edite
edited
editeur
edith
edition
editions
editioun
editioune
editiounen
editor
editorial
editpress
edme
edmond
edmund
edna
edoardo
edouard
eds
edu
eduard
eduardo
education
educatioun
educatiounsministe
edvard
edward
edwards
edwige
edwin
edy
ee
eeben
eech
eeche
eechelen
eechen
eecher
eed
eedem
eee
eege
eegebeweegung
eegen
eegene
eegenen
eegener
eegennumm
eegenschaft
eegenschafte
eegenschaften
eegent
eegesta
eegeverlag
eelef
eeleft
eeler
eelere
eeleren
eelerer
eelst
eelste
eelsten
eemaischen
eemol
eemoleg
een
eendeiteg
eenegt
eenheet
eenheete
eenheeten
eenheetesystem
eenheetlech
eens
eent
eenzeg
eenzegaarteg
eenzege
eenzegen
eenzeger
eenzegt
eenzel
eenzele
eenzelen
eenzelsta
eenzelza
eenzuel
eescheler
eescht
eesebuer
eeste
eethik
eewa
ef
effectif
effects
effekt
effekter
effektiv
effet
efficace
effizient
efta
eg
ega
egal
egan
egbert
ege
egg
eggar
egger
eggerth
egide
egkeet
egkeete
egkeeten
eglise
ego
egon
egypte
egypten
egypter
egyptesch
egyptesche
egypteschen
egyptescher
egyptian
eh
ehe
ehre
ei
eich
eichberg
eicher
eichhorn
eidel
eifel
eiffel
eiffeltuerm
eigentlech
eigentleche
eigentlechen
eigentlecher
eigenverlag
eiger
eight
eil
eileen
ein
eindhoven
eine
einem
einen
einer
eines
einfach
einfache
einfachen
einfacher
einfacht
einfu
eingeweiht
einige
einleitung
einmal
eins
einsatz
einst
einstein
eis
eischen
eise
eisebunn
eisebunner
eisebunnsbre
eisebunnsgesellschaft
eisebunnslinn
eisebunnsnetz
eisebunnsstreck
eisebunnsstrecken
eisem
eisen
eisena
eisenach
eisenbahnen
eisene
eisenhower
eisenindustrie
eisenstein
eiser
eist
ek
ekberg
ekipe
ekipement
ekipp
ekippe
ekippeklassement
ekippen
ekland
ekliptik
ekman
ekologesch
ekologie
ekonomesch
ekonomesche
ekonomeschen
ekonomescher
ekonomie
ekonomist
el
ela
elaine
elba
elbe
eldo
eldoradio
eldorado
ele
eleanor
elections
electric
electro
elefant
elei
elektra
elektresch
elektresche
elektreschen
elektrescher
elektrifize
elektrizite
elektro
elektromagne
elektron
elektrone
elektronen
elektronesch
elektronesche
elektroneschen
elektronescher
elektronik
elektrotechnik
element
elementer
elena
eleng
eleonora
elephant
eleven
eley
elf
elfebeeku
elfie
elfriede
elga
eli
elia
elias
elie
elijah
elimine
elina
elio
eliot
elisa
elisabeth
elise
elite
eliteprospects
elizabeth
elke
ell
ella
elle
ellen
elleng
ellery
elles
ellington
elliot
elliott
ellips
ellipsoid
elliptesch
elliptesche
elliptescher
ellis
elma
elmar
elmer
elo
elsa
elsass
else
elsen
elsner
elst
elsy
elter
eltere
elteren
eluxemburgensia
elveng
elvey
elvinger
elvire
elvis
elyse
em
emael
email
emanuel
emanuele
emergency
emeric
emeringer
emerite
emerson
emi
emigranten
emigre
emil
emile
emilia
emilie
emilio
emily
emir
emirater
emission
emissioun
emissioune
emissiounen
emissiounsniwwel
emitte
emma
emmanuel
emmanuelle
emmau
emmer
emmerich
emmy
emo
emol
empereur
emperor
empfa
empfaange
empfaangen
empfang
empfindlech
empfindlechkeet
empire
emploi
employe
empreinte
ems
en
ena
encadre
enceladus
encerie
encke
encore
encourage
encouragement
encyclopaedia
encyclope
encyclopedia
end
ende
endeavour
endeemesch
endfield
endlech
endroit
endung
enemy
energie
energien
energiequell
energiera
energieversuergung
energija
energy
enfance
enfant
enfants
enfer
eng
engage
engagement
engagementer
enge
engel
engelen
engelmann
engels
engelspach
engem
engems
engen
enger
engersa
enges
engineering
engl
engla
england
englesch
englesche
engleschen
englescher
engleschsproocheg
engleschsproochege
englescht
engling
englisch
english
englobant
enigma
enk
enke
enkel
enken
enker
enklav
enn
enne
ennemi
ennemis
enner
ennes
ennio
enorm
enough
enovos
enque
enrage
enregistre
enregistrement
enrica
enrico
enright
enrique
enro
ens
ensch
enseignant
enseigne
enseignement
ensembel
ensembelen
ensemble
enstatit
entdecken
entdecker
entdeckt
entdeckte
entdeckten
entdeckung
entdeckunge
entdeckungen
entdeckungsreesenden
entente
enterprise
entertainer
entertainment
entfe
entfouert
entge
entha
enthalen
entie
entite
entkommen
entlooss
entomolog
entre
entreprener
entrepreneur
entreprise
entreprisen
entreprises
entretien
entretiens
entsche
entscheeden
entscheedend
entscheedung
entscheet
entscheidung
entsprach
entspre
entspriechen
entspriechend
entspriechende
entstane
entstanen
entsteet
entstehung
entsti
entstinn
entstoe
entstoen
entstoung
entstoungen
entta
entwa
entwe
entweeder
entwicklung
entworf
entzu
entzunn
enveloppe
envers
environment
environnement
environs
envol
enzo
enzyklopa
enzyklopedie
eo
eos
ep
ephemeriden
epicerie
epidemie
epimetheus
episod
episode
episoden
epoch
epoche
epochen
epoque
epos
eppelduerf
eppes
eppler
epsilon
epstein
epternacensis
equatioun
equator
equatorial
equatorplang
equinoxe
equipage
equipe
equis
equivalent
er
era
eran
erang
erasmus
erasmy
eraus
erausbruecht
erausfonnt
erausfuerderung
erausg
erausgeha
erausgeholl
erausgesicht
erausgestallt
erausgi
erausginn
erauske
erauskomm
erauskommen
erauskoum
erauskoumen
erauszefannen
erauszekommen
erba
erbe
erbel
erben
erch
ercher
ercole
erd
erda
erdachs
erdatmospha
erdbier
erdbiewe
erdbiewen
erdbunn
erde
erdeg
erdegbruecht
erdege
erdeggestallt
erden
erder
erdgas
erdkuuscht
erdmagne
erdmantel
erdmass
erdmassen
erdme
erdmound
erdmoundkrateren
erdmoundsa
erdno
erdnoen
erdobservatioun
erdorbit
erdre
erdref
erdronk
erdrotatioun
erdspha
erduerch
erduercht
erduewerfla
erdzougedre
ere
eren
erf
erfaassen
erfaasst
erfarung
erfarunge
erfarungen
erfe
erfen
erfinder
erfindung
erfolleg
erfolleger
erfollegra
erfollegt
erfonnt
erft
erfuerdert
erfuersche
erfuerschen
erfuerscht
erfuerschung
erfurt
erfurth
erga
erge
ergebnisse
erginn
ergra
ergraff
erha
erhale
erhalen
erhard
erhardt
erhe
erhuewe
erhuewen
eric
erica
erich
ericson
eridani
eridanus
erik
erika
eriksson
eringer
erinnerung
erinnerungen
erinnerungsorte
eris
eritrea
eriwwer
erjeng
erjenger
erkannt
erkels
erken
erkennbar
erkenne
erkennen
erkennt
erkenntnes
erkenntnesser
erker
erkla
erkst
erkste
erksten
erkt
erkung
erla
erlaabt
erlabe
erlaben
erlabnes
erland
erlangen
erle
erlebtes
erliefnesser
erlieft
erliewen
erm
erme
ermelkanal
ermesinde
ermt
ermuerdung
ermuert
erna
ernannt
erneiert
erneierung
ernennt
ernennung
ernest
ernesto
ernie
erniere
ernieren
erniert
ernierung
ernimme
ernimmen
ernimmt
ernst
ernster
erny
ernzer
ero
erode
eroe
erof
erofgaangen
erofgefall
erofgesat
erofzelueden
eroi
erop
eropgaangen
eros
erosioun
erotesch
erpelding
err
erreeche
erreechen
erreecht
erreechte
errol
ersat
ersatz
ersche
erschoss
erschwe
ersetze
ersetzen
ersetzt
ersfeld
ersg
erst
erstallt
erste
ersten
erster
erstreckt
ert
ertchen
erte
erteg
erten
erter
ertert
ertes
ertner
ertrech
erts
ertung
ertvoll
erueweren
eruewerer
eruewert
eruewerung
erun
eruptioun
ervir
ervirbruecht
ervirgaange
ervirgaangen
ervirgeruff
ervirgoung
erw
erwa
erwaarden
erwaart
erwe
erweidert
erweiderung
erweiterte
erwin
erwisen
erwuesse
erwuessene
erwuessenen
erwuessener
erz
erza
erzbe
erzbistum
erze
erzeg
erzen
erzeng
erzengel
erzer
erzherzog
erzherzogin
erzielen
erzieler
erzielt
erzielung
erzielunge
erzielungen
erzinfarkt
erzschlag
es
esa
esc
escalier
escande
escape
escarpe
escaut
esch
eschduerf
esche
eschem
eschen
escher
escht
eschweiler
escrime
escu
esel
esmond
eso
esou
esouguer
esp
espace
espagne
espan
espe
esperanto
espion
espions
espoir
espoirs
esposito
esprit
esprofesser
esquisse
essai
essais
essay
essayen
essayist
essays
essen
essence
essentiel
essex
essonne
est
estaing
estate
este
estella
estelle
estesch
estesche
estevez
estgen
esther
estland
estrada
estre
esway
et
eta
etable
etablissement
etablissementer
etapp
etappe
etappecourse
etappen
etat
etc
etchika
eternal
eternity
eth
ethan
ethel
ethiopien
ethnesch
ethnologie
ethnologique
etienne
etikett
etringer
ettelbre
ettelbru
ettelbruck
ettlech
ettleche
ettlechen
ettore
etu
etude
etwas
etymologesch
etymologie
etzella
eu
euch
euge
eugen
eugene
eugenia
eugenio
eulalie
euler
eupen
eur
eurasien
eure
euro
eurobasket
eurocity
eurohandball
eurohockey
eurome
europa
europadepute
europameeschterschaft
europaparlament
europapokal
europarot
europas
europaschoul
europastrooss
europawa
europawalen
europe
european
eurovision
eurovisioun
eurozon
eurystheus
eustache
eux
ev
eva
evakue
evan
evangeelesch
evangeliar
evangelien
evangelistar
evangelium
evans
eve
evelyn
evelyne
even
evenement
evenementer
evening
event
events
eventuell
ever
everard
everest
everett
everling
every
everybody
everyman
everything
evidence
evil
evite
evolution
evolutioun
evp
evy
ewa
ewald
ewan
ewe
ewech
ewechgeholl
ewechgelooss
ewechgerappt
ewell
ewen
ewersauer
ewert
ewg
ewig
ewige
ewiv
ex
exakt
exame
examen
exchange
exd
exe
executive
exekute
exekutiv
exemplaire
exemplairen
exemplar
exemplare
exemplaren
exemple
exemples
exercice
exhibition
exil
exile
exilregierung
existe
existenz
exit
exklav
exklusiv
exodus
exoplane
exoplanet
expansioun
expe
expedition
expeditioun
expeditiounen
experience
experiment
experimente
experimentell
experimenter
expert
experte
experten
explize
explizit
explode
exploitation
exploitatioun
exploite
exploration
explorer
explosioun
expo
export
exporte
expose
exposition
express
expressionismus
expressioun
exte
extension
extensioun
extern
extra
extragalactic
extrait
extraordinaire
extrasolar
extrasolare
extraterrestresch
extre
extreem
extrem
extreme
extremite
exupe
exzellent
exzentresch
exzentrescher
exzentrizite
eyck
eydt
eye
eyes
eyre
eyschen
ez
f
fa
faarf
faart
faarwe
faarweg
faarwege
faarwen
faass
faasst
faber
fabian
fabien
fabienne
fabio
fabiola
fabre
fabrice
fabricius
fabrick
fabrik
fabrikant
fabrikatioun
fabrique
fabrize
fabrizi
fabrizio
fac
faccia
face
facebook
facebookgrupp
faces
fach
fache
fachen
facher
facht
fachza
facile
facility
fact
facteur
facto
factor
factory
facts
faculte
fagus
fahne
fahrenheit
fahrt
fai
faillite
fair
fairbanks
fairchild
faire
fairy
fais
faisant
fait
faite
faites
faith
faits
fajardo
fakten
faktesch
faktor
fakulte
fal
falco
falcon
fale
falen
falk
falkenstein
falkesteen
fall
fallen
falling
fallize
falls
fallschierm
falsch
falsche
falschen
falscher
fame
famiglia
familia
familial
familiale
familie
familiennamen
familiennamenatlas
famill
famille
famillen
familles
famillje
familljememberen
familljen
familljennumm
family
famous
fan
fandel
fanfare
fanfaren
fang
fanger
fangeren
fanne
fannen
fanny
fans
fansa
fantasie
fantasio
fantastic
fantastique
fantasy
fanto
fantoni
fao
far
faraldo
fare
farell
farewell
farley
farm
farmer
farnese
faro
farrar
farrell
farrow
fasc
faschismus
fascicule
faso
fassad
fassade
fassbinder
fassong
fassung
fast
faszine
fat
fatal
fate
father
fatigue
fatima
fats
fatto
faubourg
faulke
faulkner
fauna
faune
faure
faurez
fausse
faust
fausti
fausto
faut
faute
fautsch
fauves
faux
faveur
favorise
favorite
fay
fayard
faye
fayette
fayot
fays
faz
fbi
fc
fdp
fe
fear
feat
feature
features
featuring
feb
februar
february
fechten
fechter
fecture
fecunditatis
federal
federale
federaler
federation
federatioun
federatiounskrees
federico
federmeyer
federspiel
federspil
feel
feele
feelen
feeler
feeling
feelstart
feelt
feet
fehlen
feier
feierdag
feierdeeg
feiere
feiereisen
feieren
feierkrop
feierlech
feiert
feil
feiler
fein
feind
feinde
feinden
feist
feit
feitler
feld
felder
feldha
feldman
feldmarschall
feldwee
feldzuch
felgen
felice
felipe
felix
fell
feller
fellini
fellow
fellowship
felmy
fels
felten
feltes
feltgen
female
femi
feministin
femme
femmes
fen
fene
fenech
fenneng
fense
fenster
fenteng
fenton
fer
ferd
ferdinand
ferdinando
ferdy
ferenc
ferguson
ferien
ferjac
ferm
ferme
fermi
fern
ferna
fernand
fernande
fernandel
fernandez
fernando
fernau
fernsee
fernseefilm
fernseeserie
ferrand
ferrant
ferrantia
ferrara
ferrari
ferraris
ferre
ferreira
ferrer
ferreri
ferrero
ferres
ferrie
ferro
ferron
ferroni
ferroviaire
ferry
ferschweiler
ferte
ferzetti
fescourt
fest
festa
festdag
feste
festem
festen
fester
festgehale
festgehalen
festgeholl
festgeluecht
festgemaach
festgesat
festgestallt
festival
festivaller
festivite
festland
festleee
festleet
festsall
festschre
festschrift
feststellen
feststoffrake
festung
festunge
festungen
festungsbau
festungswierker
festzehalen
festzestellen
fetschenhaff
fett
feu
feuer
feuillade
feuille
feuilles
feuilleton
feux
fever
few
feyder
ff
ffe
ffel
ffen
ffentlech
ffentleche
ffentlechen
ffentlecher
ffentlechkeet
ffentlecht
ffentlechung
ffentlichen
ffentlichkeit
ffentlicht
ffentlichungen
ffer
fferot
fffaart
ffleng
fflenger
ffnet
ffnung
ffnungen
ffslift
fft
fi
fiacre
fiance
fiat
fiba
fiche
fichier
ficiant
fiction
fictionfilm
fiddert
fide
fidel
fidschi
fie
fiedem
fieder
fiedler
field
fields
fiels
fielse
fielsen
fielsser
fiennes
fierschter
fiert
fiesta
fiez
fifa
fifth
fig
figaro
figeac
fight
fighting
figli
figlia
figlio
figur
figure
figuren
fiicht
fiichte
fiichtegkeet
fiichtgebitt
fiisschen
fiktioun
fiktiv
fiktive
fil
file
files
filial
filialkierch
filialkierche
filip
filippo
fille
filles
fillie
fillt
film
filmakademie
filmcarrie
filmdrama
filme
filmediteur
filmer
filmfestival
filmfong
filmfund
filmindustrie
filmkritiker
filmme
filmmusek
filmportal
filmpra
filmproduktiounsgesellschaft
filmproduzent
filmproduzentin
filmregisseur
filmregisseure
filmregisseuren
filmregisseurin
filmroll
films
filmschauspiller
filmschauspillerin
filmzentrale
fils
filter
fin
final
finale
finalist
finall
finance
finances
financial
financie
financier
finanz
finanze
finanzen
finanziell
finanzielle
finanziellen
finanzieller
finanzministe
finanzminister
finanzplaz
finch
finck
find
findbuch
findel
finden
finding
finds
fine
finger
finiste
fink
finkenzeller
finlay
finn
finnesch
finnesche
finneschen
finnescher
finney
finnland
fiona
fiorentino
fir
fire
firma
firme
firmen
firmin
first
firth
firwat
fis
fiscal
fisch
fischbach
fischer
fish
fisher
fit
fita
fitzgerald
fiume
five
fix
fixant
fixe
fixsta
fjodor
fk
fl
fla
flaach
flaache
flaachen
flaacher
flaachland
flag
flam
flame
flamen
flamma
flammang
flammarion
flamme
flamsteed
flandern
flank
flanke
flares
flash
flat
flavio
flavius
fle
flec
fleck
flecken
fleeg
fleegeheemer
fleesch
fleet
fleischer
fleischmann
fleming
flemyng
flener
flesch
flesh
fletcher
fleur
fleurs
fleury
flexibel
flexions
flf
flh
flic
flich
flicht
flick
flickenschildt
flies
fligel
fliger
fligeraccident
fligerdre
fligere
fligeren
flight
flillek
flilleke
flilleken
flint
flitt
flo
flon
floor
flora
floraweb
flore
florelle
florence
florent
florenz
flores
florestano
florey
florian
florida
florin
florinda
floss
flossof
flossop
flott
flotte
flouer
flouernimm
flouernumm
flour
flow
flower
flowers
floyd
flu
fluch
fluchbunn
fluchfeld
fluchgesellschaft
fluchha
fluchhafe
fluchhafen
fluchkierper
fluchpione
flucht
fluessweiler
flut
fly
flying
flynn
fm
fn
fnel
fnla
fo
foa
foch
fock
fockeschlass
focus
foehr
foerster
fofze
fofzeg
fofzeger
fog
fohrmann
foi
foire
fois
foix
fokker
fokus
fola
folco
folgaria
folge
folgen
folie
folies
folio
folk
folklore
folle
folleg
follegen
follegt
folles
follge
follgen
follgend
follgende
follgenden
follgender
follgendermoossen
follow
folscht
fomalhaut
fonck
fonction
fonctionnaire
fonctionnaires
fonctionnement
fonctions
fonctioun
fond
fonda
fondation
fondatioun
fonderie
fonds
fong
foni
fonnt
fons
font
fontaine
fontainebleau
fontaines
fontenay
fontenoy
food
fool
fools
foot
football
for
forbach
forbes
forbidden
forcalquier
force
forces
ford
forde
fore
foreign
foreman
forest
forestie
forestier
forever
forge
forges
forget
form
forman
format
formateur
formation
formatioun
formatioune
formatiounen
forme
formel
formell
formen
former
formt
formule
fornax
forque
forrest
forschung
forschungen
forschungsstelle
forst
forster
forstingenieur
forstverwaltung
forstwirtschaft
forsyth
forsythe
fort
fortaleza
forte
fortell
forteresse
fortgeet
fortgelaf
fortis
fortlafen
fortress
fortschre
fortsetzung
fortuna
fortune
forty
forum
forza
fosco
fosse
fossey
fossil
foster
foto
fotoapparat
fotoe
fotoen
fotograf
fotografe
fotografen
fotografesch
fotografesche
fotografie
fotografien
fotografin
fotojournalist
fotos
fotothe
fou
foucaud
foucault
fouche
fouer
fouge
fougerolles
fouls
found
foundation
four
fourmies
fourneaux
fournier
fourth
fous
fouss
foussball
foussballclub
foussballla
foussballnationalekipp
foussballspiller
foussballspillerin
foussballstadion
foussballsterrain
foussballtrainer
foussballvera
foussga
fowler
fox
foy
foyer
fr
fra
frac
fracht
frack
fractaire
frae
fraen
fraerechtlerin
frage
fragen
fragment
fragmente
fragmenter
fragments
fraiture
fraktioun
fraleit
fran
franc
franca
france
francen
frances
francesca
francesco
francey
franche
franchi
franchot
francia
francine
franciolini
franciosa
francis
francisci
francisco
franciscus
franck
franckh
franco
francois
francophone
francophones
francophonie
francs
frang
franju
frank
franke
frankel
franken
frankenheimer
frankenstein
frankera
frankeur
frankfurt
frankfurter
frankie
franklin
frankra
frankreich
franquin
frans
franse
fransous
fransouse
fransousen
frantisek
frantz
frantzen
franz
franziska
franziskaner
franziskus
franzo
frascht
fraser
fratelli
frau
frauen
frauenarzt
fraunhofer
fre
frears
fred
freda
freddie
freddy
frederic
frederick
frederik
fredersdorf
fredric
free
freed
freedom
freeman
freet
fregonese
frei
freiburg
freideg
freiden
freides
freie
freien
freiheit
freiherr
freitag
fremde
fremden
french
frend
frequenz
frequenzbera
frequenzen
fresez
freshwater
fresken
fresnay
fresnes
fresson
freud
freude
freund
freunde
freundin
frey
fribourg
fric
frick
friday
fridde
fridden
friddensgeriicht
friddensnobelpra
friddensriichter
friddensvertrag
friddlech
fried
frieda
frieden
friederike
friedkin
friedl
friedman
friedrich
friem
frieme
friemen
friemsproochege
friend
friends
friesland
friesse
friessen
frigo
friichte
friichten
frisch
frising
frisoni
fritsch
fritz
fro
froboess
froe
froelich
froen
froid
from
fromme
frommes
front
frontalieren
frontie
frontier
frost
frot
frou
frs
fru
fruchtbar
fruges
fruit
fruits
fruucht
frydtberg
ft
fte
fteg
ftege
ftegen
ftegt
ftegung
ften
fter
ftlech
ftsleit
ftsmann
ftste
ftsteller
ftstellerheem
ftstellerin
ftstellerverband
ftung
fu
fuchs
fuchsberger
fudder
fuedem
fuerbunn
fuerdert
fuerderung
fuere
fueren
fuerer
fuerplang
fuerscher
fuerschung
fuerschunge
fuerschungen
fuerschungszentrum
fuesent
fuga
fugitive
fugue
fuite
fulci
full
fuller
fum
fume
fun
funck
fund
fundamental
fune
funeral
fung
funge
funk
funktione
funktioun
funktioune
funktiounen
funktiounsfa
funny
fuoco
furen
furet
furia
furie
furneaux
furtwa
fury
fusier
fusion
fusione
fusioun
fussball
fut
futbol
futti
futur
future
fuuss
fux
g
ga
gaalgebierg
gaang
gaange
gaangen
gaardebau
gaart
gaasch
gaascht
gaasperech
gaasperecher
gaass
gab
gabarit
gabel
gabin
gable
gabor
gabriel
gabriela
gabriele
gabriella
gabrielle
gabrio
gabun
gaby
gad
gae
gaetano
gagarin
gage
gai
gaia
gail
gaillarde
gainsbourg
gainville
gaioni
gaius
gal
gala
galabru
galactic
galaktesch
galaktesche
galakteschen
galaktescher
galaxie
galaxien
galaxies
galaxis
galaxy
gale
galerie
galerien
galeries
gales
galex
galicien
galiena
galile
galilei
galileo
galite
gall
gallagher
gallais
galland
galle
gallen
galleria
gallery
galli
gallien
gallier
gallimard
gallipoli
gallo
gallone
galva
gama
gambia
gambit
gamblin
game
games
gamma
gammable
gammastralung
gance
gand
gander
gandhi
ganer
gang
gangler
gangster
gank
gannat
ganymed
ganz
ganze
ganzen
ganzer
ganzt
gap
gar
garage
garante
garantie
garat
garbarski
garbo
garc
garce
garci
garcia
gard
garde
garden
gardner
gardy
gare
garen
garer
garfield
gargan
gariazzo
garin
garko
garland
garmisch
garnech
garner
garnett
garnier
garnisoun
garonne
garrel
garrett
garrone
garry
gars
garson
garten
garton
gary
gas
gascogne
gase
gasen
gasfe
gasmantel
gasniwwel
gaspar
gaspard
gasparis
gasperich
gasplane
gassman
gast
gastauer
gaston
gastone
gastoni
gastronomie
gaswollek
gate
gates
gation
gatto
gattung
gattungen
gaubert
gauche
gaudi
gaul
gauleiter
gaulle
gauthier
gautier
gauß
gaven
gavin
gavras
gay
gayet
gaynor
gazette
gazetteer
gazzara
gb
gdan
ge
gea
geadelt
geaffert
geb
geba
gebai
gebaier
gebak
gebaut
gebaute
gebauten
gebe
gebeess
gebidder
gebiet
gebilt
gebitt
geble
gebonne
gebonnen
gebotzt
gebra
gebrach
gebrannt
gebrauch
gebrauche
gebrauchen
gebraucht
gebrauchten
gebraut
gebu
gebueden
gebuer
gebuere
gebuert
gebuertsakt
gebuertsdag
gebuertsdatum
gebuertshaus
gebuertsjoer
gebuertsstad
geburtstag
geck
geda
gedachtes
gedanke
gedanken
gedauert
geddes
gede
gedeckt
gedeeft
gedeelt
gedeit
gedenken
gedenkme
gedenkplack
gedicht
gedichte
gedichter
gediechtnes
gedoen
gedre
gedriwwe
gedriwwen
gedroe
gedroen
gedronk
geduecht
gee
geer
geescht
geeschteg
geeschter
geeschtlech
geeschtleche
geeschtlechen
geess
geessekna
geet
gefa
gefaange
gefaangen
gefaangenschaft
gefaart
gefaasst
gefahr
gefale
gefalen
gefall
gefe
gefecht
gefeelt
gefeiert
gefesselt
gefiddert
gefier
gefierer
gefierft
gefill
gefiller
gefillt
gefilmt
gefle
gefleegt
geflu
geflunn
gefollegt
gefoltert
gefor
geformt
geformte
gefouert
gefriess
gefrot
gefu
gefuer
gefuerdert
gefuerscht
gegen
gegenwart
geglach
gegle
gegleeft
gegollt
gegoss
gegre
gegru
gegruewe
gegruewen
geha
gehaangen
gehaansbierg
gehais
gehale
gehalen
gehalt
gehalten
gehandelt
gehat
gehe
geheelt
geheescht
geheien
geheim
geheimagent
geheimde
geheime
geheimen
geheimer
geheimnis
geheimnisse
geheimnisvolle
geheit
gehen
geherrscht
gehier
geho
gehofft
geholl
gehollef
gehrels
geht
gehuewen
gei
geierft
geiger
geimer
geimpft
geissendo
geist
gejot
geka
gekacht
geke
gekennzeechent
gekierzt
gekillt
gekla
geklappt
geklaut
geklommen
gekoppelt
gekra
gekre
gekuckt
gel
gela
gelaf
gelagert
gelant
gelauschtert
gelaut
gelben
geld
geldern
geldscha
geldstrof
gele
geleee
geleefeg
geleescht
geleet
gelernt
gelhausen
gelidden
geliebte
gelieft
gelies
geliwwert
gelonge
gelongen
gelooss
gelount
geluecht
geluede
gelueden
gelueft
gem
gema
gemaach
gemaacht
gemacht
gemarkung
gembloux
geme
gemeinde
gemeinsaamt
gemeinsam
gemeinsame
gemeinsamen
gemeinsamer
gemeinschaft
gemeinschafte
gemellt
gemeng
gemenge
gemengebezierk
gemengefusioun
gemengefusioune
gemengegrenz
gemengen
gemengenhaus
gemengenzuel
gemengepolitiker
gemengere
gemengereform
gemengerot
gemengeverwaltung
gemengewale
gemengewalen
gemengt
gemenkerhand
gemierkt
gemini
geminorum
gemma
gemoolt
gemooss
gemu
gen
gena
genannt
genannte
genannten
genannter
genauegkeet
gence
gendarme
gendarmerie
gende
gender
gene
genealogie
geneanet
genee
geneee
geneesou
genen
general
generaldirekter
generaldirektioun
generale
generalklassement
generalsekreta
generalsta
generalstreik
generalversammlung
generalvikar
generation
generatioun
generatioune
generatiounen
genere
genereel
generell
generol
generolfeldmarschall
generolmajouer
genesis
genest
genevie
genf
genfer
gengler
genie
genina
genitiv
genius
genn
gennaro
genoss
genozid
genre
gens
gensac
gent
gente
gentil
gentilomo
gentleman
gentlemen
genua
genuch
genus
geo
geoda
geodesie
geodet
geodetesch
geoff
geoffrey
geograph
geographesch
geographesche
geographeschen
geographescher
geographic
geographie
geolog
geologesch
geologescher
geological
geologie
geology
geometer
geometresch
geometrie
geophysik
geophysiker
geoportail
georg
george
georges
georgesch
georgesche
georgette
georgia
georgien
geos
geostationa
geowe
gepa
gepackt
gepasst
geplangt
geplangte
geplangten
geplangter
geplanzt
geple
geplot
gepra
geprafft
ger
gera
gerais
gerald
geraldine
gerappt
gerard
geraumt
gerd
gerda
gere
gerechent
gerecht
gerechtegkeet
gereegelt
gereest
gerett
gerges
gerhard
gerhart
gericht
geriicht
geriichter
geriichtshaff
gerlache
gerlinde
germa
germain
germaine
german
germanen
germanesch
germanesche
germania
germanique
germanistik
germany
germi
germinal
gern
gernsback
gero
geroch
gerode
geroden
gerpark
gerron
gerry
gers
gerson
gert
gertrud
gertrude
geruff
gervais
ges
gesa
gesammelt
gesammelte
gesamtbeve
gesamtwierk
gesang
gesank
gesat
gescha
geschaaft
geschaf
geschafft
geschah
geschat
geschaten
gesche
gescheet
geschenkt
geschicht
geschichte
geschichten
geschichtlech
geschichtsfre
geschichtsmuse
geschichtsprofesser
geschichtsschreiwung
geschichtswissenschaft
geschier
geschitt
geschlecht
geschlechter
geschleeft
geschleidert
geschloe
geschloen
geschloss
geschmolt
geschne
geschnidden
geschoss
geschouch
geschriwwe
geschriwwen
geschu
geschwa
geschwat
geschwe
gese
geseegelt
geseent
gesellschaft
gesellschafte
gesellschaften
gesellschaftlech
gesellschaftlechen
gesent
gesetz
gesetzer
gesetzlech
gesetzleche
gesi
gesicht
gesiicht
gesiichter
gesiichtsfeld
gesinn
gesond
gesondheet
gesondheetlech
gesondheetleche
gesondheetsministe
gesondheetsminister
gesondheetsministesch
gesonge
gesongen
gesot
gesouch
gespa
gespaant
gespaart
gespeist
gespillt
gesple
gespra
gesprach
gespre
gesprengt
gessner
gesta
gestaamt
gestach
gestallt
gestalt
gestalten
gestaltung
gestanen
gestapo
gestart
gestaut
geste
gesteiert
gestengs
gestengsplane
gestern
gestiermt
gestierzt
gestion
gestioun
gestoppt
gestorben
gestouss
gestrach
gestre
gestreet
gestuerwe
gestuerwen
gesuergt
get
getest
getosch
getraff
getrennt
getrennte
getrueden
gets
getting
getz
gewa
gewaart
gewalt
gewalteg
gewan
gewanne
gewannen
gewarnt
gewe
geweit
gewerkschaft
gewerkschaften
gewerkschaftler
gewidmet
gewielt
gewielte
gewien
gewierkt
gewiert
gewierzer
gewiescht
gewiesselt
gewiicht
gewiichter
gewiichthiewen
gewiichthiewer
gewinnt
gewise
gewisen
gewissen
gewonne
gewonnen
geworf
gewosst
gewuer
gewuess
gewunnt
gex
geza
geze
gezeechent
gezei
gezielt
geziicht
geziilt
gezillt
gezu
gezunn
gezwonge
gezwongen
ghana
ghetto
ghost
ghosts
ghz
gi
gia
giachetti
giacobini
giacomo
gian
giancarlo
gianfranco
gianna
gianni
giannini
giant
gibraltar
gibson
gibt
gidder
giddertransport
gidderzich
gidderzuch
gide
gie
giedel
giel
giele
gielen
gielercher
gielgud
gielzeg
gier
gierwer
gierwerei
giess
giewel
giewelsmillen
gießen
gift
gig
gigi
gigli
gigolo
giischterklaus
gil
gila
gilbert
gilberto
gill
gillain
gillen
giller
gilles
gillespie
gilliam
gillian
gilling
gilly
gilsdref
gilson
gime
giment
gimpera
gin
gina
gindt
gine
ginette
ging
ginger
ginkgo
ginn
gino
ginter
gioi
gion
gional
gions
giordano
giorgetti
giorgi
giorgia
giorgio
giornata
giorni
giorno
giotto
giovani
giovanna
giovanni
gipi
gips
gir
gira
giraff
giraldi
girard
girardon
girardot
giraud
giraudeau
girault
girl
girls
giro
girod
girolami
gironde
girondins
girotti
gis
giscard
gise
gisela
giselle
gish
gislation
gislatives
gitime
gittar
gittarist
gitter
giuffre
giulia
giuliano
giulietta
giulio
giuseppe
give
givet
gks
gl
gla
glace
glach
glacis
gladbach
gladiatore
gladiatori
glaesener
glanz
glas
glasgow
glaske
glasmalerei
glass
glat
glaube
glauben
glawe
glawen
gle
gleason
gleeweg
gleewen
gleich
gleis
gleiser
gleize
glement
glementation
glen
glenda
glenn
glenville
gles
glesener
gletscher
gli
glich
gliddeg
gliddege
gliese
glise
glises
global
globale
globalise
globe
globus
glock
gloden
gloesener
gloire
gloria
glorie
glory
glover
glowna
glu
gluck
glynis
gm
gmbh
gne
gner
gnu
go
gobbi
gobert
goblack
god
godard
godart
godchaux
goddard
godefroid
godefroy
godet
godfather
godfrey
gods
goe
goebbels
goebel
goedert
goen
goerens
goergen
goes
goethe
goetz
goetzinger
goffredo
gogh
going
goire
gol
golan
gold
goldberg
goldblum
golden
goldene
goldenen
goldie
goldman
goldmann
goldmedail
goldschmidt
goldschmit
goldsmith
goldstone
goler
golf
golfkrich
goliath
golino
golkipp
gollenstein
golsche
gomez
gon
goncourt
gondor
gone
gonner
gonnereng
gonschte
gontier
gonza
gonzalo
good
goodbye
goodman
goodyear
google
goossens
gora
gorbatschow
gordian
gordon
gore
goretta
gorges
gorie
gorilla
gorille
goring
goscinny
goslar
gospel
goss
gosse
got
gotesch
gotesche
gotha
gothic
gott
gottes
gottesde
gottfried
gottheet
gottheeten
gottlieb
gottschalk
gou
gouf
goufe
goufen
gould
goulding
goung
gounge
goungen
gounod
gourguet
gouschteng
gousseldeng
gouv
gouvernement
gouvernements
gouverneur
gouvy
gov
govar
government
govinda
goya
gp
gps
gr
gra
graas
grable
grace
grad
grades
gradsecteur
gradue
graf
grafen
graff
graffiti
grafmonument
grafsteng
graglia
graham
grahame
gramegna
gramm
grammaire
grammy
gran
granada
granass
grand
grande
grandes
grandeur
grandi
grands
grang
granger
granges
grangier
granier
granit
grant
granville
graphic
graphik
graphiker
grapp
grappelli
gras
grass
grasse
grasset
gratis
grau
grauman
grausam
grave
graves
graveur
gravey
gravina
gravitatioun
gravitatiounsfeld
gravitativ
gravite
gravity
gray
grayson
graz
grazia
grb
gre
great
greater
greatest
greci
greco
gredt
greek
green
greenaway
greene
greenpeace
greenwich
greenwood
greer
greffe
greg
gregg
greggory
gregor
gregorianesche
gregorio
gregory
greisch
greiweldeng
gremling
gremm
grenier
grenobel
grenoble
grenz
grenzbre
grenze
grenzen
grenzgebitt
grenzt
gret
greta
gretel
grethe
grethen
gretler
gretsch
grevenmacher
grey
gricius
griecht
grieco
grief
griem
gries
griewer
griffi
griffin
griffith
griffiths
griich
griiche
griicheland
griichen
griichesch
griichesche
griicheschen
griichescher
griichescht
grillet
grimaldi
grimblat
grimm
grimoald
grimpeurs
grinberg
gripp
gris
grit
gro
groben
grodecki
groe
groen
groesteen
grof
grofe
grofschaft
grofschaften
gromper
grompere
gromperen
grond
grondbese
grondha
grondhaff
grondlag
grondlage
grondleee
grondre
grondsa
grondschoul
grondste
grondstee
grondsteen
grondwaasser
groningen
gronn
gros
grosbusch
gross
grosse
grosser
grossherzogliches
grossherzogtum
grossherzogtums
grosso
grosz
grote
grothum
grott
grotte
grotten
grouf
ground
group
groupe
groupement
groups
grouss
groussbrand
groussbritannien
groussbus
groussdeel
grousse
groussem
groussen
grousser
groussfla
groussgaass
groussherzog
groussherzogin
groussherzoglech
groussherzogleche
groussherzoglechen
groussherzoglecher
groussherzoglecht
groussherzogtum
groussja
grousskrees
groussmamm
groussmeeschter
grousspapp
groussrabbiner
groussraum
groussregioun
groussstad
groussstied
grousst
grouwen
groß
große
großen
großer
großes
großherzogtum
großherzogtums
gru
gruber
gruef
grund
grundlagen
grupp
gruppe
gruppen
grus
gruyter
gsm
gt
gto
gu
guadeloupe
guard
guardia
guardian
guatemala
gudde
guddem
gudden
gudder
gudrun
gue
guedber
guer
guerilla
guerra
guerre
guerres
guerrier
guerrieri
guers
guest
gueule
gueules
guevara
guez
guggenheim
guglielmo
gui
guichet
guida
guide
guiden
guides
guido
guignol
guild
guillaume
guillemins
guillermin
guillermo
guillotine
guilty
guinea
guinness
guiomar
guise
guisol
guissart
guitar
guitry
guizot
gulden
gum
gummi
gun
gung
gunn
gunnar
guns
gunter
gunther
gur
gus
gust
gustaf
gustav
gustave
gustavo
gusty
gut
gute
guten
gutenberg
guter
gutie
gutland
guts
gutt
guttgeheescht
guttland
guy
guyana
guyane
guyenne
guys
gwenn
gwyneth
gyllenhaal
gymnase
gymnasium
gyo
gypsy
h
ha
haaaptacteuren
haack
haag
haagen
haapt
haaptacateuren
haaptacteur
haaptacteuren
haaptacteurern
haaptakteuren
haaptaktiona
haaptaktivite
haaptaltor
haaptartikel
haaptasteroidenceinture
haaptaufgab
haaptceinture
haaptdacteuren
haaptdeel
haaptduersteller
haaptentre
haaptfigur
haaptgebai
haaptinsel
haaptleit
haaptpersonnage
haaptquarte
haaptrei
haaptreiesta
haaptroll
haaptrollen
haaptsa
haaptsaach
haaptse
haaptspigel
haaptsta
haaptstad
haaptstadregioun
haaptstied
haaptstrooss
haapttrainer
haaptuert
haaptuertschaft
haaptuertschaften
haaptwierk
haaptzil
haard
haarde
haarden
haarlem
haart
haas
haass
hab
habay
habe
haben
habib
habich
habilite
habit
habitabeler
habitable
habitabler
habitants
habsburg
habsburger
habscht
hachette
hack
hackin
hackman
had
hades
hadid
hadir
hadley
hadrian
hafe
hafen
hafestad
haff
haffmarschall
hagen
haguet
hahn
hai
haid
haie
haife
hainaut
haine
hair
haiser
haiteg
haitege
haitegen
haiteger
haitegt
haiti
hakenkreuz
hal
halb
hale
halen
haler
haley
half
halifax
hall
halle
hallef
hallefachs
hallefbrudder
halleffinall
hallefinsel
hallefnuecht
hallefreegelme
halleft
haller
hallervorden
halley
hallo
halloween
hallschecht
hallschent
hallwe
hallwem
hallwer
hallyday
halo
hals
halsdorf
halsey
halt
halte
halten
haltung
ham
hamburg
hamburger
hamel
hamer
hames
hamilius
hamilton
hamlet
hamm
hammer
hammes
hammett
hamoir
hampshire
hampton
han
hanck
hancock
hand
handball
handballspiller
handbook
handbuch
handel
handele
handelen
handels
handelskummer
handelsrege
handelt
handicape
handle
handlung
handlungen
hands
handschre
handwierk
handwierker
handwierkerschoul
handwierksgeschier
handy
haneke
hang
hanin
hank
hanks
hanna
hannah
hanne
hannelore
hannen
hannendru
hannendrun
hanner
hannerenee
hannereneen
hannergrond
hannergrondstralung
hannerland
hannerlooss
hannert
hannes
hannescht
hannibal
hanno
hannover
hanns
hans
hansen
hanser
hansi
hansjo
hanson
happened
happiness
happy
haptacteuren
har
hara
harald
harbor
hard
hardcore
hardin
harding
hardt
hardwicke
hardy
hare
harel
harell
harem
harespel
harf
harfouch
hari
haribo
hark
harlan
harlem
harlow
harmattan
harmon
harmonia
harmonie
harmonien
harmony
harmstorf
harnack
haro
harold
harper
harps
harrelson
harriet
harrington
harris
harrison
harry
hart
hartford
hartl
hartley
hartmann
hartmut
harvard
harvest
harvey
hary
has
hasard
haskin
hass
hassan
hasse
hasselt
hasteng
hastert
hastings
hat
hate
haten
hathaway
hatheyer
hatt
hatte
haudepin
hauer
hauff
haumea
haunted
haupert
haupeschkierch
haupt
hauptbahnhof
hauptmann
hauptstadt
haus
hausde
hause
hausemer
hauser
hausmeier
haut
hautbois
hautdesdaags
haute
hautes
hauteville
hauts
havanna
have
havel
haven
havilland
havre
hawaii
hawk
hawke
hawking
hawkins
hawks
hawn
hay
hayabusa
hayange
hayden
haydn
haye
hayek
hayers
hayes
hayley
hayward
hayworth
hazanavicius
hb
hc
hd
he
head
health
heard
heart
hearts
heat
heath
heather
heaven
heavy
hebdo
hebe
hebra
heck
heckefra
hecken
hector
hedren
hedwig
hedy
hee
heed
heefeg
heefegkeet
heefegst
heel
heem
heemecht
heemechtsland
heemechtsstad
heemesch
heemlech
heemspiller
heeschbreg
heeschdref
heesche
heeschen
heeschpelt
heescht
heespre
heesters
heflin
heft
hefteg
hefter
hegel
hehn
hei
heiansdo
heiba
heiberg
heide
heidelberg
heidelberger
heidelinde
heidemarie
heiderscheid
heidi
heifir
heights
heike
heilige
heiligen
heim
heimat
heimatkalender
heimkehr
heimweh
hein
heinemann
heinen
heiner
heinrich
heintje
heintz
heinz
heiraten
heisbourg
heischent
heischtergronn
heisler
heite
heiten
heizou
heiße
hektar
hel
held
helde
helden
heldenstein
helen
helena
helene
helfenter
helga
heli
helikopter
helios
helium
hell
helle
helleg
hellege
hellegen
helleger
helleggesprach
hellegkeet
hellegt
hellegtum
hellen
helleng
heller
hellers
hellewull
hellinghausen
hellman
hellmut
hello
hellst
hellste
hellsten
helm
helminger
helmut
helmuth
help
helpe
helperknapp
helpert
helsem
helsinki
helzen
hemingway
hemispha
hemmen
hemmer
hemmerling
hemmings
hemstel
hen
henckels
henderson
hendrik
hendriks
hendrix
hendry
heng
hengen
hengescht
henize
henker
hennicot
henning
henninger
henny
henreid
henri
henricus
henrietta
henriette
henrik
henry
henschel
hentgen
hentges
hepburn
hephaistos
her
hera
herakles
heraldik
herausgeber
herausgegeben
herb
herbe
herbert
herbier
herbig
herbst
herchen
hercule
hercules
herder
here
herge
herget
heribert
heritage
herkules
herman
hermann
hermes
hermine
herna
herno
hero
herodot
heroes
herr
herrand
herren
herrera
herrin
herrmann
herrn
herrschaft
herrscher
herschel
hershey
herstal
herta
hertha
hertz
hertzsprung
herve
hervorragender
herz
herzegowina
herzen
herzens
herzog
herzoge
herzogin
herzogtum
hesbaye
hesiod
hesper
hess
hesse
hessen
hessler
heston
het
hetto
heuertz
heure
heures
heureux
heuschling
heuser
heuss
heute
hevelius
hex
hexemeeschter
hexen
hexer
hey
heyar
heyart
heym
heymann
heyne
heynemann
heywood
hg
hi
hible
hickox
hicules
hidalgo
hidden
hide
hie
hiefbre
hiefenech
hieft
hiel
hielen
hielscher
hien
hier
hierarchie
hierarchy
hierber
hiergestallt
hierke
hierkommen
hierkonft
hieronymus
hierscht
hierschuel
hiersteller
hierstellung
hiert
hierzestellen
hiewen
higeriicht
higewisen
higgins
high
higher
highway
hilaire
hilary
hilbert
hilda
hilde
hildegard
hildesheim
hilfe
hilger
hilgert
hill
hilla
hillary
hiller
hills
hilton
him
himalaya
himalia
himmel
himmelfaart
himmels
himmelsde
himmelsequator
himmelskierper
himmelskugel
himmelsmechanik
himmelspol
hin
hinault
hind
hindenburg
hinduismus
hinne
hinnen
hinter
hinz
hinzert
hinzerter
hip
hipparchos
hipparcos
hippert
hippodrom
hippolyte
hir
hire
hirem
hiren
hirer
hirersa
hiriichtung
hiroshima
hirsch
his
hisiicht
hist
histo
histoire
histoires
historesch
historesche
historeschen
historescher
historescht
historia
historical
historicisme
historien
historiker
historikerin
historiographie
historique
historiques
historisch
historische
historischen
historischer
historisches
history
hit
hitchcock
hitler
hitlers
hits
hitten
hiv
hiver
hiwa
hiweisen
hiweiser
hiweist
hiwwel
hiwwele
hiwweleg
hiwwelen
hl
hlau
hle
hlen
hler
hlich
hliche
hline
hling
hlt
hlte
hlung
hlungen
hm
hmann
hms
hn
hne
hnen
hner
hnker
ho
hobbes
hobbit
hobby
hobsbawm
hobson
hoch
hochschule
hochza
hochzeit
hockey
hodiak
hoe
hoen
hoer
hof
hofbauer
hoff
hoffman
hoffmann
hoffmeister
hoffnung
hofmann
hogan
hohe
hohenzollern
hold
holden
holding
hole
holger
holiday
holla
holland
hollande
holler
hollerech
hollerecher
hollerich
holloway
holly
hollywood
holm
holmes
holocaust
holst
holstein
holt
holtz
holy
holz
holzem
holzschne
holztem
hombre
homburg
home
homepage
homer
hommage
homme
hommel
hommes
homo
homogeen
homolka
homonymie
homosexualite
homosexuell
hon
hond
honda
honduras
honey
honeymoon
hong
honger
hongersnout
hongkong
honne
honnert
honnerte
honnertja
honneur
honor
honorable
honoraire
honore
honorifiques
honsre
honte
hood
hook
hooker
hooper
hoover
hop
hope
hopkins
hopp
hoppe
hopper
hora
horace
horeca
horizon
horizons
horizont
horizontal
horn
horne
horney
horror
horrorfilm
horrorfilmer
hors
horse
horses
horst
horta
horton
hoscheid
hoscheit
hoskins
hospice
hospital
hospitalier
hoss
hossein
hostert
hot
hotel
hotelier
hotellen
hotton
houdremont
houfelt
houffalize
hough
houng
hour
hours
housch
houschent
house
housen
housse
houston
houten
houtman
houwald
hoven
how
howard
howe
howell
hr
hre
hren
hrer
hrerscha
hrige
hrigen
hrliche
hrsg
hrt
hrung
hst
hstu
ht
htm
html
http
https
hu
huart
hub
hubble
huber
hubert
hubertus
huberty
hublot
hubschmid
hudson
huel
huele
huelen
huelmes
hues
hueschtert
huet
huez
hugenotten
huggins
hugh
hughes
hugo
hugon
hugues
hui
huile
huit
huldang
hulk
hull
hulten
humain
humaine
humaines
human
humanist
humanita
humanite
humberstone
humboldt
hume
hummer
humor
humorum
humphrey
hun
hunchereng
hund
hunde
hundert
hundred
hunebelle
hunger
hunn
hunneg
hunt
hunter
hunters
huntington
huppert
hur
hurra
hurricane
hurst
hurt
hury
hus
husband
huss
hussein
hussey
huster
huston
hut
hutchinson
hutt
hutton
huy
huygens
hy
hyacinthe
hyaden
hyams
hybrid
hyde
hydra
hydraulesch
hyer
hygie
hygiene
hymenoptera
hymn
hyperion
hyperris
hypothe
hypothees
hz
i
ia
iaarbechte
iade
ian
iapetus
iata
iau
ib
iba
ibau
ibeerescher
ibehale
ibehalen
ibeng
iber
ibicher
ibid
ibidem
ibierg
ibn
ibrahim
ibre
ibreg
ibruecht
ibuch
ibuchauteur
ibuchautorin
ibuer
ic
icarus
ice
icehockey
ich
ichaltor
ichbar
ichda
iche
ichel
ichen
icher
icherdang
icheren
ichert
icherwierk
ichesch
ichesche
icheschen
ichescher
ichgestallt
ichgewiicht
ichheet
ichiewe
ichiewen
ichiro
ichland
ichlech
ichme
ichople
ichorchester
ichplateau
ichpunkt
ichschoul
ichschoulen
ichst
ichste
ichsten
ichstroum
icht
ichte
ichtefuerschungsrake
ichten
ichtene
ichtewe
ichtum
ichuewen
ichung
ichunge
ichwa
ichwaasser
ichza
ici
icmn
icpcn
id
ida
idaho
iddi
iddie
iddien
ide
ideal
ideale
idealer
ideg
iden
idener
ideng
identesch
identification
identifize
identita
identite
ideologesch
ideologie
ider
idere
ideren
iderer
iderhi
iderhin
ides
idi
idiot
idisfilm
idisfilmer
idiste
idlech
ido
idol
idole
idroen
idsbeng
ie
iech
iechternach
iechternacher
ieck
ieckeg
ielwen
iem
ien
iener
ieplanzen
ieplanzenaart
ier
ierbar
ierbech
ierbuch
ierchen
iercher
ierdesche
iere
ierebierger
iereckeg
ieregkeet
ierekreeszeechen
ierel
ierem
ieremember
ieren
ierend
ierende
ierenden
ierender
ierendokter
ierentitel
ierepresident
ierepromotioun
ierer
ierera
ierfeld
ierffollegkrich
ierfgroussherzog
ierfschaft
ierga
iergare
ierge
iergelooss
iergeluecht
ierin
ierkraaft
ierlag
ierlech
ierleche
ierlechen
iermol
iermsdref
iernz
iernzen
ierpad
ierpapp
ierpeldeng
ierpeldenger
ierpersonal
ierpunkt
ierpunkte
iers
iersgesellschaft
iersme
iersprooch
ierssche
ierst
ierste
iersten
ierstull
iersverbuetssche
ierswarnsche
iert
ierte
iertem
iertemandat
iertemlecherweis
ierten
ierter
iertgre
ierthe
ierung
ierunge
ierungen
ierungsaarbechte
ierungsaarbechten
ierwe
ierwen
ierwin
ierze
ierzeg
iesch
iesel
iesse
iessen
iewerleng
iewescht
ieweschte
ieweschten
ieweschter
if
ifach
ifachsta
ifaltegkeet
ifaltegkeetskierch
ife
ifel
ifelkrees
ifen
ifend
ifer
ifferdang
ifferdeng
ifferdenger
iffra
ifland
ifmillen
ifreg
ifst
ifste
ifsten
ift
ifte
iften
ifuerer
ig
ige
igebaut
igedroen
igel
igelooss
igeluecht
igemeng
igen
igend
igende
igendeel
igendeeler
igenden
igeniwwer
igenzuch
igesa
igesat
igesaz
igesprach
igesta
igestand
igeste
igetrueden
iginn
iglech
igleche
iglechen
iglecher
iglecherweis
iglechkeet
iglechkeete
iglechkeeten
iglechst
iglecht
ign
ignace
ignacio
igner
ignore
igor
iha
ihc
iheet
iheeten
iheetsbre
ihm
ihn
ihr
ihre
ihrem
ihren
ihrer
ii
iii
iimpuls
ija
ije
ijem
ijen
ijer
ijoer
ijoerspunkt
ijung
ik
ike
iken
ikeya
ikierperproblem
ikomm
ikommen
il
ila
ilag
iland
ile
ileg
ilegen
ilen
ileng
iler
ilereng
ilias
ilja
iljen
ill
illange
ille
illegal
illinois
illusion
illustrateur
illustration
illustrations
illustratioun
illustratioune
illustratiounen
illustrator
illustre
illustrierte
ilres
ils
ilse
ilt
im
ima
image
imager
images
imaginaire
imaging
imaurer
imbrium
imdb
ime
imech
imen
imer
imerbre
imerech
imereng
imervilla
imerza
imesch
imesche
imeschen
imescher
imescht
iminister
immaterielle
immatrikule
immens
immer
immeubles
immigranten
immigration
immigratioun
immobilie
imo
imol
impact
impakt
impaktkrater
impe
imperial
imperium
impfung
importance
important
importe
imposant
impossible
impr
imprimerie
improvise
impuls
imre
imt
imung
imungen
in
ina
inamerika
inaturalist
inauguration
inauguratioun
inc
incendie
inch
incident
incline
inconnu
inconnue
incredible
inde
indeg
inden
independence
independent
indes
indesch
indesche
indeschen
indescher
index
india
indian
indiana
indianer
indication
indie
indien
indies
indique
indiquent
indiquer
indirekt
indische
individuell
individuelle
indochina
indoeuropa
indonesien
indre
industrialise
industrie
industriell
industrielle
industriellen
industrieller
industriels
industrien
industrieschoul
industriezon
ine
inecc
ineg
inege
inegen
ineger
inen
iner
inerei
inerungsvera
inesch
inesche
infanterie
infantry
infe
infektioun
inferno
infirmie
infize
inflatioun
influence
info
informatik
informatiker
information
informationen
informatioun
informatioune
informatiounen
informatiounspanneau
informatique
informe
infrabel
infrared
infraroude
infrarout
infraroutastronomie
infraroutbera
infraroutstralung
infrastructures
infrastruktur
infrastrukture
infrastrukturen
ing
inge
ingeborg
ingen
ingenieur
ingenieure
ingenieuren
inger
ingmar
ingo
ingolstadt
ingrassia
ingrid
inhalt
inheet
ini
initiation
initiativ
initiative
initiativen
initiator
initie
inkl
inklinatioun
inklusiv
inland
inlech
inleche
inlechen
inlecher
inlechkeet
inlechkeete
inlechkeeten
inlecht
inn
inneministe
inneminister
innen
inner
innocence
innocent
innocents
innovation
innsbruck
inoffiziell
inpa
inquisitioun
ins
inscription
inscriptions
inscrits
insecta
insee
insekte
insekten
insel
insele
inselen
inselgrupp
inselstaat
insgesamt
insgeschicht
inside
inspecteur
inspekter
inspiratioun
inspire
inst
instabilite
installatioun
installatioune
installatiounen
installe
instant
instanz
inste
instead
insten
instens
instinct
institut
institute
instituter
institution
institutions
institutioun
institutioune
institutiounen
instituto
instituts
instruction
instrument
instrumente
instrumenter
instruments
insulin
inszene
int
inte
integral
integralen
integration
integratioun
integre
intellektuellen
intelligence
intelligent
intelligenz
intelsat
inten
intendant
inteneen
intensite
intensiv
intensive
intention
inter
interaktiv
intercity
intercommunal
interdiction
interdisziplina
interdit
interdite
interessant
interessante
interesse
interessen
interessi
interesting
interferometer
interferometrie
interieur
interim
interjektioun
interkommunale
interkontinentalrake
interlenghi
intern
internacional
internat
internationaalt
international
internationale
internationalem
internationalen
internationaler
internationales
internazionale
interne
internet
internetsa
internetsite
interplanetare
interpre
interpret
interpretatioun
interprete
interregio
intersection
interstellar
interstellare
interstellarer
intervene
intervention
interventioun
interview
interviewe
interviewen
interviews
interviewt
intiwwer
into
intrans
intressant
intresse
intressi
introduction
inumm
inung
invalides
invasion
invasioun
invasive
inventaire
invention
investe
investigation
investissement
investitiounsbank
investment
invisible
invitation
invitatioun
invite
io
iommi
ion
ionen
ionesch
ionise
ionospha
iowa
ip
ipa
ipac
ipe
ipen
iperlek
iperleken
ipt
ir
ira
irak
iran
iranesche
iras
ire
irel
ireland
iren
irene
irer
iresch
iresche
ireschen
irescher
irina
iris
irish
irkutsk
irland
irm
irma
irmgard
iron
irons
irregula
irrel
irung
irvin
irving
irwin
is
isa
isaac
isabel
isabella
isabelle
isasi
isasmendi
isbergues
isbier
isbn
isch
ischdall
ischdref
ische
ischem
ischen
ischer
ischluecht
ischpelt
ischsproocheg
ischsproochege
ischsproocheger
ischt
ischte
ischten
ischter
ischtere
ischteren
ischterin
ischtert
ischterten
ischtref
isdre
isdref
ise
iseelbre
iseker
isen
iseng
iser
iserbann
iserp
ishockey
ishockeynationalekipp
ishockeyspiller
isidore
iskuuscht
isla
islam
islamesch
islamesche
islamescher
island
islands
isle
islek
isleker
iso
isola
isolatioun
isole
isotop
isou
israe
israeelesch
israeelesche
israel
iss
issche
isse
isseg
issege
issegen
isseger
issegkeet
issegkeeten
issegt
issel
isseler
issem
issen
issend
isseng
issenger
isser
issere
isserei
isseren
isserer
issert
isserung
issgro
issn
issoudun
issrussesch
issrussland
isst
isste
issteklass
issten
isstendeels
isstenuerdnung
isster
issue
isswaasser
ist
istaat
istanbul
iste
istra
istrien
istrooss
istva
isung
isunge
isungsme
isungsverme
iswampech
iswampich
isza
it
ital
italia
italian
italiana
italiani
italiano
italie
italieener
italieenesch
italieenesche
italieeneschen
italieenescher
italien
italo
italowestern
italter
italy
itantiquite
itche
itchen
ite
iteg
itege
itegen
iteger
iteka
itekra
itele
iteler
item
iten
itenalta
itenaltor
iteng
itenger
iter
itersbuerg
itesch
itesche
itescher
itesystem
itesystemer
itfeld
itfelder
itfueren
itgene
itgeschicht
itgla
itine
itkra
itlech
itleche
itlechen
itlecher
itleefeg
itnant
ito
itokawa
itospha
itpunkt
itra
itrag
itraum
itre
itrechnung
itrengerhaff
itrus
itruss
itrussdall
its
itsch
itsche
itschen
itscher
itschland
itschre
itschsproocheg
itschsproochege
itschsproocheger
itscht
itskala
itspan
itsprofesser
itsstad
itste
itstens
itstheorie
itunes
itwe
itweileg
itweis
itzeien
iung
iunge
iungen
iungskraaft
ius
iv
iva
ivan
ive
ivernel
ives
ivo
ivory
ivy
iw
iwan
iwanowitsch
iwe
iweg
iwege
iwegt
iwel
iwels
iwelsser
iwemaacher
iwen
iweng
iwenhaff
iwer
iwung
iwwer
iwwerall
iwwerbegre
iwwerble
iwwerbre
iwwerdeckt
iwwerdeems
iwwerdre
iwwerdroe
iwwerdroen
iwwerdroene
iwwerdroung
iwwereg
iwweregens
iwwerenee
iwwereneeste
iwwerfa
iwwerfalen
iwwerfall
iwwerfamill
iwwerfle
iwwerfouert
iwwergaangen
iwwergang
iwwergank
iwwergeet
iwwerginn
iwwergoen
iwwerhaapt
iwwerhe
iwwerholl
iwwerhuele
iwwerhuelen
iwwerlagert
iwwerleee
iwwerleeungen
iwwerlieft
iwwerliewe
iwwerliewen
iwwerliwwert
iwwerliwwerung
iwwerlooss
iwwerloossen
iwwerme
iwwerpre
iwwerraschend
iwwerrascht
iwwerreecht
iwwerreechung
iwwerrescht
iwwerreschter
iwwerris
iwwersat
iwwerschafft
iwwerschratt
iwwerschwemmt
iwwerschwemmungen
iwwerse
iwwersetzen
iwwersetzer
iwwersetzerin
iwwersetzung
iwwersetzunge
iwwersetzungen
iwwersiicht
iwwerstanen
iwwert
iwwertraff
iwwerwaachen
iwwerwaacht
iwwerwaachung
iwwerwannen
iwwerzeegen
iwwerzeegt
iwwerzeegung
iwwerzunn
iwwreg
iwwregens
ix
ixelles
iz
iza
ize
izeg
izeger
izegung
izen
izer
izerdaul
izeresch
izeresche
izetrieden
izgank
izkapell
izt
izuel
izung
izuucht
izwee
izzuch
j
ja
jack
jackie
jackman
jackson
jacob
jacobi
jacobs
jacobsen
jacobsson
jacobus
jacoby
jacqueline
jacquemart
jacquerie
jacques
jacquot
jade
jae
jaeger
jagd
jagger
jaguar
jahn
jahr
jahrbuch
jahre
jahren
jahres
jahrgang
jahrhundert
jahrhunderte
jahrhunderts
jaime
jake
jakob
jakobiner
jakobswee
jakobus
jamaica
jamaika
jamais
jambes
james
jamie
jaminet
jan
jana
jander
jane
janeiro
janet
janette
jang
janine
janis
jannings
jans
jansen
jansky
janson
janssen
januar
january
janus
janvier
jany
jap
japan
japaner
japanesch
japanesche
japaneschen
japanescher
japanese
jaque
jar
jardin
jardins
jared
jarmusch
jaroslawl
jarrott
jason
jaune
java
javier
jaxa
jay
jayet
jayne
jazz
jazzmuseker
jazzpianist
jdl
je
jean
jeanette
jeanine
jeanmaire
jeanne
jeannette
jeannot
jeans
jeck
jedem
jeder
jee
jeee
jeemools
jeeweileg
jeeweilege
jeeweilegen
jeeweileger
jeeweils
jeff
jefferson
jeffrey
jeffries
jeitz
jekyll
jemen
jemp
jempy
jena
jeng
jenkins
jennifer
jenny
jens
jenseits
jensen
jentgen
jeremiah
jeremy
jeroen
jerome
jerry
jersey
jerusalem
jerzy
jess
jesse
jessica
jessie
jessua
jesu
jesuitt
jesuitte
jesuittekierch
jesuittekolle
jesuitten
jesuittenuerden
jesuittepater
jesus
jesuskand
jet
jets
jett
jetzt
jeu
jeudi
jeune
jeuner
jeunes
jeunesse
jeunesses
jeunet
jeux
jewison
jg
jh
jhemp
ji
jiddereen
jiddesch
jiddesche
jiddeschen
jiddescher
jiddwer
jiddweree
jiddwereen
jiddwerengem
jil
jill
jim
jimi
jimmy
jo
joa
joachim
joan
joanna
joanne
joannes
joannon
joaqui
joaquim
joaquin
job
jobert
jocelyn
jochen
jochri
jock
jodie
joe
joel
joer
joerdausend
joerga
joergang
joerhonnert
joerhonnerte
joerhonnertelaang
joerhonnerten
joers
joerze
joey
joffe
joffer
joh
johan
johann
johanna
johannes
johannesburg
johanns
johansson
john
johnny
johns
johnson
johnston
johny
joie
joint
joli
jolie
jolivet
joly
jon
jonas
jonathan
jones
jong
jonge
jongelyce
jongen
jongfra
jongle
jonk
jonke
jonken
jonker
jonkt
jonktem
jonny
joplin
jor
jordan
jordanien
jordi
jore
jorelaang
joren
joresdag
joresza
joreszuel
jorge
joris
jos
jose
josef
josep
joseph
josephine
josephson
josephus
josette
josh
joshua
josiane
joss
josseline
jost
josy
joue
joueur
jour
jourdan
journal
journalismus
journalist
journaliste
journalisten
journalistes
journalistin
journaux
journe
journey
jours
jousef
jousefskierch
jouvet
jouy
joy
joyce
joyeuse
joyeux
jp
jpg
jpl
jr
ju
juan
jubila
judas
judd
judde
judden
juddentum
jude
juden
judge
judi
judiciaire
judith
judoka
judt
judy
juegd
juge
jugement
jugend
jugendbuch
jugendherberg
jugendherbergen
jugendlechen
jugendlecher
jugendorganisatioun
jugendstil
jugert
jugnot
jugo
jugoslawesche
jugoslawien
juhnke
juifs
juillet
juin
juive
jul
jules
juli
julia
julian
juliana
julianesche
julianne
julie
julien
julienne
juliet
juliette
julio
julius
julliard
july
jumele
jump
jun
junck
juncker
june
jung
jungblut
junge
jungels
jungen
jungers
jungfrau
jungle
junglinster
juni
junie
junior
junioren
juniors
junius
junji
junker
juno
jupille
jupiter
jupitermassen
jupitermound
jupitermounden
jura
juran
jurassic
jure
juri
juridique
jurist
juristesch
juristesche
juristin
jury
jus
jusqu
just
juste
justice
justin
justine
justiz
justizkra
justizminister
justus
jutta
juventus
k
ka
kaaft
kaalber
kaalmes
kaart
kaarte
kaarten
kaartespill
kabarettist
kabel
kabes
kabinn
kach
kache
kachen
kachke
kachpunkt
kaczyn
kad
kadaster
kadastersektioun
kader
kaf
kafe
kafen
kaffi
kafka
kahn
kahnt
kai
kairo
kaiser
kaiserin
kaiserslautern
kal
kale
kalender
kalenner
kalennerblieder
kaler
kalfon
kalifornien
kaliningrad
kalium
kallek
kalleksteen
kallisto
kalmes
kaluga
kam
kama
kambodscha
kame
kamen
kamera
kamerae
kameraen
kameramann
kamerun
kaminka
kammermusek
kammerwahlen
kamp
kampers
kampf
kan
kana
kanada
kanadesch
kanadesche
kanadeschen
kanadescher
kanadier
kanal
kanalisatioun
kanalise
kanareschen
kand
kandheet
kandidat
kandidate
kandidaten
kandidatin
kandidatur
kandide
kandinsky
kandskand
kane
kanech
kann
kanner
kannerbicher
kannerbuch
kannerza
kanns
kannt
kanoun
kanoune
kanounen
kansas
kant
kantat
kanton
kantonalreform
kantone
kantonen
kanu
kanut
kanzler
kap
kapazite
kapell
kapelle
kapellen
kapita
kapital
kapitalismus
kapitel
kapitelen
kapitulatioun
kapitule
kaplan
kaploun
kapp
kappa
kappgare
kapps
kaprisky
kapsel
kapstad
kapteyn
kapuzinertheater
kar
karate
kardinalzuel
kardinol
karel
karen
karibik
karier
kariger
karikatur
karikature
karikaturen
karikaturist
karim
karin
karina
karl
karlheinz
karloff
karlowa
karls
karlson
karlsruhe
karma
karneval
karol
karolenger
karolina
karpaten
karria
karsten
karte
karthago
kartheiser
kartograph
kartographe
kartographie
karyo
kasa
kasachstan
kaschmir
kascht
kaschten
kasematt
kasematte
kasematten
kasemattentheater
kasimir
kaspar
kass
kassel
kassovitz
kast
kastilien
kat
kata
katalog
kataloge
katalogen
katalogise
katalounien
katar
katastroph
katastrophen
kate
kategorie
kategorien
kategorise
katharina
katharine
kathedral
katherine
kathleen
katholicken
katholische
katholizismus
kathoulesch
kathoulesche
kathouleschen
kathoulescher
kathrin
kathryn
kathy
katia
katie
katja
katrin
katy
katz
kauffman
kauffmann
kaufman
kaufmann
kauka
kaukasus
kaul
kaum
kauneref
kaurisma
kautebaach
kauthen
kavallerie
kaviar
kaweechelchen
kay
kaye
kayl
kayser
kaz
kazan
kazen
kb
kde
ke
kea
keach
keanu
keaton
keck
kee
keefe
keefer
keeft
keel
keeler
keelt
keen
keenan
keep
keeser
keeserin
keeserlech
keeserlecher
keeserra
keespelt
kegel
kehlen
kehlmann
keiffer
keighley
kein
keine
keinen
keir
keitel
keith
kellen
keller
kellerman
kelly
kelten
keltesch
keltesche
kelteschen
keltescher
kelvin
kemerowo
kemmer
kemp
ken
kendall
keng
kengem
kenger
kenia
kenne
kennedy
kennegele
kennen
kenneth
kennt
kenntnesser
kenny
kennzeeche
kennzeechen
kent
kentucky
kepler
ker
keramik
kerg
kerger
kern
kerr
kerry
kersch
kerschen
kershner
kervine
kerwin
kessel
kesseler
kessler
kette
kettel
ketten
ketter
ketti
ketty
keup
kev
kevelaer
kevin
kew
key
keyboard
keyes
keys
keyser
kg
khan
khm
khz
ki
kiberlain
kic
kiche
kichen
kid
kidder
kidman
kids
kiefer
kieffer
kiel
kielen
kieling
kiem
kiemen
kiepenheuer
kiepura
kier
kierch
kierchbierg
kierche
kierchefabre
kierchefe
kierchemusek
kierchen
kierchenhistoriker
kiercherot
kierchesche
kierchestrooss
kierchlech
kierchtuerm
kierfecht
kierfechter
kiermes
kieron
kierper
kierperbau
kierperlech
kierzel
kies
kiesel
kiew
kifer
kiischpelt
kiischpelter
kill
killed
killer
killers
killing
kilmer
kilo
kilogramm
kilometer
kim
kin
kind
kinder
kinepolis
king
kingdom
kings
kingsley
kinnek
kinneke
kinneken
kinneklech
kinnekleche
kinneklechen
kinneklecher
kinnekra
kinnekshaus
kinnen
kinnigin
kino
kinoe
kinoen
kinos
kinosfilm
kinosfilmer
kinsch
kinski
kiosk
kirby
kirch
kirchberg
kirche
kirchen
kirchhoff
kirchner
kirgisistan
kiribati
kirk
kirow
kirpach
kirps
kirsanoff
kirsch
kirsten
kiss
kisses
kit
kita
kitchen
kitt
kitty
kjellin
kk
kl
kla
klack
klacke
klackege
klacken
klackentuerm
klagenfurt
klak
klameren
klamme
klammen
klang
klappen
klappt
klara
klarinett
klarinettist
klass
klasse
klassement
klassen
klassesch
klassesche
klasseschen
klassescher
klassifikatioun
klassifize
klassik
klassiker
klauen
klaus
klausener
klausju
klavier
kle
klecker
klee
kleed
kleeder
klees
kleeschen
klein
kleine
kleinen
kleiner
kleines
kleist
kleng
klengasien
klengbetten
klenge
klengem
klengen
klenger
klengkierper
klengplane
klengst
klengstad
klengste
klengsten
klengt
klensch
kleopatra
klepper
kleriker
klerus
klett
kleve
klickt
klierf
klierfer
klima
klimawandel
klimovsky
kline
klinger
klingler
klinick
klo
kloer
klopp
kloster
klouschter
kluge
km
kmec
kn
kna
knabberde
knaff
knapp
knapphouschent
knapps
knaur
kne
knef
kneip
knepper
knew
kniet
knight
knights
knock
knokke
knopf
knorr
knossos
knoteck
know
knowledge
knowles
known
knox
knuedler
knuet
knupp
knut
knuth
ko
koadjutor
koalitioun
koalitiounskricher
koalitiounsregierung
koblenz
kobs
koch
kock
kockelscheier
kockelscheuer
koczian
koenig
koerich
koffer
kohl
kohlhammer
kohn
kohnen
kohner
kohoutek
kokain
kolbach
koler
koll
kollaboratioun
kollabore
kollaps
kolldehoff
kolle
kolleeg
kolleege
kolleegen
kollektioun
kollektiv
kollektive
kollektiven
kollektiver
kollide
kollisioun
kollwelter
kolonie
kolonien
kolonn
kolpech
koltz
kolumbianesche
kolumbien
kolumbus
koma
kombinatioun
kombine
kome
komesch
kometen
komi
komiker
komm
komma
kommandant
kommande
kommando
komme
kommen
kommentar
kommente
kommerzialise
kommerziell
kommerzielle
kommerziellen
kommissa
kommissar
kommissioun
kommitee
kommt
kommunal
kommunikatioun
kommunismus
kommunisten
kommunistesch
kommunistesche
kommunistescher
kommunize
komo
kompakt
kompanie
kompass
kompatibel
kompense
kompetenz
kompetenze
kompetenzen
kompetitioun
kompetitioune
kompetitiounen
kompilatioun
komplett
komplette
kompletten
kompletter
komplex
komplize
komplott
kompone
komponent
komponente
komponenten
komponist
komponiste
komponisten
komponistin
kompositioun
kompositioune
kompositiounen
komprime
komprome
kondense
konditioun
konditioune
konditiounen
konen
konfederatioun
konferenz
konferenzen
konfessioun
konfiguratioun
konfirme
konflikt
konflikter
konfronte
kong
kongo
kongregatioun
kongress
kongreß
konjuge
konjunktioun
konkreet
konkurrent
konkurrenz
konnt
konnte
konnten
konrad
kons
konsbruck
konscht
konschtakademie
konschterze
konschtgalerie
konschtgeschicht
konschthaus
konschthistoriker
konschthistorikerin
konschtmuse
konschtschafenden
konschtschra
konschtwierk
konschtwierker
konsdre
konsdref
konsekratioun
konsekre
konsequent
konsequenz
konsequenze
konsequenzen
konservativ
konservative
konservativer
konserve
konsonant
konstant
konstanter
konstantin
konstantinopel
konstanz
konstellatioun
konstem
konstitue
konstitutionell
konstrue
konstrukteur
konstruktioun
konstruktiounen
konsul
konsulat
konsulte
konsum
kontakt
kontakte
kontakter
konter
konteste
kontext
kontinent
kontinenter
kontinue
kontrabass
kontrakt
kontrakter
kontrast
kontributioun
kontroll
kontrolle
kontrovers
kontz
konventioun
konverte
konvikt
konzentratioun
konzentratiounslager
konzentre
konzentresch
konzept
konzepter
konzeptioun
konzern
konzessioun
konzil
konzipe
koob
kooperatioun
kooperativ
koordinate
koordinaten
koordinatesystem
koordinatioun
koordine
kope
kopenhagen
kopernikus
kopf
kopie
koplescht
kopp
koppe
koppel
koppele
koppelen
koppen
koppes
koproduktioun
koran
korber
korda
kordall
kore
korea
koreakrich
korinth
korona
korrekt
korrektur
korrespondent
korrespondenz
korrige
korruptioun
korsika
kortner
kos
koscina
koseng
kosmesch
kosmesche
kosmescher
kosmodrom
kosmologie
kosmonaut
kosmonaute
kosmos
kosovo
koster
kostroma
kostu
kotcheff
kotteng
kou
koum
koume
koumen
koup
kourou
kova
kovacs
kowa
kowalski
kowalsky
kox
kp
kpc
kpl
kra
kraaft
kraaftme
krack
kraemer
kraft
krahl
kraider
krakau
krako
krallen
kramer
kramp
krank
kranke
kranken
krankheet
krankheeten
krantz
krasnodar
krasnojarsk
krater
kraterbuedem
kratere
krateren
kraterrampli
kraterrand
kratzenberg
kraus
krause
krauss
krautmaart
krawczyk
krazy
kre
kreatioun
krecke
kree
krees
kreesbunn
kreesen
kreesfe
kreesfra
kreesser
kreest
kreins
kreis
kreisler
kremart
kremer
kreta
kreutz
kreuz
kreuzer
krich
kricher
krichsaffer
krichsfilm
krichsjoren
krichsmonument
krichsmonumenter
krichssche
krieg
krieger
krieps
krier
kriibs
krim
krimi
kriminalfilm
kriminalfilmserie
kriminalite
kriminalroman
kriminalromaner
krimkrich
krippel
krippler
kris
krise
kristaller
kristel
kristen
kristin
kristina
kristofferson
kritesch
kritesche
kriticke
kriticken
kritik
kritiker
kritische
kritise
kritt
kro
kroatesch
kroatesche
kroatien
kroll
krombach
krone
kronos
kropemann
kroun
krounpre
kru
krug
kruger
krupp
krut
krute
kruten
kruuchten
krypta
krzysztof
ku
kuba
kubanesch
kubanesche
kubikmeter
kubitschek
kuborn
kubrick
kuch
kuck
kucke
kucken
kuckeswa
kuckt
kuddel
kueb
kuel
kuelebierg
kuelegrouf
kuelegrouwen
kuelen
kuelendioxid
kuelestoff
kuelewaasserstoffer
kuer
kuerf
kuerz
kuerzbiographie
kuerze
kuerzem
kuerzen
kuerzer
kuerzfilm
kuerzfilmer
kuerzform
kuerzfristeg
kuerzgeschicht
kuerzgeschichte
kuerzgeschichten
kuerzza
kuffer
kugel
kugelfe
kugelsta
kugelstadt
kugener
kuhn
kuiper
kuiperceinture
kulenkampff
kull
kulminatioun
kult
kultive
kultur
kulture
kulturell
kulturelle
kulturellen
kultureller
kulturen
kulturfabrik
kulturgeschicht
kulturgeschichte
kulturhaaptstad
kulturhaus
kulturierwen
kulturissimo
kulturlandschaft
kulturministe
kulturminister
kulturministesch
kulturzenter
kulturzentrum
kultus
kummer
kunigunde
kunnen
kunnert
kunst
kunsthalle
kunstmuseum
kuppel
kurfu
kurgan
kurie
kurs
kursk
kurt
kurth
kurys
kurz
kurze
kusin
kutsch
kutter
kuurne
kuuscht
kuwait
kv
kw
ky
kyoto
kz
l
la
laach
laage
laang
laange
laangegronn
laangem
laangen
laanger
laangfilm
laangfristeg
laangja
laangt
laangza
laanscht
laanschtflich
laanschtfluch
laaschent
labastide
labber
label
labo
labor
laboratoire
laboratory
labour
labourdette
labrador
labro
labyrinth
lac
lacaille
lach
lachaise
lachen
lacombe
lacroix
lacus
ladd
laden
ladies
ladislao
lado
lady
laeis
laetitia
laf
lafayette
lafe
lafen
lafend
laffont
lafont
lafontaine
lafore
lafza
lag
laga
lagarde
lage
lager
lageren
lago
lagos
lagrange
lahn
lahr
lahure
lai
laisse
lait
lake
lalande
lalleng
lam
lama
lamac
lamadelaine
lamarr
lamas
lamb
lambda
lambert
lamberty
lamboray
lamborelle
lamesch
lamont
lamort
lamotte
lamour
lamoureux
lampech
lampertsbierg
lampertsbierger
lampin
lamprecht
lamy
lan
lana
lanaye
lancaster
lance
land
landa
landau
lande
landekapsel
landen
landeplaz
lander
landers
landes
landesmeeschter
landesmeeschterschaft
landesmeeschterschaften
landesmuseum
landesplanung
landesregierung
landesverband
landeswa
landewyck
landfla
landgrebe
landi
landis
landkaart
landkrees
landkreesser
landkreis
lando
landrat
landry
landscape
landschaft
landschafte
landschaften
landschaftsarchitekt
landshut
landtag
landung
landwirtschaft
landwirtschaftlech
landwirtschaftleche
lane
lanfield
lang
lange
langella
langen
langer
langers
langes
langini
langon
langres
language
langue
languedoc
langues
lanie
lanka
lann
lanne
lannen
lannenallee
lanners
lannoy
lanoux
lansbury
lant
lanvin
lanza
laon
laos
laplace
lappland
laquelle
lar
lara
laraine
large
largo
larie
larivie
larochette
laroque
larousse
larquey
larry
lars
larsen
las
lascombes
laser
lass
lassander
lasse
lassen
last
lat
lata
late
later
latimore
latin
latina
latine
latino
latium
latour
latte
lattuada
lauden
laughton
launch
laura
laure
laureat
laureate
laurel
lauren
laurence
laurens
laurent
laurentius
laurie
lausanne
lausbubengeschichten
lauschteren
lauschterspill
laut
lauter
lauterbuer
lautner
laux
lav
lava
laval
lavanant
lavase
laven
lavi
law
lawford
lawless
lawrence
lay
laye
layout
lazaga
lazare
lazzaro
lb
lbr
lbt
lc
lcd
lcgb
ld
lder
le
lea
lead
leader
leaf
league
lean
leander
leandro
learning
leave
lebe
leben
lebens
leberecht
leblanc
lebon
leboursier
lebrun
lebt
lebten
lec
lech
lecle
leclerc
leconte
lection
lections
lectrique
lecture
lectureship
leda
leder
lederman
ledoux
lee
leed
leeden
leeder
leeds
leedung
leee
leefer
leefilm
leeft
leem
lees
leesch
leescht
leeschten
leeschtung
leeschtunge
leeschtungen
leeschtungsfa
leesfilm
leesserie
leet
lefaur
lefe
lefebvre
lefort
lefranc
left
leg
legacy
legal
legend
legenda
legende
legenden
legge
leggenda
legilux
legion
legiona
legioun
legislativ
legitime
legrand
lehmann
lehners
lehrbuch
lehrer
lei
leibelt
leibniz
leica
leick
leideleng
leidelenger
leiden
leidenschaft
leider
leie
leien
leif
leigh
leighton
leiner
leipnitz
leipzig
leipziger
leisen
leit
leitenberger
leitner
lejeune
lelleg
lellgen
lelouch
lemaire
lement
lemercier
lemma
lemmon
lemmy
lemoine
lemonnier
lemovicensis
lemy
len
lena
lenert
lenertz
leni
lenin
leningrad
lenneng
lenners
lennon
lenoir
lens
lentz
leny
lenz
lenzi
leo
leon
leonard
leonardo
leonardy
leone
leonhard
leoni
leonid
leonis
leonviola
leopard
leopold
leopoldo
leos
lepage
lepidoptera
leq
lequotidien
ler
lerin
leroy
les
lesaffre
lesch
lesche
lescht
leschte
leschten
leschter
lescure
lesley
leslie
lesse
lessentiel
lessing
lestat
leste
lester
let
letellier
leterrier
leti
letizia
leto
letsch
letter
letters
lettesche
lettland
lettre
lettres
letzebuerg
letzebuerger
letzeburg
letzeburger
letzte
letzten
leu
leuck
leudelange
leur
leurs
leute
leuwerik
leve
level
levi
leviathan
levin
levy
lew
leweck
lewin
lewis
lex
lexicon
lexikon
ley
leyder
leysen
lez
lf
lfa
lfe
lg
lge
lgl
lgs
lgv
lh
lhermitte
li
lia
liaison
liaisoun
liam
lian
liana
liane
liar
liard
lias
libanon
libar
libe
liber
liberal
liberale
liberalen
liberaler
liberalismus
liberation
liberatioun
liberia
liberta
liberte
liberty
libourne
libra
libraire
librairie
libramont
library
libratioun
libre
libres
libretto
libri
libyen
licence
lich
licht
licie
licien
licite
lick
lidd
lidder
lidderme
lidderschreiwer
lie
lieb
liebe
lieben
liebeneiner
lieber
liebeserkla
liebig
liebling
liebt
liechtenstein
lied
lieder
liedtke
lieft
liefza
liegt
lien
lier
liers
lies
liesch
liese
liesen
lieser
liest
lieu
lieutenant
lieux
lieven
liewe
lieweg
liewel
liewen
liewensdauer
liewensjoer
liewenslaf
liewensme
liewensraim
liewensraum
liewensstil
liewenswierk
liewensza
liewer
liewewiesen
liez
life
lifetime
lift
liga
lige
light
lightning
lights
ligne
lignes
ligny
ligue
liicht
liichtathlet
liichtathletik
liichtathletin
liichte
liichten
liichtjoer
liichtkra
liichtkraaft
liichtkraaftklass
liichtschwaach
liichtschwaache
liichtspektrum
liichtsta
liichttuerm
liichtvitess
like
lil
lila
lili
lilian
liliana
liliane
lilienthal
lille
lilli
lillian
lily
lima
limbourg
limburg
limes
limit
limite
limited
limits
limitt
limoges
limousin
limpach
limpertsberg
limur
lin
lina
linckels
lincoln
linda
lindbergh
linde
linden
lindfors
lindon
lindsay
line
linear
lines
lingen
linger
lingua
linguist
linguistik
linguistique
link
linken
linkin
links
linn
linnaeus
linne
linnen
lino
linster
linus
linux
linz
lio
lion
lionel
lionello
lions
lipezk
lippert
lippmann
lique
liquide
lire
lis
lisa
lisabeth
lisboa
lisbon
lise
liselotte
lisi
lisieux
lissabon
list
liste
liszt
lit
litauen
litauesch
litauesche
lite
liter
literaresch
literaresche
literareschen
literarescht
literary
literat
literatur
literaturarchiv
literaturconcours
literature
literaturkritiker
literaturnobelpra
literaturpra
literaturwe
literaturzentrum
lites
lithium
lithograph
lithographie
lithuania
lito
litte
little
littrow
liturgie
litvak
liu
liv
live
liverpool
lives
living
livio
livre
livres
liwwere
liwweren
liwwert
lix
liz
liza
lizabeth
lizenz
lizzani
lj
lker
lkerbond
lkermuerd
lkerung
lkerungsdicht
lkerungszuel
lkerwanderung
ll
lla
llchen
lle
llech
llechstrooss
llef
llefe
llefen
llefsme
llefsverb
lleft
lleg
llege
llegen
lleger
llegt
llem
llementer
llen
llene
llenen
llener
ller
llerdall
lles
lloyd
llstand
llt
llte
llung
ln
lner
lnvl
lo
lobo
local
locale
localite
locarno
loch
locke
locker
lockheed
lockwood
lod
loder
lodge
lodie
lodrom
loe
loen
loesch
loewy
loft
loftdrock
loftfaart
loftlinn
loftsche
loftwaff
lofy
log
logan
loge
logelin
logement
logements
logik
logo
lohmeyer
lohner
lohr
loi
loin
loing
loir
loire
loiret
lois
lokal
lokale
lokalen
lokaler
lokalhistoriker
lokalisatioun
lokalise
lokalpolitiker
lokalza
loki
lokomotiv
lokomotive
lokomotiven
lola
lolita
loll
lollobrigida
lom
loma
lombard
lombardei
lombardia
lome
lommel
lon
loncar
london
londoner
londres
lone
lonely
long
longchamps
longenentzu
longest
longo
longue
longwy
loni
lonkech
lons
lonsdale
look
looking
loop
loos
loose
loosse
loossen
lopbamboom
lope
lopes
lopez
lor
lorang
lord
lorella
loren
lorent
lorenz
lorenzo
lorenzon
loretta
lorge
lori
lorient
lorrain
lorraine
lorre
lors
lorsque
lortz
los
losch
loschbur
loschetter
loscourse
losey
losfuerer
lospist
lospisten
lossport
lossportler
lossportlerin
losstrecke
lost
loswee
lot
lothaire
lothar
lotharingien
lothringen
lotte
lou
louch
louche
louchen
louis
louise
louisiana
loup
loups
lourdes
lous
loutrengen
loutrengesche
loutsch
louvain
louvigny
louvre
love
loved
lovejoy
lovell
lovely
lover
lovers
loves
loving
low
lowe
lowell
lowitz
loy
loze
lp
lpl
ls
lsap
lschdref
lscher
lschlecherweis
lschung
lsemann
lt
ltd
lteg
lter
ltnes
ltnesme
ltnesser
lu
lualdi
luanda
lubin
lubitsch
lublin
luc
luca
lucas
luce
luchini
luchino
luci
lucia
luciana
luciano
lucidi
lucie
lucien
lucile
lucille
lucio
lucius
luck
lucky
lucre
lucrezia
lucy
lude
ludivine
ludmila
ludmilla
ludovic
ludovico
ludovicy
ludwig
ludwigshafen
luerenzweiler
lues
luft
lufthansa
luga
lugano
lugo
lugosi
luguet
lui
luigi
luis
luisa
luise
luja
lukas
luke
lukschy
lull
lulli
lulling
lulu
lumet
lumie
lumumba
luna
lunar
lund
lundi
lune
lunga
lunghi
lupi
lupin
lupino
lupo
lupp
lupus
lure
lus
lust
lutetia
lutgen
luther
lutte
lutz
luucht
luuchten
lux
luxair
luxe
luxemb
luxembourg
luxembourgeois
luxembourgeoise
luxembourgeoises
luxembourgish
luxemburg
luxemburgensia
luxemburgensis
luxemburger
luxemburgia
luxemburgische
luxemburgischen
luxemburgischer
luxemburgisches
luxemburgo
luxemburgs
luxempart
luxexpo
luxfilmfest
luxlait
luxroots
luxtram
luxus
luxusbuerg
luz
luzern
lvl
lw
lwen
lwer
lwermedail
lwerwolz
lx
lxc
ly
lyce
lydia
lydie
lyga
lyle
lyman
lynch
lynche
lynchen
lyndon
lynley
lynn
lynne
lynx
lyon
lyra
lyrae
lyrik
lyriker
lys
lyse
lz
lze
lzen
lzer
lzpunkt
lzt
lzung
m
ma
maach
maache
maachen
maacher
maar
maark
maarken
maarnech
maart
maartel
maarten
maartplaz
maas
maastricht
mabuse
mac
macarthur
macau
maccione
macdonald
macdowell
mach
macha
machado
machen
macher
machiavelli
machine
machines
macht
maciste
mack
mackendrick
mackenzie
maclaine
macmillan
macmurray
macron
mad
madagaskar
madame
madamm
madden
made
madeira
madeleine
mademoiselle
madison
madness
mado
madon
madonna
madre
madrid
madsen
mady
mae
maele
maertz
maes
maestro
maffei
mafia
mag
magali
magazin
magazine
magda
magdalena
magdeburg
mage
magee
magellan
magellanesch
magellanescher
maggie
maggiore
maggy
magic
magica
magie
magier
magimel
maginot
magister
magistrat
magma
magnani
magne
magnesium
magnetic
magni
magnifica
magnificent
magnifico
magnitude
magnum
magnus
magny
mahatma
mahler
mahoney
mai
maiden
maier
maigret
mail
mailand
maillan
mailliet
maillot
main
maine
mains
maintenon
mainz
maire
maires
mairesse
mais
maisch
maison
maisonnet
maisons
maisy
maizie
maj
maja
majano
majerus
majeste
majesty
majeur
major
majoris
majorita
majorite
majouer
majuskel
make
makedonien
making
maksutov
mal
mala
maladie
malakoff
malasomma
malatesta
malavoy
malawi
malaysia
malcolm
malden
maldiven
male
maler
malerei
malfatti
malget
malgre
mali
malick
malik
malin
malkovich
mall
mallarme
malle
mallorca
malmedy
malmo
malo
malone
malou
malraux
malta
mam
mama
maman
mambo
mamende
mamer
mameranus
mamerdall
mamers
mamie
mamm
mamma
mammekierper
mammesprooch
mammesproochler
mamoulian
man
management
manager
mancha
manche
manchester
manchu
mancini
mandat
mandater
mandela
manderen
manderscheid
mandy
mane
manet
manfred
manfredi
manga
mangaka
mangano
mangen
manhattan
mani
manie
manifest
manifestatioun
manifestatioune
manifestatiounen
manifeste
manila
manipule
mankiewicz
manktem
mann
mannelli
mannequin
manner
mannerja
mannes
mannheim
manni
mannschaft
mannst
mano
manoel
manon
manou
mans
mansfeld
mansfield
manson
mant
mantel
manternach
mantes
manu
manual
manualer
manuel
manuell
manufacture
manufaktur
manuscript
manuskript
many
manœuvres
mao
map
mapping
mapquest
maquette
maquis
mar
mara
marais
maraldi
marat
marathon
marber
marbot
marburg
marbœuf
marc
marceau
marcel
marcelle
marcellini
marcello
march
marchal
marchand
marchant
marche
marchent
marches
marcia
marcinelle
marck
marco
marconi
marcos
marcq
marcus
marcy
mard
mardasson
mardi
mare
marek
marenbach
mareuil
margaret
margareta
margarete
margaretha
margarethe
margarita
marge
margherita
margheriti
margit
margot
margre
margret
margue
marguenat
marguerite
mari
maria
mariage
marian
mariangela
marianne
mariano
marie
marielle
mariendall
marienkalender
marienthal
mariette
marigny
marika
marilu
marilyn
marin
marina
marine
marineesescher
mariner
marinn
marino
mario
marion
maris
marisa
marischka
mariti
maritime
maritimes
marito
marius
marivaux
marjorie
mark
markant
markante
markarjan
marke
marken
markennumm
market
marketing
markiewicz
markt
marktheidenfeld
markus
marle
marleen
marlene
marley
marlon
marlowe
marly
marmande
marmer
marne
marokkanesch
marokko
maroldt
marquand
marque
marques
marquis
marquise
marriage
married
mars
marsan
marsch
marschall
marsche
marsden
marseillaise
marseille
marsh
marsha
marshall
marskrater
marson
marsuewerfla
marsupilami
mart
marta
marte
martel
marteling
martell
marten
martens
marth
martha
marthe
marti
martial
martin
martina
martine
martinelli
martinez
martini
martinique
martino
martins
marton
marty
maruschka
marvel
marvin
marx
marxismus
mary
maryland
maryse
mas
mascha
maschera
maschinn
maschinne
maschinnebau
maschinnen
maselli
mashiro
masina
mask
maske
mason
masque
mass
massachusetts
massacre
massacro
massaker
massakre
massard
massari
masse
massen
massende
massera
masses
massey
massi
massif
massimo
massiv
massive
masson
mast
master
masterplang
masters
mastrocinque
mastroianni
masturbatioun
mat
mata
mataarbecht
mataarbechter
mataarbechterin
matar
matarazzo
matbruecht
match
matcher
matdeelung
mate
matenee
mateneen
mater
material
materialien
materiell
maternite
matgedeelt
matgegre
matgeholl
matgemaach
matgeschafft
matgespillt
matgewierkt
matgre
math
mathbb
mathe
mathematesch
mathematesche
mathematik
mathematiker
mathematikerin
mathews
mathias
mathieu
mathilda
mathilde
mathis
mathot
mathrm
matie
matin
matins
matique
matiques
matkritt
matmaachen
matme
matricule
matrix
matt
matteo
matter
matterhorn
mattes
mattha
matthau
matthew
matthews
matthias
matthieu
matti
mattoli
mattsson
mature
matz
matzemaachen
matzen
mauban
maubeuge
maud
mauer
mauere
maueren
maul
maule
maulesmillen
maulkuerfgesetz
mauna
maunder
maupeou
maur
maura
maureen
maurer
mauretanien
maurey
mauri
mauriac
maurice
maurienne
maurier
mauritius
maurizio
mauro
mauruschatt
maury
maus
mausoleum
mauvais
max
maxi
maxim
maxima
maximal
maximale
maximaler
maxime
maximilian
maximilien
maximin
maximum
maximus
maxwell
may
maya
mayall
mayans
mayen
mayenne
mayer
mayerhofer
mayerling
maynard
mayne
mayniel
mayo
mayor
mayrisch
mazedonien
mazursky
mb
mba
mbau
mbauaarbechten
mbenannt
mbildung
mbre
mbruecht
mc
mcavoy
mcbain
mccallum
mccarey
mccarthy
mccormack
mccoy
mccrea
mcdonald
mcdonnell
mcdowall
mcdowell
mcenery
mceveety
mcgoohan
mcgrath
mcgraw
mcgregor
mcguire
mckellen
mckenna
mclaglen
mclaughlin
mcleod
mcnally
mcqueen
mcshane
md
mdre
me
mean
meaux
mecanicien
mech
mechanesch
mechanik
mechanismus
mechanissem
mechelen
mecher
mecht
mecklenburg
med
medail
medailen
medaillon
medal
medea
medeiros
meder
medernach
medezin
medezinesch
medezineschen
medezinner
media
mediart
medical
medici
medicine
medie
medien
medieval
medikamenter
medina
medinger
medium
medizin
medusa
mee
meechtem
meedche
meedchen
meedercher
meedercherslyce
meeker
meenung
meer
meescht
meeschte
meeschten
meeschtens
meeschter
meeschterschaft
meeschterschaften
meesebuerg
meet
meeting
meets
meg
mega
mehlen
mehr
mei
meier
meil
meilleur
meilleure
mein
meine
meinem
meiner
meines
meinrad
meintz
meisch
meisel
meister
mekka
mel
melanie
melato
melbourne
melchior
meldung
meleng
melenger
melina
melinda
melissa
mell
mellier
mellt
melodie
melodien
melody
melun
melusina
melville
melvin
melvyn
member
membere
memberen
memberla
memberschaft
memberstaat
memberstaate
memberstaaten
membre
membres
memel
memoir
memoire
memoiren
memoirs
memor
memorial
memoriam
memories
memory
memphis
men
menace
menager
menahem
mende
mendelssohn
mendes
mendoza
mene
menehould
menez
meng
mengel
mengen
mengt
menhir
menjou
menn
mens
mensch
menschen
menschheit
menster
ment
mentaire
mentalite
menti
mentine
mention
mentioun
menton
mentor
ments
menu
menzel
mer
merad
mercader
mercanton
mercator
mercedes
merci
mercien
mercier
merckx
mercouri
mercure
mercury
mercy
meredith
merenda
mergen
mergenthaler
meridian
meridiani
merino
meris
merjai
merkel
merkur
merle
merlin
merlini
merowenger
merrill
merry
mersch
merschen
mertens
mertert
mertzig
merveilleuse
mervyn
mery
meryl
merzig
mes
mesch
mesche
mesdames
mesnil
mesopotamien
mess
message
messancy
messe
messemer
messenger
messer
messerschmitt
messidor
messier
messieurs
messina
mesure
mesuren
mesures
mesz
met
meta
metal
metall
metalle
metaller
metallesch
metallica
metallizite
meteor
meteore
meteoren
meteorit
meteoritte
meteorittele
meteoritten
meteorolog
meteorologesch
meteorologie
meteorstre
meteorstroum
meter
methan
method
methode
methoden
methuen
metis
metro
metropol
metropolis
metropolitan
metropolregioun
mett
mettlach
metty
metz
metze
metzer
metzerlach
metzger
metzler
meudon
meunier
meurisse
meurs
meurt
meurthe
meurtre
meurtrier
meuse
mexico
mexikanesch
mexikanesche
mexiko
meyen
meyendorff
meyer
meyerinck
meyers
meysel
mez
mezzo
mezzogiorno
mfaassen
mfaasst
mfang
mfangra
mfank
mfeld
mfonnt
mfunktione
mg
mgang
mgangssproochlech
mge
mgea
mgebaut
mgedeeft
mgedre
mgeke
mgenannt
mgesat
mgesidelt
mgewandelt
mgewielt
mgi
mginn
mgm
mgoen
mgr
mhz
mi
mia
miami
miaow
mich
michae
michael
michaelis
michail
michailowitsch
michaud
michaux
miche
michel
michelangelo
michele
michelin
micheline
michell
michelle
michels
michely
michigan
mick
mickey
micky
microsoft
middle
midi
midler
midnight
mie
miedernach
miel
mier
mieren
mierer
mieresspigel
mierkt
miersch
mierschent
mierscher
miesdref
miessung
miessunge
miessungen
mieux
miezeg
mig
mighty
mignon
migrations
migratioun
miguel
miha
mihai
mika
mikae
mikael
mike
mikhail
mikis
miklo
mikrometer
mil
mila
milan
milano
mildred
mile
milena
miles
milestone
milet
milia
milian
milie
milieu
milita
militaire
militaires
military
miliz
mill
milla
milland
millau
mille
millebaach
millen
millennium
miller
milliard
milliarde
milliarden
milliards
millie
millimeter
million
milliona
millionen
millions
millioun
millioune
milliounemol
milliounen
millon
millowitsch
mills
milly
milmeister
milne
milo
milos
milou
milton
milwaukee
mimas
mimi
mimieux
mimmo
mimsy
min
mina
minaire
minas
mind
minden
mindestens
mindestmass
mine
mineral
mineraler
mineralogie
minerva
mines
minett
minettsge
mineur
mineurs
ming
minghella
minh
mini
minie
minier
minimal
minimum
minin
minine
miniserie
ministe
minister
ministere
ministeren
ministerpresident
ministerpresidentin
ministerrot
ministesch
ministre
minkowski
minn
minnelli
minnen
minnesota
minnie
mino
minoesch
minor
minorite
minos
minotaur
minuit
minus
minuskel
minute
minuten
minutes
minutt
minutte
minutten
mio
miou
mique
mir
mira
mirabeau
miracle
mirage
miranda
mirande
mireille
miriam
mirjam
mirko
miro
miroir
mirren
mirror
mis
misa
misch
mischa
mische
mischen
mischo
mise
miss
missa
misse
missen
missile
missing
mission
missiona
missione
missions
missioun
missioune
missiounen
mississippi
missouri
misst
misste
missten
mister
mistral
mit
mitchell
mitchum
mitock
mittal
mitte
mitteilungen
mittelalter
mittelalters
mitternacht
mitterrand
miwwele
miwwelen
miwwelste
mix
mixed
mixte
mizrahi
mk
mke
mker
mkomm
mkrees
mkreesen
mkreest
mkreesung
ml
mlaf
mlafbunn
mlafbunne
mlafbunnen
mlafperiod
mlafza
mlech
mm
mme
mmeg
mmel
mmelsmarsch
mmen
mmer
mmere
mmeren
mmerhin
mmerin
mmert
mmerung
mmlechten
mmt
mmte
mmten
mmter
mmung
mmunge
mmungen
mmungsberechtegt
mn
mnha
mo
moati
mob
mobil
mobile
mobiliar
mobilier
mobilise
mobilite
mobutu
mocky
mocratie
mocratique
modalite
mode
model
modell
modelle
modeller
models
modena
moderateur
moderator
moderatorin
modere
modern
moderna
moderne
modernen
moderner
modernes
modernise
modernt
modert
modifiant
modification
modifie
modifize
modine
modo
modul
module
modus
moe
moes
mof
mogherini
moglie
moguy
mohamed
mohammed
mohr
moi
moien
moies
moin
moine
moins
moira
moire
moires
mois
moitie
mol
molander
moldawien
mole
molecular
moleku
molen
moler
molerei
molereien
molerin
molie
molina
molinaro
molitor
molkerei
moll
molling
molly
molnar
moltke
moment
momentan
momenter
moments
mommsen
mompech
mon
mona
monaco
monarch
monarchen
monarchie
monceau
mond
monde
mondercange
mondes
mondial
mondiale
mondo
mondorf
mondorfer
mondy
mone
monet
money
monfort
mongenast
mongolei
monica
monicelli
monie
monika
monique
monk
monkey
monlaur
monnaie
monnerech
monnet
monni
monoceros
monocle
monographie
monographien
monolith
monopol
monroe
mons
monsieur
monster
monsters
mont
montage
montagnani
montagnards
montagne
montaigne
montaigu
montalban
montaldo
montana
montand
montant
montauban
montazel
montbe
monte
montenegro
monterey
montero
montes
montesano
montesquieu
montevideo
montez
montezuma
montfaucon
montfort
montgomery
month
monthly
monti
montiel
montigny
montluc
montmartre
montme
montmorency
montparnasse
montpellier
montre
montreal
montreuil
montreux
montrond
montrouge
monts
montserrat
montsoreau
monty
monument
monumental
monumenter
monuments
moof
moolt
moon
moonlight
moore
mooss
moosse
moosseenheet
moossen
moossinstrumenter
moossname
moossnamen
moossstaf
mora
moral
morale
morales
moralesch
morante
morbach
morbihan
mord
more
moreau
moreira
morel
moreno
moresnet
moretti
morgan
morgen
morgue
mori
morial
moriarty
morin
morire
moris
moritz
morlaix
morlay
morley
morn
morning
moro
morphologie
morris
morrison
morrow
morse
mort
mortagne
morte
mortier
morto
morton
morts
mortuaire
mortuaires
morvan
mos
mosaicker
mosaik
mosambik
mosar
mosbacher
moschee
moschin
moscow
mosel
mosellanes
moselle
moser
moses
moshe
moskau
moskauer
moslemen
mosquito
moss
mosse
mossong
most
mot
mother
motion
motiv
motive
motiver
moto
motor
motore
motoren
motorise
mots
motte
motto
mou
moud
mouer
moulin
moulins
mouloudji
mound
moundda
mounde
mounden
moundgestengs
moundkaart
moundkrater
moundlandefa
moundlandung
moundmier
moundre
moundsa
moundsond
mounduewerfla
mount
mountain
mountains
mourir
mouse
mousel
mousquetaires
moussa
mousset
mousson
mouth
mouton
mouvement
mouvements
mouzon
move
movement
movie
movies
moving
moxey
moyen
moyenne
moyens
moyse
mozart
mp
mpc
mpec
mpel
mper
mpf
mpfe
mpfen
mpfer
mpft
mpfung
mpla
mpt
mr
mrd
mrs
ms
msaz
msc
msetzung
msoss
msou
msta
mstellung
mstridden
mt
mte
mten
mter
mtlech
mtliche
mtv
mu
much
mudam
muecht
mueller
muer
muerd
mueres
muerte
muhammad
mujer
mulhouse
mullendorff
muller
mullerthal
mulligan
multi
multimedia
multiple
mumm
mun
munchen
mundart
mundo
muni
munich
municipal
municipale
munitioun
munka
munnech
munneche
munnechmol
munnere
munneref
muno
munro
munster
munzen
mur
murat
murcia
murder
murders
muret
muriel
murmansk
murnau
murphy
murray
murs
mus
musante
muse
musek
museker
musekerin
museksfestival
museksgrupp
museksinstrument
musekspedagog
musekspra
museksproduzent
museksprofesser
museksschoul
museksvideo
musel
museldall
museldepartement
musen
museo
museum
music
musica
musical
musicale
musicales
musiciens
musik
musikalesch
musikalesche
musikaleschen
musikanten
musikerlexikon
musique
musketeers
muss
musse
mussen
musset
mussolini
must
mustafa
muster
mutfert
muti
mutiny
mutsch
mutt
mutter
muttergottes
muttergotteskapell
muttergottesstatu
mutz
muyser
muß
mw
mwee
mwelt
mweltministe
mweltschutz
my
myanmar
myers
mykene
mykenesch
mykenescher
mykolog
myle
mylius
myriam
myrna
myspace
myste
mysterie
mysterious
mystery
mythe
mythen
mythologie
mythos
mywort
mzebre
mzefannen
mzesetzen
n
na
naacp
naass
nac
nach
nacher
nachrichten
nachruf
nacht
nachts
nachwort
nacional
nada
nade
nader
nadia
nadine
nadja
naff
nagasaki
nage
nagel
nagement
nagy
nahe
nai
naish
naissance
naked
nal
nam
name
named
namen
names
namibia
namibien
namouer
namur
nan
nana
nancy
nanni
nanterre
nantes
nanzeg
naomi
napier
napole
napoleon
napoli
naquet
narbonne
nard
nas
nasa
nascht
naschy
nash
nashville
nassau
nastassja
nat
natale
natalia
natalie
natascha
natasha
natation
nathalie
nathan
nathaniel
natierlech
natierleche
natierlechen
natierlecher
nation
nationaalt
national
nationalarchiv
nationalarchiven
nationalbibliothe
nationalbibliothek
nationaldivisioun
nationale
nationalekipp
nationalem
nationalen
nationaler
nationales
nationalfeierdag
nationalhymn
nationalismus
nationalistesch
nationalite
nationalkongress
nationalmannschaft
nationalmonument
nationalmuse
nationalpark
nationalsozialismus
nationalsozialisten
nationalspiller
nationalstrooss
nationalstroossen
nationalversammlung
nationaux
nations
natioun
natioune
natiounen
nato
natrium
natu
natur
natura
natural
naturalisatioun
naturalistes
naturbe
nature
naturel
naturelle
naturelles
naturfuerscher
naturgeschicht
naturhistoresche
naturmuse
naturpark
naturrecht
naturschutz
naturschutzgebidder
naturschutzgebitt
naturverwaltung
naturwaldreservate
naturwe
natzweiler
nau
naval
navarra
navarre
navarro
navigation
navigatioun
navigator
navy
nawell
naxos
nazaire
nazareth
nazarro
nazi
nazida
nazie
nazien
nazionale
nazis
nazz
nazzari
nberg
nbo
nc
nch
nche
nchen
nchener
nchez
nchhausen
nchner
ncia
ncipe
nd
ndchen
nde
ndel
ndele
ndelen
ndels
nden
nder
ndet
ndez
ndgens
ndig
ndige
ndin
ndische
ndischen
ndlech
ndleche
ndlecher
ndler
ndnes
ndnesser
ndnis
ndor
ndorff
ndr
ndschaft
ndschaftsmatch
ndung
ne
nea
neagle
neal
neame
neapel
near
nearby
neat
nebel
nebraska
nebst
nebula
nebulae
neburg
necker
ned
nederland
nee
need
needham
neel
neen
nees
neesantre
neeson
negativ
negativen
neger
negri
negro
negulesco
nei
neibau
neiduerf
neie
neien
neier
neierbuerg
neierde
neies
neifundland
neige
neigegre
neiguinea
neil
neill
neilson
neime
neimillen
neimound
nein
neioplo
neipperg
neipuertsgaass
neipuertskapell
neise
neist
neit
neits
neiwalen
neiza
nel
nell
nella
nelly
nelson
nemark
nement
nemours
nen
nenne
nennen
nennenswa
nennt
neo
neobiota
neogotesche
nepal
nepomuk
neptun
neptune
ner
nera
nergie
neri
nero
neruda
nerval
nes
nesch
nesche
neschen
nescher
nessuno
nest
net
netflix
netherlands
neto
netta
network
networks
netz
netzer
netzwierk
netzwierker
neu
neuauflage
neuausgabe
neucha
neue
neuen
neuens
neuer
neues
neuf
neufcha
neufeld
neuilly
neuman
neumann
neumu
neuss
neustadt
neustrien
neutral
neutrale
neutralen
neutralite
neutronesta
neuve
neuville
neuzeit
nevada
neven
never
nevers
neveu
neville
new
newald
newcastle
newman
newport
news
newsletter
newton
next
ney
neyen
nez
nf
nfeld
nfteg
nftege
ng
ngc
nge
ngeg
ngege
ngegen
ngeger
ngegkeet
ngegkeetserkla
ngegkeetskrich
ngegt
ngel
ngela
ngelbaach
ngelzeg
ngem
ngen
ngend
ngent
nger
ngerbre
ngere
ngeren
ngerin
ngerinnen
ngert
ngerte
ngerten
ngerung
ngerzon
ngesch
ngesche
ngeschen
ngescher
ngescht
ngewald
nglech
ngleche
nglechen
nglecher
ngler
ngmol
ngnis
ngs
ngscht
ngschter
ngschtleeschtungen
ngsen
ngst
ngste
ngsten
ngstro
ngt
ngte
ngtebera
ngtegrad
ngtelaang
ngten
ngter
ngung
ngunge
ngungen
nh
nheet
nheeten
nherr
ni
nia
nibelungen
nic
nica
nicaragua
nicaud
nice
nicholas
nichols
nicholson
nicht
nichts
nick
nickels
nicky
nico
nicol
nicola
nicolae
nicolai
nicolas
nicolaus
nicole
nicoletta
nicoletti
nid
nidderaanwen
nidderdonwen
niddere
nidderfeelen
niddergelooss
nidderka
nidderkuer
nidderla
nidderlande
nidderlanden
nidderpallen
niddersachsen
nidderschlag
nidderwampech
nidderwolz
niddreg
niddrege
niddregen
niddreger
niddregst
niddregsten
nie
niederanven
niedersachsen
nieft
niehaus
niels
nielsen
niemeyer
nien
niente
nier
nies
niess
niethammer
nieto
nietzsche
nieur
nieurs
nieves
nieweba
niewebaach
niewebaache
niewefle
niewefloss
niewekrater
niewelaanscht
niewelager
niewendru
niewendrun
niewent
niewepatre
nieweroll
niewerollen
nig
nige
nigel
niger
nigeria
nigh
night
nightmare
nights
nigin
niglich
nigra
nigs
nigsberg
nigstuhl
nijni
nik
nike
niki
nikita
niklaus
niklos
nikloskapell
nikloskierch
nikloskierfecht
nikolai
nikolajewitsch
nikolaus
nikon
nil
nile
nilles
nils
nilsson
nimax
nimm
nin
nina
ninchi
nine
ning
ninja
nino
nintendo
nio
niort
niro
nisch
nite
niveau
niveauen
nivelles
niven
niwwel
niwwele
niwweleg
niwwelegen
niwwelen
nix
nixon
nj
njen
nk
nkbre
nke
nkeg
nkel
nkelausdehnung
nkelduerchmiesser
nkelen
nkelgre
nkelofstand
nkelt
nkelvitess
nken
nkeng
nkert
nkesch
nkesche
nkeschen
nks
nkse
nksen
nkser
nkt
nkwaasser
nl
nland
nld
nlech
nleche
nlechen
nlecher
nlichkeiten
nm
nn
nnche
nnchen
nndokter
nne
nnef
nnefmol
nneft
nnefte
nneften
nnefter
nneftgre
nnefthe
nneg
nnege
nnegen
nneger
nnegkeet
nnegt
nnegung
nnen
nnendre
nner
nneraarten
nnerbrach
nnerbriechung
nnerbruecht
nnercher
nnerdaach
nnerdeelt
nnerdeelung
nnerdeelunge
nnerdre
nnere
nnereck
nnereesbech
nnereie
nnereien
nneren
nnerenee
nnereneen
nnerfamill
nnerfra
nnergaangen
nnergang
nnergank
nnergrond
nnergrupp
nnerha
nnerhalen
nnerhalt
nnerholl
nnerierdesch
nnerierdesche
nnerin
nnerklass
nnerla
nnerlech
nnerleche
nnerlechen
nnerlecher
nnermanescht
nnermatch
nnermatcher
nneroffize
nnerprefecture
nnerriicht
nnersauer
nnerscheed
nnerscheede
nnerscheeden
nnerscheeder
nnerscheet
nnerschiddlech
nnerschiddleche
nnerschiddlechen
nnerschiddlecher
nnerschre
nnerschreift
nnerschreiwen
nnerschriwwe
nnerschriwwen
nnersich
nnersiche
nnersichen
nnersicht
nnerstallt
nnerste
nnersteet
nnerstra
nnert
nnerte
nnertitel
nneruerdnung
nnerung
nnerunge
nnerungen
nnerungsplack
nnerwa
nnerwee
nnerwelt
nnerworf
nnerzebre
nnesch
nnesche
nneschen
nnescher
nnescht
nneschte
nneschten
nneschter
nneschtgaass
nnlech
nnleche
nnlechen
nns
nnt
nnte
nnten
nnter
nnung
nnungsgemengen
nnungsmember
nnungsmembere
nnungsmemberen
nnungsstatuten
nnvoll
nnzweck
no
noah
noao
noba
nobel
nobelpra
nobelprize
noble
nobody
noces
noch
noche
nocide
nocturne
nodeel
nodeem
nodeems
nodre
nodrock
noe
noel
noen
noenee
noeneen
noer
noesen
nofe
nofolleg
nofollgend
nofollger
nofollgerin
nofro
nogekuckt
nogent
nogere
nogewise
nogewisen
noginn
nohalteg
nohaltegkeet
noi
noir
noire
noiret
noirs
nokomm
nokomme
nokommen
nokrichsza
nol
nolan
nolte
nom
nombre
nome
nomen
nomenclature
nomenklatur
nominallocutioun
nomination
nominations
nominatioun
nominativ
nomine
nomme
nommesch
noms
non
nonn
nonne
nonnen
noon
noost
nooste
noosten
noper
nopere
noperen
noperschaft
nopeschbre
nopeschgemeng
nopeschgemenge
nopeschgemengen
nopeschla
noppeney
nora
norbert
nord
nordafrika
nordamerika
nordatlantik
nordda
norde
norden
nordesch
nordesche
nordescher
nordeuropa
nordhallefkugel
nordhimmel
nordholland
nordic
nordirland
norditalien
nordkorea
nordmazedonien
nordmier
nordost
nordoste
nordosten
nordpol
nordrhein
nordsa
nordse
nordstad
nordstreck
nordstrooss
nordwest
nordweste
nordwesten
nordwestlech
nordwestleche
nordwestlechen
nordwestlecher
noriicht
noriichte
noriichten
norm
norma
normal
normale
normalen
normaler
normalerweis
normalschoul
normalspuer
norman
normandie
normannen
norme
normen
norris
norte
north
northern
northwest
norton
noruff
norwegen
norweger
norwegesch
norwegesche
norwegeschen
norwegescher
nos
nosbusch
nospelt
nosseck
nostra
nostri
nostro
not
notaire
notamment
note
notes
nothing
nothomb
notice
notices
notiz
notizen
notorious
notre
notte
notti
notting
notzlaascht
notzlaaschte
notzlaaschten
notzlaaschtkapazite
notzlaaschtverkleedung
noumer
nous
nouspelt
nout
noutem
noutwendeg
noutwenneg
nouveau
nouveaux
nouvel
nouvelle
nouvelles
nov
nova
novak
novel
novell
novelle
novellen
novels
november
novembre
novo
now
nowa
noweisen
nowgorod
nowhere
nowosibirsk
nowuess
noyelles
nozeweisen
nr
ns
nsbech
nsber
nsch
nschdeg
nschden
nsche
nschen
nscherechter
nschheet
nschlech
nschleche
nschlechen
nschlecher
nschlecht
nscht
nschte
nschteg
nschtege
nschtegt
nschtlech
nschtleche
nschtlechen
nschtler
nschtleresch
nschtlerin
nschtlernumm
nsdap
nsdref
nse
nsefe
nsel
nsen
nssdc
nste
nster
nstere
nsteren
nstler
nt
nten
nteng
nter
nterhier
nterlech
ntgen
ntgenbera
ntgenstralung
ntgenteleskop
ntger
nther
ntlech
ntreng
ntwert
ntwerten
nu
nubium
nue
nuecht
nues
nuets
nuetshimmel
nugent
nuit
nuits
null
nullmeridian
numa
number
nume
numeraladjektiv
numeresch
numm
nummer
nummere
nummeren
nun
nunnally
nuntius
nunzio
nur
nurenberg
nus
nv
ny
nyi
nymph
nyon
nytimes
nz
nzbe
nzbistum
nze
nzebierg
nzeg
nzel
nzelt
nzen
nzer
nzerin
nzt
nzz
o
oak
oakie
oates
ob
obama
obe
obelix
oberhausen
obermosel
oberon
oberweis
obispo
object
objects
objektiv
objektiver
objet
objete
objeten
objets
oblast
obligation
obligatioun
obligatoire
obligatoresch
obligatoresche
obscho
obschonn
observateur
observation
observations
observatioun
observatioune
observatiounen
observatoire
observatoiren
observatorio
observatory
observe
observer
observing
obsession
obwuel
occasion
occhi
occident
occitanie
occupation
occupatioun
oce
ocean
oceanus
och
ochs
ochsenknecht
oct
octave
octavie
october
octobre
od
odd
ode
oder
odessa
odette
odile
odin
odio
odonym
odore
odre
odyssee
odysseus
odyssey
oe
oeil
oeko
oeren
oesling
oeuvre
oeuvres
of
ofbau
ofdeelung
ofdreiwung
oferkannt
off
offa
offaart
offall
offenbach
offensiv
offer
office
officer
official
officiel
officier
offize
offiziell
offizielle
offiziellen
offizieller
offiziellt
offre
ofge
ofgebaut
ofgebilt
ofgebrach
ofgebrannt
ofgebremst
ofgedankt
ofgedeckt
ofgedre
ofgedroen
ofgegrenzt
ofgehale
ofgehalen
ofgeholl
ofgekierzt
ofgekillt
ofgelaf
ofgele
ofgeleent
ofgeleet
ofgeluecht
ofgerappt
ofgeruff
ofgesat
ofgeschaaft
ofgeschaf
ofgeschalt
ofgeschloss
ofgeschoss
ofgesi
ofgesinn
ofgesot
ofgespillt
ofgesple
ofgeste
ofgestigen
ofgetrennt
ofgetrueden
ofginn
ofgrenzung
ofha
ofhe
ofkaaft
ofkierzung
ofkommes
oflaf
ofleee
ofrappe
ofschafe
ofschafung
ofschle
ofschloss
ofschne
ofse
ofspillt
ofsta
ofstamung
ofstand
ofste
ofstig
ofstuerz
oft
ofwa
ofwiesselnd
ofzehalen
ofzeschle
og
ogb
ogbl
ogden
oggi
ogier
ographie
ographique
oh
ohio
ohn
ohne
oil
ois
oise
oiseau
oiseaux
ok
okeanos
okeh
okkupant
okkupatioun
oklahoma
okt
oktav
oktober
okular
okzitanesch
ol
ola
olaf
olav
olbers
olbrychski
old
olden
oldenbourg
oldenburg
oldman
oldtimer
ole
oleg
olen
olga
olin
olingen
olinger
oliveira
oliver
olivia
olivier
olizy
ollem
olm
olms
ologie
ologique
ologiques
olonne
oloron
olsen
olymp
olympesch
olympesche
olympia
olympiad
olympic
olympics
olympiens
olympionik
olympioniken
olympionikin
olympique
olympus
om
omaha
oman
omar
ombra
ombre
ombres
omega
omer
omloop
omnibus
omsk
on
onard
onbede
onbekannt
onbekannte
onbekannten
onbemannt
onbemannte
onbeste
once
oncle
ondra
one
onendlech
onerwaart
ones
ong
onge
ongefe
ongewe
ongewollt
ongla
ongle
ongresche
onide
onie
onkel
onkloer
online
only
onmass
onme
onne
onofha
onopfa
onore
onrecht
onreegelme
onrou
onrouen
ons
onscha
onsche
onse
onsiichtbar
ont
ontario
onteniente
onvera
onvere
oochen
oochener
ooops
oort
oostende
op
opa
opbau
opbauen
opdaucht
opdeelung
opdriff
ope
opec
open
openthalt
oper
opera
operation
operatioun
operatioune
operatiounen
operazione
opere
operen
operenhaus
operesa
operett
operette
operetten
operste
opfa
opfaassung
opfe
opfer
opfonnt
opgaangen
opgebaut
opgedaucht
opgedeelt
opgeet
opgefall
opgefe
opgefouert
opgefuerdert
opgegraff
opgehaangen
opgehale
opgehalen
opgeholl
opgehuewe
opgehuewen
opgekla
opgele
opgeluecht
opgemaach
opgepasst
opgeriicht
opgeruff
opgesat
opgeschloen
opgesple
opgestallt
opgestigen
opgetratt
opgetruede
opgetrueden
opgewuess
opgezeechent
opgezielt
opgi
opginn
opgoung
opgrond
opha
ophalen
ophe
ophile
ophiuchi
ophiuchus
ophu
ophuele
ophuelen
opinion
opkaaft
opkaf
opkla
opkomm
opkomme
opl
oplag
ople
oplo
oploen
opmaachen
opmierksam
opmierksamkeet
opnam
opname
opnamen
opold
oppassen
oppe
oppen
oppene
oppenen
oppener
oppenheimer
opportunity
oppositioun
oprecht
opreegung
opriichte
opriichten
opruff
opschlag
opschre
opschwong
opschwonk
opsiicht
opsta
opstand
opstelle
opstellung
opstig
optesch
optesche
opteschen
optescher
optescht
optical
optics
optik
optiker
optimal
optime
optioun
optrag
optre
optriede
optrieden
opus
opwa
opwand
opweisen
opweises
opweist
opwiki
opzebauen
opzehalen
opzehuelen
opzele
opzemaachen
opzeriichten
opzestellen
opzetrieden
or
ora
oradour
orage
orakel
oral
orange
orangerie
oranien
oranje
oratorium
orban
orbis
orbit
orbital
orbiter
orbiting
orchester
orchestra
orchestre
orchide
orchideee
order
ordinaire
ordone
ordonnance
ordre
ordres
ore
oregon
orenburg
oreste
orf
orfei
org
organ
organe
organer
organesch
organesche
organisateur
organisation
organisatioun
organisatioune
organisatiounen
organise
organismen
organismus
organist
organization
orgel
orgue
orgues
orie
orient
orientale
orientales
oriente
origer
origin
originaires
original
originale
originaltext
originaltitel
origine
origines
originn
originne
originnen
origins
orion
orionis
orionniwwel
orjol
orlando
orle
orleans
ormond
orne
ornella
ornitholog
oro
orphe
orsay
orsini
orson
ort
orthodox
orthodoxe
orthodoxer
orthographe
orthographie
ortiz
orval
os
osaka
osbourne
oscar
oscars
oscarszeremonie
osch
osiris
oskar
oslo
osmanesche
osmanescht
osnabru
oso
osper
oss
osservatorio
ost
ostafrika
ostasien
ostblock
ostda
oste
osten
ostende
oster
osteuropa
ostku
ostpreisen
ostsa
ostse
osvaldo
oswald
ot
otard
oth
other
othon
otien
ott
ottavia
ottawa
otto
ottokar
ou
oublie
ouen
ouer
ouere
oueren
ouest
ougre
oui
ouljen
ouni
our
ourdall
ouren
ours
ourthe
oury
ouschteren
out
outer
outlaw
outre
ouvert
ouverte
ouverture
ouvrage
ouvrages
ouvrie
ov
oval
over
overlord
overrightarrow
overview
owen
owend
owens
owes
own
oxford
oye
oz
ozean
ozeane
ozeanien
ozon
p
pa
paart
paarten
pabeier
pablo
pabst
pac
pace
pacific
pacino
paco
pad
paddy
paderborn
padovani
padre
padua
pafemillen
pafendall
pafendaller
paganini
pagano
page
pages
paget
pagliero
pagnol
pagny
pai
paie
pailhas
pain
painting
paintings
pair
paix
pak
pakistan
pakistanesche
pakt
pakula
pal
palace
palach
palais
palaiseau
palance
palast
palau
palazzo
pale
palermo
palestina
palgen
palisa
pallas
palm
palma
palmare
palme
palmen
palmer
palomar
paltrow
palud
palus
paluzzi
palzem
pam
pamela
pamir
pampanini
pan
panama
paname
panaro
panda
pandemie
pandora
pane
panic
panik
panne
panneau
panneauen
panorama
panthe
pantheon
panther
pantin
panzer
panzerdivisioun
paola
paolella
paolo
papa
papagei
papas
paper
paperjam
papers
papier
papillon
papp
paprika
papst
papua
papy
paquet
par
para
parabolantenn
parada
parade
paradies
paradis
paradise
paradiso
paraguay
parai
parallax
parallel
parameter
paranal
parc
parcage
parcours
pardaillan
pardon
pare
paren
parent
parenti
parents
parfum
paribas
parigi
parillaud
paris
pariser
parisienne
parisy
park
parke
parken
parker
parkierch
parking
parkplaz
parkplaze
parkplazen
parks
parlament
parlamentaresch
parlamentarescher
parlamenter
parlamentswale
parlamentswalen
parlement
parlementaire
parliament
parlo
parma
parmi
parnassus
parodie
paroisse
paroisses
parola
parole
paroles
parolini
parquet
parra
parrish
parry
parsec
parsons
part
parte
partei
parteie
parteien
parteipresident
partement
parti
participanten
participation
participatioun
participatiounen
participe
particulie
particulier
partido
partie
partiel
partiell
partielle
partien
parties
partikelen
partir
partition
partner
partners
partnerschaft
partout
parts
party
parverba
parverband
parverwalter
parzela
parzell
pas
pasadena
pascal
pascale
paschte
paschtouer
paschtoueschhaus
pasetti
pasiphae
pasolini
pasquale
pasquier
pass
passage
passagen
passager
passau
passe
passen
passend
passer
passerell
passerelle
passerini
passeur
passion
passione
passioun
passiv
passt
past
pasteur
pastorale
pastoralregioun
pat
patellie
patent
patente
patenter
pater
patere
pateren
pathfinder
patient
patiente
patienten
patre
patriarch
patric
patrice
patricia
patrick
patrie
patrimoine
patriot
patriote
patrioten
patrol
patron
patronage
patronat
patroni
patronym
patsy
patte
patten
pattes
patton
patty
patzak
pau
paul
paula
paule
paulette
pauli
paulin
pauline
paulo
paulsen
paulus
pauly
paura
paus
pausanias
pauvre
pauvres
pave
pavel
pavillon
pax
paxton
pay
payne
pays
paysage
paz
pazifeschen
pazifik
pb
pc
pcn
pdf
pdg
pe
peace
peak
pearl
pearson
peau
peccato
pech
peck
peckinpah
pedagog
pedagogesch
pedall
pedersen
pedro
peebles
peenemu
peepst
peer
peffer
pegasi
pegasus
peggy
pei
peiffer
peintre
peintres
peinture
peking
pele
pelle
pellegrin
pellegrini
pelles
peloponnes
pelz
pen
pendance
pendant
pendante
pendants
pene
penelope
penguin
penicillium
penick
penn
penne
pennsylvania
penny
penrose
pensa
pense
pension
pensionat
pensione
pensioun
pensis
pente
people
pepe
pepinster
peporte
peppard
peppeng
peppino
per
perche
percy
perdrie
perdu
perdue
perdus
pereira
perez
perfect
perfekt
perfektione
performance
pergamon
perigeum
perihel
period
periode
perioden
periodesch
periodesche
periodesystem
perkins
perkussioun
perl
perle
perlman
perm
permanent
permanente
permanenter
permis
pernay
pero
perpignan
perret
perrette
perrey
perrin
perrine
perry
perschy
perse
persei
persephone
perser
perserkricher
persesch
persesche
perseschen
persescher
perseus
persien
perso
person
personal
personalunioun
personnage
personnagen
personnages
personnalite
personne
personnel
personnes
persoun
persoune
persounen
persounentransport
persounenzuch
perspectives
perspektiv
perspektiven
perth
peru
peruanesche
perugia
peruzzi
pescatore
pesch
pescht
pete
peter
peters
petersburg
petersen
peterson
petit
petite
petites
petits
petr
petra
petri
petrie
petroni
petrovic
petrus
petry
petula
peu
peugeot
peuple
peur
peut
peuvent
pevney
peyre
pez
pfa
pfaffenthal
pfalz
pfarrei
pfarrer
pfarrkirche
pfeiffer
pfer
pferd
pflanzenarten
pfleghar
pfung
pgc
ph
pha
phane
phanie
phantom
pharao
phare
phas
phase
phasen
phd
phe
phenizier
phenomeen
phenomeener
phi
phil
philadelphia
philae
philharmonie
philharmonique
philibert
philip
philipe
philipp
philippart
philippe
philippine
philippinnen
philippsgaass
philips
phillip
phillips
philolog
philologie
philosoph
philosophe
philosophen
philosophesch
philosophical
philosophie
philosophy
phine
pho
phobos
phoebe
phoenix
phone
photo
photographic
photographie
photography
photometrie
photonen
photos
photoshop
photospha
php
phtml
phyllis
phys
physesch
physical
physics
physik
physikalesch
physikalesche
physikaleschen
physiker
physiologie
physique
physiques
pi
pia
piaf
pialat
pianist
pianistin
piano
piat
piazza
piazzi
pib
pic
pica
picard
picardie
picasso
piccoli
piccolo
pichel
pick
pickering
pico
piconrue
picot
pictoris
picture
pictures
pid
pidgeon
pie
piece
pieces
pied
pieds
piel
piemont
pier
pierce
piero
pierre
pierres
pierret
pierrot
pierson
piet
pieta
pieter
pietrangeli
pietro
pigalle
pigaut
pik
pilatus
pilcher
pilger
pilgerplaz
pilier
pilieren
pilot
pilote
piloten
pilzen
pin
pina
pinal
pine
ping
pinheiro
pink
pinkas
pino
pinocchio
pinon
pinot
pinoteau
pins
pinter
pinto
pione
pioneer
piotr
piper
pippin
pique
piquet
pir
pirate
piraten
piratepartei
pirates
pirati
pire
pirenne
pirmin
piron
pis
pisa
pisces
piscine
pisier
pist
piste
pisten
pistola
pit
pital
pitaux
pitie
pitre
pitt
pittoresque
pitts
pittsburgh
piu
pius
pixel
pizza
pjotr
pk
pl
pla
place
places
placido
plack
placke
plackefirma
plackelabel
placken
plackett
plaffong
plage
plain
plaine
plains
plainte
plaisir
plakeg
plakkapp
plan
planche
plancius
planck
plancy
plane
planet
planetaresch
planetareschen
planetarium
planetary
planeten
planetenkunde
planetologie
planets
plang
plangen
plangt
planitia
planning
plans
plant
plantes
planum
planz
planze
planzen
planzenaart
plaskett
plasma
plastic
plastik
plat
plata
platan
plate
plateau
platen
platin
platon
platt
platte
plattform
platz
play
playboy
player
playerdetails
playerid
players
playhouse
playing
plays
plaz
plaza
plaze
plazen
plazeweis
ple
please
pleasence
pleasure
plein
plejaden
pleshette
plessis
pletschette
pleure
plinius
plo
plombie
plon
plot
plou
plu
pluie
plumelec
plummer
plural
pluriel
plurimedia
plus
plusieurs
plutarch
pluto
plymouth
plz
pm
pmn
po
pochath
poche
pocket
podalyde
podcast
podesta
podiensis
poe
poelvoorde
poems
poesie
poet
poetry
poggio
poids
poie
poincare
point
pointe
points
poire
poiret
poirier
poison
poisson
poissons
poitier
poitiers
poitou
poitrenaud
poivre
pokal
poker
pol
pola
polanski
polar
polarfuerscher
polaris
polarkrees
polarliichter
polarsta
pole
poleis
polen
polfer
poli
police
policy
poligny
polis
politesch
politesche
politeschen
politescher
politescht
political
politics
politik
politiker
politikerin
politikwe
politique
politiques
politische
politischen
politolog
polizia
polizist
polizisten
polka
pollack
pollock
polly
polnesch
polnesche
polneschen
polnescher
polo
pologne
polvermillen
polydor
polynormande
polyprint
polytechnique
pomme
pommern
pompadour
pompeji
pompelle
pompelspa
pompelstatioun
pompidou
pompiers
pompjeee
pond
pons
pont
ponte
ponto
pontoise
ponts
pony
pooh
pool
poopst
poor
poos
pop
pope
popesco
popmusek
popp
popsa
popula
populac
populaire
popular
popularite
population
populations
populatioun
populus
poque
por
porel
porn
port
porta
portal
portaler
portant
portante
portation
porte
portefeuille
porten
porter
portes
portman
porto
portra
portrait
portraite
portraiten
portraits
portugal
portugise
portugisen
portugisesch
portugisesche
portugiseschen
portugisescher
pose
poseidon
posen
position
positione
positioun
positioune
positiounen
positiounswe
positiv
positive
positiven
posse
possible
post
postale
postbeamten
postcode
poste
posten
postgebai
posthum
posto
pot
poteau
potential
potentiell
potsdam
potter
pottier
pouilly
poule
poulet
poupe
pour
pourquoi
poursuite
pouvoir
poveri
powell
power
powerpuff
powers
powershot
poznan
pozzetto
pp
ppche
ppchen
ppe
ppel
ppelen
ppelkrich
ppelt
ppen
ppercher
pperdang
ppleken
ppt
pr
pra
prack
prades
pradier
prado
prag
prager
pragmatesch
prairie
praktesch
praktesche
praktiken
praktize
pratchett
pratique
praum
praxis
pre
prefecture
prefekt
prefektur
prefet
preis
preise
preisen
preisesch
preisesche
preiseschen
preisescher
preiss
premetro
premie
premier
premiere
premierminister
premierministeren
premierministesch
premiers
preminger
premio
prend
prendre
prentiss
prepare
prepositioun
present
presentateure
presentatioun
presente
presents
presenz
preside
presidence
president
presidente
presidenten
presidentewalen
presidentin
presidentschaft
presidentschaftswale
presidentschaftswalen
presle
presley
press
pressburger
presse
pressecommunique
pressehe
pressekonferenz
pressemitteilung
presses
pressessioun
prestige
prestigie
preston
prete
prett
pretty
preuve
preußen
prezessioun
prezis
prezise
prezisioun
pri
price
pride
priedeger
priedegtstull
prien
priest
priester
priister
prijs
prim
prima
primaire
primavera
prime
primitiv
primo
primus
primzuel
prince
princes
princess
princesse
princeton
principal
principale
principaute
principe
print
printemps
prinz
prinzessin
prinzip
prinzipie
prinzipiell
prinzipien
prior
priorite
pris
priscilla
prise
prisma
prison
prisone
prisoner
prisong
prisongen
prisonnier
prisonniers
privat
privatbese
private
privaten
privater
privatleit
prive
prix
prize
pro
probe
proble
problem
problematik
problemer
probst
proce
procede
proceedings
procellarum
procession
prochnow
proctor
procureur
procyclingstats
production
productions
produit
produiten
produkt
produkter
produktion
produktioun
produktioune
produktiounen
produktiounsfirma
produktiounsgesellschaft
produze
produzent
produzente
produzenten
produzentin
proess
prof
professer
professeren
professesch
professeur
professeurs
profession
professionel
professionell
professionelle
professionellen
professionnel
professionnelle
professionnels
professor
professur
profi
profil
profile
profiscarrie
profit
profite
program
programm
programme
programmer
progre
progress
progressiv
progymnase
proietti
project
projekt
projektioun
projet
projete
projeten
projets
projeze
proklamatioun
proklame
prokofjew
prolog
promenade
prometheus
prominent
promise
promontorium
promotion
promotioun
promove
pronomen
prononce
propaganda
prophe
proportionell
proporz
propos
propose
proposition
propositioun
propper
proprie
proprieta
proprietaire
propriete
propulsion
propyla
prosa
prosper
prosperi
prost
prostitue
protagonist
prote
protection
protege
proteinnen
protektioun
protektorat
protest
protestante
protestanten
protestantesch
protestantesche
protestantismus
proteste
protester
protocol
protokoll
proton
protonen
prototyp
protour
protuberanzen
proud
prouf
proust
prouwen
prove
provelo
provence
provi
providence
province
provinces
provincial
provins
provisoresch
provisoresche
provisoreschen
provoze
proximite
prozedur
prozent
prozentsaz
prozess
prozesser
pru
prum
pryor
ps
pse
psen
pseudo
pseudonym
pseudonyme
psh
pskow
psr
psyche
psychesch
psychiater
psychiatrie
psycho
psycholog
psychologie
pt
ptolema
ptolemaios
pu
pub
publ
public
publicain
publicains
publication
publications
publicite
publics
publie
publik
publikatioun
publikatioune
publikatiounen
publikum
publikumspra
publique
publiques
published
publishers
publishing
publize
publizist
puccini
puer
puermol
puerto
puf
pufferzon
puisaye
puiseux
puits
pujol
pula
pulitzer
pullman
pulsar
pulsaren
pulsatiounsvera
pulse
pulver
punch
punesche
punk
punkt
punkte
punkten
puppelcher
puppis
pur
puration
purcell
purdom
pure
purple
puschkin
pussycat
pute
putin
putsch
putz
puy
py
pyramid
pyramide
pyre
pyrena
python
q
qatar
qu
quad
quadflieg
quadrant
quadrat
quadratkilometer
quadratmeter
quai
quaid
quaie
quaien
qualifikatioun
qualifikatioune
qualifize
qualifying
qualite
quand
quando
quantemechanik
quantite
quantum
quaoar
quarante
quart
quartet
quartett
quartier
quartiere
quartieren
quasar
quasaren
quasi
quatre
quattro
quatuor
quayle
que
queckse
queen
queens
queensland
queesch
quel
quell
quella
quelle
quellen
quelque
quelques
quentin
quercus
quercy
query
ques
quest
question
questions
queue
qui
quick
quie
quiet
quijote
quimper
quincy
quine
quinn
quintett
quintus
quipe
quirinus
quitte
quixote
quo
quoi
quotidien
r
ra
raab
rabal
rabbi
rabbiner
rabelais
raben
rabenalt
rables
rac
racconti
raccordements
race
rache
rachel
racine
racing
rack
raconte
rad
radar
radcliffe
raddatz
rade
rademakers
radford
radial
radialvitess
radiant
radiation
radical
radikal
radio
radioaktivite
radioastronomie
radioquell
radios
radiosender
radiosspeaker
radiostralung
radioteleskop
radioteleskope
radioteleskopen
radiowelle
radiowellen
radius
radot
radva
rae
raf
rafael
raffaello
raft
rag
ragazza
ragazze
ragazzi
rage
rahl
rahm
rahman
rai
raid
raiders
raiffeisen
rail
railway
raim
raimlech
raimu
raimund
rain
rainbow
raincy
rainer
rains
raire
raires
raison
raisonne
rajon
rake
rakoff
ral
raldine
raldique
rale
rales
ralf
ralli
rallye
ralph
ram
rama
ramm
rammen
rammerech
ramo
ramon
ramos
ramp
rampli
rampling
ramsay
ramsey
ran
rance
rand
randall
randolph
random
randonne
randschelt
randy
rang
range
ranger
rangers
rangwee
ranieri
rank
rankfe
ranking
rankings
rankmauer
ranksystem
ranlag
ranlagen
ranner
rant
raoul
rap
raphae
raphael
rapid
rappel
rappen
rappeneau
rapper
rapport
rapporte
raquel
rar
rard
rare
ras
rascel
raschpe
rasmussen
rasp
raspoutine
rasque
rasqui
rasquin
rass
rasse
rassimov
rassismus
rat
rate
rathaus
rathbone
raths
ratifize
ratings
ration
rations
rative
ratoff
rature
rau
raubde
rauch
raud
raul
rault
raum
raumen
raumfa
raumfaart
raumfaartagentur
raumfaartmissiounen
raumfaartprogramm
raumfahrer
raumfahrt
raumflich
raumfluch
raumfluchkierper
raumfuerer
raumgefier
raumgefierer
raumsche
raumsond
raumsonde
raumsonden
raumstatioun
raus
rausch
raux
ravel
ravelin
raven
raville
ravitaillement
raw
ray
rayet
raymond
raynaud
razzia
rbiger
rblumm
rchen
rcher
rd
rde
rden
rder
rderen
rdert
rderung
rdlech
rdleche
rdlechen
rdlecher
rdlechst
rdlechste
rdlecht
rdoba
re
rea
read
reader
reading
ready
reagan
reage
reaktioun
reaktioune
reaktiounen
real
realisateur
realisatioun
realise
realismus
realistesch
realite
reality
reau
rebasketballnationalekipp
rebecca
rebel
rebell
rebelle
rebellen
rebellioun
rebierg
rebild
rebiller
rec
recensement
receptioun
recette
recherche
recherchen
recherches
rechnen
rechnung
rechnungshaff
recht
rechte
rechteckeg
rechter
rechtlech
rechts
rechtwe
recken
reckeng
reckinger
recklinghausen
reclam
reclassement
recommande
reconnaissance
reconstruction
record
recordings
records
rection
recueil
red
redakter
redaktioun
redange
rede
reden
redford
redgrave
reding
redoute
redstone
reduit
reduktioun
reduze
ree
reebe
reebou
reecht
reechwa
reed
reederei
reedereie
reegel
reegele
reegelen
reegelme
reegelrecht
reegelt
reegelung
reel
reell
reen
reent
rees
reese
reesen
reesender
reest
reeve
reeves
ref
reference
referendum
referenz
referenzen
referenztabellen
reflections
reflekte
reflekter
reflexioun
reflexiounsniwwel
reform
reformation
reformatioun
reformator
reforme
reformen
refractaire
refractairen
refrain
refrakter
refraktioun
refuge
refuse
reg
regard
regards
rege
regen
regensburg
regent
regenwetter
reger
reggae
reggiani
regie
regierung
regierunge
regierungen
regierungsbezierk
regierungschef
regierungsmemberen
regierungspresident
regierungsrot
regierungsse
regierungsza
regime
regiment
regimm
regina
reginald
regio
region
regional
regionale
regionalen
regioun
regioune
regiounen
regisseur
regisseure
regisseuren
regisseurin
register
registre
regle
reglement
reglemente
reglementer
regnier
regruppe
regruppement
regt
regula
regule
regulus
rei
reich
reichenbach
reichling
reichskanzler
reichstag
reid
reider
reie
reiefolleg
reien
reiff
reiffenberg
reiffers
reifferscheid
reihe
reiland
reiler
reilly
reims
rein
reina
reinbek
reincke
reine
reiner
reiners
reinert
reinhard
reinhardt
reinhold
reinl
reis
reisduerf
reise
reisen
reiser
reisz
reiter
reitman
reitz
rekatalog
reke
reklamm
rekonstrue
rekonstruktioun
rekord
rekoup
rekrute
rektaszensioun
rekter
rel
relais
relatif
relations
relatioun
relatioune
relatiounen
relativ
relative
relativite
reldeng
rele
release
reler
relevant
releve
relie
relief
relieffer
religieuse
religieux
religio
religion
relioun
relioune
reliounen
reliounskricher
reliquie
reliquien
rellys
rem
remake
remarquables
remberg
rembrandt
remember
rement
remerschen
remich
remick
remis
remise
remix
remo
remorque
remy
ren
renaissance
renant
renard
renate
renato
renature
renaud
renault
renberg
rence
rences
rencontre
rencontres
rend
rendement
rendez
rendezvous
rendu
rendus
rene
renekipp
renert
reng
renge
renger
renhandballnationalekipp
renhimmel
renier
rennes
rennie
reno
renoir
renomme
renovatioun
renove
renseignement
rent
rentabel
rentre
renucci
renzdall
renzdallgemeng
renzi
renzo
reorganisatioun
repare
repe
repertoire
repertorie
repetent
replaz
replazen
report
reportage
reportagen
reporter
reports
repos
repre
representant
representante
representantenhaus
representatioun
representativ
represente
repressioun
reprint
reprinted
repris
reprise
reproduktioun
reproduze
reptiller
repu
repubblica
republic
republik
republikaner
republikanesch
republikanesche
requiem
rer
rercher
rerscha
res
resch
resche
reschen
rescher
reschna
rescht
reschter
rescue
rese
research
reseau
reserv
reserve
reserven
reservoir
resexamen
resident
residenz
resistenz
resistenzler
resistenzlerin
resistenzmuse
resnais
resolution
resolutioun
resonanz
resources
resp
respectivement
respekt
respekte
respektiv
respektive
responsabel
responsabilite
ressche
ressort
ressource
ressourcen
rest
restaurant
restaurante
restauranten
restauratioun
restaure
reste
restriction
resultat
resultate
resultater
resulte
results
resume
resurrection
resystem
resystemer
ret
retabel
rete
rethel
reto
retour
retraite
retrieved
retrograd
retrospektiv
retrouve
rett
retten
retter
rettung
rettungsde
retty
return
returns
reuland
reunioun
reuter
rev
revanche
reve
revenge
revide
review
reviews
revin
revised
revisioun
revisited
revolleyballnationalekipp
revolt
revolte
revolution
revolutiona
revolutioun
revolutiounstruppen
revolver
revue
rewand
rewenig
rex
rey
reyer
reykjavi
reynolds
rez
reza
rezensioun
rezent
rezept
rezepter
rf
rfer
rfler
rft
rfusioun
rg
rgen
rgens
rger
rgermeister
rgtr
rgy
rh
rha
rhapsody
rhea
rhein
rheinland
rhin
rho
rhodos
rhonda
rhys
rhythm
rhythmus
ri
ria
riale
rian
ribeira
ribes
ric
rica
ricain
ricaine
ricardo
riccardo
ricci
ricciacus
riccioli
rice
rich
richard
richardot
richards
richardson
riche
richebe
richelieu
riches
richmond
richteg
richtege
richtegen
richteger
richtegt
richter
richtig
richtung
richtunge
richtungen
rick
rickman
ricky
rico
ricourt
rida
ride
rideau
rider
riders
rides
ridge
riding
ridley
rie
ried
riede
rieden
riedensaarten
rieder
riedgen
riedmann
rieds
riefzort
rieger
riel
riemann
rien
rier
ries
riesling
riets
rietse
rietsen
rietser
rietspartei
rietsschoss
rieur
rieure
rieurs
rieux
rifft
rififi
riga
rigaud
rige
rigel
rigg
righelli
right
rightarrow
rights
rigord
rigueux
riicht
riichte
riichten
riichter
rik
ril
riley
rilla
rillen
rillestrukturen
rim
rima
rimae
rimbaud
rime
rin
rina
ring
ringen
ringer
ringo
rings
rinnen
rio
riode
rioja
riom
riot
rip
ripley
rippweiler
rique
rire
ris
risch
rischard
rischen
rise
riseg
risege
risegen
risen
riseslalom
risesta
risi
risiko
rising
risk
riske
rita
ritage
ritchey
ritchie
rite
ritorno
ritt
ritter
ritualer
ritz
rium
riva
rivage
rivalite
rive
river
rivera
rivers
rives
rivette
rivie
riviera
rix
riz
rjasan
rjendaller
rjp
rk
rl
rlech
rlitz
rm
rme
rmeg
rmege
rmegen
rmeger
rms
rmusek
rn
rnbacher
rnberg
rnberger
rner
rns
rnten
ro
roach
road
roald
roanne
rob
robards
robbe
robbie
robbins
robe
robert
roberto
roberts
robertson
robespierre
robin
robinson
robison
robot
roboter
robson
roby
roc
rocca
rocco
roch
roche
rochefort
rochelle
rocher
rochester
rochette
rochus
rochuskapell
rock
rockband
rocket
rockgrupp
rockhal
rocklexikon
rockmusek
rockmuseker
rocks
rocksa
rocky
rocroi
rod
rodange
roddy
rode
rodesch
rodez
rodin
rodney
rodniki
rodolphe
rodri
rodrigo
rodrigues
rodriguez
roe
roeg
roehler
roemen
roemer
roen
roer
roeser
roger
rogers
rohan
rohde
rohmann
rohmer
roi
rois
rojo
rokoko
rol
roland
roldano
role
rolf
roll
rolland
rolle
rollen
rolleng
rollengergronn
roller
rollin
rolling
rollinger
rollingergrund
rolls
rollstull
roly
rom
roma
romagna
romain
romaine
roman
romana
romance
romandie
romane
romaner
romanesch
romanesche
romaneschen
romanistik
romano
romans
romantik
romanum
romay
rome
romeo
romero
romersa
romina
rommel
romolo
romorantin
romy
ron
ronald
rond
ronde
rondere
rondre
ronet
ronique
ronn
ronne
ronnen
ronny
room
rooney
roos
roosevelt
roots
roque
roquefort
roquevert
rory
ros
rosa
rosaceae
rosalba
rosalie
rosalind
rosamunde
rosanna
rosar
rosario
rosat
rosay
rosch
roschdy
rose
rosemarie
rosemary
rosen
rosenberg
roserei
roses
rosetta
rosette
rosi
rosie
rosier
rosine
roskosmos
rosport
ross
rossa
rossana
rossano
rosse
rossellini
rossen
rossi
rossini
rosso
rosstat
rostock
rostow
rosy
rot
rotation
rotatioun
rotatiounsachs
rotatiounsdauer
rotatiounsperiod
rotatiounsrichtung
rote
roten
roter
roth
rothe
rothemund
rothermel
rothschild
rotterdam
rotunno
rou
roubaix
rouben
roude
roudelzeg
roudem
roudemer
rouden
rouder
rouderssen
roue
roueg
rouen
rouer
rouergue
rouffio
rouge
rouges
rough
rouleau
roum
roumecht
round
roundtree
rourke
rouscht
rouse
rousega
rouspert
rousseau
roussel
roussillon
roussy
rout
route
routes
routie
routledge
routverre
routwa
rouvel
rouvroy
roux
rover
rovere
row
rowland
rowlands
rowohlt
roy
royal
royale
royans
royaume
royce
royer
rozier
rper
rputsch
rquez
rr
rrez
rrwer
rs
rsbre
rschoul
rschoulen
rspigel
rsssf
rst
rste
rsten
rstenberg
rstentum
rstin
rt
rta
rte
rten
rterbuch
rth
rtha
rthersee
rtl
rtner
rts
rttemberg
rtyrer
ru
ruanda
ruben
rubens
rubin
rubinstein
rubrik
rubus
ruby
rudder
rudi
rudolf
rudolph
rudy
rue
rued
rueder
rues
ruet
ruf
ruff
ruffen
ruffy
ruft
rufus
rugby
ruggero
ruggles
ruhr
rui
ruin
ruine
ruinen
ruisseau
ruiz
rule
rules
rulles
ruma
rumelange
rumigny
rumm
run
runaway
rund
rundfahrt
rundfunk
rundschau
rundstedt
rung
runge
rungen
rungsunioun
runn
runner
running
runze
rupert
rupes
rupp
ruppert
rupprecht
ruprecht
rupt
rural
rurale
rurgie
rus
rush
russ
russe
russel
russell
russen
russesch
russesche
russeschen
russescher
russescht
russia
russian
russland
russo
rust
rusty
rutger
ruth
rutherford
rwaffentester
rwe
ry
ryan
rydell
ryder
rz
rzburg
rzte
s
sa
saach
saache
saachen
saad
saar
saarbre
saarbru
saarburg
saarla
saarland
saarlouis
saassel
sabato
sabbath
sabbatini
sabina
sabine
sable
sables
sabrina
sac
sacha
sachbuch
sache
sachs
sachsen
sacramento
sacre
sacred
sad
saddam
saddle
sade
safari
safe
sag
saga
sagan
sage
sagen
sagittarii
sagittarius
sagnier
sagres
sahara
sahl
sai
said
saier
sail
saile
sailen
sailer
sailly
sailor
saint
sainte
saintes
saints
saire
sais
saison
saisonen
saisons
sait
sak
sakgaass
sakristei
sal
sala
salaire
salamanca
salamis
salarie
salazar
salce
sale
salem
salentiny
salerno
sales
salinger
salins
saljut
salkow
sall
salle
salles
sally
salm
salome
salomon
salon
salou
salt
salto
salut
salvador
salvatore
salvatori
salz
salzburg
salzburger
salzer
sam
samantha
samara
samba
sambia
sambre
same
samedi
sami
sammelbegre
sammele
sammelen
sammelt
sammler
sammlung
sammlungen
sammy
samoa
samos
samperi
samsa
samschdeg
samschden
samschdes
samson
samu
samuel
samurai
samy
samyn
san
sanatorium
sancho
sancti
sand
sanda
sander
sanders
sandra
sandre
sandrelli
sandrich
sandrine
sandro
sandrock
sands
sandstee
sandsteen
sandweiler
sandy
sane
sanem
sang
sangen
sanger
sangue
sanita
sankt
sanktioun
sanremo
sans
sanskrit
sanson
sant
santa
santana
sante
santer
santiago
santis
santo
santos
sao
sapeurs
sar
sara
sarafian
saragossa
sarah
sarajevo
sarandon
saratow
sarcelles
sardinien
sardou
sargent
sarja
sarrazin
sarre
sarrebourg
sarreguemines
sars
sart
sartana
sarthe
sartre
sascha
saslavsky
sassard
sat
satan
satellit
satellite
satellites
satellitte
satellitten
satire
satiresch
sats
saturday
saturn
saturnin
saturnmound
saturnmounden
saturnre
sauber
saud
saudiarabien
sauer
sauerbre
sauerdall
sauerstoff
sauerstreck
saul
saulx
saumur
saunders
saunier
saura
sautet
sauvage
sauvages
sauve
sauvetage
sauveur
savage
saval
savalas
savary
save
savenay
savigny
saville
savimbi
savoie
savoir
savona
savoy
sawyer
sax
saxo
saxon
saxophon
saxophonist
say
saz
sb
sbc
sbd
sbech
sc
scacchi
scala
scale
scandal
scandale
scapa
scarlet
scarlett
sce
sceaux
scene
sch
scha
schaack
schaaf
schaaft
schaarf
schabloun
schach
schachere
schachgroussmeeschter
schachnotatioun
schachspill
schachspiller
schachspillerin
schacko
schaefer
schaeffer
schaerbeek
schaf
schafe
schafen
schaffe
schaffen
schaffner
schafft
schafung
schah
schall
schaltjoer
schamoni
schanen
schank
schanke
schanken
schantje
schantjen
schanz
schartz
schatten
schatz
schaul
schauls
schaus
schauspieler
schauspielhaus
schauspill
schauspiller
schauspillercarrie
schauspillerei
schauspillerin
schauspillerinnen
schaz
schbech
schbuer
schdref
sche
scheblumm
schebuch
scheedgen
scheedhaff
scheedung
scheef
scheel
scheer
scheffer
scheid
scheider
scheier
scheierhaff
scheif
scheiner
scheitler
schekrichsza
schelde
scheldeprijs
schell
schema
schen
schengen
schengener
schenk
schenken
schent
schenza
schepisi
scher
scherei
scherer
scherff
schetzel
scheuer
schfra
schi
schiaffino
schiaparelli
schibbreger
schicht
schichte
schichten
schicksal
schidsriichter
schiechtl
schied
schiele
schieren
schierm
schiet
schif
schifer
schiff
schifflange
schildkro
schileefer
schiller
schilling
schiltz
schindler
schinn
schinne
schinnen
schintgen
schirmer
schirra
schkierfecht
schla
schlaang
schlacht
schlag
schlager
schlagersa
schlagtoun
schlass
schlassha
schle
schlecht
schlechte
schlechtem
schlechten
schlechter
schleck
schleef
schleefe
schlegel
schleich
schleif
schleis
schleise
schleisen
schlesien
schlesinger
schlesser
schleswig
schley
schliemann
schliisslech
schlim
schlo
schloen
schlofen
schloss
schloß
schlu
schlucht
schluecht
schluechte
schluechten
schluechtfeld
schluechthaus
schluechtsche
schluss
schlusse
schlussendlech
schmaart
schmadd
schmadel
schme
schmelz
schmelze
schmelzen
schmelzha
schmid
schmidt
schmit
schmitt
schmitz
schmuel
schmuele
schmuelen
schne
schnee
schneiden
schneider
schnell
schniewel
scho
schock
schockela
schockmel
schoenberg
schoendoerffer
schoenhals
schoepges
schoetter
schof
schold
scholden
scholer
scholl
scholtes
scholtus
scholz
schon
schong
schonn
schons
school
schools
schoos
schopenhauer
schortgen
schoss
schott
schottesch
schottesche
schotteschen
schottland
schoul
schoulbicher
schouldirekter
schoule
schoulen
schoulgesetz
schouljoer
schoulmeeschter
schoulza
schouster
schra
schraasseg
schrader
schramm
schre
schreiben
schreiber
schreift
schreifweis
schreiner
schreiwe
schreiwen
schrift
schriften
schriftsteller
schro
schrobilgen
schrobiltgen
schroeder
schroell
schroeter
schrondweiler
schroth
scht
schtdag
schte
schtebam
schteg
schten
schtennis
schtentum
schtepunkt
schter
schtlech
schtleche
schtlechen
schtlecher
schtnech
schtung
schu
schub
schubert
schueberfouer
schued
schuel
schuh
schule
schuljahres
schuller
schultheis
schultz
schultze
schulz
schulze
schumacher
schuman
schumann
schummer
schummerecht
schung
schuster
schutz
schverwaltung
schwa
schwaach
schwaache
schwaacher
schwaarz
schwaarze
schwaarzem
schwaarzen
schwaarzer
schwaarzt
schwabe
schwammen
schwan
schwanger
schwangerschaft
schwankt
schwanz
schwartz
schwarz
schwarze
schwarzen
schwarzenegger
schwarzer
schwarzkopf
schwarzschild
schwarzwald
schwassmann
schwe
schwede
schweden
schweech
schweedesch
schweedesche
schweedeschen
schweedescher
schweigen
schweiger
schweikart
schweisthal
schweitzer
schweiz
schweizer
schwemm
schwester
schwestern
schwiefel
schwiereg
schwieregkeete
schwieregkeeten
schwiers
schwoer
schygulla
sci
science
sciences
scientific
scientifique
scientifiques
scientist
scilla
scj
scob
scofield
scola
scolaire
score
scorpii
scorpius
scorsese
scotland
scott
scout
scouten
scream
screen
sculpte
sculpteur
sculptor
sculptrice
sculpture
sculptures
scuto
sd
sdo
sdss
se
sea
seabourn
sean
search
sears
seas
season
seasonid
seasontype
seaton
seattle
seau
seaux
sebaldt
sebastia
sebastian
seberg
sebes
sec
secchi
sech
sechs
sechsmol
sechst
sechste
sechsten
second
secondaire
secondaireschoulen
secondairesschoul
secondairesstudien
seconde
seconds
secours
secre
secret
secrets
sect
secteur
secteuren
section
security
sed
sedan
sedimenter
sedna
seds
see
seechen
seed
seee
seegelen
seegelsche
seeing
seel
seelbunn
seele
seelen
seeler
seen
seet
segal
seghers
segno
segreto
sehnsucht
sehr
sei
seideschwanz
seigner
seigneur
seigneurerie
seigneurie
seil
seiler
seille
seimetz
sein
seine
seinem
seinen
seiner
seines
seit
seite
seiten
seiter
seitz
sejm
sek
sekonn
sekonne
sekonnen
sekreta
sekretariat
sekt
sektioun
sektioune
sektiounen
sektor
sekunda
sel
selander
selbst
selbsta
selbstgol
selbststa
selbstverlag
selected
selection
selektioun
selena
selenographesch
selenographesche
self
sellers
selon
selpin
seltsame
selwecht
selwechte
selwechten
selwechter
selwer
sem
semaine
semester
semi
semina
seminaire
seminar
semois
sempre
sen
senat
senateur
senator
sence
senden
sender
sendung
sendungen
senegal
seng
senge
sengem
sengen
senger
sengersa
sengerza
senior
senioren
senkel
senlis
senne
senneng
sennengerbierg
sens
sense
senses
sensibilise
sensor
sensore
sensoren
sent
senta
sentation
sente
sentier
sentimental
sentimentale
sentiments
senza
seo
seoul
sep
separat
separate
sepp
sept
september
septembre
septfontaines
septie
sequenz
sequi
ser
sera
serafini
seraing
serato
serben
serbesch
serbesche
serbien
serena
serenade
serenitatis
serge
sergeant
sergei
sergej
sergejewitsch
sergent
sergi
sergio
serie
seriema
serien
series
serio
sernas
seront
serpent
serra
serrault
serre
serreau
serres
sert
servais
servant
serve
server
service
servicer
services
ses
sessellift
sesselmann
session
sessions
sessioun
set
seth
seti
sette
setze
setzen
setzt
seuil
seul
seule
seven
seventh
sevilla
sewastopol
sewell
sex
sexe
sexo
sexualite
sexuell
sexuelle
sexy
seyfert
seymour
seyrig
sf
sfida
sg
sh
shade
shadow
shadows
shake
shakespeare
shane
shanghai
shannon
shape
shapley
sharif
shark
sharon
sharp
sharpless
shatterhand
shavelson
shaw
she
shea
shearer
sheen
sheila
sheldon
shell
shelley
shenzhou
shepard
shepherd
sher
sheridan
sheriff
sherlock
sherman
sherwood
shields
ship
ships
shire
shirley
shiva
sho
shoah
shock
shoemaker
shoes
shoot
shooting
shop
shopping
short
shot
should
show
shows
shtml
shu
shuttle
si
sia
siamo
sibelius
sibirien
sibiu
sic
sica
sicec
sich
siche
sichen
sichenhaff
sicht
sicona
sid
side
sidec
siden
sidence
sident
sidenten
sidero
siderurgie
sidest
siding
sidney
sidor
sie
sieben
siebenbu
siechze
siedler
sief
sieg
siege
siegel
siegen
siegfried
sieghardt
siemens
siena
sierck
sierra
sieschter
sietzen
sieur
sigel
sigi
sigismund
sigma
sigmaringen
sigmund
sign
signal
signaler
signalisation
signaux
signe
signora
signore
signoret
signy
sigourney
sigrid
siicht
siichtbar
siichtbare
siichtfeld
siidler
siidlung
siidlungen
sikorsky
silence
silent
silenzio
silikatgestengs
silla
silva
silvana
silver
silvester
silvia
silvio
sim
sima
simbabwe
simbad
simenon
simmer
simmons
simo
simon
simoncini
simone
simonelli
simonis
simons
simple
simpson
simule
sin
sinai
sinatra
sinbad
since
sinclair
sind
sinden
sinfonie
sing
singapur
singe
singen
singer
single
singlen
singles
sings
singulier
sinjen
sinn
sinner
sint
sinus
sio
siodmak
sion
sip
sir
sire
sireen
siren
sirius
sirk
siro
sis
sische
sischen
sissi
sissy
sistance
sister
sisters
sit
sitcom
site
siteducyclisme
sites
sitten
sitting
situation
situatioun
situatiounen
situe
sitzung
sive
siwe
siwebueren
siwemol
siwen
siwent
siwente
siwwenze
six
size
sizilien
sj
sjo
sk
ska
skala
skandal
skandinavien
skarsga
skelett
skelton
sketch
ski
skies
skin
skizze
skizzen
sklaven
sklaverei
skolimowski
skorpioun
skull
skulptur
skulpture
skulpturen
sky
skylab
sl
slalom
slam
slater
slawesch
sleep
sleeping
slezak
slim
slogan
slow
slowakei
slowakesch
slowakesche
sloweenesch
sloweenesche
slowenien
sluis
sm
small
smart
smet
smight
smile
smiley
smith
smithsonian
smolensk
sms
smyrner
smyth
sn
snake
sncb
sncf
snl
snow
snyder
so
soar
soares
sobieski
soboul
soc
social
sociale
sociales
socialiste
socialistes
socie
societa
societe
society
socio
sockel
soderbergh
soe
soen
soeur
soeurs
sofia
soft
software
sogeco
sohn
soho
soi
soir
soire
soissons
soit
sojus
soko
sol
sola
solange
solar
solarzellen
sold
soldat
soldaten
soldati
soldier
soldiers
sole
soledad
soleil
soler
solfe
soli
solidarite
solidarnos
solidor
solist
solisten
solitaire
soll
solle
sollen
soller
sollima
sollt
sollte
sollten
solo
soloalbum
sologne
solomon
solution
solutions
solvay
solveig
som
somalia
some
somebody
somerset
something
somewhere
somme
sommer
sommerfeld
sommes
sommet
son
sonate
sond
sonde
sonden
sonderdruck
sonderlager
sondern
song
songs
songwriter
sonia
sonic
sonja
sonn
sonndeg
sonnden
sonndes
sonndesblad
sonne
sonneberg
sonneflecke
sonneflecken
sonnekorona
sonneliicht
sonnemass
sonnemasse
sonnemassen
sonnen
sonnena
sonnenaktivite
sonnenastralung
sonnenda
sonnene
sonnenobservatioun
sonnenuewerfla
sonnenza
sonnescheif
sonnestralung
sonnesystem
sonnewand
sonntag
sonny
sono
sons
sont
sony
sophia
sophie
sopran
sopranistin
sor
soral
sorbonne
sorcie
sordi
sordre
sorel
sorge
soria
sorrente
sort
sortie
sorvino
sos
soss
sosthe
sot
sothern
soto
sotto
sou
soubal
soudatt
souffle
sougenannt
sougenannte
sougenannten
sougenannter
souguer
soul
soulaang
souls
soumagne
soumat
sound
soundcloud
soundtrack
soupe
soupert
souplex
source
sources
sourire
souris
sourza
sous
sousa
soutendijk
south
southern
soutien
souvenir
souvenirs
souvent
souvera
souvill
souwa
souwe
souwisou
souwuel
souz
souzen
souzesoen
soviet
sowa
sowie
sowjetesch
sowjetesche
sowjeteschen
sowjetescher
sowjetrepublik
sowjetunioun
soyuz
soziaalt
sozial
sozialdemokraten
sozialdemokratesch
sozialdemokratescher
soziale
sozialen
sozialer
sozialgeschicht
sozialismus
sozialisten
sozialistesch
sozialistesche
sozialistescher
sozialverse
sozialwe
sozio
soziolog
soziologie
sp
spa
spaak
spaass
space
spacecraft
spacek
spacex
spacey
spada
spader
spadse
spaghetti
spahis
spain
spang
spaniel
spanier
spanish
spann
spannen
spannende
spannung
spannungen
spanwa
spara
sparta
spartacus
spartaner
spartz
spatial
spatz
spautz
spaweck
spd
spe
speaker
speakerin
special
species
speck
spectateur
spectateure
spectateuren
spectrometer
spedener
speed
speer
speicher
speidel
spektakel
spektakula
spektiv
spektralbera
spektralklass
spektralklassen
spektrallinne
spektraltyp
spektre
spektren
spektrograph
spektrometer
spektroskopesch
spektroskopie
spektrum
spekule
spellchecker
spencer
spermophilus
spessart
speyer
spezialise
spezialist
spezialite
spezialpra
speziell
spezielle
speziellen
spezieller
speziellt
spezifesch
spezifesche
spezifeschen
spha
sphinx
spideeler
spider
spidol
spiegel
spiel
spielberg
spiele
spieler
spielmann
spielt
spigel
spigelduerchmiesser
spigele
spigelen
spigelt
spigelteleskop
spike
spill
spille
spillen
spiller
spillercarrie
spillerin
spillfilm
spillfilmer
spillgezei
spillklass
spillplaz
spillschoul
spillt
spin
spionage
spionagefilm
spione
spioun
spira
spiral
spirala
spiralgalaxien
spiralgalaxis
spirit
spirou
spitzbergen
spitzer
sple
split
spo
spontan
spoo
spoorgroep
spora
sport
sportaart
sportif
sporting
sportive
sportives
sportlech
sportler
sportlerin
sports
sportscarrie
sportshal
sportsprofesser
spot
spottiswoode
sprach
sprache
sprangbuer
sprangbur
sprangen
sprangpressessioun
spre
spricht
spriecher
sprimont
spring
springer
springprozession
springs
springsteen
sprint
sprinter
sproch
sprong
sprooch
sprooche
sproochen
sproochewe
sproochgebrauch
sproochlech
sproochraum
sproochwe
sprunck
spuenesch
spuenesche
spueneschen
spuenescher
spuenie
spuenien
spuenier
spuer
spuere
spueren
spuerkeess
spur
spuren
sputnik
spy
sqrt
squad
squadra
squadron
square
squitieri
sr
srel
sri
ss
ssbrauch
ssche
sse
sseg
ssege
ssegem
ssegen
sseger
ssegja
ssegkeet
ssegkeeten
ssegt
ssel
sselche
sseldorf
ssele
sselen
sselt
ssen
ssenschaft
ssenschafte
ssenschaften
ssenschaftlech
ssenschaftleche
ssenschaftlechen
ssenschaftlecher
ssenschaftler
ssenschaftlerin
sser
ssert
ssesch
ssescher
ssi
ssr
sst
ssversta
st
sta
staal
staamt
staark
staarke
staarkem
staarken
staarker
staarkt
staat
staate
staaten
staatlech
staatleche
staatlechen
staatlecher
staatliche
staats
staatsanwalt
staatsarchitekt
staatsbe
staatsbeamten
staatsbierger
staatsbiergerschaft
staatsbudget
staatschef
staatsgebitt
staatslaboratoire
staatsmann
staatsministe
staatsminister
staatsmuse
staatsoper
staatspresident
staatspresidentin
staatsrot
staatssekreta
staatsstreech
stabil
stabilise
stabilite
stabilsten
stack
stackem
stacy
stad
stadbezierker
stadbriedemes
staddeel
staddeeler
stade
stadgebitt
stadgronn
stadhaus
stadion
stadium
stadka
stadkrees
stadmauer
stadpark
stadrecht
stadrechter
stadt
stadtbredimus
stadzentrum
staf
stafelter
staff
staffel
stafford
stage
stagiaire
stahl
stalin
stalingrad
stall
stallone
stame
stamen
stamm
stammer
stamp
stan
stand
standard
standardise
standardmodell
stander
standplaz
standpunkt
standuert
stanford
stanislas
stanley
stanton
stanwyck
star
stardust
stare
stark
starke
starr
stars
start
starte
starten
startgewiicht
startmass
startplaz
startramp
startschub
stat
state
statec
stater
states
station
stationa
statione
stationnement
statioun
statioune
statiounen
statistesch
statistics
statistik
statistiken
statistique
statistiques
stato
statt
stattfonnt
statu
statue
statuen
status
statut
statute
statuten
statuts
staud
staudamm
staudt
staudte
staumauer
stause
staustuf
stavelot
stawropol
stay
ste
steckel
stee
steebre
steebroch
steedman
steee
steekaul
steekaulen
steel
steele
steemetzer
steen
steenburgen
steenem
steenza
steesel
steet
stefan
stefania
stefanie
stefano
steffen
stehres
steht
steichen
steier
steiere
steieren
steiermark
steierung
steierverwaltung
steierween
steiff
steiger
steil
stein
steinbeck
steinberg
steine
steiner
steinfort
steinhoff
steininger
steinmeier
steinmetz
steinmetzer
steinsel
steiwer
stella
stellan
stellar
stelle
stellen
stelli
stellt
stellung
stellvertrieder
stellwierk
stelvio
stemmle
stempel
sten
steng
stenge
stengefort
stengeforter
stengel
steno
step
stepanowitsch
stephan
stephane
stephen
stephens
stephenson
steps
ster
sterben
stere
steren
stereo
sterling
stern
sternberg
sterne
sternen
sternwarte
sterreich
sterreichische
steve
steven
stevens
stevenson
stevie
stewart
sti
stied
stierflech
stierft
stierm
stiermer
stierwe
stierwen
stierzen
stiftung
stil
stiler
stilise
still
stille
stiller
stimme
stimmen
sting
stinn
stirbt
stirling
stlech
stleche
stlechen
stlecher
stner
sto
stock
stocke
stockfeld
stockholm
stockwell
stoe
stoen
stoff
stoffel
stoffer
stoft
stol
stole
stolen
stolindustrie
stoll
stolpersteine
stoltz
stolz
stolzebuerg
stolzemburg
stommfilm
stommfilmer
stomp
stone
stones
stonn
stonne
stonnen
stooges
stop
stopp
stoppa
stoppen
store
storia
stories
storm
story
stot
stoung
stounge
stoungen
stouss
stoussen
stra
straalt
strada
straight
strainchamps
stral
strale
stralegank
stralen
stralung
stralungsceinture
strand
strange
stranger
strangers
strasberg
strasbourg
strassen
strasser
strate
strateegesch
strategesche
strategie
stratospha
strauss
strauß
straße
straßennamen
stre
streck
strecke
strecken
streckt
streech
streep
street
streets
streeung
streidereien
streik
streikmonument
streisand
streng
strenge
strike
strikes
strikt
strip
stro
strode
strof
strofen
strogoff
stroheim
strom
strong
strooss
stroossbuerg
stroossbuerger
stroosse
stroossebre
stroossen
stroossennetz
stroossennimm
stroossesa
stroossesche
stroosseverke
stroum
structurae
structure
structures
struktur
strukture
strukturen
struve
sts
stu
stuart
stude
student
studente
studenten
students
studer
studie
studien
studies
studio
studios
studiosalbum
studium
study
stuerm
stuerz
stuf
stufe
stufen
stuff
stull
stumper
stunde
stunden
stung
sturges
sturm
stuttgart
style
styx
su
sua
sub
submillimeter
subor
subside
substantiv
substanz
substanzen
succe
success
successeur
successioun
suche
suchnr
sucht
sud
sudan
sue
suen
suerge
suergen
suergt
suessem
suessemer
suez
suezkanal
suffix
suhrkamp
suicide
suis
suisse
suit
suite
suites
suivez
suivi
suivre
suizid
sujet
sujete
sujeten
sukowa
sul
sulla
sullavan
sullivan
sully
sulpice
sultan
sultats
sum
sumatra
summary
summer
summers
summerspiller
summervakanz
summerza
sun
sundance
sunday
sung
sunnen
sunrise
sunset
sunshine
supe
super
supera
supercup
superheld
superhelden
superjhemp
superjhempfiguren
superkoup
superman
supermarche
supernova
supernovae
supernovaen
superstar
supp
supple
supplement
support
supporter
suppression
supprime
sur
sure
surface
surinam
surprise
surrey
sursis
surveillance
survey
surveyor
sus
susa
susan
susanna
susannah
susanne
susi
suspende
suspicion
sussex
sutherland
sutton
suzanne
suzy
sv
sven
swan
swann
swanson
sweet
sweetheart
swerdlowsk
swetlana
swift
swimming
swing
swiss
sword
swr
sxd
sxe
sy
sybil
sybille
sydne
sydney
sydow
sylva
sylvain
sylvester
sylvia
sylvie
symbol
symbole
symboler
symbolesch
symbolik
symbolise
symmetrie
sympathie
symphonie
symphonique
symphony
symphorien
symposium
symptomer
syms
syn
synagog
synchron
synchronise
synchronspriecher
synchronspriecherin
syndicat
syndikat
syndikater
syndrom
synod
synonym
synonymmer
syr
syrakus
syrdall
syrien
syste
system
systematesch
systematik
systemer
systems
syvicol
sz
szabo
szlo
szwarc
sœur
sœurs
t
ta
tab
tabell
tabellen
tabernakel
table
tableau
tableaue
tableauen
tables
tablesl
tablier
tablissement
tablissements
tabu
tacchella
tadeusz
tafelen
tag
tage
tageblatt
tagebuch
tages
tahiti
tai
taient
tail
taille
tain
taina
taire
tais
tait
taiwan
tak
take
takes
taking
takt
tal
talbot
tale
talent
talente
tales
talia
talk
talking
tall
tallandier
talleyrand
tallinn
talspa
tam
tamara
tamblyn
tambour
tambow
tamiroff
tamorphose
tan
tancre
tandel
tang
tange
tango
tania
tanja
tank
tanks
tanksen
tankstelle
tanner
tansania
tanson
tant
tante
tanya
tanz
tape
tapes
tappert
tara
tarantini
tarantino
taranto
tarantula
taraxacum
tarbes
tard
target
tarn
tarride
tartari
tartu
tary
tarzan
taschen
taschenbuch
tashlin
tasmanien
taste
tat
tataresch
tatarstan
tate
tati
tation
tatjana
tatort
tats
tatsa
tatsaach
tatta
tattoo
tatum
tau
tauber
taunus
tauri
taurog
taurus
tausend
tautou
taux
tavernier
taviani
tax
taxe
taxi
taxon
tay
taylor
tb
tc
tche
tchernia
tcp
te
team
teamdetails
teamid
teams
tears
teatro
teau
teauneuf
teauroux
teaux
teborg
technesch
technesche
techneschen
technescher
technical
technik
technike
techniken
techniker
technique
techniques
technische
technologie
technologien
technologies
technology
tective
ted
teddy
teddybier
tedeschi
tedesco
teen
teenage
teenager
teg
tegt
teheran
teide
teil
tel
telbierg
tele
telefon
telegraph
telekommunikatioun
teles
telescope
teleskop
teleskope
teleskopen
telet
television
televisioun
televisiouns
televisiounsfilm
televisiounsfilmer
televisiounssender
televisiounsserie
televisiounsserien
televoting
tell
teller
tellerault
telly
telstar
tempe
tempel
tempelen
temperatur
temperature
temperaturen
tempere
tempesta
tempi
temple
tempo
tempora
temps
ten
tende
tendenz
tendenzen
tender
tendre
tendresse
tendue
teneriffa
tennessee
tennis
tennisspiller
tennisspillerin
tenor
ter
terence
teresa
teri
term
terme
terminal
terminator
terminus
ternes
terni
terra
terrain
terraine
terrainen
terrass
terrasse
terrassen
terre
terrence
terres
terrestresch
terrestrial
terreur
terrible
terrier
territoire
territoiren
territorial
territory
terror
terrore
terrorismus
terroristen
terry
tertia
terzan
terzieff
tes
tesch
tesoro
tess
tessari
tessier
tessin
tessy
test
testa
testament
teste
testen
tester
testfluch
testi
testud
tethys
teufel
teufels
tex
texas
text
texte
texter
textes
textilindustrie
tez
tf
tgv
th
tha
thai
thailand
thalbach
thales
thalys
thamar
than
thank
thann
that
thatcher
the
theater
theaterauteur
theateren
theaterplaz
theaterregisseur
theaterschauspiller
theaterschauspillerin
theaterschre
theaterste
theatre
theben
theema
theeme
theemen
thees
theesen
theguardian
thein
their
theis
theisen
theissen
thellmann
thelma
them
thema
thematise
theme
themen
themis
themistokles
themse
then
theo
theobald
theodor
theodorakis
theodore
theolog
theologesch
theologie
theoreetesch
theoreetesche
theoreetescher
theorie
theorien
theory
theplantlist
therapie
there
theresa
therese
theresia
thermal
thermalbad
thermen
thermes
thermesch
thermidor
theron
these
thessaloniki
theta
theux
theves
thewes
they
thibault
thie
thief
thiel
thiele
thierry
thiers
thieves
thil
thilges
thill
thilmany
thiltges
thimig
thin
thing
things
think
thinnes
thionville
third
thirty
thiry
this
tholl
thoma
thomalla
thomas
thome
thommes
thompson
thomson
thonon
thonyi
thor
thorn
thornton
thorpe
thorsten
those
thoss
thousand
thrakien
three
thriller
through
thu
thukydides
thulin
thull
thun
thunder
thune
thurm
thurman
thyes
ti
tiangong
tibet
tice
ticket
tid
tie
tien
tienne
tiens
tier
tiere
tierkei
tierken
tierkesch
tierkesche
tierkeschen
tierkescher
tierm
tiermchen
tierney
tierra
tiers
tiffany
tiffin
tiger
tigne
tigre
til
tilda
tilia
till
tiller
tilleschgaass
tillon
tilly
tilo
tim
tima
timber
timbere
timberen
time
timent
timents
times
timo
timor
timothy
tin
tina
tinant
tino
tinti
tintin
tinto
tip
tippi
tique
tir
tire
tirol
tiroul
tirreno
tissen
tissier
tissot
tit
titan
titane
titanen
titanic
titel
titele
titelen
titelsa
titeuf
titius
title
tito
titre
titulaire
titus
tm
tma
tns
tnt
to
tobacco
tobago
tobias
toby
tochter
tockert
tocqueville
tod
today
todd
tode
todes
toelle
toffoli
together
tognazzi
togo
toi
toile
toiles
toilette
toison
tokio
tokyo
tol
told
toledo
toleranz
tolkien
tolle
tollen
tolo
tom
toma
tomahawk
tomas
tomb
tombe
tome
tomlinson
tommaso
tommek
tommy
tomorrow
ton
tone
tong
tonga
tongeren
toni
tonie
tonight
tonino
tonn
tonnage
tonnar
tonne
tonnen
tons
tony
too
toodler
toole
top
topographesch
topographesche
topographescher
topographie
toponym
toponymie
topophotomap
tor
tora
torcy
tordai
tore
torgny
torino
torn
tornaco
tornade
tornado
tornatore
toro
toronto
torpedo
torre
torres
torriani
torsten
toscana
toskana
[...]
