!
"
#
##0
##1
##10
##11
##12
##13
##14
##15
##16
##17
##18
##19
##2
##20
##21
##22
##23
##24
##25
##26
##27
##28
##29
##3
##30
##31
##32
##33
##34
##35
##36
##37
##38
##39
##4
##40
##41
##42
##43
##44
##45
##46
##47
##48
##49
##5
##50
##51
##52
##53
##54
##55
##56
##57
##58
##59
##6
##60
##61
##62
##63
##64
##65
##66
##67
##68
##69
##7
##70
##71
##72
##73
##74
##75
##76
##77
##78
##79
##8
##80
##81
##82
##83
##84
##85
##86
##87
##88
##89
##9
##90
##91
##92
##93
##94
##95
##96
##97
##98
##99
$
%
&
'
(
)
*
+
,
-
.
/
0
00
000
0001
00031
001
002
004
005
007
009
01
010
013
015
016
018
0190
02
023
025
026
0263
03
030
0308352100
033
034
036
037
04
040
047
05
050
052
06
060
062
066
067
068
07
070
071
072
075
076
08
08333
09
090
096
098
0999
1
10
100
1000
10000
100000
1001
1005411
1007
1008
101
1014
1016
102
1028
103
1036
1038
104
1046
105
1051
1059
106
1062
1067
107
1073
108
1080
10807575
1084
1086
10877456
1088
10885629
109
1090
1093
1094
1098
11
110
1100
11000
1104
111
112
1121
1126
1127
1128
113
1130
114
1146
1147
1148
115
1151
1152
1154
116
1160
1163
1165
117
1177
11779385
118
11825952
119
1191
1199
12
120
1200
1203
1206
121
122
1224
1227
1229
123
124
1248
125
126
1260
1266
127
128
129
1292
13
130
1300
1304
131
132
1320
1325
133
1332
1346
1349
135
1350
1352
1353
1354
1356
136
1367
1368
137
1371
138
139
1394
14
140
1400
14000
141
1416
142
143
1435
1439
144
1440
14403909
1441
145
1453
146
147
1472
1473
14745020
148
149
1492
15
150
1500
150000
1503
1504
1506
1507
151
1510
1514
1515
1516
152
1520
1527
153
1533799
154
1541
155
1559
156
1560
1566
157
1579108
158
159
1598
16
160
1600
1601
1606
1609
161
1610
1616
162
1623
1626
163
1631
1634
164
1642
1644
165
1650
16537638
1657
16586359
166
1662
1667
1669
167
1672
168
1680
1686
1688
169
1691
1694
1696
17
170
1700
1707
171
1710
1715
172
1723
1724
173
1732
1734
1735
1738
1739
174
1740
1744
1749
175
1750
1752
1753
1756
1758
176
1760
1763
1764
1767
177
1770
1773
1774
1776
1778
1779
178
1782
1783
1787
1788
1789
179
1790
1791
1792
1793
1794
1795
1796
1797
1798
1799
18
180
1800
1801
1802
1803
1804
1805
1806
1808
1809
181
1810
1811
1812
1813
1814
1815
1817
1818
1819
182
1820
1821
1822
1823
1824
1825
1826
1827
1828
1829
1830
1831
1832
1833
1834
1835
1836
1837
1838
1839
184
1840
1841
1842
1843
1844
1845
1846
1847
1848
1849
185
1850
1851
1852
1853
1854
1855
1856
1857
1858
1859
186
1860
1861
1862
1863
1864
1865
1866
1867
1868
1869
187
1870
1871
1872
1873
1874
1875
1876
1877
1878
1879
188
1880
1881
1882
1883
1884
1885
1886
1887
1888
1889
1890
1891
1892
1893
1894
1895
1896
1897
1898
1899
19
190
1900
1901
1902
1903
1904
1905
1906
1907
1908
1909
191
1910
1911
1912
1913
1914
1915
1916
1917
1918
1919
192
1920
1921
1922
1923
1924
1925
1926
1927
1928
1929
1929680
193
1930
1931
1932
1933
1934
1935
1936
1937
1938
1939
194
1940
1941
1942
1943
1944
1945
1946
1947
1948
1949
195
1950
1951
1952
1953
1954
1955
1956
1957
1958
1959
196
1960
1961
1962
1963
1964
1965
1966
1967
1968
1969
197
1970
1971
1972
1973
1974
1975
1976
1977
1978
1979
198
1980
1981
1982
1983
1984
1985
1986
1987
1988
1989
199
1990
1991
1992
1993
1994
1995
1996
1997
1998
1999
2
20
200
2000
2001
2002
2003
2004
2005
2006
2007
2008
2009
201
2010
2011
2012
2013
2014
2015
2016
2017
2018
2019
202
2020
2021
2022
203
2048
205
206
207
208
2080
209
21
210
2100
211
212
213
216
217
218
219
22
220
221
222
223
224
225
226
228
229
23
230
2308
231
233
235
237
238
239
24
240
2400
241
242
243
245
247
248
249
25
250
2500
251
252
253
254
255
256
257
258
259
26
260
261
262
263
2631556
264
265
266
267
268
269
27
270
271
272
274
275
2756256
276
279
28
280
281
282
283
284
2846529
285
286
287
288
289
29
290
291
293
294
295
296
2960
2967
2969
2970
298
299
3
30
300
3000
301
302
303
304
305
306
307
308
309
31
310
311
312
313
314
315
316
3166
317
318
319
32
320
3200
321
322
323
324
325
326
327
328
3283
329
33
330
3300
331
332
333
334
335
336
337
3370579
338
339
34
340
341
342
343
344
345
346
347
348
349
35
350
351
352
353
354
355
356
357
358
359
36
360
3600
361
362
363
364
365
366
367
3675
3678
368
369
37
370
371
372
3728599
373
374
377
378
38
380
382
383
384
385
386
387
388
389
39
390
391
392
393
394
396
397
398
399
4
40
400
4000
402
403
405
407
408
41
410
417
418
42
421
422
423
425
427
428
429
43
430
431
432
434
435
437
438
44
440
442
443
445
446
447
448
449
45
450
4500
451
452
453
455
459
46
460
461
462
463
464
465
469
47
470
4715
4716
4717
475
477
479
48
480
482
483
486
489
49
491
492
493
496
498
499
5
50
500
5000
502973
503
504
508
51
510
5100
511
513
52
520
521
525
526
527
529
53
530
532
533
534
535
536
537
539
54
540
5400
544
546
5468
547
548
549
55
550
552
553
555
557
559
56
560
563
565
566
567
568
569
57
570
572
574
575
578
579
58
580
581
584
586
587
58767
589
59
592
593
594
6
60
600
6000
602
608
61
610
616
618
62
620
622
625
627
63
6309999
632
634
636
637
639
64
640
641
642
644
647
65
650
650000
651
653
655
66
661
665
667
668
67
670
676
68
680
682
683
686
688
69
690
692
693
695
696
697
699
7
70
700
7000
701
703
7035551212
705
707
708
709
71
710
711
716
718
7185551212
72
720
723
724
725
73
730
736
737
74
742
744
746
747
748
75
750
751
752
753
756
757
759
76
760
762
765
768
77
770
771
775
776
778
779
78
780
782
785
79
790
791
793
7986023
8
80
800
8000
800000
802
803
809
81
810
813
815
819
82
820
828
83
830
8300
833
84
840
841
843
845
846
847
848
85
850
852
854
857
85744
86
860
865
867
87
870
878
88
880
881
883
884
887
89
890
891
892950
895
896
89645
897
9
90
900
9000
90002
904
904455
906
906659
907
91
910
911
912
913
92
921
923
93
930261
934
937
94
940
941
948
949
95
950
953
956
958
96
961
963
964
966
968
969
97
970
971
972
973
9750593
976
977
978
979
98
980
981
984
986
987
989
99
993
995
996
9961
998
99959
9999
:
;
<
=
>
?
@
\
^
_
a
aa
aaa
aac
aamruc
ab
aba
ababat
ababur
abadu
abaggus
abagu
abalessa
abalti
aban
abanan
abane
abanɣu
abaraz
abareɣ
abaski
abaz
abaɣur
abba
abbas
abbe
abbu
abc
abd
abdad
abdallah
abdar
abdel
abdela
abdelaziz
abdelh
abdelkrim
abdellah
abdellatif
abdelmumen
abdelmumin
abdelqader
abdelwah
abdenur
abderah
abderrahmane
abderreh
abdic
abeba
abeckid
abed
abeddel
abeddi
abeh
abehri
abelkam
abelkim
abelkoray
abellez
abellireg
aben
abendayer
abender
abeqquq
aber
aberdeɣyul
aberfaw
aberfiw
aberkan
aberni
abernus
aberrah
aberrani
aberru
aberzegzaw
abet
abeɛda
abg
abhandlungen
abi
abib
abid
abidjan
abies
abin
abit
abiyen
abiz
abizar
abizent
abjed
abla
ableɣ
ablidi
ablon
ablono
ablug
abou
about
above
abr
abraham
abranis
abre
abrid
abrit
abruri
abruru
abrutistanti
abruy
absinthe
absinthium
abt
abu
abucenbel
abud
abudaw
abuferriw
abugat
abun
abuniqi
abunsay
aburjij
aburɣas
aburɣes
abus
abusbis
abxazya
abyannu
abyzanti
abz
ac
aca
acab
acacia
acade
academic
academy
acafcal
acali
acalim
acallam
acanthe
acanthus
acaoh
acaulis
acbayli
accaren
accawen
accenay
accepte
access
accessed
accessible
acciwen
accueil
ace
acebbak
acebbub
acebcal
acebh
aceffar
acemma
acemmek
acen
acenfir
acengu
acennay
acennaycategory
acenyal
aceqquf
acer
acercur
acerqi
acet
acetki
acetosella
acewwad
acewwiq
ach
achab
acherontia
achour
acibar
acicani
acid
acikaw
acimi
acinwat
acku
aclag
aclah
acrat
acrocephalus
acruf
act
actes
acteurs
action
activist
actor
actors
actrice
acts
actualite
actuel
actuellement
actuelles
acu
acubar
aculeatus
acur
acute
acutus
acuɣer
ad
ada
adabu
adad
adadu
adafal
adal
adalaylama
adalen
adam
adamsan
adan
adana
adaptation
adaptations
adapte
adar
adarmiyen
adaryis
adasil
adawsan
adaɣ
add
adda
addad
addaden
addag
addal
addalcategory
addalen
addar
adday
added
addi
addis
addit
addition
additional
addud
ade
adebbuz
adeblan
adebsi
adeffu
adeg
adej
adekkar
adekran
adelsan
adem
ademdam
ademkal
ademraw
aden
adenmarki
adeq
ader
aderbal
aderbaɛl
adernen
aderyati
aderyes
aderyis
aderyun
aderzeggaɣ
adet
adewwar
adfar
adfel
adgir
adi
adif
adigan
adik
adin
adis
adit
adiya
adiyudat
adjani
adjed
adlesumuɣ
adlis
administratif
administration
administrative
administrators
adn
adnanas
adnanes
adnunnes
adobe
adolf
adolphe
adonis
adra
adrar
adras
adren
adrim
adriraw
adris
adriz
adrum
adt
adu
adukkiw
adulmes
adunati
adur
adventures
adyu
adyuwat
adzayri
adɣa
adɣar
adɣaɣ
adɣes
ae
aecio
aegypiinae
aerys
af
afa
afad
afalest
afar
afaren
afarent
afares
afaris
afarisi
afarmas
afarsi
afaylu
afecku
afekkan
afel
afelasmil
afelcu
afelfesna
afella
afellay
afelsaf
afelsafi
afelsuf
afeltwacult
afelwacul
afen
afensu
afent
aferdis
aferfer
aferkaw
afernan
afert
afessas
afesyan
afet
afeɣ
aff
affaires
affal
affalman
affar
affaw
affen
affiche
afficher
afgan
afi
afilujinik
afilusuf
afiluzuf
afimidi
afiniqi
afitr
aflan
aflilu
aflu
afniqi
afr
afra
afrag
afran
afrans
afransi
afransis
afraq
afrar
afraray
afras
afraw
afray
afrensaw
afrensis
africa
africaine
africaines
africains
african
africana
africanum
afrika
afriqi
afrique
afriw
afriwen
afro
afrozaf
afrux
afsax
aft
after
aftus
afud
afulay
afulman
afunas
afurk
afurkan
afurmas
afus
afuɣal
afɣanistan
ag
agad
agadez
agadir
agadiz
agafa
agafagmud
agafan
agafataram
agafay
against
agama
agaman
agan
agar
agaran
agaraw
agarsafen
agarwan
agasas
agatu
agawa
agayal
agaz
agazay
agazen
agbur
agd
agdal
agdawal
agdef
agdud
agdudan
age
ageddis
agedr
ageffur
agejdan
agejdi
ageldan
ageldun
agellid
agellusan
agelmim
agelmlid
agemim
agemmay
agemmun
agence
agennaw
agensas
agensaw
agensay
agensu
agensuy
agent
agents
ager
agerdas
agermal
agerram
agerru
agerruj
agersan
agersif
agerutlay
aget
agezday
agezdir
agezdu
agezlan
agezzum
agfes
agga
aggad
aggagen
aggay
aggaz
aggaɣ
aggi
aggur
aggwa
aggwaca
aggz
agi
agiger
agiimi
agilal
agim
agimkat
agin
agisi
agit
agitu
agla
aglam
aglawan
aglay
aglim
aglizi
agllid
agma
agmam
agman
agmar
agmmay
agmud
agmudan
agmumes
agnaw
agni
agnin
agnu
agouni
agrad
agradu
agrakal
agraklan
agramuran
agratraw
agraw
agrawan
agrawi
agrawli
agrawliw
agraɣlan
agreɣlan
agribin
agricole
agriculture
agrigi
agrigur
agriki
agris
agriwel
agronomie
agru
agrud
agrudem
agt
agtul
agu
aguccel
aguila
agujil
agumi
agummu
aguni
agur
agurim
agurres
agusim
agwad
agwanaku
agwans
agwni
agzam
agzay
agzul
agzum
ah
aha
ahad
ahaggar
ahar
aharij
ahat
ahed
aheddad
aheggar
ahem
ahendi
aher
aheyyi
ahid
ahidin
ahidr
ahil
ahilen
ahilium
ahl
ahmar
ahmed
ahmer
ahr
ahras
ahric
ahuki
ahungri
ahya
ai
aicha
aide
aigle
aime
ain
ainsi
air
airiston
airlines
ais
aisa
aise
aises
aissa
ait
aix
aj
ajaddiw
ajapuni
ajat
ajaɣiɣ
ajbabuc
ajdabiya
ajdar
ajdid
ajdir
ajeg
ajent
ajenwi
ajenyur
ajernan
ajgu
ajikistan
ajikstan
ajilban
ajinir
ajiniral
ajinum
ajit
ajiyen
ajj
ajjed
ajjer
ajjig
ajjiwen
ajmaɛ
ajr
ajrad
aju
ajuga
ajun
ak
aka
akabar
akal
akala
akalan
akalen
akamruni
akanadi
akanadyan
akar
akaribi
akasaki
akaswar
akat
akatar
akaten
akatuliki
akawka
akawsar
akayad
akaz
akaɣed
akbal
akd
akdu
akebbib
akec
aked
akeffadu
akeffu
akellex
akem
akemdal
akemmel
aken
akenni
akent
akenyal
aker
akeslaw
akezmir
akfadu
akfasihel
akfud
akhla
aki
akid
akim
akin
akira
akiwan
akk
akka
akke
akked
akken
akkenni
akkin
akkit
akkma
akkn
akkw
aklan
aklasik
akli
aklil
aklim
aklu
akniwen
aknoun
aknul
akovs
akr
akraren
akriti
akruran
aksaqer
aksel
aksi
aksil
aksum
akter
aktum
aktyum
akuc
akud
akudan
akufi
akukru
akunder
akuran
akurma
akutay
akuz
akw
akwd
akwed
akzen
al
ala
alabama
aladra
aladɣa
alaemon
alag
alah
alain
alala
alalmani
alama
alami
alamma
alammi
alan
alant
alaqsa
alarmi
alaska
alat
alatin
alatini
alaudipes
alay
alayen
alba
albanya
albert
albrecht
album
albus
alcategory
ald
alday
aldayan
aldun
aleb
alec
alectoris
alef
aleg
aleggaɣ
aleh
alelmmas
alemmas
alemsir
alen
aleqa
aleqqaq
alexander
alexandra
alexandre
alexandrie
alez
alfa
alfay
alfred
alge
alger
algeria
algerian
algerie
algirus
alh
alhabib
ali
aliases
aliban
alibi
alic
alicante
alice
aliche
align
aliksandr
aliktrun
alim
alin
alise
alisme
alit
alite
aliyin
aljiber
alkem
all
alla
allah
allal
allalen
allam
allan
allas
allawa
allaɣ
allaɣen
allegoria
allemand
allen
aller
allgemeine
allit
allium
allman
allocricetulus
allunmas
allus
alluy
alma
almad
alman
almanen
almani
almaniyen
almend
almi
almohade
almud
almuggar
aln
alnabulsi
alnitak
aloe
alp
alpaka
alpes
alpha
alphonse
alpiste
alqayan
alqem
als
alsan
alsaru
alsen
also
alt
altafa
altar
alternative
althaeoides
altu
alubnani
alug
alugan
alugen
alullam
aluminyum
alut
aluy
alwat
alya
alyan
alyani
alyanit
alzas
alzaz
alzuz
alɣem
alɣu
alɣug
alɣuɣ
am
ama
amabam
amaccaq
amacemma
amad
amadal
amadalan
amadaɣ
amaddud
amadeus
amadlan
amaduc
amadwan
amafag
amaffaz
amagam
amagaz
amagdez
amager
amagnu
amagrad
amagraman
amagzam
amahil
amajistir
amakar
amakken
amaklas
amal
amalas
amalay
amallas
amalu
amalun
amalway
aman
amanar
amanaz
amani
amano
amant
amar
amara
amarag
amarat
amaraw
amaray
amarikan
amarikani
amarir
amarkani
amaru
amarucategory
amarud
amaruz
amas
amasal
amasay
amasdag
amasih
amasili
amaskad
amaslad
amasnag
amassakoul
amassan
amassaɣ
amastan
amasten
amaswad
amasɣan
amat
amata
amatan
amatar
amatay
amattar
amatu
amawal
amawat
amaway
amay
amayas
amayeg
amayka
amaylal
amaynag
amaynu
amaynut
amaz
amazallaw
amazan
amazellaw
amazigh
amazighe
amazighite
amaziɣ
amazon
amazrar
amazray
amazuf
amazun
amazwar
amazzag
amazzal
amaɛ
amaɛen
amaɛuc
amaɣad
amaɣat
amaɣlal
amaɣud
amaɣun
amaɣus
ambassade
amber
amboise
ambul
amcabi
amcic
amcum
amd
amda
amdakel
amdan
amdani
amden
amdeɣ
amduc
amdun
amdya
ame
amec
ameccaq
amecras
amect
amectuh
amecwar
amed
ameddah
ameddakel
ameddakul
ameddis
ameddul
ameddurdu
amedya
amedyaz
amegday
amegdul
ameggaz
amegrud
amegzu
ameh
amejjay
amek
amekan
amekdad
amekdi
amekfad
amekkan
amekkasu
amekla
ameklay
ameknas
amekruz
ameksa
amekyus
amel
amellah
amellal
amellay
amellil
amelwi
amelyun
amemmay
amemmu
amen
amena
amend
amende
amenferriw
amengad
amenhar
amenkad
amenkud
amennuɣ
amenri
amens
amensay
amensi
ament
amentez
amenukal
amenyut
amenz
amenzawi
amenzay
amenzel
amenzu
amenɣi
ameqqarn
ameqqr
ameqqran
ameqqren
ameqqwran
ameqr
ameqran
ameqrran
amer
amercel
amergu
america
american
americans
amerigo
amerkanti
amernay
amerruk
amerruki
amerway
ameryus
amerz
ames
amesfizik
amesgunef
ameskan
ameskar
ameslay
ameslub
amesnafrux
amesnagay
amesnalfu
amesnallun
amesni
amesnilsi
amesnubgay
amesnulfu
amessarti
amessiyes
amessuji
amestrisiti
amestugan
amettan
ametti
ameur
ameyyez
amez
amezday
amezdaɣ
amezduɣ
amezduɣwalzer
amezgun
amezlagu
amezray
amezruy
amezruycategory
amezwar
amezwaru
amezwru
amezyan
amezzay
amezzirez
amezzwaru
amezzyan
ameɛ
ameɛzuz
ameɣlal
ameɣnas
ameɣrad
ameɣradan
ameɣras
amg
amgal
amgar
amgarad
amgaru
amgelnfafad
amgerrad
amgirred
amh
amhad
amhaz
amhazan
ami
amicale
amid
amidag
amiddur
amidu
amiens
amihi
amikr
amila
amili
amin
amina
amir
amiran
amirika
amirouche
amiru
amiruc
amis
amisin
amit
amiter
amiz
amizur
amizwer
amkan
amktal
amkuz
amlelli
amliles
amlulli
amm
amma
ammad
ammal
ammam
amman
ammar
ammas
ammasen
ammed
ammi
ammomanes
ammu
ammud
amna
amnad
amnadi
amnahaɣ
amnay
amnaɛ
amnekcam
amnekcem
amnen
amni
amnir
amniran
amnukal
amnummes
amnummsan
amnursuy
amor
amour
ampe
ampeloprasum
amper
ampere
amplexicaule
amqerqur
amqim
amqqran
amqun
amr
amrabed
amran
amrane
amrar
amrarad
amraw
amray
amrez
amri
amrig
amru
amruj
ams
amsafag
amsalad
amsallun
amsaylal
amsaɣ
amsaɣsi
amsed
amseddas
amsedfar
amsedrar
amsefham
amsefhem
amseggas
amsegraw
amsegrew
amsekni
amseksum
amsektay
amsenzi
amsenzu
amsenɣi
amseqdac
amserti
amsetrar
amseɣz
amsideg
amsideɣ
amsifgan
amsisi
amsiwen
amskus
amsterdam
amsuddes
amsufeɣ
amsuget
amsuji
amsulles
amsuneɣ
amsut
amt
amtawa
amtiweg
amtiwgan
amu
amud
amuda
amuddir
amuddur
amudi
amudlif
amugay
amuli
amulli
amun
amunak
amunan
amunay
amundul
amuqran
amuqwran
amur
amurakuc
amuran
amurar
amuretani
amurigam
amuskir
amusnak
amusnaw
amussnagamaw
amussnak
amussnaw
amussu
amwan
amy
amya
amyag
amyannan
amyaraw
amyarru
amyaru
amyewwat
amyiwen
amyurar
amz
amzal
amzenzi
amzenzu
amzeruy
amziane
amzik
amzikan
amziki
amziɣ
amzun
amzur
amɛellem
amɛiwen
amɣar
amɣaw
amɣid
amɣiwan
amɣus
amɣuz
an
ana
anabad
anacyclus
anad
anadal
anaddal
anaddam
anadi
anafag
anafat
anaffal
anafi
anafuk
anagar
anager
anaggal
anagi
anagraw
anagrawa
anagyris
analman
analyse
analysis
anamak
anamdal
anamek
anamhaz
anamsad
anamum
anamur
anar
anarag
anarum
anas
anasiw
anat
anatomy
anavad
anaw
anayyur
anaz
anaza
anazbay
anazur
anbad
anbat
anbaz
anc
ance
ancher
anchusa
ancien
ancienne
anciens
ancient
ancolie
and
anda
andalus
andalusi
andan
andar
anden
andere
anders
andi
andiz
andorra
andr
andre
andrea
andreas
andryala
andy
ane
anebbad
anebdad
anebdu
anecfal
anect
anecta
aned
anef
anefray
anegaru
aneggaf
aneggal
aneggar
aneggaru
aneggez
aneglus
anegmar
anehhar
anejmuɛ
anekcum
anelfuy
anellay
anelmad
anembad
anemgal
anemhal
anemlay
anemmas
anen
aner
anermis
anerni
anes
anesbaɣur
anesli
anessas
anesur
anesuran
anet
anewrir
anez
anezmar
anezraf
anezway
anezwi
anezwu
anezzu
aneɛrud
aneɣ
aneɣlaf
aneɣmas
anfa
anfafad
anfaras
anfufed
ang
angad
angal
angalen
angar
angaz
angazsartu
angeles
angkur
anglais
angliz
anglizi
angola
angu
angustifolia
anhil
ani
anida
anik
animal
animals
animation
animaux
anime
anin
anisa
anit
aniyen
aniyin
aniyt
anja
ankar
anmahal
anmekni
anmezray
anmezruy
ann
anna
annad
annan
annar
annay
annaɣ
anne
annect
annecta
annetta
annie
anno
annotated
annotation
annotations
annote
annua
annual
annuelle
annuf
annunzio
annuus
annuz
anqas
anrar
anruh
ans
ansa
ansana
ansay
ansayan
ansayen
ansi
ansis
ansisen
ansist
ansiwen
ansuf
answers
ant
anta
antalas
anternet
anthologie
anthony
anthrax
anthropologie
anthus
anthyllide
anti
antigenic
antilles
antimicrob
antiquite
antoine
anton
antonio
antraktika
ants
antuni
antunya
antwan
anulfu
anumidi
anur
anus
anut
anutt
anvidyu
anvirus
anwa
anwar
anwi
any
anya
anyir
anz
anza
anzad
anzar
anzaren
anzaten
anzeggan
anzi
anzu
anzul
aou
aougrout
ap
apache
apartheid
apg
aphaca
apollo
apolonio
apostrophe
appear
appears
appel
appele
appelle
apple
application
approche
apr
apre
april
aps
aptenodytes
apuleius
apuluni
apuva
aq
aqa
aqacuc
aqader
aqamum
aqarid
aqbal
aqbayli
aqbel
aqbil
aqbu
aqbur
aqcic
aqdim
aqebt
aqeddac
aqeddem
aqelqul
aqen
aqer
aqerru
aqerruy
aqettal
aqiccew
aqjun
aql
aqlaɣ
aqli
aqlilu
aqmad
aqqa
aqqar
aqqur
aqrab
aqrah
aqrib
aqrur
aqs
aqsa
aqsent
aqua
aquatica
aquaticum
aquila
aquilegia
aqur
aquran
aqvayli
aqziz
ar
ara
arab
arabe
arabes
arabi
arabia
arabic
arabiyy
arafu
aragon
aragran
arakal
araklan
aram
aramayo
arami
aramma
aran
aranen
aranin
arant
aras
arasen
arasin
araskan
aratak
arawsan
aray
arayen
araz
arazen
arben
arbib
arbor
arborea
arborescens
arborescente
arbres
arbustes
arc
arcal
arch
archaeobatrachia
arche
archime
archimedes
architecture
archive
archived
archives
arctic
ard
ardab
ardekal
ardekkal
ardennes
ardeqqal
are
areb
arebi
aredekal
aref
aregnan
arekmane
areksim
aren
areq
arereg
ares
aresqi
aret
arew
areyya
arez
arezki
arezqi
arf
arfud
arg
argaz
argent
argentea
argentina
argigi
ari
aridal
aries
arietinum
arietis
arif
arig
arih
arim
arin
ariq
ariqa
ariqat
ariri
arist
aristide
aristot
arithme
arizona
arjagnu
arjan
arjantina
arjentin
ark
arkafal
arkam
arkansas
arkawal
arkoun
arkti
arkun
arles
arm
arma
arme
armeskil
armi
arminya
armoise
armu
armud
arn
arnan
arnat
arnaud
arniɣed
arnold
arnu
arnuɣ
arra
arrac
arram
arras
arraw
arraz
arrazen
arraɣ
arren
arrestation
arrif
arrifcategory
arris
arriɣed
arroche
arrondissements
arruw
arryn
arset
art
artemisia
arthur
article
articles
articulata
artikel
artiste
artistique
arts
aru
arugen
aruku
arum
arumani
arumantik
arumi
arun
aruns
arurad
arured
arurt
arus
arusfus
arusi
arusrid
aruɣ
arvensis
arwas
arway
arxiv
arxmides
arxubazan
arya
aryana
aryubindus
arz
arzu
arzufan
as
asa
asad
asadaf
asadri
asadu
asaduf
asadur
asafar
asafaylu
asafi
asaflaw
asaflu
asagen
asaka
asalay
asalel
asali
asallaf
asalu
asamar
asamas
asamer
asammar
asammer
asan
asanay
asani
asarag
asardas
asarir
asaru
asarug
asasnef
asawen
asayes
asaɛudi
asaɣur
asbegsan
asbes
asbuɣ
asc
ascii
asdawan
asdukel
asduklan
aseb
asebdad
asebges
asebrin
asebrurez
asebtar
asebter
asedas
aseddayan
asedger
asef
aseffud
asefk
aseflalay
aseflay
asefrek
asefru
asegbar
asegdef
asegder
asegg
aseggas
asegget
aseggi
aseglan
asegmar
asegmi
asegnaf
asegrew
asegt
asegwas
asegzawal
asegzel
asegzi
aseh
asehru
asehwu
asekcem
asekfel
asekker
asekkil
asekkud
aseklan
asekles
asekliw
aseklu
asekraf
asekref
aselah
aselaway
aseldan
aselh
aselkem
aselkim
aselkin
aselluf
aselmad
aselmed
aselt
aseltik
aselway
aselwayan
asemdu
asemgal
asemlal
asemlili
asemmad
asemmam
asemmat
asemmi
asemmid
asemmili
asemmit
asemmum
asemnenni
asemran
asemres
asen
asenfar
asenfel
aseng
asengam
asengel
asenmel
asennan
asennefru
asenselkim
asensu
asent
asentel
asenti
asenzi
aseqdac
aseqdec
aseqqamu
aseqqan
aseqsaq
aserbi
aserdas
aserdasan
aserdasi
aserdun
aserdɣyul
aserkeb
aserman
asermed
asermres
aserrad
asersi
asertan
asertay
aserti
aserɣin
aserɣud
asesmel
aset
asewseɛ
asewwi
asewzel
asexdem
aseyyad
aseɣnew
aseɣri
aseɣwen
aseɣz
aseɣzef
aseɣzif
asfaylu
asfel
asfen
asfi
asfijjej
asfillet
asfugel
asfuggel
asg
asganfu
asgeld
asgen
asger
asget
asgi
asgunef
asgunfu
ash
asi
asia
asiatique
asiba
asibbus
asid
asideg
asiden
asie
asif
asifliw
asigna
asignew
asikel
asiken
asileɣ
asiman
asimwas
asin
asinar
asinaryu
asinas
asinef
asireg
asirem
asirili
asismel
asiwed
asiwel
asiwet
asizdeg
asiɣzef
askaf
askasi
askeladd
askellad
asken
asker
askil
askuren
aslali
aslallu
aslaw
aslaɣmay
aslekman
aslem
aslewlaw
aslewlew
aslugen
aslulef
asmagnu
asmektay
asmekti
asmel
asmi
asmil
asnafrux
asnaklan
asnallun
asnas
asnawan
asnawi
asnay
asnegnag
asnerni
asnifel
asnilsan
asnirem
asnudran
asnujjyan
asnulfu
asnullan
asnutlay
aspanyuli
aspects
aspenyul
aspenyuli
aspera
asphodelus
asqamu
asqif
asrag
asreqqat
asrir
asrn
asru
ass
assa
assab
assagi
assaley
assan
assar
assaru
assaɣ
assaɣen
assebded
assed
assefqed
assegas
asseggas
assegwass
assegzi
assehres
asselkem
asselmed
assemad
assen
assenger
asseqdec
assessment
assexdem
assezgi
asseɣwel
assideg
assider
assif
assikel
assileɣ
assireg
assirem
assiseɣ
assissen
assmi
associated
association
assufeɣ
assuji
assure
ast
astenyi
asteqsi
asteroids
asteɛmer
asteɛr
asteɛreb
asteɛref
astidiu
astirf
astragalus
astronomical
astronomie
astronomique
astronomy
astrophysics
astum
astɛreb
asu
asudu
asuf
asufeɣ
asuffeɣ
asugen
asugnan
asuji
asumer
asun
asunded
asuned
asunen
asuneɣ
asunneɣ
asunɣan
asuqel
asurdu
asuri
asurif
asusef
asusen
asusru
asussen
asut
asutel
asutem
asuter
asuvyati
aswag
aswan
aswir
aswu
asya
asyacategory
asyut
asɣamu
asɣan
asɣar
asɣen
asɣim
asɣunef
at
ata
atah
atan
ataram
atas
ateb
atelli
atem
aten
atena
atent
atergi
aterki
aterras
atg
ath
athe
athmane
atif
atig
atin
atina
ation
atlanta
atlanti
atlantica
atlantik
atlantique
atlas
atletaz
atma
atmaten
atmelli
atmosphere
atmospheric
atnan
atni
atp
atrar
atraren
atraw
atricapilla
atriceps
atriplex
atropos
atsen
att
atta
attack
attan
attaquant
attaque
attekki
attentat
attez
attili
attilli
atu
atuk
atunsi
aturki
atxaga
au
aubrac
audio
auf
august
auguste
augustin
augustus
aujourd
auparavant
aurassi
aure
aurelius
aurigaster
aussi
australe
australia
australis
auteur
author
auto
automne
autonome
autonomes
autonomie
autour
autre
autres
aux
auxiliary
av
avant
avec
avena
aventures
averroe
aves
avian
aviculare
avirus
avium
aviv
avogadro
avoine
avril
aw
awa
awact
awad
awadem
awadhi
awah
awaher
awahri
awal
awalen
awali
awaliyen
awan
awanak
awancategory
awanek
awanen
awaqqur
awaqur
award
awards
awaren
awazi
awaziw
awaɣzen
awd
awdan
awdaren
awec
awed
aweggir
aweh
awehhay
awen
awend
awent
aweqqas
awer
awerg
awerta
awertilani
awes
awessar
awet
awetay
awetman
awey
awezlan
awezziw
awezɣi
aweɣlis
awg
awh
awham
awi
awid
awihad
awin
awindali
awit
awiɣ
awk
awlal
awlawal
awlellu
awliwel
awnaman
awr
awras
awraɣ
awren
awrir
aws
awt
awtem
awtul
awudem
awurti
awwaz
awwiɣ
awwu
awz
axalwati
axar
axas
axat
axatar
axater
axeclawan
axeddam
axeddaɛ
axeddim
axelxal
axemmem
axerrub
axes
axilwan
axrib
axs
axuxi
axxam
ay
aya
ayad
ayagi
ayagwar
ayallas
ayamun
ayan
ayanen
ayant
ayat
ayaten
ayaw
ayazid
ayazit
ayd
ayda
aydeg
aydi
ayed
ayeddid
ayedmun
ayeffus
ayefki
ayen
ayenni
ayer
ayerni
ayert
ayes
ayet
ayetma
ayfa
ayfez
ayfus
aygan
ayi
ayis
ayiwen
ayla
aylal
aylalen
aylan
ayland
aylanen
ayli
ayma
ayman
aymi
aynas
aynazɣer
ayoub
ayouz
ayr
ayt
aytma
aytmaten
ayuc
aywal
ayyes
ayyi
ayyur
ayyuren
ayɣef
ayɣer
az
azadur
azaf
azag
azagir
azaglu
azagur
azal
azalen
azalnsent
azamul
azanzaw
azanzu
azar
azara
azaraw
azarmezruy
azarolus
azarug
azarugzir
azarza
azawad
azawag
azawan
azawax
azawaɣ
azayer
azayez
azayku
azazer
azaɣar
azbu
azdal
azdar
azday
azdiger
azdigran
azebijan
azedgan
azeffan
azeffar
azeffoun
azeggaɣ
azeggwaɣ
azegraw
azegrir
azegriran
azegza
azegzaw
azekka
azelli
azellim
azelmad
azelmat
azem
azemmur
azemni
azemz
azen
azennar
azenzar
azenzaɣ
azerbijan
azerfan
azerket
azet
azewwaɣ
azezzu
azeɣlan
azeɣnennay
azgen
azger
azhar
azilal
azimez
aziraz
azirdyaw
aziweɣ
aziz
azjer
azkken
azlaf
azlem
azmez
azmul
aznen
azr
azra
azrar
azray
azref
azrem
azrou
azru
azrugzir
azt
azufan
azuk
azul
azunmenz
azunɣid
azur
azuran
azureɣ
azwaran
azwaw
azwawaɣ
azwel
azwil
azwilen
azwiwel
azwu
azya
azyagur
azyam
azza
azzan
azzar
azzayri
azzel
azzen
azzu
azzug
azzuz
azzuzwel
azɣar
azɣenɣan
azɣer
aɛawdiw
aɛdaw
aɛdawen
aɛebbas
aɛebbud
aɛebri
aɛeddi
aɛeggal
aɛekkaz
aɛekkur
aɛellaq
aɛer
aɛerqub
aɛessas
aɛet
aɛetmani
aɛeyyen
aɛez
aɛfer
aɛfir
aɛibrani
aɛiraqi
aɛiwed
aɛlayan
aɛlayen
aɛli
aɛmar
aɛmer
aɛmiruc
aɛqal
aɛr
aɛrab
aɛraben
aɛririg
aɛrur
aɛsas
aɛsekri
aɛter
aɛudiw
aɛumar
aɛut
aɛutmani
aɛyiɣ
aɛzib
aɛziz
aɛzizen
aɛɛrur
aɣ
aɣadan
aɣan
aɣanib
aɣanim
aɣar
aɣara
aɣaram
aɣaras
aɣarbaz
aɣarim
aɣawas
aɣbal
aɣbalu
aɣebbar
aɣecter
aɣella
aɣelluy
aɣelmi
aɣelnaw
aɣelnazri
aɣen
aɣenja
aɣer
aɣerbaz
aɣerbi
aɣerda
aɣerfan
aɣerman
aɣernuq
aɣerrabu
aɣersaw
aɣersiw
aɣesmar
aɣewwiɣ
aɣezfan
aɣezkal
aɣezzfan
aɣeɣ
aɣil
aɣilas
aɣilif
aɣisan
aɣlacim
aɣlad
aɣlal
aɣlan
aɣlaq
aɣlif
aɣmar
aɣmat
aɣmis
aɣr
aɣrab
aɣraz
aɣref
aɣrem
aɣressagma
aɣri
aɣrib
aɣrud
aɣrum
aɣsi
aɣt
aɣtas
aɣucaf
aɣuli
aɣurar
aɣwbel
aɣyay
aɣyul
aɣɣad
b
ba
bab
baba
babil
babur
baby
bac
baccata
bachelier
bachir
bachman
bacir
back
background
bactrianus
bad
baddouj
badis
baelor
bag
baga
bagdad
bah
baha
bahr
bahya
baja
bakalur
bakir
baku
bakunin
bal
bale
baleares
baleine
bali
ball
ballota
ballul
balon
balqan
balsamea
baltik
baltimore
balwa
bamako
bamaku
ban
band
bande
bandit
banen
banent
bang
bangladec
bangor
bangsi
bani
bank
banque
banu
baptiste
bar
bara
barack
baratheon
barbados
barbara
barbarie
barbarum
barbarus
barbatus
barcelona
baris
baron
barra
barre
bas
basaa
basayeb
basayib
base
baseball
based
basen
basic
basilic
basket
basse
basset
bassin
bastien
bat
bataille
batent
batna
batnet
battuta
baxɛa
bay
bayern
baylek
baynam
baynan
bayreuth
baz
bazar
baɛ
baɛd
baɛziz
baɣay
bb
bbc
bbut
bc
bce
bd
bda
bdan
bdant
bdiɣ
bdun
be
beach
bean
beatification
beatles
beau
beaute
beautiful
beauty
beaux
bec
beccar
beclul
bed
bedd
beddel
bedden
beddent
beddlen
beddlent
beddren
beddu
beddun
bedlen
bedren
been
beethoven
before
beggnen
beggsen
begin
begnan
begsen
beh
beida
beijing
bejaia
bejji
bek
bekkou
bel
belah
beleflit
belezma
belfast
belfort
belg
belgik
belgrad
belh
belhadj
beli
belize
belkacem
bell
bella
bellac
belladone
belles
belleville
belli
bello
belmopan
below
belqasem
belt
belwizdad
belɛebbas
belɛid
belɣezli
ben
benedicta
benh
beni
benian
benin
benioff
benjamin
benjdid
benmhidi
benmuhub
bennay
bennu
bennun
bennunt
bennur
benseddik
bent
benxedda
benyan
benyub
benyunes
benyusef
benzart
benzema
benɛebdelqader
benɛeknun
benɛuf
benɣazi
beqqu
ber
berbagai
berbe
berber
berbero
berberologie
berdawz
berg
bergara
berjal
berkan
berkane
berkukes
berlin
bern
bernard
bernardo
berne
bernhardt
bernus
berqa
berquq
berr
berra
berranin
berrik
berriken
berrouaghia
berthier
berthold
berthoze
bertrand
bertrandy
beruto
bes
besaɛud
besoin
bessaɛud
bessi
bessif
best
bestebroer
bet
beta
betacoronavirus
betacov
betrun
between
betzig
bextuc
bexxay
bexɛa
bey
beyond
beyrouth
beyynen
bezaf
bezzaf
beɛd
beɛden
beɣdad
bg
bgayet
bh
bi
bianchi
bib
bibcode
biben
biber
bibir
bibiren
bible
bibliographie
bibliography
bibliothe
bibras
bibren
bibt
bicolor
bida
biemont
bien
biflorus
big
bih
bilarusya
bilha
bilinguisme
biljik
bill
billboard
bilmawen
bin
binatna
bine
binen
binomio
bins
binyamin
biographie
biographies
biography
biologie
biology
bir
birmanya
birut
bis
bisekstil
bissau
bissextile
bit
bitja
bitt
bituminaria
bituminosa
bizasina
biɛa
bjurn
bl
bla
black
blacklist
blackwater
blad
bladimir
blaise
blanc
blanche
blank
blasters
bled
bleu
blica
blida
block
blog
blogspot
bloody
blue
blues
blum
bm
bn
bnadem
bnan
bnf
bni
bnun
bo
board
bob
bobby
boccoli
body
bogota
bohr
boi
bois
bold
boli
bolivia
bolivie
bombina
bon
bonaparte
bonic
bonn
bonnus
book
books
borago
bordeaux
border
bordj
bordure
borin
borissov
borrow
borussia
bos
bosna
bosnia
boston
bot
botanique
both
botswana
bottom
bou
bouabba
bouali
bouamara
bouaziz
boubakdi
bouche
bouches
boudiaf
bouguermouh
bouira
boujdour
boukhara
boulemane
boulifa
bourdieu
bourg
boushaki
bouteflika
bouzeboudja
bouzid
bouzrou
bovei
box
boyer
br
brabant
bracco
brachystachys
brad
braham
brahe
brahem
brahim
brahmi
braille
bran
branch
branche
brando
brandon
brandt
branis
braqiq
bratislava
bray
brazil
brazzaville
bre
break
bref
bretagne
breviarium
brevifolia
brezh
brian
bridge
brief
brimyan
brit
britain
britannia
britannica
britanya
british
britt
brive
briza
brizil
broadcast
broekman
bromus
brooklyn
brooks
brothers
brown
browser
brtv
bru
bruce
brugnatelli
brun
brunei
brunswick
brussel
bruzni
bryonia
bsilen
bt
bu
bub
buba
bubeker
buberrak
bubeɣla
bubker
bubuh
bucephalophorus
buciker
bucures
bud
buda
budapest
budinar
budrar
budwaw
budyunubisk
bufarik
bufrah
bug
bugarmuh
bugermuh
bugerra
bugud
buh
buhidren
bujember
bujima
bujumbura
bukarest
bukhara
buksilinen
buktu
buku
bukus
bulgarya
bulibya
bulifa
bull
bulletin
bulman
bult
bulu
bulunda
buluɣin
bulɛid
bumbey
bumedyen
bumeng
bumerdas
bumerdascategory
bumerdes
bumesɛud
bumilkar
bumlal
bumlikar
bumraw
bumusa
bumya
bun
bunaɛman
buncucet
bunda
buneggaf
bungaf
bunuh
bunur
buqa
buqadir
buqellal
buqider
buqnadel
bur
burdim
bureau
bured
burg
burgiba
buris
burj
burkina
burnes
bursa
buruba
burundi
bus
busad
busallaf
busellam
busemɣun
busennan
bush
bushmen
business
buslen
busliman
busnya
busummer
busɛada
busɛeda
but
butan
butec
butefliqa
buteo
butin
butswana
button
buturin
butwab
buxalfa
buxara
buxarest
buxlifa
buxus
buyeh
buyilef
buyiɣyal
buyusef
buzegziw
buzgan
buzid
buɛadu
buɛawen
buɛendas
buɛerfa
buɛezza
buɛfif
buɛic
buɛidel
buɛisi
buɛli
buɛmara
buɛraba
buɛririg
buɛririj
buɛziz
buɣalem
buɣdir
buɣerdan
buɣni
bw
bwa
bwadda
bwagdur
bwic
by
bya
bye
byelorusi
byilurusya
byron
bɣan
bɣant
bɣiɣ
bɣun
c
ca
cabh
cabi
cabtal
cache
cad
cadhen
cadli
cadres
caecilius
caenogastropoda
caesar
caesaribus
cafaɛ
cafiq
cah
cahiers
cairo
caister
caker
calais
calameo
calcul
calcule
cale
calendrier
calendula
calicotome
california
calim
call
callitris
calopteryx
cama
camau
cambon
cambridge
camelus
cameroon
cameroons
cameroun
camil
camille
camito
camp
camps
camus
camy
can
canada
canadensis
canariensis
canberra
cancer
canids
canina
canis
cannes
canorus
cansumys
cap
cape
capensis
capital
capitale
caprae
caprimulgus
capsella
captain
caput
car
caracas
caracte
caraɛa
carbon
carduelis
care
carette
carey
carignano
carl
carlina
carlo
carlos
carnaval
caroline
caron
carota
carotte
carre
carrie
carte
carthage
caryophyllus
cas
casa
casablanca
casbah
case
cases
cassius
castanea
castellane
castellano
castellum
casterly
castilla
cat
catalogue
cate
category
catelyn
catherine
catmore
cattle
catuy
caused
cazelles
caɛban
caɛbani
caɛbi
cb
cbah
cban
cbel
cbirdu
cca
ccaf
ccah
ccam
ccama
ccambit
ccan
ccariɛa
ccbah
ccc
ccd
cced
ccedda
ccef
ccek
ccekk
ccekran
ccekraɣ
ccen
ccer
ccerfa
ccergi
ccerq
ccetla
ccetwa
cceyɛed
cceɣl
ccfawat
cchada
cci
ccih
ccin
ccinwa
ccit
ccix
cciɛa
cclef
ccna
ccnan
ccnawi
ccnun
ccr
ccrab
ccraga
ccreɛ
ccrif
ccud
ccuf
ccuhada
ccur
ccurut
ccwa
ccwal
ccwer
ccɣel
cd
cdc
cdot
ce
cebana
cebbh
cebh
ceci
cedrus
cehden
cela
cell
celtic
celtis
cem
cemax
cembre
cemetery
cemmini
cender
cendrillon
cengit
cennun
cennuɣ
census
cent
centaure
centaurea
centauri
centaurium
center
centers
central
centre
centres
century
cenwa
cep
cer
cercal
cergiyya
cerken
cersei
certhia
cervantes
ces
cesar
cessite
cet
cette
ceyyɛen
ceɛban
ceɛbet
cf
cfar
cfawat
cfiɣ
cfu
ch
cha
chabane
chabet
chad
chadli
chaerophyllum
chai
chaker
chalcides
chambers
chambre
chameleon
champs
channel
chanson
chant
chante
chanteur
chants
chaos
chaoui
chaouia
chapitre
chapman
characterization
characters
chardon
charente
charentes
charge
charles
charlotte
chauve
che
chebib
check
chedallah
chef
chefchaouen
cheikh
chelem
chelems
chelha
chelsea
chemini
chemins
chemother
chen
chenopodium
cher
cherif
chevaux
chez
chezso
chi
chicago
chicore
chiffchaff
chiffres
children
chime
chimiques
china
chkiri
chloris
choix
chomsky
chopin
chor
chorfa
chouar
chouhada
chre
chris
christ
christian
christmas
christophe
christopher
christophorus
chroniques
chrysanthe
chrysanthemum
chumbow
church
churchill
chœurs
ci
cia
cial
cialise
cialistes
ciba
cibani
cic
cican
cice
cicer
cichorium
ciconia
cict
cicunq
cid
cie
ciel
cielo
cifique
cigan
cigancina
ciker
cikri
cili
cilmun
cimales
cimyun
cinclus
cindy
cine
cinerea
cinnamomeus
cinq
cio
cir
ciraz
circ
circa
circonscription
cirin
cirsium
cirta
cirte
cistus
cit
cite
cited
cities
citing
citoyen
citt
city
civil
civilisation
cix
ciyen
ckaria
ckentura
clade
clancy
claps
clara
claremont
class
classe
classes
classification
classique
classis
claude
claudel
claudio
claudius
claus
clauzel
clavatus
clavier
claymore
claɛla
cldr
cle
clear
clem
clematis
cliffs
clijsters
climat
clin
clinical
clint
clos
closet
cloud
club
cm
cms
cna
cnan
cnh
cninni
cnna
cnrtl
cns
cnun
co
cobar
cocomelon
code
codes
coeur
cohen
col
cole
coline
coll
collaboration
collectif
collection
collective
college
collin
colline
collings
collins
collybita
cologne
colombes
colombia
colonel
coloniale
colonies
colonisateur
colonisateurs
colonisation
colonnes
color
colorado
colour
columba
columbia
columbus
column
columns
com
combat
combats
combinaison
come
comite
comme
commenc
comment
commentationes
commerce
commissariat
commission
common
commons
commun
communaute
commune
communes
communication
communis
communiste
comosum
compagnie
compagnons
companions
company
comparaisons
compare
comparison
compilation
comple
complet
complete
complexe
complicated
comportant
compose
composition
comprend
compris
compte
comte
con
concepcio
concept
concepts
concert
conclusions
concolor
concours
conde
confe
conference
confessions
confirmed
conflits
congo
congre
conjunctivitis
connect
connecticut
connection
conomie
conomique
conomiques
conrad
conseil
conservation
consistance
constantina
constantine
constitution
constitutions
construction
consulte
contact
containing
conte
contemporaine
contemporary
content
contes
contient
continent
contre
contribution
contro
control
convolvulus
cooh
cook
coordination
copa
copenhague
copies
copley
coquelicot
coran
core
coriaria
cork
corner
coronarium
coronavirus
corporation
corps
correa
correct
correspond
correspondance
corresponding
corrib
corruption
corse
cos
cosa
cosmos
cotentin
couleur
couleurs
council
count
country
county
coupage
coupe
courage
courant
cours
course
court
couverte
couverture
cov
covid
cr
cra
crasc
crassulaceae
crataegus
crater
cre
created
cret
creticum
cri
cricetulus
cricetus
crif
crifa
crire
crise
crispa
crispum
cristal
crit
critic
critique
critiques
crits
criture
crivains
criɛa
crm
crocodylus
crocuta
croft
croix
croke
cromwell
cronquist
cross
cruz
cs
csidi
css
ct
ctamber
ctember
ctenber
ctizel
ctumber
cu
cuculus
cudden
cug
cukken
culaire
cultive
culture
culturel
culturelle
culturelles
culturels
culum
cup
cupressus
curitiba
current
currentcentury
currentisleapyear
currentisoyear
currentjulianday
currentmonthdays
currentweekday
currentweekdayname
currentyearcc
currentyeardays
currentyearyy
cut
cv
cw
cwal
cwami
cwi
cwit
cwiya
cwiyya
cwlad
cylamen
cynodon
cynoglossum
cypre
cytinus
cytise
cytisus
czech
cœur
cɛayeb
d
da
dabex
daboia
dac
dacu
dad
daenerys
daghen
dagi
dagogique
dah
dahab
dahlab
dai
dakar
dakk
dakka
dakken
dakrur
dal
dali
dalil
dallet
dama
dame
damien
damus
dan
dance
danemark
daniel
danmar
danmark
dans
danse
danub
danube
daphne
daqa
dar
dari
darin
dark
darna
darwin
das
dasin
dat
data
database
date
datura
daucus
dave
david
davis
daw
dawed
dawh
dawud
daxel
daxl
day
daya
dayen
dayi
dayin
daymen
daymi
days
dayt
daɛwessu
daɣ
daɣan
daɣen
daɣistan
db
dbase
dbk
dc
dd
dda
ddabax
ddabex
ddam
ddan
ddar
ddarg
ddarja
ddarya
ddau
ddaw
ddaxla
ddaɛwa
ddefla
ddel
ddem
ddemma
dden
ddeqs
dder
dderya
ddewla
ddexala
ddg
ddheb
ddin
ddiq
ddkir
ddmen
ddren
ddrent
ddu
dduh
ddukklen
dduklen
dduklent
dduktura
ddukulen
ddula
ddun
ddunit
ddunitcategory
ddunnit
ddunt
ddur
ddurt
dduxan
dduɣ
ddwa
de
death
debbaɣin
debbu
dec
december
deer
default
defaults
deffir
defla
deg
degli
degs
degsen
degsent
deh
dei
deignan
dejjal
del
delaware
deletion
delheure
delhi
dell
della
delle
delles
delta
dem
dembri
demnat
democratic
den
dendrocopos
dendronanthus
denis
denmark
densite
dent
deoxy
department
depechedekabylie
depuis
deq
deqqal
deqs
der
derah
derg
dernie
dernier
derwic
derɛa
des
descartes
descent
deschamps
description
desert
deserti
dessine
dessins
destine
details
deux
deuxie
devant
devil
dewla
dewwar
dey
deɛwessu
deɣren
dg
dges
dgha
dgi
dheb
di
dia
dialecte
dialectes
dialogue
dialogues
diana
dianthus
dicinales
dick
dickens
dictionary
dictionnaire
did
diduc
die
diego
dien
diesel
dieter
dieterich
dietrich
dieu
diffe
different
difficile
dig
diger
dihya
dilma
dima
dimacq
dimanche
dimecq
din
dina
dinan
dindin
dinn
dinna
dioica
diplo
diptera
diq
dir
dire
direct
directeur
direction
directrix
diri
dirit
dis
disambiguation
discussion
disease
diseases
disk
display
disque
disquisitiones
distance
distinct
distress
distribution
district
dit
dite
diter
diterrane
diteur
dith
dition
ditions
div
diversite
divise
division
diwan
dix
diya
diyen
diɣ
diɣen
dj
djamila
djaou
djaouani
djaout
djazairess
djebel
djerba
djurdjura
dlen
dmawin
dmeɣ
dms
dna
do
dob
doc
doctorat
documentation
documents
does
dog
dogs
doi
doit
dom
domaine
dome
domestica
domesticus
domini
dominique
dominium
don
donald
donatello
dong
donie
donna
donne
dont
dore
doria
dorothea
dortmund
dos
dossier
dostoyevsky
dot
douala
double
doue
douglas
dover
down
download
dr
dra
draa
drach
dragan
drahem
drama
drapeau
draɛ
dre
dren
dreɛ
drimia
driouch
dris
driwec
droit
droite
droits
drum
drus
drusen
drusilla
druɣ
ds
dssenfalayen
dt
du
duala
dub
dubai
dubay
dubium
dublin
dubois
duc
ducation
dud
dudayib
duduc
due
dufanit
dug
dujamber
dujanbir
dujardin
dujember
dujenbir
duktur
duktura
dular
dullar
dum
dumen
duminik
dumran
duna
dunas
dunatus
dunes
dunit
dunnit
dupreziana
dur
durar
during
dusldrub
dust
dustur
dutch
dutton
duveyrier
duz
dvd
dwa
dwala
dwiret
dyus
dz
dzayer
dzayercategory
dziri
dzlit
dzzayer
dɣa
e
ea
ealing
early
earth
east
eastern
eastwood
eau
eb
ebba
ebban
ebbar
ebbat
ebber
ebbes
ebbi
ebbir
ebbiren
ebbren
ebbug
ebbujt
eber
ebgga
ebh
ebla
ebr
ebran
ebren
ebril
ebs
ebsaru
ebsed
ebsen
ebsi
ebsiyen
ebt
ebɛa
ebɛin
ec
eccentricity
ecciw
ecdc
echioides
echium
ecole
ecology
ecser
ecseri
ecuador
ed
edd
eddad
eddada
eddaden
eddard
eddart
eddi
eddin
edducen
edduq
edinburgh
edison
edisud
edit
edith
edition
editions
editor
edlim
edmen
edmond
edr
edren
eds
edu
education
edulis
edvard
edward
edwards
edwin
ef
efaren
efen
effects
effer
efficacy
efforts
effren
effret
effun
efk
efkan
efnawi
efr
efren
efrent
efs
efsen
efsi
efsit
efsiyen
eft
efzanin
eg
egan
egbayel
egduft
egen
eggal
eggem
egger
eggiden
eggiren
eggmen
egwa
egzampl
eh
ehd
ehden
ehdent
ehh
ehran
eidi
eiffel
ein
einstein
either
ek
ekk
ekka
ekkam
ekklen
ekkmen
ekku
ekkun
ekm
ekma
ekmed
ekmen
ekusluvaki
ekwa
ekwan
el
elben
elc
element
elh
elil
elizabeth
ella
ellah
ellan
ellasa
elle
elli
elliɣ
ellu
elmad
elmat
elsass
elt
elwatan
elyan
elyani
elyanit
elyaniyen
elyant
elɣaba
em
ember
emberiza
emd
emdan
emdun
emed
emerson
emhur
emile
emla
emlat
emlaɣ
emlen
emma
emmacen
emmad
emmaden
emmadeyya
emmadi
emmadit
emmadiyen
emmaduc
emmal
emmam
emmama
emmamat
emmamt
emman
emmanuel
emmed
emmel
emmer
emmi
emmic
emmlen
emmleɣ
emmu
emmuda
emnen
empire
emt
emza
emɛa
emɛen
emɛi
en
ena
enadi
enal
enan
enc
encarta
encore
encyclopaedia
encyclope
encyclopedia
encyclopædia
end
enders
endl
endlen
endre
enduq
enf
enfants
eng
engelmann
engis
english
eniɛen
enn
enna
ennaci
ennad
ennadi
enne
ennes
ennet
enni
ennijer
enniɛen
enova
ens
ensawen
enseignants
enseignement
ensemble
ensis
ensisen
ensist
ent
entertainment
entier
entre
entreprise
entretien
enua
enya
enz
enɛa
eo
ep
epidemiology
epsilon
eq
eqed
eqen
eqq
eqqani
eqqaniyen
eqqer
eqqi
eqqim
eqqren
eqranit
eqren
equus
er
era
erasmus
erba
ercan
ercaw
ercen
erci
erd
erdeq
eren
erez
erf
erfan
erfi
erfit
erfiyen
erg
ergen
erh
eric
erica
eris
erithacus
eriya
erk
erki
erkit
erkiyen
erma
erman
ermanin
ermucen
ernest
ernst
erodium
eroi
erqan
err
errac
errachidia
errad
errah
erran
errat
errek
errem
erren
errent
erreur
erreurs
errez
erri
errif
errifen
erriken
erriten
erriwen
erru
errun
errzen
ers
ersen
ert
erwal
eryngium
erythraea
erz
erzen
erzent
erzun
es
esben
eska
esnawen
esnawi
espace
espagne
espe
espoir
esprit
ess
essa
essaden
essai
essaid
essais
essaouira
essen
essin
essos
est
esthe
eswatini
esyaf
et
etats
etc
etcheh
ethique
ethnologie
ethnologue
etienne
etta
ettem
ettmen
etude
etudes
eu
eucalyptus
euge
eul
euler
euphorbia
euragraw
eure
euro
europa
europaea
europe
european
eurovision
euskadi
eutropius
ev
even
ever
everest
evian
evidence
evo
evolution
evolutionary
evreux
ew
ewan
ewc
ewondo
ewren
ewt
ewwa
ewwas
ewwed
ewwer
ewwes
ewwi
ewwin
ex
examens
example
exceptions
exe
exemplaires
exemple
exemples
existe
exists
expe
exploration
explore
explorer
exposition
express
expression
extended
external
externes
extrait
extreme
ey
eyes
eyrie
eyt
eyya
eyyeb
eyyer
ez
eznen
ezqi
ezzi
ezzin
ezzouar
eɛ
eɛfan
eɛfer
eɣ
eɣlawt
eɣlen
f
fa
fabio
fac
face
facebook
fact
facto
facts
faculte
fad
fadma
fagus
fahd
faire
fairy
fait
faits
faken
fakk
fakken
fakkent
falco
falest
falestin
fali
familia
famille
family
fan
fannu
fantasy
fanto
faouzi
faqen
faqes
far
farah
faren
fares
farh
farid
farida
faris
fars
farsen
faru
fas
fasen
faso
fast
fasu
fat
fatal
fatima
fausse
faust
faut
fawzi
fayeg
fayet
fayyum
fbi
fc
fd
fda
fe
feat
features
february
fecture
fed
federation
federer
fedia
feggid
fehhmen
fehmen
fehmeɣ
felgu
felis
fell
fella
fellag
fellas
fellasen
fellasent
fellawen
fellaɣ
felli
felt
femme
femmes
fen
fent
fer
ferdinand
ferg
fergani
ferguson
ferh
ferhat
feriel
fermus
fernand
fernando
fernas
fernen
ferqen
ferrets
ferru
ferrug
ferrun
ferrux
ferry
ferula
ferulago
ferɛun
fes
fesna
fesniwen
fessus
fessusen
festival
feu
feuille
feuilles
fezwan
fezzan
feɣ
ff
ffad
ffer
ffeɣ
ffren
ffs
ffɣen
ffɣent
fi
fibonacci
fiche
fichier
fichiers
fiction
ficus
field
fifa
fifi
figig
figure
fih
fikr
file
filiks
filipin
filippin
fille
film
films
fin
final
find
finie
finiste
finland
finlanda
fir
fire
firefox
firmina
firmus
first
fis
fist
fitzgerald
fixant
fkan
fken
fkin
fkiɣ
fla
flag
flammarion
flan
flash
flaubert
flavius
fleurs
flex
flid
fln
float
flora
flore
florence
florentia
florida
flowers
floyd
flu
fluki
fluororibosides
flurensya
flurinda
flurinsa
flying
fnideq
fo
foenum
foetida
fogh
foire
folio
fonction
fonctionne
font
fontaine
food
foot
football
foq
for
forall
force
forest
forma
format
formater
formation
forme
formula
fort
fortner
fortran
fouchier
foum
found
foundation
four
foureau
fourth
fox
foxes
foyer
fr
frac
fragments
frah
fraiche
fran
franc
franca
francais
france
franche
francis
francisco
franco
francophone
francs
frank
frankfurt
frankfurter
franking
franklin
franku
frans
fransa
franswa
franz
fraser
frawsen
fraxinus
fre
frederick
free
freely
freetown
freg
fren
freud
friedman
friedrich
frih
frikat
fritz
from
front
fruits
frurin
frurxen
frurxent
fsb
fsin
fsus
fsusen
ftan
fu
fuad
fud
fuda
fuku
fulfulde
full
funas
function
fur
furar
furat
fus
fut
fuɛad
fven
fw
fɣen
g
ga
gabay
gabes
gabriel
gabriele
gabriyel
gabun
gad
gadi
gaeltacht
gaeltachta
gaensler
gafs
gaga
gaillarde
gaius
gal
gala
galactites
galapagos
gale
galement
galerie
galeries
galilei
galileo
galium
gallica
gallimard
gallus
galma
galway
gambya
game
games
gaming
gamma
gan
gandhi
gant
gao
gar
gara
garasen
garcia
garde
gare
garganica
garninuc
garros
garrulus
gart
gary
gascou
gasmi
gassion
gates
gatineau
gauche
gaulle
gaulles
gauss
gauß
gaya
gayed
gazelles
gce
gcompris
gdz
ge
gebbren
gebren
gebrent
geiger
geiseric
geisser
gelden
gellan
gellu
gellun
gellunt
gemmad
gemmren
gemmu
gemmun
gemnen
gen
gende
gendes
genduz
gene
general
genetic
genetta
genevois
genin
genova
genre
gens
gent
gentilhomme
genus
genwan
geo
geograph
geographic
geography
georg
george
georges
georgia
ger
geranium
gerard
gerb
gergur
germah
germain
germandre
gerruma
gerrumen
gerwen
gesellschaft
gestion
get
gezmen
gezzam
gezzil
gezzmen
geɣ
gf
ggan
ggaren
ggen
ggeɣran
ggin
ggren
ggten
ggtent
ggug
gguman
gguni
ggunin
gh
ghadbane
gharb
ghef
gher
gi
gia
giambattista
gianfranco
giant
gibraltar
gide
gif
gigu
gilbert
gilles
gin
gina
ginya
gion
gionales
giovanna
giovanni
gir
girl
girondins
gis
gitu
given
giza
gje
gladiolus
glafira
glai
gland
glasnost
glebionis
gles
glili
glis
glise
globe
glossaire
gma
gmas
gmina
gnayus
gnidium
go
god
gods
goethe
gogh
gogol
gold
golden
gole
golfe
gone
good
google
gordon
gorie
gorien
gorienne
gorman
gossypium
gottingae
gottingensis
gottlieb
gou
gouna
gouraya
gourion
gouvernement
gov
gra
graciliflora
gradient
graecum
grammaire
grammar
grammy
gran
grand
grande
grandes
grandiflorus
grandis
grant
gras
grasset
graveolens
gray
gre
great
green
greenland
greenwich
gregory
gren
grendayzer
grenoble
grent
gret
gretel
greyjoy
greɣ
gribu
gridcolor
grigurian
grik
grimm
grimmer
grinland
grir
groenland
gros
group
groupe
groups
gsm
gt
gta
gu
guangxi
guda
gue
gueliz
guerra
guerre
guerrino
gugar
guide
guila
guild
guilin
guillaume
guillermo
guinea
guinness
gulda
gulf
gulshan
gulusa
gulussa
gum
guntarik
guraya
guryun
gurzil
gustave
guy
gwanec
gwatimala
gweedore
gyps
gzam
gzun
h
ha
haag
hab
habitants
hacem
hachemi
hachette
hacmi
had
haddadou
hadj
hafez
hag
hai
haineman
haiti
hakim
hala
half
hall
haller
hamadi
hamburg
hamed
hamid
hamilton
hamla
hamlaoui
hammad
hammam
hammond
hampshire
hamra
hamza
han
hand
hani
hanoi
hanoteau
hans
hansel
haouz
har
haram
harare
hard
hare
harmattan
harpe
hartford
hartmann
harun
haruno
harvard
has
hasan
hasen
hassaine
hassi
hat
hatake
hatnote
hause
haut
haute
hautes
hauts
have
hawaii
hawthorn
hay
haydn
haye
hayti
hb
hbo
he
health
heart
heaven
heavy
hectares
hed
heddr
heddren
hedera
hedge
hedysarum
hegel
heggan
heggin
heidelberg
height
heinemann
heinrich
hejlsberg
hekmen
helalem
helianthus
helioscopia
helix
hell
hello
helminthotheca
help
helsinki
hemagglutinin
hemsal
hen
henderson
henin
henna
henning
henri
henricus
henry
herba
herbe
herbert
here
herengracht
heritage
hermann
hermes
herniaria
hero
herschel
hertzsprung
herzegovina
herzl
hettmen
heure
heures
hewwara
hewwari
heyyan
heyyin
hfr
hi
hibberd
hibel
hicem
hid
hidden
hidr
hidrujin
hiempsal
hiemsal
hier
hierlalgerie
high
hilaire
hilal
hill
hillstrom
hilmi
hilton
hilyus
himalaya
himlkar
hims
himsal
hinan
hindi
hindya
hingis
hinte
hip
hirakana
hiroshi
hiroshima
hirsuta
hirzigubina
hirziguvina
hirziguvinalemonde
his
hispanica
hispanicus
histoire
historia
historiae
historical
historique
historiques
history
hitler
hiver
hlal
ho
hoc
hocine
hoffman
hokage
holgersson
holland
hollande
hollywood
home
homer
homes
homma
hommage
homme
hommes
homo
honcu
honduras
hong
hongo
honneur
honolulu
honshu
hop
hopkins
hordeum
horizons
horizontalis
horrida
horror
hors
hortensis
hospital
host
hot
hotel
house
hover
how
hraw
hrawen
htm
html
htmlhttps
http
https
hu
huang
huawei
hubben
hubei
huckle
hud
huda
hudden
hugh
hugo
hui
huit
hull
hulland
hullunda
humaine
humaines
human
humanisme
humide
humu
hun
hungarya
hungri
hunt
huntington
hurley
hussein
huwa
hwafi
hyaena
hyoscyamus
hypocistis
i
ia
iaf
ianit
ianuarius
iasen
iazizain
ib
iba
ibabaten
ibaburen
ibad
ibadisen
ibahlal
ibambaraten
iban
ibanen
ibardan
ibarɣawaten
ibaskiyen
ibaw
ibawen
ibaxucen
ibaɛzizen
ibaɣuren
ibd
ibda
ibder
ibeckid
ibed
ibedd
ibeddel
ibedden
ibeddi
ibeddilen
ibeddlen
ibeddu
ibeddun
ibedren
ibeggen
ibeggnen
ibeh
ibehlal
ibeldisen
ibelkamen
ibelkimen
ibellireg
ibellirg
ibelmaten
ibelɣen
iben
ibennu
ibennun
ibeqquyen
iber
iberc
iberdan
iberdeɣyal
iberfiwen
iberia
iberkanen
iberniyen
iberraniyen
iberru
ibessa
ibet
ibetrunen
ibeɛden
ibeɛɛac
ibides
ibin
ibirya
ibis
ibit
ibitten
ibiw
ibiz
ibizent
ibkan
ibki
ibn
ibna
ibr
ibrahim
ibraltar
ibrenyas
ibrir
ibriszimow
ibrit
ibritaniyen
ibrutistantiyen
ibt
ibu
ibucmanen
ibudaden
ibudraren
ibuferriwen
ibulisen
ibumbiyen
iburaɣ
ibureɣsen
iburjijen
iburɣas
ibutcicen
ibuyeh
ibuɣar
ibuɣsan
ibz
ibɣan
ic
icafcalen
icaggen
icakan
icali
icaliyen
icamit
icardiwen
icat
icawiyen
icaza
icbuyla
icc
icca
iccer
iccew
iccu
ice
icebba
icebcalen
icebh
iceffaren
icegged
iceggeɛ
icelh
icelliben
icelman
icemten
icen
icenga
icennayen
icennu
icennun
icenwiyen
icerken
icerqiyen
icertifi
icerɛiwen
icet
icewwel
icewwiqen
icewwlen
iceyyeɛ
iceɣben
ici
icicaniyen
icidi
icimat
icinwaten
icixiyen
iciɛiyen
iclem
icna
icnna
icosium
icrat
ict
icuban
icubar
icubaren
icubranen
icud
icudden
icuff
icukk
icɛaryien
id
ida
idaho
idamen
idammen
idamsanen
idan
idanen
idanin
idanmar
idarmen
idasilanen
idawsanen
idda
iddayen
iddem
idder
iddew
iddu
idduklen
ide
ideblanen
idebs
ideflawen
ideg
ideggan
ideggen
idegger
idels
idelsanen
iden
identified
identite
ider
idergen
iderginen
iderma
iderman
idernen
iderɣalen
idet
idetti
idewwer
idf
idgan
idgel
idiganen
idilla
idim
idin
idinburg
idir
idiren
idis
idisan
idisen
idisken
idles
idlesen
idlisen
idmaren
idmelt
idmim
idra
idraren
idrasen
idri
idrimen
idris
idrisen
idrissi
idrizen
idrumen
idrusen
idt
idu
iduba
idularen
idum
idumen
idunatiyen
idurar
idurra
idus
idwi
idzayriyen
idɣaren
ie
ier
if
ifa
ifad
ifadden
ifakanen
ifakk
ifalest
ifaq
ifaqen
ifares
ifarisen
ifasen
ifassen
ifat
ifawatayen
ifaylellisen
ifaz
ifazen
ifcategory
ifd
ifecka
ifeclen
ifed
ifehhem
ifek
ifel
ifelasmil
ifelfel
ifellah
ifellayen
ifen
ifer
iferdisen
iferh
iferki
iferqen
iferr
iferran
iferrawen
iferru
iferrun
ifert
iferzizwi
iferɛunen
ifes
ifesyanen
ifet
ifetti
ifexsi
ifexxaren
ifeɣ
ifeɣmasen
ifeɣmes
iff
iffalmanen
iffan
iffasen
iffassen
iffer
iffeɣ
iffouɣ
iffɣ
ifganen
ifilku
ifiniqiyen
ifiq
ifirellas
ifires
ifis
ifisdayas
ifiɣa
ifka
ifkan
iflacen
iflalen
ifli
iflis
iflisen
ifnayen
ifni
ifniqen
ifr
ifra
ifran
ifrane
ifransisen
ifraranen
ifraren
ifrawen
ifrax
ifrayen
ifrensisen
ifri
ifrikiyen
ifriqiyen
ifruriyen
ifsan
ifsi
ifsusen
iftisen
ifuk
ifukal
ifukk
ifunasen
ifur
ifurkanen
ifurkawen
ifurken
ifus
ifutunen
ifuyla
ifuɣa
ifuɣas
ifyar
ifɣed
ifɣen
ifɣulen
ig
iga
igamanen
igamiten
igan
igar
igarawen
igardan
igarzen
igawawen
igazen
igber
igburen
igd
igdalen
igdawalen
igdayen
igduden
igebbren
igebren
igeddisen
igedfen
igedr
igedren
igejdanen
igelden
igelfan
igelled
igellem
igelliden
igellil
igellilen
igellmen
igellu
igellun
igelmamen
igelman
igelmen
igelmimen
igem
igemmad
igemmamen
igemmer
igemmuden
igemmun
igemmunen
igen
igennanen
igenni
igensasen
igensaten
igenwan
iger
igerbucen
igerdan
igerdasen
igerfiwen
igerjdi
igerrez
igerrujen
igerrumen
igerrzen
igersalen
igersen
igerzen
iget
igezda
igezennayen
igezlanen
igezzumen
igg
igga
iggar
iggaren
igger
iggerdan
iggi
iggul
igguran
ighil
igi
igider
igim
igiman
igimen
igin
igit
igiten
igla
iglamen
iglan
iglem
igli
igliziyen
iglu
igmad
igmamen
igmanen
igmariyen
igmimen
igmu
igmusen
ignan
igniarius
igniren
igra
igran
igranen
igrawen
igrawliwen
igraɣlanen
igrez
igreɣlanen
igrigiyen
igriken
igrikiyen
igriwlen
igrufa
igt
igtakwaten
igtal
igudar
iguersafene
igufaf
igujilen
igulafen
igulaz
igumma
igurdan
igures
iguza
iguzulen
igza
ih
iha
ihad
ihadiyen
ihaggaren
ihallen
ihan
ihder
ihedder
iheddr
iheddren
ihegga
iheggan
ihelel
ihendiyen
iherraseen
iherrasen
iheyya
iheyyan
iheyyi
ihi
ihig
ihma
ihnama
ihntaten
ihran
ihriren
ihudd
ihudden
ihungariyen
ihuz
ihwa
ii
iii
iimi
ij
ijapuniyen
ijaqduden
ijdi
ijdiden
ijebbden
ijebd
ijebden
ijeddar
ijeddel
ijeg
ijehden
ijekd
ijemmlen
ijen
ijent
ijenwiyen
ijer
ijerh
ijerriden
ijeɣlalen
ijga
ijider
ijifer
ijinumen
ijj
ijja
ijjadarmiyen
ijjan
ijqiwen
ijrawen
ijudar
ijufar
ijuɣaɣ
ik
ikabaren
ikacbaren
ikalaten
ikalen
ikamruniyen
ikamyunen
ikar
ikaramen
ikariben
ikaswaranen
ikat
ikatuliken
ikatulikiyen
ikayaden
ikayaten
ikcem
ikebbiben
ikec
ikeccem
ikecem
ikecm
ikecmen
ikeffis
ikeffu
ikeffun
ikellex
ikemlen
ikemmel
ikemmlen
iken
iker
ikerdisen
ikerri
ikersiyen
ikerwaten
ikesman
ikess
iketturen
ikfa
ikfil
ikiker
ikikuyuten
ikilumetren
ikilumitren
ikilumtren
ikit
ikiyt
ikka
ikkan
ikkat
ikkaw
ikkawen
ikker
ikkerked
ikkes
ikki
ikkuk
iklan
ikmamen
ikmumes
ikniwn
iknuzen
ikr
ikritiyen
ikruranen
ikruraren
iksilen
ikufiyen
ikukra
ikumya
ikurdan
ikurdiyen
ikusi
ikuslubakya
ikussimen
ikutamen
ikwadur
il
ila
ilal
ilali
ilan
ilant
ilaq
ilaqen
ilas
ilat
ilaten
ilatinen
ilatiniyen
ilaw
ilawen
ilban
ildin
ildun
ile
ileddayen
iledyen
ilef
ileffu
ileffun
ileggaɣen
ileh
ilehhun
ilel
ilellen
ilelli
ilelliyen
ilem
ilemden
ilemmasen
ilemmden
ilemmed
ilemz
ilemzi
ilen
ileqman
ileqqed
iles
ilew
ilex
ilezmen
ileɣman
ilfan
ilha
ilhan
ili
iliktr
iliktrunen
iliktrunik
ililan
ilili
ilin
ilint
ilit
iliwi
iliɣ
ill
illa
illalen
illan
illant
ille
illel
illey
illi
illin
illinois
illinɣef
illu
illugan
illul
illulen
illuz
ilmaten
ilmawen
ilmayen
ilmed
ilmend
ilmendis
ilmez
ilmezsyen
ilmezyen
ilmi
ilqayanen
ils
ilsan
ilsanen
ilt
ilu
ilugan
iluganen
ilul
iluled
ilulen
ilullen
ilulufen
iluɣluɣen
ilwaten
ilya
ilzuzen
ilɣiten
im
ima
imac
imache
imad
imadaren
imadwanen
image
images
imaginaire
imagnulanen
imagraden
imahilen
imahuniyen
imakaren
imaklasen
imal
imalas
imalasen
imalen
imalgaciyen
imalla
imalt
imalwayen
imam
iman
imanayen
imanharen
imant
imar
imaranen
imarawen
imarayen
imaren
imarikanien
imarikaniyen
imas
imasayen
imasih
imaskalen
imaskaren
imaslad
imasladen
imassanen
imassen
imasɣanen
imat
imataren
imattaren
imaturidiyen
imatuyen
imawalen
imawat
imawlan
imaynuten
imaz
imazanen
imazellawen
imazgayen
imazighen
imaziɣen
imaziɣencategory
imazragen
imazranen
imazrayen
imazwaren
imazzagen
imazzalen
imaɛtuqen
imaɣaden
imaɣnasen
imaɣzalen
imcac
imceddalen
imceyyeɛ
imd
imdalin
imdalt
imdanen
imdb
imddanen
imddukkal
imdebber
imdetti
imdewwer
imdukal
imdukkal
imdyunen
imec
imect
imed
imeddukal
imeddukkal
imeddulen
imedlen
imedyaten
imedyazen
imedzaɣ
imedzi
imedɣasen
imegruden
imegziyen
imeh
imehl
imejjayen
imekcumen
imeksawen
imel
imelayn
imeldiwen
imelh
imellalen
imelsi
imelsiyen
imelyan
imelyar
imelyaren
imelyunen
imen
imend
imendi
imendiyen
imenghi
imenna
imennuɣen
imensi
imenz
imenza
imenzawiyen
imenzayen
imenɣan
imenɣi
imenɣiyen
imeqq
imeqqi
imeqqr
imeqqran
imeqqranen
imeqqren
imeqr
imeqranen
imer
imerga
imergaguyen
imerna
imernayen
imerrukiyen
imeru
imerwel
imerzen
imerɣanen
imes
imesbeddi
imesden
imesdurar
imesfer
imesgumma
imesgunfanen
imeshanayen
imeskanen
imeskaren
imesla
imeslab
imeslayen
imesli
imesminqer
imesnallunen
imesnaɣen
imesnilsiyen
imesnudranen
imesnullanen
imessartiyen
imessujiyen
imesɛuden
imet
imetman
imettel
imetti
imettiyen
imetwayen
imewh
imeyyez
imez
imezdaɣ
imezdaɣen
imezdeɣ
imezdi
imezdiyen
imezgi
imezgiyen
imezluga
imezrayen
imezruyen
imezt
imezwaɣ
imezwura
imezzayen
imezzi
imezziyen
imezzwura
imezzyanen
imeɣban
imeɣdasen
imeɣlalen
imeɣnasen
imeɣrasen
imeɣrawen
imeɣriyen
imeɣsuyen
img
imgan
imgarad
imgaraden
imghantensawt
imgucclen
imgunen
imi
imid
imidduren
imidiwan
imidiwen
imidrus
imihiyen
imik
imikr
imil
imilcil
imineg
iminig
iminigen
iminiren
imir
imira
imiranen
imiren
imisin
imitren
imiyen
imiz
imiɣes
imjuhad
imkiren
imknasen
imkoz
imkuz
imlal
imlel
imlil
imma
immal
immalen
immasen
immel
immer
immeslay
immet
immiren
immizewren
immut
immuten
imnadiyen
imnayen
imnaɣen
imnekcamen
imniren
imnummsanen
imnummsen
imnura
impact
impe
imperium
important
importe
imposture
imprimerie
imqeddes
imqerqar
imqqur
imr
imra
imrabd
imrabt
imraraden
imrawen
imrayen
imrigen
imrikanen
imriren
imru
imrujen
ims
imsaddasen
imsarmuden
imsawalen
imsed
imsedda
imseddasen
imsefki
imsefliden
imseggasen
imsegrawen
imseh
imsehres
imseksumen
imselleh
imsellh
imselɣet
imsennenen
imseqdacen
imseth
imseɣdaden
imseɣret
imsidgen
imsineg
imsinwalen
imsisan
imsisen
imsiwlen
imsnugaten
imssufen
imsuddes
imsuh
imsujiyen
imsullsen
imsulta
imsuneɣ
imsunɣen
imsut
imt
imtawayen
imtiwganen
imtiwgen
imu
imucaɛen
imucaɣ
imucaɣcategory
imud
imudar
imudaɣ
imuddiren
imudduren
imugulen
imuh
imuhal
imuhaɣ
imuhub
imukan
imula
imumden
imunak
imunen
imunguliyen
imuqranen
imuranen
imurar
imuren
imuriyen
imusnawen
imusnilsen
imuss
imussa
imussnawen
imussuten
imussuyen
imut
imuta
imuyag
imuzzag
imuzzar
imuɣlen
imweh
imyagen
imyura
imyurar
imyuraren
imz
imzad
imzalen
imzdaɣ
imzdaɣen
imzedaɣ
imzedaɣen
imzenza
imzerdel
imzerreg
imzik
imziken
imzikiyen
imzireg
imziy
imzuren
imzuyeɣ
imɛaliwen
imɣan
imɣaren
imɣi
imɣuren
imɣuzen
in
ina
inaddalen
inadi
inadiyen
inafagen
inafuken
inagan
inagmayen
inagrawen
inalco
inalmanen
inamsaden
inamuren
inaragen
inaramen
inas
inauguracion
inaw
inawaren
inawen
inay
inayen
inaz
inazuren
inaɣ
inaɣlalen
inbeddalen
inc
include
including
increase
increased
increment
inde
indent
index
india
indian
indiana
indic
indica
indicus
indige
individual
indo
indonesia
indoor
indunisya
industrie
industry
ine
inebgi
ined
ineftah
inefzawen
inefɛen
ineg
inegger
ineggura
ineglizen
inegliziyen
inegmaren
inegmi
inegni
inegren
inehrasen
inek
inekcamen
inekren
inelfuyen
inelmaden
inembad
inemgalen
inemlayen
inen
ineqqen
inerɣi
ines
inesbaɣuren
inesbuɣar
ineslem
ineslmen
inesnasen
inessuren
inet
inetteg
inexxim
inez
inezeggan
inezgan
inezggan
inezgi
inezriten
inezwa
inezwi
ineɣ
ineɣlafen
ineɣlan
ineɣmasen
ineɣmisen
infafaden
infdis
infect
infection
infet
infiɛ
influence
influenza
info
infobox
infocus
information
informatique
infosoir
infraclassis
infraordo
infraphylum
infraregnum
infusen
infzawen
ing
inga
ingiren
ingliz
ingliziyen
ingusa
inherit
ini
inig
inigen
inigi
inijel
inijjel
inin
iningaten
inis
inisi
init
initen
iniyen
iniɣ
injil
inline
inmahalen
inmegzayen
inmezrayen
inn
inna
innan
innaɣ
innes
innexsys
inni
innin
inniɣ
innulfan
innultan
innum
innumen
ins
insayen
inscriptions
inscrite
inse
inselmen
inser
inside
institut
institute
instituteurs
institution
institutions
instruction
int
inte
integrifolia
intel
intellectuelle
intellectuels
interdit
interior
international
internationale
internet
interpre
interview
into
intramuros
introduction
introduits
inu
inuda
inumak
inumaz
inumiden
inumidiyen
inurag
inurar
inus
inuva
inuz
invirusen
inyar
inz
inzan
inzaren
inzaten
inzegganen
inzer
inzizen
inɣa
inɣan
inɣerfel
io
ioc
iod
ion
ip
ipaspur
iphone
ipr
iprage
iprisbitiriyen
ipuluniyen
ipv
iq
iqabel
iqamumen
iqbayliyen
iqbur
iqburen
iqdec
iqdimen
iqebbel
iqebblen
iqebt
iqedcen
iqeddacen
iqeddcen
iqeddec
iqeddicen
iqeddsen
iqellalen
iqelɛiyen
iqemmuden
iqen
iqenneɛ
iqer
iqerben
iqerra
iqerray
iqerrer
iqerruyen
iqert
iqessuyen
iqettalen
iqewwan
iqid
iqq
iqqar
iqqaren
iqqenen
iqqim
iqqimen
iqt
ir
ira
iragranen
irammaten
iran
irancategory
iraq
iraten
irawen
iraɣlalen
ircam
ird
irden
ire
irebbi
irebh
irebraben
ireddayen
irefden
ireg
ireggmen
ireglen
irekden
ireland
irem
iren
irennu
irennun
ires
iret
irewlen
irewllen
irez
irezzun
irfa
irfed
irg
irgazen
iri
iriferr
irifiyen
irin
iriran
iris
irish
iriten
iritirya
irkawalen
irkeb
irked
irkwelli
irland
irlanda
irlande
irlandi
irlandiyen
irlundiyen
irmad
irmadduden
irmawen
irmerriyen
irmuden
irna
irnawen
iron
irr
irra
irran
irrazen
irt
iru
iruh
iruka
irumaniyen
irumiyen
irummiyen
irumyen
irusfusen
irusiswalen
irusiyen
irwasen
irwayen
irwel
irwi
irz
irzi
is
isa
isaac
isabelle
isabellina
isad
isadwalen
isafaradiyen
isafaren
isafen
isaffen
isah
isakar
isalafiyen
isalan
isalen
isali
isallen
isalli
isamu
isaragen
isardasen
isat
isawad
isawed
isawnen
isayli
isazalen
isaɣuren
isbed
isbedd
isbedden
isbegsanen
isbenyuliyen
isbn
isd
isdilasas
ise
isebdaden
isebtar
isebtaren
ised
iseddagen
iseffeɣ
iseffuden
isefka
iseflawen
iseflayen
isefra
isefrek
iseg
isegasen
isegassen
isegbaren
iseggase
iseggasen
iseggassen
iseggem
isegger
iseggiwen
iseggwasen
isegniwen
isegra
isegran
isegwasen
isegziyen
iseh
isehlen
isejji
isek
isekcmen
isekdanen
isekkilen
isekkren
isekla
iseklanen
isekles
isekliwen
isekna
isel
iselh
iselken
iselkimen
isell
isellek
isellen
isellez
isellken
isellufen
iselmaden
iselman
iselsa
iselwayen
iselɣen
isem
isema
isemawen
isemda
isemduyen
isemiman
isemlel
isemm
isemma
isemmad
isemman
isemmat
isemmeh
isemmi
isemmiliyen
isemmt
isen
isendyaq
isenfaren
isengamen
isenkreen
isenmal
isennanen
isenned
isensa
isent
isental
iseqdac
iseqdacen
iseqdec
iseqquma
iseqsiyen
iserbiyen
iserdasen
iserreh
isers
isersen
isertanen
isertayen
isertiyen
isertuta
iserwan
iserɣinen
isesmilen
iset
isexdamen
isezdiyen
iseɛdiyen
iseɣ
iseɣraz
iseɣrez
iseɣwan
iseɣz
iseɣzanen
isfuyla
isgelmasen
isgensis
isgensisen
ish
ishak
isiaxem
isid
isifer
isig
isigen
isignaten
isigniwen
isiklen
isimilen
isin
isirew
isirg
isirgen
isirru
isismilen
isiwan
isiɣid
iskanen
iskaren
iskecmen
isken
isker
iskerci
iskilen
iskimen
iskkiln
iskola
iskuren
isla
islam
islami
islamic
islamique
islan
island
islands
isleapyear
isli
ism
isma
ismal
ismattar
ismatteran
ismawen
isme
ismektayen
ismilen
ismis
ismun
isnajjyanen
isnajyanen
isnalayen
isnallanen
isnarem
isnarmen
isnasen
isnat
isnayyawen
isnazduɣen
isnen
isni
isniflen
isniɣes
isnudranen
isnulfa
isnulfan
isnulfuyen
iso
isoyear
ispenyulen
ispenyuliyen
isra
israel
isragen
israyel
israyil
israyl
israyliyen
iss
issa
issad
issalen
issali
issawad
issawed
issawlen
issawt
issayli
issaɣen
issef
issefk
issefken
isseggasen
issegrawen
issegwasen
issegwassen
isselmad
issem
issemti
issen
isseqdac
isseqdacen
issers
issexdem
isseɣ
issiakhem
issiklen
issiliɣ
issiliɣen
issin
issinen
issn
issue
issues
issufeɣ
issufuɣ
issufɣ
issumer
issumren
issura
issusem
ist
istambul
istanbul
isteqsa
istigen
istirfen
isubb
isud
isuda
isudaf
isufar
isufeɣ
isuffeɣ
isufɣ
isufɣen
isugan
isuka
isulas
isumm
isunad
isuned
isunen
isunniyen
isuqel
isura
isurdiyen
isurifen
isuriyen
isusiyen
isut
isutal
isuvyatiyen
isuyas
isuɣ
iswa
iswi
iswiren
iswiyen
isyaxem
isyin
isɛa
isɛan
isɛedda
isɛi
isɣanen
isɣaren
isɣi
isɣunen
it
itagaki
italia
italian
italiana
italicum
italicus
italie
italienne
itan
itanen
itanul
itanya
itargiyen
itasca
itbir
itch
ite
itebɛen
iteddu
iteddun
iteffeɣ
iteffren
iteffɣen
itekk
itekka
itekkan
itekken
itekkes
itekki
itekniyen
item
items
iten
itent
iteqqnen
itergiyen
iterkiyen
ites
itessen
itet
itett
itetten
itezzi
itezzin
iteɣɣen
itij
itin
itine
itis
ititanen
itlal
itran
itraren
itrawen
itri
itroun
itruski
its
itswa
itt
ittaf
ittag
ittak
ittaken
ittakk
ittales
ittara
ittasen
ittat
ittawat
ittawi
ittawin
ittazalen
ittbin
ittbinen
itteffaɣen
itteffeɣ
itteffren
itteffɣen
itteg
ittekk
ittekka
ittekken
ittekki
ittekkiyen
ittemlili
ittemɣay
ittemɣayen
itteqqnen
itteɣlay
itth
itti
ittidiren
ittili
ittilin
ittmagen
ittmeslayen
ittnadi
ittnali
ittnaɣen
ittrajju
ittruh
ittugelmen
ittumeggez
ittunefken
itturar
itturaren
ittusemma
ittusemres
ittusnirmen
ittwa
ittwagdel
ittwali
ittwasen
ittwasileɣ
ittwasnen
ittwassen
ittwassnen
ittxemmim
itucabiyen
itulen
iturkiyen
ityubya
ityupya
iu
iucn
iulianus
iusedda
iv
iva
ivandaliyen
ivanic
ivdc
ive
ivette
ivirusen
ivoire
ivy
iw
iwa
iwaccu
iwad
iwaken
iwakken
iwala
iwalan
iwali
iwan
iwanaken
iwandalen
iwaqur
iwat
iwata
iwayen
iwd
iwdan
iwec
iwed
iweggiren
iweh
iwej
iwekked
iwellhen
iwelsen
iwen
iwenniten
iwennuɣen
iwerg
iwes
iwet
iwetmen
iwez
iwezlanen
iwezziwen
iwezzla
iweɛr
iweɛren
iweɛzunen
iwi
iwid
iwillimiden
iwillimmiden
iwimi
iwin
iwjilen
iwlalen
iwliwlen
iwmi
iwnaz
iwraɣen
iwriken
iws
iwt
iwtal
iwten
iwudam
iwukr
iwula
iwulan
iwulem
iwulmen
iwumi
iwunak
iwuzat
iwwed
iwwi
iwwin
iwzellagen
ix
ixaq
ixarban
ixataren
ixdem
ixeddamen
ixeddaɛen
ixeddem
ixeddmen
ixedem
ixedm
ixedmen
ixedɛen
ixef
ixeld
ixelfen
ixelles
ixelq
ixelqen
ixemmem
ixer
ixerban
ixerbucen
ixes
ixesren
ixf
ixfawen
ixlas
ixlef
ixleq
ixs
ixulaf
ixuled
ixus
ixxamen
ixxeddem
iy
iya
iyanen
iyanin
iycennayen
iyedn
iyellan
iyelmanen
iyen
iyerziyen
iyet
iyi
iyid
iyin
iyit
iylalen
iylan
iylanen
iynakwaten
iynayyawen
iyufa
iyurayen
iyuɣen
iyya
iyyad
iyyuren
iz
iza
izaden
izagiren
izamulen
izan
izaradictiyen
izaran
izarazen
izawagen
izawaɣen
izaɣaren
izd
izdayen
izdeɣ
izdi
izebgan
izedɣen
izeffaren
izeggaɣen
izeglella
izegnan
izegrawen
izegren
izegriren
izegza
izegzawen
izelgen
izelman
izem
izemmer
izemmuren
izemren
izen
izenqan
izenz
izenzaren
izenzer
izer
izerf
izerfan
izerket
izerman
izermummuyen
izerrew
izerri
izerrigen
izerxfawen
izerzer
izerzren
izerɛen
izet
izetbegovic
izeɣlen
izeɣnennayen
izga
izgan
izgaren
izger
izggan
izi
izifu
iziganen
izikem
izilan
izimer
izinezren
izinzer
izinzren
izirig
izirigen
iziriyen
izlan
izli
izmal
izmalen
izmawen
izmer
izmir
izmiren
izmulen
iznagen
iznasen
iznassen
iznaten
iznatiyen
izrezren
izri
izrin
izu
izuggiren
izumal
izumbayen
izunyuren
izunɣiden
izur
izuran
izurar
izuyaz
izuɣar
izwal
izwar
izwaren
izwawen
izwel
izwer
izwilen
izzan
izzayriyen
izzayriyren
izzin
izɣad
izɣuɣ
iɛac
iɛacen
iɛaqeb
iɛawed
iɛawen
iɛawnen
iɛdawen
iɛebbad
iɛebdunen
iɛedda
iɛeddan
iɛeddi
iɛedlen
iɛeggacen
iɛeggalen
iɛejben
iɛekkuren
iɛekren
iɛemmucen
iɛemrawen
iɛen
iɛerd
iɛerred
iɛeskriyen
iɛessasen
iɛet
iɛetmanen
iɛetmaniyen
iɛewwel
iɛeyyad
iɛez
iɛezuzen
iɛezzugen
iɛezzuzen
iɛidlen
iɛiwen
iɛiwnen
iɛlayanen
iɛlayen
iɛnan
iɛraben
iɛruren
iɛsekriyen
iɛudiwen
iɛutmaniyen
iɛɛekkuren
iɣ
iɣab
iɣad
iɣalen
iɣallen
iɣanimen
iɣar
iɣarimen
iɣas
iɣbula
iɣeblan
iɣecter
iɣed
iɣef
iɣellaten
iɣelnawen
iɣelnaz
iɣelɣalen
iɣemrasen
iɣenwazen
iɣer
iɣerban
iɣerbazen
iɣerbiyen
iɣerdayen
iɣerdisen
iɣerfan
iɣerfanen
iɣerman
iɣermanen
iɣermawen
iɣernuqen
iɣerruba
iɣersagmanen
iɣersawen
iɣersiwen
iɣes
iɣess
iɣewwaren
iɣewwaɣen
iɣez
iɣezfanen
iɣezr
iɣezrawen
iɣfawen
iɣi
iɣil
iɣilasen
iɣimi
iɣir
iɣiren
iɣisanen
iɣisi
iɣiɣden
iɣlalen
iɣlanen
iɣli
iɣlin
iɣlli
iɣmaren
iɣmisen
iɣr
iɣra
iɣran
iɣrayen
iɣrem
iɣri
iɣriben
iɣrisen
iɣrmen
iɣsan
iɣsuren
iɣtasen
iɣucaf
iɣulam
iɣumaren
iɣunab
iɣuraf
iɣuraren
iɣwyal
iɣyal
iɣzer
j
ja
jabal
jaber
jac
jack
jackals
jackson
jacob
jacques
jadid
jadida
jadu
jae
jah
jaime
jakarta
jakeman
jamal
james
jamie
jan
janduba
jane
janen
january
janvier
japan
japanit
japon
japun
jaques
jar
jardin
jardins
jaune
java
javascript
jaw
jawed
jawhar
jazeera
jazz
jbara
jbel
jc
jcm
jdid
je
jean
jeanne
jebala
jebden
jebdent
jebla
jebril
jedd
jeddi
jefafna
jeff
jelfa
jemaɛ
jemɛen
jenkins
jennad
jenner
jennifer
jens
jensen
jentint
jera
jerba
jerden
jerh
jerjis
jersey
jerusalem
jesuispasse
jeudi
jeune
jeunes
jeunesse
jeux
jfalu
jibuti
jida
jijel
jims
jin
jiniral
jjaj
jjan
jjaɣ
jjin
jjuj
jjwag
jlil
jm
jmiɛ
jo
joachim
joanne
joe
joffrey
johan
johann
johannes
john
johns
johnson
jomsvikings
jon
jonas
jones
joomla
joradp
jose
joseph
joshua
jour
jourdan
journal
journals
journey
jours
jpg
jr
jrad
jrada
js
jsk
jsm
ju
juan
jubaddin
judi
jugurtha
juhadi
juillet
juin
jul
jules
julianday
julien
julius
julliard
july
julya
jump
jun
junceum
juncus
june
jung
juniperus
jupiter
jurf
juridique
jurjura
jurjya
jusqu
just
justice
justin
justinianus
justinyan
juventus
jvi
k
ka
kab
kabila
kabul
kabusa
kabyle
kabyles
kabylie
kaddour
kaf
kafr
kahina
kai
kailash
kakashi
kal
kala
kalaa
kalidunya
kalifurnya
kaliɣyula
kam
kamal
kambudya
kamel
kamirun
kan
kanada
kanadacategory
kanji
kann
kanrock
kansas
kanti
kantit
kantiyen
kar
karabax
karadzic
karbala
kardinal
karen
karia
karibi
karim
karkasan
karl
karte
karthala
karuh
kasba
kassouri
kastra
kasuri
kasyus
katagiri
katakana
katalunya
kateb
katsushima
katun
kawabata
kawaoka
kawsen
kayan
kayin
kayt
kazaxestan
kazaxistan
kcem
kcemen
ke
kebbus
kebek
kebila
kec
kecc
keccini
keccmen
kecmen
kecment
kecmet
kecmeɣ
keefe
kef
kefrida
kel
kelaa
kellxen
kelven
kelvin
kem
kemink
kemlen
kemm
kemmel
kemmi
kemmini
kemmlen
kemmlent
ken
kennedy
kennu
kent
kentucky
kenya
kenza
kenɛan
kepler
ker
kerdad
kerdja
kerma
kerraf
kesri
kessen
kestrel
ketil
ketubim
key
keywords
kfa
kg
khadra
khaldoun
khaldu
khaldun
khaled
khan
khe
kheddam
khemis
khlifa
khouribga
ki
kiang
kibik
kicut
kidal
kids
kielsen
kif
kifa
kiffan
kifkif
kigan
kiko
kill
killarney
kilogramme
kilu
kilugram
kim
kimberley
kin
kind
kinderheim
king
kingdom
kingston
kinzu
kirgizistan
kirkuk
kirya
kisun
kitaoka
kiyen
kj
kkan
kkant
kkaten
kkatent
kkawent
kker
kkert
kkes
kkin
kkra
kkren
kkrent
kksen
kkseɣ
kkuz
klenk
klerk
klin
kliyubatra
klud
klur
km
kniɣ
knoll
known
knut
ko
kobe
kody
kolloquium
kolonel
kolosyum
kong
konoha
kopenhagen
kopernik
kosovo
kossmann
kr
kra
krad
kran
kren
krim
krima
krimi
krimyu
krit
kruwatya
ksar
ksaɣ
ksen
ksent
ksila
ksir
kter
ktuber
ku
kuba
kufa
kufi
kufra
kuiken
kuiper
kukayod
kukin
kuku
kul
kulagina
kulci
kull
kullec
kulu
kulumbya
kum
kunemti
kungu
kunwi
kupernik
kur
kurdistan
kurentus
kurib
kuro
kurpfalz
kursika
kurya
kusayla
kusina
kusta
kusudama
kuz
kuzyur
kyasa
kyiv
kyoko
kyoto
kyuubi
l
la
laayoune
lab
laba
laban
labaɛda
label
labijri
laboratoire
labsara
lacoste
laden
lady
ladɣa
laevigata
lafon
lag
lagar
lagarde
lagopus
lagouira
laguiole
laguna
lah
lahbib
lahlou
lai
laighean
laimdota
lake
lakes
lakhdar
laksida
lakul
lakumazis
lakumzis
lal
lala
lalala
lalanguefrancaise
lalas
lall
lalla
lalman
lam
lama
lamaana
laman
lamarck
lamaɛna
lambe
lamer
lameɛna
lamin
lamir
lamium
lamp
lamri
lan
lancet
land
landalus
landing
lands
lang
langage
lange
langliz
language
languages
langue
langues
lanka
lannister
lant
lante
laphomic
lapologne
lar
larbaa
larbeɛa
larbi
larbɛa
lard
larebɛa
largest
larhat
larose
larousse
larry
las
lasel
lasen
lasi
lasit
lassell
lasso
last
lat
latay
later
lathyrus
latifolia
latin
latina
latinit
latitude
latomus
laudi
laure
laurent
laurier
laurus
lausanne
lavandula
lavigne
lawan
lawatin
lawen
lawi
lawin
lawrence
lawson
laxart
laxd
lay
layen
laylat
laz
lazzayer
laɛlem
laɛli
laɛmer
laɛnaya
laɛrac
laɛtab
laɛwayed
laɛyun
laɛzib
laɣwatan
lbabur
lbaburat
lbacir
lbad
lbah
lbak
lbal
lbar
lbarud
lbat
lbay
lbaylek
lbaz
lbaɣla
lbeh
lbelyar
lbenyan
lbenyanat
lber
lberg
lberj
lberquq
lberr
lbey
lbeyt
lbeyyed
lbeɛd
lbeɛdan
lbiban
lbid
lbir
lbiru
lbumba
lbumbat
lbur
lburg
lburj
lbust
lbuxari
lc
ldi
ldin
ldzayer
le
leaf
league
leb
lebayel
lebda
lebh
lebher
leblida
lebni
lebqul
lebs
lebwaqi
lebyar
lebɛid
lebɣi
lec
lechur
lection
lectronique
lectrotechnique
lecyax
lecyux
lecɣal
led
ledda
leddin
ledriq
ledwar
ledzayer
lee
lefd
leffun
lefh
lefjer
leflani
leflay
lefnar
left
leftawi
leg
legend
legliz
legniz
legrad
legrig
leh
lehdur
lehhu
lehlak
lehlu
lehmum
lehna
lehwa
leiden
leipzig
lejdid
lejdud
lejher
lejnan
lejnas
lekbir
lekbira
lekdeb
lekmal
lekniset
lekwaɣed
lekwit
lemcawr
lemd
lemden
lemdeyya
lemdeyyet
lemdiyyet
lemh
lemleh
lemmden
lemmer
lemniɛa
lemqadra
lemqam
lemr
lemrar
lemri
lemruj
lems
lemsawd
lemsin
lemt
lemtel
lemtul
lemu
lemxarda
lemɛawna
lemɛiwna
lemɣawla
len
lengliz
lentiscus
lenwar
leo
leon
leonard
leonardo
leone
leqbayel
leqbayelcategory
leqbayeltaggayt
leqbayeltezga
leqdayec
leqder
leqdic
leqdicat
leqhawi
leqlub
leqr
leqran
leqrar
leqraya
leqrun
leqs
leqsed
leqwanen
leqwanin
ler
lerbah
lerbeɛt
lerinage
leroux
lerwah
les
leslah
lesnin
lestiɛmar
leswaq
leswar
let
letemps
letis
letnayen
letnin
letniyen
letourneux
letter
lettera
letters
lettre
lettres
leucopyga
leur
leurs
leve
levyt
lewh
lewhayem
lewhi
lewis
lewisham
lewnis
lewras
lews
lewzir
lexbar
lexbarat
lexd
lexdeɛ
lexique
lexla
lexlas
lexlawi
lexmis
lexpression
lexrif
lexrub
lexs
lexsara
lexyar
lexzin
lez
lezayer
lezdayer
lezzayer
lezzayercategory
leɛfu
leɛg
leɛli
leɛlu
leɛmer
leɛmr
leɛmum
leɛnaya
leɛqed
leɛqel
leɛr
leɛrac
leɛrayyed
leɛruc
leɛtab
leɛwacer
leɛwayed
leɛyun
leɛzib
leɣlad
leɣna
leɣrament
leɣwat
lfakya
lfarh
lfattih
lfayda
lfed
lfekra
lfen
lfenn
lfer
lferh
lfet
lfiraq
lfirma
lfud
lg
lgasrin
lgaz
lget
lgirra
lh
lhal
lhamel
lhan
lhara
lhend
lherma
lhewwari
lhiba
lhid
li
lib
liban
libani
libe
liber
liberte
liberty
liberya
libidus
libraires
librairie
library
libre
libya
libyacategory
licence
lidrisi
lie
liechtenstein
lien
liens
lieu
life
liffey
lig
light
ligne
ligue
lih
like
lil
lila
lili
liliopsida
lilium
lille
lim
lima
limam
limamat
liman
limar
limara
limarat
limer
limerick
limites
limus
lin
linaria
linda
line
linear
linegrey
lines
lingliz
lingua
linguistes
linguistique
link
links
linnaeus
linne
lint
linux
lion
lions
lire
lis
lisa
lisabeth
lisbonne
lisbun
liser
liseron
lislam
list
liste
listed
listiɛmar
lit
lite
literature
litra
litt
litte
little
litwanya
liu
live
livorno
livre
livres
liya
liyebert
liyen
liyi
liyin
ljal
ljameɛ
ljehd
ljemɛa
ljib
ljil
ljir
lka
lkaf
lkanun
lkarimeyya
lkart
lkas
lkaɣed
lkerma
lkest
lkir
lkuca
lkumba
lkur
lkuraj
lla
llah
llama
llan
llant
llaz
lle
lleft
llezzayer
lli
llin
llint
llisi
lliɣ
llsas
llufan
llufanat
llum
llun
lluz
lluzin
lluzinat
llzan
lma
lmadina
lmahdi
lmajen
lmajister
lmakla
lmal
lmanga
lmarikan
lmarruk
lmasih
lmasin
lmaɛna
lmdina
lmecta
lmeg
lmeh
lmehdi
lmektub
lmelh
lmelk
lmend
lmendad
lmens
lment
lmenzel
lmeqqrani
lmeqrani
lmer
lmerg
lmerj
lmerruk
lmers
lmersa
lmerta
lmes
lmesk
lmesɛud
lmeɛna
lmina
lmir
lmiser
lmitra
lmitrat
lmizan
lmudda
lmug
lmuh
lmuhub
lmuja
lmulud
lmuludeyya
lmumin
lmumnin
lmur
lmus
lmusiqa
lmut
lmuta
lmuziga
lmuɛezz
lmɛarif
lmɣr
ln
lne
lner
lo
loach
local
localization
localize
loce
lochner
log
logiciel
logo
loi
loin
loir
loire
loiret
loisirs
london
londres
lonely
long
longicaudatus
longitude
longue
lonicera
lord
loreen
lorenzo
lors
los
lotier
lotus
loudspeakers
lough
louis
louise
louisiana
lounes
lounis
louvre
love
lower
loxodonta
lp
lpari
lqad
lqader
lqahir
lqahira
lqahwa
lqalus
lqanun
lqarmud
lqarn
lqasem
lqay
lqayed
lqayen
lqaɛ
lqaɛa
lqaɛida
lqbayel
lqebt
lqec
lqed
lqedd
lqeddafi
lqehwa
lqella
lqelɛa
lqem
lqent
lqerb
lqerh
lqern
lqes
lqewwa
lqibla
lqima
lqrun
lquds
lqut
lquyyad
lsan
lsas
lt
lu
lublin
lubnan
lucius
lud
ludwig
luffy
luh
luis
lukan
lukas
lul
lula
lulen
lulu
luluf
lum
lumbiskad
lumie
lummeɣ
lumur
luna
lunar
lunawsi
lundi
lundun
lune
lung
luni
lunis
lupinus
luran
luras
lurup
luscinia
lustr
lusyus
lut
lutea
luteola
luxembourg
luzin
lvali
lvut
lwad
lwag
lwah
lwahid
lwaldin
lwali
lwalid
lward
lweh
lwelg
lwelha
lwennas
lweqt
lwert
lweswas
lweɛran
lwilaya
lwis
lwiz
lwiza
lxalat
lxalif
lxalifa
lxalil
lxecna
lxed
lxedma
lxelq
lxemsa
lxers
lxet
lxid
lxilaf
lxilafa
lxiq
lxir
lxuf
lxulafa
lyaman
lyanna
lyazid
lybica
lyce
lycium
lycos
lyes
lynda
lynx
lyon
lyut
lzayer
lzzayer
lɛabidin
lɛada
lɛaddat
lɛahed
lɛali
lɛamda
lɛar
lɛarbi
lɛarc
lɛas
lɛasker
lɛatac
lɛbid
lɛebbas
lɛebd
lɛecc
lɛefya
lɛehd
lɛellegeyya
lɛelma
lɛemr
lɛenqa
lɛenqis
lɛer
lɛerbi
lɛerc
lɛersker
lɛes
lɛeskar
lɛesker
lɛeslama
lɛessa
lɛib
lɛid
lɛin
lɛins
lɛinser
lɛiraq
lɣaci
lɣar
lɣebn
lɣella
lɣellat
lɣerb
lɣerba
lɣezlan
lɣurba
lɣwerba
m
ma
maa
maamar
maarten
mac
maca
macci
macdonald
machi
machine
maci
mack
macmillan
maculata
maculatus
mad
madagascar
madagaskar
madame
madani
madden
made
madeleine
madeyya
madi
madina
madison
madoka
madonna
madrid
maduc
madɣis
maerua
mag
magal
magazine
magellan
maggren
maggu
maghre
maghreb
magic
magical
magne
magnetic
magnitudes
magnoliopsida
magu
mah
mahdi
mahun
mai
maillard
maillot
main
maine
maior
mais
maison
maisonneuve
majar
major
majus
mak
makawsen
makemake
makes
makhlouf
maksimyan
makuda
mal
mala
malacoides
malade
malaga
malala
malawi
malaysia
malcolm
male
malek
malen
malh
mali
malik
malika
malizya
mall
malla
malline
malt
malta
malte
malti
malu
malva
mam
mama
mamar
mamer
mami
mammal
mammar
mammeri
man
mana
management
manchester
mandela
mandelyiv
mane
manen
manga
mangellat
mangulya
manhattan
mani
manifestants
manifestation
manit
mans
mansour
mansouria
mant
mantidae
mantis
mantodea
manu
manual
manuel
many
manyogana
map
maplandia
maps
mar
mara
maradona
marcel
march
marche
marco
marconi
mardi
mare
margam
margarita
margin
margot
marguerite
maria
mariah
marianum
marical
marie
marikan
marin
marina
marine
mariner
mario
maritima
maritime
maritimes
maritimus
marius
mark
markaz
marko
marks
markus
marlene
marne
maroc
marocain
marque
marra
marrakech
marrubium
mars
marsa
marseille
marseilles
marshall
marsil
martha
martin
martina
martinez
martyrs
maruk
marx
mary
marya
maryland
marzo
marzuqi
mas
masensen
maser
masgab
masi
masiba
masibsa
masibsen
masidunya
masilya
masin
masindunya
masinisa
masisilya
maskuzil
masnsen
masovian
maspero
mass
massa
massiba
massinissa
massinu
massnsen
masst
mast
mastanabal
mastenbaɛl
master
masters
masteɛbar
mastiɣas
masuna
masunas
mat
mathbb
mathe
mathematicae
mathematischen
mathers
mathrm
maticien
matie
matin
matique
matiques
matite
matoub
matrosovich
matsuzaki
matt
matter
mau
mauer
maupassant
maures
mauresque
mauretania
maurice
mauritanie
mauve
max
maxammad
maxi
maxima
maxluf
may
maya
mayan
mayella
mayen
mayer
mayu
mayyu
maz
mazal
mazel
mazesel
mazibba
mazis
mazisil
maziɣ
mazuka
mazukan
mazzer
maɛemmer
maɛmar
maɛna
maɛt
maɛuc
maɣrib
mbarek
mbaɛd
mbaɛid
mbeɛd
mbio
mbla
mbox
mbs
mc
mca
mcb
md
mdiya
me
mebazɛa
mebla
mebɛid
mechanisms
mechtras
mechur
mechuren
mechuret
meckent
mecreyya
mect
mecta
med
medden
meddensite
meden
media
mediawiki
medical
medlen
mednin
medyen
meft
meftah
meg
megadeth
megdit
meggzen
megrar
megres
meh
mehdeyya
mehdi
mehenni
mehri
meilleure
meister
meisters
mejber
mejjir
mekbel
mekka
mekken
meknas
mekne
meksa
mel
melanocephala
melba
melbourne
melia
melissa
melitensis
mellah
mellal
mellil
melloul
mellul
mellulen
mellulit
melmi
melwan
melwit
melyun
mem
membre
membres
meme
memmi
memorial
memphis
men
menad
menceyato
mencia
mendas
mendel
mendil
mengellat
mengellet
mengistu
menguellat
menguellet
mennad
menquc
mens
mensonge
mensour
mensur
ment
mentha
menthe
ments
menu
menwala
menzel
menzu
menɛen
menɣir
meqbel
meqlaɛ
meqqar
meqqer
meqqr
meqqran
meqqren
meqqret
meqqwert
meqran
meqren
mer
mercedes
mercier
merck
mercredi
mercurialis
meriones
merkur
mernuyet
merr
merra
merrakec
merrok
merruk
merrukcategory
mers
merveilles
meryem
merz
mes
mesbah
mesili
meskin
meskint
meslayen
mesly
mesocricetus
message
messali
messaoudi
messar
messus
mest
mestanususus
mestre
mestɣanem
mesure
mesɛud
mesɛudi
met
meta
metal
metallica
metellus
metro
mettijet
mettɛemmed
meuleman
mexico
mexluf
meyer
meyya
meyyzen
mez
mezdad
mezdur
mezwara
mezweɣ
mezyan
mezzay
mezɣenna
meɛlula
meɛna
meɛnas
meɛt
meɛtub
meɣres
meɣɣren
mg
mgal
mgaraden
mgaradent
mgun
mh
mhenni
mhidi
mhnt
mhz
mi
michael
michel
michelangelo
michelet
michigan
micli
microbiol
microformat
microordo
microsoft
mid
midan
midar
midden
middle
middn
midisinas
miduc
midun
mie
mifanyas
miguel
mih
mikasa
mike
mikhail
mikr
miksik
mil
mila
milan
milano
milchstraße
mile
milione
militants
military
mille
miller
milne
milt
mimi
mimoun
mimun
mimuna
min
mina
mind
mine
minh
ministe
ministre
minnesota
minor
minoritaires
minorite
minuit
minute
minya
mique
mir
mira
mirabeau
miramar
miranda
mirbeau
mirza
mis
mise
misin
misipsa
miskawayh
mission
missionnaires
mississippi
missouri
mist
mit
miter
mitra
mitun
miyy
miz
mizar
mizrana
mizuta
mjezz
mk
mkan
mkul
mkull
ml
mla
mladen
mlah
mlal
mlalen
mlen
mlih
mlikec
mlilen
mlilt
mm
mmagen
mmalen
mmalent
mmed
mmektin
mmeslayen
mmeslayent
mmeslayeɣ
mmi
mmis
mmit
mmlen
mmugen
mmugent
mmugren
mmur
mmuten
mmɣen
mnas
mnayel
mnba
mnid
mo
mobile
moc
moce
mocratie
mocratique
mode
modern
moderne
module
moerner
mogador
moh
mohamed
mohamme
mohammed
mohand
moi
moindres
moire
mois
mokrani
mole
molecular
molie
molles
mollis
mon
monaco
monde
mondeberbere
mondial
mondiale
monica
mono
monogyna
monosexuality
monospace
mons
monsieur
monster
mont
montagne
monte
montenegro
montesqiueu
montesquieu
monthdays
monticola
montpellier
montre
montreal
montsoreau
moon
moore
morale
morales
morbihan
more
morituri
morocco
moroni
morphologie
morphology
morris
mort
morte
morts
moscow
moser
mosku
moskva
mosque
mosques
most
motacilla
moteur
motion
mots
moudjahed
moudjahid
mouffok
mouggar
moulay
moulie
moulin
mouloud
mountain
mourad
moussa
moussi
mouvement
mouzaoui
moves
movie
moyen
moz
mozart
mr
mrabt
mrah
mraw
mrez
mrin
mrirt
ms
msebran
msed
msefhamen
msefhament
msegman
msegrawen
msidi
msila
mt
mtawan
mtig
mtld
mu
muc
muca
mucarraf
mucaɛ
mucaɛen
muci
mud
muden
mufdi
muffuk
mugadur
muh
muhammad
muhend
mula
mulac
mulay
muldavya
mule
muleshul
multi
multilingual
multiple
mulud
mumen
mummu
mun
munaku
munastir
muncen
mungaka
mungulya
munich
municipalite
munika
munsef
munster
muqaddima
muqel
muqlent
muqleɣ
muqqel
muqren
mur
murad
muraki
murakuc
murale
murasaki
muret
muretanya
muricatus
muridae
murit
muritanya
murphy
murray
murs
murzuq
mus
musa
muscardinus
muscari
muscicapa
muscles
musculus
muse
museo
museum
musi
music
musicien
musier
musin
musique
musku
muslim
must
mustafa
mustapha
mustela
musulman
musulmans
mut
mutation
muten
mutten
muzambik
muɛawiya
mw
mxalad
mxallafen
mxallafent
mxelleɣ
my
mya
myal
myarawen
mykonos
myrtus
mysql
mystery
mythe
myussanen
mz
mzab
mzayen
mɛammer
mɛatqa
mɛemmar
mɛemmer
mɛemmri
mɛemri
mɛesker
mɛetqas
n
na
naaman
nabdalsa
nabel
nabels
nabil
nabti
nabulsi
nacalco
nace
nacib
nacional
nad
nadal
nadder
nader
nadi
nadia
nadin
nadir
nador
nadya
naf
naff
nafiɛ
naftali
nag
naga
nagai
nagasaki
nagen
nagt
nagurnu
nahyan
nai
nairobi
naissance
nait
najah
nakamura
nalar
nalut
nam
name
names
namib
namibya
nan
nana
nancy
nang
nanna
nant
nanterre
nantes
naples
napole
napoli
napuli
naqal
naqd
nar
nara
narabas
narbonense
naru
naruto
nas
nasa
naser
nasib
nasr
nassim
nasturtium
nat
nation
national
nationale
nationalite
nations
native
nato
natrix
naturae
natural
nature
navarra
navarre
nawal
nawi
nayen
nayet
naz
naɣ
nbeddel
nbi
ncbi
ncipe
ncov
nd
ndeg
ne
near
nebd
nebder
nebdu
nebiyim
nebɣa
nebɣu
nec
neccin
necfa
necfu
necliɛ
necrah
ned
nedda
neddem
nedder
neddu
nedjma
neffeɣ
nefhem
nefk
nefka
nefren
nefreq
nefɛen
neg
negh
negra
negren
negrent
negrin
negzi
negzu
neh
nehwag
nejmeɛ
nek
nekcem
nekk
nekkes
nekkini
nekkni
nekkur
nekni
neknu
nekren
nekwni
nella
nelli
nelson
nemel
nements
nemmeslay
nemmut
nemyusan
nen
nengir
nenna
nenni
neophron
nepal
neq
neqbil
neqqar
neqqen
neqqim
neqsen
ner
nerfed
nerium
nerna
nernu
nerr
nerra
nerrez
nerwel
nes
nesh
nesla
nesli
nesmekti
nesn
nesnulfu
nessawad
nessawal
nessawed
nessemres
nessen
nesseqdac
nesseqdec
nessin
nessken
nest
neswi
nesɛa
nesɛi
nesɛu
net
netmaɣra
netta
nettaf
nettaru
nettat
nettgen
netth
nettini
nettmagar
nettmeslay
nettu
nettwad
nettwaggez
nettwali
nettwassen
network
neuilly
neumayer
neuraminidase
nevada
neves
new
newara
newchapel
newham
news
newton
newwara
newwed
newwet
newwi
newwid
nexdem
nextmonth
nez
nezeh
nezfen
nezla
nezmar
nezmer
nezmir
neztta
nezwi
nezzah
nezzeh
nezzi
neɛlim
neɛma
neɛman
neɛred
neɛya
neɣ
neɣri
nfak
nfan
nfaq
nfufden
nfufdent
ng
ngar
ngc
nger
ngijol
nh
ni
nia
niamey
nicaragua
nice
nicholas
nicola
nicolas
nicolle
nid
nidden
niden
nie
nif
nifa
nifra
nig
nigella
niger
nigeria
night
niglichen
nigra
nigsberg
nijer
nijir
nijirya
nikola
nil
nili
nilo
niloticus
nils
nin
nina
nini
ninni
nipal
niptun
niqal
nirun
nishimura
nissin
nit
nitenti
nitni
niveau
niveaux
nizar
niɣ
njeck
njock
njoya
nkennu
nl
nli
nmuqel
nn
nna
nnad
nnan
nnant
nnas
nnayeb
nnaɣ
nnaɣen
nnbi
nnda
nnefs
nneh
nnejmaɛen
nnekwa
nnem
nneqma
nneqmat
nnernan
nnes
nnesba
nnesen
nneyya
nneɛma
nneɛneɛ
nneɣ
nnfaq
nnfeɛ
nnfid
nnger
nni
nnid
nniden
nnif
nnig
nnijer
nnil
nnill
nniya
nniɣ
nns
nnsen
nnsent
nnuba
nnulfan
nnulfant
nnulfun
nnur
nnuɣen
nnɛama
no
noam
nobel
nobilis
nobusawa
noces
noflip
noir
noire
noires
noisy
nom
nomades
nombre
nombres
nomme
noms
non
none
noord
nopel
nopode
nord
nore
norma
normal
normale
normandie
north
northern
nos
not
notamment
note
notes
notice
notification
notoc
notre
noufel
noureddine
nous
nouveau
nouvel
nouvelle
nouvelles
nova
novak
novel
novella
november
novembre
novo
now
nowrap
nqebbel
nr
nra
nruh
ns
nse
nsel
nsell
nsemma
nsen
nsent
nsern
nsers
nsn
nsour
nsync
nt
ntett
ntettu
nu
nubel
nubil
nudan
nuddam
nudder
nudin
nueva
nuevo
nufa
nufel
nufi
nuh
nuit
nuja
number
nume
numeric
numero
numides
numidia
numidica
numidie
numidya
nun
nunber
nunika
nur
nura
nurdin
nureddin
nuredin
nuriya
nurwij
nussa
nutenti
nutni
nuw
nuwember
nuwembir
nuɣ
nuɣal
nuɣen
nwad
nwala
nwali
nwamber
nwaqcut
nwar
nwarra
nwember
nwen
nxeddem
nxemmem
nz
nzan
nzellu
nzemmer
nzzelu
nɛedda
nɣ
nɣan
nɣant
nɣen
nɣer
o
oas
oasis
obama
obekkad
objet
obligatoire
obstacle
obtention
oc
occident
occidental
oce
ocimum
oclc
oct
octave
october
octobre
ocymastrum
od
odat
oder
odorante
oedipus
oenanthe
of
ofalac
ofant
ofella
office
official
officiel
officielle
officielles
officinale
officinalis
oft
ographie
ographique
ogresse
ohio
ohizumi
oiamel
ois
oise
oiseaux
oklahoma
old
olea
oleander
oleraceus
oliver
olivier
ologie
ologique
ologiques
olusatrum
olympia
omad
omar
ome
omega
on
one
online
only
onopordum
ons
ont
ontario
onu
ope
open
opera
ophrys
opium
optional
optionnel
opuntia
or
oracle
oran
orchestre
order
ordo
ordre
ore
oregon
orf
org
organisation
organization
orie
oriental
orientation
origami
origanum
original
origine
origines
oriolus
orion
orle
ornithogalum
oro
orsay
ortelius
orthomyxoviridae
os
osad
osaka
osasko
osborne
oscar
oseille
oslo
osmunda
osterhaus
osyris
otan
other
otohim
ottawa
ou
ouadhias
ouargla
ouarsenis
oubagha
oublie
oued
ouest
oufella
oukaci
oulad
ould
ouled
oum
our
ourdjouzate
oussaih
out
outbreak
outbreaks
outer
ouvertures
ouzou
over
overflow
overlook
ovic
owen
oxalis
oxford
oxycedrus
p
pa
pablo
pacific
pacte
padding
page
pages
pags
pain
paix
pakistan
palacios
palais
palazzo
palerme
palermu
palestine
palistin
pallas
palma
palustris
panama
panda
pandemic
panicum
panoramio
panthe
panthera
panza
paolo
papaver
pape
papers
papua
par
paradoxe
paraguay
paragway
parainfluenza
param
parame
parameter
parameters
params
pardus
pari
paris
park
parlement
parler
parlers
paronychia
part
partement
parti
partie
partis
partners
pas
pascal
paskal
passe
passer
pastafarian
pasteur
pastoris
pathe
pathogenesis
patrice
patrick
patrimoine
patrono
paul
pays
paysages
pb
pc
pcf
pcr
pdf
pe
peace
pecasso
pecten
pedro
peeters
peganum
peine
peintre
peintres
peinture
pekin
pele
pelecanus
pen
penchoen
pendance
pendant
pendante
pengo
pennsylvania
pense
penser
pentecostalism
people
per
percnopterus
perdix
perestroika
performance
perga
period
permanent
permet
permettent
permission
perrin
person
pertoire
peru
pervez
pes
peste
pestis
peter
petersburg
petit
petite
petr
petroselinum
peuple
peut
peyrefitte
ph
phagnalon
phalacrocorax
phalaris
phane
phantom
phe
phellinus
phenomenon
phil
philippe
philips
phillyrea
philosophical
philosophie
philosophiques
phlomis
phoenicea
phoenix
photoshop
php
phragmites
phrase
phylloscopus
phylogeny
phylum
physics
physiologie
physique
pi
piaf
picasso
pie
piece
pied
pierre
pillu
pimpinella
pine
pineux
pink
pioneer
piru
pisa
pise
pisodes
pistacia
pital
pitch
pixel
piza
pl
place
plage
plaisir
plan
planet
planetary
plantago
plantain
plantes
plantilla
plasma
plate
platini
platon
platz
play
plaza
please
pleurisy
pleuritis
plon
plos
plotdata
plotin
pluie
pluriel
plus
plusieurs
plutu
pm
pmc
pmid
pnas
png
po
poa
pocket
poe
poem
poetry
point
points
poison
poitiers
poitou
polandball
police
policier
polimiraz
political
politique
politiques
polium
pollandball
pollock
polnareff
polo
polska
polverel
polygonum
pompeius
pompidou
pont
pontevedra
poor
pop
populaire
populaires
popular
populat
population
populations
populus
por
porchaire
pornichet
port
portail
porte
portes
porto
portrait
portugal
pose
position
posse
possess
possession
possible
postal
poste
posthume
potsdamer
pouillot
pour
poutine
pouvoir
power
pp
ppa
ppe
ppen
pr
prag
prague
praha
prairie
prasse
prayer
pre
predefinic
premie
premier
premium
presence
press
presse
presses
pression
preuves
prevention
previousmonth
previousmonthabbrev
previousmonthdays
previousmonthiso
previousmonthname
pri
primaire
primary
prince
principe
principes
principle
printemps
prison
prive
privile
prix
prize
pro
proble
proce
proceedings
prochaine
production
professeur
profil
profile
program
programmation
programme
programmes
programming
project
projet
projets
propos
proposal
propose
proposer
prose
proto
provence
provide
provided
province
provinces
prunus
ps
psalms
psammodromus
psdb
pseudosimilis
psg
pt
pubescens
publ
public
publicain
publication
publications
publicite
publique
publishers
puffin
puis
pullata
pulunya
puma
punk
purpose
purtugal
putorius
puławy
px
pycnonotus
pygme
pyramid
pyre
pyrethrum
pyrrhula
q
qa
qabel
qablen
qad
qada
qader
qadirub
qadr
qadri
qaem
qamar
qan
qar
qara
qaren
qarn
qarren
qart
qas
qasem
qasi
qasit
qassaman
qat
qayrawan
qays
qayser
qaɛ
qbayli
qbel
qbilen
qebbani
qebblen
qeblen
qebleɣ
qebrin
qedcen
qeddcen
qeddcent
qen
qennic
qennɛen
qer
qerbeb
qerreb
qerrih
qert
qertaj
qes
qessih
qet
qeys
qeyseriya
qi
qif
qim
qimen
qis
qlibya
qlil
qnit
qqar
qqaren
qqarent
qqarn
qqazen
qqer
qqim
qqimen
qqiment
qqimeɣ
qqimmen
qqlen
qqlent
qqnen
qqnent
qqren
qquren
qqwan
qranit
qrib
qs
qsent
qu
quand
quarter
quartier
quateur
quation
quatoriale
quatre
qublay
qublen
qubrus
qudren
que
queen
quelques
quercus
query
ques
question
questions
qui
quilibre
quintus
quoi
quote
quotidien
quqaz
qur
qureyc
qurs
qustent
qut
qwan
r
ra
rab
rabah
rabat
rabbi
rabeh
rabels
raben
rabenna
rabiɛ
rabiɛa
rables
rabt
race
raced
rachafatcinema
rachid
racid
racines
rad
rada
radat
rades
radiata
radio
radium
radius
radyu
raetam
raf
rafael
raffles
rafin
rafiq
raft
rag
ragen
rah
rai
raire
raires
raison
raka
ral
rale
ralement
rales
rallye
ralya
ram
ramadan
ramberg
ramd
ramdane
rammast
ramus
ran
rana
randlett
randolph
ranen
range
ranin
rant
ranunculus
rap
rapid
rapport
rart
ras
rasmussen
ratar
rates
ration
rature
raux
ray
rayen
rayes
raymond
rayn
raz
rbah
rbat
rbiɛ
rcd
re
read
reader
reading
real
reason
reb
rebbh
rebbi
rebelle
rebh
rebhen
rebrab
rebɛa
rebɛin
recensement
recentiores
recherche
recherches
records
rect
recueil
red
redbubble
redirecttalɣa
redoublent
redoute
ref
refden
refdeɣ
reference
reffu
reflections
refuge
reg
regalis
regglen
reggmen
regiae
regione
regions
reglen
regnum
regrag
reh
reine
rek
rekis
rekku
relation
relations
relative
religieux
religion
rembrandt
remd
remdane
remiz
remove
remt
ren
renaissance
rence
rences
rene
reng
rennes
rennun
rent
rentre
repens
report
reports
repre
reprint
repu
republic
republika
reqqmen
required
rer
res
research
researchgate
reseda
resources
respectives
respiratory
result
results
retama
rethinking
retour
retourne
retrieved
return
reunion
rev
reverse
review
revue
rewlen
rewlent
reykyabik
rez
rezzun
rfan
rg
rgb
rgen
rh
rhaegar
rhamnus
rhe
rhein
rho
rhode
rhus
ri
ria
riales
ribes
ribublik
ric
rica
ricen
rich
richard
richards
richmond
rickard
rid
ridan
riddick
ride
rie
rien
rienne
riennes
riens
rieur
rif
rifa
rig
riga
right
rigin
rigt
rih
rihanna
rika
rilew
rim
rime
rimmelzwaan
rin
rine
ring
rinides
rint
rio
riq
rir
ris
risen
risin
risk
rislan
rist
ristiques
rit
rita
riu
river
riwin
riwt
riyad
riyen
riyin
riz
rizal
riɣ
rms
rn
rna
rnan
rnant
rni
rniɣ
rnu
rnun
rnuɣ
ro
robb
robbins
robert
robertianum
roberto
robin
roble
robot
rocher
rochers
rocite
rock
rockstar
rocky
rodin
rodrigo
roger
roi
roland
rolland
rom
roma
roman
romanae
rome
ron
ronald
ronde
rondon
roots
rorippa
ros
rosa
rose
roseau
rosmarinus
ross
rou
rouen
rouge
rougon
rouleau
rousseau
rousseff
rowspan
royal
royale
royaume
royaumes
rozendaal
rqiq
rqiqen
rr
rradyu
rran
rrant
rras
rrasul
rray
rrayat
rrbeh
rrcil
rrebi
rrebrab
rregmat
rreh
rrekba
rren
rres
rrez
rrif
rrih
rrin
rrisent
rriɣ
rruh
rruman
rrus
rruss
rrwa
rrwah
rrwiba
rrz
rrɣaya
rs
rsen
rsent
rstb
rt
rta
rtf
ru
ruba
ruber
rubin
rubrique
rubus
rucd
rue
ruf
rufan
rufen
rufin
ruft
rugatinus
rugby
ruh
ruisseau
rul
rules
rum
ruma
ruman
rumanya
rumex
rumi
run
rungi
rurale
rusalem
ruscus
russell
rusya
rut
ruta
ruth
rutt
ruy
ruyen
rwa
rwanda
rwiced
rwin
rwitt
rz
rzan
rzi
rzin
rɣan
rɣant
s
sa
saa
saada
saadi
saami
sab
sabat
sabaw
saben
sablier
sadako
sadat
saddu
sadeq
sadi
safaylu
safi
saga
sage
sah
sahara
saharienne
sahariens
sahel
sai
said
saint
sainte
sakamoto
sakin
sakk
sakkin
sakun
sakura
salah
salam
salbina
saldae
sale
saleh
salem
salembier
salesforce
salim
salima
salix
salle
salluste
salon
salvador
salvadur
salvia
sam
sambucus
same
samedi
sami
samir
samira
sammak
samuel
san
sancu
sand
sandbox
sang
sani
sans
sansa
santa
santander
santi
santiago
santos
sanwi
sao
sapiens
saponaria
saqi
sar
sara
sarah
sarajevo
sarameɣ
sardinya
sarkozy
sarmen
sars
sas
sasi
saskac
saskan
sasuke
sat
satellite
satellites
sativa
sato
saturn
satyarthi
saussure
sauvage
savana
savoir
sawalen
sawd
sawlen
say
sayg
sayib
sayyid
saɛd
saɛda
saɛdellah
saɛdi
saɛed
saɛid
saɣru
sb
sbah
sbanen
sbanya
sbaytla
sbedden
sbegnen
sbeh
sbenyul
sbeyynen
sbeɛden
sbin
sbit
sblyun
sbt
sbu
sc
scales
scandix
sce
schneeberger
schobert
schubert
schumann
schwarz
schwarze
sci
science
sciences
scientiarum
scientific
scientifiques
scincus
scirpaceus
sco
scolaire
scolymus
scorpiurus
scorzonera
scream
screen
screw
sd
sdat
sdaxel
sdeffir
sdiden
sdis
sdukklen
sduklen
se
sea
seals
sean
search
seattle
seb
sebastian
sebba
sebh
sebt
sebta
sebɛa
sebɛin
sec
secre
secteur
sectio
section
sed
sedan
sedda
seddaw
seddiq
seddiqi
seddis
sedduq
sedia
sedqa
sedum
see
sefra
sefru
seg
seggas
segm
segmi
segwas
segwasen
seh
sehlen
seine
sejjnan
sekcem
sekka
sekles
seknen
sekren
sekrent
seksu
sel
seld
self
sellam
selleɣ
selliɣ
sellken
selon
selsius
selt
sem
semaine
seman
semara
semman
semmd
semmed
semmeh
semmet
semmh
semmi
semmin
semmt
semmus
sempervirens
semɛun
sen
senbazuru
send
senecio
sened
senegal
sennig
senniɣ
sens
sent
sentation
sente
senzen
senzwan
seoul
sept
september
septembre
seqdacen
seqdacent
ser
sera
serbah
serbantes
serbi
serbya
serg
serguei
serh
seridis
serie
series
serpyllum
serrh
sers
sersen
sersent
sersour
sert
server
serveur
service
services
serɣen
serɣin
ses
sessions
set
setta
setten
setti
seuil
seul
seven
several
severe
sewjaden
sewwayen
sexage
sexdamen
sexual
sexxi
seychelles
seylan
sezg
seɛdi
seɛɛu
seɛɛun
seɣlin
sfa
sfenbeɛl
sfilliten
sfisef
sfuggulen
sfugulen
sfullh
sfulluh
sg
sgensisen
sgensisent
sghir
sgi
sh
shadow
shady
shah
shahnez
shahr
shakespeare
shanghai
shanks
shannon
shaw
she
sheet
sheets
shell
sheng
shi
shift
shikibu
sho
shoji
short
should
show
shuji
si
sibaw
sibbus
sibirya
sibyun
sic
sicilia
sid
sida
side
sidence
sident
sidi
sidna
sie
siecle
sierra
sies
sif
sifaks
sifaw
sifiryana
signatures
signe
sil
silence
silene
silikat
silini
sillero
silva
silvestris
silyana
silybum
sima
simal
simales
simantennes
simbad
simi
similar
simma
simmal
simmons
simo
simon
simoun
simple
simplement
sin
sina
sinapis
sinay
sindbad
singapur
singles
sinigal
sinik
sinima
sinna
siprage
sir
sirbya
siridaɣ
sirk
sirt
sirta
sirwa
sirya
sis
siserun
sisilya
sistance
sisymbrium
site
sitta
situe
siw
siwa
siwd
siwel
siwen
siwr
six
siya
siyen
sizar
size
sizes
sizing
sjabloon
sk
skarayen
skaren
skecmen
skelsen
skender
skibyun
skikda
skin
skink
skud
skundinavya
skutland
skutlanda
skype
sla
slabel
slam
slama
slan
slant
slayer
sleh
slemden
slen
slid
slim
sliman
slimane
slimani
sliɣ
sluvakya
sluvinya
smah
smala
small
smaɛel
smaɛil
smektayen
smekti
smenyafen
smil
smilax
smilen
smith
smmus
smus
smyrnium
snake
snat
sned
snegren
snekren
snen
sneqsen
snernan
snernin
snet
snin
snitra
snow
snrt
sntf
snulfan
so
social
sociale
sociales
socialiste
sociaux
socie
societatis
society
sociologie
sofia
sofiane
sofitel
soft
software
soir
soit
solanum
solar
soleil
solid
some
somme
son
sonchus
song
songs
sonnets
sonora
sont
sophie
sophocles
sophonisba
sophonisbe
sophonisbev
sorbonne
sorghum
sortie
sorting
sos
souci
souk
soule
souls
soummam
sound
source
sources
sous
south
southern
souvent
sp
space
spaghetti
span
spanya
spanyacategory
spanyul
spe
species
specified
specify
spectacle
speedy
spencer
spenyul
sphagnum
spicata
spinosa
spinus
spip
spitzer
split
spontane
sport
sportif
sporting
sportive
springer
spruce
sq
sqedcen
sqedcent
sql
sqrt
square
sr
srabes
srayer
sreh
srewlen
sri
srid
ss
ssa
ssadat
ssah
ssalima
ssalin
ssaramen
ssarameɣ
ssarmen
ssarsen
ssawad
ssawalen
ssawd
ssawlen
ssawt
ssaxlen
ssaxwlen
ssaɛa
ssaɛid
ssbeh
ssbiɣa
sseba
ssebba
ssebbat
ssebs
ssebt
ssed
ssef
ssefran
ssegrewen
ssegzun
sseh
ssehala
ssekcem
sseknen
sselh
sselmaden
sselt
sselɛa
ssem
ssemman
ssemmar
ssemmayen
ssemrasen
ssemɛukker
ssemɛukkur
ssendu
ssenf
ssenzen
sseqdacen
sseqdacent
sser
ssersen
ssersent
sserɣayen
sserɣen
ssesmilen
ssexdamayen
ssexdamen
ssexdament
ssexs
sseɛd
sseɣlin
sseɣren
ssh
ssi
ssiba
ssidren
ssif
ssifa
ssiliɣen
ssimra
ssin
ssinen
ssinima
ssirilik
ssirk
ssissnen
ssiwd
ssiwlen
sskanayen
ssknen
sslah
ssmah
ssmara
ssnen
ssqef
ssr
ssrusayen
ssrusayent
sstut
ssu
ssudan
ssufeɣ
ssuffuɣen
ssuffɣen
ssufuɣen
ssufɣen
ssulin
ssuma
ssunna
ssuq
ssur
ssusem
ssusmen
ssut
ssuteren
ssutren
ssuttren
ssuturen
sswayeɛ
sswid
sswis
ssya
ssyin
ssɛaya
ssɛeddan
ssɛida
st
sta
stachys
stack
stade
stadtpatrone
stages
stakard
stamitz
stanbul
stand
standard
standardisation
standards
stannis
star
stark
starmont
stars
start
state
stations
statistics
statistique
statistiques
stats
statue
status
statut
stauffenberg
staɛmren
ste
stech
stefan
stefanovic
stellaria
stenyan
stephan
stephen
sterd
sterilis
steve
steven
stevens
steɛmren
steɛr
steɛrben
steɛrfen
steɛrifen
still
stivell
sto
stockholm
stoltenberg
storm
stormlands
story
straight
stramonium
strasbourg
straujuma
streaming
street
string
stroop
structure
structures
stub
studi
studies
studio
study
stukulm
sturnus
stutzas
style
styles
su
suaveolens
sub
subclassis
subdivisio
suber
subfamilia
subforma
subgenus
subordo
subphylum
subregnum
subsectio
subsp
subspecies
subst
subtribus
subvarietas
sucre
sud
suda
sudad
sudan
suduku
sufel
sufell
sufella
suffruticosa
suffɣen
sufines
sufya
sufyan
sufɣen
sugawara
suhag
suicide
suite
suivi
sujet
sula
sulaimaniya
sulen
sulfen
sulfentid
sulla
sultats
sulukat
sulumun
sumam
sumat
sumata
sumer
summam
summary
summer
sun
sunday
sung
sungay
sunset
sunta
supe
super
superdivisio
superfamilia
superficie
superior
supernova
superordo
superphylum
superregnum
suppl
supplices
supported
suq
sur
sura
surface
surfaces
surinam
suriname
suriya
surre
surrey
surt
surveillance
survey
surya
sus
susa
suscategory
susmen
susru
susus
sutren
suvyit
suwaylim
suways
suwwent
suzuka
suzuki
suɛad
suɛudiya
sv
svg
swa
swadda
swah
swamaɛ
swan
swaswa
swayen
swayes
swayeɛ
sweet
swen
swesɛen
swid
swift
swine
swis
swiss
switzerland
sword
sxedmen
sxedment
sxeld
sxerben
sya
sybous
sydney
syen
syenna
syin
syinna
sylvia
symbole
symboles
symbolic
symmaque
symphony
symptoms
syndrome
synode
syntaxe
synthe
syrakusa
syste
system
systems
sz
sza
szg
sɛa
sɛada
sɛan
sɛant
sɛaya
sɛeddan
sɛeddayen
sɛeddin
sɛid
sɛin
sɛint
sɛiɣ
sɛun
sɛunt
sɛɛan
sɣira
sɣur
t
ta
taa
taba
tabadut
tabagust
tabalizt
tabamunt
tabanka
tabarka
tabarkant
tabasaat
tabaskit
tabat
tabaɛrurt
tabaɣurt
tabburt
tabbwurt
tabduɣt
tabegnest
tabelkamit
tabelkamt
tabellut
taber
tabergent
taberkant
taberlinit
taberr
taberrut
tabexsist
tabiktirt
tabilarust
tabitha
tabizent
tablat
table
tableau
tableaux
tabr
tabrat
tabratt
tabrit
tabrizilit
tabsus
tabuda
tabuh
tabulgart
tabulut
tabuniqit
tabuqalt
taburba
tabursuq
tabusniakt
tabuzeggaɣt
tabuzegrayezt
tabwad
tabyulujit
tabɣest
tac
tacacit
tacafcalt
tacawit
tacaɛbet
taccelt
tacelh
tacemmaɛt
tacennayt
tacentirt
tacenwit
taceqquft
tacerqit
tacet
taceɛlalt
tacicanit
tacinwat
tacit
taciɛit
tacka
tacubrant
tad
tadag
tadah
tadair
tadalt
tadamsa
tadanict
tadart
tadarth
tadasin
tadast
tadawsa
tadawsant
tadayma
tadayr
tadayra
tadbelt
taddadanin
taddart
taddat
taddayt
taddert
taddsa
taddukli
tadeblant
tadelsant
tademmawt
tader
tadersi
taderɣalt
tadfert
tadfi
tadigant
tadimt
tadinastit
tadiskugrafit
tadist
tadiwennit
tadkirant
tadla
tadlafriwin
tadlist
tadmayt
tadra
tadrart
tadremt
tadrest
tadrimt
tadu
tadualat
tadukli
taduli
tadulmest
tadult
tadunatit
tadusi
tadut
tadwast
tadwilt
tadyaliktit
tadyant
tadzayrit
tadɣaɣat
tadɣert
taf
tafada
tafalest
tafarest
tafarka
tafarsit
tafasa
tafaska
tafat
tafe
tafed
tafekka
tafeljumma
tafellah
tafellayt
tafelsaft
tafelsuft
tafelwit
tafem
taferdisant
taferka
taferkit
tafersit
tafesna
tafetlit
taffa
taffawin
tafgurt
tafidir
tafidiralit
tafilalt
tafiniqit
tafinit
tafinland
tafinlandit
tafizikant
tafizikt
taflest
taflist
taflukt
tafna
tafr
tafransist
tafransit
tafrant
tafrara
tafrat
tafrawt
tafrayt
tafrensist
tafrensit
tafrent
tafrikt
tafriqt
tafrirut
tafrusyawit
tafrut
tafsent
tafsirt
tafsut
taftart
taftilt
taftist
tafugla
tafukt
tafulfuldet
tafulmant
tafunast
tafurkant
tafus
tafuyt
tafuzzalt
tafuzzlant
tafuɣalt
tag
taga
tagafant
tagalit
tagamant
taganin
tagant
taganza
tagara
tagarbalt
tagast
tagayt
tagaz
tagda
tagduda
tagdudant
tagejdant
tagelda
tageldant
tageldit
tageldunt
tagella
tagellidt
tagellilt
tagelmimt
tagemmunt
tagemmut
tagemra
tagemrawt
tagemunt
tagennawt
tagensant
tagensast
tagensawt
tagensest
tagerda
tagermant
tagerrawt
tagertilt
taggara
taggargrent
taggat
taggayin
taggayt
taggaz
taggazt
taggent
taggi
taggug
taggult
tagi
tagida
tagit
tagjdant
taglawant
taglest
taglimt
taglisya
taglizit
taglizt
tagma
tagmant
tagmat
tagmatt
tagmawant
tagmud
tagmunt
tagnawt
tagnit
tagnitt
tagnizit
tagnnawt
tagra
tagrawla
tagrawt
tagrayt
tagraɣlant
tagrest
tagreɣlant
tagrigit
tagrigurit
tagrigurt
tagrikit
tagrikt
tagruja
tagruma
tagrumma
tagrut
tagtutlayt
tagurart
tagust
tagut
tagwaranit
tagwnitt
tagzirt
tah
tahar
tahat
tahendit
taher
tahibr
tahibrut
tahidr
tahrest
tahulandit
tahungarit
tai
taient
tail
taine
tait
taj
tajaddit
tajapunit
tajdidt
tajer
tajerrumt
tajewwaqt
tajirmanit
tajmayt
tajmaɛt
tajmilt
tajrit
tajulyant
tajumma
tajummant
taka
takadimit
takadimt
takalast
takamrunit
takanadit
takanna
takard
takarda
takarruct
takart
takat
takatalant
takatalunit
takatidralt
takatulikit
takatulikt
takatut
takbabt
takcemt
takdit
takebbanit
takeddalt
takemmart
takenzirart
taker
takerbust
takerduft
takerrazt
takerrust
takerwant
takessawt
takfarin
takfarinas
takikuyut
takirgizit
takkayt
takkuct
taklasikt
taklast
taklatin
taklidant
taklit
taklitin
taklizt
taklut
takma
takmat
takmezzut
taknisa
takniwin
takniwt
taknussna
takr
takrid
takrit
takrudert
takrura
takrurant
taksa
taksumt
taktabt
takti
taktiwin
taktrist
takuct
takudant
takura
takurdit
takurmanjit
takurmut
takurt
takuryit
takwebbanit
tal
tala
talaba
talalest
talalit
talallit
talamt
talast
talat
talatinit
talatint
talbent
taldayt
tale
taleb
talemmast
talemmiz
taleqqayt
taleslalit
talgit
tali
talibit
taligaturin
taliktr
talilt
talinn
talit
talitwanit
taliwin
talk
talkanin
talkensit
talla
tallalin
tallalit
tallalt
tallast
tallat
tallelt
tallemt
tallest
tallilt
tallin
tallinn
tallinna
tallit
tallitin
talliwin
talliyin
talliz
tallunt
tallust
talmanit
talmant
talmat
talmest
talsa
talsanin
talsant
talsuffɣa
taltemsen
taluft
taluksemburgit
talussi
taluz
talwit
talɣa
talɣemt
talɣen
talɣenin
talɣent
talɣiwin
talɣut
talɣuɣa
tam
tama
tamacahut
tamacahutt
tamaceq
tamaceɣt
tamacint
tamad
tamaddudt
tamadlant
tamafart
tamagarda
tamagdayt
tamagdezt
tamagit
tamagnut
tamagramant
tamahaq
tamajaq
tamajeq
tamakkast
tamalgacit
tamallast
tamalt
tamalunt
tamanaɣt
tamanaɣtcategory
tamandarint
tamaneɣt
tamannaɣt
tamant
tamanz
tamanɣt
tamara
tamarikanit
tamarikant
tamarix
tamart
tamarut
tamas
tamasayt
tamasidunt
tamasih
tamasit
tamaskadt
tamaslad
tamasɣant
tamat
tamatant
tamatebako
tamatebaku
tamatut
tamawalt
tamawin
tamawiya
tamawt
tamawya
tamaynut
tamayt
tamaz
tamazallawt
tamazdayt
tamazgha
tamazight
tamazirt
tamaziɣ
tamaziɣt
tamazrayt
tamazzalt
tamazzuft
tamazɣa
tamaɣlalt
tamaɣra
tamaɣuzt
tambi
tamcabigzirt
tamcumt
tamd
tamda
tamdeswelt
tamdikt
tamdint
tamect
tamectuh
tameddakelt
tameddit
tameddurmant
tameddurt
tameddurtcategory
tamedrart
tamedyazt
tamedyezt
tamegdalt
tamegdayt
tamehla
tamekcumt
tamekkast
tameknut
tamekruzt
tamella
tamellalt
tamellilt
tamelt
tamemmawt
tamemmayt
tamen
tamenad
tamend
tamendawt
tamenrut
tamens
tamensayt
tament
tamentilt
tamenzut
tamenɣiwt
tameqqerant
tameqqr
tameqqrant
tameqqrent
tameqr
tameqrant
tamer
tamerbut
tamerkantit
tamerrit
tamerrukit
tamert
tames
tamesbanit
tamesgida
tamesguneft
tameskant
tameskart
tameslayt
tameslugent
tamesluyt
tamesna
tamessartut
tamestrisitit
tamesɣant
tamet
tamettant
tamettut
tamez
tamezdayt
tamezduɣt
tamezgida
tamezgunt
tamezrayt
tamezwart
tamezwaru
tamezwarut
tamezyant
tamezzayt
tamezzugt
tamezzwaru
tamezzwarut
tamezɣa
tameɛcuqt
tameɣlalt
tameɣnast
tameɣra
tameɣrast
tameɣza
tamgard
tamgardaya
tamger
tamgurant
tamguri
tamgut
tamh
tamhalt
tamharit
tamhazt
tamhelt
tamhersa
tamhilt
tamikrest
tamirant
tamitudit
tamiwin
tamkardit
tamkerd
tamkuz
tamlilt
tamluka
tamment
tamnad
tamnat
tamnatt
tamnekda
tamnukalt
tamokrante
tamqerqurt
tamqqrant
tamrawt
tamrict
tamrikt
tams
tamsalt
tamsartut
tamsedfart
tamsedrart
tamseggast
tamseknit
tamselyut
tamsertit
tamserɣint
tamsetla
tamsilt
tamsirwa
tamsisit
tamsmunt
tamsuka
tamsukt
tamsullest
tamtawant
tamtigwant
tamtilt
tamtiwgant
tamtwala
tamudemt
tamudi
tamuggit
tamugri
tamulla
tamunant
tamunayt
tamungakat
tamunt
tamuqra
tamuqrant
tamurant
tamurigamt
tamurit
tamurt
tamurɣi
tamuski
tamusni
tamussayt
tamussni
tamutlayt
tamuɣli
tamyarut
tamyercalt
tamyigrant
tamyiwent
tamynut
tamz
tamzikent
tamzikt
tamziɣt
tamzukt
tamzwarut
tamɛadut
tamɛayt
tamɣart
tamɣast
tamɣawt
tamɣiwent
tamɣunt
tan
tanad
tanadalt
tanaddalt
tanafa
tanaffaɣt
tanaflayt
tanaft
tanafukt
tanagdudt
tanaktamt
tanalt
tanamhazt
tanammast
tanamsadt
tanamurt
tanarit
tanarumt
tanas
tanasayt
tanawt
tanax
tanaya
tanayyurt
tanaz
tanazalt
tanbat
tand
tandalust
tanebd
tanebdad
tanebdadt
taneblalt
tanecfalt
taned
taneflit
taneflt
tanefrut
tanefsit
tanegga
taneggalt
taneggart
taneggarut
taneglizit
tanegluft
tanegmud
tanegra
tanegzart
tanejjikt
tanekda
tanekra
taneldit
tanelmadt
tanemgalt
tanemhazt
tanemla
tanemlayt
tanemmirt
taneqqit
tanes
tanesbaɣurt
tanesfalt
taneslemt
tanez
tanezduɣt
tanezwayt
tanezzawt
tanezzayt
taneɣlaf
taneɣlaft
taneɣlift
taneɣmast
taneɣraft
tanfalit
tanfarast
tanfust
tanga
tangalt
tanger
tangimt
tanglizit
tanglizt
tanicca
tanijirukur
tanila
tanilat
tanilla
tanina
taninna
taninnayt
tanit
tanja
tankart
tanmegla
tanmehla
tanmezrit
tanmiregt
tannarfa
tannerlandit
tannumi
tans
tansa
tansawt
tansift
tansiwin
tant
tantala
tantalatin
tantaliwin
tantalyin
tanuba
tanulya
tanumi
tanumidit
tanumidt
tanummi
tanut
tanz
tanzad
tanzagt
tanzania
tanzanya
tanzart
tanzeggant
tanzeggit
tanzeɣt
taounate
taourirt
tapastafar
tapidgint
tappunt
tapulunit
tapurtugit
taqa
taqacuct
taqahirt
taqarid
taqaɛet
taqbaylit
taqbel
taqbilt
taqbiltcategory
taqbuct
taqbur
taqburt
taqcict
taqdimt
taqebt
taqeddact
taqer
taqerbust
taqerbuzt
taqerrabt
taqert
taqertajit
taqeryet
taqeys
taqeysrit
taqid
taqit
taqjunt
taqliɛt
taqqa
taqqar
taqranit
taqs
taqsent
taqsid
taqsidt
taqsit
taqubbet
taqurant
tar
tara
tarakalt
tarakaltcategory
taramit
taranit
taratakt
taraxacum
tarba
tarbaa
tarbah
tarbaɛt
tarbeɛt
tarbut
tarebbut
tareddi
taredsa
tareh
tarelkint
taremant
tarennawet
tarennawt
tarewla
tareygama
tarez
tarfriwin
targa
targaryen
targazt
targist
targit
tarif
tarifit
tariqa
tarist
tarjentint
tarka
tarmist
tarmit
tarnovo
taro
tarrawt
tarrayin
tarrayt
tars
tarselt
tartar
tartart
tartuffe
taru
tarud
tarudant
taruh
tarumanit
tarumantikt
tarument
tarumit
tarumt
taruradt
tarusi
tarusint
tarusit
tarut
tarwa
tarwih
tarzan
tas
tasa
tasad
tasadan
tasafagt
tasaft
tasah
tasakbabt
tasakrart
tasala
tasanayt
tasartut
tasarut
tasawt
tasaɛudit
tasbbabt
tasbeddit
tasbegsant
tasd
tasdawit
tasdella
tasdidt
tasdusit
tasebgast
tasedda
taseddar
taseddart
taseddast
taseddawit
tasedkalt
tasedmirt
tasefsit
taseftit
tasegbart
tasegda
tasegla
taseh
tasehrest
tasekkurt
tasekla
taseklant
taseklut
taseknut
tasekranit
tasekta
tasellulit
taselmadt
taselt
taselwayant
taselwayt
taselwit
tasemgalt
tasemhayt
tasemhuyt
tasemlilt
tasemmad
tasemmadt
tasemmumt
tasemrant
tasenbert
tasenfriwin
tasengama
tasengamt
tasenmettit
tasensakrart
tasensartur
tasensartut
tasenselkimt
tasensileɣt
tasensuta
tasenvirust
tasenwurit
tasenɣersiwt
taseqqamut
taserbit
taserdasit
taserdast
taserdunt
taserramt
tasertant
tasertayt
tasertit
tasertitcategory
taseryanit
taserz
taserɣint
taset
tasetit
taseɛdit
taseɣleyt
taseɣrucnit
taseɣrut
tasfart
tasfift
tasga
tasgilt
tasift
tasili
tasilt
tasimant
tasint
tasirra
tasiryanit
tasiwant
tasiwelt
tasiwit
taskant
taskendrit
taslavt
taslekt
taslent
taslet
taslullit
tasluvakt
tasluvinit
tasmanya
tasmedna
tasmekta
tasmilt
tasmit
tasmud
tasmɣur
tasna
tasnaffalt
tasnajya
tasnakalt
tasnakant
tasnakta
tasnallunt
tasnalɣa
tasnamurt
tasnasileɣt
tasnat
tasnawalt
tasnawit
tasnayyawin
tasnazduɣt
tasnaɣersiwt
tasnebgart
tasnefriwin
tasnettit
tasnidegt
tasnileɣt
tasnimeslit
tasnimɣan
tasniremt
tasnisnit
tasniwin
tasnudert
tasnudrant
tasnujjya
tasnujya
tasnullant
tasnulut
tasnusit
tasnutlayt
taspanyulit
taspenyulit
taspenyult
tasqamut
tasra
tasragt
tasrayilit
tasred
tasrenka
tasreɣta
tassast
tassaɛdit
tasselt
tassemt
tassili
tassnamdelt
tastaɣt
tasubyitit
tasuddest
tasudest
tasudut
tasugnant
tasukka
tasuknit
tasumta
tasunayt
tasund
tasuqelt
tasuqilt
tasur
tasuranit
tasureft
tasurit
tasusit
tasusmi
tasut
tasuta
tasutin
tasuvyatit
taswah
taswast
taswidit
taswist
taswiɛt
tasɣart
tasɣent
tasɣunt
tat
tata
tateknit
tatergit
tatlayt
tatluɣt
tatoeba
tatrart
tatrat
tatrawt
tatrit
tattekkant
tatunsit
tatupunymit
tatusant
tatut
tau
taurus
taviani
tawaccult
tawacult
tawacunt
tawadhith
tawafɣa
tawala
tawalant
tawalt
tawant
tawarrz
tawat
tawaɣit
tawed
tawekka
tawellemt
tawelman
tawennad
tawennat
tawenza
tawerga
tawes
tawessna
tawet
tawey
tawezlant
tawh
tawi
tawid
tawila
tawilant
tawilat
tawilayt
tawinest
tawla
tawlaft
tawlalt
tawment
tawnat
tawnuct
tawr
tawrat
tawraɣt
tawriqt
tawrirt
tawrit
tawsit
tawssna
tawtemt
tawtilt
tawukt
tawurant
tawuri
tawurta
tawwurt
taxatart
taxatemt
taxlig
taxlijt
taxonomicon
taxus
taxxamt
tayapant
tayazid
taycukt
tayda
taydiwin
taydiyyin
tayeb
tayed
tayedt
tayeffust
tayemmat
tayemmatt
tayet
tayett
tayla
taylalant
taylalt
tayland
taylanda
taylor
tayma
taynanawt
taynayyawin
tayri
taysa
tayuga
tayulyant
tayunanit
taywalt
tayyant
tayyawt
tayyi
tayyugin
tayyugt
taz
taza
tazaggurt
tazalɣi
tazanet
tazant
tazart
tazarurant
tazarzayt
tazawa
tazayezt
tazaɣart
tazaɣin
tazdayt
tazdeg
tazdemt
tazedgant
tazefrant
tazeggart
tazeggaɣt
tazeggwaɣt
tazegwaɣt
tazegzawt
tazelket
tazelmad
tazelmat
tazelmuyt
tazelɣa
tazemmunt
tazemmurt
tazeqa
tazeqqa
tazermemmuyt
tazernant
tazerzayt
tazewwaɣt
tazgaga
tazikennitt
tazla
tazmalt
tazmart
tazmek
tazmert
tazmilt
taznagt
taznast
taznatit
tazrart
tazrawt
tazrirt
tazrut
tazunegzirt
tazunɣidt
tazurant
tazuri
tazuɣert
tazwara
tazwart
tazyagurt
tazyanit
tazzant
tazzayrit
tazzirt
tazzla
tazzurt
tazzwara
tazzwart
tazɣent
tazɣuda
taɛ
taɛarust
taɛcurt
taɛdawt
taɛebrit
taɛes
taɛessast
taɛeyyalt
taɛezibt
taɛkemt
taɛlayant
taɛr
taɛrabin
taɛrabt
taɛrict
taɛrurt
taɛutmanit
taɛutumanit
taɛwint
taɛzibt
taɣ
taɣad
taɣamsa
taɣanimt
taɣara
taɣarant
taɣasrut
taɣat
taɣawsa
taɣbalut
taɣcuyt
taɣda
taɣdemt
taɣdimest
taɣect
taɣeddiwt
taɣedweft
taɣellist
taɣelnawt
taɣemmalt
taɣemsa
taɣennawt
taɣensit
taɣer
taɣerbit
taɣerdayt
taɣerfant
taɣerma
taɣersawt
taɣessa
taɣewwaɣt
taɣezfant
taɣilast
taɣinawt
taɣisant
taɣit
taɣiwant
taɣiɣect
taɣla
taɣlamt
taɣlent
taɣlist
taɣmart
taɣrast
taɣreft
taɣremt
taɣtest
taɣuct
taɣulin
taɣult
taɣur
taɣurart
taɣuri
taɣyult
taɣzi
taɣzult
taɣzut
taɣzuyt
taɣɣadt
tbadut
tbagust
tban
tbanka
tbatent
tbecnixt
tbed
tbedd
tbeddel
tbeddu
tbeggen
tbenferriwin
tbennu
tbeskert
tbessa
tbibelt
tbidest
tbiktirin
tbiktirya
tbudit
tbunsayt
tbuzeggaɣt
tbuzegrayezt
tbuzegrayzin
tc
tcabi
tcarid
tcawit
tcelh
tcennayin
tcennayt
tcennu
tcenwit
tceqqufin
tceqquft
tceyyeɛ
tche
tchop
tcinwat
tcudd
td
tdabut
tdamsa
tdawsa
tdayra
tdayriwin
tddart
tddukli
tdefrin
tdersi
tdersiyin
tdiwennit
tdrwsi
tdu
tdukkla
tdukkli
tdukla
tdukli
tdukliwin
tdulemsin
tdunatit
tdusi
tdusiyin
te
tea
tebbest
tebbib
tebbun
tebburt
tebbwi
tebd
tebda
tebded
tebder
tebdu
tebduɣt
tebh
teblad
tebna
tebniqin
tebniqt
tebnu
tebr
tebra
tebrat
tebratin
tebratt
tebrek
tebt
tebwi
tebzert
tebɛan
tebɛed
tebɛen
tebɛent
tebɛid
tebɣa
tebɣam
tebɣest
tebɣid
tebɣin
tebɣu
tec
tecba
tecbeh
tecc
tecca
teccna
teccur
teccuyt
tecd
tech
teched
technology
teclemt
tecna
tecnu
tecr
tecrad
tecrek
tecɛel
ted
tedbelt
tedda
teddart
teddaxxal
teddeden
teddem
tedder
teddmen
teddu
teddud
teddukel
teddukla
teddukli
teddun
teddunt
teddy
tedfert
tedfrin
tedhelt
tedra
tedremt
tedrest
tedrimin
tedrimt
tedwel
tedwilin
tedwilt
tedyaliktit
tedyanin
tedyant
tedɣaɣat
tedɣaɣatin
tedɣert
tef
tefd
teffaɣ
teffer
teffeɣ
teffiɣ
teffren
teffɣen
teffɣent
tefk
tefka
tefked
tefkem
tefki
tefkid
tefkka
teflal
teflalit
teflel
teflelt
teflest
teflist
teflukt
tefr
tefra
tefranin
tefrans
tefransist
tefrant
tefrar
tefrara
tefrawt
tefren
tefrensist
tefrensit
tefreq
tefrer
tefri
tefrikt
tefriqt
tefriqtcategory
tefru
tefser
tefses
tefsirt
tefsut
teftart
teftilin
teftisin
teftist
tefyar
tefyirt
tefza
tefɣen
teg
tega
tegber
tegda
tegdelt
tegdi
tegduda
tegdudin
tegdudyin
tegga
teggar
teggen
teggra
teggug
tegguma
tegguni
teghli
tegla
teglest
teglimt
tegliswin
teglizit
teglizt
teglu
tegma
tegmart
tegmat
tegmatt
tegmen
tegmi
tegnatin
tegnawt
tegnignut
tegnit
tegnitt
tegnizit
tegnizt
tegnut
tegra
tegrawin
tegrawla
tegrawliwin
tegrawt
tegrayt
tegred
tegrejdin
tegrest
tegri
tegrigit
tegrigt
tegrikt
tegritin
tegruma
tegti
tegwaranit
tegwnatin
tegwnitt
tegyizit
tegz
tegzem
tegzi
tegzirin
tegzirt
teh
tehibr
tehrest
tehri
tei
teil
tejja
tejmaɛed
tejmaɛt
tejmilin
tejmilt
tejra
tejrentint
tejumma
tekcem
tekcim
tekdi
tekfa
tekka
tekkan
tekkat
tekker
tekkes
tekki
tekkmassa
tekksen
teklut
tekma
teknoloji
tekrit
tekrura
teksas
tektabin
tektabt
tekti
tektiwin
tektuniyya
tekwatin
tekwatt
tel
tela
telatinit
teldayt
teldi
telelli
telenn
telenz
telephium
television
telfu
telh
telha
telhu
telkanin
telkin
tell
tella
tellad
tellam
telli
tellid
telluga
tellugen
tellul
telmant
telmas
telmast
telmatin
telmed
telmest
telqey
telsa
telwaqad
telwih
telwit
telɣa
telɣemt
telɣet
telɣiwin
telɣuɣa
tembiwel
temcabigzirt
temcac
temcenfar
temcict
temd
temda
temdeswelt
temdinin
temdint
temdudferratin
temeserz
temetti
temgarad
temguri
temh
temhalin
temhalt
temharsa
temhazt
temhelt
temhez
temhilt
temilit
temkard
temkecmin
temkeh
temla
temlal
temlilin
temlilit
temliliyin
temlilt
temmag
temmal
temmed
temmekta
temmeslay
temmug
temmuger
temmut
temnad
temnadin
temnadt
temnat
temnatt
temnnad
tempe
templat
template
templatedata
templates
temple
temps
temraradin
temrawin
temrawt
temrikt
tems
temsal
temsalt
temsaman
temsartut
temsedfart
temsedfert
temseffatin
temsefranin
temsegrawin
temseksumin
temselɣa
temseɣz
temsiffatin
temsifsan
temsilt
temsirin
temsirwa
temsisit
temsizzelt
temsrifegt
temsuka
temsulta
temsurta
temsut
temsutad
temt
temtunt
temulum
temurt
temut
temwaya
temxallaf
temyercalt
temz
temzalt
temzerɣlin
temzi
temzikrin
temzizelt
temzizzelt
temzukt
temɛemmert
temɛict
temɣar
temɣarin
temɣart
temɣawla
temɣer
temɣi
temɣid
temɣiwanin
temɣiwant
temɣunt
ten
tenat
tenbad
tenbed
tend
tendeh
tenere
tenerife
teneslemt
tenfa
tenfalit
tenfaliyin
tenfiwin
tenfufed
tenfust
tenga
tengalin
tenger
tengiwin
tenglizit
tenglizt
tenh
tenkart
tenker
tenma
tenmegla
tenmehla
tenmgalt
tenmiregt
tenna
tennagrawt
tennefli
tennerna
tennerni
tennessee
tenni
tennid
tennis
tennulfa
tennuɣ
tenqes
tenqid
tensa
tensawt
tent
tentala
tentaliwin
tentalyin
tenza
tenzad
tenzagt
tenzeggit
tenɣa
tenɣerfelt
tenɣimant
teqbaylit
teqbel
teqbilin
teqbilt
teqbreb
teqbucin
teqbuct
teqcicin
teqcict
teqdec
teqebt
teqhirt
teqliɛt
teqqar
teqqared
teqqel
teqqen
teqqim
teqqnen
teqqur
teqr
teqreb
teqs
teqsid
teqsit
teqtel
teqvaylit
ter
terba
terbatin
terbaɛin
terbaɛt
terbaɛtr
terbeh
terd
terebinthus
terenzi
terfed
terga
tergalin
tergalt
terjentint
terka
terked
termine
termist
termit
termitin
terna
terni
ternu
ternud
terr
terra
terre
terred
terrestris
terrid
territoire
territoriale
ters
tersa
tersbourg
terselt
terwast
terwel
terwi
teryel
terza
terzef
terzi
terɛi
terɣa
terɣi
tes
tesala
tesbedd
tesdatin
tesdawit
tesdawiyin
tesder
tesdidin
tesdidt
tesdukel
tesdukkel
teselwit
tesfifin
tesfift
tesga
tesgensis
tesgilt
teskala
teskan
teskanin
teskert
teskeɛwiw
tesla
tesled
tesledt
teslem
teslent
teslid
teslit
tesliɣwa
teslullit
tesmekta
tesmektiwin
tesmenyaf
tesmilt
tesnafart
tesnajya
tesnakalt
tesnakta
tesnallunt
tesnawit
tesnawiyin
tesnayyawin
tesnegrit
tesnerni
tesnignewt
tesnilest
tesnilsit
tesnimɣan
tesnimɣant
tesnudert
tesnujjya
tesnujya
tesnulfa
tesnulfu
tesnutlayt
tesnɣersiwt
tespanyulit
tespanyult
tespenyulit
tespenyult
tesqamut
tesr
tesraft
tesragin
tesragt
tesred
tesrit
tessalin
tessawal
tessawat
tessawed
tessawel
tessawet
tessaɣ
tessebded
tesseddu
tessegra
tessegraw
tessegrew
tesseh
tessekcem
tesselh
tesselhu
tesselmed
tessemɛukkur
tessen
tessenger
tessenqes
tessentay
tessenz
tesseqdac
tesseqdec
tesserbeh
tessers
tessexdam
tessexdem
tesseɣli
tessiliɣ
tessin
tessined
tessisin
tessiwed
tesskanay
tessken
tessrusay
tessuddes
tessufeɣ
tessuffeɣ
tessuffuɣ
tessufuɣ
tessufɣ
tessugun
tessut
tessuter
test
testament
testenya
testeɛr
teswa
teswasin
teswast
teswermin
teswi
teswidt
teswist
teswiɛin
teswiɛt
tesyar
tesɛa
tesɛedda
tesɛi
tesɛid
tesɛu
tesɣent
tesɣil
tesɣilt
tesɣunin
tesɣunt
tet
tetbeɛ
tetbirin
tetezzi
tetragonolobus
tetrawin
tetrawt
tetrax
tetrit
tetriyyin
tett
tettabaɛ
tettac
tettadam
tettaf
tettag
tettagad
tettak
tettaked
tettakk
tettales
tettali
tettals
tettamen
tettara
tettarem
tettarew
tettarra
tettarrad
tettaru
tettas
tettat
tettawat
tettawed
tettawet
tettawi
tettawin
tettaɣ
tettban
tettbeddil
tettbin
tettd
tetteddu
tettef
tettefeɣ
tetteka
tetteki
tettekka
tettekkes
tettekki
tettemcabi
tettemɣay
tetten
tettenfufud
tettenqas
tettent
tettet
tettett
tettez
tettezzi
tetteɣlay
tettfakka
tetth
tettheggi
tetti
tettidir
tettiki
tettili
tettimz
tettimɣur
tettkemmil
tettmag
tettmagar
tettmennid
tettmeslay
tettnadi
tettnaɣ
tettnerni
tettru
tettruh
tettu
tettubeddel
tettud
tettumeggez
tettunag
tettunefk
tettunefka
tettuneh
tetturar
tettusemma
tettusemres
tettuseqdac
tettuseqdec
tettusexdem
tettusismel
tettuɣal
tettwabd
tettwabder
tettwabeddel
tettwabna
tettwad
tettwafreq
tettwagdel
tettwager
tettwaggez
tettwaglam
tettwagzam
tettwagzem
tettwah
tettwakez
tettwakkes
tettwali
tettwameslay
tettwaqbel
tettwaqqen
tettwarna
tettwaru
tettwasemdu
tettwasemma
tettwasemres
tettwasen
tettwasexdem
tettwasileɣ
tettwasismel
tettwasnen
tettwassen
tettwasteg
tettwaxdam
tettwaxdem
tettwaxelles
tettwaxleq
tettwaz
tettwazger
tettwefren
tettwenɣ
tettwimeggez
tettɛeddi
tettɣimi
tetwasxdem
tetwilt
teucrium
tewh
tewlafin
tewment
tewondot
tewr
tewreɣ
tewriqin
tewriqt
tewrirt
tewsatin
tewser
tewsit
tewsitin
tewtemt
tewtilin
tewwati
tewwed
tewwet
tewwi
tewwid
tewwura
tewwurt
tewwwi
tewzel
tewɛer
texas
texd
texdem
texla
texled
texlig
texs
texser
text
textar
textbook
texte
textes
texxamin
texxamt
teycukt
teywalt
tez
tezdalt
tezdayt
tezdaɣult
tezdeg
tezdel
tezdemt
tezdeɣ
tezdi
tezga
tezgad
tezgel
tezgelt
tezger
tezlatin
tezlit
tezlitt
tezmalt
tezmart
tezmekt
tezmel
tezmer
tezmert
tezmir
teznuzay
tezr
tezrart
tezrawin
tezrawt
tezrigin
tezrirt
tezwar
tezwara
tezwart
tezweg
tezweɣ
tezyiwin
tezzant
tezzenz
tezzi
tezzin
tezzint
tezɣelt
tezɣent
tezɣuda
teɛdel
teɛg
teɛr
teɛrabt
teɛred
teɛzem
teɣawsiwin
teɣd
teɣdemt
teɣdirawt
teɣerm
teɣlamin
teɣlamt
teɣleb
teɣlent
teɣleq
teɣli
teɣmert
teɣmi
teɣr
teɣra
teɣrad
teɣratin
teɣreft
teɣremt
teɣri
teɣrit
teɣriwin
teɣrmt
teɣsatin
teɣsert
teɣtas
teɣwalt
teɣyult
teɣzef
teɣzi
tfadiwin
tfakk
tfaq
tfares
tfarisit
tfarka
tfarsit
tfasa
tfaska
tfaskiwin
tfednin
tfehhem
tfehmed
tfekka
tfekkamgalin
tfekkiwin
tfelah
tfeljumma
tfellah
tfelsafit
tfelsaft
tfelseft
tfelsuft
tfelwit
tfelwiyin
tferka
tferkit
tferkiwin
tferratin
tferren
tfes
tfesna
tfesniwin
tfilin
tfilkut
tfinaɣ
tfinlandit
tfizikt
tfr
tfrac
tfransist
tfuk
tfukk
tfukt
tfulki
tfulmant
tfunasin
tfunasiyin
tfunast
tfursit
tg
tga
tgama
tganza
tganziwin
tgara
tgduda
tgebber
tgecrar
tgejda
tgejdit
tgelda
tgeldatin
tgeldit
tgeldiwin
tgeldiyin
tgeldunt
tgella
tgellidt
tgellu
tgelzimt
tgemmi
tgemmu
tgemmunt
tgemrawin
tgen
tgenzi
tger
tgerfa
tgerfiwin
tgerrez
tgertilin
tget
tgetlin
tgez
tgezdut
tgezmi
tgezmiyin
tgezzumin
tgi
tgida
tgin
tgini
tginit
tgint
th
thames
than
thapsia
thapsie
that
the
theft
their
thenia
thenna
theodor
theon
theorie
theory
there
thersin
these
they
theyiɣ
thibr
thibrut
thiele
thique
this
thode
thodes
thomas
thomson
thorn
thought
thrash
thrones
thudd
thumb
thumbnail
thurifera
thuski
thymelaea
thymus
ti
tibaltiyin
tiban
tibantutin
tibaskiyin
tibawt
tibbucin
tibbura
tibeddit
tibenferriwin
tiber
tiberdefflin
tibergent
tiberkanin
tiberr
tiberraniyin
tibeskert
tibesti
tibet
tibexsisin
tibh
tibibelt
tibidas
tibidyutin
tibir
tibirant
tibirit
tibit
tibiwt
tibratin
tibrit
tibrutistantiyin
tibulgar
tiburaɣ
tibusnyanin
tibuzegrayezin
tibuɣarin
ticcert
ticci
ticcit
ticebbubin
ticebh
ticeqqufin
ticequfin
ticerqiyin
ticett
tici
tick
ticki
ticks
ticrad
ticrih
ticuffert
tid
tidaf
tidak
tidal
tidawsanin
tidayr
tidayrayin
tidayrin
tidayriwin
tidda
tiddas
tidderɣelt
tiddest
tiddi
tiddin
tiddit
tiddiwin
tiddukla
tiddukliwin
tide
tidefrin
tidekt
tidelsanin
tiden
tidernent
tidersiwin
tidersiyin
tidet
tidett
tidi
tidiganin
tidikelt
tidir
tidmi
tidu
tidukkla
tidukla
tidunatiyin
tiduntalyin
tidusal
tidusalin
tidusiyin
tidwilin
tidwin
tidyanijn
tidyanin
tidɣaɣatin
tie
tien
tif
tifadin
tifadiwin
tifaskiwin
tifawin
tifeffeɣt
tifekkiwin
tifelwa
tifelwiyin
tiferdisanin
tiferdud
tiferfarin
tiferkit
tiferkiwin
tiferkiyin
tifernin
tifesniwin
tifest
tiffaf
tiffest
tiffisin
tifi
tifin
tifinagh
tifinaɣ
tifinubaltiyin
tifiras
tifirest
tifiɣra
tifiɣut
tifkin
tiflukin
tifr
tifra
tifranin
tifransiyin
tifrarin
tifrat
tifratin
tifrawin
tifriqiyin
tifrirt
tifrit
tifrusyawiyin
tifsus
tiftisin
tifulmanin
tifunasin
tifunasiyin
tifus
tifwin
tifyar
tig
tiga
tigafayin
tigamanin
tigawin
tigawt
tigda
tigdayin
tigduda
tige
tigejda
tigejdanin
tigejdit
tigelda
tigeldiwin
tigellilin
tigemmi
tigemrawin
tigennawin
tigensanin
tigensasin
tigermamzikin
tigersin
tigert
tigertilin
tiget
tigezmi
tigezt
tiggayin
tiggest
tigget
tiggi
tiggtin
tiggura
tighilt
tighzert
tigi
tigin
tiginit
tigjdanin
tigmanin
tigmawin
tigmayin
tigmi
tigmrawin
tignatin
tignawin
tignewt
tigni
tignut
tigrakalin
tigranin
tigrawin
tigrawliwin
tigraɣlanin
tigreɣlanin
tigri
tigrin
tigritin
tigti
tigurarin
tigurin
tigwnatin
tigwti
tigz
tigzi
tigzin
tigzirin
tigzirt
tih
tihawt
tihendur
tihert
tijedmenni
tijelabin
tijent
tijikja
tijmilin
tijunan
tikal
tikamruniyin
tikard
tikbert
tikci
tikciyin
tikdi
tikdiwin
tikebbaniyin
tikeddalin
tikeli
tikelmanin
tikelt
tikemmarin
tikerdaf
tikerkas
tikikla
tikilsa
tikilsya
tikiwt
tikjda
tikkal
tikkelt
tikkwal
tikli
tiklisent
tikliwin
tiknar
tiknariyin
tikritiyin
tikruranin
tikta
tikti
tiktiwin
tiktiyin
tikubaniyin
tikucin
tikuciyin
tikuz
tikwal
tikwatin
tikyi
tilaliyin
tilalliyin
tilam
tilas
tilawen
tilawin
tilawt
tileft
tileggit
tilelli
tilellit
tilelliyin
tilemmasin
tilemmiz
tilemt
tilemz
tileɣmatin
tili
tilibizyu
tilifun
tililit
tilin
tilint
tiliouacadi
tilisa
tilist
tilit
tilivizyu
tiliwa
tiliwin
tiliz
tilizri
tiljibriyin
tilkin
tilkinin
till
tilla
tillalin
tillas
tilleli
tilli
tillicin
tillin
tillut
tilmas
tilmawin
tilqi
tilsanin
tilufa
tiluɣa
tilwaqad
tilɣa
tilɣiwin
tilɣuɣa
timacinin
timackat
timad
timaddudin
timadwanin
timagdayin
timakkasin
timaklasin
timanaɣin
timanit
timarikaniyin
timaskarin
timasseɣt
timasɣanin
timawin
timawit
timaynutin
timaz
timazdayin
timaziɣin
timazrayin
timbeddit
timbuktu
timcac
timced
timcenfar
timd
timdekrar
timdellest
timdinin
timdinincategory
time
timec
timecr
timecret
timect
timed
timeddursa
timedkin
timedran
timedrarin
timedwin
timedyazin
timegnunin
timegrudin
timehlin
timejja
timejjirin
timejjirt
timejjiwin
timekkasin
timekkest
timeknutin
timektit
timella
timellalin
timelwi
timend
timent
timental
timentilin
timenyagert
timenza
timenɣiwt
timeqbert
timeqqr
timeqqranin
timeqranin
timer
timeriwt
timerna
timerniwin
timerniwt
timerrit
timerzuga
times
timesbaniyin
timesdefrin
timesdurifsan
timesferranin
timesgidiwin
timesgunefin
timeskanin
timeskebrin
timeslayin
timeslidin
timesliwt
timesluffaz
timesririn
timess
timessferranin
timest
timestuga
timesɣaz
timesɣezt
timettanin
timetti
timettit
timettiyin
timez
timezdayin
timezdit
timezdiyin
timezgida
timezgit
timezgiyin
timezgunin
timezrit
timezwura
timezzayin
timezzit
timezziyin
timezzwura
timeɣlalin
timeɣri
timeɣriwin
timgad
timhalin
timid
timiddurin
timidi
timidlin
timidranin
timidrant
timihanin
timikrit
timimun
timiqwa
timiranin
timirant
timit
timiwa
timizar
timizart
timizrirt
timkuz
timlebbet
timlilin
timlilit
timliliyin
timmad
timmarewt
timmi
timmisin
timmist
timmiwin
timmunent
timmuzɣa
timnad
timneggezt
timnummsanin
timraradin
timri
timsakrarin
timsal
timsedfert
timsedrarin
timsefrarin
timsegrawin
timseknewt
timseksumin
timselleh
timselyutin
timselɣa
timsennenin
timsennent
timserz
timseɣz
timsirin
timsizzelt
timsrafgin
timsud
timsurta
timsut
timt
timtegzitin
timti
timucent
timucuha
timudmin
timukrisin
timula
timunent
timunnent
timura
timuracategory
timuranin
timuta
timutlayin
timuzzag
timuzɣa
timuɣliwin
timyayanin
timyigranin
timz
timzerɣelt
timzerɣlin
timzgida
timzifriwin
timzikin
timzikkent
timzikrin
timziregt
timzirgin
timzizelt
timɛemmert
timɣarin
timɣawin
timɣer
timɣur
tin
tina
tinafukin
tinammasin
tinamsadin
tinamurin
tinariwen
tinariyin
tinayyurin
tinaɣlalin
tind
tinduf
tindunisit
tinefra
tinefrawin
tineggift
tineggiwin
tineggura
tinegnit
tinegwa
tinekkit
tineqlin
tineqqit
tineref
tinerf
tines
tinesbaɣurin
tineslemt
tinettit
tinez
tinezmarin
tineɣrafin
tinfusin
tingalin
tingi
tini
tinid
tinig
tinigit
tinigt
tiniri
tiniɣit
tinliwin
tinma
tinmel
tinmettit
tinn
tinna
tinnagrawt
tinqid
tinselmin
tint
tintaliwin
tintalyin
tinuraf
tinz
tinzar
tinzegganin
tinzert
tinɣerflin
tinɣir
tipaza
tiplakin
tipped
tiqbayliyen
tiqbayliyin
tiqbilin
tiqburin
tiqcicin
tiqdimin
tiqent
tiqiwect
tiqqad
tiqqayin
tiqsid
tiqucac
tique
tiques
tiquranin
tir
tira
tirammatin
tirawin
tirawt
tiraɣlalin
tirbaɛ
tirebbaɛ
tirebrabin
tirect
tiregwa
tiremt
tirennawin
tireslin
tirga
tirgin
tirgit
tirift
tirint
tiririt
tiririyin
tirizwa
tirlandit
tirmit
tirmitin
tirmiwin
tirni
tirole
tirrayin
tirrin
tirririt
tirrugza
tirtit
tiruca
tirurda
tirz
tirza
tirzi
tis
tisa
tisakrarin
tisamiyin
tisanayin
tisas
tisaɣurin
tisbegsanin
tisdale
tisdas
tisdawiyin
tisebdadin
tiseddarin
tisedmirin
tisednan
tiseflay
tiseflayin
tisekla
tiseklanin
tisekliwin
tisekrarin
tisekwla
tiselnin
tisemhuyin
tisemmamin
tisemranin
tisemsilt
tisemtit
tisenfal
tisenfednin
tisengamin
tisensartuyin
tisent
tiserdasin
tisertayin
tisertiyin
tiserɣuda
tisfifin
tisgilin
tishil
tisifliwin
tisiqqest
tisit
tisiway
tisiɣidt
tiskanin
tiskert
tiski
tiskiwin
tislamit
tislatin
tislavin
tislest
tislit
tismektiwin
tismin
tismusin
tisnajjyanin
tisnakanin
tisnat
tisnawanin
tisnin
tisnudranin
tisnullanin
tispenyuliyin
tisred
tiss
tissas
tissegnatin
tisselbi
tisselwit
tissi
tissirt
tissist
tissisyin
tissit
tissiwin
tissulya
tist
tisuda
tisufanin
tisufaɣ
tisulla
tisuqilin
tisura
tisuraf
tisurta
tisusaf
tisutwin
tiswasin
tiswermin
tisɛin
tisɣunin
tit
titan
titaramin
titcet
titeggarin
titem
titergiyin
tition
title
titnit
titrarin
titrawin
titre
titriklant
titrit
titriyyin
tittest
tittin
titus
tividyutin
tiwaculin
tiwal
tiwd
tiwed
tiwekkiwin
tiwelhiwin
tiwendur
tiwermin
tiwet
tiwetlin
tiwetlɣatin
tiwetmin
tiwezziwin
tiwilayin
tiwin
tiwinas
tiwizi
tiwlafin
tiwlalin
tiwlifin
tiwraɣin
tiwririn
tiwsatin
tiwsi
tiwsitin
tiwtilin
tiwukin
tiwura
tiwuriwin
tiwurtiwin
tiwwura
tixalwatiyin
tixatarin
tixeddaɛt
tixencelt
tixxamin
tixxutert
tiy
tiyad
tiyat
tiyed
tiyeggert
tiyeggirin
tiyemmatin
tiyita
tiyitiwin
tiynelmasin
tiyni
tiynin
tiytiwin
tiyuzat
tiyyad
tiz
tiza
tizaɣwin
tizebgatin
tizeggaɣin
tizegrawin
tizegwa
tizegzawin
tizelfin
tizelɣiwin
tizemkin
tizemmar
tizemmurin
tizemrin
tizermemmuyin
tizerzert
tizeɣlilin
tizeɣt
tizeɣwa
tizgelt
tizgin
tizi
tizid
tizifut
tizikemt
tiziri
tizirriwin
tizit
tizizwa
tizizwit
tizlatin
tizlit
tizlitin
tizlitt
tizmamagin
tizmekt
tizmert
tizmilin
tiznasin
tiznatiyin
tiznefriwin
tiznit
tizra
tizrarin
tizrawin
tizrawt
tizrigin
tizumag
tizumbiyin
tizunegzirin
tizunt
tizutar
tizwal
tizya
tizyagurin
tizza
tizzanin
tizzayriyin
tizzegzut
tizzufanin
tiɛfar
tiɛrabin
tiɛwinin
tiɣalltin
tiɣaltin
tiɣawsiwin
tiɣbula
tiɣed
tiɣelnawin
tiɣemrin
tiɣer
tiɣerbiyin
tiɣerfin
tiɣermi
tiɣermin
tiɣest
tiɣilt
tiɣimit
tiɣimiyin
tiɣin
tiɣinawtin
tiɣirdemt
tiɣisanin
tiɣiwanin
tiɣiɣac
tiɣmert
tiɣmi
tiɣmiwin
tiɣr
tiɣra
tiɣrasen
tiɣrazin
tiɣremt
tiɣri
tiɣrifin
tiɣrit
tiɣriwin
tiɣtas
tiɣucaf
tiɣula
tiɣunam
tiɣurarin
tiɣza
tiɣzalin
tiɣzert
tiɣzi
tjbed
tjebbant
tjerrumt
tjumma
tjummiwin
tkadimit
tkadimt
tkalast
tkar
tkard
tkarust
tkas
tkatalant
tkatulikit
tkatut
tkebbanit
tkebbaniyin
tkec
tkeccem
tkecm
tkecmed
tkelli
tkelmanin
tkemmel
tkenzirart
tker
tkerbust
tkerkas
tkerrazt
tkerrust
tkeryas
tkerza
tkessawt
tkharbish
tkirgizit
tkirit
tkuba
tkura
tkurawin
tkurdit
tkurez
tkurin
tkuriwin
tkurt
tkuz
tla
tlalit
tlallit
tlat
tlata
tlatinit
tlatint
tlawin
tleh
tlehh
tlelli
tlelliwin
tlelliyiin
tlemmast
tlemmats
tlemmiz
tlemsan
tlemz
tleslalit
tleɣmatin
tli
tlifa
tlisa
tlitwanit
tliwa
tliz
tlla
tlmas
tlu
tlufa
tluksemburgit
tlul
tlussi
tmacahut
tmacahutt
tmaceɣt
tmacinin
tmacint
tmafart
tmagit
tmahelt
tmaheɣt
tmaklasin
tmal
tmanaɣt
tmaneɣt
tmanit
tmankalin
tmanya
tmara
tmarwin
tmasih
tmaskarin
tmawalt
tmaz
tmazight
tmazirt
tmaziɣin
tmaziɣt
tmazɣa
tmaɣda
tmaɣlayin
tmaɣr
tmaɣuzt
tmecrag
tmect
tmed
tmeddit
tmeddurt
tmedkin
tmedyazt
tmedyezt
tmegwh
tmehla
tmejjirin
tmejjirt
tmejjiwin
tmekkasin
tmekkast
tmekkest
tmekkisin
tmekkist
tmeknut
tmekrazt
tmella
tmellalin
tmellalt
tmellit
tmelyant
tmelɣiɣt
tmend
tmendawt
tmenkadt
tmennad
tmennat
tmental
tmentilin
tmentilt
tmenya
tmenɣest
tmenɣiwt
tmenɣiyin
tmeqbert
tmer
tmerna
tmernit
tmerniwt
tmerrit
tmerwin
tmes
tmesbaniyin
tmesdurifsan
tmesgida
tmesgidiwin
tmeskanin
tmeskant
tmeskebrin
tmeskiwt
tmeslayen
tmeslayin
tmeslayt
tmesliwt
tmesluffaz
tmesmineqr
tmesmunt
tmesrafgin
tmess
tmesɣaz
tmesɣiwt
tmet
tmeti
tmett
tmettant
tmetti
tmettiyin
tmettut
tmez
tmezdayin
tmezdayt
tmezduɣin
tmezduɣt
tmezgida
tmezgidat
tmezgidiwin
tmezgunin
tmezgunt
tmezwura
tmezzit
tmezziyin
tmezzwarut
tmeɣr
tmeɣra
tmeɣriwin
tmid
tmidelt
tmikanikt
tmiqwa
tmit
tmiwa
tmizar
tmnad
tmucuha
tmudemt
tmudmin
tmugri
tmuh
tmulla
tmunaɣ
tmunent
tmungakat
tmuqra
tmura
tmurea
tmuri
tmurt
tmuska
tmuski
tmuskiwin
tmusni
tmusniwin
tmussni
tmuɣli
tmuɣliwin
tmzerɣlin
tna
tnafa
tnafut
tnaliwen
tnan
tnariyin
tnas
tnaz
tnazant
tnazzant
tnaɣlalin
tnebd
tneflit
tnefsit
tnefsitin
tnegga
tneggarut
tneggest
tneggizt
tneglizit
tneglufin
tnegluft
tnegmarin
tnegmud
tnegwa
tnejjikin
tnejjikt
tnekkit
tnekra
tnelfuyt
tnelli
tnelmadin
tneqqit
tnes
tneslemt
tnet
tnettit
tnez
tnezruft
tnezzagt
tnezzawt
tnezzayt
tnezzut
tneɣ
tneɣlaft
tneɣtust
tnila
tniliwin
tnilla
tninna
tninnayt
tniri
tniriwin
tnuda
tnuggit
tnulya
tnumi
to
tod
today
todd
toile
toit
tokyo
tom
tome
tomentosus
ton
top
tor
toronto
torsten
total
toto
touan
touareg
touazi
toujours
toulouse
tour
tourisme
tourne
tours
tous
tout
toute
toutes
towards
tower
town
tpidgint
tqabel
tqacucin
tqacuct
tqaɛet
tqebbel
tqeddact
tqeddec
tqelleɛ
tqemmed
tqent
tqeriett
tqint
tqreb
tqubel
tr
tra
trabut
trace
traces
tracklist
trad
tradition
traditionnelle
traduction
traduit
trafalgar
trage
trah
traite
trakalt
tram
tramway
trans
transactions
translated
translation
transliteration
transmission
transparent
travaux
travels
tre
treatment
trebaɛ
trebbaɛ
trebbut
trebbuya
trebbuɛa
treddi
tree
tregwa
treh
trennu
tres
treswat
trewla
trewled
trewlem
trewlemt
triblinka
tribu
tribulus
tribunal
tribus
trie
trifit
trifolium
trigonella
triki
triomphe
tripod
triquetrum
tririt
tris
trisiti
triton
tro
trois
troupe
trouve
trovoada
truca
trud
truh
trujlita
trumit
truna
trusi
trusit
truz
ts
tsa
tsafin
tsafliwin
tsanayt
tsartit
tsartut
tsawal
tsawel
tsawin
tsaɛtin
tsed
tsedawit
tsedda
tseddakamt
tseddar
tseddarin
tseddart
tseddast
tseddawit
tseddawiyin
tseddi
tsedmirin
tsedmirt
tsednan
tseflay
tseftit
tsegda
tsegla
tsehrest
tsekkurt
tsekla
tsekles
tsekliwin
tseklut
tsekrin
tsekta
tsektiwin
tselnin
tselt
tselwit
tsemhuyin
tsemhuyt
tsemma
tsemtit
tsen
tsenawit
tsenbert
tsenfednin
tsengama
tsenned
tsensartut
tsenselkimt
tsensileɣt
tsentilt
tsenwurit
tsenɣersiwt
tseqqamut
tseqquma
tserdunt
tserkam
tserran
tsers
tsertit
tsertiyin
tserz
tserɣint
tserɣuda
tsexriwt
tseɛt
tseɣleyt
tsidert
tsinin
tsint
tsisanin
tsuchiya
tsuda
tsuddest
tsuddisin
tsuddut
tsudut
tsufaɣ
tsugint
tsukan
tsunami
tsuqilin
tsuqilt
tsuranit
tsurta
tsusit
tsusmi
tsut
tsuta
tsutin
tsuɣ
tt
ttaddamen
ttadren
ttafen
ttafken
ttag
ttagaden
ttagan
ttagnitt
ttagz
ttak
ttaken
ttakken
ttalasen
ttalin
ttallent
ttalsen
ttama
ttamnen
ttar
ttaran
ttarin
ttarix
ttarmen
ttarran
ttarun
ttarunt
ttaruɣ
ttasen
ttasfift
ttat
ttawat
ttawd
ttawey
ttawil
ttawilat
ttawin
ttawiɣ
ttay
ttazalen
ttazallen
ttazmaren
ttaznen
ttazzalen
ttaɣen
ttbanen
ttbeddilen
ttbinen
ttbut
ttd
ttebyita
tteddren
tteddu
tteddun
tteffeɣ
tteffren
tteffɣen
ttefɣen
ttefɣent
tteg
tteh
ttejr
tteki
ttekin
ttekkan
ttekkant
ttekkayen
ttekken
ttekkin
ttekksen
tteklen
ttemcabin
ttemcabint
ttemlilin
ttemnamarent
ttemsefhamen
ttemslayen
ttemɣayen
ttemɣayent
ttenfufuden
ttenkaren
ttent
tterbya
tterk
tteryel
ttesrih
tteswira
ttesɛa
ttetten
ttewh
ttezwag
ttezzi
tteɛr
ttfakan
ttfakkan
ttfas
ttferfiren
ttgen
ttgent
ttgin
tth
ttheggin
ttid
ttidiren
ttidirent
ttikint
ttiknulujiyin
ttili
ttilin
ttilint
ttimɣuren
ttin
ttingen
ttinigen
ttinigenara
ttinigent
ttinin
ttipaj
ttismid
ttiz
ttiɛad
ttjar
ttjara
ttjur
ttkemmilen
ttlalen
ttlata
ttlussun
ttlusun
ttlut
ttmagaren
ttmagen
ttmeslay
ttmeslayen
ttmeslayent
ttmeslayeɣ
ttmettaten
ttmilen
ttmsefhamen
ttnadin
ttnadiɣ
ttnas
ttnaɣen
ttnulfun
ttnuzen
ttnwiwlen
ttqadaren
ttqerriben
ttr
ttrad
ttrag
ttrajun
ttrebga
ttruh
tts
ttsemmin
ttugezmen
ttumeggzen
ttumeggzent
ttun
ttunefken
tturaren
tturk
ttuselmadent
ttusemman
ttusemmant
ttuseqdacent
ttusisemlen
ttusmersent
ttusqedcent
ttussesmlen
ttusxedmen
ttuxellas
ttuz
ttuɣ
ttuɣa
ttuɣal
ttuɣalen
ttuɣalent
ttwabd
ttwabnan
ttwad
ttwafken
ttwagedlen
ttwagent
ttwah
ttwakksen
ttwakksent
ttwali
ttwalin
ttwalint
ttwaliɣ
ttwanfan
ttwanɣan
ttwaqqna
ttwarnan
ttwarun
ttwas
ttwasedger
ttwasemman
ttwasilɣen
ttwasinfen
ttwasisemlen
ttwasnen
ttwasnirmen
ttwassnen
ttwassnent
ttwasxedmen
ttwasɛeddint
ttwat
ttwawekkelen
ttwaxdamen
ttwaxeddɛen
ttwaxedmen
ttwaxedment
ttwaxedɛen
ttwaz
ttwazrawen
ttwaɛelqen
ttwaɛerben
ttwaɛezlen
ttwaɛqalen
ttxemmimen
ttxil
ttz
ttɛawaden
ttɛeddin
ttɣamayent
ttɣilen
ttɣimin
tu
tub
tubar
tuber
tubiret
tubrazt
tuc
tucabim
tucbih
tuccanin
tuccd
tuccda
tuccent
tuccit
tucet
tud
tudart
tudayin
tudayt
tuddar
tuddarcategory
tuddert
tuddisin
tuddist
tuddit
tuddma
tuddna
tuddsa
tuddsiwin
tuddurt
tude
tudef
tudemt
tuder
tudersent
tudert
tudes
tudfirt
tudmisin
tudmist
tudra
tudrin
tudrinaɣmis
tudrinhttp
tudsa
tue
tufa
tuffet
tuffirt
tuffiɣt
tuffra
tuffz
tuffɣa
tuffɣiwin
tufga
tufka
tufra
tufrar
tufrart
tufrint
tufya
tufɣa
tug
tuga
tugaliyen
tugar
tugart
tugdat
tugdi
tugdut
tuget
tugett
tugg
tuggdi
tuggna
tuggta
tuggtudert
tuggz
tuggza
tuggziwin
tugi
tugid
tugin
tuglimt
tugna
tugnatin
tugnignut
tugniwin
tugtakwatin
tuguz
tuh
tujjya
tujut
tukac
tukci
tukctaytit
tukerd
tuki
tukistant
tukkest
tukkisin
tukkist
tukkit
tukksa
tukr
tukrist
tukrizt
tuksa
tuksitant
tukyanust
tukza
tulawin
tulempayt
tuli
tulila
tullas
tullawin
tullin
tullisin
tullist
tullizin
tullizt
tullsa
tully
tullya
tulmisin
tulmist
tulmut
tulsa
tultayin
tulut
tumanawt
tumanin
tumant
tumart
tumast
tumdin
tumdiwin
tumedt
tumelt
tument
tumert
tumgisent
tumlilt
tummidt
tummilin
tumz
tunag
tundra
tunes
tunescategory
tuness
tunguft
tunigin
tunis
tunisie
tunisienne
tunnigt
tuns
tunsibt
tunt
tuntimt
tuqemca
tuqqla
tuqqna
tuqqniwin
tuqqsa
tur
tura
turagt
turah
turar
turart
turat
turbo
turda
turdiwin
turdus
turew
turfin
turfinn
turin
turing
turit
turk
turkil
turkill
turkmanistan
turkya
turmidt
turner
turrit
turs
turtuduksit
turufit
turuft
turuftcategory
turwin
turza
turziwin
tus
tusa
tusdidin
tusdidt
tused
tusi
tuskan
tuslidt
tusligin
tusligt
tusna
tusnakt
tusnant
tusnatin
tusnazduɣt
tusnist
tusniwin
tusridt
tussa
tussda
tussist
tussit
tussna
tussnagama
tussnamya
tussnanin
tussnant
tussnayyurt
tussniwin
tustruniziyin
tusut
tut
tutalyt
tutlayin
tutlayt
tutrict
tutrimin
tutrimt
tuttra
tuttut
tuttya
tutut
tuwd
tuwed
tuwet
tuwey
tuwi
tuwmert
tuwriɣt
tuwwit
tuwwt
tuxsa
tuyat
tuyes
tuz
tuzart
tuzduɣt
tuzen
tuzer
tuzert
tuzga
tuzin
tuzka
tuzna
tuzuft
tuzwiɣt
tuzya
tuzza
tuzzalt
tuzzanin
tuzzel
tuzzigt
tuzzma
tuzzuft
tuzzya
tuzzyiwin
tuɛer
tuɣ
tuɣa
tuɣac
tuɣal
tuɣaled
tuɣalin
tuɣaltin
tuɣd
tuɣdad
tuɣdimin
tuɣdimt
tuɣed
tuɣit
tuɣiten
tuɣmas
tuɣmest
tuɣridt
tv
tvidyutin
twacculin
twaccult
twaculin
twacult
twacunt
twaffra
twain
twaksa
twala
twalid
twalin
twaract
twarrz
twat
twati
twaɣit
twaɣiyin
twekka
twennad
twennadt
twennat
twenza
twenɣa
twermin
twes
twessna
twet
twetlin
twetmin
twezziwin
twilayat
twilayet
twilayin
twilayt
twilaytin
twinas
twines
twinest
twinsat
twist
twitter
twizi
two
twukt
twuri
twuriwin
twurta
twurtiwin
txalwatit
txeddem
txedmed
txedɛed
txencelt
txerrubt
txilek
txulef
txus
tyaɣ
tycho
tyemmat
tyemmatt
tyita
tyiwt
type
types
typescript
tyrion
tyudus
tyuga
tz
tza
tzagirt
tzamugt
tzeddel
tzeddiɣt
tzedmin
tzeglin
tzelgi
tzelɣa
tzelɣiwin
tzemkin
tzemmalt
tzemmar
tzemmurt
tzemred
tzemrem
tzenzelt
tzeqqa
tzeqqatin
tzermemmuyin
tzerrew
tzerzayt
tzeɣlilin
tzeɣwa
tzgir
tziri
tzitmura
tzitmurt
tzizwa
tzukt
tzumar
tzumbiyin
tzunegzirt
tzuri
tzutar
tɛac
tɛadda
tɛawed
tɛebrit
tɛecriwin
tɛed
tɛedda
tɛeddi
tɛelleq
tɛembubt
tɛessast
tɛuss
tɣab
tɣad
tɣaltin
tɣamsa
tɣanimt
tɣara
tɣarɣart
tɣawla
tɣawsa
tɣawsiwin
tɣelfa
tɣelli
tɣellist
tɣemmar
tɣemrin
tɣemsa
tɣer
tɣerdayt
tɣerfin
tɣerma
tɣermin
tɣermiwin
tɣessa
tɣessiwin
tɣewwaɣin
tɣil
tɣimit
tɣir
tɣirdemt
tɣirdmiwin
tɣiwanin
tɣiwant
tɣula
tɣulin
tɣult
tɣur
tɣuri
u
ub
uba
ubabat
ubabur
ubaggus
ubagu
ubalal
ubama
ubanɣu
ubareɣ
ubari
ubat
ubaɛiyat
ubaɣa
ubb
ubben
ubbu
ubeddel
ubeh
ubelkim
ubellen
ubellez
ubellud
uben
ubeqqed
uber
uberdeɣyul
uberkan
uberni
uberreh
uberru
uberwaq
ublanit
ubleɣ
ublug
ubr
ubrid
ubruq
ubsis
ubuferriw
ubulis
ubuluɣin
ubunsay
uburjij
uburɣes
ubusbis
ubɛid
uc
ucabur
ucafcal
ucali
ucay
ucc
uccanen
uccen
ucci
ucd
ucebbah
ucebbak
ucebbub
ucelhab
ucelleh
ucemmet
ucen
ucengu
ucennay
uceqquf
ucet
ucettal
ucewwiq
uceyyeɛ
ucin
uclah
uct
ucubar
ud
udabu
udad
udan
udanmar
udasil
udawi
uday
udayen
udbil
udd
udden
uddis
uddisen
uddu
uddun
udebbuz
udebsi
udeffu
udeggi
udekkar
udellel
udelta
udem
udemdam
udemmer
uderyis
udfar
udfel
udfiren
udi
udid
udinan
udiwenni
udlif
udlifen
udlis
udma
udmawan
udmawanen
udmawen
udnanas
udnunnes
udr
udrar
udras
udraw
udren
udrim
udrum
udu
udus
ue
uefa
uen
uetersen
uf
ufakan
ufali
ufan
ufant
ufarer
ufares
ufaris
ufarnu
ufay
ufaylellis
ufaylu
ufdayen
ufel
ufell
ufella
ufellah
ufen
uferdis
uferfer
ufert
ufexxar
uffal
uffir
uffiren
uffiɣ
uffiɣen
ufgan
ufi
ufimidi
ufin
ufit
ufiyen
ufiyin
ufiɣ
ufrag
ufran
ufransis
ufraq
ufraren
ufrari
ufraw
ufray
ufrin
ufrinen
uft
ufukku
ufunas
ufurk
ufurmas
ufurum
ufus
ufyan
ug
uga
ugaden
ugadez
ugadeɣ
ugadir
ugafa
ugama
uganda
ugani
ugar
ugaraw
ugaren
ugarent
ugasas
ugaz
ugbur
ugdil
ugdud
ugeddis
ugedr
ugedrur
ugeffur
ugeldun
ugelid
ugellid
ugellus
ugelmim
ugemmad
ugemmay
ugemmud
ugemmun
ugen
ugenduz
ugensa
ugenses
ugensu
ugerdas
ugergis
ugergur
ugerjum
ugerram
ugerru
ugerrum
uget
ugetdis
ugezdu
uggaden
uggar
ugglent
uggug
uggur
ugin
ugisi
ugit
ugitu
uglad
uglam
uglan
uglay
uglim
uglmam
ugmam
ugman
ugmar
ugmid
ugmud
ugni
ugniw
ugram
ugraw
ugrawli
ugrawliw
ugrilel
ugris
ugrud
ugt
ugten
ugtent
ugu
uguccel
ugudi
ugummu
uguni
ugur
uguren
ugurres
ugusim
ugwni
ugzam
ugzedu
uh
uhad
uhaggar
uhanay
uheggi
uher
uhicur
uhidr
uhilium
uhilyum
uhu
uhuddu
uhuki
uitgeverij
uj
ujar
ujeg
ujemmal
ujen
ujeqdur
ujeɛbub
ujgu
ujhid
ujin
ujiniral
ujinum
ujmaɛ
uk
uka
ukabar
ukafan
ukala
ukamyun
ukan
ukantun
ukar
ukarbun
ukaswar
ukatar
ukawsar
ukayad
ukayed
ukaɣed
ukbal
ukdu
ukebbib
ukebri
ukec
ukeffadu
ukemmel
uker
ukerdis
ukerma
ukerrec
ukerrer
ukerruc
ukersi
ukessar
ukfadu
uki
ukin
ukit
ukk
ukkud
ukkuz
ukr
ukraine
ukranya
ukrat
ukrayin
ukren
uksar
uksiden
uksijin
uksum
ukt
uktab
ukud
ukufi
ukuma
ukuz
uky
ukyis
ukzen
ul
ula
ulac
ulad
ulagmud
ulallu
ulama
ulamek
ulamma
ulan
uland
ulansi
ulant
ulawen
ulday
uldun
ulehlu
ulemmas
ulempiyen
uletma
ulfa
ulfan
ulfu
ulfun
ulh
uliktrun
ulili
ulimpi
ulin
ulit
ulkem
ulkin
ull
ulla
ullach
ulli
ullis
ulma
ulmad
ulman
ulmifolius
ulmu
ulmud
ulmus
ulmuten
ulsen
ult
ultma
ulullam
ulxu
ulysse
ulzasen
ulzuz
ulɛrbi
ulɣem
ulɣu
ulɣwem
um
uma
umaccaq
umad
umadal
umadaɣ
umagrad
umagraman
umahil
umaklas
umal
umalay
umalek
umalu
umalway
umam
uman
umanar
umanen
umanga
umani
umanit
umaniyen
umant
umanya
umar
umarir
umaru
umat
umata
umava
umawal
umawi
umayas
umaynag
umaynut
umayya
umaz
umazan
umazellaw
umaziɣ
umazrag
umazran
umazrar
umazun
umazzal
umaɣad
umaɣat
umaɣlay
umaɣus
umbaɛd
umbeɛd
umbilicus
umcabi
umcic
umd
umda
umdakkel
umdan
umdeɣ
umdil
umdiq
umeccaq
umecras
umecreq
umecriq
umecwar
umed
umeddakel
umeddakkel
umeddakul
umeddis
umedru
umedwel
umedya
umedyaz
umeggay
umeggez
umeh
umejjay
umeklay
umeksa
umektay
umel
umellal
umellil
umelyar
umelyun
umen
umenkad
umenkud
umenniɣ
umennuɣ
umens
umensur
umenuɣ
umenz
umenzaw
umenzay
umenzu
umenɣi
umeqqran
umeqran
umer
umercel
umerdul
umerri
umerruk
umerwas
umeskan
umeskar
umeskil
umeslay
umesli
umesnallun
umesni
umesnubget
umessuji
umet
umeyagger
umez
umezdaɣ
umezgun
umezruy
umezwaru
umezyan
umezzil
umezzwaru
umeɣnas
umeɣrad
umeɣras
umeɣrib
umgarad
umgaru
umgired
umgun
umh
umhi
umi
umida
umidag
umihi
umin
uminen
umit
umitan
umiter
umiyen
umkan
umkuz
umlelli
umlil
umlulli
umm
umma
ummam
umman
ummid
umnadi
umnar
umnekni
umnen
umnir
umnukal
umqerqer
umqerqur
umr
umraw
umrawseggas
umray
umru
ums
umsaddas
umsefhem
umsegraw
umsegrew
umsenɣi
umseqdac
umt
umtawa
umtiweg
umud
umuddir
umudlif
umuir
umuli
umulli
umunak
umur
umuri
umurigam
umusa
umusnaw
umussnaw
umussu
umutur
umuɣ
umuɣen
umwan
umya
umyag
umyaraw
umyaru
umyen
umyiyen
umyurar
umz
umzarfu
umɛa
umɛin
umɣar
umɣiwan
un
una
unabad
unaddal
unadi
unafag
unag
unagen
unagi
unagraw
unalak
unamek
unant
unap
unavirus
unaz
unazur
unaɣur
unbad
unbir
und
under
undiyen
une
unebdu
uneccab
unecfu
unect
uned
uneggaf
uneggaru
uneggez
unegliz
unegzum
unehhar
unejmuɛ
unekcam
unekcum
unelmad
unembad
unemdu
unemgal
unemhal
unen
uneqlab
unermis
unes
unesco
unessas
unez
unezwu
unezzu
uneɛruf
uneɣlaf
uneɣmas
uneɣna
unfafad
unfaras
unfed
unfel
unfufed
ungal
ungalen
ungar
unhil
uni
unicode
unies
unikel
unin
uninja
union
unis
unit
unite
united
unitrujin
units
universal
universalis
universel
universitaires
universite
university
uniyen
unjug
unnar
unnay
unnen
unnerni
unnig
unnigen
unniyen
unnuɣ
unr
uns
unsay
unsib
unsiben
unstats
unt
untersuchungen
unthought
unti
unud
unugga
unulfu
unused
unuɣ
unuɣen
unwi
unwiwel
unya
unyir
unz
unzul
up
update
updated
upitr
upiyin
uplastik
upload
upon
uppa
upper
upr
upright
upyanu
uq
uqacuc
uqader
uqamum
uqarru
uqarruy
uqasi
uqbayli
uqbel
uqbu
uqbur
uqcic
uqebl
uqecwal
uqeddac
uqedec
uqelmun
uqer
uqerru
uqerruy
uqerry
uqet
uqqet
uqqin
uqqten
uqqtent
uqqut
uqrat
uqrib
uqten
uquq
uqus
uqvel
ur
ura
urabah
urad
uran
urant
uranus
uranya
urar
uraren
urarent
urasan
urasya
urbain
urbains
urbaɛ
urcalim
urdab
urdiyen
urdu
urdun
ureb
urekti
uremd
uren
urens
urent
ureyya
ureɣ
urfan
urg
urgaz
uri
urigami
urih
urikata
urikatar
urimmec
urin
uriya
uriyin
uriɣ
urjjin
urk
urkawal
urken
urki
urkit
url
urmen
urmiden
urmir
urmud
urnan
urnay
urr
urrayen
urrif
ursa
ursu
ursus
ursuten
urt
urtan
urtayas
urti
urtica
urtin
urtiyen
urtuduksi
urtuduksiyen
urtyas
uruguay
urugway
uruku
urumani
urumi
uruppa
urured
urwas
urway
urwen
uryin
urz
urzen
urɛad
urɣu
us
usa
usad
usaduf
usadur
usafag
usaflaw
usaflu
usage
usagen
usagma
usaka
usaksufun
usalay
usalel
usali
usallaf
usama
usamar
usamer
usammar
usammer
usan
usanay
usarag
usaran
usardas
usarir
usaru
usarug
usarya
usasnef
usawen
usayn
usaɣur
usbeddi
usbit
usdid
usdiden
usdukkel
use
usebdad
usebded
usebgen
usebges
usebter
usec
used
usedday
useddiq
usedger
usediq
usedmer
usedrem
usedres
useffud
usefk
useflay
usefru
usefruret
usefrurex
usefsi
usefter
usegas
usegdef
usegder
usegg
useggas
useggem
useggiw
useggwas
usegmar
usegmi
usegmu
usegnaf
usegrew
usegwas
usegwass
usegzel
usegzi
useh
usekcem
usekdu
usekfel
usekker
usekkil
usekkud
usekles
useklu
usekraf
usekti
uselkem
uselkim
usellek
uselmad
uselmed
uselway
uselyen
usemdu
usemgal
usemgerred
usemgirred
usemlel
usemmar
usemmi
usemmid
usemmili
usemmit
usemnenni
usemres
usemti
usemyif
usenfar
usenferru
usenger
usenker
usenmel
usennan
usenned
usennefru
usennur
usenqed
usensi
usensu
usensul
usent
usentel
usentem
usenti
usenzi
usenɣed
useqdac
useqdec
useqqamu
useqɛed
user
userdas
userdun
userh
userrad
users
usersi
userwes
userɣen
userɣi
uses
usesmel
usewseɛ
usewwi
usexdem
usez
usezri
useɣri
useɣti
useɣz
usfat
usfel
usfijjej
usfik
usfugel
usfuggel
usganfu
usggas
usgufsu
usgunef
usgunfu
usibbus
usid
usiden
usigna
usignew
usihel
usiked
usikel
usiken
usikez
usilel
usileɣ
usima
usin
usina
usinaryu
usinef
using
usingle
usinuksid
usired
usirem
usirew
usiseɣ
usismel
usiwed
usiwel
usiwet
usizder
usizeɣ
usizzel
usiɣ
usiɣi
uskasi
uskazal
uslelli
usleɣmay
uslig
usligen
usm
usmekti
usmel
usmeskel
usmikcem
usnan
usnefli
usnerni
usnezwi
usnidi
usniken
usnirem
usnulfu
uso
usqamu
usqerdec
usrag
usrid
usrir
usru
uss
ussad
ussamer
ussan
ussananen
ussawen
ussebded
usseddu
ussefrek
usseg
ussegas
usseggwas
ussegmi
ussegwas
ussegwass
usseh
usselkem
usselmed
ussen
ussenker
usseqdec
usserdas
ussewwi
ussezgi
ussid
ussileɣ
ussin
ussinen
ussis
ussisen
ussiɣed
ussnan
ussnanen
ussuffeɣ
ussugen
ussuji
ussukkes
ussuneɣ
ussutter
ust
ustan
ustaɛfu
usteqsi
usterd
usteɛreb
ustirf
ustr
ustralya
ustudyu
usu
usually
usud
usuddem
usuddes
usudu
usufeɣ
usuffeɣ
usugen
usuggas
usuji
usummu
usun
usunen
usuneɣ
usuqel
usurdu
ususru
usussen
usutel
usutem
usuter
usuɣ
usuɣel
usuɣen
uswir
usyania
usɣan
usɣar
usɣunef
ut
utah
utaram
utc
utca
utdallas
utekki
uteppi
uterras
utilifun
utilisation
utilise
utiliser
utilisez
utiliskup
utin
utitan
utmelli
utram
utraman
utrecht
utrici
utrim
utrimen
utt
uttekki
uttwaɣ
utun
utunen
uva
uvirus
uwadem
uwali
uwan
uwanak
uwanek
uwaqqur
uwat
uwatya
uwd
uwdan
uweggir
uwenbir
uweqqas
uwerta
uwessur
uwet
uwezziw
uwi
uwin
uwines
uwliwel
uwnis
uwr
uwrat
uwraɣ
uwren
uwtem
uwyen
uxas
uxdam
uxeddim
uxemmem
uxemmuj
uxes
uxetyar
uxs
uxtiri
uxxam
uy
uya
uyagwar
uyah
uyama
uyazid
uyazit
uydi
uyeffus
uyefki
uyeh
uyen
uyerzi
uyiren
uyusef
uz
uza
uzadaɣ
uzadur
uzaglu
uzagur
uzal
uzamal
uzamul
uzan
uzarmezruy
uzarug
uzawag
uzawan
uzaɣar
uzbakistan
uzbekistan
uzbu
uzdal
uzday
uzdiger
uzeffar
uzeggaɣ
uzegrir
uzegza
uzegzaw
uzekka
uzellagen
uzelli
uzelmad
uzemmur
uzemz
uzenzar
uzeqziq
uzermezruy
uzerrig
uzet
uzezzu
uzgar
uzgen
uzger
uzi
uzimez
uzin
uziri
uziweɣ
uzizzer
uzlem
uzlig
uzmez
uzmig
uzmigen
uzmiren
uznen
uzniq
uzrar
uzray
uzref
uzrif
uzrifen
uzrugzir
uzsru
uzuf
uzumaki
uzumba
uzunglay
uzunɣid
uzuref
uzuɣer
uzwaw
uzwel
uzwu
uzya
uzyam
uzzal
uzzanen
uzzayri
uzzig
uzziyen
uzzu
uzɣal
uzɣar
uzɣin
uɛawdiw
uɛawed
uɛd
uɛdaw
uɛebbud
uɛeddeb
uɛeddi
uɛekkaz
uɛekkur
uɛekkwaz
uɛemran
uɛeqqa
uɛessas
uɛiwed
uɛiwen
uɛqal
uɛrad
uɛrur
uɣ
uɣal
uɣalad
uɣalen
uɣalent
uɣaleɣ
uɣallen
uɣanib
uɣanim
uɣara
uɣaram
uɣaras
uɣarbaz
uɣawas
uɣbalu
uɣella
uɣelluy
uɣelmi
uɣen
uɣent
uɣer
uɣerbaz
uɣerda
uɣerrabu
uɣersiw
uɣerɣur
uɣes
uɣesmar
uɣest
uɣewwiɣ
uɣiddi
uɣilas
uɣilif
uɣimi
uɣiwel
uɣiwen
uɣlad
uɣlif
uɣluɣel
uɣmar
uɣmir
uɣmis
uɣr
uɣref
uɣrem
uɣrid
uɣris
uɣrisen
uɣrud
uɣrum
uɣsan
uɣucaf
uɣur
uɣurar
uɣyul
v
va
val
vale
valentin
valeur
valeurs
vallenato
valletta
value
values
van
var
varepsilon
vat
vatikan
vava
ve
vector
vega
vel
veliko
vella
vendredi
vendu
veneris
venezuela
venice
venise
vent
ventre
venus
verbe
verbenaca
verlag
vermondo
vermont
vernaculaire
verne
vers
version
versions
vert
vertical
ves
vespucci
veto
vi
viation
vichy
victor
victoria
vide
video
videoprojecteur
vie
vieille
vielliard
vienna
vienne
viens
vietnam
view
vignette
vii
viii
vij
viking
viktorya
vikunya
vilaine
villa
village
villages
ville
villes
villosa
vin
vincent
vinci
vinisya
vinland
vipe
virginia
virol
virus
viruses
visible
vision
visnaga
vista
vita
vitti
vittorio
vive
vivre
vizir
vk
vladimir
vocabulaire
vocation
voice
voir
voivodeship
voix
vol
volga
volt
volte
volume
volution
von
voss
vous
voyage
voyelles
vre
vrefeuille
vres
vrier
vrille
vs
vu
vue
vuk
vulgare
vulgaris
vulpes
vy
vysoc
w
wa
wab
wac
waccaren
wacciwen
wacemma
wacer
wach
waci
wacnaf
wacu
waculin
wad
wada
wadad
wadal
wadalen
wadanen
wadda
waddad
waddaden
waddag
waddal
waddalen
waddar
wadday
waddu
waddud
wadduden
wadeg
wadet
wadgen
wadi
wadik
wadiken
wadis
wadu
wadur
wadus
waffa
waffal
waffaw
waffug
wafraw
wafrawen
wafriw
wafriwen
wafɣanen
wag
wagar
wagarsafen
wagaz
wagazen
waggad
waggag
waggagen
waggaz
waggi
waggug
waggur
wagguren
wagi
wagim
wagla
wagnun
wagur
waguren
wah
wahi
wahid
wahil
wahilen
wahit
waj
wajjed
wak
wakal
wakalen
wakat
waken
wakk
wakka
wakken
waklan
wakli
wakraren
waktun
wakuc
wakud
wakuden
wal
wala
walan
walaɣ
walban
walbaɛd
walbumen
walen
walennas
wali
walid
walim
walin
walit
waliɣ
wall
wallace
wallal
wallalen
wallan
wallaɣ
wallaɣen
wallen
wallet
wallunmas
wallus
walluy
walmaniyen
walmaten
walt
walter
waltham
walton
walus
walut
wama
wamag
waman
wamas
wamaz
wamber
wamek
wameɛ
wamin
wamlal
wammas
wammasen
wammud
wammuden
wamp
wamun
wamur
wamuren
wan
wana
wanad
wanag
wanaw
wanawen
wanbaz
wanda
wandalus
wandlus
wanect
wanecta
wanen
wang
wanida
wanin
wanna
wannag
wannan
wannar
wannay
wannayen
wannect
wannecta
wannuf
wannufen
wannuz
wansa
wansayen
wansi
wansifen
wanu
wanukrim
wanwa
wanz
wanza
wanzaren
wanzi
waqqar
war
wara
waram
waras
waray
waraz
warazen
warda
wardanin
wardiya
wardya
warg
wargaz
warglen
wargren
warif
warim
warja
warkawal
warrac
warramen
warraten
warraw
warraz
warrazen
warruw
wars
warsaw
warsnis
warsu
wartilan
waru
waryel
warz
warzazat
was
wasar
wasel
washington
wasif
wasin
wasmi
wass
wassa
wassar
wassaɣ
wassaɣen
wassen
wassif
waste
wasuf
wasul
wasun
wasɣanen
wat
watan
watas
watch
water
waterford
watig
watlas
watmaten
wawal
wawalen
wawras
wawsen
wawwaz
waxeddim
waxxa
waxxam
way
waya
wayagi
wayback
waydi
wayed
wayedt
wayen
wayes
wayess
wayet
wayetma
wayi
wayis
wayla
waylal
waylalen
wayn
wayne
wayt
wayyen
wayyur
wayyuren
waz
wazag
wazagen
wazal
wazalen
wazan
wazar
wazedduz
wazemz
wazt
wazuk
wazza
wazzan
wazzug
wazzugen
wazzun
waɛban
waɛli
waɛmar
waɛmer
waɛrab
waɛraben
waɛrur
waɣanen
waɣlan
waɣref
waɣzen
wcen
wd
wdl
we
web
webdad
weber
webkit
webleɣ
webrid
webster
wecrat
wectum
wed
wedfar
wedfel
wedfey
wedjajen
wedlag
wedlis
wedlisen
wednunnes
wedrar
wedrarcategory
wedras
wedren
wedrim
wedris
wedriz
wedrum
wedɣaɣ
weekday
weekly
wefgan
wefrag
wefran
wefraq
wefraw
wefray
wefriw
wefru
wefrux
wefsax
wefsay
weg
wegdud
wegener
weglam
wegles
weglim
wegmam
wegmar
wegmud
wegni
wegra
wegraw
wegrik
wegris
wegru
wegrud
wegt
wegzam
weh
wehhab
wehmen
wehran
wehrmacht
weight
weimar
wejda
wejden
wejdet
wejgu
wejjed
wejɛud
wekbal
wekdu
wekfadu
wekmaz
weksijin
weksil
weksujin
weksum
wektay
welban
welcome
weld
welday
welfay
welh
welkam
welkem
well
weller
wellington
wells
welmad
welman
welmaz
welqadi
welt
weltennas
weltma
welzuz
welɣem
wembaddel
wember
wembiwel
wemcabi
wemcic
wemd
wemda
wemdakkel
wemdan
wemdun
wemgarad
wemgaru
wemgerrad
wemkan
wemni
wemray
wemru
wemruj
wemsefham
wemsegraw
wemtawa
wemtiweg
wemyag
wemyaraw
wemz
wemzur
wemɛuc
wemɣar
wemɣay
wen
wenbad
wenbir
wendar
wendlus
wenfafad
wenfufed
wengalen
wengar
wengaz
wenisa
wenissa
wenn
wennar
wenrar
wensay
went
wenz
wenzar
weqbayli
weqbel
weqbu
weqcic
weqjun
weqmad
weqran
weqziz
wer
wercal
werdab
werder
were
wereh
werg
wergal
wergaz
werja
werjin
werkad
werkawal
werke
wermud
wernegger
werner
werset
werthers
wertilan
wertiran
werwas
werway
weryaɣel
werɛad
wes
wesdukel
wesdukkel
wesebrurez
weseggas
wesget
wesgunef
weskaf
weskar
weskasi
weslelli
wesli
wesmel
wesmil
wesnay
wesnerni
wesnirem
wesnulfu
wesrem
wesrir
wesru
wessnifel
wessuji
west
westag
westan
westay
western
westeros
westminster
westum
weswir
wesɣan
wesɣar
wet
wetram
wewras
wewren
wewtem
wexdam
wexred
wextuc
wexxam
wexxren
weydi
weylal
weyrad
wez
wezdal
wezday
wezgar
wezgen
wezger
wezlem
wezmez
wezniq
wezrar
wezray
wezref
wezrekki
wezrem
wezwar
wezwel
wezwu
wezzal
wezzil
wezzilen
wezzu
wezzucategory
wezɣal
wezɣan
wezɣar
weɛdnan
weɛli
weɛmar
weɛmiruc
weɛr
weɛraben
weɛrur
weɛt
weɣlan
weɣlif
weɣlis
weɣmis
weɣr
weɣref
weɣrem
weɣris
weɣrum
weɣsi
weɣtas
weɣyay
weɣyul
weɣzu
wfaras
wfares
wfaris
whales
what
when
where
which
white
whitechapel
who
why
wi
wid
widak
wide
widen
width
wien
wig
wigad
wigi
wihin
wij
wiji
wiki
wikidata
wikimapia
wikimedia
wikipe
wikipedia
wikiproject
wiktionnaire
wilaya
wild
wildlife
wilhelm
wilili
will
william
williams
willul
wilson
wimbledon
win
wind
window
windows
windsor
wings
winna
winston
winter
winterfell
wir
wiren
wirzan
wis
wisar
wisconsin
wisen
wiss
wissen
wissenschaften
wissin
wit
with
without
wiyad
wiyed
wiyid
wiyyad
wiyyat
wizgan
wkayad
wlad
wled
wnez
wod
wolf
wolfgang
wolves
women
wonders
wood
wordpress
work
workgroups
works
world
wp
wr
wranitzky
wraɣ
wrida
writers
writing
wseggas
wsenɣed
wseskel
wsesmel
wsiden
wsileɣ
wsismel
wsitin
wsizdeg
wsuji
wt
wta
wten
wu
wubrid
wuc
wuccanen
wuccen
wucci
wud
wudayen
wuddisen
wudem
wudi
wudmawen
wudus
wufus
wugar
wuggug
wugi
wuglan
wugur
wuguren
wuhan
wuksijin
wukud
wul
wulac
wulawen
wulli
wullis
wumdan
wumi
wumuɣ
wunbir
wungal
wungalen
wunjug
wunnuɣen
wunti
wunuɣ
wunuɣen
wunz
wurar
wuraren
wureɣ
wurfan
wurigami
wurikata
wurmir
wurnan
wurtan
wurufiyen
wuseggas
wussan
wusu
wusud
wut
wuxxam
wuz
wuzmig
wuzmigen
wuzuf
wuzufen
wuzzal
wuɣur
wvirus
wwd
wwed
wwet
wwi
wwid
wwin
wwint
wwit
wwiɣ
wwt
wwten
www
x
xal
xaled
xalef
xali
xalid
xalif
xalifa
xalil
xan
xarttum
xas
xat
xati
xayyam
xdem
xdmen
xed
xedda
xeddac
xeddam
xeddem
xeddmen
xeddment
xedmen
xedment
xedɛen
xedɛent
xef
xeld
xeldun
xelfun
xelif
xellfen
xelluf
xelqen
xemmen
xemsa
xemsin
xerrat
xes
xesren
xesrent
xessren
xettab
xeyr
xezznen
xf
xi
xianfan
xico
xid
xii
xiii
xilla
xique
xir
xiv
xix
xlan
xli
xlif
xlifa
xlig
xlil
xlili
xlunt
xmest
xmir
xmisat
xmisti
xnifra
xp
xtaren
xug
xuld
xur
xuribga
xus
xuwarzmi
xv
xvi
xvii
xviii
xx
xxamen
xxi
xyar
y
ya
yacine
yad
yada
yadef
yader
yaf
yafen
yafes
yager
yagez
yaggi
yaggug
yaggugen
yagi
yah
yahia
yahya
yak
yakan
yaker
yakez
yakk
yakked
yakkw
yakuc
yakuf
yakw
yal
yala
yalass
yales
yali
yall
yalla
yamagata
yaman
yamar
yamen
yamina
yamu
yan
yanen
yanez
yani
yanin
yankees
yanni
yant
yaounde
yapan
yar
yara
yarem
yarez
yargazen
yark
yarna
yarnu
yaru
yarun
yas
yasef
yasen
yasent
yasin
yasmina
yass
yassed
yassin
yasunari
yat
yaten
yawed
yawen
yawet
yawey
yawi
yawin
yayınları
yaz
yazen
yazid
yaɛla
yaɛnan
yaɛqel
yaɛqub
yaɣ
yaɣen
yd
ye
year
yearcc
yeardays
years
yearyy
yebbez
yebbwi
yebd
yebda
yebdan
yebdas
yebdda
yebded
yebder
yebdi
yebdu
yebedda
yebeddel
yebka
yebna
yebnan
yebnu
yebra
yebrahim
yebrir
yebrit
yebru
yebt
yebter
yebwid
yebz
yebɛed
yebɣa
yebɣan
yebɣi
yebɣu
yec
yecbah
yecban
yecc
yeccbah
yeccna
yeccnan
yeccur
yecfa
yecliɛ
yecna
yecnan
yecnu
yecred
yecrek
yecɛel
yed
yedda
yeddan
yeddem
yedder
yeddin
yeddlen
yeddmen
yeddren
yeddu
yeddukel
yeddukklen
yeddukklencategory
yedduklen
yeddurri
yedg
yedgan
yedin
yedles
yedlisen
yedran
yedraren
yedren
yedrimen
yedrisen
yedukklen
yedɣaɣen
yef
yeffer
yefferfer
yeffeɣ
yeffiɣ
yeffren
yeffɣed
yeffɣen
yefhem
yefhim
yefk
yefka
yefkad
yefkan
yefken
yefki
yeflal
yeflalen
yeflalin
yeflan
yeflisen
yefr
yefra
yefrah
yefrax
yefray
yefreh
yefren
yefreq
yefres
yefri
yefriqiyen
yefru
yefrun
yefsan
yefsi
yefteh
yefti
yeftin
yefyar
yefɣen
yefɣulen
yeg
yega
yegan
yegber
yegda
yegdan
yegdel
yegduden
yegfilen
yegg
yegga
yeggan
yegganen
yeggar
yeggaren
yegget
yeggra
yeggran
yeggren
yeggri
yeggug
yeggul
yegguma
yegguni
yeggunin
yegla
yeglamen
yeglan
yegled
yeglem
yegli
yeglu
yeglun
yegmamen
yegmanen
yegmen
yegnan
yegra
yegran
yegrawen
yegred
yegren
yegri
yegrigiyen
yegt
yegwi
yegwran
yegzem
yeh
yehder
yehwa
yehwan
yejban
yejbed
yejdi
yejja
yejjan
yejji
yejjin
yejmeɛ
yejreh
yekcem
yekcim
yekemmel
yekfa
yekfan
yekk
yekka
yekkad
yekkan
yekkat
yekkaten
yekkawen
yekkcem
yekker
yekkes
yekkfa
yekki
yekkir
yekkren
yekksen
yekna
yekriz
yekseb
yelaqen
yeldi
yeldin
yelfa
yelh
yelha
yelhan
yelhu
yell
yella
yellan
yelli
yellilten
yellin
yellis
yellu
yelmaten
yelmed
yelmez
yelsa
yelsan
yelteɣ
yelɣet
yemcabi
yemcac
yemd
yemdan
yemdanen
yemdukal
yemdukkal
yemen
yemeslayen
yemgadan
yemgarad
yemgaraden
yemgerraden
yemgura
yemhel
yemhez
yemjuhad
yemken
yemla
yemlal
yemlalen
yemlan
yemlil
yemma
yemmager
yemmal
yemmalen
yemmas
yemmden
yemmel
yemmerni
yemmeslay
yemmeslayen
yemmet
yemmez
yemmeɣ
yemmlen
yemmten
yemmug
yemmugen
yemmuger
yemmugren
yemmut
yemmuten
yemmuzzgen
yemnayen
yemneɛ
yemnummsen
yemrabd
yemrayen
yemrigen
yemsawalen
yemsawan
yemsawi
yemsed
yemsefham
yemsegrawen
yemselmen
yemseqdec
yemseɣdaden
yemsideɣ
yemsidɣen
yemsiwlen
yemsult
yemt
yemtiwgen
yemut
yemweh
yemxalafen
yemxallaf
yemxallafen
yemyagen
yemyura
yemzenza
yemɣan
yemɣar
yemɣaren
yemɣi
yemɣur
yemɣuzen
yen
yenbed
yenfa
yenfufden
yenfufed
yenger
yenh
yenher
yeni
yenjer
yenker
yenna
yennan
yennayer
yennaɣ
yennebran
yennejmaɛ
yennerna
yennerni
yenneɛtab
yenni
yennulfa
yennulfan
yennum
yennumk
yennumken
yennuulfa
yennuɣ
yennuɣen
yensa
yenselmen
yent
yenumen
yenwa
yenzan
yenzi
yenɣa
yenɣan
yenɣat
yenɤa
yeqbayliyen
yeqbel
yeqbil
yeqdec
yeqimen
yeqjan
yeqleb
yeqqar
yeqqaren
yeqqel
yeqqen
yeqqers
yeqqim
yeqqimen
yeqqin
yeqqlen
yeqqnen
yeqqre
yeqqur
yeqquren
yeqreb
yeqwa
yeqwan
yer
yera
yerbah
yerbeh
yerfa
yerfed
yergazen
yergel
yerkan
yermes
yerna
yernad
yernan
yerni
yernu
yerr
yerra
yerran
yerrbeh
yerren
yerri
yerructan
yers
yersan
yersen
yersinia
yertah
yerwa
yerwel
yerz
yerza
yerzan
yerzu
yerɣa
yerɣan
yes
yesaa
yesban
yesbanay
yesbed
yesbedd
yesbedden
yesbeggen
yesbegnen
yesdukel
yesdukkel
yesdukklen
yesduklen
yesekles
yesgensis
yesh
yeshel
yeskecem
yeskecmen
yesken
yesker
yeskker
yeskles
yesla
yeslan
yeslelli
yeslemden
yeslul
yesmaɛil
yesmezri
yesmilen
yesnarem
yesnekren
yesnen
yesnerna
yesnerni
yesnezgem
yesniffil
yesnulfa
yesnulfan
yesnulfu
yesnummer
yesqam
yesqamay
yesrayel
yesri
yesrifeg
yess
yessakel
yessaki
yessan
yessaram
yessared
yessarem
yessawad
yessawal
yessawalen
yessawat
yessawd
yessawed
yessawel
yessawet
yessawlen
yessawt
yessebded
yessebgan
yessebgen
yessed
yessedda
yessedem
yessefhem
yessefk
yessefken
yessefra
yessefrah
yessefru
yessefrurux
yessegrawen
yessegrew
yessegza
yessegzaw
yesseh
yessekcem
yessekfed
yessekles
yessekren
yesselh
yesselkem
yesselmad
yesselmaden
yesselmed
yessemdawen
yessemlal
yessemlil
yessemma
yessemras
yessemrasen
yessemres
yessemɛukkur
yessen
yessenfali
yessenfalin
yessenfel
yessenger
yessenker
yessenqes
yessens
yessent
yessentamen
yessenz
yesseqdac
yesseqdacen
yesseqdec
yesser
yesserfan
yessermed
yessers
yessersen
yesserwel
yessetma
yessetmas
yessew
yessewhamen
yessewjad
yessewjed
yessewseɛ
yessexdam
yessexdamen
yessexdem
yessexsam
yessez
yessezgen
yessezgi
yesseɛraq
yesseɣli
yesseɣren
yesseɣret
yessi
yessikil
yessileɣ
yessiliɣen
yessin
yessishel
yessishilen
yessismil
yessisrig
yessisrigen
yessiwed
yessiwel
yessiz
yesskan
yesskanay
yesskanayen
yesskanen
yessken
yessker
yessnen
yessnulfa
yessrusay
yessuddes
yessuddesen
yessufeɣ
yessuffeɣ
yessuffuɣen
yessuffɣen
yessufuɣ
yessufuɣen
yessufɣed
yessufɣen
yessugen
yessuget
yessukkes
yessuli
yessulin
yessumer
yessuneɣ
yessuqel
yessuqqel
yessurwen
yessusem
yessusum
yessuter
yessutren
yessutter
yessutur
yessuturen
yessuɣ
yessɣer
yest
yestaxer
yestenya
yesteqsa
yesteqsay
yesteɛr
yesteɛref
yesteɛrfen
yesuffeɣ
yesulin
yeswa
yeswan
yeswejd
yeswiren
yeswiyen
yesxass
yesyi
yesɛa
yesɛab
yesɛan
yesɛed
yesɛedda
yesɛeddan
yesɛeddi
yesɛeddin
yesɛi
yesɛu
yesɛun
yesɣar
yesɣaren
yesɣer
yet
yetbeɛ
yetbir
yetbiren
yetgin
yetmeslayen
yetran
yetri
yett
yettabaɛ
yettabaɛen
yettadam
yettaddam
yettaf
yettafken
yettag
yettagad
yettagi
yettak
yettaken
yettakken
yettalas
yettalasen
yettalel
yettales
yettali
yettalin
yettallen
yettalsen
yettamen
yettamnen
yettara
yettaran
yettargu
yettarra
yettarran
yettaru
yettarun
yettarwen
yettas
yettasen
yettat
yettawat
yettawd
yettawden
yettawed
yettawet
yettawi
yettawin
yettawt
yettazal
yettazen
yettaznen
yettazzal
yettazzalen
yettaɛrad
yettaɣ
yettaɣen
yettban
yettbeddil
yettbeddilen
yettbegginen
yettbin
yettbinen
yettcabin
yettcetkin
yettd
yetteddu
yetteddun
yettedrus
yettef
yettefeɣ
yettekan
yetteki
yettekin
yettekka
yettekkan
yettekkay
yettekki
yettekkin
yettembiwel
yettembiwil
yettembiwilen
yettemcabi
yettemcabin
yettemlili
yettemnamaren
yettemɣay
yettemɣayen
yettemɣen
yettenfufud
yettenfufuden
yettenqas
yettent
yettewliwilen
yettewliwlen
yettezzin
yetteɣlay
yetteɣlayen
yettfakka
yettfakkan
yettfarasen
yettfeg
yettfejjijen
yettfen
yettferfiren
yettgen
yettgi
yettgin
yetth
yettheggin
yetti
yettidir
yettidiren
yettiki
yettikin
yettikki
yettili
yettilid
yettilin
yettimɣur
yettinig
yettinigen
yettiwt
yettixer
yettizmir
yettkel
yettkemmil
yettkemmilen
yettlalen
yettlusun
yettmag
yettmagar
yettmagaren
yettmagen
yettmalen
yettmeslay
yettmeslayen
yettmettat
yettmuqul
yettnadi
yettnadin
yettnaɣ
yettnaɣen
yettnerni
yettnernin
yettr
yettraju
yettrayin
yettru
yettruh
yettruz
yetts
yettsbed
yettsebbiben
yettseyyid
yettu
yettugelmen
yettuh
yettumeggez
yettumeggzen
yettun
yettunag
yettunefk
yettunefka
yettunefkan
yettunefken
yettuneh
yettunnefka
yettunnefkan
yettur
yettura
yetturacategory
yetturar
yetturaren
yetturaɣ
yetturba
yetturebba
yettusefken
yettuseman
yettusemma
yettusemman
yettusemres
yettusentmen
yettuseqdac
yettuseqdacen
yettusesmel
yettusexdamen
yettusexdem
yettusismel
yettusmersen
yettusqedcen
yettusxedmen
yettuxedmen
yettuz
yettuɣal
yettuɣalen
yettuɣil
yettuɣilen
yettwabd
yettwabdar
yettwabder
yettwabeddel
yettwabedren
yettwabna
yettwabnan
yettwac
yettwaceyyeɛ
yettwad
yettwaddgen
yettwaf
yettwafernen
yettwaferqen
yettwafesren
yettwafk
yettwafken
yettwafran
yettwafren
yettwafrenen
yettwafser
yettwag
yettwagdel
yettwagedlen
yettwaggz
yettwaggzen
yettwaglamen
yettwaglem
yettwah
yettwahdar
yettwajerh
yettwajreh
yettwakelsen
yettwakez
yettwakkasen
yettwakkes
yettwakkesen
yettwakksen
yettwaldin
yettwali
yettwalin
yettwamd
yettwameggez
yettwamneɛ
yettwanfa
yettwant
yettwanɣa
yettwanɣan
yettwaqbel
yettwaqqen
yettwaqqnen
yettwar
yettwarna
yettwarnan
yettwaru
yettwarun
yettwasegger
yettwasekcem
yettwasellh
yettwasemma
yettwasemman
yettwasemmi
yettwasemres
yettwasen
yettwasenen
yettwasengel
yettwasensen
yettwasentem
yettwasentmen
yettwasexdamen
yettwasexdem
yettwaseɛreb
yettwasileɣ
yettwasinef
yettwasismel
yettwaskad
yettwaskaden
yettwaskelsen
yettwasmersen
yettwasnen
yettwasnin
yettwasnirem
yettwassed
yettwassen
yettwassenen
yettwassidef
yettwassnen
yettwasteg
yettwasuqqel
yettwasuttlen
yettwasxdmen
yettwasxedm
yettwasxedmen
yettwat
yettwattun
yettwaxdam
yettwaxdamen
yettwaxdem
yettwaxdeɛ
yettwaxedmen
yettwaz
yettwazmer
yettwaznen
yettwaɛezlen
yettwaɣ
yettwaɣen
yettweneɣ
yettwura
yettxellis
yettxemmim
yettxemmimen
yettɛassa
yettɛassan
yettɛawan
yettɛawanen
yettɛeddi
yettɣimi
yetwasnen
yetwexdem
yetwexelqen
yetɛerd
yevda
yewala
yewed
yewen
yewhem
yewi
yewin
yewit
yewlawel
yewseɛ
yewten
yewwd
yewwded
yewwed
yewwet
yewwi
yewwid
yewwin
yewwit
yewwten
yewzen
yewɛar
yewɛer
yexd
yexdelm
yexdem
yexdemen
yexdeɛ
yexdim
yexlan
yexled
yexlef
yexleq
yexs
yexsa
yexsen
yexser
yextar
yextir
yexxamen
yexxdem
yez
yezd
yezdeɣ
yezdi
yezdin
yezga
yezgad
yezgan
yezgaren
yezger
yezlan
yezmel
yezmer
yezmir
yezra
yezrew
yezri
yezrin
yezwar
yezwaren
yezweg
yezwej
yezzan
yezzi
yezzin
yeɛdawen
yeɛdel
yeɛdil
yeɛg
yeɛjeb
yeɛmed
yeɛna
yeɛnan
yeɛni
yeɛqub
yeɛred
yeɛwej
yeɛzem
yeɣd
yeɣlanen
yeɣleb
yeɣleq
yeɣli
yeɣlin
yeɣman
yeɣmisen
yeɣr
yeɣra
yeɣran
yeɣri
yeɣriben
yeɣsan
yeɣyal
yeɣzer
yeɣɣar
yeɣɣaren
yeɣɣaz
yferqen
yg
yga
ygelden
yh
yi
yiba
yibabaten
yibad
yibartiyen
yibaskiyen
yibdi
yibeddilen
yibelbaren
yibelkimen
yiber
yiberdan
yiberkanen
yiberr
yiberraniyen
yibizent
yibka
yibki
yibuda
yibulisen
yibumbiyen
yibureɣsen
yiburɣas
yibz
yicawiyen
yicc
yiceffaren
yicellad
yicennayen
yicer
yicet
yicicaniyen
yicinwaten
yiclem
yicrat
yid
yidammen
yiddawen
yideg
yideggan
yidelsan
yidem
yider
yiderman
yiderɣalen
yides
yidgan
yidgel
yidi
yidir
yidis
yidisan
yidisen
yidisken
yidles
yidlisen
yidmaren
yidmim
yidrasen
yidrimen
yidrumen
yidsen
yidunan
yidunatiyen
yidurar
yidzayriyen
yif
yifadden
yifalest
yifarisen
yifasen
yifassen
yifat
yifawatayen
yifed
yifellah
yifen
yifer
yiferdisen
yifergan
yiferki
yiferran
yifert
yifesyanen
yifganen
yifgransisen
yifis
yiflisen
yifr
yifran
yifransisen
yifraren
yifrax
yifrayen
yifrir
yifsan
yiftusen
yifuyla
yig
yigadiren
yigaliyen
yigam
yigarawen
yigazen
yigd
yigduden
yigeddisen
yigeldunen
yigelliden
yigelmimen
yigem
yigen
yigenni
yigensasen
yiger
yigerdan
yigerramen
yigezdan
yigim
yigiman
yigimen
yigit
yiglamen
yigmamen
yigmanen
yigran
yigrawlien
yigrawliwen
yigt
yigudar
yigujilen
yigumma
yih
yihendiyen
yiherrasen
yiherrasenn
yiheyyayen
yihilaliyen
yijapuniyen
yijdi
yijeg
yijen
yijeqdur
yijider
yijiniralen
yijj
yijqiwen
yikabaren
yikamruniyen
yikatuliken
yikayaden
yikikuyuten
yikilumetren
yikilumitren
yikilumtren
yikirgiziyen
yikurdiyen
yil
yila
yilan
yilef
yilel
yilem
yilemz
yiles
yilfan
yili
yilin
yillan
yillel
yilli
yillin
yillu
yilmayen
yilmez
yilsawen
yilu
yilugan
yiluten
yilwaten
yimad
yimagraden
yimahuniyen
yimakaren
yimal
yimalas
yimalasen
yimalt
yimalwayen
yiman
yimarikaniyen
yimasih
yimasiliyen
yimasisiliyen
yimasiwen
yimaslad
yimassanen
yimawen
yimawlan
yimaziɣen
yimazranen
yimazɣanen
yimcac
yimceggɛen
yimceyyeɛ
yimceyyɛen
yimd
yimdanen
yimdukal
yimec
yimed
yimeddukal
yimedwen
yimedyaten
yimedyazen
yimeh
yimejjayen
yimellalen
yimelyan
yimelyar
yimelyunen
yimenkad
yimennuɣen
yimensi
yimenz
yimenzayen
yimenɣi
yimenɣiyen
yimeqqranen
yimeqranen
yimer
yimesdurar
yimeskaren
yimesli
yimesnaɣen
yimesnilsiyen
yimet
yimetwayen
yimez
yimezdaɣ
yimezdaɣen
yimezwura
yimeɣnasen
yimeɣrasen
yimferrjen
yimg
yimgan
yimi
yimibriken
yimihiyen
yiminig
yiminigen
yimir
yimiren
yimitudiyen
yimjahden
yimjuhad
yimma
yimnayen
yimrabd
yimrabt
yimriwen
yimrujen
yimsawalen
yimselmen
yimsenɣiyen
yimsiwlen
yimsulta
yimtiwegen
yimtiwgen
yimucaɣ
yimud
yimudaɣ
yimuddar
yimuddiren
yimudduren
yimuhaɣ
yimukan
yimunak
yimunaken
yimura
yimuren
yimurigamen
yimuriyen
yimusnawen
yimusnilsen
yimussnawen
yimweh
yimyura
yimz
yimzad
yimzadaɣen
yimɣan
yimɣaren
yimɣi
yimɣur
yimɣuzen
yin
yinadiyen
yinagrawen
yinaz
yinaziyen
yindunisiyen
yineggura
yinehrasen
yinelmaden
yinembad
yines
yinesbaɣuren
yinez
yinezgan
yinezgi
yinezwa
yineɣlafen
yineɣmasen
yini
yinig
yinigen
yinii
yiniten
yinjil
yinmezrayen
yinned
yinni
yinsayen
yinselmen
yinsleman
yinumak
yinumiden
yinurar
yinuz
yinyaten
yinz
yinzan
yinzaren
yinɣayen
yipr
yiqayemrunen
yiqbayliyen
yiqecran
yiqeddacen
yiqeddicen
yiqerra
yiqert
yiqertajiyen
yiqet
yiqjan
yiqut
yir
yiran
yiraten
yirawen
yirden
yirebbi
yirebraben
yirem
yirgazen
yiri
yirmawen
yirmuden
yirna
yirragen
yirumaniyen
yirumyen
yirusiyen
yirwasen
yirz
yis
yisabiyen
yisad
yisafen
yisaffen
yisalan
yisallen
yisan
yisaragen
yisarakuliyen
yisawad
yisawalen
yisbenyuliyen
yisebdaden
yisefggasen
yisefka
yisefkan
yiseflan
yisefra
yisegbaren
yiseggasen
yiseggiwen
yisegnafen
yisegwasen
yisekkilen
yisekla
yisekna
yisekrafen
yiselkimen
yiselmaden
yiselman
yisem
yisemawen
yisen
yisennanen
yiserdasen
yiseɛdiyen
yiseɣ
yisid
yisig
yisigniwen
yisiklen
yiskanen
yislan
yism
yismal
yismawen
yismilen
yisnasen
yisragen
yisrayel
yisrayiliyen
yisri
yiss
yisseggasen
yissem
yissen
yissi
yissin
yissu
yist
yisubyitiyen
yisud
yisudaf
yisufar
yisukiwen
yisura
yisuvyatiyen
yiswan
yiswen
yiswi
yiswiren
yiswiyen
yisɣanen
yisɣaren
yit
yitergiyen
yiterkiyen
yititanen
yitran
yitri
yittidir
yivirusen
yiwad
yiwanaken
yiwat
yiwed
yiwen
yiwendaliyen
yiwent
yiwet
yiwindaliyen
yiwn
yiwudam
yiwunak
yiwuzat
yiwwas
yiwwen
yiwwet
yixeddamen
yixeddaɛen
yixef
yixf
yixfan
yixfawen
yixtir
yixxamen
yiylanen
yiz
yizamulen
yizan
yizayriyen
yizaɣaren
yizegriren
yizem
yizen
yizenqan
yizerfan
yizerman
yizi
yizinezren
yiziriyen
yizmal
yizmawen
yizmir
yizmulen
yiznatiyen
yizri
yizwawen
yizzayriyen
yizɣuɣ
yiɛdawen
yiɛebbasiyen
yiɛeggalen
yiɛessasen
yiɛeyyalen
yiɛez
yiɛraben
yiɛutmaniyen
yiɣallen
yiɣas
yiɣbula
yiɣef
yiɣellaten
yiɣerbazen
yiɣerfan
yiɣerman
yiɣernuqen
yiɣersiwen
yiɣes
yiɣi
yiɣil
yiɣir
yiɣlanen
yiɣmisen
yiɣraben
yiɣrem
yiɣsan
yiɣzer
yjerh
ykecmen
yla
ylulen
ymagred
ymeqqren
ynebd
ynehher
ynes
yoma
york
yoshizawa
you
youcef
young
your
yousafzai
youssef
youtube
yowen
yqeddsen
yqerben
yrekben
yressawel
yruh
ysemma
ysersen
ytebɛen
ytec
ytekkan
yteknu
ytett
yu
yub
yuba
yuc
yuccel
yucclen
yud
yuda
yudas
yuddes
yuddsen
yudef
yuder
yudes
yudnen
yudren
yudsen
yufa
yufad
yufan
yufeg
yuffad
yufi
yufrar
yufraren
yugad
yugaden
yugar
yugaren
yugem
yuger
yugerten
yughal
yugi
yugin
yugmen
yugten
yugurten
yuguslavya
yuh
yuhan
yuisan
yuk
yuker
yukez
yuki
yukkes
yuklal
yuklalen
yulac
yules
yuli
yulin
yulli
yulsen
yulyan
yulyu
yulyus
yum
yumawiyen
yumen
yummsen
yumnen
yumsen
yumz
yunag
yunagen
yunes
yunyu
yur
yura
yurad
yurag
yuran
yurar
yuraren
yurat
yuraten
yurfutis
yurga
yuri
yurra
yurup
yurwen
yurzen
yusa
yusad
yusaku
yusan
yusef
yusem
yusia
yusin
yussa
yussan
yussi
yusufeyya
yuwd
yuwed
yuwey
yuwi
yuwin
yuwyen
yuxi
yuy
yuzat
yuzel
yuzen
yuzgan
yuznen
yuɣ
yuɣal
yuɣalen
yuɣen
yves
ywala
yweqmen
yxeddmen
yxedmen
yxedɛen
yzemren
yɛeddan
yɛedlen
yɣef
z
za
zabulun
zad
zahr
zahra
zai
zakaria
zakariya
zambon
zambya
zammak
zan
zanen
zanne
zanotti
zariɛa
zarza
zawahiri
zawaya
zawiya
zawya
zayd
zayed
zayn
zayyu
zaɛim
zbayer
zdat
zdaxel
zdin
zdint
ze
zed
zeddig
zeddigen
zeddiɣ
zeddɣen
zedek
zeden
zedmen
zedɣen
zedɣent
zeg
zeglellu
zegren
zegzel
zeit
zeitschrift
zekri
zelgum
zemlen
zemmour
zemmren
zemren
zemrent
zemreɣ
zen
zenaga
zenati
zenatia
zenia
zenzen
zenzla
zer
zerhuni
zermani
zerrad
zerwen
zerzari
zewg
zewwaɣen
zeyyan
zeɛma
zeɣ
zeɣdud
zga
zgan
zgant
zges
zgiɣ
zh
zhar
zi
zichyu
zid
zidan
zidane
zidat
zik
zikenni
zikk
ziland
zilanda
zilfa
zimbabwe
zin
zina
zinddin
zinder
zineddin
zinya
zirem
ziri
ziwi
ziyad
ziyan
zizu
ziɣ
ziɣut
zlan
zlun
zmala
zman
zmenzer
zmer
zmih
zmiren
znad
znuzun
znuzuyent
zola
zone
zoo
zoom
zop
zouaoua
zr
zran
zren
zrin
zriɣ
zubiri
zuckerberg
zuhra
zul
zumba
zun
zund
zunt
zunyi
zur
zuren
zwag
zwaren
zwawa
zwi
zwin
zwir
zwit
zwitt
zy
zyama
zyan
zygoptera
zzat
zzaweyya
zzaweyyat
zzawiya
zzayer
zzayeria
zzbel
zzehr
zzenzen
zzewwar
zzher
zzin
zzint
zzit
zzituna
zziɣed
zzman
zzubga
zzur
zzux
zzuɣren
zzw
zzwag
zzwaj
zzyarat
zɣer
{
|
}
~


£
¥
¨
©
«
°
±
²
³
´
µ
·
º
»
¼
½
¾
×
ß
æ
ð
÷
ø
þ
đ
đokovic
ħ
ı
ĳ
ĸ
ŀ
ł
łobez
ŉ
ŋ
œ
œuvre
œuvres
ŧ
ſ
ƀ
ƃ
ƅ
ƈ
ƌ
ƍ
ƒ
ƕ
ƙ
ƚ
ƛ
ƞ
ƣ
ƥ
ƨ
ƪ
ƫ
ƭ
ƴ
ƶ
ƹ
ƺ
ƻ
ƽ
ƾ
ƿ
ǀ
ǁ
ǂ
ǃ
ǆ
ǉ
ǌ
ǝ
ǥ
ǳ
ȝ
ȡ
ȣ
ȥ
ȴ
ȵ
ȶ
ȷ
ȸ
ȹ
ȼ
ȿ
ɀ
ɂ
ɇ
ɉ
ɋ
ɍ
ɏ
ɐ
ɑ
ɒ
ɓ
ɔ
ɕ
ɖ
ɗ
ɘ
ə
ɚ
ɛ
ɛabd
ɛabdi
ɛabid
ɛacen
ɛacur
ɛad
ɛafra
ɛamran
ɛamruc
ɛaqla
ɛaryan
ɛasseɣ
ɛat
ɛawden
ɛawis
ɛawnen
ɛazar
ɛazem
ɛaziz
ɛazzam
ɛbd
ɛbedleɛziz
ɛdella
ɛdilent
ɛebban
ɛebbant
ɛebbas
ɛebbasa
ɛebbasi
ɛebbassi
ɛebd
ɛebdallah
ɛebdelh
ɛebdelkrim
ɛebdella
ɛebdellah
ɛebdelmalek
ɛebdelmumen
ɛebdelqader
ɛebdelɛaziz
ɛebden
ɛebdennas
ɛebdennur
ɛebderrah
ɛebderreh
ɛebdeslam
ɛebdun
ɛecr
ɛecra
ɛecrin
ɛedda
ɛeddan
ɛeddant
ɛeddi
ɛeddin
ɛeddiɣ
ɛedlent
ɛef
ɛeg
ɛeggu
ɛellal
ɛellam
ɛellawa
ɛellqen
ɛelwan
ɛemara
ɛemman
ɛemmar
ɛemmden
ɛemmi
ɛemmur
ɛemr
ɛemran
ɛemruc
ɛen
ɛennaba
ɛent
ɛeqlen
ɛerbayun
ɛerc
ɛerd
ɛessas
ɛet
ɛetman
ɛettu
ɛeyyac
ɛeyyad
ɛeyyu
ɛez
ɛezlen
ɛezzuz
ɛic
ɛica
ɛidel
ɛif
ɛin
ɛinsis
ɛiraq
ɛisa
ɛisat
ɛisi
ɛit
ɛiwden
ɛiwnen
ɛiwnent
ɛiyen
ɛla
ɛlay
ɛlayen
ɛlayet
ɛli
ɛmar
ɛmara
ɛmer
ɛmir
ɛmiruc
ɛmran
ɛni
ɛririg
ɛrus
ɛt
ɛubayd
ɛuman
ɛumar
ɛumman
ɛun
ɛuqba
ɛussen
ɛyan
ɛziz
ɛzizen
ɜ
ɝ
ɞ
ɟ
ɠ
ɡ
ɢ
ɣ
ɣa
ɣabet
ɣadames
ɣadban
ɣaf
ɣal
ɣaleb
ɣamayen
ɣan
ɣana
ɣar
ɣardimaw
ɣas
ɣat
ɣayu
ɣazi
ɣazza
ɣaɣ
ɣdames
ɣe
ɣebri
ɣect
ɣed
ɣef
ɣel
ɣelben
ɣelluy
ɣelqen
ɣelt
ɣen
ɣennif
ɣer
ɣerarfa
ɣerdan
ɣernat
ɣerr
ɣers
ɣeryan
ɣezifen
ɣezza
ɣezzif
ɣezzifen
ɣi
ɣil
ɣilas
ɣilen
ɣilizan
ɣinya
ɣir
ɣiwel
ɣiwt
ɣlayen
ɣlin
ɣlint
ɣr
ɣran
ɣrem
ɣren
ɣriba
ɣrin
ɣriɣ
ɣuct
ɣulam
ɣur
ɣures
ɣuri
ɣurs
ɣursen
ɣurwat
ɣzan
ɣzen
ɣzer
ɣɣaren
ɤ
ɤef
ɥ
ɦ
ɧ
ɨ
ɩ
ɪ
ɫ
ɬ
ɭ
ɮ
ɯ
ɰ
ɱ
ɲ
ɳ
ɴ
ɵ
ɶ
ɷ
ɸ
ɹ
ɺ
ɻ
ɼ
ɽ
ɾ
ɿ
ʀ
ʁ
ʂ
ʃ
ʄ
ʅ
ʆ
ʇ
ʈ
ʉ
ʊ
ʋ
ʌ
ʍ
ʎ
ʏ
ʐ
ʑ
ʒ
ʓ
ʔ
ʕ
ʖ
ʗ
ʘ
ʙ
ʚ
ʛ
ʜ
ʝ
ʞ
ʟ
ʠ
ʡ
ʢ
ʣ
ʤ
ʥ
ʦ
ʧ
ʨ
ʩ
ʪ
ʫ
ʬ
ʭ
ʮ
ʯ
ʰ
ʲ
ʷ
ʻ
ʼ
ʾ
ʿ
ˈ
ˌ
ː
ˠ
̀
́
̂
̃
̄
̆
̇
̈
̉
̊
̋
̌
̏
̑
̓
̔
̛
̣
̤
̥
̦
̧
̨
̪
̭
̮
̯
̰
̱
͂
͡
α
β
γ
δ
ε
ζ
η
θ
ι
κ
λ
μ
ν
ξ
ο
π
ρ
ς
σ
τ
υ
φ
χ
ψ
ω
а
б
в
г
д
е
ж
з
и
к
л
м
н
о
п
р
с
т
у
ф
х
ц
ч
ш
шаблон
щ
ъ
ь
ю
я
ђ
є
і
љ
њ
ћ
џ
ґ
ԑ
ְ
ֲ
ִ
ֵ
ֶ
ַ
ָ
ֹ
ּ
ׁ
א
ב
ג
ד
ה
ו
ז
ח
ט
י
כ
ל
מ
נ
ס
ע
פ
צ
ק
ר
ש
ת
،
؛
ا
ابن
احمد
الا
الابتهاج
الجامع
الجزاي
الجيزة
الحاوي
الحفيد
الديباج
الدين
الرحمن
الزواوي
السويس
الشاملة
الشيخ
الصخرة
العجيسي
العربي
العربية
الفقيه
القدس
الله
المغرب
المكتبة
المنيا
الندى
ب
باب
بابا
براهيم
بن
بني
بو
بوسحاقي
ة
ت
ج
جامعة
ح
حفظه
حمد
خ
خليفة
د
داي
ذ
ر
رة
رجوزة
س
سلام
سماعيلية
سوان
سوهاج
سويف
سيدي
سيناء
سيوط
شرح
ص
صالح
ض
ط
طبقات
ع
عبد
عداد
عراب
علام
علي
عمر
عين
ف
في
ق
قبة
قصر
قطر
قواعد
ك
كتاب
ل
للزواوي
م
محمد
مرزوق
مع
معجم
من
منظومة
ن
نظم
ه
هشام
و
وادي
وتقديم
ولاد
ولاية
ي
يحي
يل
ٌ
َ
ُ
ِ
ّ
ْ
ٓ
ٔ
ٕ
٠
٪
ٰ
ٱلل
ۦ
द
प
भ
य
व
स
ा
ी
्
ধ
ন
ব
ম
ল
স
া
ি
ূ
্
ଚ
ଛ
ଞ
ା
୍
ப
ர
வ
ா
ு
்
ಂ
ಕ
ಟ
ದ
ಪ
ಭ
ಯ
ರ
ಲ
ವ
ಸ
ಾ
ಿ
ು
ೆ
್
ೕ
ം
ං
ක
ත
ද
න
ප
ර
ල
ශ
ස
්
ා
ි
ී
ก
พ
ย
ว
ิ
ี
่
ទ
ព
រ
ូ
ំ
័
ᴀ
ᴁ
ᴂ
ᴃ
ᴄ
ᴅ
ᴆ
ᴇ
ᴈ
ᴉ
ᴊ
ᴋ
ᴌ
ᴍ
ᴎ
ᴏ
ᴐ
ᴑ
ᴒ
ᴓ
ᴔ
ᴕ
ᴖ
ᴗ
ᴘ
ᴙ
ᴚ
ᴛ
ᴜ
ᴝ
ᴞ
ᴟ
ᴠ
ᴡ
ᴢ
ᴣ
ᴤ
ᴥ
ᴦ
ᴧ
ᴨ
ᴩ
ᴪ
ᴫ
ᴬ
ᴭ
ᴮ
ᴯ
ᴰ
ᴱ
ᴲ
ᴳ
ᴴ
ᴵ
ᴶ
ᴷ
ᴸ
ᴹ
ᴺ
ᴻ
ᴼ
ᴽ
ᴾ
ᴿ
ᵀ
ᵁ
ᵂ
ᵃ
ᵄ
ᵅ
ᵆ
ᵇ
ᵈ
ᵉ
ᵊ
ᵋ
ᵌ
ᵍ
ᵎ
ᵏ
ᵐ
ᵑ
ᵒ
ᵓ
ᵔ
ᵕ
ᵖ
ᵗ
ᵘ
ᵙ
ᵚ
ᵛ
ᵜ
ᵝ
ᵞ
ᵟ
ᵠ
ᵡ
ᵢ
ᵣ
ᵤ
ᵥ
ᵦ
ᵧ
ᵨ
ᵩ
ᵪ
ᵫ
ᵬ
ᵭ
ᵮ
ᵯ
ᵰ
ᵱ
ᵲ
ᵳ
ᵴ
ᵵ
ᵶ
ᵷ
ᵸ
ᵹ
ᵺ
ᵻ
ᵼ
ᵽ
ᵾ
ᵿ
ᶀ
ᶁ
ᶂ
ᶃ
ᶄ
ᶅ
ᶆ
ᶇ
ᶈ
ᶉ
ᶊ
ᶋ
ᶌ
ᶍ
ᶎ
ᶏ
ᶐ
ᶑ
ᶒ
ᶓ
ᶔ
ᶕ
ᶖ
ᶗ
ᶘ
ᶙ
ᶚ
ᶛ
ᶜ
ᶝ
ᶞ
ᶟ
ᶠ
ᶡ
ᶢ
ᶣ
ᶤ
ᶥ
ᶦ
ᶧ
ᶨ
ᶩ
ᶪ
ᶫ
ᶬ
ᶭ
ᶮ
ᶯ
ᶰ
ᶱ
ᶲ
ᶳ
ᶴ
ᶵ
ᶶ
ᶷ
ᶸ
ᶹ
ᶺ
ᶻ
ᶼ
ᶽ
ᶾ
ᶿ
ẚ
​
‍
‎
‏
‑
–
—
―
‘
’
“
”
„
‟
†
•
…
‬
′
″
⁄
⁴
€
⅓
⅔
⅕
ⅲ
↑
→
↔
↖
↗
↘
↙
↳
↵
↷
⇅
⇆
⇒
∅
−
∩
⌂
③
④
⑦
─
└
├
█
◾
☆
☉
☾
☿
♀
♂
♔
♕
♖
♗
♘
♙
♚
♛
♜
♝
♞
♟
♣
♥
✓
✗
✚
✝
ⱡ
ⱥ
ⱦ
ⱨ
ⱪ
ⱬ
ⱴ
ⱶ
ⱷ
ⲁ
ⲉ
ⲓ
ⲙ
ⲛ
ⲟ
ⲡ
ⲥ
ⲩ
ⲫ
ⴰ
ⴱ
ⴳ
ⴴ
ⴵ
ⴶ
ⴷ
ⴹ
ⴻ
ⴼ
ⴽ
ⴾ
ⴿ
ⵀ
ⵂ
ⵃ
ⵄ
ⵅ
ⵇ
ⵈ
ⵉ
ⵊ
ⵋ
ⵌ
ⵍ
ⵎ
ⵏ
ⵒ
ⵓ
ⵔ
ⵕ
ⵖ
ⵗ
ⵙ
ⵚ
ⵛ
ⵜ
ⵟ
ⵡ
ⵢ
ⵣ
ⵥ
ⵧ
ⵯ
⺀
⺄
⺆
⺈
⺊
⺌
⺕
⺝
⺸
⺼
⿰
⿱
⿲
⿳
⿴
⿵
⿶
⿷
⿸
⿹
⿺
⿻
《
》
〢
う
え
か
き
し
そ
と
な
の
は
ふ
ま
め
よ
ん
゙
゚
ァ
ア
ィ
イ
ウ
ェ
エ
ォ
カ
キ
ク
ケ
コ
サ
シ
ス
ソ
タ
ッ
テ
ト
ナ
ニ
ネ
ハ
ヒ
フ
ヘ
ホ
マ
ミ
モ
ユ
ヨ
ラ
リ
ル
レ
ロ
ン
・
ー
㇁
㇂
㇄
㇇
㇈
㇉
㇓
㐁
㐄
㐅
㐌
㐫
㐬
㐭
㐮
㐱
㑒
㒵
㒸
㒼
㓁
㓞
㔾
㕛
㕣
㖾
㘝
㚅
㚇
㚔
㚘
㝉
㝡
㝴
㝵
㞋
㞢
㞷
㠩
㠭
㠯
㡀
㡭
㡿
㢲
㢴
㣇
㣺
㥯
㪅
㫄
㫐
㫒
㫺
㬅
㬎
㬥
㬰
㲋
㳄
㷠
㸒
㸚
㸦
㼌
㼲
㽞
㿟
䀠
䂞
䍃
䏍
䒑
䖍
䖒
䖝
䖵
䙴
䚻
䜌
䝿
䡛
䧹
䪞
一
丁
丂
七
丄
丅
丆
万
丈
三
上
下
丌
不
与
丏
丐
丑
专
且
丕
世
丘
丙
业
东
丞
丢
丣
两
严
並
丨
丩
个
丫
丬
中
丮
丰
丱
串
丵
丶
丷
丸
丹
为
主
丽
丿
乀
乂
乃
久
乆
乇
么
义
之
乌
乍
乎
乏
乐
乑
乔
乖
乗
乘
乙
乚
乛
乜
九
乞
也
习
乡
乳
乾
亀
亅
了
亇
予
争
事
二
亍
于
亏
亐
云
互
亓
五
井
亘
亚
亜
亞
亟
亠
亡
亢
交
亥
亦
产
亨
亩
享
京
亭
亮
亯
亰
亲
亳
亶
亷
人
亻
亼
亾
仁
今
介
仌
从
仐
仑
仒
仓
仕
他
付
仝
代
令
以
仮
任
企
伊
伏
伐
休
会
伯
但
位
何
佘
余
作
佥
使
來
侈
例
侌
侖
侯
侵
便
保
俞
信
修
倉
倍
候
倠
備
僉
僕
儿
兀
允
兂
元
兄
充
兆
兇
先
光
兊
克
兌
免
兑
兒
兓
兔
党
兜
兟
入
全
兩
兪
八
公
六
兮
兰
共
关
兵
其
具
典
兹
兼
冀
冂
冃
冄
内
冈
冉
冊
冋
册
再
冎
冏
冐
冒
冓
冖
冗
冘
军
农
冝
冡
冥
冫
冬
冷
几
凡
凢
凵
凶
凷
凸
凹
出
函
凾
刀
刁
刂
刃
刄
刅
分
切
刍
刑
刕
刖
列
刘
则
初
別
利
别
到
制
刺
刻
則
削
剌
前
剡
剽
劉
力
功
加
劦
助
劫
劳
劵
勃
勇
勉
勒
動
務
勞
勤
勹
勺
勻
勾
勿
匀
匂
包
匆
匈
匊
匋
匍
匕
化
北
匚
匝
匡
匪
匱
匸
匹
区
医
匽
匿
區
十
卂
千
卄
卅
卆
升
午
卉
半
卌
华
卑
卒
卓
单
卖
南
卜
卝
卞
占
卡
卢
卣
卤
卦
卩
卪
卬
卯
印
危
即
却
卵
卷
卸
卻
厂
厃
厄
历
厈
厉
厌
厓
厘
厚
原
厤
厥
厨
厭
厲
厶
厷
厸
去
厼
厽
叀
参
參
叅
又
叉
及
友
双
反
叐
发
叒
叔
叕
取
受
叚
叜
叟
口
古
句
另
叩
只
召
可
台
叱
史
右
叵
号
司
叹
吂
各
吅
合
吉
吊
吋
同
名
后
吏
向
吕
君
吝
吞
否
含
启
吳
吴
吹
吾
呂
呆
呈
告
员
呙
周
命
咅
和
咎
咠
咢
咨
咸
咼
哀
品
哉
員
哥
哲
唐
商
啇
問
啚
啬
啻
善
喜
喬
單
喿
嗇
噩
嚴
囊
囗
囘
囙
囚
四
回
囟
因
囧
囬
困
囱
囷
固
国
圂
圅
國
圍
圓
土
圡
圣
圥
在
圭
地
圶
圼
坐
坒
坚
坴
垂
垔
垚
埀
埋
城
埶
執
基
堂
堅
堆
堇
堯
塞
墨
壘
士
壬
壯
声
壳
壴
壹
壺
壽
夂
处
夅
夆
备
夊
夋
夌
复
夏
夒
夕
外
夗
夘
多
夜
夢
大
夨
天
太
夫
夬
夭
央
失
夲
头
夷
夸
夹
夻
夾
奂
奄
奇
奈
奉
奎
奏
奐
契
奓
奔
奚
奞
奠
奢
奥
奭
女
奴
奻
好
如
妄
妙
妟
妥
妻
妾
姑
委
姜
威
娄
婁
婴
嬰
嬴
子
孑
孔
孕
孖
字
存
孚
孛
孝
孟
季
孤
学
孫
孱
學
宀
宁
宂
它
宅
宇
守
安
宋
完
宏
宓
宗
官
定
宛
宜
宝
客
宣
室
宮
宰
害
家
容
宾
宿
寄
寅
密
富
寒
察
寧
審
寫
寬
寮
寸
对
寺
寻
寽
対
寿
封
尃
射
将
將
專
尉
尊
尋
尌
對
小
少
尒
尓
尔
尖
尗
尚
尞
尢
尣
尤
尧
尨
尭
就
尸
尹
尺
尻
尼
尽
尾
尿
局
居
屈
屋
屎
屏
屑
展
屖
屚
属
屠
屡
屬
屮
屯
屰
山
屵
屾
岁
岂
岑
岡
岩
岳
岸
峯
島
崇
崑
崔
崖
崙
崩
嵬
嶲
巂
巛
川
州
巟
巠
巢
巤
工
左
巧
巨
巩
巫
差
己
已
巳
巴
巷
巸
巽
巾
巿
帀
市
布
师
希
帚
帛
帝
带
師
席
帶
常
干
平
年
幵
并
幷
幸
幺
幻
幼
幽
幾
广
広
庄
床
底
店
庚
府
度
庫
庭
庶
康
庸
廉
廌
廛
廣
廩
廴
延
廷
建
廾
廿
开
弁
弃
弄
弇
弋
式
弓
弔
引
弗
弘
弜
弟
弥
弦
弱
張
強
强
彊
彌
彎
彐
彑
当
彔
录
彖
彗
彡
形
彥
彦
彧
彭
彳
役
彼
往
待
律
徒
得
徙
從
復
微
徵
心
忄
必
忌
忍
志
忝
忠
忩
快
念
忽
忿
思
怠
急
性
怱
恆
恒
恩
恭
息
悉
患
悤
悲
悶
惠
惡
惢
愁
愈
意
愛
感
慈
慧
慮
憂
憲
應
戀
戈
戉
戊
戋
戌
戍
戎
成
我
戒
戔
或
戚
戠
戢
截
戲
戶
户
戹
戼
戾
房
所
扁
扇
手
扌
才
打
托
执
承
折
拉
拜
拿
掌
推
提
摩
撃
支
攴
攵
收
攸
改
放
政
敄
敏
敕
敖
敗
敝
敞
敢
散
敦
敫
敬
数
敷
數
斂
文
斉
斊
斗
斤
斥
斩
斬
斯
新
方
於
施
斿
旁
旅
旋
族
无
旡
既
旣
日
旦
旧
旨
早
旬
旱
旲
时
旾
昆
昇
昌
昍
明
昏
易
昔
昗
昜
星
春
昬
是
昱
昴
昷
時
晃
晋
晏
普
景
晶
智
暑
暴
曇
曩
曰
曲
曳
更
曷
書
曹
曼
曾
替
最
朁
會
月
有
朋
服
朔
朕
朗
望
朝
木
朩
未
末
本
札
朮
术
朱
朵
朶
朿
杀
杏
杜
束
条
来
東
杲
杳
松
析
林
枚
果
枝
枲
枼
某
柔
查
柬
柰
柴
栗
栽
桀
桑
桼
梁
條
梟
梨
棘
棠
棥
森
楚
業
楽
榮
樂
樊
欠
次
欣
欮
欲
欶
欽
款
歆
歇
歛
歡
止
正
此
步
武
歨
歪
歮
歯
歰
歲
歴
歷
歸
歹
歺
死
殳
段
殷
殸
殹
殺
殻
殿
毋
毌
母
每
毒
比
毕
毚
毛
毳
氏
氐
民
气
氣
水
氵
氶
氷
永
氺
氾
求
汉
汝
汞
江
沃
沓
沙
沝
泉
法
波
泣
泥
泰
洛
津
洪
活
派
流
浦
浪
浮
淡
淮
清
渚
渠
湯
滿
漢
漸
火
灬
灭
灰
灵
灷
炅
炎
炏
炗
炙
炭
為
烈
烏
烝
焉
無
焦
焱
然
煞
熊
熏
燕
營
燮
爪
爫
爭
爯
爰
爱
爲
爵
父
爻
爽
爾
爿
片
牙
牚
牛
牜
牟
牢
牧
牪
牽
犀
犬
犭
犮
狂
狄
狊
独
狺
猋
猒
猪
献
獻
玄
率
玉
王
玟
玨
珎
班
琴
瑟
瑩
瓜
瓦
甘
甚
生
産
用
甫
甬
田
由
甲
申
电
甶
男
甸
甹
画
甾
畀
界
畏
畐
留
畜
畟
畢
畧
畨
番
畫
異
畱
當
畺
畾
疊
疋
疌
疑
疒
疾
癶
癸
癹
登
發
白
百
皀
皃
的
皆
皇
皋
皐
皕
皮
皷
皿
盃
盆
盇
盈
益
盍
盎
监
盒
盖
盛
盡
監
盤
盧
目
直
相
盾
省
眇
眉
看
眔
眞
真
眷
眼
眾
着
睘
睪
睿
瞏
瞢
瞿
矍
矛
矞
矢
矣
知
矦
短
石
破
碎
磊
磨
示
礻
礼
祟
票
祭
禀
禁
禸
禹
禺
离
禽
禾
禿
秀
秃
秉
秋
科
秝
秦
移
稟
穀
穌
穴
究
穹
空
穿
突
窄
窒
立
竒
竜
竝
竟
章
童
端
竹
笑
笠
筆
等
答
箕
算
箴
節
篤
篭
米
类
粉
粛
粟
粤
粦
粲
糞
糸
糹
系
約
納
素
索
紫
累
細
絜
絫
絲
維
綿
縣
繇
纍
纟
绿
缶
网
罒
罔
罕
罗
罙
罡
罢
罪
署
罷
羅
羊
羌
羍
美
羔
羕
羗
羞
羡
羣
群
義
羲
羸
羽
翁
翏
習
翕
翟
翠
翼
老
耂
考
者
耆
而
耎
耑
耒
耳
耴
耶
耷
聂
聊
聖
聚
聶
聿
肀
肃
肅
肉
肖
肙
肥
肩
肯
育
肴
胃
背
胡
胥
能
脊
脩
膚
臣
臤
臧
自
臬
臭
臯
臱
至
致
臺
臼
臽
臾
臿
舀
舂
舄
與
興
舉
舌
舍
舛
舜
舞
舟
般
艮
良
色
艸
艹
艾
芒
芔
芬
芮
花
芳
芺
芻
苔
苗
苟
若
苦
英
茶
茸
荅
草
荒
荣
荼
莆
莧
莫
莽
菆
菊
菐
華
萬
落
葉
著
葛
董
葵
蒙
蒦
蒼
蓋
蓬
蓺
蔑
蔡
蕉
蕭
薄
薛
薦
薰
藍
藏
藥
蘭
虍
虎
虐
虒
虔
處
虖
虗
虘
虚
虛
虜
虞
虫
虽
蚤
蚩
蜀
蜜
蟲
蠡
血
行
衍
衛
衣
衤
表
衮
衰
袁
袞
褭
褱
襄
襾
西
覀
要
覃
見
規
覓
覧
親
覽
见
角
解
言
訁
訇
計
詹
語
誩
諸
讠
谷
豆
豈
豊
豐
豕
豖
豙
象
豦
豩
豪
豸
貇
貝
貞
貟
負
貢
貧
貪
貫
責
貳
貴
買
費
賁
資
賈
賏
賓
賔
賛
賞
賢
賣
質
賴
贊
贝
贡
责
贯
贲
贵
赖
赞
赤
赦
走
越
足
路
蹇
身
躬
車
軍
軎
軟
輦
车
辛
辜
辟
辥
辰
辱
農
辵
辶
边
达
过
迎
近
连
迷
追
退
送
逆
逐
通
速
造
逢
連
逮
進
遀
遂
過
道
達
遣
適
遷
遺
邊
邑
邕
那
邦
邪
郎
部
郭
都
鄉
酉
酋
配
酓
釆
采
里
重
野
量
金
釒
錢
钅
長
镸
长
門
閃
閉
開
閏
閑
閒
間
閔
閵
閻
闌
门
间
闷
闻
阑
阜
阝
阿
降
限
陳
隆
隊
隋
隡
隨
隱
隶
隹
隺
隻
隼
隽
难
雀
雁
集
雈
雋
雍
雐
雔
雙
雚
雜
雝
離
難
雨
雩
雪
雲
零
雷
需
霍
霜
霝
霞
霸
靈
靑
青
非
靡
面
靣
革
韋
韦
韭
韯
韱
音
頁
頃
項
須
頗
頡
頻
顛
页
题
風
风
飛
飞
食
飠
養
饣
首
香
馬
馮
駦
马
骨
高
髟
鬥
鬯
鬲
鬼
魔
魚
魯
鮮
鱼
鲁
鳥
鳳
鸟
鹵
鹿
麃
麗
麥
麦
麻
黃
黄
黍
黎
黑
黒
黨
黹
黽
黾
鼎
鼓
鼠
鼻
齊
齋
齐
齒
齿
龍
龙
龜
龟
龠
龰
龱
龴
龵
龶
龷
龸
龹
꜠
꜡

者
艹
ﬀ
ﬁ
ﬂ
ﬃ
ﬄ
ﬅ
ﬆ
ﬥ
ﯾ
ﷺ
﹫
ﺍ
ﺎ
ﺏ
ﺐ
ﺒ
ﺔ
ﺕ
ﺙ
ﺝ
ﺠ
ﺡ
ﺣ
ﺥ
ﺩ
ﺫ
ﺭ
ﺮ
ﺯ
ﺱ
ﺵ
ﺹ
ﺽ
ﻁ
ﻅ
ﻉ
ﻍ
ﻑ
ﻕ
ﻙ
ﻝ
ﻟ
ﻠ
ﻡ
ﻤ
ﻥ
ﻨ
ﻬ
ﻭ
ﻮ
ﻴ
？
＠
［
＼
］
＾
＿
｀
ａ
ｂ
ｃ
ｄ
ｅ
ｆ
ｇ
ｈ
ｉ
ｊ
ｋ
ｌ
ｍ
ｎ
ｏ
ｐ
ｑ
ｒ
ｓ
ｔ
ｕ
ｖ
ｗ
ｘ
ｙ
ｚ
｛
｜
｝
～
｟
･
𐤀
𐤁
𐤃
𐤋
𐤌
𐤍
𐤎
𐤏
𐤐
𐤑
𐤒
𐤓
𐤕
👌
🜨
𠀁
𠀃
𠀆
𠀉
𠀎
𠀐
𠁁
𠁣
𠂆
𠂇
𠂈
𠂉
𠂊
𠂋
𠂎
𠂒
𠂔
𠂛
𠂡
𠂢
𠂤
𠂬
𠂭
𠂹
𠃊
𠃋
𠃌
𠃍
𠃎
𠃑
𠃓
𠃔
𠃜
𠄌
𠄎
𠄠
𠄢
𠆢
𠆥
𠇍
𠈌
𠌵
𠓜
𠔉
𠔥
𠔼
𠔽
𠔿
𠕀
𠕁
𠕋
𠘧
𠘨
𠙻
𠙼
𠚏
𠚒
𠚤
𠚪
𠣏
𠤎
𠤕
𠥓
𠦄
𠦑
𠦝
𠧒
𠧗
𠧪
𠩺
𠪚
𠫓
𠫔
𠫤
𠬛
𠬝
𠬞
𠬢
𠬤
𠬶
𠮛
𠮦
𠮷
𠯑
𠱠
𠳮
𠷎
𡈼
𡉀
𡉵
𡌥
𡍮
𡏳
𡕒
𡕩
𡕰
𡖅
𡗗
𡗜
𡘆
𡘤
𡧱
𡨄
𡩧
𡬠
𡭽
𡰣
𡰥
𡰪
𡰯
𡰱
𡷈
𡸁
𡿨
𡿩
𡿪
𡿺
𢀖
𢀛
𢀩
𢁙
𢆉
𢆰
𢆶
𢇁
𢇇
𢉖
𢌬
𢌿
𢏚
𢑑
𢑚
𢖻
𢙣
𢛳
𢦏
𢦒
𢧵
𢼄
𢾕
𣁋
𣄼
𣅀
𣅽
𣍘
𣎳
𣎵
𣏋
𣏼
𣗥
𣥂
𣥖
𣦵
𣦼
𣧄
𣪊
𣪠
𣬉
𣳾
𣶒
𤇾
𤊽
𤐫
𤓰
𤔔
𤕨
𤣩
𤰇
𤰔
𤰞
𤴓
𤴔
𤽄
𥁑
𥁕
𥃦
𥃩
𥃭
𥇡
𥑟
𥘅
𥘈
𥝢
𥫗
𥱡
𦈢
𦉪
𦉬
𦉼
𦍌
𦍒
𦎧
𦐇
𦓔
𦔮
𦘒
𦙃
𦚏
𦣝
𦣞
𦣻
𦥑
𦥔
𦥯
𦨉
𦭝
𦰩
𧆞
𧈧
𧘇
𧰨
𧴪
𧴮
𧵩
𧾷
𨸏
𨾴
𩙿
𩠐
𩫏
𩵋
𪉷
𪜀
𪟽
𪠲
𪩲
𫇦
𫔭
𫜸
𫝀
𫠣
𫠩
𫢉
𫥞
𫩏
𫩠
𫪡
𫲽
𫶧
𬀷
𬐘
𬗌
𬙙
𬛸
𬜯
𬟩
𬯁
𬴘
𬺻
𬼉
𬼖
𭀰
𭁈
𭁨
𭅰
𭑈
𭕄
𭗼
𭤨
𭥫
𭻾
𮅕
𮊿
𮍌
𮍏
𮓗
𮥼
𮧮
廾
𰀁
𰀄
𰀈
𰀉
𰀕
𰀠
𰀡
𰀢
𰀪
𰁜
𰃮
𰆊
𰆘
𰋙
𰕎
𰢴
𰧭
𰯲
00--
01--
02--
08--
09--
114--
13--
20--
21--
24--
27071--
29--
40--
41--
430--
47--
48--
57--
59--
67--
72--
73--
76--
80--
87--
a--
aa--
ab--
aba--
abd--
abdou--
abex--
abi--
abr--
abu--
aby--
ac--
acant--
ace--
act--
acu--
ad--
ada--
add--
ade--
adey--
adi--
adin--
adu--
ae--
aegy--
af--
afa--
aff--
afi--
aful--
ag--
age--
aget--
agez--
agt--
agu--
ah--
ahr--
ai--
air--
aj--
ak--
akr--
al--
ala--
alek--
alem--
alex--
algo--
ali--
all--
almora--
als--
am--
ama--
amag--
amd--
ame--
amed--
ames--
amg--
amget--
ami--
amm--
amo--
amph--
ams--
amt--
amu--
amy--
amz--
an--
ana--
anaɣ--
ane--
ang--
angio--
ani--
ann--
ans--
ant--
anz--
aou--
ap--
apo--
appar--
appro--
aq--
aqa--
aql--
aqq--
aqua--
ar--
ara--
arc--
are--
arf--
arg--
ari--
ark--
arri--
art--
as--
asa--
asc--
aseg--
asek--
asel--
asem--
asen--
aser--
ases--
asez--
asg--
asi--
asni--
asq--
ass--
ast--
astro--
asu--
at--
ata--
atel--
ath--
ato--
att--
au--
auto--
av--
aw--
awa--
awez--
awle--
ax--
ay--
aya--
ayen--
ayi--
az--
azduɣ--
azeg--
azer--
azun--
aɛ--
aɛar--
aɛeb--
aɛla--
aɛrab--
aɣ--
aɣel--
b--
ba--
bab--
bac--
bagh--
bah--
bako--
bal--
ban--
bar--
bas--
bat--
bay--
bb--
bc--
bd--
be--
bec--
bed--
beg--
beh--
bek--
bel--
belqa--
belx--
ben--
ber--
bes--
bet--
bex--
bez--
beɣ--
bg--
bh--
bi--
big--
bili--
bilin--
bin--
bio--
bir--
bis--
bit--
bl--
bn--
bo--
bom--
bon--
boo--
bor--
bos--
bou--
boug--
bouh--
bouk--
boy--
br--
bre--
bro--
broo--
brou--
bu--
bub--
buce--
bud--
bug--
buh--
buj--
buka--
bum--
bun--
bur--
bus--
but--
bux--
buz--
buze--
buɛ--
bw--
by--
c--
ca--
can--
canna--
cap--
car--
carth--
cas--
cat--
caval--
caɛ--
cb--
cc--
cce--
cceɛ--
cci--
ccɛ--
ce--
ceg--
cek--
cel--
celeb--
cem--
cend--
cer--
ces--
cet--
cey--
ceɛ--
cf--
ch--
cha--
char--
che--
chi--
ci--
cic--
cin--
cit--
cka--
cla--
clai--
cli--
clu--
cm--
co--
coel--
col--
com--
con--
constant--
cor--
cora--
coron--
cos--
coton--
cour--
cr--
cra--
cre--
cri--
cro--
croc--
crup--
cs--
css--
ct--
cu--
cup--
cur--
cw--
cy--
d--
da--
dacty--
dag--
dal--
dan--
dar--
das--
daw--
day--
dc--
dd--
ddu--
de--
dec--
definit--
deg--
dem--
den--
der--
des--
destr--
deut--
developm--
dez--
dg--
di--
dia--
dict--
did--
didy--
dig--
dis--
div--
dj--
djaz--
do--
doc--
dom--
don--
doo--
dor--
dou--
dr--
dra--
dro--
ds--
du--
duc--
duk--
dur--
dwi--
dy--
dynas--
dz--
e--
ea--
eb--
ec--
echi--
echino--
econo--
ed--
edd--
ef--
eff--
effe--
effective--
eg--
eh--
ej--
ek--
el--
elec--
elep--
em--
en--
enc--
end--
enf--
eng--
ent--
environ--
ep--
eq--
equ--
er--
err--
es--
espi--
ess--
est--
et--
ethno--
eu--
euph--
euro--
ev--
ew--
ex--
exe--
expe--
ey--
ez--
eɛ--
eɣ--
f--
fa--
fabr--
fac--
fah--
fan--
far--
fd--
fe--
fed--
fel--
fen--
fer--
ff--
fi--
fiet--
figu--
fin--
fla--
flo--
flu--
fo--
foen--
fond--
font--
for--
forsc--
fou--
fr--
fre--
fring--
fu--
fund--
fur--
fus--
g--
ga--
gabr--
gal--
gan--
gar--
ge--
gen--
geo--
ger--
gez--
ggu--
gh--
gi--
gia--
gis--
gla--
gle--
glo--
globu--
gna--
go--
god--
gou--
gra--
gran--
gri--
gro--
gu--
guc--
gue--
guillo--
gwr--
gy--
gz--
h--
ha--
hab--
hali--
hamm--
hamo--
han--
hand--
har--
has--
haw--
hay--
he--
hed--
hen--
her--
heug--
hey--
hi--
hispa--
ho--
hodg--
hol--
hono--
how--
hu--
hun--
hy--
hybr--
hyper--
hypo--
i--
ia--
ib--
iba--
ibal--
ibali--
ibeg--
ibel--
ibu--
ibuh--
ic--
icc--
ice--
iceg--
icek--
icen--
icerr--
ici--
id--
ida--
ide--
iden--
idew--
idu--
if--
ifa--
ifel--
iff--
ifra--
ig--
iga--
iged--
igej--
igel--
igez--
igra--
igzen--
ih--
iha--
ihend--
ii--
ij--
ijeb--
ijeq--
ik--
ikat--
ikeb--
ikh--
ikilu--
ikul--
il--
ileg--
ili--
ill--
ils--
ilu--
im--
ima--
imal--
imar--
imaz--
imaɛ--
imce--
imd--
imeg--
imek--
imel--
imer--
imes--
imez--
imeɣ--
img--
imi--
immu--
imqedd--
imqq--
ims--
imsek--
imsel--
imset--
imt--
imu--
imuz--
imz--
imɣ--
in--
ina--
inas--
inaz--
inc--
incor--
ine--
ineh--
inemh--
ines--
inez--
inhi--
inif--
inn--
ins--
int--
inter--
intro--
inves--
inz--
io--
ip--
ipr--
iq--
iqbay--
iqej--
iqes--
ir--
ira--
ireq--
irg--
iri--
irr--
iru--
is--
isa--
isafar--
isd--
ise--
iseb--
ised--
iseff--
iseg--
isek--
isem--
isenga--
iseq--
iser--
isex--
isfa--
isir--
isna--
iso--
ispan--
iss--
issek--
issut--
ist--
isɛ--
it--
ite--
its--
itt--
ittq--
ittus--
ittwa--
ittɛ--
iu--
iv--
iw--
iwa--
iwer--
iwerd--
iws--
iwt--
ix--
ixec--
ixx--
iy--
iyi--
iz--
iza--
izd--
izeg--
izer--
izey--
izi--
izra--
izu--
izw--
izz--
iɛ--
iɛaw--
iɛec--
iɛef--
iɣ--
iɣar--
iɣel--
iɣi--
iɣr--
iɣul--
j--
ja--
jac--
jah--
je--
jim--
jj--
jjm--
jo--
jor--
ju--
jugu--
jumh--
k--
ka--
kai--
kal--
kam--
kan--
kar--
karo--
kaw--
kay--
kazakh--
kci--
ke--
kem--
ken--
ker--
kh--
kha--
khe--
khi--
kho--
ki--
kla--
km--
kna--
ko--
kr--
kra--
ku--
l--
la--
lab--
lag--
lah--
lahou--
lam--
lamor--
lan--
lanceo--
laq--
lar--
las--
lash--
lat--
law--
lax--
laɛ--
laɛq--
laɣ--
lc--
le--
leb--
lec--
led--
lef--
leg--
leh--
lej--
lek--
lem--
lemh--
lemɛ--
len--
leq--
les--
let--
leuc--
lew--
lex--
ley--
lez--
leɛ--
leɣ--
leɣr--
lfa--
lg--
lh--
li--
lim--
lingu--
lis--
lit--
lje--
lju--
lk--
lka--
lke--
lki--
lku--
lkum--
ll--
lla--
llu--
lma--
lme--
lmeɛ--
lmu--
lmun--
lo--
loc--
lor--
lou--
lp--
lq--
lqu--
lt--
lu--
lv--
lx--
ly--
lya--
lyca--
lɛ--
lɣa--
m--
ma--
mac--
mad--
madag--
made--
mag--
mah--
mahie--
mai--
maj--
mak--
mal--
man--
map--
mar--
mas--
mat--
math--
mau--
maw--
maz--
maɛ--
mc--
mca--
md--
me--
med--
medite--
meg--
meh--
mek--
mekk--
mel--
mem--
men--
meq--
mer--
mes--
met--
mez--
meɛ--
meɣ--
mg--
mh--
mi--
micr--
micro--
mid--
mik--
mil--
min--
mir--
mis--
mit--
mix--
ml--
mm--
mmer--
mmes--
mmi--
mni--
mo--
moh--
mon--
mono--
mor--
mora--
moral--
morph--
mout--
moz--
mr--
ms--
msez--
mt--
mu--
muh--
multi--
mun--
muq--
mur--
mus--
mut--
mw--
my--
myez--
myth--
mz--
mɛ--
n--
na--
nag--
nan--
nat--
navi--
naz--
naɛ--
nd--
ne--
nebr--
nec--
ned--
nef--
neg--
neh--
nej--
nejma--
nek--
nel--
nem--
nems--
ner--
nes--
nessu--
net--
nett--
new--
ney--
neɛ--
neɣ--
ng--
nh--
ni--
nia--
nic--
nick--
nig--
nik--
nil--
nit--
nl--
nn--
nna--
nner--
no--
nom--
non--
nor--
nos--
not--
nou--
nr--
ns--
nse--
nt--
nu--
nuk--
nun--
nz--
nɛ--
nɣ--
o--
ob--
obl--
obser--
oc--
od--
of--
ohlo--
old--
olym--
om--
omni--
on--
open--
opi--
opt--
or--
org--
ornitho--
oro--
ory--
os--
ou--
our--
out--
ouv--
ox--
p--
pa--
pano--
par--
pas--
pe--
pen--
per--
perfoli--
ph--
pho--
phon--
phy--
pi--
pie--
pit--
pl--
plan--
po--
poli--
pom--
port--
post--
pou--
pr--
prae--
prat--
pre--
pri--
pro--
provo--
psycho--
pue--
pul--
pup--
py--
q--
qa--
qad--
qan--
qar--
qaw--
qeb--
qed--
qel--
qell--
qer--
qes--
qi--
qs--
qu--
qui--
quinque--
r--
ra--
ram--
ran--
rap--
rara--
ras--
re--
reb--
rece--
red--
ref--
reg--
remm--
ren--
rept--
res--
revo--
rew--
rey--
rh--
ri--
ric--
rik--
ris--
rit--
ro--
rodr--
roph--
ros--
rou--
row--
rr--
rs--
rt--
ru--
rum--
rumi--
rupes--
rwa--
rz--
s--
sa--
sab--
sad--
sah--
sai--
sal--
sam--
san--
sar--
sau--
saw--
sawe--
sax--
saɛ--
sb--
sbedd--
sc--
scal--
sce--
sch--
scho--
scul--
sd--
se--
sea--
sec--
secon--
sed--
seg--
sek--
sel--
sem--
sen--
sent--
seq--
seqs--
ser--
ses--
set--
sew--
sex--
seɛ--
sg--
sh--
she--
shi--
si--
sic--
sig--
sil--
sim--
sin--
sina--
sir--
sk--
sko--
sky--
sla--
slu--
snar--
sne--
snef--
sni--
snu--
snul--
so--
socio--
sor--
sou--
souve--
souverai--
sp--
spe--
spin--
sq--
squ--
sr--
ss--
ssa--
ssar--
sseg--
ssek--
ssel--
ssem--
ssen--
sset--
ssez--
sseɣ--
sseɣre--
ssi--
ssir--
ssr--
ssu--
ssul--
ssɛ--
st--
sta--
ste--
sto--
stra--
sty--
su--
sub--
sud--
suff--
sun--
super--
supp--
sur--
sus--
sv--
sw--
swed--
sy--
syl--
sym--
synta--
sz--
sœ--
sɛ--
t--
ta--
taa--
tab--
tabel--
tabu--
tac--
tad--
taf--
tafe--
tafr--
tag--
tagel--
tagg--
tah--
taj--
tajen--
tajik--
tak--
taka--
take--
takel--
takem--
tako--
tal--
tala--
tali--
taluɣ--
talɣ--
tam--
tama--
tamed--
tameg--
tamek--
tameɣ--
tamnumm--
tams--
tamz--
tamɛ--
tan--
tanef--
taneg--
taneɣ--
tant--
tanz--
tap--
taq--
taqa--
tar--
tares--
taro--
taru--
tas--
tased--
tasef--
taseg--
tasel--
tasem--
tasen--
tasni--
tassu--
tasuf--
tat--
tau--
taw--
tawa--
tawer--
tax--
tay--
tayd--
taz--
taza--
tazeg--
tazz--
taɛ--
taɛem--
taɣ--
tba--
tberdeff--
tbi--
tbis--
tbuzeg--
tc--
tceq--
td--
tdu--
te--
teb--
tebb--
tebr--
tec--
ted--
tef--
teg--
teh--
tei--
tej--
tek--
teknu--
tel--
tem--
temd--
temed--
temes--
temg--
temk--
teml--
temr--
tems--
temy--
temya--
temz--
temɛ--
ten--
tepr--
teq--
teqdi--
ter--
tes--
tesbeg--
teseg--
tesgi--
tesni--
tesnima--
tess--
tessa--
tessef--
tessu--
tet--
tett--
tettwa--
tettwas--
tettɛ--
tew--
tewli--
tewt--
tewɛ--
tex--
text--
tey--
tez--
tezz--
teɛ--
teɣ--
tfa--
tfe--
tfel--
tfer--
tfi--
tfr--
tfu--
tg--
tga--
tgem--
th--
the--
ti--
tibi--
tic--
ticebc--
tid--
tidams--
tif--
tifark--
tifel--
tig--
tiga--
tige--
tigemm--
tigra--
tih--
tij--
tijm--
tijɛ--
tik--
tika--
tikan--
tiker--
tiki--
tikur--
til--
tilew--
tilma--
tilɣ--
tim--
timan--
times--
timez--
timeɣ--
timg--
timi--
timin--
timl--
timm--
tims--
timt--
timu--
timud--
timur--
timz--
timɣel--
tin--
tina--
tinec--
tineg--
tinej--
tineɣ--
ting--
tinsa--
tiq--
tiqa--
tiqes--
tir--
tirmi--
tis--
tiseg--
tisek--
tisel--
tiset--
tisna--
tisuq--
tit--
tiw--
tiwez--
tix--
tiy--
tiz--
tiza--
tized--
tizel--
tizeɣ--
tizi--
tiɛ--
tiɣ--
tiɣar--
tiɣe--
tiɣel--
tja--
tje--
tk--
tka--
tke--
tku--
tkur--
tla--
tle--
tli--
tm--
tmag--
tmah--
tman--
tmar--
tmd--
tme--
tmed--
tmeg--
tmek--
tmen--
tmes--
tmez--
tmeɛ--
tms--
tmu--
tmukr--
tna--
tne--
tneg--
tnek--
tneq--
tneɣ--
tni--
tnil--
tnu--
to--
tol--
tom--
ton--
topo--
tor--
tou--
tq--
tqeb--
tqec--
tqer--
tqu--
tr--
tra--
trans--
tre--
tricuspi--
tro--
troglody--
ts--
tsa--
tsar--
tseg--
tsek--
tsekk--
tsel--
tsem--
tsen--
tserd--
tsew--
tseɣ--
tssu--
tsudd--
tsuf--
tt--
ttag--
ttas--
ttd--
tteg--
ttek--
ttem--
ttemya--
tten--
ttet--
ttex--
tteɛ--
ttim--
ttner--
ttnu--
ttr--
tts--
ttus--
ttuse--
ttuss--
ttut--
ttwa--
ttwag--
ttwaj--
ttwak--
ttwal--
ttwaq--
ttwas--
ttwi--
ttx--
ttz--
ttɛ--
tu--
tub--
tuc--
tud--
tudma--
tuf--
tuff--
tufr--
tug--
tuj--
tujj--
tuk--
tukr--
tul--
tun--
tuneg--
tung--
tuq--
tur--
tus--
tut--
tuw--
tuz--
tuɣ--
tv--
twa--
twaf--
twas--
twe--
twi--
twu--
tx--
txem--
ty--
tya--
tz--
tza--
tzel--
tzem--
tzer--
tzik--
tzung--
tɛ--
tɛett--
tɣ--
tɣe--
tɣel--
tɣemm--
tɣi--
tɣr--
u--
ub--
uba--
ubr--
uc--
ucc--
ud--
udd--
udi--
uduk--
uf--
ufet--
ufi--
ug--
uga--
uger--
ugez--
ugz--
uh--
uj--
ujeɣ--
ujj--
uk--
uka--
uki--
ukr--
ul--
ula--
ulay--
ulem--
um--
uma--
umag--
umal--
umaɣ--
umd--
umej--
umek--
umes--
umeɣ--
umger--
umh--
umi--
umm--
umr--
ums--
umsed--
umz--
un--
una--
und--
une--
uni--
up--
uq--
ur--
ura--
uri--
uros--
us--
usa--
use--
usef--
useg--
usek--
usel--
useml--
usen--
useq--
usex--
useɣ--
usm--
usne--
usnu--
uss--
ussem--
usser--
ust--
usu--
ut--
utt--
uw--
uwd--
uwez--
uwi--
ux--
uy--
uz--
uza--
uzeg--
uzi--
uzun--
uɛ--
uɣ--
v--
va--
val--
van--
variabi--
ve--
velo--
ver--
vi--
vici--
vie--
vio--
virg--
visual--
vo--
vois--
vol--
vor--
vu--
w--
wa--
wac--
wad--
wafr--
wag--
wah--
wak--
wal--
wamm--
wan--
waq--
war--
was--
wat--
waw--
way--
waz--
waɣ--
we--
web--
wec--
wed--
wef--
weg--
wegt--
weh--
wej--
wek--
wel--
welɣ--
wem--
wemg--
weml--
wems--
wemɣ--
wen--
weq--
wer--
wes--
wessi--
west--
wet--
wex--
wey--
wez--
weɛ--
weɣ--
wfer--
wi--
wiki--
win--
wis--
wo--
wor--
world--
wr--
wsa--
wsem--
wsen--
wsu--
wu--
wud--
wug--
wuk--
wul--
wus--
wuz--
wze--
x--
xel--
xem--
xen--
xer--
xi--
y--
ya--
yag--
yah--
yan--
yar--
yas--
yaɛ--
yd--
ye--
yec--
yed--
yef--
yeg--
yegg--
yeh--
yej--
yek--
yel--
yem--
yemg--
yemm--
yems--
yemɛ--
yen--
yeq--
yer--
yes--
yesduk--
yeska--
yess--
yessem--
yest--
yet--
yets--
yett--
yettem--
yettq--
yettu--
yettwa--
yettwab--
yettwak--
yettwas--
yettwe--
yetwa--
yev--
yew--
yex--
yexf--
yez--
yeɛ--
yeɛq--
yeɣ--
yg--
yh--
yi--
yicu--
yid--
yif--
yig--
yih--
yij--
yiju--
yik--
yika--
yil--
yim--
yimas--
yimazza--
yimen--
yimer--
yimes--
yimr--
yims--
yimya--
yin--
yineɣ--
yinz--
yiq--
yir--
yis--
yisef--
yiseg--
yiser--
yisert--
yisnu--
yit--
yix--
yiz--
yiɛ--
yiɣ--
yiɣar--
yiɣe--
yiɣer--
yo--
ysel--
ysu--
yu--
yud--
yug--
yugu--
yuk--
yum--
yun--
yung--
yuq--
yur--
yus--
yuz--
yuɛ--
yuɣ--
z--
za--
zak--
zaɛ--
zd--
ze--
zed--
zeg--
zegza--
zek--
zel--
zen--
zer--
zey--
zeɛ--
zeɣ--
zh--
zi--
zilal--
zin--
zo--
zoo--
zou--
zr--
zy--
zygophy--
zz--
zza--
zze--
zzh--
œ--
ɛ--
ɛabd--
ɛabdel--
ɛar--
ɛay--
ɛeb--
ɛebdel--
ɛed--
ɛel--
ɛer--
ɛes--
ɛez--
ɛt--
ɣ--
ɣa--
ɣe--
ɣel--
ɣen--
ɣer--
ɣez--
ɣi--
ɣr--
ɣur--
λ--
ο--
π--
σ--
τ--
אב--
ה--
ש--
ا--
ال--
الب--
الت--
الج--
الح--
الخ--
الد--
الر--
الز--
الس--
الش--
الشر--
الص--
الظ--
الع--
الف--
الق--
الك--
الم--
الن--
الو--
ب--
بت--
تا--
تح--
تر--
ح--
حا--
خل--
د--
ر--
را--
زو--
زي--
س--
سل--
شم--
ص--
طا--
ع--
عا--
عل--
ـ--
ق--
ك--
كر--
ل--
لو--
م--
مح--
مر--
مس--
مص--
مط--
مل--
مو--
ن--
ه--
و--
وا--
وال--
ور--
ي--
--0
--00
--02
--05
--1
--12
--2
--29
--3
--39
--4
--46
--5
--6
--7
--70
--8
--82
--84
--9
--99
--a
--aa
--ab
--aba
--abbrev
--able
--abt
--ac
--acin
--act
--ad
--ada
--adi
--adiyen
--adj
--adt
--ae
--aen
--af
--afa
--afer
--ag
--aga
--agh
--ah
--ai
--aine
--aire
--ais
--aj
--ajen
--ak
--al
--ala
--alas
--ale
--alel
--alem
--alen
--aleɣ
--ali
--alis
--alt
--am
--ama
--an
--ana
--and
--ane
--anen
--ani
--anin
--anit
--ano
--ans
--ant
--anu
--aq
--ar
--ara
--arey
--ari
--arius
--arpus
--arrow
--ars
--art
--ary
--as
--asen
--ast
--at
--ate
--ategory
--ati
--atu
--atum
--au
--aud
--aux
--aw
--awa
--awi
--awt
--ax
--axis
--ay
--ayen
--ayn
--ayt
--az
--aɛ
--aɣ
--aɣri
--b
--ba
--bacen
--bad
--bal
--ball
--bar
--bas
--bat
--baɣ
--bbad
--bbed
--bbeh
--bbi
--bd
--be
--bed
--bel
--ben
--ber
--bez
--beɛ
--beɣ
--bh
--bi
--bid
--bin
--bit
--biyen
--ble
--blen
--bles
--bo
--bs
--bt
--bu
--buka
--bum
--burg
--burn
--burɣas
--bus
--buyaɛ
--buz
--bɛ
--c
--ca
--cal
--cam
--caq
--car
--cat
--category
--caw
--cc
--ccen
--ce
--cea
--ceae
--ced
--ceggaɛ
--cel
--cen
--ces
--ch
--che
--cht
--ci
--cikki
--cin
--cion
--cit
--ck
--ckat
--co
--crit
--cs
--ct
--cta
--ctive
--ctus
--cu
--cum
--cun
--cur
--cus
--cy
--d
--da
--dab
--dad
--dae
--dag
--dah
--dak
--dal
--dalen
--dam
--dan
--danen
--danin
--dant
--dar
--daren
--dart
--das
--dasen
--dat
--day
--daz
--daɣ
--dben
--dd
--ddeb
--ddes
--ddi
--ddim
--de
--deb
--ded
--deddiwt
--def
--deg
--dek
--del
--den
--der
--det
--deɛ
--deɣ
--dfa
--dhi
--di
--diden
--dil
--dim
--dimen
--din
--dio
--dir
--dis
--disen
--dit
--diwt
--diyin
--dj
--dja
--dji
--dn
--do
--dou
--douk
--dri
--drit
--ds
--dsen
--dt
--du
--duh
--dukal
--dukli
--dul
--dun
--dur
--durin
--dus
--dut
--duyen
--duɣ
--duɣin
--duɣt
--dy
--dyut
--e
--ea
--eae
--ean
--eau
--eb
--eba
--ebd
--ebded
--ebt
--ebɣes
--ec
--ech
--ecma
--ect
--ecta
--ection
--ed
--ee
--een
--ef
--efan
--effirt
--efham
--efk
--efqed
--efrin
--eft
--eg
--ege
--egg
--egga
--eggit
--egi
--egra
--egraw
--egray
--egt
--egza
--egzi
--egzu
--eh
--ehzi
--ei
--ein
--ej
--ejji
--ejjut
--ek
--eka
--ekcam
--eken
--ekfel
--ekker
--ekni
--ekrar
--ekt
--el
--ela
--elam
--elg
--elkemt
--ell
--elma
--els
--elt
--elwah
--ely
--em
--ement
--emlil
--emsut
--emt
--en
--ene
--enen
--eni
--ent
--enu
--enyi
--enɣ
--eo
--eot
--eq
--eqsi
--er
--eri
--erni
--ers
--ert
--ery
--erz
--erɣi
--es
--esco
--esen
--ess
--est
--et
--ete
--etes
--etka
--ets
--ett
--ette
--etti
--eur
--eurs
--eus
--euse
--eux
--ew
--exdam
--ey
--eya
--eyn
--eyt
--eyya
--eyyan
--eyyi
--ez
--ezt
--eɛ
--eɛfu
--eɛmer
--eɛr
--eɣ
--eɣli
--eɣret
--f
--fa
--fag
--fal
--falen
--fali
--fan
--fanin
--faq
--far
--faras
--fat
--fawt
--fay
--faylu
--faɣ
--fd
--fden
--fejjij
--fel
--fen
--fenza
--fer
--fert
--fet
--fez
--feɛ
--ff
--ffaz
--ffaɣ
--ffu
--fi
--fia
--fid
--fin
--fir
--fit
--fk
--fle
--fli
--flin
--fo
--fois
--fq
--fr
--fru
--fsa
--fsu
--ft
--fty
--fu
--fuggul
--fuk
--ful
--fun
--fus
--fya
--fɣ
--g
--ga
--gaden
--gag
--gal
--gam
--gamt
--gan
--ganin
--gar
--gas
--gat
--gay
--gayt
--gaz
--gaɣ
--gdu
--ge
--gedichte
--gel
--gem
--gen
--ger
--gert
--ges
--gez
--gg
--gga
--ggaz
--ggel
--ggez
--ggi
--ggurt
--gh
--gha
--ghi
--gi
--gid
--gigit
--gimt
--gin
--git
--gli
--gmi
--gna
--gne
--gny
--go
--gon
--gos
--graphie
--grawin
--grey
--gri
--gs
--gt
--gton
--gu
--gua
--gug
--gugt
--gul
--gult
--gun
--gunfu
--gur
--gura
--gurt
--gus
--gut
--gwa
--gz
--gzem
--gzirt
--h
--ha
--hak
--hal
--halen
--ham
--han
--har
--haɣ
--he
--hed
--hel
--helt
--hem
--hen
--her
--hew
--hez
--hf
--hher
--hi
--hil
--hin
--hir
--history
--ho
--hs
--ht
--http
--https
--hu
--huc
--hus
--hut
--i
--ia
--iae
--ial
--ian
--iana
--iance
--iane
--iani
--ianus
--ib
--ibi
--ible
--ibt
--ibus
--ic
--ica
--ical
--ican
--ich
--ics
--ict
--icum
--icus
--id
--idae
--iden
--idi
--ie
--iel
--ien
--iene
--ienne
--ier
--ies
--iet
--ieta
--ieu
--if
--ift
--ify
--ig
--ih
--ihel
--ii
--ij
--ik
--ika
--ikan
--ikant
--ikin
--ikk
--ikt
--il
--im
--imi
--imo
--in
--ina
--inae
--ine
--ing
--ini
--ino
--ins
--int
--inya
--io
--ion
--ions
--iou
--ious
--iq
--iqit
--ique
--iques
--ir
--ira
--ire
--iro
--irt
--irya
--is
--isation
--ise
--ished
--isi
--isio
--ism
--isme
--ist
--iste
--istes
--isya
--it
--ita
--ital
--ite
--iten
--iti
--ito
--itude
--itudo
--itus
--ity
--ium
--ius
--iw
--iwel
--iwin
--iwt
--ix
--iya
--iyah
--iyen
--iyin
--iyt
--iyus
--iz
--ize
--izm
--izt
--izzelt
--iɛa
--iɣ
--j
--ja
--jan
--jel
--jen
--jet
--ji
--jid
--jit
--jj
--jja
--jji
--joudj
--jt
--ju
--jur
--k
--ka
--kad
--kal
--kalt
--kan
--kanen
--kant
--kar
--kart
--kas
--kat
--kay
--kaz
--kcam
--kd
--ke
--ked
--kel
--ken
--ker
--kes
--ket
--kez
--kh
--ki
--kid
--kil
--kilt
--kin
--kit
--kiwin
--kk
--kka
--kkat
--kkel
--kki
--kkir
--kkli
--kla
--kli
--ko
--kri
--ks
--kt
--kti
--ktr
--ku
--kuc
--kud
--kuf
--kuk
--kul
--kun
--kunt
--kus
--ky
--kya
--l
--la
--lad
--laf
--laft
--lal
--lam
--lan
--lanin
--las
--lat
--law
--lawa
--lay
--laɣ
--lb
--ld
--lda
--ldun
--le
--led
--lef
--lek
--lel
--lem
--lemen
--len
--les
--let
--ley
--leɛ
--leɣ
--leɣt
--lf
--lfa
--lfu
--lh
--li
--lia
--lid
--lik
--lil
--lin
--lis
--lit
--liɣ
--lk
--lken
--ll
--lla
--lle
--lles
--lli
--llit
--llus
--lly
--lm
--lmim
--ln
--lo
--lon
--lone
--lot
--low
--ls
--lsa
--lt
--lte
--lten
--lu
--lub
--lujit
--lun
--lus
--lust
--lut
--luz
--ly
--lya
--lyus
--lz
--lɣen
--m
--ma
--mad
--mal
--man
--map
--mar
--mart
--mas
--matic
--maw
--mawen
--may
--maɣ
--md
--me
--mec
--med
--mekt
--mekti
--mel
--men
--ment
--mer
--mert
--mes
--met
--meɛ
--meɣ
--mi
--migt
--mil
--mim
--min
--mir
--miren
--mit
--mma
--mman
--mmas
--mme
--mmen
--mmer
--mmu
--mmud
--mo
--mod
--mot
--mp
--mr
--mren
--ms
--msi
--mt
--mu
--mud
--mum
--mun
--munen
--munin
--muqul
--mura
--mus
--my
--myen
--mys
--mz
--mzan
--mɛ
--n
--na
--nad
--nak
--nal
--name
--nan
--nanen
--nanit
--nar
--nas
--nat
--naw
--nawen
--nawt
--naxt
--nay
--naya
--nayt
--nce
--nd
--nden
--ndit
--ndre
--ne
--nebra
--ned
--nefli
--nel
--nell
--nelle
--nement
--nen
--ner
--nes
--ney
--nez
--nfa
--nfel
--ng
--nga
--nge
--ngen
--ni
--nidae
--nig
--nik
--nim
--nin
--ning
--niqt
--nirem
--nis
--nit
--niw
--niwt
--niyen
--niyin
--niyt
--nk
--nn
--nne
--nni
--no
--ns
--nsis
--nt
--nte
--nti
--ntia
--ntin
--nto
--nts
--nu
--nuc
--nuci
--nulfa
--nulfu
--nulfun
--num
--nun
--nuq
--nus
--nut
--nuten
--nuy
--nuz
--nuzu
--ny
--nya
--nz
--nze
--o
--oa
--oc
--od
--odie
--oe
--og
--ogy
--oi
--ok
--ol
--ola
--ole
--olia
--om
--omic
--omorpha
--on
--ona
--onia
--ons
--op
--opus
--or
--ore
--oria
--oriae
--orial
--ors
--ort
--orum
--ory
--os
--osa
--osus
--ot
--ota
--ote
--ou
--oua
--oub
--ouche
--oud
--oui
--oul
--oun
--ouni
--our
--ous
--out
--oux
--ova
--ow
--ows
--oya
--oza
--p
--pa
--pe
--ph
--phalus
--phi
--phie
--phik
--phy
--pi
--ping
--poda
--polis
--port
--ps
--pt
--pur
--pus
--py
--q
--qa
--qabal
--qal
--qamu
--qd
--qec
--qed
--qef
--qel
--qem
--qemt
--qen
--qes
--qeɣ
--qi
--qid
--qin
--qit
--qq
--qqan
--qqel
--qqi
--qqr
--qr
--qrar
--qsaq
--qt
--quc
--que
--qul
--r
--ra
--raa
--rab
--rac
--rad
--raf
--rafegt
--rag
--raj
--ram
--ran
--raq
--rar
--rara
--raren
--ras
--rat
--raw
--rawen
--rawt
--ray
--rayt
--razen
--rc
--rd
--rda
--re
--reb
--rec
--red
--reg
--reh
--rem
--ren
--req
--rer
--res
--ret
--rette
--rew
--rex
--rez
--reɣ
--rfa
--rg
--rga
--ri
--ria
--rid
--rif
--rifgin
--rigen
--rij
--rik
--rim
--rin
--rir
--ris
--rit
--rix
--rjen
--rl
--rma
--rmen
--rn
--rne
--ro
--rod
--rot
--row
--rp
--rr
--rra
--rre
--rri
--rru
--rs
--rt
--rta
--rti
--rtit
--ru
--ruc
--ruden
--rudt
--rug
--ruj
--rum
--run
--rurt
--rus
--rusin
--rust
--rut
--ruyt
--rxen
--ry
--rya
--rza
--rzen
--s
--sa
--sad
--safen
--sak
--sal
--san
--sanen
--sant
--sar
--saren
--sas
--sasen
--say
--sba
--sca
--scape
--sch
--sco
--se
--sed
--sef
--seg
--selmad
--sem
--sen
--ser
--ses
--set
--sex
--seɣ
--sgracht
--sh
--shina
--si
--sia
--sin
--sion
--sis
--sit
--sity
--siwet
--sk
--ska
--ski
--sko
--sky
--sma
--sme
--sn
--snen
--sni
--so
--sole
--son
--sou
--ss
--ssa
--sse
--ssen
--sso
--sson
--st
--ste
--stes
--su
--suli
--sum
--sun
--sur
--suren
--suy
--suya
--t
--ta
--tae
--tag
--taggayt
--tal
--tan
--tant
--tar
--tay
--te
--teb
--ted
--tef
--tel
--tem
--ten
--ter
--teur
--teurs
--th
--the
--thy
--ti
--tic
--tica
--ties
--tik
--tiki
--til
--tilt
--tin
--ting
--tion
--tions
--tit
--tium
--tius
--tiyen
--tle
--tn
--tni
--to
--ton
--tor
--tos
--tov
--town
--tra
--tru
--ts
--tt
--tta
--tte
--ttes
--tti
--ttps
--tu
--tum
--tun
--tur
--tus
--ty
--tyen
--tz
--u
--ua
--ual
--ub
--uba
--uc
--ud
--uda
--ude
--ue
--uel
--ues
--uet
--uf
--ufa
--ufaɣ
--uffuɣ
--ufsan
--ufɣ
--ug
--uggit
--uh
--uha
--ui
--uil
--uj
--uji
--uk
--ukal
--ul
--ulation
--ule
--ulen
--uli
--ult
--ulus
--ulya
--um
--uma
--umren
--umu
--un
--una
--unculus
--ung
--unt
--uo
--uqel
--uqul
--ur
--ura
--ure
--ures
--urfa
--urn
--urs
--urt
--urus
--urxen
--us
--use
--usen
--usi
--ut
--uten
--uter
--uto
--utr
--uve
--ux
--uy
--uyin
--uz
--uzen
--uzren
--uɛ
--uɣ
--v
--va
--val
--vas
--ve
--ver
--vet
--vi
--via
--vit
--viyen
--vu
--vusz
--vya
--w
--wa
--wabnu
--wad
--waker
--waket
--wal
--wala
--wan
--wanefk
--want
--waq
--war
--waren
--wart
--was
--wasebded
--waseqdac
--wasuddes
--wat
--wawt
--way
--wazit
--waɣ
--wd
--web
--wec
--wed
--weg
--wej
--wel
--wen
--wes
--wet
--wg
--wh
--wi
--wic
--wicen
--wih
--wil
--win
--wit
--wiyen
--wiyin
--wiɣ
--wl
[...]
