!
"
#
##0
##1
##10
##11
##12
##13
##14
##15
##16
##17
##18
##19
##2
##20
##21
##22
##23
##24
##25
##26
##27
##28
##29
##3
##30
##31
##32
##33
##34
##35
##36
##37
##38
##39
##4
##40
##41
##42
##43
##44
##45
##46
##47
##48
##49
##5
##50
##51
##52
##53
##54
##55
##56
##57
##58
##59
##6
##60
##61
##62
##63
##64
##65
##66
##67
##68
##69
##7
##70
##71
##72
##73
##74
##75
##76
##77
##78
##79
##8
##80
##81
##82
##83
##84
##85
##86
##87
##88
##89
##9
##90
##91
##92
##93
##94
##95
##96
##97
##98
##99
$
%
&
'
(
)
*
+
,
-
.
/
0
00
000
001
002
003
008
01
013
02
021
03
04
041
05
055
058
06
07
08
086
09
1
10
100
1000
10000
100000
1001
1002
1003
1004
1005
1006
1007
1008
1009
101
1010
10100
1011
1012
1013
1014
1015
1016
1017
1018
1019
102
1020
10200
1021
1022
1023
1023000
1024
1025
1026
1027
1028
1029
103
1030
1031
1032
1033
1034
1035
1036
1037
1038
1039
104
1040
1041
1042
1043
1044
1045
1046
1047
1048
1049
105
1050
10500
1051
1052
1053
1054
1055
1056
1057
1058
1059
106
1060
106000
1061
1062
1063
1064
1065
10658
1066
1067
1068
1069
107
1070
107000
1071
1072
1073
1074
1075
1076
1077
1078
1079
108
1080
108000
1081
1082
1083
1084
1085
1086
1087
1088
1089
109
1090
1091
1092
1093
1094
1095
1096
1097
1098
1099
11
110
1100
11000
110000
1101
1102
1103
1104
1105
1106
1107
1108
1109
111
1110
1111
1112
1113
1114
1115
1116
1117
1118
1119
112
1120
11200
112000
1121
1122
1123
1124
1125
1126
1127
1128
1129
113
1130
1131
1132
1133
1134
1135
1136
1137
1138
1139
114
1140
11400
1141
1142
1143
1144
1145
1146
1147
1148
1149
115
1150
1151
1152
1153
1154
1155
1156
1157
1158
1159
116
1160
1161
1162
1163
1164
1165
1166
1167
1168
1169
117
1170
1171
1172
11723
1173
1174
1175
1176
1177
1178
1179
118
1180
11800
118000
1181
1182
1183
1184
1185
1186
1187
1188
1189
119
1190
11900
119000
1191
1192
1193
1194
1195
1196
1197
1198
1199
12
120
1200
12000
120000
1201
1202
1203
1204
1205
1206
1207
1208
1209
121
1210
1211
1212
1213
1214
1215
1216
1217
1218
1219
122
1220
12200
122000
1221
1222
1223
1224
1225
1226
1227
1228
1229
123
1230
12300
123000
1231
1232
1233
1234
1235
1236
1237
1238
1239
124
1240
12400
1241
1242
1243
1244
1245
1246
1247
1248
1249
125
1250
12500
1251
1252
1253
1254
1255
1256
1257
1258
1259
126
1260
12600
1261
1262
1263
1264
1265
1266
1267
1268
1269
127
1270
12700
1271
1272
1273
1274
1275
1276
1277
1278
1279
128
1280
12800
1281
1282
1283
1284
1285
1286
1287
1288
1289
129
1290
12900
1291
1292
1293
1294
1295
1296
1297
1298
1299
13
130
1300
13000
130000
1301
1302
1303
1304
1305
1306
1307
1308
1309
131
1310
1311
1312
1313
1314
1315
1316
1317
1318
1319
132
1320
13200
1321
1322
1323
1324
1325
1326
13263
1327
1328
1329
13297
133
1330
13300
1331
1332
1333
1334
1335
1336
1337
1338
1339
134
1340
13400
1341
1342
1343
1344
1345
1346
1347
1348
1349
135
1350
1351
1352
1353
1354
1355
1356
1357
1358
1359
136
1360
1361
1362
1363
1364
1365
1366
1367
1368
1369
137
1370
13700
1371
1372
1373
1374
1375
1376
1377
1378
1379
138
1380
1381
1382
1383
1384
1385
1386
1387
1388
1389
139
1390
1391
1392
1393
1394
1395
1396
1397
1398
1399
14
140
1400
14000
1401
1402
1403
1404
1405
1406
1407
1408
1409
141
1410
14100
1411
1412
1413
1414
1415
1416
1417
1418
1419
142
1420
14200
142000
1421
1422
1423
1424
1425
1426
1427
1428
1429
143
1430
14300
1431
1432
1433
14331
1434
1435
1436
1437
1438
1439
144
1440
14400
1441
1442
1443
1444
1445
1446
1447
1448
1449
145
1450
14500
145000
1451
1452
1453
1454
1455
1456
1457
1458
1459
146
1460
14600
1461
1462
1463
1464
1465
1466
1467
1468
1469
147
1470
14700
1471
1472
1473
1474
1475
14758
1476
1477
1478
1479
148
1480
1481
1482
1483
1484
1485
1486
1487
1488
1489
149
1490
1491
1492
1493
1494
1495
1496
1497
1498
1499
15
150
1500
15000
150000
1501
1502
1503
1504
1505
1506
1507
1508
1509
151
1510
15100
1511
1512
1513
1514
1515
1516
1517
1518
1519
152
1520
1521
1522
1523
1524
1525
1526
1527
1528
1529
153
1530
15300
1531
1532
1533
1534
1535
1536
1537
1538
1539
154
1540
15400
1541
1542
1543
1544
1545
1546
1547
1548
1549
155
1550
15500
1551
1552
1553
1554
1555
1556
1557
1558
1559
156
1560
15600
1561
1562
1563
1564
1565
1566
1567
1568
1569
157
1570
15700
1571
1572
1573
1574
1575
1576
1577
1578
1579
158
1580
15800
158000
1581
1582
1583
1584
1585
1586
1587
1588
1589
159
1590
1591
1592
1593
1594
1595
1596
1597
1598
1599
16
160
1600
16000
1601
1602
1603
1604
1605
1606
1607
1608
1609
161
1610
16100
161000
1611
1612
1613
1614
1615
1616
1617
1618
1619
162
1620
16200
162000
1621
1622
1623
1624
1625
1626
1627
1628
1629
163
1630
1631
1632
1633
1634
1635
1637
1638
1639
164
1640
164000
1641
1642
1643
1644
1645
1646
1647
1648
1649
165
1650
16500
1651
1652
1653
1654
1655
1656
1657
1658
1659
166
1660
16600
166000
1661
1662
1663
1664
1665
1666
1667
1668
1669
167
1670
167000
1671
1672
1673
1674
1675
1676
1677
1678
1679
168
1680
16800
1681
1682
1683
1684
1685
1686
1687
1688
1689
169
1690
1691
1692
1693
1694
1695
1696
1697
1698
1699
17
170
1700
17000
170000
1701
1702
1703
1704
1705
1706
1707
1708
1709
171
1710
17100
1711
1712
1713
1714
1715
1716
1717
1718
1719
172
1720
1721
1722
1723
1724
1725
1726
1727
1728
1729
173
1730
1731
1732
1733
1734
1735
1736
1737
1738
1739
174
1740
17400
174000
1741
1742
1743
1744
1745
1746
1747
1748
1749
175
1750
17500
1751
1752
1753
1754
1755
1756
1757
1758
1759
176
1760
17600
1761
1762
1763
1764
1765
1766
1767
1768
1769
177
1770
17700
1771
1772
1773
1774
1775
1776
1778
1779
178
1780
17800
178000
1781
1782
1783
1784
1785
1786
1788
1789
179
1790
1791
1792
1793
1794
1795
1796
1797
1798
1799
18
180
1800
18000
1801
1802
1803
1804
1805
1806
1807
1808
1809
181
1810
1811
1812
1813
1814
1815
1816
1817
1818
1819
182
1820
1821
1822
1823
1824
1825
1826
1827
1828
1829
183
1830
18300
183000
1831
1832
1833
1834
1835
1836
1837
1838
1839
184
1840
1841
1842
1843
1844
1845
1846
1847
1848
1849
185
1850
18500
1851
1852
1853
1854
1855
1856
1857
1858
1859
186
1860
18600
1861
1862
1863
1864
1865
1866
1867
1868
1869
187
1870
18700
1871
1872
1873
1874
1875
1876
1877
1878
1879
188
1880
1881
1882
1883
1884
1885
1886
1887
1888
1889
189
1890
1891
1892
1893
1894
1895
1896
1897
1898
1899
19
190
1900
19000
1901
1902
1903
1904
1905
1906
1907
1908
1909
191
1910
19100
1911
1912
1913
1914
1915
1916
1917
1918
1919
192
1920
1921
1922
1923
1924
1925
1926
1927
1928
1929
193
1930
19300
1931
1932
1933
1934
1935
1936
1937
1938
1939
194
1940
194000
1941
1942
1943
1944
1945
1946
1947
1948
1949
195
1950
1951
1952
1953
1954
1955
1956
1957
1958
1959
196
1960
196000
1961
1962
1963
1964
1965
1966
1967
1968
1969
197
1970
1971
1972
1973
1974
1975
1976
1977
1978
1979
198
1980
198000
1981
1982
1983
1984
1985
1986
1987
1988
1989
199
1990
1991
1992
1993
1994
1995
19954077001
1996
1997
1998
1999
2
20
200
2000
20000
200000
2001
2002
2003
2004
2005
2006
2007
2008
2009
201
2010
2011
2012
2013
20130417204741
2014
2015
2016
2017
2018
2019
202
2020
202014
2021
2022
2023
2024
2025
2026
2027
2028
203
2030
20300
2031
2032
2034
2035
2037
2038
2039
204
2040
20400
2041
2042
2043
2044
2045
2046
2047
2048
2049
205
2050
205000
2051
2052
2053
2054
2056
2057
2059
206
20600
2061
2063
2066
2068
2069
207
2070
20700
207000
2071
2072
2073
2074
2076
2077
2078
2079
208
2080
2081
2082
2087
209
2090
209000
2092
2093
2094
2096
2097
2099
21
210
2100
21000
2101
2102
2103
2105
2106
2107
2109
211
2110
21100
2113
2114
2115
2119
212
2120
2121
2122
2123
2124
2126
2129
213
2131
2132
2133
2134
2136
2138
214
2140
21400
2141
2142
2144
2145
2147
2148
215
2150
215000
2151
2154
2155
2157
2159
216
2161
2162
2163
2168
2169
217
2170
21700
2171
2173
2174
2176
2177
2178
2179
218
2180
21800
2181
2182
2183
2185
2187
2188
219
2190
219000
2191
2193
2195
2198
2199
22
220
2200
22000
220000
2201
2202
2203
2204
2205
2206
2207
2208
2209
221
2210
2212
2213
2214
2216
222
2220
22200
222000
2222
2223
2224
2227
2229
223
2230
2234
2237
2239
224
2240
2241
2242
2243
2244
2249
225
2250
2255
2258
226
2260
22600
226000
2262
2267
227
227000
2272
2274
2279
228
2280
22800
2281
2284
2286
2289
229
22900
229000
2294
2295
2298
23
230
2300
23000
2303
231
2310
23100
231000
2312
2313
2314
2317
2319
232
2320
232000
2322
2324
2325
2327
233
2332
2334
2337
2338
234
2340
23400
234000
2342
2344
2348
235
2350
23500
2351
236
236000
2364
2368
237
2370
2371
2374
238
23800
239
2393
2398
2399
24
240
2400
240000
2401
2402
2408
241
2410
2413
2415
2418
242
2420
2423
2424
2425
243
2431
2433
2434
2436
2437
244
2440
2444
245
24500
245000
2457
246
2460
2462
2463
2465
247
2476
248
248000
2481
249
2492
2493
25
250
2500
2502
251
2510
2517
252
2521
2524
253
2530
2531
254
2543
2546
255
256
2561
2564
2565
2567
2568
257
2572
2574
2575
2577
258
2580
2583
2587
2588
259
2592
2594
26
260
2600
26000
2602
2604
261
2615
2616
262
263
2635
26366
2639
264
2640
2642
265
2650
26500
2658
266
26600
2664
2666
267
26700
2679
268
2681
2684
2685
269
27
270
2700
2706
2709
271
2715
2716
2717
2718
272
2720
2721
2723
273
2735
274
2742
2745
2746
275
2751
2755
2758
276
2760
276000
2765
2767
277
2771
2776
2778
278
2780
279
2790
279000
28
280
2800
2801
2805
281
281000
282
28200
282000
2827
283
2830
2831
284
2848
285
286
286000
287
287000
2875
288
289
289000
29
290
2900
29000
2907
291
2914
2915
2916
2919
292
2924
2927
293
293000
294
295
2950
2959
296
2967
297
298
29800
299
2991
3
30
300
3000
30000
3003
3006
3007
301
3018
302
3025
303
304
3044
305
306
3066
307
308
3082
3089
309
3093
31
310
3100
31000
310000
311
3110
311000
312
3124
313
313000
314
3141
315
3159
316
317
318
318000
3184
319
319000
3191
32
320
3200
320000
321
32172
322
322000
3222
323
3235
3238
324
325
326
3266
327
3270
327000
328
329
33
330
3300
33000
3301
3304
3306
331
332
333
334
3343
3344
335
3352
3354
3356
336
3366
337
338
33800
338000
339
34
340
3400
3408
341
34100
3419
342
343
343000
344
3441
3446
345
345000
346
3460
3468
347
347000
348
34800
349
35
350
3500
35000
351
352
3528
353
3530
353000
3538
354
355
356
3567
357
3579
358
35800
3586
359
36
360
3600
361
3612
362
363
363000
364
3641
365
3654
366
367
3674
368
369
37
370
3700
371
372
373
374
375
376
3766
377
377000
378
3780
3786
379
3791
38
380
3800
381
3817
382
383
384
385
386
386000
387
388
389
39
390
3908
391
392
393
394
395
396
397
398
399
4
40
400
4000
40000
401
402
403
404
405
4053
406
407
407000
408
409
41
410
4100
4107
411
412
413
414
415
416
417
418
419
42
420
4209
421
422
423
424
4242
4248
425
426
426000
427
428
4288
429
4292
43
430
4300
43000
430000
4306
431
432
433
43300
434
4349
435
435000
436
4360
4362
437
438
439
44
440
4400
44000
441
442
443
4437
444
445
4450
446
4465
447
4470
448
449
4492
4498
45
450
4500
4506
451
452
452000
453
454
4542
455
456
457
4570
4572
4577
458
459
46
460
46000
461
462
4620
463
46300
464
4646
465
465000
466
4667
467
4674
468
469
4694
47
470
4700
47000
4707
471
472
473
474
475
476
4762
477
478
479
48
480
481
482
483
4836
484
4847
485
486
487
488
489
49
490
491
491000
492
493
494
495
496
497
498
4984
499
5
50
500
5000
50000
500000
5005
501
5011
502
5021
503
504
5045
505
5053
506
5065
507
508
509
509000
51
510
5100
51000
510000
511
5116
512
5120
5122
5125
513
514
515
516
517
5175
518
519
5199
52
520
5208
521
521000
522
5222
523
52300
5233
524
5246
525
525000
526
527
5276
528
529
529000
53
530
531
532
533
534
535
535000
536
537
538
539
54
540
5400
541
542
543
544
545
546
547
548
549
5490
55
550
5500
55000
551
552
5526
553
554
555
556
557
558
559
5590
56
560
5600
56000
561
562
563
564
565
566
567
568
569
57
570
5700
57000
571
572
573
574
575
576
576000
577
578
579
58
580
5800
58000
581
582
5829
583
584
585
5851582170
586
587
588
589
5892
59
590
59000
591
592
593
594
595
5950
596
597
598
5987
5988
599
6
60
600
6000
60000
601
602
603
604
605
606
607
608
609
61
610
611
612
613
614
615
6154
616
617
618
619
62
620
621
622
623
624
625
6253
626
627
628
629
63
630
6300
63000
631
631000
632
633
634
635
636
637
638
639
64
640
6400
6401
641
642
643
644
645
646
647
648
649
65
650
6500
651
652
653
654
654000
655
6557
656
657
658
659
66
660
6600
661
662
663
664
665
666
667
668
669
67
670
6700
671
672
673
674
675
676
677
678
679
68
680
681
682
6826
683
684
685
686
687
688
689
69
690
6900
691
692
693
694
695
696
697
698
699
7
70
700
7000
70000
7006
701
702
703
704
705
706
707
708
709
71
710
7100
711
712
713
714
715
716
717
718
719
72
720
72000
721
722
723
724
725
726
727
728
729
73
730
731
7318
732
733
734
735
736
737
738
739
74
740
7400
7405
741
742
743
744
745
746
747
748
749
75
750
7500
75000
751
752
753
754
755
756
757
758
759
76
760
7600
76000
761
762
763
764
765
766
767
768
769
77
770
7700
77000
771
772
773
774
775
776
777
778
779
78
780
7800
781
782
783
784
785
786
787
788
789
79
790
79000
7904
791
792
793
794
795
796
797
798
799
8
80
800
8000
801
802
803
804
805
806
807
808
809
81
810
811
8112027
812
813
814
815
816
817
818
819
82
820
82000
821
8218
822
823
824
825
826
827
828
829
83
830
83000
831
832
833
834
835
836
837
838
839
84
840
841
842
843
844
845
846
847
848
849
85
850
851
852
853
854
855
856
857
858
859
86
860
86000
8601
861
862
863
864
865
866
867
868
869
87
870
871
872
873
874
875
876
877
878
879
88
880
8800
881
882
883
884
885
886
887
888
889
89
890
8900
891
892
893
894
895
896
897
898
899
9
90
900
9000
90000
901
902
903
904
905
906
907
908
909
91
910
911
912
913
914
915
916
917
918
919
92
920
9200
92000
9209
921
922
923
924
925
926
927
928
929
93
930
931
932
933
934
935
936
937
938
93809
939
94
940
9400
941
942
943
944
945
946
947
948
949
95
950
951
952
953
954
955
956
957
958
959
96
960
961
962
963
964
965
966
967
968
969
97
970
97000
971
972
973
974
975
976
977
978
979
98
980
981
982
983
984
985
986
987
988
989
99
990
991
992
993
994
995
996
997
998
999
9999
:
;
<
=
>
?
@
\
^
_
a
aa
aaa
aaude
ab
abbr
about
above
abs
absolute
ac
academy
actm
actualdateboundariesproperties
ad
add
addcat
addclass
adm
admin
ady
ae
aerial
africa
africana
after
ag
age
ah
ai
aif
air
ak
akin
al
alaska
album
aliases
aliaseslist
align
all
allcat
allclaims
allmusic
allowtables
allpropertyclaims
already
als
also
alt
altai
altajsk
altay
always
am
amber
ambox
american
amount
an
anchor
and
angle
anidb
annunciation
another
any
aobase
appendimpl
appendproperty
appendsnaks
appendtocategory
april
aqpk
ar
arc
arcdate
archive
archives
arclink
are
arg
argkeys
argname
argnumber
args
argsi
argsname
argtables
argument
arguments
array
arraydatas
arraypopcur
arrayreg
art
article
articles
articlestsaritsyn
artist
arxiv
as
asgroups
asinus
asp
aspekt
aspx
assertnotnull
assume
ast
asv
at
athlete
athletes
atmosphere
atomic
attr
attributes
au
auf
august
aung
aus
author
authoritycontrolelements
authormain
authors
auto
automatically
av
award
awarddata
awardentity
awards
ay
az
b
ba
babel
baby
background
backtranslate
bad
baden
badtwins
bakpay
ballet
bank
bar
barbarossa
barchart
barheight
barnaul
barwidth
base
baseball
based
baseresult
basestyle
basic
basketball
bb
bbc
bc
bcmark
bd
be
been
before
bei
being
below
berlin
bertha
best
bestchange
beststart
better
bf
bg
bh
bi
bin
biography
bit
bj
bk
bl
black
blackburn
blacklist
blank
block
bloem
blue
bm
bn
bnf
bo
body
bodyclass
bold
book
bookseries
booksite
boolean
border
both
botsuana
bottom
bound
boundaries
box
boxdate
boxtable
bp
bprecision
bq
br
brackets
break
bridge
britain
britannica
brk
brts
bs
bst
bstructure
bt
btable
budapest
building
burg
burma
but
bv
bvalue
bw
bx
bxor
bxr
by
bz
c
ca
cache
cached
caffer
cal
calculatedage
calendar
call
called
callparserfunction
cambridge
can
canonicalname
cant
canterbury
capitalid
caption
caricyna
carl
case
castle
cat
categories
categorisation
categorise
category
categoryhandler
categoryitem
categorynameprefix
cathedral
catholic
catsitelink
cattitle
caucasian
cb
cc
cd
ce
cell
cells
center
central
cf
cfg
cg
cgi
ch
chain
change
character
characters
chartheight
chartwidth
check
checkaliases
checktype
chemalsky
chess
child
children
china
chislennost
chislennosti
chobe
christchurch
church
chuysky
ci
cia
cinema
circumstances
city
cityes
cityname
civilisition
ck
cke
claim
claims
class
classes
clear
clone
cloneoptions
close
club
cmbox
co
coach
coaches
code
codepoint
codes
col
collapsible
collectlinks
colon
color
colorarg
colors
colspan
column
com
comma
commands
commas
comment
common
commons
commonsmedia
community
company
competitorid
complexdate
compresssparsearray
concat
concatenated
conference
config
configuration
conjunction
conjunctor
connect
contains
content
contentlanguagecode
contest
context
contraststyle
control
conversiontosiunit
convert
converttodate
coord
coordinate
coordinates
coordinatespec
coords
copy
copyto
corpus
cos
count
countbythousands
countries
country
countryentityid
countryentityorid
countryflags
countryoptions
couple
cpa
cq
cr
create
crh
cropped
cs
css
csstext
cst
ctat
cu
cultural
culture
curie
curr
current
currententity
currentindex
currenttitle
currenttitleroot
custom
customtitle
cv
cw
cx
cy
cyberleninka
cz
d
da
dagestana
dance
das
data
database
datalabel
datalength
dataresourceid
datatype
datavalue
date
datecat
datein
dateofbirth
dateofdeath
dateout
datepart
dates
david
day
db
dbinet
dbscripts
dc
dd
de
dealing
dec
december
decimal
decode
deepcopy
default
defaultinfobox
defaultkey
defaults
defcolor
define
definition
deg
degrees
del
dela
delete
delimiter
delink
demo
democracy
demograficheskiy
demopage
demoscope
demospace
den
depending
deprecated
der
des
description
destination
detag
detail
details
detect
detected
df
dfb
dfg
dg
dh
di
dictionary
die
diff
different
dinamika
dinamike
dir
direction
discogs
disk
display
district
div
dj
djvu
dm
dmdist
dms
do
doc
document
documentation
documents
doi
don
done
dot
double
doudna
down
dp
dq
dr
ds
dstructure
dt
dtable
du
duisburg
during
dv
dvalue
dw
dz
e
ea
eao
earth
east
eastern
eb
ect
ed
edit
editor
edu
education
ee
een
ef
eh
ein
eine
either
el
election
electronic
elekmonar
element
elementid
elements
elib
elite
elizabeth
else
elseif
em
embankment
empty
emptywikidataentity
en
encode
encyclopedia
end
engine
engineering
english
entities
entity
entityid
entityorid
entriestolookupcategory
enwikisource
equal
equals
equus
ernst
err
error
errorcat
errors
errortext
es
escape
escapepattern
espan
estados
et
etc
etnografia
eu
eur
euro
european
even
evenodd
ew
exceptions
existing
exists
expand
expandspecialsqualifiers
expandtemplate
export
extensiontag
external
extra
ezh
ezhegodnik
f
fa
factbook
fair
faktory
false
family
far
fargs
fe
february
federal
female
femlabels
fetchvalue
few
ff
fg
fh
fi
field
file
files
film
filter
filterbyrank
filtered
find
finds
finish
first
firstchar
fis
fix
flag
flagclaims
flagimage
flagimagestatement
flags
flashscore
flight
float
floor
fm
fmbox
fn
fo
folklore
following
font
fontstyle
foo
fooentity
football
footer
for
foradejogo
forbes
foreign
forest
format
formatcategory
formatdate
formatnum
formatproperty
formatpropertydefault
formatpropertywithmostrecentclaimandindicator
formatrefs
formatsnak
formatstatement
formatstatementdefault
formatted
formattedcaption
formattedclaims
formatteddata
formattedstatement
formatter
formaturlvalue
foto
found
foundation
fr
frac
fract
frame
frameless
frameonly
france
frankfurt
free
freedom
from
front
fu
full
fullname
fulltext
fun
func
function
functions
fund
fur
fw
fx
fy
fz
g
ga
gadget
gag
galt
game
games
garden
gb
gc
gdate
gen
general
generate
genitivusmonthesnm
genitivusmonthesom
geo
geoinfobox
georgia
georgian
german
germany
get
getallstatements
getarg
getargs
getbeststatements
getboolean
getcategorybycode
getcode
getconfig
getcontentlanguage
getcurrentframe
getcurrenttitle
getelementlink
getentity
getentityobject
getlabel
getlabelwithlang
getline
getmetatable
getn
getnamespaceparameters
getparameters
getparammappings
getparent
getparentsinboundariessnakimpl
getpeopleaswikitext
getpropertyparams
getqualifiersinglevalue
getqualifiervalues
gets
getsingle
getsinglestringqualifiervalue
getsisterprojectlink
getsitelink
getsourcingcircumstances
gettemplate
gettitle
gettitleobject
getuserfunction
gg
gi
gif
gippert
given
gks
gl
global
globals
globe
glossary
gmatch
gnd
go
gody
gold
golden
good
google
gorky
goroda
gorodov
gorskii
got
gov
great
green
greenpeace
group
groupnames
groupstyle
gsub
gv
h
ha
hack
hall
handler
hans
has
hasadditionalqualifiers
hash
hausdu
have
hb
hc
hd
hdr
he
head
header
headers
height
help
helper
here
hidden
hide
hidegrouplegends
historical
history
hlist
ho
home
host
hostdelimeterposition
hoststartposition
hotel
hour
house
how
hq
hr
href
htm
html
http
https
hu
hy
i
iat
ice
icon
id
ie
if
ig
ii
iii
il
illhkomisc
im
image
imagecelldiv
imageemptycell
imageformatted
imageleft
imageleftcell
imagemap
imageright
imagerightcell
imagerightnone
images
imax
imbox
imdb
img
important
in
inbord
includemetatable
including
incomplete
ind
index
info
infobox
infocardclass
infocards
infocardtemplate
information
ingdate
initpos
injdate
inline
inlist
input
insert
insertfromsnak
institute
int
integer
intended
international
internet
interprojects
intgr
into
invalid
invariant
inversed
inversion
investment
invoke
invoked
iof
ip
ipairs
is
isblank
isbn
isdate
isempty
isfemale
isinstanceof
isinversed
isnotempty
iso
ispartdate
iss
issmall
issn
issue
issues
ist
istestpage
istmat
isyear
it
item
itemid
items
iterator
its
iv
ivan
ix
j
ja
january
japan
jdate
jean
jennifer
jj
john
jost
journal
jp
jpeg
jpg
jsp
juliancomment
july
june
k
ka
kaa
kaganer
kak
karakol
katun
kazan
kbd
kemerovo
key
keys
keyword
keywords
kg
kharakteristika
khmaopop
kinder
kirche
kirchspiel
kirovskoy
kk
km
ko
koi
koksa
kolyvanskij
kraj
krasnoyarsk
krc
kremlin
kurgan
kv
ky
kyi
kz
l
la
label
labelanimenewsnetwork
labelclass
labeldiscogs
labelibdb
labelisfdb
labels
lake
lang
langcode
langrefs
langs
language
languages
languagescode
last
lastheight
lastrecord
lat
latitude
laureate
laureates
lazily
lbe
leading
league
left
leftbracket
legends
leipzig
len
length
lenta
leo
leonardo
les
letter
letterpos
lez
lg
li
lib
library
libraryutil
like
limit
limitdouble
line
link
linkbody
linkedin
linkf
links
list
listpadding
liststyle
listtotext
literature
lmen
ln
lng
lngstr
load
loaddata
local
localvalue
log
logo
lon
long
longitude
lower
loxodonta
lt
lua
lum
lunar
m
ma
mailto
main
maincat
mainsnak
maintext
make
makeinvokefunction
makes
male
man
manager
manuscript
many
manzherok
map
mappings
mappingskey
mar
march
margin
marie
mark
marker
match
matches
matchesblacklist
material
math
max
maxnumber
maxnumberargs
may
mbox
mc
mdf
me
media
mediawiki
medicine
medium
meeting
members
memo
menyalas
merge
message
messagebox
messages
meta
metaargs
metaargskey
metatable
metro
michael
mikhail
military
min
mini
minutes
mis
missing
mit
mm
mo
mobygames
mod
mode
modern
module
modulelanguages
moduleround
modules
mojgorod
moment
monolingualtext
mont
month
monthgm
monument
moon
more
morning
morozov
morrison
moscow
mosque
most
motorsportstats
mount
mountains
move
ms
mshared
msk
mst
mt
mu
mult
munst
museum
music
must
muzee
mw
mwlang
my
myanmar
myv
n
na
nacional
name
named
names
namespace
namespaces
namibia
nan
naopop
narhoz
narod
nasa
naselenie
naseleniya
nasledie
national
nav
navbar
navbox
navboxdata
navigation
nb
nd
ndefaultlanguage
ne
near
necessary
need
needed
negative
nelly
net
network
new
newattributes
newchild
newclaim
newclaims
newoptions
newparentsnaks
news
newsectionlink
newsletter
next
nextlabel
nicht
night
nil
nilargs
nilargskey
nissue
nizhegor
nizhny
nl
nlr
nm
nn
no
nobel
nobelprize
nocat
node
nodis
nolink
nolinks
nominativeyear
non
none
noredirect
normal
northern
not
note
notes
notice
notification
notoc
nova
novalue
november
novgorod
now
nowiki
nowikidataentity
nowrap
np
ns
nscategory
nsid
nsname
nulorwhitespace
num
number
numberofloops
numeric
numgroups
numparam
numrecord
nums
numstr
numvalues
numyear
nv
nvolume
ny
o
ob
obj
object
obl
oblasti
occupation
october
od
odd
oder
of
off
og
oh
oj
ojkum
ok
olav
old
olympic
om
ombox
on
one
ones
onguday
online
only
open
opera
operation
option
optional
optionalarg
options
or
order
ordered
ordereddata
org
orig
original
os
otechestvennoj
otechestvennoy
other
otherprojects
otherwise
otvetstv
otvetstvennye
our
out
output
outtype
outvalue
over
override
oy
p
pa
padding
padlock
page
pageobject
pages
pairs
palace
palimpsest
pan
panorama
panoramio
panthera
param
parameter
parameters
params
parent
parentargs
parententityids
parentid
parentoptions
parentsnak
parentsnaks
pargs
paris
park
parque
parse
parseddate
parseddateofdeath
parsedec
parsedtime
parseiso
parsetimefromsnak
part
pass
passed
path
pattern
pavlovsk
pcall
pdf
peace
people
per
percent
perepisi
period
perl
perm
permsk
person
personname
persons
petersburg
php
pid
pierre
pipe
pk
pl
place
placedata
placedatanumrecord
placeid
placename
plain
plaindata
plainlinks
planeta
plant
play
player
playerid
players
playmarkerstats
please
plural
pmid
pn
png
po
polish
poly
popplace
populatedatafromclaims
populatesourcedataimpl
portal
portrait
pos
position
possible
possibleage
possibledatestring
post
postfix
povliyavshie
pp
pre
prec
precision
preferids
preferred
prefix
prefixedtext
prefixes
preprocess
present
preserve
preset
press
prev
preview
prevlabel
prichinah
primstat
prize
pro
processed
production
prof
profil
profile
project
projectcode
projects
prokudin
propclaim
properties
property
propertyclaims
propertyentity
propertyid
propertyids
propertyparams
propertyselector
protection
provided
provides
pst
pt
pubentity
publication
publisher
purif
pwc
px
q
qualifier
qualifierid
qualifiers
qualifiervalues
quantity
r
radio
radium
radius
radmir
railway
raiona
rajona
range
rank
rawrule
rayon
rbc
re
record
red
ref
referee
reference
references
reg
region
regionpage
regnum
regpass
relative
release
removalnotice
remove
removeblanks
render
renderdocumentationcategory
rendered
renderline
rendervalue
rep
repin
repl
replace
replacement
republic
require
res
research
resource
resourcedata
resourcedatas
resourceid
resources
result
resultclaims
resultlist
resultproperty
resultresultproperty
results
resultwikitext
ret
retrieved
return
returns
reverse
reverseorder
review
right
rightbracket
river
ro
road
rock
rom
romania
root
rossiyskiy
rosstat
rosta
rostov
round
row
rowindex
rowohlt
rs
rsfsr
ru
rule
rules
run
rus
russia
russian
ruwikisource
s
sa
sah
saint
sakhalinstat
samara
same
san
sankt
scale
scalepergroup
scalewidth
scheda
scheme
schloss
scholar
science
sciences
scope
scoresway
sd
se
search
sec
second
seconds
sect
section
sectorcode
secttitlestyle
see
seen
sela
selah
selectclaims
selected
selectedsnakes
selector
selectors
self
selskoe
selsovet
sep
separ
separator
september
set
setmetatable
setoffset
settings
setwidth
sfn
shadow
shared
sharepoint
shift
shl
short
should
show
showinvalidtypeerror
shownproperties
shr
shtml
si
siberia
sich
siconversion
sigfig
sign
silver
simple
simplelabel
sin
single
sister
site
sitelink
sitelinks
size
sk
ski
skippropertyids
skm
sl
slice
slices
slideshare
small
smth
snak
snaks
snaktype
so
soauthors
soccerbase
soccerdonna
soccerway
society
sofia
soldat
solid
solikamsk
solikamska
solkam
solvay
some
somevalue
sort
sossusvlei
soul
sound
source
sourceentity
sourceid
sourcetoelementlinksresourceid
south
sovetskiy
soviet
sp
space
spaces
span
sparts
spb
special
species
specified
specify
speedy
split
sport
sports
spravkasavino
spx
sq
square
sr
src
ss
ssp
sssr
sst
sstyle
st
stack
staff
stalingrad
stamp
star
start
state
statement
statements
statementvalue
station
statistical
statisticheskiy
stats
status
str
street
strformat
strin
string
strings
strip
structure
strvalue
style
styleratio
su
sub
subgroup
subject
subjectns
subpage
subpages
subrule
subrules
subst
substring
subtitle
success
suffix
sum
summary
sun
sunset
support
suppressage
surname
suttner
suu
sv
svg
sw
system
t
tab
table
tables
tabletools
tabletostr
tablevalue
tag
tags
tail
takebracketsinlink
talk
talktext
talktitle
target
targs
tbl
tcon
td
te
team
teams
teletskoye
template
templatecallcode
templatecat
templatecategory
templateerrorcategory
templatename
templates
templatestyles
templatetitle
temple
temprow
test
testing
tests
text
textcell
textsi
textsmallcelldiv
textstyle
tf
th
than
that
the
theater
theaterstu
theatre
then
there
these
they
third
this
through
throwerror
thumb
ti
tidal
tidyval
tim
time
timedec
times
title
titledelimeterposition
titleobj
titleobject
titlestyle
tk
tlinks
tmbox
tmp
tname
to
tobase
todo
toiso
tokenized
tokenizename
toni
tonumber
too
tooltip
top
tostring
tostringsnak
totable
totality
toten
totextwithtip
tower
tr
track
tracking
trade
trailing
train
trakt
transfermarkt
transform
translate
translatedate
translatewiki
translator
transparency
transwiki
travel
trim
trimmed
trimmedname
trimstr
trimwhitespace
triplet
tripletpos
tripletstr
true
try
ts
tsclass
tsu
tt
tu
tw
two
txt
txtdatein
txtdateout
type
typedata
types
u
ua
uboundary
ucfirst
ucoz
udm
ufa
ug
uk
ul
ulagan
ultra
un
und
undate
unidos
union
unit
united
unitentity
unitentityid
unitsprefix
unitssuffix
university
unknown
unnamed
unpack
unstripnowiki
up
upload
uploads
upper
uri
url
us
usa
usage
use
usecollapsibletextfields
used
user
userboxes
users
using
ussr
ust
ustring
utc
utcin
utils
utitle
uymon
v
val
valerytishkov
valid
validate
valley
vals
value
values
van
var
variables
velikoj
velikoy
verkh
verlag
vertical
vi
viaf
vid
video
view
vii
viii
viktor
vinci
visible
vlg
vo
vojny
vol
volga
volgograd
volgograda
volkswagen
volume
volumes
von
vor
voyny
vro
vyp
w
wa
wac
want
war
warning
was
washington
water
wbstatus
wcm
wcos
wd
wds
we
weather
weatherbase
web
weekly
weight
were
west
what
when
where
whether
which
while
white
whitespace
who
width
wiki
wikibase
wikidata
wikidataselectors
wikimedia
wikipedia
wikisource
wikitext
wikivalue
will
william
williams
winter
with
within
without
wm
woman
women
work
world
worldfootball
wp
wps
wrapinurl
wrapper
wrappers
wrapqualifier
wrapsnak
wrapstatement
wrong
ws
wsin
wslink
wsource
www
wy
x
xg
xi
xii
xiii
xiv
xix
xls
xn
xv
xvi
xvii
xviii
xx
xxi
xxii
xxviii
y
yakutii
yalow
year
yearconv
yearmark
years
yellow
yes
yesno
yet
ym
ynaopop
york
you
young
your
youtube
yue
yyyy
yyyymmdd
z
zealand
zero
zh
zoom
zu
zur
{
|
}
~

©
«
¬
­
°
±
²
³
·
»
×
ɴ
ʰ
ʻ
ˈ
ː
̀
́
̂
̃
̄
̆
̇
̈
̊
̌
̓
̔
̦
̧
̨
̰
͂
ͅ
α
γ
δ
ε
η
θ
ι
λ
ν
ο
ς
а
аазыи
ааи
аан
аандыгы
аандык
аба
абаган
абаи
абакан
абарникова
абас
абаш
авангард
август
августа
авиакомпании
авиакомпания
авиационныи
авиация
авиацияныҥ
аврора
австралии
австрии
австрия
австрияда
австриякатегория
австро
автобиографиялык
автобус
автобусныи
автобустар
автобустарла
автовокзал
автозаводскии
автомагистраль
автоматизированныи
автоматически
автомобилеи
автомобильно
автомобильныи
автомобильных
автоном
автономная
автономного
автономнои
автономныи
автономных
автор
автореферат
авторизация
авторов
авторскии
авторы
агажы
агаи
агала
агару
агарулар
агас
агат
агач
агачскии
агачского
агаш
агашка
агашкезим
агашла
агашта
агаштар
агаштарда
агаштардаҥ
агаштарды
агаштардыҥ
агаштарла
агаштарлу
агаштары
агаштарыла
агаштаҥ
агашту
агашты
агаштыҥ
агашээлем
агентстве
агентство
агентствозы
агкгн
агломерацияда
агломерацияныҥ
агои
аграрии
аграрно
аграрныи
агрегатныи
агуна
агы
агын
агында
агынныҥ
агыны
агынын
агынында
агыныныҥ
агып
ада
адабас
адаган
адагандар
адазы
адазыла
адазын
адазыныҥ
адаи
адалар
адалат
адалган
адам
адап
адар
адаров
адарткы
адару
адаткан
административно
административное
административныи
администратор
администратора
администраторов
администратором
администраторы
администрации
администрация
администрациязы
администрациязыныҥ
администрациялары
администрациялык
администрацияныҥ
админстрациязы
админстрациялык
адмирал
адмиралтеи
адольф
адрези
адрианов
ады
адыгея
адыи
адыла
адын
адына
адынаҥ
адып
ажа
ажар
ажу
ажуда
ажунаҥ
ажуныҥ
ажы
ажын
ажыныҥ
ажып
ажыра
аза
азалу
азербаи
азиат
азии
азия
азияда
азияныҥ
азов
азово
азовскии
азот
азс
азулу
азыи
азык
азыраар
азыраарга
азыраары
азыраган
азыраи
азырал
азыранты
азырап
аи
аист
ак
акад
академгородок
академиги
академии
академик
академика
академическии
академия
академияда
академиязы
академиязында
академиязыныҥ
академиялар
академияныҥ
аказы
акалаган
акалаи
акалака
акалаканыҥ
акалахи
акбулак
акин
акка
аккаи
аккан
аккем
акко
аккол
аксаи
аксе
актаи
актар
актарда
актау
акташ
акташтыҥ
акте
актеры
активности
активность
активныи
актриса
актру
акту
актуга
актуныҥ
актуру
актуруныҥ
акты
актыныҥ
актыҥ
акционер
акча
акчагыльскии
акчазы
акчазын
акчазына
акчала
акчаны
акчин
акјул
акјулдыҥ
ал
ала
алака
алала
алама
аламалар
аламалу
аламык
аламыктаи
аламыктарда
алар
аларга
аларда
алардыҥ
аларткы
алары
аларын
аларыныҥ
алат
алатан
алаха
алаҥуш
албаа
албаган
албазыҥ
албаи
албан
албанла
албаты
албатызыныҥ
албатылар
албатылардыҥ
албатылык
албатыныҥ
алга
алгага
алгада
алгазы
алгазын
алгала
алгалар
алгалардаҥ
алгаларла
алгалары
алгаларын
алган
алгандар
алганы
алды
алдыла
алдына
алдынаҥ
алдында
алдындага
алдындагы
алдыныҥ
алдырган
алдыртат
алдырткан
алдыртып
але
алеи
александр
александра
александринскии
александро
александрович
александровка
александровскии
алексеев
алексеевич
алексеевка
алексеевна
алексеевскии
алексеи
алексея
алешино
алза
алкы
алла
аллея
аллеязы
алма
алмаз
алмат
алматтардыҥ
алмысту
алт
алта
алтае
алтаи
алтаистика
алтаистиканыҥ
алтаистики
алталу
алтам
алтан
алтарь
алтая
алтгту
алтгу
алты
алтыгы
алтын
алтынду
алтынды
алтынчы
алу
алушкина
алфавит
алфавите
алфавитле
алынат
алынбаган
алынган
алынганыла
алынып
алып
аль
альбедо
альберт
альва
альпии
альт
альфа
алюминиевыи
алюминии
амадаган
амадап
амаду
амадузы
амадулу
амбулатория
америка
америкада
американ
американец
американскии
американское
американскои
американыҥ
амкар
ампир
амплитудазы
амур
амурдыҥ
амурская
амурскии
амурского
амфора
амыр
амыраар
амыраган
амыралтага
амырап
амыраштыҥ
амырдыҥ
ан
анаи
анализ
анализа
аналитическии
анат
анатолии
аначак
англ
англии
англия
англо
анда
андреа
андреевич
андреевка
андреевна
андреевскии
андреи
андроново
анду
анисимово
анна
ано
анос
анохин
анохина
анохинниҥ
анри
ансамбли
ансамбль
ансамбльдар
ансамбльдары
ансамбльдыҥ
антибольшевистскии
антигитлеровскии
антология
антон
антонович
антропоген
антропологии
антропологическим
антропология
антылар
ануи
анчада
анып
анышкинович
аныҥ
ао
ап
апарарга
апарат
апарган
апарып
аполлон
апостол
апостольскии
аппарат
аппараттар
аппаратура
апреля
аптека
апшерон
апшуяхта
апшыи
ар
арааи
араб
арабеск
аразы
аразында
аразыныҥ
араи
аракс
аракы
арал
араларда
аралда
аралдарда
аралдары
аралду
аралдыҥ
аранжировка
арасеи
арба
арбаи
арбын
арбынду
арга
аргадаары
аргадап
аргазы
аргала
аргалар
аргалары
аргали
аргалу
аргамжи
аргамјы
аргачы
аргачылар
аргумент
аргументов
аргументы
аргута
аргымаи
ардатовскии
арена
аренада
аржан
аржаны
арзамасскии
арина
арка
аркада
аркадии
аркалар
аркаларда
аркаларды
аркалары
арктика
арктикалык
арктическии
аркыт
аркыттыҥ
арлекин
армии
армия
армиязы
армияны
армияныҥ
армян
армяндар
армянскии
арнольд
арт
артап
артат
артель
артизи
артиллерии
артиллерия
артист
артисти
артисттериниҥ
арткан
арткандары
артпаган
артур
артыбаш
артыбашта
артыбаштыҥ
артыгы
артык
артып
артыш
ару
арузы
арутаар
архангельск
архангельскии
архангельское
архар
археолог
археологии
археологическии
археологическими
археология
археологиялык
археолого
архив
архиве
архивная
архивов
архивтеринде
архивы
архиереи
архимандрит
архитектор
архитекторы
архитектура
архитектурада
архитектуразы
архитектуралык
архитектураныҥ
архитектурно
архитектурныи
архитектуры
арчауш
арчылган
арчын
арчыыр
аршин
ары
арыш
ас
асканаков
аскат
аскатта
аспак
аспакта
аспан
аспект
ассистент
ассоциации
ассоциация
ассоциацияныҥ
асср
аст
астаган
астаганкучин
астаганы
астаганыла
астадарга
астадып
астаи
астана
астап
астероид
астрахан
астраханскии
астрахань
астрель
астроном
астрономическии
асфальт
ат
ата
аталык
атанган
аташ
аткарган
аткарылатан
аткарылган
аткарып
атла
атлантика
атлас
атмосфера
атмосферага
атмосферада
атмосферазы
атмосфераны
атмосфераныҥ
атмосферныи
атолл
атом
атомныи
аттар
аттарды
аттардыҥ
аттарлу
аттары
атту
атты
аттыҥ
ау
аудунныҥ
аул
аун
афанасии
афонино
африка
африкан
ач
ачар
ачары
ачкан
ачтаганыла
ачык
ачыларда
ачылат
ачылган
ачылганы
ачылта
ачылтазы
ачылып
ачып
аш
ашап
ашка
ашкан
ашкана
ашпаи
ашса
ашту
аштыҥ
аэродром
аэродромныҥ
аэропорт
аэропортко
аэропорттоҥ
аэропортты
аэропорты
ая
ајарган
ајару
ајаруга
ајарулар
ајарып
аҥ
аҥат
аҥдаи
аҥдап
аҥдар
аҥдардаҥ
аҥдарды
аҥдардыҥ
аҥдары
аҥду
аҥды
аҥдык
аҥнаҥ
аҥныҥ
аҥтарган
аҥчы
аҥы
аҥыланат
аҥылу
аҥылузы
аҥылузын
аҥылузынаҥ
аҥыр
б
ба
баазы
баалаган
баалап
баалу
баарчык
баатыр
баатырлар
бабырган
багынган
бадакинниҥ
бадар
баден
баевскии
бажино
бажы
бажына
бажынаҥ
бажында
бажыныҥ
бажырып
база
базалар
базар
базат
базовыи
базы
базылат
базылган
базылып
базып
баи
баина
баит
бак
бака
бакалавр
бакинскии
бактарга
бактыган
баку
бала
балага
балазы
балалу
балан
баланс
баланстыҥ
балансы
балансында
баланы
баланыҥ
балахна
балахнинскии
балбак
балдар
балдарга
балдарды
балдардыҥ
балдарлу
балдары
балдарыла
балдарын
балдарына
балет
балета
балетмеи
балетныи
балеттиҥ
балина
балкар
балкария
балкаш
балкашту
балл
баллдаҥ
балобан
балтии
балтырган
балузын
балыгы
балык
балыктар
балыктары
балыктарынаҥ
балыкташ
балыктаҥ
балыкту
балыктујул
балыкты
балыктыҥ
балыкчы
балыкчыда
банк
банковскии
банктар
банктарыныҥ
банктыҥ
банкы
баптизм
баптист
баптистов
баптисттер
баптисттердиҥ
бар
бара
бараан
барагаш
барагаштыҥ
барала
баранова
бараново
барар
барарга
барарда
барат
баратан
бараткан
баратканы
барбаи
барбаросса
барбаросстыҥ
баргаа
барган
бардымскии
барза
баркучин
барнаул
барнаула
барнаулга
барнаулда
барнаулдаҥ
барнаулды
барнаулдыҥ
барнаульскии
барокко
барре
барсобанскии
барторбоков
бары
барын
барынтычы
барынтычылары
барып
барјаткан
баскан
баскет
баскетбольныи
бассеи
басты
бастыи
бастыра
бастырага
бастыразы
бастырароссии
бастырган
батальон
батальондор
батун
батыр
бахчисараи
баш
башка
башказы
башкаланат
башкаланып
башкараачы
башкараачызы
башкараачызына
башкараачызыныҥ
башкараачылары
башкараачыларыныҥ
башкарар
башкарарга
башкарат
башкарган
башкарткан
башкару
башкаруга
башкаруда
башкарузы
башкарузыла
башкарузын
башкарузына
башкарузында
башкарузыныҥ
башкаруны
башкаруныҥ
башкарып
башкаус
башкир
башкирлер
башкирская
башкирскии
башкирского
башкирское
башкортостан
башкортостанда
башкортостанныҥ
башкуш
башкуштыҥ
башнефть
башня
башнязы
башняныҥ
баштаар
баштаарда
баштаган
баштагандар
баштадып
баштаи
башталала
башталарда
башталат
башталган
башталганы
башталганынаҥ
башталганында
башталып
баштамы
баштанган
баштану
баштанып
баштап
баштапкы
баштапкызы
баштапкылардыҥ
баштары
баштаткан
баштаҥкаи
баштаҥул
башту
баштыкова
башчы
башчызы
баян
бвжып
бе
бедиреген
бедиреп
бедюров
бее
бежен
бежинчи
без
безводное
безе
безматерных
безопасности
безопасностиде
безопасность
безусловно
беи
бек
беккерель
бел
беларуси
белая
белгород
беле
белен
белетеген
белетеер
белетеери
белетеи
белетелбеген
белетенип
белетениш
белетеп
белоануи
белово
беловскии
белого
белое
белоевское
белои
белокуриха
белорус
белоруссия
белоруссияны
белоруссияныҥ
белорусскии
белорустар
белтир
белтирдиҥ
белтири
белтиринде
белуха
белыи
бельтир
бельчекова
беляево
беляшах
бенедикт
бербеген
бербеи
бербес
берген
бергендер
бергени
бергениле
бергенинеҥ
бердск
бере
берег
берегу
березник
березники
березовка
березовскии
береле
берер
берерге
берерде
берет
береткучин
берзе
бери
берилген
берилет
берилтелер
берип
беристе
берлин
берлинге
берлинде
берлинди
берлинниҥ
берта
бертек
бескези
бетсу
бетти
бечиртке
беш
бешпек
бешпелтир
бешпелтирдиҥ
бештиҥ
би
библиогр
библиографическии
библиографичесскии
библиографиязы
библиотек
библиотека
библиотекага
библиотеказы
библиотекалар
библиотекалары
библиотеканыҥ
библиотекзы
библиотеки
бизинле
бизнес
бизнеса
бии
билбес
билген
билдире
билдирет
биле
биледе
билези
билезинде
билезине
билезиниҥ
билелер
билелери
билениҥ
билер
билетен
билим
билимде
билимдер
билимдердиҥ
билимдериниҥ
билимди
билимниҥ
билимчи
билимчилер
билимчилердиҥ
билимчилери
билимчилериниҥ
билип
билу
бин
бинде
бине
бинеҥ
биниҥ
биографическии
биография
биографиязы
биолог
биологическии
биология
биологиялык
биологияныҥ
биосфералык
биосферныи
бир
биржа
бириг
бириге
биригеле
биригет
биригип
биригу
бириккен
бириккенде
бириккени
бириккенинде
бириккенинеҥ
бириктирген
бириктирер
бириктирет
бириктирилген
бириктирип
бирлиги
бирлигин
бирлигиниҥ
бирлик
биру
бирюзовая
бис
биске
бисти
бистиҥ
битва
битцевте
бичиген
бичигени
бичигениле
бичигенинде
бичиги
бичигинде
бичигине
бичигинекрасная
бичигинеҥ
бичигиниҥ
бичии
бичиир
бичиичи
бичиичизи
бичиичилер
бичиичилердиҥ
бичиичилери
бичиичилериниҥ
бичиичиниҥ
бичик
бичикке
бичикте
бичиктеои
бичиктер
бичиктерде
бичиктердиҥ
бичиктери
бичиктеринде
бичиктерине
бичикти
бичиктиҥ
бичикту
бичилген
бичилгени
бичилет
бичимел
бичимелдер
бичимелдерде
бичимелдердиҥ
бичимелдери
бичимелдеринде
бичип
бије
бијениҥ
блаажып
блаашту
благовещенскии
ближаи
блистающая
блок
блокадада
блокаданы
блэкберн
бно
бну
бо
бобокова
бобровка
бобровскии
бобровыи
бово
богаз
богатыи
богданово
богдо
бого
богон
богородицаныҥ
богородицы
богородск
богородскии
богородское
богоявленскии
богуты
бодогон
бодои
бодоштыра
бодоштырат
бодоштырганыла
бодоштыру
боевые
божиеи
божобои
божогон
божогондор
божодоло
божодып
божои
божоп
божоткон
бозого
бозоголор
бозоголоры
бозоголу
бозырташ
бои
бок
бол
болбогон
болбозын
болбозыныҥ
болбои
болбос
болгар
болгария
болгарияда
болгарияныҥ
болгодыи
болгон
болгонв
болгондор
болгонкоряков
болгоны
болгоныла
болгонын
болгонынаҥ
более
болзо
болзом
болзын
боло
бололо
болор
болорго
болордо
болоры
болорын
болот
болотза
болотон
болу
болужар
болужы
болужыла
болужын
болужып
болук
болуп
болуш
болушкан
болушты
болуштыҥ
болушчы
болушчызы
болч
болчок
болып
больница
больницазы
больничныи
больныи
большая
больше
большеболдинскии
большевик
большевиктер
большевиктерге
большевиктердиҥ
большемурашкинскии
большесосновскии
большие
большое
большои
бом
бомба
боом
боомдо
боомныҥ
боочы
боочыга
боочыда
боочызы
боочызына
боочызынаҥ
боочызында
боочызыныҥ
боочылар
боочылары
боочынаҥ
боочыны
боочыныҥ
бор
борбыи
борис
борисовка
борисово
боро
боровлянка
борозымак
борок
бороҥот
борскии
борсык
борсыктии
борт
бортылдак
борьба
борьбы
бостондо
бот
ботаническии
боуп
бофорттыҥ
бош
бразилияныҥ
бригада
бригадалар
бригаданыҥ
бриляковскии
британ
британскои
бритт
бронислава
брянск
брянскии
бу
бугры
бугузун
будданыҥ
буддизм
буддии
буддисттер
буде
будет
будка
буду
будущее
бузина
буи
бука
була
булак
булан
буланат
буландык
булга
булгар
булуттар
булутту
бульвар
бульварлар
бульварныи
бунин
бункер
бураты
бургазы
буревестник
бурлактар
бурлинскии
буровои
бурулаган
бурулап
бурулаткан
бурыи
бурылган
бурылчык
бурят
бурятия
бус
бускан
бусныи
бустар
бустардыҥ
буттары
бутурлинскии
буудаи
буунты
буунтызы
бухгольц
бы
бывшии
быжат
быжырар
быза
бызылган
бызылып
бызылыш
бызып
быи
быково
был
была
были
было
быркырууш
быстроистокскии
быт
быта
бытовои
быть
бышев
бышевскии
бышевтиҥ
бье
бэи
бюджеди
бюджеттеҥ
бюро
бюст
бюсти
бюсты
в
ва
вавилон
вагнердиҥ
вагон
вагондор
вадскии
важнеи
вазовскии
вазуза
ваи
вал
валдаи
валентин
валера
валерии
валерия
валидиниҥ
валовои
валовыи
валютныи
вам
вангари
вантовыи
ванька
вариант
вариантты
варнавинскии
варшава
варшавада
варшаваныҥ
варшавскии
василии
василиск
васильев
васильевич
васильевка
васильевна
васильевскии
васильевское
васильсурск
вацлав
вачскии
вашингтондо
вв
ввп
ввс
вгк
вгп
вгтрк
вгу
вднх
вдс
ве
веб
ведомости
ведомственныи
ведомстволордыҥ
веи
век
века
веков
великая
великии
великобритании
великобритания
великобританияныҥ
великого
великое
великои
велосипед
велосипедтер
вена
венада
венгер
венгерскии
венгрия
венгрияныҥ
венера
венерада
венец
вениамин
венскии
вера
верещагинскии
вермахт
вермахта
вермахтка
вермахттыҥ
вернадскии
верныи
версия
версиязыла
версиялар
вертоле
верх
верхневолжскии
верхнее
верхнеобскии
верхние
верхнии
верхняя
верховного
верховныи
верхоланцев
вершинино
весе
весна
вестник
вестфалиякатегория
весь
ветерандардыҥ
ветерандары
ветераны
ветлуга
ветлужскии
вечернии
вещество
веществолор
веществолорды
веществолордыҥ
взле
вид
вида
видам
видео
византии
визитныи
вики
викиданные
викиданныи
викиданных
википедии
википедия
викитека
виктор
викторович
виль
вильва
вильгельм
вильям
виноград
висла
високосныи
виталии
витаминдерле
вице
вич
вишня
вка
вклад
включая
вкп
владения
владивосток
владимир
владимира
владимиро
владимирович
владимировка
владимировна
владимирская
владимирскии
владимирское
владислав
власти
власть
влксм
вместе
вмф
внесении
внешнеи
внешних
внутреннии
внутренних
внутри
во
вов
вод
вода
водного
водном
водные
водныи
водных
водопровод
водохранилище
водохранилищелер
водохранилищениҥ
воды
воевода
воениздат
военно
военного
военное
военнои
военнослужащии
военныи
возвращает
возвышенность
возвышенностьто
возвышенностьтыҥ
воздушно
воздушныи
возможно
возможности
вознесения
вознесенскии
вознесенское
возраст
возрождение
возы
возыныҥ
вои
воинскии
воинскои
вокзал
вокзалда
вокзалдардаҥ
вокзалдыҥ
волга
волганыҥ
волге
волги
волго
волгоград
волгограда
волгоградскии
волгоградта
волгоградтыҥ
волгу
волеи
волжскии
волжско
волжское
волжскои
волково
волковтыҥ
вологодскии
вологодскои
володарскии
володушкаторбоков
волость
волостько
волостьтор
волостьторды
волостьтордыҥ
волостьтоҥ
волостьты
волостьтыҥ
волчиха
волчихинскии
воля
вооруже
вопрос
вопросу
вопросы
воро
воровскии
воронеж
воронежа
воронеже
воронежке
воронежскии
воронежскои
воронежте
воронежтиҥ
воронина
ворота
воротынскии
ворошиловскии
ворошиловтыҥ
воскресенскии
воскресенское
воспоминания
восстание
восток
востока
востоке
восточная
восточно
восточнои
восточном
восточные
восточныи
восход
вот
вошла
вп
впадинада
впервые
враг
врач
врачы
времен
времени
временник
временных
время
вс
все
всего
всемирная
всемирныи
всероссии
всесоюзная
всесоюзныи
всех
всея
вская
вскии
вское
вскои
вся
втб
вторая
второго
второе
второи
втрое
втыҥ
вуз
вузтар
вузтардыҥ
вузтарыныҥ
вулкан
вулканическии
входа
вцик
вциом
вы
выборов
выборы
вывод
вывода
выводы
вызов
вызова
вызове
вызывает
выи
выкса
вып
выползово
выпуск
выпускниктери
высоких
высоково
высокогорная
высота
высотныи
высоцкии
выставка
выставкалар
выставочныи
высшая
высшего
высшеи
высшии
выше
вюртембергкатегория
вяз
вяземскии
вязников
вязовка
г
га
габриела
гавриловскии
гагарин
гагаринниҥ
гагенеральныи
гагинскии
гагпи
гагу
гада
гаджет
гаджета
гаджетти
газ
газет
газета
газетте
газеттер
газеттиҥ
газеты
газовыи
газопровод
газпром
газы
газында
газыныҥ
гаи
гак
гактары
гакту
гактузы
гактулардаҥ
гактулары
галар
галарга
галарда
галарды
галардыҥ
галары
галарын
галарына
галарында
галарыныҥ
галерея
галереялар
галина
галицкии
галицкого
ган
ганыҥ
ганьсуи
гарвардтыҥ
гари
гарнизон
гарнизоны
гарри
гарф
гастарбаи
гафуриниҥ
гбови
гвардеи
гвардии
гвардия
гг
гггг
где
ге
гез
гезеле
гезип
геи
гек
гектар
гектарга
гекту
гельфреи
ген
гендер
генерал
генералы
генерального
генеральныи
генетика
гени
гениле
геннин
генплан
генри
географ
географические
географическии
географических
географического
географическое
география
географиязы
географиялык
геоинформационныи
геолог
геологии
геологическии
геология
геологиязы
геологиялык
георг
георгиевич
георгиевскии
георгии
георгия
геральдикалык
геральдическии
герб
герман
германиеи
германии
германия
германияга
германияда
германияла
германияны
германияныҥ
германскии
германскои
германскому
гернек
геродот
геродоттыҥ
герои
герта
герценниҥ
гескен
гесте
ги
гигантская
гигиеническии
гидравлика
гидрографиязы
гидрологическая
гидрология
гидрологиязы
гидрометеоиздат
гидроузел
гидроэлектростанция
гиле
гимназия
гимназияда
гимназиязы
гимназиязыныҥ
гимназияныҥ
гин
гинде
гине
гиниҥ
гип
гипотеза
гипотезаны
гипперт
гиря
гитис
гитлер
гитлера
гитлерди
гитлердиҥ
гитлеровскии
гко
гкои
гкчп
гл
глава
главе
главного
главнокомандующии
главныи
главы
глазами
глик
глинка
глинканыҥ
глобус
глюк
го
гоголь
гогольдыҥ
год
года
годах
годов
году
годунов
годы
гол
голго
голдыҥ
голец
голод
голодец
голос
голоса
голосование
голосую
гольцовыи
гон
гонло
гончаровтыҥ
гор
гора
горбаче
горбунова
горбуново
горизонт
горка
горки
горная
горно
горного
горнозаводскии
горном
горные
горныи
город
города
городе
городец
городецкии
городище
городов
городок
городом
городские
городских
городского
городское
городскои
городу
горчица
горы
горькии
горьковскии
горького
гос
госкомстат
госпиталь
гостиница
гостиничныи
гостиныи
государств
государства
государственная
государственного
государственное
государственнои
государственном
государственности
государственныи
государственных
государство
государстволык
государством
государствоныҥ
гото
гравии
гравитационныи
гравитациялык
гравюразы
град
градус
градуска
градустаҥ
граждан
граждандар
граждандары
граждане
гражданин
гражданскии
гражданскои
гражданство
грамм
грамотазыла
грамоталарыла
гран
гранит
границ
граница
границы
граны
гранына
гранынаҥ
грация
греи
грек
греко
гренадерская
греция
грецкии
греческии
григориан
григории
григория
григорьевич
грин
гриф
гришино
грозныи
громотуха
гросс
грубердиҥ
груз
грузин
грузиндер
грузинскии
грузия
грузовых
грузообороды
грузооборот
грунт
грунттыҥ
грунты
групп
группа
группазын
группазына
группалар
группаныҥ
группировка
группировказын
группировкалар
группы
груша
грэс
гтрк
гу
губ
губаи
губернатор
губернатордыҥ
губернаторскии
губернаторствоныҥ
губернаторы
губернии
губерния
губернияга
губернияда
губернияныҥ
губернскии
гуль
гуманитар
гуманитарные
гуманитарныи
гуннар
гуп
гур
гуркин
гуркинниҥ
гусево
гш
гы
гыда
гыр
гырлар
гэс
гюго
д
да
даар
даванскии
давид
давление
давно
дагестан
дагестана
дагестанда
дагы
дадылар
даже
даи
дала
дальневосточныи
дальнего
дальнеконстантиновскии
дальнии
дамба
дан
даниил
дания
данияда
данного
данные
данныи
данным
данных
данскии
дап
дар
дарга
дарда
дардаҥ
дардыҥ
дарии
дары
дарья
дат
дата
датан
датла
датскии
даты
дау
даудна
дачалу
даҥ
два
две
двигательдер
движение
двор
дворец
дворцово
дворцовыи
двух
дд
де
дева
девичии
девы
деген
дегендери
дегени
деечии
дежет
дежетен
дезе
деи
дек
декабре
декабристтердиҥ
декабрь
декабря
декоративныи
дел
дела
делам
делегады
делегат
делегаты
деледда
деление
дели
дело
деловая
деловои
дельтазында
демидов
демидово
демидовтыҥ
демографическии
демография
демографиялык
демократ
демократии
демократическая
демократия
демократиялык
демоскоп
дендрарии
день
деп
департамент
департамента
департаменти
депо
депутады
депутадына
депутат
депутатов
депутаттардыҥ
депутаттарыныҥ
депутаты
дер
деревня
дерево
деревянко
деремне
деремнеде
деремнелер
деремнениҥ
держава
дерлердиҥ
десантныи
дет
детеи
дети
деткучин
детсад
детская
детскии
детско
детского
детторбоков
дефицит
дешкен
деятель
деятельности
деятельность
деҥ
дж
джаз
джазовыи
джан
джанда
джандар
джанныҥ
джеи
джек
дженнифер
джоди
джон
джонсон
джордж
джузеппе
джунгар
джунгарлар
дзержинск
дзержинскии
ди
диалект
диалог
диаметри
диаметры
дивеевскии
дивизия
дивизиялар
дивизияныҥ
дизаи
дии
дикии
дикои
диксонныҥ
дилер
дилювиальныи
димитрии
динамика
динамике
динамо
династия
династиязы
динлин
диоксид
диплом
дипломат
дипломатическии
дирген
дире
директора
директоры
дирерге
дириже
дирилген
дирип
дис
диск
дискуссиялар
диспансер
диссертации
диссертация
диҥ
дк
для
дмв
дмитриевич
дмитриевка
дмитрии
днеи
днепр
днепровско
дни
днища
дно
днр
дня
до
добавить
доберман
доблести
доблестныи
добровольческая
добровольческии
добрянскии
договор
договора
дождеи
доклад
докладов
докладтар
доклады
доктор
докторлоры
докторскии
докторскои
докторы
документ
документал
документах
документов
документтер
документтерде
документтери
документы
долг
долгано
долгих
долгово
долгота
долготы
должен
должна
должно
должность
должны
долина
долине
долины
долл
доллар
дом
дома
домов
домовыи
домодедово
домостроительныи
дон
донбасс
донбасста
донго
дондо
донец
донна
донныҥ
донскои
дону
доп
дополнительного
дополнительныи
дор
дордо
дорович
доровна
доровтыҥ
дорог
дорога
дорогам
дороги
дорожныи
доско
достоевскии
доходныи
доц
доцент
дошкольныи
доҥ
др
дракондорлу
драма
драманыҥ
драматическии
драматург
драмы
древнеи
древнерусского
древнерусскои
древнии
древних
другие
другим
другими
других
другои
дружба
дружбы
дтп
ду
дуба
дубки
дубрава
дубровка
дуброво
дуга
дуда
дума
думага
думазы
думаныҥ
думы
дунаи
дут
дууга
духи
духовныи
душа
души
ды
дыжат
дыжыла
дыи
дылар
дылат
дылбаган
дылган
дын
дып
дыс
дыста
дыш
дыҥ
дэвид
дюльменде
дюльменниҥ
дюсш
дюфло
е
еаэс
ева
евангелическо
евангельскии
евангельских
евгении
евгеньевич
евдокимов
евич
евразии
евразия
евразияныҥ
евреи
евро
европа
европага
европада
европаныҥ
европе
европеи
европы
егвинское
еге
египет
его
егор
егорова
егорьевскии
егошиха
егошихинскии
егрокн
единая
единиц
единица
единыи
ее
ежегодник
езид
ек
екатерина
екатеринаныҥ
екатеринбург
екатеринбургскии
екатеринбургта
екатеринбургтыҥ
екатерининскии
екатеринодар
ектиҥ
ел
елдепова
елена
елеусов
елец
елизавета
елизаветаныҥ
елинек
елинектиҥ
еловскии
елховка
ель
ельцин
ельцовка
ельцовскии
емельян
ему
енисеи
енни
ео
епархия
ер
ерге
ерде
ердеҥ
ердиҥ
ередеев
ериле
ес
есаул
есенин
если
естественныи
есть
ет
ефронныҥ
еще
ж
жан
жд
же
желе
железная
железнодорожная
железнодорожного
железнодорожнои
железнодорожныи
железнои
железные
железныи
железобетон
женская
женскии
женщин
женщины
жер
жерге
жерде
жери
жет
жетен
жи
живе
живоначальныи
живопись
животноводства
животные
животных
живут
жигит
жизни
жизнь
жилищно
жилфондтыҥ
жимолость
жип
жителеи
жители
жить
жно
жныи
жо
жолио
жу
жуков
жуковскии
жуковтыҥ
журнал
журналда
журналдар
журналдыҥ
журналист
журналистер
журналистстатья
журналисттер
журналисттериниҥ
журналыныҥ
з
за
забаи
забгпу
заборье
забываи
заведение
заведениези
заведениелер
заведения
завод
заводко
заводскои
заводто
заводтор
заводтордыҥ
заводты
заводтыҥ
заводы
завьяловскии
заглавие
заглавия
заголовка
заголовок
загора
заельцовскии
заи
заилии
заимка
заказник
заки
заключение
закон
закона
законодательныи
законы
закс
зал
залда
залдар
залдарында
залду
залесовскии
залив
заливи
заливте
заливтиҥ
залы
заменить
заморозки
заморские
заморских
замоскворечье
занеглименье
занимает
занятости
зао
заозе
заозерье
зап
запад
западная
западно
западного
западнои
западном
западные
западныи
записеи
записки
заповеднигинде
заповедник
заповедника
заповедникте
заповедниктер
заповедниктеринде
заповедникти
заповедниктиҥ
заполье
зарегистрированных
заречная
заречныи
заринскии
зарипова
зарубежныи
заря
засекин
заслуги
заслуженныи
застава
застрои
затон
захарово
защиту
защиты
заявка
заявку
заявление
заявлении
заяузье
заҥ
заҥдары
заҥы
звания
зве
звезда
звезды
звери
звериныи
здание
здесь
здоровье
здравоохранение
здравоохранения
здравствуи
зе
зебра
зебразы
зеду
зееберг
зеери
зек
зеландии
зеландияда
зеландиякатегория
зеландияныҥ
зеле
зеленоградскии
земель
земледелия
земли
земля
землянои
земскии
зен
зер
зери
зет
зетен
зи
зикатегория
зикучин
зилген
зиле
зименки
зимнее
зимнии
зимняя
зимои
зин
зинде
зине
зинеҥ
зиниҥ
зиновьев
зиняковскии
зип
златоуст
змееносец
змеиногорскии
змие
знак
знамени
знаменскии
знании
значение
значении
значения
значок
знези
знезиниҥ
зно
зо
зовая
зовка
зово
зовскии
зодиака
золотая
золотои
зона
зонага
зонада
зоназы
зоназына
зоназында
зоналар
зоналарда
зоналардыҥ
зоналары
зональность
зональныи
зоны
зоолог
зоологическии
зоопарк
зоопаркта
зоопарктыҥ
зоотехник
зори
зот
зрителя
зу
зубово
зугыныҥ
зуево
зуттнер
зы
зыныҥ
зырян
зырянов
зыҥы
зыҥыныҥ
зяблицкии
и
иа
ива
иван
иванов
иванова
иванович
ивановича
ивановичтиҥ
ивановка
ивановна
иваново
ивановская
ивановскии
ивановское
иверскии
иги
игорь
игрок
игрушка
игры
иде
идел
идель
идентификационныи
идеологическии
идеологиялык
иженген
иженер
ижи
ижиле
ижин
ижинде
ижине
ижинеҥ
ижиниҥ
ижорскии
из
изба
избирательныи
избранием
известия
известные
известных
изд
издание
издательскии
издательство
издательствозыныҥ
издательствоныҥ
изи
измаи
изменении
изменениями
изображение
изображения
изобразительных
изобретатель
израиль
изу
изучению
изучения
изученность
ии
ик
икверх
иккара
иккош
икмаи
икона
иконазына
иконазыныҥ
иконгудаи
иконопись
иконы
икоҥдои
икте
иктеген
иктеи
иктеп
иктурачак
икулаган
икусть
икчамал
икчои
икшабалин
ил
илген
иле
илет
или
илип
илл
ильинка
ильинканыҥ
ильинскии
ильинское
ильич
илья
им
име
имеет
имел
имени
именованные
иметь
имеющие
император
императордыҥ
императорскии
императрица
империи
империя
империяга
империяда
империяныҥ
имперскии
имя
ин
иначе
инв
инвалид
инвестиционныи
инвестициялар
инвестицияларыныҥ
ингушетия
инде
индекс
индекси
индии
индия
индияда
индоевропеи
индустриализация
индустриализацияныҥ
индустриальныи
индустрия
ине
инеҥ
инженер
инженерныи
инженеров
иниҥ
инкубатора
инкубаторе
инниҥ
инновации
инновационно
инновационныи
иногда
инородныи
иностраннои
иностранныи
иностранных
институды
институдында
институдыныҥ
институт
института
институтка
институтта
институттар
институттары
институтты
институттыҥ
инструмент
интервью
интервьюзында
интернат
интернет
интернеттиҥ
интерфакс
интерфеи
инфекционныи
инфо
информатики
информации
информационно
информационнои
информационныи
информация
информацияныҥ
инфраструктура
инфраструктуразы
инфраструктуралык
инфраструктурныи
иные
иньвенское
иня
иоанн
иоанна
иоанно
иоганн
иолго
иолгоныҥ
иосиф
ип
ипподром
иракта
ирактыҥ
иран
иранда
иранныҥ
ирбизек
ирбис
ирбисту
ирен
ирина
ирис
иркит
иркутск
иркутскии
иртыш
ис
исаакиевскии
исетскии
исеть
исетьтиҥ
искитим
исключая
ископаемыи
искра
искусств
искусства
искусственныи
искусство
искусствоныҥ
искусствты
ислам
испан
испанияда
исполкомныҥ
исполнительного
исполнительныи
использованию
использовать
используется
исправить
исследование
исследовании
исследованию
исследования
исследователи
исследовательскии
истежип
исток
истории
историко
историографическии
историография
историографияда
историческая
исторические
историческии
исторических
исторического
историческои
история
источник
источникам
источниками
источники
ит
италия
италияныҥ
итальян
итальянскии
итог
итогам
итогах
итоги
иудаизм
иудеи
их
ич
ичбои
ичер
ичи
ичиле
ичинде
ичине
ичинеҥ
ичиниҥ
ичкерлеген
ичкерлегени
ичкерлеер
ичкерлеи
ичкерлеп
ичкерлеш
ичкерлеште
ичпек
иш
ишке
ишмекчи
ишмекчилер
ишмекчилердиҥ
иште
иштебеи
иштебес
иштеген
иштегендер
иштеер
иштеерге
иштеери
иштеи
иштенген
иштенер
иштенетен
иштеп
иштер
иштерге
иштерде
иштерди
иштердиҥ
иштери
иштерин
иштеринде
иштеҥ
иштеҥкеи
ишти
иштиҥ
ишту
ишчи
ишчизи
ишчилер
ишчилердиҥ
ишчилери
ишчилериниҥ
ишјал
ишјалы
ишјоктор
ишјоктордыҥ
июля
июня
иҥ
иҥгат
иҥкат
к
ка
каа
каалга
каалгазы
каан
каанга
каандар
каандык
каандыкка
каандыкты
каандыктыҥ
каанныҥ
кааны
каајы
кабаи
кабак
кабакту
кабан
кабардин
кабардино
кабыи
кабынар
кабырган
кабырып
кавалерии
кавалеры
кавказ
кавказскии
кавказта
кавказтыҥ
кага
кадет
кадетскии
кадмии
кадрин
кадринниҥ
кадыгы
кадыгын
кадык
кадын
кадынга
кадында
кадынды
кадынла
кадынныҥ
кажа
каждыи
кажы
кажызы
казак
казаков
казаковтыҥ
казакстан
казакстанныҥ
казактар
казактарга
казактардыҥ
казан
казанга
казанда
казанды
казани
казанка
казанныҥ
казанская
казанскии
казанское
казанскои
казанцев
казанцево
казань
казаньоргсинтез
казарина
казарма
казах
казахстан
казахстана
казахстанда
казахстанла
казахстанныҥ
казахстанскии
казахтар
казачии
казылган
казынтылар
казып
казыр
казырларынаҥ
каи
каинчин
каинчинниҥ
как
какаи
какого
какшак
кал
кала
калага
калада
каладагы
калазак
калазы
калазын
калазына
калазында
калазыныҥ
калала
калалар
калаларга
калаларда
калалардаҥ
калаларды
калалардыҥ
калаларла
калалары
калаларыла
калаларында
калаларыныҥ
калан
каланаков
каланаҥ
каланегир
каланы
каланыҥ
калапту
калар
калат
калаш
калба
калбак
калбалу
калбалуныҥ
калбаторбоков
калган
калганчы
калганы
калгуты
калгутыныҥ
калды
календарь
календарьды
калии
калина
калинина
калининград
калининградскии
калининниҥ
калинино
калининскии
калиновка
калифорнии
калка
калкак
калкалардыҥ
калкин
калкинниҥ
калманскии
калмык
калмыкия
калмыкияда
калу
калуга
калужскии
калыгыныҥ
калык
калыктар
калыктардыҥ
калыктарла
калыктары
калыктарыныҥ
калыктыҥ
калыҥ
калыҥжып
калыҥы
кальскии
кальции
калья
калјан
калјанко
кам
кама
камаанду
камаандузын
камааны
камаанын
камаи
каманду
каманы
каманыҥ
камду
камдузы
каменка
каменная
каменные
каменныи
каменскии
камень
камерныи
камлак
камлакта
камлактыҥ
камни
кампания
кампанияда
кампанияныҥ
камру
камрю
камскии
камчатка
камчаткада
камчатскии
камчылу
камык
камыш
камышенка
камышенскии
кан
канавинодо
канада
канаданыҥ
канаи
канал
каналда
каналдар
каналдардыҥ
каналы
канас
каначак
кандидады
кандидат
кандидаттары
кандидатуру
канду
кандыи
кандык
канныҥ
канскии
канского
канча
канчага
каныҥ
кап
капитал
капитан
капчал
капшаи
кар
кара
карааи
карабулак
карагаи
карагат
карагем
карагемниҥ
карагол
караголдыҥ
карагыс
каракат
каракем
карако
каракол
караколдыҥ
каракунгои
карамаев
каран
караои
карасу
карасук
карасуу
карасууныҥ
каратас
карачаево
карачаи
карачкаи
карају
караҥ
караҥуи
карга
каргаа
карган
каргана
карганак
карда
кардаҥ
карды
кардыҥ
карелия
каркыраа
карл
карла
карлагаш
карликовыи
карлу
карман
карманова
карпатскии
карпатта
карповка
карпово
карскии
карт
карта
картазы
картазында
карталар
картах
карте
карточка
карточказы
картошко
карты
кару
карузына
карусель
каруулу
карчага
каршеринг
каршерингтиҥ
каршу
каршулу
кары
карым
карындажы
карындаш
карындаштар
карындаштардыҥ
карындаштык
карьер
кас
каскад
каскак
каскан
каспа
каспада
каспаныҥ
каспии
кастакту
кастар
кат
катаи
катал
каталанскои
каталог
катанга
катанду
катандуныҥ
катап
катапка
катаптаҥ
каташ
категории
категорию
категория
катер
катехизаторскии
каткан
католик
католикалык
католиктер
католицизм
католическии
кату
катуни
катунскии
катунское
катуныҥ
катунь
кафедразында
кафедразыныҥ
кафедрал
кафедральныи
качан
качества
качестве
качкан
качкын
качызы
качып
каштак
каштан
кају
каҥы
кв
квадрат
квадратныи
кварталында
квартиразы
квартиралары
квт
кг
кгту
ке
кебедел
кебеделдиҥ
кебеделду
кебедели
кебезен
кебезенде
кебезенниҥ
кебезень
кебери
кедеи
кедери
кеендигиниҥ
кеендик
кеендикте
кеендиктиҥ
кеенеи
кезеду
кезектеи
кезем
кезер
кезиги
кезигин
кезигиниҥ
кезик
кезикте
кезилген
кезип
кеи
кек
кекти
кектиҥ
келбес
келген
келгендер
келди
келеи
келеле
келер
келерге
келерде
келескен
келет
келетен
келеҥ
келзе
келижер
келижет
келижип
келин
келиндер
келип
келишкен
келишпеи
келиштире
келтеи
келтеҥи
кем
кемду
кеме
кемелер
кемеров
кемерово
кемеровская
кемеровскии
кеми
кемиле
кемин
кеминде
кемине
кеминеҥ
кеминиҥ
кемјиир
кемју
кенеи
кенияда
кеп
кепке
кепту
кер
кергил
кергилов
керегинде
кереде
кереези
кереес
кереестер
кереестерди
кереестердиҥ
кереестери
кереестерин
кереестериниҥ
кереестиҥ
керек
керектер
керектерди
керектерин
керекти
керекту
керелеген
керелеи
керелеп
кереп
керептер
керептери
керженец
керченско
керчь
кескен
кет
кеткин
кеть
кечеле
кечер
кечерге
кечет
кечетен
кечип
кечире
кечу
кеҥи
кеҥиниҥ
ки
кивер
киге
киде
киев
киевскии
кижи
кижиге
кижизи
кижизине
кижикалкин
кижиле
кижилер
кижиликке
кижиликтиҥ
кижилу
кижинеҥ
кижини
кижиниҥ
кизи
кизин
кизинде
кизине
кизиниҥ
кии
килик
килограмм
километр
километрге
километрдеҥ
километринде
ким
киндикова
кинематографическии
кинематографта
киниҥ
кино
кинодо
кинозал
кинозалдар
кинозы
кинокритик
кинолор
киномакс
киномир
киноны
киноныҥ
кинорежиссе
киностудия
кинотеатр
кинотеатрдыҥ
кинотеатрлар
кинотеатры
кинофестиваль
кипр
кир
кирбеген
кирбеи
кирген
киргендери
киргени
киргенинде
киргенине
киргенинеҥ
киргениниҥ
киргенкрасная
киргенрекреационное
кирдиҥ
кире
киреде
кирези
кирезинде
киреле
кирелте
кирелтези
кирер
кирерге
кирерде
кирет
киретен
кирзе
кири
кирилл
кириллов
кирип
кирленгени
кирлу
кировскии
кировскои
кировтыҥ
кирпич
кирпичныи
кирпичту
киртиген
киртидер
киртидет
киртидип
киртип
киртиткен
киру
кирха
киселев
киселево
киске
кит
китаи
китая
кичеебес
кичи
кичизи
кичилер
кичилердиҥ
кичинек
кичинектеҥ
кичу
киш
кишертскии
кишертского
ккал
ккат
кке
ккен
кко
ккучин
кл
клавишту
кладбищеде
кладбищениҥ
класс
класса
классика
классикалык
классификациязыла
классицизм
классическии
класстарда
классту
классты
класстыҥ
кле
клеи
климады
климадына
климадыныҥ
климат
климатическии
климатлык
климатту
климатты
климаттыҥ
клин
клиническии
кло
клу
клуб
клубтар
клубы
ключ
ключевскии
ключи
ключики
ключищи
км
кмгенеральныи
кн
кндр
книг
книга
книги
книжка
книжное
книжныи
книту
кнц
княгининскии
княгиня
княжение
княжество
княжестволор
княжествоныҥ
князь
князя
ко
коалиция
коалицияныҥ
кобальт
кобы
кобыда
ков
ковернинскии
ково
ковригинскии
ковскии
ковтыҥ
когда
код
кода
кодекс
кодом
коды
кожевенныи
кожо
кожор
кожоҥ
кожоҥдои
кожоҥдор
кожоҥдордыҥ
кожоҥдоры
кожоҥчы
кожоҥчызы
кожоҥы
кожоҥыныҥ
кожулат
кожулган
кожулта
кожулып
кожуп
кожылат
кожылган
козино
козлова
козловка
козульское
кои
кокс
коксинскии
коксинского
коксу
кокышев
кокышевтиҥ
кол
колбогон
колбои
колбу
колбулар
колбуларда
колбулу
колго
количество
коллеги
коллегиальныи
колледж
колледжи
колледжте
колледжти
колледжтиҥ
коллективныи
коллекция
коллекциязы
коллекциязында
коллекциялар
коллекциялары
коллекцияларында
колло
колодец
коломенскии
колонизация
колтыгында
колумбии
колхоз
колхозто
колхозтыҥ
колчак
колыванскии
колыи
колына
колында
колышкан
колька
кольца
кольцевои
кольцо
кольцоныҥ
ком
команда
командазыныҥ
командалар
командалары
командири
командование
командующии
комариха
комарово
комбаи
комбинат
комдош
комдошев
комдоштор
комедии
комедияныҥ
коми
комиссия
комиссияда
комиссияныҥ
комитеди
комитединиҥ
комитет
комитета
комитетте
комитеттиҥ
комментарии
коммерсантъ
коммерциялык
коммерческии
коммуна
коммунал
коммунальныи
коммунар
коммунист
коммунистическая
коммунистическии
компании
компания
компаниялар
компаниялардыҥ
компаниялары
компанияларыныҥ
компанияныҥ
комплекс
комплекснои
комплексныи
комплексте
комплекстер
комплексы
композитор
компонент
компоненттери
компьютерныи
комсомол
комсомолдыҥ
комсомолец
комсомолы
комсомолыныҥ
комсомольскии
комургаи
комфорт
конвенция
конвертер
конвои
конгон
конгрессе
кондаков
кондитерская
кондитерскии
конец
конкордия
конкурс
конкурста
конкурстыҥ
конкурсы
конок
конокко
конокто
коноктыҥ
конор
консалтинговыи
консервативныи
консерватория
константин
константинов
константинова
константинович
константиновка
конституции
конституционного
конституционныи
конституция
конституциязы
конституциязыла
конституциялык
конструктивизм
конструкторскии
конструкторско
консультанты
консультативныи
континентал
континенталга
континентальныи
контрнаступление
контрольдо
конференции
конференция
конференцияда
конфессиялар
конфликт
конца
концентрациязы
концерн
концертныи
концерттер
коо
коокыи
коол
коолдыҥ
коолы
коолыла
коолында
коомои
кооператив
кооперации
координаттары
коп
копеечник
копеи
кор
корабль
корбо
корголјын
коргон
коргонныҥ
коргонское
кордон
кореи
кореннои
коренные
корень
коридор
коркок
коркышту
корнилов
коробеи
коровино
корогон
корогондорго
корогондордыҥ
короле
королевскии
королевтыҥ
король
коромјызы
корон
корондолгон
коронду
короты
корпус
корпуста
корпустыҥ
корпусы
корреспондент
корреспонденти
корриган
коррупционныи
коррупцияга
коррупцияныҥ
коруда
корулаар
корулаарга
корулаары
корулаган
корулаганы
коруланар
коруланарга
коруланатан
корулап
корулу
корум
корумдар
корумду
корымду
коряков
коса
косинскии
косихинскии
косметологияда
космическии
космонавт
космонавтиканыҥ
космонавттардыҥ
космос
космоско
космосто
космостоҥ
космосты
косте
кострома
кот
коте
котельныи
которая
которого
которое
которои
которые
которыи
которых
кофе
коче
кочевников
кочевых
кочкор
кочо
кош
кошбулак
кошев
кошелево
кошкон
коштои
коштончызы
кошту
кошты
коэффициенти
којогор
којогорлор
којои
коҥыс
кпаш
кпрф
кпсс
крае
краевед
краеведения
краеведческии
краевого
краевое
краевои
краи
красная
красноармеец
красноармеи
краснобаковскии
красновишерскии
красноглинскии
красногорскии
краснодар
краснодарда
краснодардыҥ
краснодарскии
красное
краснои
краснокамскии
краснооктябрьскии
красносельск
красноще
краснояр
красноярка
красноярск
красноярска
красноярская
красноярске
красноярскии
красноярского
красноярское
красноярскта
красные
красныи
кратер
кратерлер
краткая
краткие
краткии
крах
края
краях
кремле
кремли
кремль
кремльде
кремльди
кремльдиҥ
кремльдыҥ
кремля
крепости
крепостнои
крепость
креске
крест
крестке
крестту
крестьян
крестьяндар
крестьянин
крестьянскии
крестьянских
кречет
криворожскии
кривошеева
кривоще
кризис
кризисы
кристин
критерии
критик
критиктер
критиктердиҥ
криуша
кроме
крон
кронштадтскии
круглово
кружок
круизныи
крупнеи
крупскаяныҥ
крутец
крутихинскии
крутцы
крым
крымда
крымныҥ
крымскии
ксалгыш
кстовскии
ксу
ксуныҥ
ксуу
ктаман
кте
ктеи
ктеп
ктер
ктерде
ктердиҥ
ктери
ктерин
ктеринде
ктеҥ
кти
ктии
ктирген
ктиҥ
кто
кту
ку
куба
кубанскии
кубань
кубаньныҥ
кубар
кубаш
кубее
кубическии
кубогы
кубок
кубулат
кубулбаи
кубулган
кубулталар
кубултар
кубулып
кудаи
кудымкарскии
куединскии
кужуртубулак
кужы
кужыла
кузбасс
кузбасскии
кузбасста
кузбасстыҥ
кузино
кузнец
кузнецкии
кузнецово
кузнецовскии
кузнечиха
кузугы
кузук
кузьма
кузьминка
кузьмино
кузьминскии
кузя
куи
куклалардыҥ
кул
кулаган
кулагаш
кулада
кулады
куладыныҥ
кулар
кулаш
кулебакскии
куликово
културазыныҥ
кулузын
кулун
кулунда
кулундинскии
кулур
культ
культовыи
культур
культура
культурага
культурада
культуразы
культуразыныҥ
культуралар
культуралардыҥ
культуралык
культураныҥ
культуре
культурно
культурного
культурное
культурныи
культуры
кумак
кумакла
кумакту
кумалыр
куманды
кумандылар
кумандылардыҥ
кумдус
кумена
кумжулу
кумир
кумохинскии
кумшулу
кумык
кунбадыш
кунгурскии
кунинде
куницын
кункаи
кунсткамера
купросское
купчегень
кур
кураан
кураган
кураи
куран
куранду
кургак
курган
кургандар
кургандары
курганы
кургап
кургаткан
курильскии
куркуре
курляндскии
курмач
курорт
курортныи
курсагы
курсак
курск
курскии
курскта
курт
куру
курултаи
курч
курчадат
курчаи
курчап
курчаткан
курчууга
курчууда
курьинскии
курья
курјум
кускун
куу
кууи
куукарагаи
куулы
кууныҥ
куучын
куучында
куучындаи
куучындап
куучындар
куучындардыҥ
куучындары
куучындашкан
куучыны
куучынын
куучынында
кучин
кучияк
кучияктыҥ
кучук
кучыи
куш
кушка
кушкаш
кушла
куштар
куштардаҥ
куштарды
куштардыҥ
куштары
куштарыла
кушту
куштыҥ
куюм
кујур
кујурдыҥ
кујурлу
кујурлуныҥ
кчечек
кчи
кши
кшиниҥ
кшо
кы
кыдат
кыдаттыҥ
кыдрашев
кыжы
кыжыла
кыжында
кызалаҥду
кызарган
кызы
кызыдар
кызык
кызыл
кызылгат
кызылгвардеецтиҥ
кызылкаи
кызылкат
кызылташ
кызылто
кызылшыҥ
кызылшыҥныҥ
кызылјар
кызылјарда
кызылјардыҥ
кызыныҥ
кызычак
кыи
кылбыш
кылганак
кылыгынаҥ
кылык
кымыскаи
кып
кыпчак
кыр
кыра
кырага
кырада
кыраи
кыралалган
кыралар
кыраларда
кыралардыҥ
кыраларлу
кыралары
кыралу
кыраныҥ
кырбаштаи
кыргыз
кыргыс
кыргыстар
кыргыстары
кырда
кырдаҥ
кырды
кырдыҥ
кырлар
кырларга
кырларда
кырлардаҥ
кырларды
кырлардыҥ
кырларлу
кырлары
кырларын
кырларында
кырларыныҥ
кырлаҥ
кырлу
кырлык
кырлыктаҥ
кырлыктыҥ
кырсаи
кыртыжы
кыртыжын
кыртыжыныҥ
кырчын
кыры
кырында
кыс
кыска
кыскарган
кыскарта
кыскачак
кыскашту
кыстары
кыстарыла
кысты
кытат
кытмановскии
кычыраачылар
кычырар
кычырган
кычыру
кычырып
кыш
кышка
кышкы
кышкыда
кыштар
кышту
кыштыҥ
кыҥыраар
кэрол
кюри
кюриге
кюрилер
кюрини
кюриниҥ
л
ла
лаборатория
лабораториязы
лабораториязында
лавранстыҥ
лаган
лагас
лагерле
лагерныи
лагерь
лазарь
лаи
ландшафтныи
ландшафтов
ландшафттар
ландыра
ланжевен
ланкакатегория
ланып
лаоскатегория
лап
лаптап
лар
ларга
ларда
лардаҥ
ларды
лардыҥ
ларла
ларлу
лары
ларын
ларында
ласкердиҥ
латвия
латвияны
латвияныҥ
латин
латинскии
латыш
лауреады
лауреат
лауреаттары
лбо
лв
лге
лген
лгер
лгердиҥ
лгери
лгерлер
лгерлердиҥ
лгерлери
лгерлерин
лгерлик
лгерчи
лгерчилер
лгерчиниҥ
лго
лд
лден
лди
лдиҥ
лдо
лдор
лдорго
лду
лды
ле
лебединскии
лебяжье
лев
леви
левина
левино
левом
левыи
легем
легемниҥ
леген
легени
ледник
леи
лекер
лекерде
лекерди
лекери
лекерин
лекерлер
лекерлердиҥ
лекциялар
лелген
лена
ленд
ленин
ленина
ленинге
ленинград
ленинградскии
ленинградта
ленинградтаҥ
ленинградтыҥ
ленинниҥ
ленинскии
ленинское
лента
леонид
леонов
леп
лер
лерге
лерде
лердеҥ
лерди
лердиҥ
лери
лериле
лерин
леринде
лерине
леринеҥ
лериниҥ
лерле
лерлу
лермонтов
лермонтовтыҥ
леса
лесная
лесничество
лесное
леснои
лесные
лесопарк
лесостепнои
лесостепь
лесотундра
лесхоз
лет
летию
летнее
лето
летом
летопись
летучии
лешкен
лещ
лжедмитрии
ли
либерализма
либерияныҥ
либо
либрация
ливонскии
лига
лигада
лиген
лиги
лигиниҥ
лидер
лидердиҥ
лидерлердиҥ
лиз
лиза
лии
лик
ликте
ликтер
ликтерди
ликтердиҥ
ликтери
ликтерле
ликтиҥ
ликту
лиллехаммерде
лимпопо
лин
лингвист
линген
лингени
линда
линде
лине
линеи
линет
линия
линияда
линияла
линиялар
линияларды
линиялардыҥ
линиялары
линияныҥ
линиҥ
линк
лип
липа
липецк
липецкии
липовка
лирикалык
листок
лит
литва
литваны
литваныҥ
литература
литературада
литературазы
литературала
литературалык
литератураны
литератураныҥ
литературе
литературная
литературно
литературные
литературныи
литературовед
литературы
литинститутты
литов
литовскии
литогр
лицеи
личныи
лишаи
лишь
лки
лко
лку
лло
лмо
лнр
ло
лобачевскии
лов
лова
лович
ловка
ловна
лово
ловскии
ловское
лог
логовскои
логотип
лои
лок
локальныи
локомотив
локоть
локтевскии
локтордо
лом
ломоносов
ломоносовтыҥ
лондондо
лондонныҥ
лопатино
лор
лордо
лоры
лорына
лорыныҥ
лосиныи
лошадь
лпх
лте
лтеге
лтезин
лтелер
лто
лторбоков
лту
лу
луг
лугем
лугемниҥ
луговая
луговое
лугуш
луи
луиза
луис
лукино
лукои
лукояновскии
луларда
луна
лунар
луне
лунного
лунныи
луноход
луну
луны
луч
лучше
лучшии
лы
лыгы
лыгын
лык
лыктары
лыктыҥ
лына
лында
лысковскии
лысьва
лысьвенскии
ль
льва
лю
любительскии
любои
любом
людеи
люди
людмила
люк
лютеран
лютеранскии
лютеранство
люфтваффе
лјик
м
ма
маадаи
маала
маалада
мааланыҥ
мааны
маанызы
маанызын
маанызыныҥ
маанылар
маанылары
мааныныҥ
маатаи
маашеи
маг
магадан
магазин
магазиндер
магазинниҥ
магистраль
магистральдар
магистральдардыҥ
магистральдыҥ
магистрдыҥ
магнии
магнит
магуаи
магы
магыла
магында
магыныҥ
мадам
мажакту
мажит
мажои
маза
маи
мак
макарии
макарово
макарьево
макарьевскии
макка
макла
макошев
макс
максим
макта
мактагы
мактар
мактарга
мактарда
мактардаҥ
мактарды
мактардыҥ
мактарла
мактары
мактарыла
мактаҥ
макты
мактын
мактыҥ
макушин
мал
малахов
малахово
малая
малга
малды
малдыҥ
малиновка
мало
малое
малоугрене
малчиев
малые
малыи
малын
малых
мальтии
мамадаков
мамин
мамонтовскии
ман
манат
мандар
мандардыҥ
мандельштам
манжерок
манов
манова
мансии
манштеи
маны
маныҥ
маньчжурскии
мар
марал
маралдыҥ
маральник
марга
маргаа
маргаандар
маргаандарда
маргаандардыҥ
маргаандары
маргалу
маргарита
марджани
мари
марии
мариинская
мариинскии
марина
мария
марияга
марияныҥ
марк
марказы
марказында
маркалу
марков
марково
маркс
маркстыҥ
марс
марста
март
марта
марчалу
маршактыҥ
маршрут
маршрутныи
маршрутта
маршруттар
маршруттары
марьино
масло
массачусетсте
массив
массивтер
массовои
мастер
мастерскои
матвеев
матвеевичтиҥ
матвеи
математик
математика
математики
математиктер
математическии
математических
матери
материал
материалам
материалдар
материалы
материальныи
материктиҥ
матч
мать
махачкала
машина
машиналар
машиностроение
машиностроениениҥ
машиностроения
машиностроительныи
маэ
мая
маяк
маяковскии
маҥтадар
маҥыр
мвд
мвт
мге
мгу
мгц
мде
мдеечи
мделгези
мдемел
мдемелдер
мдемелдери
мдемелдерин
мдер
мдерге
мдерди
мдердиҥ
мдери
мдериниҥ
мдерле
мдерлу
мди
мдик
мду
ме
мегаполис
меге
медали
медалин
медаль
медальдарла
медальла
медведев
медиа
медико
медицинская
медицинскии
медицинских
медицины
медныи
меен
меенди
меени
меес
меесте
меестерде
меестеринде
между
международная
международного
международнои
международном
международные
международныи
международных
межелик
межрегиональныи
меи
мексика
мели
мелу
мельница
мемориал
мемориалы
мемориальныи
мен
мендур
менеджер
менее
мениҥ
менниҥ
менныи
менов
мень
меня
менялась
мер
мерген
мердиҥ
меридиан
меркит
меркурии
мероприятиелер
мероприятиелерге
мест
места
месте
местного
место
месторождениелер
месторождениелери
месяц
месяцев
металл
металлическии
металлообработка
металлургическии
металлургия
металлургияныҥ
метательная
метеоритныи
метеориттер
метеостанция
метка
метки
методизм
методическии
метр
метрге
метрдеҥ
метро
метроныҥ
метрополитен
метрополитенде
метрополитенле
метрополитенниҥ
мету
мефодии
механизм
механика
механическии
меценат
мече
мечет
мечеттер
мечетти
мечеттиҥ
мечеть
мечин
мечиртке
мечирткеторбоков
мешке
мешкези
мешкелер
мзо
ми
миасс
миг
мигранттар
миграционныи
миграция
миграциялык
мид
микеланджело
микеланджелоныҥ
микрораи
миле
миллер
миллиард
миллиметр
миллион
миллионго
миллионер
миллионерлер
миллионноҥ
миллионов
миллионынчы
мин
минде
мине
минерал
мини
минимум
минин
министерства
министерство
министерствозы
министерствозыныҥ
министр
министра
министров
миниҥ
мино
миноме
минск
минскии
минского
минут
минутка
минуттаҥ
минь
минэкономразвития
мир
мира
мире
мирлу
мирныи
мировая
мировои
миссионер
миссионерлер
миссионерскии
миссия
миссияныҥ
миссури
мистраль
митингте
митрополит
митрополия
мифологияда
мифы
михаи
михаил
михалковтыҥ
михаэль
мка
мкад
мкарта
мл
младшии
мле
млекопитающии
млн
млрд
мм
мммм
мне
мнение
мниҥ
мно
многих
много
многослои
мныи
мныҥ
мо
мобилизация
могои
могол
могут
модель
модерах
модерн
модоров
модуль
модуля
может
можно
мозер
мозерле
мои
моисеев
молдавияныҥ
молекулярныи
молоде
молот
молотов
молотовко
молотовскии
момент
моможокова
момон
мон
монастыр
монастырдыҥ
монастыры
монастырь
монгол
монголдор
монголдыҥ
монголии
монголия
монголияныҥ
монголо
монгольская
монгольскии
монета
монныҥ
монография
монорельс
монтальчини
монумент
монументал
мордвалар
мордовия
море
морозово
морозовтыҥ
моррисон
морскои
моря
москва
москвага
москвада
москвадаҥ
москвала
москванаҥ
москваны
москваныҥ
москвда
москве
москвои
москву
москвы
москов
московская
московскии
московского
московское
мост
моста
мостовая
мосфильм
мотовилиха
мотовилихинскии
мотор
моторныи
моторостроительныи
моты
мотыныҥ
моховое
моховтыҥ
мою
моя
моҥол
мрамор
мс
мск
мскии
мтс
му
мужского
муз
музеи
музеинде
музея
музыкальнои
музыкальныи
музыкант
мукаева
муксун
мукур
мультфильм
мундус
муниципал
муниципального
муниципальныи
муниципальным
муниципальных
муны
мур
мурад
муса
мусульман
мусульмандар
мусульмандардыҥ
мута
мутинское
мухор
муҥ
муҥга
муҥдар
муҥнаҥ
муҥы
мцк
мчс
мы
мыгу
мыгуны
мыгуныҥ
мыгы
мыи
мык
мынаи
мынаҥ
мында
мындагы
мындыи
мынча
мыны
мыныҥ
мырскии
мыс
мысль
мыстаҥ
мысы
мьянмада
мьянманыҥ
мьянмы
мэлони
мэр
мэриленд
мэриязы
мюллер
мюрдаль
мягков
мячту
мјилу
н
на
наадаи
набережная
набережныи
навальныи
навашинскии
навигациялык
нагои
нагорныи
награждении
над
нада
надежда
наделении
надия
надияны
надияныҥ
надо
надпои
назарова
название
названии
названия
названиями
назначения
наи
наиболее
наименовании
налим
наличныи
нам
наместничество
намиб
нан
написать
направлении
например
наралканыҥ
народа
народная
народного
народное
народностеи
народности
народность
народныи
народных
народов
народы
нарын
нарынгол
нас
наса
населе
население
населения
населенных
наследие
наследия
настоящее
настрои
наступления
наталья
натрии
наук
наука
науке
науки
наурыз
науч
научная
научно
научного
научное
научнои
научныи
научных
нах
нахичевань
находится
находятся
находящемуся
нац
нацизмди
нацизмнеҥ
нацизмом
нации
национал
национализм
национальная
национального
национальнои
национальном
национальныи
национальных
нацист
нацистскои
нацисттер
начала
начале
начало
началом
начального
начальныи
начиная
наш
нашеи
наших
ная
најылажып
најылык
најылыктыҥ
наҥ
нб
нбадыжында
нбадыш
нбадышта
нбадыштаи
нбадыштаҥ
нбес
нгардт
нге
нген
нгени
нги
нгу
нде
ндеги
ндер
ндерде
ндердеҥ
ндерди
ндердиҥ
ндери
ндеринде
ндерлу
нджер
нди
ндик
ндирет
ндирип
ндо
нду
не
неба
небоскре
нева
неваныҥ
неверен
невка
невскии
неген
негенниҥ
недвижимых
неде
неделе
неделеге
неделеде
неделю
недеҥ
нее
неж
независимая
независимых
неи
неизвестно
неименованные
некеген
некоторые
некоторых
некрасовтыҥ
некрополь
нелегал
нелли
нелу
нем
неме
немелер
немени
немец
немецкая
немецкии
немецтер
немецтердиҥ
немцев
немцов
немцтер
немцтердиҥ
ненец
ненецкии
нени
нениҥ
необходимо
неоплеи
непосредственно
нер
нере
нерелу
нерени
несвободныи
нескольких
несколько
нет
нефтебаза
нефтеперерабатывающии
нефтепродукттар
нефтехимическии
нефтехимия
нефть
нефтьти
нефтьтиҥ
нефтяник
нефтянои
нефтяные
неясыть
неҥ
ни
нивальныи
нидерланд
нидерландыкатегория
ние
нижегородская
нижегородскии
нижегородского
нижегородскои
нижнего
нижнее
нижние
нижнии
нижняя
низменность
низменностьто
нии
ниияли
ник
никель
ники
никита
никитин
никитина
никитинниҥ
никитино
никово
никола
николаевич
николаевка
николаевна
николаевск
николаевскии
николаи
николая
николо
никольск
никольскии
никольское
никто
никулино
нил
ниле
ним
ними
нин
нина
нинде
нине
нинеҥ
ниниҥ
нип
них
ниц
ниҥ
нка
нкаајы
нкајы
нки
нкузук
нле
нм
ннеҥ
нниҥ
нность
нные
нныи
нным
нными
нных
нныҥ
но
нобелевского
нобелевскои
нобельдиҥ
нов
новая
новгород
новгородко
новгородскии
новгородто
новгородтоҥ
новгородты
новгородтыҥ
новеи
новеллалардыҥ
новинки
новинскии
нович
новичихинскии
новка
ново
новоалтаи
новое
новои
новомихаи
новомосковскии
новониколаевск
новороссии
новосе
новоселы
новосибир
новосибирск
новосибирская
новосибирскии
новосибирскои
новосибирскте
новосибирсктиҥ
новособорныи
новостеи
новости
новоярмарочныи
новскии
новые
новыи
новь
ногаи
ногон
ное
нозои
нои
нок
ном
номер
номерами
номери
номинал
ноор
ноп
норвегия
норвегияда
норвегияныҥ
норвеж
нормазы
норманаҥ
носителеи
носитель
ноткы
ноткыларыныҥ
ночь
ношев
ношевтиҥ
ношкон
ноября
ноҥ
нпо
нскии
нтв
нтизу
ну
нужно
нужны
нулевои
нумерованные
нумизматикада
нур
нургуны
нурыев
нц
нчечек
нчи
нчилу
нчыгыш
нчыгышта
нчыгыштаи
нчыгыштаҥ
нчыгыштыҥ
нштеи
ны
ные
ныи
ныкта
ныктаазы
ныктазы
ныла
нында
нырна
нытвенскии
ных
ныҥ
нью
о
оао
об
обелиск
обеспечение
обеспечения
обзор
оби
обл
областеи
области
областного
областнои
область
областька
областькатегория
областьла
областьта
областьтар
областьтарда
областьтарды
областьтарыныҥ
областьтаҥ
областьты
областьтыҥ
областях
облепиха
облисполкомныҥ
облнациздат
обозрение
оборона
оборонительные
оборонныи
обороны
оборудование
оборудованиениҥ
обоснованию
обрабатывающии
образование
образовании
образованию
образования
образованиям
образовательная
образовательныи
образовательных
обратиться
обращения
обручев
обряды
обскои
обсуждение
обсуждения
общ
общая
общего
общеобразовательная
общеобразовательныи
общероссии
общества
обществах
общественно
общественное
общественныи
общество
обществоныҥ
общие
общии
община
объе
объедине
объединение
объединении
объект
объекта
объекти
объектов
объекттер
объекттерди
объекттери
объекттиҥ
объекты
объемлющего
обыкновенная
обыкновенныи
обычно
обь
обьект
обьектов
обьекттер
ова
овечкино
овраг
огне
огни
ого
огош
огромные
одесса
одесскии
один
однако
одним
одного
однои
одор
одорлоорго
одорлор
одорлордо
одорлу
одоры
одоштои
одус
одын
одыру
одыруга
оз
озе
озек
озера
озерки
озеро
озо
озогы
озодо
озодоҥ
озолоп
ои
ок
ока
оказались
оканыҥ
океан
океаническии
оккупацияда
оккупированныи
окладников
окол
около
окраина
окрестностях
округ
округа
округка
округов
округта
округтар
округтарда
округтардаҥ
округтарды
округтары
округтыҥ
округы
округына
округында
округыныҥ
окружнои
оксид
окскии
окско
октябр
октябрдыҥ
октябре
октябрь
октябрьдыҥ
октябрьская
октябрьскии
октябрьское
октябрьскои
октября
окулич
окунь
окылу
окјаа
ол
олеарии
олег
олега
оленджулар
олимпии
олма
олор
олорго
олордо
олордоҥ
олорды
олордыҥ
олорло
ольга
ольгино
ольховка
олјого
олјодо
олјолоткон
олјон
олјондо
олјонныҥ
ом
омск
омска
омская
омскии
омскта
омсктаҥ
омскты
омсктыҥ
он
она
онах
онгудаи
ондо
ондор
ондорго
ондыи
оне
они
онирование
онкологияныҥ
онлаи
онноҥ
онныҥ
онов
онои
онок
онос
оностыҥ
оноҥ
онсш
ончо
ончозы
оны
онызы
оныла
оныҥ
оодо
оодып
оозы
оозына
оозынаҥ
оозында
оозындагы
оозыныҥ
оок
оокторы
оон
ооо
оопт
оору
оорудаҥ
оорулар
оорыган
оорыи
оорып
оос
ооткон
оошкы
оп
опалиха
опера
операзы
операныҥ
оператор
операции
операция
операцияда
операциязы
операциялар
операцияны
операцияныҥ
оперныи
описание
опко
оползень
ополчение
ополчениеле
определе
определение
опричнина
опрос
опт
оптическии
оптоҥ
опты
оптыҥ
опубликован
опубликовано
опуночак
опыт
опытныи
ор
ораниенбаум
орбитальныи
орбитер
орган
органдар
организации
организация
организациялар
организациялардыҥ
органическии
органныи
органы
оргончы
орда
ордага
орданыҥ
орден
ордендерле
ордени
ордениле
орденин
ордениниҥ
орденле
орденниҥ
орджоникидзениҥ
ординскии
орды
ордына
ордында
ордынскии
ордынчызы
оре
оренбург
оренбургскии
оригинал
ористы
орк
оркестр
оркестры
оркто
орлов
орловскии
орляк
орныгып
орныккан
орныктырар
орныктырган
орныктырылган
оро
орои
ороктои
ором
оромго
оромдо
оромдор
оромдордо
оромдордыҥ
оромдоры
оромдорында
оромдорыныҥ
оромду
оромды
оромло
оромныҥ
оромонлаи
оромы
оромына
оромында
оромыныҥ
ороом
ороон
ороонго
ороондо
ороондор
ороондорго
ороондордо
ороондордоҥ
ороондорды
ороондордыҥ
ороондорло
ороондоры
ороондорыла
ороондорын
ороондорына
ороондорында
ороондорыныҥ
ороонды
ороонноҥ
ороонныҥ
орто
ортоаи
ортодо
ортодогы
ортозы
ортозыла
ортозын
ортозына
ортозынаҥ
ортозында
ортоку
ортолои
ортолыгы
ортолыгында
ортолык
ортолыкка
ортолыкта
ортолыктар
ортолыктарда
ортолыктары
ортолыктаҥ
ортолыктыҥ
ортосибирскии
ортојылдык
ору
орудие
оружие
орус
орустап
орустар
орустардыҥ
оры
орык
осадочныи
освобождения
освоение
освящать
осе
осень
осетия
осетровыи
осинки
осиновка
осинскии
осипович
оскар
осман
осн
основ
основания
основе
основное
основнои
основные
основных
основы
особенности
особо
особые
ост
остае
осталось
остальные
останкино
остров
острова
островов
островскии
острог
от
отв
отвагу
ответственность
ответственные
ответственныи
отд
отдел
отделение
отделения
отдельно
отдыха
отель
отельдер
отечественная
отечественнои
отечественныи
отечеством
открылся
открыт
открытие
открытия
отку
отличник
отнесении
отношении
ото
отображения
отогол
отрасли
отрасль
отрасльдар
отрасльдыҥ
отряд
отряды
отрядына
отрядында
отставкага
отсутствие
отто
оттыҥ
отурала
отурар
отурарда
отурган
отургызары
отургызылган
отургызып
отургыскан
отче
отъ
офицери
офицерлер
официал
официально
официальныи
оформления
оформленного
оханскии
охране
охраны
оценка
оценки
оче
очень
очерк
очерки
очковтирательство
очы
ошибка
ошибское
ошкош
оыҥ
оҥ
оҥдои
оҥдолгон
оҥјараттаи
п
па
павел
павлов
павлович
павловка
павлово
павловскии
павлодар
павлодарскии
пазырык
пазырыкские
пазырыктыҥ
палата
палатазыныҥ
палаталар
палеолит
палеолитических
палеолитте
палеолиту
палкин
пальник
памяти
памятная
памятниги
памятник
памятники
памятников
памятныи
памятных
память
панкрушихинскии
паново
панорама
панорамазы
пантелеи
пао
папоротник
парабель
парад
парады
параметр
параметра
параметрах
параметре
параметрле
параметров
параметры
параскева
парашютту
париж
парижке
парижскии
парижте
парижтиҥ
парк
парка
парке
парковка
парковкалар
парковкаларды
парковкалардыҥ
парковки
паркового
парковочныи
парковыи
паркта
парктар
парктыҥ
паркы
паркында
паркыныҥ
парламент
парламентке
парламенттиҥ
паровоз
паровои
паром
пароход
пароходство
партизан
партизандар
партизандардыҥ
партизанскии
партии
партия
партиязыныҥ
партияныҥ
паруса
паслеи
паспарты
паспауул
паспауулдыҥ
пассажир
пассажиро
пассажиров
пассажирооборот
пассажиропоток
пассажирскии
пастердиҥ
патмос
патриарх
патриархально
пациенттерди
пацифист
паш
пашня
пво
пе
педагог
педагогикалык
педагогическии
педагогического
пединститутта
педучилищени
пеже
пеи
пекарня
пекпеев
пеля
пелядь
пензенскии
пеньки
пепишевич
пер
первая
первого
первое
первои
первом
первомаи
первопрестольныи
первую
первые
первыи
первых
перевод
перевода
переводе
перевозскии
перед
пережитки
переименовании
перенаправление
переписи
перепись
перераб
пересадочныи
перестрои
переулок
перехода
перечне
перечня
период
периода
периодто
периоды
пермде
перми
пермская
пермскии
пермского
пермскои
пермь
пермьге
пермьде
пермьнеҥ
пермьниҥ
пермяцкии
перпендикуляр
персид
персонал
персоналиялар
перспектива
перспективах
перспективы
песни
песнь
песо
песочное
пестово
песчаныи
песьянка
петербург
петербурга
петербурге
петербургка
петербургла
петербургскии
петербургта
петербургты
петербургтыҥ
петергоф
петр
петра
петрдыҥ
петрин
петрович
петровка
петровна
петровнаныҥ
петрово
петровская
петровскии
петроглиф
петроглифтер
петроград
петропавловскии
петухово
пехотныи
печати
печатныи
печать
печерскии
печке
пещера
пещеры
пи
пианистка
пивоваренныи
пивоварка
пик
пилорама
пилотту
пильнинскии
пионер
писал
писатели
писатель
письма
письмо
питер
пишет
пищевои
пко
пкс
план
плана
планды
планета
планетаныҥ
планетарии
планеты
планирования
планы
планын
платные
плато
платодо
платонов
платформа
плацдарм
плацдармды
плеи
племена
плеханова
пло
плоскогорье
плотина
плотниково
плотности
площади
площадка
площадкалар
площадь
плюс
по
победа
победе
победоносецтиҥ
победу
победы
поверхностных
повесть
повлиявшие
поводу
поволжскии
поволжье
поволжьеде
поволжьениҥ
поворот
погибших
погорелка
погостинскии
погран
пограничныи
под
подбассеи
подвиг
подгольцовыи
подгорныи
поддерживаю
поддержки
поддержку
подзаголовок
подзоналар
подпольныи
подробнее
подтаи
поезд
поездка
поездтер
пожалуи
пожарныи
пожарскии
поздравляю
позициялык
познер
пои
пока
показатели
покров
покровка
покровская
покровскии
покровское
поле
полевои
поледе
полези
ползуновтыҥ
полигон
полиграфическии
полиграфия
поликарп
поликлиника
политехническии
политик
политика
политиказы
политиказыныҥ
политикалык
политиканыҥ
политикти
политическая
политическии
политических
политического
полиции
полк
полковник
полктыҥ
полномочии
полностью
половина
положение
полонии
полоса
полосалар
полосалу
получение
получения
получила
полушариеде
полушарии
поль
пользования
польскии
польша
польшада
польшаныҥ
поляк
поляктар
поляктарды
поляна
поляны
полярныи
помощи
помощью
пономаренконыҥ
поп
попов
попово
породалар
породаларла
порт
портал
портр
порты
поручению
посад
посвяще
посе
поселение
поселениелер
поселении
поселения
поселок
поскольку
после
последние
пособие
посолы
поспелихинскии
поспелихинского
пост
поставить
постановление
постановлении
постоянно
постоянного
постсоветскии
потанин
потанина
потанинди
потанинниҥ
потапов
потапова
потаповтыҥ
потенциал
потенциалду
потери
потому
поход
похоть
почва
почвы
поче
почему
почета
починки
починковскии
починок
почта
почталу
почтаныҥ
почти
почтовыи
поэзия
поэзиязы
поэзияныҥ
поэма
поэмы
поэт
поэтикалык
поэтическии
поэтому
поэттер
поэттердиҥ
поэттиҥ
поязы
пояс
пояса
пояста
поястыи
пперт
ппс
пр
прав
права
правда
правило
правительства
правительство
правительством
право
правовои
православие
православная
православныи
праздник
праздника
праздников
практическои
предварительные
пределы
предестинация
предмет
предприниматель
предприятие
предприятиези
предприятиелер
предприятиелерге
предприятиелерде
предприятиелерди
предприятиелердиҥ
предприятиелери
предприятиелериниҥ
предприятиениҥ
председатели
председателиниҥ
председатель
председателя
представительстволоры
предсубтропическии
предтеченскии
преемственность
президент
президента
президенте
президенти
президентиниҥ
президентке
президентскии
президенттиҥ
президиум
президиума
президиумыныҥ
премии
премия
премиязыныҥ
премияныҥ
премьер
премьера
преображенскии
пресвятои
пресс
прессада
преступлении
префектуралар
пржевальскии
при
прибалтии
прибалтика
прибалтиканы
прибалтиканыҥ
прибор
приборлор
приборостроительныи
приволжскии
пригородныи
приграничныи
придача
призе
признание
признании
признанные
признаны
призыв
приказ
прикамскии
прикамье
прикаспии
прикладнои
приложение
примере
приморскии
приморьениҥ
принимает
приобскии
приозе
природные
природныи
природных
природы
присвоение
присвоении
пристанскии
пристань
приток
притоки
приход
приходится
приходскои
причинам
причинах
про
проблем
проблема
проблемы
проведения
проверка
проверки
провинциал
провинция
провинциялар
прогиб
программа
программазы
программала
программы
прогресс
продление
продолжительность
продукт
продуктов
продукты
продукция
продукциязы
продукциязыныҥ
продукцияныҥ
продюсер
проект
проекта
проекте
проекти
проектиле
проектин
проектныи
проекттер
проектти
проекттиҥ
проекты
проживающих
проза
прозазы
прозаик
прозаныҥ
прои
производитель
производства
производственныи
производство
производстводо
производствозы
производствозыныҥ
производстволор
производстволык
производствоныҥ
происхождение
происхождении
прокатныи
пролетарскии
пролив
промартель
промысле
промышленного
промышленное
промышленности
промышленностиниҥ
промышленность
промышленностько
промышленностьто
промышленностьтыҥ
промышленныи
промышленных
пропаганда
пропагандист
просветитель
просветительскии
проспект
проспекти
проспектинде
проспектте
проспекттиҥ
просто
пространств
пространства
пространственного
пространство
протестант
протестантизм
протестантскии
протестанттар
против
противотанковыи
протокол
протоколы
протон
проточныи
протяже
проф
профессионал
профессионально
профессионального
профессор
профессоры
профиль
профильду
проходит
процент
проценти
процесс
прочего
прочие
прошлое
прошу
пруды
пруссияда
пруссияныҥ
прусскии
прут
псинген
психиатрическии
псков
пти
птицы
птиҥ
пто
птолемеи
пту
публикации
публицист
публицистика
публичная
публичныи
пугаче
пуд
пузанов
пулеме
пункт
пунктов
пункты
пустогачева
пустынь
пустынялар
путеводитель
путеи
путешествие
путешествия
пути
путин
путинди
путь
пушка
пушкин
пушкина
пушкинниҥ
пушкинскии
пчеген
пчегенниҥ
пчизе
пчип
пыжы
пыреи
пьер
пьердиҥ
пьеса
пьесалар
пьесалары
пьесы
пяте
пятидесятниктер
пятницаныҥ
пятыи
пјандаи
р
ра
работ
работа
работает
работе
работник
работников
работы
рабоче
рабочеи
рабочии
рабочих
равенство
равнина
равнинада
равнинаныҥ
рада
радиактивность
радиактивныи
радиальныи
радиационныи
радиация
радиацияныҥ
радиевыи
радии
радикал
радио
радиоактивность
радиоактивностьты
радиоактивныи
радиовещание
радиозы
радиоло
радиостанция
радиоэлектронныи
радиусы
радлов
радость
радузы
радулары
радылган
радылып
раен
раз
раза
развитие
развитию
развития
развлекательныи
развязка
развязкалар
раздел
разделе
разделении
разделов
раздолье
разин
разинниҥ
разница
разрез
разъезд
разъезда
раи
рак
ракет
ракета
ракетно
рал
ралдар
ралдары
ралдаткан
ралу
рам
рамга
рамдар
рамды
рамдык
рамн
рамы
ран
рассвет
рассказал
рассказы
расслоение
растения
расче
рат
рбеи
рбес
рбк
рбо
рг
рге
рген
ргендеи
ргендер
ргени
ргениле
ргенин
ргилеи
ргин
рго
ргтрк
ргу
рде
рдеҥ
рди
рдиҥ
рднердиҥ
рдо
рдыҥ
ре
реальныи
ребрихинскии
революции
революционныи
революция
революциядаҥ
революциязы
революциялык
революциянаҥ
революцияныҥ
регион
региона
регионал
региональная
регионального
региональнои
региональныи
регионго
региондо
региондор
региондордо
региондордыҥ
региондорына
региондорында
региондорыныҥ
регионныҥ
регионов
регионы
регистр
регистрация
регистрациялу
регрессия
регрессияла
регрессияныҥ
ред
редактор
редакторы
редакторына
редакциязы
редакциязында
редер
редилер
редип
реду
рее
реезинде
реен
реестр
реестра
реестрдиҥ
реестре
реестры
реестрында
реечи
реечизи
реечилер
реж
режим
режиссе
режиссер
режиссеры
резервтиҥ
резерфорд
резиденциязы
результат
результаты
реи
рек
река
рекам
реке
рекеи
реки
реконструкция
реконструкцияныҥ
рекорд
рекреационныи
ректиҥ
ректоры
релген
реле
религиозные
религиозныи
реликтовыи
релип
рельеф
рельефи
рельефте
рельефтиҥ
рельефы
ремесленныи
ремикстер
ремонт
рен
ренген
рендерин
ренер
ренерге
ренет
ренип
рентген
ренчи
ренчиги
ренчик
ренчиктер
ренчиктердиҥ
ренчиктери
репин
репорте
репрессии
репрессияда
репрессиялар
рер
рерге
рерде
рери
рерихтиҥ
респ
респубдиканыҥ
республик
республика
республикада
республикала
республикан
республиканы
республиканыҥ
республиках
республике
республики
ресурс
ресурсов
ресурстардыҥ
ресурсы
рет
ретен
реткен
реткучин
ретторбоков
реформа
реформазы
реформалар
реформалардыҥ
реформанаҥ
рецензия
речка
речнои
решение
решении
решения
решле
рештиҥ
реҥ
ржд
ржевско
рз
рзе
рзин
рзо
ри
риа
рид
рик
риктиҥ
рилбеи
рилген
риле
рилет
рилетен
рилип
рим
римскии
римско
рин
рина
ринде
рине
ринеҥ
риниҥ
рио
рип
рис
рита
ричард
риш
риште
риҥилу
рк
рке
ркеген
ркеи
ркелген
ркеле
ркелет
ркене
ркеткен
рки
ркка
рко
рку
рле
рлеи
рлер
рло
рлор
рлу
рме
рмеде
рмо
рмосјиилек
рн
рная
рное
рныи
ро
роберт
род
родина
родинскии
родиола
родиолы
рододендрон
родственные
рождаемость
рождения
рождества
рождественскии
рождественское
роза
розалин
розничныи
розовая
рои
рок
роли
роман
романда
романдары
романныҥ
романов
романович
романовка
романово
романовскии
романовтордыҥ
романы
романында
росводресурсов
росия
россии
россия
россияга
россияда
россиян
россиянаҥ
россияны
россияныҥ
росстат
росстаттыҥ
рост
роста
росте
ростов
ростова
ростове
ростовко
ростовская
ростовскии
ростовское
ростовскои
ростовто
ростовты
ростовтыҥ
ростовчандар
ростсельмаш
рот
ротия
ротскии
ротскои
роттор
роттыҥ
роща
рощада
рпсц
рскии
рсфср
рт
ртинчи
рткен
ртко
рто
рторбоков
рттер
рттерлу
рттиҥ
ртто
рту
ртуть
ртјалбракту
ру
рублеи
рубль
рубцовск
рубцовскии
рубцовскта
руда
рудалар
рудалу
рудник
рудничныи
рудныи
рудои
рузвельт
рук
руках
руководителеи
руководство
руководством
рукту
рукун
румын
румыния
румынияныҥ
румынскии
рунет
руникалык
рус
руси
русская
русские
русскии
русских
русско
русского
русское
русскои
русском
русскую
русь
русьта
русьтыҥ
ручеи
рф
рче
рчо
ры
рыба
рыбин
рызы
рык
рылат
рылган
рылчыгы
рылчык
рылып
рылышкан
рыногында
рынок
рып
рычков
рышев
рюриктиҥ
ряд
рядовои
рядом
рядта
рядтарына
рязань
рөстәм
с
са
саал
саамск
саат
саатта
саба
сабада
сабазы
савино
савинском
саврасов
сага
сагал
сад
садакпаи
садалова
садар
садары
садовая
садового
садовое
садовыи
садта
садтар
садтарда
садту
садтыҥ
саду
садуга
садулу
садуныҥ
сады
садып
сазан
сазы
саи
саксабаи
сакыи
сакып
сала
салават
салазан
салазанныҥ
салаирскии
салар
саларга
салары
салат
салатан
салгадыи
салган
салгандар
салганду
салгыш
салгыштар
салк
салковои
салкои
салкын
салкындак
салкындар
салкындарлу
салкындары
салкынду
салкыннаҥ
салкынныҥ
салкыны
салтары
салтарын
салымы
салынган
салып
салјок
сам
сама
самара
самарада
самаралар
самараны
самараныҥ
самарскии
самая
самбист
самбо
самболо
самои
самоле
самолет
самолеттор
самостоятельныи
самоуправления
самшит
самые
самыи
самык
самыков
самыктыҥ
самыми
самын
самых
сан
санаа
санаага
санаалар
санааныҥ
сананган
сананып
санат
санатории
санаторно
санина
санитарно
санитарныи
санкт
сапсан
сапсанторбоков
сар
сара
сараи
сарас
саратан
саратанда
саратанныҥ
саратов
саратовскии
саратовто
сарафан
саргаи
сарепта
сарлык
сармат
саров
саровскии
сарпинскии
сартакова
сартакпаи
саруева
саруеваныҥ
сары
сарју
сас
сасмен
саста
састалган
састар
састарлу
састу
састыган
састыҥ
сата
сатира
сатурн
сау
саха
сахалин
сахалинниҥ
сахалинские
сахалинскии
сахалинстат
сахаровтыҥ
саян
саянныҥ
саяно
саҥ
саҥыскан
саҥыскансобанскии
сб
сборник
св
сведении
сведения
сведениям
свердловскии
свете
светлана
светлая
светскии
свинец
свиязев
свободное
свободныи
свободу
свободы
свод
свое
своего
своеи
свои
своим
своих
свою
связи
связь
связьтыҥ
святитель
свято
святого
святои
святослав
святых
священник
сделали
сделать
се
себе
себи
себиниҥ
себя
севастополь
севастопольды
севастополя
север
севера
северная
северныи
северо
северскии
сегизинчи
сегис
сегодня
сезон
сеи
сек
секретари
секретарь
сектор
секторго
сектордо
секундка
сел
села
селе
селиве
село
сельма
сельская
сельских
сельского
сельское
сельском
сельскохозяи
сельсовет
сельсовета
сельхозартель
сема
семе
семеи
семен
семеново
семинария
семинарында
семипалатинск
семипалатинскии
семисарт
семь
семьи
сен
сенатскии
сеннои
сент
сентября
сер
серафим
серая
сергачскии
сергеевич
сергеи
сергино
сердечно
сердца
сердце
сереброплавильныи
сереҥке
сержант
сериал
серикпе
серикпези
серикпезиниҥ
серикпелер
серикпени
серикпениҥ
серия
серке
серкпе
серкпеге
серкпези
серкпезинде
серкпезиниҥ
серкпелер
серкпениҥ
серлиф
серу
серье
сессии
сети
сеть
сеченовскии
си
сиб
сибир
сибирге
сибирде
сибирди
сибирдиҥ
сибири
сибирская
сибирские
сибирскии
сибирских
сибирского
сибирское
сибирскои
сибирь
сивинскии
сиг
сигрид
сидорово
сил
сила
силами
силу
силы
символ
символы
симон
симонов
симпозиум
симфоническии
синагога
синаи
синема
синусси
систем
система
системага
системада
системазы
системазын
системазына
системазында
системалар
системаны
системе
системы
сити
ск
ска
сказание
сказка
ская
сквер
скверде
скверлер
скверы
ске
скен
скени
ски
скиде
ские
скии
ским
скиф
ских
склад
складтар
складчатость
складчатыи
склодовская
склодовскии
ско
скобканыҥ
скобках
скобки
сковои
ского
ское
скои
ском
скому
скта
сктагы
скте
сктыҥ
ску
скульптор
скульптура
скульптуралар
скую
славгород
славы
славян
славяндар
славяндардыҥ
славяно
слева
следует
следующие
следы
слива
сливалар
слияние
слобода
слободалар
слова
словакия
словакияныҥ
словарь
словацкии
словения
слово
сложности
слудка
служащии
служба
службада
службалар
службы
случае
см
смерти
смерть
сми
смиркинскии
смирново
смоленск
смоленская
смоленскии
смоленскте
смольковскии
смольныи
смотровая
снг
снк
со
соавтор
соавторы
собанскии
собои
соболево
собор
собора
собордыҥ
соборная
соборныи
соборы
собрание
собраниеге
собраниезиниҥ
собрания
собственно
сов
сова
соведи
соведине
совединиҥ
совершенствование
совет
совета
советниги
советник
советов
советская
советскии
советских
советско
советского
советскои
советтиҥ
современная
современного
современнои
современные
современныи
совхоз
совхоза
совхозныи
совхозто
совхозтыҥ
совхозыныҥ
согласно
согор
согот
согулган
согулта
согуп
согуш
согушта
согуштар
согуштарда
согуштыҥ
содомово
содон
содружества
содружество
созвездие
созвездиеде
созвездии
создание
созыва
созывыныҥ
сои
сок
соккон
сокконныҥ
сокол
соколова
соколово
соколовскии
сокольскии
сокпои
соксо
соктырган
соктырылган
сол
солдат
солдатскии
солдатских
солдаттар
солдаттардыҥ
соликамска
соликамскии
солнечныи
солнце
соловье
солонешенскии
солонешныи
солоҥы
солтонскии
солу
солун
солунат
солунган
солундары
солунталар
солунып
солыган
солыи
солынар
солынган
солынганы
солынганынаҥ
солынталар
солынып
солып
солыыр
сонино
сообщение
сообщении
сообщения
сообщества
сообщество
соогы
соои
соок
сооко
сооктор
соокторлу
сооктыҥ
соору
сооружение
сооружениелер
сооружениелери
сооружения
сооруныҥ
соответствующим
соојындар
соојындарда
сорбоннада
сормово
сормовскии
сороноков
сортировка
сортогои
соснова
сосновка
сосновскии
сосновское
сосновыи
соссусфлеи
сост
состав
состава
составе
составил
составленные
составляет
составляют
составы
состоянии
состоянию
состояния
сосудистыи
сотник
сотрудничества
сотрудничество
софья
соцгород
социал
социализма
социалистическая
социалистическии
социалистических
социалистического
социалистическои
социальная
социально
социальнои
социальныи
социолог
сочи
сочиде
союз
союза
союзка
союзниктер
союзниктердиҥ
союзниктери
союзныи
союзтыҥ
соҥында
спартак
спас
спасибо
спасителя
спасо
спасскии
спб
спеи
спектакль
спектакльдар
спец
специал
специализированныи
специалисттер
специально
специальностьло
специальныи
спирино
списка
списков
списогы
список
списокко
спк
спо
спокои
спорт
спорта
спортзал
спортивно
спортивныи
спорткомплекс
спортло
спортто
спорттыҥ
спортчы
спортчызы
спортчылар
спортчылары
спортшкол
спортыныҥ
справа
справка
справочник
спутниги
спутник
спутниктеҥ
спырна
среди
средиземноморскии
средиземныи
средневековои
средневековых
среднего
среднеи
среднем
среднерусскии
среднесибирскии
среднии
средняя
средств
средства
средстволор
среды
сростки
сс
сскии
сср
ссср
ссылка
ссылками
ссылки
ссылкои
ссылку
ссылок
ст
ста
ставка
ставказы
ставрополь
ставропольскии
стадион
стадиондор
стадионныҥ
стажы
сталин
сталина
сталинград
сталинграда
сталинградская
сталинградскии
сталинградта
сталинниҥ
сталинскии
стан
станкостроительныи
становище
становление
становления
станции
станция
станцияга
станцияда
станциязы
станциялар
станциялары
станциянаҥ
станцияныҥ
стара
старая
старица
старого
старое
старообрядческая
старообрядческии
старообрядчество
староста
старочеркасскии
старцево
старшии
старые
старыи
старых
стат
статеи
статистика
статистики
статистические
статистическии
статистического
статистическое
статузы
статузын
статус
статуса
статусом
статусту
статусты
статусы
статусын
статье
статьи
статью
статья
статьялар
статьялары
стационар
ств
ства
стве
ственного
ственныи
ственных
ствии
ствия
ство
ствующих
сте
стела
стенезиниҥ
степан
степанов
степанович
степановка
степаново
степени
степениле
степенин
степень
степеньду
степное
степнои
степь
стер
стери
стерлядь
стефан
стеҥ
сти
стиги
стиль
стильдер
стильле
стин
стинде
стине
стинеҥ
стиниҥ
стипендия
стипендиязы
стихи
стихов
стиҥ
сто
стои
стоит
стокгольмда
стокгольмдо
столбы
столица
столице
столицеи
сторожевои
стоцена
стоценниҥ
стоянка
стоянки
стр
стран
страна
стране
страниц
страница
странице
страницу
страницы
странои
страны
стратегии
стратегическии
стратегического
стратегическое
стратегия
стратегиялык
стрелецкии
стрелка
стрелковыи
стрикленд
строи
строительдердиҥ
строительныи
строительства
строительство
строительствоныҥ
строительству
строка
строки
строку
строя
струве
структура
структуразы
структуразында
сту
студент
студенттер
студенттердиҥ
студенттерле
студенческии
студия
студиязы
стыт
стыттыҥ
су
субак
субактар
субарктическии
субсредиземноморскии
субъект
субъекти
субъектов
субъекттери
субъекттериниҥ
сувенир
суверенитет
суверенитете
суворов
сугаш
сугаштыҥ
сугул
сугулдыҥ
судак
судостроительныи
судоходныи
судоходство
судтар
судтыҥ
суды
судья
суетка
суетскии
суздальскии
суи
сукно
суксунскии
сула
сулеи
султан
сулу
сульфат
суннит
сур
сура
сураган
сурагын
суразаков
суразакова
суразаковтыҥ
сурак
суракка
сурактар
сурактарды
сурактары
сурактарыла
сурактарын
суракты
суранаш
сурап
сурб
сургал
суриков
суриковтыҥ
суску
сускуныҥ
суу
сууга
суугуш
суугуштар
сууда
суузар
суузы
суузыла
суузын
суузына
суузынаҥ
суузында
суузыныҥ
суукуштар
суула
суулар
сууларга
сууларда
суулардаҥ
сууларды
суулардыҥ
сууларла
сууларлу
суулары
сууларыла
сууларыныҥ
сууларыреки
суулу
суунаҥ
сууны
сууныҥ
суучактар
сууээлем
суујакалаи
суујараттаи
сухая
сухиашвили
суховтыҥ
сухои
сухопутныи
существует
сущности
сфера
сферада
сфере
схема
сцена
сценазында
сценарии
сценическии
сша
съе
съезд
съезда
съезди
съездинде
съездиниҥ
съездте
сыгын
сыгырган
сыи
сымда
сымдаа
сымдаторбоков
сымылты
сымылтыныҥ
сын
сындар
сындарга
сындардыҥ
сындары
сындарын
сындарына
сындарынаҥ
сындарында
сындарыныҥ
сынныҥ
сыны
сынык
сынына
сыныныҥ
сыр
сыраҥаи
сырга
сырьевои
сыче
сыҥыранчы
сэ
сэв
сюмер
сююмбике
ся
сјиилек
т
та
таадазы
таан
таап
табак
табар
табарар
табаратан
табарган
табарганы
табардыҥ
табару
табарулар
табаруларынаҥ
табаруны
табары
табарып
таблиц
таблица
таблицада
таблицу
таблицы
табунскии
табыларда
табылбаган
табылбады
табылган
табылганы
табылгы
табылып
табын
табынтылар
табынча
табыш
табыштырган
тагыл
тагылдар
таджик
таджиктер
тае
тажы
тажында
тазыл
тазылдар
тазылкрасная
тазылы
таи
таиланд
так
также
такие
таким
таких
такои
такси
тактическии
такылган
такып
тал
тала
талаи
талаҥ
талда
талдаган
талдалган
талдама
талдап
талдаштар
талдаштарда
талдаштарды
талдаштарында
талду
талдуныҥ
талдура
талдыҥ
талеҥко
талица
талицкое
талтар
талторбоков
талту
тальменскии
там
тамак
таман
таманныҥ
тамара
тамбов
тамбовскии
тамыр
тамыры
тан
тана
танаис
танак
танк
танковыи
танктар
таныш
танышкан
тап
тапкан
тар
тара
тарал
таралјы
тарас
тарасово
тарбаган
тарбалјы
таркаган
таркаганкучин
таркаи
таркаттар
таркаты
таркатыныҥ
тарланчечек
тарскии
тартагаи
тартар
тартарыныҥ
тарткан
тартыжу
тартыжуда
тартыжуныҥ
тартыковтыҥ
тартылган
тартылып
тартып
тартыш
тартышкан
тархата
тархаты
тары
тарыган
тарыи
тас
таскадаачы
таскаткан
таскыл
таскылдар
тасс
тат
татар
татарлар
татарлардыҥ
татарская
татарскии
татарское
татарстан
татарстанныҥ
татищев
татнефть
татьяна
таш
ташка
ташкент
ташко
ташла
ташта
таштаган
таштагол
таштап
таштар
таштарды
таштардыҥ
таштарлу
таштары
таштаҥ
ташту
таштыҥ
таҥ
таҥдалаи
таҥкы
таҥмалу
таҥынаҥ
тв
тверскои
тверь
творческии
творчества
творчество
тгк
тгу
те
театр
театра
театрал
театрального
театральныи
театрга
театрда
театрдыҥ
театрлар
театрлардыҥ
театрлык
театры
театрыныҥ
тебе
тебу
тегенек
тегенекту
тегерии
тегерик
тегериктерде
тегин
тегри
тедире
теермен
теермени
тезисы
теи
теке
текези
текпенек
текст
текста
тексттер
тектен
тектоникалык
тектоническии
текущеи
текши
текшироссии
текшироссиялык
теле
телевидение
телевидениеде
телевидениениҥ
телевидении
телевидения
телевизионныи
телеген
телеи
телеканал
телеканалдарды
телекеи
телеко
телекоммуникации
телепрограмма
телесериал
телесов
телесова
телеут
телеутов
телеуттар
телефон
телефонныи
телецкии
телецкого
телецкое
телеҥит
телеҥиттер
телкем
тело
тель
тем
тема
темазы
тематические
тематическии
темдеги
темдек
темдектеген
темдектегениле
темдектеер
темдектезе
темдектеи
темдектелген
темдектелет
темдектеп
темдектери
темдектериле
темдекту
темир
темирдеҥ
темирјол
темирјолго
темирјолдо
темирјолдор
темирјолдордыҥ
темирјолдорло
темирјолдоры
темирјолды
темирјолдыҥ
темирјолло
температура
температуразы
температуразыныҥ
температуралар
температураны
температураныҥ
тен
тенант
теневои
теория
теориялар
теорияны
теп
теперь
тепкижи
тепловозоремонтныи
тепловои
теплоход
теплоходтор
тепсеҥ
тепсеҥде
тепсеҥдер
тепсеҥдерлу
тепсеҥи
тепсеҥинде
тепсеҥнеҥ
тепуков
тепуковтыҥ
тер
тергее
тергееге
тергееде
тергеези
тергеезине
тергееле
тергеелер
тергеелердин
тергеелердиҥ
тергеелери
тергеелерле
тергеелик
тергеени
тергеениҥ
тере
терези
терек
теректи
теректиниҥ
теректу
тереҥ
тереҥжиде
тереҥи
теркишев
теркишева
терлер
термин
терминди
территориального
территориальное
территориальных
территории
территорию
территория
террор
тескери
тескерлеген
тескерлеп
тете
тех
техника
техникалык
техниканыҥ
техникум
техникумдар
техникумы
техническая
техническии
технических
технического
техническое
технологии
технологическии
технология
технологиялар
технологиялардыҥ
технологиялык
технопарк
течение
теҥ
теҥери
теҥериде
теҥериниҥ
теҥис
теҥиске
теҥистиҥ
ти
тибер
тибет
тибетская
тибетскии
тибеттиҥ
тижи
тижизи
тизим
тии
тил
тилаштар
тилге
тилде
тилдер
тилдерге
тилдерде
тилдердеҥ
тилдердиҥ
тилдерине
тилдеҥ
тилди
тилдиҥ
тилду
тили
тилиле
тилин
тилле
тимирязевскии
тимурович
тин
тинг
тинге
тинги
тингинде
тингте
тиниҥ
тип
типа
типо
типография
типы
тираж
тиражту
тиражы
тиргеш
тиру
тис
титова
тихая
тихвинскии
тихии
тихоокеанскии
тиштери
тиҥ
тка
ткан
тканы
тканыла
ткатегория
ткен
ткенге
ткенди
ткендик
ткенниҥ
тко
тку
ткучин
тно
тного
тные
тныи
то
тобольскии
тобольсктаҥ
тобр
тобрагы
тобрак
тобракту
тобыр
товарлар
товарлардыҥ
тогаи
того
тогузынчы
тогул
тогульскии
тогус
тодош
тодоштордыҥ
тодоҥ
тоже
тожла
тожоҥ
тожоҥты
тожоҥтыныҥ
тожы
тои
ток
токарчук
токои
токтобои
токтогон
токтогоны
токтодор
токтодоры
токтоду
токтодузы
токтодып
токтои
токтонок
токтоор
токтоп
токтоткон
токуналу
токыналу
толгои
толгон
толку
толкулары
толо
толон
толоно
толоон
толстои
толтыра
толтырат
толу
толубаи
толуны
толуш
толыи
толыкту
только
том
томах
томду
томныҥ
томонок
томск
томска
томская
томске
томские
томскии
томского
томское
томскои
тому
томул
томуртка
томыртка
томь
тон
тони
тонкинскии
тонн
тонна
тоннель
тоншаевскии
тоо
тооалыжы
тооалыжыла
тооалыш
тооалышта
тооалыштыҥ
тоого
тоодо
тоозы
тоозыла
тоозын
тоозына
тоозынаҥ
тоозында
тоозыныҥ
тооло
тоолоорго
тоолор
тоолош
тоолу
тоомјылу
тооргы
тооргыкрасная
тооргыны
тооргыныҥ
тооргысобанскии
тоорчык
тоотои
топ
топливно
топограф
топографиязы
топографиялык
топоним
топонимическии
топтонок
топучии
топчихинскии
топшуур
тор
торбок
торбоков
торбос
торговая
торговля
торгово
торговыи
торгул
торко
торлоо
торо
торот
торт
точка
тош
тошло
тоштор
тоштордоҥ
тошторлу
тошторынаҥ
тоштоҥ
тошту
тоштыҥ
тоҥ
тоҥбои
тоҥбок
тоҥгоныныҥ
тоҥмок
тоҥмокту
тоҥот
тоҥып
тоҥырып
тпеген
тпеи
тпо
тпу
тр
трагедия
трагы
трагыла
трагын
трагына
трагынаҥ
трагында
трагыныҥ
традиции
трак
тракт
тракта
трактор
тракторлор
тракторныи
тракту
трактыҥ
трал
трамваи
транзит
трансгрессия
трансгрессияларды
трансгрессияны
транспорт
транспорта
транспортко
транспортло
транспортныи
транспортто
транспортты
транспорттыҥ
транспорты
транспортыныҥ
транссибирскии
трансформации
трасса
трассалар
трассаныҥ
тре
требования
требуется
тренер
тренери
третии
третье
третьяковскии
три
трк
трлн
трои
троица
троицк
троицкии
троицкое
троллеи
тростник
труд
труда
трудовои
труды
труппа
труппазы
трц
тсаи
тся
ттер
ттиҥ
ттор
тторбоков
тту
ттырмак
ту
туба
тубалар
тубалардыҥ
тува
тувинская
тувинского
тувинскои
тувинцев
тувы
туганбаев
тудала
тудар
тударга
тудары
тударын
тударында
тудат
тудатан
тудулар
тудуларга
тудуларда
тудулат
тудулатан
тудулган
тудулза
тудулып
тудум
тудумдар
тудумдары
тудумы
тудунар
тудунат
тудунып
тудуп
тудуш
туева
тужар
тужы
тужында
тузазын
тузаланар
тузаланарга
тузаланары
тузаланат
тузаланган
тузаланып
тузалу
тузы
тузыныҥ
туи
тула
тулаан
тулан
тулои
тулу
тульскии
туман
тумат
тумчук
тумчукту
тундра
тундрада
тундраныҥ
тундровыи
туныҥ
тур
тура
турага
турада
туразы
туразын
туразына
туразында
туразыныҥ
турала
туралар
тураларда
тураларды
туралардыҥ
тураларлу
туралары
тураларын
туралу
туранаҥ
тураны
тураныҥ
турар
турарга
турарда
турат
туратан
туратпостановление
тураты
турачак
турачакта
турачактыҥ
турбаза
турбазалар
турган
тургандар
тургандардыҥ
турганы
турганыла
турганын
турганынаҥ
турганында
тургенев
тургуза
тургузаачызы
тургузар
тургузарга
тургузары
тургузат
тургузылган
тургузылганзакон
тургузылып
тургузып
тургун
тургускан
тургуссын
турецкии
турза
туризм
туризма
туризмди
туризмниҥ
турист
туристическии
туристическои
туристскии
туристтер
туристтерге
туристтердиҥ
туристтерле
туркмен
туркменбашы
туркмения
туркунына
турна
турналар
турнаторбоков
турочак
турочакского
туру
туружаачы
туружаачызы
туружаачылар
туружаачылары
туружаачыларына
туружар
туружарга
туружат
туружып
турултазы
турултазыла
турултазын
турумкаи
туруныҥ
туруп
турушкан
турушкандарга
турция
турчы
турчызы
турчылары
тус
тусту
тут
туткан
тутканы
тутканынаҥ
тутсын
туу
тууга
туузы
туузын
туукаи
туулар
туулардыҥ
туулары
туулу
тууныҥ
туура
тууразы
туучечек
туујылар
тушта
туштаар
туштабаган
туштабаи
туштаган
туштаганы
туштагы
туштажуда
туштажып
туштаи
туштап
тушташ
туюкские
тхдд
тчечек
тчик
ты
тыбыкова
тыва
тыганыла
тыи
тын
тынар
тынду
тындулар
тындулардаҥ
тындуларды
тындулардыҥ
тындулары
тынын
тыныҥ
тып
тырмак
тыс
тысяч
тысячелетия
тысячи
тыт
тыткескен
тытла
тыттар
тытту
тыттугем
тыш
тышкары
тыштында
тыҥ
тыҥы
тыҥыган
тыҥыда
тыҥыи
тыҥып
тэц
тюбингенде
тюз
тюменцевскии
тюмень
тюркологическии
тюркология
тюркских
тюркского
тюркянскии
тяже
у
убии
уважаемые
увековечивании
увеличился
уга
угала
углерода
угловскии
угол
уголовныи
угольныи
угор
угрюм
угулган
угы
угын
уда
удабаи
удалить
удаловка
удмурт
удмуртия
удобрение
удура
удурлажар
удурлажары
удурлажу
удурлажып
удурлашкан
удурум
удурумга
удурым
уезд
уездине
уездныи
уездте
уездтеҥ
уездтиҥ
уефа
уже
ужубе
узаган
узада
узак
узакка
узбек
узбектер
узел
узелдер
узнаи
узун
узунныҥ
узуны
узуныла
узы
узына
узынаҥ
узында
узыныҥ
уи
уильям
уильямс
уильямстыҥ
уинскии
ук
указ
указаннои
указано
указать
указыла
укачин
укачина
укачинович
уккан
укок
укоҥко
украин
украина
украинаны
украинаныҥ
украиндер
украинскии
украины
укрепления
укталат
уктап
уктаткан
укту
ул
улав
улаган
улаганда
улаганнаҥ
улаганныҥ
улаганскии
улаганского
улагашев
улагашевтиҥ
улажат
улажып
улаи
улалат
улалинскии
улалу
улалуга
улалуда
улалунаҥ
улалуныҥ
улам
уландрык
улар
уларды
улары
уларын
уларына
уларыныҥ
улгерлер
улица
улицами
улицы
улу
улужаи
улузы
улузыла
улузын
улузына
улузыныҥ
улук
улус
улуска
улусла
улуста
улустар
улустары
улустаҥ
улусту
улусты
улустыҥ
ульяновск
ульяновскии
ум
умеренныи
умолчанию
ун
унаҥ
ундылбаган
универсал
универсаль
универсальная
универсальныи
универсиада
университеди
университединде
университединиҥ
университет
университета
университетке
университетская
университетскии
университетте
университеттер
университеттердиҥ
университетти
университеттиҥ
уникал
унсет
унсеттиҥ
унц
уполномоченныи
управаныҥ
управление
управлениези
управления
ур
урал
урала
уралда
уралдаҥ
уралдыҥ
урало
уральская
уральскии
уранла
уранныҥ
урбанова
уренскии
урлу
урматов
уровень
уровне
уровнем
уровню
уровня
урожаи
уроки
урсул
урсулга
урсулдыҥ
урттыҥ
урчин
урчын
ус
уса
усад
усадьба
усаи
ускуч
условия
услуг
услугалар
усов
усолье
усольскии
успения
успенскии
успенское
успех
уста
устав
установкалар
установлении
устардыҥ
устои
устрои
устыҥ
усть
устье
устья
усырга
утверждении
утверждения
уткино
утратившими
утро
уул
уулалган
уулалткан
ууламјы
ууламјызы
ууламјыла
ууламјылаган
ууламјылар
ууламјылары
ууламјылу
ууланар
ууланат
ууланган
уулдары
уулду
уулу
уулчак
уулы
уунда
уур
уф
уфа
уфада
уфаныҥ
уфимскии
уфы
уч
учак
учар
участки
участник
участника
участникам
участники
участников
участница
участницы
участогы
участок
участокто
участоктор
учат
уче
учеб
учебно
учебныи
ученые
училище
училищеге
училищеде
училищезин
училищелер
училищениҥ
учкан
учкур
учредительныи
учреждение
учреждениези
учреждениелер
учреждениелердиҥ
учреждениелери
учреждениелериниҥ
учреждении
учреждения
учту
учун
учуп
учур
учура
учураи
учуралдар
учурлаган
учурлаи
учурлалган
учурлу
учурлузы
учуры
учурын
учы
учына
учынаҥ
учында
ушаи
ушкуш
ф
фабрика
фабрикалар
фаи
фактически
фактов
факторы
факультедин
факультединде
факультедине
факультединиҥ
факультет
факультетте
фан
фап
фауна
фашизмди
фашизмнеҥ
фашист
фгоу
фгуп
фе
февраль
февральскии
февраля
федерал
федеральная
федерального
федеральное
федеральнои
федеральном
федеральныи
федеральным
федеративная
федерации
федерация
федерацияга
федерацияда
федерациязыныҥ
федерацияныҥ
федор
федорович
федоровна
федуринскии
феи
фельдмаршал
феодальных
феодосии
фермазы
фермер
фестивали
фестивалиниҥ
фестиваль
фестивальда
фестивальдар
фестивальдары
фз
физик
физика
физикада
физикала
физики
физико
физиктер
физиология
физическии
физическои
физкультура
филармоническии
филармония
филармониязы
филармониялар
филармонияныҥ
филателияда
филиал
филиалдар
филиалдары
филиалдарыла
филиалы
филино
филология
филологиялык
философ
философия
философиялык
философияныҥ
фильм
фин
финансовыи
финляндия
финляндияныҥ
финно
финскии
фкз
флаг
флаге
флора
флот
флотилии
флоттыҥ
фольклор
фольклорист
фольклоры
фом
фоминское
фон
фонд
фондтыҥ
фонды
фондыныҥ
фонтан
фоняков
форель
форм
форма
формально
формат
формате
формирования
формировать
формы
форум
фото
фотографиях
фотојурук
франк
франкфурт
франсуаза
франц
франции
франция
францияда
францияныҥ
француз
французская
фрг
фредерик
фридрих
фриз
фролов
фронт
фронте
фронтко
фронтовик
фронтто
фронттор
фронтты
фронттыҥ
фронты
фрунзениҥ
фсб
фун
фундаментал
функ
функции
функция
футбол
футболло
футболу
футбольная
футбольныи
х
хабаровск
хабарскии
хазар
хаи
хакас
хакасия
хамелеон
хан
ханс
ханство
ханствого
ханствоныҥ
ханты
характеристика
харино
хариус
харрисон
харьков
харьковскии
харьковто
хаус
хач
хвои
хворостовскии
хельсинки
химии
химик
химическии
химическои
химия
химияда
химияла
химияныҥ
хинди
хирург
хмель
хованскии
ходатаи
хозяи
хоккеи
холл
холода
холодная
холст
хоральныи
хорватия
хорвицтиҥ
хореограф
хотя
хохлома
храм
храма
храмдар
храмы
хранения
хребет
хрестоматиязы
христа
христиан
христос
христостыҥ
хруще
худож
художеств
художественно
художественныи
хуннулар
хутор
хуторлор
хх
ц
цано
цаплинниҥ
царица
царицын
царицына
царицында
царицынды
царицынныҥ
царицынскии
цария
царскии
цв
цветнои
цев
цево
цезарь
цеи
целинныи
целлюлозно
цен
цензура
центр
центра
централизованныи
центральная
центрально
центрального
центральное
центральнои
центральныи
центре
центров
церемонияга
церкви
церковно
церковныи
церковь
цех
цехте
цик
цинк
циолковскии
цирк
цирковои
цифрах
цифровои
цк
цру
цска
цсу
цы
цюрупаныҥ
ч
чаар
чабак
чаган
чагандык
чаганузун
чаганузунныҥ
чагат
чад
чадтыҥ
чазын
чаи
чак
чакка
чакпынду
чакта
чактар
чактарда
чактардагы
чактардыҥ
чактаҥ
чакту
чактыҥ
чакыр
чакырдыҥ
чала
чалкан
чалканду
чалкандулар
чалык
чамал
чамалда
чамалдыҥ
чанаа
чаналу
чаныш
чапаевтиҥ
чапты
чаптыган
чаптынов
чаптыновтыҥ
чараган
чарас
чаргы
чаргыда
чаргыныҥ
чарлак
чарльз
чарыш
чарышка
чарышскии
чарыштыҥ
час
часа
часка
часовня
часовнязы
части
частинскии
частично
частныи
частыҥ
часть
частьтар
частьтыҥ
чачар
чачат
чачатан
чачияков
чачияковтыҥ
чачкан
чачылган
чачылып
чачып
чачыҥы
чаҥкыр
че
чебер
чеберлеп
чебоксары
чевалков
чевалкова
чевалковтыҥ
чеден
чедендер
чеи
чек
чел
челеби
челканцы
человек
человека
челябинск
челябинская
челябинске
челябинскии
челябинскои
челябинскта
челябинскте
челябинскти
чем
чемал
чемала
чемале
чемальскии
чемальского
чемет
чемпион
чемпионады
чемпионат
чемпионатта
чемпионаттыҥ
чемпионы
чемровка
чендек
чендектиҥ
ченелтелер
ченешкен
черга
чердынскии
чере
через
черемшанка
черепаново
черет
черетту
черкесия
черневая
черниговскии
черниковка
черноануи
черновицкии
черновское
чернозе
черноземье
черноморскии
чернуха
чернушинскии
чернушка
чернышевскии
черу
черчилль
честь
чет
четвертичныи
четверть
четыре
чех
чехов
чеховтыҥ
чехословакияда
чехословакияныҥ
чечеги
чечек
чечектеи
чечектеп
чечектер
чечектерле
чечектерлу
чечектиҥ
чечекту
чечен
чечня
чечняныҥ
чешскии
чжи
чжиге
чжини
чи
чиби
чибилу
чибит
чибиттиҥ
чизи
чии
чик
чикагодо
чике
чил
чилдердиҥ
чиле
чилеп
чилер
чилерге
чилердиҥ
чилери
чилериниҥ
чили
чимер
чин
чинина
чиниҥ
чиновников
чинчи
чинчизи
чип
числа
числе
численности
численность
число
чистое
чита
чихачевтыҥ
чичинов
чичке
чичкечек
чкаловск
чкаловскии
чкаловтыҥ
чкин
чкиндер
чкиндердеҥ
чкиндердиҥ
чко
чку
член
члены
чо
чодыла
чои
чокан
чоккон
чоктор
чокторын
чокым
чолмон
чолмоны
чолтык
чолушман
чолушманныҥ
чолушпа
чолушпаныҥ
чолчы
чолышман
чолышманныҥ
чон
чоо
чоокыр
чоокыраи
чооныҥ
чопош
чопоштыҥ
чорос
чортон
чотобозо
чотогон
чотогоныла
чотозо
чотои
чотолгон
чотолот
чочкина
чочколор
чоҥмо
чтения
что
чтобы
чтолык
чту
чу
чуварлеи
чуваш
чувашия
чуваштар
чудотворецтиҥ
чуи
чук
чуковскии
чукотскии
чулым
чулышман
чульча
чумыш
чумышскии
чусовои
чусовскои
чуя
чы
чыга
чыгала
чыгар
чыгара
чыгарар
чыгарары
чыгарат
чыгарган
чыгарда
чыгартузыныҥ
чыгары
чыгарылган
чыгарып
чыгат
чыгатан
чыгы
чыгым
чыгымдаган
чыгымы
чыгыныҥ
чыгып
чыгырар
чыдаган
чыдажар
чыдаткан
чызы
чык
чыккан
чыккандар
чыкканча
чыкканы
чыкпаган
чыкса
чыкту
чыктыҥ
чылап
чымдык
чымыл
чын
чынга
чындык
чынынча
чыныҥ
чырбыкчинович
чырмаи
чычкан
чычкандап
чычкандар
чычкандары
чычканкучин
чычканы
чычрана
чычырана
чычыргана
чычырганазы
чыҥдыи
ш
шабалин
шабалинниҥ
шабла
шабланыҥ
шаблон
шаблона
шаблоне
шаблонов
шаблоны
шабуракова
шавла
шагаев
шадеи
шадрино
шаи
шак
шалба
шаляпин
шаманизм
шаманству
шапшалдыҥ
шапшальскии
шарангскии
шарапшын
шарлотта
шарль
шарпантье
шарташ
шатин
шатинов
шатиновты
шатиновтыҥ
шатковскии
шатра
шаттл
шахматла
шаховскии
шахунья
шашыкман
шашыкманныҥ
шая
швед
шведскии
швеи
швеция
швецияныҥ
швецов
шебалино
шебалинскии
шебалинского
шевченко
шевченконыҥ
шеи
шелаболихинскии
шелковица
шельфте
шесть
шибее
шибееге
шибееде
шибееленген
шибеени
шибеениҥ
шиберти
шибертиниҥ
шибилик
шие
шии
шилово
шина
шинныи
шиповник
шипуновскии
широкии
широколиственнолесныи
широколиственные
широколиственныи
широта
широтаныҥ
широтныи
ших
шишкино
шишковтыҥ
шиҥдеген
шиҥдегени
шиҥдегениле
шиҥдеер
шиҥдеерге
шиҥдеери
шиҥдееринде
шиҥдеериниҥ
шиҥделбеген
шиҥделген
шиҥдеп
шиҥжу
шкалазы
шкалазыла
шкен
шкенинеҥ
шко
школ
школа
школго
школдо
школдор
школдордо
школдордыҥ
школдоры
школдорыныҥ
школды
школдыҥ
школы
школын
школына
школында
школыныҥ
школьныи
шло
шодоев
шонкор
шоор
шоорноныҥ
шор
шорлор
шорлордыҥ
шос
шоссе
шоҥкор
шпеи
шри
шсе
штаб
штабтыҥ
штабы
штабыныҥ
штат
штатта
ште
штиҥ
што
шту
штук
штурмовои
штутгарт
шу
шубино
шувалов
шуи
шукшинниҥ
шумаров
шунарак
шуньков
шуурган
шуургандар
шуурганла
шуурып
шуховскии
шуҥмары
шыдар
шыку
шылтагы
шылтаи
шылтузында
шыраҥкаи
шыргаи
шырка
шыркалаткан
шыркалу
шыҥ
ще
щеглов
щегловск
щука
ъ
ы
ыган
ыжы
ыжык
ыжыктап
ыжыныҥ
ызаган
ызап
ыи
ык
ыкту
ыктуныҥ
ыл
ыла
ылаачын
ылаачынторбоков
ылар
ылат
ылбаи
ылбас
ылгаксы
ылган
ылганы
ылда
ылдар
ылдыҥ
ылтар
ылткан
ылчылар
ылып
ым
ымдаар
ымдаарга
ымдаган
ымдаганы
ымдаганыла
ымдалган
ымдап
ымдар
ымдарга
ымдардыҥ
ымды
ымныҥ
ымы
ын
ына
ынаҥ
ынгы
ында
ындар
ынду
ынча
ыны
ыныныҥ
ыныргы
ыныргыда
ыныргыныҥ
ыныҥ
ып
ыр
ыраагында
ыраада
ыраак
ыраакта
ырагында
ырада
ырак
ыракта
ыргаи
ыркыт
ырлык
ырлыктыҥ
ырыс
ырысту
ыс
ыҥ
ыҥат
ыҥдар
ыҥдарлу
ыҥду
ыҥкат
ыҥла
ыҥныҥ
ыҥчы
ь
э
эби
эбире
эбиреде
эбирер
эбирет
эбирип
эвакуацияга
эвакуировать
эвенкии
эволюция
эволюциязы
эдвард
эдегинде
эдегинеҥ
эделе
эдер
эдерге
эдерде
эдери
эдет
эдетен
эди
эдил
эдилге
эдилген
эдилде
эдилдеҥ
эдилди
эдилдиҥ
эдилет
эдилип
эдим
эдимдер
эдимдердиҥ
эдимдери
эдип
эдоков
эдуард
эже
эжи
эжигинде
эжигиниҥ
эжиле
эземине
эзимниҥ
эи
экелген
экелгендер
экелеле
экелет
экелетен
экелип
экз
экземпляр
экзотикалык
эки
экилези
экинур
экинурдыҥ
экинчи
экинчизи
экипажтыҥ
экијандаи
эклектика
экологии
экологическая
экологическии
экология
экологиязы
экологиялык
экологияныҥ
экономика
экономикага
экономикада
экономиказы
экономиказын
экономиказына
экономиказында
экономиказыныҥ
экономикала
экономикалык
экономиканыҥ
экономики
экономико
экономист
экономическая
экономические
экономическии
экономических
экономического
экономическое
экономо
экпинду
экран
экспедиции
экспедиция
экспедицияга
экспедицияда
экспедициялар
экспедицияныҥ
эксперимент
экспериментал
эксперименттер
эксперт
эксперттердиҥ
эксплуатацияга
экспозиция
экспозициялар
экспонаттар
экспорт
экспортко
эку
эл
элбеде
элбек
элдер
элду
элекмонар
электрическии
электрического
электричество
электрон
электронная
электронныи
электростанция
электростанциялар
электротехническии
электроэнергетика
электроэнергия
электроэнергияныҥ
элемент
элемента
элементтер
элементти
элементы
элен
элизабет
элик
эликманар
эликманардыҥ
эликтер
элчизи
эльба
эльфрида
эм
эмдеер
эмдеи
эмденер
эмденип
эмдер
эмди
эмдиге
эмдиги
эмду
эмеген
эмегенсо
эмеенчаи
эмезе
эмези
эмезиниҥ
эмеи
эмери
эмериниҥ
эмес
эмеш
эмигрант
эмили
эмиль
эмтир
эмчи
эмчизи
эмчилер
эмчилердиҥ
эмчилиги
эмчилигиниҥ
эмчилик
эмчиликке
эмчиликте
эмчиликтиҥ
эндемик
эндемиктери
эне
энези
энезине
энезиниҥ
энени
энергетика
энергетиктердиҥ
энергетическии
энергия
энесаи
энциклопедии
энциклопедическии
энциклопедия
энчи
энчизи
энчизиниҥ
энчилериниҥ
энчилу
энчиниҥ
энчу
эп
эпос
эпоха
эпоханыҥ
эпоху
эпту
эр
эргиш
эре
эреҥис
эрзян
эриктери
эриктерин
эрке
эркеги
эркемен
эрлен
эрлик
эрмен
эрменду
эрмитаж
эрнест
эрте
эртен
эрчимду
эрчиш
эрчишке
эрчиштиҥ
эры
эсерлер
эске
эски
эскиде
эскизи
эскиргени
эссе
эстер
эстон
эстония
эстонияны
эт
эта
эталон
этапта
эти
этимология
этимологиязы
этке
эткен
эткендер
эткомбинат
этникалык
этническии
этно
этнограф
этнографии
этнографическии
этнографических
этнографического
этнографическои
этнография
этнографиялык
это
этого
этои
этом
этот
эту
эффективности
эхо
эчки
эчкилер
эчкиниҥ
эш
эштек
эштектер
эшту
ээжилерди
ээжилерин
ээзи
ээлем
ээлемде
ээлемдер
ээлемдерге
ээлемдерде
ээлемдик
ээлемду
ээлеминде
ээлемниҥ
ээлу
ээчии
эје
эјеган
эјези
эҥ
эҥир
эҥирги
эҥирде
эҥмек
эҥмектиҥ
ю
юар
юбилеи
ювелир
юг
юго
югославияныҥ
югра
юданов
южная
южно
южнои
южном
южные
южныи
южскии
юзеф
юлаевтиҥ
юлиан
юлии
юнеско
юного
юность
юношескии
юридическии
юрии
юрлинскии
юрточныи
юрьевич
юстик
юсьвинскии
юсьвинское
юч
юю
я
яблонка
яблонное
ябоганское
явление
является
являются
ягель
ягодное
ягодныи
ядернои
ядерныи
ядро
ядрозы
яз
язык
языка
языками
языках
языке
языков
языковои
языкознание
языком
яи
яков
якут
якутии
якутия
якутска
ялатов
ялбаков
ялбакова
яломан
ялоу
ямало
яманова
ямышевскии
ян
январь
январьда
января
янганович
яндекс
япониеи
япония
яр
ярмарка
ярославль
ярославльдыҥ
ярославскии
ясень
ясная
ясности
яшьләре
ј
јаа
јааган
јаада
јааи
јаан
јаанаган
јаанадар
јаанадылган
јаанадып
јаанаи
јаанап
јаандары
јаантаи
јааны
јаап
јаар
јаба
јабаган
јабаганда
јабаганныҥ
јабызаган
јабызаи
јабызак
јабызап
јабык
јабылган
јабылып
јабыс
јабыстаи
јада
јадар
јадарга
јадарда
јадат
јадатан
јадаҥдар
јадым
јадын
јадыны
јадып
јажаган
јажы
јажыл
јажына
јажынган
јажытту
јазаар
јазаары
јазаган
јазаи
јазал
јазалган
јазалдар
јазалып
јазап
јазатыр
јазатырдыҥ
јазында
јаи
јака
јакаан
јакааны
јакааныла
јаказы
јаказын
јаказында
јакалаи
јакару
јакарузыла
јакшы
јакшызы
јакылта
јакылтазыла
јал
јалакаи
јалама
јаламан
јаламанныҥ
јалаҥ
јалаҥаи
јалаҥда
јалаҥдар
јалаҥдарда
јалаҥдардыҥ
јалаҥдарлу
јалаҥдары
јалаҥдарында
јалаҥду
јалаҥныҥ
јалаҥы
јалаҥыи
јалаҥында
јалбагаи
јалбагы
јалбак
јалбракту
јалтанбас
јалчы
јалы
јаман
јаманы
јамылу
јана
јанбаган
јанган
јанганы
јандаи
јаны
јаныдо
јаныла
јанын
јанына
јанынаҥ
јанында
јанындо
јаныныҥ
јанып
јапшан
јар
јара
јараа
јараар
јарабас
јарады
јарадыла
јарадылган
јарадына
јарадынаҥ
јарадында
јарадыныҥ
јарадып
јараи
јарамык
јарамыкту
јарандырар
јарандырарга
јарандырылган
јарандырып
јаранып
јарар
јарат
јаратка
јараткан
јаратла
јаратпаган
јаратпаи
јаратсын
јаратта
јараттаи
јараттар
јараттарлу
јараттары
јараттарын
јараттарына
јараттарында
јараттарыныҥ
јараттаҥ
јаратту
јараттыҥ
јараш
јаргак
јаргы
јаргызы
јаргылаган
јаргыныҥ
јаржактар
јаржактардыҥ
јаркынду
јаркынныҥ
јарлаган
јарлалган
јарлалып
јарлар
јарлу
јарлузы
јарлык
јарман
јарманныҥ
јарт
јартаарга
јартаган
јартаи
јарталбаган
јарталган
јартап
јарты
јартына
јарык
јарыктыҥ
јарылып
јарым
јарымдаи
јарымка
јарымортолык
јарымортолыкта
јарымортолыктыҥ
јарымы
јарымында
јарыткан
јас
јасагы
јасак
јасакка
јасактар
јасактарды
јасакты
јасактыҥ
јаскы
јаскыда
јаста
јастанып
јастыра
јастыҥ
јат
јатв
јаткан
јаткандар
јатканча
јатканы
јатканын
јатпаи
јатра
јатса
јаш
јашка
јашканак
јашо
јаштаҥ
јашту
јаштуда
јаҥ
јаҥалбаи
јаҥар
јаҥга
јаҥда
јаҥдар
јаҥду
јаҥды
јаҥжыгол
јаҥжыккан
јаҥмыр
јаҥмырдаҥ
јаҥмырдыҥ
јаҥмырлар
јаҥнаҥ
јаҥныҥ
јаҥы
јаҥызы
јаҥыкаспии
јаҥыла
јаҥын
јаҥына
јаҥынаҥ
јаҥыныҥ
јаҥырта
јаҥыртар
јаҥыртулар
јаҥыртылган
јаҥыртылып
јаҥыс
јаҥыскан
је
јебрен
јебренде
јебреннеҥ
јебренорус
једе
једеле
једер
једерге
једет
једетен
једикпестер
једим
једимдер
једимдери
једимду
једип
једишпеи
јеезе
јеезеге
јеезеде
јеезези
јеезезиле
јеезезинде
јеезезине
јеезезиниҥ
јеезелер
јеезелерге
јеезениҥ
јеекен
јеерен
јеерентаи
јекен
јекјиектиҥ
јекјии
јелбеген
јелезин
јелечи
јемирилип
јепсеер
јепсел
јепселди
јепселдиҥ
јепселду
јепсели
јер
јербои
јерге
јерде
јердеҥ
јерди
јердин
јердиҥ
јери
јериле
јерим
јерин
јеринде
јерине
јеринеҥ
јериниҥ
јерле
јерлер
јерлерге
јерлерде
јерлердеҥ
јерлерди
јерлердиҥ
јерлери
јерлериле
јерлерин
јерлеринде
јерлерине
јерлеринеҥ
јерлериниҥ
јерлерле
јерлерлу
јерлештерге
јерлештерис
јерлик
јерликтер
јерлу
јерсилкиниш
јерсилкиништиҥ
јерјиилек
јес
јети
јетико
јетинчи
јетирген
јетиргениле
јетире
јетирер
јетирерге
јетирери
јетирет
јетирип
јетиру
јетијылдык
јеткелек
јеткен
јеткенис
јеткенче
јеткер
јеткерлер
јеткерлу
јеткил
јеткилдеген
јеткилдегени
јеткилдеер
јеткилдеери
јеткилдеи
јеткилделген
јеткилделгени
јеткилделет
јеткилдеш
јеткилинче
јетпеген
јетпеи
јетре
јеҥ
јеҥген
јеҥдиртип
јеҥдиртиштер
јеҥдирткени
јеҥес
јеҥестер
јеҥил
јеҥип
јеҥу
јии
јиилеги
јиилек
јиилектер
јиилектердеҥ
јиилектердиҥ
јиилекту
јиир
јиит
јиитердиҥ
јииттер
јииттердиҥ
јик
јиктерде
јилбилу
јилбиркеген
јилбиркеп
јип
јирме
јијигеи
јо
јоголгон
јоголо
јоголорго
јоголордо
јоголткон
јоголткондор
јоголтоло
јоголтор
јоголторго
јоголторы
јоголторында
јоголтып
јоголып
јогынаҥ
јодралу
јодро
јодролу
јои
јок
јокко
јокто
јоктоҥ
јокту
јол
јолго
јолдо
јолдор
јолдордо
јолдорды
јолдордыҥ
јолдорло
јолдорлу
јолдоры
јолдорында
јолдорыныҥ
јолдоҥ
јолду
јолдуаи
јолды
јолдыҥ
јолло
јоло
јолои
јолоныҥ
јолы
јолыла
јолын
јолында
јолыныҥ
јон
јонго
јондор
јондорыныҥ
јонды
јондык
јонныҥ
јоны
јоныныҥ
јонјолои
јоон
јоонмои
јопон
јорокон
јоруктап
јорык
јорыкка
јорыктаган
јорыктаи
јорыктап
јорыкчы
јоҥјолои
ју
јуды
јул
јулдыҥ
јулукту
јураар
јураган
јуралган
јурамал
јурамалдар
јуранар
јурген
јурт
јуртаган
јуртаи
јуртап
јуртка
јуртла
јуртсоведи
јуртсоведине
јуртсовет
јуртта
јурттагы
јурттар
јурттарга
јурттарда
јурттарды
јурттардыҥ
јурттарла
јурттары
јурттарына
јурттаҥ
јуртты
јурттыҥ
јуртхоз
јурты
јуртына
јуртында
јуртыныҥ
јуртээлем
јуртээлемде
јуртээлемдик
јуру
јуругы
јурук
јурукта
јуруктар
јуруктардыҥ
јуруктарлу
јуруктары
јурукту
јурукчы
јурукчызы
јурукчылар
јурукчылардыҥ
јурукчыларыныҥ
јут
јутту
јуттыҥ
јуу
јууга
јууган
јуугы
јуугынаҥ
јуугында
јууда
јуудагы
јууи
јуук
јуука
јуукалар
јуукаларла
јуукаларлу
јуукта
јууктаи
јууктап
јуукташ
јуула
јуулажарга
јуулажып
јуулап
јуулар
јууларда
јуулашкан
јуулган
јуулыжатан
јуулыжып
јуулып
јуунаҥ
јуунты
јуунтыда
јуунтызы
јуунтылардыҥ
јуунтылары
јууны
јуунында
јууныҥ
јууп
јуур
јууры
јуучыл
јуучылдар
јуучылдарга
јуучылдардыҥ
јуучылдарына
јуучылдарыныҥ
јуҥма
јуҥмалу
јуҥмалуныҥ
јыбаш
јыга
јыгылган
јыдантык
јыду
јыдугем
јыдукара
јыдуларда
јыдунак
јыл
јылан
јыланду
јыланко
јылантык
јыланјастык
јылаҥаш
јылга
јылда
јылдагы
јылдар
јылдарга
јылдарда
јылдардаҥ
јылдардыҥ
јылдары
јылдарын
јылдарында
јылдаҥ
јылды
јылдыгы
јылдыгына
јылдыгыныҥ
јылдык
јылдын
јылдыс
јылдыстар
јылдыҥ
јылкы
јылмаи
јылу
јылузы
јылулар
јылуныҥ
јылы
јылыи
јылына
јылынаҥ
јылып
јымжак
јымыртка
јыоан
јыра
јыраа
јыраалар
јыракы
јыралар
јыралу
јыргал
јыш
јыштыҥ
јј
ѧ
қо
ҥ
ҥго
ҥдештирзе
ҥди
ҥдо
ҥду
ҥеи
ҥжиген
ҥжик
ҥи
ҥиле
ҥкии
ҥку
ҥло
ҥниҥ
ҥо
ҥу
ҥчабынга
ҥчабында
ү
ә
،
ٕ
​
‎
‐
‑
‒
–
—
―
‘
’
“
”
„
†
•
…
‰
′
″
№
⅓
⅔
←
→
↓
↔
↗
↘
↷
−
√
≈
③
④
⑦
▲
▼
●
☾
✔
⺀
⺄
⺆
⺈
⺊
⺌
⺕
⺝
⺸
⺼
⿰
⿱
⿲
⿳
⿴
⿵
⿶
⿷
⿸
⿹
⿺
⿻
〈
〉
〢
コ
ユ
㇁
㇂
㇄
㇇
㇈
㇉
㇓
㐁
㐄
㐅
㐌
㐫
㐬
㐭
㐮
㐱
㑒
㒵
㒸
㒼
㓁
㓞
㔾
㕛
㕣
㖾
㘝
㚅
㚇
㚔
㚘
㝉
㝡
㝴
㝵
㞋
㞢
㞷
㠩
㠭
㠯
㡀
㡭
㡿
㢲
㢴
㣇
㣺
㥯
㪅
㫄
㫐
㫒
㫺
㬅
㬎
㬥
㬰
㲋
㳄
㷠
㸒
㸚
㸦
㼌
㼲
㽞
㿟
䀠
䂞
䍃
䏍
䒑
䖍
䖒
䖝
䖵
䙴
䚻
䜌
䝿
䡛
䧹
䪞
一
丁
丂
七
丄
丅
丆
万
丈
三
上
下
丌
不
与
丏
丐
丑
专
且
丕
世
丘
丙
业
东
丞
丢
丣
两
严
並
丨
丩
个
丫
丬
中
丮
丰
丱
串
丵
丶
丷
丸
丹
为
主
丽
丿
乀
乂
乃
久
乆
乇
么
义
之
乌
乍
乎
乏
乐
乑
乔
乖
乗
乘
乙
乚
乛
乜
九
乞
也
习
乡
书
乳
乾
亀
亅
了
亇
予
争
事
二
亍
于
亏
亐
云
互
亓
五
井
亘
亚
亜
亞
亟
亠
亡
亢
交
亥
亦
产
亨
亩
享
京
亭
亮
亯
亰
亲
亳
亶
亷
人
亻
亼
亾
仁
今
介
仌
从
仐
仑
仒
仓
仕
他
付
仝
代
令
以
任
企
伊
伏
伐
休
会
伯
但
位
何
佘
余
作
佥
使
來
侈
侌
侖
侯
侵
便
保
俞
信
修
倉
倍
候
倠
備
僉
僕
儿
兀
允
兂
元
兄
充
兆
兇
先
光
兊
克
兌
免
兑
兒
兓
兔
党
兜
兟
入
全
兩
兪
八
公
六
兮
兰
共
关
兵
其
具
典
兹
兼
冀
冂
冃
冄
内
冈
冉
冊
冋
册
再
冎
冏
冐
冒
冓
冖
冗
冘
军
农
冝
冡
冥
冫
冬
冷
几
凡
凢
凵
凶
凷
凸
凹
出
函
凾
刀
刁
刂
刃
刄
刅
分
切
刍
刑
刕
刖
列
刘
则
初
別
利
别
到
制
刺
則
削
剌
前
剡
剽
劉
力
功
加
劦
助
劫
劳
劵
勃
勇
勉
勒
動
務
勞
勤
勹
勺
勻
勾
勿
匀
匂
包
匆
匈
匊
匋
匍
匕
化
北
匚
匝
匡
匪
匱
匸
匹
区
医
匽
匿
區
十
卂
千
卄
卅
卆
升
午
卉
半
卌
华
卑
卒
卓
单
卖
南
卜
卝
卞
占
卡
卢
卣
卤
卦
卩
卪
卬
卯
印
危
即
却
卵
卷
卸
卻
厂
厃
厄
历
厈
厉
厌
厓
厘
厚
原
厤
厥
厨
厭
厲
厶
厷
厸
去
厼
厽
叀
参
參
叅
又
叉
及
友
双
反
叐
发
叒
叔
叕
取
受
叚
叜
叟
口
古
句
另
叩
只
召
可
台
叱
史
右
叵
号
司
叹
吂
各
吅
合
吉
吊
吋
同
名
后
吏
向
吕
君
吝
吞
否
含
启
吳
吴
吹
吾
呂
呆
呈
告
员
呙
周
命
咅
和
咎
咠
咢
咨
咸
咼
哀
品
哉
員
哥
哲
唐
商
啇
問
啚
啬
啻
喀
善
喜
喬
單
喿
嗇
噩
嚴
囊
囗
囘
囙
囚
四
回
囟
因
囧
囬
困
囱
図
囷
固
国
图
圂
圅
國
圍
圓
圖
土
圡
圣
圥
在
圭
地
圶
圼
坐
坒
坚
坴
垂
垔
垚
埀
埋
埶
執
基
堂
堅
堆
堇
堯
塞
墨
壘
士
壬
壯
声
壳
壴
壹
壺
壽
夂
处
夅
夆
备
夊
夋
夌
复
夏
夒
夕
外
夗
夘
多
夜
夢
大
夨
天
太
夫
夬
夭
央
失
夲
头
夷
夸
夹
夻
夾
奂
奄
奇
奈
奉
奎
奏
奐
契
奓
奔
奚
奞
奠
奢
奥
奭
女
奴
奻
好
如
妄
妙
妟
妥
妻
妾
姑
委
姜
威
娄
婁
婴
嬰
嬴
子
孑
孔
孕
孖
字
存
孚
孛
孝
孟
季
孤
学
孫
孱
學
宀
宁
宂
它
宅
宇
守
安
宋
完
宏
宓
宗
官
定
宛
宜
宝
客
宣
室
宮
宰
害
家
容
宾
宿
寄
寅
密
富
寒
察
寧
審
寫
寬
寮
寸
对
寺
寻
寽
対
寿
封
尃
射
将
將
專
尉
尊
尋
尌
對
小
少
尒
尓
尔
尖
尗
尚
尞
尢
尣
尤
尧
尨
尭
就
尸
尹
尺
尻
尼
尽
尾
尿
局
居
屈
屋
屎
屏
屑
展
屖
屚
属
屠
屡
屬
屮
屯
屰
山
屵
屾
岁
岂
岑
岡
岩
岳
岸
峯
島
崇
崑
崔
崖
崙
崩
嵬
嶲
巂
巛
川
州
巟
巠
巢
巤
工
左
巧
巨
巩
巫
差
己
已
巳
巴
巷
巸
巽
巾
巿
帀
市
布
希
帚
帛
帝
带
師
席
帶
常
干
平
年
幵
并
幷
幸
幺
幻
幼
幽
幾
广
広
庄
床
底
店
庚
府
度
庫
庭
庶
康
庸
廉
廌
廛
廣
廩
廴
延
廷
建
廾
廿
开
弁
弃
弄
弇
弋
式
弓
弔
引
弗
弘
弜
弟
弥
弦
弱
張
強
强
彊
彌
彎
彐
彑
当
彔
录
彖
彗
彡
形
彥
彦
彧
彭
彳
役
彼
往
待
律
徒
得
徙
從
復
微
徵
心
忄
必
忌
忍
志
忝
忠
忩
快
念
忽
忿
思
怠
急
怱
恆
恒
恩
恭
息
悉
患
悤
悲
悶
惠
惡
惢
愁
愈
意
愛
感
慈
慧
慮
憂
憲
應
戀
戈
戉
戊
戋
戌
戍
戎
成
我
戒
戔
或
戚
戠
戢
截
戲
戶
户
戹
戼
戾
房
所
扁
扇
手
扌
才
打
托
执
承
折
拉
拜
拿
掌
推
提
摩
支
攴
攵
收
攸
改
放
政
敄
敏
敕
敖
敗
教
敝
敞
敢
散
敦
敫
敬
数
敷
數
斂
文
斉
斊
斗
斤
斥
斩
斬
斯
新
方
於
施
斿
旁
旋
族
无
旡
既
旣
日
旦
旧
旨
早
旬
旱
旲
时
旾
昆
昇
昌
昍
明
昏
易
昔
昗
昜
星
春
昬
是
昱
昴
昷
時
晃
晉
晋
晏
普
景
晶
智
暑
暴
曇
曩
曰
曲
曳
更
曷
書
曹
曼
曾
替
最
朁
會
月
有
朋
服
朔
朕
朗
望
朝
木
朩
未
末
本
札
朮
术
朱
朵
朶
朿
杀
杏
杜
束
条
来
東
杲
杳
松
析
林
枚
果
枝
枲
枼
某
柔
查
柬
柰
柴
栗
桀
桑
桼
梁
條
梟
梨
棘
棠
棥
森
楚
業
楽
榮
樂
樊
欠
次
欣
欮
欲
欶
欽
款
歆
歇
歛
止
正
此
步
武
歨
歪
歮
歯
歰
歲
歴
歷
歸
歹
歺
死
殳
段
殷
殸
殹
殺
殻
殿
毋
毌
母
每
毒
比
毕
毚
毛
毳
氏
氐
民
气
氣
水
氵
氶
氷
永
氺
氾
求
汝
汞
江
沃
沓
沙
沝
河
泉
法
波
泣
泥
泰
洛
洪
活
派
流
浦
浪
浮
淡
淮
清
渚
渠
湯
满
滿
漸
火
灬
灭
灰
灵
灷
炅
炎
炏
炗
炙
炭
為
烈
烏
烝
焉
無
焦
焱
然
煞
熊
熏
燕
營
燮
爪
爫
爭
爯
爰
爱
爲
爵
父
爻
爽
爾
爿
片
牙
牚
牛
牜
牟
牢
牧
牪
牽
犀
犬
犭
犮
狂
狄
狊
独
狺
猋
猒
猪
献
獻
玄
率
玉
王
玟
玨
珎
班
琴
瑟
瑩
瓜
瓦
甘
甚
生
産
用
甫
甬
田
由
甲
申
电
甶
男
甸
甹
画
甾
畀
界
畏
畐
留
畜
畟
畢
畧
畨
番
畫
異
畱
當
畺
畾
疊
疋
疌
疑
疒
疾
癶
癸
癹
登
發
白
百
皀
皃
的
皆
皇
皋
皐
皕
皮
皷
皿
盃
盆
盇
盈
益
盍
盎
监
盒
盖
盛
盡
監
盤
盧
目
直
相
盾
省
眇
眉
看
眔
眞
真
眷
眼
眾
着
睘
睪
睿
瞏
瞢
瞿
矍
矛
矞
矢
矣
知
矦
短
石
破
碎
磊
磨
示
礻
礼
祟
票
祭
禀
禁
禸
禹
禺
离
禽
禾
禿
秀
秃
秉
秋
科
秝
秦
移
稟
穀
穌
穴
究
穹
空
穿
突
窄
窒
立
竒
竜
竝
竟
章
童
竹
笑
笠
筆
等
答
箕
算
箴
節
篤
篭
米
粉
粛
粟
粤
粦
粲
糞
糸
糹
系
約
納
素
索
紫
累
細
絜
絫
絲
維
綿
縣
繇
纍
纟
统
缶
网
罒
罔
罕
罗
罙
罡
罢
罪
署
罷
羅
羊
羌
羍
美
羔
羕
羗
羞
羡
羣
群
義
羲
羸
羽
翁
翏
習
翕
翟
翠
翼
老
耂
考
者
耆
而
耎
耑
耒
耳
耴
耶
耷
聂
聊
聖
聚
聶
聿
肀
肃
肅
肉
肖
肙
肥
肩
肯
育
肴
胃
背
胡
胥
能
脊
脩
膚
臣
臤
臧
自
臬
臭
臯
臱
至
致
臺
臼
臽
臾
臿
舀
舂
舄
與
興
舉
舌
舍
舛
舜
舞
舟
般
艮
良
色
艸
艹
艾
芒
芔
芬
芮
花
芳
芺
芻
苔
苗
苟
若
苦
英
茶
茸
荅
草
荒
荣
荼
莆
莧
莫
莽
菆
菊
菐
華
萨
萬
落
葉
著
葛
董
葵
蒙
蒦
蒼
蓋
蓬
蓺
蔑
蔡
蕉
蕭
薄
薛
薦
薰
藍
藏
藥
蘭
虍
虎
虐
虒
虔
處
虖
虗
虘
虚
虛
虜
虞
虫
虽
蚤
蚩
蜀
蜜
蟲
蠡
血
行
衍
衛
衣
衤
表
衮
衰
袁
袞
褭
褱
襄
襾
西
覀
要
覃
見
規
覓
覧
親
覽
见
角
解
言
訁
訇
計
詹
誩
諸
讠
谷
豆
豈
豊
豐
豕
豖
豙
象
豦
豩
豪
豸
貇
貝
貞
貟
負
貢
貧
貪
貫
責
貳
貴
買
費
賁
資
賈
賏
賓
賔
賛
賞
賢
賣
質
賴
贊
贝
贡
责
贯
贲
贵
赖
赞
赤
赦
走
越
趙
足
路
蹇
身
躬
車
軍
軎
軟
輦
车
辛
辜
辟
辥
辰
辱
農
辵
辶
边
达
过
近
连
迷
追
退
送
逆
逐
通
速
造
逢
連
逮
進
遀
遂
過
道
達
遣
適
遷
遺
邊
邑
邕
那
邦
邪
郎
部
郭
都
鄉
鄞
酉
酋
配
酓
釆
采
里
重
野
量
金
釒
錢
錫
钅
铃
長
镸
长
門
閃
閉
開
閏
閑
閒
間
閔
閵
閻
闌
门
间
闷
阑
阜
阝
阿
降
陳
隆
隊
隋
障
隡
隨
隱
隶
隹
隺
隻
隼
隽
难
雀
雁
集
雈
雋
雍
雐
雔
雙
雚
雜
雝
離
難
雨
雩
雪
雲
零
雷
需
霍
霜
霝
霞
霸
靈
靑
青
非
靡
面
靣
革
韋
韦
韭
韯
韱
音
頁
頃
項
須
頗
頡
頻
顛
页
额
風
风
飛
飞
食
飠
養
館
饣
馆
首
香
馬
馮
駦
马
骨
高
髟
鬥
鬯
鬲
鬼
魚
魯
鮮
鱼
鲁
鳥
鳳
鸟
鹵
鹿
麃
麗
麥
麦
麻
黃
黄
黍
黎
黑
黒
黨
黹
黽
黾
鼎
鼓
鼠
鼻
齊
齋
齐
齒
齿
龍
龙
龜
龟
龠
龰
龱
龴
龵
龶
龷
龸
龹
者
艹
？
📏
𠀁
𠀃
𠀆
𠀉
𠀎
𠀐
𠁁
𠁣
𠂆
𠂇
𠂈
𠂉
𠂊
𠂋
𠂎
𠂒
𠂔
𠂛
𠂡
𠂢
𠂤
𠂬
𠂭
𠂹
𠃊
𠃋
𠃌
𠃍
𠃎
𠃑
𠃓
𠃔
𠃜
𠄌
𠄎
𠄠
𠄢
𠆢
𠆥
𠇍
𠈌
𠌵
𠓜
𠔉
𠔥
𠔼
𠔽
𠔿
𠕀
𠕁
𠕋
𠘧
𠘨
𠙻
𠙼
𠚏
𠚒
𠚤
𠚪
𠣏
𠤎
𠤕
𠥓
𠦄
𠦑
𠦝
𠧒
𠧗
𠧪
𠩺
𠪚
𠫓
𠫔
𠫤
𠬛
𠬝
𠬞
𠬢
𠬤
𠬶
𠮛
𠮦
𠮷
𠯑
𠱠
𠳮
𠷎
𡈼
𡉀
𡉵
𡌥
𡍮
𡏳
𡕒
𡕩
𡕰
𡖅
𡗗
𡗜
𡘆
𡘤
𡧱
𡨄
𡩧
𡬠
𡭽
𡰣
𡰥
𡰪
𡰯
𡰱
𡷈
𡸁
𡿨
𡿩
𡿪
𡿺
𢀖
𢀛
𢀩
𢁙
𢆉
𢆰
𢆶
𢇁
𢇇
𢉖
𢌬
𢌿
𢏚
𢑑
𢑚
𢖻
𢙣
𢛳
𢦏
𢦒
𢧵
𢼄
𢾕
𣁋
𣄼
𣅀
𣅽
𣍘
𣎳
𣎵
𣏋
𣏼
𣗥
𣥂
𣥖
𣦵
𣦼
𣧄
𣪊
𣪠
𣬉
𣳾
𣶒
𤇾
𤊽
𤐫
𤓰
𤔔
𤕨
𤣩
𤰇
𤰔
𤰞
𤴓
𤴔
𤽄
𥁑
𥁕
𥃦
𥃩
𥃭
𥇡
𥑟
𥘅
𥘈
𥝢
𥫗
𥱡
𦈢
𦉪
𦉬
𦉼
𦍌
𦍒
𦎧
𦐇
𦓔
𦔮
𦘒
𦙃
𦚏
𦣝
𦣞
𦣻
𦥑
𦥔
𦥯
𦨉
𦭝
𦰩
𧆞
𧈧
𧘇
𧰨
𧴪
𧴮
𧵩
𧾷
𨸏
𨾴
𩙿
𩠐
𩫏
𩵋
𪉷
𪜀
𪟽
𪠲
𪩲
𫇦
𫔭
𫜸
𫝀
𫠣
𫠩
𫢉
𫥞
𫩏
𫩠
𫪡
𫲽
𫶧
𬀷
𬐘
𬗌
𬙙
𬛸
𬜯
𬟩
𬯁
𬴘
𬺻
𬼉
𬼖
𭀰
𭁈
𭁨
𭅰
𭑈
𭕄
𭗼
𭤨
𭥫
𭻾
𮅕
𮊿
𮍌
𮍏
𮓗
𮥼
𮧮
廾
𰀁
𰀄
𰀈
𰀉
𰀕
𰀠
𰀡
𰀢
𰀪
𰁜
𰃮
𰆊
𰆘
𰋙
𰕎
𰢴
𰧭
𰯲
00--
000--
01--
02--
02000--
03--
04--
05--
1155--
1236--
1301010031211--
1410--
1426--
1465--
1589--
163--
1728--
177--
178--
202--
203--
205--
206--
207--
208--
209--
210--
211--
212--
213--
214--
215--
216--
219--
221--
222--
223--
224--
225--
226--
227--
228--
229--
230--
231--
232--
233--
234--
235--
236--
237--
238--
239--
240--
241--
242--
243--
244--
245--
246--
247--
248--
249--
250--
251--
252--
253--
254--
255--
256--
257--
258--
259--
260--
261--
262--
263--
264--
265--
266--
267--
268--
269--
270--
271--
272--
273--
274--
275--
276--
277--
278--
279--
280--
281--
282--
283--
284--
285--
286--
287--
288--
289--
290--
292--
293--
294--
295--
296--
297--
298--
299--
300--
301--
302--
303--
304--
305--
306--
307--
308--
309--
310--
311--
312--
313--
314--
315--
316--
317--
318--
319--
320--
321--
322--
323--
324--
325--
326--
327--
328--
329--
330--
331--
332--
333--
334--
335--
336--
337--
338--
339--
340--
341--
342--
343--
344--
345--
346--
347--
348--
349--
350--
351--
352--
353--
354--
355--
356--
357--
358--
359--
360--
361--
362--
363--
364--
365--
366--
367--
368--
369--
370--
371--
372--
373--
374--
375--
376--
377--
378--
379--
380--
381--
382--
383--
384--
385--
386--
387--
388--
389--
390--
391--
392--
393--
394--
395--
396--
397--
398--
399--
400--
401--
402--
403--
404--
405--
406--
407--
408--
409--
410--
411--
412--
413--
414--
415--
416--
417--
418--
419--
420--
421--
422--
423--
424--
425--
426--
427--
428--
429--
430--
431--
432--
433--
434--
435--
436--
437--
438--
439--
440--
441--
442--
443--
444--
445--
446--
447--
448--
449--
450--
451--
452--
453--
454--
455--
456--
457--
458--
459--
461--
462--
463--
464--
465--
466--
467--
468--
469--
470--
471--
472--
473--
474--
475--
476--
477--
478--
479--
480--
481--
482--
483--
484--
485--
486--
487--
488--
489--
490--
491--
492--
493--
494--
495--
496--
497--
498--
499--
500--
501--
502--
503--
504--
505--
506--
507--
508--
509--
510--
511--
512--
513--
514--
515--
516--
517--
518--
519--
520--
521--
522--
523--
524--
525--
526--
527--
528--
529--
530--
531--
532--
533--
534--
535--
536--
537--
538--
539--
541--
542--
543--
544--
545--
546--
547--
548--
549--
550--
551--
552--
554--
555--
556--
557--
558--
559--
560--
561--
562--
564--
565--
566--
567--
568--
569--
570--
571--
572--
573--
574--
575--
576--
577--
578--
579--
580--
581--
582--
583--
585--
586--
587--
588--
589--
590--
591--
592--
593--
594--
595--
596--
597--
598--
599--
600--
601--
602--
603--
604--
605--
606--
607--
608--
609--
610--
611--
612--
613--
614--
615--
616--
617--
618--
619--
620--
621--
622--
623--
624--
625--
626--
627--
628--
629--
630--
631--
632--
633--
634--
635--
636--
637--
638--
639--
640--
641--
642--
643--
644--
645--
646--
647--
648--
649--
650--
651--
652--
653--
654--
655--
656--
657--
658--
659--
660--
661--
662--
663--
664--
665--
666--
667--
668--
669--
670--
671--
672--
673--
674--
675--
676--
677--
678--
679--
680--
681--
682--
684--
685--
688--
689--
690--
691--
692--
693--
694--
695--
696--
697--
698--
699--
700--
701--
702--
703--
704--
705--
706--
707--
708--
709--
710--
711--
712--
713--
714--
715--
716--
717--
718--
719--
720--
721--
722--
724--
725--
726--
727--
728--
729--
730--
731--
732--
733--
734--
735--
736--
737--
739--
741--
742--
743--
744--
746--
747--
748--
749--
750--
751--
752--
753--
754--
756--
757--
758--
759--
760--
761--
762--
764--
765--
766--
767--
769--
770--
771--
772--
773--
774--
775--
776--
777--
778--
779--
780--
781--
782--
783--
784--
785--
786--
788--
789--
790--
791--
792--
793--
794--
795--
796--
797--
798--
799--
801--
802--
804--
805--
806--
807--
808--
809--
810--
811--
812--
813--
814--
815--
816--
817--
818--
820--
821--
822--
824--
826--
827--
828--
829--
830--
831--
832--
834--
836--
837--
838--
839--
840--
841--
842--
843--
844--
845--
846--
847--
848--
849--
850--
851--
852--
853--
854--
855--
856--
857--
858--
859--
860--
862--
863--
864--
865--
866--
867--
868--
869--
870--
871--
872--
873--
874--
875--
876--
877--
878--
879--
880--
881--
882--
883--
884--
885--
886--
887--
888--
889--
890--
891--
892--
893--
894--
895--
896--
897--
898--
899--
900--
901--
902--
903--
904--
905--
906--
907--
908--
909--
910--
911--
912--
913--
914--
915--
916--
917--
918--
919--
920--
921--
924--
925--
927--
928--
929--
930--
931--
932--
933--
934--
935--
937--
938--
939--
940--
941--
942--
943--
944--
945--
946--
947--
948--
949--
950--
951--
952--
953--
954--
955--
956--
957--
958--
959--
960--
961--
962--
963--
964--
965--
966--
967--
968--
969--
970--
971--
972--
973--
974--
975--
976--
977--
978--
979--
980--
981--
982--
984--
985--
986--
987--
988--
989--
990--
991--
992--
993--
994--
995--
996--
997--
998--
999--
a--
ab--
abr--
ac--
acti--
actu--
ad--
add--
ae--
ag--
agri--
ak--
al--
alek--
alex--
all--
am--
an--
ap--
app--
append--
ar--
arg--
args--
array--
as--
asso--
at--
atl--
au--
authority--
av--
aver--
award--
b--
ba--
bar--
bd--
be--
bel--
ber--
bi--
biblio--
bio--
bl--
bli--
bo--
bols--
box--
br--
bro--
bu--
c--
ca--
calcu--
cap--
capit--
car--
cat--
category--
ce--
cen--
cfg--
ch--
cher--
chi--
cho--
chr--
ci--
cit--
cite--
co--
coal--
com--
cong--
cont--
contenthosting--
cor--
cr--
cu--
cur--
d--
da--
dar--
dark--
data--
date--
de--
dev--
di--
dir--
dis--
do--
dr--
du--
e--
ea--
ear--
eco--
ee--
eh--
el--
em--
en--
end--
er--
es--
eth--
euro--
ex--
exp--
expand--
extract--
f--
fa--
fac--
fe--
fel--
fet--
fi--
file--
filterby--
find--
finl--
fl--
fo--
football--
for--
format--
fr--
frie--
fu--
g--
ga--
geo--
ges--
get--
getimagefrom--
gi--
gl--
go--
gor--
gr--
gre--
group--
guar--
h--
ha--
ham--
har--
has--
he--
her--
ho--
hor--
hu--
i--
id--
ig--
il--
im--
image--
impl--
in--
inclu--
ind--
indi--
init--
inter--
ir--
ire--
is--
isfdb--
issubp--
it--
j--
ja--
jo--
jou--
jug--
k--
ka--
kar--
ki--
king--
kl--
ko--
kr--
kul--
l--
la--
label--
lam--
lan--
land--
lang--
langref--
le--
lea--
li--
list--
listof--
lo--
loc--
local--
m--
ma--
mainsnak--
make--
map--
mar--
max--
me--
mel--
mer--
mi--
mil--
mm--
mo--
module--
mu--
mur--
my--
n--
na--
nase--
ne--
new--
next--
ni--
nie--
no--
nor--
ns--
nu--
o--
ob--
off--
ok--
on--
or--
os--
p--
pa--
page--
par--
parse--
pavlo--
pay--
per--
pho--
pi--
pl--
pn--
po--
popul--
por--
possible--
pr--
pro--
professions--
pu--
publ--
pur--
q--
qua--
r--
rat--
raw--
re--
ref--
reg--
render--
requ--
ri--
ro--
row--
ru--
rus--
s--
sa--
sch--
scien--
scr--
se--
sel--
ser--
set--
sh--
sha--
sheba--
sho--
show--
si--
sim--
situ--
sk--
sky--
sl--
small--
snak--
so--
some--
source--
sp--
speedskating--
split--
spo--
spr--
src--
st--
stat--
ste--
sto--
str--
stu--
su--
sub--
supp--
suri--
syna--
t--
tak--
tax--
te--
tem--
ter--
th--
theme--
ti--
title--
to--
tr--
tri--
tur--
tw--
type--
u--
un--
unit--
unive--
up--
ur--
us--
use--
v--
ve--
ven--
ver--
vi--
vic--
vir--
vl--
vo--
vto--
w--
wa--
we--
wei--
wiki--
wor--
wr--
x--
xx--
y--
z--
λ--
μ--
π--
а--
аб--
аба--
абрамо--
абх--
ав--
ава--
аве--
авиа--
авс--
авто--
автом--
аг--
ага--
агаш--
аги--
агра--
агро--
ад--
ада--
адвентис--
ади--
адр--
ады--
адыл--
аз--
ази--
аи--
ак--
аква--
акимо--
акс--
акса--
акте--
актив--
акул--
акушер--
ал--
ала--
алба--
албада--
алган--
але--
алжи--
аль--
аля--
ам--
амбар--
амм--
амплит--
амур--
амыр--
ан--
ана--
аналит--
андр--
анкуди--
ано--
аномалия--
антар--
анти--
антич--
антропологиче--
ао--
ап--
ар--
ара--
араб--
арбу--
арбузо--
арга--
аргентин--
аре--
арен--
аристо--
арт--
арта--
артеми--
артыр--
ару--
арх--
архип--
ас--
аспиран--
ассоциирова--
аст--
астаган--
астро--
ат--
ата--
атлетик--
ау--
ауди--
аф--
афанась--
афганис--
ах--
ахтубин--
ач--
аш--
аэро--
аэрокосмиче--
ајык--
аҥ--
аҥдар--
б--
ба--
баже--
база--
бак--
бал--
бала--
бан--
бар--
бара--
бас--
бах--
баш--
башка--
бе--
бед--
без--
бел--
бело--
белогл--
бен--
бер--
берген--
берди--
бердни--
бере--
бесс--
бех--
беш--
би--
библиотеч--
бик--
бил--
билди--
био--
бирик--
бирикти--
бис--
бичи--
бичибе--
бије--
бла--
благо--
благовещен--
блед--
бли--
ближ--
блок--
бо--
боб--
бог--
бога--
богу--
божо--
бозу--
бок--
бол--
болгон--
болзо--
болот--
боль--
бон--
бор--
боре--
боро--
бос--
боч--
бояр--
бра--
браж--
браз--
брат--
братее--
бре--
бро--
брон--
брю--
брюсс--
бу--
буб--
буг--
будак--
букеро--
бума--
бур--
буру--
буры--
бус--
бух--
бухга--
бы--
быв--
быж--
быр--
бырг--
бюдж--
бюджет--
в--
ва--
ваг--
вал--
валь--
ван--
вань--
вар--
варвар--
вас--
вась--
вах--
вв--
вве--
введе--
вдов--
ве--
веде--
ведом--
великом--
вело--
вер--
вереща--
верт--
верх--
верш--
веч--
вещ--
вз--
взаимо--
взя--
ви--
виг--
виз--
визан--
вики--
вин--
виргин--
вирту--
вис--
вит--
витеб--
виш--
вла--
владе--
влади--
вли--
вне--
внеш--
вну--
во--
вод--
вое--
воз--
возв--
воздви--
возне--
вои--
вол--
воло--
волч--
волы--
вольф--
вор--
воскре--
воскресен--
восс--
вп--
вроц--
вс--
все--
вспомога--
вхо--
вы--
выб--
выборг--
выра--
выхо--
выш--
вьет--
вьетнам--
вя--
вязо--
вят--
вячес--
г--
га--
габ--
гав--
гаври--
газ--
гак--
гали--
галь--
ган--
ганд--
гар--
гаф--
гв--
ге--
гек--
ген--
гео--
геом--
геоморфологиче--
ги--
гиб--
гидр--
гидро--
гидрони--
гим--
гир--
гл--
гла--
глав--
глобаль--
глу--
глухо--
гля--
го--
голла--
голланд--
голо--
голу--
гончар--
гор--
горе--
горно--
горьков--
гос--
гра--
гравитаци--
гравитацион--
градострои--
грамот--
граф--
гре--
гремя--
гремячин--
гри--
григоро--
григорье--
гро--
гряз--
гу--
губ--
губахин--
губерн--
гур--
гыр--
д--
да--
давы--
дан--
данило--
дар--
дат--
дач--
дв--
двига--
дворян--
де--
дезин--
дек--
дель--
демон--
денеж--
дени--
дер--
дербент--
деревян--
деся--
дет--
дж--
дже--
ди--
диагно--
дизель--
длин--
дми--
дмитрие--
днев--
до--
доб--
добав--
добавле--
добро--
док--
дон--
допол--
дореволюцион--
доро--
доход--
др--
драк--
древ--
древнетюрк--
дрес--
дру--
ду--
дуб--
дубе--
дубро--
духо--
духов--
ды--
дыш--
дя--
е--
ева--
евдо--
евро--
еди--
един--
еже--
ек--
екат--
ел--
еле--
ело--
ель--
енчи--
епархиаль--
епиш--
ер--
ермо--
есте--
ет--
еф--
ефимо--
ефре--
ефремо--
ж--
жал--
жан--
жд--
же--
жел--
жен--
жи--
живо--
живопис--
жил--
жиро--
жу--
з--
за--
зав--
загряз--
заж--
закры--
зал--
залес--
зам--
заня--
зап--
зару--
зат--
зах--
защ--
защит--
заяв--
заҥ--
зва--
зво--
зе--
зела--
земле--
земщ--
зен--
зер--
зи--
зла--
зло--
зна--
знаме--
значи--
зо--
зодче--
зоо--
зри--
зу--
зубр--
зы--
и--
ив--
ива--
иг--
иги--
игна--
идентификат--
иже--
из--
изб--
избран--
изве--
извест--
изоб--
ии--
ик--
икко--
ил--
иллю--
иль--
ильин--
им--
име--
ин--
инде--
инду--
инин--
инициа--
иност--
интел--
интер--
ио--
иран--
ирла--
ис--
исла--
испол--
исполни--
исследователь--
исте--
истреби--
ит--
ич--
иш--
ию--
к--
ка--
кабель--
кадр--
каз--
каза--
казы--
кал--
кале--
кален--
калин--
кам--
камер--
камчат--
кан--
кап--
кар--
кара--
карель--
кас--
кат--
катун--
кафе--
кац--
кач--
качин--
каш--
каҥ--
кв--
ква--
квалиф--
ке--
кебе--
кеенди--
кеер--
кел--
кем--
кен--
кер--
керче--
кесте--
кеч--
ки--
кижи--
кин--
кино--
кир--
кирген--
киргиз--
кире--
кири--
киро--
кис--
киф--
киш--
кл--
кла--
клав--
клад--
кле--
клиник--
клю--
ключе--
км--
кн--
кня--
княже--
ко--
коб--
ков--
кож--
кожо--
кожу--
коз--
кол--
колес--
колле--
коллекто--
коло--
ком--
коман--
команд--
комаро--
комен--
комму--
компле--
компью--
кон--
конг--
конгре--
конгресс--
кондр--
коно--
конституцион--
конструк--
консуль--
контр--
конфи--
конц--
конь--
коо--
коп--
кор--
коркы--
корп--
корса--
коряк--
космиче--
коспаш--
кот--
коте--
коч--
кош--
кра--
крам--
крас--
красно--
кре--
кредит--
крем--
кри--
крис--
критиче--
кру--
круп--
кры--
крю--
кси--
ку--
куба--
кубул--
куз--
кузь--
кул--
кур--
куро--
курчу--
куу--
куул--
куур--
куш--
кх--
кы--
кыл--
кып--
кыр--
кыс--
кычы--
кыш--
л--
ла--
лав--
лава--
лаге--
лагу--
лазер--
лак--
лан--
ландшаф--
ландшафт--
лат--
лд--
ле--
лебе--
леги--
ледо--
лен--
лень--
лес--
лесо--
лет--
ли--
либе--
либкнех--
лии--
лик--
лин--
лип--
ло--
лоба--
лов--
лож--
лок--
лом--
ломо--
лу--
луб--
луго--
луж--
луч--
лы--
лык--
ль--
лю--
люб--
люби--
ля--
ляп--
м--
ма--
мав--
маг--
магис--
маж--
мак--
макаро--
макарье--
маке--
мал--
мало--
маль--
ман--
мар--
марк--
мас--
маска--
матро--
мах--
маш--
маҥ--
маҥта--
мде--
ме--
мега--
мед--
медицин--
мее--
меж--
меле--
мель--
мельнико--
мен--
мер--
место--
мете--
метеоро--
мето--
меч--
ми--
мик--
микро--
мин--
мини--
мир--
митин--
митро--
миф--
мих--
мичурин--
миш--
мо--
мож--
мок--
мол--
молч--
мон--
мор--
мора--
моск--
москвич--
мохо--
моч--
мош--
мс--
му--
муж--
музык--
мул--
муль--
мультип--
мур--
мурман--
мух--
муха--
муҥ--
мы--
мык--
мыл--
мыр--
мэр--
мюн--
мя--
мяс--
н--
на--
наблю--
навигацион--
наз--
назы--
нар--
нас--
насчи--
нахич--
нац--
нач--
началь--
нбадыш--
нг--
нде--
не--
недо--
незав--
неи--
нек--
неке--
некра--
необхо--
непо--
нер--
неф--
нефт--
нефте--
ни--
ниж--
ниже--
нижне--
низ--
ник--
нно--
но--
нобеле--
ново--
нор--
нормаль--
ноткы--
ноч--
нояб--
ну--
нуж--
нчыгыш--
ны--
о--
об--
оба--
обком--
обл--
областниче--
облис--
оборо--
оборони--
обраба--
образец--
образова--
обсерва--
обухо--
обще--
обществе--
обязанно--
обязатель--
овся--
од--
одер--
оз--
озо--
ок--
окку--
ол--
оле--
олене--
олимпи--
оль--
ом--
омич--
он--
оп--
оппо--
ор--
орби--
оре--
ореш--
орныкты--
оро--
орт--
орто--
ору--
ос--
осад--
осе--
оси--
оско--
осо--
ост--
осуще--
ось--
от--
отече--
отк--
отлич--
отрас--
отс--
отсут--
оттеп--
отур--
отход--
оф--
офис--
офиц--
офтальмо--
ох--
охот--
охран--
оч--
оче--
ош--
ошиб--
оҥ--
оҥдо--
п--
па--
пале--
палео--
палеон--
паль--
пан--
панф--
пар--
пара--
парам--
парт--
парус--
пас--
патен--
патр--
пау--
пах--
паш--
пг--
пе--
пединсти--
педу--
пен--
пер--
перво--
пере--
перин--
пермяк--
перспе--
песч--
пет--
пех--
печ--
печат--
пи--
пионер--
пиро--
пла--
план--
плат--
пле--
племен--
пло--
пля--
по--
побе--
пове--
пог--
под--
подоль--
пож--
поз--
позво--
поздне--
показа--
пол--
поли--
политичес--
поло--
половин--
полу--
полю--
пом--
пос--
посоль--
пост--
поче--
появ--
пр--
пра--
праж--
прак--
пре--
преам--
пред--
предо--
представит--
представитель--
преду--
преоб--
преобраз--
прес--
при--
приб--
приз--
прилив--
принцес--
принцип--
приоб--
про--
продоволь--
проез--
производ--
промышлен--
просв--
проф--
прох--
пру--
прудо--
пря--
псев--
пси--
псих--
пу--
публич--
пулков--
пур--
пус--
пусто--
путе--
пуэр--
пчи--
пшенич--
пы--
пь--
пя--
р--
ра--
рав--
радио--
радонеж--
раду--
раз--
разв--
раздоль--
ралдаткан--
ран--
рас--
расположе--
распоряже--
распро--
расс--
расхо--
расш--
рат--
рахманино--
рбе--
ре--
рев--
ред--
рее--
рекреацион--
рель--
ренес--
рента--
ресто--
рет--
реч--
реш--
ри--
рис--
рих--
рк--
рке--
рме--
рн--
ро--
ров--
род--
роди--
рож--
рожд--
рок--
роль--
рос--
рот--
рт--
ру--
руб--
руд--
рукавиш--
рус--
ры--
рыб--
рыцарь--
ря--
ряб--
ряз--
рязан--
рязано--
с--
са--
саба--
сав--
сад--
садо--
садовод--
сак--
сал--
салда--
салехард--
сам--
само--
самостоя--
сан--
санти--
сап--
сар--
сары--
сафро--
саян--
сб--
сбор--
св--
сверд--
свердлов--
свет--
светофор--
сви--
свияж--
свя--
связан--
священ--
сд--
се--
севастьяно--
седь--
сек--
сексу--
сель--
сер--
серо--
си--
сиб--
сив--
сидор--
силки--
силь--
сим--
симферо--
син--
синтетиче--
сит--
ск--
ска--
ски--
ско--
сла--
слав--
сле--
сли--
сло--
слу--
служ--
служеб--
см--
смешан--
смиче--
смо--
сне--
сни--
сно--
сня--
со--
соб--
сов--
совершен--
совре--
соглас--
сое--
соеди--
соз--
сок--
сол--
солнеч--
солом--
солон--
сон--
соол--
соответ--
соој--
сос--
сото--
соф--
сох--
соц--
спас--
спец--
спи--
сплав--
спорт--
срав--
сравни--
сред--
средне--
сс--
ст--
ста--
стандар--
старо--
старооб--
статистиче--
ствит--
сте--
стене--
сти--
стих--
стихотв--
сто--
стои--
столыпи--
сточ--
стр--
стро--
строи--
су--
суб--
субси--
суга--
суд--
судь--
сук--
сум--
сун--
сур--
суу--
сух--
суще--
схо--
сы--
сыл--
сыр--
сыс--
сю--
т--
та--
так--
тал--
тало--
там--
тан--
тапоч--
тар--
тарка--
тас--
таска--
тач--
таҥ--
тв--
творче--
те--
теге--
текши--
теле--
телерадио--
тем--
темер--
теоретиче--
теп--
тер--
терра--
терри--
тес--
тех--
техно--
теҥ--
ти--
тимо--
тиски--
титу--
тиф--
тих--
тиш--
ткан--
ткен--
то--
тоболь--
това--
товарище--
тог--
тозы--
ток--
токто--
тол--
толку--
том--
тон--
топлив--
точ--
тоҥ--
тпа--
тр--
тра--
традицион--
тран--
транс--
тре--
три--
тро--
трофимо--
трош--
тру--
труб--
трубопро--
трут--
ту--
тув--
туду--
тудул--
тудун--
тузалан--
тум--
тур--
тура--
турат--
турга--
турни--
турчызы--
тус--
тут--
тутур--
туу--
туш--
тх--
ты--
тыш--
тю--
тюле--
тюлень--
тюль--
тюмен--
тюрк--
тюрко--
тюх--
у--
уби--
увели--
уга--
углевод--
угор--
угу--
уда--
удаба--
удур--
ужо--
уз--
уза--
узун--
ук--
укта--
ул--
улал--
улалт--
уль--
ум--
умер--
ун--
универ--
унич--
ур--
ураль--
уруш--
ус--
успен--
уста--
ут--
уточ--
утр--
уул--
уулч--
уфим--
ух--
уч--
участ--
уче--
учитель--
учредит--
учуш--
уш--
ф--
фадее--
фаза--
фак--
фан--
фантасти--
фар--
фарма--
фармацевтиче--
фас--
фе--
фев--
федератив--
федо--
фельдшер--
фео--
фер--
фи--
фигур--
фил--
фила--
филар--
филологиче--
фин--
финан--
фир--
фло--
фок--
фор--
фосф--
фосфорес--
фото--
фунда--
фундамен--
фю--
х--
хан--
хар--
харит--
хвалын--
хво--
хи--
хим--
хлебо--
хме--
хо--
ходын--
хок--
хол--
холдинг--
холми--
хоро--
хох--
хро--
хроно--
ху--
хур--
ц--
цар--
цв--
цвет--
це--
цел--
цер--
цесар--
цив--
цикло--
циф--
цифро--
цы--
ч--
ча--
чак--
чан--
чап--
чар--
час--
чач--
чачынты--
чащ--
че--
чек--
чел--
человече--
чене--
чер--
черн--
черномор--
черносотенец--
чернояр--
чест--
чех--
чехо--
чеч--
чи--
чил--
чо--
чу--
чул--
чур--
чы--
чык--
чын--
ш--
ша--
шабу--
шав--
шал--
шаман--
шан--
шар--
шат--
шах--
шахма--
ше--
шекс--
шел--
шер--
шереметье--
шес--
ши--
шибее--
шил--
шим--
шин--
шип--
широко--
широта--
ширт--
шиш--
шишки--
шиҥ--
шлю--
шлюз--
шор--
шос--
шта--
штраф--
шу--
шуль--
шум--
шуми--
шуш--
шы--
шыл--
шылтак--
шыр--
щ--
ще--
щепки--
щер--
ы--
ык--
ыл--
ым--
ын--
ыра--
ыс--
э--
эби--
эва--
эде--
эдек--
эди--
эжи--
эзе--
эк--
эки--
эко--
эколог--
экологиче--
экономичес--
экспедицион--
эксплу--
эл--
элбе--
элек--
электр--
электро--
электроб--
эль--
эльб--
эм--
эмб--
эмде--
эн--
эне--
энерго--
эп--
эпи--
эпоха--
эр--
эрн--
эрте--
эрј--
эс--
эссе--
эстр--
эт--
этниче--
этно--
эф--
эфи--
ээжи--
ээл--
ю--
юг--
юношес--
юрье--
юсту--
я--
ядер--
яз--
яков--
яку--
ялтин--
ян--
яно--
яр--
яро--
яросла--
яс--
ясаш--
ј--
ја--
јаан--
јал--
јалбы--
јамы--
јанды--
јапш--
јапшыр--
јар--
јара--
јарла--
јарт--
јарым--
јарыт--
јат--
јатыр--
јаҥжыгу--
јаҥы--
је--
јее--
јел--
јемир--
јер--
јет--
јети--
јеҥ--
јилбирке--
јо--
јобол--
јогол--
јок--
јокту--
јол--
јорук--
ју--
јурт--
јут--
јууган--
јуун--
јы--
јыл--
јылда--
јымж--
јыҥ--
җыл--
ҥ--
ҥдешти--
--0
--00
--000
--004
--006
--007
--008
--009
--01
--010
--011
--012
--013
--016
--017
--02
--022
--023
--024
--025
--028
--029
--03
--030
--031
--032
--035
--036
--037
--038
--039
--04
--040
--042
--043
--044
--045
--046
--047
--048
--049
--05
--050
--051
--052
--053
--054
--056
--057
--06
--061
--062
--063
--066
--067
--069
--07
--070
--071
--072
--073
--074
--075
--076
--077
--079
--08
--080
--081
--082
--083
--085
--087
--088
--09
--090
--091
--092
--093
--096
--097
--098
--099
--1
--10
--100
--102
--103
--104
--106
--108
--109
--11
--110
--111
--114
--117
--118
--119
--12
--121
--123
--124
--128
--13
--132
--134
--135
--136
--137
--14
--140
--142
--144
--145
--149
--15
--152
--154
--155
--156
--157
--16
--161
--162
--163
--164
--168
--169
--17
--170
--171
--172
--173
--176
--178
--18
--182
--184
--186
--187
--19
--190
--191
--192
--194
--195
--196
--197
--199
--2
--20
--200
--201
--203
--206
--208
--21
--210
--215
--218
--219
--22
--220
--222
--223
--224
--226
--227
--229
--23
--230
--233
--234
--236
--238
--24
--240
--241
--245
--246
--248
--25
--251
--252
--254
--256
--257
--26
--261
--262
--263
--265
--268
--27
--272
--273
--274
--278
--279
--28
--282
--283
--285
--286
--287
--289
--29
--292
--294
--295
--297
--298
--299
--3
--30
--300
--301
--302
--304
--305
--308
--309
--31
--312
--319
--32
--321
--323
--33
--330
--331
--334
--335
--336
--338
--34
--342
--344
--348
--35
--350
--352
--355
--358
--359
--36
--363
--364
--365
--366
--37
--370
--371
--372
--374
--378
--379
--38
--381
--382
--384
--386
--387
--389
--39
--390
--391
--393
--394
--396
--397
--398
--4
--40
--400
--403
--405
--406
--407
--408
--41
--410
--414
--416
--417
--418
--419
--42
--422
--424
--426
--427
--43
--430
--431
--433
--436
--44
--440
--443
--444
--446
--447
--448
--449
--45
--450
--451
--452
--453
--457
--458
--46
--461
--463
--465
--467
--468
--469
--47
--471
--472
--474
--475
--476
--48
--480
--481
--482
--484
--486
--488
--489
--49
--491
--493
--494
--495
--497
--499
--5
--50
--500
--501
--502
--503
--506
--507
--508
--509
--51
--511
--513
--514
--515
--516
--517
--518
--52
--523
--525
--526
--528
--529
--53
--530
--531
--532
--533
--535
--536
--538
--539
--54
--540
--541
--542
--544
--545
--546
--548
--549
--55
--550
--551
--552
--553
--556
--557
--558
--56
--560
--562
--563
--566
--568
--569
--57
--570
--571
--574
--575
--576
--577
--58
--583
--586
--587
--589
--59
--590
--591
--592
--597
--598
--599
--6
--60
--600
--602
--603
--605
--606
--61
--616
--617
--618
--619
--62
--620
--621
--622
--626
--627
--628
--63
--631
--636
--64
--641
--643
--645
--646
--648
--649
--65
--653
--654
--655
--656
--657
--659
--66
--660
--662
--663
--665
--667
--67
--671
--672
--673
--674
--675
--676
--677
--679
--68
--680
--681
--682
--683
--684
--686
--687
--688
--69
--690
--693
--694
--699
--7
--70
--700
--701
--703
--707
--71
--710
--712
--713
--715
--716
--717
--718
--719
--72
--721
--723
--725
--726
--727
--73
--730
--731
--733
--736
--737
--738
--74
--740
--743
--745
--746
--748
--75
--750
--751
--754
--755
--757
--758
--759
--76
--760
--764
--766
--767
--769
--77
--772
--773
--774
--776
--78
--780
--781
--784
--785
--786
--789
--79
--790
--791
--792
--793
--797
--798
--799
--8
--80
--800
--801
--806
--808
--81
--811
--812
--813
--815
--817
--818
--819
--82
--820
--822
--823
--824
--825
--828
--83
--830
--833
--834
--835
--836
--838
--839
--84
--840
--841
--842
--845
--847
--849
--85
--851
--853
--855
--857
--858
--859
--86
--860
--863
--865
--866
--867
--868
--869
--87
--871
--872
--874
--876
--878
--88
--880
--883
--885
--886
--887
--888
--889
--89
--890
--891
--895
--896
--898
--9
--90
--900
--901
--908
--91
--910
--911
--915
--917
--918
--919
--92
--921
--922
--923
--924
--925
--927
--928
--929
--93
--930
--931
--933
--934
--937
--938
--94
--940
--941
--944
--95
--950
--952
--953
--955
--96
--960
--961
--962
--965
--966
--969
--97
--971
--972
--974
--975
--976
--98
--980
--981
--982
--983
--984
--985
--99
--990
--991
--992
--994
--998
--a
--ad
--age
--ah
--ai
--al
--an
--ana
--ani
--ar
--ard
--area
--arg
--args
--ary
--as
--at
--ate
--ation
--au
--ay
--aya
--b
--ball
--basket
--be
--berg
--ble
--box
--brainz
--buch
--byvalue
--c
--ca
--cat
--ce
--ces
--ch
--che
--chen
--ck
--claim
--claims
--cloud
--co
--ct
--cum
--d
--data
--date
--de
--dms
--do
--ds
--dy
--e
--ea
--ed
--ei
--ek
--el
--en
--ent
--entity
--entityid
--er
--eria
--ers
--ert
--es
--essions
--et
--ev
--ex
--ext
--ey
--f
--ff
--fic
--frame
--func
--fy
--g
--ga
--ge
--ger
--ght
--gi
--gris
--gs
--gue
--h
--hash
--header
--hen
--her
--hing
--holder
--ht
--i
--ia
--ial
--ian
--ias
--ib
--ic
--ics
--id
--ida
--ie
--ied
--ies
--ig
--ige
--ii
--im
--impl
--in
--ine
--ing
--ings
--ink
--io
--ion
--ions
--ir
--is
--ise
--ities
--ity
--ium
--ius
--ive
--iya
--ize
--ized
--j
--k
--ka
--ke
--ken
--ker
--key
--ki
--kov
--ky
--l
--la
--label
--ld
--le
--ler
--link
--links
--lis
--list
--ll
--lla
--lls
--lo
--ls
--ly
--m
--ma
--me
--ment
--n
--na
--name
--nce
--nd
--ne
--ner
--ng
--ni
--nia
--nian
--ning
--no
--ns
--nt
--nus
--o
--ofpages
--ol
--om
--on
--only
--op
--or
--order
--ort
--ory
--os
--ot
--ous
--ov
--ova
--ovsky
--ow
--owa
--own
--p
--pe
--port
--ps
--pus
--q
--r
--ra
--rank
--rary
--rd
--re
--ri
--ria
--rial
--ris
--rk
--rl
--rn
--rs
--rt
--rta
--rten
--ru
--ry
--s
--sc
--se
--sed
--selements
--sgi
--sh
--ship
--si
--sion
--sis
--sky
--slink
--sme
--snak
--son
--sproperties
--ss
--st
--stat
--ster
--str
--style
--t
--ta
--tal
--tamp
--te
--ted
--ten
--ter
--tes
--text
--th
--thing
--time
--ting
--tion
--title
--tocheck
--ton
--tor
--ts
--ty
--tyle
--type
--u
--udy
--ue
--ula
--um
--ung
--unit
--up
--ur
--ure
--url
--us
--ut
--v
--va
--val
--value
--ve
--very
--vo
--vskaya
--w
--x
--y
--ya
--ys
--z
--za
--zi
--zine
--ι
--ν
--а
--аа
--ав
--ава
--авино
--авия
--ага
--аган
--ад
--ада
--ади
--ады
--ае
--аев
--аево
--ает
--ается
--аж
--азы
--азына
--азында
--аи
--ак
--ака
--аков
--ал
--ала
--али
--ализация
--алтаи
--алы
--алык
--альныи
--ам
--ама
--ами
--ан
--ана
--ание
--ания
--анного
--анных
--анты
--аны
--аныҥ
--ань
--ап
--апия
--ар
--ард
--арда
--ардыҥ
--аре
--арев
--ари
--арии
--ариха
--арк
--аров
--ары
--ас
--асия
--ась
--ат
--атель
--атика
--атикалык
--атка
--атор
--атывающии
--ать
--ау
--афия
--ах
--ахта
--ации
--ация
--ацияга
--ациязы
--ациялар
--ацияныҥ
--ачы
--аш
--ая
--аҥ
--б
--ба
--баган
--баев
--баи
--бас
--бе
--берг
--бес
--бка
--бки
--бос
--бр
--бу
--бурх
--бы
--в
--ва
--вания
--ваны
--вать
--вая
--ве
--вер
--ви
--вик
--вин
--вино
--вис
--вить
--вич
--вка
--вки
--вко
--вна
--внои
--во
--водка
--вое
--вои
--вр
--вскии
--вского
--вское
--вство
--вта
--втиҥ
--втыҥ
--вш
--вы
--вые
--выи
--вых
--вь
--г
--га
--гаи
--галак
--ган
--гар
--гаш
--гва
--ге
--гем
--ген
--геш
--ги
--гии
--гия
--го
--гр
--граф
--графии
--гу
--гул
--гы
--гын
--гында
--гыныҥ
--д
--да
--даган
--дагы
--дае
--даи
--дак
--далган
--дан
--дап
--дар
--дарга
--дарды
--дардыҥ
--дарла
--дарлу
--дары
--дат
--даш
--даҥ
--де
--деево
--деп
--дер
--дерге
--дерди
--дердиҥ
--дери
--дерин
--деҥ
--джи
--ди
--дии
--дин
--дина
--дино
--дип
--диха
--дия
--диҥ
--дка
--до
--дов
--дово
--догон
--дои
--доп
--дор
--доры
--дорына
--дорыныҥ
--доша
--дошка
--доҥ
--дра
--дта
--ду
--дцы
--ды
--дыи
--дын
--дыҥ
--дь
--дье
--дя
--е
--ев
--ева
--евка
--ево
--евтиҥ
--ед
--еде
--еди
--ее
--еев
--еево
--еж
--еи
--ек
--еков
--ел
--еле
--елеи
--елер
--ели
--ело
--елы
--ель
--еля
--ем
--емые
--ен
--ена
--ени
--ение
--ения
--ениҥ
--енко
--енного
--ено
--ены
--ень
--еп
--ер
--ера
--ери
--ес
--ест
--ести
--ет
--ется
--еф
--ех
--ец
--ецкии
--ецтер
--еш
--ешев
--ея
--еҥ
--ж
--жа
--жаи
--жар
--жарда
--жатан
--жать
--же
--жеи
--жения
--жи
--жии
--жка
--жы
--жын
--жып
--жье
--жья
--з
--за
--заев
--закон
--зания
--зать
--зе
--зи
--зии
--зиле
--зин
--зинде
--зине
--зиха
--зия
--зм
--зо
--зов
--золистыи
--зу
--зы
--зыла
--зымак
--зын
--зына
--зынаҥ
--зында
--зыныҥ
--зып
--зь
--зя
--и
--иал
--иально
--иб
--ив
--ивныи
--ид
--ида
--ие
--изация
--изациязын
--изировать
--изм
--изма
--ии
--ик
--ика
--икалык
--ике
--ики
--ико
--иков
--ил
--ила
--иле
--ились
--илов
--илово
--илось
--ился
--ильно
--им
--ими
--имо
--ин
--ина
--инация
--инг
--инде
--ине
--инеҥ
--иниҥ
--инка
--ино
--инов
--инскии
--ину
--ины
--ип
--ир
--ира
--ирование
--ировать
--ирует
--ируется
--ис
--ислав
--ист
--истан
--истанда
--история
--исттер
--ись
--ит
--ители
--итель
--ительно
--итно
--ится
--иты
--ить
--ификация
--их
--иха
--ихинскии
--иц
--ица
--ицы
--ич
--ическая
--ически
--ические
--ическии
--ических
--ического
--ическое
--ическои
--ичная
--ично
--иш
--ищи
--ию
--ия
--ияга
--ияда
--иязы
--иялык
--ияны
--ияныҥ
--иҥ
--к
--ка
--кабель
--када
--казы
--кан
--категория
--кашев
--кая
--ке
--кен
--ки
--кие
--кии
--кин
--кина
--кино
--ких
--ко
--ков
--кова
--ково
--кого
--кое
--кт
--кта
--ктар
--ктор
--кту
--ктыҥ
--ку
--кут
--кция
--кша
--кы
--л
--ла
--лаар
--лак
--лакта
--лан
--ланган
--лап
--лар
--ларга
--ларда
--лардаҥ
--ларды
--лардыҥ
--ларла
--лары
--ларыла
--ларын
--ларына
--ларыныҥ
--лат
--лбас
--лган
--лгон
--лда
--лдыҥ
--ле
--леи
--лек
--ление
--лению
--ления
--лер
--лерди
--лердиҥ
--лери
--лза
--ли
--лик
--лист
--лиха
--личного
--лия
--лка
--ло
--лов
--ловыи
--лон
--лор
--лордыҥ
--лоры
--лось
--лу
--лы
--лые
--лыи
--лык
--лып
--лых
--ль
--льд
--льно
--льные
--льныи
--льным
--лю
--ля
--ляет
--лять
--м
--ма
--мас
--маш
--мда
--ме
--мет
--ми
--мия
--мо
--мов
--мок
--му
--мы
--н
--на
--нак
--нар
--нат
--ная
--наҥ
--нг
--нга
--нган
--нгол
--нд
--нда
--ндар
--нде
--нды
--не
--нево
--нец
--неҥ
--ни
--ниги
--ние
--нии
--ник
--ника
--ников
--нин
--нино
--ниха
--ница
--нию
--ния
--нияныҥ
--ниҥ
--нка
--нки
--нко
--нконыҥ
--нло
--нная
--нно
--нного
--нное
--ннои
--нном
--нную
--нняя
--но
--нов
--ного
--ное
--нои
--ном
--ности
--ность
--ноҥ
--нс
--нск
--нскии
--нское
--нт
--нта
--нтов
--нты
--ну
--ную
--нц
--нцы
--нча
--ны
--ные
--ныи
--ным
--ными
--нын
--нып
--ных
--ныҥ
--нь
--нье
--нька
--ньле
--нья
--ня
--нята
--нять
--няя
--о
--обороды
--ов
--ова
--овать
--овая
--ович
--овка
--овки
--овко
--овна
--ово
--ового
--овое
--овои
--овскии
--овское
--овскои
--овто
--овтор
--овты
--овтыҥ
--овцы
--овые
--овыи
--овых
--ог
--огии
--огия
--ого
--од
--одо
--ое
--оения
--ои
--ок
--ол
--олняется
--олог
--ологии
--ология
--ологияныҥ
--оль
--ом
--ома
--он
--онлаи
--ообразныи
--ор
--ории
--ория
--орныи
--ос
--ось
--от
--ота
--оте
--отка
--охи
--охово
--очныи
--ояние
--п
--па
--паи
--пас
--пация
--пи
--пил
--пино
--пись
--пия
--пле
--по
--пов
--пово
--пок
--полис
--пс
--пу
--пус
--пы
--р
--ра
--рар
--рга
--рган
--рганы
--рго
--рд
--рда
--рдаҥ
--рде
--рдиҥ
--рдо
--рды
--рдыҥ
--ре
--рев
--рево
--реи
--ри
--рии
--риха
--рия
--рка
--рла
--рло
--рлу
--рм
--рно
--ро
--ров
--рования
--рос
--рс
--рсии
--рт
--рткан
--ртып
--ру
--рх
--ры
--рыв
--рыла
--рын
--рына
--рында
--рыныҥ
--рып
--рь
--рья
--ря
--с
--са
--саи
--се
--сец
--си
--сии
--ск
--ская
--ские
--скии
--ским
--скими
--ских
--ско
--ского
--ское
--скои
--ском
--скому
--скую
--сла
--со
--сов
--сон
--сс
--сса
--ст
--стве
--ство
--сти
--стныи
--сты
--стыҥ
--сть
--су
--сук
--суу
--сы
--сь
--сье
--ся
--т
--та
--таар
--таары
--таза
--таи
--талган
--тан
--тап
--тар
--тарга
--тарда
--тардаҥ
--тарды
--тардыҥ
--тарла
--тарлу
--тары
--тас
--таш
--таҥ
--тва
--те
--тегория
--тельно
--теля
--тер
--терапия
--терге
--тердеҥ
--терди
--тердиҥ
--тери
--терин
--териниҥ
--терле
--терлу
--теҥ
--ти
--тика
--тики
--тин
--тить
--тиха
--тич
--тическии
--тия
--тиязы
--тиҥ
--тка
--тки
--тно
--то
--тов
--това
--тово
--тон
--тор
--торго
--тордо
--торды
--тордыҥ
--торлу
--торы
--тоҥ
--тро
--тс
--тся
--тт
--ттар
--ттыҥ
--ту
--ты
--тые
--тыи
--тык
--тын
--тыр
--тырган
--тыҥ
--ть
--тьево
--ться
--у
--уд
--ует
--уз
--уи
--ук
--указ
--укция
--ул
--ула
--ум
--ун
--уново
--уныҥ
--уп
--ур
--ура
--ург
--уры
--ус
--ут
--уха
--учин
--уш
--уша
--ушка
--ую
--ующие
--уя
--ф
--фа
--фии
--фия
--х
--ха
--хи
--хино
--хо
--хов
--хово
--хронограф
--ц
--ца
--ци
--ции
--цино
--ционныи
--цию
--ция
--цияга
--цияда
--циязы
--цияла
--цияныҥ
--цкии
--цо
--цов
--цово
--цы
--ч
--ча
--чак
--чая
--че
--чев
--чева
--чек
--ческии
--чи
--чиги
--чие
--чик
--чиков
--чиха
--чка
--чки
--чно
--чного
--чныи
--чо
--чы
--чылар
--чь
--чье
--чья
--ш
--ша
--шата
--ше
--шев
--шево
--шения
--шер
--ши
--шин
--шино
--шка
--шкам
--шкан
--шке
--шки
--шняя
--шо
--шпаган
--шта
--шын
--щ
--ща
--ще
--щеде
--щи
--щии
--щина
--щь
--ъ
--ы
--ые
--ызы
--ыи
--ык
--ыла
--ым
--ыми
--ын
--ына
--ынаҥ
--ында
--ыныҥ
--ып
--ыс
--ых
--ыш
--ыше
--ышев
--ышево
--ыҥ
--ь
--ьд
--ьды
--ье
--ьево
--ьеде
--ьениҥ
--ьи
--ьин
--ьино
--ькая
--ьная
--ьно
--ьного
--ьное
--ьнои
--ьные
--ьныи
--ьным
--ьными
--ьных
--ьск
--ьская
--ьское
--ься
--ьта
--ья
--ьян
--ьяново
--э
--эс
--ю
--юк
--юс
--ют
--ючии
--юшино
--ющая
--ющеи
--ющие
--ющии
--ющих
--я
--яб
--ябрь
--яга
--яд
--яда
--язы
--язында
--як
--яки
--яла
--ям
--ями
--ян
--янаҥ
--янин
--янка
--яныҥ
--ят
--ята
--ях
--яхино
--яш
--яши
--і
--іи
--ј
--јаи
--јы
--ҥ
