!
"
#
##0
##1
##10
##11
##12
##13
##14
##15
##16
##17
##18
##19
##2
##20
##21
##22
##23
##24
##25
##26
##27
##28
##29
##3
##30
##31
##32
##33
##34
##35
##36
##37
##38
##39
##4
##40
##41
##42
##43
##44
##45
##46
##47
##48
##49
##5
##50
##51
##52
##53
##54
##55
##56
##57
##58
##59
##6
##60
##61
##62
##63
##64
##65
##66
##67
##68
##69
##7
##70
##71
##72
##73
##74
##75
##76
##77
##78
##79
##8
##80
##81
##82
##83
##84
##85
##86
##87
##88
##89
##9
##90
##91
##92
##93
##94
##95
##96
##97
##98
##99
$
%
&
'
(
)
*
+
,
-
.
/
0
00
000
001
002
004
007
01
02
03
04
05
06
07
08
09
1
10
100
1000
101
102
103
104
105
1050
1054
106
1060
1066
107
108
109
11
110
1100
111
112
1120
1122
1123
113
1130
1138
114
115
1150
1152
1157
116
1160
1163
1165
117
1170
118
1180
119
1190
1199
12
120
1200
1204
121
1210
1215
1216
1217
122
1220
1226
1227
1228
123
1230
1231
1234
1235
1237
124
1240
125
1250
1252
1253
1254
1256
126
1260
127
1270
1272
1274
1275
1276
1279
128
1280
1282
1284
1285
1286
1287
129
1290
1292
1294
1295
1296
1297
1298
1299
13
130
1300
1304
1305
1306
1307
1308
1309
131
1310
1312
1314
1315
1316
132
1320
1321
1322
1323
1327
1328
1329
133
1330
1332
1333
1337
134
1340
1345
1346
1347
1348
1349
135
1350
1355
1356
1357
136
1360
1361
1362
1363
1364
1368
137
1370
1371
1375
138
1380
1381
1382
1389
139
1391
1395
1396
1397
1398
1399
14
140
1400
1401
1402
1404
1405
1406
1408
141
1410
1413
1414
1415
1417
1418
1419
142
1420
1421
1422
1423
1425
1426
1427
1429
143
1430
1431
1433
1435
1436
1437
1438
1439
144
1440
1441
1444
1445
1447
1448
1449
145
1450
1451
1452
1453
1454
1455
1456
1457
1458
1459
146
1460
1461
1462
1463
1464
1465
1466
1467
1468
1469
147
1470
1471
1472
1473
1474
1475
1476
1477
1478
1479
148
1480
1481
1482
1483
1484
1485
1486
1487
1488
1489
149
1490
1491
1492
1493
1494
1495
1496
1497
1498
1499
15
150
1500
1501
1502
1503
1504
1505
1506
1507
1508
1509
151
1510
1511
1512
1513
1514
1515
1516
1517
1518
1519
152
1520
1521
1522
1523
1524
1525
1526
1527
1528
1529
153
1530
1531
1532
1533
1534
1535
1536
1537
1538
1539
154
1540
1541
1542
1543
1544
1545
1546
1547
1548
1549
155
1550
1551
1552
1553
1554
1555
1556
1557
1558
1559
156
1560
1561
1562
1563
1564
1565
1566
1567
1568
1569
157
1570
1571
1572
1573
1574
1575
1576
1577
1578
1579
158
1580
1581
1582
1583
1584
1585
1586
1587
1588
1589
159
1590
1591
1592
1593
1594
1595
1596
1597
1598
1599
16
160
1600
1601
1602
1603
1604
1605
1606
1607
1608
1609
161
1610
1611
1612
1613
1614
1615
1616
1617
1618
1619
162
1620
1621
1622
1623
1624
1625
1626
1627
1628
1629
163
1630
1631
1632
1633
1634
1635
1636
1637
1638
1639
164
1640
1641
1642
1643
1644
1645
1646
1647
1648
1649
165
1650
1651
1652
1653
1654
1655
1656
1657
1658
1659
166
1660
1661
1662
1663
1664
1665
1666
1667
1668
1669
167
1670
1671
1672
1673
1674
1675
1676
1677
1678
1679
168
1680
1681
1682
1683
1684
1685
1686
1687
1688
1689
169
1690
1691
1692
1693
1694
1695
1696
1697
1698
1699
17
170
1700
1701
1702
1703
1704
1705
1706
1707
1708
1709
171
1710
1711
1712
1713
1714
1715
1716
1717
1718
1719
172
1720
1721
1722
1723
1724
1725
1726
1727
1728
1729
173
1730
1731
1732
1733
1734
1735
1736
1737
1738
1739
174
1740
1741
1742
1743
1744
1745
1746
1747
1748
1749
175
1750
1751
1752
1753
1754
1755
1756
1757
1758
1759
176
1760
1761
1762
1763
1764
1765
1766
1767
1768
1769
177
1770
1771
1772
1773
1774
1775
1776
1777
1778
1779
178
1780
1781
1782
1783
1784
1785
1786
1787
1788
1789
179
1790
1791
1792
1793
1794
1795
1796
1797
1798
1799
18
180
1800
1801
1802
1803
1804
1805
1806
1807
1808
1809
181
1810
1811
1812
1813
1814
1815
1816
1817
1818
1819
182
1820
1821
1822
1823
1824
1825
1826
1827
1828
1829
183
1830
1831
1832
1833
1834
1835
1836
1837
1838
1839
184
1840
1841
1842
1843
1844
1845
1846
1847
1848
1849
185
1850
1851
1852
1853
1854
1855
1856
1857
1858
1859
186
1860
1861
1862
1863
1864
1865
1866
1867
1868
1869
187
1870
1871
1872
1873
1874
1875
1876
1877
1878
1879
188
1880
1881
1882
1883
1884
1885
1886
1887
1888
1889
189
1890
1891
1892
1893
1894
1895
1896
1897
1898
1899
19
190
1900
1901
1902
1903
1904
1905
1906
1907
1908
1909
191
1910
1911
1912
1913
1914
1915
1916
1917
1918
1919
192
1920
1921
1922
1923
1924
1925
1926
1927
1928
1929
193
1930
1931
1932
1933
1934
1935
1936
1937
1938
1939
194
1940
1941
1942
1943
1944
1945
1946
1947
1948
1949
195
1950
1951
1952
1953
1954
1955
1956
1957
1958
1959
196
1960
1961
1962
1963
1964
1965
1966
1967
1968
1969
197
1970
1971
1972
1973
1974
1975
1976
1977
1978
1979
198
1980
1981
1982
1983
1984
1985
1986
1987
1988
1989
199
1990
1991
1992
1993
1994
1995
1996
1997
1998
1999
2
20
200
2000
2001
2002
2003
2004
2005
2006
2007
2008
2009
201
2010
2011
2012
2013
2014
2015
2016
2017
2018
2019
202
2020
2021
2022
2023
203
204
205
206
207
208
209
21
210
211
212
213
214
215
216
217
218
219
22
220
2200
221
222
224
225
226
227
228
229
23
230
231
232
233
234
235
236
237
238
239
24
240
241
242
243
244
245
246
247
248
249
25
250
2500
251
252
253
254
255
256
257
258
259
26
260
261
262
263
264
265
266
267
268
269
27
270
271
272
273
274
275
276
278
279
28
280
281
282
283
284
285
286
287
288
289
29
290
291
292
293
294
295
296
297
298
299
3
30
300
3000
301
302
303
304
305
306
307
308
309
31
310
311
312
313
314
315
316
317
318
32
320
321
322
323
324
325
326
327
328
329
33
330
331
332
333
335
336
337
338
339
34
340
341
342
343
344
345
346
347
348
35
350
3500
351
352
353
354
355
356
357
358
359
36
360
361
363
364
365
366
367
368
369
37
370
373
375
376
377
378
379
38
380
381
383
384
385
386
387
388
39
390
392
393
394
395
397
4
40
400
4000
401
402
404
405
406
407
408
409
41
410
411
412
413
414
415
416
417
418
42
420
421
422
423
425
428
429
43
430
431
435
438
44
440
442
445
446
447
448
449
45
450
451
453
455
456
457
458
46
460
461
465
47
470
472
473
475
476
477
48
480
484
486
49
490
493
496
5
50
500
5000
501
502
507
51
510
511
516
52
520
523
525
53
530
533
534
536
538
54
540
547
55
550
56
560
57
570
58
580
585
586
587
588
589
59
590
591
592
593
594
595
597
6
60
600
6000
605
61
610
618
62
620
625
63
630
636
639
64
640
65
650
655
66
660
666
67
670
672
675
68
680
69
690
7
70
700
7000
71
714
716
719
72
720
73
734
737
74
740
744
745
747
75
750
754
76
760
77
770
772
775
777
78
780
785
79
8
80
800
8000
804
81
814
82
825
83
830
838
839
84
840
841
842
843
85
850
851
855
86
860
869
87
870
874
876
877
88
880
882
885
89
890
9
90
900
91
910
911
92
93
936
94
940
95
950
96
960
97
970
975
978
98
99
999
:
;
<
=
>
?
@
\
^
_
`
a
aa
aachen
aacta
aad
aadlik
aadlike
aafke
aai
aaien
aaikes
aaipop
aaisto
aaiwiten
aaiwyt
aak
aaklike
aaltje
aan
aansk
aanske
aanzicht
aap
aar
aard
aarde
aardenburg
aardich
aardichheid
aardige
aaron
aart
aartsbisdom
aartsbiskop
aartsbiskoppen
aartsfaar
aartsfija
aartshartoch
aartsingel
aastersk
aazje
ab
abba
abbas
abbaye
abbe
abbegea
abbekaat
abbekate
abbekatekantoar
abbekaten
abbey
abbott
abby
abc
abd
abdij
abdijen
abdijtsjerke
abdis
abdu
abe
abel
abercrombie
aberdeen
abessynje
abgaazje
abilene
abma
aboriginals
aborizjinals
abortus
about
abraham
abrahamityske
abram
abrams
abrupt
absalom
absolu
absolute
abstrakt
abstrakte
abt
abten
abu
ac
acade
academie
academy
access
accipiter
account
ace
achab
achazja
achievement
achilles
achlum
achmed
acht
achte
achter
achterberg
achterhoeke
achterhoeksk
achtet
achthoekige
achtkant
achtkante
achtkarspelen
achtsje
achtste
achttjin
achttjinde
ackbar
acres
across
act
acta
action
actionfilms
actors
actress
acts
ad
ada
adam
adams
adaptaasje
adaptaasjes
adaptearre
add
addinga
additive
ade
adel
adelaar
adelaide
adelu
adema
aden
adi
adjudant
adjunkt
adler
administraasje
administration
administrative
administratyf
admiraal
admiraliteit
adolf
adolphe
adopsje
adoptearre
adres
adria
adriaan
adriaen
adrian
adriana
adriano
adrianopel
adrianus
adriatyske
aduard
adult
adventure
adventures
advertinsje
advertinsjes
advisearre
adviseur
adviseurs
advizen
advokaat
advys
ae
aebinga
aede
aeilco
aenjewier
aetius
af
afc
affair
affairs
affe
afgaanske
afganistan
afi
afke
africa
african
afrika
afrikaansk
afrikaanske
afrikakorps
afrikanen
afrikaner
afrikaners
afro
afrodite
after
aftermath
afu
ag
agadir
again
against
agamemnon
agatha
age
agency
agent
ages
agglomeraasje
aginda
agint
aginte
aginten
agintskip
agnes
agnetha
agnew
agnosten
agrarysk
agraryske
agresje
agressive
agressyf
agricola
agt
ah
ahch
ahead
ahmed
ahnenerbe
ahsoka
ai
aids
aiji
ailes
aim
aime
aimee
ain
ainu
air
aircraft
aires
airie
airlines
airport
airways
ais
aise
aiskylos
ajax
ajuri
ak
aka
akadeemje
akademie
akademy
akademysk
akademyske
aken
akira
akkad
akkadysk
akkadyske
akker
akkerman
akkoard
akkoart
akkrum
akku
akkuraat
akky
ako
akoestyske
akseptaasje
akseptabel
akseptearje
akseptearjen
akseptearre
akseptearret
aksint
aksinten
aksje
aksjefilm
aksjefilms
aksjegroep
aksjekomeedzje
aksjes
aksjese
aksjesearje
akte
aktearjen
aktearkarrie
aktearprestaasje
aktearre
aktearwurk
akten
akteur
akteurs
aktive
aktivisme
aktivist
aktiviste
aktivisten
aktiviteit
aktiviteiten
aktrise
aktrises
aktueel
aktuele
aktyf
akwadukt
akwarel
akwarellen
akwarium
akwitaanje
al
alabama
alain
alamein
alamo
alan
alana
alanen
alarik
alaska
alaskaanske
alba
albaanje
albada
albaneesk
albaneeske
albanezen
albany
albarda
albatros
alberda
albert
alberta
albertina
albertine
alberto
alberts
albertus
albinus
albrecht
album
albums
albuquerque
ald
aldamt
alddjip
alde
aldeberkeap
aldebiltsyl
aldeboarn
aldefurd
aldegea
aldehaske
aldeholtpea
aldehou
aldemardum
alden
aldenboarch
aldenburch
aldendeiske
alderaan
aldere
alderearst
alderearste
aldergeloks
alderhanne
alderheljen
alderheljenfloed
alderle
alderlei
aldfeart
aldfra
aldfrysk
aldfryske
aldgillis
aldgryksk
aldgrykske
aldheid
aldheidkeamer
aldhoarne
aldingelsk
aldingelske
aldla
aldlemmer
aldnederla
aldnoarsk
aldnoarske
aldrin
aldskoat
aldskou
aldste
aldtsjerk
aldwa
ale
alec
aleid
aleksander
aleksanderje
aleksandr
aleksandra
aleksandrie
aleksandrje
aleksej
alenc
aleoeten
aleoetysk
aleoetyske
alessandro
aletta
alex
alexa
alexander
alexandra
alexandre
alexandria
alexis
alfa
alfabet
alfde
alfen
alfons
alfonso
alfred
alfu
algemeen
algemene
algemien
algemiene
algerije
algerynske
algiers
algini
algonkwynske
algra
alhiel
alhielendal
alhoewol
ali
alias
alice
alicia
alida
alien
aliens
align
alignbars
alina
alinea
alinne
alison
alive
aljemint
alkmaar
alkmar
alkohol
alkoholisme
all
alla
allahabad
allan
allard
alle
allebeide
alleen
allegear
allegearre
allegeduerigen
allegro
allemannen
allemolens
allen
allende
aller
allerhanne
alles
alletrije
alley
allia
alliance
allie
alliearde
alliearden
alline
allingawier
allinich
allinne
allinnich
allinnichsteande
allison
allround
allyk
allyksa
alma
almanak
almar
almeare
almeast
almelo
almenak
almenum
almere
alois
alone
alonso
alp
alpen
alpha
alphabet
alphen
alphonse
alpine
alpineskyen
alris
als
also
alt
alta
altai
altar
alte
alteast
altena
alter
alteraasje
alternaria
alternate
alternative
alternatyf
alters
altfioele
altijd
alting
altiten
alto
altyd
aluminium
alva
alve
alveste
alvetal
alvin
always
alwer
alzheimer
am
amalia
amanda
amateur
amateurs
amazing
amazo
amazon
ambacht
ambachten
ambachtslju
ambachtsskoalle
ambassade
ambassadeur
ambassadeurs
ambassadrise
amber
ambisjeuze
ambo
ambrosius
ambula
ambysje
ambysjes
ame
amearika
amearikaanske
amela
ameland
amelia
amendemint
amer
america
american
americana
amerika
amerikaan
amerikaanse
amerikaansk
amerikaanske
amerikanen
amerongen
amersfoart
amersfoort
ames
amfibyen
amfibyske
amfiteater
amidala
amiens
amish
ammoniak
amnesty
amoer
amon
among
amor
amore
amos
amour
amper
amperoan
amstel
amstelfean
amsterdam
amsterdammer
amsterdamse
amsterdamsk
amsterdamske
amt
amten
amtlike
amtner
amtners
amtstermyn
amundsen
amy
an
ana
anabolic
anakin
anal
anale
analog
analyze
anargist
anargistyske
anas
anastasia
anatoalje
anatomy
anatoom
anchorage
ancient
and
anda
andalu
andel
ander
andere
anderen
anders
andersen
anderson
andersson
andert
andes
andor
andorra
andre
andrea
andreae
andreas
andrej
andrew
andrews
andries
andriessen
andringa
androi
andy
ane
anekdoate
anema
anen
ang
ange
angel
angela
angelen
angeles
angelica
angelina
angelo
angels
angelsaksen
angelsaksysk
angelsaksyske
anglia
anglikaansk
anglikaanske
anglikanen
anglo
angoala
angus
anhalt
ani
animaasje
animaasjefilm
animaasjefilms
animal
animals
animated
animation
animator
anime
animearre
anita
anjer
anjewier
anjou
ankara
ankel
anker
ann
anna
annabel
annalen
annales
annan
annandale
anne
anneke
anneks
anneksaasje
anneksearre
annemarie
annes
annette
anni
annie
anno
annual
anonime
anonimus
anonym
another
anp
ans
anse
anser
anson
ant
antagonist
antagonisten
antarktika
antarktyske
anthology
anthony
anthus
anti
antike
antillen
antilles
antiochie
antiochje
antiochus
antje
antlit
anto
antoine
antoinette
anton
antoni
antonia
antonides
antonie
antoninus
antonio
antonius
antonov
antoon
antropology
antropolooch
antwerpen
antwurd
antwurde
antwurden
antwurdet
anty
antysemitisme
antysemityske
anus
anwb
any
anzac
anzjelynske
anzju
ao
ap
apache
apachen
apart
aparte
apartheid
ape
apel
apeldoarn
apeldoorn
apels
apen
apes
apodemus
apokalyptyske
apokrifa
apokrife
apokryf
apollo
apostel
apostels
apostoalyske
apostrof
app
appalachen
apparaat
apparaten
apparatuer
appartemint
appartemintekompleks
apparteminten
appel
appelskea
appingedam
apple
applegate
appleton
apprentice
apr
april
apsis
apteker
aqua
aquaman
aquarium
ar
ara
araabje
arabia
arabieren
arabysk
arabyske
aragon
aragorn
arameesk
arameeske
arapaho
arbeid
arbeide
arbeider
arbeiders
arbeidersbeweging
arbeidershu
arbeidersklasse
arbeiderspartij
arbeiderspers
arc
arch
archangelsk
archeologen
archeology
archeologysk
archeologyske
archeolooch
archer
archibald
archief
archieven
architecture
archive
archives
arctic
ard
arde
arden
ardinnen
are
area
areaal
arena
arend
arent
arezzo
argaysk
argayske
argentynje
argentynsk
argentynske
argeologen
argeologysk
argeologyske
argeolooch
argewaasje
argivaris
argiven
argumint
arguminten
argyf
argyll
aria
ariana
arianisme
arie
ariel
arikara
aristofanes
aristokrasy
aristokratyske
aristoteles
arizona
arjan
arje
arjen
ark
arkades
arkansas
arke
arkel
arktysk
arktyske
arles
arlington
arm
armand
arme
armeenje
armeenjers
armeensk
armeenske
armenen
arminius
arms
armstrong
army
arne
arnhem
arnhim
arno
arnold
arnoldus
arnsberg
arnulf
around
arp
arras
arre
arrestaasje
arrestearjen
arrestearre
arret
arriva
arrivearje
arrivearre
arrivearren
arrivearret
arrondissemint
arrondisseminten
arsenaal
arsjipel
arsjitekt
arsjitekteburo
arsjitekten
arsjitektoanyske
arsjitektuer
art
artakserkses
artcyclopedia
arte
arteezje
artefakt
artefakten
artemis
arthur
arti
article
artikel
artikelen
artikels
artillery
artist
artistike
artists
artistyk
arts
artsen
artur
artyst
artyste
artysten
artystenamme
artystenammen
aru
arum
ary
aryl
as
asa
asano
ash
asher
ashley
ashton
asia
asimov
asp
aspekt
aspekten
asperger
aspergersyndroom
aspirearre
ass
asscher
assen
asser
assignment
assimblee
assimilaasje
assimilearre
assiniboin
assiniboine
assisi
assistint
assistinte
associates
association
assortimint
assosjaasje
assosjaasjes
assosjearre
assyrje
assyryske
ast
asten
asteroi
astrachan
astrid
astrology
astronaut
astronauten
astronomy
astronomyske
astronoom
astuerje
asuryske
asyl
at
atageini
atapaskyske
atatu
ate
ateenske
atei
atelier
atemala
atene
atevi
atf
ath
athenaeum
atholl
athos
atlanta
atlantic
atlantikwall
atlantique
atlantis
atlantyske
atlas
atle
atleet
atlete
atleten
atletyk
atletykbaan
atmosfear
atol
atomen
atoom
atoombom
atos
atsma
attack
attawapiskat
attila
attraksje
attraksjes
attributen
atu
au
auck
auckland
audi
audii
audio
audioboek
audrey
audysje
audysjes
auf
aug
augsburg
august
augusta
auguste
augustin
augustine
augustinus
augustus
auke
aukes
aukje
auld
aura
aurelia
aureliaflinter
aureliaflinters
aurelius
aurora
aus
auschwitz
austen
austerlitz
austin
austraalje
austraasje
australia
australian
australie
australysk
australyske
autentike
autentyk
auteur
auteurs
auteurskip
auteursrjocht
auteursrjochten
author
authority
autisme
auto
autobahn
autobiograaf
autobiografy
autobiografysk
autobiografyske
autobiography
autobus
autodidakt
autodiken
autodyk
autokoereur
automatysk
automatyske
automerk
autonome
autonomy
autonoom
autorisearre
autorite
autoriteit
autoriteiten
autosefale
autosnelwei
autosport
autowegen
autowei
autumn
auwerk
aux
av
ava
avalon
avansearre
avant
avaren
avatar
ave
avec
avenger
avengers
aventoer
aventoerefilm
aventoeren
aventoersman
avenue
aves
aviation
avignon
avildsen
avitus
aviv
avluv
avn
avon
avond
avonturen
avril
avro
awakens
award
awards
away
axel
aylva
ayrshire
aysma
aytta
az
azarja
azerbeidzjan
aziaten
aziatysk
aziatyske
azie
azoaren
azov
azteekske
azteken
b
ba
baa
baai
baaien
baaiplak
baaium
baan
baanhurdfytsen
baantjer
baantsje
baantsjes
baarch
baard
baarderadiel
baarn
baarnde
baarnende
baas
baat
baba
babel
baby
babyloanje
babyloanyske
babylon
bach
bachelor
bachelorgraad
bachelorstitel
bachelortitel
bachrein
bachus
back
backgroundcolors
bacon
bad
baden
badminton
baen
baerdt
baflo
bafta
bagaazje
bagaazjetrein
bagdad
bagdadi
bahai
bahama
bahn
bai
baiji
bail
bailey
bak
baker
bakhuzen
bakkefean
bakken
bakker
bakkerij
bakkers
bakstien
bakstiennen
bakt
baktearje
baktearjes
bal
bala
balboa
baldwin
balea
balk
balkan
balke
balken
balkenende
balkon
ball
ballad
ballade
ballads
ballet
balling
ballingen
ballingskip
balliol
ballon
ballum
balthasar
baltimore
baltyske
baly
bamberg
ban
banana
band
banda
bandit
banditen
bandleden
bands
bandyt
banen
bang
banga
bangbros
bangkok
banglades
bangladesj
bangma
banichi
banier
bank
bankbero
bankbiljetten
bankekrisis
banken
bankier
bankrot
banks
bannen
banner
banning
bantam
bantegea
baptist
baptiste
baptistegemeente
baptisten
bar
barack
barak
barakken
barb
barbaar
barbaarske
barbados
barbara
barbaren
barbarian
barbarijske
barbarossa
barber
barbu
barcelona
barclay
bard
barde
barden
barend
barents
baret
bargen
bari
bariton
barka
barker
barnabas
barnes
barneveld
barnstien
barok
barokke
baron
barones
baronesse
barr
barradiel
barrahu
barrayar
barrayareeske
barre
barren
barrens
barrett
barrie
barry
barrymore
bars
barseloana
barselona
bart
bartlehiem
bartolome
baru
bas
basearre
baseball
basel
bases
basgitaar
basic
basilica
basilika
basilius
basilyk
basis
basisskoalle
basisskoallen
basisu
baskela
basketbal
basketballer
baskysk
baskyske
bass
bassist
bast
bastert
bastion
bastions
bat
bataafsk
bataafske
bataljon
batavia
batavus
bath
batman
batterij
batthya
battista
battle
battleship
bauer
bauhaus
bauke
baukes
baukje
baxter
bay
bayeux
baywatch
baze
bazel
bazen
bazuin
bb
bbc
bbeldtwa
bc
bd
be
bea
beach
beaen
beafeart
beafeartsplak
beagle
beaken
bealch
beam
beamiikhoarntsjes
beammen
beamotter
bean
bear
beare
bearen
bearend
bearn
bears
beart
beast
beat
beatles
beatrice
beatrix
beau
beaufort
beaumont
beautiful
beauty
beauvais
beaux
beaver
beboske
beboud
beboude
bebouwing
bebuording
beck
becker
becket
beckett
beckham
beckman
bed
beda
bedarje
bedarre
bedarren
bedarret
bedekt
bedford
bedijd
bedoarn
bedobbe
bedoeld
bedoelde
bedoeling
bedoelings
bedoelt
bedraacht
bedrach
bedrage
bedragen
bedreaun
bedrige
bedriget
bedriging
bedrigings
bedriuw
bedriuwen
bedriuweterrein
bedriuwslibben
bedroch
bedroech
bedroegen
bedum
bedutsen
bee
beek
beeld
beelden
been
beer
beerta
beethoven
beets
beetstersweach
befalling
befarber
befe
befeilige
befeiliging
befel
befelfierend
befelhawwer
befellen
beferzen
befet
befetsje
befette
befettet
befine
befjochtsjen
beflapt
befoardere
befoardering
befoarderjen
befoarrieding
befoel
befolke
befolking
befolkingsferrin
befolkingsgroei
befolkingsgroep
befolkingsgroepen
befolkingsgrutte
befolkingstichtens
befolkingsu
before
befrege
befreone
befrijd
befrijde
befrijding
befrije
befrijen
befrijing
befrijt
befu
befynt
begean
begeane
begelaat
begelate
begeliede
begelieden
begelieder
begelieding
begien
begin
begjin
begjinjierren
begjinne
begjinnen
begjinnend
begjinnende
begjinpunt
begjinsel
begjinsels
begjint
begjintiid
begjintitels
begoedige
begraafplak
begraafplakken
begraffenis
begraffenissen
begraven
begrepen
begrinze
begrinzge
begripe
begripen
begroeid
begroeide
begroeii
begroeven
begrutsjen
begrutting
begryp
begrypt
begu
beha
behalven
behan
behannele
behannelet
behanneling
behannelje
behanneljen
behear
beheard
behearde
behearder
behearske
behearsken
behearsket
behearsking
behearskje
behearskjen
beheart
beheind
beheinde
beheinden
beheine
beheinen
beheining
beheinings
behelje
beheljen
behelle
behellen
behellet
behimmeljen
behind
behindere
behold
beholden
bei
beide
beiden
beien
beieren
beierske
beilen
being
beintema
bejaan
bejage
bejeftige
bejoech
bejout
bejouwe
bek
bekeard
bekearde
bekeare
bekearen
bekearing
beken
bekend
bekende
bekenden
bekender
bekendere
bekendheid
bekendmakke
bekendst
bekendste
bekendsten
bekendstie
bekendstiet
bekent
bekentenis
beker
bekind
bekken
bekker
beklaaid
beklaaide
beklaaie
beklaait
beklage
beklimming
beknopte
bekommen
bekre
bekritisearre
bekroand
bekroande
bekroane
bekroaning
bel
bela
beladen
belang
belangen
belangrike
belangryk
belangrykste
belangstellenden
belangstelling
beld
belde
bele
beleanne
beleanning
belegere
belegeren
belegering
belein
belesting
belestingen
belestings
belfast
belgen
belgie
belgje
belgrado
belgysk
belgyske
belibbe
belibbet
belibje
beliden
belidenis
belied
belies
believe
belis
belize
beljochte
beljochtet
beljochting
belknap
bell
bella
belladonna
belle
bellevue
bellingwolde
bellini
belsen
belt
belu
belune
belutsen
belutsenen
belutsenens
belve
belvede
belykje
bemachtige
bemachtigjen
bemanne
bemanning
bemanningsleden
bemeallen
bemiddeling
bemuoide
bemuoie
bemuoien
bemuoienis
ben
benammen
benammentlik
benaud
bend
beneamd
beneamde
beneame
beneamen
beneaming
beneamings
beneamt
benearing
benedict
benedictus
benediktus
benediktynske
benei
benelu
benito
benjamin
bennett
benny
benoardeasten
benoarden
benson
bent
benteen
bentheim
benthem
bentley
benton
benyn
benz
benzine
beo
beoardiele
beoardieling
beoefene
beowulf
bepa
bepaald
bepaalde
bepaalt
bepale
bepalen
bepalings
beppe
beppes
beppesizzer
beppesizzers
bepraat
beprate
bepraten
ber
berardinelli
berber
berbers
berbersk
berberske
berbertalen
berch
bercheftich
bercheftige
berchklassemint
berchla
berchtme
berchtmen
bere
berekkene
berekkening
berend
berg
berge
bergen
berger
bergh
bergman
bergsma
berik
berikber
berikke
berikken
berikt
berikte
berikten
bering
beringsee
beringstrjitte
berint
berjocht
berjochte
berjochten
berjochting
berk
berkel
berkeley
berkshire
berlage
berlin
berliner
berltsum
berlyn
berlynske
berman
bermuda
bern
bernard
bernarda
bernardi
bernardino
bernardus
berne
berneboek
berneboeken
berneboekeskriuwer
berneboekeskriuwster
bernefilm
bernepornografy
berneprogramma
bernesearje
bernetiid
bernhard
bernhardt
bernie
bernlef
bernsbern
bernthal
bero
berop
beroppen
beropsbefolking
beropsu
berou
berry
bert
berte
bertedei
bertedoarp
bertehu
bertejier
bertelsmann
berteplak
berteste
bertetsjerke
bertrand
bertus
beru
berucht
beruchte
berwick
bes
besef
beseffe
beseft
besefte
beselskippe
beselskippet
beset
besette
besetten
besetter
besetters
besetting
besettingsmacht
besettingsso
besibbe
besibskip
besichtige
besichtigjen
besiet
besiker
besikers
besikerssintrum
besiket
besingele
besit
besite
besitte
besittingen
besittings
besjen
besjensweardichheden
besjittings
besjocht
besjoen
besjoene
beskaafde
beskaat
beskate
beskaving
beskavings
beskerme
beskermer
beskermers
beskermet
beskermhear
beskermhillige
beskerming
beskermje
beskermjen
beskermjende
besketten
beskieden
beskiedend
beskikber
beskikbere
beskikke
beskikking
beskikt
beskikte
beskikten
beskildere
beskildering
besko
beskreau
beskreaun
beskreaune
beskriuwe
beskriuwen
beskriuwing
beskriuwings
beskriuwt
besku
beskuldige
beskuldigen
beskuldiget
beskuldiging
beskuldigings
beslaan
beslach
beslacht
beslane
besleat
besleaten
besleine
besletten
beslissend
beslissende
beslissing
beslissings
beslist
besljochte
besloech
beslu
besluet
beslute
besluten
besmet
besmetlike
besmetting
besnijing
besoarge
besoargje
besoargjen
besocht
besochte
besochten
bespile
besprutsen
bespyljen
besson
best
besta
bestaan
beste
bestean
besteand
besteande
besteane
bestege
besteld
bestelde
bestie
bestien
bestiene
bestienen
bestiet
bestimd
bestimming
bestimmings
bestimmingsplan
bestjoer
bestjoerd
bestjoerde
bestjoerder
bestjoerders
bestjoere
bestjoeren
bestjoerlik
bestjoerlike
bestjoerskunde
bestjoerslaach
bestjoerslid
bestjoersorgaan
bestjoerssintrum
bestjoerstaal
bestjut
bestoarming
bestraffing
bestraft
bestride
bestriden
bestriding
bestridingsmiddels
bestseller
bestsellerlist
bestsellers
bestudearjen
bestudearre
bestudearret
besu
besuden
besunigings
beswiek
beswier
beswieren
beswykt
besyk
besykje
besykjen
bet
betanke
betanket
betelje
beteljen
betelle
betellen
betellet
betelling
betelmiddel
beter
bethlehem
betide
betiden
betiid
betiizjen
betingst
betingsten
betinke
betinken
betinker
betinking
betinksel
betinkt
betitele
betize
betizing
betlehem
betlehim
betocht
betochten
beton
betonnen
betreffende
betreft
betrekking
betrekkings
betreklik
betrouber
betroubere
betrouwen
betsjinje
betsjinjen
betsjinne
betsjinnet
betsjinning
betsjoening
betsjut
betsjutte
betsjutten
betsjutting
betsjuttings
betsy
better
bettere
betty
betu
betuwe
between
beukerskoalle
beurs
beurt
bevela
bever
beverly
bevers
bewa
bewapene
bewapening
bewar
bewarje
bewarjen
bewarre
bewarring
beweard
bewearde
beweare
bewearing
bewearings
beweart
beweecht
bewege
bewegen
bewegende
beweging
bewegingen
bewegings
bewekke
bewekkers
bewenne
bewennen
bewenner
bewenners
bewennet
bewenning
bewesten
bewiis
bewiisd
bewiisde
bewiismateriaal
bewiist
bewissige
bewissiget
bewissigjen
bewitched
bewize
bewizen
bewu
bewurke
bewurking
bewurkings
bewurkjen
bewurkmastere
bewurkmasterjen
bewust
bewuste
bewusteleas
bewusteleaze
bewustwe
bey
beyma
beynfloede
beynfloedzje
beynfloedzjen
beyond
bezige
bf
bfi
bfvw
bg
bgl
bi
bia
bianca
bianchi
bibble
bibel
bibelboek
bibelboeken
bibeloersetter
bibeloersetting
bibels
bibelsk
bibelske
bibelwittenskippers
bible
bibleteek
bibletekaris
bibleteken
bibliografy
bibliography
biblioteek
bibliotheek
bidde
bidden
biden
bidler
bidt
bie
biede
bieden
biedt
biedwurd
bien
bier
bierbrouwerij
bieren
biesheuvel
biff
big
bigfoot
biggs
bighorn
bij
bijbel
bijbelgenootschap
bijbelstichting
bijdrage
bijen
bijlsma
bikiny
bilau
bilbo
bild
bilderdijk
bildt
bildts
bildtse
bile
biljerten
biljertferiening
bilker
bilkerts
bill
billaba
billboard
billie
billy
bilt
bilthoven
biltsk
biltske
bin
binde
bindeleden
bindi
bine
binen
bing
bingen
bining
binkes
binks
binne
binnen
binnendoar
binnendoarse
binnenfeart
binnenfoel
binnenhelle
binnenho
binnenkant
binnenkrongen
binnenla
binnenplak
binnensee
binnenste
binnenu
binnenyn
binnert
bio
biograaf
biografen
biografie
biografisch
biografy
biografyen
biografysk
biografyske
biography
biology
biologysk
biologyske
biolooch
bioskoop
bioskooppublyk
bioskopen
biotoop
biotopen
bir
bird
birds
birma
birmeeske
birmingham
birthday
bis
bisdom
bisdommen
biseksueel
bishop
biskaje
biskop
biskoplik
biskoplike
biskoppen
biskopssit
biskopstsjerke
bismarck
bissau
bissonette
bist
biste
bistedokter
bisten
bisteras
bistesoarte
bistesoarten
bistetu
bistkes
bit
bite
biten
bitgum
bitgummole
bitter
bittere
bizarre
bizon
bizonfa
bizons
bjo
bjuster
bla
blaast
black
blackburn
blackway
blade
blair
blake
blanc
blanche
blank
blanke
blanken
blaricum
blau
blaudrukken
blauhu
blauw
blauwe
blaze
blazen
ble
bleat
bleate
bleatlein
bleatsteld
bleau
bleaun
bleaune
bleaunen
bleauwen
bledsiden
bleek
bleeker
bleeth
blesdike
blesse
blessuere
blessum
bleu
bliek
blieken
bliid
blije
blik
blike
bliken
bliksem
bliksemynslach
blind
bline
blinen
bliss
bliuw
bliuwe
bliuwen
bliuwend
bliuwende
bliuwt
blixen
blo
bloch
block
blocq
bloed
bloedbad
bloedferjitten
bloedfetten
bloedich
bloedige
bloei
bloeide
bloeiende
bloeit
bloeitiid
bloem
bloemen
bloemendaal
bloemfontein
blofeld
blog
blogger
blok
blokhu
blokhutte
blokjes
blokkade
blokkearre
blokken
blokker
blom
blomle
blommen
blond
blonde
blondes
blood
bloody
bloom
blu
blue
blues
bluodderich
bluodderige
blydskip
blyk
blykber
blykt
blykte
blyn
bo
boadskip
boadskippen
boadskipper
boadskippers
boaiem
boal
boalsert
boalserter
boarch
boarchgreve
boarchtocht
board
boargemaster
boargemasters
boargemasterskip
boargen
boarger
boargerbefolking
boargerij
boargerkriich
boargerlik
boargerlike
boargeroarloch
boargeroarloggen
boargerrjochte
boargerrjochtebeweging
boargerrjochten
boargers
boarkum
boarn
boarnburgum
boarne
boarnen
boarnsterhim
boarnwert
boarst
boarstbyld
boarsten
boarstesjenre
boarstfergruttingsoperaasje
boarstkanker
boartersguod
boarterstu
boartsjen
boasaardige
boaske
boasket
boat
boaten
boates
boatsje
boaze
boazum
bob
boba
bobby
bobslydzjen
bocht
bochten
bock
bod
bode
bodhi
bodmin
body
boe
boech
boeda
boedapest
boedisme
boedistyske
boeiens
boeing
boek
boekarest
boekba
boekdrukkeunst
boeke
boeken
boekeredakteur
boekerij
boekewikegeskink
boekfoarm
boekha
boekhannel
boekhanneler
boekhannels
boekje
boekjes
boekro
boekt
boekte
boel
boelens
boelensloane
boeles
boer
boerd
boerdspul
boere
boeren
boerepleats
boeresoan
boerespultsje
boerespultsjes
boerestreek
boergonden
boergondyske
boergonje
boergonjers
boerinne
boerkina
boersma
boeru
boerum
boete
boezem
bogart
bogerman
bohemen
bohmers
bohr
bois
boise
bok
bokke
bokma
boksen
bokser
bokstel
boksum
bol
boli
bolivia
bolle
bollen
bollywood
bologna
bolsjewiken
bolsjewistyske
bolsward
bolta
bolwurk
bolwurken
bom
bomans
bombardearjen
bombardearre
bombardemint
bombardeminten
bombay
bommel
bommen
bommesmiter
bommesmiters
bomoanslach
bomoanslaggen
bon
bonann
bonaparte
bond
bondel
bondele
bondels
bone
bones
bonga
bonham
bonifatius
bonifatiustsjerke
bonke
bonken
bonkerak
bonn
bonne
bonnema
bonnie
bono
bontebok
bontekoe
bonusfilmke
boobpedia
book
booker
books
boom
boomsma
boon
boonstra
boorsma
boot
booth
bootsma
boppard
boppe
boppebou
boppedat
boppefamylje
boppeferdjipping
boppekant
boppelaach
boppemar
boppemarder
boppeminsklike
boppen
boppenatuerlik
boppenatuerlike
boppeneamde
bopperin
boppeskift
boppeste
boppesteande
bor
bordeaux
bordeel
bordelen
border
borders
borg
borger
borges
borgia
boris
born
borneo
bornmeer
boromir
borough
borsato
bos
bosatlas
bosch
boschma
bosk
boskbou
bosken
boskjes
boskmoanne
boskmu
bosley
bosma
bosman
bosnje
bosnysk
bosnyske
bosporus
boss
bosses
boston
bot
botanikus
botany
botanyske
both
bothari
botnia
botrel
botsing
botswana
botte
bottema
bottom
bou
boud
boude
bouden
boudewijn
boudewyn
bouillon
boujier
bouke
boukeunst
boukunde
boukundich
boula
boulevard
boulogne
bouma
boumaster
boumateriaal
boun
bounty
bourke
bourne
bouskiednis
boustyl
bout
boutiid
bouvier
bouwe
bouwen
bouwer
bouwers
bouwman
bouwmeester
bouwurk
bouwurken
bouyer
boven
bow
bowie
bowl
bowman
box
boy
boycot
boyd
boyl
boyle
boys
bozeman
br
bra
braak
braba
brabant
brad
braddock
bradford
bradley
bradshaw
brady
brain
brakel
bram
bran
branch
brand
brandaan
brandenboarch
brandenburch
brandenburg
brando
brandon
brandsma
brandt
branje
brannen
brantgum
bras
brassband
braun
braunschweig
brave
bray
brazil
brazyljaansk
brazyljaanske
brazylje
brazzers
bre
brea
break
breakfast
breaking
brechje
brecht
breda
brede
breder
bredere
bredero
brederode
bree
breed
breedste
breedte
breedtegraad
breid
breidsskat
brein
breinroer
breinroere
brek
brekfallich
brekke
brekken
brekking
brekme
brekt
bremen
bremer
bren
brenda
brendan
brenner
brent
breslau
brest
bretagne
bretanje
breteler
bretoneila
bretonnen
bretonsk
bretonske
brett
breukelen
breuker
breunswyk
brewster
brezjnev
brian
bride
bridge
bridges
bridget
bridgette
briede
brieden
briedgebiet
briedt
brief
briefkerij
briek
brieken
brielle
brien
brieven
brigade
brigadegeneraal
brigadier
briggs
bright
brighton
brigitte
brij
bril
brill
bring
bringe
bringen
bringt
brink
brisbane
bristol
brit
britain
britannia
britannica
british
britney
britsk
britske
britsum
britswert
brittanje
brittany
britten
bro
broadcasting
broadway
broccoli
brocht
brochte
brochten
brody
broek
broeksterwa
broer
broers
broersma
brok
broken
brolsma
bron
bronte
bronx
brood
brook
brooke
brooklyn
brooks
bros
brosjuere
brosjueres
brosnan
brother
brothers
broud
brouwer
brouwerij
brouwers
browder
brown
browning
bru
bruce
brug
brugge
bruggen
brugmans
bruien
bruin
bruins
bruinsma
brulee
brulloft
brumby
bruna
brune
bruno
brunswick
brunswyk
bruorren
bruorskip
brus
brusse
brussel
bruto
bruts
brutsen
brutus
bryan
bryant
bryce
bryfke
bryson
brytoanyske
bs
bu
bubo
buchan
buchenwald
buck
buckingham
buckinghamshire
bud
buddy
budget
budzjet
buena
buenos
bueren
buert
buerten
buffalo
buffy
buford
building
buis
buisman
buiten
bujold
bul
bulgaarsk
bulgaarske
bulgaren
bulgarije
bull
bullet
bulletin
bulls
bult
bulte
bulten
bulthuis
buma
bunde
bundel
bunder
bunker
bunkers
bunnik
bunny
bunschoten
buorden
buorfrou
buorke
buorkerij
buorkerijen
buorkjen
buorkundich
buorla
buorlannen
buorlju
buorman
buorren
buorskip
buorskippen
burbank
burchwert
burd
burdaard
bureau
buren
burg
burgemeester
burgen
burgenland
burger
burgers
burgh
burgum
burgumer
burke
burmania
burn
burnett
burning
burns
buro
burokrasy
burr
burrard
burroughs
burt
burton
bus
bush
business
buskru
busline
bussen
busstasjon
bussum
buster
busty
but
butch
butcher
butler
butte
butters
buttes
butts
buwalda
buys
buzz
bv
bw
by
byboud
bybrocht
bychtet
bydrage
bydragen
bydroegen
bye
byelkoar
bygebouwen
bygelyks
byha
byhearrende
byholden
byi
byinoar
bykommend
bykommende
bykomt
byla
byld
bylden
byldestoarm
byldhoukeunst
byldhouster
byldhouwer
byldhouwurk
byldhouwurken
byldmateriaal
byldsje
byldskerm
byldzjend
byldzjende
byleauwe
bylu
bynamme
bynammen
byneamd
bynt
byp
byrd
byrol
byrollen
byron
byset
bysta
bystien
bysu
byt
bytiden
bytsje
bywe
bywenne
bywurke
byzantinen
byzantium
byzantsium
byzantynsk
byzantynske
c
ca
caballe
cable
cabot
cade
caen
caesar
caesarea
cafe
cage
caine
cajeiri
calais
calamity
cale
caleb
calgary
calhoun
cali
calidris
california
call
callahan
called
callophrys
calrissian
calvados
calvert
calvin
cambridge
cambuur
came
camelot
cameo
camera
cameron
camille
cammingha
camp
campaign
campbell
campen
camper
campert
camping
campus
camstra
camus
can
canada
canadian
canal
canberra
canby
candy
canis
cannes
cannon
canter
canterbury
canto
cantos
canvas
canyon
cap
cape
capital
capitol
capone
cappella
captain
car
cara
caravan
card
cardenal
cardiff
cardinal
cards
care
carel
carey
caribbean
carl
carla
carlin
carlisle
carlo
carlos
carlson
carlton
carmen
carnegie
carnivora
carol
carolina
caroline
carolus
carotta
carpenter
carr
carre
carrera
carrick
carrie
carrington
carroll
carry
cars
carson
carter
cartoon
cartoonist
carver
cary
casa
casablanca
cascade
cascades
case
casey
cash
casimir
casino
caspar
casper
cassandra
cassian
cassidy
cast
caste
castellum
casten
casting
castle
castro
cat
catalina
catawba
catch
cate
catharina
cathe
cathedral
catherine
catholic
cats
cattle
cause
cavalera
cave
cavendish
cazaril
cbs
cbtb
cc
ccm
cd
cda
cdu
ce
cebu
cecil
cecilia
cedar
cedric
cees
celebrity
celeste
celle
celsius
celtic
celtics
cemetery
cenedi
census
cent
centennial
center
centraal
central
centre
centrum
century
cersi
cesar
cesare
cev
ch
cha
chabarovsk
chad
chain
chalion
chamberlain
chambers
champion
champions
championship
chan
chance
chanel
chang
change
changes
channel
chanur
chaos
chapel
chaplin
chapman
chapter
char
character
characters
charadrius
charaxes
charity
charkov
charles
charleston
charley
charlie
charlotte
charlottenburg
charlton
chartres
chase
chattanooga
chaucer
chbonke
chbouwer
chdier
chdieren
chdiereskaai
chdieresoarte
che
chechik
chelsea
cheney
cher
cherokee
cherry
cherryh
chester
chevalier
chewbacca
cheyenne
chi
chicago
chiche
chick
chicken
chief
chiesa
chiffre
child
children
chili
china
chinese
chip
chippewa
chirrut
chivington
chje
chlein
chlizzing
chloe
cho
choice
chong
chow
chr
chris
christ
christchurch
christelijke
christen
christi
christiaan
christian
christie
christina
christine
christmas
christoffel
christoph
christophe
christopher
christus
christy
chronicle
chronicles
chs
chslach
chslimme
cht
chte
chu
chuck
church
churchill
chwei
ci
cia
cincinnati
cine
cinema
circa
circle
circuit
circus
cities
citizen
city
ciudad
civil
ck
cke
cken
claerbergen
claes
clair
claire
clan
clancy
clans
clant
clapton
clara
clare
clarence
clark
clarke
clash
class
classic
classical
classics
claude
claudia
claudio
claudius
claus
clay
clayton
cle
clear
clearwater
clemens
clement
cleveland
cliff
clifford
clint
clinton
clive
clone
clones
close
cloud
clown
club
clunies
clyde
cm
cnn
co
coa
coach
coast
coat
cobain
cobra
coca
cochem
cock
cockpit
coco
code
codex
cody
coe
coehoorn
coen
coevorden
cohen
cola
cold
cole
coleman
colin
coll
collected
collectie
collection
collector
college
collin
collins
colmschate
color
colorado
colors
colt
coltrane
columba
columbia
columbo
columbus
com
comanche
comarca
come
comeback
comedy
comenius
comes
comic
comics
coming
comite
command
commission
committee
common
commonwealth
communications
community
compagnie
companion
company
compie
complete
complex
computer
comte
comyn
con
conan
concert
concord
concordia
condor
confederation
confederations
conference
confessions
congress
coningh
connecticut
connell
connery
connexxion
connie
connor
conqueror
conrad
conscience
conservation
conspiracy
conspirator
constable
constance
constant
constantijn
constantin
constantine
contact
contemporary
contes
contra
control
convention
cook
cooke
cool
cooper
cop
copa
copperfield
coppola
cor
cora
corbie
cordelia
cork
cornelia
cornelis
cornelius
cornick
cornwall
corporation
corps
corpus
corrie
corstius
corte
cortez
coruscant
corvey
corvus
costa
costello
coster
costigan
costner
cotton
could
council
count
country
countrymuzyk
countrysjonger
county
countys
couperus
courage
courant
course
court
courte
courtney
cove
coventry
cover
covere
covers
covid
coward
cowboy
cowboys
cox
coyote
cp
cpn
crack
crackstate
craig
crait
crane
crash
crawford
crazy
cre
cree
creed
creek
crew
cricetidae
cricket
cricketer
crime
criminal
crispin
critics
cro
croft
croix
cromwell
crone
croods
crook
cropped
crosby
cross
crossing
crossover
crossroads
crow
crowd
crowe
crowley
crown
crows
crowther
cruijff
cruise
crusade
cruz
cry
crystal
cs
csi
cthulhu
ctor
cu
cullen
cult
cultural
culture
cultuur
culver
cum
cumberland
cunha
cuoco
cup
curly
curse
curtis
curtiss
cushing
custer
cut
cuvier
cuxhaven
cuypers
cv
cyborg
cycle
cynthia
czerneda
d
da
daai
daalks
daam
daan
daar
daasje
dabi
dachau
dad
dada
daddy
daf
dafrikaansk
dafrikaanske
dag
dagblad
dagboek
dage
dagen
daget
dagge
dagobah
dagobert
dahl
dai
daily
dairy
daisy
dak
dakken
dakleas
dakota
dakpannen
dakruter
dal
dalai
dale
dalen
daliks
dallas
dalles
dalmaasje
dalton
dam
damaskus
dame
damen
dameron
dames
damiri
damjen
damme
dammen
dammer
damon
damsterdjip
damwa
dan
dana
danann
dance
dancer
dances
dancing
danes
danger
dangerous
danich
danie
daniel
daniels
dankert
dann
danny
dans
dante
dantumadiel
dantumawa
danzig
daphne
dappere
dar
dardanellen
dargis
dari
darius
darja
dark
darkest
darkness
darling
darmstadt
darth
darwin
das
dassen
dat
data
databank
database
date
datearje
datearjend
datearjende
datearre
datearret
datearring
dateformat
datoangeande
datselde
datseldichste
datst
datum
daughter
dave
davenport
david
davids
davidson
davies
davis
davos
daw
dawn
dawson
day
daylight
daylights
days
dbnl
dbroek
dc
dd
ddr
de
dea
deabenaud
deacon
dead
deade
deaden
deadet
deadien
deadlik
deadlike
deadline
deadly
deadpool
deadsoarsaak
deadsstjer
deadwood
deadzje
deadzjen
deakiste
deal
deamakke
dean
dear
dearinnende
dearsum
deasjit
deasjitte
deasketten
deaslein
deast
deasten
deastkant
deastlik
deastlike
deastraf
death
deathmetalband
deawaande
deba
debat
debatten
debbie
deborah
debu
debutearre
deceiver
december
decker
dedzjum
dee
deeglik
deel
deelen
deen
deensk
deenske
deep
deer
defender
definie
definiearre
definitive
definityf
definsje
definysje
definysjes
deftige
degen
degli
degradearre
degree
dei
deible
deiboek
deiboeken
deiboekskriuwer
deilis
deilisskip
deiljocht
dein
deinum
deis
deiske
deiskema
deistich
deistige
dejinge
dejingen
dek
dekaan
dekema
dekemastate
deken
dekken
dekker
dekking
dekloft
deko
dekoraasje
dekoraasjes
dekorative
dekorearre
dekreet
dekt
del
delaware
delawe
delbe
delegaasje
delegers
delfal
delfsyl
delft
delfy
delgeande
delgong
delhelle
delhi
delikt
delkaam
delkomme
delkommen
delkomt
dell
della
delle
dellein
delling
dellingen
dellizze
delon
delset
delsette
delsetten
delsetting
delsettingen
delsettings
delsketten
delslaan
delslach
delslein
delstoart
delstoarte
delstoarten
delta
delte
dem
demand
demetrius
demi
demille
demintens
demjanjuk
demo
demoanen
demoanyske
demografy
demokraat
demokrasy
demokraten
demokratysk
demokratyske
demon
demonstraasje
demonstraasjes
demonstranten
den
denaarje
denali
dendarii
dene
denemark
denemarken
denen
denis
denise
dennis
denominaasje
denominaasjes
denton
denver
denzel
deo
depart
departemint
departeminten
department
deportaasje
deportearre
depot
depresje
depressiviteit
deputearre
deputearren
der
derby
derde
derefter
derefteroan
derek
derfan
derfoar
derhinne
derk
dermei
dernei
dero
deroan
deroer
derom
deromhinne
derop
derry
derta
dertroch
deru
derudio
deryn
des
descartes
desdemona
deselde
desennia
desennium
desersje
desert
desertearre
design
designated
desimber
desire
desius
desjima
desmarest
desmond
desolation
despicable
dessau
destiids
destiidske
destiny
destroyer
desyllu
det
detail
detailhannel
detaillearre
details
detasjearre
detasjemint
detective
detektive
detektivesearje
detocht
detochtrider
detroit
deugd
deugden
deun
deunby
deur
deutsch
deutsche
deutschen
deutscher
deutsches
deutschland
deux
development
deventer
devil
devon
dexter
deze
dgeldersk
dgrins
dh
dhe
dholla
dhorn
dhr
dhu
di
dia
diabolic
diagnoaze
diagram
diaken
diakrityske
dialekt
dialekten
dialogen
dialooch
diamant
diamanten
diameter
diamond
diamonds
diana
diane
diaries
diary
diaspora
diaz
dich
dicht
dichtbondel
dichtbondels
dichter
dichteres
dichteresse
dichters
dichtkeunst
dichtsjen
dichtwurk
dick
dickens
dickinson
dictionary
did
diderik
dido
die
died
dieden
dieder
diederik
dieders
dieet
dief
diego
diel
dield
dielde
dielden
diele
dielen
dieling
dielnaam
dielname
dielnimme
dielnimmende
dielnimmer
dielnimmers
dielnimming
dielnommen
diels
dielsteat
dielsteaten
dielt
dieltsjes
diemen
dien
diene
dienen
dienst
diep
dier
dieren
dieretu
dierlike
dies
dietrich
dietz
dieven
diever
dieverij
diez
difyzje
difyzjes
dige
diggelguod
digitaal
digital
digitale
dij
dijk
dijkstra
dijon
dik
diken
dikke
diktator
diktatoriale
diktatuer
diktee
dilemma
dillenburg
dimitri
dimter
din
diner
ding
dingen
dingsboat
dino
dinosaurie
dio
diokletianus
diomedes
dion
dionysius
dionysus
diploma
diplomaat
diplomasy
diplomaten
diplomatic
diplomatike
diplomatyk
dir
dirck
direct
direction
director
direksje
direkt
direkte
direkteur
direktrise
dirigint
dirk
dirks
dirty
dis
discjockey
discovery
disease
diselmotor
diskear
diskografy
diskriminaasje
diskusje
diskusjes
diskussmite
diskwalifisearre
disme
disney
disposysje
dissertaasje
dissidint
dissipels
dissipline
dissiplines
distiid
distribu
distribue
distributeur
distribution
district
distrikt
distrikten
dit
ditions
ditmar
divine
division
dixon
dize
dizenich
dizze
dizzen
dj
djip
djipdro
djipgong
djippe
djipper
djipste
djipte
djiptepunt
djoer
djoerder
djoere
djoerste
dkant
dkoreaansk
dkoreaanske
dkust
dl
dlik
dlike
dliken
dliker
dlikste
dln
dm
dmitri
dna
dnederla
dnjepr
do
doalert
doanjewersta
doanjum
doar
doardt
doareste
doarnik
doarp
doarpen
doarpke
doarpkes
doarpsbelang
doarpsfeest
doarpsgebiet
doarpsgesicht
doarpsgesichten
doarpshu
doarpskearn
doarpskrante
doarpsstrjitte
doarpstsjerke
doarpswapen
doarren
dobbe
doc
doch
dochs
docht
dochter
dochterke
dochters
dochteru
doctor
document
dodge
dodo
doe
doede
doedestiden
doedestiids
doedestiidske
doek
doeke
doeken
doeksen
doel
doele
doelen
doelgroep
doelpunt
doelpunten
doelstelling
doelstellings
doelwyt
doemberch
doen
doer
does
doesburg
doet
doetiid
doetiids
doetiidske
doetinchem
doezum
dog
doge
dogge
dogma
dogs
doherty
doi
dokkum
dokkumer
doksaal
dokter
dokters
doktor
doktoraat
dokumint
dokumintaasje
dokumintaasjesintrum
dokuminte
dokumintearre
dokuminten
dol
dolea
dolf
dolfinen
doll
dollar
dollars
dolls
dolly
dolsterhuzen
dom
domein
domeinen
domela
domenico
domesday
domestisearre
domina
dominant
dominante
dominearre
dominee
domini
dominika
dominikaanske
dominikanen
dominion
dominique
domino
domitianus
domme
domtsjerke
don
donald
donatus
donau
done
donetsk
dong
dongen
dongeradiel
donia
donker
donkerbroek
donkere
donna
donnie
donovan
doocht
dood
dooku
doolittle
doom
doop
doopfont
doophek
doopkapel
doopt
door
doorman
doorn
doors
dop
dope
doper
doperske
dopertsjerke
doping
dora
dorcel
dorchester
dordrecht
dore
doreste
doris
dorothea
dorothy
dorp
dorset
dorus
dory
dos
dosint
dosinte
dosinten
dossier
dossiers
douard
double
doubleday
doug
dough
douglas
douglass
douma
doutzen
douwama
douwe
douwes
douwstra
dover
dowestien
down
download
doyle
dozois
dpoal
dpunt
dr
dra
draacht
draachtiid
draaft
draai
draaid
draaide
draaie
draaien
draaiende
draait
draak
dracht
drachten
drachtster
dracula
drage
dragen
drager
dragers
drago
dragon
dragons
drait
drake
draken
drale
drama
dramafilm
dramarige
dramasearje
dramatysk
dramatyske
drank
dranken
drave
draven
dravot
drax
dre
dream
dreamen
dreams
dreamweaver
dreamworks
dreau
dreaun
dreaune
drebbel
dreech
drees
drege
dreger
drekt
drenthe
drentse
dresden
dressuer
drew
drie
driebergen
driezum
drift
drige
drigen
driget
driging
driigje
driigjende
drinke
drinken
drinkt
drinkwetter
drinte
drintsk
drintske
drip
driuwe
driuwen
driuwend
driuwende
driuwt
driuwwa
drive
driver
dro
droech
droegeham
droegen
droids
drok
drokke
drokste
drokte
dromen
dronk
dronken
dronkenskip
dronryp
droom
drost
drs
dru
drug
drugs
drugshannel
drui
druk
drukken
drukker
drukkerij
drukt
drukte
druktechnyk
drummer
drums
drusus
druven
drylts
dryste
ds
dsee
dside
dsje
dskleur
dsm
dsmixing
dsmontaazje
dsteat
dsteaten
dt
dte
du
dualistyske
dublin
dubrovnik
duck
duco
dudley
dudu
due
duel
duerstede
duerswa
duet
duim
duin
duinen
duisburg
duke
dukes
dumas
dume
dumfries
dunbar
duncan
dundee
dune
dunegea
dunen
dunkirk
duo
duology
duomo
duorje
duorjend
duorjende
duorre
duorren
duorret
duorsum
duorsume
dur
durch
durham
durk
dus
dust
dustin
dusty
dutch
dutsen
duval
duveke
duvel
duvela
dvd
dwa
dwaan
dwaande
dwayne
dwe
dwerch
dwerchu
dwergen
dwers
dwersskip
dwest
dwesten
dwesthoeke
dwesthoeksk
dwestkust
dwestlik
dwestlike
dwight
dy
dyas
dying
dyjinge
dyjingen
dyk
dykgraaf
dykhurdfytsen
dykstra
dykwedstriid
dylan
dyn
dynamite
dynasty
dynastyen
dyrdek
dyselde
dyselden
dyseldichste
dyske
dystopyske
dz
dzje
dzjebeurs
dzjen
dzjes
dzjetiid
dzjibu
e
ea
each
eachje
eachpunt
eachtsju
eadu
eagen
eagle
eagles
eagmaryp
eagum
ealahuzen
ealfrouwe
eallju
ealman
ealstiennen
ealsum
eangst
eangstme
eanjum
ear
earbetoan
eardat
earder
eardere
eare
eareboarger
earedifyzje
earedoktoraat
earelid
earelist
earen
earetitel
earetsjinst
earfol
earfolle
earhart
earik
earjen
earl
earlellen
earlik
earlike
early
earm
earme
earmen
earmere
earmhu
earmoed
earmoede
earmoedegrins
earmoedige
earms
earn
earne
earnen
earnewa
earnst
earnstich
earnstige
earp
earrebarre
earring
earst
earste
earsten
earstfolgjende
earstoan
earth
eartiids
eartiidske
eask
easke
easken
easket
easkje
easkjen
east
eastaziatyske
eastblok
eastdongeradiel
eastein
easten
eastenrikers
eastenryk
eastenryksk
eastenrykske
easter
easterbierrum
easterein
eastergoa
easterlittens
eastermar
eastern
easternijtsjerk
eastersee
eastersk
easterske
easterwa
easterwierrum
eastfriezen
eastfront
eastfrysk
eastfryske
eastfrysla
eastgrins
easthim
eastkant
eastkust
eastlik
eastlike
eastliker
eastman
easton
eastromeinske
eastrum
eastsee
eastside
eaststellingwerf
eastwood
eastyndyske
easy
eat
eb
eberhard
ebert
ec
echo
echt
echte
echternach
economic
economics
ed
edam
edda
eddie
eddy
ede
edele
edelman
eden
edgar
edge
edgerly
edi
edikt
edinboarch
edinburch
edinburgh
edison
edith
edition
edmond
edmonton
edmund
edo
eds
edu
eduard
eduardo
education
edukative
edvard
edward
edwardeila
edwards
edwert
edwin
edysje
edysjes
edzard
ee
eed
eeden
eefkes
eeghen
eekhof
eekhoff
eelco
eelde
eelke
eeltsje
eem
eemnes
een
eendracht
eene
eenige
eens
eer
eerste
eeuw
eeuwen
efeze
efezie
effects
effekt
effekten
effektive
effektyf
efkes
efter
efterbleaun
efterbleaune
efterbliuwt
efterdoar
efterelkoar
efteren
efterfolge
efterfolgers
efterfolget
efterfolging
eftergru
efterheaksel
efterheljen
efterhelle
efterinoar
efterkant
efterla
efterliet
efterlit
efterlitte
efterlitten
efterlizzende
efternamme
efternammen
efterneef
efternei
eftero
efteroan
efteroer
efterpoaten
efterside
eftersta
efterste
efteru
efteryn
eftich
eftige
eftigen
egbert
egberts
egeyske
egmond
egmont
ego
egoi
egypte
egyptners
egyptysk
egyptyske
ei
eider
eiderstedt
eifel
eiffeltoer
eigen
eigenaresse
eigendom
eigendommen
eigene
eigener
eigeners
eigenhandich
eigennamme
eigenskip
eigenskippen
eigenskipswurd
eigenskipswurden
eigentlik
eigentlike
eight
eigner
eigneresse
eigners
eila
eiland
eilannegroep
eilannen
eilanners
eilantsje
eilantsjes
ein
einar
einbeslu
einde
eindhoven
eine
einekoai
eineksamen
eineksamens
einen
einer
einfu
einige
einigen
einiget
einigje
einigjen
einklassemint
einlik
einliks
einlings
einpunt
einrangskikking
einredakteur
eins
einsta
einstein
einstreek
eintsje
eise
eisenach
eisenhower
eisenstadt
eisinga
eisner
ejakulaasje
ek
ekaterin
eken
eklektyske
ekology
ekologyske
ekonomy
ekonomysk
ekonomyske
ekonoom
eks
eksakte
eksamen
eksamens
ekseku
eksekutearre
eksimplaar
eksimplaren
eksintrike
eksklave
eksklusive
eksklusyf
eksmoarre
eksoat
eksoatyske
ekspa
ekspe
ekspedysje
ekspedysjes
eksperimint
eksperimintearre
eksperimintele
eksperiminten
eksplisyt
eksploazje
eksploitaasje
eksploitearjen
eksploitearre
eksplosive
eksplosiven
eksport
eksportearre
eksposearre
eksposysje
eksposysjes
ekspres
ekspresjonisme
ekspresjonistyske
eksterieur
eksterne
ekstra
ekstreem
ekstreme
ekstremistyske
ekwador
ekwatoriaal
ekwifalint
ekwivalint
ekwivalinte
el
elaine
elbe
elburch
eleanor
electra
electric
elegant
elektoraat
elektra
elektrisiteit
elektroanen
elektroanika
elektroanysk
elektroanyske
elektromagnetyske
elektron
elektrysk
elektryske
element
elementary
elemint
eleminte
eleminten
elena
eleo
elephant
elf
elfke
elfkes
elfkestof
eli
elias
elie
elijah
elikser
eliot
elisabet
elisabeth
elise
elite
eliza
elizabetaanske
elizabeth
elk
elke
elkenien
elkoar
ell
ella
elle
ellen
eller
ellie
elliot
elliott
ellis
elrod
elrond
els
elsa
else
elsevier
elske
elslo
elst
elstree
elton
elts
eltse
eltsenien
elum
elven
elvis
ely
elzas
em
emansipaasje
emanuel
emberiza
embleem
embryo
emden
emeritaat
emerson
emi
emigraasje
emigranten
emigrearre
emigrearren
emil
emile
emilia
emilio
emily
eminem
eminga
emir
emiraat
emiraten
emma
emmanuel
emmanuelle
emmeloard
emmen
emmius
emmy
emoasje
emoasjes
emosjoneel
emosjonele
emperor
empire
ems
en
encyclopedia
encyclopedie
end
ende
endgame
endor
enemy
energy
enerzjy
enerzjyskyld
engel
engelbert
engelen
engelenfeart
engels
england
english
enige
enke
enklave
enklaves
ennio
enno
enoarme
enoch
enough
enrique
enris
ensafh
ensafuorthinne
enschede
ensemble
ensfh
ensyklopedy
enterprise
enterprises
entertainment
entomolooch
entu
eo
eon
ep
ephraim
epic
epidemy
epilooch
episkopaalske
episoade
episode
epitaaf
epo
epos
eppie
epysk
epyske
equalizer
er
era
erasmus
erch
erchtinkend
erdige
erebia
ereksje
erf
erfde
erfenis
erfgenamt
erfgenamte
erfgenamten
erfgoed
erflik
erflike
erfopfolging
erfskip
eric
erica
erich
erik
erika
erin
eritrea
erkend
erkende
erkenden
erkenne
erkennen
erkenning
erkent
erlko
ernest
ernesto
ernie
ernst
eroatysk
eroatyske
eroazje
erotyk
ers
erskine
erso
erve
erven
erwin
es
escape
escher
esdras
esens
eskader
eskimo
esme
espan
espel
esperanto
essay
essayist
essays
esseks
essen
essential
essinsje
essinsjeel
essun
est
estafette
estaing
este
esteban
ester
estetyske
esther
estla
estuarium
estysk
estyske
et
eta
etappe
etappes
etc
ete
eten
ethan
ethel
ethnologue
etioopje
etiopysk
etiopyske
etnisiteit
etnolooch
etnysk
etnyske
etsen
etser
etyk
etymology
etymologysk
etyske
eu
eufraat
euge
eugene
eugenius
eure
euripides
euro
eurofyzjesongfestival
europa
europe
european
europeanen
europeesk
europeeske
europese
eurysteus
eusebius
eustachius
eustasius
eutanasy
euvelmoed
eva
evakuaasje
evakue
evan
evangeelje
evangeeljes
evangelist
evangelisten
evangelysk
evangelyske
evans
evanston
eve
evelyn
even
evenemint
eveneminten
evener
evenhoevige
evenhoevigen
evening
eventing
eventue
eventueel
eventuele
eventyr
ever
everest
everett
everhard
everswyn
evert
every
everybody
evic
evil
evolu
ewan
ewok
ewoks
ewsum
ex
excalibur
excelsior
executive
exegol
exeter
exhibition
exodus
experience
explorer
expo
express
extended
extra
extreme
exupe
eyck
eye
eyes
eysinga
eysingastate
ez
ezau
ezechie
ezel
ezinge
ezra
f
fa
faai
faak
faaks
faam
faandrich
faas
faasje
fabels
faber
fabricius
fabrikaazje
fabrikant
fabrikanten
fabriken
fabryk
face
facebook
factbook
facto
factor
factory
fadrique
faero
fagina
fagot
fair
fairbanks
fairy
faith
fak
faka
fakbu
fakentiden
faker
fakken
faksisme
faksist
faksisten
faksistyske
faksjuery
faktoaren
faktor
fakulteit
fakulteiten
fakuu
fakwurkhu
fal
falck
falco
falcon
falen
falentinianus
falentynsdei
falk
falkena
falkirk
falkla
fall
fallaat
falle
fallei
fallen
fallende
fallene
falling
falls
fallyt
falom
falsk
falske
falt
fam
fame
familie
family
famke
famkes
famkesnamme
famme
fammen
famous
fampier
fampieren
famylje
famyljebedriuw
famyljefilm
famyljeleden
famyljelid
famyljenamme
famyljenammen
famyljes
famyljewapen
fan
fana
fanatike
fandaalske
fandalen
fande
fanfare
fang
fange
fangen
fangt
faninoar
fanke
fannijs
fanny
fano
fans
fansels
fansiden
fantasij
fantastic
fantasy
fantasyfilm
fantasyliteratuer
fantasyroman
fantasysjenre
fantasyskriuwer
fanu
fanwege
fanwegen
far
faramir
farao
fard
farde
farden
fargo
fariaasje
fariaasjes
fariant
farianten
farie
farm
farman
farmer
farmsum
farre
farrell
farren
farsk
farske
fart
fartu
farve
farwetter
farwol
fashion
fasiliteit
fasiliteiten
faso
fassinaasje
fassinearre
fast
fat
fataal
fatale
fate
father
fatikaan
fatikaanste
fatsoen
fatsoenlik
fauna
favor
favorite
favoryt
fawcett
fawn
fazal
fazallen
fazalsteat
faze
fazen
fazes
fbaarnd
fbaarnde
fbi
fbraak
fbrekke
fbrekken
fbrutsen
fbyld
fbylde
fbylden
fbylding
fbyldings
fc
fdaling
fdieling
fdielingen
fdielings
fdier
fdieren
fdruk
fdrukken
fe
fean
feandam
feanen
feangebiet
feangebieten
feangru
feanhoop
feanhuzen
feankleaster
feankoloanjes
feanpolder
feanster
feanterij
feanwa
fear
fearboat
fearboaten
feardichheden
feardichheid
feare
fearen
fearless
fearn
fearnsiuw
fearnsjier
fearren
fears
feart
fearten
feartsjinst
feartsjinsten
feat
feature
features
feb
febr
febrewaris
fecht
fedde
federaal
federaasje
federal
federale
federation
federico
fee
feeboeren
feeha
feemerk
feenstra
feer
feest
feestdagen
feestdei
feesten
feestlik
feestlike
fegetaasje
feike
feilich
feilichheid
feilichheidstsjinst
feilige
feiligens
feiliger
feiling
feinsum
feint
feinten
feit
feite
feiten
feith
feitlik
feitlike
feitliks
feitsma
fek
fel
feldkirch
felipe
felix
fellatio
felle
fellowship
feluwe
feluwsk
female
feminisme
feminist
feministe
feministyske
femke
femme
femmes
fen
feneesje
feneetsje
fenesiaanske
fenesianen
fenezolaanske
fenezue
fenisysk
fenisyske
fenlo
fennema
fenomeen
fens
fenus
fenysje
fenysjers
feodale
fer
fera
ferantwurding
ferantwurdlik
ferantwurdlike
ferantwurdlikens
ferantwurdlikheid
ferba
ferbaarnd
ferbaarnde
ferbaarnen
ferballe
ferballing
ferbannen
ferbastere
ferbastering
ferbea
ferbean
ferbeane
ferbergjen
ferbettere
ferbettering
ferbetterings
ferbetterje
ferbetterjen
ferbieden
ferbiedt
ferbine
ferbinen
ferbining
ferbiningen
ferbinings
ferbiningsbo
ferbiningswei
ferbittere
ferbjustere
ferbleau
ferbliuw
ferbliuwe
ferbliuwt
ferbod
ferboeking
ferbou
ferboud
ferboude
ferbouwe
ferbouwen
ferbouwing
ferbouwings
ferbra
ferbrede
ferbrekken
ferbriek
ferbrutsen
ferbu
ferburgen
ferbylding
ferbynt
ferdield
ferdielde
ferdielen
ferdieling
ferdigene
ferdigener
ferdigeners
ferdigenet
ferdigening
ferdigeningsliny
ferdigeningswurk
ferdigeningswurken
ferdigenje
ferdigenjen
ferdinand
ferdivedaasje
ferdivedaasjepark
ferdivedaasjeparken
ferdjippe
ferdjipping
ferdjippings
ferdo
ferdrach
ferdraggen
ferdreau
ferdreaun
ferdrinking
ferdriuwen
ferdriuwing
ferdronk
ferdronken
ferdu
ferdun
ferdwaalde
ferdwine
ferdwinen
ferdwining
ferdwu
ferdwynt
ferdylge
ferdylgje
ferdylgjen
fereale
fereare
ferearing
ferearjen
fereaske
ferfal
ferfallen
ferfalske
ferfalsking
ferfange
ferfangen
ferfanger
ferfanging
ferfangt
ferfarde
ferfarre
ferfarren
ferfeanting
ferfear
ferfearen
ferfearn
ferfelende
ferfette
ferfier
ferfierd
ferfiere
ferfieren
ferfiermiddel
ferfilme
ferfilming
ferfilmings
ferfine
ferfoel
ferfolch
ferfolchfilm
ferfolchfilms
ferfolchtrilogy
ferfolge
ferfolgen
ferfolgens
ferfolging
ferfolgings
ferfolje
ferfolle
ferfollet
ferfong
ferfongen
ferfrjemde
ferfrysking
fergees
fergelike
fergeliking
fergelykber
fergelykbere
fergelykjen
fergese
fergetten
fergien
fergif
fergiftige
fergilius
fergoade
fergoeding
fergrutsje
fergrutsjen
fergrutte
fergulde
fergunning
ferguson
ferha
ferhaal
ferhaalline
ferhaallinen
ferhalebondel
ferhalebondels
ferhalen
ferhaleskriuwer
ferhannele
ferhanneling
ferheard
ferheardens
ferheegjen
ferheffing
ferheft
ferheftige
ferhege
ferheging
ferheljende
ferhelle
ferhellet
ferhierd
ferholpen
ferhu
ferhurde
ferhuze
ferhuzen
ferhuzet
ferhuzing
feriene
ferienfa
ferienige
ferieniging
feriening
ferieningen
ferienings
ferienjen
fering
ferjaan
ferjage
ferjilding
ferjit
ferjitte
ferjitten
ferju
ferkate
ferkeap
ferkeaper
ferkeapet
ferkeapje
ferkeapjen
ferkeapjende
ferkeapsifers
ferkear
ferkeard
ferkearde
ferkeare
ferkearing
ferkearsbuorden
ferkearsfleanmasine
ferkearsfleantu
ferkearsknooppunt
ferkearsu
ferkeart
ferkeatst
ferkeazen
ferkend
ferkende
ferkennen
ferkenner
ferkenners
ferkenning
ferkenningsfleanmasine
ferkiesber
ferkiezing
ferkiezingen
ferkiezings
ferklaaid
ferklearje
ferklearjen
ferklearre
ferklearren
ferklearret
ferklearring
ferklearrings
ferkoarte
ferkoarting
ferkocht
ferkochte
ferkochten
ferkre
ferkrongen
ferkundige
ferkundiging
ferlaat
ferlamme
ferlear
ferlearen
ferlechje
ferlege
ferlegenheid
ferlein
ferlern
ferlerne
ferlet
ferliede
ferlieden
ferlieding
ferliend
ferliende
ferlienen
ferlies
ferliest
ferliet
ferlieten
ferlieze
ferliezen
ferliezers
ferlike
ferliking
ferline
ferlingde
ferlinge
ferlinging
ferlit
ferlitte
ferlitten
ferljochte
ferljochting
ferlof
ferloofd
ferloofde
ferlosser
ferlosserkatedraal
ferlossertsjerke
ferlossing
ferloving
ferlykber
ferlykbere
ferlykje
ferlykjen
ferlykjende
ferlyn
fermaak
fermaaklik
fermakke
fermanje
fermannichfa
fermeld
fermelde
fermelden
fermelding
fermidden
fermiddens
fermindere
ferminderjen
ferminging
fermist
fermiste
fermoarde
fermoarden
fermoardet
fermoardzje
fermoardzjen
fermoede
fermoeden
fermoedet
fermoedlik
fermoedsoening
fermogen
fermogens
fermongen
fermont
ferna
fernaam
fernando
ferneamd
ferneamde
ferneamdens
ferneamdste
ferneatige
ferneatigen
ferneatiget
ferneatiging
ferneatigingskamp
ferneatigingskampen
ferneatigje
ferneatigjen
fernederjende
fernield
fernielde
fernielings
fernijd
fernijde
fernijing
fernijings
fernimmen
fernimt
fernommen
fero
feroardering
feroardield
feroardielden
feroardiele
feroardielet
feroardieling
feroare
feroaren
feroaret
feroaring
feroaringen
feroarings
feroarje
feroarjen
feroarjende
feroarsaakje
feroarsaakjen
feroarsake
feroarsaken
feroarsaket
ferovere
feroveren
feroveret
ferovering
feroverje
feroverjen
ferpachte
ferparte
ferpartsjen
ferpleatse
ferpleatsen
ferpleatst
ferpleatste
ferpleechhu
ferpleechkundige
ferpleechster
ferpletterjende
ferplicht
ferplichte
ferplichting
ferplichtings
ferrara
ferrari
ferrassend
ferrassing
ferrer
ferrera
ferret
ferriden
ferrie
ferrieder
ferriedlike
ferriedt
ferrier
ferrin
ferrinnewearre
ferrint
ferrizenis
ferrjochte
ferrjochtsjen
ferru
ferruile
ferry
fers
fersa
ferse
fersekering
fersekeringsmaatskippij
fersen
ferset
fersetsbasis
fersetsfloat
fersetsgroep
fersetslju
fersetsman
fersetsstrider
fersetsstriders
fersette
fersetten
fersierd
fersierde
fersierings
fersiken
fersille
fersin
ferska
ferskaat
ferskate
ferskaten
ferske
ferskeidene
ferskes
ferskil
ferskilde
ferskille
ferskillen
ferskillend
ferskillende
ferskilt
ferskine
ferskinen
ferskining
ferskode
ferskood
ferskowing
ferskriklik
ferskriklike
fersku
ferskuord
ferskuorrende
ferskynd
ferskynde
ferskynden
ferskynsel
ferskynsels
ferskynt
ferslaan
ferslaat
ferslach
ferslachjouster
ferslachjouwer
ferslachjouwing
ferslacht
ferslaggen
ferslane
ferslaving
ferslein
fersleine
fersloech
fersloegen
fersmiten
fersmoarge
fersmoarging
fersnellingsbakwiksel
fersoarge
fersoarget
fersoarging
fersoargingshu
fersoargingsplak
fersoargje
fersoargjen
fersocht
ferspraat
fersprate
ferspraten
ferspriede
fersprieden
fersprieding
ferspriedingsgebiet
fersta
ferstean
fersteanber
fersterke
fersterking
fersterkings
fersterkje
fersterkjen
fersteurd
fersteuring
ferstien
ferstienne
ferstjerren
ferstjert
ferstjoerd
ferstoar
ferstoaren
ferstoarn
ferstoarne
ferstoarnen
ferstoppe
ferstruii
fersu
ferswakke
fersyk
fert
fertaald
fertaalde
fertaling
fertalings
ferteld
fertelde
fertelden
fertelle
fertellen
ferteller
fertelt
fertikaal
fertikale
fertinking
fertoand
fertoande
fertoane
fertoaning
fertoant
fertocht
fertochte
fertochten
fertolke
fertolker
fertolking
fertrage
fertraging
fertrek
fertrekken
fertriet
fertroud
fertroude
fertrout
fertrouwe
fertrouwen
fertsjinje
fertsjinjen
fertsjinne
fertsjinnen
fertsjinnet
fertsjinste
fertsjinsten
fertsjinstlik
fertsjintwurdige
fertsjintwurdigen
fertsjintwurdiger
fertsjintwurdigers
fertsjintwurdiget
fertsjintwurdiging
fertsjintwurdigje
fertsjintwurdigjen
fertutearze
fertuten
feru
ferve
ferver
ferwa
ferwaarme
ferwaarming
ferwachte
ferwachtet
ferwachting
ferwachtings
ferwachtsje
ferwachtsjen
ferwar
ferwerda
ferwerderadiel
ferwert
ferwidere
ferwidering
ferwiderjen
ferwiisd
ferwiisde
ferwiist
ferwikkele
ferwiten
ferwize
ferwizen
ferwizend
ferwizing
ferwizings
ferwoaste
ferwoastge
ferwoastging
ferwolkomme
ferwu
ferwulft
ferwulften
ferwuostge
ferwuostging
ferwurke
ferwurking
ferwurkjen
ferwyldere
ferzen
ferzje
ferzjes
fest
festige
festigen
festiging
festing
festingste
festingwurk
festival
festivals
festiviteiten
fet
fetber
fete
feteraan
feteranen
fetkeapers
fett
fette
fetten
fetterman
fetysjmodel
fever
few
fey
feye
feyenoord
feytsma
ff
ffal
ffallende
ffier
ffierd
ffreding
ffu
ffurdige
ffurdigen
fgean
fgeand
fgeande
fgie
fgien
fgiet
fgraven
fgriis
fgroeven
fgru
fgryslik
fgryslike
fha
fhandich
fhandige
fhelle
fhinklik
fhinklike
fhinklikens
fhinklikheid
fhinklikheidsferklearring
fhinklikheidsoarloch
fhinklikheidsoarloggen
fhm
fi
fia
fiadukt
fiasko
ficino
fiction
fidel
fideo
fideoclip
fideoklip
fideoklips
fideospultsje
fideospultsjes
fidzjy
fieding
fiedingsstoffen
fiedsel
field
fielde
fielden
fields
fiele
fielen
fielt
fier
fierd
fierde
fierden
fierder
fierdere
fierderop
fierders
fierdersoan
fiere
fieren
fiergeande
fierhinne
fiering
fierljeppen
fierljepper
fierrens
fierspringe
fierst
fierste
fiersten
fierstente
fiert
fiertaal
fierte
fiertu
fiertugen
fierwei
fietnam
fifa
fife
fifth
fifty
fight
fighting
figuer
figueren
figuranten
figurative
figurearre
figures
fiif
fiifde
fiifentweintich
fiifgea
fiifhu
fiifjierrige
fiifkamp
fiiftal
fija
fijannen
fijannich
fijannichheden
fijannige
fikaris
fiksje
fiksjeboek
fiksjewurk
fiktive
fiktoaria
fiktor
fiktoriaanske
fiktyf
filantroop
file
files
filiaal
filipinen
filippus
filips
filipynsk
filipynske
filistinen
filla
film
filmadaptaasje
filmakteur
filmaktrise
filmcrew
filmdebu
filmdistribu
filme
filmeditor
filmfestival
filmfestivals
filmhu
filmjen
filmkarrie
filmke
filmkes
filmkeunst
filmkritikus
filmkritisy
filmmakker
filmmakkers
filmmontaazje
filmmusical
filmmuzyk
filmografy
filmpriis
filmprizen
filmproduksje
filmprodusint
filmprodusinte
filmprodusinten
filmprojekt
filmpublyk
filmregisseur
filmrige
filmrjochten
filmrol
films
filmsearje
filmsenario
filmset
filmsjenre
filmskiednis
filmstjer
filmstudio
filmterm
filmtrilogy
filmyndustry
filmynstitu
filokte
filosofen
filosofy
filosofyske
filosoof
fils
fin
fina
finaal
final
finale
finales
finalist
finansierd
finansiere
finansieren
finansiering
finansjeel
finansjele
finansjen
finch
find
finding
fine
finen
finger
fingerjen
fingers
finis
finish
finisht
finiste
finla
finn
finne
finnen
finsint
finsk
finske
finster
finsters
finsterwolde
finzen
finzene
finzenen
finzenis
finzenissen
finzenisstraf
finzennommen
finzenset
finzenskip
fioele
fioelist
fiolet
fiona
fire
fires
firginia
firma
first
firth
firus
firussen
fisazjy
fischer
fise
fish
fisher
fisigoaten
fisigoatyske
fisk
fiske
fisken
fisker
fiskerij
fiskers
fiskersdoarp
fiskjen
fistful
fisto
fisue
fisueel
fisuele
fisy
fit
fitamine
fitere
fiteret
fiterjen
fitness
fitustsjerke
fitz
fitzgerald
fivb
five
fivelgoa
fiver
fivers
fix
fizel
fizier
fizioen
fizioenen
fjaan
fjetnam
fjetnameesk
fjetnameeske
fjetnamezen
fjetnamoarloch
fjild
fjilden
fjildhear
fjildhospitaal
fjildmaarskalk
fjildmu
fjildmuorren
fjildnamme
fjildslach
fjildslaggen
fjildtocht
fjildtochten
fjirde
fjirder
fjirtich
fjirtiger
fjirtjin
fjirtjinde
fjirtjinjierrige
fjochte
fjochtet
fjochtpartij
fjochtsje
fjochtsjen
fjochtsport
fjodor
fjoer
fjoergefjocht
fjoerla
fjoertoer
fjoerwapen
fjoerwapens
fjoerwurk
fjord
fjorden
fjouwer
fjouwerdielige
fjouwerhu
fjouwerkant
fjouwerkante
fjouwertal
fju
fjurren
fk
fkard
fkelder
fkoarte
fkoarting
fkoartings
fkomstich
fkomstige
fkundige
fl
fla
flaaks
flaamsk
flaamske
flaanderen
flaardingen
flaat
flag
flagge
flaggen
flaggeskip
flak
flakby
flakke
flakken
flakte
flakten
flam
flambeau
flame
flamingen
flamingo
flammen
flank
flankearre
flash
flashbacks
flat
flate
flater
flaters
flatgebou
flavius
fleach
fleagen
fleanbasis
fleanberik
fleanbrevet
fleandekskip
fleandekskippen
fleander
fleane
fleanen
fleanend
fleanende
fleanfjild
fleanfjilden
fleanmasine
fleanmasines
fleanramp
fleant
fleantiid
fleantu
fleantugen
flearmu
fleat
flecht
flechte
flechtelingen
flechten
flechtet
flechtlingen
flechtsje
flechtsjen
flechtsjende
fleet
flein
fleis
flekke
fleming
flentrop
flesh
flesse
fletcher
fleugel
fleugeloerflak
fleugels
fleur
fleurich
fleurige
flevere
flevering
fleveringen
fleverings
flevola
fliede
flieding
flier
fliet
flight
flikken
flink
flinke
flint
flinter
flinters
flinterskaai
flinterslach
flintersoarte
flip
flissingen
flizze
fljocht
floara
floarida
floaris
float
flodder
flodders
floed
floeiber
floeibere
floeiend
floeistof
flok
floor
flopte
flora
florence
floret
florida
floris
flot
flower
flowers
floyd
flu
fluch
fluchst
fluchste
fluezen
flugge
flugger
fluit
fly
flying
flyla
flynn
flynt
fm
fmakke
fmeitsje
fmjittings
fmonumint
fmonuminten
fn
fnaam
fnimmende
fnommen
fnp
fo
foa
foar
foara
foaral
foarbeholden
foarby
foarbyld
foarbylden
foardat
foardere
foardiel
foardielen
foardoar
foardocht
foardracht
foardrachten
foardroegen
foarearst
foaren
foarfaar
foarfal
foarfallen
foarfe
foarferkiezings
foarfjochter
foargeande
foargevel
foargoed
foargonger
foargongers
foargru
foarha
foarheaksel
foarhinne
foarhoede
foarholle
foarhu
foarige
foarinoar
foarjier
foarju
foarkaam
foarkamen
foarkant
foarkar
foarkomd
foarkomme
foarkommen
foarkommend
foarkommende
foarkomt
foarla
foarle
foarleafde
foarlein
foarljochting
foarm
foarman
foarme
foarmen
foarmet
foarmige
foarming
foarmje
foarmjen
foarmjouwing
foarmju
foarnaamste
foarname
foarnamme
foarnammen
foarnamwurd
foarnamwurden
foarne
foarnimmen
foarnommen
foaro
foaroan
foaroanlju
foaroanman
foaroanmannen
foaroansteand
foaroansteande
foaroardielen
foaroer
foarop
foaropwurd
foarpoaten
foarpommeren
foarrang
foarren
foarrie
foarrieden
foarrige
foarrinder
foarrinner
foars
foarse
foarseach
foarsei
foarsein
foarseit
foarsichtich
foarside
foarsitter
foarsitters
foarsitterskip
foarsizzing
foarsizzings
foarsjen
foarsjennings
foarsjocht
foarsjoen
foarskiednis
foarskriften
foarspraak
foarsprong
foarst
foarstanner
foarstanners
foarste
foarstedom
foarstedommen
foarstel
foarsteld
foarstelde
foarstelle
foarstellen
foarstelling
foarstellingen
foarstellings
foarstelt
foarsten
foarstendom
foarstrjitte
foartiid
foaru
foarum
foarwedstriden
foarwei
foarwerp
foarwerpen
foarwurd
foarwurk
focht
fochtel
fochtelerfean
fochten
fochtich
fochtige
focke
fockema
fockens
focus
foech
foederaty
foege
foegen
foeget
foegjen
foeke
foekje
foel
foelen
foer
foet
fok
fokaal
fokalen
fokbolle
fokke
fokkema
fokken
fokker
fokko
foks
foksen
fokt
fokus
fol
folbloed
folchoarder
fold
foldie
foldien
foldocht
foldogge
foldwaan
foldwaande
foley
folge
folgelingen
folgen
folgeren
folget
folgje
folgjen
folgjend
folgjende
folio
folje
foljen
folk
folkebu
folkeferfarren
folkekundige
folken
folkert
folkertsma
folkloare
folksdu
folksferhaal
folksferhalen
folksferske
folksfertsjintwurdiging
folkshegeskoalle
folkshu
folksliet
folksmu
folksmuzyk
folkspartij
folksrepublyk
folkssu
folkstelling
folkstellingsburo
folkswein
folle
follegea
follenhove
follybal
follybalferiening
follyballer
follyballers
folmacht
folop
folsgeare
folslein
folsleine
folsleinens
foltiids
foltiizjehynder
folto
folu
folume
folweardich
folweardige
folwoeksen
folwoeksene
folwoeksenen
fomoaren
fon
fonda
fonds
fonetyk
fonetysk
fonetyske
fong
fongen
fonology
fonologyske
fons
fontaine
fontainebleau
fontein
fontsize
food
foods
fool
fools
foot
football
foppe
for
forbes
forbidden
force
forces
ford
foreign
foreigner
forest
forever
forge
forgotten
foriining
formaasje
formaat
formalisearre
format
formearum
formeel
formele
formule
formulearre
forster
forsyth
fort
forten
forth
fortifikaasjes
fortress
fortu
fortuna
fortuyn
forty
forum
fossey
fossile
fossilen
fossyl
foster
foto
fotoboek
fotograaf
fotografe
fotografearre
fotografen
fotografy
fotografysk
fotomodel
fotoreportaazje
fotoreportaazjes
foudgum
found
foundation
four
fout
fox
foxxx
fpraat
fprinte
fr
fra
fraach
fraachpetear
fraachpetearen
fraachstik
fraachstikken
fraai
fraaie
frac
fracht
frachtferfier
frachtskip
frachtwein
frachtweinen
frachtweinsjauffeur
fragen
fragmint
fragmintarysk
fragminten
fraksje
fraksjefoarsitter
fral
fram
frame
fran
franc
franca
france
frances
francesca
francesco
franchise
francis
francisco
franciscus
franco
franeker
frank
franken
frankenstein
frankfurt
frankfurter
franklin
frankryk
frankysk
frankyske
frans
franse
fransiskaanske
fransiskanen
fransisko
fransiskus
franz
fraser
frau
fraude
fre
freark
fred
freddie
freddy
frede
frederic
frederick
frederik
frederiksoard
fredesferdrach
fredestiid
fredesu
free
freed
freedom
freedsum
freedsume
freegje
freegjen
freelance
freeman
freeones
freeslik
freeslike
fregat
frege
fregen
freget
freiburg
freiheit
freis
freizge
frekwinsje
frenata
french
freon
freondinne
freondinnen
freonen
freonlik
freonlike
freonskip
freonskiplike
fresko
fret
frette
fretten
freud
freule
freulepartij
freya
freze
frid
friday
friedrich
friend
friends
friens
fries
friesch
friesche
friese
friesen
friesische
friesischen
friesland
frieslandcampina
frieslands
friespunt
friezen
friisk
frij
frije
frijer
frijers
frijfeint
frijheden
frijheid
frijheidsmedalje
frijheidsstrider
frijju
frijkommen
frijlitten
frijlitting
frijmakke
frijmitselder
frijsinnich
frijsinnige
frijsprutsen
frijsteande
frijsteat
frijwat
frijwillich
frijwillige
frijwilliger
frijwilligers
frijwol
frin
frinne
frisia
frisian
frisiast
frisicum
frisius
friso
frit
frits
fritz
frjemd
frjemde
frjemdling
frjentsjer
frjentsjerter
frjentsjerteradiel
frjentsjertersk
frl
fro
froast
frodo
froedskip
frog
from
fromme
frommes
front
frontale
fronten
frontier
fronton
frost
frou
froubuorren
frouck
froukje
froulik
froulike
froulju
frouljus
frouljuskiesrjocht
frouljusrjochte
frouljusrjochten
frouwe
frozen
fru
frucht
fruchtber
fruchtbere
fruchtberens
fruchten
fruit
frustraasje
frustrearre
fry
frysk
fryske
frysktalich
frysktalige
frysla
fryslan
fryslannen
fs
fsa
fsark
fsarken
fset
fsette
fsetten
fsetting
fsettings
fsjef
fsjoen
fskaat
fskaffing
fskaft
fsketten
fskie
fskied
fskiede
fskieden
fskieding
fskildere
fskrift
fslaan
fslach
fslachte
fslein
fsletten
fslu
fsluten
fslutende
fsluting
fsnien
fspile
fspilet
fspjalte
fspjalting
fspraak
fspraakje
fspraken
fsprutsen
fsta
fstamje
fstamme
fstammeling
fstammelingen
fstammen
fstammet
fstamming
fstannen
fstean
fstien
fstiene
fstiennen
fstudearjen
fstudearre
fsu
fswaaid
ft
ftanke
fte
ften
fter
ftich
ftige
fting
ftiteling
ftocht
ftombe
ftrede
ftreden
ftsjen
ftsjerke
ftwongen
fu
fuca
fuck
fuentes
fulda
fulkaan
fulkaanu
fulkanen
fulkanyske
full
fuller
fundearring
fungearje
fungearjen
fungearre
fungearret
funk
funksje
funksjes
funksjonaris
funksjonarissen
funksjonearje
funksjonearjen
funksjonearre
funksjonearret
funksjoneel
funksjonele
funny
fuorre
fuort
fuortbestean
fuortbrocht
fuortby
fuortendaliks
fuortgean
fuorthelle
fuortkaam
fuortkamen
fuortkomme
fuortkommen
fuortkomt
fuortplanting
fuortplantsje
fuortset
fuortsette
fuortsetting
fuortsterke
fuortstjoerd
fuotbal
fuotbalalvetal
fuotbalferiening
fuotbaljen
fuotbalklub
fuotbalklup
fuotballe
fuotballer
fuotballers
fuotbalspiler
fuotbalstadion
fuotbalteam
fuotbaltiim
fuotbaltrainer
fuotbaltrener
fuotfolk
fuotgongers
fuotleasten
fuotten
fuqua
furde
furdgum
furiosa
fury
fusearre
fusearren
fusillearre
future
fw
fwachting
fwe
fweefd
fwettering
fwetteringsgebiet
fweve
fwiisd
fwiisde
fwikend
fwikende
fwiking
fwikings
fwiksele
fwikseljend
fwizing
fwu
fwykt
fyfde
fyfte
fyftich
fyftiger
fyftjin
fyftjinde
fyk
fykwurk
fyn
fynplak
fynplakken
fynst
fynsten
fynt
fysike
fysiology
fysiolooch
fysyk
fyts
fytsen
fytsers
fytspaad
fyzje
g
ga
gaadlik
gaadlike
gaan
gaast
gaasterla
gaastmar
gaastra
gaat
gabaldon
gabbe
gabe
gables
gabon
gabrie
gabriel
gabriella
gabrielle
gad
gadingmakkers
gaelysk
gaelyske
gage
gail
gaius
gajus
gal
gala
galaktysk
galaktyske
galama
galaxy
gale
galen
galerij
galerijen
galerius
galery
galile
galilea
galilei
galileo
galje
gallery
gallia
gallico
gallipoli
gallo
galloway
gallus
gallyske
galveston
galway
galysje
gama
gamba
gambia
gambler
game
games
gan
gana
gandalf
gandhi
gang
gangster
gaoatyske
gaos
gap
gara
garaazje
garage
garandearre
garci
garcia
gard
garde
garden
gardens
gardner
garfield
garfunkel
garjen
garland
garnizoen
garre
gary
garyp
gas
gassen
gast
gasten
gasthear
gasthu
gastla
gastmuzikant
gastmuzikanten
gaston
gastrol
gastrollen
gat
gate
gaten
gates
gathering
gatling
gatsjes
gatten
gau
gaueftich
gauguin
gaulle
gauris
gauwens
gavin
gavit
gawain
gay
gaynes
gaza
gd
gde
ge
gea
gean
geande
geandefoets
geandewei
geane
gear
gearbrocht
gearfetting
gearfoege
gearfoeging
gearfoegjen
gearhing
gearhingjende
gearklofte
gearkomme
gearkommen
gearkomst
gearkomste
gearkomsten
gearkomt
gearlu
gearre
gearret
gearrin
gearspanners
gearspanning
gearstald
gearstalde
gearstallen
gearstalling
gearstallings
geart
gearts
gearwurke
gearwurking
gearwurkingsferba
gearwurkje
gearwurkjende
geast
geastedu
geasten
geastlik
geastlike
geastliken
geastlikheid
geaten
geau
gebeart
gebeartetaal
gebed
gebedens
gebied
gebiet
gebieten
gebietsdiel
gebietsdielen
gebit
geboaden
gebou
gebouw
gebouwen
gebrek
gebroeders
gebru
gedachte
gedachten
gedicht
gedichten
gedielte
gedoente
gedrach
geduld
gee
geef
geel
geen
geer
geert
geertje
geertruida
geertsema
gees
geest
gefaar
gefaarlik
gefaarlike
gefal
gefallen
gefaren
gefinsters
gefjocht
gefjochten
gefoel
gefoelens
gefoelich
gefoelige
gefolch
gefolgen
gegeven
gegevens
gehalte
geheim
geheime
geheimen
gehenna
gehiel
gehoar
gei
geigi
geiserik
geisha
geit
geiten
gek
gel
geld
gelder
gelderla
gelderske
gele
gelearde
gelearden
gelegen
gelegenheden
gelegenheid
gelfamylje
gelikens
gelikense
gelok
gelokkich
geloof
gelre
gels
gelskaai
gelslingerje
gelsoarte
gelsoarten
gelstjitte
geluk
gelwacht
gelyk
gem
gemaal
gemak
gemalen
gemalinne
geman
gemeente
gemeentebestjoer
gemeentehu
gemeentekaart
gemeenteleden
gemeentemuseum
gemeenten
gemeenterie
gemeenteried
gemeenteriedsferkiezings
gemeenteriedslid
gemeentes
gemeentesekretaris
gemeentesekretary
gemeentewapen
gemeentewet
gemeentlik
gemeentlike
gemiddeld
gemiddelde
gemien
gemiene
gemma
gemmell
gemoedstasta
gemy
gemysk
gemyske
gen
gende
gene
genea
genealogy
genealooch
genede
genen
generaal
generaals
generaasje
generaasjes
general
generale
generation
genesis
genetika
genetysk
genetyske
geniale
geniet
genietet
genietsje
genis
genissen
genityf
genius
gennep
geno
genoat
genoaten
genoatskip
genoegen
genoom
genootschap
genoside
gent
gentleman
genua
geo
geoffrey
geograaf
geografy
geografysk
geografyske
geograph
geographic
geology
geologysk
geologyske
geolooch
geometryske
geonosis
georg
george
georges
georgetown
georgia
georgina
georgje
georgysk
georgyske
gepiden
ger
gerald
gerard
gerardus
gerben
gerbrandy
gerda
gerdyk
gerdyn
gere
gereformeerde
geregeld
geregelde
geregeldwei
gerhard
gerhardt
gerhardus
gerjocht
gerjochten
gerjochtichheid
gerjochtsgebou
gerjochtsho
gerjochtshof
gerkeskleaster
germ
germaanje
germaansk
germaanske
germain
german
germanen
germania
germanikus
germany
geroft
geroften
geronimo
gerrera
gerrit
gerritsen
gerry
gers
gersla
gersleat
gert
gertrude
gertrudis
gertrudistsjerke
gerzen
ges
gesach
gesachfierder
gesachhawwende
gesant
gesanten
geschichte
geschiedenis
gesellschaft
gesicht
gesichten
gesichtsfermogen
gesin
gesinnen
gesjitten
geskikt
geskink
geskinken
geskrift
geskriften
geskut
geslacht
geslachten
geslachtsdielen
geslachtsferkear
geslachtsmienskip
geslachtsryp
gestapo
gesticht
get
getal
getallen
getten
getto
gettysburg
geunst
geunstich
geunstige
geur
geus
geuzen
gevel
gevels
gevelstien
gewaaks
gewaaksen
gewaar
gewaarwurde
gewach
gewear
gewearen
geweld
gewelddiedich
gewelddiedige
geweldich
geweldige
gewest
gewesten
gewicht
gewichtheffen
gewisse
gewoan
gewoane
gewoante
gewoanten
gewoanwei
gewoon
gewurde
gezelle
ghost
giacomo
giant
gibbon
gibbs
gibraltar
gibson
gide
gideon
gids
gie
gied
giel
giele
gielich
gien
giene
gienen
giet
gif
giffen
gift
giftich
giftige
gifts
gige
gij
gijs
gijsbert
gil
gilbert
gilde
gilden
gilderik
gildo
giles
gilles
gillian
gilliatt
gilman
gilperik
gilroy
gimli
gin
gina
ging
gingen
ginger
gings
ginnum
ginsburg
gint
gion
giorgio
giovanni
giphart
girl
girlfriends
girls
giro
giscard
gisel
gisko
gitaar
gitaren
gitarist
giteren
giuseppe
give
gizelder
gizelders
gizeling
gjalt
gje
gjen
gjend
gjende
gjin
gjinien
gla
gladbach
gladiator
gladiators
glamour
glarus
glas
glasgow
glasiaal
glass
gle
glee
gleiberman
glen
glengarry
glenlyon
glenmor
glenn
gletsjer
gletsjers
glide
glik
glinstra
glise
gloarje
global
globe
globes
gloria
glorieuze
glory
gloster
glottisslach
gloucester
glover
glu
glukoaze
gmbh
gmo
gne
gnomeo
gnostyske
go
goa
goaden
goadinne
goadinnen
goaen
goai
goaien
goaii
goal
goalera
goals
goaten
goatysk
goatyske
god
goddard
goddess
godfather
godfrey
godfried
godfryd
godheden
godheid
godlik
godlike
gods
godshu
godstsjinst
godstsjinsten
godstsjinstige
goebbels
goed
goede
goederen
goedkard
goedkarring
goedkarringspersintaazje
goedkeap
goedkeape
goedkeaper
goeie
goeree
goerevitsj
goerie
goes
goethe
gogh
gogol
goi
going
gokken
gokker
gold
goldberg
golden
goldeneye
goldfinger
goldwyn
golem
golf
golfbaan
golfoarloch
golfstream
gollum
gomarus
gomez
gon
gondor
gone
gong
gongber
gongbere
gongelsto
gongen
gonza
gonzales
good
goodbye
goodwin
google
goor
goose
goot
gorbatsjov
gordianus
gordon
gordyk
gore
gorilla
gorki
gorkum
gorter
gosling
goslinga
gospel
gosse
got
gothic
gotla
gottfried
gottlieb
gotyk
gou
goud
gouda
gouden
goudene
goudkoarts
goudkust
goudsiker
goudsikers
goudu
goutum
gov
government
goya
gp
gr
gra
graach
graad
graaf
graaff
graasje
grace
graden
graf
graffiti
grafikus
grafyk
grafysk
grafyske
graham
gram
grammar
grammatika
grammatikale
grammy
grampus
gran
granada
grand
grande
grant
granyt
grap
graphium
grappen
grappich
grappige
gras
grass
gratama
gratianus
grave
gravearre
graven
graves
graveur
gravity
gravuere
gravueres
gray
graz
gre
great
greate
greater
greatest
greco
greeflike
greefskip
greefskippen
greek
green
greenberg
greene
greenwich
greenwood
greep
greetsiel
greg
gregoarius
gregor
gregoriaanske
gregorius
gregory
greide
greidefu
greiden
greidhoeke
greidla
gremlins
grenada
grenadinen
grendel
grenoble
grese
greta
greve
greven
grevinne
grey
greyfriars
greystoke
grid
gridcolor
grieg
grien
griene
grienla
grienlinks
griente
grienten
griep
grier
griet
grietje
grievous
grif
griffel
griffier
griffin
griffioen
griffith
grifformeard
grifformearde
grifformearden
griis
grikela
griken
grime
grimm
grimoald
grins
grinsgebiet
grinsla
grinslanner
grinzen
grinzer
grinzet
grinzge
grinzget
gripe
gripen
gritenij
gritenijen
grize
grizzly
gro
groanyske
groei
groeid
groeide
groeiden
groeie
groeien
groeiende
groeit
groen
groene
groeneveld
groep
groepearring
groepearrings
groepen
groepke
groepkes
groepsfaze
groetnis
groeven
grogu
grohl
gromosomen
gromosoom
grond
groningen
groninger
gronology
gronologyske
groot
groote
gros
grosjean
gross
grot
grote
grotten
grou
grouard
groucho
ground
group
grouster
grouwe
grove
grovestins
groß
große
gru
gruber
gruff
gruisen
grumman
grut
grutbringen
grutbrocht
grutdiels
grutdjip
grute
grutfoarst
grutgru
gruthartoch
gruthartochdom
grutkru
grutmachten
grutmaster
grutsk
grutskalich
grutskalige
grutst
grutste
grutsten
grutte
gruttegast
gruttendiels
grutter
gruttere
gryksk
grykske
gryksktalich
gryp
grypt
grytman
grytmannen
grytsje
gt
gu
guardian
guay
guernsey
guerrier
guerrilja
guez
guggenheim
guide
guido
guild
guillaume
guillotine
guilty
guin
guinea
guinee
guinness
gujaareh
gulden
gulf
gun
gundobad
gungaanske
gunganen
gunn
gunnar
gunray
guns
guod
guon
guons
guonts
guozzen
gurbe
gus
gusen
gustaaf
gustaf
gustav
gustave
gutenberg
guus
guy
guyana
guys
gwyn
gymnasium
gymnastyk
gymnastykferiening
gynekolooch
gyng
gyngen
gysbert
gytsjerk
h
ha
haach
haachske
haad
haadalter
haadbestjoer
haadeila
haadfeart
haadgebou
haadkantoar
haadkertier
haadklasse
haadletter
haadletters
haadling
haadlingen
haadlju
haadmacht
haadman
haadoargel
haadpersoan
haadpersoanen
haadplak
haadportaal
haadredakteur
haadrol
haadrollen
haadrolspiler
haadrolspilers
haadrolspylster
haadsaak
haadste
haadstik
haadstikken
haadstrjitte
haadtrainer
haadtsjerke
haadu
haadwei
haadwurd
haadwurden
haadwurk
haadyngong
haadynspekteur
haag
haai
haaien
haakon
haan
haar
haarlem
haarlim
haarzuilens
haas
haat
habakuk
habitat
habsburch
habsburchske
habsburgers
hachette
had
hadamar
hades
hadrianus
haersma
hage
hagedissen
hagel
hagen
hagia
hahn
hai
haida
hail
hair
haitsma
hajo
hak
haka
hakke
hakken
hal
halbe
halbertsma
halen
half
halifax
halje
halkomelem
hall
halle
halletsjerke
halligen
hallowed
halloween
hallum
halma
hals
halte
ham
hamad
haman
hamar
hamboarch
hamburch
hamburg
hamburger
hamilkar
hamill
hamilton
hamlet
hammer
hammett
hammond
hampshire
hampton
hamster
hamsters
han
hancock
hand
handbook
handbuch
handel
handelsblad
handich
hands
hangaar
hania
hank
hanks
hanna
hannah
hanneke
hannel
hannele
hannelers
hanneling
hannelingen
hannelings
hanneljen
hannelsfederaasje
hannelsplak
hannelspost
hannelsposten
hannelsru
hannelssintrum
hannelsste
hannen
hannibal
hannie
hannity
hanno
hannover
hans
hansen
hanson
hantearre
hantekening
hanthavene
hanthavenje
hanthavenjen
hantlanger
hantsjefol
hantum
hantumhuzen
happy
har
harald
harbor
harbour
harcourt
hard
hardcore
hardenberg
harder
hardershu
harding
hardorff
hardrockalbum
hardrockband
hardy
hare
haren
hari
harich
haring
harinxma
harinxmakanaal
harjo
harke
harkema
harkemase
harken
harker
harkers
harket
harkje
harkjen
harkspul
harkspulakteur
harkspullen
harlem
harley
harlingen
harlingerla
harm
harmeling
harmen
harmens
harmonie
harmony
harmonyorkest
harmsen
harnas
harns
harnzer
harold
harp
harpe
harper
harpercollins
harren
harrensels
harres
harrie
harrington
harris
harrison
harry
harsels
harsens
hart
harten
hartford
hartley
hartman
hartoch
hartochdom
hartoggen
hartoginne
hartwert
harvard
harvest
harvey
has
hasdrubal
hasker
haskerdiken
haskerhoarne
haskerla
hassan
hasselhoff
hasselt
hast
hasten
hastich
hastiget
hastings
hat
hatch
hate
hateful
hatet
hathaway
hatlu
hattem
hau
hauer
hauk
hauken
haule
haulerwyk
haunted
haus
haut
havana
have
havelte
haven
havens
havenste
haventsje
havilland
havo
havre
haw
hawai
hawaii
hawk
hawke
hawker
hawkins
hawks
hawthorn
hawwe
hawwen
hay
hayden
haydn
haye
hayes
hays
hayward
haze
hazes
hazzard
hazze
hazzen
hbo
hbs
hbu
he
hea
head
heak
heakjen
heakjes
heakke
heaks
heal
healannen
healbloed
healbroer
healbruorren
heale
healgod
healjier
healoere
healru
healsuster
health
healwei
healwiis
healwize
healy
heap
hear
heara
hearakles
heard
hearde
hearden
heare
hearebank
hearebanken
hearehu
hearen
hearlikheid
hearre
hearren
hearrende
hearrenfean
hearrenfeanster
hearresleat
hearske
hearsken
hearsker
hearskers
hearsket
hearskippij
hearskje
hearskjende
heart
hearts
heat
heather
heaven
heavy
heawei
heb
hebben
hebreee
hebriden
hebriuwsk
hebriuwske
hebriuwsktalich
hechte
hechten
hector
heden
hee
heech
heechalter
heechbou
heechdu
heechfean
heechflakte
heechgerjochtsho
heechla
heechlannen
heechlearaar
heechleararen
heechljeppe
heechpleatste
heechsa
heechspringe
heechst
heechste
heechtijdagen
heechu
heeft
heel
heemskerk
heemstede
heemstra
heen
heer
heerd
heere
heeren
heerenveen
heerlen
heerma
heffen
heft
hefte
hege
hegebeintum
hegedyk
hegela
hegemony
hegepreester
heger
hegere
hegerein
hegerha
hegerhu
hegesa
hegeskoalle
hegeskoallen
heide
heidefjilden
heidelberch
heidendom
heidenen
heidens
heidensk
heidenske
heidenskip
heidi
height
heights
heijermans
heil
heilige
heiligengrabe
heiligerlee
hein
heine
heineken
heinlein
heinrich
heinz
heit
heite
heitekant
heitela
heiten
hek
hekel
heks
hekse
heksen
hekserij
hektare
hektor
hel
held
helden
helder
heldere
heldhaftige
heldinne
helen
helena
helene
helfferich
helgola
helikopter
helikopters
helje
heljen
hell
hella
helle
hellen
hellenistyske
hellet
helling
hello
helm
helmond
helmut
heloma
help
helpboarnen
helpe
helpen
helper
helpers
helpmiddel
helpmiddels
helpsheriff
helpt
helsinki
helsinky
helt
helte
helten
hem
hemel
hemert
hemingway
hemminga
hemsterhuis
hen
henderson
hendrick
hendricks
hendrik
hendriks
hendrikus
hendrix
henegouwen
hengelo
henk
henley
henny
henoch
henotei
henri
henricus
henrie
henriette
henrik
henry
hepburn
hepkema
her
herald
heraldyk
heraldysk
heraldyske
herb
herberch
herberge
herbert
hercules
herder
here
hereford
herema
heremastate
herfoarme
herfoarmen
herfoarming
herfoarmingen
herfoarmings
heringa
herinneringen
heritage
herkules
herman
hermann
hermans
hermanus
hermes
hermitaazje
hermitage
herne
hero
herodes
heroes
heroi
herrin
herstal
herstel
hersteld
hert
herten
hertfordshire
hertoanfal
hertogenbosch
hertsegovina
hertstilsta
hertstochtlike
hervormde
hesiodos
hesse
hessel
hessels
hessen
hester
het
heteroseksue
hetfield
hette
hettema
hettinga
heul
heule
heusden
heuvel
heuveleftich
heuvelre
heuvels
heuveltop
hey
heymans
hi
hichte
hichteferskil
hichten
hichtepunt
hichtepunten
hichtum
hickok
hidaard
hidalgo
hidatsa
hidde
hiddema
hidden
hiddes
hidjas
hie
hied
hiel
hielal
hiele
hielendal
hieltiid
hieltiten
hieltyd
hielu
hiem
hiemside
hiemstra
hiene
hienen
hier
hierargy
hierd
hierde
hiere
hierling
hierlingen
hiermoardner
hiermoardners
hieroglifen
hieronymus
hierren
hierrige
hiert
hieslum
hiet
hieten
higgins
high
highland
highlander
hightower
highway
hij
hijum
hik
hikke
hilaard
hilarides
hilary
hilda
hildebrand
hildegard
hildesheim
hilfertsom
hilgela
hill
hillary
hillebrand
hillich
hillichdom
hillichdommen
hillichferklearring
hillige
hilligelibben
hilligen
hilligerlee
hills
hilton
hilversum
him
himalaya
himdyk
himel
himelfeart
himelfeartsdei
himelfearttsjerke
himelgod
himellichem
himellichems
himelske
himmelum
himmelumer
himmler
himpens
himrik
himsels
hin
hindeloopen
hindenburg
hinderjen
hindoei
hindoes
hindrik
hindy
hindytalige
hinge
hinget
hingje
hingjen
hingjende
hink
hinnaard
hinnaarderadiel
hinne
hinnen
hinsz
hip
hiphop
hiphopartyst
hippo
hippolytus
hippyk
hir
hiray
hiroshima
hirsch
his
hispania
hispanje
hispel
histoarikus
histoarisy
histoarje
histoarysk
histoaryske
histoire
historia
historiae
historic
historical
historie
historisch
historische
history
hit
hitchcock
hite
hitler
hitlist
hitlisten
hits
hitsum
hiv
hizki
hja
hjeldagen
hjeldei
hjerbeam
hjerst
hjerstmis
hjir
hjirboppe
hjirby
hjirfan
hjirfoar
hjirmei
hjirnei
hjirneimels
hjiroan
hjiroer
hjirop
hjirre
hjirtroch
hjiru
hjiryn
hjit
hjitfolge
hjitte
hjitten
hjittens
hjoed
hjoeddedei
hjoeddeisk
hjoeddeiske
hjoeddeistich
hjoeddeistige
hjouwer
hk
hl
hle
hler
hm
hmong
hms
hne
ho
hoale
hoalen
hoanne
hoareka
hoarizon
hoarn
hoarne
hoarnen
hoarnstersweach
hoart
hoartsje
hobbe
hobbit
hobbits
hobby
hobo
hockey
hoe
hoecht
hoed
hoedanichheid
hoeden
hoeder
hoeders
hoefolle
hoegde
hoegden
hoege
hoegenamt
hoek
hoeke
hoeken
hoekje
hoekske
hoekstien
hoekstra
hoemannichte
hoemannichten
hoes
hoessein
hoeve
hoevelaken
hoeven
hoewol
hof
hofdame
hofdames
hoffman
hoffmann
hofha
hofmeier
hofstede
hofstra
hoge
hohenlansberg
hok
hokfoar
hokje
hokjes
hokkaido
hokker
hol
holbein
hold
holden
holding
holdinga
holdo
hole
holiday
holkema
holla
holland
hollander
hollands
hollandsche
hollandse
hollanners
holle
hollen
holliday
hollow
hollum
holly
hollywood
holm
holmes
holocaust
holokaust
holopainen
holp
holpen
holst
holstein
holt
holtrop
holwerda
holwert
holy
homan
home
homearus
homecoming
homer
homme
hommels
hommelse
hommerts
hommes
homo
homohoulik
homoseksualiteit
homoseksue
homoseksueel
homoseksuele
hond
honderd
hondoeras
honey
hong
hongaarsk
hongaarske
hongaren
hongarije
hongen
honger
hongersneed
hongkong
hongkongsk
hongkongske
honkala
honkbal
honkballer
honneur
honoarius
honolulu
honor
honore
honorius
hood
hoofd
hooft
hoog
hooge
hoogeveen
hoogezand
hoogland
hoograven
hook
hooker
hoop
hooper
hoopje
hoorn
hooters
hoover
hop
hope
hopen
hopet
hopkins
hopper
hopperus
hora
horace
horde
horden
horizon
horizontaal
horizontale
horn
horne
horner
hornstra
horrible
horror
horrorfilm
horrorfilms
horse
horst
hospitaal
hospital
hosty
hot
hotel
hotelkeamer
hotels
hoth
hotze
hou
houbraken
houd
houdini
houghton
houkesleat
houlik
houliken
houliksreis
hound
hour
hours
house
houston
hout
houten
houtene
houtfiker
houtigehage
houtkap
houtseachmu
houtwa
hove
hoven
how
howard
howe
hoytema
hp
hr
hrer
hrsg
htm
html
http
https
hu
huber
hubert
hubertus
hudson
hudsonbaai
hudsonbaaikompanjy
hueronmar
huff
hugenoaten
hugenoatsk
hugh
hughes
hugo
huis
huisman
huizen
huizinga
hulde
hull
hulst
humalda
human
humanisme
humanist
humanistyske
humanite
humanoi
humboldt
hume
humor
humoristyske
humphrey
humsterla
hun
hundred
hunebe
huning
hunnen
hunsru
hunt
hunter
hunters
hunting
huntington
huntsman
hunyadi
hunze
hur
hurd
hurddraverij
hurddraversdyk
hurde
hurdegaryp
hurder
hurderwyk
hurdfytsen
hurdfytser
hurdfytsers
hurdrider
hurdrinne
hurdrydster
hurdsilen
hurdspytsje
hurricane
hurst
hurt
hustler
huston
husum
hut
hutt
hutte
hutts
huub
huwelijk
hux
huxley
huygens
huys
huzen
huzinge
huzum
hy
hyboarysk
hybride
hyde
hygie
hyland
hylke
hylpen
hylpersk
hymne
hymnen
hynder
hynders
hynst
hynstefolk
hynsteriden
hynstesport
hyperromte
hyponephele
hypoteze
hysels
hyst
hz
i
iafd
ian
ibearysk
ibearyske
ibm
ibn
ibrahim
ibsen
ibytsa
ic
ice
ich
id
ida
idaarderadiel
idaerd
idaerderadiel
idaho
idea
ideaal
ideale
idealen
idee
ideee
idema
identifikaasje
identifisearre
identifisearret
identiteit
identity
identyk
ideology
ids
idsinga
iduna
idzerda
ie
iedereen
iel
iems
iemsdelta
iemshaven
iemsla
iemsmu
ien
ienakter
iendracht
iene
ienentweintichste
ienfa
ienheden
ienheid
ienheidskatedraal
ienheidstsjerke
ienhoarn
ienichste
ienige
ienkear
ienlike
ienmanualige
iennichst
iennichste
iennige
ienris
iens
iensidich
iensum
iensume
iensumens
ienwurding
iepen
iepenbier
iepenbiere
iepenbiering
iepenbierings
iepene
iepenen
iepenet
iepening
iepenings
iepeningsse
iepenje
iepenjen
iepenlik
iepenloftmuseum
iepenloftspul
iepensteld
iepentlik
iepentlike
ier
ierdappel
ierdappels
ierdbeving
ierdbevings
ierde
ierden
ierdewurk
ierdgas
ierdgeast
ierdgeasten
ierdoalje
ierdoerflak
ierdrykskunde
ierdske
ierdskodding
ierdskoddings
iere
ieren
ierla
iersk
ierske
ierst
ierste
ies
iet
iets
ieu
if
ifks
igge
iggen
ignace
ignatius
igor
ihrhove
ii
iii
iik
iikhoarntsje
iikhoarntsjes
iis
iisbaan
iisclub
iisfu
iishockey
iisklub
iisklup
iisla
iisplaneet
iissee
iistiden
iistiid
ij
ijmuiden
ijssel
ik
ike
ikelmu
iken
ikker
ikkerbou
ikkers
ikkerwa
ikko
ikoan
ikoanen
ikoanyske
ikonografy
ikonostase
ikonostaze
il
ilias
ilisidi
ilja
ille
illinois
illustrated
illyan
ilm
ilona
ilse
im
image
imagesize
imago
imdb
img
immanuel
immen
immunity
impact
imperial
imperium
impossible
improvement
impsec
in
ina
inc
inch
increment
independence
independent
index
india
indian
indiana
indianapolis
indians
indie
indigo
indoor
industrial
industries
industry
ine
inferno
infinity
info
information
ing
inge
ingel
ingela
ingels
ingelsen
ingelsk
ingelske
ingelsken
ingelsktalich
ingelsktalige
ingelsman
ingelum
inglis
ingrey
ingrid
ingwierrum
inige
inigje
inigjen
inisjalen
inisjativen
inisjatyf
inisjatyfnimmer
inisjatyfnimmers
inka
inkel
inkeld
inkelde
inkeldris
inkele
inkelfa
inkeltal
inket
inkhuzen
inleiding
inlet
inn
inne
inner
innsbruck
inoar
inoars
inselde
inside
instagram
institut
institute
instituut
insurrection
int
inte
intelligence
interieur
internacional
international
internationale
internet
interpol
interstate
interview
into
introduction
intruder
inu
inuit
investigation
io
ioanen
ioanyske
ioc
ion
iona
iowa
ipa
iper
ir
ira
iraaksk
iraakske
iraan
iraansk
iraanske
irak
irakoarloch
iran
ireland
irene
iris
irish
irku
irma
iroanysk
irokeeske
iron
irony
irvine
irving
irwin
is
isaa
isaac
isaak
isabel
isabella
isabelle
isbn
iseger
isel
iselmar
iselstein
isfahan
ishi
isidoarus
isis
iskariot
isla
islaam
islam
islamistyske
islamitysk
islamityske
island
islands
isle
iso
isolaasje
isolearre
isolemint
israe
israel
israeliten
israelitysk
israelityske
israelysk
israelyske
iss
issn
ist
istanbu
it
itaalje
italia
italie
italjaansk
italjaanske
italjanen
italo
italy
italyske
ite
item
iten
itende
itens
itensfoarrieden
itensieden
iters
itjinge
its
itselde
itsij
itza
iucn
iuw
iuwen
iuwena
iuwenlang
iuwsk
iuwske
iuwskema
iuwwiksel
iv
ivan
ivanhoe
ivanovitsj
ivanovo
ive
ives
ivich
ivichheid
ivige
ivo
ivoar
ivoarkust
ivy
iwerks
ix
ixe
izaa
izer
izeren
izerne
izertiid
j
ja
jaan
jaap
jaar
jaarboek
jaarsma
jabba
jabik
jac
jacht
jachtfleanmasine
jachtgewear
jachthaven
jachthu
jack
jackie
jackson
jacksonville
jacob
jacoba
jacobs
jacobus
jacqueline
jacques
jad
jada
jade
jaerla
jag
jage
jagen
jager
jagers
jaget
jagger
jago
jai
jak
jakama
jakarta
jake
jakku
jakob
jakobiten
jakobityske
jakobus
jakovlev
jam
jamaika
jamaikaansk
james
jameson
jamie
jammerdearlik
jammerdearlike
jan
jancko
jane
janeiro
janet
jango
janitsaren
janke
jankton
janktonai
jann
janneke
jannes
jannewaris
jannum
jans
jansen
jansgea
jansma
janssen
jansz
jantsje
janus
janzen
japan
japanners
japansk
japanske
japicx
japicxpriis
japiks
jar
jaren
jargon
jarich
jaroslavl
jarre
jas
jase
jasmine
jason
jasper
java
javid
jawa
jaws
jay
jazz
je
jean
jeanne
jedha
jedi
jeen
jef
jeff
jefferson
jeffrey
jefte
jeften
jehan
jehanna
jehannes
jehannestsjerke
jehova
jehu
jeie
jeien
jekaterineburch
jekyll
jelle
jellema
jellen
jelles
jellum
jelsum
jelte
jemen
jemenityske
jemgum
jemisin
jena
jenisejaanske
jenkins
jenna
jennifer
jennings
jenny
jens
jensen
jensma
jeppema
jeraazje
jeraziatyske
jeremia
jeremiah
jeremy
jerevan
jericho
jern
jerobea
jeroen
jerome
jeropa
jeropea
jeropeaan
jeropeanen
jeropeesk
jeropeeske
jerry
jersey
jerusalem
jeruzalem
jeruzalim
jesaja
jesse
jessica
jessie
jesu
jesus
jet
jetses
jetske
jetze
jeu
jeugd
jeugdboeken
jeugdroman
jever
jewel
jewels
jewish
jezidys
jezui
jezus
jhr
ji
jiddysk
jier
jierboek
jierdei
jiergong
jierjilden
jierliks
jierlikse
jiermerk
jierren
jierrenlang
jierrenlange
jierrich
jierrige
jiers
jierskema
jiertal
jiertallen
jiertelling
jiertiden
jij
jild
jildbedrach
jilde
jildende
jildich
jildige
jildkrapte
jildt
jill
jim
jimme
jimmeroan
jimmy
jin
jingle
jinn
jins
jinsels
jirnsum
jirpels
jiske
jiskenhuzen
jiskepu
jislum
jister
jistrum
jitris
jitten
jo
joa
joachim
joad
joaden
joadendom
joadsk
joadske
joan
joanna
joannes
joaram
joaris
joaristsjerke
joast
joazef
job
jobbegea
jobs
joe
joech
joegen
joegoslaavje
joegoslavyske
joel
joeri
joey
joh
johan
johann
johanna
johannes
john
johnnie
johnny
johnson
johnston
joint
joke
jolie
jon
jona
jonah
jonas
jonatan
jonathan
jones
jong
jongbloed
jonge
jongema
jongeman
jongemannen
jongen
jongens
jonger
jongere
jongerein
jongereinorganisaasje
jongeren
jonges
jongesnamme
jongfaam
jongfammen
jongfeint
jongfolwoeksenen
jongfryske
jongs
jongste
jonker
jonkfrou
jonkhear
jonkheid
jonkje
jonkjes
jonkman
joop
joost
jopie
jordaan
jordaanje
jordan
jorge
joris
jorritsma
jorritsmapriis
jorwert
jos
jose
josef
josefus
joseph
josephine
josh
joshua
jou
jouke
joure
journaal
journal
journey
journeys
jouster
joustra
jouswier
jout
jouwe
jouwer
jowett
joy
joyce
jozef
jozua
jpeg
jpg
jr
ju
juan
jubileum
juckema
juda
judas
judd
jude
judea
judgment
judit
judith
judo
judy
juffer
jugendstil
jules
juli
julia
juliaanske
julian
juliana
julianus
julie
julien
juliet
julio
julius
july
jumbo
jump
junction
june
juneau
jung
jungle
juni
junioaren
junior
junkers
juno
juny
jupiter
juridysk
juridyske
jurisdiksje
jurist
jurjen
jurk
jury
just
juste
juster
justice
justify
justin
justine
justinianus
justinus
justjes
justus
justysje
jutla
jutryp
juw
juwiellen
jyn
k
ka
kaai
kaaien
kaaimaneilannen
kaak
kaam
kaap
kaapkoloanje
kaapske
kaapste
kaapt
kaapverdje
kaart
kaarten
kaartsje
kaartsjes
kaartspul
kaas
kabaret
kabaretie
kabaretier
kabine
kabinet
kabinetten
kabu
kadaster
kadastrale
kade
kadet
kadetten
kadigidi
kadne
kado
kael
kafee
kafees
kafetaria
kafka
kai
kaikoseilannen
kairo
kaiser
kajowa
kale
kaledoanje
kali
kaliber
kalifaat
kalifornje
kalifornysk
kalifornyske
kaligula
kalinder
kaliningrad
kalk
kalkstien
kalkutta
kalm
kalma
kalu
kalvinisme
kalvinisten
kalvinistyske
kalvyn
kalyf
kambodja
kamehameha
kameleon
kamen
kamer
kamera
kameraman
kameraregisseur
kamerarezjy
kameroen
kamiel
kamielen
kamino
kamp
kampanje
kampanjes
kampen
kampioen
kampioene
kampioenskip
kampioenskippen
kampus
kamtsjatka
kamu
kan
kanaa
kanaal
kanada
kanadeesk
kanadeeske
kanadezen
kanalen
kanalisearre
kanan
kanaryske
kandidaat
kandidaten
kane
kanji
kanker
kano
kanofarren
kanon
kanonike
kanonnen
kanonyk
kansas
kant
kante
kanten
kantine
kantoar
kantoaren
kantoargebou
kanton
kantongerjocht
kantonrjochter
kantons
kanvas
kanye
kap
kapasiteit
kape
kapel
kapelle
kapellen
kapers
kapibara
kapitaal
kapitalisme
kapitein
kapitelen
kapitoal
kapittel
kapittelhu
kapittelseal
kapitulaasje
kaplan
kapt
kaptein
kapteins
kar
kara
karabach
karafaan
karakalla
karakter
karakterisearre
karakteristike
karakteristiken
karakteristyk
karakters
karate
karden
kardinaal
kardinalen
kareelje
karel
karen
karfoarst
karfoarsten
karibysk
karibyske
karigan
kariljon
karin
karinsje
karl
karle
karloman
karlsruhe
karma
karmel
karmeliten
karnaval
karolina
karolingen
karolingyske
karpaten
karre
karrie
karspel
karst
karstkarel
kartaachsk
kartaachske
kartagers
kartago
kartel
karter
kartograaf
karu
karume
kas
kasablanka
kasdan
kashyyyk
kasimir
kasino
kaspyske
kassel
kassius
kast
kaste
kasteel
kasten
kastiel
kastielen
kastlein
kastraasje
kastylje
kat
katalaansk
katalaanske
kataloanje
katalogus
katan
katar
kataren
katarina
kate
katedraal
katedrale
katedralen
kategismus
kategory
kategoryen
katharine
katherine
kathleen
katholieke
kathryn
kathy
katie
katja
kato
katoen
katolike
katoliken
katolikon
katolisisme
katolyk
katowice
katrina
katten
katwyk
katz
kauai
kaukasus
kavalery
kavaleryrezjimint
kavia
kawasaki
kay
kaye
kazachstan
kazan
kazerne
kber
kboat
kboaten
kde
ke
keal
keale
keallen
keamer
keamerferkiezingen
keamerferkiezings
keamerhear
keamerlid
keamers
keap
keapet
keapfarders
keapfardij
keapfardijskippen
keapfideo
keaphannel
keapje
keapjen
keaplju
keapman
kear
keard
keardaam
keardamen
kearde
keardel
kearden
keare
kearen
kearn
kearnen
kearney
kearpunt
kears
keart
keas
keating
keatling
keatlings
keaton
keats
keatsen
keatser
keatsers
keatsferiening
keatsklassemint
keatspartij
keazen
kebek
kebes
keel
keep
keeper
keer
kees
kef
kei
keimpe
keith
keizer
keizerin
keizerinne
keizerlik
keizerlike
keizerryk
keizers
keizerskip
keizerstitel
kel
kela
kelarje
kelder
kelders
keller
kelley
kellogg
kelly
kelten
keltysk
keltyske
kelvin
kemal
kemar
kempen
kempenaer
ken
kenai
kenau
kend
kendall
kende
kendra
kenia
keniaansk
kening
keningen
keningin
keninginne
keninginnedei
keninginnen
kenings
keningsbergen
keningshu
keningskip
keninklik
keninklike
keninkriken
keninkryk
kenmerken
kenne
kennedy
kennen
kenner
kenneth
kennewick
kennis
kenny
keno
kenobi
kensington
kent
kentucky
keogh
keppel
keppele
keppeling
keppelingen
keppelings
keppeljen
keppels
ker
keramyk
kerei
kerk
kerken
kerkrade
kermode
kerr
kerreid
kerry
kers
kersey
kerspel
kerst
kerstening
kertier
kertiermaster
ket
ketlik
ketterij
keuken
keulen
keulske
keuning
keunst
keunstakademy
keunstdong
keunsten
keunsthanneler
keunsthistoarikus
keunstkritikus
keunstmjittich
keunstmjittige
keunstmuseum
keunstner
keunstneresse
keunstners
keunstriden
keunstsamler
keunstsinnige
keunstskiednis
keunstskilder
keunstskilderesse
keunstskilders
keunststof
keunsttaal
keunstwurk
keunstwurken
keur
keuze
kevin
key
keyes
keys
keyser
kffb
kg
kgb
khalifa
khan
ki
kick
kid
kids
kie
kiel
kies
kiesdistrikt
kiesmannen
kiesrjocht
kiest
kiev
kievit
kieze
kiezen
kiezers
kiif
kij
kijimi
kijk
kiki
kikkert
kikkerts
kilda
kildrummy
kill
killer
killing
kilo
kilogram
kilometer
kilometers
kilt
kim
kimberly
kimi
kimswert
kin
kincaid
kind
kinder
kinderen
king
kingdom
kingma
kingman
kings
kingsley
kingsman
kingston
kink
kinne
kinnen
kinney
kinski
kinst
kipling
kira
kirby
kirche
kirgyzje
kiribaty
kirill
kirk
kirke
kiss
kiste
kisten
kit
kits
kittitas
kitty
kje
kjel
kjeld
kjifdier
kjifdieren
kjifstikelbaarchdieren
kjifstikelbargen
kju
kl
klaach
klaad
klaai
klaaid
klaaide
klaaifrysk
klaaii
klaarkamp
klaas
klachten
kladferzje
klage
klagenfurt
klam
klan
klandestine
klank
klankboerd
klanken
klanklear
klant
klanten
klap
klara
klarinet
klas
klasearre
klaske
klasse
klassearre
klassemint
klassen
klassifikaasje
klassifisearre
klassike
klassiken
klassiker
klassikers
klassikus
klassisisme
klassisistyske
klassyk
klaudius
klaus
klauwen
klaver
klaverble
klazes
klean
klear
klearebare
kleaster
kleastergebouwen
kleastergong
kleasterkompleks
kleasterlibben
kleastermienskip
kleastermoppen
kleasteroarder
kleasters
kleastertsjerke
kleau
kleed
kleef
kleefstra
kleffens
klein
kleine
klemens
klemins
kleopatra
klerk
kleur
kleure
kleuren
kleurminging
kleurrike
kliber
klickitat
klien
klif
kliffen
klii
klik
klike
klimaat
klimaatferoaring
klimaatklassifikaasje
klimaks
klimaktyske
klimaten
klimfaasje
klimme
klimmen
klimt
kline
klingon
klingons
klinke
klinkende
klinkt
klinyk
klinyske
klip
klippen
klitoris
klm
kloan
kloane
kloanen
kloansoldaten
kloeke
kloft
kloften
klok
klokhu
klokken
klokkenstoel
klokkespul
klokkestoel
klokkestuollen
klokketoer
klom
klompe
klonen
kloos
kloosterman
kloster
klotarius
klovis
klu
klub
klubs
klucht
kluitman
klup
klups
klux
km
kme
kmer
kmm
knap
knappe
knaw
knee
kneppel
kneppelfreed
knfb
knibbel
knibbels
knife
knight
knights
knilles
kninen
knip
knipe
knkb
knmi
knock
knoffelige
knol
knollen
knoop
knooppunt
knooppunten
knop
knopen
knopf
know
knowles
knox
knoxville
knsb
knu
knut
knvb
knyl
knyn
ko
koa
koade
koadenamme
koades
koai
koaien
koal
koalen
koalstof
koalysje
koar
koaren
koarhearen
koarnjum
koarnwert
koarnwertersa
koart
koartby
koarte
koartebaan
koartehimmen
koarten
koarter
koartere
koartlyn
koarts
koartsein
koartste
koartsweagen
koartwei
koatstertille
kobe
koblenz
koch
kocht
kochten
kodeks
kodiak
koe
koeban
koed
koeke
koekoek
koel
koele
koen
koene
koenen
koenraad
koepel
koepelorganisaasje
koepels
koepeltsjerke
koer
koerbanken
koerden
koerdysk
koerdyske
koereur
koereurs
koerier
koerla
koeroargel
koers
koerstuolte
koerts
koets
koetshu
koeweit
koffer
kofje
kok
kokai
koken
koker
kokoseilannen
kol
kola
kolbe
kolk
kollaboraasje
kollaborateur
kolleezje
kolleezjes
kollega
kollegiale
kolleksje
kolleksjes
kollektive
kollektyf
kollum
kollumer
kollumerla
kollumersweach
kollumn
kollumnist
kollumniste
kollumns
kollums
kollwitz
koloanje
koloanjes
kolom
kolombia
kolombiaansk
kolombiaanske
kolomna
kolonel
koloniaal
koloniale
kolonialisme
kolonisaasje
kolonisearjen
kolonisearre
kolonist
kolonisten
kolonne
kolorado
kolosseum
kolumbia
kolumbus
kom
koma
komantsje
komantsjen
komarr
kombinaasje
kombinaasjes
kombinearje
kombinearjen
kombinearre
kombinearret
komboerd
komd
komedie
komeedzje
komeedzjedrama
komeedzjedramafilm
komeedzjefilm
komeedzjes
komeedzjesearje
komeedzjesearjes
komeet
komen
komitee
kommandant
kommanderije
kommandeur
kommando
komme
kommen
kommend
kommende
kommentaar
kommentator
kommersjeel
kommersjele
kommersyl
kommisje
kommisjes
kommissaris
kommissarissen
kommitee
kommodus
kommunikaasje
kommunisearje
kommunisearjen
kommunisme
kommunist
kommunisten
kommunistysk
kommunistyske
kommuny
kommys
komo
komoaren
kompanjons
kompanjonsfeart
kompanjy
kompanjyen
kompenije
kompetysje
kompetysjes
kompilaasje
kompinsaasje
kompju
kompleet
kompleks
komplekse
kompleminte
komplete
kompletearre
komplikaasjes
komplot
komponearre
komponinten
komponist
komponiste
komponisten
komposysje
komposysjes
kompromis
komselden
komst
komt
komyk
komysk
komyske
kon
kondysje
konettikut
konfederaasje
konfederearre
konferinsje
konferinsjes
konfiskearre
konflikt
konflikten
konfoai
konfrontaasje
konfrontaasjes
konfrontearre
konfusianisme
kong
kongo
kongoleeske
kongregaasje
kongres
kongressen
koning
koningin
koninklijk
koninklijke
koninkrijk
konklu
konkludearre
konkludearret
konkoers
konkurrinsje
konkurrint
konkurrinten
konneksje
konneksjes
konnetikut
konrad
konsekrearre
konsekwinsjes
konsekwint
konsensus
konsensuskrityk
konsept
konsepten
konsert
konserten
konservative
konservativen
konservatoarium
konservator
konservatyf
konsesje
konsesjes
konsily
konsintraasje
konsintraasjekamp
konsintraasjekampen
konsintrearje
konsintrearre
konsistoarje
konsolidaasje
konsolidearre
konsonant
konsonanten
konstant
konstante
konstantin
konstantinopel
konstantius
konstantyn
konstanz
konstitu
konstruksje
konstruksjes
konstrukteurs
konsul
konsulaat
konsumpsje
konsylje
kontakt
kontakten
kontekst
kontempore
kontingint
kontinint
kontinintaal
kontinintale
kontininten
kontra
kontrabas
kontrakt
kontrakten
kontrast
kontrei
kontreien
kontribu
kontro
kontrole
kontrolearjen
kontrolearre
kontroverse
kontroversjeel
kontroversjele
konvinsje
konvinsjes
konvint
koo
kooi
kooistra
koolhaas
koon
koopmans
koos
kooten
kootstra
kooymans
kop
kopenhagen
koper
koperblazers
koperen
kopgroep
kopie
kopke
koppen
koptysk
koptyske
kopy
kopyen
kor
koraal
koraalsee
koraan
korea
koreaansk
koreaanske
korinte
korintie
korintyske
kornelis
kornelius
kornet
kornysk
koroanafirus
koroanafiruspandemy
korporaal
korps
korrekt
korrespondinsje
korrespondint
korrupsje
korrupt
korrupte
korsika
kort
korte
kos
koskov
kosmology
kosmos
kosovo
kost
kosta
kostbere
koste
kosten
koster
kostet
kostje
kostroma
kostskoalle
kostu
koth
kou
koudum
kowalski
koweras
kowerassen
kozakken
kr
kra
kraal
kraan
kracht
kragujevac
kraj
krakau
kralingen
kramer
krante
kranten
kranteredakteur
krap
krapoan
krappe
krapte
krasnodar
krater
kre
krea
kreaasje
kreake
kreambe
kreas
kreaze
kree
krefeld
kreis
kreisfreie
krekt
krektas
krekte
krektlyk
krektoarsom
krektsa
kremaasje
krematoarium
kremearre
kremlin
kremlyn
krennic
kreoalsk
kreoalske
kreta
krewearjen
krewearre
krie
kriee
kriel
kriesk
krieske
krige
krigen
kriger
krigers
kriget
kriich
kriichsfinzen
kriichsfinzene
kriichsfinzenekamp
kriichsfinzenen
kriichsfinzenskip
kriichshear
kriichsmacht
kriichsmachtu
kriichsman
kriik
krije
krijen
krijt
krim
kriminaliteit
krimineel
kriminele
kriminelen
krimpen
kring
kringe
kringen
kringfrije
kringt
kris
krisis
krisisjierren
krist
kristallen
kristel
kristen
kristendom
kristenen
kristenuny
kristiaan
kristin
kristina
kristlik
kristlike
kristoffel
kristus
krite
kritearia
kriten
kritike
kritiken
kritikus
kritisy
krityk
kritysk
krityske
kro
kroa
kroaasje
kroan
kroand
kroane
kroanen
kroaning
kroanluchters
kroanprins
krobbe
krobben
kroeber
kroech
kroegen
kroep
kroes
kroesus
krol
krolhier
kromhout
kromme
krong
krongen
kroniek
kroniken
kronos
kronstadt
kronyk
kronykskriuwer
kroon
kross
kru
kruger
kruis
kruje
krummho
krupsje
kruse
krusen
kruser
krusers
krusige
krusiging
krusing
krusings
krusingstoer
kry
krypte
kryst
krystbeam
krystdagen
krystdei
krysteila
krystju
krystman
kryt
ks
kse
ksemboarch
ksemboarchsk
ksenofon
kses
ksesfol
ksesfolle
ksesfolste
ksessen
ksje
ksjes
kster
kswa
kt
kte
kten
ku
kuala
kuba
kubaansk
kubaanske
kubike
kuierjen
kuierpaad
kuierru
kuiken
kuiper
kuipers
kukri
kull
kultuer
kultueren
kultuerhistoaryske
kultuerpriis
kultureel
kulturele
kultus
kum
kumbria
kunde
kundich
kundige
kundiget
kung
kunis
kunnen
kunst
kunsten
kuorbal
kuorbalferiening
kup
kupmaat
kurasau
kurator
kursus
kursussen
kursyf
kurt
kurtzman
kus
kushiel
kust
kusten
kustgebiet
kustline
kuststripe
kustwacht
kuyper
kvp
kw
kwa
kwabben
kwai
kwalifikaasje
kwalifisearre
kwalitatyf
kwaliteit
kwaliteiten
kwart
kwartet
kwartfinales
kwea
kweade
kwealk
kweekskoalle
kweekt
kweeste
kweken
kwelders
kwelderwa
kwestje
kwestjes
kwetsber
kwetsbere
kwik
kwis
kwizekwa
kwurk
kwyt
kwytrekke
ky
kyl
kyle
kylie
kylo
kyo
kyoto
l
la
laach
laad
laadsje
laaksum
laam
laan
laat
laatste
lab
laban
label
labels
laboratoarium
labour
labourpartij
labrador
labyrint
labyrinth
lac
lacey
lacs
lade
laden
ladies
lading
lady
lage
lagen
lagoon
lagune
lahn
laitsje
laitsjen
lajos
lake
lakers
lakeside
lakota
lam
lama
lambert
lambertus
lammers
lammert
lampe
lampen
lanai
lancashire
lancaster
lance
lancelot
land
landbouw
lande
landen
landing
landkreis
lando
lands
landscape
landschaft
landschap
lane
lang
langdon
lange
langele
langen
langer
langere
langerno
langet
langjierrige
langobarden
langs
langspylfilm
langst
langste
langstme
langsweagen
langte
language
languages
langwar
langwarder
lanka
lanlik
lanlike
lannen
lansearre
lansearring
lantearne
laon
laos
lape
lapekoer
lapen
lapla
lara
laramie
laren
larenstein
largo
larp
larry
lars
larson
larus
larven
las
laser
lassard
last
late
laten
later
latin
latina
latinisearre
latino
latyn
latynsk
latynske
latynsktalich
lau
laude
lauderdale
laura
laurel
lauren
laurence
laurens
laurent
laurentiis
laurentius
laurie
lausanne
lauwers
lauwerseach
lauwersmar
lauwerssee
lava
laverman
lavra
law
lawei
lawless
lawrence
laxness
lay
layer
lazarus
lc
ld
ldbefolking
ldbeker
lddiel
lddielen
lde
ldelju
lden
ldend
ldende
ldens
lder
lderdom
ldere
lderein
lderen
lderfgoed
lderfgoedlist
lderfskip
lderij
lderlik
lderlike
lders
ldershu
lderskip
lderwetske
ldfeart
ldferneamd
ldferneamde
ldfrysk
ldfryske
ldheid
ldich
ldichwei
ldige
ldiger
ldiging
lding
ldingen
ldings
ldkampioen
ldkampioenskip
ldkampioenskippen
ldkriich
ldlik
ldlike
ldman
ldoarloch
ldodk
ldomke
ldrock
lds
ldsein
ldsferlies
ldsk
ldske
ldst
ldste
ldsten
ldster
ldsterwa
ldsu
ldt
ldtentoanstelling
ldtitel
ldu
ldwei
ldwide
ldwiid
le
lea
lead
leadramen
leaf
leafde
leaffrou
leaffrouwe
leaffrouwetsjerke
leafhawwer
leafhawwerij
leafhawwers
leafst
leafste
leafwa
leagens
league
leah
lean
leane
leanen
leanne
lear
learaar
leararen
leararesse
leard
learde
learden
leare
learen
learkre
learling
learlinge
learlingen
learmaster
lears
learstoel
leart
leau
leaud
leaude
leauden
leaut
leauwe
leauwen
leauwenden
leauwigen
leave
leaver
leben
lebui
lech
led
leda
leden
ledetal
lee
leech
leechfean
leechflakte
leechla
leechste
leechsteande
leechte
leed
leeds
leeftiid
leeftyd
leeftydskategory
leek
leelje
leen
leenstra
leer
leerling
leest
leeuw
leeuwarden
leeuwarder
leeuwen
leffens
left
legaal
legaat
legacy
legal
legale
lege
legend
legendary
legende
legends
leger
legerbasis
legerdokter
legere
legerhu
legerkamp
legerke
legerkorps
legerlieding
legermacht
legeroanfierder
legeroerste
legerofsier
legers
legeru
legindarysk
legindaryske
leginde
leginden
legioen
legioenen
legolas
lei
leia
leicester
leiden
leidsche
leie
leien
leienske
leigh
leij
lein
leindich
leindige
leine
leinen
leipzig
leisure
leit
leiter
lek
leken
lekken
lekker
lekkum
leksikon
lektor
lely
lelyste
lemakker
lemma
lemmer
lemniscaat
lemster
lemsterla
len
lena
leng
lenin
leningrad
lennep
lennon
lenore
lenstra
leo
leon
leonard
leonardo
leone
leonid
leons
leopold
les
lesbie
lesbos
lesbyske
leslie
lesoto
lessen
lester
lestich
let
letgoatyske
letla
letsk
letske
lette
letter
lettere
letteren
letterkunde
letterkundich
letterkundige
letterkundigen
letterlik
letterlike
letterman
letters
lettertype
lettres
leur
leusden
leuven
lev
levant
leve
level
leven
lever
levere
leveren
leveret
leverje
leverjen
levert
levi
levy
lewinsky
lewis
lex
lexicon
lexington
lexmond
lez
lf
lheim
li
lia
liam
libaneeske
libanon
libbe
libben
libbene
libbenen
libbens
libbensferhaal
libbensferwachting
libbensfoarm
libbenslang
libbenslange
libbensliet
libbensomstannichheden
libbenspartner
libbensrin
libbensstyl
libbensu
libbenswize
libbet
libearia
liber
liberaal
liberale
liberalen
liberalisme
liberty
libje
libjen
libjende
library
libretto
libri
libris
libyske
licence
license
lich
lichaamlik
lichaamlike
lichem
lichems
lichemsbou
lichemsdiel
lichemsdielen
lichemsskaaimerken
licht
lichtaard
lichte
lichter
lichtere
lid
lidden
liddichgonger
lidlum
lidmaatskip
lidsteaten
lidwurd
lie
liebe
lied
liede
lieden
liedend
liedende
lieder
lieders
liederskip
lieding
liedingjaande
liedjes
liedklok
liedklokken
liedster
liedt
liefde
liek
lieken
liem
lien
liend
liende
lienen
lienhear
liening
liens
lient
lienwurd
lienwurden
lier
liere
lies
liesbeth
liet
lieteboek
lieten
lietsjes
lietsjeskriuwer
lietteksten
lieuwe
lieuwes
lieve
life
lifetime
lift
liften
liga
lige
ligen
light
lighthouse
lightning
lights
ligne
liif
liifwacht
liifwachten
lije
lijen
lijt
like
likefolle
likegoed
likemin
liken
likenis
likense
likerno
liket
lil
lili
lilk
lilke
lilkens
lillehammer
lilli
lillian
lily
lima
limboarch
limburch
limburchsk
limburchske
limburg
limes
limited
limmet
limoer
limu
lin
lina
lincoln
lincolnshire
linda
linde
linden
lindquist
lindsay
line
linee
linen
lines
ling
lingen
lingte
lingtemjitte
lingua
lingui
link
linker
links
linkse
linnaeus
linnen
lins
lint
lintbebouwing
lintdoarp
liny
linys
linz
linzen
lion
lionel
lions
lionsgate
lippe
lippen
lippenhuzen
lis
lisa
lisearre
lisieux
lisinius
lisinsje
lissabon
list
listen
listlu
listysk
listyske
liszt
lit
liteit
liter
literaire
literary
literatuer
literatuerkritikus
literatuerpriis
literature
literatuur
litere
litograaf
litousk
litouske
litouwen
lits
litte
litten
littenseradiel
little
liturgy
liturgysk
liturgyske
liu
liudger
liuw
liuwe
liuwen
liv
live
liverpool
lives
living
livius
liza
lizze
lizzen
lizzend
lizzende
lizzing
lizzy
lje
ljedder
ljen
ljes
ljeton
ljip
ljocht
ljochtblau
ljochtbru
ljochte
ljochten
ljochter
ljochtsabel
ljochtsabels
ljouwert
ljouwerter
ljouwerteradiel
ljouwerterdyk
ljouwerters
ljouwertersk
lju
ljussens
ll
lla
lle
llen
ller
llewelyn
lloyd
lnamme
lnammen
lo
loadewyk
loads
loaii
loasdrecht
loataringen
lobby
loch
lochiel
locke
locker
lockheed
lockwood
locus
lodewijk
lodge
lodi
loek
loeken
loenen
lof
loft
lofter
lofterha
lofterkant
loftfeart
loftfeartmaatskippij
loftfeartmaatskippijen
loftfeartpionier
loftfoto
lofthaven
loftmacht
loftmachtbasis
loftoanfal
loftoanfallen
lofts
loftse
loftskip
logan
loggia
logika
logistyk
logo
logos
logy
logysk
logyske
lohman
loire
lois
lok
lokaal
lokaasje
lokaasjes
lokale
loki
lokjen
lokke
lokket
lokkich
lokkigerno
lokomotyf
lola
lolle
lollum
lombard
lombardije
lombok
lon
londen
londenske
london
lone
lonely
long
longen
longerhou
longfellow
longkanker
longknife
longobarden
longu
loo
looch
look
looking
loomis
loon
loop
loovjend
loovjende
lopen
lopez
loppersum
lorca
lord
lore
lorenzo
lorraine
los
loser
losjild
loskes
loslitten
losmakke
lospriis
loss
losse
lossen
lost
lot
lotarius
lotte
lotus
lou
louis
louisa
louise
louisiana
louisville
loup
lourens
louvre
louw
love
lovecraft
loved
lover
low
lowe
lowell
lower
lp
lpiercing
lplak
ls
lt
ltd
lte
lten
lterswa
ltkamp
lto
ltsje
ltsjerke
ltskog
lu
lubbers
lublin
luc
lucas
lucasfilm
luccio
lucht
luchtgewear
luchtpistoal
lucia
luciano
lucien
lucille
lucius
luck
lucky
lucy
ludlow
ludwig
luftwaffe
lugh
lugo
luigi
luik
luis
luitenant
luitingh
lukas
luke
lukrative
lukresia
lulk
lulke
lulkens
lumpur
luna
lund
lune
lus
lusia
lusius
lust
luterske
luther
lutherske
luts
lutsen
lutz
lvarez
lviv
lw
ly
lybje
lyceum
lychtenstein
lycklama
lydia
lyk
lykas
lykfol
lykje
lykjen
lykjende
lykklaad
lykme
lyknammige
lykneamde
lykop
lykslein
lyksoartige
lykwicht
lykwols
lyle
lyn
lynch
lyndon
lyngstad
lynks
lynksen
lynn
lynx
lyon
lyseum
lysje
lyts
lytse
lytser
lytsere
lytsewierrum
lytskalibergewear
lytsman
lytssa
lytsskalige
lytste
m
ma
maaie
maaike
maaitiid
maan
maar
maarskalk
maarssen
maart
maarten
maas
maastricht
maat
maatregel
maatregels
maatschappij
maatskiplik
maatskiplike
maatskippij
maatskippijen
mab
mac
macbeth
maccoll
macdonald
macduff
mace
machigi
machine
machines
macht
machten
machthawwers
machtich
machtichste
machtige
machtiger
machtsoername
mack
mackensen
mackenzie
mackinac
macleod
macmillan
mad
madagascar
madagaskar
madame
made
madeara
madeleine
madison
madness
madonna
madrid
mae
maeve
maffia
maffiabaas
mafu
mag
magazine
magdalena
magdeburg
mage
maggie
magic
maginta
magister
magistraat
magma
magna
magnetyske
magnificent
magnum
magnus
magnussen
mago
magreb
magy
magysk
magyske
mahalia
mahatma
mahoney
mai
maibaum
maid
maiden
mail
main
maine
mainstream
mainz
maire
maison
maitiid
maityd
majesty
majoar
majoor
major
majorka
mak
makau
make
maken
making
makkabeee
makke
makkelei
makken
makker
makkers
makket
makkingea
makkum
makkumer
maklik
maklike
makliker
maks
maksentius
maksimaal
maksimale
maksimianus
maksimiliaan
maksiminus
maksimum
maksimumfaasje
maksimus
malakka
malaria
malawy
malaysia
malcolm
maldiven
male
maleisk
maleizje
maleizyske
malibu
mall
malmo
malone
malpaso
malta
maly
mama
mamma
mammalia
mammoet
man
management
manager
manasse
manche
manchester
mandaatgebiet
mandalore
mandalorian
mandan
mandarynsk
mande
mandei
mandela
manders
mandingo
manear
manearen
manen
manet
manfred
manga
manhattan
manier
manieren
manifest
manifestaasje
manifestaasjes
manilla
manipulaasje
manipulearre
manistee
manitoba
mank
mankre
manksk
mankske
manlik
manlike
manlju
manljusble
mann
manneboet
manneke
mannen
mannewaar
mannheim
mannich
mannichfa
mannichte
manning
manon
mans
mansbob
mansfield
manskippen
manson
mantel
mantgum
mantsje
mantsjes
mantsjoerije
manuaal
manualen
manuel
manuskript
manuskripten
many
mao
map
mar
mara
maradona
maraton
maratonrider
marburg
marc
marcel
marcela
march
marche
marco
marcone
marcus
mare
maresjesee
marga
margaret
margareta
margaretha
margo
margot
margriet
margrietkanaal
marguerite
mari
maria
mariah
marian
marianen
marianne
marid
marie
marieke
marija
marije
marijekapel
marijetsjerke
marijke
marillier
marilyn
marin
marina
marine
marinebasis
marines
marineskip
marineskippen
marinestasjon
marinier
mariniers
marinierskorps
marino
marinos
marinus
mario
marion
maris
marista
maritime
maritym
marius
marja
marjorie
mark
marke
markearre
marken
market
marketing
marketingkosten
markgreve
markham
marko
markomannen
markt
markus
markys
marlene
marlowe
marmot
marmota
marmotten
marne
marnix
marokkaansk
marokkaanske
marokko
marren
marriage
married
marriott
marrok
marrum
mars
marseille
marshal
marshall
marshalleilannen
marshals
marsilia
marsum
marta
martel
martelder
martele
marteling
marten
martena
martens
martenstsjerke
martereftigen
marters
martes
martha
marti
martial
martian
martijn
martin
martinez
martini
martinitsjerke
martinus
martinustsjerke
martinyk
martinytsjerke
martler
martlers
martlerskip
martsje
marty
marvel
marvin
marx
mary
maryla
maryland
marzje
mas
masedoanje
masedoanyske
masine
masinegewear
masinegewearen
masines
masinist
mask
masker
maskere
maskers
maskotte
mason
massa
massaal
massachusetts
massacre
massaferneatigingswapen
massagre
massale
massinissa
massive
massyf
master
mastergraad
masters
masterson
masterstitel
masterwurk
masturbaasje
mastyf
mat
mata
mate
matearje
maten
materiaal
materialen
materie
materieel
materjaal
mather
mathilde
matrix
matroas
matroazen
matrys
matt
matte
matter
matthew
matthews
matthias
matthijs
mattias
maud
maui
maul
maureen
mauretaanje
maurice
mauritius
maurits
mauritsius
mauser
mausoleum
mauthausen
mavo
max
maxim
maxwell
may
maya
mayen
mayer
mayes
mayhew
mayo
maz
mazda
mazrui
mb
mc
mca
mccain
mccall
mccarthy
mccartney
mcclane
mcclory
mccoy
mccune
mcdonald
mcdougall
mcgovern
mcgrath
mcgraw
mcgregor
mckay
mckenzie
mckinley
mcknight
mcl
mclaren
mcmaster
mdewakanton
me
mea
meade
meagere
meallen
mealree
mean
meand
meanen
means
mear
meardere
mearderheid
mearderjierrich
mearfa
mearje
mearkamp
mearke
mearkes
mearkeskriuwer
meartal
meartalsfoarm
mearum
mearwiverij
mearysk
mearyske
meast
meastal
measte
measten
meastentiids
meastepart
meat
mechanysk
mechanyske
mechelen
meckema
med
medal
medalje
medaljes
medaljespegel
medaljewinners
mede
medemblik
meden
media
mediafranchise
medical
medici
medicine
medieval
medikus
medina
medisinen
medisyn
medisynman
meditaasje
mediterraan
mediterrane
medium
medvedev
medysk
medyske
mee
meente
meer
meern
meertens
mees
meester
meet
meeter
meeting
meg
megalodon
megan
meganika
meganisaasje
meganisme
meganyske
mehmed
mei
meibrocht
meidat
meidie
meidien
meidiene
meidocht
meidogge
meidoggers
meidwaan
meie
meien
meii
meiinoar
meij
meijer
meimakke
mein
meinaam
meindert
meinimme
meinimt
meinommen
meirekkene
meisje
meisjes
meispile
meistanners
meiteld
meitiid
meitsje
meitsjen
meiwurke
meiwurker
meiwurkers
meiwurking
meiwurkje
mekka
meklenburch
meksikaansk
meksikaanske
meksikanen
meksiko
mel
melanezie
melanine
melbourne
melchior
melde
melden
meldij
melding
melina
melissa
melkfeeha
melle
mellema
melody
melville
mem
memme
memmegoadinne
memmekant
memmen
memmetaal
memmetaalsprekkers
memoir
memoires
memoirs
memorial
memoriam
memories
memory
memphis
men
menaam
menace
menameradiel
mendes
mendoza
menear
meneer
meniste
menisten
mennisten
menno
mens
menschen
mense
mensen
mentale
menteith
mentor
menu
meppel
mer
mercator
mercedes
merckx
mercury
mercy
mere
meredith
merian
merida
meridiaan
merike
merk
merke
merkel
merken
merknamme
merkstrjitte
merkt
merkuerius
merlyn
merovingen
merovingyske
merritt
merry
mers
mersia
merten
merwede
merwedekanaal
meryl
mes
mesa
mesdag
meso
mesopotaamje
mesopotamyske
messen
messerschmitt
messi
messias
messina
met
metaal
metacritic
metal
metalalbum
metalartyst
metalband
metalen
metalene
metallica
metalliet
meteorology
meteorolooch
meter
meters
metoade
metoaden
metodistyske
metro
metropoal
metropolitan
metropolyt
metrostasjon
mette
metten
metz
meubels
meubile
meulen
meulenhoff
meunster
meunsters
mexico
meyer
mez
mg
mgm
mhnt
mi
mia
miami
mich
michae
michael
michaels
michaeltsjerke
michail
michel
michelangelo
michelle
michener
michiel
michigan
michiganmar
mick
mickey
microsoft
microtus
mid
midas
middei
middeis
middel
middelber
middelbere
middelburch
middelburg
middelen
middelgrutte
middeljierren
middella
middellange
middelnamme
middelpunt
middels
middelsee
middelste
middelstum
midden
middenklasse
middenmank
middenskip
middensta
middenyn
middle
middleton
midfrysk
midingelsk
midnederla
midnight
mids
midsiuwen
midsiuwsk
midsiuwske
midsla
midsmjittich
midsnacht
midstrjitte
midstwa
midway
midwesten
midwolda
mie
miedema
mieden
miedum
mieke
miel
mien
miende
mienden
miene
mienebe
mienebest
miening
mienings
mieningsutering
mienskip
mienskiplik
mienskiplike
mienskippen
mient
mies
mig
miggen
miggesnapper
mighty
migraasje
migranten
miguel
mij
mijen
mijn
mika
mike
mikojan
mikro
mikroneezje
mikronezie
miks
milaan
milan
milano
mildaam
mildred
mile
milennia
milennium
miles
milf
militante
military
milite
militum
milius
miljard
miljarde
miljeu
miljoen
miljoenen
miljone
milk
mill
millarson
mille
millennium
miller
million
mills
milo
milos
milton
milwaukee
milysje
milysjes
mimi
min
minachting
minas
mind
minder
mindere
minderheden
minderheid
minderheidstaal
minderheidstalen
minderjierrich
minderjierrige
minderjierrigen
minds
mine
minen
mineralen
minerva
ming
mingd
mingde
mingen
mingsel
mingtaal
mini
minimaal
minimale
minions
ministearje
ministearjes
minister
ministerried
ministers
ministerskip
mink
minne
minneapolis
minnema
minner
minneresse
minners
minnertsgea
minnesota
minnichte
minnie
minnikonzju
minnisten
minor
mins
minsk
minskdom
minske
minsken
minskerjochte
minskerjochten
minskewitten
minskheid
minsklik
minsklike
minsklikheid
minst
minste
minstens
minster
minu
minus
minuten
miny
minysearje
mio
miquelon
mir
mira
miracle
miranda
mirandola
mirjam
mirror
mis
misbru
misdie
misdieden
misdiefilm
misdieskriuwer
misdieslachtoffer
misdiesyndikaat
misdriuw
misdriuwen
misfersta
misferstannen
mishannele
mishanneling
misje
misjes
misjonaris
misjonarissen
miskien
mislearjen
mislearre
mislearren
mislearret
misledige
mislediging
miss
misse
missen
missende
missing
mission
mississippi
mississippy
missoery
missouri
missoury
misstannen
misstavere
missy
missypost
mist
miste
mister
misty
mit
mitch
mitchell
mitrailleur
mitrailleurs
mitridates
mitsele
mitselwier
mitselwurk
mitsubishi
mitt
mitte
mixtape
miyagi
mizuki
mjit
mjitkunde
mjitste
mjitte
mjitten
mjuks
mk
ml
mm
mny
mnys
mo
moa
moade
moadeu
moai
moaie
moaier
moaiste
moana
moandei
moanne
moanneble
moannelanner
moannen
moannenlang
moard
moarden
moardner
moardners
moardoanslach
moardsaak
moardslachtoffer
moaren
moarje
moark
moarmer
moarmeren
moarn
moarns
moarnsdage
moarre
moarrewa
moarske
moas
moasje
moast
moasten
moat
moatte
moatten
moazes
mobile
mobilisaasje
mocht
mochten
mockema
modder
moddergat
modderige
model
modelleburo
modellen
modellewurk
models
modern
moderne
modernere
modernisearre
modernisearring
modifisearre
module
moed
moeder
moedige
moerad
moermansk
moerom
moet
moete
moeten
moetet
moeting
moetings
moetingsplak
moetsje
moetsjen
moff
mog
mogadisju
mohammed
moi
moines
mol
moldaavje
mole
moledatabank
molekule
molekulen
molen
molenaar
molendatabase
molens
moles
molie
molke
molkfabryk
molkwar
moll
molly
molokai
molukken
mom
mombasa
moment
momint
mominten
momkape
moms
mon
mona
monaco
monako
monarch
monargy
monastery
monastike
mondale
monde
mondriaan
monet
monete
money
moneypenny
mongoalen
mongoalje
mongoalsk
mongoalske
monica
monique
monmouth
monolooch
monopoalje
monotei
monroe
mons
monsieur
monster
monsters
mont
montaazje
montana
monte
montearre
montenegro
montessori
monteur
montgomery
month
monthly
montreal
montserrat
monty
monument
monumenten
monumint
monumintaal
monumintale
monuminten
monumintesoarch
monza
moody
mooglik
mooglike
mooglikheden
mooglikheid
mooi
mooiste
moon
moonlight
moonraker
moor
moord
moore
moormerland
mor
moraal
moraavje
moray
morbihan
mordekai
mordor
more
moreel
morele
morfology
morgan
morgen
mori
moritz
mormoanen
mormoanske
morn
mornhavon
morning
morpheus
morricone
morris
morrison
morrow
morse
mort
mortimer
morton
mortuarium
mos
moscow
moses
mosk
moskee
moskeee
moskeftige
moskeftigen
moskou
moskouse
moslim
moslims
mospheira
mosquito
moss
most
motel
mother
mothma
motion
motivaasje
motivearre
motiven
motoaren
motor
motorfyts
motorfytsen
motorisearre
motors
motoru
motto
motyf
moulin
mount
mountain
mountains
mourning
mouse
mouwe
movement
movie
movies
moving
mowgli
moylan
mozai
mozambyk
mozart
mozayk
mozes
mp
mr
mrs
mrt
ms
mt
mtv
mu
much
muddy
mueller
muhammad
muiden
mul
mulder
mulier
muller
mullum
mulo
mulpunt
multatuli
multy
multyfunksjoneel
mummy
mundi
mungard
munnikebuorren
munster
munt
munten
muntendam
muntienheid
muntsjesyl
munysje
muoike
muoikes
muoikesizzer
muoite
muonts
muontsen
muorre
muorrekeatsen
muorren
muorreskilderings
muorrewurk
murd
murder
murdoch
muridae
muriel
murini
murk
murns
murphy
murray
mus
musa
muse
musea
museo
museum
museumdirekteur
museums
music
musica
musical
musicalakteur
musicals
musikus
musketiers
mussel
musselkanaal
mussert
mussolini
must
mustafa
mustafar
mustaine
mustang
mustela
muuß
muziek
muzikaal
muzikale
muzikant
muzikanten
muzyk
muzykferiening
muzykfestival
muzykkorps
muzykpedagooch
muzykpriis
muzykprodusint
muzyksjenre
muzykskoalle
muzykstik
muzyku
muzykyndustry
muzykynstrumint
muzykynstruminten
mw
my
mya
myanmar
myl
myld
mylde
myn
mynbou
mynwurkers
mynx
myra
myself
mysene
mystearjes
mysteries
mysterieuze
mystery
mystic
mystike
mystikus
mystyk
myte
myten
mytology
mytologyske
mytysk
mytyske
n
na
naacp
naaide
naaie
naaien
naait
naam
naar
naarden
naasje
naasjes
naboo
nabooaanske
nabookrisis
nach
nacht
nachten
nachtklub
nachtklubs
nachtlike
nachtmerje
nachtmiel
nachts
nacional
nadar
nadia
nadine
nafo
nag
nagano
nagasaki
nagasaky
nagorno
nagoya
nai
nailin
nairobi
naismith
najida
naked
nakota
nam
name
namen
names
namfal
namfallen
namme
nammedei
nammejouwer
nammejouwing
nammeleaze
nammen
nammenste
nammentlik
nammers
namy
namybje
nancy
nanne
nantes
naomi
nap
napels
napoleon
napoleontyske
naram
narjen
narratology
narre
narsjitekt
narteks
nasa
nash
nashville
nasjonaal
nasjonaalsosjalisme
nasjonaalsosjalisten
nasjonaalsosjalistyske
nasjonale
nasjonalisme
nasjonalist
nasjonalisten
nasjonalistyske
nasjonaliteit
nasjonaliteiten
nass
nassau
nasser
nat
natal
natalia
natalie
natalja
natasha
nate
nathan
nathaniel
nation
nationaal
national
nationale
nations
native
nato
natoer
natoerbeskermer
natoergebiet
natoergebieten
natoerhistoarysk
natoerlike
natoerreligy
natoerreligyen
natoerreligys
natoerreservaat
natoerskientme
natoeru
natuer
natuere
natuergebiet
natuergebieten
natuerkunde
natuerkundige
natuerlik
natuerlike
natuermonuminten
natuerwittenskippen
natura
natural
naturalisme
nature
natuur
nau
naughty
naust
nauta
nauwe
nauwer
nauwerneed
navaho
naval
navarra
navenant
navigaasje
navigator
navu
navy
nazaret
nazareth
nazi
nazy
nazys
nba
nbal
nbank
nbc
nbea
nbedoeld
nbekend
nbekende
nbemanne
nberikber
nbert
nbesit
nbesitter
nbesitters
nbewenne
nbewenners
nbewust
nbewuste
nbidich
nbidige
nbo
nboek
nbou
nbougewaaksen
nbougru
nboukundige
nbouprodukten
nbouskoalle
nbouwer
nbre
nbru
nbyld
nbylden
nchen
nchengladbach
nchez
ncis
ncrv
nd
ndanks
ndc
nde
ndei
nden
nder
nderbefelhawwer
nderbou
nderbouwing
nderbrekking
nderbrocht
nderbrutsen
nderdak
nderdiel
nderdielen
nderdienen
nderdrukken
nderdrukking
nderdrukt
nderdu
ndere
nderearm
nderen
nderfamylje
nderferdield
nderferdieling
nderferparte
nderfine
nderfining
nderfinings
nderfrege
nderfreging
nderfu
nderfynt
ndergean
ndergie
ndergien
ndergiet
ndergong
ndergru
ndergyng
nderha
nderhannele
nderhannelingen
nderhannelings
nderhannelje
nderhanneljen
nderhearrich
nderhearrige
nderhearrigen
nderheden
nderhold
nderholden
ndering
nderings
nderinoar
nderkant
nderkening
nderklasse
nderkommen
nderlik
nderlike
nderling
nderlinge
nderlizzende
ndernaam
ndernimmen
ndernimmer
ndernimmers
ndernimming
ndernimmings
ndernommen
nderoan
nderre
nderrin
nderrjocht
nderrjochte
nders
nderseeboat
nderseeboaten
nderseee
nderseeske
ndersiken
ndersiker
ndersikers
ndersiket
nderskaai
nderskaat
nderskate
nderskept
nderskie
nderskied
nderskiede
nderskieden
nderskiedend
nderskieding
nderskiedings
nderskiedt
nderskift
ndersoarte
ndersoarten
ndersocht
nderste
ndersteande
nderstelde
nderstelling
nderstipe
nderstru
nderstypje
nderstypjen
nderstypjende
ndersyk
ndersykje
ndersykjen
ndert
ndertekene
ndertekenen
ndertekening
ndertekenje
ndertekenjen
nderten
ndertitel
ndertiteling
ndertjierrich
ndertjierrige
nderttu
nderweis
nderwerp
nderwerpen
nderwiis
nderwilens
nderwizer
nderwizeresse
nderwizers
nderwra
nderwurpen
ndez
ndjip
ndjippe
ndu
ndy
ndyk
ne
nea
neaken
neakenble
neakene
neakenens
neakenfotografy
neakenmodel
neal
neamd
neamde
neamden
neame
neamen
neamt
near
neare
nearne
nearo
neat
neatich
nebraska
nebu
nebula
neburg
ned
nedatabase
neder
nederdu
nederklits
nederla
nederlaach
nederlagen
nederland
nederlanden
nederlands
nederlandsch
nederlandsche
nederlandse
nederlannen
nederlanner
nederlanners
nederryn
nederrynske
nedersaksen
nedersaksysk
nedersaksyske
nedich
nedige
nee
need
needla
needsaak
needsaaklik
needsaaklike
neef
neeson
neffens
neftigen
negative
negatyf
negearjen
negearre
negearret
negebiet
negerslaven
negroi
nehemia
nei
neiboud
neidat
neidiel
neidielen
neier
neieroankommen
neifolgers
neifolging
neifolgjende
neigean
neigeraden
neihardt
neijier
neikommelingen
neikommende
neikompetysje
neil
neilannen
neilibjen
neilitten
neilittenskip
neill
neimakke
neimoi
nein
neisiet
neisieten
neisleep
neist
neiste
neistlizzende
neisyngronisaasje
neisyngronisearre
neite
neiteam
neitiid
neitiids
neitins
neiwurd
nekke
nekop
nel
nellie
nelly
nelson
nemesis
nemint
nemintalisme
neminten
nemo
nen
nena
nende
nens
nensorganisaasje
nenssoarch
nensswierrichheden
nent
neo
neogoatysk
neogoatyske
neogotyk
neogotyske
neoklassisistyske
neolitikum
neolityske
nepal
nepos
neptunus
ner
nerijen
ners
nerts
neruda
nes
nesee
ness
nest
neste
nestor
net
netflix
netherlands
nettsjinsteande
network
netwurk
netwurken
neue
neuengamme
neurenberch
neurolooch
neushoorn
neustadt
neustrje
neutraal
neutrale
neutraliteit
nevada
nevebo
neven
never
nevernever
neville
nevis
nevski
new
newcastle
newman
newport
news
newsted
newton
newyorkske
next
nez
nfa
nfe
nfeilich
nferhuzers
nferrie
nferwachte
nferwachts
nferwachtse
nfls
nfoarm
nfoljende
nfollybal
nfolslein
nfolsleine
nfolto
nfrede
nfurd
nfyts
ng
nga
ngaarde
ngahuzen
ngaryp
ngea
ngebiet
ngebru
ngedien
ngedierte
ngefear
ngelikense
ngelok
ngelokke
ngelokkich
ngelyk
ngemak
ngemakken
ngenede
nger
ngeskikt
ngewoan
ngewoane
ngoed
ngru
nguod
nh
nha
nhear
nheil
nhl
nhu
nhuzen
ni
nia
nice
nicholas
nichols
nicholson
nicht
nick
nickelodeon
nicky
nico
nicodemus
nicola
nicolaas
nicolai
nicolas
nicolaus
nicole
nie
niels
nielsen
nienichheid
nienoard
niet
niets
nietzsche
nieuw
nieuwe
nieuwegein
nieuwenhuis
nieuws
nieuwsblad
nig
nige
nigearia
nigel
niger
nigeriaanske
niget
night
nights
nightwish
nii
niikhoarntsje
niikhoarntsjes
niis
nij
nijbou
nijbouwyk
nijbre
nijdam
nije
nijeberkeap
nijefurd
nijehaske
nijeholt
nijeholtpea
nijemardum
nijenhuis
nijere
nijeska
nijesyl
nijetrine
nijewier
nijfu
nijgh
nijhoarne
nijhoff
nijhuzum
nijkerk
nijla
nijmegen
nijmoadrige
nijs
nijsble
nijseela
nijsgjirrich
nijsgjirrichheden
nijsgjirrige
nijsgjirrigens
nijskoat
nijsle
nijsprogramma
nijsstjoerder
nijste
nijtap
nijynkommelingen
nikaragu
nikita
nikki
nikolaas
nikolaastsjerke
nikolai
nikolaj
nikolaus
niks
nikys
nils
nim
nimf
nimme
nimmen
nimoy
nimt
nimwegen
nin
nina
nine
ning
ningen
nings
ningsbaan
ningte
nintendo
nio
niobrara
niro
nirvana
nis
nisme
nissen
niten
nitraat
nityske
nitz
nivo
nixon
nizjni
nje
njen
njierrige
njildich
njoggen
njoggende
njoggenjierrige
njoggentich
njoggentiger
njoggentjin
njoggentjinde
njonkelytsen
njonken
njonkeninoar
njonkenlizzende
nk
nkaart
nkaarten
nker
nkerder
nkere
nkers
nklimaat
nkpapa
nkring
nkringen
nl
nla
nlieding
nlijige
nling
nlinge
nlizzer
nlizzers
nm
nmacht
nmeilydsum
nmeilydsume
nmisber
nmjitter
nmjitters
nmooglik
nmooglike
nne
nnen
nnes
nnoazele
no
noa
noah
noait
noangename
noar
noara
noarch
noard
noardamerikaanske
noardburgum
noarddu
noardeast
noardeasten
noardeastkant
noardeastlik
noardeastlike
noardeastpolder
noarden
noardenfjild
noarder
noarderbreedte
noardfriezen
noardfrysk
noardfryske
noardgermaanske
noardgrins
noardholla
noardhorn
noardiersk
noardierske
noardkant
noardkust
noardlik
noardlike
noardliker
noardlikste
noardpoal
noardryn
noardsee
noardseekust
noardside
noardske
noardumberla
noardumbrje
noardwa
noardwest
noardwesten
noardwestgermaanske
noardwestkust
noardwestlik
noardwestlike
noardwestsemityske
noardwyk
noaren
noarm
noarmannen
noarmen
noarsk
noarske
noarwegen
noas
noat
noaten
nobel
nobelpriis
nobelpriiswinner
noble
noch
nochal
nochris
nocht
noe
noed
noerflak
nof
noffisjele
noflik
nog
noir
noirs
noli
nom
nomaden
nomadyske
nomd
nominaasje
nominaasjes
nominearre
nominoe
nommen
non
nonnekleaster
nonnen
nooit
noonan
noord
noordboek
noordelijk
noorden
noordhoff
noppert
nora
norbertus
nord
norden
norfolk
noris
normaal
normale
norman
normandie
normandje
normandysk
normandyske
normanje
north
northampton
northern
northumberland
northumbria
northwest
norton
norwich
nos
not
notaris
notearre
notes
nothing
notoc
notre
nottingham
nou
nouveau
nouvelle
nov
nova
novel
novelle
novellen
novelles
november
novgorod
novimber
novosibirsk
now
noyes
nplaat
nplan
npo
nps
npunt
npunten
nr
nrc
nre
nreis
nreplik
nrjocht
nrjochten
nrjochtlik
ns
nsb
nsbeweging
nsdap
nsdei
nsdiel
nsdielen
nsdistrikt
nse
nseigen
nsel
nselarij
nselier
nsen
nser
nseradiel
nserdifyzje
nsere
nseresse
nsers
nses
nsestyl
nsgea
nsgemeente
nsgenoat
nsgenoaten
nsgenoatskip
nshear
nsichtber
nsje
nsjehu
nsjen
nsjes
nsjitter
nsk
nska
nskansearre
nskatalogus
nske
nsken
nskewei
nskildere
nskip
nskippen
nskipsstyl
nskrift
nskriften
nskrigers
nsktalich
nsktalige
nskuld
nskuldich
nskuldige
nsla
nslach
nsleat
nslieder
nsmaat
nsman
nsmaten
nsmiel
nsmiet
nsoarloch
nspartij
nsrepublyk
nsspringen
nsteapel
nster
nstie
nstien
nstiene
nstiennen
nstiid
nstjerlik
nstjerlikens
nstjoer
nstof
nstoffen
nstreek
nsu
nswert
nt
ntaalsk
ntaasje
ntalist
ntbining
ntbleate
ntbrekke
ntbrekken
ntbrekt
ntbriek
ntbu
ntdekke
ntdekken
ntdekker
ntdekking
ntdekkings
ntdekkingsreizger
ntdekkingsreizgers
ntdekt
ntdekte
ntdiek
ntdieken
ntdien
ntdu
ntduts
ntdutsen
nte
ntearre
ntefreden
nteigene
nten
ntfange
ntfangen
ntfanger
ntfangst
ntfangt
ntfierd
ntfierde
ntfiere
ntfieren
ntfiering
ntfiert
ntflechte
ntflechtsje
ntfolke
ntfong
ntfongen
ntginning
ntgu
ntha
nthalze
nthalzing
ntheft
nthelle
nthiet
nthjit
nthjitte
nthjitten
ntholden
ntjaan
ntjoech
ntjoegen
ntjout
ntjouwing
ntjouwings
ntju
ntkaam
ntkomme
ntkommen
ntkomt
ntkre
ntl
ntle
ntliend
ntliende
ntlient
ntm
ntnadere
ntploffing
ntploft
ntr
ntre
ntrinnen
ntromme
ntrou
nts
ntseach
ntseagersk
ntsein
ntsen
ntset
ntsetten
ntsje
ntsjerk
ntsjes
ntskuldigings
ntslach
ntslein
ntsnappe
ntsnappen
ntsnapping
ntsnapt
ntsnapte
ntspringt
ntstean
ntsteane
ntstekking
ntstie
ntstien
ntstiene
ntstienen
ntstiet
ntstried
nttiids
ntwapene
ntwerp
ntwerpen
ntwerper
ntwerpers
ntwerpster
ntwikkele
ntwikkelen
ntwikkelet
ntwikkeling
ntwikkelingen
ntwikkelings
ntwikkelingslannen
ntwikkelje
ntwikkeljen
ntwurde
ntwurp
ntwurpen
nu
nuet
nuete
nuit
nuklee
nul
nullewa
number
numidyske
numydje
nunspeet
nuodlike
nus
nut
nute
nuten
nuver
nuvere
nv
nwa
nwacht
nwachten
nwar
nwei
nwestfrysk
nwet
nwetter
nwierskynlik
nwinske
nwis
nwissichheid
nwurk
nwurklju
ny
nye
nyegea
nyk
nyl
nyle
nymwegen
nynke
nze
nzen
nzene
nzeste
o
oa
oade
oak
oakerhater
oakland
oakley
oalje
oaljefant
oaljefanten
oaljeferve
oaljes
oan
oanbea
oanbean
oanbelange
oanbelanget
oanbelangjende
oanberne
oanbesibbe
oanbidding
oanbiede
oanbiedt
oanboaze
oanboazjende
oanbod
oanbou
oanboud
oanbringe
oanbringen
oanbrocht
oanbuorjende
oandacht
oandie
oandiel
oandielen
oandielha
oandien
oandiene
oandreaun
oandreaune
oandriuwing
oandwaning
oandwanings
oanfal
oanfalle
oanfallen
oanfaller
oanfallers
oanfalt
oanfarring
oanfier
oanfierd
oanfierde
oanfierder
oanfierders
oanfiering
oanfitere
oanfoel
oanfoelen
oanfold
oanfoljende
oanfolle
oanfolling
oanfraach
oanfrege
oangean
oangeande
oangeane
oangelegenheden
oangenaam
oangie
oangien
oangiet
oangrinzgjende
oanha
oanhelle
oanhing
oanhinger
oanhingers
oanhold
oanholden
oanhongen
oaniensletten
oaninoar
oanjaan
oanjefte
oanjoech
oanjout
oanjouwe
oanju
oankaam
oankamen
oankeap
oanklacht
oanklachten
oanklage
oankocht
oankomme
oankommen
oankommende
oankomst
oankomt
oankundige
oankundiging
oanleard
oanlei
oanlein
oanleine
oanlieding
oanlis
oanlizze
oanlizzen
oanlu
oanlutsen
oanmakke
oanmeitsjen
oanmerking
oanmoedige
oanmurken
oannaam
oanname
oannimlik
oannimme
oannimmen
oannimmer
oannimt
oannomd
oannommen
oanpak
oanpakt
oanpasse
oanpassing
oanpassings
oanpast
oanpaste
oanplante
oanpriizge
oanrekke
oanrekking
oanrieden
oanrin
oanrjochte
oanroppen
oanset
oansette
oansetten
oansjen
oansjenlik
oansjenlike
oansjoen
oanskaf
oanskaft
oanslach
oanslaggen
oansleat
oanslein
oansletten
oanslu
oanslute
oansluten
oanslutend
oanslutende
oansluting
oanspand
oanspraak
oanspraken
oansprektitel
oansprutsen
oanstean
oansteande
oansteld
oanstelde
oanstelling
oanstriid
oanstutsen
oanswettende
oant
oantaast
oantaaste
oantaasting
oantal
oantallen
oantekene
oantekenings
oantinken
oantinkens
oantins
oantoand
oantreffe
oantreft
oantreklik
oantreklike
oantroffen
oantru
oantrune
oantrunen
oantsjut
oantsjutte
oantsjutten
oantsjutting
oantsjuttings
oanwaaks
oanwaaksende
oanwe
oanwiisd
oanwizing
oanwizings
oanwoeksen
oar
oard
oarde
oardel
oarden
oarder
oardere
oarderet
oardering
oarders
oardiel
oardiele
oare
oarehelte
oarekant
oaren
oarenien
oargel
oargelbouwer
oargelbouwers
oargelist
oargelkas
oargelmakkerij
oargels
oarken
oarkonde
oarkunde
oarloch
oarlochfiering
oarlochsandroi
oarlochsfilm
oarlochsjierren
oarlochske
oarlochsmisdie
oarlochsmisdieden
oarlochsmisdiediger
oarlochsmonumint
oarlochssitewaasje
oarlochsskip
oarlochsskippen
oarloggen
oars
oarsaak
oarsaken
oarsoartige
oarsom
oarspr
oarsprong
oarsprongsgroepen
oarspronklik
oarspronklike
oates
oaxaca
ob
obama
obdam
obe
obelisk
ober
oberman
obi
objekt
objekten
objektyf
oblast
oblasten
obs
obsedearre
observatoarium
observer
obstakel
obstakels
oc
ocasio
ocean
och
ochi
ockels
october
octopussy
ode
oden
oder
odessa
odin
odjibwe
odjig
odo
odoaker
odyssee
odysseus
oe
oebele
oeckelen
oefene
oefening
oefenings
oefenjen
oehoe
oeigoerje
oekrai
oekraynsk
oekraynske
oekumenysk
oekumenyske
oenanthe
oene
oenema
oentsjerk
oepke
oer
oera
oeral
oerbefel
oerbefelhawwer
oerbleau
oerbleaun
oerbleaune
oerbliuwende
oerbliuwsel
oerbliuwsels
oerbliuwt
oerboard
oerbre
oerbringe
oerbringen
oerbrocht
oerdeis
oerdekte
oerdien
oerdracht
oerdrachtlike
oerdrage
oerdreaun
oerdroech
oerdroegen
oerdu
oerdutsen
oere
oerein
oeren
oerenlang
oerfal
oerfallen
oerfallers
oerflak
oerflakte
oerflaktewetter
oerfloed
oergean
oergie
oergien
oergiet
oergong
oergongskalinder
oergrutte
oerha
oerhaal
oerhearske
oerhearsking
oerhearskjende
oerheden
oerheid
oerheidstsjinsten
oerheidswegen
oerheidsynsta
oerhelje
oerhelle
oerhinne
oerhoer
oerien
oerienkomme
oerienkomst
oerienkomsten
oerienkomt
oerienstimming
oerisel
oeriselske
oerjaan
oerjefte
oerjoech
oerju
oerkaam
oerkape
oerkoepeljende
oerkomme
oerkommen
oerkomt
oerlaapje
oerlange
oerle
oerlevere
oerlevering
oerlibbe
oerlibben
oerlibbene
oerlibbenen
oerlibbet
oerlibje
oerlibjen
oerlibjende
oerlis
oerlitten
oerma
oermacht
oermasterder
oermastere
oermasteren
oermasterer
oermasteret
oermastering
oermasterje
oermasterjen
oernaam
oername
oernamen
oernimme
oernimmen
oernomd
oernommen
oerol
oerpake
oerpakesizzer
oerpleatst
oerru
oers
oersee
oerseesk
oerseeske
oerset
oersetster
oersette
oersetten
oersetter
oersetting
oersettingen
oersettings
oersicht
oersjoch
oerskot
oerspield
oerstallich
oerstallige
oerstap
oerstapt
oerste
oerstek
oerstekke
oerstekken
oerstiek
oerstreaming
oerstreamings
oerstutsen
oertaal
oerterp
oertre
oertsju
oeru
oerwa
oerweldige
oerweldigjende
oerwinnen
oerwinner
oerwinning
oerwinningen
oerwinnings
oerwinteret
oerwinterje
oerwu
oerwurk
oeuvre
oeuvrepriis
oever
oezbekistan
of
ofbyld
ofbylden
ofdieling
off
offa
offensyf
offenwier
offer
offere
offerjen
offers
office
officer
official
offinsyf
offisier
offisieren
offisjeel
offisjele
offs
offsearje
offurdigen
ofhinklik
ofl
ofset
ofsier
ofsieren
ofskieding
ofslu
oft
ofte
oftewol
ofwol
og
oglala
oh
ohio
oi
oidipoes
oil
ois
oise
ojibwe
ok
oka
okinawa
okke
okko
oklahoma
okse
oksen
oksidaasje
oksitaansk
okt
oktaaf
oktavianus
oktober
oktoberrevolu
oktroai
oktroaien
ol
ola
olaf
old
olde
oldehove
oldenbarnevelt
oldenburg
oldenhof
ole
olga
oli
oliveberch
oliver
olivia
olivier
olof
olsen
olson
olterterp
olympia
olympiade
olympic
olympique
olympus
olympysk
olympyske
om
omaan
omaha
oman
omar
omboud
ombringe
ombrocht
omdat
omdo
omdoopt
omdraaid
omega
omer
omfang
omfetsje
omfette
omfettet
omfieme
omfiemet
omfiemje
omfierrens
omfoarme
omgean
omgong
omgongen
omgongstaal
omgre
omheech
omhinne
omjouwing
omju
omkaam
omkamen
omke
omkeard
omkearde
omkes
omkesizzer
omklamme
omkomme
omkommen
omkomt
omkriten
omleech
omlizzende
omloop
omlyk
ommelannen
ommen
ommers
omneamd
omnibus
omnibusedysje
omraand
omreden
omrekkene
omrin
omroep
omrop
omroppen
omset
omsetten
omsk
omskot
omskotten
omskreau
omskreaun
omskriuwe
omskriuwen
omskriuwing
omskriuwings
omskriuwt
omslach
omslaggen
omsletten
omstannichheden
omstavere
omstriden
omt
omtinken
omtinkens
omtrek
omtrent
omtrint
omwei
omwurke
on
once
onder
ondergang
onderweg
onderwijs
onderzoek
one
online
only
onno
ono
ons
onstwedde
ontario
ontwikkeling
onze
oo
oog
ook
oorlog
oorschot
oost
oosten
oostergo
oosterhesselen
oosting
oostwold
op
opbettere
opblaasd
opbou
opboud
opboude
opbouwe
opbringe
opbringende
opbringst
opbringsten
opbrocht
opdaagjen
opdield
opdieling
opdien
opdoekt
opdracht
opdrachten
opdrachtjouwer
opdroegen
opdu
opeaske
open
opera
operaasje
operaasjes
operasjoneel
operasjonele
operasjonger
operasjongster
operation
operearje
operearre
operette
opfallend
opfallende
opfalt
opfang
opfarrenden
opfeart
opfet
opfette
opfetting
opfettings
opfieding
opfierd
opfiering
opfolge
opfolger
opfolgers
opfolging
opfolgje
opfolle
opfongen
opfretten
opgean
opgeande
opgie
opgien
opgong
opgravings
opgroeid
opgroeide
opgroeven
opha
opheffen
opheffing
opheft
ophefte
ophelbre
ophelje
ophelle
opheven
ophold
opholden
ophongen
opienfolging
opienfolgjende
opinoar
opiny
opinypeiling
opinypeilings
opite
opiten
opjaan
opjefte
opju
opkaam
opkeard
opknappe
opknapt
opkocht
opkommen
opkommende
opkomst
opkomt
oplaach
oplaat
oplage
oplate
oplein
opleine
oplevere
opleverje
oplibbing
oplieding
opliedingen
opliedings
oplosse
oplossen
oplossing
oplossings
oplost
oplutsen
opmakke
opmars
opmeer
opmerking
opmerkingen
opmerkings
opmerklik
opmerklike
opmurken
opnaam
opname
opnamen
opnames
opnij
opnimme
opnimmen
opnimt
opnomd
opnommen
oppakke
oppakt
oppenearre
oppenearret
opper
opperbefelhawwer
oppergod
opperhaad
opperhaden
opperrabbyn
opperrjochter
opperste
oppewal
oppikt
opposysje
oprah
opre
oprinne
oprinnende
oprint
oprjocht
oprjochte
oprjochten
oprjochter
oprjochters
oprjochting
oprjochtsje
oprjochtsjen
opro
oproer
oprop
oproppe
oproppen
opropt
opru
oprydleane
opset
opsetlike
opsetsin
opsette
opsetten
opsicht
opsichten
opsichter
opsje
opsjoch
opskood
opskreaun
opskrift
opskuor
opslaan
opslach
opslachmar
opslachplak
opslagger
opslein
opsletten
opslu
opsluten
opsmiet
opsmite
opsmiten
opsmyt
opsocht
opsomming
opspjalten
opspraak
opsta
opstanneling
opstannelingen
opstannen
opstannige
opstanning
opsteld
opstelde
opstelle
opstellen
opstelling
opsterla
opstien
opstiene
optein
optekene
optocht
optochte
optrede
optreden
optredens
optreedt
optyske
opu
opus
opwachte
opwekke
opwining
or
orakel
orale
orange
oranje
oranjeferiening
oranjewa
oratio
orbison
orbit
orchestra
order
oregon
oreilles
oreste
org
orgaan
organa
organen
organisaasje
organisaasjes
organisator
organisearje
organisearjen
organisearre
organisearren
organisearret
organisme
organismen
organist
organization
organysk
organyske
orgasme
orgel
orgels
orgelsite
oriental
orientation
origenes
origin
original
orii
orion
orizjine
orizjineel
orizjinele
orjol
orkaan
orkanen
orkest
orkesten
orkney
orlando
orle
orleans
ornaris
orne
ornearre
ornearret
ornitology
ornitolooch
oro
orson
ortega
ortodoks
ortodokse
ortsgemeinde
ortsteil
orwell
os
osaka
osborne
oscar
oscars
osea
oseaan
oseaanje
osinga
osingastate
oskar
oskars
oslo
osmaansk
osmaanske
osmanen
osnabru
oss
osseesje
ostfriesische
ostfriesland
ostrogoaten
oswald
ot
otello
other
others
otis
oto
ottawa
ottema
otter
otterdoks
otterdokse
otterdoksen
otterdoksk
otterdokske
otterdoksy
otters
otto
ottomaanske
ottomanen
otus
ou
oud
oude
oudheid
our
ouse
ousterhaule
out
outer
outlaw
outside
ouwe
ouwer
ouwers
ov
over
overleden
overleef
overzicht
ovidius
owen
owens
owl
own
oxford
oz
p
pa
paad
paadfinerij
paard
pablo
pacht
pachter
pacific
padawan
paden
paderborn
padme
padua
page
paidhi
pain
paint
painting
paju
pak
pake
pakes
pakesizzer
pakesizzers
pakhu
pakistaanske
pakistan
pakke
pakken
pakt
pakte
pakten
pal
palace
paladin
palais
palau
palazzo
paleis
paleizen
paleo
palermo
palestina
palestinen
palestynsk
palestynske
palin
pallas
palm
palma
palmer
palo
palpatine
palts
pam
pamela
pamflet
pan
panaka
panama
pandemy
pander
panhandle
panne
pannen
pannoanje
panorama
panoramio
pantei
panteo
panter
panther
panyk
paolo
papa
papen
paper
paperback
paperbacks
papers
papier
papieren
papilio
papillon
papoea
papyrus
par
para
parade
paradise
paradys
paraguay
parallel
parallelle
paralympysk
paralympyske
paramaribo
paramilite
paramount
paranormal
parasjute
parasjutisten
pardon
parfum
paris
parish
park
parkeargaraazje
parkearplak
parkearterrein
parken
parker
parkinson
parkoers
parks
parlement
parlemint
parleminte
parlemintsferkiezings
parlemintsgebou
parlemintsleden
parlemintslid
parma
parnassius
parochianen
parochy
parochys
parochytsjerke
parodie
parody
parool
parregea
parse
parseburo
parsekonferinsje
parsons
part
parte
parten
partij
partijen
partijfoarsitter
partijlieder
partikulier
partikuliere
partikulieren
partisanen
partizanen
partner
partners
partnerskip
partnerste
partoer
partoeren
parton
party
partyske
parys
paryske
pas
pasaana
pasadena
pascal
pasco
pasifist
pasifistyske
pasifysk
pasifyske
pasja
pasjint
pasjinten
paso
paspoart
pass
passaazje
passaazjes
passage
passau
passazjier
passazjiers
passazjiersskip
passe
passearret
passen
passende
passenger
passengers
passer
passion
passos
passy
passyf
past
pasta
paste
pasten
pasternak
pasteur
pastoar
pastor
pastorale
pastorij
pastorije
pastory
pat
pater
patient
patint
patolooch
patriarch
patriargaat
patricia
patrick
patriot
patriotten
patroan
patroanen
patroanhillige
patrol
patronym
patru
patton
pau
paul
paula
pauli
pauline
paulo
paulus
paulustsjerke
paus
pausen
pauslike
pauw
pavarotti
pavel
pavia
paviljoen
pawnee
paxton
paylin
payne
pays
paz
pc
pdf
pe
peabody
peace
peacemaker
peak
peaks
peal
peallen
peanstra
pear
pearel
pearels
pearen
pearke
pearkes
pearl
pearriden
pears
pearse
pearson
peartiid
peary
peaske
peazens
peck
pedaal
pedagogyske
pedagooch
pedro
peel
peer
peggy
peil
pein
peinje
peins
peize
pekela
peking
pel
pelmu
peloponnesos
peloponnezyske
peloton
pels
pelshannel
pelzen
pemba
pen
penelope
penetraasje
penguin
penguins
penis
penjum
penn
pennsylvania
penny
penric
pensjoen
pentagon
penthouse
people
pepergea
pepper
peppers
pepyn
per
peraasje
perative
percy
peres
pereslavl
perfect
perfekt
perfekte
perfester
perfoarst
performance
perikles
peril
perioade
perioaden
perioades
period
periodyk
perk
perkamint
perkins
perkusje
perm
permafrost
permanint
permaninte
perrault
perron
perry
pers
perse
perseel
perselen
persiis
persint
persintaazje
persintaazjes
persoan
persoane
persoaneferfier
persoanen
persoanlik
persoanlike
persoanlikheid
persoansnamme
person
personaazje
personaazjes
personal
personeel
personele
personiel
perspektyf
perth
peru
perzen
perzje
perzysk
perzyske
pest
pet
peta
pete
petear
petearen
peter
peters
petersburch
petersburg
peterson
petgatten
petit
petra
petrarca
petri
petronella
petrus
petrustsjerke
pets
petter
petysje
peyton
pez
pfeiffer
ph
phantom
phasma
phe
phil
philadelphia
philharmonic
philip
philipp
philippe
philippus
philips
phillip
phillips
philosopher
philosophy
phoenix
photo
php
pi
pia
piaam
pianist
pianiste
piano
piazza
picard
picasso
pichegru
pick
pico
picture
pictures
pie
piebenga
pieck
pier
pierce
piercing
piercings
pierre
piers
piersma
pierson
piet
pieter
pieters
pietje
pietro
pigmint
piip
piipoargel
piipwurk
pik
pike
piken
pikten
piktyske
pilatus
pilgrim
piloat
piloaten
pilot
piloto
pim
pimpernel
pin
pine
pineholle
pinewood
ping
pingorui
pingui
pink
pinkster
pinne
pinsjoen
pinsjonearre
pinsjonearring
pinyin
pioneer
pionier
pioniers
pipen
piper
pipo
pippin
pippyn
piraat
piramide
piramiden
pirate
piraten
pirates
pisa
pistoal
pistoalen
pit
piter
pitersbierrum
pitertsjerke
pitstrjitte
pitt
pittsburg
pittsburgh
pius
pixar
pixie
pjotr
pjut
pjutteboartersplak
pkn
pl
plaat
plaats
plaatsje
plaatsjes
place
places
placid
plafon
plafond
plagiaat
plain
plains
plak
plakette
plakferfangend
plakferfanger
plakfine
plakfu
plakfynt
plakje
plakjes
plakken
plaknamme
plaknammen
plakt
plan
pland
plande
planeet
planeetoerflak
planet
planetarium
planete
planeten
planetestelsel
planetestelsels
planetoi
planke
planken
plannen
planning
plant
plantaardich
plantaazje
plantaazjes
plante
planten
plantesoarte
plantesoarten
plantsje
plantsjen
planu
plasse
plassen
plat
platbaarnd
platdu
platekontrakt
platelabel
platemaatskippij
platen
platfoarm
platina
platinum
plato
platoanyske
platoon
platt
platte
plattegru
plattela
platz
play
playboy
player
playground
playhouse
playing
playmate
plays
plaza
pleach
pleage
pleats
pleatse
pleatsen
pleatsing
pleatsingsru
pleatslik
pleatslike
pleatst
pleatste
pleatsten
plechtich
plechtichheid
pleechheit
plein
pleinen
pleistoseen
pleit
pleite
plestik
pletten
pletter
plicht
plichten
plinius
plo
ploech
ploeg
ploegen
ploegsma
plondere
plonderen
plondering
plonderje
plonderjen
plondertochten
ploos
plot
plotarea
plotdata
plotinus
plu
plus
pluto
plymouth
plysje
plysjeburo
plysjefilm
plysjeman
plysjeminsken
plysjes
plysjesearje
plysjesearjes
plysjeskoalle
plysjetsjinst
pmoardner
pmoardnersgilde
png
po
poadium
poadiumplak
poal
poalen
poalsk
poalske
poarte
poartegebou
poarten
poartetsjerke
poat
poaten
pocahontas
pocket
podcast
poddestuollen
poe
poel
poema
poems
poer
poerbe
poerrazen
poes
poetry
poggle
point
pointe
points
poison
poitiers
poke
pokken
pol
polak
polder
polderdyk
poldermole
poldermu
polders
pole
police
political
politics
politiek
politieke
politika
politike
politikology
politikolooch
politikus
politisy
polityk
polo
pols
poly
polygamy
polyneezje
polynezie
polynezyske
polytei
pommeranten
pommeren
pomp
pompeble
pompejus
pompen
pompt
ponca
pongha
ponka
pont
pontifikaat
pontius
pontus
pony
pool
poole
poort
poortinga
pop
popartyst
pope
popgroep
popkema
popkultuer
popliet
popma
popmuzyk
poppe
poppen
poppenwier
popper
poppo
poppoadium
poppy
popta
populaasje
populaasjes
popular
popularisearre
populariteit
population
popule
por
porcupine
porizkova
porn
porno
pornoakteur
pornoakteurs
pornoaktrise
pornoaktrises
pornoble
pornofilm
pornofilms
pornografy
pornografysk
pornografyske
pornokarrie
pornoprodusint
pornoregisseur
pornosites
pornostjer
pornowebsiden
pornowra
pornoyndustry
port
portaal
portage
portalen
portefu
portegal
portegeesk
portegeeske
portegezen
porter
portland
portman
porto
portorikaansk
portrait
portret
portretskilder
portrettearre
portretten
portsmouth
portugal
portugeesk
portugeeske
portugezen
pos
posearjen
posearre
poseidon
positive
posityf
posse
post
posten
poster
posthuma
posthumus
postkantoar
postkoade
postkoets
postma
postproduksje
postsegel
postsegels
postu
postume
postumus
posysje
posysjes
pot
potato
potawatomy
potestaat
potgieter
potinsjeel
potinsjele
potlatch
potmarge
potomac
potsdam
potsje
potten
potter
pound
pour
pourier
powder
powderrivier
powell
power
powers
pozzi
pp
ppen
pr
praach
praag
praat
praatprogramma
prachtich
prachtige
prairie
praktiken
praktyk
praktysk
praktyske
prate
praten
pratt
prayer
pre
pream
predaasje
predikaat
predikant
predikanten
preek
preekjen
preekstoel
preemje
preemjejager
preemjejagers
preester
preesters
prefekt
prefektuer
prehistoarje
prehistoaryske
preke
preken
preker
premie
premier
premiers
premje
preproduksje
prequel
prequeltrilogy
presbyteriaanske
present
presents
president
presidinsjele
presidint
presidinten
presidintsferkiezings
presidintsfrou
presidintskandidaat
presidintskip
presintaasje
presintator
presintators
presintatrise
presintearjen
presintearre
presintearret
presize
presley
press
prestaasje
prestaasjes
prestiizje
prestizjeuze
preston
presys
pretender
pretoria
pretorius
pretty
price
pride
priis
priisfraach
priizge
prijs
prima
primaat
prime
primitive
prince
princess
princeton
prins
prinsbisdom
prinsbiskop
prinsdom
prinsen
prinses
prinsesse
prinsetu
prinsipe
prinsipes
print
printe
printen
printer
printers
printinge
printingen
printsjen
prior
prisma
prison
prisoner
priuwke
privacy
private
prive
privee
priveelibben
privileezje
privileezjes
prix
priya
prize
prizen
pro
proai
proaidieren
proaien
proasdij
proast
proaza
probleem
problem
problematysk
problemen
producer
producties
production
productions
produksje
produksjes
produkt
produkten
produsearje
produsearjen
produsearre
produsearret
produsint
produsinte
produsinten
proef
proefskrift
prof
profeet
profesije
profesijen
profesjoneel
profesjonele
professor
profeten
proffuotballer
profile
profitearje
profitearre
profitorganisaasje
profyl
program
programma
programmamakker
programmearring
progress
progressive
progressyf
project
projekt
projekten
prokureur
prolooch
prometheus
prominint
promininte
promise
promoasje
promoatsjen
promovearre
pronk
propaganda
proseduere
proses
prosesje
prosessen
prosint
prosper
prostitu
prostituee
prostituees
protagonist
protector
protektoraat
protest
protesta
protestanske
protestant
protestanten
protestantisme
protestantsk
protestantske
protestearre
protesten
proto
prototype
protte
prova
provence
providence
provinciale
provincie
provinsjaal
provinsjale
provinsje
provinsjehu
provinsjes
provisoarysk
provisoaryske
prowse
proza
pru
pruisen
prusen
prusysk
prusyske
pryde
pryster
prysters
ps
psalm
psalmen
pseudo
pseudonym
pskov
psoe
psv
psy
psyche
psychiater
psychiatry
psychiatrysk
psychiatryske
psycho
psychology
psychologysk
psychologyske
psycholooch
psychyske
pt
pte
pten
ptolemaeus
ptt
pu
puberteit
publ
public
publications
publikaasje
publikaasjes
publike
publisearje
publisearjen
publisearre
publisearren
publisearret
publishers
publishing
publisist
publisiste
publisiteit
publius
publyk
publykspriis
puerto
puget
pulitzerpriis
puller
pulpble
pulse
punch
punk
punkband
punt
punteklassemint
punten
puntsje
punysk
punyske
puollen
pure
puriteinen
puriteinske
purple
purvis
pussy
put
putnam
putsje
putsjes
putten
puzel
puzelboekje
puzels
pvda
pvv
px
py
pyk
pykt
pylder
pylders
pylger
pylgers
pylk
pylken
pynlik
pynlike
pyreneee
pyrgus
pyrrus
pyt
pytheas
q
qaida
qanon
qar
qbuzz
qi
quantum
quatre
quatrebras
quayle
que
queen
queens
queensla
quentin
querido
quest
qui
quick
quigley
quincy
quinn
quo
r
ra
raad
raaf
raalte
raam
raar
raard
rabbit
rabbyn
rabobank
race
raceo
races
rachel
rachelman
racine
racing
rada
radar
radboud
raddus
rademaker
radikaal
radikale
radio
radiopresintator
radioprogramma
radiostasjon
radiostjoerder
rae
raerd
raerderhim
raf
rafael
rafe
ragu
rai
raiders
railroad
rails
railway
rain
rainbow
raith
rajon
rajons
rajoy
rak
raket
raketten
raleigh
ralf
rally
ralph
ram
rama
rambo
ramen
rami
ramirez
ramo
ramon
ramp
rampage
rampen
rampjier
ramsay
ramsey
ramt
ranch
rancheria
rand
randall
randolph
random
randy
rang
range
rangen
ranger
rangers
rangleaze
ranglist
rani
rantsoenen
rap
rapids
rapper
rapport
rapportearre
rapporten
rard
rare
rargy
ras
rasiale
rasisme
rasistyske
raspberry
rassan
rassen
rasseskieding
rat
rathaus
ratifisearre
ration
raven
ravenna
ravensbru
ravenswa
ravyn
rawlings
ray
raymond
razernij
razzia
rbinnen
rboppe
rbu
rby
rca
rce
rchen
rd
rder
rdinaten
rdinator
rdinearre
re
rea
read
reade
reader
reading
readkapke
readtsjerk
ready
reagan
reage
reagearre
reager
reahel
reahu
reaklif
reaksje
reaksjes
real
realisearre
realisme
realistysk
realistyske
reality
realityprogramma
realitytelefyzjeprogramma
realitytillefyzjeprogramma
really
reason
reau
reauwen
rebecca
rebekka
rebel
rebelleferbu
rebellefloat
rebellen
rebels
reboelje
reboot
rebu
recht
rechts
record
recordings
records
red
redaksje
redakteur
redaktrise
redbad
rede
redemption
reden
redenen
redens
reder
rederij
redford
redigearre
redmond
reds
reduksje
redusearre
reduzum
ree
reed
reedlik
reedlike
reedriden
reedrider
reedriders
reedrydster
reef
reek
reese
reeves
refektoarium
referindum
referinsjes
reformaasje
refrein
refter
reg
regaad
regear
regearing
regearings
regearingslieder
regearjen
regearjend
regearjende
regearperioade
regearre
regearret
regel
regele
regelet
regeling
regelje
regeljen
regeljouwing
regelmjittich
regelmjittige
regels
regensburg
reggae
regina
reginald
regint
reginten
regintesse
regintskip
regio
region
regionaal
regionale
regisearre
regissearje
regissearjen
regissearre
regisseur
regisseurs
register
registers
registraasje
registrearre
registry
reglemint
regnerus
reguliere
regulus
regy
reich
reid
reide
reiden
reiderla
reil
reilly
reims
rein
reina
reinalda
reinbo
reinder
reinders
reine
reinfal
reinhard
reinier
reinoud
reint
reinwa
reinwetter
reis
reisferhalen
reisferhaleskriuwer
reisferslach
reitsje
reitsjen
reitsma
reitsum
reizen
reizge
reizgen
reizger
reizgers
reizget
reizgje
reizgjen
rekke
rekken
rekkene
rekkenje
rekkenjen
rekkenkeamer
rekket
reklame
reklamespotsje
reklamespotsjes
reko
rekonstrue
rekonstruearre
rekonstruksje
rekord
rekords
rekreaasje
rekreaasjegebiet
rekrutearre
rekruten
rekstok
rektor
relaasje
relaasjes
relatearre
relations
relative
relativiteitsteory
relatyf
release
releasing
relie
religieus
religieuze
religion
religy
religyen
religys
reliken
relikwy
reliwiki
reloaded
rely
rem
remake
remakker
remarque
rembrandt
remember
remington
remix
remonstranten
ren
renaissance
renard
renault
rene
renfield
rengers
rennenberg
renner
rennes
reno
renovaasje
renovearjen
renovearre
rens
renswoude
renton
reorganisaasje
reorganisearre
reparaasje
reparaasjes
reparearjen
reparearre
repertoire
repin
replika
report
reportaazje
reportaazjes
reporter
represaille
represintative
reptilen
republic
republikein
republikeinen
republikeinsk
republikeinske
republiken
republyk
reputaasje
rer
rerum
res
rescue
research
researje
resept
reservaat
reservaatla
reservaten
reservation
reserve
reservearre
reservoir
resesje
residinsje
resinsint
resinsinten
resinsje
resinsjes
resint
resinte
resistinsje
resistint
resjersjeur
resjerzje
resolu
resort
resp
respekt
respektearre
respektivelik
respektivelike
respektyflik
rest
restant
restanten
restauraasje
restauraasjes
restaurant
restaurants
restaurearje
restaurearjen
restaurearre
restearjende
resten
resultaat
resultaten
resultearjende
resultearre
resultearret
rette
return
returns
reu
reunion
reus
reuseftich
reuseftige
reuze
reuzen
reuzeslalom
reve
revenge
review
reviews
revival
revolu
revolution
revolutions
revolver
revolvers
revu
revue
rex
rey
reykjavik
reynkarnaasje
reynolds
rez
rezjimint
rezjiminten
rezjy
rezjym
rf
rfan
rfandinne
rfoar
rfoaroer
rg
rgb
rgen
rha
rheden
rhein
rhenen
rhinne
rho
rhode
rhodes
rhythm
ri
ria
riaad
rian
ribben
ric
rica
ricardo
ricciardo
rice
rich
richard
richards
richardson
richie
richland
richmond
richter
rick
rickman
rico
rictus
riddenearret
ridder
riddere
ridderoarder
ridders
ride
ridel
riden
ridende
rider
riders
ridge
riding
ridley
ridlik
rie
riebeeck
ried
riede
rieden
riedhu
riedpinsjonaris
riedsel
riedshear
riedshu
riedsleden
riedslid
riedt
riemersma
rien
rienck
rienk
rienks
rients
rieplachte
rietveld
rif
rifka
riga
rige
rigel
rigels
rigen
rigg
right
rights
riidt
riis
rijk
rijksmuseum
rijn
rijpstra
rijsenburg
rijswijk
rik
rika
rike
riken
riker
rikke
riko
rikt
rikte
ril
riley
rilke
rillegau
rimbaud
rimen
rimu
rin
rindieren
rinfuorgen
ring
ringen
ringo
rings
ringwei
rinia
rink
rinne
rinnen
rinnend
rinnende
rinse
rinsema
rinsumageast
rint
rinte
rintmaster
rinus
rio
riot
ripperda
ris
rise
risiko
risimer
rising
riskante
rispinge
rispjen
risseltaat
risselwearret
rit
rita
rite
riten
rites
ritme
ritske
ritsma
ritter
ritue
ritueel
rituele
rituelen
rivaal
rivalen
rivalisearjende
rivaliteit
river
rivier
rivieren
rivierke
rivierkes
rixt
rj
rje
rjehu
rjewolf
rjewolven
rjocht
rjochtbank
rjochte
rjochten
rjochter
rjochterha
rjochterkant
rjochterlike
rjochters
rjochtet
rjochtfeardichheid
rjochtfeardige
rjochthoekich
rjochthoekige
rjochthu
rjochting
rjochtingen
rjochtings
rjochtlike
rjochtline
rjochtlinen
rjochtop
rjochts
rjochtsaak
rjochtsaken
rjochtse
rjochtseal
rjochtsgelearde
rjochtsinnige
rjochtsje
rjochtsjen
rjochtspraak
rju
rk
rkd
rko
rm
rmei
rn
rna
rnei
rneist
rnjonken
ro
road
roads
roadshow
roald
roan
roarda
roas
roasfinster
roazekra
roazen
rob
robbie
robert
roberto
roberts
robin
robinson
robles
robot
robots
robrecht
robyn
roc
rocco
rochester
rock
rockalbum
rockartyst
rockband
rockefeller
rockliet
rocks
rocky
rod
roddenberry
rode
rodeezje
rodentia
rodeo
rodgers
rodri
rodrigo
rodriguez
roede
roeden
roeien
roeier
roel
roelof
roelofs
roemeenje
roemeensk
roemeenske
roemenen
roemer
roeper
roer
roerhinne
roermond
roger
rogers
rogge
roggen
rogier
rogue
rohan
roi
rok
rokoko
rol
roland
rolde
role
rolf
rolferdieling
roll
rollen
rolling
rolls
rolstoel
rolstuollen
roltsje
roltsjes
rom
roma
romaansk
romaanske
romain
roman
romance
romano
romanogoatyske
romanov
romanrige
romans
romansearje
romanskriuwer
romantic
romantyk
romantysk
romantyske
romanum
romany
rome
romein
romeinen
romeinsk
romeinske
romeo
romhinne
romijn
romje
romjen
romke
romme
rommel
rommere
rommert
romney
romp
romplingte
romppleats
romrofte
romste
romte
romtefarder
romtefartu
romtefear
romtefeart
romtefeartorganisaasje
romtefeartprogramma
romten
romtes
romteskip
romteskippen
romtesonde
romtestasjon
romtlike
romulus
ron
ronald
rond
ronde
ronin
ronnie
rono
rood
roodbaard
roodbergen
roodeschool
rook
room
roomsen
roomsk
roomske
roorda
roos
roosevelt
roots
rop
ropfolgjende
ropnamme
roppe
roppen
ropping
ropt
ropta
rorke
ros
rosa
rosario
rose
rosebud
rosen
rosenberg
roses
rosetta
rosie
roskilde
ross
rossem
rostov
rot
rotaasje
roth
rotonde
rots
rotsen
rotsige
rotstergaast
rotsterhaule
rotta
rottefalle
rottekop
rotten
rotterdam
rotterdamske
rottige
rottum
rottumerplaat
rou
rouboerd
roubuorden
rouen
rouge
round
rousseau
route
rouwe
row
rowling
roxie
roxy
roy
royal
royale
royall
royaltys
royce
rp
rs
rste
rt
rta
rtemperatueren
rterbuch
rtl
rtroch
rtsjin
rttemberg
rtusken
rtv
ru
rubber
rubens
rubryk
ruby
rudi
rudolf
rudolph
rudy
rudyard
rue
rufus
rug
rugby
rugbyspiler
ruhr
ruhrgebiet
rui
ruil
ruile
ruilferkaveling
ruiljen
ruinen
ruiten
ruiter
ruiz
rule
rules
rum
run
runde
runen
runner
running
runs
runt
rupert
rus
rush
rusla
russell
russen
russia
russian
russische
russysk
russyske
rust
ruten
ruter
ruters
rutger
rutgers
ruth
rutherford
rutte
ruud
ruurd
ruys
ruyter
rwei
ry
ryan
ryd
rydbaan
rydbanen
ryddjip
ryder
rydstripen
rydt
ryk
rykdom
rykdommen
ryklik
ryks
ryksakademy
ryksdei
rykska
ryksla
ryksmonumint
ryksmonuminten
ryksmuseum
ryksoerheid
rykspresidint
ryksste
ryksstrjitwei
rykste
rykstsjinst
ryksuniversiteit
rykswegen
rykswei
rykswettersteat
rym
ryn
rynkanaal
rynla
rynsburch
rynsk
ryp
rypma
ryptsjerk
rys
rzburg
s
sa
saad
saai
saaila
saak
saakje
saakkundige
saakkundigen
saaklik
saaklike
saale
saandam
saarla
saartje
saba
sabah
sabe
sabeare
sabel
sabin
sabine
sabotaazje
sabotearjen
sacajawea
sacha
sachalin
sacharja
sache
sachs
sachsenhausen
sacoridia
sacramento
sacred
sadanich
sadat
saddam
sadistyske
sadree
sadwaande
safety
safier
safolle
saga
sage
sahara
sai
said
sailing
sailor
saint
sainte
saints
sainz
saipan
sake
sakelju
sakeman
saken
sakepartner
sakje
sakjen
sakke
sakket
sakramint
sakristy
saksen
saksers
saksofoan
saksysk
saksyske
sal
salaam
salamis
salang
salaris
sale
salem
salim
salisbury
salisjaanske
salisjanen
salla
sally
salm
salmond
salomo
salomon
salomonseilannen
salon
saloon
salt
saltzman
salvador
salverda
salyske
salzburg
sam
samantha
samar
samara
sambia
samen
samle
samler
samling
sammelders
sammele
sammelet
sammelje
sammeljen
sammelnamme
samoa
samoerai
samsom
samson
samtgemeinde
samue
samuel
samysk
san
sana
sanatoarium
sanchez
sancho
sancti
sand
sande
sander
sanders
sandor
sandra
sands
sandy
saneamd
saneamde
sang
sanksjes
sankt
sanne
sans
sansibar
sansibareeske
sanskryt
sant
santa
santee
santema
santiago
santich
santiger
santjin
santjinde
santo
santos
santpoort
santy
sao
sap
sapfo
sappemeer
sapporo
sar
sara
sarah
sarajevo
sarantium
sarasenen
saratov
sarc
sardynje
sargon
sark
sarken
sarkofaach
sarlacc
sarsy
sartre
saruman
sasear
sasha
saskatchewan
saskia
sasquatch
satan
sate
satellite
satelliten
satellyt
satellytfoto
satine
satire
satiryske
sato
saturday
saturn
saturnus
satyrium
sau
sauerla
saul
sault
sauron
savage
savannah
savanne
save
saw
sawat
sawol
sawyer
sax
saxon
say
sb
sbasis
sbs
sc
scalemajor
scaramanga
scarif
scarlet
scene
sch
schaaf
schaap
schaduw
schaep
schaumburg
scheemda
scheepstra
scheffer
schelte
scheltema
scheltinga
schelto
schenk
scheps
scheveningen
schiedam
schiermonnikoog
schilder
schiller
schimmelpenninck
schip
schipper
schippers
schleswig
schloss
schmidt
schneider
schnitger
scho
scholten
scholz
schone
school
schoonhoven
schoonoord
schot
schotanus
schouten
schrijver
schro
schroor
schu
schubert
schuil
schumacher
schurer
schuster
schuur
schuurman
schwartz
schwartzenberg
schwarzenegger
schweitzer
schwerin
science
sciences
scientific
scientology
sciuridae
sciurus
scone
score
scorpion
scorsese
scotland
scott
scottish
scottsdale
scouting
scream
screen
scrofa
sd
sdap
sde
sdier
sdieren
sdokter
se
sea
seach
seagen
seal
sealdak
sealen
sealtek
sealtektoer
sealter
sealterfrysk
sealterfryske
sealterla
sealtersk
sealtsjerke
sean
sear
search
searje
searjemoardner
searjes
seas
season
seattle
sebastia
sebastiaan
sebastian
sebastopol
sebu
sechde
sechsde
sechstich
sechstiger
sechstjin
sechstjinde
sechtich
sechtiger
sechtjin
sechtjinde
second
secret
secrets
section
security
see
seeboaiem
seediken
seedyk
seee
seefarder
seefeart
seefu
seegebiet
seehaven
seeheld
seehu
seeklimaat
seela
seelannen
seelju
seelter
seemacht
seeman
seenivo
seero
seeslach
seespegel
seestrjitte
seewetter
seftige
seftigen
segel
segen
seger
segers
segmint
segminten
sei
seid
seijen
seil
seilen
sein
seine
seinen
seis
seisbierrum
seisde
seisjierrige
seist
seit
seizoen
seizoenen
sek
seker
sekere
sekken
sekonde
sekonden
sekretaresse
sekretaris
seks
seksboartersguod
sekse
seksje
seksjes
seksse
sekssymboal
seksualiteit
seksue
seksueel
seksuele
seksy
sekte
sektoaren
sektor
sekuer
sekuerdere
sekuere
sekularisaasje
sekuliere
sekunde
sel
selde
selden
seldsum
seldsume
selebes
selected
seleksje
selektearre
seleusidyske
self
selleck
sellen
sellers
sello
selma
selo
sels
selsbehearsking
selsbestjoer
selsfertrouwen
selskip
selskippen
selskipslju
selsmoard
selsmoarddogger
selsportret
selsstannich
selsstannige
selsstannigens
selsswichting
selsu
sem
sembla
semi
seminaarje
seminoalen
seminoalske
semitysk
semityske
sems
semy
sen
senaat
senario
senarioskriuwer
senarioskriuwers
senarioskriuwster
senator
senators
senegal
seneka
senioaren
senior
sensations
sense
sensuer
senuwen
seoel
seoul
separatisten
separatistyske
seppelins
sept
september
septimber
septimius
septuaginta
sepultura
ser
seremoanje
seremoanjes
seremonie
seremonieel
sergej
sergio
sergius
series
serieus
serieuze
serra
sersjant
servearster
serven
service
services
servje
servysk
servyske
serzjant
set
seth
seton
sets
sette
setten
setting
settlement
seus
sevearus
seven
sevenwaters
severus
sevilla
seward
sex
sexual
seylon
seymore
seymour
seysjellen
sf
sfarders
sfe
sfear
sfrou
sg
sgp
sh
sha
shades
shadow
shadows
shakespeare
shakespeariaanske
shane
shang
shanghai
shannon
shantykoar
shards
sharif
sharing
shark
sharon
shatner
shatterhand
shaven
shaw
shawn
she
shea
shedd
sheen
sheffield
sheila
shejidan
shell
shelley
shelton
shepard
shepherd
sheridan
sheriff
sherlock
sherman
shi
shield
shift
ship
ships
shire
shirley
shirt
shmi
shock
shoes
shoot
shooting
shop
shore
short
shot
shots
show
shows
showwrakselder
shrek
shuttle
shyla
si
sibbe
sibben
sibearje
sibearyske
sibrandabuorren
sibrandahu
sibskip
sicario
sicco
sicht
sichtber
sichtbere
sicke
sid
side
siden
sideplak
sideru
sidious
sidney
sidon
sie
siebe
sied
sieden
siege
siegfried
siel
sielen
sien
siena
sienna
sier
sieraad
sieraden
sieriksee
sierksma
sierra
siet
sieten
sietse
sietske
sietze
sifer
sifers
siffredi
sifo
sigaretten
sigerswa
sigeuners
sight
sigismund
sigmund
sign
siik
siikbe
sij
sijens
sijthoff
sijtsma
sike
sikehu
sikehuzen
siken
siket
sikhisme
sikke
sikkema
siktaresse
siktaris
sil
silas
sile
sileensk
sileenske
sileezje
silen
silence
silent
siler
silger
silicon
silinder
silk
sille
sillen
sillich
silva
silver
silverstone
sily
simbabwe
simens
simeon
simke
simmearjers
simmer
simmerdeis
simmerfaka
simmerkampanje
simmermoannen
simmers
simmerspullen
simmertiid
simmons
simon
simone
simons
simpel
simpele
simpelwei
simple
simpson
simson
sin
sina
sinai
sinatra
sinclair
sindeling
sindelingen
sine
sineesk
sineeske
sinema
sines
sinezen
sing
singapoer
singapore
singel
singels
singer
singh
singin
single
singles
sings
sinjaal
sink
sinken
sinkiang
sinkt
sinleas
sinne
sinnebaaien
sinnedu
sinnegod
sinneljocht
sinnen
sinneskyn
sinnestelsel
sins
sinsbou
sinsuer
sint
sinteklaas
sinten
sinterklaas
sintimeter
sintra
sintraal
sintrale
sintralisearre
sintrum
sion
sioux
sipel
sipels
sipiers
sipke
sir
sira
sirka
sirkel
sirksena
sirkus
sirkwy
sis
sisero
siskel
sisseton
sister
sisters
sistersjinzers
sisyljaansk
sisylje
sit
sitaat
sitadel
sitaten
site
sitewaasje
sitewaasjes
sitewearre
sitfollybal
sith
sitplakken
sitte
sitten
sittend
sittende
sitting
situaasje
situaasjes
siuwsk
siuwske
sivile
six
sixma
sizze
sizzen
sizzenskip
sj
sja
sjaal
sjah
sjajinne
sjajinnen
sjajinsk
sjajinske
sjakie
sjale
sjamaan
sjamanen
sjamanisme
sjampanje
sjanghai
sjasme
sjast
sjaste
sjauffeur
sjauken
sje
sjef
sjeik
sjen
sjene
sjenre
sjenres
sjeny
sjeroky
sjerp
sjes
sjetla
sjii
sjintoi
sjippe
sjirk
sjirurch
sjit
sjitpartij
sjitsport
sjitte
sjitten
sjkin
sjo
sjoch
sjochsifers
sjocht
sjoen
sjoerd
sjoerds
sjoernaal
sjoernalist
sjoernaliste
sjoernalisten
sjoernalistike
sjoernalistyk
sjogge
sjogger
sjoggers
sjone
sjonele
sjong
sjonge
sjongen
sjonger
sjongeres
sjongers
sjongfestival
sjongfu
sjongkarrie
sjongster
sjongt
sjosjoanen
sjouke
sjoukje
sju
sjuck
sjuery
sjuerylid
sjuerypriis
sk
ska
skaad
skaadgilde
skaai
skaaien
skaaimerk
skaaimerke
skaaimerken
skaal
skaalfergrutting
skaat
skacht
skaden
skaffen
skafte
skagen
skaken
skaker
skala
skalsum
skamstreek
skamte
skandaal
skandalen
skande
skanderbeg
skandinaavje
skandinavysk
skandinavyske
skansearre
skarl
skarsterbre
skarsterla
skat
skate
skatha
skatkeamer
skatte
skatten
skatting
skattings
ske
skea
skeafergoeding
skeakel
skeakeljen
skealik
skealike
skean
skeane
skearnegoutum
skeat
skeaten
skedel
skeel
skeelde
skeind
skeinde
skeining
skelde
skele
skelen
skelet
skelnamme
skema
skematyske
skepen
skeppe
skeppen
skepper
skepping
skept
skerm
skermen
skermer
skermjen
skermutseling
skermutselings
skerp
skerpe
skerpenseel
skerpskutter
skerpteken
skes
sketches
skets
sketsen
sketten
skettens
skeveningen
ski
skie
skiedam
skiede
skieden
skieding
skiedkundige
skiedkundigen
skiednis
skiedskriuwer
skiedskriuwing
skiedsrjochter
skiedt
skiekunde
skiekundige
skielk
skien
skiene
skientme
skiep
skier
skiere
skiereila
skieringer
skieringers
skiermu
skierstins
skif
skift
skiften
skiif
skikking
skilder
skildere
skildereftige
skilderij
skilderijen
skilderingen
skilderje
skilderjen
skilderkeunst
skilders
skille
skillet
skimmel
skimmels
skin
skind
skine
skingen
skinken
skinking
skinkt
skip
skipbrek
skipfeart
skipfeartmuseum
skiphol
skipio
skippen
skipper
skippers
skipsbou
skipsbouwer
skipsleat
skipstype
skipswerf
skipswerven
skisma
skjin
skjinne
skjirre
sko
skoalbern
skoalgebou
skoalhaad
skoaljier
skoaljuffer
skoalle
skoallemienskip
skoallen
skoalmaster
skoalslach
skoalstrjitte
skoaltiid
skoan
skoandochter
skoanheit
skoansoan
skoarde
skoare
skoarstien
skoatterla
skoattersyl
skode
skoech
skoep
skoft
skofthichte
skoftke
skoftlang
skoftsje
skok
skokla
skokt
skomt
skonk
skonken
skood
skoot
skopje
skorpioen
skot
skotla
skotsk
skotske
skotten
skotwu
skou
skouboarch
skouder
skouders
skout
skouwen
skowe
skowen
skra
skraard
skrast
skraste
skreau
skreaun
skreaune
skreaunen
skries
skrift
skriftekennisse
skriften
skriftlik
skriftlike
skrik
skrikbewa
skrikkeljier
skriklike
skriller
skrillerfilm
skrillers
skripsje
skript
skriuw
skriuwe
skriuwen
skriuwer
skriuwerij
skriuwers
skriuwkarrie
skriuwmasine
skriuwster
skriuwstyl
skriuwt
skriuwtaal
skriuwwize
skriuwwurk
skroar
skrok
skryn
sks
sku
skuld
skulden
skuldgefoelens
skuldich
skull
skulptuer
skulptueren
skunde
skuon
skuonmakker
skuor
skuord
skuorde
skuorre
skuorregea
skuorren
skuorring
skuort
skutslu
skutterij
sky
skye
skyen
skyfall
skyl
skyld
skylden
skylge
skylger
skylgersk
skyline
skyn
skynber
skynet
skynt
skyrinnen
skyscraper
skywalker
sl
sla
slaaf
slaan
slaande
slaanderij
slach
slachfjild
slachskip
slachskippen
slacht
slachte
slachtedyk
slachter
slachting
slachtoffer
slachtoffers
slachtsjen
slachwurk
slagge
slaggen
slagget
slagje
slagjen
slakken
slalom
slam
slane
slang
slange
slangen
slappeterp
slate
slauerhoff
slave
slaveha
slavehannel
slaven
slavernij
slavinne
slavysk
slavyske
slayer
sleat
sleaten
sleattemer
sleatten
slechte
sleen
sleep
sleept
sleepte
sleeptou
sleeswyk
slein
slepen
slepende
sletten
slide
sliep
sliepe
sliepen
sliepende
sliepkeamer
sliepmu
sliept
sliepte
slik
slim
slimme
slimmer
slimste
slinger
slinke
sljocht
sljochte
sljochtsinnich
sljochtsinnige
sljochtsinnigens
sljochtwei
sloan
sloane
slochteren
sloech
sloegen
sloop
sloopt
sloot
slooten
slopen
slot
sloten
slotter
sloveenje
sloveensk
slow
slowaaksk
slowakije
slu
sluet
sluis
slute
sluten
sluting
sluzen
sm
smaak
small
smannet
smart
smaug
sme
smeding
smei
smeket
smel
smelle
smeller
smellingerla
smid
smiet
smieten
smilde
smile
sminia
smink
smit
smite
smiten
smith
smithsonian
smjunt
smjunten
smoarch
smoard
smoarfereale
smoarfol
smoarge
smoargens
smoke
smoken
smokey
smokkelder
smokkeljen
smolensk
sms
smu
smulders
smyrna
smyt
sna
snaar
snaffel
snake
snaren
sneek
sneeker
snein
sneinen
sneins
snelheid
snelwei
sneon
sneons
sneup
sneuvele
sneuvelen
sneuvelet
sneuveljen
snie
sniefal
sniekeninginne
snieman
snien
sniestoarm
sniewytsje
snije
snijen
snijt
snip
snipes
snits
snitser
snitsers
snitswike
snoade
snobbersguod
snoke
snoqualmie
snow
snp
snu
snuorje
so
soad
soal
soan
soannen
soantsje
soap
soapsearje
soarch
soarchfa
soarge
soargen
soarget
soargje
soargjen
soart
soarte
soartemint
soarten
soartgelikens
soartgelikense
soartgenoaten
sober
sobibo
sobibor
sobor
socht
sochten
social
sociale
socialisme
socie
society
societystjer
sodom
soe
soeaven
soed
soene
soenen
soennityske
soer
soere
soerstof
soest
soestdyk
soesterberg
soeverein
soevereine
soevereiniteit
sofia
sofie
sofokle
sofokles
software
softwareprogramma
soissons
sok
sokke
sokkel
sokken
sokrates
soks
soksoarte
sokssawat
sol
solace
solani
soldaat
soldaten
soldier
soldiers
soleimani
soli
solidariteit
solide
solite
solms
solo
solokarrie
solomon
som
somaalje
somalysk
somalyske
sombys
some
somebody
somerset
something
somme
sommige
sompe
sompen
sompich
sompige
soms
somtiden
somtiids
son
sona
sonde
sondel
song
songen
songs
songwriter
sonja
sonk
sonken
sonnet
sonnetten
sonneveld
sonny
sonora
sons
sont
sony
soo
sop
sophia
sophie
sopraan
sorbo
sorcery
soroa
sosjaal
sosjaaldemokraten
sosjale
sosjalisme
sosjalist
sosjalisten
sosjalistysk
sosjalistyske
sosjology
sosjolooch
sotsji
souder
soul
soule
souls
sound
soundtrack
soundtrackalbum
source
sous
soutendijk
south
southampton
southern
sovjet
sovjetrepublyk
sovjets
sowjet
sowjets
sowjetuny
sp
spa
spaanse
spaansk
spaanske
spaansktalige
space
spain
spakenburch
span
spand
spande
spangea
spanish
spanje
spanjert
spanjerts
spannenburch
spannend
spannende
spanning
spanninga
spannings
spannum
spanwiidte
sparjen
sparre
sparrow
sparta
spartacus
spd
spear
spearen
spears
spearsmite
special
species
spectre
spectrum
speech
speed
speerstra
speetser
spegel
spek
spektakel
spektakule
spektrum
spekulearre
spel
spelen
spencer
spenser
sperma
spesifikaasjes
spesifike
spesifyk
spesjaal
spesjale
spesjalisaasje
spesjalisearre
spesjalist
spesjaliteit
speyer
spider
spiegel
spielberg
spiennen
spier
spieren
spiers
spies
spijkerman
spijkers
spike
spiker
spikers
spikerskrift
spile
spilen
spiler
spilers
spilet
spin
spinnekopmole
spinnen
spinoza
spion
spionaazje
spionaazjefilm
spionnen
spirit
spiritualiteit
spiritue
spirituele
spitigerno
spits
spitsbergen
spitsbo
spitsen
spjalt
spjalte
spjalten
split
splitsing
splitst
spoar
spoarbre
spoaren
spoarferbining
spoarleas
spoarline
spoarlinen
spoarstasjon
spoart
spoarte
spoarwegen
spoarwei
spock
spoelstra
spokane
spongebob
sponsor
spontaan
spontane
spooner
spoor
sporadysk
sport
sportbestjoerder
sportbu
sporten
sporter
sporters
sportevenemint
sportferiening
sportferienings
sportferslachjouwer
sportfjilden
sporthal
sportive
sportkarrie
sportkompleks
sportman
sportpark
sportprogramma
sports
sportsjoernalist
sportskoalle
sportsokken
sportste
spot
spraak
spraakgebru
sprague
sprake
sprekke
sprekken
sprekkende
sprekker
sprekkers
sprekkerstal
sprekt
sprektaal
sprektaalterm
sprekwurden
spreuk
spreuken
spriek
sprieken
spring
springe
springen
springer
springfield
springs
springt
sprint
sprinter
sprintkwalifikaasje
sprong
sprongen
spruts
sprutsen
spu
spul
spullen
spulregels
spultsje
spultsjes
spunt
spy
spyldoer
spylfilm
spylfilms
spylje
spyljen
spyllist
spyri
spyt
squad
squadron
square
squaw
sr
sry
ss
ssa
sseldorf
sskilder
ssp
st
sta
staach
staak
staal
staartjes
staasje
staat
staazje
stabile
stabiliteit
stabyl
stacey
stacked
stacy
stad
stade
stadhuis
stadia
stadich
stadichoan
stadichwei
stadige
stadiger
stadion
stadions
stadium
stadt
staffordshire
stage
staking
stakings
stal
stalde
stalferwikseling
stalin
stalingrad
stallen
stallone
stam
stama
stambeam
stamboek
stamhartochdom
stamheit
stamje
stamme
stammen
stammeried
stammet
stamt
stan
stand
standaard
standard
standerdisearre
standermu
standert
standertfrysk
standertingelsk
standertnederla
standerttaal
standertwurk
standing
stanford
stangl
stanisław
stanley
stannen
stanton
stap
stapel
staphorst
stappe
stappen
stapt
stapte
stapten
star
starkenborghkanaal
starr
stars
start
starte
starten
starum
stasjon
stasjonearre
stasjons
stasjonsgebou
stasjonswei
state
staten
states
station
statistics
statistiken
statistyk
statistyske
status
stavanger
stavere
stavering
staveringshifker
stazje
stbu
ste
steam
stean
steand
steande
steane
steapel
steat
steatebu
steatelid
steaten
steatkundige
steats
steatsbefolking
steatsboarger
steatsboargers
steatsboargerskip
steatsboskbehear
steatsferba
steatsfoarm
steatsgreep
steatshaad
steatshaadste
steatsk
steatske
steatskongres
steatsman
steatsnivo
steatspark
steatspolitikus
steatsregear
steatssekretaris
steatssenaat
steatstsjerke
steatsuniversiteit
steden
stedhu
steds
stedsbestjoer
stedsbra
stedsbyld
stedsdiel
stedsdielen
stedsdistrikt
stedsdistrikten
stedsgebiet
stedsgesichten
stedsgre
stedsje
stedsjes
stedsk
stedskanaal
stedske
stedsmuorre
stedsmuorren
stedsrjochten
stedssintrum
stedsskouboarch
stedswa
stedsyndieling
stee
steech
steed
steedha
steedlik
steek
steel
steele
steen
steenmeijer
steenwijk
steeplechase
stefan
stefano
stefanus
stefanustsjerke
steffen
stege
stegeret
steggerda
steile
stein
steinbeck
steiner
stek
steken
stekke
stekken
stekt
stel
stela
steld
stelde
stelden
stella
stelle
stellen
stellenbosch
stelling
stellingen
stellingmole
stellingmu
stellings
stellingwerf
stellingwerfsk
stellingwerfske
stellingwerven
stelsel
stelsels
stelt
stem
sten
stend
step
stephanie
stephen
steppe
steppeklimaat
steppen
steps
ster
stere
stereotype
sterfean
stergo
sterjen
sterk
sterke
sterker
sterkere
sterkjen
sterkste
sterkte
sterling
stern
steun
steunbearen
steurde
steve
steven
stevens
stevenson
stevich
stevige
stewa
stewart
stge
stha
stholden
stich
sticht
stichte
stichter
stichting
stichtske
stick
stie
stied
stieglitz
stiek
stieken
stiel
stielen
stien
stiene
stienen
stienfabryk
stienhu
stienkoal
stiennen
stiens
stiente
stientiid
stienwikerla
stienwyk
stiermarken
stiet
stifler
stift
stifte
stiften
stifter
stifters
stiftet
stifting
stiftsje
stiftsjen
stig
stige
stigen
stiger
stiget
stiging
stigings
stigje
stigjen
stiif
stiiffe
stiigjen
stijl
stik
stikel
stikels
stikje
stikjes
stikken
stikkene
stikmannich
stiks
stikstof
stil
stilearre
stilen
stilha
stilicho
still
stille
stillein
stiller
stillibbens
stilsta
stilte
stim
stimakteur
stimakteurs
stimaktrise
stimbusfraude
stimd
stimde
stimden
stimhawwende
stimkohier
stimleaze
stimlu
stimme
stimmen
stimming
stimpel
stimrjocht
stimt
stimulaasje
stimulearjen
stimulearre
sting
stings
stingwurken
stins
stinswier
stinzen
stipe
stipen
stipet
stirling
stive
stjelp
stjer
stjerbe
stjergefallen
stjerplak
stjerre
stjerrebyld
stjerredeaderbasis
stjerrefloat
stjerrekunde
stjerren
stjerrende
stjerreslachskip
stjerreslachskippen
stjerrestelsel
stjert
stjit
stjitte
stjitten
stjoer
stjoerd
stjoerde
stjoerden
stjoerder
stjoerders
stjoere
stjoeren
stjoerman
stjoert
stlei
stlein
stleine
stlizze
stlizzen
stmakke
sto
stoar
stoaren
stoarm
stoarmen
stoarmfloed
stoarmfloeden
stoarmtroeper
stoarmtroepers
stoarn
stoart
stoarte
stoarten
stoartte
stocht
stochten
stockholm
stoel
stof
stoffen
stoflik
stoflike
stok
stoke
stoker
stokholm
stokje
stokken
stom
stomme
stomp
stompum
stone
stonehenge
stones
stoney
stony
stoom
stoommasine
stop
stopje
stopjen
stoppe
stoppet
stopplak
stopset
store
stories
storm
story
stoute
stoutenburg
stowe
stplak
stra
straasburch
straf
strafber
strafekspedysje
straffen
strafrjocht
straft
strahorn
straight
strak
strakke
strand
strang
strange
stranger
strannen
strategy
strategysk
strategyske
stratford
strathbogie
strauss
strawelte
straße
stream
streamde
streame
streamen
streamend
streamgebiet
streaming
streamingen
streamings
streamingtsjinst
streamke
streamo
streamt
streek
streekdoarp
streekje
streekmuseum
streekrjocht
streekrjochte
streektaal
streektalen
streep
street
streets
streken
strekt
stress
streupers
strewelleguod
stribbe
stribbet
stribje
stribjen
stride
striden
stridende
strider
strideraasje
strideraasjes
striderij
striders
strie
stried
strieling
strieljager
striemin
striid
striidkre
strijd
strike
strikel
strikes
strikt
string
stringen
strip
stripe
stripen
stripferhaal
stripferhalen
stripklub
stripklubs
stripper
striprige
strips
stripsearje
striptease
striptekener
strisme
strjitnamme
strjitnammen
strjitte
strjitten
strjitwei
stro
strobos
stroe
strokes
strong
stroom
stru
struiksma
struktuer
struktueren
stset
stsetten
stsit
stsjerke
ststeld
ststelde
ststelle
ststellen
stu
stuart
studearje
studearjen
studearre
studearren
studenten
studie
studies
studint
studinte
studinteferiening
studinteferienings
studinten
studintetiid
studio
studiokompleks
studios
study
stuit
stulp
stunt
stuntman
stunts
stuollen
sturgeon
sturgis
sturt
sturtlingte
stuten
stuts
stutsen
stuttgart
stuyvesant
styfheit
styfmem
styfsoan
stykjen
styl
style
stylez
stynsgea
stynske
stypje
stypjen
stysk
styske
su
sub
subgroep
subgroepen
subkontinint
subkultuer
subsjenre
subsjenres
substa
substamme
substammen
substraat
subsydzje
subsydzjes
subtile
subtraktive
subtropysk
subtropyske
sud
sudden
suden
suder
suderlingen
sudersee
sudertrimdiel
sue
suffolk
sugar
suggerearre
suggerearret
suicide
suite
sukses
suksesfol
suksesfolle
suksessen
sulla
sullivan
sully
sultan
sultanaat
sulver
sulveren
sulverne
sulversmid
sulverstikken
sum
sumar
sumatra
summer
summers
summit
sun
sundance
sunday
sunny
sunset
sunshine
super
superheld
superheldefilm
superieur
superieuren
superior
superman
supermerk
supermerken
supersmjunt
supremacy
sur
surch
surhu
surhuzum
surinaamsk
surinaamske
suriname
suringar
surp
surrey
survey
survivor
sus
susan
susanna
suske
suspects
suspicion
susseks
suster
susters
susterskip
susterste
sutfen
sutherland
sutter
sutton
suvel
suvelfabryk
suvelprodukten
suver
suvere
suvering
suwa
suzanne
suze
sv
svarta
sven
svg
swaaide
swaben
swahily
swak
swakke
swalkers
swan
swannen
swarde
swarren
swart
swarte
swarten
swartfuotten
swazyla
sweager
sweden
swedstriden
sweedsk
sweedske
sweet
swei
sweins
swette
swichum
swiebertje
swier
swierbewapene
swierder
swierdere
swiere
swierferwu
swierrichheden
swierste
swiertekre
swiertepunt
swierwaar
swierwe
swiet
swiete
swift
swim
swimbad
swimme
swimmen
swimmer
swimmers
swimming
swimster
swimt
swin
swinderen
swing
swipe
switserdu
switserla
switsersk
switserske
swol
sword
swords
swra
swurd
swurden
swurdpuzel
swurdpuzels
sy
syaan
syb
sybe
sybesma
sybrand
sybren
syd
sydkant
sydkanten
sydkapellen
sydlings
sydney
sydrivier
sydrivieren
syds
sydskepen
sydskip
sydskippen
syffaks
syk
sykheljen
sykje
sykjen
syklus
sykte
sykten
syktes
syktocht
syl
sylboat
syld
sylde
sylroede
sylskip
sylskippen
sylt
sylvester
sylvia
symboal
symboalen
symboalysk
symboalyske
symbolisearje
symbolisearret
symbolyk
symfony
symmetrysk
sympatike
sympaty
sympatyen
symphony
symptomen
syn
synagoge
syndikaasje
syndroom
synkretistyske
synoade
synonimen
synonym
syprus
syrakuse
syrenaika
syrillus
syrje
syrus
syrysk
syryske
sysels
systeem
system
systematysk
systematyske
systemen
systems
sytse
sytstra
sytzama
sytze
t
ta
taai
taak
taal
taalaktivist
taalbesibskip
taaleigen
taalfamylje
taalfamyljes
taalfarianten
taalfoarm
taalfoarmen
taalgebiet
taalgebru
taalgroep
taalgroepen
taalkloft
taalkunde
taalkundich
taalkundige
taalkundigen
taalu
taaluny
tabak
tabe
tabel
tabetroud
tabini
table
taboe
tabrocht
tachtich
tachtichjierrige
tachtiger
tachtigers
taco
tacoma
tad
tadema
tadwaan
tadzjikistan
taeke
tael
tafal
tafallich
tafel
tafels
tafeltennis
tafersjoch
taflecht
tafoege
tafoeging
tafoegings
tafoegje
tafoegjen
tagandyske
tagelyk
tagong
tagongspoarte
tagonklik
tagonklike
taha
taheakke
taheakken
taheaksel
tahity
tahold
taholden
tai
taiga
taila
tain
taipei
taisk
taiske
taiwan
tajaan
tajoech
tajout
taju
tak
take
taken
takend
takes
takke
takomst
takomstige
takson
taksonomy
taksonomyske
taksy
taktyk
taktyske
tal
talbot
talbum
tale
talei
talein
taleit
talen
talent
tales
taliban
talige
talint
talintearre
talintejacht
talinten
talitten
talitting
talizze
talk
tall
talleaze
tallen
talma
talmoed
talrike
talsma
tam
tamar
tamara
tambov
tamminga
tampa
tan
tanaam
taname
tanana
tandem
tang
tanganjika
tango
tanimmen
tanimmende
tank
tankber
tankberens
tanket
tankjen
tanks
tanksij
tankwein
tanner
tano
tanommen
tante
tanya
tanzania
tanzaniaansk
tanzaniaanske
tao
taoi
taparte
tapassen
tapassing
tapassings
tapast
tapaste
tara
tarantino
taret
target
tariede
tarieden
tarieding
tariedings
tarist
tariste
tarkin
tarre
tarsus
tarzan
tas
tasein
tasitus
tasjen
tasko
taskreaun
tasmaanje
tasman
taspraak
taspraken
tasta
tastannen
tastean
tastel
tastellen
tastie
tastien
tastiene
tastimming
tastjoerd
taswaaid
tataren
tatarstan
tate
tatiseigi
tatjana
tatoeaazje
tatoeaazjes
tatooine
tatsjinne
tau
taunus
tawiisd
tawijd
tawizing
tawurd
taylor
tb
tbarsting
tbarstings
tbc
tbetelle
tbilisi
tboud
tbraak
tbrekken
tbrekt
tbriek
tbringe
tbringen
tbrocht
tbrochte
tbrutsen
tbuorren
tbuorrens
tbylde
tdaging
tdield
tdru
tdrukking
tdrukkings
tdrukt
tdyk
te
tea
teach
teagen
teake
team
teams
tean
teannen
tearns
tears
teater
teaters
teau
tebe
tebek
tebekset
tebinnen
tebinnenbringe
tech
technicolor
techniken
technikus
technology
technologyske
technyk
technysk
technyske
tecumseh
ted
teddy
tee
teems
teen
teenage
teenager
teffens
tefoaren
tefoarren
tefolle
tefreden
tegearre
tegels
tegen
tegenwoordige
teheistere
teheran
tehu
tei
teil
tein
teinen
teinlik
teinlike
teinset
teinsette
teinsetten
teit
teiten
tek
teken
tekene
tekenen
tekener
tekenfilm
tekenfilms
tekenfilmsearje
tekenfilmsearjes
tekenfilmstudio
tekening
tekeningen
tekenings
tekenje
tekenjen
tekens
tekken
tekoart
teksaanske
teksanen
teksas
teksel
tekselsk
tekst
teksten
tekstskriuwer
tekstyl
tekstylyndustry
tel
tela
telch
teld
telde
telefoan
telefyzje
telefyzjefilm
telefyzjepresintator
telefyzjeprodusint
telefyzjeprogramma
telefyzjeregisseur
telefyzjerige
telefyzjerigen
telefyzjesearje
telefyzjestjoerder
telefyzjeterm
telegraaf
telegraph
telemark
teleskoop
television
teljier
telkoar
tell
telle
tellegen
tellen
tellende
telling
teloarsteld
teloarstellend
teloarstellende
teloarstelling
telt
teltsje
teltsjes
tema
tematyk
temear
teminsten
temjitte
temminck
tempera
temperatuer
temperatueren
temple
tempo
temps
temu
ten
tenach
tendoar
tendyks
tenechtlike
tenei
tengebiet
tengewoan
tengewoane
tenierdsk
tenierdske
tenkant
tenla
tenlanners
tenmuorren
tennessee
tennis
tennisferiening
tennisser
tennyson
teno
tenpleats
tenpost
tenra
tens
tenste
tensteanders
tentakels
tentoansteld
tentoanstelling
tentoanstellings
tenu
tenwiken
tenwra
tenwyk
teodoarik
teodoasius
teodosius
teologen
teology
teologysk
teologyske
teolooch
teoretyske
teory
teoryen
teplak
ter
tera
teranimearre
terbant
terence
teresa
terfabryk
terherne
teri
terjochte
terjochtsteld
terjochtstelling
terkaple
terlouw
term
termen
terminator
terminen
terminology
terms
termyn
ternaard
terneuzen
terp
terpdoarp
terpen
terprogramma
terpstra
terra
terrassen
terre
terrein
terreinen
terreur
territoaria
territoarium
territoriaal
territoriale
terror
terrorisme
terrorist
terroristen
terroristyske
terry
ters
terschelling
terskermen
tersoal
terspultsje
terspultsjes
tersysteem
tertie
terug
terwispel
tes
teso
tess
tessa
tessalonikers
tessaloniki
tessel
test
testament
testamint
testen
tet
tetman
teu
teuderik
tewei
texas
text
textcolor
tf
tfallen
tfalsbasis
tfanhu
tfeart
tferkocht
tfier
tfierd
tfierde
tfierden
tfiere
tfieren
tfierend
tfierende
tfiering
tfierings
tfiert
tfiner
tfining
tfinings
tfochten
tfol
tfr
tfu
tgean
tgeande
tgie
tgien
tgiet
tgong
tgongen
tgongspunt
tgroeid
tgroeie
tgroeven
th
tha
thabor
thai
thames
than
thanksgiving
that
thatcher
the
thea
theater
theatre
thecla
theed
their
thelle
them
theme
then
theo
theodoor
theodor
theodora
theodore
theodorus
theory
there
theresa
theresia
theresienstadt
these
theun
theunis
they
thi
thialf
thicke
thijs
thijsse
thin
thing
things
think
third
thirty
this
tho
thoe
thold
tholden
tholen
thom
thomas
thompson
thor
thorbecke
thorin
thorn
thorne
thornhill
thornton
thorpe
those
thousand
thranduil
three
thriller
thring
thrones
through
thu
thuis
thumb
thumbnail
thunder
thunderball
thunderbird
thunderdome
thurman
ti
tibearius
tiberius
tibet
tibetaansk
tibetaanske
tichelaar
tichelwurk
ticht
tichtbefolke
tichtby
tichte
tichteby
tichter
tichterby
tichthu
tichtmitsele
tichtset
tichtsmiten
tichtst
tichvin
tico
tiden
tidens
tie
tiel
tien
tienne
tiffany
tigchelaar
tige
tiger
tigers
tigris
tiid
tiidgenoat
tiidgenoaten
tiidline
tiidmasine
tiidreizgjen
tiidrek
tiidrekken
tiidrit
tiidskrift
tiidso
tiidstip
tiidwurd
tiidwurden
tiim
tiin
tiisdei
tij
tijd
tijden
tijdens
tijdschrift
tikitik
til
tilburch
tilburg
till
tille
tillefoan
tillefoantsje
tillefyzje
tillefyzjefilm
tillefyzjefilms
tillefyzjenetwurk
tillefyzjepriis
tillefyzjeprodusint
tillefyzjeprogramma
tillefyzjerige
tillefyzjes
tillefyzjesearje
tillefyzjesearjes
tillefyzjespecial
tillefyzjestjoerder
tillefyzjestjoerders
tillefyzjestudio
tilly
tilt
tim
time
timeaxis
times
timmenga
timmer
timmerman
timo
timor
timothy
timpaan
timpel
timpeliers
timpels
tin
tina
tinbefolke
tinco
tine
tineke
tiner
tinerjierren
tiners
tinga
tink
tinkbylden
tinke
tinken
tinker
tinkstien
tinkt
tinkteken
tinne
tinoar
tint
tintagel
tinte
tinten
tiny
tinzen
tip
tiran
tirith
tirnamardi
tiroal
tirol
tis
titan
titania
titanic
titel
titele
titelmuzyk
titelpersonaazje
titelrol
titels
titelsong
titia
title
tito
titus
tius
tive
tj
tjaan
tjaard
tjalling
tjeerd
tjefte
tjeften
tjerk
tjitte
tjittes
tjoech
tjouwer
tjouwerij
tjouwerijen
tjouwers
tju
tkaam
tkamen
tkearing
tkeazen
tkomme
tkommen
tkomst
tkomsten
tkomt
tla
tland
tlein
tleit
tlingit
tlis
tlizze
tmakke
tmakken
tmakket
tmeitsje
tmoarde
tmole
tmu
tnaaid
tnaaide
tnaaie
tnaait
tnu
to
toalen
toan
toanbank
toand
toande
toane
toanen
toanhichte
toaniel
toanielakteur
toanielferiening
toanielgroep
toanielregisseur
toanielselskip
toanielselskippen
toanielskoalle
toanielskriuwer
toanielstik
toanielstikken
toanielwedstryd
toanoanjaande
toant
toates
tobago
tobias
tobolsk
tobruk
toby
toc
toch
tocht
tochten
tod
today
todd
toe
toefene
toefenje
toekomst
toen
toendra
toer
toerisme
toeristen
toeristysk
toeristyske
toernee
toernoai
toernoaien
toers
toertocht
toet
toets
toetsen
toetsenist
together
togo
tohti
tokio
tokyo
tol
toledo
tolera
tolerance
tolfde
tolhu
tolk
tolkien
tolly
tolsma
tolstoj
tolve
tom
tomas
tomatoes
tomb
tombe
tombstone
tome
tomee
tomke
tomme
tommie
tommy
tomorrow
ton
toneel
tonferwulft
tonga
tonge
tonger
tongersdei
tongue
toni
tonight
tony
too
toole
toon
toonder
toorop
tootoosis
top
topless
topografy
topografyske
toponimen
toppen
toppenhuzen
tor
tora
torah
toren
tori
torin
torino
tornado
tornearre
toro
toronto
torpedo
torpedoboatjager
torpedoboatjagers
torresstrjitte
tosk
toskane
toskedokter
toskeleas
tosken
tot
totaal
total
totale
tou
touch
touchstone
toulouse
toulu
tour
tours
toutenburch
touwen
tower
towers
town
townsend
township
toxopeus
toy
toyota
tputting
tpykt
tra
traaljes
traasje
trace
track
tracker
tracy
trade
tradisjoneel
tradisjonele
tradysje
tradysjes
trage
tragedy
trageedzje
trageedzjes
tragyske
trail
train
traind
trainen
trainer
training
trajanus
trajekt
traktaat
tram
tramline
tramstasjon
tramtearre
tramwei
trans
transept
transepten
transfaal
transfiguraasjetsjerke
translated
translation
transliteraasje
transliterearre
transport
transportearre
transportfleantu
transseksue
transsylvaanje
transsylvaanske
trap
trappearre
trasee
trauma
trautman
travee
traveee
travel
travels
travers
traverse
travis
trawalje
tre
treast
treasure
treatment
treaty
treaun
tredde
trede
treden
tree
treedt
treend
treffe
treffen
treflik
treflike
treft
trein
treinen
treinstasjon
treinstel
treinstellen
treis
trek
trekfeart
trekfu
trekken
trekker
trekkers
trekwei
trelit
trema
trench
trend
trener
trening
trent
trep
treppen
tres
tresoar
tresse
trettjin
trettjinde
trevor
trewant
trewanten
trewantsjes
tri
trial
triatlon
tribale
tribe
tribeca
tribunaal
tribune
tribute
trickster
triden
trie
tried
triem
triemmen
triemstra
triennen
trier
trije
trijedielige
trijefa
trijehoek
trijehu
trijejierrige
trijemanskip
trijen
trijeresom
trijeris
trijesidich
trijeskippige
trijetal
trijntje
trikking
trikkingsseremoanje
trikt
trilogy
trinidad
trinity
trinne
trinner
trinners
trint
trinus
trio
triomfbo
trip
triple
tripolitaanje
tripoly
trist
tristan
tritich
tritichjierrige
tritiger
triumph
triuwt
trivia
tro
troaje
troan
troanopfolger
troch
trochbraak
trochbrek
trochbrekken
trochbringe
trochbringt
trochbrocht
trochbrochten
trochbrutsen
trochdat
trochfeart
trochferkocht
trochfierd
trochgean
trochgeande
trochgie
trochgien
trochgiet
trochgong
trochhinne
trochinoar
trochjaan
trochju
trochkrongen
trochkru
trochlutsen
trochmakke
trochrint
trochru
trochset
trochsette
trochsnee
trochsneed
trochsnien
trochstart
trochstrings
trochtocht
troelstra
troep
troepemacht
troepen
trof
trofee
troffen
trois
trojaanske
trol
trollen
trolls
trom
troman
trommel
tromp
trompet
trondheim
troost
tropen
troppe
troppen
tropysk
tropyske
tros
trotski
trotwaer
trou
trouble
troud
troude
trouden
trout
trouw
trouwe
trouwen
trouwens
trouwerij
troy
tru
truck
true
trui
trujillo
truman
trumbull
trump
trune
trust
truth
truus
tryater
tryntsje
trynwa
ts
tsaar
tsarina
tse
tseach
tsein
tsen
tser
tsers
tset
tsicht
tsien
tsiende
tsienkamp
tsiental
tsientallen
tsientu
tsiis
tsj
tsjaad
tsjalbert
tsjalk
tsjalling
tsjasker
tsje
tsjechje
tsjechoslowakije
tsjechov
tsjechysk
tsjechyske
tsjen
tsjende
tsjep
tsjeppe
tsjerk
tsjerke
tsjerkebanken
tsjerkebuorren
tsjerkefa
tsjerkefolk
tsjerkegebou
tsjerkegebouwen
tsjerkegenoatskip
tsjerkeherfoarmer
tsjerken
tsjerkepaad
tsjerkerie
tsjerkeried
tsjerkeskip
tsjerkestrjitte
tsjerketaal
tsjerketoer
tsjerketsjinst
tsjerketsjinsten
tsjerkfa
tsjerkfaar
tsjerkgaast
tsjerkho
tsjerkje
tsjerklik
tsjerklike
tsjerkwert
tsjerne
tsjes
tsjesilen
tsjettel
tsjibbe
tsjil
tsjillen
tsjin
tsjinha
tsjinhinger
tsjinholden
tsjininoar
tsjinje
tsjinjen
tsjinkeard
tsjinkeare
tsjinkomt
tsjinne
tsjinnen
tsjinner
tsjinners
tsjinnet
tsjinnichheid
tsjinoan
tsjinoanfal
tsjinoer
tsjinpartij
tsjinspiler
tsjinspilers
tsjinspylster
tsjinst
tsjinsta
tsjinstanner
tsjinstanners
tsjinsteld
tsjinstelde
tsjinstelling
tsjinstellings
tsjinsten
tsjinstesektor
tsjinstfaam
tsjinstfeint
tsjinstferliening
tsjinstfolk
tsjinstplicht
tsjintsjilla
tsjintwurdich
tsjintwurdige
tsjinwurking
tsjippewa
tsjoch
tsjocht
tsjoen
tsjoender
tsjoenderij
tsjoenders
tsjoenster
tsjogge
tsjokke
tsjoktou
tsjom
tsjonger
tsju
tsjummearum
tsjuster
tsjustere
tsjut
tsjutte
tsjutten
tsk
tske
tskeakele
tskreaun
tsktalich
tsktalige
tsla
tslach
tslaggen
tsleil
tsletten
tslutend
tsocht
tspr
tspraak
tspraken
tsprekke
tsprutsen
tst
tstald
tstalling
tstallings
tstek
tstekke
tstekkende
tstekt
tstel
tsteld
tstellen
tstiket
tstjerren
tstjitten
tstjoerd
tstjoerde
tstjoere
tstjoering
tstjoerings
tstoar
tstoarn
tstoarne
tstrieling
tstrutsen
tstykjende
tsu
tt
tte
ttel
tten
ttingen
ttir
ttocht
tu
tuatha
tuberkuloaze
tucker
tucson
tudor
tueringen
tuin
tuinen
tulp
tuneezje
tunen
tunis
tunnel
tunnels
tuomas
tuorke
tuorren
tupolev
turan
turbine
turf
turfwinning
turken
turkije
turkmenistan
turks
turksk
turkske
turn
turnberry
turner
turnjen
turns
turyn
tusken
tuskenbeiden
tuskenklasse
tuskenkomst
tuskenlizzende
tuskenskift
tuskenskoften
tuskenstop
tuskentiid
tuskentroch
tuskenyn
tusschen
tussen
tv
tver
twa
twadde
twaddeha
twadgrutste
twadielige
twaen
twahu
twain
twaklanken
twalu
twang
twangarbeid
twangarbeiders
twaris
twatal
twatalich
twatalige
twatre
twatredde
twatsjillers
twatu
twee
tweed
tweede
twei
tweintich
tweintichste
tweintiger
twellingea
twelve
twente
twenty
twerda
twice
twifel
twifele
twifelich
twifelige
twifels
twigen
twiisd
twike
twikseling
twilight
twilling
twillingbroer
twillingdoarp
twillingsuster
twin
twinge
twingen
twingt
twinte
twintsk
twintske
twist
twitter
twizel
twizelerheide
two
twong
twongen
twreide
twreiding
twreidings
twreidzje
twreidzjen
twurke
twurking
twykt
ty
tydlik
tydlike
tydskrift
tydskriften
tydskriftredakteur
tyf
tyfus
tyler
tylt
tyne
tynge
tynje
type
typen
types
typografy
typysk
typyske
tyrus
tysk
tyske
tytsjerk
tytsjerksteradiel
tz
tzen
u
ua
ub
ubbo
uefa
uerdingen
ufo
uganda
uglitsj
ugly
uh
uhura
ui
uit
uitgeverij
uitgevers
uithof
uk
ukena
ulbe
ule
ulesprong
ulm
ulo
ulrich
ulrik
ulrum
ulsda
ulster
ulstersk
ultimate
ultimatum
ultime
ulvaeus
ulysses
um
un
una
unalaska
unanym
[...]
