!
"
#
##0
##1
##10
##11
##12
##13
##14
##15
##16
##17
##18
##19
##2
##20
##21
##22
##23
##24
##25
##26
##27
##28
##29
##3
##30
##31
##32
##33
##34
##35
##36
##37
##38
##39
##4
##40
##41
##42
##43
##44
##45
##46
##47
##48
##49
##5
##50
##51
##52
##53
##54
##55
##56
##57
##58
##59
##6
##60
##61
##62
##63
##64
##65
##66
##67
##68
##69
##7
##70
##71
##72
##73
##74
##75
##76
##77
##78
##79
##8
##80
##81
##82
##83
##84
##85
##86
##87
##88
##89
##9
##90
##91
##92
##93
##94
##95
##96
##97
##98
##99
$
%
&
'
(
)
*
+
,
-
.
/
0
00
000
001
005
007
01
02
03
04
05
06
07
08
09
1
10
100
1000
101
102
103
104
105
1050
1054
106
1060
1066
107
108
1086
109
11
110
1100
111
112
1122
113
1130
1138
114
1140
115
1150
1152
1157
116
1160
1163
1165
117
1170
118
1180
1189
119
1190
1191
1197
12
120
1200
1204
121
1210
1215
1216
1217
1218
122
1220
1221
1226
1227
1228
123
1230
1231
1234
1235
1237
124
1240
1246
1247
1249
125
1250
1252
1253
1254
1256
126
1260
127
1270
1271
1272
1274
1275
1276
1279
128
1280
1282
1284
1285
1286
1287
129
1290
1292
1294
1295
1296
1297
1298
1299
13
130
1300
1302
1303
1304
1305
1306
1307
1308
1309
131
1310
1312
1314
1315
1316
1318
132
1320
1321
1322
1323
1325
1327
1328
1329
133
1330
1332
1333
1337
134
1340
1345
1346
1347
1348
1349
135
1350
1353
1355
1356
1357
136
1360
1361
1362
1363
1364
1368
137
1370
1371
1372
1375
138
1380
1381
1382
1389
139
1390
1391
1392
1395
1396
1397
1398
1399
14
140
1400
1401
1402
1404
1405
1406
1407
1408
141
1410
1413
1414
1415
1417
1418
1419
142
1420
1421
1422
1423
1425
1426
1427
1428
1429
143
1430
1431
1433
1435
1436
1437
1438
1439
144
1440
1441
1444
1445
1447
1448
1449
145
1450
1451
1452
1453
1454
1455
1456
1457
1458
146
1460
1461
1462
1463
1464
1465
1466
1467
1468
1469
147
1470
1471
1472
1473
1474
1475
1476
1477
1478
1479
148
1480
1481
1482
1483
1484
1485
1486
1487
1488
1489
149
1490
1491
1492
1493
1494
1495
1496
1497
1498
1499
15
150
1500
1501
1502
1503
1504
1505
1506
1507
1508
1509
151
1510
1511
1512
1513
1514
1515
1516
1517
1518
1519
152
1520
1521
1522
1523
1524
1525
1526
1527
1528
1529
153
1530
1531
1532
1533
1534
1535
1536
1537
1538
1539
154
1540
1541
1542
1543
1544
1545
1546
1547
1548
1549
155
1550
1551
1552
1553
1554
1555
1556
1557
1558
1559
156
1560
1561
1562
1563
1564
1565
1566
1567
1568
1569
157
1570
1571
1572
1573
1574
1575
1576
1577
1578
1579
158
1580
1581
1582
1583
1584
1585
1586
1587
1588
1589
159
1590
1591
1592
1593
1594
1595
1596
1597
1598
1599
16
160
1600
1601
1602
1603
1604
1605
1606
1607
1608
1609
161
1610
1611
1612
1613
1614
1615
1616
1617
1618
1619
162
1620
1621
1622
1623
1624
1625
1626
1627
1628
1629
163
1630
1631
1632
1633
1634
1635
1636
1637
1638
1639
164
1640
1641
1642
1643
1644
1645
1646
1647
1648
1649
165
1650
1651
1652
1653
1654
1655
1656
1657
1658
1659
166
1660
1661
1662
1663
1664
1665
1666
1667
1668
1669
167
1670
1671
1672
1673
1674
1675
1676
1677
1678
1679
168
1680
1681
1682
1683
1684
1685
1686
1687
1688
1689
169
1690
1691
1692
1693
1694
1695
1696
1697
1698
1699
17
170
1700
1701
1702
1703
1704
1705
1706
1707
1708
1709
171
1710
1711
1712
1713
1714
1715
1716
1717
1718
1719
172
1720
1721
1722
1723
1724
1725
1726
1727
1728
1729
173
1730
1731
1732
1733
1734
1735
1736
1737
1738
1739
174
1740
1741
1742
1743
1744
1745
1746
1747
1748
1749
175
1750
1751
1752
1753
1754
1755
1756
1757
1758
1759
176
1760
1761
1762
1763
1764
1765
1766
1767
1768
1769
177
1770
1771
1772
1773
1774
1775
1776
1777
1778
1779
178
1780
1781
1782
1783
1784
1785
1786
1787
1788
1789
179
1790
1791
1792
1793
1794
1795
1796
1797
1798
1799
18
180
1800
1801
1802
1803
1804
1805
1806
1807
1808
1809
181
1810
1811
1812
1813
1814
1815
1816
1817
1818
1819
182
1820
1821
1822
1823
1824
1825
1826
1827
1828
1829
183
1830
1831
1832
1833
1834
1835
1836
1837
1838
1839
184
1840
1841
1842
1843
1844
1845
1846
1847
1848
1849
185
1850
1851
1852
1853
1854
1855
1856
1857
1858
1859
186
1860
1861
1862
1863
1864
1865
1866
1867
1868
1869
187
1870
1871
1872
1873
1874
1875
1876
1877
1878
1879
188
1880
1881
1882
1883
1884
1885
1886
1887
1888
1889
189
1890
1891
1892
1893
1894
1895
1896
1897
1898
1899
19
190
1900
1901
1902
1903
1904
1905
1906
1907
1908
1909
191
1910
1911
1912
1913
1914
1915
1916
1917
1918
1919
192
1920
1921
1922
1923
1924
1925
1926
1927
1928
1929
193
1930
1931
1932
1933
1934
1935
1936
1937
1938
1939
194
1940
1941
1942
1943
1944
1945
1946
1947
1948
1949
195
1950
1951
1952
1953
1954
1955
1956
1957
1958
1959
196
1960
1961
1962
1963
1964
1965
1966
1967
1968
1969
197
1970
1971
1972
1973
1974
1975
1976
1977
1978
1979
198
1980
1981
1982
1983
1984
1985
1986
1987
1988
1989
199
1990
1991
1992
1993
1994
1995
1996
1997
1998
1999
2
20
200
2000
2001
2002
2003
2004
2005
2006
2007
2008
2009
201
2010
2011
2012
2013
2014
2015
2016
2017
2018
2019
202
2020
2021
2022
2023
203
204
205
206
207
208
209
21
210
211
212
213
214
215
216
217
218
219
22
220
2200
221
222
224
225
226
227
228
229
23
230
231
232
233
234
235
236
237
238
239
24
240
241
242
243
244
245
246
247
248
249
25
250
2500
251
252
253
254
255
256
257
258
259
26
260
261
262
263
264
265
266
268
269
27
270
271
272
273
274
275
276
277
278
279
28
280
281
282
283
284
285
286
287
29
290
291
292
293
294
295
296
297
298
299
3
30
300
3000
301
302
303
304
305
306
307
308
309
31
310
311
312
313
314
315
316
317
318
32
320
321
322
323
324
325
326
327
328
329
33
330
331
332
333
334
335
336
337
338
339
34
340
341
342
344
345
346
347
348
35
350
3500
351
352
353
354
355
356
357
358
359
36
360
361
362
363
364
365
366
367
368
369
37
370
373
374
375
376
377
378
379
38
380
381
383
384
385
386
387
388
39
390
392
393
394
395
396
397
399
4
40
400
4000
401
402
403
404
405
406
407
408
409
41
410
411
412
413
415
416
417
418
42
420
421
422
423
425
428
429
43
430
431
435
436
438
44
440
442
445
446
447
448
45
450
451
453
455
456
457
458
46
460
461
465
468
469
47
470
473
475
476
477
48
480
484
486
49
490
493
496
5
50
500
5000
501
502
507
51
510
511
516
52
520
523
525
53
530
533
534
536
538
54
540
547
548
55
550
552
56
560
57
570
575
58
580
585
586
59
590
595
6
60
600
6000
61
610
618
62
620
625
63
630
639
64
640
645
65
650
655
66
660
666
67
670
672
673
675
68
680
687
69
690
7
70
700
7000
71
711
714
715
716
719
72
720
73
730
734
737
74
740
741
747
748
75
750
754
76
760
77
770
771
772
775
777
78
780
785
79
8
80
800
8000
804
81
810
814
817
82
820
822
825
83
830
838
839
84
840
841
842
843
844
845
85
850
851
855
856
86
860
869
87
870
874
875
876
877
88
880
882
885
888
89
890
9
90
900
907
91
910
911
919
92
93
936
94
940
95
950
96
960
97
970
975
978
98
980
99
993
999
:
;
<
=
>
?
@
[
\
]
^
_
`
a
aa
aad
aadlik
aadlike
aafke
aai
aaien
aaikes
aaipop
aaisto
aaiwiten
aaiwyt
aak
aaklike
aaltje
aan
aansk
aanske
aap
aar
aard
aarde
aardenburg
aardich
aardichheid
aardige
aarhus
aaron
aart
aartsbisdom
aartsbiskop
aartsbiskoppen
aartsfaar
aartsfija
aartshartoch
aartsingel
aastersk
aazje
ab
abba
abbaye
abbe
abbegea
abbekaat
abbekate
abbekatekantoar
abbekaten
abbema
abbey
abbott
abby
abc
abd
abdena
abdij
abdijen
abdijtsjerke
abdis
abdu
abe
abece
abeecee
abel
abercrombie
aberdeen
abessynje
abgaazje
abgazysk
abilene
abma
abonnees
aboriginals
aborizjinals
abortus
about
abraham
abrahamityske
abram
abrams
abrupt
absalom
absolu
absolute
abstrakt
abstrakte
absurde
abt
abten
abu
ac
acade
academie
academy
access
accipiter
account
ace
acer
ach
achab
achazja
achievement
achilles
achlum
achmea
achmed
acht
achte
achten
achter
achterberg
achterhoeke
achtet
achthoekige
achtkant
achtkante
achtkarspelen
achtsje
achtste
achttjin
achttjinde
ackbar
acre
acres
acrocephalus
across
act
acta
action
actionfilms
actors
actress
acts
ad
ada
adam
adams
adaptaasje
adaptaasjes
adaptearre
add
addinga
additive
ade
adel
adelaar
adelaide
adele
adema
aden
adi
adjudant
adjunkt
adler
administraasje
administration
administrative
administratyf
admiraal
admiral
admiraliteit
ado
adolf
adolphe
adonis
adopsje
adoptearre
adres
adressen
adriaan
adriaen
adrian
adriana
adriano
adrianopel
adrianus
adriatyske
aduard
adult
advendo
adventure
adventures
advertinsje
advertinsjes
advisearre
adviseur
adviseurs
advizen
advokaat
advys
ae
aebinga
aebn
aede
aegee
aegidius
aeilco
aemilius
aenjewier
aetius
af
afar
afarsk
afc
afd
affair
affe
affysjes
afgaanske
afganistan
afghanistan
afi
afke
afl
africa
african
afrika
afrikaansk
afrikaanske
afrikakorps
afrikanen
afrikaner
afrikaners
afro
afrodite
after
aftermath
afu
ag
again
against
agamemnon
agatha
age
agency
ages
agglomeraasje
aginda
agint
aginte
aginten
agintskip
agnes
agnetha
agnew
agnosten
agrarysk
agraryske
agresje
agressive
agressyf
agricola
agt
ah
ahch
ahead
ahmed
ahsoka
ai
aids
aiji
ailes
aim
aime
aimee
ain
ainu
air
aircraft
aires
airie
airlines
airport
airways
ais
aise
aiskylos
aitzema
ajax
ak
aka
akadeemje
akademie
akademy
akademysk
akademyske
aken
akira
akkad
akkadysk
akkadyske
akke
akker
akkerman
akkoard
akkoart
akkomodaasje
akkordeon
akkrum
akky
ako
akoestyske
akseptabel
akseptearje
akseptearjen
akseptearre
akseptearret
aksint
aksinten
aksje
aksjefilm
aksjefilms
aksjekomeedzje
aksjes
aksjese
aksjesearje
akte
aktearjen
aktearkarrie
aktearprestaasje
aktearprestaasjes
aktearre
aktearwurk
akten
akteur
akteurs
aktive
aktivearre
aktivisme
aktivist
aktiviste
aktivisten
aktiviteit
aktiviteiten
aktrise
aktrises
aktueel
aktuele
aktyf
akwadukt
akwarel
akwarellen
akwarium
akwitaanje
al
alaarm
alabama
alain
alamo
alan
alana
alanen
alarik
alaska
alaskaanske
alaskaberchtme
alba
albaanje
albaansk
albada
albaneesk
albaneeske
albanezen
albany
albarda
albatros
alberda
albert
alberta
albertina
albertine
alberto
alberts
albertus
albertville
albinus
albrecht
album
albums
albuquerque
ald
aldamt
alddjip
alde
aldeberkeap
aldebiltdyk
aldebiltsyl
aldeboarn
aldefurd
aldegea
aldegeaster
aldehaske
aldeholtpea
aldehou
aldekleaster
aldemardum
aldenboarch
aldenburch
aldendeiske
alder
alderaan
aldere
alderearst
alderearste
aldergeloks
alderhanne
alderheljen
alderheljenfloed
alderle
alderlei
aldetrine
aldfeart
aldfra
aldfrysk
aldfryske
aldgillis
aldgryksk
aldgrykske
aldheechdu
aldheid
aldheidkeamer
aldhoarne
aldingelsk
aldingelske
aldla
aldlemmer
aldnederla
aldnoarsk
aldnoarske
aldrin
aldsaksysk
aldskoat
aldskou
aldste
aldtsjerk
aldwa
ale
alec
aleid
alejandro
aleksander
aleksanderje
aleksandr
aleksandra
aleksandrie
aleksandrje
aleksandrovitsj
aleksej
alenc
aleoeten
aleoetysk
aleoetyske
alessandro
aletta
alex
alexa
alexander
alexandra
alexandre
alexandria
alexis
alfa
alfabe
alfabet
alfabeto
alfabetyske
alfde
alfen
alfons
alfonso
alfred
alfte
alfu
algebra
algemeen
algemene
algemien
algemiene
algerije
algerynske
algiers
algonkwynske
algra
alhiel
alhielendal
alhoewol
ali
alias
alice
alicia
alida
alien
aliens
alina
alinea
alinne
alison
alive
aljemint
alkmaar
alkmar
alkohol
alkoholisme
all
alla
allahabad
allan
allard
allardseach
alle
allebeide
alleen
allegear
allegearre
allegeduerigen
allegoaryske
allegory
allema
allemannen
allemolens
allen
allende
aller
allerhande
allerhanne
alles
alletrije
alley
allia
alliance
allie
alliearde
alliearden
alline
allingawier
allinich
allinne
allinnich
allinnichsteande
allison
allround
allyk
allyksa
alma
almanak
almar
almeare
almeast
almelo
almenak
almenum
almere
alois
alone
alonso
alpen
alpha
alphabet
alphen
alphonse
alpine
alpineskyen
alris
als
also
alt
alta
altai
alte
alteast
alten
altena
alter
alteraasje
alternaria
alternate
alternative
alternatyf
alterromte
alters
altfioele
althuis
altijd
alting
altiten
alto
altyd
aluminium
alva
alve
alveste
alvetal
alvin
always
alwer
alzheimer
am
amadeus
amalia
amanda
amateur
amateurs
amateurtoaniel
amazing
amazo
amazon
ambacht
ambachten
ambachtlike
ambachtslju
ambachtsskoalle
ambassade
ambassades
ambassadeur
ambassadeurs
ambassadrise
amber
ambisjeuze
ambo
ambrosius
ambula
ambysje
ambysjes
ame
amearika
amearikaanske
amela
amelia
amen
amendemint
amer
america
american
americana
amerika
amerikaan
amerikaanse
amerikaansk
amerikaanske
amerikanen
amerongen
amersfoart
amersfoort
ames
amfibyen
amfibyske
amfiteater
amidala
amiens
amish
amman
ammoniak
amnesty
amoer
amon
among
amor
amore
amos
amour
amper
amperoan
amst
amstel
amstelfean
amstelveen
amsterdam
amsterdammer
amsterdamse
amsterdamsk
amsterdamske
amt
amten
amtlik
amtlike
amtner
amtners
amundsen
amy
an
ana
anabolic
anaheim
anakin
anal
anale
analog
analyse
analyze
anargist
anargistyske
anas
anastasia
anatoalje
anatomy
anatoom
anchorage
ancient
and
anda
andalu
andel
ander
andere
anderen
anders
andersen
anderson
andersson
andert
andes
andor
andorra
andre
andrea
andreae
andreas
andrej
andrew
andrews
andries
andriessen
andringa
androi
andy
andyk
ane
anema
anen
ang
ange
angel
angela
angelen
angeles
angelica
angelina
angelo
angels
angelsaksen
angelsaksysk
angelsaksyske
anglia
anglikaanske
anglikanen
anglo
angoala
angus
anhalt
ani
animaasje
animaasjefilm
animaasjefilms
animal
animals
animated
animation
animator
anime
animearre
anita
anjer
anjewier
anjou
ankara
anke
ankel
anker
ankie
anloo
ann
anna
annalen
annales
annan
annandale
anne
anneke
anneks
anneksaasje
anneksearre
anneksearret
annema
annemarie
annes
annette
anni
annie
anno
annual
anny
anonime
anonym
another
ans
anse
anser
anson
ant
antagonist
antagonisten
antarktika
antarktyske
anthology
anthonie
anthony
anthus
anti
antike
antillen
antilles
antiochie
antiochje
antiochus
antje
antlers
antlit
anto
antoine
antoinette
anton
antoni
antonia
antonides
antonie
antoninus
antonio
antonius
antonov
antony
antoon
antropology
antropolooch
antsje
antwerpen
antwerpske
antwurd
antwurde
antwurden
antwurdet
anty
antyk
antysemitisme
antysemityske
anus
any
anzac
anzju
ao
ap
apache
apachen
apart
aparte
apartheid
ape
apel
apeldoarn
apeldoorn
apels
apen
apes
apodemus
apokalyptyske
apokrife
apokryf
apollo
apostel
apostels
apostoalyske
apostrof
app
appalachen
apparaat
apparaten
apparatuer
appartemint
appartemintekompleks
apparteminten
appel
appelskea
appingedam
apple
applegate
apprentice
april
apsis
apteker
apu
aqua
aquaman
aquarium
ar
ara
araabje
arabia
arabieren
arabysk
arabyske
aragon
aragoneesk
aragorn
aralmar
arameesk
arameeske
arapaho
arbeid
arbeide
arbeider
arbeiders
arbeidersbeweging
arbeidershu
arbeidersklasse
arbeiderspartij
arbeiderspers
arbeidzje
arbeidzjen
arc
archangelsk
archeologen
archeology
archeologysk
archeologyske
archeolooch
archer
archibald
archief
archiv
archive
arctic
ard
arde
ardea
arden
ardinnen
are
area
areaal
arek
arena
arend
arent
ares
arezzo
argaysk
argayske
argentynje
argentynsk
argentynske
argeologen
argeologysk
argeologyske
argeolooch
argewaasje
argivaris
argiven
argo
argon
argumint
arguminten
argyf
argyll
aria
ariaanske
ariana
arianisme
arie
ariel
arikara
arisaydia
aristofanes
aristokrasy
aristokraten
aristokratyske
aristoteles
arizona
arjan
arje
arjen
ark
arkades
arkadius
arkansas
arke
arkel
arktysk
arktyske
arles
arlington
arm
armand
arme
armeenje
armeenjers
armeensk
armeenske
armenen
arminius
arms
armstrong
army
arne
arnhem
arnhim
arno
arnold
arnoldus
arnulf
around
arp
arras
arre
arrestaasje
arrestearje
arrestearjen
arrestearre
arret
arriva
arrivearje
arrivearre
arrivearren
arrivearret
arrondissemint
arrondisseminten
arsenaal
arsjipel
arsjitekt
arsjitekteburo
arsjitekten
arsjitektoanyske
arsjitektuer
art
artakserkses
artcyclopedia
arte
arteezje
artefakt
artefakten
artemis
arthur
arthurleginden
arti
artikel
artikelen
artikels
artillery
artiodactyla
artist
artistike
artists
artistyk
arts
artsen
artur
artyst
artyste
artysten
artystenamme
artystenammen
aru
arum
arvicolinae
ary
aryl
as
asa
asano
ash
asher
ashley
ashton
asia
asil
asimov
aspekt
aspekten
asperger
aspirearre
ass
asscher
assen
asser
assignment
assimblee
assimilaasje
assimilearre
assiniboin
assiniboine
assisi
assistint
assistinte
associates
association
assosjaasje
assosjearre
assyrje
assyryske
ast
asten
aster
asteroi
astrachan
astrid
astrology
astronaut
astronauten
astronomy
astronomyske
astronoom
astuerje
asturysk
asuryske
asyl
at
atanarik
atapaskyske
atatu
ate
ateenske
atei
atelier
atemala
atene
ateneum
atevi
atf
ath
athenaeum
atholl
athos
atlanta
atlantic
atlantikwall
atlantique
atlantis
atlantyske
atlas
atle
atleet
atlete
atleten
atletyk
atletykbaan
atmosfear
ato
atol
atom
atomen
atomic
atoom
atoombom
atoomkearn
atoomnu
atos
atrophaneura
atsma
attack
attawapiskat
attila
attraksje
attraksjes
attributen
atu
atze
au
auck
auckland
audio
audioboek
audrey
audysje
audysjes
auf
aug
augsburg
august
augusta
auguste
augustin
augustine
augustinus
augustus
auke
aukes
aukje
aula
auld
aura
aurelia
aureliaflinters
aurelianus
aurelius
aurora
aus
auschwitz
austen
austerlitz
austin
austraalje
austraasje
australia
australian
australie
australysk
australyske
autentike
autentyk
auteur
auteurs
auteurskip
auteursrjocht
auteursrjochten
authority
autisme
auto
autobiografy
autobiografysk
autobiografyske
autobiography
autobus
autodidakt
autodiken
autodyk
autofabrikant
autokoereur
automatisearre
automatysk
automatyske
automerk
autonome
autonomy
autonoom
autorisearre
autorite
autoriteit
autoriteiten
autosefale
autosnelwei
autosport
autowei
autumn
auwerk
aux
av
ava
avalon
avansearre
avant
avaren
avatar
ave
avec
avenger
avengers
aventoer
aventoerefilm
aventoeren
aventoersman
avenue
aves
avestysk
aviation
avignon
avitus
aviv
avn
avon
avond
avonturen
avranches
avril
avro
awakens
award
awards
away
axel
axishistory
ayer
aylva
ayrshire
aysma
aytta
az
azarja
azerbeidzjan
aziaten
aziatysk
aziatyske
azie
azoaren
azov
azteekske
azteken
azuer
b
ba
baa
baai
baaien
baaiplak
baaium
baan
baanhurdfytsen
baantjer
baantsje
baantsjes
baarch
baard
baarderadiel
baarn
baarnde
baarnden
baarne
baarnen
baarnende
baas
baat
baba
babel
baby
babyloanje
babyloanyske
babylon
bach
bachelor
bachelorstitel
bachelortitel
bachrein
back
bacon
bad
baden
badminton
badoer
badwei
baen
baerdt
baflo
bafta
bagaazje
bagaazjetrein
bagdad
bagdadi
bahai
bahama
bahn
bai
bail
bailey
bak
baker
bakhuzen
bakkefean
bakken
bakker
bakkerij
bakkers
bakstien
bakstiennen
bakt
baktearje
baktearjen
baktearjes
baku
bal
bala
balboa
balch
baldwin
balea
balk
balkan
balkanfront
balkanoarloch
balke
balken
balkenende
balkon
ball
ballade
ballads
ballantine
ballet
balling
ballingen
ballingskip
balliol
ballon
ballum
balstienliem
balthasar
baltimore
baltyske
baly
balzac
bambi
ban
banana
band
banda
bandit
banditen
bandleden
bands
bandyt
banen
banff
bang
banga
bangbros
bangkok
banglades
bangladesh
bangladesj
bangma
banichi
banier
banjo
bank
bankbero
bankbiljetten
bankekrisis
banken
bankier
bankrot
banks
bannen
banner
banning
bant
bantam
bantegea
baptist
baptiste
baptistegemeente
baptisten
bar
barack
barak
barakken
barb
barbaar
barbaarske
barbados
barbara
barbaren
barbarian
barbarijske
barbarossa
barber
barbu
barcelona
barclay
bard
barde
barden
bare
barend
barents
barentssee
barentsz
baret
bargen
barger
bariton
barka
barker
barnabas
barnes
barneveld
barnstien
barok
barokke
baron
barones
baronesse
baronet
barr
barradiel
barrahu
barrayar
barrayareeske
barre
barren
barrens
barrett
barrie
barry
barrymore
barseloana
barselona
barst
bart
bartel
bartlehiem
bartolome
baru
baruch
bas
basearre
baseball
basel
bases
basgitaar
basic
basilica
basilika
basilius
basilyk
basin
basis
basisskoalle
basisskoallen
basisu
baskela
basken
basketbal
basketballer
baskysk
baskyske
bass
bassist
bast
bastert
bastien
bastion
bastions
bat
bataafsk
bataafske
bataljon
batavia
batavus
bath
batman
batsje
batterij
batterijen
batthya
battista
battle
battleship
bauer
bauhaus
bauke
baukes
baukje
baxter
bay
bayeux
baywatch
baze
bazel
bazen
bazuin
bb
bbc
bbe
bd
be
bea
beach
beaen
beafeart
beafeartsplak
beagle
beaken
bealch
beam
beamiikhoarntsjes
beammen
beamotter
bean
beane
bear
beare
bearen
bearend
bearn
bears
beart
bearzeru
beast
beat
beatles
beatrice
beatrix
beau
beaufort
beaumont
beautiful
beauty
beauvais
beaux
beaver
beboske
beboud
beboude
bebouwing
beck
becker
becket
beckett
beckham
beckman
bed
beda
bedarje
bedarre
bedarren
bedarret
bedekt
bedford
bedijd
bedike
bedoarn
bedobbe
bedoeld
bedoelde
bedoeling
bedoelings
bedoelt
bedraacht
bedrach
bedrage
bedragen
bedreaun
bedrige
bedriget
bedriging
bedrigings
bedrijf
bedriuw
bedriuwe
bedriuwen
bedriuweterrein
bedriuwslibben
bedroch
bedroech
bedroegen
bedum
bedutsen
bee
beek
beeld
beeldende
been
beer
beerta
beethoven
beets
beetstersweach
befalling
befarber
befarren
befe
befeilige
befeiliging
befeiligingskamera
befel
befelfierend
befelhawwer
befellen
beferzen
befet
befetsje
befette
befettet
befine
befjochtsjen
beflapt
befoardere
befoardering
befoarderjen
befoarrieding
befoel
befolke
befolking
befolkingsgroei
befolkingsgroep
befolkingsgroepen
befolkingsgrutte
befolkingstichtens
before
befrege
befreget
befreone
befrijd
befrijde
befrijding
befrije
befrijen
befrijing
befrijt
befu
befynt
begean
begeane
begelaat
begelate
begeliede
begelieden
begelieder
begelieding
begeliedt
begien
begin
begjin
begjinjierren
begjinne
begjinnen
begjinnend
begjinnende
begjinpunt
begjinsel
begjinsels
begjint
begjintiid
begjintitels
begjintsje
begoedige
begraafplak
begraafplakken
begraffenis
begraffenissen
begraven
begrepen
begrinze
begrinzge
begripe
begripen
begroeid
begroeide
begroeii
begroeven
begrutsjen
begrutting
begryp
begrypt
begu
beha
behalve
behalven
behan
behannele
behannelet
behanneling
behannelings
behannelje
behanneljen
beharkjen
behear
beheard
behearde
behearder
behearen
behearske
behearsken
behearsket
behearsking
behearskje
behearskjen
beheart
beheind
beheinde
beheinden
beheine
beheinen
beheining
beheinings
behelje
beheljen
behelle
behellen
behellet
behierre
behind
behindere
behindich
behoarlik
behold
beholden
bei
beide
beiden
beien
beieren
beierla
beierske
beilen
bein
being
beintema
beiru
bejaan
bejage
bejeftige
bejoech
bejout
bejouwe
bek
bekeard
bekearde
bekeare
bekearen
bekearing
beken
bekend
bekende
bekenden
bekender
bekendere
bekendheid
bekendmakke
bekendst
bekendste
bekendsteane
bekendsten
bekendstie
bekendstiet
bekent
bekentenis
beker
bekind
bekken
bekker
beklaaid
beklaaide
beklaaie
beklaait
beklage
beklaget
beklimmen
beklimming
beknopte
bekommen
bekre
bekritisearre
bekroand
bekroande
bekroane
bekroaning
bel
bela
beladen
belang
belangen
belangrike
belangryk
belangrykste
belangstellenden
belangstelling
beld
belde
beldsu
bele
beleanne
beleanning
belegere
belegeren
belegering
belein
belesting
belestingen
belestings
belfast
belgen
belgie
belgje
belgrado
belgysk
belgyske
belibbe
belibbet
belibje
beliden
belidenis
belied
belies
believe
belis
belisarius
belize
beljochte
beljochtet
beljochting
belknap
bell
bella
belladonna
belle
bellevue
bellingwolde
bellini
bells
belmonte
belsen
belt
belu
belune
belutsen
belutsenen
belutsenens
belvede
belykje
bemachtige
bemachtigjen
bemanne
bemanning
bemanningsleden
bemeallen
bemiddeling
bemuoide
bemuoie
bemuoien
bemuoienis
ben
benammen
benammentlik
benaud
bend
beneamd
beneamde
beneame
beneamen
beneaming
beneamings
beneamt
benearing
beneden
benedentsjerke
benedictus
benediktinen
benediktus
benediktynske
benei
benelu
benin
beninga
benito
benjamin
benner
bennett
benny
benoardeasten
benoarden
benoardwesten
benson
bent
benteen
bentheim
benthem
benton
benyn
benz
benzine
beo
beoardiele
beoardieling
beoefene
beowulf
bepa
bepaald
bepaalde
bepaalt
bepale
bepalen
bepaling
bepalings
beppe
beppes
beppesizzer
beppesizzers
bepraat
beprate
bepraten
ber
berardinelli
berber
berbers
berbersk
berberske
berbertalen
berch
bercheftich
bercheftige
berchla
berchtme
berchtmen
bere
berekkene
berekkening
berekkenings
berend
berg
berge
bergen
berger
bergman
bergsma
beriden
berik
berikber
berikke
berikken
berikt
berikte
berikten
bering
beringsee
beringstrjitte
berint
berjocht
berjochte
berjochten
berjochting
berk
berkeley
berkshire
berlage
berlin
berliner
berltsum
berlyn
berlynske
berman
bermuda
bern
bernard
bernarda
bernardino
bernardus
berne
berneboek
berneboeken
berneboekeskriuwer
berneboekeskriuwster
bernepornografy
berneprogramma
bernetiid
bernhard
bernhardt
bernhardus
bernie
bernlef
bernsbern
bernstorff
bernthal
bero
berop
beroppen
beropsbefolking
beropsu
berou
berry
bert
berte
bertedei
bertedoarp
bertehu
bertejier
bertelsmann
berteplak
berteste
bertetsjerke
bertram
bertrand
bertus
beru
berucht
beruchte
berwick
beryl
beryllium
bes
beschrijving
besef
beseffe
beseft
besefte
beselskippe
beselskippet
beset
besette
besetten
besetter
besetters
besetting
besettingsmacht
besettingsso
besibbe
besibskip
besichtige
besichtigjen
besiet
besiker
besikers
besikerssintrum
besiket
besingele
besit
besite
besitlik
besitte
besitter
besittingen
besittings
besjen
besjensweardichheden
besjitting
besjittings
besjocht
besjoen
besjoene
beskaafde
beskaat
beskate
beskaving
beskavings
beskerme
beskermer
beskermers
beskermet
beskermhear
beskermhillige
beskerming
beskermje
beskermjen
beskermjende
besketten
beskieden
beskiedend
beskikber
beskikbere
beskikke
beskikking
beskikt
beskikte
beskikten
beskildere
beskildering
besko
beskreau
beskreaun
beskreaune
beskriuwe
beskriuwen
beskriuwing
beskriuwings
beskriuwt
besku
beskuldige
beskuldigen
beskuldiget
beskuldiging
beskuldigings
beslaan
beslach
beslacht
beslane
besleat
besleaten
besletten
beslissend
beslissende
beslissing
beslissings
beslist
besljochte
besloech
beslu
besluet
beslute
besluten
besmet
besmetlike
besmetting
besnijing
besoarge
besoargje
besoargjen
besocht
besochte
besochten
besparre
bespile
besprekkings
besprutsen
bespyljen
besson
best
besta
bestaan
beste
bestean
besteand
besteande
besteane
bestege
besteld
bestelde
bestie
bestien
bestiene
bestienen
bestiet
bestimd
bestimming
bestimmings
bestimmingsplan
bestjoer
bestjoerd
bestjoerde
bestjoerder
bestjoerders
bestjoere
bestjoeren
bestjoerlik
bestjoerlike
bestjoerskunde
bestjoerslaach
bestjoersleden
bestjoerslid
bestjoersorgaan
bestjoerssintrum
bestjoerstaal
bestjut
bestoarming
bestraffing
bestraft
bestride
bestriden
bestriding
bestridingsmiddels
bestseller
bestsellerlist
bestsellers
bestudearjen
bestudearre
bestudearret
besu
besuden
besunigings
beswier
beswieren
beswykt
besyk
besykje
besykjen
bet
betanke
betanket
betelje
beteljen
betelle
betellen
betellet
betelling
betelmiddel
beter
bethlehem
betide
betiden
betiid
betiizjen
betingst
betingsten
betinke
betinken
betinker
betinking
betinksel
betinkt
betitele
betize
betizing
betlehem
betlehim
betocht
betochten
beton
betonnen
betreffende
betreft
betrekking
betrekkingen
betrekkings
betreklik
betrouber
betroubere
betrouwen
betsjinje
betsjinjen
betsjinne
betsjinnet
betsjinning
betsjoening
betsjoenings
betsjut
betsjutte
betsjutten
betsjutting
betsjuttings
betsjuttingsside
better
bettere
betty
betu
betula
betuwe
between
beuker
beukerskoalle
beuningen
beurs
beurt
beurzen
bevela
bever
beverly
bevers
bewa
bewapene
bewapening
bewar
bewarje
bewarjen
bewarre
bewarret
bewarring
beweard
bewearde
beweare
bewearing
bewearings
beweart
beweecht
bewege
bewegen
bewegende
beweger
beweging
bewegingen
bewegings
bewekke
bewekkers
bewenje
bewenne
bewennen
bewenner
bewenners
bewennet
bewenning
bewesten
bewiis
bewiisd
bewiisde
bewiismateriaal
bewiist
bewissige
bewissiget
bewissigjen
bewize
bewizen
bewu
bewurke
bewurking
bewurkings
bewurkje
bewurkjen
bewurkmastere
bewurkmasterjen
bewust
bewuste
bewusteleas
bewusteleaze
bewustwe
bey
beyma
beynfloede
beynfloedzje
beynfloedzjen
beyond
bezige
bf
bfi
bfvw
bg
bgl
bha
bi
bia
bianca
bianchi
biatlon
bibel
bibelboek
bibelboeken
bibeloersetting
bibels
bibelsk
bibelske
bibelwittenskippers
bible
bibleteek
bibletekaris
bibleteken
bibliografy
biblioteek
bibliotheek
bidde
bidden
biden
bidler
bidt
bie
biede
bieden
biedt
biedwurd
bien
bier
bierbrouwerij
bieren
bieruma
biesheuvel
biff
big
bigfoot
biggs
bighorn
biisbosk
bij
bijbel
bijbelgenootschap
bijbelstichting
bijdrage
bijdragen
bijen
bijl
bijlsma
bikiny
bilbo
bilderdijk
bildt
bildts
bildtse
bile
biljerten
bilker
bill
billboard
billie
billy
bilo
bilt
bilthoven
biltsk
biltske
bin
binde
bindeleden
bindes
bine
binen
bing
bingalen
bingen
bining
binkes
binks
binne
binnen
binnendoar
binnendoarse
binnenfeart
binnenho
binnenkant
binnenkrongen
binnenla
binnenplak
binnensee
binnenste
binnenu
binnenwetter
binnenyn
binnert
binnes
bio
biograaf
biografie
biografisch
biografy
biografyen
biografysk
biografyske
biography
biology
biologysk
biologyske
biolooch
bioskoop
bioskooppublyk
bioskopen
biotoop
biotopen
bir
bird
birds
birma
birmeeske
birmingham
birthday
bis
bisdom
bisdommen
biseksueel
bishop
biskaje
biskop
biskoplik
biskoplike
biskoppen
biskopssit
biskopstsjerke
bismarck
bissau
bisschop
bissonette
bist
biste
bistedokter
bisten
bistesoarte
bistesoarten
bistetu
bistke
bistkes
bit
bite
biten
bitgum
bitgummole
bitter
bittere
bizarre
bizon
bizonfa
bizons
bjirk
bjirken
bjo
bjuster
bla
blaast
black
blackburn
blackway
blade
blair
blake
blanc
blanche
blank
blanke
blanken
blaricum
blau
blaudrukken
blaue
blauhu
blauw
blauwe
blaze
blazen
ble
bleat
bleate
bleatlein
bleatsteld
bleau
bleaun
bleaune
bleaunen
bleauwen
bleek
bleeker
bleeth
bleken
blesdike
blesse
blessuere
blessum
bleu
bliek
blieken
bliid
blije
blijham
blik
blike
bliken
bliksem
bliksemynslach
blind
bline
blinen
bliss
bliuw
bliuwe
bliuwen
bliuwend
bliuwende
bliuwt
blixen
blo
bloch
block
blocq
bloed
bloedbad
bloedferjitten
bloedfetten
bloedich
bloedige
bloei
bloeide
bloeiende
bloeit
bloeitiid
bloem
bloemen
bloemendaal
bloemfontein
blofeld
blok
blokhu
blokhutte
blokjes
blokkade
blokkearre
blokken
blokker
blokmies
blom
blomkamp
blomle
blommen
blond
blonde
blondes
blood
bloody
bloom
bloomsbury
blu
blue
blues
bluff
bluodderich
bluodderige
blydskip
blyk
blykber
blykt
blykte
blyn
bm
bo
boadskip
boadskippen
boadskipper
boadskippers
boaiem
boal
boalsert
boalserter
boarch
boarchgreve
boarchtocht
board
boargemaster
boargemasters
boargemasterskip
boargen
boarger
boargerbefolking
boargerij
boargerkriich
boargerlik
boargerlike
boargeroarloch
boargeroarloggen
boargerrjochtebeweging
boargerrjochten
boargers
boarkum
boarn
boarnburgum
boarne
boarnen
boarnsterhim
boarnwert
boarst
boarstbyld
boarsten
boarstesjenre
boarstfergruttingsoperaasje
boarstkanker
boartersguod
boarterstu
boartsje
boartsjen
boasaardige
boaske
boasket
boaskje
boat
boaten
boates
boatsje
boatsjes
boaze
boazum
bob
boba
bobby
bobslydzjen
bocht
bochten
bock
bockema
bod
bode
bodhi
body
boe
boech
boeda
boedapest
boedisme
boedistyske
boeiens
boeing
boek
boekarest
boekba
boekdrukkeunst
boeke
boeken
boekerij
boekewikegeskink
boekfoarm
boekha
boekhannel
boekhanneler
boekhannels
boekje
boekjes
boekro
boekt
boekte
boel
boele
boelens
boelensloane
boeles
boer
boerd
boerdspul
boere
boeren
boerepleats
boeresoan
boerespultsje
boerespultsjes
boerestreek
boergonden
boergondyske
boergonje
boergonjers
boerinne
boerkina
boersma
boeru
boerum
boete
boezem
bog
bogaard
bogart
bogerman
boggs
bogota
bohemen
bohmers
bohr
bois
boise
bok
bokke
bokma
boko
boksen
bokser
bokstel
boksum
bol
boleyn
bolfoarmige
boli
bolivia
bolle
bollen
bologna
bolsjewiken
bolsjewistyske
bolta
bolton
bolwurk
bolwurken
bom
bomans
bombardearjen
bombardearre
bombardemint
bombardeminten
bombay
bomen
bommel
bommen
bommesmiter
bommesmiters
bomoanslach
bomoanslaggen
bon
bonann
bonaparte
bond
bondel
bondele
bondels
bone
bones
bonga
bonham
bonifatius
bonifatiustsjerke
bonke
bonken
bonkerak
bonn
bonne
bonnema
bonnie
bonosus
bontebok
bontekoe
bonus
boobpedia
book
books
boom
boomsma
boon
boonstra
boorsma
boot
booth
bootsma
boov
boppard
boppe
boppebou
boppedat
boppefamylje
boppeferdjipping
boppegru
boppekant
boppeklasse
boppekruier
boppelaach
boppemar
boppemarder
boppeminsklike
boppen
boppenatuerlik
boppenatuerlike
boppeneamde
bopperin
boppeseal
boppeskift
boppeslach
boppeste
boppesteande
boppetsjerke
bor
bordeaux
bordeel
bordelen
border
borders
bordewijk
borg
borger
borges
borgesius
borgia
boris
born
borneo
bornmeer
boromir
borough
boroughs
borsato
borst
bos
bosatlas
bosch
boschma
bosk
boskbou
boskbrannen
bosken
boskgebiet
boskjes
boskmoanne
boskmu
boskra
bosley
bosma
bosman
bosnje
bosnysk
bosnyske
bosporus
boss
bosses
boston
boswell
bot
botanikus
botany
botanyske
both
botke
botnia
botsing
botswana
bottas
botte
bottema
bottom
bou
boucher
boud
boude
bouden
boudewijn
boudewyn
bouhoeke
bouillon
boujier
bouke
boukeunst
boukunde
boukundich
boula
boulevard
boulogne
bouma
boumantsje
boumaster
boumasters
boumateriaal
boumaterjaal
boun
bounty
bouricius
bourke
bourne
boustyl
bout
boutiid
bouvier
bouwe
bouwen
bouwer
bouwers
bouwman
bouwmeester
bouwurk
bouwurken
bouyer
boven
bow
bowie
bowl
bowman
box
boy
boycot
boyd
boyl
boyle
boys
bozeman
br
bra
braak
braba
brabant
brad
bradford
bradley
bradshaw
brak
brakel
bram
bran
branch
brand
brandaan
brandenboarch
brandenburch
brandenburg
brando
brandon
brands
brandsma
brandt
branje
brannen
brantgum
bras
brassband
bratislava
braun
braunschweig
brave
bray
brazil
brazyljaansk
brazyljaanske
brazylje
brazzers
bre
brea
break
breakfast
breaking
brechje
brecht
breda
brede
bredepleats
breder
bredere
bredero
brederode
bree
breed
breedste
breedte
breedtegraad
breid
breide
breidspear
breidsskat
breidzje
brein
breinroer
breinroere
brek
brekfallich
brekfallige
brekke
brekken
brekking
brekme
brekt
bremen
bremer
bremerhaven
bren
brenda
brendan
brenner
brent
breslau
brest
bretagne
bretanje
breteler
bretoneila
bretonsk
bretonske
brett
breukelen
breuker
breunswyk
brewster
brezjnev
brian
bride
bridge
bridges
bridget
bridgette
briede
brieden
briedfu
briedgebiet
briedt
briedtiid
brief
briefkerij
briek
brieken
brielle
brien
brieven
brigade
brigadegeneraal
brigadier
briggs
bright
brighton
brigitte
brij
bril
brill
bring
bringe
bringen
bringt
brink
brinkman
brisbane
bristol
brit
britain
britannia
british
britney
britsk
britske
britsum
britswert
brittanje
brittany
britten
bro
broadcasting
broadway
broccoli
brocht
brochte
brochten
brody
broek
broeksterwa
broer
broers
broersma
brok
broken
brokstikken
brolsma
bromfytsen
bron
bronte
bronx
brood
brook
brooke
brooklyn
brooks
bros
brosjuere
brosjueres
brosnan
brother
brothers
broud
brouwer
brouwerij
brouwers
brown
browning
bru
bruce
brug
brugge
bruggen
brugman
brugmans
bruien
bruijn
bruin
bruine
bruins
bruinsma
brulee
brulloft
brulloften
bruna
brune
bruno
brunswick
brunswyk
bruorren
bruorskip
brus
brusse
brussel
bruto
bruts
brutsen
brutus
bryan
bryant
bryce
bryfke
bryson
brytoanyske
bs
bu
bubo
buchan
buchenwald
buck
buckingham
buckinghamshire
bud
buddy
budget
budzjet
buena
buenos
bueren
buert
buerten
buffalo
buford
bugel
building
buis
buisman
buiten
buizen
bujold
bul
bulgaarsk
bulgaarske
bulgaren
bulgarije
bull
bullet
bulletin
bulls
bult
bulte
bulten
bulthuis
buma
bunde
bundel
bunder
bunker
bunkers
bunnik
bunny
bunschoten
buorden
buorfrou
buorke
buorkerij
buorkerijen
buorkjen
buorkundich
buorla
buorlannen
buorlju
buorman
buorren
buorskip
buorskippen
burbank
burch
burchwert
burd
burdaard
bureau
buren
burg
burgemeester
burgen
burgenland
burger
burgers
burgess
burgh
burgum
burgumer
burke
burmania
burmaniahu
burn
burnett
burning
burns
buro
burokrasy
burr
burrard
burroughs
burt
burton
bus
busch
bush
business
buske
busken
buskru
busline
bussen
busstasjon
bussum
buster
busty
but
butcher
buteo
butler
butte
butters
buttes
button
butts
buwalda
bv
by
byboud
bybrocht
bychtet
bydrage
bydragen
bydroech
bydroegen
bye
byelkoar
bygebouwen
bygelyks
byha
byhearrende
byholden
byi
byinoar
bykommend
bykommende
bykomt
byla
byld
bylden
byldestoarm
byldhoukeunst
byldhouster
byldhouwer
byldhouwers
byldhouwurk
byldhouwurken
byldmateriaal
byldsje
byldskerm
byldzjend
byldzjende
byleauwe
bylu
bynamme
bynammen
byneamd
bynt
byp
byrd
byrol
byrollen
byron
byset
bysk
bysta
bystien
bysu
byt
bytiden
bytsje
bywe
bywenne
bywurd
bywurdlike
bywurke
byzantinen
byzantium
byzantsium
byzantynsk
byzantynske
c
ca
caballe
caballero
cable
cabot
cade
caen
caesar
caesarea
cafe
cage
caine
caitrin
cajeiri
calais
calamity
cale
calgary
calhoun
cali
calidris
california
call
callahan
called
callophrys
calrissian
calvados
calvert
calvin
cambridge
cambuur
came
cameo
camera
cameron
camille
cammingha
camp
campaign
campbell
campen
camper
campert
camping
campo
campus
camstra
camus
can
canada
canadensis
canadian
canal
canberra
canby
candy
canis
cannes
cannon
cannonball
canter
canterbury
canto
cantos
canyon
cap
cape
capital
capitol
capone
cappella
captain
car
cara
caravaggio
caravan
card
cardiff
cardinal
cards
care
carel
carex
carey
caribbean
carl
carla
carlin
carlisle
carlo
carlos
carlson
carlton
carmen
carnegie
carnehan
carnivora
carol
carolina
caroline
carolus
carotta
carpenter
carr
carre
carrera
carrick
carrie
carrington
carroll
carry
cars
carson
carter
cartoon
cartoonist
carver
cary
casa
casablanca
cascade
cascades
case
casey
cash
casimir
casino
caspar
casper
cassandra
cassell
cassian
cassidy
cassius
cast
castelein
castellum
casting
castle
castro
cat
catalina
catawba
catch
cate
catharina
cathedral
catherine
catholic
cato
cats
cattle
cave
cavendish
cazaril
cazemier
cbs
cbtb
cc
cd
cda
cdu
ce
cecil
cecilia
cedar
cedric
cees
celeste
celle
celsius
celtic
cemetery
census
cent
center
centraal
central
centre
centrum
century
cerezo
cersi
cesar
cev
ch
cha
chabarovsk
chad
chalion
chamberlain
champion
champions
championship
chan
chance
chancellor
chanel
chang
change
changes
channel
chapel
chaplin
chapman
chapter
char
character
charadrius
charaxes
charcot
charity
charkov
charlaine
charles
charleston
charley
charlie
charlotte
charlottenburg
charlton
chartres
chase
chattanooga
chaucer
chbonke
chbouwer
chdier
chdieren
che
chechik
chekov
chelsea
chen
cheney
cher
cherokee
cherry
cherryh
cheshire
chester
chevalier
chewbacca
cheyenne
chi
chicago
chiche
chick
chicken
chief
chiesa
chiffre
child
children
china
chinese
chip
chippewa
chirrut
chisolm
chivington
chje
chlein
chlizzing
chloe
cho
choice
chow
chr
chris
christ
christchurch
christelijke
christen
christi
christiaan
christian
christie
christina
christine
christmas
christoffel
christoph
christopher
christus
christy
chronicle
chronicles
chs
chslimme
chstringdieren
cht
chte
chu
chuck
church
churchill
chwei
chwurk
chy
ci
cia
ciconia
cincinnati
cindel
cine
cinema
circle
circuit
circus
cities
citizen
city
ciudad
civil
ck
cke
cken
cker
claerbergen
claes
clair
claire
clan
clancy
clans
clant
clapton
clara
clare
clarence
clark
clarke
clash
class
classic
classical
classics
claude
claudia
claudio
claudius
claus
clay
clayton
cle
clear
clearwater
clemens
clement
clermont
cleveland
cliff
clifford
clint
clinton
clive
clone
clones
close
cloud
clover
clown
club
clubjenna
clyde
cm
cnn
co
coa
coach
coast
coat
cobain
cobra
coca
cochem
cock
cockpit
coco
code
codex
cody
coe
coehoorn
coen
coevorden
cohen
cola
cold
cole
coleman
colin
coll
collected
collection
collector
college
collin
collins
colmjon
colmschate
colonia
color
colorado
colt
coltrane
columba
columbia
columbus
com
comanche
comarca
come
comeback
comedy
comenius
comes
comic
comics
coming
command
commercial
commission
committee
common
commons
commonwealth
communications
community
compagnie
companion
company
compie
complete
complex
compton
computer
comte
comyn
con
conan
concert
concord
concordia
confederation
confederations
conference
congress
coningh
connecticut
connell
connery
connexxion
connie
connor
conny
conqueror
conrad
conscience
constable
constance
constant
constantijn
constantin
constantine
contact
contemporary
contes
contra
control
convention
coo
cook
cooke
cool
cooper
cop
copa
copperfield
coppola
copy
cor
cora
corbie
cordelia
cork
corneille
cornelia
cornelis
cornelius
cornick
cornwall
corporation
corps
corpus
corrie
corstius
corte
cortez
coruscant
corvey
corvus
costa
costello
coster
costner
cotton
could
coulon
council
country
countrymuzyk
countrysjonger
countrysjongster
county
countys
couperus
courage
courant
court
courte
courtney
cove
coventry
cover
covere
covers
covid
coward
cowboy
cowboys
cowl
cox
coyote
cp
cpn
crack
crackstate
craig
crait
crane
crash
crawford
crazy
cre
cree
creed
creek
crew
cricetidae
cricket
cricketer
crime
criminal
crispin
critics
croft
croix
cromwell
crone
croods
crook
crosby
cross
crossing
crossover
crow
crowd
crowe
crown
crows
crowther
cruijff
cruise
cruz
cry
crystal
cs
csb
csi
ctor
cu
cubs
cult
cultural
culture
cultuur
culver
cum
cumberland
cunha
cuoco
cup
cuperus
curie
curly
curse
curtis
curtiss
cushing
custer
cut
cuthbert
cuvier
cuxhaven
cuypers
cv
cy
cyborg
cycle
cygnus
cynthia
czerneda
d
da
daagjen
daai
daalks
daam
daan
daar
daasje
dabi
dachau
dada
dadai
daddy
daer
dafrikaansk
dafrikaanske
dag
dagblad
dagboek
dage
dagen
dagenlang
daget
dagge
dagobert
dahl
dai
daily
dairy
daisy
dak
dakken
dakleas
dakota
dakpannen
dakruter
dal
dalai
dale
dalen
dali
daliks
dallas
dalles
dalmaasje
dalton
dam
damaskus
dame
damen
damerikaanske
dameron
dames
damjen
damme
dammen
dammer
damon
damsterdjip
damwa
dan
dana
danann
dance
dancer
dancing
dane
danes
danger
dangerous
dani
danich
danie
daniel
daniels
danjaq
dankert
dann
danny
dans
dante
dantumadiel
dantumawa
danzig
daphne
dappere
dar
dardanellen
dargis
dari
darius
darja
dark
darkest
darkness
darling
darmstadt
darth
darwin
das
dassault
dassen
dat
data
databank
database
date
datearje
datearjend
datearjende
datearre
datearret
datearring
datoangeande
datselde
datseldichste
datum
daudet
daughter
dave
davenport
david
davids
davidson
davies
davis
davos
daw
dawn
dawson
day
daylight
daylights
days
dbnl
dbroek
dc
dd
ddel
ddr
de
dea
deabenaud
deacon
dead
deade
deaden
deadet
deadien
deadlik
deadlike
deadline
deadly
deadpool
deadsoarsaak
deadsstjer
deadwaan
deadwood
deadzje
deadzjen
deafu
deakiste
deal
deamakke
dean
dear
dearinnende
dearsum
deasjit
deasjitte
deasketten
deaslein
deast
deasten
deastkant
deastlik
deastlike
deastraf
death
deathmetalband
debat
debatten
debbie
deborah
debu
debutearre
deceiver
december
deck
decker
dedzjum
dee
deeglik
deel
deelen
deelstra
deen
deensk
deenske
deep
deer
defender
definie
definiearre
definitive
definityf
definsje
definysje
definysjes
deftige
degli
degradearre
degree
dei
deible
deiboek
deiboeken
deilis
deilisskip
deiljocht
dein
deinum
deis
deiske
deiskema
deistich
deistige
dejinge
dejingen
dek
dekaan
dekama
dekema
dekemastate
deken
dekken
dekker
dekking
dekloft
deko
dekoraasje
dekoraasjes
dekorative
dekorearre
dekreet
dekru
dekt
del
delaware
delawe
delbe
delegaasje
delfal
delfsyl
delft
delfy
delgeande
delgong
delhelle
delhi
delikt
delkaam
delkomme
delkommen
delkomt
dell
della
delle
dellein
delling
dellingen
dellings
dellizze
delon
delset
delsette
delsetten
delsetting
delsettingen
delsettings
delsketten
delslaan
delslach
delslein
delstoart
delstoarte
delstoarten
delta
delte
dem
demand
demetrius
demintens
demjanjuk
demo
demoanen
demoanyske
demokraat
demokrasy
demokraten
demokratysk
demokratyske
demon
demonreach
demonstraasje
demonstraasjes
demonstranten
den
denaarje
denali
dendarii
dene
denemark
denemarken
denen
denis
denise
dennis
denominaasje
denominaasjes
denton
denver
denzel
deo
depart
departemint
departeminten
department
deportaasje
deportearre
depot
depresje
depresjes
depressiviteit
deputearre
deputearren
der
derby
derde
derefter
derefteroan
derek
derfan
derfoar
derhinne
derk
dermei
dernei
dero
deroan
deroer
derom
deromhinne
derop
derta
dertroch
deru
derudio
deryn
des
descartes
desdemona
deselde
desennia
desennium
desersje
desert
desertearre
design
designated
desimber
desire
desius
desjima
desmarest
desmond
desolation
despicable
dessau
destiids
destiidske
destiny
destroyer
desyllu
det
detail
detailhannel
detaillearre
details
detasjearre
detasjemint
detective
detektive
detektivesearje
detocht
detochten
detochtwinner
detroit
deugd
deugden
deun
deunby
deur
deus
deutsch
deutsche
deutschen
deutscher
deutsches
deutschland
deux
development
deventer
devil
devon
dewey
dexter
deze
dgrins
dhe
dholla
dhorn
dhr
dhu
di
dia
diabolic
diagnoaze
diagram
diaken
diakonessehu
diakrityske
dialekt
dialekten
dialektgroep
dialogen
dialooch
diamant
diamanten
diameter
diamond
diamonds
diana
diane
diary
diaspora
diaz
dich
dicht
dichtbondel
dichtbondels
dichte
dichter
dichteres
dichteresse
dichterlike
dichters
dichtkeunst
dichtsjen
dichtwurk
dick
dickens
dickinson
dictionary
diderik
dido
die
died
dieden
dieder
diederik
dieders
dieet
dief
diego
diel
dield
dielde
dielden
diele
dielen
dielgebieten
dieling
dielnaam
dielname
dielnimme
dielnimmende
dielnimmer
dielnimmers
dielnommen
diels
dielsteat
dielsteaten
dielt
dieltsjes
diemen
dien
diene
dienen
dienst
diep
dier
dieren
dieretu
dierlik
dierlike
dies
dietrich
dietz
dieuwke
dieven
diever
dieverij
diez
difyzje
difyzjes
dige
diggelguod
digitaal
digital
digitale
dij
dijk
dijkstra
dijon
dik
diken
dikke
diktator
diktatoriale
diktatuer
diktee
dilemma
dillenburg
dimitri
dimpt
dimpte
dimter
din
dina
diner
ding
dingen
dingsboat
dinner
dino
dinosaurie
dio
diokletianus
diomedes
dion
dionigi
dionysius
dionysus
diploma
diplomaat
diplomasy
diplomaten
diplomatike
dir
dirck
direct
director
direksje
direkt
direkte
direkteur
direktrise
dirigint
dirk
dirks
dirty
dis
discjockey
discovery
diselmotor
diskear
diskografy
diskriminaasje
diskusje
diskusjes
diskwalifisearre
disney
displaystyle
disposysje
dissertaasje
dissidint
dissipels
dissipline
dissiplines
distiid
distribu
distribue
distributeur
distribution
district
distrikt
distrikten
dit
ditions
ditmar
ditzum
divine
division
dixon
dize
dizenich
dizenige
dizze
dizzen
dj
djip
djipdro
djipgong
djippe
djipper
djippere
djipste
djipte
djiptepunt
djoer
djoerder
djoere
djoerste
dkant
dkoreaansk
dkoreaanske
dkust
dl
dlaren
dlik
dlike
dliken
dliker
dlikheid
dlikste
dln
dmitri
dmitrov
dna
dnjepr
do
doalert
doanjewersta
doanjum
doar
doardt
doareste
doarnik
doarp
doarpelingen
doarpen
doarpke
doarpkes
doarpsbelang
doarpsbewenners
doarpsfeest
doarpsgebiet
doarpsgesicht
doarpsgesichten
doarpshu
doarpskearn
doarpskrante
doarpsstrjitte
doarpstsjerke
doarpswapen
doarren
doaske
dobbe
doc
doch
dochs
docht
dochter
dochterke
dochters
dochteru
doctor
document
dodge
dodo
doe
doede
doedestiden
doedestiids
doedestiidske
doedt
doek
doeke
doeken
doeksen
doel
doele
doelen
doelfoarm
doelgroep
doelpunt
doelpunten
doelstelling
doelstellings
doelwyt
doen
doer
doerle
does
doesburg
doet
doetiid
doetiids
doetiidsk
doetiidske
doetinchem
doezum
dog
doge
dogge
dogma
doherty
dokkum
dokkumer
dokkumersk
doksaal
dokter
dokters
doktor
doktoraal
doktoraat
dokumint
dokumintaasje
dokumintaasjesintrum
dokuminte
dokumintearre
dokuminten
dol
dolea
dolf
dolfinen
doll
dollar
dollars
dollart
dolle
dolls
dolly
dolsterhuzen
dolte
dom
domein
domeinen
domela
domenico
domesday
domestisearre
domina
dominant
dominante
dominearre
dominee
domingo
domini
dominika
dominikaanske
dominikanen
dominion
dominique
domino
dominy
domitianus
domme
domp
domtsjerke
don
donald
donatus
donau
donetsk
dong
dongen
dongeradiel
donia
donker
donkerbroek
donkere
donna
donnie
donovan
donskoj
doocht
dood
dooku
doolittle
doom
doon
doop
doopfont
doophek
doopkapel
doopt
doopte
door
doorman
doorn
dop
dope
doper
doperske
dopertsjerke
doping
dopname
dora
dorcel
dorchester
dordrecht
dore
doreste
doris
dorothea
dorothy
dorp
dorset
dortmund
dorus
dory
dos
dosearre
dosint
dosinte
dosinten
dossier
dossiers
dostojevski
douard
double
doubleday
doug
dough
douglas
douglass
douma
doutzen
douwama
douwe
douwes
douwstra
dove
dover
dowen
dowestien
dowestiennen
down
download
doyle
dozois
dpoal
dpunt
dr
dra
draacht
draachtiid
draaft
draai
draaibre
draaid
draaide
draaiden
draaie
draaien
draaiende
draait
draak
dracht
drachten
drachtster
dracula
draft
drage
dragen
drager
dragers
drago
dragon
dragons
drait
drake
draken
drama
dramafilm
dramarige
dramasearje
dramatysk
dramatyske
drank
dranken
drave
draven
dravot
drax
dre
dream
dreame
dreamen
dreams
dreamt
dreamweaver
dreamworks
dreau
dreaun
dreaune
drebbel
dreech
drees
drege
dreger
drek
drekt
drenthe
drentse
dresden
drew
drie
driebergen
dries
driezum
driezumer
drift
drige
drigen
driget
driging
driigje
driigjende
drijber
drinke
drinken
drinkt
drinkwetter
drinte
drintsk
drintske
drip
drippen
driuwe
driuwen
driuwend
driuwende
driuwt
driuwwa
drive
driver
dro
droech
droegeham
droegen
droids
drok
drokke
drokste
drokte
dromen
drone
dronk
dronken
dronkenskip
dronryp
droom
drost
drs
dru
drug
drugs
drugshannel
drui
druk
drukke
drukken
drukker
drukkerij
drukt
drukte
druktechnyk
drummer
drummond
drums
drusus
druven
drylts
dryste
ds
dsb
dsee
dsfilm
dsgre
dside
dsje
dsjes
dskleur
dsm
dsmixing
dsmontaazje
dsteat
dsteaten
dt
du
dualisme
dublin
dubois
dubrovnik
duck
duckworth
duco
dudu
due
duel
duerstede
duerswa
duet
duim
duin
duinen
duisburg
duisenberg
duke
dukes
dumas
dume
dumfries
dunbar
duncan
dundee
dunegea
dunen
dunkirk
duo
duology
duomo
duorje
duorjend
duorjende
duorre
duorren
duorret
duorsum
duorsume
duorsumens
dur
durch
durham
durk
durks
dus
dust
dusty
dutch
dutsen
duval
duveke
duvel
duvela
dvd
dvina
dwa
dwaan
dwaande
dwayne
dwe
dwerch
dwerchplaneet
dwerchu
dwergen
dwers
dwersfluit
dwersskip
dwest
dwesten
dwestgermaanske
dwesthoeke
dwesthoeksk
dwestkant
dwestkust
dwestlik
dwestlike
dwight
dy
dyas
dyjinge
dyjingen
dyk
dykgraaf
dykhurdfytsen
dykstra
dylan
dyn
dynamo
dynamyt
dynasty
dynastyen
dyrdek
dyselde
dyselden
dyseldichste
dyske
dz
dzje
dzjebeurs
dzjen
dzjes
dzjetiid
dzjibu
e
ea
each
eachje
eachpunt
eachtsju
eadu
eagen
eagle
eagles
eagmaryp
eagum
ealahuzen
ealfrouwe
eallju
ealman
ealstiennen
ealsum
eangst
eangstme
eanjum
ear
earbetoan
eardat
earder
eardere
eare
eareboarger
earedifyzje
earedoktoraat
earelid
earen
earetitel
earetsjinst
earetsjinsten
earfol
earfolle
earhart
earik
earizer
earjen
earjuster
earl
earlellen
earlik
earlike
early
earm
earme
earmen
earmere
earmhu
earmoed
earmoede
earmoedegrins
earmoedige
earms
earn
earne
earnen
earnewa
earnst
earnstich
earnstige
earp
earrebarre
earring
earst
earste
earsten
earstfolgjende
earstoan
eart
earth
eartiids
eartiidske
eask
easke
easken
easket
easkje
easkjen
east
eastblok
eastdongeradiel
eastein
easten
eastenrikers
eastenryk
eastenryksk
eastenrykske
easter
easterbierrum
easterein
eastergoa
easterlittens
eastermar
eastern
easternijtsjerk
eastersee
eastersk
easterske
easterwa
easterwierrum
eastfrankyske
eastfriezen
eastfront
eastfrysk
eastfryske
eastfrysla
eastgrins
easthim
eastkant
eastkust
eastlik
eastlike
eastliker
eastlikste
eastman
easton
eastromeinske
eastrum
eastsee
eastside
eaststellingwerf
eastwood
eastyndyske
easy
eat
eb
ebenezar
eberhard
ebert
ebro
ec
echo
echt
echte
echter
echternach
eckhart
economic
ed
edam
edda
eddie
eddy
ede
edele
edelman
eden
edgar
edge
edgerly
edi
edikt
edinboarch
edinburch
edinburgh
edison
edith
edition
edmond
edmonton
edmund
edo
edouard
eds
eduard
eduardo
education
edukative
edvard
edward
edwardeila
edwards
edwert
edwin
edysje
edysjes
edzard
ee
eed
eeden
eefkes
eeghen
eekhof
eekhoff
eelco
eelde
eelke
eelkje
eeltsje
eem
eemnes
een
eendracht
eene
eenige
eens
eer
eerste
eeuw
eeuwen
efeze
efezie
effects
effekt
effekten
effektive
effektyf
effen
effisjint
efkes
efter
efterbleaun
efterbleaune
efterbliuwt
efterdoar
efterelkoar
efteren
efterfolge
efterfolgers
efterfolget
efterfolging
efterfolgje
eftergru
efterheaksel
efterheljen
efterhelle
efterinoar
efterkant
efterla
efterliet
efterlit
efterlitte
efterlitten
efterlizzende
efternamme
efternammen
efterneef
efternei
eftero
efteroan
efteroer
efterop
efterpoaten
efterside
eftersta
efterste
efteru
efteryn
eftich
eftige
eftigen
egbert
egberts
egeyske
eggsy
egmond
egmont
ego
egoi
egypte
egyptners
egyptysk
egyptyske
ehiru
ei
eichmann
eider
eiderstedt
eifel
eiffeltoer
eigen
eigenaresse
eigendom
eigendommen
eigene
eigener
eigeners
eigenhandich
eigennamme
eigenskip
eigenskiplik
eigenskippen
eigenskipswurd
eigentlik
eigentlike
eight
eigner
eigneresse
eigners
eila
eiland
eilannegroep
eilannekloft
eilannen
eilanners
eilantsje
eilantsjes
ein
einar
einbeslu
einde
eindhoven
eine
einekoai
eineksamen
eineksamens
einen
einer
eines
einfu
einige
einigen
einiget
einigje
einigjen
einklassemint
einlik
einliks
einlings
einpunt
einredakteur
eins
einstein
einstreek
eintsje
eise
eisenach
eisenhower
eisenstadt
eisinga
eisma
eisner
ejakulaasje
ek
ekaterin
eken
eklektyske
ekology
ekologyske
ekonomy
ekonomysk
ekonomyske
ekonoom
ekosysteem
eks
eksakte
eksamen
eksamens
ekseku
eksekutearre
eksimplaar
eksimplaren
eksintrike
eksklave
eksklusive
eksklusyf
eksmoarre
eksoat
eksoatyske
ekspa
ekspe
ekspedysje
ekspedysjes
eksperimint
eksperimintearre
eksperiminteel
eksperimintele
eksperiminten
eksplisyt
eksploazje
eksploitaasje
eksploitearjen
eksploitearre
eksplosive
eksplosiven
eksplosyf
eksport
eksportearre
eksposearre
eksposysje
eksposysjes
ekspres
ekspresjonisme
ekspresjonistyske
ekster
eksterieur
eksterne
ekstra
ekstreem
ekstreme
ekstremistyske
ekwador
ekwatoriaal
ekwifalint
ekwivalint
ekwivalinte
el
elaine
elbe
elburch
eleanor
electra
electric
elegant
elegante
elektoraat
elektra
elektrisiteit
elektro
elektroanen
elektroanika
elektroanysk
elektroanyske
elektromagnetyske
elektron
elektrysk
elektryske
element
elemint
eleminte
eleminten
elena
eleo
elephant
elf
elfke
elfkes
elfkestof
eli
elias
elie
elijah
elikser
eliot
elisabet
elisabeth
elise
elite
eliza
elizabetaanske
elizabeth
elizaveta
elk
elke
elkenien
elkoar
ell
ella
elle
ellen
ellie
ellinde
elliot
elliott
ellis
elrod
els
elsa
else
elsevier
elske
elslo
elsschot
elst
elton
elts
eltse
eltsenien
elum
elven
elvis
ely
elzas
em
emansipaasje
emanuel
emanuelle
emberiza
embleem
embryo
emden
emeritaat
emeritus
emerson
emi
emigraasje
emigranten
emigrearre
emigrearren
emil
emile
emilia
emilio
emily
eminga
emir
emiraat
emiraten
emma
emmanuel
emmanuelle
emmeline
emmeloard
emmen
emmius
emmy
emoasje
emoasjes
emosjoneel
emosjonele
emperor
empire
emppu
ems
en
encyclopedia
encyclopedie
end
ende
endor
enemy
energy
enerzjy
enerzjyskyld
enforcer
enfys
eng
engel
engelbert
engelen
engelenfeart
engels
england
english
enige
enke
enkele
enklave
enklaves
ennio
enno
enoarm
enoarme
enoch
enough
enrique
enris
ens
ensafh
ensafuorthinne
ensemble
ensfh
ensyklopedy
ensyklyk
entente
enterprise
enterprises
entertainment
entertainmentyndustry
entiteit
entu
eo
eon
ep
epidemy
epilooch
episoade
episode
epitaaf
epo
epos
eppie
epysk
epyske
equalizer
er
era
erasmus
erch
erchtinkend
erdige
erebia
ereksje
erf
erfde
erfenis
erfgenamt
erfgenamte
erfgenamten
erfgoed
erflik
erflike
erfopfolging
erfskip
erft
erfurt
eric
erica
erich
erik
erika
erikson
erin
erithacus
eritrea
erkend
erkende
erkenden
erkenne
erkennen
erkenning
erkent
erlko
erminea
ernest
ernesto
ernie
ernst
eroatysk
eroatyske
eroazje
erotyk
ers
erskine
erso
erve
erven
erwin
es
escape
escher
esdras
esens
esk
eskader
eskdoarn
eskimo
esme
espan
espel
esperanto
essay
essayist
essays
essee
esseks
essen
essinsje
essinsjeel
essun
est
estacio
estafette
estaing
esteban
ester
estetyske
esther
estla
estsk
estuarium
estysk
estyske
et
eta
etanol
etappe
etappes
etc
ete
eten
eter
ethan
ethel
ethnologue
etioopje
etiopysk
etiopyske
etmiel
etna
etnisiteit
etnysk
etnyske
etrusken
etruskysk
etruskyske
etsen
etser
etyk
etymology
etymologysk
etyske
eu
eufraat
euge
eugene
eugenius
eurasian
eure
euripides
euro
eurofyzjesongfestival
europa
europaeus
europe
european
europeanen
europeesk
europeeske
europese
eusebius
eustachius
eustasius
eutanasy
euvelmoed
eva
evakuaasje
evakue
evan
evangeelje
evangeeljes
evangelisaasje
evangelist
evangelisten
evangelysk
evangelyske
evans
evanston
eve
evelyn
even
evenemint
eveneminten
evener
evenhoevigen
evening
eventue
eventueel
eventuele
eventyr
ever
everdingen
everest
everett
everhard
evers
everswyn
evert
everwinus
every
evic
evil
evolu
ewan
ewok
ewoks
ewsum
ex
excalibur
excelsior
exchange
executive
exegol
exeter
exhibition
exodus
experience
explorer
expo
express
extra
extreme
exupe
eyck
eye
eyes
eysinga
eysingastate
ez
ezau
ezechie
ezel
ezinge
ezra
f
fa
faai
faak
faaks
faam
faan
faandrich
faas
faasje
fabels
faber
fabricius
fabrikaazje
fabrikant
fabrikanten
fabriken
fabryk
face
facebook
facto
factor
factory
faero
fagina
faginale
fagot
fainne
fair
fairbanks
fairy
faith
fak
faka
fakbu
fakentiden
faker
fakgebiet
fakken
faksisme
faksisten
faksistyske
faksjuery
faktoaren
faktor
fakulteit
fakulteiten
fakuu
fakwurkhu
fal
falck
falco
falcon
falen
falens
falentinianus
falentynsdei
falk
falkena
falkirk
falkla
fall
fallaat
falle
fallei
fallen
fallende
fallene
falling
falls
fallyt
falom
falsk
falske
falstaff
falt
fam
fame
familie
family
famke
famkes
famkesnamme
famme
fammen
fampier
fampieren
famylje
famyljebedriuw
famyljefilm
famyljegre
famyljeleden
famyljelid
famyljenamme
famyljenammen
famyljes
famyljewapen
fan
fana
fanatike
fandaalske
fandalen
fande
fanfare
fang
fange
fangen
fangt
faninoar
fanke
fannijs
fanny
fano
fans
fansels
fansiden
fantasij
fantastic
fantastyske
fantasy
fantasyfilm
fantasyliteratuer
fantasyroman
fantasysjenre
fanu
fanwege
fanwegen
far
farao
fard
farde
farden
fariaasje
fariaasjes
fariant
farianten
farie
fariseee
farm
farman
farmer
farmsum
farre
farrell
farren
farru
farsk
farske
fart
fartu
farve
farwetter
farwol
fashion
fasiliteit
fasiliteiten
faso
fassinaasje
fassinearre
fast
fat
fataal
fatale
fate
father
fatikaan
fatikaanste
fatsoen
fatsoenlik
fauna
faust
favor
favorite
favoryt
fawcett
fawn
fazal
fazallen
fazalsteat
faze
fazen
fazes
fbaarnd
fbaarnde
fbi
fboud
fbraak
fbrekke
fbrekken
fbrutsen
fbyld
fbylde
fbylden
fbylding
fbyldings
fc
fdieling
fdielingen
fdielings
fdier
fdieren
fdruk
fdrukken
fe
feale
fean
feanarbeiders
feandam
feanen
feangebiet
feangebieten
feangru
feanhoop
feanhuzen
feankleaster
feankoloanjes
feanpolder
feanskieding
feanster
feanterij
feanwa
fear
fearboat
fearboaten
feardichheden
feardichheid
feare
fearen
fearhu
fearless
fearn
fearnsiuw
fearnsjier
fearren
feart
fearten
feartsjinst
feartsjinsten
feat
feature
features
febr
febrewaris
februar
februari
fecht
fedde
feddema
federaal
federaasje
federal
federale
federation
federico
fee
feefoer
feeha
feemerk
feenstra
feer
feest
feestdagen
feestdei
feesten
feestje
feestlik
feestlike
feet
fegetaasje
feike
feilich
feilichheid
feilichheidstsjinst
feilige
feiligens
feiliger
feiling
feinsum
feint
feinten
feit
feite
feiten
feith
feitlik
feitlike
feitliks
feitsma
fek
fel
feldkirch
felipe
felix
fellatio
felle
fellow
fellowship
feluwe
female
feminisme
feministe
feministyske
femke
femme
femmes
fen
feneesje
feneetsje
fenesiaanske
fenezolaanske
fenezue
fenezuela
feniks
fenisysk
fenisyske
fenlo
fenna
fennema
fennoatskip
fenomeen
fens
fenus
fenysje
fenysjers
feodale
fer
fera
ferankere
ferantwurde
ferantwurding
ferantwurdlik
ferantwurdlike
ferantwurdlikens
ferantwurdlikheid
ferba
ferbaarnd
ferbaarnde
ferbaarnen
ferballe
ferballing
ferbannen
ferbastere
ferbastering
ferbea
ferbean
ferbeane
ferbergjen
ferbettere
ferbettering
ferbetterings
ferbetterje
ferbetterjen
ferbieden
ferbiedt
ferbine
ferbinen
ferbining
ferbiningen
ferbinings
ferbiningswei
ferbittere
ferbjustere
ferbjustering
ferbleau
ferbliuw
ferbliuwe
ferbliuwt
ferbod
ferboeking
ferbou
ferboud
ferboude
ferbouwe
ferbouwen
ferbouwing
ferbouwings
ferbra
ferbrede
ferbreding
ferbrekken
ferbrekt
ferbriek
ferbru
ferbrutsen
ferbu
ferburgen
ferbylding
ferbynt
ferdield
ferdielde
ferdiele
ferdielen
ferdieling
ferdigene
ferdigener
ferdigeners
ferdigenet
ferdigening
ferdigeningsliny
ferdigeningswurk
ferdigeningswurken
ferdigenje
ferdigenjen
ferdinand
ferdivedaasje
ferdivedaasjepark
ferdivedaasjeparken
ferdjippe
ferdjipping
ferdjippings
ferdo
ferdrach
ferdrachsorganisaasje
ferdraggen
ferdreau
ferdreaun
ferdreaune
ferdriuwen
ferdriuwing
ferdronk
ferdronken
ferdu
ferdun
ferdwaalde
ferdwine
ferdwinen
ferdwining
ferdwu
ferdwynt
ferdylge
ferdylgje
ferdylgjen
fereale
fereare
ferearing
ferearjen
fereaske
fererving
ferfal
ferfallen
ferfalske
ferfalsking
ferfange
ferfangen
ferfanger
ferfanging
ferfangt
ferfarde
ferfarre
ferfarren
ferfeanting
ferfear
ferfearen
ferfearn
ferfelende
ferfette
ferfier
ferfierd
ferfiere
ferfieren
ferfiermiddel
ferfiert
ferfilme
ferfilming
ferfilmings
ferfine
ferfoel
ferfolch
ferfolchfilm
ferfolchfilms
ferfolchtrilogy
ferfolde
ferfolge
ferfolgen
ferfolgens
ferfolging
ferfolgings
ferfolje
ferfolle
ferfollet
ferfong
ferfongen
ferfrjemde
ferfrysking
fergees
fergelike
fergeliking
fergelykber
fergelykbere
fergelykjen
fergese
ferget
fergetten
fergiet
fergif
fergiftige
fergiftiging
fergilius
fergoade
fergoeding
fergrutsje
fergrutsjen
fergrutte
fergrutting
fergulde
fergunning
ferguson
ferha
ferhaal
ferhaalline
ferhaallinen
ferhalebondel
ferhalebondels
ferhalen
ferhannele
ferhanneling
ferheard
ferheardens
ferhearliking
ferheegjen
ferheffing
ferheft
ferheftige
ferhege
ferheging
ferhelje
ferheljende
ferhelle
ferhellet
ferhier
ferhierd
ferhierde
ferholpen
ferhu
ferhurde
ferhuze
ferhuzen
ferhuzet
ferhuzing
feriene
ferienfa
ferienige
ferieniging
feriening
ferienings
ferieningslibben
ferienjen
fering
ferjaan
ferjage
ferjilding
ferjit
ferjitte
ferjitten
ferju
ferka
ferkate
ferkeap
ferkeaper
ferkeapet
ferkeapje
ferkeapjen
ferkeapjende
ferkeapsifers
ferkear
ferkeard
ferkearde
ferkeare
ferkearing
ferkearsbuorden
ferkearsfleantu
ferkearsknooppunt
ferkearsu
ferkeart
ferkeatst
ferkeazen
ferkend
ferkende
ferkennen
ferkenner
ferkenners
ferkenning
ferkiesber
ferkiezing
ferkiezingen
ferkiezings
ferklaaid
ferklearje
ferklearjen
ferklearre
ferklearren
ferklearret
ferklearring
ferklearrings
ferkoarte
ferkoarting
ferkocht
ferkochte
ferkochten
ferkoft
ferkre
ferkrongen
ferkundige
ferkundiging
ferkundigingskatedraal
ferlaat
ferlamme
ferlear
ferlearen
ferlechje
ferlege
ferlegenheid
ferlein
ferlern
ferlerne
ferlet
ferliede
ferlieden
ferlieding
ferliend
ferliende
ferlienen
ferlient
ferlies
ferliest
ferliet
ferlieten
ferlieze
ferliezen
ferliezers
ferlike
ferliking
ferline
ferlingde
ferlinge
ferlinging
ferlit
ferlitte
ferlitten
ferljochte
ferljochting
ferlof
ferloofd
ferloofde
ferlosser
ferlosserkatedraal
ferlossertsjerke
ferlossing
ferlost
ferloving
ferlykber
ferlykbere
ferlykje
ferlykjen
ferlykjende
ferlyn
ferlytsingswurd
fermaak
fermaaklik
fermakke
fermanje
fermannichfa
fermeld
fermelde
fermelden
fermelding
fermidden
fermiddens
fermindere
ferminderjen
fermingen
ferminging
fermist
fermiste
fermoarde
fermoarden
fermoardet
fermoardzje
fermoardzjen
fermoede
fermoeden
fermoedet
fermoedlik
fermoedsoening
fermogen
fermogens
fermongen
fermont
fern
ferna
fernaam
fernando
ferneamd
ferneamde
ferneamdens
ferneamdste
ferneamen
ferneamste
ferneare
ferneatige
ferneatigen
ferneatiget
ferneatiging
ferneatigingskamp
ferneatigingskampen
ferneatigje
ferneatigjen
fernederjende
fernield
fernielde
fernielden
fernielings
fernijd
fernijde
fernijing
fernijings
fernimmen
fernimstich
fernimstige
fernimt
fernommen
fero
feroardering
feroardield
feroardielde
feroardielden
feroardiele
feroardielet
feroardieling
feroare
feroaren
feroaret
feroaring
feroaringen
feroarings
feroarje
feroarjen
feroarjende
feroarsaakje
feroarsaakjen
feroarsake
feroarsaken
feroarsaket
ferovere
feroveren
feroveret
ferovering
feroverje
feroverjen
ferpachte
ferpakking
ferparte
ferpartsjen
ferpleatse
ferpleatsen
ferpleatst
ferpleatste
ferpleechhu
ferpleechkundige
ferpleechster
ferpletterjende
ferplicht
ferplichte
ferplichting
ferplichtings
ferrand
ferrara
ferrari
ferrassend
ferrassing
ferrast
ferrer
ferrera
ferret
ferriden
ferrie
ferried
ferriede
ferrieden
ferrieder
ferriedlike
ferriedt
ferrier
ferrin
ferrinnewearre
ferrint
ferrizenis
ferrjochte
ferrjochtsjen
ferru
ferruile
ferry
fers
fersa
ferse
fersein
fersekere
fersekering
fersekeringsmaatskippij
fersen
ferset
fersetsbasis
fersetsfloat
fersetsgroep
fersetslju
fersetsman
fersetsminsken
fersetsstrider
fersetsstriders
fersette
fersetten
fersierd
fersierde
fersieren
fersiering
fersierings
fersiken
fersille
fersin
ferska
ferskaat
ferskate
ferskaten
ferske
ferskeidene
ferskes
ferskil
ferskilde
ferskilden
ferskille
ferskillen
ferskillend
ferskillende
ferskilt
ferskine
ferskinen
ferskining
ferskode
ferskood
ferskowing
ferskriklik
ferskriklike
fersku
ferskuorrende
ferskynd
ferskynde
ferskynden
ferskynsel
ferskynsels
ferskynt
ferslaan
ferslaat
ferslach
ferslachjouster
ferslachjouwer
ferslachjouwing
ferslacht
ferslaggen
ferslane
ferslaving
ferslein
fersleine
fersloech
fersloegen
fersmiten
fersmoarge
fersmoarging
fersnellingsbakwiksel
fersoarge
fersoargers
fersoarget
fersoarging
fersoargingshu
fersoargingsplak
fersoargje
fersoargjen
fersocht
ferspraat
fersprate
ferspraten
ferspriede
fersprieden
fersprieding
ferspriedingsgebiet
fersregels
fersta
ferstean
fersteanber
ferstedske
fersterke
fersterking
fersterkings
fersterkje
fersterkjen
fersteurd
fersteuring
ferstien
ferstienne
ferstjerren
ferstjert
ferstjoerd
ferstjoeren
ferstoar
ferstoaren
ferstoarn
ferstoarne
ferstoarnen
ferstoppe
fersu
ferswakke
fersyk
fert
fertaald
fertaalde
fertaling
fertalings
ferteld
fertelde
fertelden
fertelle
fertellen
ferteller
fertelt
fertikaal
fertikale
fertinking
fertoand
fertoande
fertoane
fertoaning
fertoant
fertocht
fertochte
fertochten
fertolke
fertolking
fertrage
fertraging
fertrek
fertrekken
fertriet
fertroud
fertroude
fertrout
fertrouwe
fertrouwen
fertsjinje
fertsjinjen
fertsjinne
fertsjinnen
fertsjinnet
fertsjinste
fertsjinsten
fertsjinstlik
fertsjintwurdige
fertsjintwurdiger
fertsjintwurdigers
fertsjintwurdiget
fertsjintwurdiging
fertsjintwurdigje
fertsjintwurdigjen
fertutearze
fertuten
feru
ferve
ferwa
ferwaarme
ferwaarming
ferwachte
ferwachten
ferwachtet
ferwachting
ferwachtings
ferwachtsje
ferwachtsjen
ferwar
ferwe
ferwerda
ferwerderadiel
ferwert
ferwidere
ferwidering
ferwiderjen
ferwiisd
ferwiisde
ferwiist
ferwikkele
ferwiten
ferwize
ferwizen
ferwizend
ferwizing
ferwizings
ferwoaste
ferwoastge
ferwoastging
ferwolkomme
ferwu
ferwulft
ferwulften
ferwuostge
ferwuostging
ferwurke
ferwurking
ferwurkje
ferwurkjen
ferwyldere
ferzen
ferzje
ferzjes
fest
festige
festigen
festiging
festing
festingste
festival
festivals
festiviteiten
fet
fetber
fete
feteraan
feteranen
fetkeapers
fett
fette
fetten
fetterman
fetysjmodel
fever
few
fey
feye
feyenoord
feytsma
ff
ffal
ffallende
ffier
ffierd
ffrede
ffreding
ffu
ffurdige
ffurdigen
fgean
fgeand
fgeande
fgie
fgien
fgiet
fgraven
fgraving
fgriis
fgroeven
fgru
fgryslik
fgryslike
fha
fhandich
fhandige
fhelle
fheuvels
fhinklik
fhinklike
fhinklikens
fhinklikheid
fhinklikheidsferklearring
fhinklikheidsoarloch
fhinklikheidsoarloggen
fhm
fi
fia
fiadukt
fiasko
fibula
fice
ficedula
fiction
fidel
fideo
fideoclip
fideoklip
fideoklips
fideospultsje
fideospultsjes
fidzjy
fieding
fiedingsstoffen
fiedsel
field
fielde
fielden
fields
fiele
fielen
fielt
fier
fierd
fierde
fierden
fierder
fierdere
fierderop
fierders
fierdersoan
fiere
fieren
fiergeande
fierhinne
fiering
fierljeppen
fierrens
fierst
fierste
fiersten
fierstente
fiert
fiertaal
fierte
fiertu
fiertugen
fierwei
fietnam
fifa
fife
fifth
fight
fighting
figuer
figueren
figuranten
figurative
figuratyf
figurearre
figures
fiif
fiifde
fiifentweintich
fiifgea
fiifhu
fiifjierrige
fiifkamp
fiiftal
fija
fijannen
fijannich
fijannige
fikaris
fiksje
fiksjeboek
fiktive
fiktoaria
fiktor
fiktoriaanske
fiktyf
filantroop
filantrope
file
files
filiaal
filip
filipinen
filippus
filips
filipynsk
filipynske
filistinen
filla
fille
film
filmakteur
filmaktrise
filmcrew
filmdebu
filmdistribu
filme
filmeditor
filmfestival
filmfestivals
filmhu
filmjen
filmke
filmkes
filmkeunst
filmkritika
filmkritikus
filmkritisy
filmmakker
filmmakkers
filmmontaazje
filmmusical
filmmuzyk
filmografy
filmpriis
filmprizen
filmprodusint
filmprodusinte
filmprodusinten
filmprojekt
filmregisseur
filmrige
filmrjochten
filmrol
films
filmsearje
filmset
filmskiednis
filmstjer
filmstudio
filmtrilogy
filmyndustry
filmynstitu
filokte
filology
filolooch
filosofen
filosofy
filosofysk
filosofyske
filosoof
fils
fin
fina
finaal
final
finale
finales
finalist
finansierd
finansiere
finansieren
finansiering
finansjeel
finansjele
finansjen
finch
finding
fine
finen
finger
fingerjen
fingers
finish
finisht
finiste
finkegea
finla
finn
finne
finnen
finsk
finske
finster
finsters
finsterwolde
finzen
finzene
finzenen
finzenis
finzenissen
finzenisstraf
finzennommen
finzenset
finzenskip
fioele
fioelist
fiolet
fiona
fire
fires
firginia
firma
first
firth
firtuele
firus
firussen
fisazjy
fischer
fise
fish
fisher
fisigoaten
fisigoatyske
fisk
fiske
fisken
fisker
fiskerij
fiskers
fiskersdoarp
fiskjen
fiskmarter
fistful
fisto
fisue
fisueel
fisuele
fisy
fit
fitamine
fitere
fiteret
fiterjen
fitness
fitus
fitustsjerke
fitz
fitzgerald
fivb
five
fivelgoa
fiver
fivers
fix
fizel
fizier
fizioen
fizioenen
fjaan
fjetnam
fjetnameesk
fjetnameeske
fjetnamezen
fjetnamoarloch
fjild
fjilden
fjildhear
fjildhospitaal
fjildmaarskalk
fjildmu
fjildmuorren
fjildnamme
fjildslach
fjildslaggen
fjildtocht
fjildtochten
fjildwachter
fjirde
fjirder
fjirtich
fjirtiger
fjirtjin
fjirtjinde
fjirtjinjierrige
fjochte
fjochterij
fjochtet
fjochtpartij
fjochtsje
fjochtsjen
fjochtsport
fjodor
fjoer
fjoergefjocht
fjoerla
fjoertoer
fjoerwapen
fjoerwapens
fjoerwurk
fjord
fjorden
fjouwer
fjouwerdielige
fjouweren
fjouwerhu
fjouwerkant
fjouwerkante
fjouwertal
fju
fjurren
fk
fkard
fkear
fkelder
fkoarte
fkoarting
fkoartings
fkomstich
fkomstige
fkundige
fl
fla
flaaks
flaamsk
flaamske
flaanderen
flaardingen
flaat
flag
flagge
flaggen
flaggeskip
flak
flakby
flakke
flakken
flakte
flakten
flam
flambeau
flame
flamingen
flamingo
flammen
flandreau
flank
flankearre
flash
flashback
flashbacks
flat
flate
flater
flaters
flatgebou
flats
flauwe
flavius
fleach
fleagen
fleanbasis
fleanberik
fleanbrevet
fleandekskip
fleandekskippen
fleander
fleanders
fleane
fleanen
fleanend
fleanende
fleanfjild
fleanfjilden
fleanmasine
fleanmasines
fleanramp
fleant
fleantu
fleantugen
flear
flearmu
fleat
flecht
flechte
flechtelingen
flechten
flechtet
flechtlingen
flechtsje
flechtsjen
flechtsjende
fleet
flein
fleis
flekke
fleming
flentrop
flesh
fleske
flesse
fletcher
fleugel
fleugeloerflak
fleugels
fleurich
fleurige
fleury
flevere
flevering
fleveringen
fleverings
flevola
flibe
fliede
flieding
fliedingsmaneuver
flier
fliet
flight
flikken
flink
flinke
flint
flinter
flinters
flintersoarte
flip
flissingen
flizze
fljocht
floara
floarida
floaris
float
flodder
flodders
floed
floeiber
floeibere
floeiend
floeistof
flok
floor
flopte
flora
florence
flores
florian
florida
floris
flot
flower
flowers
floyd
flu
fluch
fluchst
fluchste
fluezen
flugge
flugger
fluit
fluor
fly
flying
flyla
flynn
flynt
fm
fmakke
fmeitsje
fmjittings
fmonumint
fmonuminten
fn
fnaam
fname
fnimmende
fnommen
fnp
fo
foa
foar
foara
foaral
foarbeatsjerke
foarbeha
foarbeholden
foarby
foarbyld
foarbylden
foardat
foardere
foardiel
foardielen
foardoar
foardocht
foardracht
foardrachten
foardroegen
foarearst
foaren
foarfaar
foarfaars
foarfal
foarfallen
foarfe
foarferkiezings
foarfjochter
foargeande
foargevel
foargoed
foargonger
foargongers
foargru
foarha
foarhannen
foarheaksel
foarhinne
foarholle
foarhu
foarige
foarinoar
foarjier
foarju
foarkaam
foarkamen
foarkant
foarkar
foarkomd
foarkomme
foarkommen
foarkommend
foarkommende
foarkomt
foarla
foarle
foarleafde
foarlein
foarljochting
foarm
foarman
foarme
foarmen
foarmet
foarmige
foarming
foarmje
foarmjen
foarmjouwing
foarmju
foarnaamste
foarname
foarnamme
foarnammen
foarnamwurd
foarnamwurden
foarne
foarnimmen
foarnommen
foaro
foaroan
foaroanlju
foaroanman
foaroanmannen
foaroansteand
foaroansteande
foaroardielen
foaroer
foarop
foaropwurd
foarpoaten
foarpommeren
foarren
foarrie
foarried
foarrieden
foarrige
foarrinder
foarrinner
foarrinners
foars
foarse
foarseach
foarsei
foarsein
foarseit
foarsichtich
foarside
foarsitter
foarsitterskip
foarsizzing
foarsizzings
foarsjen
foarsjennings
foarsjocht
foarsjoen
foarskreaun
foarskriften
foarskyn
foarspraak
foarsprong
foarst
foarstanner
foarstanners
foarste
foarstedom
foarstedommen
foarstel
foarsteld
foarstelde
foarstelle
foarstellen
foarstelling
foarstellingen
foarstellings
foarstelt
foarsten
foarstendom
foarstendommen
foarstreek
foarstrjitte
foartiid
foaru
foarum
foarwei
foarwerp
foarwerpen
foarwurd
foarwurk
focht
fochtel
fochtelerfean
fochten
fochtich
fochtige
focke
fockema
fockens
foech
foederaty
foege
foegen
foeget
foegje
foegjen
foeke
foekje
foel
foelen
foer
foet
fok
fokaal
fokalen
fokbolle
fokke
fokkema
fokken
fokker
fokko
foks
foksen
fokt
fokus
fol
folapu
folbloed
folchoarder
fold
foldie
foldien
foldocht
foldogge
foldwaan
foldwaande
foley
folge
folgelingen
folgen
folgeren
folget
folgje
folgjen
folgjend
folgjende
folha
folio
folje
foljen
folk
folkebu
folkeferfarren
folkekundige
folken
folkert
folkertsma
folkloare
folksbibleteek
folksdu
folksferhaal
folksferhalen
folksfertsjintwurdiging
folkshegeskoalle
folkshu
folksliet
folksmu
folksmuzyk
folkspartij
folksrepublyk
folkssu
folkstelling
folkstellingsburo
folksu
folkswein
folle
follegea
follenhove
folly
follybal
follybalferiening
follyballer
follyballers
follybalster
folmacht
folmachten
folop
folsgeare
folslein
folsleine
folsleinens
foltiids
folto
folu
folume
folweardich
folweardige
folwoeksen
folwoeksene
folwoeksenen
folwoeksenens
fomoaren
fon
fonda
fonds
fonetysk
fonetyske
fong
fongen
fons
fontaine
fontainebleau
fontein
food
foods
fool
fools
foot
football
foppe
foppes
for
forbes
forbidden
force
forces
ford
foreign
foreigner
forest
forever
forge
forgotten
foriining
formaasje
formaasjes
formaat
formalisearre
formearum
formeel
formele
formule
formulearre
forster
forsyth
fort
forten
forth
forthill
fortifikaasjes
fortu
fortuna
fortuyn
forty
forum
fossey
fossile
fossilen
fossyl
foster
foswert
foto
fotoboek
fotograaf
fotografe
fotografearre
fotografen
fotografy
fotografysk
fotomodel
fotoreportaazje
fotoreportaazjes
foudgum
foundation
four
fout
fouten
fowler
fox
foxxx
fpraat
fprinte
fr
fra
fraach
fraachpetear
fraachpetearen
fraachstik
fraachstikken
fraachtekens
fraai
fraaie
frac
fracht
frachtferfier
frachtskip
frachtwein
frachtweinen
frachtweinsjauffeur
fragen
fragmint
fragmintarysk
fragmintaryske
fragminten
fraksje
fraksjefoarsitter
fral
fram
frame
fran
franc
franca
france
frances
francesca
francesco
franchise
francis
francisco
franciscus
franck
franco
franeker
frank
franken
frankenstein
frankfurt
frankfurter
franklin
frankryk
frankysk
frankyske
frans
franse
fransiskaanske
fransiskanen
fransisko
fransiskus
franz
fraser
frau
fraude
fre
freark
frearks
fred
freddie
freddy
frede
frederic
frederick
frederik
frederiksoard
fredesferdrach
fredeskonferinsje
fredestiid
fredesu
free
freed
freedom
freedsum
freedsume
freegje
freegjen
freek
freelance
freeman
freeones
freeslik
freeslike
fregat
frege
fregen
freget
freiburg
freis
freizge
frekwinsje
frenata
french
freon
freondinne
freondinnen
freonen
freonlik
freonlike
freonskip
freonskiplike
fresko
fret
frette
fretten
freud
freule
freulepartij
freya
freze
fri
frid
friday
friedrich
friend
friends
friens
fries
friesch
friesche
friese
friesen
friesisch
friesische
friesischen
friesland
frieslandcampina
frieslands
friesoythe
friespunt
friezen
friisk
frij
frije
frijer
frijers
frijfeint
frijheden
frijheid
frijheidsstrider
frijju
frijkaam
frijkommen
frijkomt
frijlitten
frijlitting
frijmakke
frijsinnich
frijsinnige
frijsprutsen
frijsteande
frijsteat
frijsteld
frijwat
frijwillich
frijwillige
frijwilliger
frijwilligers
frijwol
frin
frinne
frisia
frisian
frisiast
frisica
frisicum
frisii
frisionum
frisius
friso
frison
frit
frits
fritz
friu
frjemd
frjemde
frjemdling
frjemdlingen
frjentsjer
frjentsjerter
frjentsjerteradiel
frjentsjertersk
frl
fro
froast
frodo
froedskip
frog
from
fromme
frommes
frommeske
front
frontale
fronten
frontier
fronton
frost
frou
froubuorren
frouck
froukje
froulik
froulike
froulju
frouljus
frouljuskiesrjocht
frouljuskleaster
frouljusrjochten
frouwe
frozen
frr
fru
frucht
fruchtber
fruchtbere
fruchtberens
fruchten
fruit
frustraasje
frustrearre
fry
frysk
fryske
frysktalich
frysktalige
frysktaligen
frysla
fryslan
fryslannen
fs
fsa
fsark
fsarken
fsein
fset
fsette
fsetten
fsetting
fsettings
fsidich
fsjef
fsjoen
fsjonger
fskaat
fskaffing
fskaft
fskate
fsketten
fskie
fskied
fskiede
fskieden
fskieding
fskildere
fskrift
fslaan
fslach
fslachte
fslein
fsletten
fslu
fslute
fsluten
fslutend
fslutende
fsluting
fsnien
fspile
fspilet
fspjalte
fspjalting
fspraak
fspraakje
fspraken
fsprutsen
fsta
fstamje
fstamme
fstammeling
fstammelingen
fstammet
fstamming
fstannen
fstean
fstien
fstiene
fstiennen
fstjitten
fstudearjen
fstudearre
fsu
ft
ftanke
fte
ften
fter
ftich
ftige
fting
ftings
ftiteling
ftocht
ftombe
ftrede
ftreden
ftsjen
ftsjerke
ftwongen
fu
fuca
fuck
fuentes
fulda
fulge
fulkaan
fulkaanu
fulkanen
fulkanysk
fulkanyske
full
fuller
fun
fundearring
fungearje
fungearjen
fungearre
fungearret
funk
funksje
funksjes
funksjonaris
funksjonarissen
funksjonearje
funksjonearjen
funksjonearre
funksjonearret
funksjoneel
funksjonele
fuorre
fuort
fuortbestean
fuortbrocht
fuortby
fuortendaliks
fuortgean
fuorthelle
fuortkaam
fuortkamen
fuortkomme
fuortkommen
fuortkomt
fuortplanting
fuortplantsje
fuortset
fuortsette
fuortsettend
fuortsetting
fuortspield
fuortsterke
fuortstjoerd
fuotbal
fuotbalalvetal
fuotbalbu
fuotbalferiening
fuotbaljen
fuotbalklub
fuotbalklup
fuotballe
fuotballer
fuotballers
fuotbalspiler
fuotbalstadion
fuotbalteam
fuotbaltiim
fuotbaltrainer
fuotbaltrener
fuotfolk
fuotgongers
fuotleasten
fuotljocht
fuotten
fur
furd
furde
furdgum
furiosa
fury
fusearre
fusearren
fusillearre
future
fw
fwachting
fwar
fwe
fweefd
fweeft
fwettering
fwetteringsgebiet
fweve
fwiisd
fwiisde
fwikend
fwikende
fwiking
fwikings
fwiksele
fwikseljend
fwizing
fwu
fwykt
fy
fyfde
fyfte
fyftich
fyftiger
fyftjin
fyftjinde
fyk
fykwurk
fyn
fynplak
fynplakken
fynst
fynsten
fynt
fysike
fysiology
fysiolooch
fysyk
fyts
fytse
fytsen
fytsers
fytspaad
fytst
fyzje
g
ga
gaadlik
gaadlike
gaan
gaast
gaasterla
gaastmar
gaastra
gaat
gabbe
gabe
gables
gabon
gabrie
gabriel
gabriela
gabriella
gabrielle
gad
gadingmakker
gadingmakkers
gaelysk
gaelyske
gail
gaius
gajus
gal
gala
galaktysk
galaktyske
galama
galaxy
gale
galearius
galema
galen
galenus
galerie
galerij
galerijen
galerius
galery
galile
galilea
galilei
galileo
galisysk
galje
galla
gallery
gallia
gallico
gallienus
gallipoli
gallo
galloway
gallus
gallyske
galveston
galway
galysje
gama
gamba
gambia
gambler
game
games
gan
gana
gandalf
gandhi
gang
gangster
gaoatyske
gaos
gap
gara
garaazje
garandearre
garci
garcia
gard
garde
garden
gardens
gardner
garfield
garfunkel
garjen
garland
garnizoen
garre
garrulus
gary
garyp
gas
gasfabryk
gasly
gassen
gast
gasten
gasthear
gasthu
gastla
gaston
gastrol
gastrollen
gat
gate
gaten
gates
gathering
gatling
gatsje
gatsjes
gatten
gau
gaueftich
gauguin
gauke
gaulle
gauris
gauwens
gavin
gavit
gawain
gay
gaza
gd
gde
ge
gea
geaen
geakundige
gealsk
gean
geand
geande
geandefoets
geandewei
geane
gear
gearbrocht
gearfetting
gearfoege
gearfoeging
gearfoegjen
gearhing
gearhingjende
gearklofte
gearkomme
gearkommen
gearkomst
gearkomste
gearkomsten
gearkomt
gearlu
gearre
gearret
gearrin
gearspanners
gearspanning
gearstald
gearstalde
gearstallen
gearstalling
gearstallings
geart
gearts
geartsje
gearwurke
gearwurking
gearwurkingsferba
gearwurkje
gearwurkjende
geast
geastedu
geasten
geastlik
geastlike
geastliken
geastlikheid
geaten
geau
gebeart
gebearten
gebeartetaal
gebed
gebedens
gebied
gebiet
gebieten
gebietsdiel
gebietsdielen
gebietsu
gebit
geboaden
gebou
gebouwen
gebrek
gebroeders
gebru
gedachte
gedachten
gedicht
gedichte
gedichten
gedielte
gedoente
gedrach
geduld
gee
geef
geel
geen
geer
geert
geertje
geertruida
geertsma
gees
geest
gefaar
gefaarlik
gefaarlike
gefal
gefallen
gefaren
gefinsters
gefjocht
gefjochten
gefoel
gefoelens
gefoelich
gefoelige
gefolch
gefolgen
gegeven
gegevens
gehalte
geheim
geheime
geheimen
gehenna
gehiel
gehoar
gei
geiserik
geisha
geit
geiten
gek
gel
geld
gelder
gelderla
gelderske
gele
gelearde
gelearden
gelegen
gelegenheden
gelegenheid
gelikens
gelikense
gelok
gelokkich
geloof
gelre
gels
gelsoarte
gelsoarten
geltsje
geluk
gelwacht
gelyk
gem
gemaal
gemak
gemalen
gemalinne
geman
gemeente
gemeentebestjoer
gemeentefrij
gemeentegrins
gemeentehu
gemeenteleden
gemeentemuseum
gemeenten
gemeenterie
gemeenteried
gemeenteriedsferkiezings
gemeenteriedslid
gemeentes
gemeentesekretaris
gemeentesekretary
gemeentewapen
gemeentewapens
gemeentewet
gemeentlik
gemeentlike
gemeinde
gemiddeld
gemiddelde
gemien
gemiene
gemma
gemme
gemmell
gemy
gemysk
gemyske
gen
gende
gene
genea
genealogy
genede
genedebyld
genen
generaal
generaals
generaasje
generaasjes
general
generale
generation
genesis
genetika
genetysk
genetyske
geniale
geniet
genietet
genietsje
genietsjen
genis
genissen
genisys
genityf
genius
gennep
geno
genoat
genoaten
genoatskip
genoegen
genoom
genootschap
genosa
genoside
genot
gent
gentleman
genua
geo
geoffrey
geograaf
geografy
geografysk
geografyske
geographic
geology
geologysk
geologyske
geolooch
geometryske
geonosis
georg
george
georges
georgia
georgina
georgje
georgysk
georgyske
gepiden
ger
gerais
gerald
gerard
gerardus
gerben
gerbrandy
gerda
gerdyk
gerdyn
gere
gereformeerde
geregeld
geregelde
geregeldwei
gerhard
gerhardt
gerhardus
gerij
gerjocht
gerjochten
gerjochtichheid
gerjochtsgebou
gerjochtsho
gerjochtshof
gerkeskleaster
gerlof
germ
germaanje
germaansk
germaanske
germain
german
germanen
germania
germanikus
geroft
geroften
gerrera
gerrit
gerritsen
gerrolt
gerry
gers
gersla
gersleat
gert
gertrude
gertrudis
gertrudistsjerke
gerzen
ges
gesach
gesachfierder
gesachhawwende
gesant
gesanten
geschichte
geschiedenis
gesellschaft
gesicht
gesichten
gesichtsfermogen
gesin
gesinnen
gesjitten
gesjitters
geskikt
geskink
geskinken
geskrift
geskriften
geskut
geslacht
geslachten
geslachtsdielen
geslachtsferkear
geslachtsmienskip
geslachtsryp
gestapo
gesticht
get
geta
getal
getallen
getten
getto
gettysburg
geunst
geunstich
geunstige
geur
geus
geuzen
gevel
gevels
gevelstien
gevelstiennen
gewaaks
gewaaksen
gewaar
gewaarwurde
gewach
gewear
gewearen
geweld
gewelddiedich
gewelddiedige
geweldich
geweldige
gewelven
gewest
gewesten
gewicht
gewichtheffen
gewisse
gewo
gewoan
gewoane
gewoanlik
gewoante
gewoanten
gewoanwei
gewoon
gewurde
gezelle
ghost
ghoul
giacomo
giant
gibbon
gibbs
gibraltar
gibson
gide
gideon
gids
gie
gied
giel
giele
gielgud
gielich
gieltsje
gien
giene
gienen
gier
giet
gif
giffen
gifgas
gift
giftich
giftige
gifts
gige
gij
gijs
gijsbert
gil
gilbert
gilde
gildebert
gilden
gilderik
gildo
giles
gilles
gillian
gilman
gilmour
gilperik
gimbutas
gimli
gin
gina
ging
gingen
ginger
gings
ginnum
ginsburg
gint
gion
giorgio
giovanni
giphart
girl
girlfriends
girls
giro
giscard
gisel
gisko
gitaar
gitaren
gitarist
giteren
giuseppe
give
gizelder
gizelders
gizeling
gjalt
gje
gjen
gjend
gjende
gjin
gjinien
gl
gla
gladiator
gladiators
glamour
glandarius
glas
glasgow
glasiaal
glass
gle
glee
gleiberman
glen
glengarry
glenlyon
glenn
gleone
gletsjer
gletsjers
glide
glik
glins
glinstra
glise
gloarje
global
globe
globes
gloria
glorieuze
glory
gloster
gloucester
glu
glukoaze
gmbh
gmo
gn
gne
gnomeo
gnostyske
go
goa
goaden
goadinne
goadinnen
goaen
goai
goaien
goaii
goait
goaitsen
goal
goalera
goals
goaten
goatysk
goatyske
god
goddard
goddess
godfrey
godfried
godfryd
godheden
godheid
godlik
godlike
gods
godshu
godstsjinst
godstsjinsten
godstsjinstige
goebbels
goed
goede
goederen
goedkard
goedkarring
goedkarringspersintaazje
goedkeap
goedkeape
goedkeaper
goeie
goekunde
goeman
goeree
goerie
goes
goethe
gogh
gogol
goi
going
gokken
gokker
gold
goldberg
golden
goldeneye
goldfinger
goldwyn
golem
golf
golfbaan
golfoarloch
golfstream
gollum
gomarus
gomez
gon
goncourt
gondor
gone
gong
gongber
gongbere
gongelsto
gongen
gonza
good
goodbye
goodwin
google
goor
goose
goot
gorbatsjov
gordianus
gordon
gordyk
gore
gorilla
gorki
gorkum
gorter
goscinny
gosling
goslinga
gospel
gosse
gosses
got
gothic
gotla
gott
gottfried
gottlieb
gotyk
gotyske
gou
goud
gouda
gouden
goudene
goudkoarts
goudkust
goudsiker
goudsikers
goudu
goutum
government
govert
goya
gp
gps
gr
gra
graach
graad
graaf
graaff
graaft
graasje
grace
graceland
graden
graf
grafikus
grafyk
grafysk
grafyske
graham
gram
grammar
grammatika
grammatikale
grammy
grampus
gran
granada
grand
grande
grant
granyt
grap
graphium
grappen
grappich
grappige
gras
grass
gratama
gratianus
grave
gravearre
graven
graver
graves
graveur
gravity
gravueres
gray
graz
gre
great
greate
greater
greatest
greco
greeflike
greefskip
greefskippen
greek
green
greenberg
greene
greenwich
greenwood
greep
greetsiel
greft
greg
gregoarius
gregor
gregoriaanske
gregorius
gregory
greide
greidefu
greiden
greidhoeke
greidla
grenada
grendel
grenoble
grenzen
greonterp
greta
grevane
greve
greven
grevinne
grey
greyfriars
greystoke
gri
grieg
griemmank
grien
griene
grienla
grienlinks
griente
grienten
griep
griet
grietje
grietman
grievous
grif
griffel
griffier
griffin
griffioen
griffith
grifformeard
grifformearde
grifformearden
griis
grikela
griken
grime
grimm
grimoald
grins
grinsgebiet
grinsla
grinslanner
grinzen
grinzer
grinzers
grinzet
grinzge
grinzget
gripe
gripen
grit
gritenij
gritenijen
grize
grizich
grizzly
gro
groei
groeid
groeide
groeiden
groeie
groeien
groeiende
groeit
groen
groene
groeneveld
groep
groepearring
groepearrings
groepen
groepke
groepkes
groepsferkre
groet
groetnis
groeven
grohl
gromosomen
gromosoom
grond
groningen
groninger
gronology
gronologyske
groot
groote
gros
grosjean
gross
grot
grote
grotten
grou
grouard
groucho
groukopflinters
groukopke
ground
group
grouster
groustins
grouwe
grove
grovestins
groß
große
großstadt
gru
gruber
gruff
gruisen
grumman
grus
grut
grutbringen
grutbrocht
grutdiels
grutdjip
grute
grutfoarst
grutgru
gruthartoch
gruthartochdom
grutmachten
grutmaster
grutsk
grutskalich
grutskalige
grutske
grutskens
grutst
grutste
grutsten
grutstepart
grutte
gruttegast
gruttendiels
grutter
gruttere
gryksk
grykske
gryn
gryp
grypt
gryptsjerk
gryt
grytman
grytmannen
grytsje
gt
gu
guardian
guay
guernsey
guerrier
guerrilja
guevara
guez
guggenheim
guide
guido
guilbert
guild
guillaume
guillotine
guilty
guin
guinea
guinee
guinness
gujaareh
gul
gulden
gulf
gun
gundobad
gungaanske
gunganen
gunn
gunnar
gunray
guns
guod
guon
guons
guonts
guozzen
gurbe
gus
gusen
gustaaf
gustaf
gustav
gustave
gustloff
gutenberg
guus
guy
guyana
guys
gwyn
gwynedd
gymnasium
gymnastyk
gymnastykferiening
gynekolooch
gyng
gyngen
gyo
gysbert
gytsjerk
h
ha
haach
haachske
haad
haadalter
haadartikel
haadbestjoer
haadeila
haadfeart
haadgebou
haadkantoar
haadkertier
haadklasse
haadletter
haadletters
haadling
haadlingefamylje
haadlingen
haadlju
haadmacht
haadman
haadoargel
haadpersoan
haadpersoanen
haadpersonaazje
haadplak
haadportaal
haadredakteur
haadrol
haadrollen
haadrolspiler
haadrolspilers
haadrolspylster
haadsaak
haadside
haadste
haadstik
haadstikken
haadstrjitte
haadtrainer
haadtsjerke
haadu
haadwei
haadwurd
haadwurden
haadwurk
haadyngong
haadynspekteur
haag
haagse
haai
haaien
haakon
haan
haanstra
haar
haarlem
haarlim
haarlimmermar
haarsma
haarzuilens
haas
haasse
haat
habakuk
habitat
habsburch
habsburchske
habsburgers
hachette
hacienda
had
haden
hades
hadrianus
haersma
hafu
hage
hagedissen
hagedoarn
hagel
hagen
hagia
hahn
hai
haida
hail
hair
haitsma
hajo
haka
hakke
hakken
hal
halbe
halbertsma
halen
half
halifax
halje
halkomelem
hall
halle
halletsjerke
halligen
hallowed
halloween
halls
hallum
halma
hals
halte
halve
ham
haman
hamar
hamboarch
hamburch
hamburg
hamburger
hamelen
hamilkar
hamill
hamilton
hamlet
hammer
hammett
hammond
hampshire
hampton
hamster
hamsters
hamsun
han
hana
hancock
hand
handel
handelsblad
handich
hands
hangaar
hania
hank
hanks
hanna
hannah
hannay
hanneke
hannel
hannele
hannelers
hanneling
hannelingen
hannelings
hannelje
hanneljen
hannelsfederaasje
hannelsplak
hannelspost
hannelsru
hannelssintrum
hannelsste
hannen
hannes
hannibal
hannie
hannity
hanno
hannover
hans
hansen
hanson
hantearre
hantekening
hanthavene
hanthavenje
hanthavenjen
hantlanger
hantsje
hantsjefol
hantum
hantumhuzen
happy
har
hara
harald
harbor
harcourt
hard
hardcore
hardenberg
harder
hardershu
hardorff
hardrock
hardy
hare
harem
haren
hari
harich
haring
harinxma
harinxmakanaal
harjo
harkboek
harke
harkema
harkemase
harken
harker
harkers
harket
harkje
harkjen
harkspul
harkspullen
harktriemmen
harlem
harlequin
harley
harlingen
harlingerla
harlow
harm
harmeling
harmen
harmens
harmonie
harmony
harmsen
harnas
harns
harnzer
harold
harp
harpe
harper
harpercollins
harren
harrensels
harres
harrie
harrington
harris
harrison
harry
harsels
harsens
harste
hart
harten
hartford
hartley
hartman
hartoch
hartochdom
hartog
hartoggen
hartoginne
hartwert
harvard
harvest
harvey
harz
has
hasdrubal
hase
hasker
haskerdiken
haskerhoarne
haskerla
hassan
hasselhoff
hasselt
hast
hasten
hastich
hastiget
hastings
hat
hatch
hate
hatet
hathaway
hattem
hau
hauer
hauk
hauken
haule
haulerwyk
haunted
haus
haut
havana
havank
have
havel
havelte
haven
havenplak
havens
havenste
haventsje
haverschmidt
havilland
havo
havre
haw
hawai
hawaii
hawaiian
hawk
hawke
hawker
hawkins
hawthorn
hawwe
hawwen
hay
hayden
haydn
haye
hayes
hays
hayward
haze
hazes
hazzard
hazze
hazzen
hazzenu
hbo
hbs
hbu
he
hea
head
heak
heakjen
heakjes
heakke
heaks
heal
heala
healannen
healbloed
healbroer
healbruorren
heale
healgod
healjier
healoere
healru
healsuster
health
healwaaks
healwei
healwiis
healwize
healy
heap
hear
heara
hearakles
heard
hearde
hearden
heare
hearebank
hearebanken
hearehu
hearen
hearewei
hearlikheid
hearre
hearren
hearrend
hearrende
hearrenfean
hearrenfeanster
hearresleat
hearrigens
hearske
hearsken
hearsker
hearskers
hearsket
hearskippij
hearskje
hearskjende
hearst
heart
heartbreak
hearts
heat
heath
heather
heaven
heavy
heawei
heb
hebben
hebreee
hebriden
hebriuwsk
hebriuwske
hechte
hechten
hector
heden
hee
heech
heechalter
heechbou
heechdu
heechfean
heechflakte
heechgerjochtsho
heechla
heechlannen
heechlearaar
heechleararen
heechpleatste
heechsa
heechsorbysk
heechst
heechste
heechtijdagen
heechu
heechwa
heeft
heeg
heel
heemskerk
heemstede
heemstra
heen
heer
heerd
heerde
heere
heeren
heerenveen
heeringa
heerlen
heerma
heeroma
heffen
heft
hefte
hege
hegebeintum
hegedyk
hegela
hegemer
hegemony
hegepreester
heger
hegere
hegerein
hegerha
hegerhu
hegesa
hegeskoalle
hegeskoallen
heide
heidefjilden
heidelberch
heidelberg
heidendom
heidenen
heidens
heidensk
heidenske
heidenskip
heidi
heights
heijermans
heil
heilige
heiligerlee
hein
heine
heineken
heinlein
heinrich
heinz
heit
heite
heitekant
heitela
heiten
hek
hekel
heks
hekse
heksen
hekserij
hektare
hektor
hel
held
helden
helder
heldere
heldhaftige
heldinne
hele
helen
helena
helene
helfrich
helga
helgola
helikopter
helikopters
helium
helje
heljen
hell
hella
helle
hellen
hellenistyske
hellet
helling
hellinga
hellings
hello
helm
helmond
helmut
heloma
help
helpboarnen
helpe
helpen
helper
helpers
helpmiddel
helpmiddels
helpsheriff
helpt
helsinki
helsinky
helt
helte
helten
hem
hemel
hemert
hemingway
hemmema
hemminga
hemsterhuis
hen
henderson
hendrick
hendricks
hendrik
hendriks
hendrikus
hendrix
henegouwen
hengelo
henk
henley
henny
henoch
henri
henricus
henrie
henriette
henrik
henry
heorot
hepburn
hepkema
hepkes
her
herald
heraldyk
heraldyske
herb
herberch
herberge
herbert
hercules
herder
here
hereford
herema
heremastate
herfoarme
herfoarmen
herfoarmer
herfoarming
herfoarmingen
herfoarmings
heringa
herinneringen
heritage
herkules
herman
hermana
hermann
hermans
hermanus
hermes
hermitaazje
hermitage
herna
herne
hero
herodes
herodotus
heroes
heroi
herre
herrin
herstal
herstel
hersteld
hert
herten
hertfordshire
hertoanfal
hertogenbosch
hertsegovina
hertstilsta
hertstochtlike
herzegovina
herzog
hesiodos
hess
hesse
hessel
hessels
hessen
hessyske
hester
het
hetawa
heteroseksue
hetfield
hette
hettema
hettinga
heul
heule
heup
heusden
heuvel
heuveleftich
heuvelre
heuvels
heuveltop
hey
heymans
hi
hiawatha
hichte
hichteferskil
hichten
hichtepunt
hichtepunten
hichtum
hickok
hidaard
hidalgo
hidatsa
hidde
hiddema
hidden
hiddes
hidjas
hie
hied
hiel
hielal
hiele
hielendal
hielke
hieltiid
hieltiten
hieltyd
hielu
hiem
hiemside
hiemstra
hiene
hienen
hier
hierargy
hierd
hierde
hierder
hiere
hieren
hierkleur
hierling
hierlingen
hiermoardner
hiermoardners
hieroglifen
hieronymus
hierren
hierrige
hiert
hieslum
hiet
hietala
hieten
hifke
higgins
high
highland
highlander
hightower
highway
hij
hijum
hik
hikke
hilaard
hilarides
hilary
hilbert
hilda
hildebrand
hildegard
hildesheim
hilfertsom
hilgela
hill
hillary
hillebrand
hillich
hillichdom
hillichdommen
hillichferklearring
hillige
hilligelibben
hilligen
hilligerlee
hills
hilton
hilversum
him
himalaya
himdyk
himel
himelfeart
himelfeartkatedraal
himelfeartsdei
himelfearttsjerke
himelgod
himellichem
himellichems
himels
himelske
himmelum
himmelumer
himmler
himpens
himrik
himsels
hin
hindenburg
hinderjen
hindoe
hindoei
hindoes
hindrik
hindy
hineftigen
hinge
hinget
hingje
hingjen
hingjende
hinnaard
hinnaarderadiel
hinne
hinnekommen
hinnen
hinsz
hip
hiphop
hipparchia
hippo
hippolytus
hippyk
hir
hiray
hiroshima
hirsch
his
hispania
hispanje
hispanjoala
hispel
histoarikus
histoarisy
histoarje
histoarysk
histoaryske
histoire
historia
historiae
historic
historical
historie
historisch
historische
history
hit
hitchcock
hite
hitler
hitlist
hitlisten
hits
hitsum
hiv
hizki
hja
hjeldagen
hjeldei
hjerbeam
hjerst
hjerstmis
hjir
hjirboppe
hjirby
hjirfan
hjirfoar
hjirmei
hjirnei
hjirneimels
hjiroan
hjiroer
hjirop
hjirre
hjirta
hjirtroch
hjiru
hjiryn
hjit
hjitfolge
hjitte
hjitten
hjittend
hjittende
hjittens
hjoed
hjoeddedei
hjoeddeis
hjoeddeisk
hjoeddeiske
hjoeddeistich
hjoeddeistige
hjouwer
hk
hl
hle
hler
hm
hmerwold
hmong
hms
hne
hnlicher
ho
hoale
hoalen
hoanne
hoanskrobber
hoareka
hoarizon
hoarn
hoarne
hoarnen
hoarnleger
hoarnstersweach
hoart
hoartsje
hobbe
hobbema
hobbit
hobbits
hobby
hobo
hockey
hodder
hoe
hoecht
hoed
hoedanichheid
hoeden
hoeder
hoeders
hoefolle
hoegde
hoegden
hoege
hoegenamt
hoek
hoeke
hoeken
hoekje
hoekske
hoekstien
hoekstra
hoemannichte
hoemannichten
hoendjip
hoes
hoessein
hoeve
hoevelaken
hoeven
hoewol
hof
hofdame
hofdames
hoff
hoffman
hoffmann
hofha
hofmann
hofmeier
hofstede
hofstee
hofstra
hoge
hogendorp
hohenlansberg
hok
hokfoar
hokje
hokjes
hokkaido
hokker
hol
holbein
hold
holdeksel
holden
holding
holdinga
holdo
hole
holiday
holikatsju
holkema
holla
holland
hollander
hollandia
hollands
hollandsche
hollandse
hollanistyske
hollanners
holle
hollen
hollow
hollum
holly
hollywood
holmes
holocaust
holokaust
holopainen
holp
holpen
holst
holstein
holt
holte
holtrop
holwerda
holwert
holy
homan
home
homearus
homer
homerus
homme
hommels
hommelse
hommerts
hommes
homo
homohoulik
homoseksualiteit
homoseksue
homoseksueel
homoseksuele
hond
honda
honderd
hondoeras
honey
hong
hongaarsk
hongaarske
hongaren
hongarije
hongen
honger
hongersneed
hongkong
hongkongske
honkbal
honkballer
honneur
honoarius
honolulu
honor
honore
honorius
hood
hoofd
hooft
hoog
hooge
hoogeveen
hoogezand
hoogland
hook
hooker
hoop
hooper
hoopje
hoorn
hooters
hoover
hop
hope
hopen
hopet
hopkins
hopper
hopperus
hora
horace
horatio
horatius
horde
horizon
horizontaal
horizontale
horn
horne
horner
hornstra
horrible
horror
horrorfilm
horrorfilms
horse
horst
hose
hospitaal
hospital
hosty
hot
hotel
hotelkeamer
hotels
hoth
hotz
hotze
hou
houbraken
houdini
houghton
houkesleat
houlik
houliken
houliksreis
hound
hour
hours
house
houston
hout
houtekster
houten
houtene
houtfykwurk
houtigehage
houtkap
houtman
houtseachmu
houtseagerij
houtskoal
houtsnijwurk
houtwa
hove
hovedstaden
hoven
how
howard
howe
hoytema
hp
hr
hrer
hrsg
hsb
htm
html
http
hu
huber
hubert
hubertus
hudson
hudsonbaai
hudsonbaaikompanjy
hueronmar
huet
huff
hugenoaten
hugh
hughes
hugo
huis
huisman
huizen
huizinga
hulde
hull
hulst
humalda
human
humanisme
humanist
humanistyske
humanite
humanoi
humber
humboldt
hume
humor
humoristyske
humphrey
humsterla
hun
hundred
hunebe
huning
hunnen
hunsru
hunt
hunter
hunting
huntington
huntsman
hunyadi
hunze
hur
hurd
hurddraven
hurddraversdyk
hurde
hurdegaryp
hurder
hurderwyk
hurdfytsen
hurdfytser
hurdfytsers
hurdfytster
hurdrider
hurdrinnen
hurdrydster
hurdsilen
hurdsiler
hurdspytsje
hurricane
hurst
hurt
hustler
huston
husum
hut
hutt
hutte
hutten
hutts
huub
huwelijk
hux
huxley
huygens
huygenspriis
huys
huzen
huzinge
huzum
hy
hybride
hyde
hyena
hygie
hylke
hylkema
hylkje
hylpen
hylper
hylpersk
hymne
hymnen
hynder
hynders
hynst
hynste
hynstefolk
hynsteriden
hynstesport
hyperion
hyperromte
hyponephele
hypoteze
hysels
hyst
hystrix
hyt
hz
i
ia
iafd
ian
ibearysk
ibearyske
ibm
ibn
ibrahim
ibsen
ibytsa
ic
ice
ich
id
ida
idaarderadiel
idaerd
idaerderadiel
idaho
idea
ideaal
ideale
idealen
idee
ideee
idema
identifikaasje
identifisearje
identifisearre
identifisearret
identike
identiteit
identity
identyk
ideology
ido
ids
idsinga
iduna
idzerda
ie
iedereen
iel
ielreager
iems
iemsdelta
iemshaven
iemsla
iemsmu
ien
ienakter
iendracht
iene
ienentweintichste
ienfa
ienheden
ienheid
ienheidskatedraal
ienheidstsjerke
ienhoarn
ienichste
ienige
ienkear
ienlike
ienmanualige
iennichst
iennichste
iennige
ienris
iens
iensidich
iensum
iensume
iensumens
iental
ienwurding
iepen
iepenbier
iepenbiere
iepenbiering
iepene
iepenen
iepenet
iepening
iepenings
iepeningsse
iepenje
iepenjen
iepenlik
iepenloftmuseum
iepenloftspul
iepensteld
iepentlik
iepentlike
ier
ierdappel
ierdappelkrobbe
ierdappels
ierdas
ierdbeving
ierdbevings
ierde
ierden
ierdewurk
ierdferskowing
ierdgas
ierdgeast
ierdgeasten
ierdoalje
ierdoerflak
ierdrykskunde
ierdske
ierdskodding
ierdskoddings
iere
ieren
ierla
iersk
ierske
ierst
ierste
ies
iet
iets
ieu
if
ifks
igge
iggen
ignace
ignatius
igor
ihrhove
ii
iie
iii
iiie
iik
iikhoarntsje
iikhoarntsjes
iis
iisbaan
iisfu
iishockey
iisklub
iisklup
iisla
iissee
iistiden
iistiid
ij
ijmuiden
ijssel
ik
ike
ikelmu
iken
ikker
ikkerbou
ikkers
ikkerwa
ikko
ikoan
ikoanen
ikoanyske
ikonostase
ikonostaze
il
ilias
ilisidi
ilja
iljitsj
ille
illinois
illustrated
ilm
ilona
ilse
im
image
imago
imdb
immanuel
immen
impact
imperial
imperium
impossible
impsec
in
ina
inc
inch
independence
independent
index
india
indian
indiana
indianapolis
indians
indie
indigo
indoor
industrial
industries
industry
ine
inferno
infinity
info
information
ing
inge
ingel
ingela
ingels
ingelsen
ingelsk
ingelske
ingelsken
ingelsktalich
ingelsktalige
ingelsman
ingelum
inglis
ingrey
ingrid
ingte
ingwierrum
inige
iniget
inigje
inigjen
inisjalen
inisjativen
inisjatyf
inisjatyfnimmer
inisjatyfnimmers
inka
inkel
inkeld
inkelde
inkeldris
inkele
inkelfa
inkeltal
inket
inkhuzen
inleiding
inlet
inn
inne
innsbruck
inoar
inoars
inselde
inside
inspector
instagram
institut
institute
instituut
instrumint
insurrection
int
inte
intelligence
inter
internacional
international
internationale
internet
interpol
interstate
interview
into
introduction
intruder
inu
inuit
invader
investigation
io
ioanen
ioanyske
ioc
ion
iona
ionesco
iowa
ipa
iper
ir
ira
iraakske
iraan
iraansk
iraanske
irak
irakoarloch
iran
ireland
irene
iris
irish
irku
irma
iroanysk
irokeeske
iron
irony
irvine
irving
irwin
is
isaa
isaac
isaak
isabel
isabella
isabelle
isbn
isc
iseger
isel
iselmar
isfahan
ishi
isidoarus
isis
isk
iskariot
isla
islaam
islam
islamistyske
islamitysk
islamityske
island
islands
isle
iso
isolaasje
isolearre
isolemint
israe
israel
israeliten
israelityske
israelysk
israelyske
iss
issn
ist
istanbu
it
ita
itaalje
italia
italiaanske
italie
italjaan
italjaansk
italjaanske
italjanen
italo
italyske
ite
iten
itende
itens
itensfoarrieden
itensieden
iters
itjinge
its
itselde
itsij
itza
iucn
iuw
iuwen
iuwena
iuwenlang
iuwsk
iuwske
iuwskema
iuwwiksel
iv
iva
ivan
ivanhoe
ivanovitsj
ivanovo
ive
ives
ivich
ivichheid
ivige
ivn
ivo
ivoar
ivoarkust
ivy
iwata
iwerks
ix
ixe
izaa
ize
izer
izeren
izererts
izerne
izertiid
j
ja
jaan
jaap
jaar
jaarboek
jaarsma
jabba
jabik
jabikspaad
jac
jacht
jachtfleanmasine
jachtgewear
jachtgewearen
jachthaven
jachthu
jack
jackie
jackson
jacksonville
jacob
jacoba
jacobs
jacobus
jacqueline
jacques
jad
jada
jade
jaerla
jag
jage
jagen
jager
jagers
jaget
jagger
jago
jahrbuch
jai
jak
jakama
jakarta
jake
jakku
jakob
jakobiten
jakobityske
jakobus
jam
jamaika
jamaikaansk
james
jamesbaai
jameson
jamie
jammerdearlik
jammerdearlike
jan
jancko
jane
janeiro
janet
jango
janine
janitsaren
janke
jankton
janktonai
jann
janna
janneke
jannes
jannewaris
jannum
jans
jansen
jansgea
jansma
janssen
jansz
jant
jantje
jantsje
janu
januar
januari
janus
janzen
japan
japanners
japansk
japanske
japicx
japicxpriis
japiks
jar
jaren
jargon
jarich
jaroslavl
jarre
jas
jase
jasmine
jason
jasper
java
javaansk
jawa
jaws
jay
jazz
je
jean
jeanne
jedha
jedi
jeen
jef
jeff
jefferson
jeffrey
jefte
jeften
jehan
jehanna
jehannes
jehannestsjerke
jehova
jehu
jeie
jeien
jekaterineburch
jekyll
jelgerhuis
jelle
jellema
jellen
jelles
jellum
jelsum
jelte
jemen
jemenityske
jemgum
jemisin
jena
jenisejaanske
jenkins
jenna
jennifer
jennings
jenny
jens
jensen
jenson
jentsje
jeppe
jeppema
jeraazje
jeraziatyske
jeremia
jeremy
jerevan
jericho
jerke
jern
jerobea
jeroen
jerome
jeropa
jeropea
jeropeaan
jeropeanen
jeropeesk
jeropeeske
jerry
jersey
jeruzalem
jeruzalim
jesaja
jesse
jessica
jessie
jesu
jesus
jet
jetses
jetske
jetze
jeu
jeugd
jeugdboeken
jever
jewel
jewels
jezui
jezus
jhr
ji
jiddysk
jier
jierboek
jierdei
jiergong
jierige
jierjilden
jierliks
jierlikse
jiermannich
jiermerk
jierren
jierrenlang
jierrenlange
jierrich
jierrige
jiers
jierskema
jiertal
jiertallen
jiertelling
jiertiden
jiertiid
jij
jikke
jild
jildbedrach
jilde
jildende
jildich
jildige
jildkrapte
jildlike
jildt
jill
jim
jimme
jimmeroan
jimmy
jin
jingle
jinn
jins
jinsels
jirnsum
jirpel
jirpels
jiske
jiskenhuzen
jiskepu
jislum
jister
jistrum
jit
jitris
jitten
jkfr
jo
joa
joachim
joad
joaden
joadendom
joadsk
joadske
joan
joanna
joannes
joaram
joaris
joaristsjerke
joast
joazef
job
jobbegea
jobs
jochem
joe
joech
joegen
joegoslaavje
joegoslavyske
joel
joep
joeri
joey
joh
joha
johan
johann
johanna
johannes
john
johnnie
johnny
johns
johnson
johnston
joint
jojo
joke
jolie
jon
jona
jonas
jonatan
jonathan
jones
jong
jongbloed
jonge
jongeling
jongelju
jongema
jongeman
jongemannen
jongen
jongens
jonger
jongere
jongerein
jongeren
jongert
jonges
jongesnamme
jongfaam
jongfammen
jongfeint
jongfolwoeksenen
jongfryske
jongs
jongsma
jongste
jongstra
jonker
jonkersla
jonkfrou
jonkhear
jonkheid
jonkje
jonkjes
jonkman
joop
joost
jopie
jordaan
jordaanje
jordan
jorge
joris
jorritsma
jorritsmapriis
jorwert
jos
jose
josef
josefus
joseph
josephine
josephus
josh
joshua
josse
jou
jouke
joure
journaal
journal
journey
jousma
jouster
joustra
jouswier
jout
jouwe
jouwer
jowett
joy
joyce
jozef
jozua
jr
ju
juan
jubileum
juckema
juda
judas
jude
judea
judeeske
judeo
judgment
judit
judith
judo
judy
juffer
jugendstil
jules
juli
julia
juliaanske
julian
juliana
julianus
julie
julien
juliet
julio
julius
july
jumanji
jumbo
june
juneau
jung
jungle
juni
junioaren
junior
junius
junkers
juno
juny
jupiter
jure
juridysk
juridyske
jurisdiksje
jurist
jurjen
jurk
jury
just
juste
juster
justice
justin
justine
justinianus
justinus
justjes
justus
justysje
jutla
jutphaas
jutryp
juw
juwiellen
jv
jyn
k
ka
kaai
kaaien
kaaimaneilannen
kaak
kaam
kaap
kaapkoloanje
kaapske
kaapste
kaapt
kaapverdje
kaart
kaarten
kaartsje
kaartsjes
kaartspul
kaas
kabaret
kabaretie
kabaretier
kabine
kabinet
kabinetten
kabu
kadaster
kadastrale
kadaver
kade
kadet
kadetten
kadigidi
kadne
kado
kael
kafee
kafees
kafetaria
kafka
kai
kaikoseilannen
kairo
kaiser
kajowa
kaju
kaken
kale
kaledoanje
kali
kaliber
kalifaat
kalifornje
kalifornysk
kalifornyske
kaligula
kalinder
kalinin
kaliningrad
kalk
kalkstien
kalkutta
kallen
kalm
kalma
kalmar
kalu
kalvinisme
kalvinisten
kalvinistysk
kalvinistyske
kalvyn
kalyf
kambodja
kamehameha
kameleon
kamen
kamer
kamera
kameraman
kameraregisseur
kamerarezjy
kameroen
kamiel
kamieleftigen
kamielen
kamino
kamp
kampanje
kampanjes
kampen
kampioen
kampioene
kampioenskip
kampioenskippen
kampus
kamtsjatka
kamu
kan
kanaa
kanaal
kanaat
kanada
kanadeesk
kanadeeske
kanadezen
kanalen
kanalisearre
kanaryske
kandidaat
kandidaten
kane
kanji
kanker
kano
kanofarren
kanon
kanonike
kanonnen
kanons
kanonyk
kansas
kant
kante
kanten
kantine
kantoar
kantoaren
kantoargebou
kanton
kantongerjocht
kantonrjochter
kantons
kanunniken
kanvas
kanye
kap
kapasiteit
kape
kapel
kapelle
kapellen
kapen
kapers
kapibara
kapitaal
kapitalisme
kapitein
kapitelen
kapitoal
kapittel
kapittelhu
kapittelseal
kapitulaasje
kaplan
kapsule
kapt
kaptaal
kaptein
kapteins
kapteyn
kar
kara
karabach
karafaan
karakalla
karakter
karakterisearre
karakteristike
karakteristyk
karakters
karakteru
karante
karate
kardinaal
kardinalen
kareelje
karel
karen
karfoarst
karfoarsten
karfoarstendom
kariben
karibysk
karibyske
karigan
kariljon
karin
karinsje
karl
karle
karloman
karlsruhe
karma
karmel
karmeliten
karnaval
karolina
karolingen
karolingyske
karpaten
karre
karren
karrie
karspel
karst
kart
kartaachsk
kartaachske
kartagers
kartago
kartel
karter
kartograaf
kartu
karu
karume
kas
kasablanka
kasdan
kashima
kashiwa
kashyyyk
kasimir
kasino
kasjenko
kasju
kaspyske
kassel
kassius
kast
kastanje
kaste
kasteel
kasten
kastiel
kastielen
kastlein
kastraasje
kastylje
kat
katakomben
katalaansk
katalaanske
kataloanje
katalogus
katan
katar
kataren
katarina
kate
katedraal
katedrale
katedralen
kategismus
kategory
kategoryen
katharine
katherine
kathleen
katholieke
kathryn
kathy
katie
katja
kato
katoen
katolike
katoliken
katolikon
katolikos
katolisisme
katolyk
katowice
katrina
kattefamylje
katten
katwyk
katz
kauai
kaukasus
kavalery
kavaleryrezjimint
kavels
kavia
kawasaki
kay
kaye
kayla
kazachstan
kazakstan
kazan
kazerne
kber
kboat
kboaten
kde
ke
keabel
keal
keale
keallen
keamer
keamerferkiezingen
keamerferkiezings
keamerhear
keamerlid
keamers
keamertemperatuer
keap
keaper
keapet
keapfarders
keapfardij
keapfardijskippen
keapfideo
keaphannel
keapje
keapjen
keaplju
keapman
kear
keard
keardaam
keardamen
kearde
keardel
kearden
keare
kearen
kearn
kearnen
kearney
kearnsintrale
kearpunt
kears
keart
keas
keatling
keatlings
keaton
keats
keatsen
keatser
keatsers
keatsferiening
keatsklassemint
keatspartij
keazen
kebek
kebes
keel
keep
keeper
keer
kees
kef
kei
keimpe
keiran
keith
keizer
keizerin
keizerinne
keizerlik
keizerlike
keizerryk
keizers
keizerskip
keizerstitel
kel
kela
kelder
kelders
keller
kelley
kellogg
kelly
kelner
kelten
keltysk
keltyske
kelvin
kemal
kemar
kemmler
kempen
kempenaer
ken
kenai
kenau
kend
kendall
kende
kendra
kenia
kening
keningen
keningin
keninginne
keninginnedei
keninginnen
kenings
keningsbergen
keningsdei
keningshu
keningskip
keninklik
keninklike
keninkriken
keninkryk
kenmerken
kenne
kennedy
kennen
kenner
kenneth
kennewick
kennis
kenny
keno
kenobi
kensington
kent
kentucky
keogh
keppel
keppele
keppeling
keppelings
keppeljen
keppels
ker
keramyk
kerei
kerk
kerke
kerken
kerkrade
kermode
kerr
kerreid
kerry
kers
kersey
kersgers
kershaw
kerspel
kerst
kerstening
kertier
kertieren
kertiermaster
kessel
ket
ketlik
ketterij
ketters
keuken
keulen
keulske
keuning
keunst
keunstakademy
keunstdong
keunstdu
keunsten
keunsthanneler
keunsthistoarikus
keunstmjittich
keunstmjittige
keunstmuseum
keunstner
keunstneresse
keunstners
keunstriden
keunstru
keunstsamler
keunstsinnige
keunstskiednis
keunstskilder
keunstskilderesse
keunstskilders
keunststof
keunstwurk
keunstwurken
keur
keuze
keverling
kevin
keweenaw
key
keyes
keynes
keys
keyser
kffb
kg
kgb
khalifa
khan
ki
kick
kid
kids
kie
kiel
kieli
kies
kiesdistrikt
kiesmannen
kiesrjocht
kiest
kiestra
kiev
kieze
kiezen
kiezers
kiif
kij
kijimi
kijk
kiki
kikkert
kikkerts
kilda
kildrummy
kill
killer
killing
kilo
kilogram
kilometer
kilometers
kilt
kim
kimberly
kimi
kimswert
kin
kincaid
kind
kinder
kinderen
king
kingdom
kingma
kingman
kings
kingsley
kingsman
kingston
kink
kinne
kinnen
kinney
kinski
kinst
kipling
kira
kirche
kirgyzje
kiribaty
kirill
kirk
kirkland
kiss
kiste
kisten
kit
kits
kittitas
kitty
kje
kjel
kjeld
kjifdieren
kjifstikelbaarch
kjifstikelbaarchdieren
kjifstikelbargen
kju
kk
kl
klaach
klaad
klaai
klaaid
klaaide
klaaien
klaaifrysk
klaaigru
klaaii
klaarkamp
klaas
klachten
klaes
klage
klagenfurt
klam
klan
klandestine
klank
klankboerd
klanken
klant
klanten
klap
klara
klarinet
klas
klaske
klasse
klassearre
klassemint
klassen
klassifikaasje
klassifisearre
klassike
klassiken
klassiker
klassikers
klassikus
klassis
klassisisme
klassisistyske
klassyk
klaudius
klaus
klauwen
klaver
klaverble
klazes
klean
klear
klearebare
kleaster
kleastergebouwen
kleastergong
kleasterkompleks
kleasterlibben
kleastermienskip
kleastermoppen
kleasteroarder
kleasters
kleastertsjerke
kleau
klee
kleed
kleef
kleefstra
kleffens
klein
kleine
klemens
klemins
kleopatra
klerk
kleur
kleurde
kleure
kleuren
kleurje
kleurminging
kleurrike
kliber
klickitat
klien
klif
kliffen
klii
klik
klike
klimaat
klimaatferoaring
klimaatso
klimaks
klimaten
klimatologyske
klimfaasje
klimme
klimmen
klimt
klingon
klingons
klinke
klinkende
klinkt
klinyk
klinyske
klip
klist
klitoris
klm
kloan
kloane
kloanen
kloansoldaten
kloeke
kloft
kloften
klok
klokhu
klokken
klokkespul
klokkestoel
klokkestuollen
klokketoer
klom
klompe
klompen
kloos
kloosterman
kloppet
klotarius
klovis
klu
klub
klubs
klucht
kluitman
klup
klups
klux
km
kme
kmer
kn
knap
knappe
knappen
knaw
knee
kneppel
kneppelfreed
knfb
knibbel
knibbels
knife
knight
knights
knik
knilles
kninen
knip
knipe
knkb
knock
knoffelige
knol
knollen
knoop
knooppunt
knooppunten
knop
knopen
knopf
knoppen
know
knowles
knox
knoxville
knsb
knu
knut
knvb
knyl
knyn
ko
koa
koade
koadenamme
koades
koai
koaien
koal
koalen
koalstof
koalysje
koar
koarde
koaren
koarhearen
koarnjum
koarnwert
koarnwertersa
koart
koartby
koarte
koartebaan
koartehimmen
koarten
koarter
koartere
koartlyn
koarts
koartsein
koartste
koartsweagen
koartwei
koatstertille
kobayashi
kobe
kobisten
koblenz
kobus
koch
kocht
kochten
kodeks
kodiak
koe
koeban
koed
koeke
koekoek
koel
koele
koen
koene
koenen
koenraad
koepel
koepelorganisaasje
koepels
koepeltsjerke
koer
koerbanken
koerden
koerdysk
koerdyske
koereur
koereurs
koerhek
koerier
koerla
koeroargel
koers
koersk
koerstuolte
koerts
koets
koetshu
koeweit
koffer
kofje
kok
kokai
koken
koker
kokoseilannen
kol
kola
kolbe
kolk
kollaboraasje
kolleezje
kolleezjes
kollega
kollegiale
kolleksje
kolleksjes
kollektive
kollektyf
kollum
kollumer
kollumerla
kollumersweach
kollumn
kollumnist
kollumniste
kollumns
kollums
kollwitz
koloanje
koloanjes
kolom
kolombia
kolombiaanske
kolommen
kolomna
kolonel
koloniaal
koloniale
kolonialisme
kolonie
kolonisaasje
kolonisearjen
kolonisearre
kolonist
kolonisten
kolonne
kolorado
kolossers
kolosseum
kolumbia
kolumbus
kom
koma
komantsjen
komarov
komarr
kombinaasje
kombinaasjes
kombinearje
kombinearjen
kombinearre
kombinearret
komd
komedie
komeedzje
komeedzjefilm
komeedzjes
komeedzjesearje
komeedzjesearjes
komeet
komen
kometen
komitee
kommandant
kommanderije
kommandeur
kommandeurseilannen
kommando
komme
kommen
kommend
kommende
kommentaar
kommentaren
kommentator
kommersjeel
kommersjele
kommersyl
kommintaar
kommisje
kommisjes
kommissaris
kommissarissen
kommissy
kommitee
kommodus
kommune
kommunikaasje
kommunisearje
kommunisearjen
kommunisme
kommunist
kommunisten
kommunistysk
kommunistyske
kommuny
kommys
komo
komoaren
kompanjons
kompanjonsfeart
kompanjy
kompanjyen
kompenije
kompetysje
kompetysjes
kompilaasje
kompinsaasje
kompju
kompleet
kompleks
komplekse
kompleminte
komplete
kompletearre
komplikaasjes
komplot
komponearre
komponinten
komponist
komponiste
komponisten
komposysje
komposysjes
kompromis
komrij
komselden
komst
komt
komyk
komysk
komyske
kon
kondysje
konettikut
konfederaasje
konfederearre
konferinsje
konferinsjes
konfiskearre
konflikt
konflikten
konfoai
konfrontaasje
konfrontaasjes
konfrontearre
konfrontearret
konfusianisme
kong
kongo
kongofrijsteat
kongoleeske
kongregaasje
kongres
kongressen
koning
koningin
koninklijk
koninklijke
koninkrijk
konklu
konkludearre
konkludearret
konkoers
konkurrinsje
konkurrint
konkurrinten
konneksje
konneksjes
konnetikut
konrad
konsekraasje
konsekrearre
konsekwinsjes
konsekwint
konsensus
konsensuskrityk
konsept
konsepten
konsert
konserten
konservatisme
konservative
konservativen
konservatoarium
konservator
konservatyf
konsesje
konsesjes
konsily
konsintraasje
konsintraasjekamp
konsintraasjekampen
konsintrearje
konsintrearre
konsintrearret
konsistoarje
konsjerzje
konsolidearre
konsonant
konsonanten
konstant
konstante
konstantin
konstantinopel
konstantius
konstantyn
konstitu
konstruksje
konstruksjes
konsul
konsulaat
konsumpsje
konsylje
kontakt
kontakten
kontekst
kontempore
kontinent
kontingint
kontinint
kontinintaal
kontinintale
kontininten
kontra
kontrabas
kontrakt
kontrakten
kontrareformaasje
kontrast
kontrei
kontreien
kontribu
kontro
kontrole
kontrolearjen
kontrolearre
kontroleur
kontroverse
kontroversjeel
kontroversjele
konvinsje
konvinsjes
konvint
koo
kooi
kooij
kooistra
koolhaas
koolhoven
koon
koopmans
koos
kooten
kootstra
kooymans
kop
kopenhagen
koper
koperative
koperblazers
koperen
kopgroep
kopie
kopke
koppen
koptysk
koptyske
kopy
kopyen
kor
koraal
koraalriffen
koraalsee
koraan
korea
koreaansk
koreaanske
korinte
korintie
korintyske
kornelis
kornelius
kornet
kornysk
koroanafirus
koroanafiruspandemy
korporaal
korps
korrekt
korrespondinsje
korrespondint
korrupsje
korrupt
korrupte
korsika
kort
korte
kos
kosatka
koskov
kosmas
kosmology
kosmos
kosovo
kost
kosta
kostbere
koste
kosten
koster
kostet
kostje
kostroma
kostskoalle
kostu
kotka
koudum
kowalski
koweras
kowerassen
kozakken
kp
kpd
kr
kra
kraan
kracht
kragujevac
kraj
krakau
kralingen
kramer
krante
kranten
krap
krapoan
krappe
krapte
krasnodar
krasnojarsk
krassus
krater
kre
krea
kreaasje
kreake
kreambe
kreas
kreaze
kree
kreeft
krefeld
kreis
kreisfreie
krekt
krektas
krekte
krektlyk
krektoarsom
krektsa
kremaasje
krematoarium
kremearre
kremlyn
krennic
kreoalsk
kreoalske
kreta
krewearjen
krewearre
krie
kriee
kriel
kriesk
krieske
krige
krigen
kriger
krigers
kriget
kriich
kriichsfinzen
kriichsfinzene
kriichsfinzenekamp
kriichsfinzenen
kriichsfinzenskip
kriichshear
kriichsmacht
kriichsmachtu
kriichsman
kriik
krije
krijen
krijt
krim
kriminaliteit
krimineel
kriminele
kriminelen
krimpen
kring
kringe
kringen
kringfrije
kringt
kris
krisis
krisisjierren
krist
kristallen
kristen
kristendom
kristenen
kristenjen
kristenuny
kristiaan
kristina
kristlik
kristlike
kristoffel
kristus
krite
kritearia
kriten
kritike
kritiken
kritikus
kritisy
krityk
kritysk
krityske
kro
kroa
kroaasje
kroan
kroand
kroane
kroanen
kroaning
kroanluchters
kroanprins
kroanprinsesse
krobbe
krobben
kroeber
kroech
kroegen
kroep
kroes
kroesus
krol
kromme
krong
krongen
kroniek
kroniken
kronos
kronstadt
kronyk
kronykskriuwer
kroon
kross
kru
kruger
kruis
krummho
krupsje
kruse
krusen
kruser
krusers
krusige
krusiging
krusing
krusings
krusingstoer
kry
krypte
kryptogram
kryst
krystbeam
krystdagen
krystdei
krysteila
krystju
krystman
kryt
ks
kse
ksemboarch
ksemboarchsk
ksemburch
ksenofon
kses
ksesfol
ksesfolle
ksesfolste
ksessen
ksfoarwerpen
ksje
ksjes
kster
kswa
kt
kte
kten
ku
kuala
kuba
kubaansk
kubaanske
kubike
kuhn
kuierders
kuierjen
kuierpaad
kuierru
kuiken
kuiper
kuipers
kukri
kull
kultuer
kultuerele
kultueren
kultuerfu
kultuerhistoarysk
kultuerhistoaryske
kultuerla
kultuerpriis
kultureel
kulturele
kultus
kum
kumbria
kunde
kundich
kundige
kundiget
kung
kunis
kunnen
kunnilingus
kunst
kunsten
kuorbal
kuorbalferiening
kup
kuperus
kupmaat
kurasau
kurator
kursus
kursussen
kursyf
kurt
kurtzman
kus
kushiel
kust
kusten
kustgebiet
kustgebieten
kustline
kustprovinsjes
kuststripe
kustwacht
kuyper
kvp
kw
kwa
kwabben
kwai
kwalifikaasje
kwalifisearre
kwalitatyf
kwaliteit
kwaliteiten
kwart
kwartet
kwartfinales
kwea
kweade
kwealk
kweekskoalle
kweekt
kweeste
kweken
kwelders
kwelderwa
kwestje
kwestjes
kwetsber
kwetsbere
kwik
kwis
kwizekwa
kwurk
kwyt
kwytreitsje
kwytrekke
ky
kyl
kyle
kylie
kylo
kyo
kyoto
l
la
laach
laachje
laad
laadsje
laaien
laaksum
laam
laan
laat
laatste
lab
laban
label
labels
laboratoarium
laboratory
labour
labourpartij
labrador
labyrinth
lac
lacey
lacs
lade
laden
ladies
lading
lady
lagarde
lage
lagen
lager
lagoon
lagos
laguna
lagune
lahn
laitsje
laitsjen
lajos
lake
lakers
lakeside
lakota
lam
lama
lambert
lambertus
lammers
lammert
lampe
lampen
lanai
lancashire
lancaster
lance
lancelot
land
landbouw
lande
landen
landing
landkreis
lando
lands
landschaft
landschap
lane
lang
langdon
lange
langele
langen
langer
langere
langerno
langet
langhalige
langhout
langhu
langjierrige
langobarden
langs
langspylfilm
langst
langste
langstme
langsweagen
langte
language
languages
langwar
langwarder
langwerpige
lanius
lanka
lanlik
lanlike
lannen
lansearre
lansearring
lantearne
laon
laos
lape
lapekoer
lapen
lapla
lara
laramie
laren
larenstein
largo
larp
larry
lars
larson
larus
larven
las
lasalle
lascie
laser
lassard
last
laszlo
late
laten
later
latin
latina
latinisearre
latino
latte
latyn
latynsk
latynske
lau
laude
lauderdale
laura
laurel
lauren
laurence
laurens
laurent
laurentiis
laurentius
laurie
lausanne
lauswolt
lauwe
lauwers
lauwerseach
lauwersmar
lauwerssee
lava
laverman
lavra
law
lawei
lawless
lawrence
lay
laytonville
lazarus
lb
lc
ld
ldbefolking
ldber
ldbyld
lddiel
lddielen
lde
ldelju
lden
ldend
ldende
ldens
lder
lderdom
ldere
lderein
lderen
lderfgoed
lderfgoedlist
lderfskip
lderij
lderlik
lderlike
lderling
lders
ldershu
lderskip
lderwetske
ldfeart
ldferneamd
ldferneamde
ldfrysk
ldfryske
ldheid
ldich
ldichwei
ldige
ldiger
ldiging
ldigjen
lding
ldingen
ldings
ldkampioen
ldkampioenskip
ldkampioenskippen
ldkriich
ldlik
ldlike
ldliteratuer
ldman
ldoarloch
ldodk
ldomke
ldrock
lds
ldsein
ldsferlies
ldsk
ldske
ldst
ldste
ldsten
ldster
ldsterwa
ldsu
ldt
ldtentoanstelling
ldtitel
ldu
ldwei
ldwide
ldwiid
le
lea
lead
leadramen
leaf
leafbeammen
leafde
leaffrou
leaffrouwe
leaffrouwetsjerke
leafhawwer
leafhawwerij
leafhawwers
leafst
leafste
leafwa
leagens
league
leah
lean
leane
leanen
leanne
lear
learaar
leararen
leararesse
leard
learde
learden
leare
learen
learkre
learling
learlinge
learlingen
learmaster
lears
learstoel
leart
learzens
leau
leaud
leaude
leauden
leaut
leauwe
leauwen
leauwenden
leauwige
leauwigen
leave
leaver
leben
lech
led
leda
leden
ledetal
lee
leech
leechfean
leechflakte
leechla
leechste
leechsteande
leechte
leed
leeds
leeftiid
leeftyd
leeftydskategory
leegje
leek
leelje
leeljes
leen
leendert
leenstra
leer
leest
leeuw
leeuwarden
leeuwarder
leeuwen
left
legaal
legaat
legacy
legal
legale
lege
legend
legendary
legende
legends
leger
legerbasis
legerdokter
legere
legerhu
legerkamp
legerke
legerkorps
legerlieding
legermacht
legeroanfierder
legeroerste
legerofsier
legers
legeru
legindarysk
legindaryske
leginde
leginden
legioen
legioenen
legitime
lego
legolas
lei
leia
leicester
leiden
leidsche
leie
leien
leienske
leigh
leij
lein
leindich
leindige
leine
leinen
leipzig
leisure
leit
leiter
lek
leken
lekken
lekker
lekkum
leksikon
lektor
lektuer
lely
lelyste
lemakker
lemma
lemmer
lemniscaat
lemster
lemsterla
len
lena
lende
leng
lenige
lenin
leningrad
lennep
lennon
lenore
lenstra
leo
leon
leonard
leonardo
leone
leonid
leonora
leons
leontes
leopold
leppedyk
lepus
les
lesbie
lesbos
lesbyske
lesjaan
leslie
lesoto
lessen
lesser
lester
lestich
let
letgoatysk
letgoatyske
letla
letsk
letske
lette
letter
lettere
letteren
letterkunde
letterkundich
letterkundige
letterkundigen
letterlik
letterlike
letters
letterskrift
lettertekens
lettertype
lettre
lettres
leur
leusden
leuven
lev
levant
leve
level
leven
levens
lever
levere
leveren
leveret
leverje
leverjen
levert
levi
levy
lewinsky
lewis
lex
lexicon
lexington
lexmond
lez
lezen
lf
lheim
li
lia
liadan
liam
liauckama
libaneeske
libanon
libbe
libben
libbene
libbenen
libbens
libbensferhaal
libbensferwachting
libbensfoarmen
libbenslang
libbenslange
libbensomstannichheden
libbenspartner
libbensstyl
libbensu
libbenswize
libbet
libearia
liber
liberaal
liberale
liberalen
liberalisme
liberty
libje
libjen
libjende
library
libretto
libri
libris
libyske
licence
license
lich
lichaamlik
lichaamlike
lichem
lichems
lichemsbou
lichemsdiel
lichemsdielen
lichemslingte
licht
lichtaard
lichte
lichter
lichtere
lid
lidden
liddichgonger
lidlum
lidmaatskip
lidpoatigen
lidsteaten
lidwina
lidwurd
lie
liebe
lied
liede
lieden
liedend
liedende
lieder
lieders
liederskip
lieding
liedingjaande
liedjes
liedklok
liedklokken
liedster
liedt
liefde
liek
lieken
liem
lien
liend
liende
liene
lienen
lienhear
liening
liens
lient
lienwurd
lienwurden
lier
liere
lies
liesbeth
liet
lieteboek
lieten
lietsjes
lietsjeskriuwer
lietteksten
lieuwe
lieuwes
lieve
life
lifetime
lift
liften
liga
lige
ligen
light
lightning
ligt
liif
liifwacht
liifwachten
lije
lijen
lijt
like
likefolle
likegoed
likemin
liken
likenimmer
likenis
likense
likerno
liket
lil
lila
lili
lilk
lilke
lilkens
lille
lillehammer
lilli
lillian
lily
lima
limbaugh
limboarch
limboarchsk
limburch
limburchsk
limburchske
limburg
limes
limited
limmet
limoer
limosa
limu
lin
lina
lincoln
lincolnshire
linda
linde
linden
lindquist
lindsay
line
linee
linen
lines
ling
lingen
lingte
lingterjochting
lingua
lingui
link
linker
links
linkse
linnaeus
linnen
lins
linschoten
lint
lintbebouwing
lintdoarp
linthorst
liny
linys
linz
lion
lionel
lions
lionsgate
lippe
lippen
lippenhuzen
lis
lisa
lisieux
lisinius
lisinsje
lissabon
list
listen
listlu
listysk
listyske
liszt
lit
liteit
liter
literaire
literary
literatuer
literatuerkritikus
literatuerpriis
literatuerprizen
literature
literatuur
litere
litium
litografy
litousk
litouske
litouwen
litouwsk
lits
litte
litten
littenseradiel
little
liturgy
liturgysk
liturgyske
liu
liudger
liuw
liuwe
liuwen
liv
live
liverpool
lives
living
livingstone
livius
livre
liza
lizze
lizzen
lizzend
lizzende
lizzing
lizzy
lje
ljedder
ljen
ljes
ljeton
ljip
ljocht
ljochtbeuk
ljochtblau
ljochtbru
ljochte
ljochten
ljochter
ljochtere
ljochtsabel
ljochtsabels
ljochtskyndei
ljouwert
ljouwerter
ljouwerteradiel
ljouwerterdyk
ljouwerters
ljouwertersk
lju
ljurk
ljussens
ll
lla
lle
llen
ller
lloyd
ln
lnamme
lnammen
lo
loadewyk
loads
loaii
loasdrecht
loataringen
loazjemint
lobby
lobotomy
loch
lochem
lochiel
locke
locker
lockheed
lockwood
locus
lodewijk
lodge
lodi
lodrome
loek
loeken
loenen
lof
loft
lofter
lofterha
lofterkant
loftfeart
loftfeartmaatskippij
loftfeartmaatskippijen
loftfeartpionier
loftfoto
lofthaven
loftmacht
loftmachtbasis
loftoanfal
loftoanfallen
lofts
loftse
loftskip
logan
loggia
logika
logistyk
logo
logos
logy
logysk
logyske
lohman
loire
lois
lok
lokaal
lokaasje
lokaasjes
lokale
loki
lokjen
lokke
lokket
lokkich
lokkigerno
lokomotyf
lolle
lollum
lombard
lombardije
lombok
lon
londen
londenske
london
lone
lonely
long
longen
longerhou
longfellow
longkanker
longknife
longobarden
longu
loo
looch
look
looking
loomis
loon
loop
loovjend
loovjende
looxma
lopen
lopez
loppersum
lorca
lord
lore
lorenzo
lorraine
los
loser
losjild
loskes
loslitten
losmakke
lospriis
loss
losse
lossen
lost
lot
lotaringen
lotarius
lothar
lotte
lotus
lou
louis
louisa
louise
louisiana
louisville
loup
lourens
louvre
louw
love
lovecraft
loved
lover
low
lowe
lowell
lower
lp
lpiercing
lplak
ls
lt
ltd
lte
lten
lterswa
ltkamp
lto
ltsje
ltsjerke
ltskog
lu
lubbers
lublin
luc
lucas
lucasfilm
luccio
lucht
luchtdruk
lucia
luciano
lucien
lucille
lucius
luck
lucky
lucy
ludlow
ludwig
luftwaffe
lugh
lugo
luigi
luik
luis
luitenant
luitingh
lukas
luke
lukrative
lukresia
lulk
lulke
lulkens
lumpur
luna
lund
lune
lus
lusia
lusius
lust
luterske
luther
luthersk
lutherske
luts
lutsen
lutz
lv
lvarez
lviv
ly
lybje
lyceum
lychtenstein
lycklama
lydia
lyk
lykas
lykfol
lykje
lykjen
lykjende
lykklaad
lyklu
lykme
lyknammige
lykneamde
lykop
lykslein
lyksoartige
lyksteld
lykweardich
lykwicht
lykwols
lyn
lynch
lyndon
lyngstad
lynks
lynksen
lynn
lynx
lyon
lyryske
lyseum
lysje
lysk
lyster
lyts
lytse
lytseftige
lytser
lytsere
lytsewierrum
lytsman
lytssa
lytsskalige
lytste
m
ma
maaie
maaike
maaitiid
maan
maanen
maar
maarskalk
maarssen
maarsseveen
maart
maarten
maartje
maas
maastricht
maat
maatregel
maatregels
maatschappij
maatskiplik
maatskiplike
maatskippij
maatskippijen
mab
mac
macbeth
maccoll
macdonald
macduff
mace
machigi
machine
machines
macht
machten
machthawwers
machtich
machtichste
machtige
machtiger
machtsoername
mack
mackensen
mackenzie
mackinac
macleod
macmillan
mad
madagascar
madagaskar
madam
madame
madding
made
madeleine
madison
madness
madonna
madrid
mae
maeve
maffia
maffiabaas
mafu
mag
magazine
magazyn
magdalena
magdeburg
mage
maggie
magic
maginta
magister
magistraat
magma
magna
magnesium
magnetyske
magnificent
magnum
magnus
magnussen
mago
magreb
magy
magysk
magyske
mahalia
mahatma
mahoney
mai
maibaum
maid
maiden
mail
main
maine
mainstream
mainz
mainzer
maire
mais
maison
maitiid
maityd
majesty
majoar
majoor
major
majorka
majot
mak
makau
make
maken
making
makkabeee
makke
makkelei
makken
makker
makkers
makket
makkingea
makkum
makkumer
maklik
maklike
makliker
makro
maks
maksentius
maksimaal
maksimale
maksimianus
maksimiliaan
maksiminus
maksimum
maksimumfaasje
maksimus
mal
malakka
malaria
malawy
malaysia
malcolm
maldiven
maldonado
male
malea
maleisk
maleizje
maleizyske
malibu
mall
mallemok
malmo
malone
malta
malteesk
maly
mama
mamma
mammalia
mammoet
man
management
manager
manasse
manchester
mandaatgebiet
mandalore
mandalorian
mandan
mandarynsk
mande
mandela
manders
mandeville
mandingo
manear
manearen
manen
manet
manfred
manga
manger
manhattan
manie
manier
manieren
manifest
manifestaasje
manifestaasjes
manilla
manipulaasje
manipulearre
manistee
manitoba
manitoulin
mank
mankre
manksk
mankske
manlik
manlike
manlju
manljusble
mann
manneboet
manneke
mannen
mannewaar
mannheim
mannich
mannichfa
mannichte
manon
mans
mansfield
manskippen
manson
mantel
mantgum
mantsje
mantsjes
mantsjoerije
manu
manuaal
manualen
manuel
manuskript
manuskripten
many
mao
maory
mar
mara
maradona
maraton
maratonrider
marburg
marc
marcel
marcela
march
marche
marco
marcone
marcus
mardi
mare
maresjesee
marga
margaret
margareta
margaretha
margo
margot
margriet
margrietkanaal
marguerite
mari
maria
mariah
marian
marianen
marianne
marid
marie
marieke
marihu
marija
marije
marijekapel
marijetsjerke
marijke
marillier
marilyn
marin
marina
marine
marinebasis
marines
marineskip
marineskippen
marinestasjon
marinier
mariniers
marinierskorps
marino
marinos
marinus
mario
marion
maris
marista
maritime
maritym
marius
marja
marjorie
mark
markante
marke
markearre
marken
markermar
markes
market
marketing
marketingkosten
markgreve
markham
marko
markol
markomannen
markt
markus
markys
marlene
marlowe
marmota
marmotten
marne
marnix
marokkaansk
marokkaanske
marokko
marren
marrinners
marriott
marrok
marrum
mars
marseille
marsh
marshal
marshall
marshalleilannen
marshals
marsilia
marsum
mart
marta
martel
martelder
martele
marteling
marten
martena
martenastate
martens
martereftigen
marters
martes
martha
marti
martial
martian
martijn
martin
martine
martinez
martini
martinitsjerke
martinus
martinustsjerke
martinytsjerke
martler
martlers
martsje
marty
marvel
marvin
marx
mary
maryla
maryland
marzje
mas
masedoanje
masedoanysk
masedoanyske
masine
masinebou
masinegewear
masinegewearen
masines
masinist
mask
masker
maskere
maskers
maskotte
masks
mason
massa
massaal
massachusetts
massaferneatigingswapen
massagre
massale
massinissa
massive
massyf
master
masteresse
mastergraad
masters
masterson
masterstitel
masterwurk
masturbaasje
mastyf
mat
mata
mate
matearje
maten
materiaal
materialen
materie
materieel
materjaal
mathayus
mathilde
matisse
matrix
matroas
matroazen
matrys
matt
matte
matter
mattheus
matthew
matthews
matthias
matthijs
mattias
mattie
maud
maui
maul
maureen
mauretaanje
maurice
mauritius
maurits
mauritsius
maurizio
mauser
mausoleum
mauthausen
mavo
mavra
max
maxim
maxwell
may
maya
mayen
mayer
mayes
mayhew
mayo
mayotte
maz
mb
mc
mccain
mccall
mccarthy
mccartney
mcclane
mccoy
mcdonald
mcdonnell
mcdougall
mcgovern
mcgrath
mcgraw
mcgregor
mckay
mckenzie
mckinley
mcl
mclaren
mcmaster
mdewakanton
me
mea
meade
meagere
meallen
mealree
mealreee
mean
meand
meanen
meanfjild
means
mear
meardere
mearderheid
mearderjierrich
mearfa
mearje
mearke
mearkes
meartal
meartalsfoarm
meartrime
mearum
mearwiverij
mearysk
mearyske
meast
meastal
measte
measten
meastentiids
meastepart
measttrime
meat
mechanysk
mechanyske
mechelen
meckema
med
medal
medalje
medaljes
medaljeur
mede
medelli
medemblik
meden
media
mediafranchise
medical
medici
medicine
medieval
medikus
medina
medisinen
medisyn
medisynman
meditaasje
mediterraan
mediterrane
medium
medvedev
medysk
medyske
mee
meente
meer
meern
meertens
mees
meester
meet
meeter
mefrou
meg
megalodon
megan
meganisaasje
meganisme
meganysk
meganyske
mehmed
mei
meibrocht
meidat
meidie
meidien
meidiene
meidocht
meidogge
meidoggers
meidwaan
meie
meielkoar
meien
meier
meifierd
meii
meiinoar
meij
meijer
meikeizer
meimakke
mein
meinaam
meindert
meinimme
meinimt
meinomd
meinommen
meirekkene
meisje
meisjes
meispile
meissen
meistanners
meiteld
meitiid
meitsje
meitsjen
meiwurke
meiwurker
meiwurkers
meiwurking
meiwurkje
meiwurkster
mekka
meklenburch
mekoar
meksikaansk
meksikaanske
meksikanen
meksiko
mel
melanezie
melbourne
melchior
melde
melden
meldij
melding
meldt
meleagris
melis
melissa
melkfeeha
melle
mellema
melman
melodrama
melody
melville
mem
memme
memmegoadinne
memmekant
memmela
memmen
memmetaal
memmetaalsprekkers
memnon
memoir
memoires
memoirs
memorial
memoriam
memory
memphis
men
menaam
menace
menameradiel
mendes
mendota
mendoza
menear
meneer
meniste
menisten
mennisten
menno
mens
mensch
menschen
mense
mensen
mentaal
mentale
menteith
mentha
mentor
menu
meppel
meppen
mepsche
mer
mercator
mercedes
mercia
merckx
mercury
mercy
mere
meredith
merian
merida
meridiaan
merike
merk
merke
merkel
merken
merknamme
merkstrjitte
merkt
merkuerius
merkurius
merlin
merlyn
merovingyske
merritt
merry
mers
mersia
merwede
meryl
mes
mesdag
meso
mesopotaamje
messen
messerschmitt
messi
messias
messina
met
metaal
metaan
metacritic
metafoar
metal
metalband
metalen
metalene
metallica
meter
meters
metoade
metoaden
metodistyske
metro
metropoal
metropolitan
metropolyt
metrostasjon
mette
metten
metz
meu
meubels
meubile
meulen
meulenhoff
meunster
meunsters
meurs
mexico
meyer
mg
mgm
mi
mia
miami
mich
micha
michae
michael
michaels
michaeltsjerke
michail
michel
michelangelo
michelle
michener
michiel
michigan
michiganmar
mick
mickey
microsoft
microtus
mid
middei
middeis
middel
middelber
middelbere
middelburch
middeleeuwen
middelen
middelgrutte
middeljierren
middella
middellange
middelnamme
middelpunt
middels
middelsee
middelste
middelstum
midden
middenklasse
middenmank
middenskip
middensta
middenyn
middle
middleton
midfrysk
midingelsk
midlands
midlum
midnederla
midnight
mids
midsiuwen
midsiuwsk
midsiuwske
midsla
midsmjittich
midsnacht
midstrjitte
midstwa
midway
midwesten
midwolda
mie
miedema
mieden
miedum
mieke
miel
mien
miende
mienden
miene
mienebe
mienebest
miening
mienings
mieningsutering
mienskip
mienskiplik
mienskiplike
mienskippen
mient
mients
mierlo
mies
mifflin
mig
miggen
miggesnapper
miggesnappers
mighty
migraasje
migranten
migre
miguel
mij
mijen
mijn
mijnheer
mika
mike
mikmak
mikojan
mikro
mikroneezje
mikronezie
miks
milaan
milan
milano
mildaam
mildred
mile
milennium
miles
milf
militante
military
milite
militum
miljard
miljarde
miljeu
miljoen
miljoenen
miljone
milk
mill
millarson
mille
millennium
miller
million
mills
milo
milos
milton
milwaukee
milysje
milysjes
mimi
min
mina
minachting
minas
mind
minder
mindere
minderheden
minderheid
minderheidstaal
minderheidstalen
minderjierrich
minderjierrige
minderjierrigen
mindert
minds
mindy
mine
minen
mineralen
minerva
ming
mingd
mingde
mingen
mingsel
mingtaal
minh
mini
minimaal
minimale
minimum
minions
ministearje
ministearjes
minister
ministerried
ministers
mink
minne
minneapolis
minnema
minner
minneresse
minners
minnertsgea
minnesota
minnichte
minnie
minnikonzju
minnisten
minor
minorka
mins
minsk
minskdom
minske
minsken
minskerjochte
minskerjochten
minskewitten
minskheid
minsklik
minsklike
minsklikheid
minst
minste
minstens
minster
minu
minus
minuten
miny
minysearje
mio
miquelon
mir
mira
miracle
mirakuleuze
miranda
mirandola
mirjam
mirror
mis
misbru
misdie
misdieden
misdiedigers
misdiefilm
misdiesyndikaat
misdriuw
misdriuwen
misfersta
mishannele
mishanneling
misje
misjes
misjonaris
misjonarissen
miskien
mislearjen
mislearre
mislearren
mislearret
misledige
mislediging
miss
misse
missen
missende
missing
mission
mississippi
mississippy
missoery
missouri
missoury
misstannen
misstavere
missy
missypost
mist
miste
mister
misty
mit
mitch
mitchell
mitrailleur
mitrailleurs
mitridates
mitsele
mitselwier
mitselwurk
mitsubishi
mitt
mitte
miyagi
mizuki
mjit
mjitkunde
mjitste
mjitte
mjitten
mjuks
mk
ml
mm
mme
mn
mny
mnys
mo
moa
moade
moai
moaie
moaier
moaiste
moal
moana
moandei
moanne
moanneble
moannelanner
moannen
moannenlang
moar
moard
moarden
moardner
moardners
moardoanslach
moardsaak
moardzjen
moaren
moarje
moark
moarmer
moarmeren
moarn
moarns
moarnsdage
moarre
moarrewa
moarske
moas
moasje
moast
moasten
moat
moatte
moatten
moazes
mobile
mobilisaasje
mobilisearre
mocht
mochten
mockema
modder
moddergat
modderige
model
modelleburo
modellen
modellewurk
models
modern
moderne
moderner
modernere
modernisearjen
modernisearre
modernisearring
modifisearre
module
moed
moeder
moedige
moerad
moeras
moerassen
moermansk
moerom
moet
moete
moeten
moetet
moeting
moetings
moetingsplak
moetsje
moetsjen
moff
mog
mogadisju
mohammed
moi
moines
mok
mol
moldaavje
mole
moledatabank
molekule
molekulen
molen
molenaar
moles
molie
molke
molkenboer
molkewei
molkfabryk
molkwar
moll
molly
molokai
molukken
mom
mombasa
momint
mominten
momkape
moms
mon
mona
monaco
monako
monarch
monargy
monastike
mondale
monde
mondriaan
monet
monete
money
moneypenny
mongoalen
mongoalje
mongoalsk
mongoalske
monica
monique
monmouth
monolooch
monopoalje
monotei
monroe
mons
monsieur
monster
monsters
mont
montaazje
montana
montanus
monte
montearre
montenegro
montessori
monteur
montgomery
month
montreal
montserrat
monty
monument
monumint
monumintaal
monumintale
monuminten
monumintesoarch
monza
moody
mooglik
mooglike
mooglikheden
mooglikheid
mooi
mooiste
moon
moonlight
moonraker
moor
moord
moore
moormerland
mor
moraal
moraavje
moray
morbihan
mordekai
mordor
more
moreel
morele
moresnet
morfeem
morfem
morfology
morgan
morgen
moritz
mormoanen
mormoanske
mormon
mornhavon
morning
moroni
morpheus
morricone
morris
morrison
morrow
morse
mort
mortimer
morton
mortuarium
mos
moscow
moses
mosk
moskee
moskeee
moskeftigen
moskou
moskouse
moskouske
moslim
moslims
mospheira
mosquito
moss
most
motacilla
motel
mother
mothma
motion
motivaasje
motivearre
motiven
motoaren
motor
motoren
motorfyts
motorfytsen
motorisearre
motors
motoru
motto
motyf
moulin
mount
mountain
mountains
mouse
mouwe
movement
movie
movies
moving
mowgli
mozai
mozambyk
mozart
mozayk
mozes
mp
mr
mrs
mrt
ms
mt
mtv
mu
much
muddy
mueller
muhammad
muiden
muir
mul
mulder
mulier
mulisch
muller
mullum
mulo
mulpunt
multatuli
multy
multyfunksjoneel
mulwurd
mummy
mundi
mungard
munnikebuorren
munro
munster
munt
munten
muntendam
muntienheid
muntsjesyl
munysje
muoi
muoike
muoikes
muoikesizzer
muoite
muonts
muontsen
muorre
muorrekeatsen
muorren
muorreskilderings
muorrewurk
murd
murder
murdoch
murdock
muridae
muriel
murini
murk
murns
murphy
murray
mus
musa
musculus
muse
musea
museo
museum
museumdirekteur
museums
music
musica
musical
musicals
musik
musikus
musketiers
muskusro
mussel
musselkanaal
mussert
mussolini
must
mustafa
mustafar
mustang
mustela
mustelidae
muziek
muzikaal
muzikale
muzikant
muzikante
muzikanten
muzyk
muzykferiening
muzykfestival
muzykkorps
muzykpedagooch
muzykprodusint
muzykskoalle
muzykstik
muzykstyl
muzyku
muzykyndustry
muzykynstrumint
muzykynstruminten
my
mya
myanmar
myl
myld
mylde
myles
myn
mynbou
mynwurkers
mynx
myra
myself
mysene
mysha
myspace
myst
mystearjes
mysteries
mysterieuze
mystery
mystic
mystike
mystikus
mystyk
myte
myten
mytology
mytologyske
mytysk
mytyske
n
na
naacp
naaide
naaie
naaien
naait
naam
naar
naarden
naasje
naasjes
naboo
nabooaanske
nabookrisis
nach
nacht
nachtdieren
nachten
nachtklub
nachtklubs
nachtlike
nachtmerje
nachtmerjes
nachtmiel
nachts
nacional
nadere
nadia
nafo
nag
nagano
nagasaki
nagasaky
nagorno
nagoya
nai
nairobi
naismith
najida
naked
nakoda
nakota
nam
name
namen
names
namfal
namme
nammedei
nammefoarm
nammejouwer
nammejouwing
nammeleaze
nammen
nammenste
nammentlik
nammers
namy
namybje
nan
nana
nancy
nanne
nantes
naomi
nap
napels
napoleon
napoleontyske
naram
narbeiders
narjen
narre
narsjitekt
narteks
nasa
nash
nashville
nasjonaal
nasjonaalsosjalisme
nasjonaalsosjalisten
nasjonaalsosjalistyske
nasjonale
nasjonalisme
nasjonalist
nasjonalisten
nasjonalistyske
nasjonaliteit
nass
nassau
nasser
nat
natal
natalia
natalie
natalja
natasha
nate
nathan
nathaniel
nation
nationaal
national
nationale
nations
native
nato
natoer
natoerbeskermer
natoergebiet
natoergebieten
natoerhistoarysk
natoerlike
natoerreligy
natoerreligyen
natoerreligys
natoerreservaat
natoerskientme
natoeru
natrium
natuer
natuere
natuergebiet
natuergebieten
natuerkunde
natuerkundige
natuerlik
natuerlike
natuermonuminten
natuerwittenskippen
natura
natural
naturalisme
naturalistyske
nature
natuur
nau
naughty
nauru
naust
nauta
nauwe
nauwer
nauwerneed
navaho
naval
navarra
navenant
navigaasje
navigator
navu
navy
nazaret
nazareth
nazi
nazy
nazys
nb
nba
nbal
nbank
nbanken
nbc
nbea
nbedoeld
nbekend
nbekende
nbemanne
nbepaald
nberikber
nbert
nbesit
nbesitter
nbesitters
nbeskaat
nbeskate
nbewenne
nbewenners
nbewust
nbewuste
nbidich
nbidige
nbo
nboek
nbou
nbougebiet
nbougewaaksen
nbougru
nboukundige
nbouprodukten
nbouskoalle
nbouwer
nbre
nbru
nbyld
nbylden
nchen
nchengladbach
nchez
ncis
ncrv
ncs
nd
nda
ndanks
ndc
nde
ndei
ndel
nden
nder
nderbefelhawwer
nderbou
nderbouwing
nderbrekking
nderbrocht
nderbrutsen
nderdak
nderdiel
nderdielen
nderdienen
nderdrukken
nderdrukking
nderdrukt
nderdu
ndere
nderearm
nderen
nderfamylje
nderfamyljes
nderferdield
nderferdieling
nderferparte
nderfine
nderfining
nderfiningen
nderfinings
nderfrege
nderfreging
nderfu
nderfynt
ndergean
ndergie
ndergien
ndergiet
ndergong
ndergru
ndergyng
nderha
nderhannele
nderhannelingen
nderhannelings
nderhannelje
nderhanneljen
nderhearrich
nderhearrige
nderhearrigen
nderhold
nderholden
ndering
nderings
nderinoar
nderjen
nderkant
nderkening
nderklasse
nderkommen
nderlik
nderlike
nderling
nderlinge
nderlizzende
ndernaam
ndernimme
ndernimmen
ndernimmer
ndernimmers
ndernimming
ndernimmings
ndernommen
nderoan
nderofsier
nderre
nderrin
nderrjocht
nderrjochte
nders
nderseeboat
nderseee
nderseeske
ndersiken
ndersiker
ndersikers
ndersiket
nderskaai
nderskaat
nderskate
nderskept
nderskie
nderskied
nderskiede
nderskieden
nderskieding
nderskiedings
nderskiedt
nderskift
ndersoarte
ndersoarten
ndersocht
nderstboppest
nderste
ndersteande
nderstelde
nderstelling
nderstiet
nderstipe
nderstru
nderstypje
nderstypjen
nderstypjende
ndersyk
ndersykje
ndersykjen
ndert
ndertekene
ndertekenen
ndertekeners
ndertekening
ndertekenje
ndertekenjen
nderten
ndertitel
ndertiteling
ndertjierrich
ndertjierrige
nderttu
nderu
nderweis
nderwerp
nderwerpen
nderwiis
nderwiisd
nderwiiskundige
nderwilens
nderwizer
nderwizeres
nderwizeresse
nderwizers
nderwra
nderwurp
nderwurpen
ndez
ndieren
ndige
ndjip
ndjippe
ndoarp
nds
ndu
ndy
ndyk
ne
nea
neachje
neaken
neakenble
neakene
neakenens
neakenfotografy
neakenmodel
neal
neamd
neamde
neamden
neame
neamen
neamt
near
neare
nearne
nearo
neat
neatich
nebeista
nebraska
nebu
nebula
neburg
neck
neckar
ned
nedatabase
neder
nederdu
nederklits
nederla
nederlaach
nederlagen
nederland
nederlanden
nederlands
nederlandsch
nederlandsche
nederlandse
nederlannen
nederlanner
nederlanners
nederryn
nedersaksen
nedersaksysk
nedersaksyske
nedich
nedige
nee
need
needla
needsaak
needsaaklik
needsaaklike
needsaaklikerwize
neef
neeltje
neeson
neffens
neftigen
negative
negatyf
negearjen
negearre
negearret
negebiet
negerslaven
negroi
nehemia
nei
neidat
neidiel
neidielen
neier
neifolgers
neifolging
neifolgjende
neigean
neigeraden
neihardt
neijier
neikommeling
neikommelingen
neikommende
neil
neilannen
neilibjen
neilitten
neilittenskip
neill
neimakke
neimoi
nein
neisiet
neisieten
neisjoen
neisleep
neist
neiste
neistenby
neistlizzende
neisyngronisearre
neite
neiteam
neitiid
neitiids
neitins
neiwurd
nekke
nekop
nektar
nel
nellie
nelly
nelson
nemesis
nemint
neminten
nemo
nen
nena
nende
nens
nensorganisaasje
nenssoarch
nensswierrichheden
nent
neo
neogoatysk
neogoatyske
neogotyk
neogotyske
neoklassisistyske
neolitikum
neolityske
neorene
neornithes
neoromaanske
nepal
nepos
neptunus
ner
neras
nerijen
ners
nerts
neruda
neryn
nes
ness
nest
neste
nestor
net
netflix
netherlands
netten
nettsjinsteande
network
netwurk
netwurken
neue
neuengamme
neurenberch
neurenberg
neurolooch
neushoorn
neustadt
neustrje
neutraal
neutrale
neutraliteit
nevada
nevalainen
neven
never
nevernever
neville
nevis
nevski
new
newcastle
newman
newport
news
newsted
newton
newyorkske
next
nexus
nez
nfa
nfe
nfeilich
nferhurde
nferhuzers
nfermogen
nferwachte
nferwachts
nferwachtse
nfl
nfls
nfoljende
nfollybal
nfolslein
nfolsleine
nfolto
nfrede
nfu
nfurd
ng
nga
ngaarde
ngaryp
ngarypster
ngea
ngebiet
ngebru
ngedien
ngedierte
ngefear
ngelikense
ngelok
ngelokke
ngelokken
ngelokkich
ngelokkige
ngemak
ngemakken
ngemurken
ngenede
nger
ngeskikt
ngewoan
ngewoane
ngoed
ngreve
ngru
nguod
nh
nha
nhear
nheil
nhl
nhu
nhuzen
ni
nia
niccolo
nice
nicholas
nichols
nicholson
nicht
nick
nickelodeon
nicky
nico
nicodemus
nicola
nicolaas
nicolaes
nicolai
nicolas
nicolaus
nicole
nicolette
nie
niels
nielsen
nienichheid
nienoard
niet
niets
nietzsche
nieuw
nieuwe
nieuwegein
nieuwenhuis
nieuwland
nieuws
nieuwsblad
nig
nige
nigearia
nigel
niger
nigeria
nigeriaanske
niget
night
nights
nightwish
nigra
nii
niikhoarntsje
niikhoarntsjes
niis
nij
nijbou
nijbouwyk
nijbre
nijdam
nije
nijeberkeap
nijefurd
nijegea
nijehaske
nijeholt
nijeholtpea
nijemardum
nijenhuis
nijere
nijeska
nijesyl
nijetrine
nijeveen
nijewier
nijfu
nijgh
nijhoarne
nijhoff
nijhuzum
nijjiersdei
nijkakigen
nijkerk
nijla
nijmegen
nijmoadrige
nijntje
nijpels
nijs
nijsble
nijseela
nijsgjirrich
nijsgjirrige
nijsgjirrigens
nijskoat
nijsle
nijsprogramma
nijsstjoerder
nijste
nijtap
nijverdal
nijynkommelingen
nikaragu
nikita
nikki
nikolaas
nikolaastsjerke
nikolai
nikolaj
nikolaus
niks
nikys
nils
nim
nimme
nimmen
nimoy
nimt
nimwegen
nin
nina
nine
ning
ningen
nings
ningsbaan
ningte
nintendo
nio
niobrara
niro
nirvana
nis
nisme
nissen
niten
nitraat
nityske
nitz
nivalis
nivo
nixon
nizjni
nje
njen
njierrige
njildich
njoggen
njoggende
njoggenjierrige
njoggentich
njoggentiger
njoggentjin
njoggentjinde
njonkelytsen
njonken
njonkeninoar
njonkenlizzende
nk
nkaart
nkaarten
nkeltyske
nker
nkerbru
nkerder
nkere
nkers
nklimaat
nkpapa
nkring
nkringen
nkvd
nl
nla
nlieding
nliedings
nlijige
nling
nlinge
nlizzer
nlizzers
nljip
nm
nmacht
nmassa
nmeilydsum
nmeilydsume
nmisber
nmjitter
nmjitters
nmjittich
nmooglik
nmooglike
nn
nne
nnedich
nnen
nnes
nnoazele
no
noa
noach
noah
noait
noar
noara
noarch
noard
noardamerikaanske
noardburgum
noarddu
noardeast
noardeasten
noardeastkant
noardeastlik
noardeastlike
noardeastpolder
noardein
noarden
noardenfjild
noarder
noarderbreedte
noardertsjerke
noardfriezen
noardfrysk
noardfryske
noardgermaanske
noardgrins
noardholla
noardhorn
noardiersk
noardierske
noardkant
noardkoreaanske
noardkust
noardlik
noardlike
noardliker
noardlikste
noardpoal
noardryn
noardsee
noardseekust
noardside
noardske
noardumberla
noardumbrje
noardwa
noardwest
noardwesten
noardwestgermaanske
noardwestkant
noardwestkust
noardwestlik
noardwestlike
noardwestsemityske
noardwyk
noaren
noarm
noarmannen
noarmen
noarsk
noarske
noarwegen
noas
noaske
noat
noaten
nobel
nobelpriis
nobelpriiswinner
noble
noch
nochal
nochris
nocht
noe
noed
noerflak
noffisjele
noflik
noflike
nog
noi
noir
noirs
noli
nom
nomaden
nomadyske
nomd
nome
nominaasje
nominaasjes
nominearre
nominoe
nommen
non
nonnekleaster
nonnen
nooit
noonan
noord
noorden
noordhoff
noordmans
noppert
nora
norbertinen
norbertus
nord
norden
norfolk
norganisearre
noris
normaal
normale
norman
normandie
normandje
normandysk
normandyske
normanje
north
northampton
northern
northumberland
northumbria
northwest
norton
norwich
nos
not
notaris
notearre
notes
nothing
notiid
notre
nottingham
nou
nouveau
nouvelle
nov
nova
novel
novelle
novellen
novelles
november
novgorod
novial
novimber
novo
novosibirsk
now
npaad
nplaat
nplan
npo
nps
npunt
npunten
nr
nrc
nre
nregelmjittige
nreis
nreplik
nrjocht
nrjochten
nrjochtlik
ns
nsb
nsbeweging
nscoach
nsdap
nsdei
nsdiel
nsdielen
nsdistrikt
nse
nseigen
nsel
nselarij
nselier
nsen
nser
nseradiel
nserdifyzje
nsere
nseres
nseresse
nsers
nses
nsestyl
nsgea
nsgemeente
nsgenoat
nsgenoaten
nsgenoatskip
nshear
nsichtber
nsiler
nsje
nsjehu
nsjen
nsjes
nsk
nska
nskansearre
nskatalogus
nske
nsken
nskewei
nskildere
nskip
nskippen
nskipsstyl
nskrift
nskriften
nskrigers
nsktalich
nsktalige
nskuld
nskuldich
nskuldige
nsla
nslach
nsleat
nslieder
nsmaat
nsman
nsmaten
nsmiel
nsmiet
nspartij
nsrepublyk
nsrich
nsspringen
nst
nste
nsteapel
nster
nsterland
nstie
nstien
nstiene
nstiennen
nstiet
nstifting
nstiid
nstjerlik
nstjerlikens
nstjoer
nstof
nstoffen
nstreek
nsu
nswei
nswert
nt
ntaalsk
ntaasje
ntbining
ntbleate
ntbrekke
ntbrekken
ntbrekt
ntbriek
ntbu
ntdekke
ntdekken
ntdekker
ntdekking
ntdekkings
ntdekkingsreizger
ntdekkingsreizgers
ntdekt
ntdekte
ntdiek
ntdieken
ntdien
ntduts
ntdutsen
nte
ntearre
ntefreden
nteigene
nten
ntfange
ntfangen
ntfanger
ntfangst
ntfangt
ntfierd
ntfierde
ntfierders
ntfiere
ntfieren
ntfiering
ntfiert
ntflechte
ntflechtsje
ntflechtsjen
ntfolke
ntfong
ntfongen
ntginning
ntgu
ntha
nthalze
nthalzing
ntheft
nthelle
nthiet
nthjit
nthjitte
nthjitten
ntjaan
ntjoech
ntjoegen
ntjout
ntjouwing
ntjouwings
ntju
ntkaam
ntkomme
ntkommen
ntkomt
ntkre
ntl
ntle
ntliend
ntliende
ntlient
ntm
ntnadere
ntnaderjen
ntploffing
ntploft
ntpraten
ntre
ntrinnen
ntromme
ntrou
nts
ntseach
ntseager
ntseagersk
ntsein
ntsen
ntset
ntsetten
ntsje
ntsjerk
ntsjes
ntskuldigings
ntslaan
ntslach
ntslein
ntsnappe
ntsnappen
ntsnapping
ntsnapt
ntsnapte
ntspringt
ntstean
ntsteane
ntstekking
ntstie
ntstien
ntstiene
ntstienen
ntstiet
ntstried
nttiid
nttiids
ntwapene
ntwerp
ntwerpen
ntwerper
ntwerpers
ntwerpster
ntwikkelder
ntwikkele
ntwikkelen
ntwikkelet
ntwikkeling
ntwikkelingen
ntwikkelings
ntwikkelingslannen
ntwikkelje
ntwikkeljen
ntwurde
ntwurp
ntwurpen
nu
nua
nuet
nuete
nuit
nuklee
nul
nullebeammen
nullewa
number
numidyske
numydje
numydjers
nunspeet
nuodlike
nus
nut
nute
nuten
nuttige
nuver
nuveraardich
nuveraardige
nuvere
nv
nwa
nwacht
nwachten
nwar
nwei
nwestfrysk
nwet
nwetlik
nwetter
nwettich
nwierskynlik
nwinske
nwis
nwu
nwurk
nwurklju
ny
nye
nyegea
nyk
nyl
nymphalidae
nymwegen
nynke
nys
nze
nzen
nzene
nzeste
o
oa
oade
oak
oakerhater
oakland
oakley
oalje
oaljefant
oaljefanten
oaljeferve
oan
oanbea
oanbean
oanbelange
oanbelanget
oanbelangjende
oanberne
oanbesibbe
oanbidding
oanbiede
oanbiedt
oanboaze
oanboazjende
oanbod
oanbou
oanboud
oanbringe
oanbringen
oanbrocht
oanbrochte
oanbuorjende
oandacht
oandie
oandiel
oandielen
oandielha
oandien
oandiene
oandreaun
oandreaune
oandriuwing
oandwaan
oandwaning
oandwanings
oanfal
oanfalle
oanfallen
oanfaller
oanfallers
oanfalt
oanfarring
oanfier
oanfierd
oanfierde
oanfierder
oanfierders
oanfiering
oanfitere
oanfoel
oanfoelen
oanfold
oanfoljende
oanfolle
oanfolling
oanfraach
oanfrege
oangean
oangeande
oangeane
oangelegenheden
oangenaam
oangie
oangien
oangiet
oangrinzgjende
oanha
oanhelle
oanhing
oanhinger
oanhingers
oanhold
oanholden
oanhongen
oanien
oaniensletten
oaninoar
oanjaan
oanjefte
oanjoech
oanjout
oanjouwe
oanju
oankaam
oankamen
oankeap
oanklacht
oanklachten
oanklage
oankocht
oankomme
oankommen
oankommende
oankomst
oankomt
oankundige
oankundiging
oanleard
oanlei
oanlein
oanleine
oanlieding
oanlis
oanlizze
oanlizzen
oanlu
oanlutsen
oanmakke
oanmeitsjen
oanmerking
oanmoedige
oanmurken
oannaam
oanname
oannimlik
oannimme
oannimmen
oannimmer
oannimt
oannomd
oannommen
oanpak
oanpakt
oanpasse
oanpassing
oanpassings
oanpast
oanpaste
oanplante
oanpriizge
oanreitsje
oanrekke
oanrekking
oanret
oanrieden
oanrin
oanrjochte
oanroppen
oanset
oansette
oansetten
oansjen
oansjenlik
oansjenlike
oansjoen
oanskaf
oanskaft
oanslach
oanslaggen
oansleat
oanslein
oansletten
oanslu
oanslute
oansluten
oanslutend
oanslutende
oansluting
oanspraak
oanspraken
oansprektitel
oansprutsen
oanstean
oansteande
oansteld
oanstelde
oanstelling
oanstriid
oanstutsen
oanswettende
oant
oantaast
oantaaste
oantaasting
oantal
oantallen
oantekene
oantekeningen
oantekenings
oantinken
oantinkens
oantins
oantoand
oantreffe
oantreft
oantrekking
oantreklik
oantreklike
oantroffen
oantru
oantrune
oantrunen
oantsjut
oantsjutte
oantsjutten
oantsjutting
oantsjuttings
oanwaaks
oanwaaksende
oanwe
oanwiisd
oanwiisde
oanwizing
oanwizings
oanwoeksen
oar
oard
oarde
oardel
oarden
oarder
oardere
oarderet
oardering
oarders
oardiel
oardiele
oare
oarehelte
oarekant
oaren
oarenien
oargel
oargelbedriuw
oargelbouwer
oargelbouwers
oargelfront
oargelgalerij
oargelist
oargelkas
oargelmakker
oargelmakkerij
oargels
oarken
oarkonde
oarkonden
oarkunde
oarloch
oarlochfiering
oarlochsandroi
oarlochsfilm
oarlochsjierren
oarlochske
oarlochsmisdieden
oarlochsmisdiediger
oarlochsmonumint
oarlochsskip
oarlochsskippen
oarloggen
oarmans
oars
oarsaak
oarsaken
oarsoartige
oarsom
oarsprong
oarspronklik
oarspronklike
oates
oaxaca
ob
obama
obdam
obe
obelisk
oberman
obi
objekt
objekten
objektyf
oblast
oblasten
obs
obsedearre
observatoarium
observer
obstakel
obstakels
oc
ocasio
ocean
och
ochi
ockels
ockinga
october
octopussy
ode
oden
oder
odessa
odin
odjibwe
odo
odoaker
odore
odyssee
odysseus
oe
oebele
oeckelen
oefene
oefening
oefenings
oefenjen
oefenterrein
oeganda
oegstgeest
oehoe
oekrai
oekraynsk
oekraynske
oekumenysk
oekumenyske
oenanthe
oene
oenema
oentsjerk
oepke
oer
oera
oeral
oeralysk
oerbefel
oerbefelhawwer
oerbegripen
oerbleau
oerbleaun
oerbleaune
oerbliuwende
oerbliuwsel
oerbliuwsels
oerbliuwt
oerboard
oerbre
oerbringe
oerbringen
oerbrocht
oerd
oerdei
oerdeis
oerdekt
oerdekte
oerdien
oerdracht
oerdrachtlike
oerdrage
oerdreaun
oerdroech
oerdroegen
oerdu
oerdutsen
oere
oerein
oeren
oerenlang
oerfal
oerfallen
oerfallers
oerflak
oerflakte
oerflaktewetter
oerfloed
oergean
oergie
oergien
oergiet
oergong
oergongen
oergongskalinder
oergrutte
oerha
oerhaal
oerhearske
oerhearsking
oerhearskjende
oerheden
oerheid
oerheidstsjinsten
oerheidswegen
oerheidsynsta
oerhelje
oerhelle
oerhevele
oerhinne
oerhoer
oerien
oerienkomme
oerienkomst
oerienkomsten
oerienkomt
oerienstimming
oerisel
oeriselske
oerjaan
oerjefte
oerjoech
oerjout
oerju
oerkaam
oerkape
oerkoepeljende
oerkomme
oerkommen
oerkomt
oerlaapje
oerladen
oerlange
oerle
oerlevere
oerlevering
oerlibbe
oerlibben
oerlibbene
oerlibbenen
oerlibbet
oerlibje
oerlibjen
oerlibjende
oerlis
oerlitten
oerma
oermacht
oermasterder
oermastere
oermasteren
oermasterer
oermasteret
oermastering
oermasterje
oermasterjen
oermjitte
oernaam
oername
oernamen
oernimme
oernimmen
oernimt
oernomd
oernommen
oerol
oerpake
oerpakesizzer
oerpleatst
oerru
oers
oersee
oerseesk
oerseeske
oerset
oersetster
oersette
oersetten
oersetter
oersetters
oersetting
oersettingen
oersettings
oersettingsfragmint
oersjoch
oerskot
oerspield
oerstallich
oerstallige
oerstap
oerstapt
oerste
oerstek
oerstekke
oerstekken
oerstjoer
oerstreaming
oerstreamings
oerstutsen
oertaal
oerterp
oertre
oertsju
oeru
oerwa
oerweldige
oerweldigjende
oerwinne
oerwinnen
oerwinner
oerwinning
oerwinningen
oerwinnings
oerwinteret
oerwinterje
oerwu
oerwurk
oeuvre
oeuvrepriis
oever
oezbeeksk
oezbekistan
of
ofbyld
ofbylden
ofdieling
off
offa
offensyf
offenwier
offer
offere
offerjen
offers
office
officer
official
offinsyf
offisier
offisieren
offisjeel
offisjele
offs
offurdigen
ofhinklik
ofl
oflaat
ofset
ofsier
ofsieren
ofskieding
ofslu
oft
ofte
oftewol
ofwol
og
ogen
oglala
oh
ohio
oi
oidipoes
oil
ois
oise
ojibwe
ok
oka
okinawa
okke
okko
okkulte
oklahoma
okse
oksen
oksidaasje
oksidator
oksitaansk
okt
oktaaf
oktavianus
oktober
oktoberrevolu
oktroai
oktroaien
ol
ola
olaf
old
olde
oldehove
oldenbarnevelt
oldenburg
oldenburger
oldenhof
oldersum
ole
oleg
olga
oliveberch
oliveira
oliver
olivia
olivier
olof
olsen
olson
olterterp
olympia
olympiade
olympic
olympus
olympysk
olympyske
om
omaan
omaha
oman
omar
omboud
ombringe
ombrocht
omdat
omdo
omdoopt
omdraaid
omega
omer
omfang
omfetsje
omfette
omfettet
omfieme
omfiemet
omfiemje
omfoarme
omgean
omgiet
omgong
omgongen
omgongstaal
omgre
omheech
omhinne
omjouwing
omju
omkaam
omkamen
omke
omkeard
omkearde
omkes
omkesizzer
omklamme
omkomme
omkommen
omkomt
omkriten
omleech
omlizzende
omloop
omlyk
ommelannen
ommen
ommers
omnamwurd
omneamd
omnibus
omnibusedysje
omnibusu
omraak
omraand
omreden
omrekkene
omrin
omroep
omrop
omroppen
omropster
omset
omsetten
omsk
omskot
omskotten
omskreau
omskreaun
omskriuwe
omskriuwen
omskriuwing
omskriuwings
omskriuwt
omslach
omslaggen
omsletten
omstannichheden
omstavere
omstriden
omt
omtinken
omtinkens
omtrek
omtrent
omtrint
omwei
on
once
onder
ondergang
onderweg
onderwijs
onderzoek
one
online
only
onno
ono
ons
onstwedde
ontario
ontonagon
ontwikkeling
onze
oo
oog
ook
oom
oorlog
oorschot
oort
oost
oosten
oostende
oosterhesselen
oosterhoff
oosterhout
oosting
oostwold
op
opa
oparbeidzjen
opbettere
opblaasd
opbou
opboud
opboude
opbouwe
opbouwen
opbringe
opbringende
opbringst
opbringsten
opbrocht
opdaagjen
opdield
opdieling
opdien
opdoekt
opdracht
opdrachten
opdrachtjouwer
opdrachtjouwers
opdroegen
opdu
opeaske
open
opera
operaasje
operaasjes
operasjoneel
operasjonele
operasjongster
operation
operatyf
operearje
operearre
operearret
operette
opfallend
opfallende
opfalt
opfang
opfarrenden
opfeart
opfearten
opfet
opfette
opfetting
opfettings
opfieding
opfierd
opfiering
opfolge
opfolger
opfolgers
opfolging
opfolgje
opfolle
opfongen
opfrette
opfretten
opgean
opgeande
opgie
opgien
opgong
opgraving
opgravings
opgroeid
opgroeide
opgroeven
opha
opheffen
opheffing
opheft
ophefte
ophelbre
ophelje
ophelle
opheven
ophold
opholden
ophong
ophongen
opienfolging
opienfolgjende
opinoar
opiny
opinypeiling
opite
opiten
opjaan
opjefte
opju
opkaam
opkeard
opknappe
opknapt
opkocht
opkomme
opkommen
opkommende
opkomst
opkomt
oplaach
oplaat
oplage
oplein
opleine
oplevere
opleverje
oplibbing
oplieding
opliedingen
opliedings
oplizze
oplosse
oplossen
oplossing
oplossings
oplost
oplu
oplutsen
opmakke
opmars
opmeer
opmeitsje
opmerking
opmerkingen
opmerkings
opmerklik
opmerklike
opmurken
opnaam
opname
opnamen
opnames
opnij
opnimme
opnimmen
opnimt
opnomd
opnommen
oppakke
oppakt
oppedijk
oppenearre
oppenearret
opper
oppergod
opperhaad
opperhaden
opperrabbyn
opperrjochter
opperste
oppikt
opposysje
oprah
opre
oprinne
oprinnende
oprint
oprjocht
oprjochte
oprjochten
oprjochter
oprjochters
oprjochting
oprjochtsje
oprjochtsjen
opro
oproer
oprop
oproppe
oproppen
opropt
opru
oprydleane
opset
opsetlike
opsetsin
opsette
opsetten
opsicht
opsichten
opsichter
opsiket
opsje
opsjoch
opskille
opskood
opskreaun
opskrift
opskuor
opslaan
opslach
opslachmar
opslachplak
opslagger
opslein
opsletten
opslu
opsluten
opsmiet
opsmite
opsmiten
opsmyt
opsocht
opsomming
opspjalte
opspjalten
opspoard
opspraak
opsta
opstanneling
opstannelingen
opstannen
opstannige
opstanning
opsteld
opstelde
opstelle
opstellen
opstelling
opsterla
opstien
opsykje
optein
optekene
optocht
optochte
optrede
optreden
optredens
optreedt
optyske
opu
opus
opwachte
opwekke
opwining
or
ora
orakel
orale
orange
oranje
oranjes
oranjeste
oranjewa
oratio
orbison
orbit
orchestra
order
oregon
oreilles
oreste
orestes
org
orgaan
organa
organen
organisaasje
organisaasjes
organisator
organisearje
organisearjen
organisearre
organisearren
organisearret
organisme
organismen
organist
organization
organysk
organyske
orgasme
orgel
orgels
orgelsite
orie
oriental
origenes
origin
original
orii
orion
orizjine
orizjineel
orizjinele
orjol
orkaan
orkanen
orkest
orkesten
orkney
orlando
orle
orleans
ornaminten
ornaris
orne
ornearje
ornearre
ornearret
ornitolooch
oro
orson
ortega
ortodoks
ortodokse
ortschaft
ortsgemeinde
ortsteil
orwell
orzjinele
os
osaka
oscar
oscars
osea
oseaan
oseaanje
oseanen
osg
osinga
osingastate
oskar
oskars
oskysk
oslo
osmaansk
osmaanske
osman
osmanen
osnabru
oss
osseesje
ost
ostfriesische
ostfriesland
ostrogoaten
oswald
ot
otello
other
others
oto
ottawa
ottema
otter
otterdoks
otterdokse
otterdoksen
otterdoksk
otterdokske
otterdoksy
otters
otto
ottomaanske
ottomanen
otus
ou
oud
oude
oudheid
oudshoorn
our
ouse
ousterhaule
out
outer
outlaw
outside
ouwe
ouwer
ouwers
ov
over
overleef
ovidius
owen
owens
owl
own
oxford
oxfordshire
oz
p
pa
paad
paadfinerij
paard
paazjes
pablo
pacht
pachter
pacific
padawan
paden
paderborn
padme
padua
page
pages
paidhi
pain
paint
paju
pak
pake
pakes
pakesizzer
pakesizzers
pakhu
pakhuzen
pakistaanske
pakistan
pakjes
pakke
pakken
pakt
pakte
pakten
palace
paladin
palais
palau
palazzo
pale
paleis
paleizen
paleo
palermo
palestina
palestinen
palestynske
palin
pallas
palm
palma
palme
palmer
palo
palpatine
palts
palustris
pam
pamela
pamflet
pamfletten
pan
panaka
panama
panamakanaal
pandemy
pander
panhandle
panhuysen
panne
pannen
pannoanje
panorama
panteo
panter
panther
panyk
paolo
pap
papa
papen
paper
paperback
paperbacks
papers
papiamento
papiamentsk
papiamentu
papiamintsk
papier
papieren
papierren
papilio
papillon
paping
papoea
papyrus
par
para
parade
paradijs
paradise
paradys
paraguay
parallel
parallelle
paralympysk
paralympyske
paramaribo
paramilite
paramount
paranormal
parasjute
parasjutisten
parc
pardon
parfum
parides
paris
parish
park
parkeargaraazje
parkearkelder
parkearplak
parkearterrein
parken
parker
parkinson
parkoers
parks
parlement
parlemint
parleminte
parleminten
parlemintsferkiezings
parlemintsleden
parlemintslid
parma
parnassius
parochianen
parochy
parochys
parochytsjerke
parodie
parody
parool
parregea
parse
parseburo
parsekonferinsje
parsons
part
parte
parten
partij
partijen
partijlieder
partikulier
partikuliere
partikulieren
partisanen
partityf
partizanen
partner
partners
partnerskip
partoer
partoeren
parton
party
partyske
parus
parys
paryske
pas
pasaana
pasadena
pascal
pasco
pasifistyske
pasifysk
pasifyske
pasja
pasjint
pasjinten
paso
paspoart
pass
passaazje
passaazjes
passage
passau
passazjier
passazjiers
passazjiersskip
passe
passearret
passen
passende
passenger
passengers
passer
passion
passos
passy
passyf
past
pasta
paste
pasten
pasternak
pasteur
pastoar
pastor
pastorale
pastorij
pastorije
pastory
pat
pater
patient
patint
patolooch
patriarch
patriargaat
patrice
patricia
patrick
patriot
patriotten
patroan
patroanen
patroanhillige
patrol
patronym
patru
patterson
patton
pau
paul
paula
pauli
paulie
paulina
pauline
paulo
paulus
paulustsjerke
paus
pausen
pauslike
pauw
pavarotti
pavel
pavia
paviljoen
paxton
payne
pays
paz
pc
pdf
pe
peabody
peace
peacemaker
peak
peaks
peal
peallen
peanstra
pear
pearel
pearels
pearen
pearing
pearke
pearkes
pearl
pears
pearse
pearson
peartiid
peary
peaske
peazens
peck
pedaal
pedagogyske
pedagooch
pedersen
pedro
peel
peer
peeta
peggy
peil
pein
peinje
peins
peize
pekel
pekela
peking
pel
pelmu
peloponnesos
peloponnezyske
peloton
pels
pelshannel
pelzen
pemba
pen
penda
penelope
penetraasje
penguin
penguins
penis
penjum
penn
pennsylvania
penny
penric
pensjoen
pentagon
penthouse
people
pepergea
pepper
pepyn
per
peraasje
peraasjes
perative
percy
pereslavl
perfect
perfekt
perfekte
perfester
perfoarst
performance
perikles
peril
perioade
perioaden
perioades
periodike
periodyk
perk
perkamint
perkins
perkusje
perm
permafrost
permanint
permaninte
perrault
perron
perry
pers
perse
perseel
perselen
persiel
persiis
persint
persintaazje
persintaazjes
persize
persoan
persoane
persoaneferfier
persoanen
persoanlik
persoanlike
persoanlikheid
persoansnamme
person
personaazje
personaazjes
personal
personeel
personele
personiel
perspektyf
persysk
perth
peru
perzen
perzje
perzysk
perzyske
pest
pet
pete
petear
petearen
peter
peters
petersburch
petersburg
petersen
petgatten
petit
petra
petrarca
petri
petrograd
petronella
petrus
petrustsjerke
pets
petter
petysje
peyton
pez
pfalz
pfeiffer
ph
phantom
phasma
phil
philadelphia
philip
philipp
philippe
philippus
philips
phillip
phillips
philosopher
philosophy
phlox
phoenix
php
phylloscopus
pi
pia
piaam
pianist
pianiste
piano
piazza
pica
picard
picasso
pick
pico
picture
pictures
pie
piebenga
pieck
pier
pierce
piercing
piercings
pierre
piers
piersma
pierson
piet
pieter
pieters
pietje
pietro
pigmint
piip
piipoargel
piiptsjilling
piipwurk
pik
pike
piken
pikten
piktyske
pilasters
pilatus
pilgrim
piloat
piloate
piloaten
pilot
piloto
pim
pimpernel
pin
pine
pineholle
pinewood
ping
pingorui
pingui
pink
pinkeltje
pinkster
pinksterblom
pinne
pinning
pinsjoen
pinsjonearre
pinsjonearring
pinyin
pioneer
pionier
pioniers
pipen
piper
pipo
pippin
pippyn
piraat
piramide
piramiden
pirate
piraten
piraterij
pirates
pisa
pistoal
pistoalen
pit
piter
piterbuorren
pitersbierrum
pitertsjerke
pitstrjitte
pitt
pittsburg
pittsburgh
pius
pixar
pixie
pjotr
pjut
pjutteboartersplak
pk
pkn
pl
plaat
plaats
plaatsje
plaatsjes
place
places
placid
plafon
plafond
plagiaat
plain
plains
plak
plakette
plakferfangend
plakferfanger
plakfine
plakfu
plakfynt
plakje
plakjes
plakken
plaknamme
plaknammen
plakt
plan
pland
plande
planeet
planeetoerflak
planet
planetarium
planete
planeten
planetestelsel
planetestelsels
planetoi
planke
planken
plannen
planning
plant
plantaardich
plantaardige
plantaazje
plantaazjes
plante
plantegroei
planten
plantenamme
plantesoarten
plantinga
plantsje
plantsjen
planu
plas
plasma
plasse
plassen
plastyske
plat
plata
platbaarnd
platdu
plate
platekontrakt
platelabel
platemaatskippij
platen
platfoarm
platina
platinum
plato
platoon
platt
platte
plattegru
plattela
platz
play
playboy
player
playground
playing
playmate
plaza
pleach
pleage
pleats
pleatse
pleatsen
pleatsing
pleatslik
pleatslike
pleatst
pleatste
pleatsten
plechtich
plechtichheid
plechtige
pleechheit
plein
pleinen
pleistoseen
pleit
pleite
plestik
plet
pletten
pletter
plicht
plichten
plinius
plo
ploech
ploeg
ploegen
ploegsma
plomsturt
plondere
plonderen
plondering
plonderings
plonderje
plonderjen
plondertochten
ploos
plot
plu
plus
pluto
plutoanium
plymouth
plysje
plysjeburo
plysjekommissaris
plysjeman
plysjeminsken
plysjes
plysjesearje
plysjesearjes
plysjeskoalle
plysjetsjinst
pmoardner
pmoardnersgilde
po
poadium
poadiumkeunsten
poal
poalen
poalsirkel
poalsk
poalske
poarte
poartegebou
poarten
poartetsjerke
poat
poaten
pocahontas
pocket
poddestoel
poddestuollen
poe
poel
poema
poems
poer
poerbe
poerrazen
poes
poesjkin
poetry
pogrom
point
pointe
poison
poitiers
poke
pokken
pol
polak
polder
polderdyk
poldermole
poldermu
polders
pole
police
political
politics
politiek
politieke
politika
politike
politikology
politikolooch
politikus
politisy
polityk
polo
pols
polygamy
polyneezje
polynezie
polynezyske
polytei
pommeranten
pommeren
pomp
pompeble
pompejus
pompen
pompt
ponca
pond
pongha
ponka
pont
pontifikaat
pontius
pontus
pony
pool
poole
poort
poortinga
pop
pope
popgroep
popke
popkema
popkultuer
popma
popmuzyk
poppe
poppen
poppenwier
popper
poppo
poppoadium
poppriis
poppy
pops
popta
populaasje
populaasjes
popular
popularisearre
populariteit
popule
por
porizkova
porn
porno
pornoakteur
pornoakteurs
pornoaktrise
pornoaktrises
pornoble
pornofilm
pornofilms
pornografy
pornografysk
pornografyske
pornokarrie
pornoprodusint
pornoregisseur
pornosites
pornostjer
pornowebsiden
pornowra
pornoyndustry
port
portaal
portage
portalen
porte
portefu
portegal
portegeesk
portegeeske
portegezen
porter
portland
porto
portrait
portret
portretskilder
portrettearre
portretten
portsmouth
portugal
portugeesk
portugeeske
portugezen
posearjen
posearre
poseidon
positive
posityf
posse
post
posten
posthuma
posthumus
postkantoar
postkoade
postkoets
postma
postmapriis
postproduksje
postsegel
postsegels
postu
postume
postumus
posysje
posysjes
pot
potamogeton
potawatomy
potestaat
potgieter
potinsjeel
potinsjele
potlatch
potlead
potmarge
potomac
potsdam
potsje
potten
potter
pound
pour
pourier
powder
powderrivier
powell
power
powers
pozzi
pp
ppen
pr
praach
praag
praat
praatprogramma
prachtich
prachtige
prairie
praktiken
praktisearjend
praktyk
praktysk
praktyske
prate
praten
pratt
prayer
pre
pream
preammen
predaasje
predikaat
predikant
predikanten
preek
preekjen
preekstoel
preemje
preemjejager
preester
preesters
prefekt
prefektuer
prehistoarje
prehistoaryske
preis
preke
preken
preker
premie
premier
premiers
premje
preproduksje
prequel
prequeltrilogy
presbyteriaanske
present
presents
president
presidinsjele
presidint
presidinte
presidinten
presidintsferkiezings
presidintsfrou
presidintskandidaat
presidintskip
presintaasje
presintator
presintators
presintatrise
presintearje
presintearjen
presintearre
presintearret
presit
presize
presley
press
prestaasje
prestaasjes
prestearre
prestiizje
prestizjeuze
preston
presys
pretender
pretoria
pretorius
pretty
pribilofeilannen
price
pride
priis
priisfraach
priizge
prijs
prima
primaat
primasy
prime
primitive
primityf
primus
prince
princess
princeton
prins
prinsbisdom
prinsbiskop
prinsdom
prinsen
prinses
prinsesse
prinsetu
prinsipe
prinsipes
print
printe
printen
printer
printers
printinge
printingen
printsjen
prior
priorij
prioriteit
prisma
prison
prisoner
privacy
private
prive
privee
priveelibben
privileezje
privileezjes
prix
priya
prize
prizejild
prizen
pro
proai
proaidieren
proaien
proasdij
proast
proaza
probleem
problematysk
problemen
probus
proctor
producer
production
productions
produksje
produksjes
produkt
produkten
produsearje
produsearjen
produsearre
produsearren
produsearret
produsint
produsinte
produsinten
proef
proefskrift
proeven
prof
profeet
profesije
profesijen
profesjoneel
profesjonele
professor
profeten
proffuotballer
profitearje
profitearre
profitorganisaasje
profyl
program
programma
programmamakker
programmamakster
programmearring
progress
progressive
progressyf
project
projekt
projekten
prokureur
prolooch
prometheus
prominint
promininte
promise
promoasje
promoatsjen
promovearre
pronk
pronomen
propaganda
propagandist
propeller
proseduere
proses
prosesje
prosessen
prosint
prostitu
prostituee
prostituees
protagonist
protector
protektoraat
protest
protesta
protestanske
protestant
protestanten
protestantisme
protestantsk
protestantske
protestearre
protesten
proto
protoanen
prototype
protte
protter
prova
provence
providence
provinciale
provincie
provinsjaal
provinsjale
provinsje
provinsjehu
provinsjes
provisoarysk
provisoaryske
prowse
proza
pru
pruisen
prusen
prusysk
prusyske
pryde
pryster
prysters
ps
psalm
psalmen
pseudepigrafysk
pseudo
pseudonym
pskov
pskutter
psoe
psv
psyche
psychiater
psychiatry
psychiatrysk
psychiatryske
psycho
psychology
psychologysk
psychologyske
psycholooch
psychyske
pt
pte
pten
ptolemaeus
ptt
pu
pub
puberteit
publ
public
publications
publikaasje
publikaasjes
publike
publisearje
publisearjen
publisearre
publisearren
publisearret
publishers
publishing
publisist
publisiste
publisiteit
publius
publyk
publykspriis
puerto
puget
puller
pulse
puma
punch
punk
punkband
punt
punteklassemint
punten
puntsje
punysk
punyske
puollen
pupillen
pure
puriteinen
puriteinske
purple
pussy
put
putnam
putsje
putsjes
putten
puzel
puzelboekje
puzels
puzzle
pvda
pvv
py
pybe
pyk
pykt
pylder
pylders
pylger
pylgers
pylk
pylken
pynlik
pynlike
pyramid
pyreneee
pyrgus
pyrrhula
pyt
pytheas
q
qaida
qanon
qar
qbuzz
qi
qu
quantum
quatre
quatrebras
quayle
que
queen
queens
queensla
quentin
querido
quest
qui
quick
quigley
quincy
quinn
quint
qumran
quo
r
ra
raad
raaf
raalte
raam
raanpunt
raar
raard
raarderhim
rabbit
rabbyn
rabobank
race
raceo
races
rachel
rachelman
racine
racing
rada
radar
radboud
raddus
radikaal
radikale
radio
radioaktive
radiopresintator
radioprogramma
radiostasjon
radiostjoerder
radiostjoerders
rae
raerd
raerderhim
raf
rafael
rafe
ragnar
ragu
rai
raiders
railroad
rails
railway
rain
rainbow
raith
rajon
rajons
rajoy
rak
raket
raketten
raleigh
ralf
rally
ralph
ram
rama
rambo
ramen
rami
ramirez
ramo
ramon
ramp
rampage
rampen
rampjier
ramsay
ramsey
ramt
ranch
rancheria
rand
randall
randolph
random
randy
ranen
rang
range
rangen
ranger
rangers
rangleaze
ranglist
rankin
rantsoenen
raoul
rap
rape
rapids
rapper
rapport
rapportearre
rapporten
rapu
rard
rare
rargy
ras
rasiale
rasisme
rasistyske
rasmussen
raspberry
rassan
rassen
rasseskieding
rat
ratifisearre
ration
rau
rauwe
raven
ravenna
ravens
ravenswa
ravyn
rawlings
ray
raymond
razernij
razzia
rbinnen
rboppe
rbu
rby
rca
rchen
rd
rder
rdinaasje
rdinaten
rdinator
rdinearre
re
rea
read
readboarstke
readbru
readbu
reade
readen
reader
reading
readkapke
readtsjerk
ready
reagan
reage
reagearre
reager
reahel
reahu
reaklif
reaksje
reaksjes
real
realisearre
realisme
realisten
realistysk
realistyske
realiteit
reality
realitytillefyzjeprogramma
really
reau
reauwen
rebecca
rebekka
rebel
rebelleferbu
rebellefloat
rebellen
rebels
reboelje
reboot
rebu
recht
record
recording
recordings
records
red
redaksje
redakteur
redaktrise
redbad
reddingius
rede
redemption
reden
redenen
redens
reder
rederij
redford
redigearre
redmond
reds
reduksje
redusearre
reduzum
ree
reed
reedlik
reedlike
reedriden
reedrider
reedriders
reedrydster
reee
reef
reek
reekaam
reese
reeves
refektoarium
referindum
reformaasje
refrein
refter
reg
regaad
regan
regear
regearde
regearen
regearing
regearings
regearingslieder
regearje
regearjen
regearjend
regearjende
regearperioade
regearre
regearret
regel
regele
regelet
regeling
regelje
regeljen
regeljouwing
regelmjittich
regelmjittige
regels
regensburg
reggae
regina
reginald
regint
reginten
regintesse
regintskip
regio
region
regionaal
regionale
regisearre
regissearjen
regissearre
regisseur
regisseurs
register
registers
registertraktueren
registraasje
registrearre
registry
reglemint
regnerus
reguliere
regulus
regy
rei
reich
reid
reide
reiden
reiderla
reidhintsje
reil
reilly
reims
rein
reina
reinalda
reinbo
reinder
reinders
reine
reinfal
reinhard
reinier
reinoud
reint
reinwa
reinwetter
reis
reisferhalen
reisferslach
reitdjip
reitsje
reitsjen
reitsma
reitsum
reizen
reizge
reizgen
reizger
reizgers
reizget
reizgje
reizgjen
rekke
rekken
rekkene
rekkenet
rekkenje
rekkenjen
rekkenkeamer
rekket
reklame
reklamespotsje
reklamespotsjes
reko
rekonstrue
rekonstruearre
rekonstruksje
rekord
rekreaasje
rekreaasjegebiet
rekrutearre
rekruten
rektor
relaasje
relaasjes
relatearre
relations
relative
relativiteitsteory
relatyf
relie
religieus
religieuze
religion
religy
religyen
religys
reliken
relikwy
reloaded
rely
rem
remake
remakker
remarque
rembrandt
remco
remember
remigius
remington
remonstranten
remonstrantske
ren
renard
renault
rene
renfield
rengers
rennenberg
renner
rennes
reno
renovaasje
renovaasjes
renovearjen
renovearre
rens
renswoude
renton
reorganisaasje
reorganisearre
reparaasje
reparaasjes
reparearje
reparearjen
reparearre
repertoire
replika
report
reportaazje
reportaazjes
reporter
represaille
represintative
reptilen
republic
republikein
republikeinen
republikeinsk
republikeinske
republiken
republyk
reputaasje
rer
rerum
res
rescue
research
researje
resepsje
resept
reservaat
reservaatla
reservaten
reservation
reserve
reservearre
reservoir
resesje
residinsje
resinsint
resinsinten
resinsje
resinsjes
resint
resinte
resistinsje
resjersjeur
resjersjeurs
resjerzje
resolu
resort
resp
respekt
respektearre
respektivelik
respektivelike
respektyflik
rest
restant
restanten
restauraasje
restauraasjes
restaurant
restaurants
restaurearje
restaurearjen
restaurearre
restearjende
resten
resultaat
resultaten
resultearje
resultearjende
resultearre
resultearret
rette
return
returns
reu
reuel
reunion
reus
reuseftich
reuseftige
reusk
reuze
reuzen
rev
reve
revenge
review
revival
revolu
revolution
revolver
revolvers
revu
revue
rex
rey
reykjavik
reynolds
reysol
rez
rezjimint
rezjiminten
rezjy
rezjym
rf
rfan
rfandinne
rfoar
rfoaroer
rg
rgb
rgen
rhammar
rhapsody
rheden
rhein
rhenen
rhinne
rho
rhode
rhodes
rhythm
ri
ria
riaad
rian
ribben
ric
rica
ricardo
ricciardo
rice
rich
richard
richards
richardson
richelieu
richland
richmond
richter
richthofen
rick
rickman
rico
rictus
riddenearret
ridder
riddere
ridderoarder
ridders
ridderskip
ride
ridel
riden
ridende
rider
riders
ridge
riding
ridley
ridlik
rie
riebeeck
ried
riede
rieden
riedhu
riedsel
riedshear
riedshu
riedsleden
riedslid
riedsman
riedt
riemer
riemersma
rien
rienck
rienk
rienks
rients
rietveld
rif
rifka
riga
rige
rigel
rigels
rigen
rigg
right
rights
riidt
riis
rijk
rijn
rijpma
rijpstra
rijsenburg
rijswijk
rik
rika
rike
riken
riker
rikke
riko
rikt
rikte
ril
riley
rilke
rillegau
rimbaud
rimen
rin
rindieren
rinfu
rinfuorgen
ring
ringen
ringo
rings
ringwei
rinia
rink
rinke
rinne
rinnen
rinnend
rinnende
rinse
rinsema
rinsumageast
rint
rinte
rintje
rintmaster
rintsje
rinus
rio
rioel
riot
ripe
ripperda
ris
rise
risiko
risimer
rising
rispinge
rispjen
risseltaat
risselwearret
rit
rita
rite
riten
rites
ritmaster
ritme
ritske
ritsma
ritter
ritue
ritueel
rituele
rituelen
rivaal
rivalen
rivalisearjende
rivaliteit
river
rivier
rivieren
rivierke
rivierkes
rixt
rje
rjehu
rjes
rjewolf
rjewolven
rjocht
rjochtbank
rjochte
rjochten
rjochter
rjochterha
rjochterkant
rjochterlike
rjochters
rjochtet
rjochtfeardige
rjochthoekich
rjochthoekige
rjochthu
rjochting
rjochtingen
rjochtings
rjochtlike
rjochtline
rjochtlinen
rjochtop
rjochts
rjochtsaak
rjochtsaken
rjochtse
rjochtseal
rjochtsgelearde
rjochtsgeleardheid
rjochtsinnige
rjochtsje
rjochtsjen
rjochtspraak
rjochtstreeks
rju
rjucht
rk
rkd
rko
rm
rmei
rn
rna
rnei
rneist
rnjonken
ro
road
roads
roald
roan
roarda
roas
roasfinster
roaster
roazekra
roazen
rob
robbie
robert
roberto
roberts
robertson
robin
robinson
robles
robot
robots
robrecht
robyn
roc
rocco
rock
rockband
rockefeller
rocky
rod
roddenberry
rode
rodeezje
rodentia
rodeo
rodgers
rodri
rodrigo
rodriguez
roe
roede
roeden
roeiboat
roeien
roeier
roel
roelof
roelofs
roemeenje
roemeensk
roemeenske
roemenen
roemer
roeper
roer
roerhinne
roermond
roes
roger
rogers
rogge
roggen
rogier
rogue
rohan
roi
rok
rokoko
rol
roland
rolde
role
rolf
roll
rollen
rolling
rolls
rolstoel
rolstuollen
roltsje
roltsjes
rom
roma
romaansk
romaanske
romain
roman
romance
romano
romanogoatyske
romanov
romanrige
romans
romansearje
romanskriuwer
romantic
romantyk
romantysk
romantyske
romanum
romany
rome
romein
romeinen
romeinsk
romeinske
romeo
romhinne
romijn
romje
romjen
romke
romme
rommel
rommere
rommert
romney
romp
romplingte
romppleats
romrofte
romte
romtefartu
romtefear
romtefeart
romtefeartorganisaasje
romtefeartprogramma
romten
romtes
romteskip
romteskippen
romtesonde
romtestasjon
romtlike
romulus
ron
ronald
rond
ronde
ronin
ronnie
rono
rood
roodbaard
roodbergen
roodeschool
rook
room
roomelse
roomsen
roomsk
roomske
roorda
roos
roosevelt
roots
rop
ropfolgjende
ropnamme
roppe
roppen
ropping
ropt
ropta
rorke
ros
rosa
rosario
rose
rosebud
rosen
rosenberg
roses
rosetta
rosie
roskilde
roslyn
ross
rossem
rossum
rostov
rot
rotaasje
roth
rotonde
rots
rotsen
rotsige
rotstergaast
rotsterhaule
rottefalle
rottekop
rotten
rotterdam
rotterdamske
rottige
rottum
rottumerplaat
rou
rouboerd
roubuorden
rouen
rouge
round
rousseau
route
rouwe
row
rowling
roxie
roxy
roy
royal
royale
royall
royce
rp
rs
rsanne
rst
rste
rt
rta
rtemperatueren
rterbuch
rtl
rtroch
rtsjin
rttemberg
rtusken
rtv
ru
rubber
rubens
rubryk
ruby
rudi
rudolf
rudolph
rudy
rudyard
rue
rufus
rug
rugby
rugbyspiler
ruhr
ruhrgebiet
rui
ruil
ruile
ruilferkaveling
ruiljen
ruinen
ruiten
ruiter
ruiz
rule
rules
rum
run
rund
runen
runner
running
runt
rupert
rus
rush
rusla
russell
russen
russia
russian
russische
russysk
russyske
rust
rustem
ruten
ruter
ruters
ruterskertier
rutger
rutgers
ruth
rutherford
rutte
ruud
ruurd
ruys
ruyter
rwei
ry
ryan
ryd
rydbaan
rydbanen
ryddjip
ryder
rydstripen
rydt
ryk
rykdom
rykdommen
ryklik
ryks
ryksakademy
ryksdei
rykska
ryksla
ryksmonumint
ryksmonuminten
ryksmonuminteregister
ryksmuseum
ryksoerheid
rykspresidint
ryksste
ryksstrjitwei
rykste
rykstsjinst
ryksuniversiteit
rykswegen
rykswei
rykswettersteat
rym
ryn
rynkanaal
rynla
rynsk
rynske
ryp
rypma
ryptsjerk
rys
rzburg
s
sa
saad
saai
saaila
saak
saakje
saakkundige
saakkundigen
saaklik
saaklike
saakstra
saale
saandam
saanstreek
saarla
saartje
saba
sabah
sabe
sabeare
sabel
sabin
sabine
sabotaazje
sabotearjen
sacajawea
sacha
sachalin
sacharja
sachs
sachsenhausen
sacoridia
sacramento
sacred
sadanich
sadat
saddam
sadistyske
sadree
sadwaande
safety
safier
safierhinne
safolle
saga
sage
sahara
sahel
sai
said
sailing
saint
sainte
saints
sainz
saipan
sake
sakelju
sakeman
saken
sakepartner
sakje
sakjen
sakke
sakket
sakramint
sakristy
saksen
saksofoan
saksysk
saksyske
sal
salaam
saladin
salamis
salang
salaris
sale
salem
salieri
salim
salisbury
salisjaanske
salisjanen
salla
sally
salm
salmond
salomo
salomon
salomonseilannen
salon
saloon
salt
saltzman
salvador
salvation
salve
salverda
salyske
salzburg
sam
samantha
samar
samara
sambia
samen
samle
samler
samlers
samling
samlingen
sammelders
sammele
sammelet
sammelje
sammeljen
sammelnamme
samoa
samoerai
sampa
samsom
samson
samtgemeinde
samue
samuel
samysk
san
sana
sanatoarium
sanchez
sancho
sancti
sand
sande
sander
sanders
sandor
sandra
sands
sandy
saneamd
saneamde
sanfrecce
sang
sanksjes
sankt
sanne
sans
sansibar
sansibareilannen
sanskryt
sant
santa
santee
santema
santiago
santich
santiger
santjin
santjinde
santo
santos
santpoort
santy
sanya
sao
sap
sapfo
sappemeer
sapporo
sar
sara
sarah
sarajevo
sarantium
sarasenen
saratov
sarc
sardynje
sargon
sark
sarken
sarkofaach
sarkofagen
sarlacc
sarnath
sarsy
sartre
saruman
sas
sasear
sasha
saskatchewan
saskia
sasquatch
sassaniden
satan
sate
satellite
satelliten
satellyt
saterland
satine
satire
satiryske
sato
saturday
saturn
saturnus
satyrium
sau
sauerla
saul
sault
sauron
savage
savannah
savanne
save
savoaye
saw
sawat
sawol
sawyer
sax
saxon
say
sb
sbasis
sbs
sc
scaramanga
scarif
scarlet
scene
schaaf
schaap
schaduw
schaper
schaumburg
scheemda
scheepstra
scheffer
schelte
scheltema
scheltes
scheltinga
schelto
schendel
schenk
scheps
scheringa
schetsen
scheveningen
schiedam
schilder
schiller
schimmelpenninck
schip
schippers
schleswig
schloss
schmidt
schneider
schnitger
scho
schokker
scholten
schone
school
schoonhoven
schoonoord
schot
schotanus
schouten
schreiber
schrieversronte
schrijver
schro
schu
schubert
schuil
schulte
schumacher
schurer
schurerpriis
schurman
schuster
schuur
schuurman
schwartz
schwartzenberg
schwarzenberg
schwarzenegger
schweitzer
schwerin
science
sciences
scientific
sciuridae
sciuromorpha
sciurus
scn
sco
scone
score
scorpio
scorpion
scorsese
scotland
scots
scott
scottish
scottsdale
scotty
scouting
scream
screen
scribner
sd
sdap
sde
sdier
sdieren
sdokter
se
sea
seach
seagen
seal
sealdak
sealen
sealfollybal
sealtek
sealtektoer
sealter
sealterfrysk
sealterfryske
sealterla
sealtersk
sealtsjerke
sean
sear
search
searje
searjemoardner
searjes
seas
season
seattle
sebastia
sebastiaan
sebastian
sebastopol
sebu
sechde
sechsde
sechstich
sechstiger
sechstjin
sechstjinde
sechtich
sechtiger
sechtjin
sechtjinde
second
secret
secrets
section
security
sedge
sedimint
see
seeboaiem
seediken
seedu
seedyk
seee
seefarder
seefarders
seefeart
seefu
seegebiet
seehaven
seeheld
seehu
seeklaai
seeklimaat
seela
seelannen
seelju
seelter
seemacht
seeman
seenivo
seerden
seero
seeslach
seeslaggen
seespegel
seestrjitte
seewetter
sefanja
seftigen
segel
segen
segge
segmint
segminten
sei
seid
seijen
seil
seilen
sein
seine
seinen
seis
seisbierrum
seisde
seisjierrige
seist
seistal
seit
seizoen
seizoenen
sek
seker
sekere
sekken
sekonde
sekonden
sekretaresse
sekretaris
seks
seksboartersguod
sekse
seksje
seksjes
seksse
sekssymboal
seksualiteit
seksue
seksueel
seksuele
seksy
sekte
sektoaren
sektor
sekuer
sekuerdere
sekuere
sekularisaasje
sekuliere
sekunde
sel
selde
selden
seldsum
seldsume
selebes
selected
seleksje
selektearre
seleusidyske
self
selleck
sellen
sello
selma
selo
sels
selsbehearsking
selsbestjoer
selsferdigening
selsfertrouwen
selskip
selskippen
selskipslju
selsmoard
selsportret
selsstannich
selsstannichheid
selsstannige
selsstannigens
selsswichting
selstannige
seltsjoeken
sem
sembla
seminaarje
semint
semitysk
semityske
sems
semy
sen
senaat
senario
senarioskriuwer
senarioskriuwers
senarioskriuwster
senator
senators
senegal
seneka
senioaren
senior
senlis
sensations
sense
sensuer
senuwen
seoel
seoul
separatisten
separatistyske
sept
september
septimber
septimius
septuaginta
ser
seremoanje
seremoanjes
seremonie
seremonieel
sergej
sergio
sergius
serie
series
serieus
serieuze
sermons
serra
sersjant
servatius
servearster
serven
service
services
servje
servokroa
servysk
servyske
ses
set
seth
seton
sets
sette
setten
setting
settlement
seus
sevearus
seven
sevenwaters
severus
sevilla
seward
sex
sexual
seylon
seymore
seymour
seysjellen
sf
sfaasje
sfarders
sfe
sfear
sfrou
sfu
sgp
sh
sha
shades
shadow
shadows
shakespeare
shakespeariaanske
shane
shanghai
shannon
shards
sharif
sharing
sharon
shatner
shatterhand
shaven
shaw
shawn
shawnee
shay
she
shea
shear
shedd
sheffield
sheila
shejidan
shell
shelley
shelton
shepherd
sheridan
sheriff
sherlock
sherman
sherwood
shi
shield
shift
shimizu
ship
ships
shire
shirley
shirt
shmi
sho
shoes
shooting
shop
shore
short
shorttrack
shot
shots
show
shows
shuttle
shyla
si
sibbe
sibben
sibearje
sibearyske
sibet
sibrandabuorren
sibrandahu
sibrandus
sibskip
sicario
siccama
sicco
sicherheitsdienst
sicht
sichtber
sichtbere
sicke
sid
side
siden
sideplak
siderius
sideru
sidious
sidney
sidon
sie
siebe
sied
siedden
sieden
siege
siegfried
siel
sielen
sien
siena
sienna
sier
sieraad
sieraden
sieriksee
sierksma
sierra
siet
sieten
sietse
sietske
sietze
sifer
sifers
siffredi
sifo
sigaretten
sigerswa
sigeuners
sigge
sight
sigismund
sigmund
siik
siikbe
sij
sijens
sijthoff
sijtsma
sike
sikehu
sikehuzen
siken
siket
sikhisme
sikke
sikkema
sikkes
sikstus
siktaris
sil
silas
sile
sileenske
sileezje
silen
silence
silent
silger
silicon
silinder
silk
sille
sillen
sillich
sillige
silva
silver
silverstone
silvia
sily
simbabwe
simen
simens
simeon
simke
simmearjers
simmer
simmerdeis
simmerfaka
simmerho
simmerkampanje
simmermoannen
simmers
simmerspullen
simmertiid
simmertime
simmons
simon
simone
simons
simpel
simpele
simpelwei
simple
simpson
simson
simulearre
sin
sina
sinai
sinatra
sinclair
sindeling
sindelingen
sine
sineesk
sineeske
sinema
sines
sinezen
sing
singapoer
singapore
singel
singels
singer
singh
singin
single
singles
sings
sinjaal
sinjalen
sink
sinke
sinken
sinkiang
sinkt
sinleas
sinne
sinnebaaien
sinnedu
sinnefertsjustering
sinnegod
sinnekear
sinneljocht
sinnen
sinneskyn
sinnestelsel
sins
sinsuer
sint
sinteklaas
sinten
sinterklaas
sintimeter
sintra
sintraal
sintrale
sintrum
sintrumfunksje
sintu
sio
sion
sioux
sipel
sipels
sipiers
sipke
sipma
sir
sira
sirillysk
sirka
sirkel
sirksena
sirkus
sirkwy
sirta
sis
sisero
sisilysk
siskel
sisseton
sister
sisters
sistersjinzers
sistersjinzerske
sisylje
sit
sitaat
sitadel
sitaten
site
sitewaasje
sitewaasjes
sitewearre
sitfollybal
sith
sitplakken
sitte
sitten
sittend
sittende
sitting
situaasje
situaasjes
siuwsk
siuwske
sive
sivile
six
sixma
sizze
sizzen
sizzenskip
sj
sja
sjaal
sjah
sjajinne
sjajinnen
sjajinsk
sjajinske
sjakie
sjale
sjamaan
sjamanen
sjamanisme
sjampanje
sjanghai
sjarme
sjasme
sjast
sjaste
sjauffeur
sjauken
sje
sjef
sjeik
sjen
sjene
sjenre
sjenres
sjeny
sjeroky
sjerp
sjes
sjeteory
sjetla
sjii
sjina
sjintoi
sjippe
sjirk
sjirurch
sjit
sjitpartij
sjitsport
sjitte
sjitten
sjkin
sjo
sjoch
sjochsifers
sjocht
sjoen
sjoerd
sjoerds
sjoernaal
sjoernalist
sjoernaliste
sjoernalisten
sjoernalistike
sjoernalistyk
sjogge
sjogger
sjoggers
sjone
sjonele
sjong
sjonge
sjongen
sjonger
sjongeres
sjongers
sjongfestival
sjongfu
sjongster
sjongt
sjosjoanen
sjouke
sjoukje
sju
sjuck
sjuery
sjuerylid
sjuerypriis
sk
ska
skaad
skaai
skaaien
skaaimerk
skaaimerke
skaaimerken
skaal
skaalfergrutting
skaat
skacht
skaden
skaffen
skafte
skagen
skaken
skaker
skala
skalsum
skamhier
skamstreek
skamte
skandaal
skande
skanderbeg
skandinaavje
skandinavysk
skandinavyske
skansearre
skar
skarl
skarster
skarsterbre
skarsterla
skat
skate
skatha
skatkeamer
skatkiste
skatte
skatten
skatting
skattings
ske
skea
skeafergoeding
skeakel
skeakele
skeakeljen
skealik
skealike
skean
skeane
skearnegoutum
skeat
skeaten
skedel
skeel
skeelde
skeind
skeinde
skeining
skelde
skele
skelen
skelet
skelnamme
skelte
skema
skepen
skeppe
skeppen
skepper
skepping
skept
skeptysk
skerm
skermen
skermer
skermjen
skermutseling
skermutselings
skerp
skerpe
skerpenseel
skerpskutter
skerpteken
skes
skets
sketsen
sketten
skettens
skeveningen
ski
skie
skied
skiedam
skiede
skieden
skiedet
skieding
skiedkundige
skiedkundigen
skiednis
skiedskriuwer
skiedskriuwing
skiedsrjochter
skiedt
skiekunde
skiekundige
skien
skiene
skientme
skiep
skier
skiere
skiereila
skieringer
skieringers
skiermu
skierstins
skift
skiften
skiif
skiifkwabben
skikking
skilder
skildere
skildereftige
skilderesse
skilderet
skilderij
skilderijen
skilderingen
skilderje
skilderjen
skilderkeunst
skilders
skildert
skiljen
skille
skillet
skimmel
skimmels
skin
skind
skine
skingen
skinken
skinking
skinkings
skinkt
skip
skipbrek
skipe
skipfeart
skipfeartmuseum
skiphol
skipio
skippen
skipper
skippers
skipsbou
skipsbouwer
skipsleat
skipstype
skipswerf
skipswerven
skisma
skjin
skjinne
sko
skoalbern
skoalgebou
skoalhaad
skoaljier
skoaljuffer
skoalle
skoallemienskip
skoallen
skoalmaster
skoalstrjitte
skoaltiid
skoan
skoandere
skoandochter
skoanheit
skoanmem
skoansoan
skoansuster
skoarde
skoare
skoarstien
skoatterla
skoattersyl
skobben
skode
skodzjen
skoech
skoep
skoft
skofthichte
skoftke
skoftlang
skoftsje
skok
skokla
skokt
skomt
skonk
skonken
skood
skoot
skopje
skorpioen
skot
skotla
skots
skotsk
skotske
skotten
skotwu
skou
skouboarch
skouder
skouderble
skouders
skout
skouwen
skowe
skowen
skra
skraard
skrapke
skrast
skre
skreau
skreaun
skreaune
skreaunen
skries
skrift
skriftekennisse
skriften
skriftlik
skriftlike
skrik
skrikbewa
skrikkeljier
skriklike
skriller
skrillerfilm
skrillers
skripsje
skript
skriuw
skriuwe
skriuwen
skriuwer
skriuwerij
skriuwers
skriuwmasine
skriuwster
skriuwstyl
skriuwt
skriuwtaal
skriuwwize
skriuwwurk
skroar
skroef
skrok
skruten
skryn
sks
sku
skuld
skulden
skuldgefoelens
skuldich
skulptuer
skulptueren
skunde
skuon
skuonmakker
skuor
skuord
skuorde
skuorre
skuorregea
skuorren
skuorring
skuort
skutslu
skutterij
sky
skye
skyen
skyfall
skyl
skyld
skylddak
skylden
skylge
skylger
skylgersk
skyn
skynber
skynet
skynt
skyrinnen
skyscraper
skywalker
sl
sla
slaaf
slaan
slaande
slaanderij
slach
slachfjild
slachskip
slachskippen
slacht
slachte
slachtedyk
slachtemaraton
slachter
slachterij
slachting
slachtoffer
slachtoffers
slachtsjen
slachwurk
slagge
slaggen
slagget
slagje
slagjen
slakken
slam
slane
slang
slange
slangen
slanke
slate
slauerhoff
slave
slaveha
slavehannel
slaven
slavernij
slavinne
slavysk
slavyske
slayer
sleat
sleaten
sleattemer
sleatten
slechte
sleen
sleep
sleept
sleepte
sleeptou
sleepy
sleeswyk
slein
slepen
slepende
sletten
slide
slieker
sliep
sliepe
sliepen
sliepende
sliepkeamer
sliepmu
sliepplak
sliept
sliepte
slik
slikenboarch
slim
slimme
slimmer
slimste
slinger
slinke
sljocht
sljochte
sljochtsinnich
sljochtsinnige
sljochtsinnigens
sljochtwei
sloane
slochteren
sloech
sloegen
sloep
sloop
sloopt
sloot
slooten
slopen
slot
slotter
sloveenje
sloveensk
slow
slowaaksk
slowaakske
slowakije
slu
sluet
sluis
slute
sluten
sluting
sluzen
slyk
sm
sma
smaak
small
smallenbroek
smannet
smaug
sme
smeding
smei
smeket
smel
smelle
smeller
smellingerla
smid
smiet
smieten
smilde
smile
sminia
smink
smit
smite
smiten
smith
smithsonian
smits
smjunt
smjunten
smoarch
smoard
smoaren
smoarfereale
smoarfol
smoarge
smoargens
smoke
smoken
smokey
smokkelder
smokkele
smokkeljen
smolensk
smook
sms
smu
smyrna
smyt
sna
snaar
snaffel
snake
snaren
sneed
sneek
sneeker
snein
sneinen
sneins
sneker
snel
snelheid
snelwei
sneon
sneons
sneonteju
sneup
sneuvele
sneuvelen
sneuvelet
sneuveljen
snie
sniefal
sniekeninginne
snien
sniestoarm
sniewytsje
snije
snijen
snijt
snip
snipes
snits
snitser
snitsers
snitsersk
snitswike
snoade
snobbersguod
snoek
snoke
snoqualmie
snow
snowball
snowboarden
snp
snu
snuorje
so
soad
soal
soan
soannen
soantsje
soap
soapsearje
soarch
soarchfa
soarge
soargen
soarget
soargje
soargjen
soart
soarte
soartemint
soarten
soartgelikens
soartgelikense
soartgenoaten
sober
sobibo
sobibor
sobor
socht
sochte
sochten
social
sociale
socialisme
socie
society
sodom
soe
soeaven
soed
soekarno
soene
soenen
soennityske
soepboer
soer
soere
soerstof
soest
soestdyk
soesterberg
soeverein
soevereine
soevereiniteit
sofia
sofie
sofokle
sofokles
soft
software
sofy
soissons
sok
sokke
sokkel
sokken
sokrates
soks
soksoarte
sokssawat
sol
solace
soldaat
soldaten
soldier
soldiers
soldij
sole
soleil
soleimani
soli
solidariteit
solide
solite
solms
solo
solokarrie
solomon
som
somaalje
somalyske
somby
sombys
some
somerset
something
somme
sommer
sommige
sompe
sompen
sompich
sompige
soms
somtiden
somtiids
son
sona
sonde
sondel
song
songen
songs
songwriter
sonja
sonk
sonken
sonne
sonnet
sonnetten
sonneveld
sonny
sons
sont
sony
soo
sop
sophia
sophie
sopraan
sorbo
sorbonne
sorbysk
sorcha
soroa
sosjaal
sosjale
sosjalisme
sosjalist
sosjalisten
sosjalistysk
sosjalistyske
sosjology
sosjolooch
sotsji
souder
soul
souls
sound
soundtrack
soundtrackalbum
source
sous
south
southampton
southern
sovjet
sovjetrepublyk
sovjets
sowjet
sowjets
sowjetuny
sp
spa
spaansk
spaanske
spaansktalige
spaasje
space
spakenburch
span
spand
spande
spangea
spanje
spanjert
spanjerts
spannenburch
spannend
spannende
spanning
spanninga
spanningen
spannings
spannum
spanwiidte
sparjen
sparre
sparrow
sparta
spartakus
spd
spear
spearen
spears
special
species
spectre
spectrum
speech
speed
speerstra
spegel
spegels
spek
spektakel
spektakule
spektrum
spekulearre
spel
spelen
spencer
spenser
sperkhim
sperma
speserijen
spesifike
spesifyk
spesjaal
spesjale
spesjalisaasje
spesjalisearre
spesjalist
spesjalisten
spesjaliteit
speyer
spider
spiegel
spielberg
spien
spiennen
spier
spieren
spiers
spies
spijkers
spiker
spikers
spikerskrift
spile
spilen
spiler
spilers
spilet
spin
spinnekopmole
spinnen
spinoza
spion
spionaazje
spionne
spionnen
spirit
spiritualiteit
spiritue
spirituele
spitigerno
spits
spitsbergen
spitsbo
spitsen
spjalt
spjalte
spjalten
splaneet
split
splitsing
splitst
spoar
spoarbre
spoaren
spoarferbining
spoarleas
spoarline
spoarlinen
spoarstasjon
spoarstasjons
spoart
spoarte
spoarwegen
spoarwei
spock
spoelstra
spokane
spongebob
sponsor
sponsore
sponsors
spontaan
spontane
spooner
spoor
sporadysk
sport
sportbestjoerder
sporten
sporter
sporters
sporteveneminten
sportferiening
sportferslachjouwer
sportfjilden
sporthal
sportkompleks
sportman
sportpark
sportprogramma
sports
sportsjoernalist
sportskoalle
sportsokken
sportste
spot
spraak
spraakgebru
sprache
sprake
sprekke
sprekken
sprekkende
sprekker
sprekkers
sprekkerstal
sprekt
sprektaal
sprektaalterm
sprekwurd
sprekwurden
spreuk
spreuken
spriek
sprieken
spring
springe
springen
springer
springfield
springs
springt
sprint
sprintkwalifikaasje
sprong
sprongen
spruts
sprutsen
spu
spui
spul
spullen
spultsje
spultsjes
spunt
spy
spyldoer
spylfilm
spylfilms
spylje
spyljen
spyltafel
spyri
spyt
sq
squad
squadron
square
squaw
sr
sry
ss
ssa
sseldorf
sskilder
ssp
st
sta
staach
staak
staal
staartjes
staasje
staat
staazje
stabile
stabiliteit
stabyl
stacey
stacked
stacy
stad
stade
stadia
stadich
stadichoan
stadichwei
stadige
stadiger
stadion
stadions
stadium
stadt
staffordshire
stage
staking
stakings
stal
stalde
stalin
stalingrad
stallen
stallone
stalt
stam
stama
stambeam
stamboek
stamfaar
stamhartochdom
stamheit
stamje
stamme
stammen
stammeried
stammet
stamt
stan
stand
standard
standerdisearre
standermu
standert
standertfrysk
standertnederla
standerttaal
standertwurk
standing
stanford
stangl
stania
stanisław
stanley
stannen
stanton
stap
stapel
stapert
staphorst
stapleton
stappe
stappen
stapt
stapte
stapten
star
starkenborghkanaal
starr
stars
start
starte
starten
startgewicht
starum
stasjon
stasjonearre
stasjons
stasjonsgebou
stasjonsstrjitte
stasjonswei
state
staten
states
station
statistiken
statistyk
statistyske
status
stavanger
stavere
stavering
staveringshifker
stbu
ste
steam
stean
steand
steande
steane
steapel
steat
steatebu
steatelid
steaten
steatkundich
steatkundige
steatlike
steats
steatsbefolking
steatsboarger
steatsboargers
steatsboargerskip
steatsboskbehear
steatsferba
steatsfoarm
steatsgreep
steatshaad
steatshaadste
steatshu
steatske
steatskongres
steatsman
steatsnivo
steatspark
steatsprodukt
steatsregear
steatssekretaris
steatssenaat
steatstsjerke
steatsuniversiteit
sted
stede
steden
stedhu
steds
stedsbestjoer
stedsbra
stedsdiel
stedsdielen
stedsdistrikt
stedsdistrikten
stedsgebiet
stedsgesicht
stedsgesichten
stedsgre
stedshu
stedsje
stedsjes
stedsk
stedskanaal
stedske
stedsmuorre
stedsmuorren
stedspark
stedsrjocht
stedsrjochten
stedssintrum
stedsskouboarch
stedswa
stee
steech
steed
steedha
steedlik
steek
steel
steele
steen
steenbergen
steenmeijer
steenwijk
stefan
stefano
stefanus
stefanustsjerke
steffen
stege
stegeret
steggerda
steile
stein
steinbeck
steiner
stek
steken
stekke
stekken
stekt
stel
stela
steld
stelde
stelden
stella
stelle
stellen
stellenbosch
stelling
stellingen
stellingmole
stellingmu
stellings
stellingwarver
stellingwerf
stellingwerfsk
stellingwerfske
stellingwerven
stelsel
stelsels
stelt
stem
sten
stend
step
stephanie
stephen
steppe
steppeklimaat
steppen
steps
ster
stere
stereotype
steret
sterfean
stergo
sterjen
sterk
sterke
sterker
sterkere
sterkjen
sterkste
sterkte
sterling
stern
sterna
sterwei
steun
steunbearen
steur
steurde
steve
steven
stevens
stevenson
stevich
stevige
stewa
stewart
stge
stha
stholden
stich
sticht
stichte
stichter
stichting
stichtske
stick
stie
stied
stieglitz
stiek
stieken
stiel
stielen
stielyndustry
stien
stiene
stienen
stienfabryk
stienhu
stienkoal
stienmurd
stiennen
stiens
stiente
stientiid
stienwikerla
stienwyk
stiermarken
stiet
stifler
stift
stifte
stiften
stifter
stifters
stiftet
stifting
stiftsje
stiftsjen
stig
stige
stigen
stiger
stiget
stiging
stigings
stigje
stigjen
stiif
stiiffe
stijl
stik
stikel
stikelbaarch
stikels
stikje
stikjes
stikken
stikkene
stikmannich
stiks
stikstof
stil
stilearre
stilen
stilha
stilicho
still
stille
stillein
stiller
stillibbens
stilsta
stilte
stim
stimakteur
stimakteurs
stimaktrise
stimbusfraude
stimd
stimde
stimden
stimhawwende
stimkohier
stimleaze
stimlu
stimme
stimmen
stimming
stimpel
stimrjocht
stimt
stimulaasje
stimulearjen
stimulearre
sting
stings
stingwurken
stins
stinstra
stinswier
stinzen
stipe
stipen
stipet
stirling
stive
stjen
stjer
stjerbe
stjergefallen
stjerlike
stjerre
stjerrebyld
stjerredeaderbasis
stjerrefloat
stjerrekunde
stjerren
stjerrende
stjerreslachskip
stjerreslachskippen
stjerrestelsel
stjert
stjit
stjitte
stjitten
stjoer
stjoerd
stjoerde
stjoerden
stjoerder
stjoerders
stjoere
stjoeren
stjoerman
stjoert
stlei
stlein
stleine
stlizze
stlizzen
stmakke
stneamde
sto
stoar
stoaren
stoarm
stoarmen
stoarmfloed
stoarmfloeden
stoarmtroeper
stoarmtroepers
stoarn
stoart
stoarte
stoarten
stoartte
stocht
stochten
stock
stockholm
stoel
stoepe
stoer
stof
stoffen
stoflik
stoflike
stok
stoke
stoker
stokholm
stokje
stokken
stolk
stom
stomme
stomp
stompum
stone
stonehenge
stones
stoney
stony
stoom
stoommasine
stop
stopje
stopjen
stoppe
stoppet
stopplak
stopset
store
stories
stork
storm
stormruiter
story
stosa
stout
stoute
stoutenburg
stowe
stplak
stq
stra
straasburch
straatsburch
straf
strafber
strafekspedysje
straffen
strafkoloanje
strafrjocht
straft
strahorn
straight
strak
strakke
strand
strang
strange
stranger
strannen
strategy
strategysk
strategyske
stratford
strathbogie
strauss
strawelte
straße
stream
streamde
streame
streamen
streamend
streamgebiet
streaming
streamingen
streamings
streamingtsjinst
streamke
streamo
streamop
streamt
streek
streekdoarp
streekje
streekmuseum
streekrjocht
streekrjochte
streektaal
streektalen
streep
street
streets
streke
streken
strekt
stress
strewelleguod
strewellen
stribbe
stribbet
stribje
stribjen
stride
striden
stridende
strider
strideraasje
strideraasjes
striderij
striders
strie
stried
striel
strieling
strieljager
striemin
striid
striidkre
striidmacht
strijd
strike
strikel
strikes
strikt
strindberg
string
stringen
strip
stripboeken
stripe
stripen
stripferhaal
stripferhalen
stripklub
stripklubs
stripper
striprige
strips
stripsearje
striptease
striptekener
strisme
strjitnamme
strjitnammen
strjitte
strjitten
strjitwei
stro
strobos
stroe
strokes
stroll
strong
strook
stroom
stru
struiksma
struktuer
struktueren
struve
stset
stsetten
stsit
stsitten
stsjerke
ststeld
ststelde
ststelle
ststellen
stu
stuart
studearje
studearjen
studearre
studearren
studie
studies
studint
studinte
studinteferiening
studinteferienings
studinten
studintetiid
studio
studiokompleks
studios
study
stuit
stuiveling
stunt
stuntman
stunts
stuollen
stuorren
sturgeon
sturgis
sturt
sturtlingte
stuten
stuts
stutsen
stuttgart
stuyvesant
styfheit
styfmem
styfsoan
stykjen
styl
style
stylez
stynsgea
stynske
stypje
stypjen
stysk
styske
su
sub
subalterne
subgroep
subgroepen
subkontinint
subkultuer
subsjenre
subsjenres
substa
substamme
substammen
substraat
subsydzje
subsydzjes
subtile
subtraktive
subtropysk
subtropyske
such
sud
sudden
suden
suder
sudereila
sudersee
sudoku
sue
suffolk
suffridus
sugar
suggerearre
suggerearret
suicide
suite
sukses
suksesfol
suksesfolle
suksessen
sulla
sullivan
sully
sultan
sultanaat
sulver
sulveren
sulverne
sulversmid
sulverstikken
sum
sumar
sumatra
summer
summers
summit
sumpf
sun
sundance
sunday
sung
sunny
sunset
sunshine
super
superheld
superheldefilm
superieur
superieuren
superior
superman
supermerk
supermerken
supersmjunt
supremacy
sur
surch
surhu
surhuzum
surinaamsk
surinaamske
suriname
suringar
surp
surrey
survey
survivor
sus
susan
susanna
suske
suspicion
susseks
suster
susters
susterskip
susterste
sutfen
sutherland
sutter
sutton
suvel
suvelfabryk
suvelprodukten
suver
suvere
suvering
suverjen
suwa
suzanna
suzanne
suze
suzuki
sv
svarta
sven
sw
swaaide
swaarm
swaben
swahily
swak
swakke
swalker
swalkers
swan
swang
swanneblom
swannen
swarde
swarren
swart
swarte
swarten
swartfuotten
sweager
sweden
swedstriden
sweedsk
sweedske
sweet
swei
sweins
swemmer
swette
swetter
swichum
swiebertje
swier
swierbewapene
swierder
swierdere
swiere
swierferwu
swierrichheden
swierste
swiertekre
swiertepunt
swierwaar
swierwe
swiet
swiete
swift
swim
swimbad
swimme
swimmen
swimmer
swimmers
swimster
swimt
swin
swinderen
swing
swipe
switserla
switsersk
switserske
swol
sword
swra
swurd
swurden
swurdpuzel
swurdpuzels
swurk
sy
syaan
syb
sybe
sybesma
sybrand
sybrandus
sybren
syd
sydkant
sydkanten
sydkapellen
sydlings
sydney
sydrivier
sydrivieren
syds
sydskepen
sydskip
sydskippen
syffaks
syk
sykhelje
sykheljen
sykje
sykjen
sykloan
syklus
sykte
sykten
syktes
syktocht
syl
sylboat
syld
sylde
sylinder
sylroede
sylskip
sylskippen
sylt
sylvester
sylvia
symboal
symboalen
symboalysk
symboalyske
symbolisearje
symbolisearret
symbolyk
symfony
symmetrysk
symmetryske
sympatike
sympaty
sympatyen
symphony
symptomen
syn
synagoge
syndroom
synkretistyske
synoade
synonimen
synonym
synoptyske
syprus
syrakuse
syrenaika
syrillus
syrillysk
syrje
syrus
syrysk
syryske
sysels
systeem
system
systematysk
systematyske
systemen
systems
sytse
sytstra
sytzama
sytze
t
ta
taai
taaie
taak
taal
taalaktivist
taaleigen
taalfamylje
taalfamyljes
taalfarianten
taalfoarm
taalfoarmen
taalgebiet
taalgebru
taalgroep
taalgroepen
taalkloft
taalkunde
taalkundich
taalkundige
taalkundigen
taalu
taaluny
tabak
tabe
tabel
tabetroud
tabini
table
taboe
tabringe
tabrocht
tachtich
tachtichjierrige
tachtiger
tachtigers
tackleberry
taco
tacoma
taconis
tad
tadema
tadwaan
tadzjikistan
taeke
tael
tafal
tafallich
tafel
tafels
tafeltennis
tafersjoch
taflecht
tafoege
tafoeging
tafoegings
tafoegje
tafoegjen
tagandyske
tagelyk
tagong
tagongspoarte
tagonklik
tagonklike
taha
taheake
taheakke
taheakken
taheaksel
tahity
tahold
taholden
tai
taiga
tail
taila
tain
taipei
taisk
taiske
taiwan
tajaan
tajout
taju
tak
take
taken
takend
takes
takke
takomst
takomstige
takson
taksonomy
taksonomyske
taksy
taktyk
taktyske
tal
taland
talbot
talbum
tale
talei
talein
taleit
talen
talent
tales
taliban
talige
talint
talintearre
talintejacht
talinten
talisman
talitten
talitting
talizze
talk
tall
talleaze
tallen
talma
talmoed
talrike
talsma
tam
tamar
tamara
tamboer
tambov
tamminga
tampa
tamylsk
tan
tanaam
tanaka
taname
tanana
tang
tanganjika
tango
tanimmen
tanimmende
tank
tankber
tankberens
tanket
tankjen
tanks
tanksij
tankwein
tanner
tano
tanommen
tante
tanya
tanzania
tanzaniaanske
taoi
taparte
tapassen
tapassing
tapassings
tapast
tapaste
tara
tarantino
taret
target
tariede
tarieden
tarieding
tariedings
tarist
tariste
tarja
tarkin
tarre
tarsus
tarzan
tas
tasein
tasitus
tasjen
tasko
taskreaun
tasmaanje
tasman
taspraak
taspraken
tasta
tastannen
tastean
tastel
tastellen
tastie
tastien
tastiene
tastimming
tastjoerd
taswaaid
tataren
tatarstan
tate
tatiseigi
tatjana
tatoeaazje
tatoeaazjes
tatooine
tatsjinne
tau
taunus
tawiisd
tawijd
tawijing
tawizing
tawny
tawurd
tay
taylor
tb
tbarsting
tbarstings
tbc
tbetelle
tbou
tboud
tbraak
tbrekken
tbrekt
tbret
tbriek
tbringe
tbringen
tbrocht
tbrochte
tbrutsen
tbuorren
tbuorrens
tbylde
tdaging
tdield
tdru
tdrukking
tdrukkings
tdrukt
tdyk
te
tea
teach
teagen
teake
team
teams
tean
teannen
teapert
tearns
tears
teater
teaters
teau
tebe
tebek
tebekset
tebinnen
tebinnenbringe
tech
technicolor
techniken
technikus
technology
technologysk
technologyske
technyk
technysk
technyske
ted
teddy
tee
teems
teen
teenage
teenager
teffens
tefoaren
tefoarren
tefolle
tefreden
tegearre
tegels
tegen
tegenwoordige
teheistere
teheran
tehu
tei
teil
tein
teinen
teinlik
teinlike
teinlings
teinset
teinsette
teinsetten
teit
teiten
tek
teken
tekene
tekenen
tekener
tekenet
tekenfilm
tekenfilms
tekenfilmsearje
tekenfilmsearjes
tekenfilmstudio
tekening
tekeningen
tekenings
tekenje
tekenjen
tekenjend
tekenlearaar
tekens
tekken
tekoart
teksaanske
teksanen
teksas
teksel
tekselsk
tekst
teksten
tekstskriuwer
tekstyl
tekstylyndustry
tel
tela
telch
teld
telde
telefyzje
telefyzjefilm
telefyzjepresintator
telefyzjeprogramma
telefyzjerige
telefyzjerigen
telefyzjesearje
telefyzjestjoerder
telegraaf
telegraph
telemark
teleportaasje
teleskoop
television
teljier
telkoar
tell
telle
tellegen
tellen
tellende
telling
teloarsteld
teloarstellend
teloarstellende
[...]
