!
"
#
##a
##aa
##ab
##ac
##ad
##ae
##af
##ag
##ah
##ai
##aj
##ak
##al
##am
##an
##ao
##ap
##aq
##ar
##as
##at
##au
##av
##aw
##ax
##ay
##az
##b
##ba
##bb
##bc
##bd
##be
##bf
##bg
##bh
##bi
##bj
##bk
##bl
##bm
##bn
##bo
##bp
##bq
##br
##bs
##bt
##bu
##bv
##bw
##bx
##by
##bz
##c
##ca
##cb
##cc
##cd
##ce
##cf
##cg
##ch
##ci
##cj
##ck
##cl
##cm
##cn
##co
##cp
##cq
##cr
##cs
##ct
##cu
##cv
##cw
##cx
##cy
##cz
##d
##da
##db
##dc
##dd
##de
##df
##dg
##dh
##di
##dj
##dk
##dl
##dm
##dn
##do
##dp
##dq
##dr
##ds
##dt
##du
##dv
##dw
##dx
##dy
##dz
##e
##ea
##eb
##ec
##ed
##ee
##ef
##eg
##eh
##ei
##ej
##ek
##el
##em
##en
##eo
##ep
##eq
##er
##es
##et
##eu
##ev
##ew
##ex
##ey
##ez
##f
##fa
##fb
##fc
##fd
##fe
##ff
##fg
##fh
##fi
##fj
##fk
##fl
##fm
##fn
##fo
##fp
##fq
##fr
##fs
##ft
##fu
##fv
##fw
##fx
##fy
##fz
##g
##ga
##gb
##gc
##gd
##ge
##gf
##gg
##gh
##gi
##gj
##gk
##gl
##gm
##gn
##go
##gp
##gq
##gr
##gs
##gt
##gu
##gv
##gw
##gx
##gy
##gz
##h
##ha
##hb
##hc
##hd
##he
##hf
##hg
##hh
##hi
##hj
##hk
##hl
##hm
##hn
##ho
##hp
##hq
##hr
##hs
##ht
##hu
##hv
##hw
##hx
##hy
##hz
##i
##ia
##ib
##ic
##id
##ie
##if
##ig
##ih
##ii
##ij
##ik
##il
##im
##in
##io
##ip
##iq
##ir
##is
##it
##iu
##iv
##iw
##ix
##iy
##iz
##j
##ja
##jb
##jc
##jd
##je
##jf
##jg
##jh
##ji
##jj
##jk
##jl
##jm
##jn
##jo
##jp
##jq
##jr
##js
##jt
##ju
##jv
##jw
##jx
##jy
##jz
##k
##ka
##kb
##kc
##kd
##ke
##kf
##kg
##kh
##ki
##kj
##kk
##kl
##km
##kn
##ko
##kp
##kq
##kr
##ks
##kt
##ku
##kv
##kw
##kx
##ky
##kz
##l
##la
##lb
##lc
##ld
##le
##lf
##lg
##lh
##li
##lj
##lk
##ll
##lm
##ln
##lo
##lp
##lq
##lr
##ls
##lt
##lu
##lv
##lw
##lx
##ly
##lz
##m
##ma
##mb
##mc
##md
##me
##mf
##mg
##mh
##mi
##mj
##mk
##ml
##mm
##mn
##mo
##mp
##mq
##mr
##ms
##mt
##mu
##mv
##mw
##mx
##my
##mz
##n
##na
##nb
##nc
##nd
##ne
##nf
##ng
##nh
##ni
##nj
##nk
##nl
##nm
##nn
##no
##np
##nq
##nr
##ns
##nt
##nu
##nv
##nw
##nx
##ny
##nz
##o
##oa
##ob
##oc
##od
##oe
##of
##og
##oh
##oi
##oj
##ok
##ol
##om
##on
##oo
##op
##oq
##or
##os
##ot
##ou
##ov
##ow
##ox
##oy
##oz
##p
##pa
##pb
##pc
##pd
##pe
##pf
##pg
##ph
##pi
##pj
##pk
##pl
##pm
##pn
##po
##pp
##pq
##pr
##ps
##pt
##pu
##pv
##pw
##px
##py
##pz
##q
##qa
##qb
##qc
##qd
##qe
##qf
##qg
##qh
##qi
##qj
##qk
##ql
##qm
##qn
##qo
##qp
##qq
##qr
##qs
##qt
##qu
##qv
##qw
##qx
##qy
##qz
##r
##ra
##rb
##rc
##rd
##re
##rf
##rg
##rh
##ri
##rj
##rk
##rl
##rm
##rn
##ro
##rp
##rq
##rr
##rs
##rt
##ru
##rv
##rw
##rx
##ry
##rz
##s
##sa
##sb
##sc
##sd
##se
##sf
##sg
##sh
##si
##sj
##sk
##sl
##sm
##sn
##so
##sp
##sq
##sr
##ss
##st
##su
##sv
##sw
##sx
##sy
##sz
##t
##ta
##tb
##tc
##td
##te
##tf
##tg
##th
##ti
##tj
##tk
##tl
##tm
##tn
##to
##tp
##tq
##tr
##ts
##tt
##tu
##tv
##tw
##tx
##ty
##tz
##u
##ua
##ub
##uc
##ud
##ue
##uf
##ug
##uh
##ui
##uj
##uk
##ul
##um
##un
##uo
##up
##uq
##ur
##us
##ut
##uu
##uv
##uw
##ux
##uy
##uz
##v
##va
##vb
##vc
##vd
##ve
##vf
##vg
##vh
##vi
##vj
##vk
##vl
##vm
##vn
##vo
##vp
##vq
##vr
##vs
##vt
##vu
##vv
##vw
##vx
##vy
##vz
##w
##wa
##wb
##wc
##wd
##we
##wf
##wg
##wh
##wi
##wj
##wk
##wl
##wm
##wn
##wo
##wp
##wq
##wr
##ws
##wt
##wu
##wv
##ww
##wx
##wy
##wz
##x
##xa
##xb
##xc
##xd
##xe
##xf
##xg
##xh
##xi
##xj
##xk
##xl
##xm
##xn
##xo
##xp
##xq
##xr
##xs
##xt
##xu
##xv
##xw
##xx
##xy
##xz
##y
##ya
##yb
##yc
##yd
##ye
##yf
##yg
##yh
##yi
##yj
##yk
##yl
##ym
##yn
##yo
##yp
##yq
##yr
##ys
##yt
##yu
##yv
##yw
##yx
##yy
##yz
##z
##za
##zb
##zc
##zd
##ze
##zf
##zg
##zh
##zi
##zj
##zk
##zl
##zm
##zn
##zo
##zp
##zq
##zr
##zs
##zt
##zu
##zv
##zw
##zx
##zy
##zz
$
%
&
'
(
)
*
+
,
-
.
/
0
00
000
001
005
007
01
02
03
04
05
06
07
08
09
0a
0b
0c
0d
0e
0f
0g
0h
0i
0j
0k
0l
0m
0n
0o
0p
0q
0r
0s
0t
0u
0v
0w
0x
0y
0z
1
10
100
1000
101
102
103
104
105
1050
1054
106
1060
1066
107
108
1086
109
11
110
1100
111
112
113
114
115
1150
1157
116
1160
1165
117
1170
118
1180
119
1190
12
120
1200
1204
121
1216
1217
122
1220
1226
1227
123
1230
1231
1234
124
1240
125
1250
1252
126
1260
127
1270
1272
1275
128
1280
1282
1284
1286
1287
129
1290
1292
1295
1296
1297
1298
13
130
1300
1304
1305
1306
1307
131
1310
1314
1315
1316
132
1320
1323
1327
1328
1329
133
1330
1332
1333
1337
134
1340
1345
1346
1347
1349
135
1350
1356
1357
136
1360
1362
1364
1368
137
1370
1371
1375
138
1380
1382
1389
139
1391
1395
1396
1397
1398
1399
14
140
1400
1401
1402
1404
1405
1406
1408
141
1410
1413
1414
1415
1417
1418
1419
142
1420
1421
1422
1423
1425
1426
1427
1429
143
1430
1431
1433
1435
1436
1438
1439
144
1440
1441
1444
1447
1448
1449
145
1450
1451
1452
1453
1454
1455
1456
1457
1458
146
1460
1461
1462
1463
1464
1465
1466
1467
1468
147
1470
1471
1472
1473
1474
1475
1476
1477
1478
1479
148
1480
1481
1482
1483
1485
1486
1487
1488
1489
149
1490
1491
1492
1493
1494
1495
1496
1497
1498
1499
15
150
1500
1501
1502
1503
1504
1505
1506
1507
1508
1509
151
1510
1511
1512
1513
1514
1515
1516
1517
1518
1519
152
1520
1521
1522
1523
1524
1525
1526
1527
1528
1529
153
1530
1531
1532
1533
1534
1535
1536
1537
1538
1539
154
1540
1541
1542
1543
1544
1545
1546
1547
1548
1549
155
1550
1551
1552
1553
1554
1555
1556
1557
1558
1559
156
1560
1561
1562
1563
1564
1565
1566
1567
1568
1569
157
1570
1571
1572
1573
1574
1575
1576
1577
1578
1579
158
1580
1581
1582
1583
1584
1585
1586
1587
1588
1589
159
1590
1591
1592
1593
1594
1595
1596
1597
1598
1599
16
160
1600
1601
1602
1603
1604
1605
1606
1607
1608
1609
161
1610
1611
1612
1613
1614
1615
1616
1617
1618
1619
162
1620
1621
1622
1623
1624
1625
1626
1627
1628
1629
163
1630
1631
1632
1633
1634
1635
1636
1637
1638
1639
164
1640
1641
1642
1643
1644
1645
1646
1647
1648
1649
165
1650
1651
1652
1653
1654
1655
1656
1657
1658
1659
166
1660
1661
1662
1663
1664
1665
1666
1667
1668
1669
167
1670
1671
1672
1673
1674
1675
1676
1677
1678
1679
168
1680
1681
1682
1683
1684
1685
1686
1687
1688
1689
169
1690
1691
1692
1693
1694
1695
1696
1697
1698
1699
17
170
1700
1701
1702
1703
1704
1705
1706
1707
1708
1709
171
1710
1711
1712
1713
1714
1715
1716
1717
1718
1719
172
1720
1721
1722
1723
1724
1725
1726
1727
1728
1729
173
1730
1731
1732
1733
1734
1735
1736
1737
1738
1739
174
1740
1741
1742
1743
1744
1745
1746
1747
1748
1749
175
1750
1751
1752
1753
1754
1755
1756
1757
1758
1759
176
1760
1761
1762
1763
1764
1765
1766
1767
1768
1769
177
1770
1771
1772
1773
1774
1775
1776
1777
1778
1779
178
1780
1781
1782
1783
1784
1785
1786
1787
1788
1789
179
1790
1791
1792
1793
1794
1795
1796
1797
1798
1799
18
180
1800
1801
1802
1803
1804
1805
1806
1807
1808
1809
181
1810
1811
1812
1813
1814
1815
1816
1817
1818
1819
182
1820
1821
1822
1823
1824
1825
1826
1827
1828
1829
183
1830
1831
1832
1833
1834
1835
1836
1837
1838
1839
184
1840
1841
1842
1843
1844
1845
1846
1847
1848
1849
185
1850
1851
1852
1853
1854
1855
1856
1857
1858
1859
186
1860
1861
1862
1863
1864
1865
1866
1867
1868
1869
187
1870
1871
1872
1873
1874
1875
1876
1877
1878
1879
188
1880
1881
1882
1883
1884
1885
1886
1887
1888
1889
189
1890
1891
1892
1893
1894
1895
1896
1897
1898
1899
19
190
1900
1901
1902
1903
1904
1905
1906
1907
1908
1909
191
1910
1911
1912
1913
1914
1915
1916
1917
1918
1919
192
1920
1921
1922
1923
1924
1925
1926
1927
1928
1929
193
1930
1931
1932
1933
1934
1935
1936
1937
1938
1939
194
1940
1941
1942
1943
1944
1945
1946
1947
1948
1949
195
1950
1951
1952
1953
1954
1955
1956
1957
1958
1959
196
1960
1961
1962
1963
1964
1965
1966
1967
1968
1969
197
1970
1971
1972
1973
1974
1975
1976
1977
1978
1979
198
1980
1981
1982
1983
1984
1985
1986
1987
1988
1989
199
1990
1991
1992
1993
1994
1995
1996
1997
1998
1999
1a
1b
1c
1d
1e
1f
1g
1h
1i
1j
1k
1l
1m
1n
1o
1p
1q
1r
1s
1t
1u
1v
1w
1x
1y
1z
2
20
200
2000
2001
2002
2003
2004
2005
2006
2007
2008
2009
201
2010
2011
2012
2013
2014
2015
2016
2017
2018
2019
202
2020
2021
2022
203
204
205
206
207
208
209
21
210
211
212
213
214
215
216
217
218
219
22
220
221
222
224
225
226
227
228
229
23
230
231
232
233
234
235
236
237
238
239
24
240
241
242
243
244
245
246
247
248
249
25
250
2500
251
252
253
254
255
256
257
258
259
26
260
261
262
263
264
265
266
268
269
27
270
271
272
273
274
275
276
278
279
28
280
281
282
283
284
285
286
287
29
290
293
295
297
298
299
2a
2b
2c
2d
2e
2f
2g
2h
2i
2j
2k
2l
2m
2n
2o
2p
2q
2r
2s
2t
2u
2v
2w
2x
2y
2z
3
30
300
3000
301
302
303
304
305
306
307
308
309
31
310
311
312
313
314
315
316
32
320
322
323
324
325
326
328
33
330
332
333
335
336
337
338
339
34
340
344
345
35
350
3500
351
352
353
354
355
356
357
358
359
36
360
361
363
364
365
366
367
37
370
375
376
377
378
379
38
380
381
383
384
385
386
388
39
390
392
393
394
395
3a
3b
3c
3d
3e
3f
3g
3h
3i
3j
3k
3l
3m
3n
3o
3p
3q
3r
3s
3t
3u
3v
3w
3x
3y
3z
4
40
400
4000
401
404
405
406
407
409
41
410
411
413
415
417
42
420
421
423
425
428
429
43
430
431
435
44
440
442
446
448
45
450
451
453
455
456
457
458
46
460
461
465
47
470
475
476
477
48
480
484
486
49
496
4a
4b
4c
4d
4e
4f
4g
4h
4i
4j
4k
4l
4m
4n
4o
4p
4q
4r
4s
4t
4u
4v
4w
4x
4y
4z
5
50
500
5000
507
51
510
511
52
520
525
53
530
533
534
536
538
54
540
55
550
56
560
57
570
58
580
586
59
5a
5b
5c
5d
5e
5f
5g
5h
5i
5j
5k
5l
5m
5n
5o
5p
5q
5r
5s
5t
5u
5v
5w
5x
5y
5z
6
60
600
6000
61
610
62
620
63
630
639
64
640
65
650
66
660
67
670
672
675
68
680
69
690
6a
6b
6c
6d
6e
6f
6g
6h
6i
6j
6k
6l
6m
6n
6o
6p
6q
6r
6s
6t
6u
6v
6w
6x
6y
6z
7
70
700
7000
71
714
719
72
73
734
737
74
747
75
750
754
76
760
77
775
777
78
780
785
79
7a
7b
7c
7d
7e
7f
7g
7h
7i
7j
7k
7l
7m
7n
7o
7p
7q
7r
7s
7t
7u
7v
7w
7x
7y
7z
8
80
800
8000
804
81
814
82
83
830
838
839
84
840
841
842
843
85
850
855
86
87
870
876
877
88
880
885
89
890
8a
8b
8c
8d
8e
8f
8g
8h
8i
8j
8k
8l
8m
8n
8o
8p
8q
8r
8s
8t
8u
8v
8w
8x
8y
8z
9
90
900
91
910
911
92
93
94
95
950
96
960
97
970
978
98
99
9a
9b
9c
9d
9e
9f
9g
9h
9i
9j
9k
9l
9m
9n
9o
9p
9q
9r
9s
9t
9u
9v
9w
9x
9y
9z
:
;
<
=
>
?
@
[
[CLS]
[MASK]
[PAD]
[SEP]
[UNK]
\
]
^
_
`
a
a0
a1
a2
a3
a4
a5
a6
a7
a8
a9
aa
aad
aadlik
aadlike
aafke
aai
aaien
aaikes
aaipop
aaiwiten
aaiwyt
aak
aaklike
aan
aap
aar
aard
aarde
aardich
aardichheid
aardige
aaron
aart
aartsbisdom
aartsbiskop
aartsbiskoppen
aartsfaar
aartshartoch
aartsingel
aastersk
aazje
ab
abba
abbe
abbegea
abbekaat
abbekaten
abbema
abbey
abbott
abby
abc
abd
abdena
abdij
abdijen
abdijtsjerke
abdis
abdul
abe
abel
abercrombie
aberdeen
abessynje
abgaazje
abgazysk
abilene
abma
abonnees
aboriginals
aborizjinals
abortus
about
abraham
abrahamityske
abram
abrams
abrupt
absalom
absolute
abstrakt
abstrakte
abt
abten
abu
ac
academie
academy
access
accipiter
account
ace
acer
achab
achazja
achievement
achilles
achlum
acht
achte
achter
achterberg
achtet
achthoekige
achtkant
achtkante
achtkarspelen
achtsje
achtste
achttjin
achttjinde
acres
across
act
acta
action
actors
acts
ad
ada
adam
adams
adaptaasje
adaptearre
add
addinga
additive
adel
adelaide
adele
adema
aden
adjudant
adjunkt
administraasje
administration
administrative
administratyf
admiraal
admiraliteit
adolf
adolphe
adopsje
adoptearre
adres
adressen
adriaan
adriaen
adrian
adriana
adriano
adrianopel
adrianus
adriatyske
aduard
adult
adventure
adventures
advertinsje
advertinsjes
advisearre
adviseur
advizen
advokaat
advys
ae
aebinga
aede
aeilco
aenjewier
aetius
af
afar
afarsk
afc
afd
affair
affere
afgaanske
afganistan
afghanistan
afi
afke
africa
african
afrika
afrikaansk
afrikaanske
afrikakorps
afrikaner
afrikaners
afro
afrodite
after
aftermath
afuk
ag
again
against
agamemnon
agatha
age
agency
ages
agglomeraasje
aginda
agint
aginte
aginten
agintskip
agnes
agnosten
agrarysk
agraryske
agresje
agressive
agressyf
agricola
agt
ah
ahead
ahmed
ai
aids
aiji
ailes
aim
aimee
ain
ainu
air
aircraft
aires
airlines
airport
airways
aiskylos
aitzema
aj
ajax
ak
akadeemje
akademie
akademy
akademysk
akademyske
aken
akira
akkad
akkadysk
akkadyske
akke
akker
akkerman
akkoard
akkoart
akkordeon
akkrum
akky
akoestyske
akseptabel
akseptearje
akseptearjen
akseptearre
akseptearret
aksint
aksje
aksjefilm
aksjefilms
aksjekomeedzje
aksjes
aksjesearje
aksjesenes
akte
aktearjen
aktearkarriere
aktearprestaasje
aktearre
aktearwurk
akten
akteur
akteurs
aktive
aktivisme
aktivist
aktiviste
aktivisten
aktiviteit
aktiviteiten
aktrise
aktrises
aktuele
aktyf
akwadukt
akwarel
akwarellen
akwarium
akwitaanje
al
alabama
alain
alamo
alan
alana
aland
alanen
alarik
alaska
alba
albaanje
albaansk
albada
albaneesk
albaneeske
albanezen
albany
albarda
albatros
alberda
albert
alberta
albertina
albertine
alberto
alberts
albertus
albinus
albrecht
album
albums
albuquerque
ald
aldamt
alddjip
alde
aldeberkeap
aldebiltdyk
aldebiltsyl
aldeboarn
aldefurd
aldegea
aldehaske
aldeholtpea
aldehou
aldelju
aldemardum
alden
aldenboarch
aldenburch
aldendeiske
aldens
alder
alderaan
alderdom
aldere
alderearst
alderearste
alderein
alderen
alderhanne
alderheljen
alderheljenfloed
alderlei
alderleste
alders
aldershus
alderwetske
aldfeart
aldfranske
aldfrysk
aldfryske
aldgillis
aldgryksk
aldgrykske
aldheden
aldheid
aldheidkeamer
aldhoarne
aldingelsk
aldingelske
aldlan
aldlemmer
aldman
aldnoarsk
aldnoarske
aldrin
alds
aldskoat
aldskou
aldst
aldste
aldsten
aldtsjerk
aldwald
ale
alec
aleid
alejandro
aleksander
aleksanderje
aleksandr
aleksandra
aleksandrie
aleksandrje
aleksej
alencon
aleoeten
aleoetysk
aleoetyske
alessandro
aletta
alex
alexander
alexandra
alexandre
alexandria
alexis
alfa
alfabet
alfabeto
alfde
alfen
alfons
alfred
alfte
alfuns
algemeen
algemene
algemien
algemiene
algerije
algerynske
algiers
algonkwynske
algra
alhiel
alhielendal
alhoewol
ali
alias
alice
alicia
alida
alien
aliens
alinne
alison
aljemint
alkmaar
alkmar
alkohol
alkoholisme
all
allahabad
allan
allard
allardseach
alle
allebeide
alleen
allegear
allegearre
allegeduerigen
allemannen
allemolens
allen
allende
aller
allerhanne
alles
alletrije
alley
alliance
alliansje
alliearde
alliearden
alline
allingawier
allinich
allinne
allinnich
allinnichsteande
allison
allround
allyk
allyksa
alma
almanak
almar
almeare
almeast
almelo
almenak
almenum
almere
alois
alone
alonso
alpen
alpha
alphabet
alphen
alphonse
alpine
alpineskyen
alris
als
alt
altai
alte
alteast
altena
alter
alternaria
alternative
alternatyf
alters
altfioele
althuis
altijd
alting
altiten
alto
altyd
aluminium
alva
alvarez
alve
alvestede
alvestedetocht
alvestedetochtwinner
alvetal
always
alwer
alzheimer
am
amalia
amanda
amateur
amateurs
amazing
amazon
amazone
ambacht
ambachten
ambachtslju
ambachtsskoalle
ambassade
ambassadeur
ambassadeurs
amber
ambisjeuze
ambo
ambrosius
ambulanse
ambysje
ambysjes
amearika
amearikaanske
amelan
amelansk
amelia
amendemint
america
american
americana
amerika
amerikaan
amerikaansk
amerikaanske
amerikanen
amerongen
amersfoart
amersfoort
ames
amfibyen
amfibyske
amfiteater
amidala
amiens
amish
ammoniak
amnesty
amoer
among
amor
amore
amos
amour
amper
amperoan
amst
amstel
amstelfean
amsterdam
amsterdammer
amsterdamse
amsterdamsk
amsterdamske
amt
amten
amtlike
amtner
amtners
amundsen
amy
an
ana
anabolic
anakin
anal
anale
analog
analyze
anargist
anargistyske
anas
anastasia
anatoalje
anatomy
anatoom
anchorage
ancient
and
andalusje
ander
andere
anders
andersen
anderson
andert
andes
andorra
andre
andrea
andreae
andreas
andrej
andrew
andrews
andries
andriessen
andringa
androide
androiden
andy
ane
anema
ang
angel
angela
angelen
angeles
angelica
angelina
angelo
angels
angelsaksen
angelsaksysk
angelsaksyske
anglia
anglikaanske
anglo
angoala
angus
anhalt
animaasje
animaasjefilm
animaasjefilms
animal
animals
animated
animation
anime
animearre
anita
anjer
anjewier
anjou
ankara
ankel
anker
ann
anna
annalen
annales
annandale
anne
anneke
anneks
anneksaasje
anneksearre
annemarie
annes
annette
annie
anno
annual
anonime
anonym
another
ans
anse
anser
ant
antagonist
antarktika
antarktyske
anthology
anthonie
anthony
anthus
anti
antigone
antigua
antike
antillen
antiochie
antiochje
antiochus
antje
antlers
antlit
antoine
antoinette
anton
antoni
antonia
antonides
antonie
antoninus
antonio
antonius
antonov
antoon
antropology
antropolooch
antwerpen
antwurd
antwurde
antwurden
antwurdet
anty
antysemityske
anus
any
anzac
ao
ap
apache
apachen
apart
aparte
apartheid
apel
apeldoarn
apeldoorn
apels
apen
apodemus
apokalyptyske
apokrife
apokryf
apollo
apostel
apostels
apostoalyske
app
appalachen
apparaat
apparaten
apparatuer
appartemint
appartemintekompleks
apparteminten
appel
appelskea
appingedam
apple
applegate
apprentice
april
apsis
apteker
aq
aquaman
aquarium
ar
araabje
arabia
arabieren
arabysk
arabyske
aragon
aragorn
arameesk
arameeske
arapaho
arbeid
arbeide
arbeider
arbeiders
arbeidersbeweging
arbeidersklasse
arbeiderspartij
arbeiderspers
arbeidzje
arc
archangelsk
archeologen
archeology
archeologysk
archeologyske
archeolooch
archibald
archief
archive
arctic
ard
ardea
ardinnen
are
area
areaal
arena
arend
arent
arezzo
argaysk
argayske
argentynje
argentynsk
argentynske
argeologen
argeologysk
argeologyske
argeolooch
argewaasje
argivaris
argiven
argon
argumint
arguminten
argyf
argyll
arhammar
aria
ariana
arianisme
arie
ariel
arikara
aristofanes
aristokrasy
aristokratyske
aristoteles
arizona
arjan
arjen
ark
arkades
arkansas
arke
arkel
arktysk
arktyske
arles
arlington
arm
armand
armeenje
armeenjers
armeensk
armeenske
armenen
arminius
arms
armstrong
army
arne
arnhim
arno
arnold
arnoldus
arnulf
around
arp
arras
arrestaasje
arrestearjen
arrestearre
arriva
arrivearje
arrivearre
arrivearren
arrivearret
arrondissemint
arrondisseminten
arsenaal
arsjipel
arsjitekt
arsjitekteburo
arsjitekten
arsjitektoanyske
arsjitektuer
art
artakserkses
artcyclopedia
arte
arteezje
artefakten
arthur
artikel
artikelen
artikels
artillery
artiodactyla
artist
artistike
artists
artistyk
arts
artsen
artur
artyst
artyste
artysten
artystenamme
artystenammen
aruba
arum
arvicolinae
aryl
as
asa
ash
asher
ashley
asia
asil
asimov
aspekt
aspekten
asperger
ass
asscher
assen
asser
assimblee
assimilearre
assiniboin
assiniboine
assisi
assistint
assistinte
associates
association
assosjaasje
assosjearre
assyrje
assyryske
ast
asteroide
asteroiden
astrid
astrology
astronaut
astronauten
astronomy
astronomyske
astronoom
astuerje
asturysk
asuryske
asyl
at
atapaskyske
ataturk
ate
ateenske
ateisme
ateisten
atelier
atene
atevi
atf
ath
athenaeum
atholl
athos
atlanta
atlantic
atlantikwall
atlantique
atlantis
atlantyske
atlas
atleet
atlete
atleten
atletico
atletyk
atletykbaan
atmosfear
atom
atomen
atoom
atoombom
atoomkearn
atoomnumer
atos
atrophaneura
atsma
attack
attawapiskat
attila
attraksje
attraksjes
attributen
au
auck
auckland
audio
audioboek
audrey
audysje
audysjes
auf
aug
augsburg
august
augusta
auguste
augustin
augustine
augustinus
augustus
auke
aukes
aukje
auld
aura
aurelia
aureliaflinters
aurelianus
aurelius
aurora
aus
auschwitz
austerlitz
austin
austraalje
austraasje
australia
australian
australysk
australyske
autentike
autentyk
auteur
auteurs
auteurskip
auteursrjocht
auteursrjochten
authority
autisme
auto
autobiografy
autobiografysk
autobiografyske
autobus
autodidakt
autodiken
autodyk
autokoereur
automatysk
automatyske
autonome
autonomy
autonoom
autoriteit
autoriteiten
autosefale
autosnelwei
autosport
autowei
auwerk
aux
av
ava
avansearre
avant
avaren
avenger
avengers
aventoer
aventoerefilm
aventoeren
aventoersman
avenue
aves
avestysk
aviation
avignon
avitus
aviv
avn
avon
avond
avonturen
avro
aw
awakens
award
awards
away
ax
axel
ay
aylva
ayrshire
aysma
aytta
az
azarja
azerbeidzjan
aziaten
aziatysk
aziatyske
azteekske
azteken
b
b0
b1
b2
b3
b4
b5
b6
b7
b8
b9
ba
baai
baaien
baaiplak
baaium
baal
baan
baanhurdfytsen
baantjer
baarch
baard
baarderadiel
baarn
baarnde
baarne
baarnende
baas
baat
baba
babel
baby
babyloanje
babyloanyske
babylon
bach
bachelor
bachelorstitel
bachelortitel
bachrein
back
bacon
bad
baden
badminton
baen
baerdt
baflo
bafta
bagaazje
bagaazjetrein
bagdad
bagdadi
bahaisme
bahama
bailey
bak
baker
bakhuzen
bakkefean
bakken
bakker
bakkerij
bakkers
bakstien
bakstiennen
bakt
baktearje
baktearjes
bal
balans
balboa
baldwin
balearen
balk
balkan
balke
balken
balkenende
balkon
ball
ballade
ballet
balling
ballingen
ballingskip
balliol
ballon
ballum
balthasar
baltimore
baltyske
baly
ban
band
banda
bandit
banditen
bandleden
bands
bandyt
banen
bang
banga
bangbros
bangkok
banglades
bangladesh
bangladesj
bangma
banichi
bank
bankekrisis
banken
bankier
bankrot
banks
bannen
banner
banning
bantam
bantegea
baptist
baptiste
baptistegemeente
baptisten
bar
barack
barakken
barb
barbaar
barbaarske
barbados
barbara
barbaren
barbarian
barbarijske
barbarossa
barbuda
barcelona
barclay
bard
barde
barden
barend
barents
barentssee
baret
bargen
bariton
barka
barker
barnabas
barnes
barneveld
barnstien
barok
barokke
baron
barones
baronesse
barr
barradiel
barrahus
barrayar
barrayareeske
barre
barren
barrens
barrett
barrie
barriere
barry
barrymore
barseloana
barselona
bart
bartlehiem
bartolomeus
baruch
bas
basearre
baseball
basel
bases
basgitaar
basilica
basilika
basilius
basilyk
basis
basisskoalle
basisskoallen
basisunderwiis
baskelan
basken
basketbal
baskysk
baskyske
bass
bassist
bast
bastert
bastion
bat
bataafsk
bataafske
bataljon
batavia
batavus
bath
batman
batterij
batthyany
battista
battle
battleship
bauer
bauhaus
bauke
baukes
baukje
baxter
bay
bayeux
baywatch
bazel
bazuin
bb
bbc
bc
bd
be
bea
beach
beaen
beafeart
beafeartsplak
beagle
beaken
bealch
beam
beamiikhoarntsjes
beammen
beamotter
bean
bear
beare
bearen
bearend
bearn
bears
beart
bearzeruch
beast
beat
beatles
beatrice
beatrix
beau
beaufort
beautiful
beauty
beaux
beavensearjen
beavensearre
beavensearret
beaver
beboske
beboud
beboude
bebouwing
beck
becker
beckett
beckham
beckman
bed
beda
bedarje
bedarre
bedarren
bedarret
bedekt
beden
bedford
bedijd
bedike
bedoarn
bedobbe
bedoeld
bedoelde
bedoeling
bedoelings
bedraacht
bedrach
bedragen
bedreaun
bedrige
bedriget
bedriging
bedrigings
bedriuw
bedriuwe
bedriuwen
bedriuweterrein
bedriuwslibben
bedroch
bedroech
bedroegen
bedum
bedutsen
bedzjen
bee
beeasten
beedige
beeinige
beeinigje
beeinigjen
beek
beeld
been
beer
beerf
beerta
beethoven
beets
beetstersweach
befalling
befarber
befeilige
befeiliging
befel
befelhawwer
beferzen
befestige
befestiget
befestiging
befestigje
befet
befetsje
befette
befettet
befine
beflapt
befoardere
befoardering
befoarderjen
befoarrieding
befoel
befolke
befolking
befolkingsgroei
befolkingsgroep
befolkingsgroepen
befolkingsgrutte
befolkingstichtens
before
befrege
befreone
befrijd
befrijde
befrijding
befrije
befrijen
befrijing
befrijt
befun
befynt
begean
begelaat
begelate
begeliede
begelieden
begelieder
begelieding
begeliedt
begien
begin
begjin
begjinjierren
begjinne
begjinnen
begjinnend
begjinnende
begjinpunt
begjinsel
begjinsels
begjint
begjintiid
begjintitels
begjintsje
begoedige
begraafplak
begraafplakken
begraffenis
begraffenissen
begraven
begrepen
begrinze
begrinzge
begripe
begripen
begroeid
begroeide
begroeiing
begroeven
begrutsjen
begrutting
begryp
begrypt
begun
begunen
beha
behald
behalde
behalden
behalven
behan
behannele
behannelet
behanneling
behannelje
behanneljen
behear
beheard
behearde
behearder
behearske
behearsken
behearsket
behearsking
behearskje
behearskjen
beheart
beheind
beheinde
beheinden
beheine
beheinen
beheining
beheinings
behelje
beheljen
behelle
behellen
behellet
behierre
behind
behindere
behold
beholden
bei
beide
beiden
beien
beierdige
beieren
beierske
beilen
bein
being
beintema
bejaan
bejage
bejeftige
bejoech
bejout
bejouwe
bek
bekeard
bekearde
bekeare
bekearen
bekearing
beken
bekend
bekende
bekender
bekendere
bekendheid
bekendmakke
bekendst
bekendste
bekendsten
bekendstie
bekendstiet
bekent
bekentenis
beker
bekind
bekken
bekker
beklaaid
beklaaide
beklaait
beklage
beknopte
bekommen
bekreftige
bekritisearre
bekroand
bekroande
bekroane
bekroaning
bel
bela
beladen
belane
belang
belangen
belangrike
belangryk
belangrykste
belangstellenden
belangstelling
beleanne
beleanning
belegere
belegeren
belegering
belein
beleste
belestge
belesting
belestingen
belestings
belfast
belgen
belgie
belgje
belgrado
belgysk
belgyske
belibbe
belibbet
belibje
beliden
belidenis
belied
belies
belis
belize
beljochte
beljochting
belknap
bell
bella
belladonna
belle
bellevue
bellingwolde
bellini
belmonte
belsen
belt
belune
belutsen
belutsenen
belutsenens
belvedere
belykje
bemachtige
bemachtigjen
bemanne
bemanning
bemanningsleden
bemeallen
bemiddeling
bemuoide
bemuoie
bemuoien
bemuoienis
ben
benammen
benammentlik
benaud
bend
beneamd
beneamde
beneame
beneamen
beneaming
beneamings
beneamt
benearing
benedictus
benediktus
benediktynske
benei
beneluks
benin
benito
benjamin
benner
bennett
benny
benoardeasten
benoarden
benson
bent
benteen
bentheim
benthem
benton
benyn
benz
benzine
beoardiele
beoardieling
beoefene
beowulf
bepaald
bepaalde
bepaalt
bepale
bepalen
bepaling
bepalings
beppe
beppes
beppesizzer
beppesizzers
bepraat
beprate
bepraten
berardinelli
berber
berbers
berbersk
berberske
berch
bercheftich
bercheftige
berchlan
berchtme
berchtmen
berekkene
berend
berest
berg
berge
bergen
berger
bergman
bergsma
berik
berikber
berikke
berikken
berikt
berikte
berikten
bering
beringsee
beringstrjitte
berint
berjocht
berjochte
berjochten
berjochting
berk
berkeley
berkshire
berlage
berlin
berliner
berltsum
berlyn
berlynske
bermuda
bern
bernard
bernardino
bernardus
berne
berneboek
berneboeken
berneboekeskriuwer
berneboekeskriuwster
bernepornografy
berneprogramma
bernetiid
bernhard
bernhardt
bernie
bernlef
bernsbern
bernthal
berop
beroppen
beropsbefolking
beropsunderwiis
berou
berry
bert
berte
bertedoarp
bertehus
bertejier
bertelsmann
berteplak
bertested
bertrand
bertus
berucht
beruchte
berwick
beryl
beryllium
bes
besef
beseffe
beseft
besefte
beselskippe
beset
besette
besetten
besetter
besetters
besetting
besettingsmacht
besettingssone
besibbe
besibskip
besichtige
besichtigjen
besiet
besikers
besikerssintrum
besiket
besingele
besit
besite
besitte
besittingen
besittings
besjen
besjensweardichheden
besjittings
besjoen
besjoene
beskaafde
beskaat
beskate
beskaving
beskavings
beskerme
beskermer
beskermet
beskermhear
beskermhillige
beskerming
beskermje
beskermjen
beskermjende
besketten
beskieden
beskiedend
beskikber
beskikbere
beskikke
beskikking
beskikt
beskikte
beskikten
beskildere
beskildering
beskoge
beskogen
beskoget
beskoging
beskogje
beskogjen
beskreau
beskreaun
beskreaune
beskriuwe
beskriuwen
beskriuwing
beskriuwings
beskriuwt
beskul
beskuldige
beskuldigen
beskuldiget
beskuldiging
beskuldigings
beslaan
beslach
beslacht
beslane
besleat
besleaten
besletten
beslissende
beslissing
beslissings
beslist
besljochte
besloech
besluet
beslut
beslute
besluten
besmet
besmetlike
besmetting
besnijing
besoarge
besoargjen
besocht
besochte
besochten
bespile
besprutsen
bespyljen
besson
best
bestan
beste
bestean
besteand
besteande
besteane
bestege
besteld
bestelde
besten
bestie
bestien
bestiene
bestienen
bestiet
bestimd
bestimming
bestimmings
bestjoer
bestjoerd
bestjoerde
bestjoerder
bestjoerders
bestjoere
bestjoeren
bestjoerlik
bestjoerlike
bestjoerslaach
bestjoerslid
bestjoerssintrum
bestjoerstaal
bestjut
bestoarming
bestraffing
bestraft
bestriden
bestriding
bestridingsmiddels
bestseller
bestudearjen
bestudearre
bestudearret
besudeasten
besuden
besudwesten
beswier
beswieren
beswykt
besyk
besykje
besykjen
bet
beta
betanke
betelje
beteljen
betelle
betellen
betellet
betelling
betelmiddel
bethlehem
betide
betiden
betiid
betiizjen
betingst
betingsten
betinke
betinken
betinker
betinking
betinksel
betinkt
betitele
betize
betizing
betlehem
betlehim
betocht
beton
betonnen
betreffende
betreft
betrekking
betrekkings
betreklik
betrouber
betroubere
betrouwen
betsjinjen
betsjinne
betsjoening
betsjoenings
betsjut
betsjutte
betsjutten
betsjutting
betsjuttings
betsjuttingsside
better
bettere
betty
betuft
betula
betuwe
between
beukerskoalle
beurs
beurt
bevelan
bever
beverly
bevers
bewald
bewapene
bewapening
bewar
bewarje
bewarjen
bewarre
bewarret
bewarring
beweard
bewearde
beweare
bewearing
bewearings
beweart
beweecht
bewege
bewegen
bewegende
beweging
bewegingen
bewegings
bewekke
bewekkers
bewenje
bewenne
bewennen
bewenner
bewenners
bewennet
bewenning
bewesten
bewiis
bewiisd
bewiisde
bewiismateriaal
bewiist
bewissige
bewissiget
bewize
bewizen
bewundere
bewundering
bewurke
bewurking
bewurkje
bewurkjen
bewurkmastere
bewust
bewuste
bewusteleas
bewusteleaze
bewustwezen
bey
beyma
beynfloede
beynfloedzje
beyond
bezige
bezje
bf
bfvw
bg
bgl
bh
bi
bia
bianca
biatlon
bibel
bibelboek
bibelboeken
bibeloersetting
bibels
bibelsk
bibelske
bibelwittenskippers
bibleteek
bibletekaris
bibleteken
bibliografy
biblioteek
bibliotheek
bidde
bidden
biden
bidler
bie
biede
bieden
biedt
biedwurd
bien
biennale
bier
bieruma
biesheuvel
biff
big
bigfoot
bighorn
bij
bijbel
bijbelgenootschap
bijbelstichting
bijdrage
bijen
bijlsma
bikiny
bilbo
bilderdijk
bildt
bildts
bildtse
bile
biljerten
bilker
bill
billboard
billie
billy
bilt
biltsk
biltske
bin
binde
bindeleden
bine
binen
bing
bingen
bining
binne
binnen
binnendoar
binnendoarsenes
binnenhof
binnenkant
binnenkrongen
binnenlan
binnenlanske
binnenplak
binnensee
binnenste
binnensted
binnenut
binnenyn
binnert
bio
biograaf
biografie
biografisch
biografy
biografyen
biografysk
biografyske
biography
biology
biologysk
biologyske
biolooch
bioskoop
bioskopen
biotoop
biotopen
bird
birds
birma
birmeeske
birmingham
birthday
bis
bisdom
bisdommen
bishop
biskop
biskoplik
biskoplike
biskoppen
biskopssit
biskopstsjerke
bismarck
bissau
bissonette
bist
biste
bistedokter
bisten
bistesoarte
bistesoarten
bistetun
bistke
bistkes
bit
bite
biten
bitgum
bitgummole
bitter
bittere
bizarre
bizon
bizonfalemakker
bizons
bj
bjirk
bjorn
bjuster
bk
bl
blaast
black
blackburn
blackway
blade
blair
blake
blanc
blanche
blank
blanke
blanken
blaricum
blau
blaudrukken
blauhus
blauw
blauwe
blaze
blazen
bleat
bleate
bleatlein
bleatsteld
bleau
bleaun
bleaune
bleaunen
bled
bleden
bleek
bleeker
blesse
blessum
bleu
bliek
blieken
bliid
blije
blik
blike
bliken
bliksem
bliksemynslach
blind
bline
blinen
bliss
bliuwe
bliuwen
bliuwend
bliuwende
bliuwt
blixen
bloch
block
blocq
bloed
bloedbad
bloedfetten
bloedige
bloei
bloeide
bloeiende
bloeit
bloeitiid
bloem
bloemen
bloemendaal
bloemfontein
blofeld
blok
blokhus
blokhuspoarte
blokjes
blokkade
blokkearre
blokken
blokker
blokmies
blom
blomlezing
blomlezings
blommen
blond
blonde
blondes
blood
bloody
blu
blue
blues
blun
bluodderich
bluodderige
blydskip
blyk
blykber
blykt
blykte
blyn
bm
bn
bo
boadskip
boadskippen
boadskipper
boaiem
boalsert
boalserter
boarch
boarchgreve
board
boargemaster
boargemasters
boargen
boarger
boargerbefolking
boargerij
boargerkriich
boargerlik
boargerlike
boargeroarloch
boargerrjochtebeweging
boargerrjochten
boargers
boarkum
boarn
boarnburgum
boarne
boarnen
boarnsterhim
boarnwert
boarst
boarstbyld
boarsten
boarstesjenre
boarstfergruttingsoperaasje
boartersguod
boarterstun
boartsjen
boasaardige
boaske
boasket
boaskje
boat
boaten
boates
boatsje
boaze
boazum
bob
boba
bobby
bobslydzjen
bocht
bochten
bock
bod
body
boech
boedapest
boedisme
boedistyske
boeiens
boeing
boek
boekbanuntwerper
boekdrukkeunst
boeken
boekerij
boekfoarm
boekhalder
boekhannel
boekhanneler
boekhannels
boekje
boekjes
boekt
boel
boele
boelens
boelensloane
boeles
boer
boerd
boerdspul
boere
boeren
boerepleats
boeresoan
boerespultsje
boerestreek
boergonden
boergondyske
boergonje
boergonjers
boerinne
boerkina
boersma
boerum
boerundy
boete
boetius
boezem
bogart
boge
bogen
bogerman
bogesjitten
bohemen
bohr
bois
boise
bok
bokke
bokma
boksen
bokser
bokstel
boksum
bol
bole
bolivia
bolle
bollen
bologna
bolsjewiken
bolsjewistyske
bolta
bolwurk
bolwurken
bom
bomans
bombardearre
bombardemint
bombardeminten
bombay
bommel
bommen
bommesmiter
bommesmiters
bomoanslach
bomoanslaggen
bon
bonann
bonaparte
bond
bondel
bondele
bondels
bone
bonere
bonga
bonham
bonifatius
bonifatiustsjerke
bonke
bonken
bonn
bonne
bonnema
bonnie
bontebok
bontekoe
bonus
boobpedia
book
books
boom
boomsma
boonstra
boorsma
boot
booth
bootsma
boov
boppe
boppebou
boppedat
boppefamylje
boppeferdjipping
boppekant
boppekruier
boppelaach
boppemar
boppemarder
boppen
boppenatuerlik
boppenatuerlike
boppeneamde
bopperin
boppeskift
boppeste
boppesteande
bor
bordeaux
bordeel
bordelen
border
borders
borg
borger
borges
borgia
boris
born
borneo
bornmeer
borough
bos
bosch
boschma
bosk
boskbou
bosken
boskjes
boskmus
boskmuzen
bosley
bosma
bosman
bosnje
bosnysk
bosnyske
bosporus
boss
boston
bot
botanikus
botany
botanyske
both
botnia
botsing
botswana
botte
bottema
bou
boud
boude
bouden
boudewijn
boudewyn
bouillon
boujier
bouke
boukeunst
boukunde
boukundich
boulan
boulevard
bouma
boumantsje
boumaster
boumateriaal
boun
bounty
bouricius
bourne
boustyl
bout
boutiid
bouvier
bouwe
bouwen
bouwer
bouwers
bouwmeester
bouwurk
bouwurken
boven
bow
bowie
bowl
bowman
box
boy
boyd
boyl
boyle
boys
bozeman
bp
bq
br
braak
braban
brabansk
brabanske
brad
bradford
bradley
bradshaw
brakel
bram
bran
branch
brand
brandaan
brandenboarch
brandenburch
brandenburg
brando
brandon
brandsma
brandt
branende
branje
brannen
branskildere
bransteapel
branstof
brant
brantgum
branwacht
brassband
braun
braunschweig
brave
bray
brazil
brazyljaansk
brazyljaanske
brazylje
brazzers
brea
break
breakfast
breaking
brechje
brecht
breda
brede
breder
bredere
bredero
brederode
bree
breed
breedste
breedte
breedtegraad
brege
bregeman
bregen
breid
breide
breidzje
brein
breinroer
brek
brekfallich
brekke
brekken
brekking
brekme
brekt
bremen
bremer
bren
brendan
brenner
breslau
brest
bretagne
bretanje
breteler
bretoneilan
bretonsk
bretonske
brett
breuker
breunswyk
brian
bride
bridge
bridges
bridget
bridgette
briede
brieden
briedgebiet
briedt
briedtiid
brief
briefkerij
briek
brieken
brielle
brien
brieven
brigade
brigadegeneraal
brigadier
briggs
brigitte
brij
bril
brill
bring
bringe
bringen
bringt
brink
brisbane
bristol
brit
britain
britannia
british
britney
britsk
britske
britsum
britswert
brittanje
brittany
britten
broadcasting
broadway
broccoli
brocht
brochte
brochten
broek
broeksterwald
broer
broers
broersma
brok
broken
brolsma
bron
bronte
bronx
brood
brooke
brooklyn
brooks
bros
brosnan
brother
brothers
brouwer
brouwerij
brouwers
brown
browning
bruce
brug
brugge
bruggen
brugmans
bruien
bruijn
bruin
bruins
bruinsma
bruk
brukber
bruke
bruken
bruker
brukers
brukme
brukt
brukte
brukten
brulee
brulloft
brun
bruna
brune
brunei
bruno
bruns
brunstiid
brunswyk
brunzen
bruorren
bruorskip
brus
brusse
brussel
bruto
bruts
brutsen
brutus
bryan
bryant
bryfke
bryson
brytoanyske
bs
bt
bu
bubo
buch
buchan
buchenwald
bucht
buck
buckingham
buckinghamshire
budapest
buddy
budget
budzjet
buenos
bueren
buert
buerten
buffalo
buford
bugd
bugde
buge
bugel
buging
building
buis
buisman
buiten
bujold
buk
bul
bulgaarsk
bulgaarske
bulgaren
bulgarije
bull
bullet
bult
bulte
bulten
bulthuis
buma
bun
bunde
bundel
bunder
bunker
bunkers
bunnik
bunschoten
bunsgenoat
bunsgenoaten
bunsgenoatskip
bunskanselier
bunslan
bunsmaat
bunsmaten
bunspartij
bunsrepublyk
bunt
bunte
buorden
buorfrou
buorke
buorkerij
buorkerijen
buorkjen
buorkundich
buorlan
buorlju
buorman
buorren
buorskip
buorskippen
burbank
burchwert
burd
burdaard
bureau
buren
burg
burgemeester
burgen
burgenland
burger
burgers
burgh
burgum
burgumer
burke
burmania
burnett
burning
burns
buro
burokrasy
burrard
burroughs
burt
burton
bus
buse
bush
business
buskrud
busline
bussen
bussum
buste
buster
busty
but
butan
butcher
buten
butendoar
butendyks
butenechtlike
butengebiet
butengewoan
butengewoane
butenierdsk
butenierdske
butenkant
butenlan
butenlanners
butenlansk
butenlanske
butenmuorren
butenof
butenpleats
butenpost
butenste
butensteanders
butenwiken
butenwrald
buteo
buter
buterfabryk
butler
butmakke
butte
butters
butts
buwalda
bv
bw
bx
by
bybrocht
bychtet
bydrage
bydragen
bydroegen
byelkoar
bygebouwen
bygelyks
byhearrende
byholden
byinoar
bykommend
bykommende
bykomt
bylans
byld
bylden
byldestoarm
byldhoukeunst
byldhouster
byldhouwer
byldhouwers
byldhouwurk
byldhouwurken
byldsje
byldzjend
byldzjende
byleauwe
byluden
bynamme
bynammen
byneamd
bynt
byp
byrol
byrollen
byron
byset
bystien
bysunder
bysundere
byt
bytiden
bytsje
bywenne
bywezen
bywurd
bywurdlike
byzantinen
byzantium
byzantsium
byzantynsk
byzantynske
bz
c
c0
c1
c2
c3
c4
c5
c6
c7
c8
c9
ca
caballe
cable
caen
caesar
caesarea
cafe
cage
caine
cajeiri
calais
calamity
calgary
calhoun
cali
calidris
california
call
callahan
called
callophrys
calrissian
calvados
calvert
calvin
cambridge
cambuur
came
cameo
camera
cameron
camille
cammingha
camp
campaign
campbell
campen
camper
campert
camping
campus
camstra
camus
can
canada
canadensis
canadian
canal
canberra
canby
candy
canis
cannes
canter
canterbury
cantos
canyon
cao
cap
cape
capital
capitol
captain
car
card
cardiff
cards
care
carel
carex
carey
caribbean
carl
carla
carlin
carlisle
carlo
carlos
carmen
carnegie
carnivora
carol
carolina
caroline
carolus
carotta
carpenter
carr
carre
carrera
carrick
carrie
carrington
carroll
carry
carson
carter
cartoonist
carver
casa
casablanca
cascade
cascades
case
casey
cash
casimir
casino
caspar
casper
cassandra
cassidy
cassius
cast
casting
castle
castro
cat
catalina
catch
cate
catharina
cathedral
catherine
catholic
cats
cattle
cazaril
cazemier
cb
cbs
cbtb
cc
cd
cda
cdu
ce
cecil
cecilia
cedar
cees
celine
celle
celsius
celtic
cemetery
census
center
centraal
central
centre
centrum
century
cerezo
cersi
cesar
cetagandyske
cev
cezanne
cf
cg
ch
chad
chalion
chamberlain
champions
championship
chan
chance
chanel
chang
change
changes
channel
chapel
chaplin
chapman
chapter
char
charadrius
charaxes
charity
charkov
charles
charleston
charley
charlie
charlotte
chartres
chase
chateau
chattanooga
chaucer
che
chelsea
cherokee
cherry
cherryh
chester
chewbacca
cheyenne
chi
chicago
chichen
chick
chief
chiffre
child
children
china
chinese
chip
chippewa
chisolm
chivington
chloe
cho
choice
chr
chris
christ
christchurch
christelijke
christen
christi
christiaan
christian
christie
christina
christine
christmas
christoffel
christoph
christopher
christus
christy
chronicle
chronicles
chu
chuck
church
churchill
ci
cia
ciconia
cincinnati
cinema
circle
circuit
circus
cities
city
ciudad
civil
cj
ck
cl
claerbergen
claes
clair
claire
clan
clans
clant
clapton
clara
clare
clarence
clark
clarke
clash
class
classic
classics
claude
claudia
claudio
claudius
claus
clayton
cle
clemens
clement
cleveland
cliff
clint
clinton
clive
clone
clones
close
cloud
clown
club
clyde
cm
cn
cnn
co
coach
coast
coat
cobra
coca
cock
cockpit
coco
code
codex
cody
coehoorn
coen
coevorden
cohen
cola
cold
cole
coleman
colin
coll
collected
collection
college
collin
collins
colmjon
colonia
color
colorado
colt
columba
columbia
columbus
com
comanche
come
comeback
comedy
comenius
comes
comic
comics
coming
command
commission
committee
common
commons
commonwealth
communications
community
compagnie
companion
company
compiegne
complete
complex
computer
comte
comyn
con
conan
concert
concordia
confederation
confederations
conference
congress
coningh
connecticut
connell
connery
connexxion
connie
connor
conrad
conscience
constable
constance
constant
constantijn
constantine
contact
contemporary
contes
contra
control
convention
cook
cooke
cool
cooper
cop
copperfield
cor
cora
corbie
cordelia
cork
cornelia
cornelis
cornelius
cornick
cornwall
corporation
corps
corpus
corstius
cortes
cortez
coruscant
corvey
corvus
costa
costello
coster
cotton
could
council
country
countrymuzyk
countrysjonger
county
countys
couperus
courant
court
courte
coventry
cover
covers
covid
cowboy
cowboys
cox
coyote
cp
cpn
cq
cr
crack
crackstate
craig
crane
crash
crawford
crazy
cree
creed
creek
crew
cricetidae
cricket
crime
crispin
critics
croix
cromwell
crone
croods
crook
crosby
cross
crossing
crossover
crow
crowd
crowe
crown
crows
crowther
cruijff
cruise
cruz
cry
crystal
cs
csi
ct
cu
cubs
cult
cultural
culture
cultuur
cum
cumberland
cup
curie
curly
curse
curtis
curtiss
custer
cut
cuvier
cuxhaven
cuypers
cv
cw
cx
cy
cyborg
cygnus
cynthia
cz
czerneda
d
d0
d1
d2
d3
d4
d5
d6
d7
d8
d9
da
daai
daalks
daam
daan
daar
daasje
dachau
daddy
dag
dagblad
dagboek
dage
dagen
daget
dagge
dagobert
dahl
dai
daily
daisy
dak
dakken
dakleas
dakota
dakpannen
dakruter
dal
dale
dalen
daliks
dallas
dalles
dalmaasje
dalton
dam
damaskus
dame
damen
dames
damjen
damme
dammen
dammer
damon
damwald
dan
dana
dance
dancer
dancing
danes
dangerous
daniel
danielle
daniels
dankert
dann
danny
dans
dante
dantumadiel
dantumawald
danzig
daphne
dar
dardanellen
dario
darius
dark
darkest
darkness
darling
darmstadt
darth
darwin
das
dassen
dat
data
databank
database
date
datearje
datearjend
datearjende
datearre
datearret
datearring
datoangeande
datselde
datum
daughter
dave
david
davids
davidson
davies
davis
daw
dawn
dawson
day
daylight
daylights
days
db
dbnl
dc
dd
ddr
de
dea
deabenaud
dead
deade
deaden
deadet
deadien
deadlik
deadlike
deadline
deadpool
deadsstjer
deadwood
deadzje
deadzjen
deakiste
deal
deamakke
dean
dearinnende
dearsum
deasjit
deasjitte
deasketten
deaslein
deastraf
death
deathmetalband
debat
debbie
deborah
debut
debutalbum
debutearre
debutroman
decker
dee
deeglik
deel
deelen
deelstra
deen
deensk
deenske
deep
deer
defender
definiearre
definitive
definityf
definsje
definysje
definysjes
degradearre
degree
dei
deibled
deibleden
deiboek
deiboeken
deilis
deilisskip
deiljocht
deinum
deis
deiske
deiskema
deistich
deistige
deja
dejinge
dejingen
dek
dekema
dekemastate
deken
dekken
dekker
dekking
dekor
dekoraasje
dekoraasjes
dekorative
dekorearre
dekors
dekreet
dekt
del
delaware
delawer
delbede
delegaasje
delfal
delfsyl
delft
delgong
delhelle
delhi
delikt
delkaam
delkomme
delkommen
delkomt
dell
della
dellein
delling
dellingen
dellizze
delon
delset
delsette
delsetten
delsetting
delsettingen
delsettings
delsketten
delslaan
delslach
delslein
delstoart
delstoarte
delstoarten
delta
delte
dem
demand
demetrius
demintens
demjanjuk
demo
demoanen
demoanyske
demokraat
demokrasy
demokraten
demokratysk
demokratyske
demon
demonstraasje
demonstraasjes
demonstranten
den
denaarje
denali
dendarii
dene
denemark
denemarken
denen
denis
denise
dennis
denominaasje
denominaasjes
denton
denver
deo
departemint
departeminten
department
deportaasje
deportearre
depot
depresje
deputearre
der
derbinnen
derboppe
derbuten
derby
dere
derefter
derefteroan
derek
derfan
derfandinne
derfoar
derfoaroer
derhinne
derk
dermei
dernei
derneist
dernjonken
deroan
deroer
deroerhinne
derof
derom
deromhinne
derop
deropfolgjende
deropta
derta
dertroch
dertsjin
dertusken
dertuskenyn
derudio
derunder
derut
derwei
deryn
des
descartes
desdemona
deselde
desennia
desennium
desert
design
desimber
desire
desius
desjima
desmarest
desolation
despicable
dessau
destiids
destiidske
destiny
destroyer
det
detail
detailhannel
detaillearre
details
detasjearre
detasjemint
detective
detektive
detektivesearje
detroit
deugd
deugden
deun
deunby
deur
deutsch
deutsche
deutschen
deutscher
deutsches
deutschland
deux
development
deventer
devil
devon
dexter
deze
df
dg
dh
di
diabolic
diagnoaze
diagram
diakrityske
dialekt
dialekten
dialogen
dialooch
diamant
diamanten
diameter
diamond
diamonds
diana
diane
diary
diaspora
diaz
dicht
dichtbondel
dichtbondels
dichter
dichteres
dichteresse
dichterlike
dichters
dichtsjen
dichtwurk
dick
dickens
dickinson
dictionary
diderik
dido
die
died
dieden
dieder
diederik
dieders
dieet
dief
diego
diel
dield
dielde
dielden
diele
dielen
dieling
dielnaam
dielname
dielnimme
dielnimmende
dielnimmer
dielnimmers
dielnommen
diels
dielsteat
dielsteaten
dielt
dieltsjes
diemen
dien
diene
dienen
dienst
diep
dier
dieren
dieretun
dierlike
dies
dietrich
dietz
dieven
diever
dieverij
diez
difyzje
difyzjes
diggelguod
digitaal
digital
digitale
dijk
dijkstra
dijon
dik
diken
dikke
diktator
diktatuer
diktee
dilemma
dillenburg
dimitri
dimter
din
diner
ding
dingen
dinosauriers
dio
diokletianus
diomedes
dion
dionysius
dionysus
diploma
diplomaat
diplomasy
diplomaten
diplomatike
dir
dirck
direct
director
direksje
direkt
direkte
direkteur
direktrise
dirigint
dirk
dirks
dirty
dis
discjockey
discovery
diskear
diskografy
diskriminaasje
diskusje
diskusjes
diskwalifisearre
disney
displaystyle
disposysje
dissertaasje
dissipels
dissipline
dissiplines
distiid
distribuearre
distribusje
district
distrikt
distrikten
dit
ditmar
divine
division
dixon
dize
dizenich
dizze
dizzen
dj
djip
djipdroven
djipgong
djippe
djipper
djipste
djipte
djiptepunt
djoer
djoerder
djoere
dk
dl
dln
dm
dmitri
dn
dna
dnjepr
do
doalert
doanjewerstal
doanjum
doar
doardt
doarested
doarp
doarpen
doarpke
doarpkes
doarpsbelang
doarpsfeest
doarpsgebiet
doarpsgesicht
doarpsgesichten
doarpshus
doarpskearn
doarpskrante
doarpsstrjitte
doarpstsjerke
doarpswapen
doarren
doaske
dobbe
doc
doch
dochs
docht
dochter
dochterke
dochters
dochterundernimming
doctor
document
dodge
dodo
doe
doede
doedestiden
doedestiids
doedestiidske
doek
doeke
doeken
doel
doele
doelen
doelfoarm
doelgroep
doelpunten
doelstelling
doelwyt
doen
doer
doesburg
doet
doetiid
doetiids
doetiidske
doetinchem
doezum
dof
dog
doge
dogge
dogma
doherty
dokkum
dokkumer
doksaal
dokter
dokters
doktor
doktoraat
dokumint
dokumintaasje
dokumintaasjesintrum
dokumintearre
dokuminten
dokumintere
dokuminteremakker
dokuminteres
dol
doleansje
dolf
dolfinen
doll
dollar
dollars
dolle
dolly
dolsterhuzen
dolte
dom
domein
domeinen
domela
domenico
domesday
domestisearre
dominant
dominante
dominearre
dominee
domini
dominika
dominikaanske
dominikanen
dominion
dominique
domino
domitianus
domme
domtsjerke
don
dona
donald
donatus
donau
donetsk
dong
dongen
dongeradiel
donia
donitz
donker
donkerbroek
donkere
donna
donnie
donovan
doocht
dood
dooku
doolittle
doom
doop
doopfont
doophek
doopkapel
doopt
door
doorman
doorn
dope
doper
doperske
dopertsjerke
doping
dorcel
dorchester
dordrecht
dorested
doris
dorothea
dorothy
dorp
dorset
dorus
dory
dos
dosearre
dosint
dosinten
dossier
dossiers
double
doubleday
doug
douglas
douglass
douma
doutzen
douwama
douwe
douwes
douwstra
dove
dovegebeartetaal
dover
dowestien
down
download
doyle
dozois
dp
dq
dr
draacht
draachtiid
draaft
draai
draaid
draaide
draaie
draaien
draaiende
draait
draak
dracht
drachten
drachtster
dracula
draft
drage
dragen
drager
dragers
drago
dragon
dragons
drait
drake
draken
drama
dramafilm
dramarige
dramasearje
dramatysk
dramatyske
drank
dranken
drave
draven
dravot
drax
dre
dream
dreame
dreamen
dreams
dreamworks
dreau
dreaun
dreaune
drebbel
dreech
drees
drege
dreger
drekt
drenthe
drentse
dresden
drew
drie
driebergen
driezum
drift
drige
drigen
driget
driging
driigje
driigjende
drinke
drinken
drinkt
drinkwetter
drinte
drintsk
drintske
driuwe
driuwen
driuwend
driuwende
driuwt
drive
droech
droegeham
droegen
drok
drokke
drokste
drokte
dromen
dronken
dronkenskip
dronryp
droom
drost
drs
dru
druch
druchlein
druchlizzing
druchte
drug
druge
drugjen
drugs
druk
drukken
drukker
drukkerij
drukt
drukte
druktechnyk
drummer
drums
drusus
druven
drylts
dryste
ds
dsb
dsm
dt
du
duairiere
duane
dubai
dubel
dubeld
dubelde
dubeldsuker
dubele
dublin
dubrovnik
duck
duco
dudlik
dudlike
dudliker
dudu
duel
duels
duerstede
duerswald
duet
duim
duin
duinen
duisburg
duk
dukboat
dukboaten
duke
duken
duker
dukers
dukes
dukt
dukte
dumas
dumeril
dumfries
dumny
dumnys
dun
dunbar
duncan
dundee
dune
dunegea
dunen
dunkerder
dunkere
dunkirk
duns
dunse
dunsen
dunser
dunseresse
dunsje
dunsjen
duntsjerk
duo
duology
duorje
duorjend
duorjende
duorre
duorren
duorret
duorsum
duorsume
dur
durch
durer
durham
durk
durks
dus
dusseldorf
dust
dusty
dutch
dutser
dutsers
dutsk
dutske
dutskers
dutsktalige
dutslan
duval
duvel
dv
dvd
dw
dwaan
dwaande
dwayne
dwerch
dwerchplaneet
dwergen
dwers
dwersskip
dwight
dx
dy
dyjinge
dyjingen
dyk
dykgraaf
dykhurdfytsen
dykstra
dylan
dyn
dynasty
dynastyen
dyselde
dyselden
dyseldichste
dz
dzjibuty
e
e0
e1
e2
e3
e4
e5
e6
e7
e8
e9
ea
each
eachje
eachpunt
eagen
eagle
eagles
eagmaryp
eagum
ealahuzen
ealfrouwe
eallju
ealman
ealstiennen
ealsum
eangst
eangstme
eanjum
ear
earbetoan
eardat
earder
eardere
eare
eareboarger
earedifyzje
earedoktoraat
earelid
earen
earetitel
earetsjinst
earfol
earfolle
earhart
earik
earjen
earjuster
earl
earlellen
earlik
early
earm
earme
earmen
earmhus
earmoed
earmoede
earmoedegrins
earmoedige
earms
earn
earne
earnen
earnewald
earnstich
earnstige
earp
earrebarre
earring
earst
earste
earsten
earstfolgjende
earstoan
eart
earth
eartiids
eartiidske
eask
easke
easken
easket
easkje
easkjen
east
eastblok
eastdongeradiel
eastein
easten
eastenrikers
eastenryk
eastenryksk
eastenrykske
easterbierrum
easterein
eastergoa
easterlittens
eastermar
eastern
easternijtsjerk
eastersee
eastersk
easterske
easterwalde
easterwierrum
eastfriezen
eastfront
eastfrysk
eastfryske
eastfryslan
eastgrins
easthim
eastkant
eastkust
eastlik
eastlike
eastliker
eastman
easton
eastrum
eastsee
eastside
eaststellingwerf
eastwood
eastyndyske
easy
eat
eb
ebenezar
eberhard
ebert
ec
echo
echt
echte
ecole
economic
ed
edam
edda
eddie
eddy
ede
edelman
eden
edgar
edge
edi
edikt
edinboarch
edinburch
edinburgh
edison
edith
edition
editions
edmond
edmonton
edmund
edo
edouard
eds
eduard
eduardo
education
edukative
edvard
edward
edwardeilan
edwards
edwert
edwin
edysje
edysjes
edzard
ee
eed
eeden
eefkes
eekhof
eekhoff
eelco
eelde
eelke
eelkje
eeltsje
eem
eemnes
een
eene
eenige
eens
eerste
eeuw
eeuwen
ef
efeze
efeziers
effects
effekt
effekten
effektive
effektyf
effen
efkes
efter
efterbleaun
efterbleaune
efterelkoar
efteren
efterfolge
efterfolgers
efterfolget
efterfolging
eftergrun
eftergrunen
efterheaksel
efterheljen
efterhelle
efterinoar
efterkant
efterlan
efterlit
efterlitte
efterlitten
efterlizzende
efternamme
efternammen
efterneef
efternei
efteroan
efteroer
efterof
efterpoaten
efterside
efterste
efterut
efterutgong
efteryn
eftich
eftige
eftigen
eg
egbert
egberts
egeyske
eggsy
eglise
egmond
egmont
ego
egypte
egyptners
egyptysk
egyptyske
eh
ehiru
ei
eider
eiderstedt
eifel
eigen
eigenaresse
eigendom
eigendommen
eigener
eigeners
eigenhandich
eigennamme
eigenskip
eigenskiplik
eigenskippen
eigenskipswurd
eigentlik
eigentlike
eight
eigner
eigneresse
eigners
eilan
eilanbewenners
eiland
eilannegroep
eilannekloft
eilannen
eilanners
eilantsje
eilantsjes
ein
einar
einbeslut
einde
eindhoven
eine
einekoai
eineksamen
eineksamens
einen
einer
einfugels
einige
einigen
einiget
einigje
einigjen
einklassemint
einlik
einliks
einlings
einpunt
einredakteur
eins
einstein
einstreek
eintsje
eise
eisenach
eisenhower
eisinga
ej
ejakulaasje
ek
ekaterin
eklektyske
ekology
ekologyske
ekonomy
ekonomysk
ekonomyske
ekonoom
eks
eksakte
eksamen
eksamens
eksekusje
eksekutearre
eksimplaar
eksimplaren
eksintrike
eksklave
eksklusive
eksklusyf
eksmoarre
eksoat
eksoatyske
ekspansje
ekspedysje
ekspedysjes
eksper
eksperimint
eksperimintearre
eksperimintele
eksperiminten
ekspers
eksplisyt
eksploazje
eksploitaasje
eksploitearre
eksplosive
eksplosiven
eksport
eksportearre
eksposearre
eksposysje
eksposysjes
ekspres
ekspresjonisme
ekspresjonistyske
ekster
eksterieur
eksterne
ekstra
ekstreem
ekstreme
ekwador
ekwatoriaal
ekwifalint
ekwivalint
ekwivalinte
el
elaine
elbe
elburch
eleanor
electra
electric
elegant
elektoraat
elektra
elektrisiteit
elektroanen
elektroanika
elektroanysk
elektroanyske
elektromagnetyske
elektron
elektrysk
elektryske
element
elemint
eleminten
elemintere
elena
eleonoara
elf
elfke
elfkes
elfkestof
eli
elia
elias
elie
elijah
elikser
eliot
elisabet
elisabeth
elite
eliza
elizabetaanske
elizabeth
elk
elke
elkenien
elkoar
ella
elle
ellen
ellie
elliot
elliott
ellis
elrod
els
elsa
else
elsevier
elske
elslo
elst
elton
elts
eltse
eltsenien
elum
elven
elvis
ely
elzas
em
emansipaasje
emanuel
emberiza
embryo
emden
emeritaat
emerson
emi
emigraasje
emigranten
emigrearre
emigrearren
emil
emile
emilia
emily
eminga
emir
emiraat
emiraten
emma
emmanuel
emmanuelle
emmeline
emmeloard
emmen
emmius
emmy
emoasje
emoasjes
emosjoneel
emosjonele
emperor
empire
ems
en
encyclopedia
encyclopedie
end
ende
endor
enemy
enerzjy
enforcer
engel
engelbert
engels
england
english
enkete
enklave
enklaves
enno
enoarme
enough
enris
ensafh
ensafuorthinne
ensemble
ensfh
ensyklopedy
enterprise
enterprises
entertainment
entusjasme
entusjast
entusjaste
eo
eon
ep
epidemy
epilooch
episoade
episode
epitaaf
epo
epos
eppie
epysk
epyske
eq
er
erasmus
erch
erchtinkend
erebia
ereksje
erf
erfde
erfenis
erfgenamt
erfgenamten
erfgoed
erflik
erflike
erfskip
eric
erica
erich
erik
erika
erin
eritrea
erkend
erkende
erkenden
erkenne
erkennen
erkenning
erkent
erlkonig
erminea
ernest
ernst
eroatysk
eroatyske
eroazje
ers
erskine
erve
erven
erwin
es
escape
escher
esdras
esens
eskader
eskdoarn
eskimo
esperanto
essay
essayist
essays
esseks
essen
essinsje
essinsjeel
essun
est
estafette
estaing
ester
estetyske
esther
estlan
estsk
estuarium
estysk
estyske
et
eta
etanol
etappe
etc
ete
ethan
ethnologue
etienne
etioopje
etiopysk
etiopyske
etnisiteit
etnysk
etnyske
etruskysk
etsen
etser
etyk
etymology
etymologysk
etyske
eu
eufraat
eugene
eugenie
eugenius
eurasian
euripides
euro
eurofyzjesongfestival
europa
europe
european
europeanen
europeesk
europeeske
europese
eusebius
eustachius
eustasius
eutanasy
euvelmoed
ev
eva
evakuaasje
evakuearre
evan
evangeelje
evangeeljes
evangelist
evangelisten
evangelysk
evangelyske
evans
evanston
eve
evelyn
even
evenemint
eveneminten
evener
evenhoevigen
evening
eventueel
eventuele
eventyr
ever
everdingen
everest
everhard
evers
everswyn
evert
evil
evolusje
ew
ewoks
ex
excalibur
excelsior
executive
exeter
exhibition
exodus
experience
explorer
expo
express
extreme
exupery
ey
eyck
eye
eyes
eysinga
eysingastate
ez
ezau
ezechiel
ezel
ezinge
ezra
f
f0
f1
f2
f3
f4
f5
f6
f7
f8
f9
fa
faai
faak
faaks
faam
faandrich
faasje
fabels
faber
fabricius
fabrikaazje
fabrikant
fabrikanten
fabriken
fabryk
face
facebook
facto
factor
factory
fad
fadij
fagina
fagot
fainne
fair
fairbanks
fairy
faith
fak
fakansje
fakbun
fakbunen
fakbunslieder
fakentiden
faker
fakken
faksisme
faksisten
faksistyske
faksjuery
faktoaren
faktor
fakulteit
fakulteiten
fakuum
fakwurkhuzen
fal
falck
falco
falcon
fale
falen
falentinianus
falentynsdei
falk
falkena
falkirk
falklaneilannen
fall
fallaat
falle
fallei
fallen
fallende
fallene
falling
falls
fallyt
falom
falsk
falske
falstaff
falt
fam
fame
familie
family
famke
famkes
famkesnamme
famme
fammen
fampier
fampieren
famylje
famyljebedriuw
famyljeleden
famyljelid
famyljenamme
famyljenammen
famyljes
famyljewapen
fan
fanalds
fanatike
fandaalske
fandalen
fander
fanfare
fang
fange
fangen
fangt
faninoar
fanke
fannijs
fanny
fanof
fans
fansels
fansiden
fantasij
fantastic
fantasy
fantasyfilm
fantasyliteratuer
fantasyroman
fantasysjenre
fanuatu
fanut
fanwege
fanwegen
far
farao
fard
farde
farden
fariaasje
fariaasjes
fariant
farianten
fariearje
fariearret
farm
farman
farmer
farre
farrell
farren
farsk
farske
fart
fartuch
farve
farwetter
farwol
fashion
fasiliteiten
faso
fast
fat
fataal
fatale
fate
father
fatikaan
fatikaansted
fatsoen
fauna
favor
favorite
favoryt
fawcett
fawn
fazal
fazallen
fazalsteat
faze
fazen
fazes
fb
fbi
fc
fd
fe
fean
feanarbeiders
feandam
feanen
feangebiet
feangebieten
feangrun
feanhoop
feanhuzen
feankleaster
feankoloanjes
feanpolder
feanster
feanterij
feanwalden
fear
fearboat
feardichheden
feardichheid
feare
fearen
fearn
fearnsiuw
fearnsjier
fearren
feart
fearten
feartsjinst
feat
feature
febr
febrewaris
februar
februari
fecht
fedde
federaal
federaasje
federal
federale
federation
federico
fee
feehalder
feehalderij
feemerk
feenstra
feer
feest
feestdagen
feestdei
feesten
feestlik
feestlike
fegetaasje
feike
feilich
feilichheid
feilichheidstsjinst
feilige
feiligens
feiliger
feiling
feinsum
feint
feinten
feit
feite
feiten
feith
feitlik
feitlike
feitliks
feitsma
fek
fel
felipe
felix
fellatio
felle
fellowship
feluwe
female
feminisme
feministe
feministyske
femke
femme
femmes
fen
feneesje
feneetsje
fenesiaanske
fenezolaanske
fenezuela
fenisysk
fenisyske
fenlo
fennema
fenomeen
fenus
fenysje
fenysjers
feodale
fer
feraldere
ferantwurding
ferantwurdlik
ferantwurdlikens
ferantwurdlikheid
ferbaarnd
ferbaarnde
ferbaarnen
ferballe
ferballing
ferban
ferbastere
ferbastering
ferbea
ferbean
ferbeane
ferbergjen
ferbettere
ferbettering
ferbetterings
ferbetterjen
ferbieden
ferbiedt
ferbine
ferbinen
ferbining
ferbiningen
ferbinings
ferbiningswei
ferbittere
ferbjustere
ferbleau
ferbliuw
ferbliuwe
ferbliuwt
ferbod
ferboeking
ferbou
ferboud
ferboude
ferbouwe
ferbouwen
ferbouwing
ferbouwings
ferbrede
ferbrekken
ferbrekt
ferbrutsen
ferbuging
ferbun
ferbune
ferburgen
ferbylding
ferbynt
ferdield
ferdielde
ferdielen
ferdieling
ferdigene
ferdigener
ferdigeners
ferdigenet
ferdigening
ferdigeningswurk
ferdigeningswurken
ferdigenje
ferdigenjen
ferdinand
ferdivedaasje
ferdivedaasjepark
ferdjippe
ferdjipping
ferdjippings
ferdrach
ferdraggen
ferdreau
ferdreaun
ferdriuwen
ferdriuwing
ferdronk
ferdronken
ferdubele
ferdun
ferdwaalde
ferdwine
ferdwinen
ferdwining
ferdwun
ferdwune
ferdwunen
ferdwynt
ferdylge
fereale
fereare
ferearing
ferearjen
fereaske
fereu
fereusk
ferfal
ferfallen
ferfalske
ferfalsking
ferfange
ferfangen
ferfanger
ferfanging
ferfangt
ferfarde
ferfarre
ferfarren
ferfeanting
ferfear
ferfearen
ferfearn
ferfelende
ferfette
ferfier
ferfierd
ferfiere
ferfieren
ferfiermiddel
ferfilme
ferfilming
ferfilmings
ferfoel
ferfolch
ferfolchfilm
ferfolchfilms
ferfolchtrilogy
ferfolde
ferfolge
ferfolgen
ferfolgens
ferfolging
ferfolgings
ferfolje
ferfolle
ferfollet
ferfong
ferfongen
ferfrjemde
ferfrysking
fergees
fergelike
fergeliking
fergelykber
fergelykjen
fergese
fergetten
fergif
fergiftige
fergilius
fergoeding
fergrutsje
fergrutsjen
fergrutte
fergrutting
fergulde
fergunning
ferguson
ferhaal
ferhaalline
ferhaallinen
ferhalding
ferhaldingen
ferhaldings
ferhalebondel
ferhalebondels
ferhalen
ferhannele
ferhanneling
ferheard
ferheardens
ferhearliking
ferheegjen
ferheft
ferhege
ferheging
ferhelje
ferheljende
ferhelle
ferhellet
ferhierd
ferholpen
ferhurde
ferhuze
ferhuzen
ferhuzet
ferhuzing
ferhuzje
ferhuzjen
feriene
ferienfaldige
ferienige
ferieniging
feriening
ferienings
ferienjen
fering
ferjage
ferjilding
ferjit
ferjitte
ferjitten
ferjun
ferkate
ferkeap
ferkeapet
ferkeapje
ferkeapjen
ferkeapjende
ferkeapsifers
ferkear
ferkeard
ferkearde
ferkeare
ferkearing
ferkearsbuorden
ferkearsfleantuch
ferkearsknooppunt
ferkearsungemak
ferkeart
ferkeatst
ferkeazen
ferkend
ferkende
ferkennen
ferkenner
ferkenners
ferkenning
ferkiesber
ferkiezing
ferkiezingen
ferkiezings
ferklaaid
ferklearje
ferklearjen
ferklearre
ferklearren
ferklearret
ferklearring
ferklearrings
ferkoarte
ferkoarting
ferkocht
ferkochte
ferkochten
ferkrefte
ferkrefting
ferkrongen
ferkundige
ferkundiging
ferlaat
ferlamme
ferlear
ferlearen
ferlechje
ferlege
ferlein
ferlern
ferlerne
ferlet
ferlieden
ferlieding
ferliend
ferliende
ferlienen
ferlies
ferliest
ferliet
ferlieten
ferlieze
ferliezen
ferliezers
ferlike
ferliking
ferline
ferlingde
ferlinge
ferlinging
ferlit
ferlitte
ferlitten
ferljochte
ferljochting
ferlof
ferloofd
ferloofde
ferlosser
ferlossertsjerke
ferlossing
ferloving
ferlykber
ferlykbere
ferlykje
ferlykjen
ferlyn
ferlytsingswurd
fermaak
fermaaklik
fermakke
fermanje
fermeld
fermelde
fermelden
fermelding
fermidden
fermiddens
fermindere
ferminderjen
ferminging
fermist
fermiste
fermoarde
fermoarden
fermoardet
fermoardzje
fermoardzjen
fermoede
fermoeden
fermoedet
fermoedlik
fermoedsoening
fermogen
fermogens
fermongen
fermont
fernaam
fernandez
fernando
ferneamd
ferneamde
ferneamdens
ferneamdste
ferneatige
ferneatigen
ferneatiget
ferneatiging
ferneatigingskamp
ferneatigje
ferneatigjen
fernield
fernielde
fernielings
fernijd
fernijde
fernijing
fernijings
fernimmen
fernommen
feroardering
feroardield
feroardiele
feroardieling
feroare
feroaren
feroaret
feroaring
feroaringen
feroarings
feroarje
feroarjen
feroarjende
feroarsaakje
feroarsaakjen
feroarsake
feroarsaken
feroarsaket
ferovere
feroveren
feroveret
ferovering
feroverje
feroverjen
ferpachte
ferparte
ferpleatse
ferpleatsen
ferpleatst
ferpleechhus
ferpleechkundige
ferpleechster
ferpletterjende
ferplicht
ferplichte
ferplichting
ferplichtings
ferrara
ferrari
ferrassend
ferrassing
ferrast
ferrer
ferrera
ferret
ferriden
ferrie
ferrieder
ferriedlike
ferrier
ferrin
ferrinnewearre
ferrint
ferrjochte
ferrjochtsjen
ferruile
ferrun
ferry
fers
fersekering
fersekeringsmaatskippij
fersen
ferset
fersetslju
fersetsman
fersetsstrider
fersetsstriders
fersette
fersetten
fersierd
fersierde
fersiering
fersierings
fersille
fersin
ferskaat
ferskate
ferskaten
ferske
ferskeidene
ferskes
ferskil
ferskille
ferskillen
ferskillend
ferskillende
ferskilt
ferskine
ferskinen
ferskining
ferskode
ferskood
ferskowing
ferskriklik
ferskriklike
ferskule
ferskuorrende
ferskynd
ferskynde
ferskynden
ferskynsel
ferskynsels
ferskynt
ferslaan
ferslaat
ferslach
ferslachjouster
ferslachjouwer
ferslachjouwing
ferslacht
ferslaggen
ferslane
ferslaving
ferslein
fersleine
fersloech
fersloegen
fersmiten
fersmoarge
fersmoarging
fersoarge
fersoarget
fersoarging
fersoargingshus
fersoargingsplak
fersoargje
fersoargjen
fersocht
ferspraat
fersprate
ferspraten
ferspriede
fersprieden
fersprieding
ferspriedingsgebiet
ferstan
ferstean
fersteanber
ferstedske
fersterke
fersterking
fersterkings
fersterkje
fersterkjen
fersteurd
fersteuring
ferstien
ferstjerren
ferstjert
ferstjoerd
ferstoar
ferstoaren
ferstoarn
ferstoarne
ferstoarnen
ferstoppe
ferswakke
fersyk
fert
fertaald
fertaalde
fertaling
fertalings
ferteld
fertelde
fertelden
fertelle
fertellen
ferteller
fertelt
fertikaal
fertikale
fertinking
fertoand
fertoande
fertoane
fertoaning
fertoant
fertocht
fertochte
fertochten
fertolke
fertolking
fertraging
fertrek
fertrekken
fertriet
fertroud
fertroude
fertrout
fertrouwe
fertrouwen
fertsjinje
fertsjinjen
fertsjinne
fertsjinnet
fertsjinste
fertsjinsten
fertsjinstlik
fertsjintwurdige
fertsjintwurdiger
fertsjintwurdigers
fertsjintwurdiget
fertsjintwurdiging
fertsjintwurdigje
fertsjintwurdigjen
fertuten
ferve
ferwaarme
ferwaarming
ferwachte
ferwachtet
ferwachting
ferwachtings
ferwachtsje
ferwachtsjen
ferwalde
ferwar
ferwerda
ferwerderadiel
ferwert
ferwidere
ferwidering
ferwiderjen
ferwiisd
ferwiisde
ferwiist
ferwikkele
ferwiten
ferwize
ferwizen
ferwizend
ferwizing
ferwizings
ferwoaste
ferwoastge
ferwoastging
ferwolkomme
ferwulft
ferwulften
ferwune
ferwunen
ferwunet
ferwuning
ferwunings
ferwuostge
ferwuostging
ferwurke
ferwurking
ferwurkjen
ferwyldere
ferzen
ferzje
ferzjes
fest
festbun
feste
festelan
festewal
festhalde
festhalden
festholden
festige
festigen
festiget
festiging
festigings
festigje
festigjen
festing
festingsted
festingwurken
festival
festivals
festiviteiten
festlein
festleine
festlizze
festlizzen
festmakke
festset
festsetten
festsit
feststeld
feststelde
feststelle
fet
fetber
fete
feteraan
feteranen
fetkeapers
fett
fette
fetten
fetterman
fever
few
feye
feyenoord
feytsma
ff
fg
fh
fi
fia
fiadukt
fiasko
fibula
ficedula
fiction
fidel
fideo
fideoklip
fideoklips
fideospultsje
fideospultsjes
fidzjy
fiedingsstoffen
fiedsel
field
fielde
fielden
fields
fiele
fielen
fielt
fier
fierd
fierde
fierden
fierder
fierdere
fierderop
fierders
fierdersoan
fiere
fieren
fiergeande
fierhinne
fiering
fierljeppen
fierst
fierste
fiersten
fierstente
fiert
fiertaal
fierte
fiertuch
fiertugen
fierwei
fietnam
fifa
fife
fifth
fight
fighting
figuer
figueren
figuranten
figurative
figuratyf
figures
fiif
fiifde
fiifentweintich
fiifgea
fiifhundert
fiifkamp
fiiftal
fijan
fijannen
fijannich
fijannige
fikaris
fiksje
fiksjeboek
fiktive
fiktoaria
fiktor
fiktoriaanske
fiktyf
filantroop
file
filemon
files
filiaal
filipinen
filippus
filips
filipynsk
filipynske
filistinen
filla
film
filmakteur
filmaktrise
filmcrew
filmdebut
filmdistribusje
filme
filmfestival
filmfestivals
filmjen
filmke
filmkes
filmkeunst
filmkritikus
filmkritisy
filmmakker
filmmakkers
filmmontaazje
filmmusical
filmmuzyk
filmografy
filmpriis
filmprizen
filmprodusint
filmprodusinte
filmprodusinten
filmregisseur
filmrige
filmrjochten
filmrol
films
filmsearje
filmset
filmskiednis
filmstjer
filmstudio
filmtrilogy
filmyndustry
filmynstitut
filosofen
filosofy
filosofyske
filosoof
fin
finaal
final
finale
finales
finansierd
finansiere
finansiering
finansjeel
finansjele
finansjen
finansjes
finch
findbestscript
finding
fine
finen
finger
fingers
finish
finistere
finlan
finn
finne
finnen
finsk
finske
finster
finsters
finsterwolde
finzen
finzene
finzenen
finzenis
finzenissen
finzenisstraf
finzennommen
finzenskip
fioele
fioelist
fiolet
fiona
fire
firginia
firma
first
firth
firus
firussen
fisazjy
fischer
fise
fish
fisher
fisigoaten
fisigoatyske
fisk
fiske
fisken
fisker
fiskerij
fiskers
fiskersdoarp
fiskjen
fistful
fisueel
fisuele
fisy
fit
fitamine
fiterjen
fitness
fitustsjerke
fitz
fitzgerald
fivb
five
fiver
fivers
fix
fizel
fizier
fizioen
fizioenen
fj
fjetnam
fjetnameesk
fjetnameeske
fjetnamezen
fjetnamoarloch
fjild
fjilden
fjildhear
fjildmaarskalk
fjildmuorren
fjildmus
fjildmuzen
fjildnamme
fjildslach
fjildslaggen
fjildtocht
fjildtochten
fjildwachter
fjirde
fjirtich
fjirtiger
fjirtjin
fjirtjinde
fjochte
fjochtet
fjochtpartij
fjochtsje
fjochtsjen
fjodor
fjoer
fjoergefjocht
fjoertoer
fjoerwapen
fjoerwapens
fjoerwurk
fjord
fjorden
fjouwer
fjouwerkant
fjouwerkante
fjouwertal
fjurren
fk
fl
flaaks
flaamsk
flaamske
flaanderen
flaardingen
flag
flagge
flaggen
flaggeskip
flak
flakby
flakke
flakken
flakte
flakten
flam
flambeau
flamingen
flamingo
flammen
flash
flashback
flat
flater
flaters
flatgebou
flavius
fleach
fleagen
fleanbasis
fleanberik
fleandekskip
fleandekskippen
fleander
fleane
fleanen
fleanend
fleanende
fleanfjild
fleanfjilden
fleanmasine
fleanmasines
fleant
fleantuch
fleantugen
flear
flearmus
flearmuzen
fleat
flecht
flechte
flechten
flechtet
flechtlingen
flechtsje
flechtsjen
fleet
flein
fleis
flekke
fleming
flentrop
flesh
flesse
fletcher
fleugel
fleugeloerflak
fleugels
fleurich
fleurige
flevolan
flibe
flier
fliet
flight
flink
flinke
flint
flinter
flinters
flintersoarte
flissingen
fljocht
floara
floarida
floaris
float
flodder
flodders
floed
floeiber
floeibere
floeiend
floeistof
flok
floor
flopte
flora
florans
florence
flores
florida
floris
flot
flower
flowers
floyd
fluch
fluchst
fluchste
fluezen
flugge
flugger
fluit
fluor
fly
flying
flylan
flynn
flynt
fm
fn
fnp
fo
foar
foaral
foaralden
foaralderlike
foarbeholden
foarby
foarbyld
foarbylden
foardat
foardere
foardiel
foardielen
foardoar
foardocht
foardracht
foardrachten
foardroegen
foarearst
foaren
foarfaar
foarfal
foarfallen
foarferkiezings
foarfest
foarfjochter
foargeande
foargevel
foargoed
foargonger
foargongers
foargrun
foarhannen
foarhans
foarheaksel
foarhinne
foarholle
foarhus
foarige
foarinoar
foarjier
foarjun
foarkaam
foarkamen
foarkant
foarkar
foarkomd
foarkomme
foarkommen
foarkommend
foarkommende
foarkomt
foarlan
foarleafde
foarlein
foarleste
foarlezen
foarljochting
foarm
foarman
foarme
foarmen
foarmet
foarmige
foarming
foarmje
foarmjen
foarmjouwing
foarmjun
foarnaamste
foarname
foarnamme
foarnammen
foarnamwurd
foarnamwurden
foarne
foaroan
foaroanlju
foaroanman
foaroanmannen
foaroansteand
foaroansteande
foaroardielen
foaroer
foarof
foarofgeand
foarofgeande
foarofgien
foarop
foarpoaten
foarpommeren
foarren
foarrie
foarrieden
foarrige
foarrinder
foarrinner
foars
foarse
foarseach
foarsei
foarsein
foarseit
foarsichtich
foarside
foarsitter
foarsitterskip
foarsizzing
foarsizzings
foarsjen
foarsjennings
foarsjocht
foarsjoen
foarskriften
foarspraak
foarsprong
foarst
foarstanner
foarstanners
foarste
foarsted
foarsteden
foarstedom
foarstel
foarsteld
foarstelde
foarstelle
foarstellen
foarstelling
foarstellingen
foarstellings
foarstelt
foarsten
foarstendom
foarstreek
foarstrjitte
foartiid
foarum
foarut
foarutgong
foarwei
foarwerp
foarwerpen
foarwurd
foarwurk
focht
fochtel
fochten
fochtich
fochtige
focke
fockema
fockens
foech
foederaty
foege
foegen
foeget
foegjen
foeke
foel
foelen
foer
foet
fok
fokaal
fokalen
fokbolle
fokke
fokkema
fokken
fokker
fokko
foks
foksen
fokt
fol
folapuk
folbloed
folchoarder
fold
foldie
foldien
foldocht
foldogge
foldwaan
foldwaande
folge
folgelingen
folgen
folgeren
folget
folgje
folgjen
folgjend
folgjende
folio
folje
foljen
folk
folkebun
folkeferfarren
folkekundige
folken
folkert
folkertsma
folkloare
folksbibleteek
folksferhaal
folksferhalen
folksfertsjintwurdiging
folkshegeskoalle
folksliet
folksmule
folksmuzyk
folkspartij
folksrepublyk
folkssunens
folkstelling
folkstellingsburo
folkswein
folle
follegea
follenhove
follybal
follybalferiening
follyballer
follyballers
folmacht
folop
folsgeare
folslein
folsleine
folsleinens
foltiids
foltoge
foltogen
foltoging
foltogjen
folume
folut
folweardich
folweardige
folwoeksen
folwoeksene
folwoeksenen
fomoaren
fon
fonda
fonetysk
fonetyske
fong
fongen
fons
fontaine
fontainebleau
fontein
food
foods
fool
fools
foot
football
foppe
for
forbes
forbidden
force
ford
foreign
foreigner
forest
forever
forge
foriining
formaasje
formaat
formearum
formeel
formele
formule
formulearre
forster
forsyth
fort
forten
forth
forthill
fortun
fortuna
fortuyn
forty
forum
fossey
fossile
fossilen
fossyl
foster
foto
fotoboek
fotograaf
fotografe
fotografearre
fotografy
fotografysk
fotomodel
fotoreportaazjes
foudgum
found
foundation
four
fout
fox
foxxx
fp
fq
fr
fra
fraach
fraachpetear
fraachpetearen
fraachstikken
fraai
fraaie
frac
fracht
frachtferfier
frachtskip
frachtwein
frachtweinen
fragen
fragmint
fragminten
fraksje
fraksjefoarsitter
fral
fram
frame
fran
franca
francais
francaise
france
frances
francesca
francesco
franchise
francis
francisco
franciscus
franco
francois
francoise
franeker
frank
franken
frankenstein
frankfurt
frankfurter
franklin
frankryk
frankysk
frankyske
frans
fransen
fransiskaanske
fransiskanen
fransisko
fransiskus
fransje
fransk
franske
fransken
fransktalich
fransktalige
fransman
franz
fraser
frau
fraude
freark
fred
freddie
freddy
frede
frederic
frederick
frederik
frederiksoard
fredesferdrach
fredestiid
fredesunderhannelings
free
freed
freedom
freedsum
freedsume
freegje
freegjen
freelance
freeman
freeones
freeslike
fregat
frege
fregen
freget
freiburg
frekwinsje
frenata
french
freon
freondinne
freondinnen
freonen
freonlik
freonlike
freonskip
freonskiplike
fresko
fret
frette
fretten
freud
freule
freulepartij
freya
freze
friday
friedrich
friend
friends
friens
fries
friesch
friesche
friese
friesen
friesischen
friesland
frieslandcampina
frieslands
friespunt
friezen
friisk
frij
frije
frijer
frijers
frijfeint
frijheden
frijheid
frijheidsstrider
frijjun
frijkommen
frijlitten
frijlitting
frijmakke
frijsinnich
frijsinnige
frijsprutsen
frijsteande
frijsteat
frijwat
frijwillich
frijwillige
frijwilliger
frijwilligers
frijwol
frisia
frisian
frisiast
frisicum
frisionum
frisius
friso
frits
fritz
friulysk
frjemd
frjemde
frjentsjer
frjentsjerter
frjentsjerteradiel
frjentsjertersk
froast
frodo
froedskip
from
fromme
frommes
front
frontale
frontier
frost
frou
froubuorren
frouck
froukje
froulik
froulike
froulju
frouljus
frouljuskiesrjocht
frouljuskleaster
frouljusrjochten
frouwe
frozen
frr
frucht
fruchtber
fruchtbere
fruchtberens
fruchten
fruit
frustraasje
fry
frysk
fryske
frysktalich
frysktalige
fryslan
fryslannen
fs
fsa
ft
fu
fuca
fuck
fugel
fugels
fugelsoarte
fugelsoarten
fugelwacht
fuhrer
fuke
ful
fulda
fule
fuleindich
fuleindige
fuljeton
fulkaan
fulkanen
fulkanyske
full
fuller
fun
fundearring
funemint
funeminten
funen
fungearje
fungearjen
fungearre
fungearret
funis
funk
funksje
funksjes
funksjonaris
funksjonarissen
funksjonearje
funksjonearjen
funksjonearre
funksjonearret
funksjonele
funs
funskatalogus
fuorre
fuort
fuortbestean
fuortbrocht
fuortby
fuortendaliks
fuortgean
fuorthelle
fuortkaam
fuortkamen
fuortkomme
fuortkommen
fuortkomt
fuortplanting
fuortplantsje
fuortset
fuortsette
fuortsettend
fuortsetting
fuortsterke
fuotbal
fuotbalalvetal
fuotbalferiening
fuotbaljen
fuotbalklub
fuotbalklup
fuotballe
fuotballer
fuotbalspiler
fuotbaltiim
fuotbaltrener
fuotfolk
fuotgongers
fuotleasten
fuotten
fur
furde
furdgum
furiosa
fury
fusearre
fusearren
fusillearre
fust
future
fuzje
fuzjearre
fuzjegemeente
fuzjes
fv
fw
fx
fy
fyfde
fyfte
fyftich
fyftiger
fyftjin
fyftjinde
fyk
fykwurk
fyn
fynplak
fynplakken
fynst
fynsten
fynt
fysike
fysiology
fysiolooch
fysyk
fyts
fytse
fytsen
fytsers
fytspaad
fyzje
fz
g
g0
g1
g2
g3
g4
g5
g6
g7
g8
g9
ga
gaadlik
gaadlike
gaan
gaast
gaasterlan
gaastmar
gaastra
gaat
gabbe
gabe
gables
gabon
gabor
gabriel
gabriella
gabrielle
gadingmakkers
gaelysk
gaelyske
gail
gaius
gajus
gal
gala
galaktysk
galaktyske
galama
galaxy
gale
galen
galerij
galerijen
galerius
galery
galilea
galilei
galileo
galisysk
galje
gallery
gallia
gallico
gallienus
gallipoli
gallo
galloway
gallus
gallyske
galway
galysje
gama
gamba
gambia
gambler
game
games
gan
gana
gandalf
gandhi
gang
gangster
gans
ganse
gaoatyske
gaos
garaazje
garcia
gard
garde
garden
gardens
gardner
garfield
garjen
garland
garnizoen
garre
garrulus
gary
garyp
gas
gassen
gast
gasten
gasthear
gasthus
gastlan
gaston
gastrol
gastrollen
gat
gate
gaten
gates
gathering
gatling
gatsjes
gatten
gau
gaueftich
gauguin
gauke
gaulle
gauris
gauwens
gavin
gavit
gay
gaza
gb
gc
gd
gdansk
ge
gea
geaen
gean
geande
geandefoets
geandewei
geane
gear
gearbrocht
gearfetting
gearfoege
gearfoeging
gearfoegjen
gearhing
gearhingjende
gearkomme
gearkommen
gearkomst
gearkomste
gearkomsten
gearkomt
gearluking
gearrin
gearspanners
gearspanning
gearstald
gearstalde
gearstallen
gearstalling
geart
gearwurke
gearwurking
gearwurkingsferban
gearwurkje
geast
geasten
geastlik
geastlike
geastliken
geastlikheid
geaten
geau
gebeart
gebearten
gebeartetaal
gebed
gebedens
gebied
gebiet
gebieten
gebietsdiel
gebietsdielen
gebit
geboaden
gebou
gebouwen
gebrek
gebroeders
gebruk
gebruken
gebruklik
gebruklike
gedachte
gedachten
gedicht
gedichten
gedielte
gedoente
gedrach
geduld
geef
geel
geen
geer
geert
geertje
geertruida
geertsma
gees
geest
gefaar
gefaarlik
gefaarlike
gefal
gefallen
gefaren
gefjocht
gefjochten
gefoel
gefoelens
gefoelich
gefoelige
gefolch
gefolgen
gegeven
gegevens
gehalte
geheim
geheime
geheimen
gehiel
gehoar
geiserik
geisha
geit
geiten
gek
gelder
gelderlan
gelderske
gelearde
gelearden
gelegen
gelegenheden
gelegenheid
gelikens
gelikense
gelok
gelokkich
geloof
gelre
geluk
gelyk
gem
gemaal
gemak
gemalen
gemalinne
gemeente
gemeentebestjoer
gemeentehus
gemeenteleden
gemeentemuseum
gemeenten
gemeenterie
gemeenteried
gemeenteriedsferkiezings
gemeenteriedslid
gemeentes
gemeentesekretaris
gemeentesekretary
gemeentewapen
gemeentewet
gemeentlik
gemeentlike
gemiddeld
gemiddelde
gemien
gemma
gemme
gemmell
gemy
gemysk
gemyske
gen
gene
genealogy
genede
genen
generaal
generaals
generaasje
generaasjes
general
generale
generation
genesis
geneskunde
genetysk
genetyske
geneve
genevieve
genezen
genezing
geniet
genietet
genietsje
genisys
genityf
genius
gennep
genoat
genoaten
genoatskip
genoch
genoegen
genootschap
genoside
gent
gentleman
genua
geoffrey
geograaf
geografy
geografysk
geografyske
geographic
geology
geologysk
geologyske
geolooch
geometryske
georg
george
georges
georgia
georgina
georgje
georgysk
georgyske
gepiden
ger
gerald
gerard
gerardus
gerben
gerbrandy
gerda
gerdyk
gerdyn
gereformeerde
geregeld
geregelde
geregeldwei
gerhard
gerhardt
gerhardus
gerjocht
gerjochtichheid
gerjochtsgebou
gerjochtshof
gerkeskleaster
gerlof
germ
germaanje
germaansk
germaanske
germain
german
germanen
germania
germanikus
geroften
gerrit
gerritsen
gers
gerslan
gersleat
gert
gertrude
gertrudis
gertrudistsjerke
gerzen
gesach
gesachfierder
gesachhawwende
gesant
geschichte
geschiedenis
gesicht
gesichten
gesichtsfermogen
gesin
gesinnen
geskikt
geskink
geskinken
geskrift
geskriften
geskut
geslacht
geslachten
geslachtsdielen
geslachtsferkear
geslachtsmienskip
geslachtsryp
gestapo
get
getal
getallen
getten
getto
geunst
geunstich
geunstige
geus
geuzen
gevel
gevels
gevelstien
gewaaks
gewaaksen
gewaar
gewaarwurde
gewear
gewearen
geweld
gewelddiedich
gewelddiedige
geweldich
geweldige
gewest
gewesten
gewicht
gewichtheffen
gewisse
gewoan
gewoane
gewoante
gewoanten
gewoanwei
gewoon
gewurde
gf
gg
gh
ghost
gi
giacomo
giant
gibbon
gibbs
gibraltar
gibson
gids
gie
gied
giel
giele
gielich
gieltsje
gien
giene
gienen
giet
gif
giffen
gift
giftich
giftige
gij
gijs
gijsbert
gil
gilbert
gilde
gildebert
gilden
gilderik
giles
gilles
gillian
gilman
gilperik
gimli
gin
gina
ginger
ginnum
gint
giorgio
giovanni
giphart
girl
girlfriends
girls
giscard
gisel
gisko
gitaar
gitaren
gitarist
giteren
giuseppe
give
gizelders
gizeling
gj
gjalt
gjin
gjinien
gk
gl
gladiator
gladiators
glamour
glandarius
glans
glas
glasgow
glasiaal
glass
gled
glee
gleiberman
glen
glengarry
glenlyon
glenn
gles
gletsjer
gletsjers
glezen
glinstra
gloarje
global
globe
globes
gloria
glory
gloucester
glukoaze
gm
gmbh
gmo
gn
gnomeo
gnostyske
go
goa
goaden
goadinne
goadinnen
goaen
goai
goaien
goaiingaryp
goaiingea
goal
goalera
goals
goar
goaten
goatysk
goatyske
god
goddard
godfrey
godfried
godfryd
godheden
godheid
godlik
godlike
gods
godshus
godstsjinst
godstsjinsten
godstsjinstige
goebbels
goed
goede
goederen
goedkard
goedkarring
goedkarringspersintaazje
goedkeap
goedkeape
goedkeaper
goeie
goeree
goes
goethe
gogh
gogol
going
gokken
gokker
gold
goldberg
golden
goldeneye
goldfinger
goldwyn
golem
golf
golfbaan
golfoarloch
golfstream
gollum
gomez
gon
gondor
gone
gong
gongber
gongbere
gongelstok
gongen
gonzalez
good
goodbye
goodwin
google
goor
goose
goot
gorbatsjov
gordianus
gordon
gordyk
gore
gorilla
goring
gorki
gorkum
gorter
goslinga
gospel
gosse
got
gothic
gotlan
gottfried
gottingen
gottlieb
gotyk
gotyske
gou
goud
gouda
gouden
goudene
goudkoarts
goudkust
goudsikers
goutum
government
gp
gq
gr
graach
graad
graaf
graaff
graasje
grace
graden
graf
grafikus
grafyk
grafysk
grafyske
graham
gram
grammar
grammatika
grammatikale
grammy
grampus
gran
granada
grand
grande
grant
granyt
grap
graphium
grappen
grappich
grappige
gras
grass
gratama
gratianus
grave
gravearre
graven
graver
graves
graveur
gravity
gravueres
gray
graz
great
greate
greater
greatest
greeflike
greefskip
greefskippen
greek
green
greenberg
greene
greenwich
greep
gref
grefkelder
grefmonumint
grefmonuminten
grefsark
grefsarken
grefstien
grefstiennen
greft
greften
greftombe
greftsjerke
greg
gregoarius
gregor
gregoriaanske
gregorius
gregory
greide
greiden
greidhoeke
greidlan
grenada
grendel
grenoble
greta
greve
greven
grevinne
grey
grieg
grien
griene
grienlan
grienlinks
griente
grienten
griep
griet
grietje
grif
griffel
griffier
griffin
griffioen
griffith
grifformeard
grifformearde
grifformearden
griis
grikelan
griken
grime
grimm
grins
grinsgebiet
grinslan
grinslanner
grinslansk
grinslanske
grinzen
grinzer
grinzet
grinzge
grinzget
gripe
gripen
gritenij
gritenijen
grize
gro
groei
groeid
groeide
groeiden
groeie
groeien
groeiende
groeit
groen
groene
groeneveld
groep
groepearring
groepen
groepke
groepkes
groetnis
groeven
gromosomen
gromosoom
grond
groningen
groninger
gronology
gronologyske
groot
groote
gros
gross
grot
grote
grotten
grou
ground
group
grouster
groustins
grouwe
grouwelige
grove
grovestins
groß
große
gru
gruber
gruff
gruisen
grumman
grun
grunbesit
grunen
grungebiet
gruniikhoarntsje
gruniikhoarntsjes
grunlizzer
grunlizzers
grunplan
grunsiler
grunslach
grunstof
grunstoffen
grunwet
grunwetter
grunwurk
grus
grut
grutbringen
grutbrocht
grutdiels
grutdjip
grute
grutfoarst
gruthartoch
gruthartochdom
grutmachten
grutmaster
grutsk
grutskalich
grutskalige
grutst
grutste
grutsten
grutstepart
grutte
gruttegast
gruttendiels
grutter
gruttere
gryksk
grykske
gryp
grypt
gryt
grytman
grytmannen
grytsje
gs
gt
gu
guam
guardian
guatemala
guernsey
guerrilja
guggenheim
guide
guido
guild
guillaume
guilty
guin
guinea
guinee
guinness
gujaareh
gulden
gun
gundobad
gune
gunganen
gunn
gunnar
gunray
guns
gunter
guod
guon
guons
guonts
guozzen
gurbe
gus
gusen
gustaaf
gustaf
gustav
gustave
gutenberg
guus
guvernemint
guverneur
guverneurs
guy
guyana
guys
gv
gw
gwyn
gx
gy
gymnasium
gymnastyk
gymnastykferiening
gyng
gyngen
gysbert
gytsjerk
gz
h
h0
h1
h2
h3
h4
h5
h6
h7
h8
h9
ha
haach
haachske
haad
haadalter
haadartikel
haadeilan
haadfeart
haadgebou
haadkantoar
haadkertier
haadklasse
haadletter
haadletters
haadling
haadlingen
haadlju
haadmacht
haadman
haadoargel
haadpersoan
haadpersoanen
haadplak
haadportaal
haadredakteur
haadrol
haadrollen
haadrolspiler
haadrolspilers
haadsaak
haadside
haadsted
haadsteden
haadstik
haadstikken
haadstrjitte
haadtrainer
haadtsjerke
haadwei
haadwurd
haadwurden
haadwurk
haadyngong
haadynspekteur
haag
haai
haaien
haan
haar
haarlem
haarlim
haas
haasse
haat
habakuk
habitat
habsburch
habsburchske
habsburgers
hachette
had
haden
hades
hadrianus
haersma
hage
hagedissen
hagedoarn
hagen
hagia
hahn
hai
haida
hail
haitsma
haity
hajo
haka
hakke
hakken
hal
halbe
halbertsma
hald
halde
halden
halder
halding
haldt
halen
half
halifax
halje
halkomelem
hall
halle
halletsjerke
halligen
halloween
hallum
halma
hals
halte
ham
haman
hamboarch
hamburch
hamburg
hamburger
hamilkar
hamilton
hamlet
hammer
hammett
hammond
hampshire
hampton
hamster
hamsters
han
hanbal
hanboek
hand
handel
handelsblad
handich
hanfest
hania
hank
hanks
hanna
hannah
hanneke
hannel
hannele
hannelers
hanneling
hannelingen
hannelings
hanneljen
hannelsfederaasje
hannelsplak
hannelspost
hannelsrute
hannelsrutes
hannelssintrum
hannelssted
hannen
hannes
hannibal
hannie
hannity
hanno
hannover
hans
hansen
hanskrift
hanskriften
hanson
hantearre
hantekening
hanthavene
hanthavenje
hanthavenjen
hantlanger
hantsjefol
hantum
hantumhuzen
hanze
hanzested
hanzesteden
happy
har
harald
harbor
harcourt
hard
hardcore
harder
hardershun
hardorff
hardy
hare
haren
hari
harich
haring
harinxma
harinxmakanaal
harke
harkema
harkemase
harken
harker
harkers
harket
harkje
harkjen
harkspul
harkspullen
harktriemmen
harley
harlingen
harlingerlan
harm
harmeling
harmen
harmens
harmonie
harmony
harnas
harns
harnzer
harold
harp
harpe
harper
harpercollins
harren
harrensels
harres
harrie
harrington
harris
harrison
harry
harsels
harsens
hart
harten
hartford
hartman
hartoch
hartochdom
hartog
hartoggen
hartoginne
hartwert
harvard
harvest
harvey
has
hasdrubal
hasker
haskerdiken
haskerhoarne
haskerlan
hassan
hasselhoff
hasselt
hast
hasten
hastich
hastiget
hastings
hat
hate
hathaway
hattem
hauer
hauk
hauken
haule
haulerwyk
haus
haut
havana
have
havelte
haven
havens
havensted
havensteden
haverschmidt
havilland
havo
havre
haw
hawai
hawaiaansk
hawaiaanske
hawaianen
hawaii
hawk
hawke
hawker
hawthorn
hawwe
hawwen
hay
haydn
haye
hayes
hayward
haze
hazzard
hazze
hazzen
hb
hbo
hbs
hbu
hc
hd
he
hea
head
heak
heakjen
heakjes
heakke
heaks
heal
healan
healannen
healbloed
healbroer
healbruorren
heale
healgod
healjier
healoere
healrun
healrune
healsuster
health
healwaaks
healwei
healwiis
healwize
healy
heap
hear
heara
hearakles
heard
hearde
hearden
heare
hearebank
hearebanken
hearehus
hearen
hearlikheid
hearre
hearren
hearrende
hearrenfean
hearrenfeanster
hearresleat
hearske
hearsken
hearsker
hearskers
hearsket
hearskippij
hearskje
hearskjende
heart
hearts
heat
heath
heather
heaven
heavy
heawei
heb
hebben
hebreeers
hebriden
hebriuwsk
hebriuwske
hechte
hechten
hector
heden
hee
heech
heechalter
heechbou
heechdutsk
heechdutske
heechfean
heechflakte
heechgerjochtshof
heechlan
heechlannen
heechlanske
heechlearaar
heechleararen
heechsan
heechsorbysk
heechst
heechste
heechtijdagen
heechut
heeft
heel
heemskerk
heemstede
heemstra
heen
heer
heere
heeren
heerenveen
heeringa
heerma
heffen
heft
hege
hegebeintum
hegedyk
hegelan
hegemony
hegepreester
heger
hegere
hegerein
hegerhus
hegeskoalle
hegeskoallen
heide
heidefjilden
heidelberch
heidendom
heidenen
heidens
heidensk
heidenske
heidenskip
heights
heil
heilige
heiligerlee
hein
heine
heineken
heinlein
heinrich
heinz
heit
heite
heitekant
heitelan
heiten
hek
hekel
heks
hekse
heksen
hekserij
hektare
hektor
hel
held
helden
helder
heldere
heldhaftige
heldinne
hele
helen
helena
helene
helga
helgolan
helikopter
helikopters
helje
heljen
hell
hella
helle
hellen
hellenistyske
hellet
helling
hello
helm
helmond
helmut
heloma
help
helpboarnen
helpe
helpen
helper
helpers
helpmiddel
helpmiddels
helpsheriff
helpt
helsinki
helsinky
helt
helte
helten
hem
hemel
hemert
hemingway
hemminga
hemsterhuis
hen
henderson
hendrick
hendricks
hendrik
hendriks
hendrikus
hendrix
henegouwen
henk
henny
henoch
henri
henricus
henriette
henrik
henry
hepburn
hepkema
hepkes
her
herakles
herald
heraldyk
heraldyske
herb
herberch
herberge
herbert
hercules
herder
here
hereford
herema
heremastate
herfoarme
herfoarmen
herfoarming
herfoarmingen
herfoarmings
heringa
herinneringen
heritage
herkules
herman
hermann
hermans
hermanus
hermes
herne
hero
herodes
heroes
herre
herrin
herstal
herstel
hersteld
hert
herten
hertfordshire
hertoanfal
hertogenbosch
hertsegovina
hertstochtlike
herzegovina
hesiodos
hesse
hessel
hessels
hessen
hester
het
hetawa
heteroseksuele
hetfield
hette
hettema
hettinga
heul
heule
heusden
heuvel
heuvelrech
heuvels
heuveltop
hey
heymans
hf
hg
hh
hi
hichte
hichteferskil
hichten
hichtepunt
hichtepunten
hichtum
hickok
hidaard
hidalgo
hidatsa
hidde
hiddema
hidden
hiddes
hidjas
hie
hied
hiel
hielal
hiele
hielendal
hieltiid
hieltiten
hieltyd
hiem
hiemside
hiemstra
hiene
hienen
hier
hierargy
hierd
hierde
hiere
hierling
hierlingen
hiermoardner
hiermoardners
hieroglifen
hieronymus
hierren
hiert
hieslum
hiet
hieten
higgins
high
highland
highlander
hightower
highway
hij
hijum
hik
hikke
hilaard
hilarides
hilda
hildebrand
hildegard
hildesheim
hilfertsom
hilgelan
hill
hillary
hillich
hillichdom
hillige
hilligelibben
hilligen
hilligerlee
hills
hilton
hilversum
him
himalaya
himdyk
himel
himelfeart
himelfeartsdei
himelfearttsjerke
himelgod
himellichem
himellichems
himelske
himmelum
himmelumer
himmler
himpens
himrik
himsels
hin
hindenburg
hindoeisme
hindoeistyske
hindoes
hindrik
hindy
hinge
hinget
hingje
hingjen
hingjende
hinnaarderadiel
hinne
hinnen
hinsz
hip
hiphop
hipparchia
hippo
hippolytus
hippyk
hir
hiray
hiroshima
hirsch
his
hispania
hispanje
hispanjoala
histoarikus
histoarisy
histoarje
histoarysk
histoaryske
histoire
historia
historiae
historic
historical
historie
historisch
historische
history
hit
hitchcock
hite
hitler
hitlist
hitlisten
hits
hitsum
hiv
hj
hja
hjeldagen
hjeldei
hjerbeam
hjerst
hjerstmis
hjir
hjirboppe
hjirby
hjirfan
hjirfoar
hjirmei
hjirnei
hjirneimels
hjiroan
hjiroer
hjirop
hjirre
hjirtroch
hjirunder
hjirut
hjiryn
hjit
hjitfolge
hjitte
hjitten
hjittend
hjittende
hjittens
hjoed
hjoeddedei
hjoeddeis
hjoeddeisk
hjoeddeiske
hjoeddeistich
hjoeddeistige
hjouwer
hk
hl
hm
hms
hn
ho
hoale
hoalen
hoanne
hoanskrobber
hoareka
hoarizon
hoarn
hoarne
hoarnen
hoarnleger
hoarnstersweach
hoart
hoartsje
hobbe
hobbit
hobbits
hobby
hobo
hockey
hoe
hoecht
hoed
hoedanichheid
hoeder
hoeders
hoefolle
hoegde
hoegden
hoege
hoek
hoeke
hoeken
hoekje
hoekske
hoekstien
hoekstra
hoemannichte
hoemannichten
hoes
hoessein
hoeve
hoevelaken
hoeven
hoewol
hof
hofdame
hoffman
hoffmann
hofhalding
hofmann
hofmeier
hofsjonger
hofstede
hofstra
hoge
hogendorp
hohenlansberg
hok
hokfoar
hokjes
hokkaido
hokker
hol
holbein
hold
holden
holding
holdinga
hole
holiday
holkema
hollan
holland
hollander
hollands
hollandsche
hollandse
hollanistyske
hollanners
hollans
hollansk
hollanske
holle
hollen
hollow
hollum
holly
hollywood
holmes
holocaust
holokaust
holp
holpen
holst
holstein
holt
holtrop
holwerda
holwert
holy
homan
home
homeros
homme
hommels
hommelse
hommerts
hommes
homo
homohoulik
homoseksualiteit
homoseksueel
homoseksuele
homoseksuelen
hond
honda
honderd
hondoeras
honduras
honey
hong
hongaarsk
hongaarske
hongaren
hongarije
hongen
honger
hongersneed
hongkong
hongkongske
honkbal
honkballer
honneur
honoarius
honolulu
honor
honore
honorius
hood
hoofd
hooft
hoog
hooge
hoogeveen
hoogezand
hoogland
hooker
hoop
hoopje
hoorn
hoover
hop
hope
hopen
hopet
hopkins
hopper
hopperus
hora
horace
horizon
horizontaal
horizontale
horn
horne
horner
hornstra
horrible
horror
horrorfilm
horse
horst
hospitaal
hospital
hosty
hot
hotel
hotelkeamer
hotels
hoth
hotze
hou
houdini
houghton
houkesleat
houlik
houliken
houliksreis
hour
hours
house
houston
hout
houtekster
houten
houtene
houtigehage
houtwalen
hove
hoven
how
howard
howe
hoytema
hp
hq
hr
hrsg
hs
hsb
ht
htm
html
http
hu
huber
hubert
hubertus
hud
huden
hudskleur
hudson
hudsonbaai
hudsonbaaikompanjy
hueronmar
huet
huff
hugenoaten
hugh
hughes
hugo
huis
huisman
huizen
huizinga
hulde
hull
hulst
humalda
human
humanist
humanitere
hume
humor
humoristyske
humphrey
humsterlan
hun
hundert
hunderten
hundertjierrich
hundertjierrige
hunderttuzenen
hundred
hunebed
hunebeden
huneftigen
hunekop
hunen
huning
hunkpapa
hunnen
huns
hunskrigers
hunt
hunter
hunting
huntington
huntsje
huntsman
hunze
hur
hurd
hurddraversdyk
hurde
hurdegaryp
hurder
hurderwyk
hurdfytsen
hurdfytser
hurdrider
hurdrinnen
hurdrydster
hurdsilen
hurdspytsje
hurst
hurt
hus
husdier
husdieren
husdokter
husem
husfeste
husfesting
husfrou
hushalding
hushaldings
hushaldster
huske
huskes
huslik
husmannet
husmus
hussein
hustler
huston
husum
hut
hutt
hutte
huub
huxley
huygens
huys
huzen
huzinge
huzum
hv
hw
hx
hy
hybride
hyde
hygiene
hylke
hylpen
hylpersk
hymne
hymnen
hynder
hynders
hynst
hynstefolk
hynsteriden
hynstesport
hyperromte
hyponephele
hypoteze
hysels
hyst
hyt
hz
i
i0
i1
i2
i3
i4
i5
i6
i7
i8
i9
ia
iafd
ian
ib
ibearysk
ibearyske
ibm
ibn
ibrahim
ibsen
ibytsa
ic
ice
ich
id
ida
idaarderadiel
idaerd
idaerderadiel
idaho
ideaal
ideale
idealen
idee
ideeen
idema
identifikaasje
identifisearre
identifisearret
identiteit
identity
identyk
ideology
ido
ids
idsinga
iduna
idzerda
ie
iel
iems
ien
iendracht
iene
ienentweintichste
ienfald
ienfaldich
ienfaldichwei
ienfaldige
ienfaldiger
ienheden
ienheid
ienhoarn
ienichste
ienige
ienkear
ienlike
ienmanualige
iennichst
iennichste
iennige
ienris
iens
iensum
iensume
iensumens
iental
ienwurding
iepen
iepenbier
iepenbiere
iepenbiering
iepene
iepenen
iepenet
iepening
iepenje
iepenjen
iepenlik
iepenloftmuseum
iepenloftspul
iepensteld
iepentlik
iepentlike
ier
ierdappel
ierdappels
ierdbeving
ierdbevings
ierde
ierden
ierdewurk
ierdgas
ierdgeast
ierdgeasten
ierdoalje
ierdoerflak
ierdrykskunde
ierdske
ierdskodding
ierdskoddings
iere
ieren
ierlan
iersk
ierske
ierst
ierste
ies
iet
iets
ieu
if
ifks
ig
igge
iggen
ignace
ignatius
igor
ih
ii
iie
iii
iik
iikhoarntsje
iikhoarntsjes
iis
iisbaan
iishockey
iisklup
iislan
iislanske
iissee
iistiden
iistiid
ij
ijmuiden
ijssel
ik
iken
ikker
ikkerbou
ikkers
ikkerwald
ikoan
ikoanen
ikoanyske
ikonostase
ikonostaze
il
ile
ilias
ilisidi
ilja
ille
illinois
illustrated
ilse
im
image
imago
imdb
immanuel
immen
impact
imperial
impsec
in
ina
inc
inch
independence
independent
index
india
indian
indiana
indianapolis
indians
indie
indigo
indoor
industrial
industries
ine
inferno
infinity
information
ing
inge
ingel
ingelan
ingels
ingelsen
ingelsk
ingelske
ingelsken
ingelsktalich
ingelsktalige
ingelsman
ingelum
inglis
ingrey
ingrid
ingwierrum
inisjalen
inisjativen
inisjatyf
inisjatyfnimmer
inisjatyfnimmers
inka
inkel
inkeld
inkelde
inkeldris
inkele
inkeltal
inket
inkhuzen
inleiding
inlet
inn
inne
innsbruck
inoar
inoars
inselde
inside
instagram
institut
institute
instituut
insurrection
int
intelligence
inter
internacional
international
internationale
internet
interpol
interstate
into
introduction
intruder
inuit
inuyt
io
ioanen
ioanyske
ioc
ion
iona
iowa
ip
ipa
iper
iq
ir
ira
iraakske
iraan
iraansk
iraanske
irak
irakoarloch
iran
ireland
irene
iris
irish
irkutsk
irma
iroanysk
irokeeske
iron
irony
irvine
irving
irwin
is
isaac
isaak
isabel
isabella
isabelle
isbn
isc
iseger
isel
iselmar
isfahan
isidoarus
isis
iskariot
islaam
islam
islamistyske
islamitysk
islamityske
island
islands
isle
iso
isolaasje
isolearre
isolemint
israel
israeliten
israelityske
israels
israelysk
israelyske
iss
issn
ist
istanbul
it
itaalje
italia
italiaanske
italie
italjaansk
italjaanske
italjanen
italo
italyske
ite
iten
itende
itens
itensfoarrieden
iters
itjinge
its
itselde
itsij
itza
iu
iucn
iuw
iuwen
iuwenalde
iuwenlang
iuwsk
iuwske
iuwskema
iuwwiksel
iv
ivan
ivanhoe
ivanovitsj
ive
ives
ivich
ivichheid
ivige
ivo
ivoar
ivoarkust
ivy
iw
iwata
iwerks
ix
ixe
iy
iz
izaak
izer
izeren
izerne
izertiid
j
j0
j1
j2
j3
j4
j5
j6
j7
j8
j9
ja
jaan
jaap
jaar
jaarboek
jaarsma
jabba
jabik
jac
jacht
jachtfleanmasine
jachtgewear
jachthaven
jack
jackie
jackson
jacksonville
jacob
jacoba
jacobs
jacobus
jacqueline
jacques
jada
jade
jaerla
jage
jager
jagers
jaget
jagger
jago
jak
jakama
jakarta
jake
jakob
jakobityske
jakobus
jam
jamaika
jamaikaansk
james
jameson
jamie
jammerdearlik
jan
jancko
jane
janeiro
janet
janitsaren
janke
jankton
janktonai
jann
janneke
jannes
jannewaris
jannum
jans
jansen
jansgea
jansma
janssen
jansz
jant
jantsje
januar
janus
janzen
japan
japanners
japansk
japanske
japicx
japicxpriis
japiks
jar
jaren
jargon
jarich
jaroslavl
jarre
jas
jase
jason
jasper
java
jaws
jay
jazz
jb
jc
jd
je
jean
jeanne
jedi
jeen
jef
jeff
jefferson
jeffrey
jefte
jeften
jehan
jehanna
jehannes
jehannestsjerke
jehova
jehu
jeie
jeien
jekaterineburch
jelle
jellema
jellen
jelles
jellum
jelsum
jelte
jemen
jemenityske
jemgum
jemisin
jena
jenisejaanske
jenna
jennifer
jennings
jenny
jens
jensen
jeppema
jeraazje
jeraziatyske
jeremia
jeremy
jerevan
jericho
jerobeam
jeroen
jerome
jeropa
jeropeaan
jeropeanen
jeropeesk
jeropeeske
jerry
jersey
jeruzalem
jeruzalim
jesaja
jesse
jessica
jessie
jesus
jet
jetses
jetske
jetze
jeu
jeugd
jever
jewel
jewels
jezuiten
jezus
jf
jg
jh
jhr
ji
jiddysk
jier
jierboek
jierdei
jiergong
jierige
jierjilden
jierliks
jierlikse
jiermerk
jierren
jierrenlang
jierrenlange
jierrich
jierrige
jiers
jierskema
jiertal
jiertallen
jiertelling
jiertiden
jiertiid
jij
jild
jildbedrach
jilde
jildende
jildich
jildige
jildkrapte
jildt
jill
jim
jimme
jimmeroan
jimmy
jin
jingle
jins
jinsels
jirnsum
jirpel
jirpels
jiske
jiskenhuzen
jiskepuster
jislum
jister
jistrum
jit
jitris
jitten
jj
jk
jl
jm
jn
jo
joachim
joad
joaden
joadendom
joadsk
joadske
joan
joanna
joannes
joao
joaram
joaris
joast
joazef
job
jobbegea
jobs
joe
joech
joegen
joegoslaavje
joegoslavyske
joel
joeri
joey
joh
joha
johan
johann
johanna
johannes
john
johnnie
johnny
johnson
johnston
joint
joke
jolie
jon
jona
jonas
jonatan
jonathan
jones
jong
jongbloed
jonge
jongema
jongeman
jongemannen
jongen
jongens
jonger
jongere
jongerein
jongeren
jonges
jongesnamme
jongfaam
jongfeint
jongfolwoeksenen
jongfryske
jongs
jongste
jongstra
jonker
jonkfrou
jonkhear
jonkheid
jonkje
jonkjes
jonkman
joop
joost
jopie
jordaan
jordaanje
jordan
jorge
joris
jorritsma
jorritsmapriis
jorwert
jos
jose
josef
josefus
joseph
josephine
josephus
josh
joshua
jou
jouke
joure
journaal
journal
journey
jousma
jouster
joustra
jouswier
jout
jouwe
jouwer
joy
joyce
jozef
jozua
jp
jq
jr
js
jt
ju
juan
jubileum
jubilo
juckema
juda
judas
judea
judgment
judit
judith
judo
judy
juffer
jugendstil
jukatan
juky
jules
julia
juliaanske
julian
juliana
julianus
julie
julien
juliet
julio
julius
july
jumanji
jun
june
juneau
junen
junfoljende
jung
jungle
juni
junioaren
junior
junkers
juno
juns
junsmiel
juny
jupik
jupiter
jurgen
juridysk
juridyske
jurisdiksje
jurist
jurjen
jurk
jury
just
juste
juster
justice
justin
justine
justinianus
justinus
justjes
justus
justysje
jut
jutlan
jutryp
juw
juwiellen
jv
jw
jx
jy
jz
k
k0
k1
k2
k3
k4
k5
k6
k7
k8
k9
ka
kaai
kaaien
kaak
kaam
kaap
kaapkoloanje
kaapske
kaapsted
kaapt
kaart
kaarten
kaartsje
kaartspul
kaas
kabaret
kabaretier
kabaretiere
kabine
kabinet
kabinetten
kabul
kabus
kadaster
kadastrale
kade
kadet
kadetten
kadigidi
kado
kael
kafee
kafees
kafka
kai
kaikoseilannen
kairo
kajowa
kaken
kald
kalde
kalder
kaldste
kaledoanje
kali
kaliber
kalifaat
kalifornje
kalifornyske
kaligula
kalinder
kaliningrad
kalk
kalkstien
kalkutta
kalm
kalma
kalvinisme
kalvinisten
kalvinistysk
kalvinistyske
kalvyn
kalyf
kambodja
kamehameha
kameleon
kamen
kamer
kamera
kameraman
kameraregisseur
kamerarezjy
kameroen
kamiel
kamieleftigen
kamielen
kamp
kampanje
kampanjes
kampen
kampioen
kampioene
kampioenskip
kampioenskippen
kampus
kamtsjatka
kan
kanaal
kanaan
kanaanityske
kanada
kanadeesk
kanadeeske
kanadezen
kanalen
kanalisearre
kanaryske
kandidaat
kandidaten
kane
kanji
kanker
kano
kanofarren
kanon
kanonike
kanonnen
kanonyk
kans
kansas
kansel
kanselarij
kanselier
kansen
kant
kante
kanten
kantine
kantoar
kantoaren
kantoargebou
kanton
kantongerjocht
kantonrjochter
kantons
kanvas
kanye
kap
kapasiteit
kape
kapel
kapelle
kapellen
kapers
kapibara
kapitaal
kapitalisme
kapitein
kapitelen
kapitoal
kapittel
kapittelhus
kapittelseal
kapitulaasje
kaplan
kapt
kaptein
kapteins
kapteyn
kar
kara
karabach
karakalla
karakter
karakterisearre
karakteristike
karakteristyk
karakters
karate
kardinaal
karel
karen
karfoarst
karfoarsten
karibysk
karibyske
karigan
karin
karl
karlezing
karloman
karma
karmel
karmeliten
karnaval
karolina
karolingen
karolingyske
karpaten
karre
karriere
karspel
karst
kartaachsk
kartaachske
kartagers
kartago
kartel
kartograaf
karume
karut
kas
kasablanka
kashima
kashiwa
kasimir
kasino
kaspyske
kassel
kassius
kast
kastanje
kaste
kasten
kastiel
kastielen
kastlein
kastylje
kat
katalaansk
katalaanske
kataloanje
katalogus
katar
kataren
katarina
kate
katedraal
katedrale
katedralen
kategismus
kategory
kategoryen
katharine
katherine
kathleen
katholieke
kathy
katie
katja
kato
katoba
katoen
katolike
katoliken
katolikon
katolisisme
katolyk
katowice
katrina
kattefamylje
katten
katwyk
kauai
kaukasus
kavalery
kavaleryrezjimint
kavels
kavia
kawasaki
kay
kaye
kazachstan
kazakstan
kazan
kazerne
kb
kc
kd
kde
ke
keal
keale
keallen
keamer
keamerferkiezingen
keamerferkiezings
keamerlid
keamers
keamertemperatuer
keap
keaper
keapet
keapfardij
keapfardijskippen
keapfideo
keaphannel
keapje
keapjen
keaplju
keapman
kear
keard
keardaam
keardamen
kearde
keardel
kearden
keare
kearen
kearn
kearnen
kearney
kearnsintrale
kearpunt
kears
keart
keas
keatling
keatlings
keaton
keats
keatsen
keatser
keatsers
keatsferiening
keatsklassemint
keatspartij
keazen
kebek
kebes
keel
keep
keeper
kees
keimpe
keith
keizer
keizerin
keizerinne
keizerlik
keizerlike
keizerryk
keizers
keizerstitel
kelder
kelders
keller
kelley
kelly
kelten
keltysk
keltyske
kelvin
kemal
kemmler
kempen
kempenaer
ken
kenai
kenau
kend
kendall
kende
kendra
kenia
kening
keningen
keningin
keninginne
keninginnedei
keninginnen
kenings
keningsbergen
keningshus
keningskip
keninklik
keninklike
keninkriken
keninkryk
kenmerken
kenne
kennedy
kennen
kenner
kenneth
kennewick
kennis
kenny
keno
kenobi
kensington
kent
kentucky
keogh
keppel
keppele
keppeling
keppelings
keppels
keramyk
kerk
kerken
kerkrade
kerr
kerry
kersey
kerspel
kerst
kerstening
kertier
kertiermaster
kest
ket
ketlik
ketterij
keuken
keulen
keuning
keunst
keunstakademy
keunstdong
keunstduken
keunsten
keunsthanneler
keunsthistoarikus
keunstmjittich
keunstmjittige
keunstmuseum
keunstner
keunstneresse
keunstners
keunstriden
keunstsamler
keunstsinnige
keunstskiednis
keunstskilder
keunstskilderesse
keunstskilders
keunststof
keunstwurk
keunstwurken
keur
keuze
kevin
keweenaw
key
keynes
keys
keyser
kf
kffb
kg
kgb
kh
khalifa
khan
ki
kick
kid
kids
kiel
kieli
kies
kiesdistrikt
kiesmannen
kiesrjocht
kiest
kiev
kieze
kiezen
kiezers
kiif
kij
kijk
kiki
kikkert
kikkerts
kilda
kill
killer
killing
kilo
kilogram
kilometer
kilometers
kilt
kim
kimberly
kimswert
kin
kincaid
kind
kinder
kinderen
king
kingdom
kingma
kingman
kings
kingsman
kingston
kink
kinne
kinnen
kinney
kinst
kipling
kirche
kirgyzje
kirill
kirk
kirkland
kiss
kiste
kisten
kits
kittitas
kitty
kj
kjel
kjeld
kjifdieren
kjifstikelbaarch
kjifstikelbaarchdieren
kjifstikelbargen
kk
kl
klaad
klaai
klaaid
klaaide
klaaifrysk
klaaiing
klaarkamp
klaas
klachten
klage
klagenfurt
klam
klan
klank
klankboerd
klanken
klant
klanten
klap
klara
klarinet
klas
klaske
klasse
klassearre
klassemint
klassen
klassifikaasje
klassifisearre
klassike
klassiken
klassiker
klassikers
klassikus
klassis
klassisisme
klassisistyske
klassyk
klaudius
klaus
klauwen
klaver
klaverbled
klazes
klean
klear
klearebare
kleaster
kleastergebouwen
kleastergong
kleasterkompleks
kleasterlibben
kleastermienskip
kleastermoppen
kleasters
kleastertsjerke
kleau
kleef
kleefstra
kleffens
klein
kleine
klemens
klemins
kleopatra
klerk
kleur
kleurde
kleure
kleuren
kleurminging
kleurrike
kliber
klickitat
klif
kliffen
klimaat
klimaatferoaring
klimaks
klimaten
klimfaasje
klimme
klimmen
klimt
klingon
klingons
klinke
klinkende
klinkt
klinyk
klinyske
klip
klitoris
klm
kloan
kloane
kloft
kloften
klok
klokhus
klokken
klokkespul
klokkestoel
klokkestuollen
klokketoer
klom
klompen
kloos
kloosterman
klotarius
klovis
klub
klucht
kluitman
klup
klups
klus
km
kmer
kn
knap
knappe
knaw
knee
kneppel
kneppelfreed
knfb
knibbel
knibbels
knife
knight
kninen
knip
knipe
knkb
knock
knoffelige
knol
knollen
knoop
knooppunt
knop
knopen
know
knowles
knox
knoxville
knsb
knut
knvb
knyl
knyn
ko
koade
koadenamme
koades
koai
koaien
koal
koalen
koalstof
koalysje
koar
koarde
koaren
koarhearen
koarnjum
koarnwert
koart
koartby
koarte
koartebaan
koartehimmen
koarten
koarter
koartere
koartlyn
koarts
koartsein
koartste
koartsweagen
koartwei
koatstertille
kobe
koblenz
koch
kocht
kochten
kodeks
kodiak
koe
koeban
koed
koeke
koekoek
koel
koele
koen
koene
koenen
koenraad
koepel
koepelorganisaasje
koepels
koepeltsjerke
koer
koerbanken
koerden
koerdysk
koerdyske
koereur
koerier
koeroargel
koers
koerts
koets
koetshus
koeweit
koffer
kofje
kok
kokaine
koken
koker
kokoseilannen
kolk
kolleezje
kolleezjes
kollega
kollegiale
kolleksje
kolleksjes
kollektive
kollektyf
kollum
kollumer
kollumerlan
kollumersweach
kollumn
kollumnist
kollumniste
kollumns
kollums
kollwitz
koloanje
koloanjes
kolom
kolombia
kolombiaanske
kolonel
koloniaal
koloniale
kolonisaasje
kolonisearjen
kolonisearre
kolonist
kolonisten
kolonne
kolorado
kolosseum
kolumbia
kolumbus
kom
koma
komantsjen
komarr
kombinaasje
kombinaasjes
kombinearje
kombinearjen
kombinearre
kombinearret
komd
komeedzje
komeedzjefilm
komeedzjes
komeedzjesearje
komeet
komen
komitee
kommandant
kommanderije
kommandeur
kommando
komme
kommen
kommend
kommende
kommentaar
kommentator
kommersjeel
kommersjele
kommisje
kommisjes
kommissaris
kommissarissen
kommitee
kommodus
kommune
kommunikaasje
kommunisearje
kommunisearjen
kommunisme
kommunist
kommunisten
kommunistysk
kommunistyske
kommuny
kommys
komoaren
komof
kompanjons
kompanjonsfeart
kompanjy
kompanjyen
kompenije
kompetysje
kompetysjes
kompilaasje
kompinsaasje
kompjuter
kompjuteranimearre
kompjuterprogramma
kompjuters
kompjuterskermen
kompjuterspultsje
kompjutersysteem
kompleet
kompleks
komplekse
komplemintere
komplete
komplikaasjes
komplot
komponearre
komponinten
komponist
komponiste
komponisten
komposysje
komposysjes
kompromis
komrij
komselden
komst
komt
komyk
komysk
komyske
kon
kondysje
konettikut
konfederaasje
konfederearre
konferinsje
konflikt
konflikten
konfoai
konfrontaasje
konfrontaasjes
konfrontearre
kong
kongo
kongregaasje
kongres
kongressen
koning
koningin
koninklijke
konkludearre
konkluzje
konkluzjes
konkoers
konkurrinsje
konkurrint
konkurrinten
konneksje
konneksjes
konnetikut
konrad
konsekraasje
konsekrearre
konsekwint
konsensus
konsensuskrityk
konsept
konsepten
konsert
konserten
konservatisme
konservative
konservativen
konservatoarium
konservator
konservatyf
konsily
konsintraasje
konsintraasjekamp
konsintraasjekampen
konsintrearre
konsistoarje
konsonant
konsonanten
konstans
konstant
konstante
konstantin
konstantinopel
konstantius
konstantyn
konstitusjonele
konstruksje
konstruksjes
konsul
konsulaat
konsumpsje
konsylje
kontakt
kontakten
kontekst
kontemporene
kontinent
kontinint
kontinintaal
kontinintale
kontininten
kontra
kontrabas
kontrakt
kontrakten
kontrast
kontrei
kontreien
kontrole
kontrolearre
kontroverse
kontroversjeel
kontroversjele
konvinsje
konvinsjes
konvint
kooi
kooistra
koolhaas
kooperaasje
kooperative
koopmans
koordinaten
koordinearre
koos
kooten
kootstra
kooymans
kop
kopenhagen
koper
koperen
kopgroep
kopiearre
kopke
koppen
koptysk
koptyske
kopy
kopyen
kor
koraal
koraalsee
koraan
korea
koreaansk
koreaanske
korinte
korintiers
korintyske
kornelis
kornelius
kornet
kornysk
koroanafirus
koroanafiruspandemy
korporaal
korps
korrekt
korrespondinsje
korrespondint
korrupsje
korrupte
korsika
kort
korte
koskov
kosmology
kosmos
kosovo
kost
kosta
kostbere
koste
kosten
koster
kostet
kostje
kostroma
kostskoalle
kostum
kostums
kostumuntwerp
koudum
kowalski
koweras
kowerassen
kozakken
kp
kpd
kq
kr
kraan
kracht
kragujevac
kraj
krakau
kralingen
kramer
krante
kranten
krap
krapoan
krappe
krapte
krater
kreake
kreambed
kreas
kreative
kreatyf
kreaze
kreearjen
kreearre
krefeld
kreft
kreften
kreftich
kreftige
kreis
kreisfreie
krekt
krektas
krekte
krektlyk
krektoarsom
krektsa
krematoarium
kremearre
kremlyn
kreoalsk
kreoalske
kreta
krewearjen
krewearre
krie
kriee
krieen
kriel
kriesk
krieske
krige
krigen
kriger
krigers
kriget
kriich
kriichsfinzen
kriichsfinzene
kriichsfinzenekamp
kriichsfinzenen
kriichsfinzenskip
kriichshear
kriichsmacht
kriichsmachtunderdielen
kriik
krije
krijen
krijt
krim
kriminaliteit
krimineel
kriminele
kriminelen
krimpen
kring
kringe
kringen
kringfrije
kringt
kris
krisis
krisisjierren
kristen
kristendom
kristenen
kristenuny
kristiaan
kristina
kristlik
kristlike
kristoffel
kristus
krite
kritearia
kriten
kritiken
kritikus
kritisy
krityk
kritysk
krityske
kro
kroaasje
kroan
kroand
kroane
kroanen
kroaning
kroanluchters
kroanprins
kroaten
kroatysk
kroatyske
krobbe
krobben
kroeber
kroech
kroes
kroesus
krol
kroller
kromme
krong
krongen
kroniken
kronyk
kronykskriuwer
kross
krud
kruden
kruger
kruis
krummhorn
krupt
krus
kruse
krusen
kruser
krusers
krusfarders
krusige
krusiging
krusing
krusings
krusingstoer
krusjaal
krusjale
kruspunt
krust
krustocht
krustochten
krustsjerke
kruswei
kruswurdpuzel
kruswurdpuzels
kry
krypte
kryptogram
kryst
krystbeam
krystdagen
krystdei
krysteilan
krystman
kryt
ks
ksenofon
kt
ku
kuala
kuba
kubaanske
kubaard
kubike
kufurd
kugel
kugels
kuierjen
kuierrute
kuiken
kuiper
kuipers
kukri
kule
kull
kultuer
kultuerele
kultueren
kultuerhistoaryske
kultureel
kulturele
kultus
kumbria
kunde
kunder
kundich
kundige
kundiget
kung
kunis
kunnilingus
kunst
kunsten
kuorbal
kuorbalferiening
kup
kupletten
kupmaat
kurasau
kurator
kursus
kursussen
kursyf
kurt
kus
kushiel
kust
kusten
kustgebiet
kustline
kuststripe
kustwacht
kuyper
kv
kvp
kw
kwa
kwabben
kwalifikaasje
kwalifisearre
kwaliteit
kwaliteiten
kwart
kwartet
kwea
kweade
kwealk
kweekskoalle
kweekt
kweeste
kweken
kwelders
kwestje
kwestjes
kwetsber
kwetsbere
kwik
kwis
kwizekwansje
kwyt
kwytrekke
kx
ky
kyl
kyle
kylie
kyo
kyoto
kz
l
l0
l1
l2
l3
l4
l5
l6
l7
l8
l9
la
laach
laad
laadsje
laaksum
laam
laan
laat
laatste
lab
laban
label
labels
laboratoarium
labour
labourpartij
labrador
labyrinth
lac
lacey
lacs
laden
ladies
lading
lady
lage
lagen
lagoon
lagune
lahn
laitsjen
lake
lakers
lakeside
lakota
lam
lama
lambert
lambertus
lammers
lammert
lampe
lampen
lan
lanai
lanbou
lanbougewaaksen
lanbougrun
lanboukundige
lanbouprodukten
lanbouskoalle
lanbouwer
lancashire
lancaster
lance
land
landbouw
lande
landei
landen
landing
landkreis
lando
landschaft
landschap
lane
lanen
lanerijen
lanet
lanfad
lanferhuzers
lang
langdon
lange
langelest
langen
langer
langere
langernoch
langet
langhalige
langobarden
langoed
langs
langspylfilm
langst
langste
langstme
langsweagen
langte
language
languages
languod
langwar
langwarder
langwerpige
lanhear
lanhus
laniis
laning
lanings
laningsbaan
laningte
lanius
lanje
lanka
lankaart
lankaarten
lanklimaat
lankring
lankringen
lanlik
lanlike
lanmacht
lanmassa
lanmjitter
lannen
lanrjochten
lans
lansdiel
lansdielen
lansearre
lansearring
lanseigen
lanshear
lanskip
lanskippen
lanskipsstyl
lanstreek
lantearne
laon
laos
lape
lapekoer
lapen
lara
laramie
laren
larenstein
largo
larp
larry
lars
larson
larus
larven
las
laser
lassard
last
laszlo
late
laten
later
latin
latina
latinisearre
latino
latyn
latynsk
latynske
laude
lauderdale
laura
laurel
lauren
laurence
laurens
laurent
laurentiis
laurentius
lausanne
lauwers
lauwerseach
lauwersmar
lauwerssee
lava
laverman
lavra
law
lawei
lawless
lawrence
lazarus
lb
lc
ld
ldodk
le
lea
lead
leadramen
leaf
leafde
leaffrou
leaffrouwe
leaffrouwetsjerke
leafhawwer
leafhawwerij
leafhawwers
leafst
leafste
league
leah
lean
leane
leanen
leanne
lear
learaar
leararen
leararesse
leard
learde
learden
leare
learen
learling
learlinge
learlingen
learmaster
lears
learstoel
leart
learzens
leaud
leaude
leauden
leaut
leauwe
leauwen
leauwenden
leauwigen
leave
leaver
leben
lech
led
leden
ledetal
lee
leech
leechflakte
leechlan
leechste
leechsteande
leechte
leed
leeds
leeftiid
leeftyd
leeftydskategory
leegje
leelje
leen
leenstra
leer
leest
leeuw
leeuwarden
leeuwarder
leeuwen
left
legaal
legaat
legacy
lege
legend
legendary
legende
legends
leger
legerbasis
legerdokter
legere
legerhus
legerkamp
legerke
legerkorps
legerlieding
legermacht
legeroanfierder
legeroerste
legers
legindarysk
legindaryske
leginde
leginden
legioen
legioenen
legion
legolas
lei
leia
leicester
leiden
leie
leien
leienske
leigh
leij
lein
leine
leinen
leipzig
leit
leiter
lek
leken
lekken
lekker
lekkum
lektor
lely
lelysted
lemma
lemmer
lemniscaat
lemster
lemsterlan
lena
leng
lenin
leningrad
lennep
lennon
lenore
lenstra
leo
leoane
leon
leonard
leonardo
leone
leonid
leons
leopold
lepus
les
lesbiennes
lesbos
lesbyske
leslie
lesoto
lessen
lest
leste
lesten
lester
lestich
let
letgoatyske
letlan
letsk
letske
lette
letter
lettere
letteren
letterkunde
letterkundich
letterkundige
letterkundigen
letterlik
letterlike
letters
letterskrift
lettertekens
lettertype
lettres
leur
leusden
leuven
lev
levant
leve
leven
lever
levere
leveren
leveret
leverje
leverjen
levert
levi
levy
lewinsky
lewis
lex
lexicon
lexington
leze
lezen
lezer
lezers
lezing
lezingen
lezings
lf
lg
lh
li
liadan
liam
libaneeske
libanon
libbe
libben
libbene
libbenen
libbens
libbensferhaal
libbensferwachting
libbenslang
libbenslange
libbensomstannichheden
libbensstyl
libbensunderhald
libbenswize
libbet
libearia
liber
liberaal
liberale
liberalen
liberalisme
liberty
libje
libjen
libjende
library
libretto
libri
libris
libyske
licence
license
lichaamlik
lichaamlike
lichem
lichems
lichemsdiel
lichemsdielen
licht
lichtaard
lichte
lichter
lichtere
lid
lidden
lidlum
lidmaatskip
lidsteaten
lidwurd
liebe
lied
liede
lieden
liedende
lieder
lieders
liederskip
lieding
liedingjaande
liedjes
liedklok
liedklokken
liedster
liedt
liefde
liek
lieken
lien
liend
liende
lienen
lienhear
liening
liens
lient
lienwurd
lienwurden
lier
liere
lies
liet
lieteboek
lieten
lietsjes
lietsjeskriuwer
lietteksten
lieuwe
lieuwes
lieve
life
lifetime
lift
liga
light
lightning
liif
liifwacht
liifwachten
lije
lijen
lijt
like
likefolle
likegoed
likemin
liken
likenimmer
likenis
likense
likernoch
liket
lil
lili
lilk
lilke
lilkens
lillehammer
lilli
lillian
lily
limbaugh
limboarch
limboarchsk
limburch
limburchsk
limburchske
limburg
limes
limited
limmet
limusine
lin
lina
lincoln
lincolnshire
linda
linde
linden
lindquist
lindsay
line
linen
lines
lingen
lingte
lingua
link
linker
links
linkse
linnaeus
linnen
lins
lint
lintbebouwing
lintdoarp
linthorst
liny
linys
linz
lion
lionel
lions
lippe
lippen
lippenhuzen
lis
lisa
lisieux
lisinius
lisinsje
lissabon
list
listen
listluker
liszt
lit
liter
literaire
literary
literatuer
literatuerkritikus
literatuerpriis
literature
literatuur
literer
literere
litium
litousk
litouske
litouwen
litouwsk
lits
litte
litten
littenseradiel
little
liturgy
liturgysk
liturgyske
liu
liudger
liuw
liuwe
liuwen
liv
live
liverpool
lives
living
livius
livre
lizze
lizzen
lizzend
lizzende
lizzing
lizzy
lj
ljedder
ljip
ljocht
ljochtbrun
ljochte
ljochten
ljochter
ljochtsabel
ljouwert
ljouwerter
ljouwerteradiel
ljouwerterdyk
ljouwerters
ljouwertersk
lju
ljussens
lk
ll
lloyd
lm
ln
lo
loadewyk
loads
loasdrecht
loataringen
lobby
lobotomy
loch
lochiel
locke
lockheed
lockwood
locus
lodewijk
lodge
loek
loeken
loenen
lof
loft
lofter
lofterhan
loftfeart
loftfeartmaatskippij
loftfeartmaatskippijen
loftfeartpionier
lofthaven
loftmacht
loftmachtbasis
loftoanfal
loftoanfallen
lofts
loftse
loftskip
logan
loge
loggia
logika
logistyk
logo
logysk
logyske
lohman
loire
lois
lok
lokaal
lokaasje
lokaasjes
lokale
loki
lokjen
lokke
lokket
lokkich
lokkigernoch
lokomotyf
lolle
lollum
lombok
londen
londenske
london
lone
lonely
long
longen
longerhou
longfellow
longkanker
longknife
longobarden
longuntstekking
loo
look
loomis
loon
loop
loovjende
lopen
lopez
loppersum
lorca
lord
lorenzo
los
loser
losjild
loskes
loslitten
losmakke
loss
losse
lossen
lost
lot
lotaringen
lotarius
lothar
lotus
lou
louis
louisa
louise
louisiana
loup
lourens
louvre
louw
love
lovecraft
loved
lover
low
lower
lp
lq
lr
ls
lt
ltd
lto
lu
lua
lubbers
lubeck
luc
lucas
lucasfilm
luccio
lucht
lucia
luciano
lucille
lucius
luck
lucky
lucy
lud
luden
ludoerlest
ludopname
ludsmixing
ludsmontaazje
ludwig
luftwaffe
lugh
lugo
luigi
luik
luis
luitenant
luk
lukas
luke
luken
lukrative
lukresia
lukse
luksemboarch
luksemboarchsk
luksemburch
lukswald
lukt
lulk
lulke
lulkens
lumpur
luna
lunbert
lund
lune
luneburg
lusia
lusius
lust
luterske
luther
lutherske
luts
lutsen
lutz
lv
lviv
lw
lx
ly
lybje
lyceum
lychtenstein
lycklama
lydia
lyk
lykas
lykfol
lykje
lykjende
lykklaad
lykludich
lyknammige
lykneamde
lykop
lykslein
lyksoartige
lykwicht
lykwols
lyn
lynch
lyndon
lynks
lynksen
lynn
lynx
lyon
lyryske
lyseum
lyster
lyts
lytse
lytser
lytsere
lytsewierrum
lytsman
lytssan
lytsskalige
lytste
lz
m
m0
m1
m2
m3
m4
m5
m6
m7
m8
m9
ma
maaie
maaike
maaitiid
maan
maar
maarskalk
maarssen
maart
maarten
maas
maastricht
maat
maatregel
maatregels
maatschappij
maatskiplik
maatskiplike
maatskippij
maatskippijen
mab
mac
macbeth
macdonald
macduff
machigi
machine
machines
macht
machten
machthawwers
machtich
machtichste
machtige
machtiger
machtsoername
mackensen
mackenzie
mackinac
macleod
macmillan
mad
madagascar
madagaskar
madame
made
madeleine
madison
madonna
madrid
mae
maeve
maffia
maffiabaas
mafu
mag
magazine
magdalena
mage
maggie
magic
maginta
magister
magistraat
magma
magna
magnesium
magnetyske
magnificent
magnum
magnus
mago
magreb
magy
magysk
magyske
mahalia
mahatma
mahoney
mai
maid
maiden
mail
main
maine
mainstream
mainz
maire
mais
maison
maitiid
maityd
majesty
majoar
majoor
major
majorka
majot
mak
makau
make
maken
making
makkabeeers
makke
makkelei
makken
makker
makkers
makket
makkingea
makkum
makkumer
maklik
maklike
makliker
maks
maksentius
maksimaal
maksimale
maksimianus
maksimiliaan
maksiminus
maksimum
maksimumfaasje
maksimus
mal
malakka
malaria
malawy
malaysia
malcolm
maldiven
male
maleisk
maleizje
maleizyske
malibu
mall
mallemok
malone
malta
malteesk
maly
mama
mamma
mammalia
man
management
manager
manchester
mandarynsk
mande
mandela
manders
mandeville
mandingo
manear
manearen
manen
manet
manfred
manga
manhattan
manier
manieren
manifest
manifestaasje
manilla
manipulaasje
manipulearre
manistee
manitoba
manitoulin
mank
mankreft
manksk
mankske
manlik
manlike
manlju
mann
manneboet
manneken
mannen
mannewaar
mannheim
mannich
mannichfald
mannichte
mans
mansk
manske
manskippen
mantel
mantgum
mantsje
mantsjes
mantsjoerije
manuaal
manualen
manuel
manuskript
manuskripten
many
mao
maoary
mar
mara
maradona
maraton
maratonrider
marburg
marc
marcel
marcela
march
marco
marcone
marcus
mare
maresjesee
marga
margaret
margareta
margaretha
margo
margot
margriet
margrietkanaal
marguerite
mari
maria
mariah
marian
marianen
marianne
marid
marie
marieke
mariengaarde
marija
marije
marijekapel
marijetsjerke
marijke
marillier
marilyn
marin
marina
marine
marinebasis
marines
marineskip
marineskippen
marinestasjon
marinier
mariniers
marinierskorps
marino
marinos
marinus
mario
marion
maris
marista
maritime
maritym
marius
marja
marjorie
mark
marke
markearre
marken
market
marketing
marketingkosten
markgreve
markham
markol
markomannen
markt
markus
markys
marmota
marmotten
marne
marokkaanske
marokko
marren
marriott
marrok
marrum
mars
marseille
marsh
marshal
marshall
marshalleilannen
marshals
marsilia
marsum
mart
marta
martel
martelder
martele
marteling
marten
martena
martens
martereftigen
marters
martes
martha
martijn
martin
martine
martinez
martinitsjerke
martinus
martinustsjerke
martinytsjerke
martler
martlers
marty
marvel
marvin
marx
mary
marylan
maryland
marzje
masedoanje
masedoanysk
masine
masinegewear
masinegewearen
masines
masinist
masker
maskotte
mason
massa
massaal
massachusetts
massale
massinissa
massive
massyf
master
mastergraad
masters
masterson
masterwurk
masturbaasje
mastyf
mat
mata
mate
matearje
maten
materiaal
materialen
materieel
materiele
materjaal
mathayus
mathilde
matroas
matroazen
matt
matteus
mattheus
matthew
matthias
matthijs
mattias
maud
maui
maul
mauretaanje
maurice
mauritius
maurits
mauritsius
mauser
mausoleum
mauthausen
mavo
mavra
max
maxim
maxima
maxwell
may
maya
mayen
mayer
mayes
mayhew
mayo
mayotte
mb
mc
mccain
mccarthy
mccartney
mcclane
mccoy
mcdonald
mcgraw
mcgregor
mckay
mckenzie
mckinley
mcl
mcmaster
md
mdewakanton
me
meagere
meallen
mealree
mealreee
mean
meand
meander
meanen
means
mear
meardere
mearderheid
mearderjierrich
mearke
mearkes
meartal
meartalsfoarm
meartrime
mearum
mearwiverij
meast
meastal
measte
measten
meastentiids
meastepart
measttrime
meat
mechanysk
mechanyske
mechelen
meckema
med
medal
medalje
medaljes
medea
medemblik
meden
media
mediafranchise
medical
medici
medicine
medikus
medina
medisinen
medisyn
medisynman
meditaasje
mediterraan
mediterrane
medium
medysk
medyske
mee
meente
meer
meertens
mees
meester
meet
meeter
meg
megalodon
megan
meganisaasje
meganisme
meganyske
mehmed
mei
meibrocht
meidat
meidie
meidien
meidiene
meidocht
meidogge
meidoggers
meidwaan
meie
meielkoar
meien
meiinoar
meij
meijer
meimakke
mein
meinaam
meindert
meinimme
meinimt
meinommen
meirekkene
meisje
meisjes
meispile
meistanners
meiteld
meitiid
meitsje
meitsjen
meiwurke
meiwurker
meiwurkers
meiwurking
mekka
meklenburch
mekoar
meksikaansk
meksikaanske
meksikanen
meksiko
mel
melaneziers
melbourne
melchior
melde
melden
meldij
melding
meldt
melissa
melle
mellema
melman
melville
mem
memme
memmegoadinne
memmekant
memmen
memmetaal
memmetaalsprekkers
memnon
memoires
memoirs
memorial
memoriam
memory
memphis
men
menaam
menace
menameradiel
mendes
mendoza
menear
meniste
menisten
menno
mens
mensch
menschen
mense
mensen
mentale
menteith
mentor
menu
meppel
mer
mercator
mercedes
mercia
mercury
mercy
mere
meredith
merida
meridiaan
merk
merke
merken
merknamme
merkstrjitte
merkt
merkuerius
merlin
merlyn
merovingyske
merritt
merry
mersia
merwede
meryl
mes
mesdag
mesopotaamje
messen
messerschmitt
messi
messias
messina
mest
met
metaal
metacritic
metal
metalband
metalen
metalene
metallica
meter
meters
metis
metoade
metoaden
metodistyske
metresse
metro
metropoal
metropolitan
metropolyt
metrostasjon
mette
metten
metz
meubels
meubiler
meulen
meulenhoff
meunster
meunsters
mexico
meyer
mf
mg
mgm
mh
mi
mia
miami
michael
michaels
michaeltsjerke
michail
michel
michelangelo
michelle
michener
michiel
michigan
michiganmar
mick
mickey
microsoft
microtus
mid
middei
middeis
middel
middelber
middelbere
middelburch
middelen
middelgrutte
middellange
middellanske
middelnamme
middelpunt
middels
middelsee
middelste
middelstum
midden
middenklasse
middenmank
middenskip
middenstan
middenyn
middle
middleton
midfrysk
midingelsk
midlands
midnederlansk
midnight
mids
midsiuwen
midsiuwsk
midsiuwske
midslan
midslansk
midslanske
midsmjittich
midsnacht
midstrjitte
midstwa
midway
midwesten
midwolda
miedema
mieden
miedum
miel
mien
miende
mienden
miene
mienebest
miening
mienings
mieningsutering
mienskip
mienskiplik
mienskiplike
mienskippen
mient
mies
mig
miggen
miggesnapper
miggesnappers
mighty
migraasje
migranten
miguel
mij
mijen
mijn
mika
mike
mikojan
mikro
mikroneezje
mikroneziers
miks
milaan
milan
milano
mildaam
mildred
mile
milennium
miles
militante
military
militer
militere
militeren
militum
miljard
miljarder
miljeu
miljoen
miljoenen
miljoner
mill
millarson
mille
millennium
miller
million
mills
milton
milwaukee
milysje
mimi
min
minachting
minas
mind
minder
mindere
minderheden
minderheid
minderheidstaal
minderheidstalen
minderjierrich
minderjierrige
minderjierrigen
mine
minen
mineralen
minerva
ming
mingd
mingde
mingen
mingsel
mingtaal
mini
minimaal
minimale
minions
ministearje
ministearjes
minister
ministers
mink
minne
minneapolis
minnema
minner
minneresse
minnertsgea
minnesota
minnichte
minnie
minnikonzju
minnisten
minor
mins
minsk
minske
minsken
minskerjochte
minskerjochten
minskewitten
minskheid
minsklik
minsklike
minsklikheid
minst
minste
minstens
minster
minus
minut
minuten
miny
minysearje
miquelon
mir
mira
miranda
mirandola
mirjam
mirror
mis
misbruk
misdie
misdieden
misdiefilm
misdriuw
misdriuwen
misferstan
mishannele
mishanneling
misje
misjonaris
misjonarissen
miskien
mislearjen
mislearre
mislearret
mislediging
miss
misse
missen
missing
mission
mississippi
mississippy
missoery
missouri
missoury
misstannen
misstavere
missy
missypost
mist
miste
mister
misty
mit
mitch
mitchell
mitrailleur
mitrailleurs
mitridates
mitsele
mitselwier
mitselwurk
mitsubishi
mitte
miyagi
mj
mjit
mjitte
mjitten
mjuks
mk
ml
mm
mn
mo
moa
moade
moai
moaie
moaier
moaiste
moal
moana
moandei
moanne
moannebled
moannelanner
moannen
moard
moarden
moardner
moardners
moardoanslach
moaren
moark
moarmer
moarmeren
moarn
moarns
moarnsdage
moarre
moarrewald
moarske
moas
moasje
moast
moasten
moat
moatte
moatten
moazes
mobile
mobilisaasje
mocht
mochten
mockema
modder
moddergat
modderige
model
modelleburo
modellen
modellewurk
models
modern
moderne
modernere
modernisearre
modernisearring
modifisearre
module
moed
moeder
moedige
moerad
moerom
moet
moete
moeten
moetet
moeting
moetings
moetingsplak
moetsje
moetsjen
mog
mogadisju
mohammed
moi
moines
mok
mol
moldaavje
mole
moledatabank
molekulen
molekulere
molen
molenaar
moles
moliere
molke
molkenboer
molkfabryk
molkwar
molly
molokai
molukken
mombasa
momint
mominten
momkape
moms
mon
mona
monako
monarch
monargy
monastike
monde
mondriaan
monet
monetere
money
moneypenny
mongoalen
mongoalje
mongoalsk
mongoalske
monica
monique
monmouth
monolooch
monopoalje
monoteisme
monoteistyske
monroe
mons
monsieur
monster
monsters
mont
montaazje
montana
montanus
monte
montenegro
montessori
monteur
montgomery
montreal
monty
monument
monumint
monumintaal
monumintale
monuminten
monumintesoarch
monza
mooglik
mooglike
mooglikheden
mooglikheid
mooi
mooiste
moon
moonraker
moor
moord
moore
moormerland
mor
moraal
moraavje
moray
morbihan
mordekai
mordor
more
moreel
morele
morfeem
morfology
morgan
morgen
moritz
mormoanen
mormoanske
mornhavon
morning
morricone
morris
morrison
morse
mort
mortimer
morton
mortuarium
mos
moscow
moses
mosk
moskee
moskeftigen
moskou
moskouse
moslim
moslims
mospheira
most
motacilla
motel
mother
motion
motivaasje
motiven
motor
motorfyts
motorfytsen
motorisearre
motors
motto
motyf
moulin
mount
mountain
mountains
mouse
mouwe
movement
movie
movies
moving
mowgli
mozaieken
mozaiken
mozambyk
mozart
mozayk
mozes
mp
mq
mr
mrs
ms
mt
mtv
mu
mubarak
muddy
mueller
muglik
muhammad
muiden
muir
muklaach
mul
mulder
mule
mulier
mulisch
muller
mullum
mulo
mulpunt
multatuli
multy
multyfunksjoneel
mulwurd
mummy
munchen
munder
mune
munedatabase
munein
munen
munet
mungard
muning
munling
munlinge
munnikebuorren
munster
munt
munten
muntendam
muntienheid
munts
muntsen
muntsjesyl
munysje
muoi
muoike
muoikesizzer
muoite
muonts
muontsen
muorre
muorren
muorreskilderings
muorrewurk
murd
murder
murdoch
muridae
murini
murk
murns
murphy
murray
mus
musa
musea
musee
museftigen
museo
museum
museumdirekteur
museums
music
musica
musical
musicals
musikus
musketiers
mussel
musselkanaal
mussert
mussolini
must
mustafa
mustang
mustela
mutse
muzel
muzen
muziek
muzikaal
muzikale
muzikant
muzikanten
muzyk
muzykferiening
muzykfestival
muzykkorps
muzykpedagooch
muzykprodusint
muzykskoalle
muzykstik
muzykyndustry
muzykynstruminten
mv
mw
mx
my
mya
myanmar
myl
myld
mylde
myn
mynbou
mynwurkers
myra
mysha
mysteries
mysterieuze
mystery
mystic
mystike
mystikus
mystyk
myte
myten
mytology
mytologyske
mytysk
mytyske
mz
n
n0
n1
n2
n3
n4
n5
n6
n7
n8
n9
na
naacp
naaie
naaien
naait
naam
naar
naarden
naasje
naasjes
naboo
nach
nacht
nachten
nachtklub
nachtklubs
nachtlike
nachtmerje
nachtmiel
nachts
nacional
nadia
nafo
nag
nagano
nagorno
nagoya
naive
najida
naked
nakota
nale
nalpiercing
nam
name
namen
names
namfal
namme
nammefoarm
nammejouwer
nammeleaze
nammen
nammenste
nammentlik
nammers
namybje
nancy
nanne
nantes
naomi
nap
napels
napoleon
napoleontyske
naram
narteks
nasa
nash
nashville
nasjonaal
nasjonaalsosjalisme
nasjonaalsosjalistyske
nasjonale
nasjonalisme
nasjonalist
nasjonalisten
nasjonalistyske
nasjonaliteit
nassau
nasser
natal
natalie
nate
nathan
nathaniel
nation
nationaal
national
nationale
nations
native
nato
natoer
natoergebiet
natoergebieten
natoerhistoarysk
natoerlike
natoerreligyen
natoerreligys
natoerreservaat
natoerskientme
natrium
natuer
natuere
natuergebiet
natuergebieten
natuerkunde
natuerkundige
natuerlik
natuerlike
natuermonuminten
natuerwittenskippen
natura
natural
naturalisme
naturalistyske
nature
natuur
nau
naughty
naust
nauta
nauwe
nauwer
nauwerneed
navaho
navarra
navigator
navy
nazaret
nazareth
nazi
nazy
nazys
nb
nba
nbc
nc
ncis
ncrv
ncs
nd
ndc
nds
ne
nea
neaken
neakenbled
neakenbleden
neakene
neakenens
neakenfotografy
neakenmodel
neal
neamd
neamde
neamden
neame
neamen
neamt
near
neare
nearne
nearo
neat
neatich
nebraska
nebukadnezer
nebula
ned
neder
nederdutsk
nederdutske
nederklits
nederlaach
nederlan
nederland
nederlanden
nederlands
nederlandsch
nederlandsche
nederlandse
nederlannen
nederlanner
nederlanners
nederlans
nederlanse
nederlansk
nederlanske
nederlansktalich
nederlansktalige
nedersaksen
nedersaksysk
nedersaksyske
nedich
nedige
nee
need
needlaning
needsaak
needsaaklik
needsaaklike
neef
neffens
negative
negatyf
negearjen
negearre
negearret
negerslaven
negroide
nehemia
nei
neidat
neidiel
neier
neifolgers
neifolging
neifolgjende
neigean
neigeraden
neihardt
neijier
neikommelingen
neikommende
neil
neilibjen
neilitten
neilittenskip
neill
neimakke
neisiet
neisieten
neisjoen
neisleep
neist
neiste
neistenby
neistlizzende
neisyngronisearre
neite
neiteam
neitiid
neitiids
neitins
neiwurd
nekke
nektar
nel
nellie
nelly
nelson
nemesis
nemo
nent
neo
neogoatysk
neogoatyske
neogotyk
neogotyske
neoklassisistyske
neolitikum
neornithes
nepal
nepos
neptunus
nerts
neruda
neryn
nes
nest
nesten
net
netflix
netherlands
nettsjinsteande
network
netwurk
neue
neuengamme
neurenberch
neushoorn
neustadt
neustrje
neutraal
neutrale
neutraliteit
nevada
neven
never
nevernever
neville
nevis
new
newcastle
newman
newport
news
newsted
newton
newyorkske
next
nez
nezjd
nf
nfls
ng
nguyen
nh
nhl
ni
nice
nicholas
nichols
nicholson
nicht
nick
nickelodeon
nico
nicodemus
nicolaas
nicolai
nicolas
nicolaus
nicole
nie
niels
nielsen
nienoard
niet
niets
nietzsche
nieuw
nieuwe
nieuwenhuis
nieuws
nieuwsblad
nigearia
nigel
niger
niget
night
nights
niihau
nij
nijbou
nijbouwyk
nijdam
nije
nijefurd
nijehaske
nijeholt
nijeholtpea
nijemardum
nijenhuis
nijere
nijeskans
nijesyl
nijetrine
nijewier
nijfunlan
nijgh
nijhoarne
nijhoff
nijkerk
nijlan
nijmegen
nijmoadrige
nijs
nijseelansk
nijseelanske
nijsgjirrich
nijsgjirrige
nijsgjirrigens
nijskoat
nijslezer
nijslezeresse
nijsprogramma
nijsstjoerder
nijste
nijsted
nijtap
nikaragua
nikita
nikki
nikolaas
nikolaastsjerke
nikolai
nikolaj
nikolaus
nikys
nils
nim
nimme
nimmen
nimoy
nimt
nimwegen
nina
nine
nino
nintendo
niobrara
niro
nis
nissen
nitraat
nivalis
nivo
nixon
nj
njoggen
njoggende
njoggenjierrige
njoggentich
njoggentiger
njoggentjin
njoggentjinde
njonkelytsen
njonken
njonkeninoar
nk
nl
nm
nn
no
noach
noah
noait
noar
noarch
noard
noardamerikaanske
noardburgum
noardeast
noardeasten
noardeastkant
noardeastlik
noardeastlike
noardeastpolder
noarden
noarder
noarderbreedte
noardertsjerke
noardfriezen
noardfrysk
noardfryske
noardgermaanske
noardgrins
noardhorn
noardiersk
noardierske
noardkant
noardkust
noardlik
noardlike
noardliker
noardlikste
noardpoal
noardryn
noardsee
noardseekust
noardside
noardske
noardumbrje
noardwalde
noardwest
noardwesten
noardwestgermaanske
noardwestkant
noardwestkust
noardwestlik
noardwestlike
noardwestsemityske
noardwyk
noaren
noarm
noarmannen
noarmen
noarsk
noarske
noarwegen
noas
noat
noaten
nobel
nobelpriis
nobelpriiswinner
noble
noch
nochal
nochris
nocht
noed
noel
noflik
noflike
nog
noir
noirs
noli
nom
nomaden
nomadyske
nomd
nominaasje
nominaasjes
nominearre
nominoe
nommen
non
nonnekleaster
nonnen
nooit
noord
noorden
noordhoff
noordmans
nora
norbertus
nord
norden
norfolk
normaal
normale
norman
normandje
normandysk
normandyske
normanje
north
northampton
northern
northumberland
northumbria
northwest
norton
norwich
nos
not
notaris
notearre
notes
nothing
notiid
notmole
notmune
notre
nou
nouveau
nouvelle
nov
nova
novel
novelle
novellen
novelles
november
novgorod
novial
novimber
now
np
npo
nps
nq
nr
nrc
ns
nsb
nsdap
nt
ntl
ntm
nu
nuet
nuete
nuge
nuget
nuit
nukleere
nul
nullewald
number
numer
numere
numerike
numers
numidyske
numydje
nunavut
nunspeet
nuodlike
nut
nuten
nuver
nuvere
nv
nw
nx
ny
nye
nyegea
nyk
nyl
nymphalidae
nymwegen
nynke
nz
o
o0
o1
o2
o3
o4
o5
o6
o7
o8
o9
oa
oade
oahu
oak
oakland
oakley
oalje
oaljefant
oaljefanten
oaljeferve
oan
oanbea
oanbean
oanbelange
oanbelanget
oanbelangjende
oanberne
oanbesibbe
oanbidding
oanbiede
oanbiedt
oanboaze
oanboazjende
oanbod
oanbou
oanboud
oanbringe
oanbringen
oanbrocht
oanbuorjende
oandacht
oandie
oandiel
oandielen
oandien
oandreaun
oandriuwing
oandwaning
oandwanings
oanfal
oanfalle
oanfallen
oanfaller
oanfallers
oanfalt
oanfarring
oanfier
oanfierd
oanfierde
oanfierder
oanfierders
oanfiering
oanfitere
oanfoel
oanfoelen
oanfold
oanfoljende
oanfolle
oanfolling
oanfraach
oanfrege
oangean
oangeande
oangelegenheden
oangenaam
oangie
oangien
oangiet
oangrinzgjende
oanhalde
oanhalden
oanhaldend
oanhaldende
oanhelle
oanhing
oanhinger
oanhingers
oanhold
oanholden
oanhongen
oaninoar
oanjaan
oanjefte
oanjout
oanjouwe
oanjun
oankaam
oankamen
oankeap
oanklacht
oanklachten
oanklage
oankocht
oankomme
oankommen
oankommende
oankomst
oankomt
oankundige
oankundiging
oanleard
oanlein
oanleine
oanlieding
oanlis
oanlizze
oanlizzen
oanlutsen
oanmakke
oanmeitsjen
oanmerking
oanmoedige
oanmurken
oannaam
oanname
oannimlik
oannimme
oannimmen
oannimmer
oannimt
oannomd
oannommen
oanpak
oanpakt
oanpasse
oanpassing
oanpassings
oanpast
oanpaste
oanplante
oanrekking
oanrieden
oanrin
oanrjochte
oanroppen
oanset
oansette
oansetten
oansjen
oansjenlik
oansjenlike
oansjoen
oanskaft
oanslach
oanslaggen
oanslein
oansletten
oanslut
oanslute
oansluten
oanslutend
oanslutende
oansluting
oanspraak
oanspraken
oansprektitel
oansprutsen
oanstean
oansteande
oansteld
oanstelde
oanstelling
oanstriid
oanstutsen
oanswettende
oant
oantaast
oantaaste
oantaasting
oantal
oantallen
oantekene
oantekenings
oantinken
oantinkens
oantins
oantoand
oantreft
oantreklik
oantreklike
oantroffen
oantrun
oantrune
oantrunen
oantrunjen
oantsjut
oantsjutte
oantsjutten
oantsjutting
oantsjuttings
oanwaaks
oanwaaksende
oanwezich
oanwezichheid
oanwezige
oanwezigen
oanwezigens
oanwiisd
oanwizing
oanwizings
oanwoeksen
oar
oard
oarde
oardel
oarden
oarder
oardere
oarderet
oardering
oarders
oardiel
oare
oarehelte
oarekant
oaren
oarenien
oargel
oargelbedriuw
oargelbouwer
oargelbouwers
oargelfront
oargelist
oargelkas
oargelmakkerij
oargels
oarken
oarkonde
oarkunde
oarloch
oarlochfiering
oarlochsfilm
oarlochsjierren
oarlochske
oarlochsmisdieden
oarlochsmisdiediger
oarlochsmonumint
oarlochsskip
oarlochsskippen
oarloggen
oars
oarsaak
oarsaken
oarsoartige
oarsom
oarsprong
oarspronklik
oarspronklike
oates
oaze
ob
obama
obdam
obe
obelisk
oberman
obi
objekt
objekten
objektyf
oblast
oblasten
obs
obsedearre
observatoarium
obstakels
oc
ocasio
ocean
och
ockinga
octopussy
od
oder
odessa
odin
odjibwe
odo
odoaker
odyssee
odysseus
oe
oebele
oeckelen
oefene
oefening
oefenings
oefenjen
oehoe
oekraine
oekrainers
oekraynsk
oekraynske
oekumenysk
oekumenyske
oenanthe
oene
oenema
oentsjerk
oepke
oer
oeral
oeralde
oeralysk
oerbefel
oerbefelhawwer
oerbegripen
oerbleau
oerbleaun
oerbleaune
oerbliuwende
oerbliuwsel
oerbliuwsels
oerbliuwt
oerboard
oerbringe
oerbringen
oerbrocht
oerdeis
oerdekte
oerdien
oerdracht
oerdrachtlike
oerdreaun
oerdroech
oerdroegen
oerdutsen
oere
oerein
oeren
oerfal
oerfallen
oerfallers
oerflak
oerflakte
oerflaktewetter
oerfloed
oergean
oergie
oergien
oergiet
oergong
oergongskalinder
oergrutte
oerhaal
oerhan
oerhearske
oerhearsking
oerhearskjende
oerheden
oerheid
oerhelje
oerhelle
oerhinne
oerhoer
oeria
oerien
oerienkomme
oerienkomst
oerienkomsten
oerienkomt
oerienstimming
oerisel
oeriselske
oerjaan
oerjefte
oerjoech
oerjun
oerkaam
oerkape
oerkoepeljende
oerkomme
oerkommen
oerkomt
oerlaapje
oerlest
oerlevere
oerlevering
oerlibbe
oerlibben
oerlibbene
oerlibbenen
oerlibbet
oerlibje
oerlibjen
oerlibjende
oerlis
oerlitten
oermacht
oermansk
oermasterder
oermastere
oermasteren
oermasterer
oermasteret
oermastering
oermasterje
oermasterjen
oernaam
oername
oernamen
oernimme
oernomd
oernommen
oerol
oerpake
oerpakesizzer
oerpleatst
oerrun
oers
oersee
oerseesk
oerseeske
oerset
oersetster
oersette
oersetten
oersetter
oersetting
oersettingen
oersettings
oersjoch
oerskot
oerspield
oerstallich
oerstallige
oerstap
oerstapt
oerste
oerstek
oerstekke
oerstekken
oerstreaming
oerstreamings
oerstutsen
oertaal
oerterp
oertsjuge
oertsjuging
oertsjugjen
oeruguay
oerwald
oerweldige
oerweldigjende
oerwinnen
oerwinning
oerwinnings
oerwinteret
oerwinterje
oerwun
oerwune
oerwurk
oeuvre
oeuvrepriis
oever
oezbekistan
of
ofbaarnd
ofbaarnde
ofbraak
ofbrekke
ofbrekken
ofbrutsen
ofbyld
ofbylde
ofbylden
ofbylding
ofbyldings
ofdieling
ofdielingen
ofdielings
ofdruk
off
offa
offal
offensyf
offenwier
offer
offere
offerjen
offers
office
officer
official
offier
offierd
offinsyf
offisier
offisieren
offisjeel
offisjele
offreding
offs
offurdige
offurdigen
ofgean
ofgeande
ofgraven
ofgriis
ofgroeven
ofgryslike
ofhandich
ofhandige
ofhelle
ofhinklik
ofhinklike
ofjun
ofkoarte
ofkoarting
ofkoartings
ofkomstich
ofkomstige
ofkundige
ofl
oflaat
oflate
oflein
oflevere
oflevering
ofleveringen
ofleverings
ofliede
oflieding
oflizze
ofmakke
ofmeitsje
ofmjittings
ofnaam
ofnimmende
ofnommen
ofpraat
ofprinte
ofreis
ofrin
ofrinne
ofrun
ofrune
ofset
ofsette
ofsetten
ofsetting
ofsier
ofsieren
ofsjoen
ofskaat
ofskaffing
ofskaft
ofsketten
ofskie
ofskied
ofskieden
ofskieding
ofskildere
ofslaan
ofslach
ofslachte
ofslein
ofsletten
ofslutdyk
ofsluten
ofslutend
ofsluting
ofsnien
ofspile
ofspilet
ofspjalting
ofspraak
ofspraakje
ofspraken
ofsprutsen
ofspylje
ofstamje
ofstamme
ofstammeling
ofstammelingen
ofstammet
ofstamming
ofstan
ofstannen
ofstean
ofstien
ofstudearjen
ofstudearre
ofsunderlik
ofsunderlike
oft
oftanke
ofte
oftewol
oftiteling
oftocht
oftrede
oftreden
oftwongen
ofweefd
ofwettering
ofweve
ofwezichheid
ofwezigens
ofwiisd
ofwikend
ofwikende
ofwiking
ofwikings
ofwiksele
ofwikseljend
ofwizing
ofwol
ofwun
ofwykt
og
oglala
oh
ohio
oi
oidipoes
oil
oj
ojibwe
ok
okinawa
okke
okko
oklahoma
okse
oksen
oksidaasje
oksidator
oksitaansk
okt
oktaaf
oktavianus
oktober
oktoberrevolusje
oktroai
ol
olaf
old
olde
oldehove
oldenbarnevelt
oldenburg
oldenburger
oldenhof
oldersum
ole
olga
oliveberch
oliveira
oliver
olivia
olivier
olof
olsen
olson
olterterp
olympia
olympiade
olympic
olympus
olympysk
olympyske
om
omaan
omaha
oman
omar
omboud
ombringe
ombrocht
omdat
omdoch
omdoopt
omega
omfang
omfetsje
omfette
omfettet
omfieme
omfiemet
omfiemje
omfoarme
omgean
omgong
omgongen
omgrefte
omheech
omhinne
omjouwing
omjun
omkaam
omkamen
omke
omkeard
omkearde
omkes
omkesizzer
omklamme
omkomme
omkommen
omkriten
omleech
omlizzende
omloop
ommelannen
ommen
ommers
omnamwurd
omneamd
omnibus
omnibusedysje
omraand
omreden
omrekkene
omrin
omrop
omroppen
omset
omsetten
omskot
omskotten
omskreau
omskreaun
omskriuwe
omskriuwen
omskriuwing
omskriuwings
omskriuwt
omslach
omslaggen
omsletten
omstannichheden
omstavere
omstriden
omt
omtinken
omtinkens
omtrek
omtrent
omtrint
omwei
on
once
onder
ondergang
onderweg
onderwijs
onderzoek
one
online
only
onno
ono
ons
onstwedde
ontario
ontwikkeling
onze
oo
oog
ook
oorlog
oorschot
oost
oosterhesselen
oosting
op
opbettere
opblaasd
opbou
opboud
opboude
opbouwe
opbringe
opbringende
opbringst
opbringsten
opbrocht
opdaagjen
opdield
opdieling
opdien
opdoekt
opdracht
opdrachten
opdrachtjouwer
opdroegen
opdukt
opeaske
open
opera
operaasje
operaasjes
operasjoneel
operasjonele
operasjongster
operation
operearje
operearre
opfallend
opfallende
opfalt
opfang
opfarrenden
opfeart
opfet
opfette
opfetting
opfettings
opfieding
opfierd
opfiering
opfolge
opfolger
opfolgers
opfolging
opfolgje
opfongen
opfrette
opfretten
opgean
opgeande
opgie
opgien
opgong
opgravings
opgroeid
opgroeide
opgroeven
ophalde
ophalden
ophaldt
opheffen
opheffing
opheft
ophefte
ophelbrege
ophelje
ophelle
opheven
ophold
opholden
ophongen
opienfolging
opienfolgjende
opinoar
opiny
opinypeiling
opite
opiten
opjaan
opjefte
opjun
opkaam
opknappe
opknapt
opkocht
opkommen
opkommende
opkomst
opkomt
oplaach
oplaat
oplage
oplein
opleine
oplevere
oplibbing
oplieding
opliedingen
opliedings
oplosse
oplossen
oplossing
oplossings
oplost
oplutsen
opmakke
opmars
opmeer
opmerking
opmerklik
opmerklike
opmurken
opnaam
opname
opnamen
opnames
opnij
opnimme
opnimmen
opnimt
opnomd
opnommen
oppakke
oppakt
oppenearre
oppenearret
opper
oppergod
opperhaad
opperhaden
opperrabbyn
oppikt
opposysje
oprah
oprinne
oprinnende
oprint
oprjocht
oprjochte
oprjochten
oprjochter
oprjochters
oprjochting
oprjochtsjen
oproer
oprop
oproppe
oproppen
opropt
oprun
opset
opsetlike
opsetsin
opsette
opsetten
opsicht
opsichten
opsichter
opsiket
opsje
opsjoch
opskood
opskreaun
opskrift
opskuor
opslaan
opslach
opslachmar
opslein
opsletten
opslupen
opsluten
opsmiet
opsmite
opsmiten
opsmyt
opsocht
opsomming
opspjalten
opspraak
opstan
opstanneling
opstannelingen
opstannen
opstannige
opstanning
opsteld
opstelde
opstelle
opstellen
opstelling
opsterlan
opsterlanske
optein
optekene
optocht
optochte
optrede
optreden
optredens
optyske
opunthald
opus
opwachte
opwekke
opwining
oq
or
orakel
orale
orange
oranje
oranjewald
orbison
orbit
orchestra
order
oregon
oreilles
orestes
org
orgaan
organen
organisaasje
organisaasjes
organisator
organisearje
organisearjen
organisearre
organisearren
organisearret
organisme
organismen
organist
organization
organyske
orgasme
orgel
orgels
orgelsite
origenes
origin
original
oriint
oriintaalsk
oriintaasje
oriintearre
orion
orizjine
orizjineel
orizjinele
orkaan
orkanen
orkest
orkesten
orkney
orlando
orleans
ornaris
orne
ornearre
ornearret
oro
orson
ortega
ortodokse
ortsteil
orwell
os
osaka
oscar
oscars
oseaan
oseaanje
oseanen
osinga
osingastate
oskar
oskars
oslo
osmaansk
osmaanske
osmanen
osnabruck
osseesje
ostfriesische
ostfriesland
ostrogoaten
oswald
ot
otello
other
others
oto
ottawa
ottema
otter
otterdoks
otterdokse
otterdoksen
otterdoksk
otterdokske
otterdoksy
otters
otto
ottomaanske
ottomanen
otus
ou
oud
oude
oudheid
our
ouse
ousterhaule
out
ouwe
ouwer
ouwers
ov
over
overleef
ovidius
ow
owen
owens
own
ox
oxford
oy
oz
p
p0
p1
p2
p3
p4
p5
p6
p7
p8
p9
pa
paad
paard
paazjes
pablo
pacht
pachter
pacific
package
paden
paderborn
padme
padua
page
pages
paidhi
pain
pajut
pak
pake
pakes
pakesizzer
pakesizzers
pakhus
pakhuzen
pakistaanske
pakistan
pakke
pakken
pakt
pakte
pal
palace
palais
palau
palazzo
paleis
paleizen
palermo
palestina
palestynske
palin
pallas
palm
palma
palmer
palo
palpatine
palts
palustris
pamela
pamflet
pan
panama
pandemy
pander
panen
panhandle
panne
pannen
pannoanje
panorama
panteon
panter
pany
panyk
paolo
pap
papa
papen
paperback
paperbacks
papers
papiamento
papiamentsk
papiamentu
papiamintsk
papier
papieren
papilio
papillon
papoea
papyrus
par
para
parade
paradise
paradys
paraguay
parallel
parallelle
paralympysk
paralympyske
paramaribo
paramount
paranormal
parasjute
parfum
parides
paris
parish
park
parkearkelder
parkearplak
parkearterrein
parken
parker
parks
parlement
parlemint
parlemintere
parlemintsferkiezings
parlemintsleden
parlemintslid
parma
parnassius
parochianen
parochy
parochys
parochytsjerke
parody
parool
parregea
parse
parseburo
parsekonferinsje
parsons
part
parte
parten
partij
partijen
partijlieder
partikulier
partikuliere
partikulieren
partityf
partner
partners
partnerskip
partoer
partoeren
parton
party
partyske
parus
parys
paryske
pas
pasadena
pascal
pasco
pasifistyske
pasifysk
pasifyske
pasja
pasjint
pasjinten
paso
pass
passaazje
passaazjes
passage
passau
passazjier
passazjiers
passazjiersskip
passe
passearret
passen
passende
passer
passion
passy
passyf
past
pasta
paste
pasten
pasternak
pastoar
pastorale
pastorij
pastorije
pastory
pat
pater
patint
patolooch
patriarch
patriargaat
patricia
patrick
patriot
patriotten
patroan
patroanen
patroanhillige
patrol
patronym
patrulje
pau
paul
paula
pauline
paulo
paulus
paulustsjerke
paus
pausen
pauslike
pavel
pavia
paviljoen
paxton
payne
pays
paz
pb
pc
pd
pdf
pe
peabody
peace
peacemaker
peak
peaks
peal
peallen
peanstra
pear
pearel
pearels
pearen
pearke
pearkes
pearl
pears
pearson
peartiid
peary
peaske
peazens
peck
pedaal
pedagogyske
pedagooch
pedersen
pedro
peer
peggy
peil
pein
peinje
peins
peize
pekela
peking
pel
pelmune
peloponnesos
peloton
pels
pelshannel
pelzen
pemba
pen
penelope
penetraasje
penguin
penguins
peninsula
penis
penjum
penn
pennsylvania
penny
penric
pensjoen
pentagon
penthouse
people
pepergea
pepper
pepyn
per
percy
pere
perez
perfect
perfekt
perfekte
perfester
perfoarst
performance
perikles
peril
perioade
perioaden
perioades
periodyk
perk
perkamint
perkins
perkusje
permafrost
permanint
permaninte
perrault
perron
perry
pers
perse
perseel
perselen
persiis
persint
persintaazje
persize
persoan
persoane
persoanen
persoanlik
persoanlike
persoanlikheid
persoansnamme
personaazje
personaazjes
personal
personele
personiel
perspektyf
persysk
perth
peru
perzen
perzje
perzysk
perzyske
pest
pet
pete
petear
petearen
peter
peters
petersburch
petersburg
petgatten
petit
petra
petrarca
petri
petronella
petrus
petrustsjerke
pets
petysje
peyton
pf
pg
ph
phantom
phil
philadelphia
philip
philipp
philippe
philippus
philips
phillips
philosopher
philosophy
phoenix
php
phylloscopus
pi
pia
piaam
pianist
pianiste
piano
piazza
pica
picard
picasso
pick
pico
picture
pictures
pie
piebenga
pieck
pier
pierce
piercing
piercings
pierre
piers
piersma
pierson
piet
pieter
pieters
pietje
pietro
pigmint
piip
piipoargel
piiptsjilling
piipwurk
pik
pike
piken
pikten
piktyske
pilatus
piloat
piloaten
pilot
pilotoflevering
pim
pimpernel
pin
pine
pineholle
pinewood
pinguins
pink
pinkster
pinksterblom
pinne
pinning
pinsjoen
pinsjonearring
pinyin
pionier
pioniers
pipen
piper
pipo
pippin
pippyn
piraat
piramide
piramiden
pirate
piraten
pirates
pisa
pistoal
pistoalen
pit
piter
pitersbierrum
pitertsjerke
pitstrjitte
pitt
pittsburg
pittsburgh
pius
pixar
pixie
pj
pjotr
pjut
pjutteboartersplak
pk
pkn
pl
plaat
plaats
plaatsje
plaatsjes
place
places
placid
plafon
plafond
plain
plains
plak
plakette
plakferfangend
plakferfanger
plakfine
plakfun
plakfunen
plakfynt
plakje
plakjes
plakken
plaknamme
plaknammen
plakt
plan
pland
plande
planeet
planeetoerflak
planet
planetarium
planeten
planetere
planetestelsel
planetoide
planetoiden
planke
planken
plannen
planning
plant
plantaardich
plantaazje
plantaazjes
plante
planten
plantesoarten
plantsje
plantsjen
planut
plasse
plassen
plat
platbaarnd
platelabel
platemaatskippij
platen
platfoarm
platina
platinum
plato
platt
platte
plattegrun
plattelan
plattelansdistrikt
platz
play
playboy
playground
playing
playmate
plaza
pleach
pleage
pleats
pleatse
pleatsen
pleatsing
pleatslik
pleatslike
pleatst
pleatste
plechtich
plechtichheid
plechtige
plein
pleinen
pleistoseen
pleit
pleite
plestik
pletter
plicht
plichten
plinius
ploech
ploeg
ploegen
ploegsma
plondere
plonderen
plondering
plonderje
plonderjen
plondertochten
ploos
plot
plus
pluto
plymouth
plysje
plysjeburo
plysjeman
plysjeminsken
plysjes
plysjesearje
plysjeskoalle
plysjetsjinst
pm
pn
po
poadium
poal
poalen
poalsk
poalske
poarte
poartegebou
poarten
poat
poaten
pocket
poddestuollen
poe
poel
poema
poems
poer
poerbest
poerrazen
poesjkin
poetry
poetyske
poezie
poezij
poezy
point
pointe
poitiers
pokken
pol
polak
polder
poldermole
poldermune
polders
pole
police
political
politiek
politieke
politika
politike
politikology
politikus
politisy
polityk
polo
pols
polten
polyneezje
polyneziers
polynezyske
polyteisme
pommeranten
pommeren
pomp
pompebleden
pompejus
pompen
pompt
ponca
ponghalder
ponka
pont
pontifikaat
pontius
pony
pool
poort
poortinga
pop
popgroep
popkema
popkultuer
popma
popmuzyk
poppe
poppen
poppenwier
popper
poppo
poppoadium
poppy
pops
popta
populaasje
populaasjes
popular
popularisearre
populariteit
populer
populerder
populere
populerste
porn
porno
pornoakteur
pornoakteurs
pornoaktrise
pornoaktrises
pornofilm
pornofilms
pornografy
pornografysk
pornografyske
pornokarriere
pornoregisseur
pornosites
pornostjer
pornowebsiden
pornowrald
pornoyndustry
port
portaal
portage
portalen
portefulje
portegal
portegeesk
portegeeske
portegezen
porter
portland
porto
portrait
portret
portretskilder
portrettearre
portretten
portsmouth
portugal
portugeesk
portugeeske
portugezen
posearjen
posearre
poseidon
positive
posityf
posse
post
posten
posthuma
posthumus
postkantoar
postkoade
postkoets
postma
postmapriis
postproduksje
postsegels
postum
postume
postumus
posysje
posysjes
pot
potamogeton
potawatomy
potestaat
potgieter
potinsjeel
potinsjele
potlatch
potlead
potmarge
potomac
potsdam
potsje
potten
potter
pound
pour
powder
powderrivier
powell
power
powers
pozzi
pp
pq
pr
praach
praat
praatprogramma
prachtich
prachtige
prairie
praktiken
praktyk
praktysk
praktyske
prate
praten
pratt
pre
pream
predaasje
predikaat
predikant
predikanten
preek
preekjen
preekstoel
preemjejager
preester
preesters
prefekt
prefektuer
prehistoarje
prehistoaryske
preke
preken
preker
premier
premiere
preproduksje
prequel
prequeltrilogy
prerje
prerjewolf
prerjewolven
presbyteriaanske
presents
president
presidinsjele
presidint
presidinten
presidintsferkiezings
presidintsfrou
presidintskandidaat
presidintskip
presintaasje
presintator
presintators
presintatrise
presintearjen
presintearre
presintearret
presit
presize
presley
press
prestaasje
prestaasjes
prestiizje
prestizjeuze
preston
presys
pretender
pretoria
pretty
price
pride
priis
priisfraach
priizge
prijs
prima
prime
primer
primere
primitive
primityf
prince
princess
princeton
prins
prinsbisdom
prinsbiskop
prinsdom
prinsen
prinses
prinsesse
prinsetun
prinsipe
prinsipes
print
printe
printen
printer
printers
printinge
printsjen
prior
prisma
prisoner
privacy
private
privee
priveelibben
privileezje
privileezjes
prix
priya
prize
prizen
pro
proai
proaidieren
proaien
proasdij
proast
proaza
probleem
problematysk
problemen
producer
production
productions
produksje
produksjes
produkt
produkten
produsearje
produsearjen
produsearre
produsearret
produsint
produsinte
produsinten
proef
proefskrift
prof
profeet
profesije
profesijen
profesjoneel
profesjonele
professor
profeten
proffuotballer
profitearje
profitearre
profitorganisaasje
profyl
program
programma
programmamakker
progressive
progressyf
project
projekt
projekten
prokureur
prolooch
prometheus
prominint
promininte
promise
promoasje
promovearre
pronk
pronomen
propaganda
proseduere
proses
prosesje
prosessen
prosint
prostituee
prostituees
prostitusje
protagonist
protector
protektoraat
protest
protestanske
protestant
protestanten
protestantisme
protestantsk
protestantske
protestearre
protesten
proto
prototype
protte
protter
provans
provence
providence
provincie
provincien
provinsjaal
provinsjale
provinsje
provinsjehus
provinsjes
prowse
proza
prum
prusen
prusysk
prusyske
pryster
prysters
ps
psalm
psalmen
pseudepigrafysk
pseudo
pseudonym
pskov
psoe
psv
psychiater
psychiatry
psychiatrysk
psychiatryske
psychology
psychologysk
psychologyske
psycholooch
psychyske
pt
ptolemaeus
ptolemeus
ptt
pu
puberteit
publ
public
publications
publikaasje
publikaasjes
publike
publisearje
publisearjen
publisearre
publisearren
publisearret
publishers
publishing
publisist
publisiste
publisiteit
publius
publyk
publykspriis
pueblo
puget
puller
pulse
puma
pun
punk
punkband
punsmiet
punt
punten
puntsje
punysk
punyske
puollen
pure
puriteinen
puriteinske
purple
pusjkin
pussy
put
putin
putnam
putsje
putsjes
putten
puzel
puzels
pv
pvda
pvv
pw
px
py
pyk
pylder
pylders
pylger
pylgers
pylk
pylken
pynlik
pynlike
pyreneeen
pyrgus
pyt
pytheas
pz
q
q0
q1
q2
q3
q4
q5
q6
q7
q8
q9
qa
qaida
qb
qbuzz
qc
qd
qe
qf
qg
qh
qi
qj
qk
ql
qm
qn
qo
qp
qq
qr
qs
qt
qu
quantum
quatre
quatrebras
que
queen
queens
queenslan
quentin
querido
quest
qui
quick
quigley
quincy
quinn
qumran
quo
qv
qw
qx
qy
qz
r
r0
r1
r2
r3
r4
r5
r6
r7
r8
r9
ra
raaf
raalte
raam
raar
raard
raarderhim
rabbit
rabbyn
rabobank
race
raceofstan
races
rachel
rachelman
racine
racing
radar
radboud
radikaal
radikale
radio
radiopresintator
radioprogramma
radiostasjon
radiostjoerder
rae
raerd
raerderhim
raf
rafael
rafe
ragusa
rai
raikkonen
railroad
rails
railway
rain
rainbow
raith
rajoy
rak
raket
raketten
ralf
rally
ralph
ram
rama
rambo
ramen
ramirez
ramon
ramp
rampage
rampen
rampjier
ramsay
ramsey
ramt
ranch
rancheria
randall
randolph
random
randy
rane
ranen
ranested
rang
range
rangen
ranger
rangers
rangleaze
ranglist
rantsje
rap
rapids
rapper
rapport
rapporten
rare
ras
rasiale
rasisme
rasistyske
raspberry
rassan
rassen
rasseskieding
rat
ratifisearre
rauwe
raven
ravenna
ravenswald
ravyn
rawlings
ray
raymond
razernij
razzia
rb
rc
rca
rd
re
rea
read
readboarstke
reade
reader
reading
readkapke
readtsjerk
reagan
reage
reagearje
reagearre
reagearret
reager
reahel
reahus
reaklif
reaksje
reaksjes
real
realisearre
realisme
realisten
realistysk
realistyske
realiteit
reality
realitytillefyzjeprogramma
really
reau
reauwen
rebecca
rebekka
rebel
rebelleferbun
rebellen
reboelje
reboot
rebulje
rech
rechbonke
rechstringdieren
recht
record
recordings
records
red
redaksje
redakteur
redaktrise
redbad
rede
redemption
reden
redenen
redens
reder
rederij
redford
redigearre
reding
redingsboat
redmond
reds
redt
reduksje
reduzum
ree
reed
reedlik
reedriden
reedrider
reedriders
reedrydster
reef
reek
reese
refektoarium
referindum
reformaasje
refrein
refter
reg
regaad
regear
regearde
regearing
regearings
regearingslieder
regearjend
regearjende
regearperioade
regearre
regearret
regel
regele
regelet
regeling
regelje
regeljen
regeljouwing
regelmjittich
regelmjittige
regels
regen
regensburg
reggae
regina
reginald
regint
reginten
regintesse
regintskip
regio
region
regionaal
regional
regionale
regisearre
regissearjen
regissearre
regisseur
regisseurs
register
registers
registraasje
registrearre
registry
reglemint
regnerus
reguliere
regulus
regy
reich
reid
reide
reiden
reiderlan
reil
reilly
reims
rein
reina
reinalda
reinboge
reinder
reinders
reine
reinhard
reinier
reint
reinwald
reinwalden
reinwetter
reis
reitsje
reitsjen
reitsma
reitsum
reizen
reizge
reizgen
reizger
reizgers
reizget
reizgje
reizgjen
rekke
rekken
rekkene
rekkenje
rekkenjen
rekkenkeamer
rekket
reklame
reklamespotsje
reklamespotsjes
rekonstruearjen
rekonstruearre
rekonstruksje
rekor
rekord
rekortemperatueren
rekreaasje
rekreaasjegebiet
rekruten
rektor
relaasje
relaasjes
relatearre
relative
relativiteitsteory
relatyf
relief
reliefs
religieus
religieuze
religion
religy
religyen
religys
reliken
relikwy
rely
rem
remake
remarque
rembrandt
remington
remonstranten
ren
renault
rene
renee
renessanse
renfield
rengers
rennenberg
renner
rennes
reno
renovaasje
renovearjen
renovearre
renton
reorganisaasje
reorganisearre
reparaasje
reparaasjes
reparearjen
reparearre
repertoire
replika
report
reportaazje
reportaazjes
reporter
represaille
represintative
reptilen
republic
republikein
republikeinen
republikeinsk
republikeinske
republiken
republyk
reputaasje
rerum
rescue
research
reservaat
reservaatlan
reservaten
reservation
reserve
reservearre
reservoir
residinsje
resinsint
resinsinten
resinsje
resinsjes
resint
resinte
resjersjeur
resjerzje
resolusje
resort
resp
respekt
respektearre
respektivelik
respektivelike
rest
restant
restanten
restauraasje
restauraasjes
restaurant
restaurants
restaurearje
restaurearjen
restaurearre
reste
restearjende
resten
restend
restich
restige
restplak
resultaat
resultaten
resultearjende
resultearre
resultearret
rette
return
reunion
reuny
reus
reuseftich
reuseftige
reuze
reuzen
reve
reveil
revenge
review
revival
revolusje
revolusjoner
revolusjonere
revolusjoneren
revolution
revolver
revu
revue
rex
rey
reykjavik
reynolds
reysol
rezjimint
rezjiminten
rezjy
rezjym
rf
rg
rh
rheden
rhein
rhode
rhodes
rhone
rhythm
ri
ria
riaad
ribben
ricardo
rice
rich
richard
richards
richardson
richelieu
richland
richmond
richter
rick
rickman
rico
rictus
riddenearret
ridder
riddere
ridderoarder
ridders
ride
ridel
riden
ridende
rider
riders
ridge
riding
ridlik
rie
riebeeck
ried
riede
rieden
riedhus
riedsel
riedshear
riedshus
riedslid
riedt
riemer
riemersma
rien
rienck
rienk
rienks
rients
rietveld
rif
rifka
riga
rige
rigel
rigels
rigen
right
rights
riidt
riis
rijk
rijn
rijpstra
rijswijk
rik
rika
rike
riken
riker
rikke
riko
rikt
rikte
riley
rillegau
rimbaud
rimen
rin
rindieren
rinfugels
rinfuorgen
ring
ringen
ringo
rings
ringwei
rinia
rink
rinke
rinne
rinnen
rinnend
rinnende
rinse
rinsema
rinsumageast
rint
rinte
rintje
rintmaster
rinus
rio
ripperda
ris
rise
risiko
risimer
rising
rispinge
rispjen
risseltaat
risselwearret
rit
rita
rite
riten
rites
ritme
ritske
ritsma
ritter
ritueel
rituele
rituelen
rivaal
rivalen
rivalisearjende
rivaliteit
river
rivier
rivieren
rivierke
rivierkes
rixt
rj
rjocht
rjochtbank
rjochte
rjochten
rjochter
rjochterhan
rjochterkant
rjochterlike
rjochters
rjochtet
rjochtfeardige
rjochthoekich
rjochthoekige
rjochting
rjochtingen
rjochtings
rjochtlike
rjochtop
rjochts
rjochtsaak
rjochtsaken
rjochtse
rjochtseal
rjochtsgelearde
rjochtsje
rjochtsjen
rjochtspraak
rjukju
rk
rkd
rl
rm
rn
ro
road
roads
roald
roan
roarda
roas
roasfinster
roazen
rob
robbie
robert
roberto
roberts
robin
robinson
robles
robot
robots
robrecht
robyn
roc
rocco
rock
rockband
rockefeller
rocky
rod
roddenberry
rode
rodeezje
rodentia
rodeo
rodgers
rodriguez
roede
roeden
roeien
roeier
roel
roelof
roelofs
roemeenje
roemeensk
roemeenske
roemenen
roeper
roer
roermond
rofdier
rofdieren
roffugels
roger
rogers
rogge
roggen
rogier
rogue
rohan
rohm
rok
rokoko
rol
roland
rolde
role
rolf
roll
rollen
rolling
rolls
rolstoel
rolstuollen
roltsje
roltsjes
rom
roma
romaansk
romaanske
roman
romance
romano
romanogoatyske
romanov
romanrige
romans
romanse
romansearje
romanskriuwer
romantic
romantyk
romantysk
romantyske
romanum
romany
rome
romein
romeinen
romeinsk
romeinske
romeo
romijn
romje
romjen
romke
romme
rommel
rommert
romney
romp
romplingte
romppleats
romte
romtefear
romtefeart
romtefeartorganisaasje
romtefeartprogramma
romten
romtes
romteskip
romteskippen
romtesonde
romtestasjon
romtlike
romulus
ron
ronald
rond
ronde
ronnie
rono
rood
roodbaard
roodbergen
rook
room
roomsen
roomsk
roomske
roorda
roos
roosevelt
roots
rop
ropen
ropnamme
roppe
roppen
ropping
ropt
ropta
rorke
ros
rosa
rose
rosebud
rosen
roses
rosetta
rosie
roskilde
ross
rossem
rossum
rostov
rot
rotaasje
roth
rotonde
rots
rotsen
rotsige
rotstergaast
rotsterhaule
rottefalle
rottekop
rotten
rotterdam
rotterdamske
rottige
rottum
rou
rouboerd
roubuorden
rouen
rouge
round
rousseau
route
rouwe
rover
rovers
row
rowling
roxie
roxy
roy
royal
royale
royall
royce
roze
rp
rq
rr
rs
rt
rtl
rtv
ru
ruanda
rubber
ruben
rubens
rubryk
ruby
ruch
ruchwei
rudi
rudolf
rudolph
rudy
rudyard
rue
rufus
rug
rugby
rugbyspiler
ruge
rugjen
ruhrgebiet
ruil
ruile
ruilferkaveling
ruiljen
ruine
ruinen
ruines
ruiten
ruiter
ruiz
rules
rum
run
runbogefinsters
runde
rune
runen
runlieding
running
runom
runt
runte
runten
runtsje
runwei
rup
rupen
rupert
rus
rusd
rusde
rush
ruslan
russell
russen
russia
russian
russische
russysk
russyske
rust
rut
rute
ruten
ruter
ruters
ruterskertier
rutes
rutger
rutgers
ruth
rutherford
rutte
ruud
ruurd
ruys
ruyter
ruzing
ruzje
rv
rw
rx
ry
ryan
ryd
rydbaan
rydbanen
ryddjip
ryder
rydt
ryk
rykdom
rykdommen
ryklik
ryks
ryksakademy
ryksdei
rykskanselier
ryksmonumint
ryksmonuminten
ryksmonuminteregister
ryksmuseum
rykspresidint
rykssted
ryksstrjitwei
rykste
rykstsjinst
ryksuniversiteit
rykswei
rykswettersteat
rym
ryn
rynlan
ryp
rypma
ryptsjerk
rys
rz
s
s0
s1
s2
s3
s4
s5
s6
s7
s8
s9
sa
saad
saai
saailan
saak
saakje
saakkundige
saakkundigen
saaklik
saaklike
saale
saandam
saarlan
saartje
saba
sabah
sabeare
sabel
sabin
sabotaazje
sabotearjen
sacajawea
sachalin
sacharja
sachs
sacoridia
sacramento
sacred
sadanich
sadat
saddam
sadree
sadwaande
safier
safolle
saga
sage
sahara
said
sailing
saint
sainte
saints
saipan
sake
sakeman
saken
sakepartner
sakje
sakjen
sakke
sakket
sakramint
sakristy
saksen
saksofoan
saksysk
saksyske
sal
salaam
salamis
salang
salaris
sale
salem
salieri
salisbury
salisjaanske
salisjanen
sally
salm
salmond
salomo
salomon
salomonseilannen
salon
saloon
salt
salte
saltkamp
saltzman
salvador
salvation
salverda
salyske
salzburg
sam
samantha
samar
samara
sambia
samen
samle
samler
samling
sammelders
sammele
sammelet
sammelje
sammeljen
sammelnamme
samoa
samoerai
sampa
samson
samtgemeinde
samuel
san
sanatoarium
sanbank
sanchez
sancho
sancti
sand
sande
sander
sanders
sandor
sandra
sands
sandy
saneamd
saneamde
sanfrecce
sang
sanga
sangrun
sangrunen
sanhuzen
sanjierrige
sankt
sanne
sanplaat
sanrech
sans
sansibar
sanskryt
sanstien
sanstiennen
sant
santa
santee
santema
santiago
santich
santiger
santjin
santjinde
santo
santos
santy
sanwalden
sanya
sao
sapfo
sappemeer
sapporo
sara
sarah
sarajevo
sarantium
sarasenen
sarc
sardynje
sargon
sark
sarken
sarkofaach
sarsy
saruman
sasear
sasha
saskatchewan
saskia
sasquatch
sassaniden
satan
sate
satellite
satelliten
satellyt
saterland
satire
satiryske
sato
saturday
saturn
saturnus
satyrium
saud
saudy
saudyske
saul
sault
sauron
savage
savannah
savanne
save
sawat
sawol
sawyer
sax
say
sb
sbs
sc
scaramanga
scarlet
scene
schaaf
schaap
schaduw
schaumburg
scheemda
scheepstra
scheffer
schelte
scheltema
scheltes
scheltinga
schelto
schenk
scherpenzeel
scheveningen
schiedam
schilder
schiller
schimmelpenninck
schippers
schleswig
schloss
schmidt
schneider
schnitger
schokker
scholten
schone
school
schoonhoven
schoonoord
schotanus
schouten
schreiber
schrijver
schubert
schuil
schulte
schumacher
schurer
schurman
schuster
schuur
schuurman
schwartz
schwartzenberg
schwarzenegger
schweitzer
schwerin
science
sciences
scientific
sciuridae
sciuromorpha
sciurus
scn
sco
scone
score
scorpion
scotland
scots
scott
scottish
scottsdale
scouting
scream
screen
scripts
sd
sdap
se
sea
seach
seagen
seal
sealdak
sealen
sealfollybal
sealtek
sealtektoer
sealter
sealterfrysk
sealterfryske
sealterlan
sealtersk
sealtsjerke
sean
sear
search
searje
searjemoardner
searjes
season
seattle
sebastiaan
sebastian
sechde
sechsde
sechstich
sechstiger
sechstjin
sechstjinde
sechtich
sechtiger
sechtjin
sechtjinde
second
secret
secrets
section
security
sed
sedge
see
seeboaiem
seediken
seedyk
seeen
seefarder
seefeart
seefugels
seegebiet
seehaven
seeheld
seehunen
seeklimaat
seelan
seelannen
seelju
seelter
seeman
seenivo
seerolen
seerover
seerovers
seeslach
seespegel
seestrjitte
seewetter
seft
sefte
sege
segel
segen
segge
sei
seid
seijen
seil
seilen
sein
seine
seinen
seis
seisbierrum
seisde
seist
seit
seizoen
seizoenen
sek
seker
sekere
sekonde
sekonden
sekretaresse
sekretaris
seks
seksboartersguod
sekse
seksje
seksjes
sekssene
sekssymboal
seksualiteit
seksueel
seksuele
seksy
sekte
sektoaren
sektor
sekuer
sekuerdere
sekuere
sekularisaasje
sekuliere
sekundere
sel
selde
selden
seldsum
seldsume
selebes
selected
seleksje
selektearre
seleusidyske
self
selleck
sellen
sello
selma
selo
sels
selsbehearsking
selsbestjoer
selsfertrouwen
selskip
selskippen
selskipslju
selsmoard
selsportret
selsstannich
selsstannichheid
selsstannige
selsstannigens
selsswichting
sembla
seminaarje
semitysk
semityske
semy
senaat
senario
senarioskriuwer
senarioskriuwers
senarioskriuwster
senator
senators
sene
senegal
seneka
senes
senioaren
senior
sensations
sense
sensuer
seoel
seoul
sept
september
septimber
septimius
septuaginta
seremoanje
seremoanjes
seremonieel
seremoniele
sergej
sergio
sergius
series
serieus
serieuze
serra
sersjant
servearster
serven
service
services
servje
servokroatysk
servysk
servyske
set
seth
sette
setten
setting
seus
sevearus
seven
sevenwaters
severus
sevilla
seward
sex
seymore
seymour
seysjellen
sf
sfear
sg
sh
shadow
shadows
shakespeare
shakespeariaanske
shane
shanghai
shannon
shards
sharif
sharing
sharon
shatner
shatterhand
shaw
shawn
she
shea
sheffield
sheila
shejidan
shell
shelley
shelton
shepherd
sheridan
sheriff
sherlock
sherman
shi
shift
shimizu
ship
ships
shirley
shirt
shooting
shop
shore
short
shorttrack
shot
shots
show
shows
shuttle
si
sibbe
sibben
sibearje
sibearyske
sibet
sibrandabuorren
sibrandahus
sibskip
sicario
sicco
sicherheitsdienst
sicht
sichtber
sichtbere
sicke
sid
side
siden
sideplak
siderute
sidhe
sidious
sidney
sie
siebe
sied
sieden
siegfried
siel
sielen
sien
siena
sienna
sieraad
sieraden
sieriksee
sierksma
sierra
siet
sieten
sietse
sietske
sietze
sifer
sifers
siffredi
sigaretten
sigerswald
sigeuners
sigge
sight
sigismund
sigmund
siik
siikbed
sij
sijens
sijtsma
sike
sikehus
sikehuzen
siken
siket
sikhisme
sikke
sikkema
sikkes
siktaris
sil
silas
sile
sileenske
sileezje
silen
silence
silent
silger
silinder
sille
sillen
sillich
silva
silver
silverstone
sily
simbabwe
simens
simeon
simke
simmearjers
simmer
simmerdeis
simmerfakansje
simmerhof
simmerkampanje
simmermoannen
simmers
simmerspullen
simmertiid
simmertime
simmons
simon
simone
simons
simpel
simpele
simpelwei
simple
simpson
simson
sin
sina
sinai
sinatra
sinclair
sindeling
sindelingen
sineesk
sineeske
sinema
sines
sinezen
sing
singapoer
singapore
singel
singels
singer
singh
singin
single
singles
sings
sinjaal
sink
sinken
sinkiang
sinkt
sinleas
sinne
sinnegod
sinnekear
sinneljocht
sinnen
sinneskyn
sinnestelsel
sins
sint
sinteklaas
sinten
sinterklaas
sintimeter
sintra
sintraal
sintrale
sintrum
sion
sioux
sipel
sipels
sipiers
sipke
sipma
sir
sira
sirillysk
sirka
sirkel
sirksena
sirkus
sirkwy
sirta
sis
sisero
sisilysk
siskel
sisseton
sister
sisters
sisylje
sit
sita
sitaat
sitadel
sitaten
site
sitewaasje
sitewaasjes
sitewearre
sitfollybal
sith
sitplakken
sitte
sitten
sittend
sittende
sitting
situaasje
situaasjes
siuwsk
siuwske
sive
sivile
six
sixma
sizze
sizzen
sizzenskip
sj
sjah
sjajinne
sjajinnen
sjajinsk
sjajinske
sjakie
sjamaan
sjamanen
sjampanje
sjanghai
sjany
sjauffeur
sjauken
sje
sjef
sjeik
sjen
sjeneve
sjenre
sjenres
sjeny
sjeroky
sjerp
sjetlaneilannen
sjiityske
sjina
sjippe
sjirk
sjirurch
sjit
sjitpartij
sjitsport
sjitte
sjitten
sjoch
sjochsifers
sjocht
sjoen
sjoerd
sjoerds
sjoernaal
sjoernalist
sjoernaliste
sjoernalisten
sjoernalistike
sjoernalistyk
sjogge
sjogger
sjoggers
sjong
sjonge
sjongen
sjonger
sjongeres
sjongers
sjongfestival
sjongfugels
sjongster
sjongt
sjosjoanen
sjouke
sjoukje
sjuck
sjuery
sjuerylid
sjuerypriis
sjukelan
sk
ska
skaad
skaai
skaaien
skaaimerk
skaaimerke
skaaimerken
skaal
skaalfergrutting
skaat
skacht
skaffen
skafte
skagen
skaken
skaker
skala
skamstreek
skamte
skandaal
skande
skanderbeg
skandinaavje
skandinavysk
skandinavyske
skans
skansearre
skansen
skansspringen
skarl
skarsterbrege
skarsterlan
skat
skate
skatten
skatting
skattings
skea
skeafergoeding
skeakel
skeakeljen
skealik
skealike
skean
skeane
skearnegoutum
skeat
skeaten
skedel
skeel
skeind
skeinde
skelde
skele
skelen
skelet
skelnamme
skema
skepen
skeppe
skeppen
skepper
skepping
skept
skerm
skermen
skermjen
skermutseling
skermutselings
skerp
skerpe
skerpenseel
skerpskutter
skerpteken
sketsen
sketten
skettens
skeveningen
skied
skiedam
skiede
skieden
skieding
skiedkundige
skiedkundigen
skiednis
skiedskriuwer
skiedskriuwing
skiedsrjochter
skiedt
skiekunde
skiekundige
skien
skiene
skientme
skiep
skier
skiere
skiereilan
skieringer
skieringers
skiermuntseach
skiermuntseagersk
skierstins
skift
skiften
skiif
skikking
skilder
skildere
skildereftige
skilderesse
skilderij
skilderijen
skilderingen
skilderje
skilderjen
skilderkeunst
skilders
skille
skillet
skimmel
skimmels
skin
skine
skingen
skinken
skinking
skinkt
skip
skipbrek
skipfeart
skipfeartmuseum
skiphol
skipio
skippen
skipper
skippers
skipsbou
skipsbouwer
skipsleat
skipswerf
skisma
skjin
skjinne
skoalbern
skoalgebou
skoalhaad
skoaljier
skoaljuffer
skoalle
skoallemienskip
skoallen
skoalmaster
skoalstrjitte
skoaltiid
skoan
skoandochter
skoanheit
skoansoan
skoarde
skoare
skoarstien
skoatterlan
skoatterlanske
skoatterlanskewei
skoattersyl
skode
skoep
skoft
skofthichte
skoftke
skoftlang
skoftsje
skok
skoklan
skokt
skonk
skonken
skood
skorpioen
skot
skotlan
skotsk
skotske
skotten
skou
skouboarch
skouder
skouders
skout
skouwen
skowe
skowen
skrans
skrast
skreau
skreaun
skreaune
skries
skrift
skriftekennisse
skriften
skriftlik
skriftlike
skrik
skrikbewald
skrikkeljier
skriklike
skriller
skrillerfilm
skrillers
skripsje
skript
skriuw
skriuwe
skriuwen
skriuwer
skriuwerij
skriuwers
skriuwmasine
skriuwster
skriuwstyl
skriuwt
skriuwtaal
skriuwwize
skriuwwurk
skroar
skrok
skryn
sks
skul
skuld
skulden
skuldgefoelens
skuldich
skule
skulnamme
skulnammen
skulplak
skulptuer
skulptueren
skultsjerke
skuon
skuonmakker
skuor
skuord
skuorde
skuorre
skuorregea
skuorren
skuorring
skuort
skutsje
skutsjes
skutsjesilen
skutslus
skutterij
sky
skye
skyen
skyfall
skyl
skyld
skylddak
skylden
skylge
skylger
skylgersk
skyn
skynber
skynet
skynt
skyrinnen
skyscraper
skywalker
sl
slaaf
slaan
slaande
slaanderij
slach
slachfjild
slachskip
slachskippen
slacht
slachte
slachtedyk
slachter
slachting
slachtoffer
slachtoffers
slachwurk
slagge
slaggen
slagget
slagje
slagjen
slakken
slam
slane
slang
slange
slangen
slauerhoff
slave
slavehannel
slaven
slavernij
slavinne
slavysk
slavyske
slayer
sleat
sleaten
sleattemer
sleatten
slechte
sleen
sleep
sleept
sleepte
sleeswyk
slein
slepen
slepende
sletten
slide
sliep
sliepe
sliepen
sliepende
sliepkeamer
sliepmuzen
sliept
slim
slimme
slimmer
slimste
slinger
slinke
sljocht
sljochte
sljochtsinnich
sljochtsinnige
sljochtsinnigens
sljochtwei
sloane
slochteren
sloech
sloegen
sloop
sloopt
sloot
slooten
slot
slotter
sloveenje
sloveensk
slow
slowaaksk
slowakije
sluchslimme
sluet
sluis
slupmoardner
slupmoardnersgilde
slus
slut
slute
sluten
sluting
sluzen
sm
smaak
small
smaug
smeding
smei
smeket
smel
smelle
smeller
smellingerlan
smid
smiet
smieten
smilde
smile
sminia
smink
smit
smite
smiten
smith
smithsonian
smjunt
smjunten
smoarch
smoard
smoarfereale
smoarge
smoargens
smoke
smoken
smokey
smokkeljen
smolensk
sms
smyrna
smyt
sn
snaar
snaffel
snake
snaren
sneed
sneek
sneeker
snein
sneinen
sneins
snelheid
snelwei
sneon
sneons
sneup
sneuvele
sneuvelen
sneuvelet
sneuveljen
snie
sniefal
snien
sniestoarm
sniewytsje
snije
snijen
snijt
snip
snipes
snits
snitser
snitswike
snoade
snobbersguod
snoqualmie
snow
snowboarden
snp
snuorje
snut
so
soad
soal
soan
soannen
soantsje
soapsearje
soarch
soarchfaldich
soarge
soargen
soarget
soargje
soargjen
soart
soarte
soartemint
soarten
soartgelikens
soartgelikense
soartgenoaten
sober
sobibor
socht
sochten
social
societe
society
sodom
soe
soeaven
soed
soene
soenen
soennityske
soer
soere
soerstof
soest
soestdyk
soesterberg
soeverein
soevereine
soevereiniteit
sofia
sofie
sofokles
soft
software
soissons
sok
sokke
sokkel
sokken
sokrates
soks
soksoarte
sokssawat
sol
solace
soldaat
soldaten
soldier
soldiers
sole
soli
solidariteit
soliter
solms
solo
solomon
som
somaalje
somalyske
sombys
some
somerset
something
somme
sommige
sompe
sompen
sompich
sompige
soms
somtiden
somtiids
son
sona
sonde
sondel
sone
sones
song
songen
songs
songwriter
sonja
sonk
sonken
sonnet
sonnetten
sonneveld
sonny
sons
sont
sony
soo
soology
soolooch
sop
sophia
sophie
sopraan
sorbo
sorcha
soroastrisme
sosjaal
sosjale
sosjalisme
sosjalist
sosjalisten
sosjalistysk
sosjalistyske
sosjology
sosjolooch
souder
soul
souls
sound
soundtrack
soundtrackalbum
source
sous
south
southampton
southern
sovjet
sovjetrepublyk
sovjets
sowjet
sowjets
sowjetuny
sp
spa
spaansk
spaanske
spaansktalige
space
spakenburch
span
spand
spande
spangea
spanje
spanjert
spanjerts
spannenburch
spannend
spannende
spanning
spanninga
spannings
spannum
spanwiidte
sparjen
sparre
sparrow
sparta
spd
spear
spearen
special
species
spectre
spectrum
speech
speed
speerstra
spegel
spek
spektakulere
spektrum
spekulearre
spel
spencer
spenser
sperma
spesifike
spesifyk
spesjaal
spesjale
spesjalisaasje
spesjalisearre
spesjalist
spesjaliteit
speyer
spider
spiegel
spielberg
spiennen
spier
spieren
spiers
spies
spijkers
spiker
spikers
spikerskrift
spile
spilen
spiler
spilers
spilet
spin
spinnen
spinoza
spion
spionaazje
spionnen
spirit
spiritualiteit
spirituele
spitigernoch
spits
spitsbergen
spitsen
spjalt
spjalte
spjalten
split
splitsing
splitst
spoar
spoarbrege
spoaren
spoarferbining
spoarline
spoarlinen
spoarstasjon
spoart
spoarwegen
spoarwei
spock
spoelstra
spokane
spongebob
spontaan
spooner
spoor
sporadysk
sport
sportbestjoerder
sporten
sporter
sporters
sportferiening
sportferslachjouwer
sportfjilden
sporthal
sportkompleks
sportman
sportpark
sports
sportsjoernalist
sportskoalle
sportsokken
spot
spraak
spraakgebruk
sprache
sprake
sprekke
sprekken
sprekkende
sprekker
sprekkers
sprekkerstal
sprekt
sprektaal
sprekwurden
spreuken
spriek
sprieken
spring
springe
springen
springer
springfield
springs
springt
sprint
sprong
sprongen
spruts
sprutsen
spuk
spuken
spul
spullen
spultsje
spultsjes
spy
spyldoer
spylfilm
spylfilms
spylje
spyljen
spyt
sq
squad
squadron
square
squaw
sr
sry
ss
ssp
st
staach
staak
staal
staasje
staat
staazje
stabile
stabiliteit
stabyl
stacked
stacy
stad
stade
stadia
stadich
stadichoan
stadige
stadiger
stadion
stadium
stadt
stage
staking
stakings
stal
stalde
stale
stalen
stalin
stalingrad
stallen
stallone
stam
stambeam
stamboek
stamhartochdom
stamheit
stamje
stamme
stammen
stammeried
stammet
stamt
stan
stanbyld
stanbylden
stand
standard
standerdisearre
standert
standertfrysk
standertnederlansk
standerttaal
standertwurk
standing
stanford
stanisław
stanley
stannen
stanpunt
stanpunten
stanrjochtlik
stanton
stap
stapel
staphorst
stappe
stappen
stapt
stapte
stapten
star
starkenborghkanaal
starr
stars
start
starte
starten
starum
stasjon
stasjonearre
stasjons
stasjonsgebou
stasjonswei
state
staten
states
station
statistiken
statistyk
statistyske
status
stavere
stavering
staveringshifker
ste
steam
stean
steand
steande
steane
steapel
steat
steatebun
steatelid
steaten
steatkundige
steatsbefolking
steatsboarger
steatsboargers
steatsboargerskip
steatsboskbehear
steatsferban
steatsgreep
steatshaad
steatshaadsted
steatske
steatskongres
steatsman
steatsnivo
steatspark
steatsprodukt
steatsregear
steatssekretaris
steatssenaat
steatstsjerke
steatsuniversiteit
sted
stede
stedekloft
steden
stedhus
steds
stedsbestjoer
stedsbran
stedsdiel
stedsdielen
stedsgebiet
stedsgesichten
stedsgreft
stedsje
stedsk
stedskanaal
stedske
stedsmuorre
stedsmuorren
stedspark
stedsregio
stedsrjochten
stedssintrum
stedsskouboarch
stedsteat
stedsteaten
stee
steech
steed
steedhalder
steedhalderlik
steedhalders
steedlik
steek
steel
steele
steen
steenbergen
steenmeijer
steenwijk
stef
stefan
stefano
stefanus
stefanustsjerke
steffen
stefsjef
stege
stegeret
steggerda
steile
stein
steinbeck
steiner
stek
stekke
stekken
stekt
stel
steld
stelde
stelden
stella
stelle
stellen
stellenbosch
stelling
stellingen
stellingmole
stellingmune
stellings
stellingwerf
stellingwerfsk
stellingwerfske
stellingwerven
stelsel
stelsels
stelt
stem
step
stephanie
stephen
steppe
steppen
steps
ster
sterk
sterke
sterker
sterkere
sterkjen
sterkste
sterkte
sterling
stern
sterna
steun
steunbearen
steurde
steve
steven
stevens
stevenson
stevich
stevige
stewart
sticht
stichte
stichter
stichting
stick
stie
stied
stieglitz
stiek
stieken
stiel
stielen
stien
stiene
stienen
stienfabryk
stienhus
stienkoal
stienmurd
stiennen
stiens
stiente
stientiid
stienwikerlan
stienwyk
stiermarken
stiet
stifler
stift
stifte
stiften
stifter
stifters
stiftet
stifting
stiftsje
stiftsjen
stiif
stiiffest
stijl
stik
stikel
stikelbaarch
stikels
stikje
stikjes
stikken
stikkene
stikmannich
stiks
stikstof
stil
stilearre
stilen
stilicho
still
stille
stillein
stiller
stillibbens
stilstan
stilte
stim
stimakteur
stimaktrise
stimbusfraude
stimd
stimde
stimden
stimhawwende
stimkohier
stimleaze
stimlud
stimme
stimmen
stimming
stimpel
stimrjocht
stimt
stimulaasje
stimulearjen
stimulearre
stins
stinswier
stinzen
stipe
stipen
stipet
stirling
stive
stjer
stjerbed
stjergefallen
stjerre
stjerrebyld
stjerrefloat
stjerrekunde
stjerren
stjerrende
stjerrestelsel
stjert
stjit
stjitte
stjitten
stjoer
stjoerd
stjoerde
stjoerden
stjoerder
stjoerders
stjoere
stjoeren
stjoerman
stjoert
stoar
stoaren
stoarm
stoarmen
stoarmfloed
stoarmfloeden
stoarmtroepers
stoarn
stoart
stoarte
stoarten
stoartte
stockholm
stoel
stof
stoffen
stoflik
stoflike
stok
stoke
stoker
stokholm
stokje
stokken
stom
stomme
stomp
stompum
stone
stonehenge
stones
stoney
stony
stoom
stoommasine
stop
stopje
stopjen
stoppe
stoppet
stopplak
stopset
store
stories
stork
storm
story
stoute
stowe
stq
straasburch
straf
strafber
strafekspedysje
straffen
strafrjocht
strak
strakke
stran
strand
strane
stranfollybal
strang
strange
stranger
stranljip
strannen
stranwachten
strategy
strategysk
strategyske
stratford
strathbogie
strauss
straße
stream
streamde
streame
streamen
streamend
streamgebiet
streaming
streamingen
streamings
streamingtsjinst
streamke
streamof
streamop
streamt
streek
streekdoarp
streekje
streekrjocht
streekrjochte
streektaal
streektalen
streep
street
streets
streken
strekt
stress
strewelleguod
strewellen
stribbe
stribbet
stribjen
stride
striden
stridende
strider
strideraasje
strideraasjes
striderij
striders
strie
stried
strieling
strieljager
striemin
striid
striidkreften
strijd
strike
strikel
strikes
strikt
string
stringen
strip
stripe
stripen
stripferhaal
stripferhalen
stripklub
stripklubs
stripper
striprige
strips
stripsearje
striptekener
strjitnamme
strjitnammen
strjitte
strjitten
strjitwei
strobos
stroe
strokes
strong
strook
stroom
struiksma
struk
struken
struktuer
struktueren
strupe
strupt
strupte
stuart
studearje
studearjen
studearre
studie
studien
studies
studint
studinte
studinteferiening
studinteferienings
studinten
studintetiid
studio
studios
study
studzje
studzjebeurs
studzjes
studzjetiid
stuit
stuiveling
stukwurk
stunt
stuntman
stunts
stuollen
stuorren
sturgeon
sturgis
sturt
sturtlingte
stuten
stuts
stutsen
stuttgart
stuyvesant
styfheit
styfmem
styfsoan
stykjen
styl
style
stynsgea
stypje
stypjen
su
suaanske
sub
subgroep
subgroepen
subkontinint
subsjenre
substamme
substammen
substansje
substraat
subsydzje
subsydzjes
subtile
subtraktive
subtropysk
subtropyske
such
suchdier
suchdieren
sud
sudaan
sudafrikaansk
sudafrikaanske
sudan
sudbroek
sudden
sudeast
sudeasten
sudeastkant
sudeastlik
sudeastlike
sudein
suden
suder
sudersee
sudgrins
sudhorn
sudkant
sudkoreaanske
sudkust
sudlaren
sudlik
sudlike
sudliken
sudliker
sudlikste
sudpoal
sudpunt
sudsee
sudside
sudwest
sudwesten
sudwestgermaanske
sudwesthoeke
sudwestkust
sudwestlik
sudwestlike
sue
sueven
suezkanaal
suffolk
sugar
sugd
suggerearre
suggerearret
suicide
suite
suker
sukerei
sukerreid
sukses
suksesfol
suksesfolle
suksesfolste
suksesjeoarloch
suksessen
sulla
sullivan
sully
sultan
sultanaat
sulu
sulver
sulveren
sulverne
sulversmid
sulverstikken
sumar
sumatra
sumearje
sumearysk
sumearyske
summer
summers
summit
sumpf
sun
sundance
sunday
sunde
sunden
sunder
sune
sunens
sunenssoarch
sunensswierrichheden
sunny
sunset
sunshine
sunt
sunttiid
sunttiids
supe
super
superheld
superheldefilm
superieur
superieuren
superior
supermerk
supermerken
supersmjunt
sur
surch
surhusterfean
surhuzum
surinaamsk
surinaamske
suriname
suringar
surp
surrey
survivor
sus
susan
susanna
suske
susseks
suster
susters
sutfen
sutherland
sutter
sutton
suvel
suvelfabryk
suver
suvere
suvering
suwald
suzanne
suzdal
suze
sv
sven
sw
swaben
swahily
swak
swakke
swalkers
swan
swang
swanneblom
swannen
swarde
swart
swarte
swarten
swartfuotten
sweager
sweden
sweedsk
sweedske
sweet
sweins
swette
swichum
swiebertje
swier
swierbewapene
swierder
swierdere
swiere
swierferwune
swierrichheden
swierste
swiertekreft
swiertepunt
swierwaar
swierwezen
swiet
swiete
swift
swimbad
swimme
swimmen
swimmer
swimmers
swimster
swimt
swin
swinderen
swing
swipe
switserlan
switsersk
switserske
swol
sword
swurd
swurden
sx
sy
syaan
syb
sybe
sybesma
sybrand
sybren
syd
sydkant
sydkanten
sydkapellen
sydlings
sydney
sydrivier
sydrivieren
syds
sydskip
sydskippen
syffaks
syk
sykhelje
sykheljen
sykje
sykjen
syklus
sykte
sykten
syktes
syktocht
syl
sylboat
syld
sylde
sylroede
sylskip
sylskippen
sylt
sylvester
sylvia
symboal
symboalen
symboalysk
symboalyske
symbolisearje
symbolisearret
symbolyk
symfony
sympatike
sympaty
sympatyen
symphony
symptomen
syn
synagoge
syndroom
synoade
synonimen
synonym
syprus
syrakuse
syrenaika
syrillus
syrje
syrus
syrysk
syryske
sysels
systeem
system
systematysk
systematyske
systemen
systems
sytse
sytstra
sytzama
sytze
sz
t
t0
t1
t2
t3
t4
t5
t6
t7
t8
t9
ta
taak
taal
taalaktivist
taaleigen
taalfamylje
taalfamyljes
taalfarianten
taalfoarm
taalfoarmen
taalgebiet
taalgebruk
taalgroep
taalkloft
taalkunde
taalkundich
taalkundige
taalkundigen
taaluny
tabak
tabe
tabel
tabetroud
tabini
taboe
tabrocht
tachtich
tachtichjierrige
tachtiger
tachtigers
taco
tacoma
tad
tadema
tadwaan
tadzjikistan
taeke
tael
tafal
tafallich
tafel
tafels
tafeltennis
tafersjoch
taflecht
tafoege
tafoeging
tafoegings
tafoegje
tafoegjen
tagelyk
tagong
tagongspoarte
tagonklik
tagonklike
tahalde
tahaldt
taheakke
taheakken
tahold
taholden
tai
tailan
taipei
taisk
taiske
taiwan
tajaan
tajout
tak
take
taken
takend
takes
takke
takomst
takomstige
takson
taksonomy
taksonomyske
taksy
taktyk
taktyske
tal
talbot
tale
talei
talein
taleit
talen
talent
tales
taliban
talint
talintearre
talintejacht
talinten
talitten
talizze
talk
tall
talleaze
tallen
talma
talmoed
talrike
talsma
tam
tamar
tamara
tamboer
tamminga
tampa
tan
tanaam
taname
tanana
tang
tanganjika
tango
tanimmen
tanimmende
tank
tankber
tankberens
tanket
tankjen
tanks
tanksij
tankwein
tanner
tano
tanommen
tante
tanya
tanzania
tanzaniaanske
taoisme
taparte
tapassen
tapassing
tapassings
tapast
tapaste
tara
tarantino
taret
target
tariede
tarieden
tarieding
tariedings
tarist
tarsus
tarzan
tas
tasein
tasitus
tasjen
taskoger
taskogers
taskreaun
tasmaanje
tasman
taspraak
taspraken
tastan
tastannen
tastean
tastel
tastellen
tastien
tastiene
tastimming
tataren
tate
tatiseigi
tatjana
tatoeaazje
tatoeaazjes
tatooine
tau
taunus
tawiisd
tawijd
tawizing
tawurd
tay
taylor
tb
tbc
tc
td
te
tea
teach
teagen
teake
team
teams
tean
teannen
tearns
tears
teater
teatergroep
teaters
tebe
tebek
tebekset
tebinnen
tebinnenbringe
tech
technicolor
techniken
technology
technologyske
technyk
technysk
technyske
ted
teddy
tee
teems
teen
teenage
teenager
teffens
tefoaren
tefoarren
tefolle
tefreden
tegearre
tegels
tegen
tegenwoordige
teheistere
teheran
tehus
teil
tein
tek
teken
tekene
tekenen
tekener
tekenfilm
tekenfilms
tekenfilmsearje
tekenfilmsearjes
tekening
tekeningen
tekenings
tekenje
tekenjen
tekenlearaar
tekens
tekken
tekoart
teksaanske
teksanen
teksas
teksel
tekselsk
tekst
teksten
tekstskriuwer
tekstyl
tekstylyndustry
tel
telane
telch
teld
telde
telefyzje
telefyzjefilm
telefyzjepresintator
telefyzjeprogramma
telefyzjerige
telefyzjesearje
telegraaf
telegraph
telemark
teleskoop
television
teljier
tell
telle
tellegen
tellen
tellende
telling
teloarsteld
teloarstellend
teloarstelling
telt
teltsje
teltsjes
telwurd
tema
temear
teminsten
temjitte
tempera
temperatuer
temperatueren
temple
tempo
temps
temuk
ten
tenach
tenei
tennessee
tennis
tennisser
tennyson
tentakels
tentoansteld
tentoanstelling
tentoanstellings
tenu
teodoarik
teodoasius
teodosius
teologen
teology
teologysk
teologyske
teolooch
teoretyske
teory
teoryen
teplak
ter
tera
terbant
teresa
terherne
terjochte
terjochtsteld
terjochtstelling
terkaple
terlouw
term
termen
terminator
terminen
terms
termyn
ternaard
terp
terpdoarp
terpen
terpstra
terra
terre
terrein
terreinen
terreur
territoaria
territoarium
territoriaal
territoriale
terror
terrorisme
terrorist
terroristen
terroristyske
terry
terschelling
tersoal
tertiere
terug
terwispel
tess
tessa
tessalonikers
tessaloniki
tessel
test
testament
testamint
testen
testikels
tetman
teuderik
texas
text
tf
tfr
tg
th
thabor
thai
thames
than
thanksgiving
that
thatcher
the
thea
theater
theatre
thecla
their
them
theo
theoden
theodoor
theodor
theodora
theodore
theodorus
theory
there
theresa
therese
theresia
theresienstadt
these
theun
theunis
they
thialf
thicke
thijs
thijsse
thing
things
think
third
this
thoe
thom
thomas
thompson
thor
thorbecke
thorin
thorn
thorne
thornhill
thousand
three
thriller
thring
through
thuis
thunder
thunderball
thunderbird
thus
thusbasis
thushaven
thuskomt
thuslan
thuswedstriden
thuswrald
ti
tibearius
tiberius
tibet
tibetaansk
tibetaanske
tichelaar
tichelwurk
ticht
tichtbefolke
tichtby
tichte
tichteby
tichter
tichterby
tichthus
tichtmitsele
tichtset
tichtsmiten
tichtst
tiden
tidens
tie
tiel
tien
tiete
tiffany
tigchelaar
tige
tiger
tigers
tigre
tigris
tiid
tiidgenoat
tiidgenoaten
tiidmasine
tiidreizgjen
tiidrek
tiidrekken
tiidrit
tiidsone
tiidstip
tiidwurd
tiidwurden
tiim
tiisdei
tij
tijd
tijden
tijdschrift
tikitik
til
tilburch
tilburg
till
tille
tillefoan
tillefoantsje
tillefyzje
tillefyzjefilm
tillefyzjefilms
tillefyzjenetwurk
tillefyzjeprodusint
tillefyzjeprogramma
tillefyzjerige
tillefyzjes
tillefyzjesearje
tillefyzjesearjes
tillefyzjestjoerder
tillefyzjestjoerders
tillefyzjestudio
tilly
tim
time
times
timmenga
timmer
timmerman
timor
timoteus
timothy
timpaan
timpel
timpeliers
timpels
tin
tina
tinbefolke
tinco
tine
tineke
tiner
tinga
tink
tinkbylden
tinke
tinken
tinker
tinkstien
tinkt
tinkteken
tinne
tint
tinte
tinten
tiny
tinzen
tip
tiran
tirnamardi
tiroal
tirol
titan
titania
titanic
titel
titele
titelmuzyk
titelrol
titels
titelsong
titia
title
tito
titus
tj
tjaard
tjaerda
tjalling
tjeerd
tjerk
tjitte
tjittes
tk
tl
tlingit
tm
tn
to
toalen
toan
toanbank
toand
toande
toane
toanen
toanhichte
toaniel
toanielferiening
toanielgroep
toanielregisseur
toanielselskip
toanielskoalle
toanielskriuwer
toanielskriuwers
toanielstik
toanielstikken
toanielwedstryd
toanoanjaande
toant
tobago
tobias
toby
toch
tocht
tochten
tod
today
todd
toe
toekomst
toen
toendra
toer
toerisme
toeristen
toeristysk
toeristyske
toernee
toernoai
toernoaien
toers
toertocht
toet
toets
toetsen
toetsenist
together
togo
tokio
tokyo
tol
toledo
tolerance
toleransje
tolfde
tolhus
tolk
tolkien
tolman
tolsma
tolstoj
tolve
tom
tomas
tomatoes
tomb
tombe
tombstone
tomke
tomme
tommie
tommy
tomorrow
ton
toneel
tonferwulft
tonga
tonge
tonger
tongersdei
tongue
toni
tonight
tony
too
toole
toon
toonder
toorop
tootoosis
top
topless
topografyske
toponimen
toppen
toppenhuzen
tor
tora
torah
toren
torin
torino
tornado
toro
toronto
torpedo
torpedoboatjager
torpedoboatjagers
torres
torresstrjitte
tosk
toskane
toskedokter
toskeleas
tosken
tot
totaal
total
totale
tou
touch
touchstone
toula
toulouse
tour
tours
toutenburch
touwen
tower
towers
town
townsend
township
toxopeus
toy
tp
tq
tr
traaljes
traasje
track
tracker
tracy
trade
tradisjoneel
tradisjonele
tradysje
tradysjes
tragedy
trageedzje
trageedzjes
tragyske
trail
train
traind
trainen
trainer
training
trajanus
trajekt
traktaat
tram
tramline
tramtearre
tramwei
trans
transept
transfaal
transkripsje
translation
transliteraasje
transliterearre
transport
transportearre
transportfleantuch
transsylvaanje
trap
trappearre
trasee
trauma
trautman
travee
traveeen
travers
traverse
travis
trawalje
treast
treasure
treaun
tred
tredde
trede
treden
tredepart
tree
treedt
treend
treffe
treffen
treflik
treflike
treft
trefwurd
trefwurden
trefwurdstobbe
trein
treinen
treinstasjon
treinstellen
trek
trekfeart
trekfugels
trekker
trekkers
trekpleister
trekwei
trelit
trener
trening
trent
trep
treppen
tres
tresoar
trettjin
trettjinde
trevor
trewant
trewanten
trewantsjes
tri
trial
triatlon
tribale
tribe
tribeca
tribunaal
tribune
trickster
tried
triem
triemmen
triemstra
triennen
trier
trije
trijefaldige
trijehoek
trijehundert
trijejierrige
trijemanskip
trijen
trijeresom
trijeris
trijesidich
trijeskippige
trijetal
trijntje
trilogy
tringa
trinidad
trinity
trinus
trio
triomfboge
trip
triple
tripolitaanje
tripoly
tristan
tritich
tritichjierrige
tritiger
triuwt
troaje
troan
troanopfolger
troch
trochbraak
trochbrekken
trochbringe
trochbringt
trochbrocht
trochbrutsen
trochdat
trochfeart
trochferkocht
trochfierd
trochgean
trochgeande
trochgie
trochgien
trochgiet
trochgong
trochhinne
trochinoar
trochjaan
trochjun
trochkrongen
trochlutsen
trochmakke
trochrint
trochrun
trochset
trochsnee
trochsneed
trochsnien
trochstart
trochstrings
trochtocht
troelstra
troep
troepemacht
troepen
trof
trofee
troffen
trois
trojaanske
trol
trollen
trolls
trom
tromp
trompet
troost
tropen
tropysk
tropyske
tros
trotski
trotwaer
trou
trouble
troud
troude
trouden
trout
trouw
trouwe
trouwen
trouwens
trouwerij
troy
truck
true
trui
trujillo
truman
trumbull
trump
trune
trust
truth
truus
tryater
tryntsje
trynwalden
ts
tsaar
tsaren
tsarina
tsien
tsiende
tsiental
tsientallen
tsientuzen
tsientuzenen
tsiis
tsj
tsjaad
tsjalbert
tsjalk
tsjalling
tsjasker
tsjebbe
tsjechje
tsjechoslowakije
tsjechov
tsjechysk
tsjechyske
tsjen
tsjeppe
tsjerk
tsjerke
tsjerkebanken
tsjerkebuorren
tsjerkefolk
tsjerkegebou
tsjerkegebouwen
tsjerkegenoatskip
tsjerkeherfoarmer
tsjerken
tsjerkepaad
tsjerkeprovinsje
tsjerkerie
tsjerkeried
tsjerkeskip
tsjerkestrjitte
tsjerketaal
tsjerketoer
tsjerketsjinst
tsjerketsjinsten
tsjerkfaar
tsjerkgaast
tsjerkhof
tsjerkje
tsjerklik
tsjerklike
tsjerkwert
tsjerne
tsjettel
tsjibbe
tsjil
tsjillen
tsjin
tsjinhalde
tsjinhinger
tsjinholden
tsjininoar
tsjinje
tsjinjen
tsjinkeard
tsjinkeare
tsjinkeizer
tsjinkomme
tsjinkomt
tsjinne
tsjinnen
tsjinner
tsjinners
tsjinnet
tsjinnichheid
tsjinoan
tsjinoanfal
tsjinoer
tsjinoersteld
tsjinpartij
tsjinspiler
tsjinspilers
tsjinspylster
tsjinst
tsjinstan
tsjinstanner
tsjinstanners
tsjinstelde
tsjinstelling
tsjinstellings
tsjinsten
tsjinstesektor
tsjinstfaam
tsjinstfeint
tsjinstferliening
tsjinstfolk
tsjinstplafond
tsjinstplicht
tsjintsjilla
tsjintwurdich
tsjintwurdige
tsjippewa
tsjocht
tsjoender
tsjoenderij
tsjoenders
tsjoenster
tsjogge
tsjokke
tsjom
tsjonger
tsjuge
tsjugen
tsjugenis
tsjuget
tsjugje
tsjuk
tsjuke
tsjukemar
tsjummearum
tsjuster
tsjustere
tsjut
tsjutte
tsjutten
tsleil
tsunamy
tt
tu
tuberkuloaze
tubingen
tucker
tucson
tudor
tueringen
tuin
tuinen
tuk
tuke
tuken
tulp
tun
tunarsjitekt
tunbou
tuneezje
tunen
tunis
tunkers
tunnel
tunnels
tuorke
tuorrebout
tuorren
turan
turdus
turf
turfwinning
turken
turkije
turkmenistan
turks
turksk
turkske
turn
turnberry
turner
turns
turyn
tusken
tuskenbeiden
tuskenklasse
tuskenkomst
tuskenlizzende
tuskenskift
tuskenskoften
tuskenstop
tuskentiid
tuskentroch
tuskenyn
tusschen
tussen
tut
tutet
tutsje
tutsjen
tuvalu
tuzen
tuzenen
tv
tver
tw
twa
twadde
twadgrutste
twadielige
twaen
twahundert
twain
twang
twangarbeid
twangarbeiders
twaris
twatal
twatalich
twatalige
twatredde
twatrede
twatuzen
twee
tweed
tweede
tweintich
tweintichste
tweintiger
twellingea
twente
twenty
twice
twifel
twifele
twifelich
twifels
twigen
twilight
twilling
twillingbroer
twillingdoarp
twin
twinge
twingen
twingt
twinte
twintsk
twintske
twist
twisten
twitter
twizel
twizelerheide
two
twong
twongen
tx
ty
tydlik
tydlike
tydskrift
tydskriften
tyfoan
tyler
tyne
tynge
tynje
type
typen
types
typysk
typyske
tyrus
tytsjerk
tytsjerksteradiel
tz
u
u0
u1
u2
u3
u4
u5
u6
u7
u8
u9
ua
ub
ubbo
uber
uc
ud
ue
uefa
uerdingen
uf
ufo
ug
uganda
ugly
uh
ui
uit
uitgeverij
uitgevers
uj
uk
ukena
ul
ulbe
ulbo
ule
ulen
ulesprong
ulm
ulo
ulrich
ulrik
ulrum
ulsda
ulster
ultimate
ultimatum
ultrafiolet
ulysses
um
un
una
unanym
unbedoeld
unbekend
unbekende
unbemanne
unbepaald
unbeskaat
unbeskate
unbewenne
unbewust
unbewuste
unbidich
unbidige
unbruk
und
undanks
under
underbefelhawwer
underbegripen
underbou
underbrekking
underbrocht
underbrutsen
underdak
underdiel
underdielen
underdienen
underdrukken
underdrukking
underdrukt
underduke
underdukers
underdukt
underen
underfamylje
underfamyljes
underferdield
underferdieling
underferparte
underfine
underfining
underfinings
underfrege
underfun
underfynt
undergean
undergie
undergien
undergiet
undergong
underground
undergrun
undergrunsk
undergrunske
undergyng
underhald
underhalde
underhalden
underhaldt
underhannele
underhannelings
underhannelje
underhanneljen
underhearrich
underhearrige
underhearrigen
underhold
underholden
underinoar
underkant
underkening
underklasse
underkommen
underling
underlinge
underlizzende
undernaam
undernimmen
undernimmer
undernimmers
undernimming
undernimmings
undernommen
underoan
underofsier
underrin
underrjocht
underrjochte
underseeer
undersiken
undersiker
undersikers
undersiket
underskaai
underskaat
underskate
underskept
underskie
underskied
underskiede
underskieden
underskieding
underskiedings
underskiedt
underskift
undersoarte
undersoarten
undersocht
underste
understeande
understelde
understipe
understypjen
understypjende
undersyk
undersykje
undersykjen
undertekene
undertekeners
undertekening
undertekenje
undertekenjen
undertitel
undertiteling
underweis
underwerp
underwerpen
underwiis
underwilens
underwizer
underwizeres
underwizeresse
underwizers
underwrald
underwurpen
undjip
undjippe
undudlik
une
unema
unesco
unexpected
unfeilich
unferwachte
unferwachts
unferwachtse
unfettered
unfolslein
unfolsleine
unfoltoge
unfrede
ungedierte
ungefear
ungelikense
ungelok
ungelokkich
ungemak
ungemakken
ungenede
ungewoan
ungewoane
unheil
unia
unie
unienichheid
unifoarm
unifoarmen
unike
union
unit
united
universal
universe
universeel
universele
universitat
universiteit
universiteiten
universiteitsbibleteek
universiter
universitere
university
universum
unjildich
unlijige
unmeilydsum
unmeilydsume
unmisber
unmooglik
unmooglike
unnoazele
unoffisjele
unofhinklik
unofhinklike
unofhinklikens
unofhinklikheid
unofhinklikheidsferklearring
unofhinklikheidsoarloch
unofhinklikheidsoarloggen
unorganisearre
unreplik
unrest
unrjocht
unrjochtlik
unsichtber
unskansearre
unskuld
unskuldich
unskuldige
unstie
unstiene
unstjerlike
unstjoer
untbleate
untbrekke
untbrekken
untbrekt
untbriek
untbun
untdekke
untdekken
untdekker
untdekking
untdekkings
untdekkingsreizger
untdekkingsreizgers
untdekt
untdekte
untdiek
untdieken
untdien
untduts
untdutsen
untefreden
unteigene
unter
untfange
untfangen
untfanger
untfangst
untfangt
untfierd
untfiere
untfieren
untfiering
untflechte
untflechtsje
untfolke
untfong
untfongen
untginning
untgun
unthald
unthaldsferlies
unthalze
unthalzing
unthelle
unthiet
unthjit
unthjitte
unthjitten
untjaan
untjoech
untjoegen
untjout
untjouwing
untjouwings
untjun
untkaam
untkomme
untkommen
untkomt
untliend
untliende
untlient
untnadere
untploffing
untploft
untrinnen
untromme
untrou
untsein
untset
untskuldigings
untslach
untslein
untsliepeniskatedraal
untsnappe
untsnappen
untsnapping
untsnapt
untsnapte
untspringt
untstean
untsteane
untstekking
untstie
untstien
untstiene
untstienen
untstiet
untwapene
untwerp
untwerpen
untwerper
untwerpers
untwikkele
untwikkelen
untwikkelet
untwikkeling
untwikkelingen
untwikkelings
untwikkelingslannen
untwikkelje
untwikkeljen
untwurp
untwurpen
unwierskynlik
unwin
unwinske
unwis
uny
unyk
uo
up
upon
upper
uppsala
upstalbeam
uq
ur
uranium
uranus
urawa
urban
urbanus
urdu
urf
uriel
urine
urk
ursula
urven
us
usa
usda
use
uss
usurpator
ut
utah
utanrikisraduneyti
utbarsting
utbetelle
utboud
utbraak
utbrekken
utbret
utbriek
utbringe
utbringen
utbrocht
utbrochte
utbrutsen
utbuorren
utbuorrens
utbylde
utc
utdaging
utdrukking
utdrukkings
utdrukt
utein
uteinen
uteinlik
uteinlike
uteinliks
uteinlings
uteinset
uteinsette
uteinsetten
utelkoar
utens
utere
uteret
utering
uterlik
uterst
uterste
utert
utertse
utertske
utfalsbasis
utfeart
utferkocht
utfier
utfierd
utfierde
utfierden
utfiere
utfieren
utfierend
utfierende
utfiering
utfierings
utfiert
utfiner
utfining
utfinings
utfochten
utfun
utgean
utgeande
utgie
utgien
utgiet
utgong
utgongspunt
utgroeid
utgroeie
utgroeven
uthalde
uthaldt
uthof
uthold
utien
utika
utingeradiel
utinoar
utj
utjaan
utjefte
utjeften
utjoech
utjouwer
utjouwerij
utjouwerijen
utjouwers
utjun
utjune
utkaam
utkamen
utkeazen
utkomme
utkommen
utkomst
utkomsten
utkomt
utlanske
utlein
utleit
utlis
utlizze
utmakke
utmakken
utmakket
utmeitsje
utmoarde
utmunet
utnaaid
utnaaie
utnaait
utnuge
utnuging
utoefene
utoefenje
utopia
utornearre
utrecht
utrikking
utrikkingsseremoanje
utrikt
utrinne
utrinner
utrinners
utrint
utrist
utrop
utroppe
utroppen
utruge
utruging
utrun
utsein
utset
utsetten
utsicht
utsjen
utsjoch
utsjocht
utsjoen
utsjogge
utskeakele
utskreaun
utslach
utslaggen
utsletten
utslutend
utsocht
utspr
utspraak
utspraken
utsprekke
utsprutsen
utstald
utstalling
utstallings
utstek
utstekkende
utstekt
utstel
utsteld
utstellen
utstiket
utstjerren
utstjoerd
utstjoerde
utstjoere
utstjoering
utstjoerings
utstoar
utstoarn
utstoarne
utstrieling
utstrutsen
utstykjende
utsundering
utsunderings
utsunderlik
utsunderlike
uttocht
utwiisd
utwike
utwikseling
utwreide
utwreiding
utwreidings
utwreidingsplan
utwreidzje
utwreidzjen
utwurke
utwurking
uu
uur
uv
uw
ux
uy
uyl
uz
v
v0
v1
v2
v3
v4
v5
v6
v7
v8
v9
va
vaart
vader
vaderland
val
vale
valencia
valentine
valerian
valerie
valerius
valiant
valk
vallejo
valley
valor
valorum
vampire
van
vancouver
vancouvereilan
vandaag
vanellus
vanessa
vara
vardalos
variety
various
varnum
vasco
vasili
vatta
vaughan
vaughn
vb
vc
vca
vd
ve
vec
veel
veen
veenbaas
veendam
veenstra
veer
vega
vegas
vegelin
vegilin
vegter
veld
velde
velodrome
veltman
velvet
velzen
ven
venema
vengeance
ventoux
ventre
ventura
venture
venus
ver
vera
verbandsgemeinde
verbeek
verbeke
verden
verdy
vereeniging
vereniging
vergeten
verhaal
verhalen
verhoeff
verhoeven
verlag
verleden
verloren
vermeer
vermeulen
verne
vernon
verona
veronica
versailles
version
verve
verwey
very
verzamelde
verzen
vestdijk
vf
vg
vh
vhs
vi
via
vic
vichy
vickers
vicki
vicky
victor
victoria
victory
vidal
video
vie
vier
vierssen
vietnam
vieux
view
vii
viie
viii
viiie
vijf
viking
vikings
viktor
vilaine
villa
village
ville
villeneuve
vince
vincent
vinci
vink
vintage
viola
violet
virgil
virgin
virginia
vision
visitor
visscher
vissel
visser
vista
vita
vitringa
vittorio
vitus
vivid
vj
vk
vl
vlaanderen
vlad
vladimir
vlag
vlagtwedde
vledder
vliegende
vliet
vlugt
vm
vmbo
vn
vo
voc
voerman
voetius
vogel
vogels
voice
vol
volendam
volk
volkskrant
volt
volume
vom
von
vondel
vondeling
voodoo
voor
voorbij
voorburg
voorst
voorthuizen
vor
vorkosigan
vorpatril
vos
voyage
voyager
vp
vpro
vq
vr
vrede
vredeman
vriend
vrienden
vries
vrij
vrijberghe
vrije
vrijheid
vroeger
vrouw
vrouwen
vs
vt
vu
vught
vulgaris
vuur
vuursche
vv
vvd
vvv
vw
vwo
vx
vy
vz
w
w0
w1
w2
w3
w4
w5
w6
w7
w8
w9
wa
waach
waachgebou
waacht
waad
waadeilan
waadeilannen
waadhoeke
waadsee
waait
waaks
waakse
waaksen
waaksende
waaksens
waakst
waakste
waal
waalsk
waalske
waanders
waans
waar
waard
waarde
waarden
waarheid
waarm
waarman
waarme
waarmer
waarmere
waarmste
waarmte
waarnimme
waarnimmend
waarnimmer
waarnimmers
waarnimming
waarnimmings
waarnommen
waarom
waarsomstannichheden
wacht
wachte
wachten
wachter
wachtet
wachtsje
wachtsjen
wade
wadman
waffen
wage
wagenaar
wageningen
wagner
wagon
wahpeton
wai
wake
wakker
wal
walachije
walcheren
wald
waldeck
waldemar
walden
waldfeart
waldfrysk
waldrock
waldsein
waldwei
wale
walen
wales
walewein
walfisk
walfisken
walfiskfeart
waling
walk
walker
walking
walkueren
wall
walla
wallace
walle
waller
wallis
walloanje
walsh
walt
walta
walter
walterswald
walther
walton
wan
wand
wanden
wang
wangen
wangereach
wangsekiikhoarntsjes
wanhoop
wanhope
wanhopich
wanhopige
wanlyk
wannear
wanswert
want
wanted
wantrouwen
wapen
wapene
wapens
wapenskyld
wapenstilstan
wapity
wappo
war
warber
warcraft
ward
warders
ware
warehus
waren
warendorf
warffum
warhol
warkum
warkumer
warlock
warner
warns
warren
warrior
warriors
wars
warsjau
warskoge
warskoget
warskoging
warskogings
warskogje
warskogjen
warten
warwick
was
washington
washita
waskemar
wassenaar
wassenbergh
wat
watch
water
watergate
waterloo
waters
watse
watson
watt
watze
wautut
wave
way
wayne
wałesa
wb
wc
wd
we
weach
weachlingte
weage
weagen
weaget
weagje
wearde
weardefol
weardefolle
wearden
weardichheid
wearwolf
wearwolven
weaver
web
weber
webside
websiden
website
webstee
webstek
webster
weda
wedde
weddenskip
wedding
wedstriden
wedstriid
wedstryd
wedstrydriders
wee
weefsel
weeft
week
weekend
weekly
weener
weening
weer
wees
weeshus
weesp
weet
weg
wegen
wegens
wegere
wegeren
wegeret
wegering
wegerje
wegerjen
wehrmacht
wei
weide
weidum
weigel
weihelle
weijden
weilburg
weilitten
weimar
weimarrepublyk
wein
weinen
weir
weird
weirekke
weiss
weiwurden
wekjen
wekker
wel
welch
welcome
welderen
welgelegen
welke
well
welle
welles
wellington
wells
welsk
welske
welt
wen
wend
wendy
wenen
wengebiet
wengebieten
wenhus
wenhuzen
wenje
wenjen
wenjend
wenjende
wenkeamer
wenkearn
wenkearnen
wenne
wennen
wennet
wenning
wenningbou
wenningen
wenplak
wenst
wenstige
went
wente
wenten
wenwiken
wenwyk
wer
werbegroeven
werboud
werby
werd
werden
were
wereld
werf
werfan
werfoar
wergea
werhelle
weriene
weriening
weriepene
werjaan
werjefte
werjout
werjun
werk
werkeazen
werken
werkenber
werkennen
werklik
werklike
werklikheid
werkman
wermei
wernei
werner
weroan
werom
werombrocht
weromdraaid
weromdreaun
weromfine
weromfun
weromgean
weromgiet
weromjaan
weromjefte
weromjun
weromkaam
weromkear
weromkeard
weromkearde
weromkeare
weromkearende
weromkeart
weromkomme
weromkommen
weromkomst
weromkomt
weromloek
weromluke
weromluken
weromluking
weromlutsen
weromreis
weromroppen
weromset
weromstjoerd
weromtocht
weromweis
weromwun
weromwurkjend
weromwurkjende
werop
weropbou
weroprjochte
weropstanning
werovere
werprinte
werprintinge
werprintingen
werpublisearre
wersteld
wertroch
wertroude
werunder
werut
werutjefte
werutjun
weryn
weryndieling
werynrjochting
wes
wesel
weser
wesley
wesseks
west
westdongeradiel
westein
westen
wester
westerbork
westereen
westerein
westergeast
westergoa
westerkertier
westerlauwersk
westerlauwerske
westerlingte
westerman
westermar
western
westernfilm
westernfilms
westernijtsjerk
westerns
westersk
westerske
westerwalde
westerwaldske
westfaalske
westfalen
westfriezen
westfront
westfrysk
westfryske
westgermaanske
westgrins
westhoek
westkant
westkust
westlik
westlike
westliker
westlikste
westminster
westoverledingen
westra
westromeinske
westside
weststellingwerf
westwurk
westyndyske
wet
wetboek
wetenschappen
wethalder
wethalders
wetjaande
wetjouwende
wetjouwing
wetlik
wetlike
wetsens
wetsfoarstel
wetten
wetter
wetterboukundige
wetterfal
wetterfallen
wetterfugels
wettergeuzen
wetterkearing
wetterlieding
wetterliny
wettermune
wetternamme
wetteroerflak
wetteroerlest
wetterpeil
wetterplanten
wetterpoarte
wetterpolo
wetterrin
wetterrot
wetters
wetterskieding
wetterskip
wetterskippen
wettersneed
wettersport
wetterstan
wettersteat
wetterstof
wettertoer
wetterwegen
wetterwei
wettige
weve
weven
wever
wevers
weze
wezeling
wezen
wezens
wezer
wf
wg
wh
what
wheeler
whelan
when
where
which
whip
whiskey
white
whitney
who
whole
why
wi
wiarda
wic
wicca
wichita
wichtich
wichtichst
wichtichste
wichtichsten
wichtige
wichtigens
wichtiger
wichtigste
wicked
widdo
wide
widner
widukind
widze
wie
wiebe
wied
wiegel
wiegersma
wiek
wiel
wielderige
wielen
wielinga
wien
wiene
wienen
wiener
wier
wierd
wierde
wierden
wiere
wieren
wierheid
wieringa
wieringen
wieringermar
wierskyn
wierskynlik
wierskynlike
wierskynliker
wiersma
wierum
wiesbaden
wiesel
wiet
wiete
wife
wiid
wiidferneamde
wiidweidich
wiidweidige
wiif
wiis
wiisbegearte
wiisd
wiisde
wiisden
wiisgear
wiisheid
wiist
wij
wijbenga
wijd
wijde
wije
wijen
wijing
wijk
wijnen
wike
wikel
wiken
wikimedia
wikipedia
wikipedy
wikisource
wikiwurdboek
wiksele
wikselingen
wikselje
wikseljen
wikseljend
wikseljende
wil
wilco
wild
wilde
wilder
wildlife
wilens
wilhelm
wilhelmina
wilhelmshaven
wilhelmus
wilkens
wilkes
will
wille
willekeurige
willem
willems
willemsma
willemsoard
willemsted
william
williams
willibald
willibrord
willie
willink
willis
willy
wilson
wilster
wiltshire
wim
wimbledon
wimerts
wimpel
wimpy
win
winaam
winchester
wind
windows
windsor
winen
winfrey
wing
wings
wink
winkel
winkelman
winkels
winkelsintrum
winkelstrjitte
winkeltsje
winkler
winliken
winne
winnen
winnende
winner
winners
winnetou
winning
winnipeg
winsemius
winsk
winske
winsken
winst
winston
winsum
wint
winter
winterdeis
winterhealjier
winterhof
winters
winterske
wintersliep
winterspullen
wis
wisberet
wisconsin
wish
wiske
wiskonsin
wiskunde
wiskundige
wisse
wissen
wissichheid
wist
wisten
wit
witch
wite
witen
with
within
withoefolle
without
witich
witt
witte
witten
wittenberg
wittenskip
wittenskiplik
wittenskiplike
wittenskippen
wittenskipper
wittenskippers
witteveen
wittmund
witwat
wiuwert
wizansje
wizard
wize
wizen
wizige
wj
wjelsryp
wjergader
wjerljocht
wjerskanten
wjerstan
wjirmgat
wjirms
wjittering
wjuk
wjukken
wjuklingte
wk
wl
wm
wn
wo
woansdei
woarn
woartel
woartels
woastinen
woastyn
woastynklimaat
woe
woed
woeks
woeksen
woene
woenen
woerden
woersten
woeste
wogan
wol
wold
woldiedichheid
wolf
wolfeart
wolff
wolfgang
wolga
wolk
wolkekliuwer
wolkekliuwers
wolken
wolkens
wolkers
wolkom
wolle
wollen
wolris
wolter
wolters
wolvegea
wolven
wolwezen
woman
women
wommels
won
wonder
wonderful
wonderland
wood
woodman
woodrow
woods
woodstock
woody
woord
woorden
woordenboek
wopke
word
worden
words
wordt
work
working
works
workshops
world
worlds
worms
worp
wort
worterbuch
worth
wou
wouda
woude
would
wounded
wout
wouter
wp
wq
wr
wraak
wraam
wrak
wrakseling
wrakselje
wrakseljen
wrald
wraldbefolking
wralddiel
wralddielen
wralden
wralderfgoed
wralderfgoedlist
wralderfskip
wraldferneamd
wraldferneamde
wraldkampioen
wraldkampioenskip
wraldkampioenskippen
wraldkriich
wraldoarloch
wralds
wraldske
wraldsunensorganisaasje
wraldtentoanstelling
wraldwide
wraldwiid
wrath
wrede
wreed
wreide
wreidet
wreidzjen
wright
wringe
wringedieren
writer
writers
writing
wriuwing
wrok
wrotmus
[...]
