!
"
#
##0
##1
##10
##11
##12
##13
##14
##15
##16
##17
##18
##19
##2
##20
##21
##22
##23
##24
##25
##26
##27
##28
##29
##3
##30
##31
##32
##33
##34
##35
##36
##37
##38
##39
##4
##40
##41
##42
##43
##44
##45
##46
##47
##48
##49
##5
##50
##51
##52
##53
##54
##55
##56
##57
##58
##59
##6
##60
##61
##62
##63
##64
##65
##66
##67
##68
##69
##7
##70
##71
##72
##73
##74
##75
##76
##77
##78
##79
##8
##80
##81
##82
##83
##84
##85
##86
##87
##88
##89
##9
##90
##91
##92
##93
##94
##95
##96
##97
##98
##99
$
%
&
'
(
)
*
+
,
-
.
/
0
00
000
0000
0002
001
00437956
006
009
01
010
015
02
03
030
04
045
04574
049
05
051
0520045743
06
060
07
072392
08
080
080086
09
090
1
10
100
1000
10000
1002
1004
1006976
1007
1008
101
1011
1013
1014
1015
1016
1017
1019
102
1020
1021
1022
1023
1029
103
1030
1031
1033
1035
1036
1038
104
1046
1049
105
1050
1053
1054
1055
1056
1058
1059
106
1061
1064
1066
1067
1068
1069
107
1071
1073
1075
1076
108
1080
1086
1089
109
1090
1093
1097
1099
11
110
1100
1108
1109
111
1110
1113
1115
1118
112
1120
1122
1124
1125
1126
1127
1128
113
1130
1134
1135
114
1140
1141
1142
1147
1149
115
1150
1151
1155
1157
116
1160
1162
1163
1164
1165
11659246
1166
117
1170
1173
1176
1177
118
1180
1183
1184
1185
1186
1187
1189
119
1190
1193
1196
1197
1198
1199
12
120
1200
1201
1202
1204
1205
1207
1208
1209
121
1210
1211
1212
1213
1214
1215
1216
1217
1219
122
1220
1221
1222
1224
1225
1226
1228
123
1230
1231
1232
1233
1234
124
1240
1242
1249
125
1250
1251
1252
1253
1254
1255
126
1260
1261
1264
1266
127
1270
1271
1272
1273
1274
1275
1276
1278
1279
128
1280
1282
1283
1287
129
1290
1291
12915
1292
1293
1296
1298
1299
13
130
1300
1303
1305
1307
1308
1309
131
1311
1314
1319
132
1320
1321
1322
1327
1329
133
1330
1331
1337
1338
1339
134
1340
1341
1344
1347
1349
135
1350
1352
1357
1359
136
1360
1361
1363
1366
1368
1369
137
1371
1375
1378
138
1380
1382
1383
1387
139
1390
1392
1393
1399
14
140
1400
1402
1405
1407
1409
141
1411
1414
1415
1417
142
1423
1424
1426
1428
1429
143
1430
1431
1432
1433
1434
1435
1436
1437
1438
1439
144
1440
1441
1445
1446
1447
1449
145
1450
1451
1452
1453
1455
1457
1458
1459
146
1460
1462
1463
1465
1466
147
1470
1473
1474
1475
1476
1478
148
1480
1483
1484
1486
1487
1488
149
1490
1491
1492
1493
1494
1497
1499
15
150
1500
1501
1502
1503
1505
1507
1508
1509
151
1510
1511
1512
1513
1514
1515
1516
1517
1518
152
1520
1521
1522
1524
1525
1526
1527
1528
1529
153
1530
1531
1532
1533
1534
1535
1536
1537
1538
1539
154
1540
1541
1542
1543
1545
1546
1547
1548
154836
1549
155
1550
1551
1552
1553
1555
1556
1557
1558
1559
156
1560
1561
1562
1563
1564
1565
1566
1567
1568
1569
157
1570
1571
1572
1573
1574
1575
1576
1577
1578
158
1580
1581
1582
1584
1585
1586
1587
1588
1589
159
1590
1591
1592
1593
1594
1595
1596
1597
1598
1599
16
160
1600
1601
1602
1603
1604
1605
1606
1607
1608
1609
161
1610
1611
1612
1613
1614
1616
1617
1618
1619
162
1620
1621
1622
1623
1624
1625
1626
1627
1628
1629
163
1630
1632
1633
1634
1635
1636
1637
1638
1639
164
1640
1641
1642
1643
1644
1645
1646
1647
1648
1649
165
1650
1651
1652
1653
165300
1654
1655
1656
1657
1658
1659
166
1660
1661
1662
1663
1664
1665
1666
1667
1668
1669
167
1670
1671
1672
1673
1674
1675
1676
1677
1678
1679
168
1680
1681
1682
1683
1684
1685
1686
1687
1688
1689
169
1690
1691
1692
1694
1698
1699
17
170
1700
1701
1702
1703
1704
1705
1706
1707
1708
1709
171
1710
1711
1712
1713
1714
1715
1716
1717
1718
1719
172
1720
1721
1722
1723
1724
1725
1726
1727
1728
1729
173
1730
1731
1732
1733
1734
1735
1736
1738
1739
174
1740
1741
1742
1743
1744
1745
1746
1747
1748
1749
175
1750
1751
1752
1753
1754
1755
1756
1757
1758
1759
176
1760
1761
1762
1763
1764
1765
1766
1767
1768
1769
177
1770
1771
1772
1773
1774
1775
1776
1777
1778
1779
178
1780
1781
1782
1783
1784
1785
178551
1786
1787
1788
1789
179
1790
1791
1792
1793
1794
1795
1796
1797
1798
1799
18
180
1800
1801
1802
1803
1804
1805
1806
1807
1808
1809
181
1810
1811
1812
1813
1814
1815
1816
1817
1818
1819
182
1820
1821
1822
1823
1824
1825
1826
1827
1828
1829
183
1830
1831
1832
1833
1834
1835
1836
1837
1838
183838
1839
184
1840
1841
1842
1843
1844
1845
1846
1847
1848
1849
185
1850
1851
1852
1853
1854
1855
1856
1857
1858
1859
186
1860
1861
1862
1863
1864
1865
1866
1867
1868
1869
187
1870
1871
1872
1873
1874
1875
1876
1877
1878
1879
188
1880
1881
1882
1883
1884
1885
1886
1887
1888
1889
189
1890
1891
1892
1893
1894
1895
1896
1897
1898
1899
19
190
1900
1901
1902
1903
1904
1905
1906
1907
1908
1909
191
1910
1911
1912
1913
1914
1915
1916
1917
1918
1919
192
1920
1921
1922
1923
1924
1925
1926
1927
1928
1929
193
1930
1931
1932
1933
1934
1935
1936
1937
1938
1939
194
1940
1941
1942
1943
1944
1945
1946
1947
1948
1949
195
1950
1951
1952
1953
1954
1955
1956
1957
1958
1959
196
1960
1961
1962
1963
1964
1965
1966
1967
1968
1969
197
1970
19700601
1971
1972
1973
1974
1975
1976
1977
1978
1979
198
1980
1981
1982
1983
1984
1985
1986
1987
1988
1989
199
1990
1991
1992
1993
1994
1995
1996
1997
1998
1999
2
20
200
2000
2001
2002
2003
2004
2005
2006
2007
2008
2009
20090179778
201
2010
2011
2012
2013
2014
2015
2016
2017
2018
2019
202
2020
2021
2022
2024
2025
203
2030
2034
2036
204
2047
2049
205
2050
2059
206
2060
2061
2063
2064
2065
2066
2068
207
2070
2074
2075
2077
208
2081
209
2091
2092
2095
21
210
2100
2102
2107
2108
2109
211
2110
2112
2114
2115
2118
212
2121
2127
213
2133
214
215
2150
2153
2157
216
2162
217
218
2182
2188
219
2190
2195
22
220
2200
2206
221
2211
2215
222
22222
223
2236
224
2243
225
2254
226
2263
227
2271
2274
228
2284
229
23
230
2300
231
2310
2314
232
233
2331
234
2345
235
2350
236
237
238
2383
2384
2389
239
24
240
2400
241
2410
242
2420
2425
243
244
245
2450
246
247
248
249
25
250
2500
251
252
253
254
255
256
257
258
259
26
260
261
262
263
264
265
266
267
268
269
27
270
271
272
273
274
275
276
2763
277
278
279
28
280
281
283
284
285
287
288
28837655
289
29
290
293
295
296
297
298
299
3
30
300
3000
301
3014
302
303
304
305
306
307
308
31
310
3100
3125
313
314
315
316
317
318
319
32
320
3200
322
323
324
325
326
328
329
33
330
331
332
333
334
335
3379
339
34
340
3406
341
343
344
345
346
347
348
349
35
350
3500
351
352
353
354
355
356
357
358
359
36
360
3600
361
364
365
366
368
369
37
370
371
372
373
375
376
377
378
379
38
380
381
382
383
384
385
387
388
389
39
390
392
393
395
396
397
398
4
40
400
4000
401
402
403
404
405
406
407
408
409
41
410
411
412
414
415
416
418
419
42
420
421
423
424
425
426
427
428
43
430
431
432
433
435
436
438
439
44
440
441
442
443
444
446
447
449
45
450
4500
451
452
454
456
457
458
459
46
460
461
463
464
465
467
468
47
470
472
473
474
476
478
48
480
481
483
486
487
488
489
49
490
491
492
494
498
499
5
50
500
5000
501
502
503
504
505
506
507
5070
508
509
51
510
512
514
515
517
518
52
520
521
523
525
526
527
528
5280
53
530
532
534
535
536
537
538
539
54
540
541
542
543
544
546
547
549
55
550
5500
551
552
554
555
557
558
5587336
559
56
560
561
564
565
566
567
568
57
570
571
572
573
574
575
576
577
578
579
58
580
581
582
583
584
585
586
588
589
59
590
591
593
594
595
596
597
598
599
6
60
600
6000
601
602
603
604
605
606
607
608
61
610
611
612
613
614
615
616
617
618
619
62
620
621
623
624
625
626
627
6275
628
629
63
630
633
634
635
637
638
639
64
640
641
64110028
642
643
644
645
646
647
648
649
65
650
6500
651
653
654
655
657
659
66
660
661
663
664
665
669
67
670
672
673
674
677
678
68
680
681
682
684
685
686
687
688
689
69
690
691
692
693
695
696
697
7
70
700
7000
701
702
704
7050
707
708
709
71
710
712
715
716
718
72
720
722
723
724
725
726
729
73
730
732
7328
733
735
737
74
740
742
746
747
748
75
750
7509
751
752
753
754
755
756
757
76
760
761
762
764
766
768
769
77
770
773
775
777
778
779
78
780
784
785
786
787
789
79
790
792
793
794
796
797
799
8
80
800
8000
801
802
803
804
805
81
810
811
812
813
815
816
817
818
819
82
820
823
824
825
826
83
831
833
835
837
84
840
842
843
847
848
849
85
850
851
852
853
854
855
859
86
861
862
865
866
867
868
869
87
870
871
872
874
876
878
88
881
882
883
885
886
887
888
889
89
890
891
892
894
897
899
9
90
900
9000
902
903
907
9070
908
91
910
911
912
914
916
919
92
920
921
923
924
925
926
927
929
9297
93
930
931
932
933
934
936
937
938
94
940
941
945
947
948
95
950
951
952
953
957
958
959
96
960
961
962
963
965
966
968
969
97
970
971
972
973
974
975
977
978
9783110420388
9788323533269
98
980
981
982
985
987
99
990
991
992
993
994
995
998
999
9999
:
;
<
=
>
?
@
\
^
_
`
a
aa
aaa
aaaaaa
ab
aba
ababa
abay
abba
abc
abcd
abde
abdullahi
abeba
abebe
abera
aberra
abesha
abi
abiate
ability
abir
able
about
above
absha
absolute
abu
abyssinia
abyssinian
abyssinica
abyssinie
ac
acade
academy
accept
access
accessdate
accessed
accesskey
accomplish
according
account
accurate
acid
acre
across
act
acting
action
active
activities
activity
acts
actually
acute
ad
adadi
adam
adams
add
added
adding
addis
addisu
addition
additional
address
adds
adj
administration
administrators
admitted
adolescents
adv
advanced
adventist
adventistarchives
adventure
adventures
adwa
ae
aerial
aethiopica
afar
affaires
affairs
affect
affected
afrasian
africa
african
africana
africanism
africanus
afrique
afroasiatic
after
ag
again
against
agaw
age
agency
agent
agents
agree
agreement
agu
ah
ahead
ahmad
ai
aid
aids
ain
air
aircraft
airlines
airport
aise
aksum
aksumite
al
ala
alain
alan
albert
alem
alemayehu
alemu
alert
alex
alexander
alexandria
alfred
algae
ali
align
alike
aljazeera
alkali
all
alla
allah
allen
allied
allium
allow
allowautomaticokay
allowed
allows
almost
alone
along
alpha
alphabet
already
als
also
alt
alternative
although
alumniportal
always
am
amanit
amare
ambassador
ambedkar
ambox
ambrose
amda
amen
amenemhat
america
american
americana
americans
amhara
amharic
amin
ammad
among
amongst
amount
ams
amsterdam
an
analysis
anatomy
ances
ancestry
ancient
and
andre
andrea
andrew
andrewbuck
anfray
angel
angelfire
angers
angle
anglican
anglicanism
anglo
angry
anguaba
animal
animals
animation
aniten
anna
annales
anne
anno
announce
annual
anonymous
another
answer
answers
ant
anthony
anthropological
anthropology
anti
antique
antiquities
antiquity
antonio
any
anyone
anything
anyway
ao
ap
apec
api
apollo
apostle
app
appear
append
appendchild
apple
application
applications
applied
appointed
appointment
appreciated
approach
appropriate
approx
apre
april
ar
arab
arabia
arabian
arabic
arbitration
arbore
arc
archaeological
archaeology
arche
archipels
architecture
archive
archived
archives
arcsin
are
area
areas
aristotle
armed
army
around
arr
array
arrived
arrow
art
arthur
arti
article
articles
artists
arts
as
ascii
asean
asfaw
ash
ashe
asia
ask
asked
asmara
asp
aspect
aspx
assemblies
assembly
assessment
assist
associated
association
astm
at
atlantic
atlas
atle
attachto
attack
attacked
attempted
attention
attr
attribution
au
audio
auf
aug
augsto
august
augusto
augustus
australia
australian
author
authorities
authority
authorlink
auto
autofillid
autofillprop
automatically
autosomal
aux
availability
available
ave
average
aviation
award
awarded
away
awesome
awi
ax
axum
ay
ayele
aykel
ays
azania
azi
b
ba
babel
babiker
babylon
back
backbuffer
background
bad
badge
bae
baek
bahir
bahru
bala
ball
band
banda
bangkok
bangla
bangladesh
banigilade
bank
banner
baptist
bar
barcelona
bare
bari
bariju
bars
base
based
bases
bash
basic
basil
basin
battle
battlefield
bb
bbc
bc
bce
bd
be
beans
bear
beautiful
bebe
became
because
beckenbauer
beckingham
become
becomes
becoming
been
beethoven
before
began
begimeder
begin
beginning
beginnings
beh
behavior
behaviors
behind
being
beings
beja
bekele
belief
beliefs
believe
believed
bell
belles
below
ben
benefits
berber
berbere
berhan
berhanena
berlin
bernard
best
bet
beta
bethel
betlehem
better
betting
between
beyond
bezaho
bg
bi
bibcode
bible
biblical
bibliography
big
biglf
bigr
bih
bilong
bin
binom
bio
biography
biological
biology
bird
birds
birkhall
birr
birru
birth
bit
biyate
bl
black
blackwell
blemmyes
blench
bleona
block
blocked
blocks
blog
blogs
blogspot
blood
blue
bmatrix
bn
bo
board
bob
bodies
body
boeing
bold
boldsymbol
book
books
border
bordered
borders
borelli
born
bos
bosnia
boston
bot
both
boto
bottom
bounce
bourges
box
boxes
boy
br
bradt
brain
branah
branch
branches
brandt
brassica
bravery
break
breasted
bremen
brereton
bretton
brian
brics
bridge
brief
briggs
bring
brings
britannica
british
broad
broadcast
broadcasting
brooks
bros
brother
brothers
brought
brown
browser
browsers
bruce
bs
bt
bticona
budge
budget
bug
build
building
built
bulgaria
bullet
bulletin
bullets
bureaucrat
buried
burn
bus
bush
business
businesses
but
butler
button
buttonlink
buttons
buy
bx
by
bytes
c
ca
cache
caesar
caffer
cairo
calculus
calendar
california
call
called
cambridge
came
camel
camp
campaign
campbell
campus
can
canada
cancel
cannot
cap
capable
capacity
capital
caption
captions
captive
capture
car
carbon
care
carina
carried
carry
carrying
carsten
case
cases
castanhoso
castelli
castle
castri
cat
catch
categories
category
catholic
catid
cattle
causality
cause
caused
causes
cave
cbs
cc
ccc
ccd
ccp
cd
cdli
cdot
cdots
ce
celebrate
celebration
celebrities
celebrity
cell
cells
cement
census
cent
center
centers
central
centre
centuries
century
certain
cf
cfrac
cgi
ch
cha
challenge
challenged
challenges
chance
change
changed
changes
channel
chap
chapel
chapter
chaqo
character
characteristics
characters
charge
charismatic
charles
chart
cheat
check
checked
cheesman
chekol
chemical
chemistry
cheon
chi
chicago
chicken
chief
child
childnodes
children
childrens
chile
chilga
china
chinese
chlorella
choir
choirs
chojnacki
choking
choose
chosen
chou
chris
christ
christian
christianity
christians
christmas
christopher
chrome
chromosomal
chromosome
chronicle
chronicles
chronique
chronology
chunks
church
churches
ci
cia
cid
circle
cit
citation
cite
cited
cities
citizen
citizens
citrullus
citrus
city
civil
cl
claim
clarendon
clarinet
clark
clarke
class
classes
classic
classical
classification
classname
claude
cle
clean
clear
clematis
click
climate
close
closed
closeonclickoutside
closure
closures
clothes
club
cm
cmbox
cms
cnn
co
coast
code
codex
colin
collaboration
collapse
collapsible
collected
collection
collective
college
collins
colon
colonel
color
colorado
colors
colour
columbia
column
columns
com
combination
come
comers
coming
commander
comment
commentary
comments
commercial
commission
committed
committee
common
commons
communication
communications
communist
communities
community
compact
companies
company
comparative
compare
compared
comparison
complain
complete
complex
composed
composition
comprehensive
comptes
computer
computers
concepts
concern
concerning
concerns
conclusion
concrete
condition
conditions
condolences
conduct
cone
conf
conference
config
configuracio
confirm
conflict
confusion
congress
connection
connor
conquest
consensus
consequences
conservative
consider
considered
construction
contact
contain
contains
contemporaine
contemporary
content
contents
context
continue
continuity
contribute
contributions
control
controversy
conventional
convert
converted
converts
conviction
cookie
cool
cooper
cooperation
coord
coordinates
cop
copenhagen
copy
copyright
cornell
corona
coronavirus
corporation
corps
correct
corruption
cos
cost
costs
could
couldn
council
count
counter
countries
country
county
couple
course
court
cout
cov
cover
coverage
covid
cpr
cr
craft
crai
crc
create
created
createelement
createoption
createtextnode
creating
creation
creative
credits
creek
crime
criminal
crisis
critical
crore
cross
crown
cruciani
crummey
crystal
cs
csa
css
ctrl
ctype
cucumis
cuddington
cultural
culture
cup
cups
cur
current
currentevents
currently
currey
curse
curved
cushitic
custom
customs
cut
cøllø
d
da
dae
daily
dame
daniel
dans
dar
dark
das
data
database
date
dateformat
dates
daughter
david
davidovits
davis
dawa
dawit
day
days
daza
db
dbaba
dc
dd
de
dead
deadly
death
deaths
debate
debre
dec
decade
decades
december
decided
decimal
decision
decisions
declaration
decoration
dedicated
def
default
defeat
defend
deficiency
defined
definition
degree
degrees
dei
deir
dejazemach
del
delete
deleted
deletion
della
delta
deltafosb
demand
democracy
democratic
demonym
denomination
denominations
department
depending
depends
depth
der
derge
des
desc
descartes
deschamps
description
desert
design
designed
despite
desta
destiny
destruction
detail
details
determination
deutsch
deutsche
deutschland
develop
developed
developer
developing
development
devil
dh
di
diagnostic
dialog
dialogs
diameter
diarrhea
diaspora
dictionary
did
didn
die
died
diego
diff
difference
differences
different
differential
difficult
difficulty
diggers
digital
digits
dimension
dinka
diplomacy
diplomatic
direct
directed
direction
directions
directly
diriye
dirty
disabled
disambiguation
discourse
discover
discuss
discussion
disease
diseases
disney
disorders
display
displayed
displays
dispute
disputes
disruption
dissertation
dissertations
distance
distancing
district
dition
div
diversity
division
djibouti
dk
dl
dlya
dna
do
doc
docs
doctor
document
documentary
documentation
documents
does
dog
doi
doing
domain
domestic
dominant
don
donald
done
doresse
dotawo
dots
double
douglas
dover
down
dq
dr
dragon
drake
draw
drawing
dream
dresden
drop
droplet
droplets
drug
drugs
drunk
druzhby
dry
drz
ds
dsm
dt
du
duchy
due
duet
duke
during
dw
dx
dy
dynasty
dys
e
ea
each
earliest
early
earth
easily
east
eastern
easy
ebc
ecfe
ecology
economic
economics
economies
economists
economy
ectv
ed
edinburgh
edison
edit
edited
editing
edition
editor
editors
editrice
edits
eds
edu
education
educational
edward
edwards
effect
effective
effects
effort
egg
egypt
egyptian
egyptians
ehret
ehrlich
ei
eiffel
eight
einstein
either
el
elam
elected
electric
electricity
electronic
electronics
element
elements
elephant
elfalem
elias
elisabeth
elizabeth
ell
else
em
email
emergency
eminem
eminent
emmanuel
emnet
emperor
empire
employment
empress
empty
en
ena
enabled
encrypted
encyclopaedia
encyclopedia
encyclopædia
end
enemy
energy
eng
engineer
engineering
engineers
england
english
enough
ent
enter
entered
enterprise
entertainment
entire
entry
environment
envoy
eo
eotc
epic
epidemic
episcopal
eprp
equal
equations
equipment
equivalent
er
era
eric
eritrea
eritrean
erne
err
error
errors
es
esat
escholarship
eshete
especially
essays
essential
est
established
estimate
estimates
et
etc
etcsl
eth
ethics
ethio
ethiocrown
ethiomedia
ethiopia
ethiopian
ethiopianorthodox
ethiopianreporter
ethiopians
ethiopic
ethiopie
ethiopiemeridionale
ethioreaders
ethioword
ethnic
ethnicity
ethnologue
ethpress
etv
eu
eucalyptus
eurasian
euronews
europe
european
evangelical
evangelicalism
even
event
events
eventually
ever
everest
every
everyone
everything
evidence
evil
evolution
ex
examine
example
examples
exemplary
exercise
exile
existing
exists
expanded
expansion
expected
expedition
experience
experienced
experts
expiry
explanation
explorer
export
exposed
exposition
exposure
express
expression
extended
extension
extent
external
externallink
extreme
eye
ez
f
fa
face
facebook
faced
faces
facilitation
facing
fact
factbook
factor
factors
facts
failure
fair
fairly
faith
falasha
fall
false
families
family
famous
fanabc
faq
far
farm
farmers
farming
fascist
fascists
fast
fate
father
fathers
fc
fco
fe
fear
feared
feature
featured
features
feb
february
fed
federacio
federal
federation
feed
feel
feeling
fellow
female
fern
fernandez
few
ff
ffac
ffd
ffe
fff
fi
ficifolius
fidel
field
fields
fifa
fifth
fight
fighting
figure
file
files
fill
film
final
finally
finance
financial
find
fine
finished
finland
fire
firefox
first
firstchild
fitawurari
five
fixed
flag
flank
fleming
flickr
flight
float
flood
flow
flower
fly
flying
fm
fmbox
fo
focus
folk
follow
followers
following
font
fonts
fontsize
food
foot
football
footballforfriendship
footer
for
force
forced
forces
ford
forde
foreign
forest
foresters
forget
form
formal
format
formed
former
formerly
forms
fort
fortification
fortified
fortress
forum
fosb
foto
fought
found
foundation
founded
founder
four
fourier
fourth
fr
frac
fractal
fragments
frame
frameless
franc
france
francesco
francis
francisco
francophonie
frank
franz
fred
frederick
free
freedom
freetyping
french
frequent
friedrich
friends
friendship
from
front
fruit
fs
fsb
ftp
fu
full
fulvio
fun
function
functions
fund
funj
further
futbol
futbola
futebol
futuh
future
g
ga
gain
gallery
gambling
game
games
gamma
gandhi
garlic
garrett
gate
gave
gazette
gazprom
gc
gce
gcse
gdp
ge
gear
gebre
gebrekirstos
geburtskirche
gedebgie
geez
geezedit
geledeba
gen
gender
gene
general
generally
generation
genesis
genetic
genetics
genocide
genome
genomic
geoffrey
geographic
geographical
geography
geometry
geopolymer
george
geresu
german
germany
gerrard
get
getachew
getelementbyid
gets
getting
geturl
gf
gi
gif
gift
gina
ginger
girazemach
girl
girls
girma
give
given
giving
gje
gl
glass
glise
global
globally
globe
glorious
gnu
go
god
goes
going
goitom
gold
golden
gomes
gondar
gonder
gone
gonzalez
good
goodbye
google
googlelogo
gordon
gorilla
gospel
got
goto
gov
government
governments
governor
gr
graduate
grafiche
grammar
grand
granted
gray
gre
great
greater
greatest
green
greenwood
gridcolor
grillo
ground
group
groups
growing
growth
gstatic
gt
gu
gua
guange
guardian
gudie
guide
guidelines
guilmoto
guilty
guitar
guk
gulf
gurage
gutenberg
guy
gypte
gyptischen
h
ha
haacker
haba
habesh
habesha
habeshas
habeshat
had
haffajee
hai
hail
haile
hailu
hakluyt
half
hall
hamburg
hammond
han
hand
handbook
handle
hands
haplogroup
happened
happening
happy
hard
harold
harper
harrassowitz
harrison
harry
harvard
has
hasclass
hassan
hat
hatchepsut
hatshepsut
have
haven
having
hay
hcards
he
head
heading
headline
health
heard
heart
heavy
hebrew
hee
height
heinemann
held
helicopter
hello
help
helped
helps
hence
henn
henry
henze
her
herald
herausgegeben
here
heritage
heroes
heroism
herzegovina
hetzron
heywet
hgetnet
hi
hiba
hidden
hide
high
higher
highest
highgrove
highlands
highlight
hiina
hildebrand
hill
him
himmel
himself
hinidi
his
hisham
hist
histoire
historian
historic
historical
history
hit
hiv
hiwot
hl
ho
hoa
hold
holder
holding
holiness
hollfelder
holy
home
homo
honor
honoree
hope
horn
horse
hospital
hot
hotel
hour
hours
house
household
households
houses
hover
how
however
href
hrh
htm
html
htmlhttps
http
https
hubei
hubert
huge
human
hundred
hunters
huntingford
hur
hussle
i
ia
ian
ibm
ibn
ibrahim
ice
ich
icon
id
idea
ideas
identified
identity
ie
ieee
ieeecs
if
ih
ii
iii
il
illinois
illness
illustrated
im
image
images
imagining
imbox
imf
img
immediately
immune
impact
impacted
impacts
imperial
implement
import
importance
important
imported
improvement
in
ina
inarray
inc
incidence
include
included
includes
including
income
incr
increase
increased
increment
incubator
indeed
independence
independent
index
indexnavigationbar
indexof
india
indian
indicate
indigenous
individual
induced
industrial
industries
industry
inf
infected
infection
infectious
infinite
infinitesimal
influence
influenced
influences
influential
influenza
info
infobox
informal
information
informed
infty
inidi
initiating
inline
inneqor
innocent
innovation
input
inscriptions
insert
inside
insights
install
instead
institut
institute
institutions
instruction
instruments
insurance
int
intangible
integrated
intelligence
inter
interaction
interactive
intercourse
interface
interior
intermediate
internal
international
internationale
internazionale
internet
interview
interwiki
into
introduced
introduction
invaders
invalid
invasion
investigations
invited
involving
ioc
ionizing
ios
ip
ipa
ipad
iphone
iprage
irabi
iran
iranica
iraq
iron
is
isbn
isil
isis
islam
islamic
island
islands
iso
isogg
isr
israel
issn
issue
issues
ist
istouchscreen
it
italian
italiana
italiano
italians
italic
italy
item
itemid
items
iti
its
itunes
iucn
iv
ix
j
ja
jacques
james
jan
janda
january
jardin
jason
java
javascript
jean
jeff
jembere
jero
jerry
jesuits
jesus
jewish
jews
jo
job
jobs
johann
johannes
john
johnson
johr
join
joined
joint
jones
joseph
journal
journalist
journalists
journey
jpg
jquery
jr
js
jstor
ju
juan
jules
julien
julius
july
jump
june
jungle
just
justice
k
ka
kale
kameltour
karthala
kassa
kathedrale
katherine
kathmandu
ke
kebede
keep
keita
kel
kendra
kensington
kenya
key
keyboard
keyboards
keyman
ki
kids
kiduel
kill
killed
killer
kim
kind
king
kingdom
kings
kinship
kirisiti
kirsty
kish
kitchen
kitsch
kivisild
km
knesset
know
knowledge
known
knut
ko
korean
krestos
kristianat
kristin
kristos
krzyzaniak
ku
kvartal
l
la
label
labor
labour
lack
lake
lalibela
lambda
lampert
land
landing
lands
lang
language
languages
langues
lapsley
laptop
large
larger
largest
larsa
laser
last
lat
late
later
latin
latitude
launch
launched
lausanne
law
lawi
layers
lazy
lb
ldots
le
lead
leader
leaders
leadership
leading
league
leaning
learn
learning
least
leave
leaves
lech
led
lee
left
legacy
legend
legends
leiden
leipzig
leland
lemon
len
length
leo
leon
lepage
leq
les
leslau
less
let
letter
letters
lettres
level
levels
levine
lewis
lg
li
liberty
library
libya
license
lie
lienhardt
life
lifestyle
lifestyles
light
lij
like
likelihood
likely
lim
limit
limitation
limited
limits
limon
lin
line
lineages
lines
lingua
linguistic
linguistics
link
linked
links
lion
lissabon
list
listed
listen
lists
lit
literary
literature
little
live
livelihood
lives
living
ll
llimit
ln
lo
load
loader
loading
lobo
loc
local
location
lock
lockdown
log
logged
logic
login
logo
logout
loire
lon
london
lonely
long
longer
longitude
look
looking
looks
loop
lord
los
lose
loss
losses
lost
lot
lots
louis
louvre
love
loved
lover
low
lower
lt
ltd
lu
luca
lucy
luis
lupus
lutheran
luxembourg
ly
m
ma
maan
machine
macmillan
madagascar
made
madrid
magazine
magdala
magic
mahadist
mail
main
maine
maintainers
maintenance
maison
major
majority
make
makes
making
malagasy
male
mallet
man
management
manner
manuscrit
many
map
mapper
maps
mar
march
marcus
margin
maria
mariam
marie
mario
mark
marked
marker
market
marriage
marshall
martin
martyrs
maru
mary
maryam
maryland
mass
massachusetts
massacre
master
match
material
materials
math
mathbf
mathcal
mathematical
mathematicians
mathematics
mathrm
matrix
matter
matthew
max
may
mays
mb
mba
mbox
mc
mcblau
mcboto
mcbotosel
mccontingut
mcgraw
mcgroc
mcpestanya
mctaronja
mcverd
mcvermell
md
me
mean
meaning
means
measure
measured
measures
meat
mebaseyon
mec
mechanical
mechanics
media
mediation
mediawiki
medical
medicinal
medicine
medieval
meditations
medium
meet
meeting
mekane
mekonnen
melaku
melkamu
member
members
memory
men
menelik
mengistu
mennonite
mental
merely
meroitic
meserete
meskel
mesopotamia
message
messages
met
meta
metabox
metacaixainit
metal
metaphysics
method
mettema
metz
mey
mezmur
mg
mi
michael
michel
michelangelo
microbiol
microsoft
mid
middle
mie
might
migration
migrations
miguel
mihai
mike
milan
military
millau
millennium
million
milton
min
minas
mind
minister
ministry
minor
minutes
mipela
misgana
mission
missionaries
missionary
mit
mk
mkidusan
ml
mm
mn
mo
mobile
mockler
mod
modal
mode
model
models
modern
modeth
modified
mohamed
molecular
molla
molvaer
moment
mon
monde
mondon
money
monobook
month
months
monti
montsoreau
monty
moon
moral
more
moreover
morning
morphology
morris
moscow
moses
mosovce
most
mostly
mother
motivated
motivation
mou
mount
mountain
mountains
mountbatten
mourn
mouse
mouth
move
moved
movement
movements
moving
moz
mozilla
mp
mr
mrs
ms
msg
mt
mtdna
mu
much
muh
mujahidin
multi
multiple
mulu
munro
murder
muse
museum
music
musical
muslim
muslims
must
mw
mwh
my
mylanguage
mypage
mysterious
mystery
n
na
nabla
nac
nadin
nale
nam
nama
name
named
namely
names
namespace
nao
narmer
narrated
narrative
nas
nasa
nathaniel
nation
national
nationalities
nations
native
nato
natural
nature
navbox
navchild
navcontent
navframe
navigation
navtoggle
nazi
nbsp
ncov
nd
ndez
ne
near
necessary
need
needed
needs
neg
negative
nephew
net
netflix
netherlands
netjer
nettles
network
networking
networks
neutral
never
nevertheless
new
newi
news
newsid
newspaper
newton
next
ng
ni
nice
nicholson
nick
nido
niebuhr
niels
nigali
night
nil
nile
nilotic
nimo
nina
nine
nipsey
nl
nm
no
noah
node
noeditsection
noflip
noire
non
none
nor
nordic
normal
normalizedrealtitle
normally
norman
north
northeast
northern
northwest
not
note
notes
nothing
notice
notoc
notre
nov
nova
novebre
novel
november
novembre
now
nr
ns
nstab
nt
nther
nu
nubia
nubian
null
num
number
numbers
numerical
nus
nutrition
nw
nwy
ny
nya
nytimes
o
oas
oau
obelisk
object
objections
objective
objectives
observer
occupation
ocean
oclc
october
od
odoros
oecd
of
off
office
officers
official
officials
offset
ofi
often
ogg
ogot
oh
oil
ois
ok
oklahoma
ol
ola
old
oliver
ologique
olsen
olympic
om
omar
ombox
omega
on
once
onclick
one
ones
oneself
onion
onions
online
only
onshow
onthisday
oosterhout
op
opacity
open
opencourseware
operating
operation
opinion
opinions
opportunity
opposition
option
optional
options
optselected
or
oral
orange
order
ordinary
oregon
org
organ
organisation
organisations
organization
organizations
organized
organizing
oriental
orientalia
orientation
origin
original
originals
origines
oro
oromo
orthodox
orway
oscar
osce
other
others
oti
otto
our
out
outbreak
outcomes
outersouth
outline
output
outside
over
overlay
own
oxford
oyda
p
pa
pacific
padding
page
pages
paid
pain
painting
pal
palace
palais
palenile
palgrave
pali
pan
pandemic
pankhurst
panther
paper
papers
par
para
paradise
parameter
parameters
parent
parentnode
paris
park
parsed
parsedescription
part
partial
participation
particular
particularly
parties
parts
party
passed
password
past
paste
pastoral
paswan
patent
patents
pathways
patient
patriot
patriotism
patriots
pattern
paul
pay
paypal
pays
pbs
pd
pdf
pe
peace
peaceful
pearce
pedro
peer
pending
penguin
pennsylvania
pentecostal
pentecostalism
people
peoples
peopling
pepper
per
perceived
percent
perf
performance
performed
period
permanently
permission
persecution
persee
persian
person
personal
personalities
persons
perspective
pestanya
peter
petra
pg
pgen
pharaoh
phd
phenomenon
phi
philadelphia
philip
philosophical
philosophische
philosophy
phoenix
phonetic
photo
photograph
photos
php
phr
phrase
phylogeographic
physical
physics
pi
pic
pica
picture
pictures
pierre
pink
pioneers
pisl
pl
pla
place
places
plains
planet
planning
plant
plants
play
played
players
plaza
please
plo
plos
plotdata
plus
pmc
pmid
pnas
pneumonia
png
po
podatki
poem
poems
point
poisonous
police
policy
political
politicians
politics
polity
pollen
poly
pont
pool
poor
pop
pope
poppy
popular
population
populations
por
port
portal
portland
portugal
portuguese
position
possible
post
posts
postscript
pot
potential
potter
pour
poverty
power
pp
ppp
pr
practices
praise
prc
pre
predefinic
predloga
preferences
prefix
pregnant
prehistory
preparation
prepared
presbyterian
prescript
present
presentation
presented
president
press
pressure
prettytable
prevch
prevent
prevention
preview
previous
previously
prices
priests
primary
prime
prince
princes
princeton
principia
principles
prinile
print
printer
printing
prior
prison
private
prize
prnewswire
pro
probably
problem
problems
proceedings
process
processing
produced
produces
product
production
products
professional
professor
profile
program
programme
programmes
programs
progress
project
projects
prominent
proof
properties
prophets
proposal
proquest
prospects
protect
protection
protestant
protestants
proto
proud
prove
provide
provided
province
prunier
ps
psychological
pt
pu
public
publication
publications
publique
published
publisher
publishers
publishing
puf
pull
pulley
pulo
punishment
punt
puntland
purple
purpose
push
put
putin
putting
px
pyramid
python
q
qebena
qegnazemach
qereti
qquad
qr
qsj
quad
qualifications
quarters
que
queen
query
question
questions
quick
quiet
quito
quote
quoted
qwerty
r
ra
race
racial
radiation
radio
radios
radius
raf
railway
rale
random
range
ranger
rard
ras
rate
rathaus
rather
ratio
ration
raw
rawi
ray
raya
raymond
rd
re
reaction
read
reading
real
reality
really
realtitle
realtitletext
reason
reasoning
reasons
receive
received
receiving
recent
recognition
recognized
recommendation
recommended
reconstructing
reconstruction
record
records
recovered
recovery
red
redda
redirect
redirects
reduced
ref
reference
references
referencetooltip
refers
reflist
reflisti
refname
reform
refs
reftoolbar
regarding
regards
regiment
region
regional
regions
registered
reich
reidulf
reign
related
relation
relationship
relative
relatives
release
released
releases
relief
religion
religions
religious
remained
remains
remember
remove
removechild
renaissance
rendus
rene
repeated
replace
reply
report
reported
reporter
reports
representation
represented
republic
request
requested
requests
required
rer
res
research
reserve
reset
resistance
resolution
resolve
resource
resources
respect
respectively
respiratory
response
responsibility
rest
restoration
restored
restricted
restrictions
result
resulting
results
ret
retreat
retrieved
return
returned
returns
rev
reveals
revenge
revert
review
reviews
revision
revival
revolution
revolutionary
revues
rewards
rex
rezensionen
rgb
rhett
rho
ri
riba
rich
richard
rifle
rifles
right
rightarrow
rights
rilly
rise
rising
risk
risks
river
ro
road
robert
roc
rock
roger
rohland
roi
rois
roland
role
rom
roma
roman
romanized
romanzazed
rome
ron
roots
rosa
roulette
round
rousseau
routledge
row
rowan
royal
rs
rss
rtflipped
rtsettings
ru
rubenson
rule
rulers
rules
run
running
rupert
rural
russia
russo
ruth
ryholt
s
sa
sabsige
sacred
sad
sadness
safety
saharan
said
saint
saints
salt
sam
same
samecontent
sample
samuel
san
santiago
sapiens
sarah
sars
sativa
sativum
satyagraha
sauce
saudi
save
saw
say
sb
sbacchi
scale
scanning
scenario
schlebusch
school
schools
sci
science
sciences
scientific
scientist
scientists
scored
scotland
scott
screen
screenshot
script
scripts
scripture
scrubber
se
sea
search
searchform
season
sec
second
secondary
secret
secretary
secrets
section
sector
sectors
secular
security
see
seed
seeing
seem
seems
seen
sefer
sel
selam
selassie
select
selectbox
selected
selection
self
semitic
sen
senate
send
seneca
sense
sent
sentences
sep
separate
september
septembre
sequence
sera
seraba
series
serious
seriously
servant
serve
served
server
service
serviceablity
services
ses
set
setattribute
setminus
sets
setting
settings
settlement
seven
seventeenth
seventh
several
severe
sex
sexual
sexually
sfnp
sgdn
shadow
shaft
shall
shaped
share
shared
shark
shaw
she
shen
shepherd
sherwood
shi
shiferaw
shift
shinasha
shincheonji
shipping
shirreff
shocks
short
shortly
shortwave
should
shouldskip
show
showing
shown
shows
shtml
shulgi
si
sib
sick
sidama
side
sides
sie
siegbert
sig
sign
significant
sil
simen
similar
simmer
simon
simoons
simple
simply
simulator
sin
sinai
sinaiticus
since
sincere
sing
singer
singers
single
sio
sir
sirak
sistine
site
sites
situation
six
size
sizes
sk
skew
skin
skins
sky
sl
slang
slc
slope
slow
small
smell
smith
smithsonian
so
soap
soccer
social
socialization
societa
societies
society
socio
sociology
software
sol
sola
solanum
solid
solo
solomon
solution
somali
somalia
somaliland
some
someone
something
sometimes
son
song
songs
sons
sorry
soul
source
sources
sous
south
southern
sovsport
space
spaces
spain
span
spanish
speak
speakers
speaking
speaks
special
species
specific
spectator
speech
speed
speedy
spencer
spend
sperm
spices
spirit
spirulina
splash
split
sport
sports
spread
spring
springer
sputniknews
sqrt
square
src
st
stackrel
stand
standard
stanford
stanislaw
stanley
star
stare
stars
start
started
starting
state
statehashnode
statehood
statement
states
statistical
statistics
statue
status
stay
steiner
step
stephen
steps
steven
stewardson
stiffness
still
stm
stockholm
stone
stop
stopped
storia
stories
story
str
strata
strategic
strategy
street
strength
stress
stresses
strict
string
strings
strong
structural
structure
structures
struggle
stuart
student
students
studies
studios
study
stuff
stx
style
styles
su
sub
subject
submission
submit
subst
substance
substr
substratum
substring
succeeded
successful
successfully
such
sudan
sudanese
sudanic
sudd
suffering
suggested
sui
sum
sumerian
summary
sun
super
superior
supervision
supply
support
supported
sur
sure
surfaces
surprise
survey
surveys
survival
susa
susan
sv
sven
svg
swa
sweden
swedish
swift
switch
symptoms
syndrome
syntax
syria
sysop
system
systems
t
ta
tab
tabernacle
table
tables
tablet
tabor
tachometer
taddesse
tadesse
tag
take
taken
taking
tal
tale
talk
tamrat
tan
tana
tang
tango
target
targets
task
tassew
taste
tatari
tauris
tavultesoft
taylor
tbilisi
tbn
tbol
td
te
teaching
team
tears
teaspoon
teau
technical
techniques
technology
tefera
tehran
tekle
telegraph
television
tell
temenew
template
templates
temple
ten
tenagari
term
terms
territory
terror
terrorism
terry
tesfaye
tesla
tessema
test
testament
testimony
tewahedo
tewodros
text
textbook
textrm
texts
tfrac
th
than
thank
thanks
that
the
theater
theguardian
their
them
themselves
then
theodore
theological
theology
theories
theory
thepeoplehistory
therapy
there
therefore
these
theses
thesis
theta
thetahealing
they
thin
things
think
thinking
thiopie
thiopien
third
thirteenth
thirty
this
thomas
thompson
those
though
thought
thousands
threat
threats
three
through
throughout
thumb
thumbnail
thus
thz
ti
tico
tigray
tigrina
tigrinya
tilahun
till
time
times
tip
title
titles
titus
tizita
tmbox
to
today
together
told
tolerance
tolowercase
tom
tome
tongue
too
took
toolbar
tools
tooltip
tooltipnode
tooltips
toomas
top
topic
toponymic
toronto
torsten
total
touppercase
tour
tourism
toward
towards
town
towns
townsend
tplf
tr
trade
tradition
traditional
traditionally
traffic
training
trans
transbuffer
transfer
transferred
transition
translate
translated
translating
translation
translations
translator
translit
transmission
transmitted
transparency
transparent
transport
transportation
transverse
travel
travels
treated
treatment
treaty
tree
trekking
trenton
tribe
tried
triumph
troops
trt
truck
true
trumpet
trust
truth
try
ts
tsar
tsardom
tsehai
tsunami
tu
tube
tuesday
turkana
turkish
turn
turtle
tusculanum
tutorial
tv
tver
twa
twenty
twitter
two
tyldesley
type
typeface
typhoid
typing
u
ua
ubuntu
uc
ucla
uefa
uhlig
uk
ulbareg
ullendorff
un
una
und
undefined
under
underhill
underline
understand
understanding
une
unemployment
unesco
unicode
unification
unigeez
union
unique
uniqueness
unit
united
unity
universe
universities
university
unknown
unless
uns
unser
unt
until
up
update
upload
uploaded
upon
upper
upright
ur
uranium
urban
uri
url
us
usa
usage
usaid
use
used
useful
user
username
userpage
users
uses
using
ussr
usually
ut
utc
utf
util
utm
uw
uzbek
v
vaccine
vain
valid
valley
value
values
van
var
varepsilon
variable
variation
variety
various
varphi
vbt
ve
vec
vector
vel
venezuela
venice
verlag
version
versions
vert
vertical
very
veterinarians
vi
via
vice
victories
victory
vidailhet
video
vietnam
view
views
vii
viii
vil
village
vindex
violence
violent
virginia
virtual
virus
visible
vision
visual
visualeditor
vmatrix
vmcnom
vo
voanews
voelpel
vogue
voice
vol
vols
volume
von
vote
votes
voyage
vpselem
vpsini
vries
vs
vulgaris
vulnerable
vy
w
wa
wadi
wales
wallis
walt
walter
wanik
want
war
warfare
warner
warning
wars
warsaw
was
wash
washing
washington
washra
wasie
waste
wat
watch
watchlist
water
wave
wax
way
ways
we
weapons
web
webkit
website
wed
wedge
week
weeks
weight
welcome
welde
well
wenige
went
were
wereda
west
western
westminster
wgaction
wgpagename
wgusername
what
whatlinkshere
wheel
wheeler
when
where
whereas
whether
which
while
whispertome
white
whiteway
who
whole
why
wi
wide
widespread
width
wie
wien
wiesbaden
wife
wiki
wikimapia
wikimedia
wikipedia
wikipedias
wikitable
wikt
wiktionary
wild
wiley
will
william
williams
wilson
win
wind
window
windows
wine
wing
winstanley
wish
wisit
with
within
without
witness
wm
wochi
wodros
wolde
wolf
wolfgang
wolfram
woman
women
won
wongel
wood
woods
word
wordpad
wordpress
words
work
worker
workers
working
works
worku
world
worlds
worse
worship
would
wound
wounded
wp
wptextbox
wrapped
wren
wright
write
writer
writers
writing
writings
written
wrong
wrote
ws
wto
wu
wuhan
wwdr
www
wynn
x
xavier
xi
xia
xiii
xl
xlt
xml
xp
xv
xvi
xviii
xx
xy
y
ya
yahoo
yale
yanati
yang
yat
yatewlid
ybp
ye
year
years
yebanigilade
yebe
yek
yellow
yemi
yemrehanna
yeo
yeol
yes
yesus
yet
yewuset
yi
ymca
yo
yohannes
york
you
young
your
yourself
youth
youtube
yu
z
za
zar
zare
zaza
zazaki
zea
zehabesha
zelenskyy
zemen
zero
zeta
zewde
zh
zone
zoo
zum
zw
{
|
}
~
¡
¢
£
¤
¥
¦
§
©
«
¬
­
®
°
±
²
³
´
µ
¶
·
¸
¹
º
»
¼
½
¾
¿
×
æ
ð
ðe
ðu
÷
ø
þ
ħ
ı
ŋ
ſ
ƒ
ƿ
ȝ
ɑ
ɖ
ə
ɟ
ɡ
ɢ
ɣ
ɦ
ɪ
ɬ
ɭ
ɮ
ɰ
ɱ
ɲ
ɳ
ɴ
ɸ
ɹ
ɻ
ɽ
ɾ
ʀ
ʁ
ʂ
ʃ
ʈ
ʋ
ʎ
ʐ
ʑ
ʒ
ʔ
ʕ
ʙ
ʝ
ʟ
ʡ
ʱ
ʲ
ʶ
ʹ
ʼ
ʽ
ʾ
ʿ
ˈ
ˌ
ː
˝
̀
́
̂
̃
̄
̆
̇
̈
̉
̊
̋
̌
̍
̓
̔
̛
̡
̣
̥
̦
̧
̨
̮
̯
̱
̸
͂
͟
͡
α
αι
αιθιοπι
β
γ
δ
ε
ει
ζ
η
θ
θιο
ι
κ
κυ
λ
μ
με
ν
να
ξ
ο
π
ποι
ρ
ς
σ
σε
σι
τ
ται
το
υ
φ
χ
χριστο
ω
ων
ϙ
ϛ
ϝ
ϟ
ϻ
б
в
г
город
д
е
з
и
к
л
м
н
на
о
п
р
с
т
у
ш
шаблон
я
ѥ
ѩ
ґ
ә
֑
֔
֖
֗
֙
֛
֣
֧
֫
ְ
ֲ
ִ
ֵ
ֶ
ַ
ָ
ֹ
ֻ
ּ
ֽ
ׁ
ׂ
א
ב
ג
ד
ה
ו
ז
ח
ט
י
יח
ך
כ
ל
ם
מ
ן
נ
ס
ע
ף
פ
ץ
צ
ק
ר
ש
ת
״
،
؟
ء
ا
اء
اب
اة
ات
اس
اع
ال
الا
الحبشة
الز
الس
الص
الق
الل
الله
الن
الهباش
ام
ان
اه
او
اي
ب
بن
ة
ت
ث
ج
ح
خ
د
دس
ذ
ر
ز
س
سورة
ش
شي
ص
صلى
ض
ط
ظ
ع
عليه
غ
ـ
ف
ق
ك
ل
لا
لط
م
محمد
ن
نز
ه
و
وا
وت
ور
وس
وسلم
ول
ون
ى
ي
يد
يم
ين
يه
ً
ٌ
ٍ
َ
ُ
ِ
ّ
ْ
ٓ
ٔ
ٕ
٧
٨
٩
ٰ
ٱل
ٱلس
ٱلل
ڀ
ڪ
ی
ۖ
ۗ
ۘ
ۙ
ۚ
۟
ۡ
ۢ
ۤ
ۥ
ۦ
۬
ۭ
ܐ
ܗ
ܠ
ܲ
ܵ
ށ
ނ
ރ
ކ
އ
މ
ތ
ލ
ގ
ޓ
ޔ
ޕ
ަ
ާ
ި
ީ
ު
ެ
ޮ
ް
ँ
ं
अ
अगकघ
अघगक
अघगकघ
अघघक
अचगक
अचघक
अछघक
क
ख
ग
च
ज
ड
ढ
त
द
न
प
भ
य
र
ल
व
श
ष
स
ह
़
ा
ि
ी
ु
ू
े
्
ঁ
ক
খ
চ
জ
ট
ড
ণ
থ
ধ
ন
প
ব
ভ
ম
য
র
ল
শ
ষ
স
হ
়
া
ি
ী
ু
ে
্
৬
৭
৮
ਜ
ਦ
ਨ
ਵ
ਸ
਼
ਾ
ੀ
ੁ
ੇ
ੈ
ੱ
ગ
ત
ા
ી
ુ
க
ட
ப
ம
ய
ர
ழ
வ
ா
ி
ீ
ு
ூ
்
క
గ
డ
త
ప
య
ల
వ
ా
ి
ీ
ు
ె
ಂ
ಟ
ಪ
ಲ
ು
ೆ
್
ೕ
ം
ക
ഞ
ട
ഡ
ത
ഥ
ന
പ
യ
ല
ള
വ
സ
ാ
ി
ീ
ു
െ
േ
്
ක
ට
ප
ල
ස
්
ා
ැ
ි
ු
ෙ
ช
ท
น
ส
ั
ิ
ี
ุ
็
่
์
་
།
ཀ
ཆ
ད
ན
བ
ར
ལ
ི
ོ
ྒ
ྱ
ྲ
࿇
က
င
စ
ဇ
န
မ
ရ
လ
ာ
ိ
ီ
ု
ဲ
ံ
့
း
္
်
ွ
년
ሀ
ሀላፊ
ሀላፊነት
ሀመር
ሀመርሾልድ
ሀሙስ
ሀሚራ
ሀማር
ሀማኒ
ሀሜተኛ
ሀሜት
ሀምሌ
ሀምሳ
ሀሣቡ
ሀሣቡን
ሀሣብ
ሀሣቦች
ሀሣዊ
ሀረ
ሀረም
ሀረሞች
ሀረሪ
ሀረር
ሀረርጌ
ሀረግ
ሀረጎች
ሀሪንግተን
ሀሰተኛ
ሀሰት
ሀሰን
ሀሳቡ
ሀሳቡን
ሀሳባዊ
ሀሳብ
ሀሳብን
ሀሳቦች
ሀሳቦችን
ሀሳን
ሀቅ
ሀበሻ
ሀበሻስታን
ሀበሻት
ሀበሽ
ሀበሽስታን
ሀበነ
ሀቢሺ
ሀቢሻ
ሀቢብ
ሀቤኪስታን
ሀብተ
ሀብተወልድ
ሀብተወልድን
ሀብቱ
ሀብቱን
ሀብታም
ሀብታሞች
ሀብታቸው
ሀብት
ሀብትና
ሀብትን
ሀብቶች
ሀብቷን
ሀቪየር
ሀቫና
ሀት
ሀና
ሀንጋሪ
ሀንጋርኛ
ሀከም
ሀኪም
ሀኪሞች
ሀዊኝ
ሀዋርያዊ
ሀዋሳ
ሀዋዴ
ሀውልት
ሀውልቶች
ሀውስ
ሀውስን
ሀዘናቸውን
ሀዘን
ሀዘንሽ
ሀዘንን
ሀያ
ሀያላን
ሀያል
ሀያልነት
ሀይ
ሀይለማሪያም
ሀይለማርያም
ሀይለስላሴ
ሀይለኛ
ሀይሉ
ሀይላንድ
ሀይሌ
ሀይል
ሀይልን
ሀይሎች
ሀይማኖታዊ
ሀይማኖት
ሀይማኖቶች
ሀይሮግሊፍ
ሀይቅ
ሀይቆች
ሀይዌይ
ሀይድሬት
ሀይድሮጅን
ሀደሪኛ
ሀዲስ
ሀዲያ
ሀዲይኛ
ሀዲዱ
ሀዲድ
ሀዳኒሽ
ሀድሰን
ሀገረ
ሀገሩ
ሀገሩን
ሀገሪቱ
ሀገሪቱን
ሀገሪቷን
ሀገራት
ሀገራትም
ሀገራትን
ሀገራቸዉን
ሀገራቸው
ሀገራቸውን
ሀገራችን
ሀገራችንን
ሀገራዊ
ሀገር
ሀገርነት
ሀገርና
ሀገርን
ሀገሮች
ሀጋር
ሀጢአት
ሀጫሉ
ሀፍረተ
ሀፍረት
ሁ
ሁለ
ሁለመናዋ
ሁለተኛ
ሁለተኛም
ሁለተኛዋ
ሁለተኛው
ሁለተኛውም
ሁለተኛውና
ሁለተኛውን
ሁለቱ
ሁለቱም
ሁለቱን
ሁለቱንም
ሁለቴ
ሁለት
ሁለትዮሽ
ሁለንተናዊ
ሁለንተናው
ሁለገብ
ሁሉ
ሁሉም
ሁሉን
ሁሉንም
ሁላ
ሁላቸው
ሁላቸውም
ሁላችሁ
ሁላችን
ሁላችንም
ሁላችንንም
ሁላክ
ሁሌ
ሁሌም
ሁል
ሁልጊዜ
ሁልጊዜም
ሁመራ
ሁማ
ሁም
ሁሠርል
ሁሰይን
ሁሴኒ
ሁሴን
ሁበርት
ሁቨር
ሁተን
ሁቱ
ሁነታ
ሁነት
ሁነኛ
ሁነው
ሁና
ሁናቴ
ሁኔታ
ሁኔታም
ሁኔታቸው
ሁኔታና
ሁኔታን
ሁኔታው
ሁኔታውን
ሁኔታዎች
ሁኔታዎችን
ሁን
ሁንዴሳ
ሁንጋሪያ
ሁኖ
ሁኖርና
ሁኖች
ሁከት
ሁክ
ሁዋላ
ሁዋን
ሁድ
ሁድን
ሁጎ
ሁፌ
ሁፍዌ
ሂ
ሂለሪ
ሂሊርድ
ሂሊየም
ሂላሪ
ሂል
ሂልስ
ሂማላያ
ሂሩት
ሂሩትን
ሂሮ
ሂሮሺማ
ሂሳቡ
ሂሳባዊ
ሂሳብ
ሂስ
ሂስቶሪያ
ሂስፓኒክ
ሂትለር
ሂትለርና
ሂና
ሂንዱኢዝም
ሂንዱይዝም
ሂንዲ
ሂካ
ሂክሶስ
ሂክሶስም
ሂክሶስን
ሂወት
ሂዊት
ሂዝ
ሂዝሮው
ሂዩ
ሂዩማን
ሂያጅ
ሂደቱ
ሂደቱን
ሂደት
ሂደትን
ሂደቶች
ሂደቶችን
ሂደው
ሂዱ
ሂዳ
ሂድ
ሂድና
ሂዶ
ሂጃብ
ሂጅሪያ
ሂጅራ
ሂፕ
ሃ
ሃሊስ
ሃላፊ
ሃላፊነት
ሃሌ
ሃሌይ
ሃል
ሃልዮ
ሃመር
ሃመርኛ
ሃሙራቢ
ሃሚልተን
ሃሚንግበርድ
ሃማስ
ሃማስን
ሃምሣ
ሃምሳ
ሃምፕሻየር
ሃሞን
ሃሣብ
ሃረግ
ሃሩን
ሃሪ
ሃሪም
ሃሪሰን
ሃሪስ
ሃር
ሃርበር
ሃርቪ
ሃርትል
ሃርዲንግ
ሃርድዌር
ሃርፎች
ሃርፐር
ሃሮልድ
ሃሰት
ሃሳቡ
ሃሳቡን
ሃሳባዊ
ሃሳቤ
ሃሳብ
ሃሳብም
ሃሳብን
ሃሳቦች
ሃሳቦችን
ሃቅ
ሃበሻ
ሃቢሩ
ሃብሃብ
ሃብታም
ሃብታምና
ሃብታዊ
ሃብት
ሃብቶች
ሃትሸፕሱት
ሃኒባል
ሃና
ሃናን
ሃን
ሃንሰን
ሃንስ
ሃንኮክ
ሃንዩል
ሃንድለር
ሃንጋሪ
ሃንጋሪና
ሃኪም
ሃዋርያት
ሃዋርያው
ሃዋርድ
ሃዋይ
ሃው
ሃውልት
ሃውልቶች
ሃውስ
ሃውስን
ሃውኪንግ
ሃዘን
ሃዘጋ
ሃያ
ሃያላት
ሃያል
ሃያሲ
ሃያዎቹ
ሃይ
ሃይለ
ሃይለመስቀል
ሃይለስላሴ
ሃይለኛ
ሃይሉ
ሃይሉን
ሃይላቸው
ሃይላቸውን
ሃይላንድ
ሃይሌ
ሃይል
ሃይልና
ሃይልን
ሃይሎች
ሃይሎችን
ሃይማኖቱ
ሃይማኖቱን
ሃይማኖታቸው
ሃይማኖታቸውን
ሃይማኖታዊ
ሃይማኖት
ሃይማኖትና
ሃይማኖትን
ሃይማኖቶች
ሃይማኖቶችን
ሃይሮግሊፍ
ሃይሮግሊፎች
ሃይቅ
ሃይቆች
ሃይቲ
ሃይትስ
ሃይናን
ሃይድሮጅን
ሃይጅግሮቭ
ሃይግሮቭ
ሃዲስ
ሃዲያ
ሃዲድ
ሃድያኛ
ሃጅ
ሃገረ
ሃገሩ
ሃገሩን
ሃገራት
ሃገራችን
ሃገር
ሃገሮች
ሃጫሉ
ሃፋጄ
ሃፌዝ
ሃፕ
ሃፕሎይድ
ሃፕሎፕሮፕ
ሄ
ሄሊኮፕተር
ሄሊዮስ
ሄሌና
ሄልሲንኪ
ሄራልዲክ
ሄራልድ
ሄራክሊዶች
ሄራክሌስ
ሄራክሌውፖሊስ
ሄርሚኖን
ሄርሚዮን
ሄርበርት
ሄርኩሌስ
ሄርጸጎቪና
ሄሮድስ
ሄሮድስም
ሄሮድያስ
ሄሮዶተስ
ሄሮዶቱስ
ሄሮዶቶስ
ሄሲዮድ
ሄስቲንግስ
ሄስፔሩስ
ሄነሪ
ሄን
ሄንሪ
ሄንዝ
ሄኖክ
ሄክተር
ሄክታር
ሄዋን
ሄይስ
ሄደ
ሄደች
ሄደን
ሄደዋል
ሄደው
ሄዱ
ሄዳ
ሄድኩ
ሄዶ
ሄዷል
ሄጄ
ሄጅላይንግ
ሄግ
ሄግል
ህ
ህሊና
ህሊናችን
ህሊናዊ
ህሊናው
ህሊናውን
ህላዌ
ህልሜ
ህልም
ህልቁ
ህልው
ህልውና
ህልፈት
ህመሙ
ህመሙን
ህመም
ህመምተኞች
ህመሞች
ህብረ
ህብረተሠብ
ህብረተሰቡ
ህብረተሰቡን
ህብረተሰብ
ህብረቱ
ህብረቱን
ህብረት
ህብረትና
ህብረትን
ህብር
ህብስት
ህትመት
ህትመቶች
ህንደኬ
ህንዲ
ህንዳዊ
ህንድ
ህንድን
ህንዶች
ህንጻ
ህንጻወች
ህንጻወችን
ህንጻው
ህንጻዎች
ህንፃ
ህንፃዎች
ህክምና
ህክምናና
ህክምናው
ህወሃት
ህወሓት
ህዋ
ህዋሥ
ህዋሳት
ህዋሳትን
ህዋሳዊ
ህዋስ
ህዝበ
ህዝቡ
ህዝቡም
ህዝቡን
ህዝባዊ
ህዝብ
ህዝብም
ህዝብና
ህዝብን
ህዝቦች
ህዝቦችን
ህዝቦቿ
ህዝቧን
ህያው
ህይወቱ
ህይወቱን
ህይወታቸው
ህይወታቸውን
ህይወታዊ
ህይወቴ
ህይወት
ህይወትን
ህይወቷ
ህይወቷን
ህዳር
ህዳሴ
ህገ
ህገመንግስታዊ
ህገወጥ
ህጉ
ህጉን
ህጋዊ
ህጋዊነት
ህግ
ህግና
ህግን
ህግጋት
ህግጋትን
ህጎች
ህጎችን
ህጻኑ
ህጻኑን
ህጻናት
ህጻናትን
ህጻን
ህፃኑ
ህፃናት
ህፃን
ሆ
ሆሄ
ሆሄያት
ሆህይ
ሆለታ
ሆላንድ
ሆላንድኛ
ሆል
ሆልስ
ሆሚዮፓቲ
ሆሜር
ሆም
ሆሞ
ሆሣዕና
ሆሩስ
ሆሪ
ሆራ
ሆሬሽዮ
ሆር
ሆርስ
ሆርን
ሆርካም
ሆርዴ
ሆሳዕና
ሆሴ
ሆስኒ
ሆስፒታሉ
ሆስፒታል
ሆስፒታሎች
ሆብስ
ሆተፒብሬ
ሆቴል
ሆቴሎች
ሆነ
ሆነህ
ሆነላቸው
ሆነም
ሆነበት
ሆነባት
ሆነብኝ
ሆነች
ሆነና
ሆነን
ሆነዋል
ሆነው
ሆነውም
ሆኑ
ሆኑት
ሆኑና
ሆና
ሆናለች
ሆናችሁ
ሆን
ሆንሁ
ሆንሹ
ሆንን
ሆንኩ
ሆንዋል
ሆንዱራስ
ሆንግ
ሆንግኮንግን
ሆኖ
ሆኖም
ሆኖበት
ሆኖአል
ሆኖዋል
ሆኗል
ሆኜ
ሆካይዶ
ሆዜ
ሆዞኛ
ሆያ
ሆዬ
ሆይ
ሆደ
ሆዱ
ሆዱን
ሆዳም
ሆዴ
ሆዴን
ሆድ
ሆድሰን
ሆድና
ሆድን
ሆፕ
ሆፕኪንስ
ለ
ለሀምሳ
ለሀብታሞች
ለሀያ
ለሀገሩ
ለሀገሪቱ
ለሀገራቸው
ለሀገራችን
ለሀገር
ለሀጥአን
ለሁለተኛ
ለሁለተኛና
ለሁለተኛው
ለሁለቱ
ለሁለቱም
ለሁለት
ለሁሉ
ለሁሉም
ለሂሳብ
ለሂያጅ
ለሃያ
ለሃይማኖት
ለሄንሊ
ለህልም
ለህልፈት
ለህመም
ለህትመት
ለህክምና
ለህዝቡ
ለህዝብ
ለህይወት
ለህግ
ለህጻናት
ለህፃናት
ለሆነ
ለሆነው
ለሆኑ
ለሆኑት
ለሆዱ
ለሆዳም
ለሆዴ
ለሆድ
ለለንደን
ለለውጥ
ለሊቀ
ለሊበራል
ለሊት
ለሊኩድ
ለላሙ
ለላም
ለላቲን
ለሌለው
ለሌላ
ለሌላቸው
ለሌላው
ለሌላዎች
ለሌሎቹ
ለሌሎች
ለሌሎችም
ለሌባ
ለልማት
ለልብ
ለልዑል
ለልዩ
ለልጁ
ለልጃቸው
ለልጅ
ለልጆቹ
ለልጆቻቸው
ለልጆች
ለልጇ
ለሎሌው
ለሐዋርያት
ለሕትመት
ለሕክምና
ለሕክምናው
ለሕዝቡ
ለሕዝብ
ለሕዝቦቹ
ለሕይወት
ለሕግ
ለሕጻናት
ለሕፃን
ለመሄድ
ለመሄድና
ለመሆኑ
ለመሆናቸው
ለመሆን
ለመለማመድ
ለመለካት
ለመለኮት
ለመለወጥ
ለመለየት
ለመለያየት
ለመላክ
ለመላው
ለመላጣ
ለመልቀቅ
ለመልካም
ለመልካት
ለመመለስ
ለመመልከት
ለመመሥረት
ለመመረቅ
ለመመረጥ
ለመመርመር
ለመመስረት
ለመመከት
ለመሙላት
ለመማር
ለመምረጥ
ለመምራት
ለመምሰል
ለመምታት
ለመሞት
ለመሟት
ለመሥራት
ለመረዳት
ለመሪካሬ
ለመሬት
ለመርዳት
ለመሰብሰብ
ለመሰንዘር
ለመሰየም
ለመሰደድ
ለመሳል
ለመሳሰሉት
ለመሳብ
ለመሳተፍ
ለመስማማት
ለመስማት
ለመስራት
ለመስቀል
ለመስበር
ለመስበክ
ለመስኖ
ለመስጠት
ለመስጴጦምያ
ለመስፋፋት
ለመሸሽ
ለመሸከም
ለመሸጥ
ለመሸፈን
ለመሻር
ለመሻገር
ለመሾም
ለመቀላቀል
ለመቀመጥ
ለመቀስቀስ
ለመቀበል
ለመቀነስ
ለመቀየር
ለመቀይር
ለመቀዳጀት
ለመቀጠል
ለመቀጠር
ለመቁረጥ
ለመቃብር
ለመቃኘት
ለመቃወም
ለመቅረብ
ለመቅረጽ
ለመቅረፍ
ለመቅሰም
ለመቅደሱ
ለመቅዳት
ለመቅጣት
ለመቆም
ለመቆየት
ለመቆጠብ
ለመቆጣጠር
ለመቋቋም
ለመበቀል
ለመበተን
ለመባል
ለመብላት
ለመብረር
ለመተርጎም
ለመተንበይ
ለመተንተን
ለመተካት
ለመተው
ለመተግበር
ለመታማት
ለመታተም
ለመታየት
ለመታደግ
ለመታገል
ለመትከል
ለመቶ
ለመነ
ለመነችው
ለመነኩሴ
ለመነው
ለመነጋገር
ለመኑት
ለመኑኝ
ለመናገር
ለመናገርና
ለመንከባከብ
ለመንገር
ለመንጋው
ለመንግሥቱ
ለመንግሥት
ለመንግስት
ለመንጠቅ
ለመንፈሳዊ
ለመንፈስ
ለመኖሪያ
ለመኖር
ለመከላከል
ለመከላከልና
ለመከላከያ
ለመከልከል
ለመከራ
ለመከራሽ
ለመከተል
ለመከታተል
ለመከፋፈል
ለመኪና
ለመካከለኛው
ለመክበብ
ለመክተብ
ለመክፈል
ለመክፈልና
ለመክፈት
ለመወርወር
ለመወሰን
ለመወከል
ለመወያየት
ለመወዳደር
ለመወጣት
ለመዋሃድ
ለመዋጋት
ለመውለድ
ለመውረር
ለመውረስ
ለመውሰድ
ለመውጋት
ለመውጣት
ለመዘርጋት
ለመዘከር
ለመዘዋወር
ለመዘጋጀት
ለመዛወር
ለመዝመት
ለመዝጋት
ለመዞር
ለመያዝ
ለመደልደል
ለመደመር
ለመደምሰስ
ለመደራደር
ለመደበቅ
ለመደብደብ
ለመደገፍ
ለመዳን
ለመድረስ
ለመድገም
ለመጀመሪያ
ለመጀመሪያው
ለመጀመር
ለመጀመርያ
ለመጀመርያው
ለመገልበጥ
ለመገመት
ለመገምገም
ለመገርሰስ
ለመገበያየት
ለመገናኘት
ለመገንባት
ለመገንዘብ
ለመገንጠል
ለመገኘት
ለመገደብ
ለመጉዳት
ለመጋራት
ለመጋባት
ለመጋፈጥ
ለመግለጥ
ለመግለጽ
ለመግለፅ
ለመግባባት
ለመግባት
ለመግታት
ለመግዛት
ለመግደል
ለመግጠም
ለመግፋት
ለመጎብኘት
ለመጓዝ
ለመጓጓዣ
ለመጠቀም
ለመጠቅለል
ለመጠቆም
ለመጠበቅ
ለመጠብቅ
ለመጠየቅ
ለመጠጥ
ለመጡ
ለመጣል
ለመጣው
ለመጥራት
ለመጥቀም
ለመጥቀስ
ለመጥበስ
ለመጥፋት
ለመጨመር
ለመጨረስ
ለመጨረሻ
ለመጨበጥ
ለመጨፍለቅ
ለመጫን
ለመጫወት
ለመጻፍ
ለመጽሀፍ
ለመጽሐፍ
ለመፃፍ
ለመፈለግ
ለመፈረጅ
ለመፈተሽ
ለመፈተን
ለመፈጸም
ለመፈጽም
ለመፈፀም
ለመፋለም
ለመፍረድ
ለመፍታት
ለመፍጠር
ለመፍጠርም
ለሙሉ
ለሙሴ
ለሙስሊሞች
ለሙት
ለሙከራ
ለሙዚቃ
ለሚለው
ለሚሉ
ለሚሉት
ለሚሊኒየም
ለሚመለከት
ለሚመራው
ለሚመጡ
ለሚመጣው
ለሚስቱ
ለሚስት
ለሚሻው
ለሚቀጥለው
ለሚቀጥሉት
ለሚቆሙበት
ለሚቆጠሩ
ለሚበልጡ
ለሚታኒ
ለሚችሉ
ለሚነሱ
ለሚነግርህ
ለሚኖሩ
ለሚከተሉት
ለሚካሄደው
ለሚወዱት
ለሚያየው
ለሚያደርጉ
ለሚያደርጉት
ለሚያጎነብሱትና
ለሚደረገው
ለሚደፉት
ለሚገኘው
ለሚገኙ
ለሚፈልጉ
ለሚፈልግ
ለማ
ለማህበራዊ
ለማለት
ለማለፍ
ለማላቀቅ
ለማልማት
ለማመልከት
ለማመስገን
ለማመቻቸት
ለማመን
ለማምለጥ
ለማምረት
ለማምጣት
ለማሟላት
ለማረም
ለማረጋገጥ
ለማረጋጋት
ለማረፍ
ለማራመድ
ለማራዘም
ለማርባት
ለማርካት
ለማርያም
ለማሰልጠን
ለማሰራጨት
ለማሰባሰብ
ለማሰናዳት
ለማሳለፍ
ለማሳመን
ለማሳተም
ለማሳካት
ለማሳወቅ
ለማሳየት
ለማሳደስ
ለማሳደድ
ለማሳደግ
ለማሳደግና
ለማስለቀቅ
ለማስላት
ለማስመለስ
ለማስመዝገብ
ለማስረከብ
ለማስረዳት
ለማስቀመጥ
ለማስቀረት
ለማስቀየር
ለማስቀጠል
ለማስቆም
ለማስተላለፍ
ለማስተማር
ለማስተናገድ
ለማስተካከል
ለማስተዋል
ለማስተዋወቅ
ለማስተዳደር
ለማስታረቅ
ለማስታወስ
ለማስታወስና
ለማስታገስ
ለማስቻል
ለማስከበር
ለማስወገድ
ለማስወጣት
ለማስደሰት
ለማስገበር
ለማስገባት
ለማስገኘት
ለማስጠበቅ
ለማስጠንቀቅ
ለማስፈራራት
ለማስፈታት
ለማስፈን
ለማስፈጸም
ለማስፋት
ለማስፋፋት
ለማሸነፍ
ለማሸጋገር
ለማሻሻል
ለማሻገር
ለማቀድ
ለማቃለል
ለማቃጠል
ለማቅረብ
ለማቅረብና
ለማቆም
ለማቆየት
ለማቋረጥ
ለማቋቋም
ለማበረታታት
ለማበርከት
ለማባረር
ለማብረድ
ለማብራራት
ለማብዛት
ለማታ
ለማታለል
ለማትረፍ
ለማነሳሳት
ለማነጻጸር
ለማናቸው
ለማናቸውም
ለማን
ለማንም
ለማንሳት
ለማንሻ
ለማንቀሳቀስ
ለማንበብ
ለማንኛውም
ለማንገስ
ለማኝ
ለማከማቸት
ለማከም
ለማከናወን
ለማካሄድ
ለማካተት
ለማካካስ
ለማካፈል
ለማክሸፍ
ለማክበር
ለማክነፍ
ለማወቅ
ለማወቅና
ለማወጅ
ለማዋል
ለማውረድ
ለማውጣት
ለማዎቅ
ለማዘዋወር
ለማዘዝ
ለማዘጋጀት
ለማዛወር
ለማዞር
ለማየት
ለማያውቁሽ
ለማያውቅ
ለማያያዝ
ለማይሰጥ
ለማደራጀት
ለማደስ
ለማደናቀፍ
ለማደናገር
ለማደግ
ለማዳ
ለማዳመጥ
ለማዳረስ
ለማዳበር
ለማዳን
ለማዳከም
ለማድረስ
ለማድረግ
ለማገልገል
ለማገናኘት
ለማገዝ
ለማገድ
ለማገዶ
ለማገገም
ለማጉላት
ለማጋራት
ለማግለል
ለማግባት
ለማግኘት
ለማግኘትና
ለማጎልበት
ለማጓጓዝ
ለማጠናቀቅ
ለማጠናከር
ለማጠን
ለማጠንከር
ለማጣራት
ለማጣት
ለማጥመድ
ለማጥራት
ለማጥቃት
ለማጥናት
ለማጥፋት
ለማጽደቅ
ለማጽዳት
ለማፈን
ለማፈግፈግ
ለማፋጠን
ለማፍረስ
ለማፍሰስ
ለም
ለምለም
ለምሣሌ
ለምሥራቅ
ለምርመራ
ለምርምር
ለምርጥ
ለምርጫ
ለምሳለ
ለምሳሌ
ለምሳሌም
ለምስራቅ
ለምስክር
ለምስጋና
ለምትጠቀሙ
ለምኑ
ለምን
ለምንስ
ለምንድነው
ለምኖ
ለምክር
ለምክትል
ለምዕራብ
ለምዳ
ለምድ
ለምድር
ለምዶ
ለምግብ
ለምግብነት
ለምጨን
ለምጽ
ለሞት
ለሞኝ
ለሟች
ለሠላሳ
ለሠራተኛ
ለሠራተኞች
ለሠራዊቱ
ለሠርግ
ለሥላሣ
ለሥልጣን
ለሥራ
ለሥነ
ለሦስተኛ
ለሦስቱ
ለሦስት
ለረዥም
ለረጅም
ለሩሲያ
ለሪፐብሊካን
ለራሱ
ለራሳቸው
ለራሴ
ለራስ
ለራስህ
ለራበው
ለራት
ለርሱ
ለርሱም
ለርስት
ለርስዎ
ለርሷ
ለርዕሰ
ለሮማ
ለሮማውያን
ለሮሜ
ለሰለባ
ለሰላማዊ
ለሰላም
ለሰማው
ለሰማይ
ለሰሜን
ለሰሪው
ለሰራተኞች
ለሰራው
ለሰባት
ለሰው
ለሰውም
ለሰውነቱ
ለሰውዬው
ለሰዎች
ለሰዎችም
ለሰየመው
ለሰይጣን
ለሰጠ
ለሰጠው
ለሰፊ
ለሰፊው
ለሱ
ለሱናክ
ለሱዳን
ለሳለው
ለሳምንታት
ለሳቸው
ለሳኦል
ለሳይንሳዊ
ለሳይንስ
ለሴ
ለሴማዊ
ለሴቲቱ
ለሴት
ለሴትና
ለሴቶች
ለስለስ
ለስላሳ
ለስላሳና
ለስሙ
ለስምምነቱ
ለስምንት
ለስራ
ለስራው
ለስኮትላንድ
ለስዊድን
ለስዕል
ለስድስት
ለስፔን
ለሶስተኛ
ለሶስት
ለሸማው
ለሸቀጥ
ለሹመት
ለሹም
ለሺ
ለሻይ
ለሽንት
ለሽያጭ
ለቀላል
ለቀመ
ለቀማ
ለቀረበው
ለቀሪው
ለቀቀ
ለቀቀው
ለቀቁ
ለቀን
ለቀንዳም
ለቀው
ለቀደሙት
ለቀዳማዊ
ለቀድሞ
ለቀድሞው
ለቀጣዩ
ለቀጣይ
ለቀጣዮቹ
ለቁርባ
ለቁርጥማት
ለቁስል
ለቁንጫ
ለቁጥር
ለቂጡ
ለቃ
ለቃል
ለቄሳር
ለቅመው
ለቅስፈት
ለቅሶ
ለቅቀው
ለቅቆ
ለቅንቅን
ለቅኝ
ለቅየሳ
ለቅዱስ
ለቅድስት
ለቆ
ለቆማጣ
ለቆሮንጦስ
ለቆዳ
ለቋል
ለቋሚ
ለቋንቋው
ለበለጠ
ለበረከት
ለበርካታ
ለበስ
ለበሽታ
ለበሽታው
ለበአል
ለበዓሉ
ለበዓል
ለበደሉ
ለበጋ
ለበግ
ለበጎ
ለቡዲስም
ለቡድኑ
ለቢቢሲ
ለባህላዊ
ለባለ
ለባለቤቱ
ለባለጌ
ለባልንጀራው
ለባሏ
ለባርነት
ለባሰው
ለባሽ
ለባቢሎን
ለባእድ
ለቤልጅግ
ለቤተ
ለቤተሰቡ
ለቤተሰቦቻቸው
ለቤተክርስቲያን
ለቤቱ
ለቤት
ለብልህ
ለብልቦ
ለብሔራዊ
ለብሪቲሽ
ለብሪታኒያው
ለብሪታንያ
ለብሪታንያውያን
ለብርሃን
ለብሰው
ለብሳ
ለብሶ
ለብቻ
ለብቻቸው
ለብቻዋ
ለብቻው
ለብዙ
ለብዙዎቹ
ለብዙዎች
ለቦምብ
ለቦታው
ለቭላድሚር
ለተለየ
ለተለያየ
ለተለያዩ
ለተመልካቾች
ለተመረጡ
ለተመረጡት
ለተመሳሳይ
ለተራ
ለተራበ
ለተሰኘው
ለተሸካሚና
ለተሻረ
ለተሾመ
ለተቀመጠ
ለተቀማጭ
ለተቀማጮቹም
ለተቅማጥ
ለተበደለ
ለተባለ
ለተባለው
ለተባበሩት
ለተቸገረ
ለተቸገሩ
ለተከታታይ
ለተከታዩ
ለተከታዮቹ
ለተወለዱ
ለተወሰነ
ለተወሰኑ
ለተገነባው
ለተገደሉ
ለተግባራዊ
ለተጎዱት
ለተጠቃሚው
ለተጠቃሚዎች
ለተጨማሪ
ለተፈጠረው
ለተፈጥሮ
ለታላቁ
ለታላቋ
ለታሪካዊ
ለታሪክ
ለታዋቂ
ለታዳጊ
ለቴዎድሮስ
ለት
ለትላልቅ
ለትልቅ
ለትምህርት
ለትምሕርት
ለትራንስፖርት
ለትርፍ
ለትኋን
ለትንሽ
ለትኩሳት
ለትውልድ
ለቻርልስ
ለቻይና
ለችግሩ
ለችግር
ለችፌ
ለኀጢአት
ለኃጢአት
ለኅትመት
ለኋለኛው
ለነ
ለነርሱ
ለነሱ
ለነበረው
ለነበሩ
ለነበሩት
ለነቢዩ
ለነብዩ
ለነአቶ
ለነዚህ
ለነዳጅ
ለነገ
ለነገረኛ
ለነገሩ
ለነገር
ለነጻነት
ለነፋስ
ለነፍሱ
ለነፍስ
ለኑሮ
ለኒህ
ለኒው
ለናቱ
ለናንተ
ለኔ
ለኔም
ለንባብ
ለንብ
ለንቦች
ለንደን
ለንደንን
ለንጉሠ
ለንጉሡ
ለንጉሣዊ
ለንጉሥ
ለንጉሥነቱ
ለንጉሱ
ለንጉስ
ለንግሥት
ለንግስት
ለንግድ
ለንፉግ
ለንፋስ
ለኗር
ለኛ
ለኛም
ለአሁኑ
ለአህያ
ለአህጉራዊ
ለአለም
ለአለቃው
ለአላህ
ለአላህም
ለአልበሙ
ለአሕዛብ
ለአመታት
ለአመጽ
ለአሚባ
ለአማርኛ
ለአሜሪካ
ለአሜሪካውያን
ለአምላክ
ለአምሥት
ለአምስት
ለአሣ
ለአሥራ
ለአሦር
ለአረመኔ
ለአረጋውያን
ለአራተኛው
ለአራቱ
ለአራት
ለአርባ
ለአሳድ
ለአስራ
ለአስር
ለአስርተ
ለአቀማመጡ
ለአቅመ
ለአበባ
ለአባለዘር
ለአባቱ
ለአባት
ለአባቶቻችን
ለአባቷ
ለአብ
ለአብርሃም
ለአብርሃምና
ለአብነት
ለአብዛኛው
ለአብዛኞቹ
ለአብይ
ለአብዮቱ
ለአቶ
ለአነስተኛ
ለአናባቢው
ለአንበሳ
ለአንባቢ
ለአንባቢያን
ለአንተ
ለአንቺ
ለአንዱ
ለአንዳንድ
ለአንዴና
ለአንድ
ለአንድነትና
ለአእዋፍ
ለአካለ
ለአካባቢ
ለአካባቢው
ለአካባቢያዊ
ለአካድ
ለአክባሪ
ለአውሮፓ
ለአየር
ለአያቱ
ለአይሁድ
ለአይሁዶች
ለአይን
ለአደጋ
ለአዲሱ
ለአዲስ
ለአዳም
ለአዳዲስ
ለአገልጋይ
ለአገልግሎት
ለአገሩ
ለአገሪቱ
ለአገራቸው
ለአገራችን
ለአገሬው
ለአገር
ለአጋንንት
ለአጎንባሾች
ለአጠቃላይ
ለአጥር
ለአጭር
ለአጼ
ለአፈ
ለአፍ
ለአፍሪቃ
ለአፍሪካ
ለአፍንጫ
ለኡሩክ
ለኢራን
ለኢስላም
ለኢብራሂምም
ለኢትዮሴማዊ
ለኢትዮጵያ
ለኢትዮጵያና
ለኢትዮጵያውያን
ለኢየሱስ
ለኢጣሊያ
ለኣንድ
ለኣይፎን
ለኤሌክትሪክ
ለኤልዛቤት
ለኤልያስ
ለኤልጂቢቲ
ለኤርትራ
ለእለት
ለእርሱ
ለእርስዎ
ለእርሷ
ለእርሻ
ለእሱ
ለእሳት
ለእስልምና
ለእስራኤል
ለእስር
ለእስፓንያ
ለእሷ
ለእበጥ
ለእባብ
ለእብለት
ለእነርሱ
ለእነርሱም
ለእነሱ
ለእነሱም
ለእነዚህ
ለእነዚያ
ለእናቱ
ለእናት
ለእናንተ
ለእናንተም
ለእኔ
ለእኔም
ለእንስሳት
ለእንስሶች
ለእንቅስቃሴ
ለእንዲህ
ለእንጀራ
ለእንግሊዝ
ለእንግሊዝኛ
ለእንግዳ
ለእንጨት
ለእኛ
ለእውነት
ለእያንዳንዱ
ለእይታ
ለእጅ
ለእግሩ
ለእግር
ለእግዚአብሄር
ለእግዚአብሔር
ለእግዜር
ለኦሮምኛ
ለኦሮሞ
ለከሳሽ
ለከብት
ለከብቶች
ለከተማ
ለከተማዋ
ለከተማው
ለከተማይቱ
ለከት
ለከፋ
ለከፍተኛ
ለኩሽቲክ
ለኩኦሚንታንግ
ለኪሳራ
ለካ
ለካህናት
ለካህን
ለካም
ለካስ
ለካናዳ
ለክለቡ
ለክርስትና
ለክርስቶስ
ለክስተቱ
ለክብር
ለክፉ
ለክፋት
ለኮማ
ለኮምፒውተር
ለኮምፕዩተር
ለኮሶ
ለኮቪድ
ለዅሉ
ለወለደሽ
ለወልድ
ለወረራ
ለወራት
ለወሬ
ለወርቅ
ለወሰደው
ለወሲብ
ለወባ
ለወታደራዊ
ለወታደር
ለወናፍ
ለወንዝ
ለወንድ
ለወንድሙ
ለወንዶች
ለወይዘሮ
ለወደፊቱ
ለወደፊቱም
ለወደፊት
ለወዳጁ
ለወዳጅ
ለወዳጅነት
ለወዳጅኝነት
ለወገን
ለወጠ
ለወጠው
ለወጡ
ለወጡም
ለወጣቶች
ለወጥ
ለወፍ
ለዋሽንግተን
ለዋና
ለዋናው
ለዋንጫ
ለዌልስ
ለው
ለውሃ
ለውስጥ
ለውሻ
ለውትድርና
ለውዝ
ለውይይት
ለውድቀት
ለውድድሩ
ለውጊያ
ለውጠኝ
ለውጠው
ለውጡ
ለውጡን
ለውጤት
ለውጥ
ለውጥና
ለውጥን
ለውጦታል
ለውጦቹን
ለውጦች
ለውጦችን
ለውጭ
ለዑር
ለዓለም
ለዓመታት
ለዓማርኛ
ለዓማርኛው
ለዓይን
ለዓፄ
ለዕለት
ለዕይታ
ለዘለቄታ
ለዘለቄታዊ
ለዘለዓለሙ
ለዘለዓለም
ለዘላለሙ
ለዘላለም
ለዘመቻ
ለዘመኑ
ለዘመናት
ለዘመናዊ
ለዘመናዊው
ለዘመን
ለዘሩ
ለዘር
ለዘብተኛ
ለዘይት
ለዚሁ
ለዚሁም
ለዚህ
ለዚህም
ለዚያ
ለዚያም
ለዚያች
ለዚያው
ለዛ
ለዝማሬ
ለዝናም
ለዝናብ
ለዝንብ
ለዞራስተር
ለየመን
ለየራሳቸው
ለየቅል
ለየብቻ
ለየብቻቸው
ለየት
ለዩሮ
ለዩኒኮድ
ለዩናይትድ
ለዩኔስኮ
ለዩክሬን
ለያንዳንዱ
ለያዕቆብ
ለያፌት
ለይ
ለይስሐቅ
ለይተን
ለይተው
ለይቶ
ለይቷል
ለዮሴፍ
ለደህና
ለደህንነት
ለደመወዝ
ለደሙ
ለደም
ለደርግ
ለደቀ
ለደቡብ
ለደብረ
ለደን
ለደጃዝማች
ለደጅ
ለዲሞክራሲ
ለዲስትሪክቱ
ለዲስትሪክት
ለዲያና
ለዳርቻው
ለዳኛ
ለዳዊት
ለዳግማዊ
ለዳግማዊት
ለዴሞክራሲ
ለዴሞክራሲያዊ
ለድሀ
ለድሃ
ለድህነት
ለድሆች
ለድመት
ለድምጹ
ለድርጅቱ
ለድንገተኛ
ለድንግል
ለድኻዎች
ለዶ
ለዶናልድ
ለዶክተሩ
ለጀርመን
ለጀግንነቱ
ለጃንሆይ
ለጃፓን
ለጄኔራል
ለጅቡቲ
ለጆርጅ
ለጆሮ
ለገሠ
ለገሰ
ለገበሬ
ለገበሬወች
ለገበሬዎች
ለገበታ
ለገበያ
ለገብርኤል
ለገና
ለገንዘብ
ለገዛ
ለገዥው
ለገዳሙ
ለጉም
ለጉበት
ለጉብኝት
ለጉንዳን
ለጉንፋን
ለጊዜ
ለጊዜው
ለጊዮም
ለጊፋታ
ለጋ
ለጋስ
ለጋሽ
ለጋብቻ
ለጋዜጠኞች
ለጌታ
ለጌታዋ
ለጌታው
ለግሉ
ለግል
ለግማሽ
ለግሪክ
ለግርማዊት
ለግሷል
ለግብር
ለግብርና
ለግብጽ
ለግብፅ
ለግንባታ
ለግዕዙ
ለግዕዝ
ለግዛቱ
ለግጦሽ
ለጎረቤቱ
ለጎን
ለጐን
ለጓሮ
ለጓደኝነት
ለጠላ
ለጠላት
ለጠመንጃ
ለጠቅላላ
ለጠቅላይ
ለጠጠር
ለጣሊያን
ለጣልያን
ለጣዖት
ለጤቤስ
ለጤና
ለጤንነት
ለጥ
ለጥምቀት
ለጥርስ
ለጥቁር
ለጥቂት
ለጥቅም
ለጥበቃ
ለጥናቱ
ለጥናት
ለጥንታዊ
ለጥፍ
ለጦር
ለጦርነቱ
ለጦርነት
ለጨረሰው
ለጨቅላ
ለጸሎት
ለጸጉር
ለጸጥታ
ለጻድቃን
ለጽሑፍ
ለጽድቅ
ለጾም
ለፀሐይ
ለፀረ
ለፈረስ
ለፈረንሣይ
ለፈረንሳይ
ለፈሪ
ለፈርዖን
ለፈተና
ለፈጠረው
ለፊልሙ
ለፊቱ
ለፊታውራሪ
ለፊት
ለፊደል
ለፋርስ
ለፋሲካ
ለፍልስጤማውያን
ለፍልስጤም
ለፍልስጥኤም
ለፍርድ
ለፍቅር
ለፍትህ
ለፍየል
ለፍጥረቱ
ለፑቲን
ለፓናማ
ለፕሬዚዳንት
ለፕሬዚዳንትነት
ለፕሬዝዳንት
ለፕሬዝዳንትነት
ለፖለቲካዊ
ሉ
ሉሉ
ሉሉቢ
ሉላያ
ሉሌ
ሉል
ሉሙምባ
ሉሙምባን
ሉማ
ሉሲ
ሉሳካ
ሉቃ
ሉቃስ
ሉቃስና
ሉቭር
ሉተራን
ሉተር
ሉቴራን
ሉአላዊነት
ሉኦ
ሉኦን
ሉኩስ
ሉካስ
ሉክ
ሉክሰምበርጊሽ
ሉክሰምበርግ
ሉክሳምቡርግ
ሉዊ
ሉዊስ
ሉዊኛ
ሉዊዚያና
ሉዊያ
ሉዎ
ሉዐላዊ
ሉዐላዊነት
ሉዓላዊ
ሉዓላዊነት
ሉዝ
ሉያ
ሉዲም
ሉድ
ሉድቪግ
ሉዶልፍ
ሉጉስ
ሉጋላንዳ
ሉጋል
ሉጋልባንዳ
ሉጋልባንዳና
ሉጋይድ
ሉግ
ሉግን
ሉግዱስ
ሉጠር
ሊ
ሊሄድ
ሊሆኑ
ሊሆን
ሊለካ
ሊለወጥ
ሊለዋውጥ
ሊሊ
ሊል
ሊመለስ
ሊመልስ
ሊመራ
ሊመስል
ሊመታ
ሊመደብ
ሊመጣ
ሊሙ
ሊሚትድ
ሊማ
ሊም
ሊምስ
ሊሞት
ሊሠሩ
ሊሠራ
ሊረዳ
ሊረዳው
ሊረጋገጥ
ሊሬ
ሊሰላ
ሊሰማ
ሊሰሩ
ሊሰራ
ሊሰቀል
ሊሰጠው
ሊሰጡ
ሊሰጥ
ሊሱባ
ሊሴ
ሊስት
ሊስትሮ
ሊስፋፋ
ሊሸነፍ
ሊሸከም
ሊሻገር
ሊቀ
ሊቀመንበር
ሊቀመጡ
ሊቀመጥ
ሊቀበለው
ሊቀበሉ
ሊቀበሉት
ሊቀበል
ሊቀንስ
ሊቀየሩ
ሊቀየር
ሊቀይር
ሊቁ
ሊቃነ
ሊቃውንተ
ሊቃውንቱ
ሊቃውንት
ሊቃውንትን
ሊቅ
ሊቅና
ሊቆም
ሊቆች
ሊቆዩ
ሊቆይ
ሊቆጠሩ
ሊቆጠር
ሊበሉ
ሊበላ
ሊበራል
ሊበር
ሊበን
ሊቢኩስ
ሊቢያ
ሊቢዶኛ
ሊባሉ
ሊባል
ሊባኖስ
ሊባኖስን
ሊባያ
ሊብያ
ሊቨርይማን
ሊቨርፑል
ሊቪኒ
ሊቪንግስተን
ሊተላለፍ
ሊተል
ሊተረጎም
ሊተር
ሊተነተኑ
ሊተካ
ሊተገበር
ሊቱዌኒያ
ሊታሰብ
ሊታወቁ
ሊታወቅ
ሊታዩ
ሊታይ
ሊትመን
ሊትማን
ሊትር
ሊትዌኒያ
ሊነሳ
ሊነበብ
ሊነብ
ሊነብብ
ሊኑክስ
ሊኒያር
ሊኔሚ
ሊን
ሊንከን
ሊንከንን
ሊንክ
ሊንኮች
ሊንደን
ሊንጋላ
ሊንጎናውያን
ሊንጎኔስ
ሊኖረው
ሊኖሩ
ሊኖሩት
ሊኖራቸው
ሊኖር
ሊኖርብን
ሊከሰቱ
ሊከሰት
ሊከበሩ
ሊከፈል
ሊኩርጉስ
ሊኩድ
ሊካሄድ
ሊካተቱ
ሊክተንስታይን
ሊኾን
ሊወሰድ
ሊወስድ
ሊወክል
ሊወድቅ
ሊወጣ
ሊወጣም
ሊውል
ሊዘራ
ሊዘንብ
ሊዘጋጅ
ሊዛወር
ሊዝበን
ሊዩ
ሊያ
ሊያልፍ
ሊያመልከት
ሊያርፍ
ሊያሳይ
ሊያስተምር
ሊያስተሰርይ
ሊያስከትሉ
ሊያስከትል
ሊያስፋፉት
ሊያቆሙ
ሊያንስ
ሊያካትት
ሊያወጣ
ሊያውቅ
ሊያዩ
ሊያይ
ሊያደርስ
ሊያደርገው
ሊያደርጉ
ሊያደርጉት
ሊያደርግ
ሊያድር
ሊያድነን
ሊያድን
ሊያገለግል
ሊያገኙ
ሊያገኙት
ሊያገኝ
ሊያጣ
ሊይዙ
ሊይዙት
ሊይዝ
ሊዮ
ሊዮናርዶ
ሊዮን
ሊዮፖልድ
ሊዮፖልድቪል
ሊደረስበት
ሊደረግ
ሊደርስ
ሊደርስበት
ሊደርሺፕ
ሊድን
ሊጀመር
ሊጀምሩ
ሊገለጥ
ሊገለጽ
ሊገመት
ሊገቡ
ሊገባ
ሊገኙ
ሊገኝ
ሊገዙ
ሊገድለው
ሊገድሉት
ሊገድል
ሊጉ
ሊጉርኛ
ሊጉን
ሊግ
ሊጝ
ሊጠራ
ሊጠቀሙባቸው
ሊጠቀም
ሊጠቀምበት
ሊጠቀሱ
ሊጠቅም
ሊጠይቁ
ሊጠፉ
ሊጠፋ
ሊጣል
ሊጥ
ሊጥል
ሊጨምር
ሊጻፍ
ሊፈተን
ሊፈቱ
ሊፈታ
ሊፈጠሩ
ሊፈጠር
ሊፈጥሩ
ሊፈጥር
ሊፈጸም
ሊፍት
ሊፒት
ላ
ላሁ
ላህያ
ላለ
ላለመስጠት
ላለማጣረስ
ላለም
ላለው
ላለፈ
ላለፈው
ላለፉት
ላሉ
ላሉት
ላሊበላ
ላሊበላን
ላላ
ላላቸው
ላላወቀው
ላልሆኑ
ላልተወሰነ
ላሎ
ላመሉ
ላሚ
ላማ
ላሜድ
ላም
ላምብ
ላሞች
ላሪ
ላርሳ
ላርሳን
ላሳርሽ
ላሳናት
ላስ
ላስታ
ላስታን
ላሽክት
ላቀው
ላቅ
ላባ
ላባርና
ላባዎች
ላብ
ላብራቶሪ
ላቦራቶሪ
ላቫል
ላቭ
ላቭሮቭ
ላቲቲውድ
ላቲን
ላትቪያ
ላንበሳ
ላንባቢዎች
ላንተ
ላንቺ
ላንካ
ላንካስተር
ላንዱ
ላንድ
ላንግ
ላንግሏ
ላንግረ
ላንጎ
ላኛ
ላኦስ
ላከ
ላከበት
ላከች
ላከችበት
ላከና
ላከንዱን
ላከኝ
ላከው
ላኩ
ላኩልኝ
ላኩት
ላኩዋቸው
ላኪ
ላኪዎች
ላካቸው
ላክነው
ላክን
ላክኸኝ
ላኮታ
ላኮኒያ
ላዋይ
ላው
ላውረንስ
ላውራ
ላዎስ
ላዕላይ
ላዕላይነቱ
ላዕላይነቱን
ላዕላይነት
ላዩ
ላዩን
ላይ
ላይሆኑ
ላይሆን
ላይሆንም
ላይም
ላይቤሪያ
ላይቭ
ላይቭሊሁድ
ላይና
ላይን
ላይኛ
ላይኛው
ላዮናርድ
ላደረገው
ላደረጉት
ላዲን
ላዲኖ
ላድርግ
ላገር
ላጋሽ
ላጋሽን
ላጣሪው
ላፈኛ
ላፍ
ላፍቶን
ላፒድ
ላፓዝ
ላፕላስ
ላፕቶፕ
ሌ
ሌሂን
ሌሊቱን
ሌሊት
ሌሊትና
ሌላ
ሌላም
ሌላን
ሌላኛው
ሌላኛውን
ሌላዉ
ሌላው
ሌላውም
ሌላውን
ሌላውንም
ሌላዎች
ሌላዎችም
ሌላዎችን
ሌሎቹ
ሌሎቹም
ሌሎቹን
ሌሎቹንም
ሌሎች
ሌሎችም
ሌሎችን
ሌሎችንም
ሌስተር
ሌሶቶ
ሌበር
ሌባ
ሌባና
ሌባን
ሌባው
ሌብነት
ሌብኒትዝ
ሌብኒዝ
ሌቦር
ሌቦች
ሌቪን
ሌቫንት
ሌተና
ሌተናል
ሌተናንት
ሌት
ሌኒኒስም
ሌኒኒስት
ሌኒኒዝም
ሌኒን
ሌኒንግራድ
ሌን
ሌኦን
ሌክ
ሌዊ
ሌዊስ
ሌውኪፖስ
ሌዎን
ሌዘር
ሌይ
ሌዮኔ
ሌዮን
ሌዲ
ሌጌዎን
ሌጎስ
ሌፍኮዚያ
ል
ልሂቃን
ልሔም
ልመና
ልሙት
ልማት
ልማትና
ልማትን
ልማቶችን
ልማዱ
ልማዳዊ
ልማድ
ልማድና
ልማዶች
ልማዶችን
ልምምድ
ልምምዶች
ልምምዶችን
ልምዳዊ
ልምድ
ልምዶች
ልምዶችን
ልምጭ
ልምጭት
ልሣናት
ልሳነ
ልሳናታቸው
ልሳናት
ልሳን
ልቀት
ልቀትን
ልቀቶች
ልቃቂት
ልቅ
ልቅሶ
ልቅሶና
ልቆ
ልበ
ልበልሃ
ልቡ
ልቡም
ልቡና
ልቡን
ልቢ
ልባም
ልባሞች
ልባስ
ልባቸው
ልባችሁ
ልባዊ
ልቤ
ልቤን
ልብ
ልብሰ
ልብሱ
ልብሱም
ልብሱን
ልብሱንም
ልብሳቸውን
ልብሴን
ልብስ
ልብስም
ልብስና
ልብስን
ልብሶች
ልብሶችን
ልብሷን
ልብነ
ልብን
ልብኽ
ልብወለድ
ልቦለድ
ልቦለዶች
ልቦና
ልቧ
ልታዩ
ልታደርጉ
ልትሆን
ልትል
ልትመጡ
ልትቀዳ
ልትደርቅ
ልትገባ
ልትፈታ
ልኡል
ልከናል
ልከዋል
ልከው
ልካ
ልኬት
ልኬቶች
ልኬቶችን
ልክ
ልክክ
ልክፈት
ልክፍት
ልኮ
ልኳል
ልውውጠ
ልውውጥ
ልዑለ
ልዑሉ
ልዑላን
ልዑል
ልዑልን
ልዑካን
ልዑክ
ልዕለ
ልዕልት
ልዕልና
ልዝብ
ልየታ
ልየው
ልዩ
ልዩነቱ
ልዩነቱን
ልዩነት
ልዩነትን
ልዩነቶች
ልዩነቶችን
ልይ
ልዮ
ልዮነት
ልደታ
ልደት
ልደትና
ልደቶች
ልደቷ
ልድያ
ልድያን
ልድያውያን
ልጀ
ልጁ
ልጁም
ልጁና
ልጁን
ልጂቱ
ልጂቱን
ልጃቸው
ልጃቸውን
ልጃችን
ልጃገረድ
ልጃገረዶች
ልጄ
ልጄን
ልጅ
ልጅህ
ልጅም
ልጅስ
ልጅሽ
ልጅቷን
ልጅነት
ልጅና
ልጅን
ልጅንም
ልጅኽ
ልጅዋ
ልጅዋን
ልጆቹ
ልጆቹም
ልጆቹን
ልጆቻቸው
ልጆቻቸውም
ልጆቻቸውን
ልጆቻችን
ልጆቼ
ልጆች
ልጆችም
ልጆችና
ልጆችን
ልጆችንም
ልጆቿ
ልጆቿን
ልጇ
ልጇም
ልጇን
ልግመኛ
ልግሥና
ልጓም
ልጡ
ልጥ
ልጥፍ
ልፋ
ልፋት
ሎ
ሎሌ
ሎሌና
ሎሌው
ሎሌዎች
ሎሚ
ሎሚና
ሎሜ
ሎምባርዶች
ሎምኒኒ
ሎረንስ
ሎሬት
ሎሬንሶ
ሎሬንዞ
ሎርድ
ሎሳንጅለስ
ሎስ
ሎቢ
ሎቤንጉላ
ሎቦ
ሎቭ
ሎቲያን
ሎንዶን
ሎንግ
ሎንግቲውድ
ሎንግቲዩድ
ሎንጎ
ሎንጎባርዲ
ሎእ
ሎክ
ሎው
ሎውረንስ
ሎዛ
ሎይን
ሎይድ
ሎጂስቲክስ
ሎጂክ
ሎጅ
ሎጊ
ሎጋሪዝም
ሎጎ
ሎጎምቲ
ሎጎስ
ሎጎግራም
ሎጥ
ሏ
ሐ
ሐለብ
ሐለብን
ሐሉሹ
ሐሊብ
ሐላሌ
ሐላብ
ሐመልማል
ሐመር
ሐሙስ
ሐማሴን
ሐማሴንን
ሐማዚ
ሐማዚን
ሐምሌ
ሐምራዊ
ሐሣብ
ሐሣዊ
ሐረ
ሐረሪ
ሐረር
ሐረርን
ሐረርኛ
ሐረርጌ
ሐረግ
ሐረግን
ሐረጎች
ሐረፕሼኪ
ሐሩር
ሐራነት
ሐራን
ሐር
ሐርቤ
ሐርብ
ሐሰተኛ
ሐሰተኛዎች
ሐሰት
ሐሳቡ
ሐሳቡን
ሐሳባዊነት
ሐሳብ
ሐሳቦች
ሐሳቦችን
ሐሴት
ሐስረሞት
ሐበሻ
ሐበሻት
ሐበሻይት
ሐበሽ
ሐባሽ
ሐብለ
ሐብል
ሐብት
ሐተታ
ሐቱሳሽ
ሐቱሺሊ
ሐቲ
ሐትኛ
ሐና
ሐናን
ሐንቲሊ
ሐንቲሊን
ሐኪሙ
ሐኪም
ሐኪሞች
ሐዋ
ሐዋርያ
ሐዋርያት
ሐዋርያትም
ሐዋርያትን
ሐዋርያዊ
ሐዋርያዊት
ሐዋርያው
ሐውልቱ
ሐውልት
ሐውልቶች
ሐውልቶችና
ሐዘን
ሐይል
ሐይማኖት
ሐይቁ
ሐይቁን
ሐይቅ
ሐይቅን
ሐይቆች
ሐይክ
ሐዲስ
ሐዲድ
ሐጂ
ሐገሪቱ
ሐገራት
ሐገር
ሐጎስ
ሐጐስ
ሐጾርን
ሑ
ሑራውያን
ሑርኛ
ሑዚያ
ሑዚያን
ሒ
ሒሳባዊ
ሒሳብ
ሒዳዓር
ሓ
ሓሊዞናውያን
ሓልፋ
ሓምሌ
ሓረግ
ሓርሞ
ሓርነት
ሓሳብ
ሓሳቦች
ሓበሻ
ሓኖ
ሓኪም
ሓኪሞች
ሓውልቱ
ሓውልቱን
ሓውልት
ሓደ
ሓዲስ
ሓጂ
ሓጎስ
ሔ
ሔሩ
ሔርሆር
ሔርሐቶር
ሔት
ሔኖክ
ሔዋን
ሔዋንን
ሔደ
ሔደው
ሔዱ
ሔዶ
ሕ
ሕልሙን
ሕልም
ሕልውና
ሕልውናው
ሕመም
ሕማም
ሕሽሚ
ሕብረተ
ሕብረተሰብ
ሕብረት
ሕብረትን
ሕትመት
ሕንዳዊ
ሕንዳውያን
ሕንድ
ሕንድና
ሕንድን
ሕንዶች
ሕንጻ
ሕንጻና
ሕንጻው
ሕንጻዎች
ሕንጻዎችን
ሕንፃ
ሕንፃው
ሕንፃውን
ሕንፃዎች
ሕንፃዎችን
ሕክምና
ሕክምናን
ሕክምናዎች
ሕክምናዎችን
ሕዋሳት
ሕዋስ
ሕዋእ
ሕዝቅኤል
ሕዝበ
ሕዝቡ
ሕዝቡም
ሕዝቡን
ሕዝቡንም
ሕዝባቸው
ሕዝባችንን
ሕዝባዊ
ሕዝቤን
ሕዝብ
ሕዝብም
ሕዝብና
ሕዝብን
ሕዝቦቹ
ሕዝቦቼ
ሕዝቦች
ሕዝቦችም
ሕዝቦችን
ሕያዋን
ሕያው
ሕይወቱ
ሕይወቱን
ሕይወታቸው
ሕይወታቸውን
ሕይወታዊ
ሕይወቴ
ሕይወቴና
ሕይወት
ሕይወትም
ሕይወትና
ሕይወትን
ሕይወቷን
ሕይዋን
ሕዳር
ሕገ
ሕገጋት
ሕጉ
ሕጉን
ሕጋዊ
ሕጋዊነት
ሕግ
ሕግም
ሕግና
ሕግን
ሕግጋት
ሕጎቹ
ሕጎቹን
ሕጎች
ሕጻኑን
ሕጻናት
ሕጻናትን
ሕጻን
ሕፃኑ
ሕፃኑን
ሕፃናት
ሕፃናትን
ሕፃን
ሖ
ሖል
ሖር
ሗ
መ
መሀለቅ
መሀላ
መሀል
መሀመድ
መሀሪ
መሀንዲስ
መሀንዲስነት
መሀንዲሶች
መሀከል
መሃሉ
መሃላ
መሃል
መሃመድ
መሃቪሃረ
መሃቪሃረውን
መሃንዲስ
መሃንዲሶች
መሃንድስ
መሃከል
መሃዲስቶች
መሄዱ
መሄዱን
መሄዳቸውን
መሄድ
መሄጃ
መህመድ
መህዙም
መሆኑ
መሆኑና
መሆኑን
መሆኑንም
መሆኑንና
መሆናቸው
መሆናቸውን
መሆናችሁን
መሆኔን
መሆን
መሆንን
መሆንዋ
መሆኗ
መሆኗን
መለሠው
መለሰ
መለሰለት
መለሰላቸው
መለሰችለት
መለሰው
መለሱ
መለሱለት
መለሳቸው
መለስ
መለስተኛ
መለከት
መለከቶች
መለኪያ
መለኪያዎች
መለካት
መለክ
መለኮታዊ
መለኮታዊት
መለኮት
መለኮትን
መለኰታዊ
መለወስ
መለወጥ
መለወጫ
መለዋወጥ
መለዋወጫ
መለየት
መለያ
መለያየት
መለጠጥ
መለጠፊያ
መለጠፊያዎች
መለጠፊያዎችም
መለጠፍ
መላ
መላላጫ
መላልሶ
መላመድ
መላምታችን
መላምት
መላምቶች
መላሸቅ
መላሹ
መላሽ
መላቀቅ
መላእክ
መላእክቱ
መላእክቱን
መላእክት
መላእክትም
መላእክትን
መላኩ
መላክ
መላክተኛ
መላክተኛነት
መላክተኞች
መላው
መላውን
መላዕክት
መላይኛ
መላጣ
መል
መልህቅ
መልመጃ
መልሰዋል
መልሰው
መልሰውም
መልሱ
መልሱን
መልሳ
መልሳችሁ
መልስ
መልሶ
መልሶም
መልሶች
መልሷል
መልቀቁን
መልቀቂያ
መልቀቅ
መልበስ
መልአከ
መልአኩ
መልአኩም
መልአኩን
መልአክ
መልአዊ
መልእክተኛ
መልእክተኛው
መልእክተኛዬን
መልእክተኞች
መልእክቱ
መልእክቱን
መልእክት
መልእክቶች
መልከ
መልከዓ
መልኩ
መልኩን
መልካ
መልካሙ
መልካሙን
መልካም
መልካምም
መልካምን
መልኬ
መልክ
መልክተኛ
መልክተኛን
መልክተኞች
መልክት
መልክና
መልክአ
መልክዐ
መልክዓ
መልኮች
መልኳ
መልዕክተኛ
መልዕክተኛው
መልዕክተኞች
መልዕክቱ
መልዕክቱን
መልዕክት
መልዕክትን
መልዕክቶች
መልዕክቶችን
መልጠፊያዎች
መሎኛ
መሐለቅ
መሐለቆች
መሐላ
መሐል
መሐመድ
መሐንዲስ
መሐንዲስነት
መሐንዲሶች
መሓረቡን
መሓረቤን
መመለሱ
መመለሱን
መመለስ
መመለሻ
መመላለስ
መመላለሻ
መመልስ
መመልከት
መመሥረት
መመረቂያ
መመረት
መመረዝ
መመረጥ
መመሪያ
መመሪያቸው
መመሪያዎች
መመሪያዎችን
መመራመር
መመራት
መመርመሪያ
መመርመር
መመሳሰል
መመስረት
መመስረትን
መመናመን
መመኘት
መመዘን
መመዘኛ
መመዘኛዎች
መመዝገብ
መመደብ
መመገብ
መሙላት
መማረክ
መማሪያ
መማር
መማርያ
መምህሩ
መምህሩን
መምህራን
መምህራንን
መምህር
መምህርነት
መምህርና
መምህሮች
መምሕር
መምረጡ
መምረጥ
መምሪያ
መምሪያዎች
መምራት
መምሬ
መምሰል
መምበርቱ
መምታታት
መምታት
መምቻ
መምኅር
መምኅሮች
መምከር
መምጠጥ
መምጣቱ
መምጣቱን
መምጣታቸውን
መምጣት
መምጣቷን
መሞቱን
መሞታቸው
መሞታቸውን
መሞት
መሞትን
መሞከር
መሟላት
መሟገት
መሠለ
መሠላቸው
መሠረተ
መሠረተው
መሠረቱ
መሠረቱን
መሠረታዊ
መሠረት
መሠረቶች
መሠራት
መሠከረ
መሢህ
መሢሕ
መሣሪያ
መሣሪያና
መሣሪያው
መሣሪያውን
መሣሪያዎች
መሣሪያዎችን
መሣርያ
መሣርያዎች
መሣርያዎችን
መሣፍንት
መሥመር
መሥሪያ
መሥራቱ
መሥራት
መሥራች
መሥራችና
መሥራቾች
መሥርተው
መሥዊያ
መሥዋዕት
መረመረ
መረሳት
መረቁ
መረቁን
መረቅ
መረቡ
መረባቸውን
መረብ
መረቦች
መረቦችን
መረን
መረንሬ
መረንነት
መረዳት
መረዳትና
መረጃ
መረጃሳጥን
መረጃና
መረጃን
መረጃው
መረጃውን
መረጃዎች
መረጃዎችን
መረገጫ
መረጋጋት
መረጋጋትን
መረጠ
መረጠች
መረጠው
መረጡ
መረጣ
መረጣቸው
መሪ
መሪር
መሪብሬ
መሪብታዊ
መሪነት
መሪና
መሪን
መሪካሬ
መሪወች
መሪዋ
መሪው
መሪውን
መሪዎች
መሪዎችም
መሪዎችና
መሪዎችን
መሪያቸው
መሪያቸውን
መራ
መራመድ
መራራ
መራር
መራቅ
መራቆት
መራባት
መራቸው
መራንኽሬ
መራዊ
መራጭ
መራጮች
መሬቱ
መሬቱን
መሬታቸው
መሬታቸውን
መሬት
መሬትና
መሬትን
መሬቶች
መሬቶችን
መር
መርሀ
መርሃ
መርሃግብር
መርሃግብሮች
መርህ
መርሆ
መርሆተፕሬ
መርሆች
መርሆችን
መርሆዎች
መርሐ
መርማሪ
መርምረዋል
መርምረው
መርምሮ
መርሰኸምሬ
መርሳቱ
መርሳትም
መርስዔ
መርሻ
መርቀው
መርቆሬዎስ
መርበትበት
መርተዋል
መርታለች
መርቷል
መርኅ
መርኆች
መርነፈሬ
መርነፕታህ
መርከበኛ
መርከበኛው
መርከበኞች
መርከቡ
መርከቢቱ
መርከቢቱን
መርከብ
መርከቦቹን
መርከቦች
መርከቦችን
መርኩሪ
መርካቶ
መርክል
መርኸፐሬ
መርዋ
መርዓዊ
መርዕድ
መርዛማ
መርዛም
መርዝ
መርየም
መርዳት
መርድ
መርዶ
መርዶዎች
መርጃ
መርገጫ
መርገጫዎች
መርገጫዎችን
መርጠን
መርጠዋል
መርጠው
መርጡለ
መርጦ
መርጧል
መርጨት
መርፌ
መሮጥ
መሰለ
መሰለሽ
መሰለኝ
መሰለው
መሰሉ
መሰላል
መሰላቸው
መሰል
መሰመር
መሰማት
መሰረተ
መሰረተች
መሰረቱ
መሰረቱን
መሰረታቸው
መሰረታዊ
መሰረት
መሰረትን
መሰረቶች
መሰረቶችን
መሰራት
መሰራጨት
መሰርታዊ
መሰርት
መሰቃ
መሰበር
መሰብሰቢያ
መሰብሰብ
መሰናከል
መሰናክል
መሰናክሎች
መሰናዶ
መሰንቆ
መሰንጎ
መሰንጠቅ
መሰከረ
መሰደድ
መሰጠት
መሲህ
መሲሊም
መሲሕ
መሳ
መሳለቂያ
መሳል
መሳም
መሳሪያ
መሳሪያነት
መሳሪያን
መሳሪያወች
መሳሪያወችን
መሳሪያው
መሳሪያዎች
መሳሪያዎችን
መሳርያ
መሳሳት
መሳበር
መሳቢያ
መሳብ
መሳተፍ
መሳካት
መሳያ
መሳይ
መሳፍርት
መሳፍንቱ
መሳፍንት
መሳፍንትን
መስ
መስህብ
መስህብነቱ
መስህቦች
መስለ
መስለም
መስለው
መስሊም
መስሊሞች
መስላ
መስል
መስሎ
መስሎሽ
መስሎት
መስሏት
መስሏቸው
መስመሩ
መስመሩን
መስመር
መስመርና
መስመርን
መስመሮቹ
መስመሮቹን
መስመሮች
መስመሮችን
መስመስኛ
መስማማት
መስማት
መስረቅ
መስሪያ
መስሪያነት
መስራቱ
መስራት
መስራትን
መስራቹ
መስራች
መስራችና
መስራቾች
መስርተዋል
መስርተው
መስርቶ
መስርቷል
መስቀለኛ
መስቀሉ
መስቀሉን
መስቀሉንም
መስቀል
መስቀልና
መስቃን
መስቃንኛ
መስበር
መስተንግዶ
መስተካከል
መስተዋት
መስተዋድድ
መስተዳደር
መስተዳድር
መስተዳድሮች
መስተጋብር
መስተጓጎል
መስተጻምር
መስታወት
መስታውት
መስታውቶች
መስኖ
መስከረም
መስኩ
መስኪት
መስኪአጝ
መስክ
መስክሯል
መስክን
መስኮብ
መስኮብን
መስኮብኛ
መስኮት
መስኮቶች
መስኮች
መስዋእትነት
መስዋዕት
መስዋዕትነት
መስዑድ
መስጂድ
መስገድ
መስጊድ
መስጊዶች
መስጠም
መስጠቱ
መስጠቱን
መስጠት
መስጠትን
መስጫ
መስጴጦምያ
መስጴጦምያና
መስጴጦምያን
መስፈሪያ
መስፈር
መስፈርት
መስፈርቶች
መስፈርቶችን
መስፋፋቱ
መስፋፋቱን
መስፋፋት
መስፋፋትና
መስፋፋትን
መስፍን
መሶብ
መሸርሸር
መሸሻ
መሸሽ
መሸነፍ
መሸከም
መሸጋገሪያ
መሸጋገርን
መሸጥ
መሸጫ
መሸፈን
መሸፈኛ
መሺካ
መሻር
መሻሻል
መሻገር
መሽ
መሽቶ
መሽከርከርን
መሽጎ
መሾም
መቀለብ
መቀላቀል
መቀሌ
መቀመጥ
መቀመጫ
መቀመጫቸው
መቀመጫቸውን
መቀመጫው
መቀመጫውን
መቀመጫዎች
መቀምር
መቀስ
መቀስቀስ
መቀቀል
መቀበሉ
መቀበሉን
መቀበላቸውን
መቀበል
መቀበሪያው
መቀበያ
መቀባት
መቀነስ
መቀነስና
መቀነስን
መቀነት
መቀንጠስ
መቀዛቀዝ
መቀየሩ
መቀየሪያ
መቀየር
መቀደስ
መቀጠል
መቀጠያ
መቀጮ
መቁረጥ
መቁረጫ
መቁሰል
መቁጠሪያ
መቁጠር
መቃ
መቃብሩ
መቃብሩን
መቃብር
መቃብሮች
መቃወም
መቃጠል
መቃጠሪያ
መቃጣት
መቄዶን
መቄዶንያ
መቅለጥ
መቅሠፍት
መቅረብ
መቅረት
መቅረጽ
መቅዘን
መቅደላ
መቅደሱ
መቅደሱን
መቅደስ
መቅደስም
መቅደስና
መቅደስን
መቅደሶች
መቅደጃ
መቅዳት
መቅድም
መቅጃ
መቅጠር
መቅጫ
መቆለፊያ
መቆሚያ
መቆም
መቆምን
መቆራረጥ
መቆርቆሩ
መቆየቱ
መቆየት
መቆያ
መቆጠሩ
መቆጠሪያ
መቆጠር
መቆጠብ
መቆጠብን
መቆጣጠሪያ
መቆጣጠር
መቆጣጠርና
መቋሚያ
መቋሚያና
መቋረጥ
መቋቋም
መቋቋምን
መቋጠር
መቐለ
መበለት
መበላሸት
መበተን
መበታተን
መባ
መባሉ
መባል
መባረር
መባባስ
መባቻ
መባዓ
መባዛት
መብላቱ
መብላት
መብል
መብረር
መብረርን
መብረቅ
መብራቅ
መብራቱ
መብራት
መብራትን
መብራቶች
መብቱ
መብቱን
መብታቸው
መብታቸውን
መብት
መብትና
መብትን
መብቶች
መብቶችና
መብቶችን
መብቷን
መብዛት
መተላለፉ
መተላለፊያ
መተላለፍ
መተመን
መተማ
መተማመን
መተርጎም
መተባበር
መተቸት
መተንበይ
መተንተን
መተንፈስ
መተኛት
መተከል
መተኪያ
መተካት
መተኮስ
መተው
መተዳደሪያ
መተግበሪያ
መተግበሪያዎች
መተግበር
መቱ
መታ
መታመን
መታሰሪያው
መታሰር
መታሰቢያ
መታሰቢያነት
መታሰቢያዎች
መታተም
መታቸው
መታነጽ
መታወቂያ
መታወቂያና
መታወቂያው
መታወቂያዎች
መታወቅ
መታወክ
መታው
መታዘዝ
መታዘዝንና
መታየት
መታደስ
መታገል
መታገስ
መታጠቢያ
መታጠብ
መታፈን
መት
መትረየስ
መትረፍ
መትተው
መትቶ
መትከል
መትጋት
መቶ
መቶኛ
መቶኛዎች
መቸ
መቸም
መቻሉ
መቻሉን
መቻል
መቻቻል
መቼ
መቼም
መቼት
መቼቶች
መቼና
መች
መኃል
መነሣት
መነሳቱ
መነሳት
መነሻ
መነሻቸው
መነሻነት
መነሻና
መነሻው
መነሻዎች
መነሾ
መነቃቃት
መነቃቃትን
መነን
መነኩሴ
መነኮሰች
መነኮሳት
መነኮሳትን
መነኮሴ
መነኮስ
መነጋገሪያ
መነጋገር
መነጋገርያ
መነጣጠል
መነጽር
መነጽሮች
መነፅር
መኑ
መኒ
መና
መናኛ
መናኸሪያ
መናወጥ
መናገሩ
መናገራቸው
መናገር
መናገርን
መናገሻ
መናፈሻ
መናፈሻዎች
መናፍስት
መናፍስትን
መናፍቃን
መናፍቃንን
መናፍቃዊ
መናፍቅ
መን
መንሰላስል
መንሰራፋት
መንስኤ
መንስኤው
መንስዔ
መንሸራተት
መንቀሳቀስ
መንቀጥቀጥ
መንቀጥቀጥና
መንቀጥቀጦች
መንበረ
መንበሩ
መንበር
መንበሮች
መንቱሆተፒ
መንቱሆተፕ
መንታ
መንትሌ
መንከባከብ
መንኩሳ
መንካት
መንኮራኩር
መንኮራኩሮች
መንኮራኲር
መንኲራኩር
መንዝ
መንደል
መንደሩ
መንደሩን
መንደር
መንደርደሪያ
መንደሮች
መንደሮችን
መንደፍ
መንዳት
መንጃ
መንገር
መንገሻ
መንገደኛ
መንገደኛው
መንገደኞች
መንገደኞችን
መንገደኞችንና
መንገዱ
መንገዱን
መንገዳቸውን
መንገድ
መንገድህን
መንገድም
መንገድና
መንገድን
መንገዶች
መንገዶችን
መንጋ
መንጋዎች
መንጋጋ
መንግ
መንግሥተ
መንግሥቱ
መንግሥቱም
መንግሥቱን
መንግሥታት
መንግሥታትና
መንግሥታትን
መንግሥታቸው
መንግሥታዊ
መንግሥት
መንግሥትም
መንግሥትና
መንግሥትን
መንግሥቶች
መንግስተ
መንግስቱ
መንግስቱን
መንግስታት
መንግስታትን
መንግስታቸው
መንግስታቸውን
መንግስታዊ
መንግስት
መንግስትና
መንግስትን
መንግስቶች
መንግስቶችን
መንጠብጠብ
መንጥሮት
መንጭቶ
መንፈሱ
መንፈሳዊ
መንፈሳዊነት
መንፈሳዊና
መንፈስ
መንፈስን
መንፈቅለ
መንፊያ
መኖ
መኖሩ
መኖሩን
መኖሪያ
መኖሪያቸው
መኖሪያቸውን
መኖሪያው
መኖራቸው
መኖራቸውን
መኖር
መኖርም
መኖርን
መኖርያ
መኖርያዎች
መኖኩሴ
መኝታ
መኤን
መከላከል
መከላከያ
መከላከያና
መከላከያው
መከላከያዎች
መከልከል
መከረው
መከሩት
መከራ
መከራን
መከራዋን
መከራውን
መከር
መከሰት
መከበር
መከተል
መከተብ
መከታ
መከታተል
መከታተያ
መከንጃ
መከፈል
መከፈት
መከፋፈል
መከፋፈልን
መኩሪያ
መኩርያ
መኪና
መኪናነት
መኪናን
መኪናው
መኪናውን
መኪናዎች
መኪናዎችን
መኪንሊ
መኪኖች
መኪኖችን
መካ
መካሄድ
መካሪ
መካተት
መካነ
መካኒካል
መካኒኮች
መካን
መካከለኛ
መካከለኛው
መካከል
መካከልም
መካካል
መካድ
መክሊል
መክሊት
መክሯል
መክሰስ
መክብብ
መክተቢያ
መክተቢያዎች
መክተብ
መክተፍ
መክነፍ
መክዘ
መክፈል
መክፈት
መክፈቻ
መክፈያ
መኮማተር
መኮነን
መኮንን
መኮንንነት
መኮንንና
መኮንንን
መኮንኖች
መኮንኖችና
መኮንኖችን
መኰንን
መኳንንቱ
መኳንንቱም
መኳንንቱና
መኳንንቱን
መኳንንት
መኳንንትና
መኳንንትን
መኳንንቶች
መኳያ
መኸር
መኻል
መኻከል
መኾኑ
መኾኑን
መኾናችኹ
መኾን
መወለድ
መወላገድ
መወሐድ
መወረር
መወርወሪያ
መወሰኑን
መወሰን
መወሰኛ
መወሰድ
መወከል
መወያየት
መወደድ
መወዳደር
መወገድ
መወጣጫ
መዋ
መዋል
መዋልት
መዋሸት
መዋቅራዊ
መዋቅር
መዋቅሮች
መዋቅሮችን
መዋኛ
መዋእል
መዋዕሉ
መዋዕሉም
መዋዕላቸው
መዋዕል
መዋዕልየጀሮም
መዋዕሎች
መዋዠቅ
መዋደድ
መዋጋት
መዋጮ
መውለድ
መውረድ
መውሰድ
መውደም
መውደቁ
መውደቅ
መውደቅን
መውደድ
መውጋት
መውጣቱ
መውጣቱን
መውጣታቸው
መውጣት
መውጣትና
መውጣትን
መውጫ
መዓልቲ
መዓልት
መዓርገ
መዓርግ
መዓት
መዓዛ
መዓይብሬ
መዘምራን
መዘርዘር
መዘርጋት
መዘበረ
መዘክር
መዘዙ
መዘዝ
መዘዞች
መዘጋቱን
መዘጋት
መዘጋጀት
መዘጋጃ
መዘግየት
መዛሙርቱ
መዛሙርቱም
መዛሙርቱን
መዛሙርቱንም
መዛሙርቴ
መዛሙርት
መዛሙርትኽ
መዛባት
መዛወር
መዛግብት
መዛግብትና
መዝ
መዝሀብ
መዝለል
መዝመት
መዝሙረ
መዝሙሩ
መዝሙር
መዝሙሮች
መዝሙሮችን
መዝናናት
መዝናኛ
መዝገበ
መዝገብ
መዝገቦች
መዝገቦችም
መዝገቦችን
መዝጊያ
መዝጋት
መዝግቦ
መዝግቦት
መዝግቧል
መዝፈን
መዝፈንና
መዞሪያዎች
መዞር
መዠመሪያ
መዥገር
መያዙ
መያዙን
መያዛቸው
መያዛቸውን
መያዝ
መያዝና
መያዣ
መያዣዎች
መያያዣ
መያያዣዎች
መይ
መይን
መደመር
መደምደሚያ
መደረጉ
መደረጉን
መደረግ
መደራረብ
መደርደር
መደበቅ
መደበኛ
መደበኛነት
መደበኛው
መደቡ
መደባለቅ
መደባት
መደብ
መደብር
መደቦች
መደነስ
መደገፍ
መዲና
መዲናዋ
መዳረሻ
መዳረሻዎች
መዳብ
መዳኒቶች
መዳን
መዳንን
መዳከም
መድሀኒቱ
መድሀኒት
መድሃኒ
መድሃኒቱን
መድሃኒታዊ
መድሃኒት
መድሃኒቶች
መድሃኒቶችን
መድሃኔ
መድህን
መድልዎ
መድሐኒት
መድማት
መድረሱን
መድረሳቸውን
መድረስ
መድረሻ
መድረኩ
መድረኩን
መድረክ
መድረክን
መድረኮች
መድረኮችን
መድብለ
መድብል
መድኀኒት
መድኀኔ
መድኃኒታችን
መድኃኒት
መድኃኒቶች
መድኃኒቶችን
መድኃኒዓለም
መድኃኔ
መድኃኔዓለም
መድኅነ
መድኅን
መድን
መድየንም
መድገም
መድፈር
መድፍ
መድፎች
መዶሻ
መጀመሩን
መጀመሪያ
መጀመሪያው
መጀመሪያዎቹ
መጀመራቸውን
መጀመር
መጀመርያ
መጀመርያው
መጀመርያውን
መጀምሪያ
መጅ
መገለል
መገለጥ
መገለጫ
መገለጫዎች
መገልበጥ
መገልገያ
መገልገያዎች
መገመት
መገረዝ
መገርሳ
መገርሳን
መገበባያ
መገበያየት
መገበያያ
መገባደጃ
መገነዣ
መገናኘቱ
መገናኘት
መገናኛ
መገንባቱን
መገንባት
መገንዘብ
መገንጠል
መገንጠልን
መገኘቱ
መገኘቱን
መገኘታቸው
መገኘታቸውን
መገኘት
መገኘትን
መገኛ
መገዛት
መገደል
መገደልና
መጉመጃ
መጉዳት
መጋለጥ
መጋረጃ
መጋራት
መጋቢ
መጋቢት
መጋቢዎች
መጋቢያን
መጋባት
መጋዝ
መጋገሪያ
መጋገር
መጋጠሚያ
መጋፈጥ
መጋፋት
መግለጪያ
መግለጫ
መግለጫን
መግለጫው
መግለጫውን
መግለጫዎች
መግለጫዎችን
መግለጽ
መግለፅ
መግል
መግቢያ
መግቢያዎች
መግባባት
መግባባትን
መግባቱ
መግባቱን
መግባታቸው
መግባት
መግባትን
መግነጢሳዊ
መግነጢስ
መግዛቱ
መግዛት
መግዣ
መግደላዊት
መግደል
መግጠም
መግፋት
መጎብኘት
መጎጥ
መጓዝ
መጓጓቱን
መጓጓዣ
መጠለያ
መጠላለፍ
መጠመቅ
መጠማዘዝ
መጠሪያ
መጠሪያው
መጠሪያዎች
መጠራት
መጠርያ
መጠርጠር
መጠቀሙ
መጠቀሙን
መጠቀሚያ
መጠቀማቸውን
መጠቀም
መጠቀምና
መጠቀምን
መጠቀስ
መጠቆሚያዎች
መጠበቂያ
መጠበቅ
መጠነ
መጠነኛ
መጠኑ
መጠኑም
መጠኑን
መጠናቀቅ
መጠናቸው
መጠናቸውንና
መጠናናት
መጠናከር
መጠን
መጠንም
መጠንቀቅ
መጠንና
መጠንን
መጠኖች
መጠየቅ
መጠይቅ
መጠጊያ
መጠጣት
መጠጥ
መጠጥን
መጠጦች
መጡ
መጡበት
መጣ
መጣሁ
መጣህ
መጣላቸው
መጣል
መጣስ
መጣቀሻዎች
መጣበት
መጣች
መጣና
መጣን
መጣኹ
መጣያ
መጣጤ
መጣጥፉ
መጣጥፉን
መጣጥፍ
መጣጥፎች
መጣጥፎችን
መጣጭ
መጤዎች
መጥለቅለቅ
መጥምቁ
መጥረቢያ
መጥረጊያ
መጥራት
መጥቀስ
መጥበስ
መጥበሻ
መጥበብ
መጥተኽ
መጥተዋል
መጥተው
መጥተውም
መጥታ
መጥቶ
መጥቷል
መጥቷልና
መጥቻለሁ
መጥቼ
መጥፋት
መጥፎ
መጦር
መጨመር
መጨመርና
መጨመርን
መጨምር
መጨረስ
መጨረሻ
መጨረሻና
መጨረሻው
መጨረሻውም
መጨረሻውን
መጨረቫና
መጨናነቅ
መጨፍጨፍ
መጪው
መጫን
መጫወት
መጫወቻ
መጫፈ
መጭ
መጭው
መጸለይ
መጸሐፍት
መጸው
መጻህፍት
መጻህፍትን
መጻሕፍተ
መጻሕፍቱ
መጻሕፍቱን
መጻሕፍት
መጻሕፍትና
መጻሕፍትን
መጻፉ
መጻፊያ
መጻፍ
መጻፍና
መጽሀፉ
መጽሀፍ
መጽሀፍት
መጽሀፎች
መጽሀፎችን
መጽሃፉ
መጽሃፉን
መጽሃፍ
መጽሃፍት
መጽሃፎች
መጽሃፎችን
መጽሄት
መጽሐፈ
መጽሐፉ
መጽሐፉን
መጽሐፋቸው
መጽሐፍ
መጽሐፍም
መጽሐፍት
መጽሐፍትን
መጽሐፍን
መጽሐፎች
መጽሐፎችን
መጽሓፋቸው
መጽሓፍ
መጽሓፍት
መጽሔት
መጽሔቶች
መጽናኛ
መጾም
መፀው
መፃህፍት
መፃሕፍት
መፃፍ
መፅሀፉ
መፅሀፍ
መፅሀፍት
መፅሃፍ
መፅሄት
መፅሐፍ
መፅሐፍት
መፅሔት
መፈለጊያ
መፈለግ
መፈራረቅ
መፈተሽ
መፈተኛ
መፈናቀል
መፈንቅለ
መፈንቅል
መፈንዳት
መፈክር
መፈክርም
መፈጠሩን
መፈጠር
መፈጸሚያ
መፈጸም
መፋሰስ
መፍለቂያ
መፍለጫ
መፍረስ
መፍራት
መፍሰስ
መፍቀድ
መፍታት
መፍትሄ
መፍትሄዎች
መፍትሄዎችን
መፍትሔ
መፍቻ
መፍካት
መፍጠሩ
መፍጠሪያ
መፍጠር
መፍጠርን
መፎተት
ሙ
ሙሀመድ
ሙሃመድ
ሙሃማድ
ሙህራን
ሙሉ
ሙሉቀን
ሙሉነህ
ሙሉነት
ሙሉው
ሙሉውን
ሙሉጌታ
ሙላቱ
ሙላት
ሙላቶች
ሙላው
ሙል
ሙልሙል
ሙልጭ
ሙሐመድ
ሙሐመድን
ሙሐማድ
ሙምባይ
ሙራድ
ሙር
ሙርሌ
ሙርሌኛ
ሙርሲ
ሙርሲሊ
ሙርሲኛ
ሙርቲ
ሙርጥ
ሙሳ
ሙሳም
ሙሴ
ሙሴም
ሙሴና
ሙሴን
ሙስሊሙ
ሙስሊሙን
ሙስሊም
ሙስሊሞች
ሙስሊሞችን
ሙስታፋ
ሙስና
ሙስዓብ
ሙስዓብን
ሙስጠፋ
ሙሶሊኒ
ሙሶሎኒ
ሙሽሪት
ሙሽሪኮች
ሙሽራ
ሙሽራው
ሙሽካውያን
ሙሾ
ሙቀቱ
ሙቀት
ሙቀጫ
ሙቅ
ሙባሊት
ሙባራክ
ሙተቂ
ሙታን
ሙታንን
ሙት
ሙኒክ
ሙና
ሙን
ሙንዱ
ሙአለ
ሙአማር
ሙከራ
ሙከራወች
ሙከራው
ሙከራውን
ሙከራዎች
ሙከራዎችን
ሙኪሽ
ሙክ
ሙክት
ሙኸርኛ
ሙዋታሊ
ሙዚቀኛ
ሙዚቀኞች
ሙዚቃ
ሙዚቃን
ሙዚቃዊ
ሙዚቃው
ሙዚቃውን
ሙዚቃዎች
ሙዚቃዎችን
ሙዚየም
ሙዚየሞች
ሙዝ
ሙያ
ሙያተኞች
ሙያቸውን
ሙያን
ሙያዊ
ሙያው
ሙያውም
ሙያውን
ሙያዎች
ሙጃ
ሙጃሂድ
ሙገር
ሙጋቤ
ሙግት
ሙጦሊብ
ሙጫ
ሙፍቲ
ሚ
ሚሊ
ሚሊሜትር
ሚሊሻ
ሚሊሻዎች
ሚሊሻዎችን
ሚሊኒየም
ሚሊየነሮች
ሚሊየን
ሚሊዮን
ሚሊዮኖች
ሚላን
ሚላኖ
ሚሌሲያን
ሚሌኒየም
ሚል
ሚልተን
ሚልክ
ሚልክያስ
ሚልየን
ሚልዮን
ሚሜ
ሚሥጥረ
ሚሩጸ
ሚሪና
ሚሪያም
ሚሲሲፒ
ሚሲዮናዊ
ሚሲዮን
ሚሲዮኖች
ሚሲዮኖችና
ሚሲዮኖችን
ሚሳኤል
ሚሳኤሎች
ሚሳይል
ሚስማር
ሚስተር
ሚስቱ
ሚስቱም
ሚስቱን
ሚስታቸው
ሚስታቸውን
ሚስቴ
ሚስት
ሚስትህ
ሚስትህን
ሚስትና
ሚስትን
ሚስቶቻቸው
ሚስቶች
ሚስያ
ሚስዮናውያን
ሚስዮን
ሚስዮኖች
ሚስዮኖችን
ሚስጥራዊ
ሚስጥር
ሚሸል
ሚሺጋን
ሚሻ
ሚሼል
ሚሼልቶሬና
ሚሽና
ሚሾ
ሚባሉ
ሚታኒ
ሚቸል
ሚች
ሚኒ
ሚኒሊክ
ሚኒስተር
ሚኒስቴሩ
ሚኒስቴሩን
ሚኒስቴር
ሚኒስቴርነት
ሚኒስቴሮች
ሚኒስትሩ
ሚኒስትሩን
ሚኒስትር
ሚኒስትርነቱን
ሚኒስትርነት
ሚኒስትሮች
ሚኒስትሮችና
ሚኒስትሮችን
ሚኒን
ሚና
ሚናስ
ሚናቸው
ሚናዋ
ሚናው
ሚናዎች
ሚናገሩ
ሚን
ሚንስቴር
ሚንስትር
ሚንስትርነት
ሚንስክ
ሚንግ
ሚካሂል
ሚካኢሎ
ሚካኤል
ሚካኤልም
ሚካኤልና
ሚካኤልን
ሚካኤሎ
ሚካያ
ሚክያስ
ሚዙሪ
ሚዛኑ
ሚዛኑን
ሚዛናዊ
ሚዛን
ሚዛንን
ሚያ
ሚያዚያ
ሚያዝያ
ሚዲ
ሚዲያ
ሚዲያን
ሚዲያዎች
ሚዲያዎችን
ሚዳቋ
ሚድልሴክስ
ሚድራሽ
ሚድያ
ሚዶ
ሚጌል
ሚግ
ሚግማቅ
ሚጥሚጣ
ሚፔላ
ማ
ማህሌት
ማህሙድ
ማህበረ
ማህበረሰቡ
ማህበረሰቡን
ማህበረሰባዊ
ማህበረሰብ
ማህበረሰብን
ማህበረሰቦች
ማህበረሰቦችን
ማህበሩ
ማህበሩን
ማህበራት
ማህበራዊ
ማህበራዊና
ማህበር
ማህበርን
ማህተም
ማህደረ
ማህደር
ማህዲ
ማህጸን
ማህፀን
ማህፉዝ
ማለቂያ
ማለቅ
ማለቱ
ማለቱን
ማለታቸው
ማለታቸውን
ማለቴ
ማለት
ማለትም
ማለትን
ማለዳ
ማለዳም
ማለፉን
ማለፊያ
ማለፍ
ማሊ
ማሊክ
ማሊያ
ማላቀቅ
ማላዊ
ማላዊን
ማላጅ
ማሌ
ማሌኛ
ማሌዥያ
ማል
ማልማት
ማልቀስ
ማልበስ
ማልታ
ማልኮም
ማልደው
ማልዲቭስ
ማልፎይ
ማልፎይን
ማሎቲ
ማሎት
ማሕበረሰብ
ማሕበረሰቦች
ማሕበራዊ
ማሕበር
ማሕተም
ማሕፀን
ማመላለሻ
ማመልከት
ማመልከቻ
ማመሳከሪያዎች
ማመስገን
ማመስገኛ
ማመቻቸት
ማመን
ማመንጫ
ማመንጫዎች
ማመዛገቢያ
ማመዛገቢያዎች
ማመጣጠን
ማሙሽ
ማሚ
ማማ
ማማለድ
ማማረር
ማማሰል
ማማት
ማማከር
ማማዎች
ማማዎችንና
ማምለኪያ
ማምለክ
ማምለጥ
ማምሉክ
ማምሉኮች
ማምረት
ማምረቻ
ማምረቻው
ማምጣት
ማሞ
ማሞቂያዎችን
ማሞቅ
ማሟላት
ማሟያ
ማሠልጠን
ማሠልጠኛ
ማሠራጫ
ማሠር
ማሠብ
ማረሚያ
ማረም
ማረስ
ማረሻ
ማረቆ
ማረን
ማረኝ
ማረከ
ማረከና
ማረከው
ማረኩ
ማረኩት
ማረጃዋን
ማረጋገጥ
ማረጋገጫ
ማረጋጋት
ማረግ
ማረፊያ
ማረፊያን
ማረፊያው
ማረፊያዎች
ማሩ
ማሩን
ማሩኝ
ማሪ
ማሪና
ማሪን
ማሪኖ
ማሪኢፖል
ማሪያ
ማሪያም
ማሪያምን
ማሪያና
ማሪዮ
ማራ
ማራቶን
ማራኪ
ማራኳት
ማራዘሚያ
ማራዶና
ማሬኖ
ማር
ማርሊ
ማርሌይ
ማርልኝ
ማርሱስ
ማርሲ
ማርሴሎ
ማርሴይ
ማርስ
ማርሻል
ማርሽ
ማርቆስ
ማርቆስና
ማርቆስን
ማርባት
ማርቭል
ማርቱ
ማርቲን
ማርታ
ማርች
ማርን
ማርከስ
ማርከው
ማርኩስ
ማርኬስ
ማርክ
ማርክሲስም
ማርክሲስት
ማርክሲዝም
ማርክስ
ማርኮ
ማርኮሚር
ማርኮኒ
ማርየ
ማርያ
ማርያም
ማርያምም
ማርያምና
ማርያምን
ማርያምንና
ማርዬ
ማርዱክ
ማርጋሬት
ማርጋይ
ማሰልጠን
ማሰልጠኛ
ማሰማት
ማሰሪያ
ማሰሪያው
ማሰራት
ማሰራጨት
ማሰራጫ
ማሰራጫዎች
ማሰር
ማሰሮ
ማሰባሰብ
ማሰብ
ማሲንቆ
ማሲፍ
ማሳ
ማሳለፍ
ማሳመን
ማሳሰቢያ
ማሳተም
ማሳቹሴትስ
ማሳኮ
ማሳወቂያ
ማሳወቅ
ማሳየት
ማሳያ
ማሳይ
ማሳደድ
ማሳደጊያ
ማሳደግ
ማሳደግን
ማሳጠር
ማስላት
ማስመለስ
ማስመዝገብ
ማስማማት
ማስረከብ
ማስረዳት
ማስረጃ
ማስረጃቸውን
ማስረጃዎች
ማስረጃዎችን
ማስሩቅ
ማስቀመጥ
ማስቀመጫ
ማስቀረት
ማስቆም
ማስተላለፊያ
ማስተላለፊያዎች
ማስተላለፍ
ማስተማሩን
ማስተማር
ማስተማርን
ማስተማርያ
ማስተር
ማስተርስ
ማስተናገድ
ማስተካከል
ማስተካከያ
ማስተዋል
ማስተዋወቅ
ማስተዳደር
ማስታወስ
ማስታወሻ
ማስታወሻን
ማስታወሻዎች
ማስታወቂያ
ማስታወቂያዎች
ማስታወቂያዎችን
ማስታገሻ
ማስቻሉ
ማስቻልን
ማስነሳት
ማስከበር
ማስክ
ማስክን
ማስወገድ
ማስወገጃ
ማስወጣት
ማስያዝ
ማስጀመሪያ
ማስጀመር
ማስገባት
ማስገኘት
ማስገደድ
ማስጠበቅ
ማስጠንቀቂያ
ማስፈራሪያ
ማስፈራራት
ማስፈንጠር
ማስፈጸም
ማስፋፋት
ማሸነፉ
ማሸነፍ
ማሻሻል
ማሻሻያ
ማሻሻያው
ማሻሻያዎች
ማሻሻያዎችን
ማሽላ
ማሽቆልቆሉን
ማሽቆልቆል
ማሽተት
ማሽን
ማሽንን
ማሽኖች
ማሾላ
ማቀነባበሪያ
ማቀነባበር
ማቀነባበርያ
ማቀዝቀዣ
ማቀድ
ማቁላላት
ማቃጠል
ማቅ
ማቅለጥ
ማቅለጫ
ማቅረቡን
ማቅረብ
ማቆሙም
ማቆሚያ
ማቆም
ማቆር
ማቆየት
ማቆያ
ማቋረጥ
ማቋረጫ
ማቋቋሚያ
ማቋቋም
ማበላሸት
ማበልጸግ
ማበረታታት
ማበረታቻ
ማበጀት
ማበጠር
ማበጥ
ማቡግ
ማባረር
ማባከን
ማባዛት
ማባዛትን
ማብላት
ማብረድ
ማብሪያ
ማብራሪያ
ማብራራት
ማብሰል
ማብሰያ
ማብቀል
ማብቂያ
ማብቃቱ
ማብቃት
ማብዛት
ማተሚያ
ማተም
ማተኮር
ማቲን
ማቲዎስ
ማታ
ማታለል
ማታውኑ
ማቴ
ማቴዎስ
ማቴዎስም
ማቴዎስና
ማት
ማትረፍ
ማትሪክስ
ማትካል
ማትያስ
ማቻከል
ማኀበራዊ
ማኀበር
ማኅበረ
ማኅበረሰብ
ማኅበረሰቦች
ማኅበሩ
ማኅበሩን
ማኅበራት
ማኅበራዊ
ማኅበር
ማኅበርም
ማኅበርን
ማኅተመ
ማኅተም
ማኅተሞች
ማነሳሳት
ማነስ
ማነቃቂያ
ማነቆው
ማነብ
ማነው
ማነጻጸሪያ
ማነፅ
ማኑ
ማኑስ
ማኑኤል
ማኒ
ማኒላ
ማኒሽቱሹ
ማኒኪስም
ማናማልቴል
ማናቸው
ማናቸውም
ማናቸውንም
ማናጓ
ማናፈሻ
ማኔቶን
ማኔጅመንት
ማኔጦን
ማን
ማንሃተን
ማንም
ማንምም
ማንሰራራት
ማንሱር
ማንሳት
ማንስ
ማንቀላፋት
ማንቀሳቀስ
ማንበብ
ማንበብና
ማንተክተክ
ማንቱራይ
ማንቸስተር
ማንቹሪያን
ማንቹርያን
ማንችስተር
ማንነቱ
ማንነቱን
ማንነታቸው
ማንነታቸውን
ማንነት
ማንነትን
ማንነቶች
ማንን
ማንንም
ማንኛው
ማንኛውም
ማንኛውንም
ማንኪያ
ማንዴ
ማንዴላ
ማንዴልብሮት
ማንዴት
ማንጋ
ማንጋጠጥ
ማንግ
ማንጎ
ማንጓጓቱን
ማንጠልጠል
ማኖር
ማእረጉን
ማእረግ
ማእበል
ማእከላት
ማእከላዊ
ማእከላዊነት
ማእከል
ማእዘን
ማእዘንን
ማእዘኖችን
ማእድ
ማእድን
ማኦ
ማከማቻ
ማከም
ማከረል
ማከናወን
ማከዶን
ማከፋፈያ
ማኩሪያ
ማካ
ማካሄድ
ማካተት
ማካካሻ
ማካው
ማካዎ
ማካፈል
ማኬባ
ማክ
ማክሊን
ማክሚላን
ማክሮ
ማክሮቢያውያን
ማክሮን
ማክሰኞ
ማክሲማ
ማክስ
ማክስዌል
ማክበር
ማክታብ
ማክዳ
ማክዶናልድ
ማክፈር
ማኮብኮቢያ
ማወቁ
ማወቂያ
ማወቅ
ማወቅና
ማወጅ
ማዊ
ማዋሃድ
ማዋል
ማዋስ
ማዋቀር
ማዋዕል
ማው
ማውረድ
ማውራት
ማውርያ
ማውሮ
ማውስ
ማውንባተን
ማውንት
ማውጣት
ማውጫ
ማዕረጉ
ማዕረጉን
ማዕረጋቸውን
ማዕረግ
ማዕረግን
ማዕረጎች
ማዕርግ
ማዕቀብ
ማዕቀቦች
ማዕቀፍ
ማዕበሉን
ማዕበል
ማዕበልን
ማዕበሎች
ማዕከለኛ
ማዕከሉ
ማዕከላት
ማዕከላትን
ማዕከላዊ
ማዕከላዊነት
ማዕከላዊው
ማዕከል
ማዕከልነት
ማዕከልና
ማዕከሎች
ማዕዘኑ
ማዕዘናት
ማዕዘን
ማዕዘኖቹ
ማዕዘኖች
ማዕድ
ማዕድናት
ማዕድን
ማዕድኖች
ማዖሪ
ማዘርስ
ማዘንበል
ማዘንጊያ
ማዘንጊያም
ማዘንጊያን
ማዘዙን
ማዘዝ
ማዘጋጀት
ማዘጋጀትና
ማዘጋጃ
ማዞሪያ
ማየ
ማየር
ማየት
ማያ
ማያያዝ
ማያያዣ
ማያያዣዎች
ማይ
ማይል
ማይልስ
ማይነር
ማይን
ማይክ
ማይክል
ማይክሮ
ማይክሮስኮፕ
ማይክሮሶፍት
ማይክሮሶፍትን
ማይጨው
ማዮ
ማዮር
ማዮንያ
ማደሪያ
ማደራጀት
ማደር
ማደስ
ማደናገሪያው
ማደን
ማደጉ
ማደግ
ማደግና
ማዲሰን
ማዳመጥ
ማዳበር
ማዳን
ማዳከም
ማዳይ
ማዳጋስካር
ማዴ
ማድረስ
ማድረጉ
ማድረጉን
ማድረጋቸው
ማድረጋቸውን
ማድረግ
ማድረግና
ማድረግን
ማድሪድ
ማድራሣ
ማድነቅ
ማዶ
ማጀቢያ
ማጀት
ማጃንጊር
ማጃንግኛ
ማጄላን
ማጅራት
ማጆር
ማገልገል
ማገናኘት
ማገናዘቢያ
ማገንባት
ማገድ
ማገዶ
ማገጃ
ማገገሙ
ማገገሚያ
ማገገም
ማጉረስ
ማጉስ
ማጉያ
ማጊር
ማጋ
ማጋል
ማጋራት
ማጋነን
ማጋኖ
ማጋዎች
ማግ
ማግለል
ማግሥቱ
ማግሥት
ማግስት
ማግባት
ማግኑስ
ማግኒዥየም
ማግኔት
ማግኘቱ
ማግኘታቸው
ማግኘት
ማግኛ
ማግኝት
ማጎልበት
ማጎሪያ
ማጎር
ማጎግ
ማጓጓዝ
ማጓጓዣ
ማጠራቀሚያ
ማጠራቀሚያዎች
ማጠራቀም
ማጠር
ማጠቃለያ
ማጠቢያ
ማጠብ
ማጠናከር
ማጠፍ
ማጣሪያ
ማጣሪያዎች
ማጣራት
ማጣቀሻ
ማጣቀሻወች
ማጣቀሻዎች
ማጣት
ማጣትን
ማጥመድ
ማጥመጃ
ማጥራት
ማጥቃት
ማጥበቅ
ማጥናት
ማጥፊያ
ማጥፋቱ
ማጥፋት
ማጥፋትን
ማጫ
ማጫን
ማጫወት
ማጫወቻ
ማጫዎቻዎች
ማጭበርበር
ማጭበርበርን
ማጭድ
ማጽናት
ማጽዳት
ማፈላለግ
ማፈግፈግ
ማፋጠን
ማፋጨት
ማፍረስ
ማፍራት
ማፍሰስ
ማፑቶ
ሜ
ሜል
ሜልካ
ሜም
ሜሪ
ሜሪላንድ
ሜሪዳ
ሜርኩሪ
ሜሮቲክ
ሜሮን
ሜሮይቲክ
ሜሮዳክ
ሜሰን
ሜሲ
ሜሶጶጣሚያ
ሜሻ
ሜተር
ሜታ
ሜታል
ሜታፊዚክስ
ሜትሪክ
ሜትር
ሜትሮ
ሜትሮች
ሜትሮፖሊታን
ሜኒ
ሜኒስ
ሜናኽም
ሜን
ሜከርስ
ሜካኒካል
ሜካኒክስ
ሜክሲካዊ
ሜክሲኮ
ሜክሲኮን
ሜየር
ሜይ
ሜይል
ሜይን
ሜዲተራኒያን
ሜዲትራኒያን
ሜዲቺ
ሜዲካል
ሜዲኬር
ሜዲኬይድ
ሜዳ
ሜዳሊያ
ሜዳማ
ሜዳው
ሜዳዎች
ሜዳዎችን
ሜዳይ
ሜድቬዴቭ
ሜድቬድቹክ
ሜድትራኒያን
ሜዶን
ሜጀር
ሜጀርን
ሜጄር
ሜጋ
ሜጫ
ም
ምሁሩ
ምሁራን
ምሁራኖቻችን
ምሁራኖች
ምሁራዊ
ምሁር
ምህረቱ
ምህረት
ምህረትን
ምህር
ምህንስና
ምህንድስና
ምህንድስናና
ምህንድስናን
ምህዋር
ምህዳራዊ
ምህዳር
ምህዳሮች
ምህጻረ
ምላሱ
ምላሱን
ምላስ
ምላሷ
ምላሽ
ምላሽን
ምላሾች
ምላጭ
ምልልስ
ምልምሎች
ምልከታ
ምልከት
ምልክቱ
ምልክቱን
ምልክት
ምልክትም
ምልክትና
ምልክትን
ምልክቶቹ
ምልክቶች
ምልክቶችና
ምልክቶችን
ምልጃ
ምሑራን
ምሑር
ምሕረት
ምሕረትን
ምሥረታ
ምሥራቁ
ምሥራቃዊ
ምሥራቅ
ምሥራቅና
ምሥር
ምሥክሮች
ምሥጢራዊ
ምሥጢር
ምረቃ
ምረጥ
ምሩቃኑ
ምሩቃን
ምሩቅ
ምሪት
ምራቅ
ምርመራ
ምርመራው
ምርመራዎች
ምርምር
ምርምርም
ምርምርና
ምርምሮች
ምርቃት
ምርቱ
ምርቱን
ምርታማ
ምርታማነት
ምርታቸውን
ምርት
ምርትና
ምርትን
ምርቶች
ምርቶችን
ምርከኞች
ምርኩዙን
ምርኩዝ
ምርኮ
ምርኮኞች
ምርጡ
ምርጥ
ምርጫ
ምርጫም
ምርጫን
ምርጫዋ
ምርጫው
ምርጫውን
ምርጫዎች
ምርጫዎችን
ምሰሶ
ምሰሶዎች
ምሳ
ምሳሌ
ምሳሌን
ምሳሌው
ምሳሌዎች
ምሳሌዎችን
ምሳሌያዊ
ምሳው
ምስ
ምስሉ
ምስሉን
ምስል
ምስልና
ምስልን
ምስሎች
ምስሎችን
ምስረታ
ምስራቃዊ
ምስራቃዊው
ምስራቅ
ምስር
ምስስል
ምስኪኑ
ምስኪን
ምስካዬ
ምስክር
ምስክርነቱን
ምስክርነት
ምስክሮች
ምስክሮችን
ምስጉን
ምስጋና
ምስጋናን
ምስጢሩን
ምስጢራዊ
ምስጢር
ምስጢሮች
ምስጥ
ምሶሶ
ምሽት
ምሽጉ
ምሽጉን
ምሽግ
ምሽጎች
ምሽጎችን
ምቀኛ
ምቀኝነትን
ምታ
ምታት
ምት
ምትኩ
ምትኬ
ምትክ
ምቹ
ምቹነት
ምች
ምቾት
ምኅረት
ምኋር
ምነው
ምኑ
ምኑን
ምኒሊክ
ምኒልክ
ምኒልክም
ምኒልክና
ምኒልክን
ምኒስትሩ
ምና
ምናልባት
ምናልባትም
ምናምን
ምናሴ
ምናባዊ
ምናኔ
ምናን
ምናኽም
ምኔ
ምን
ምንሊክ
ምንም
ምንምን
ምንስ
ምንባብ
ምንትዋብ
ምንትዋብን
ምንቸት
ምንነቱ
ምንነት
ምንነትና
ምንን
ምንንም
ምንኛ
ምንአልባትም
ምንኩስና
ምንዛሪ
ምንዳ
ምንድር
ምንድነው
ምንድን
ምንጃር
ምንጊዜ
ምንጊዜም
ምንግዜም
ምንጣፍ
ምንጩ
ምንጭ
ምንጭም
ምንጭነት
ምንጭና
ምንጭን
ምንጮች
ምንጮችና
ምንጮችን
ምኞቱን
ምኞታቸውን
ምኞት
ምኢን
ምእመናን
ምእራብ
ምእራፍ
ምእተ
ምእት
ምከረው
ምከር
ምኩራብ
ምክረ
ምክሩ
ምክር
ምክርና
ምክሮች
ምክትላቸው
ምክትል
ምክነት
ምክኑያዊነት
ምክኒያቱም
ምክኒያት
ምክንየት
ምክንያቱ
ምክንያቱም
ምክንያቱን
ምክንያታዊ
ምክንያት
ምክንያትም
ምክንያቶች
ምክንያቶችን
ምክንይት
ምክክር
ምኵራብ
ምዋሚ
ምዋምቡትሳ
ምዕ
ምዕመናን
ምዕመናዊ
ምዕራቡ
ምዕራባዊ
ምዕራባዊው
ምዕራባውያኑ
ምዕራባውያን
ምዕራብ
ምዕራብና
ምዕራፍ
ምዕራፍና
ምዕራፎች
ምዕተ
ምዕት
ምዕንኛ
ምዕጤ
ምዝገባ
ምየንማ
ምያንማር
ምደባ
ምድረ
ምድሩ
ምድሪቱ
ምድሪቱን
ምድራዊ
ምድር
ምድርም
ምድርና
ምድርን
ምድሮች
ምድብ
ምድቦች
ምድያም
ምድጃ
ምግቡ
ምግቡን
ምግባረ
ምግባሩ
ምግባራዊ
ምግባር
ምግባቸው
ምግባቸውን
ምግብ
ምግብም
ምግብነት
ምግብና
ምግብን
ምግቦች
ምግቦችን
ምጣኔ
ምጣድ
ምጥ
ምጥጥን
ምጽራይም
ምጽአት
ምጽዋ
ምጽዋት
ምፅዋ
ምፅዓት
ሞ
ሞሀመድ
ሞለኪል
ሞለኪሎች
ሞላ
ሞላላ
ሞላው
ሞል
ሞልቶ
ሞልቷል
ሞልዶቫ
ሞልዶቭኛ
ሞሐመድ
ሞረድ
ሞሪሰን
ሞሪስ
ሞሪስቾዎችን
ሞሪታኒያ
ሞሪታንያ
ሞሪንጋ
ሞራ
ሞራል
ሞራይ
ሞር
ሞርሞን
ሞርስ
ሞርታር
ሞርጋን
ሞርጌስ
ሞሮኮ
ሞሲዬ
ሞሳሕ
ሞስኮ
ሞስኮቫ
ሞስኮን
ሞሶሕ
ሞሼ
ሞሾቭጸ
ሞቃታማ
ሞቃታማው
ሞቃት
ሞቃዲሾ
ሞቃዲሾን
ሞቅ
ሞቡቱ
ሞባይል
ሞተ
ሞተር
ሞተሮች
ሞተች
ሞተና
ሞተዋል
ሞተው
ሞቱ
ሞቱን
ሞታቸው
ሞት
ሞትሁ
ሞትም
ሞትና
ሞትን
ሞቶ
ሞቶር
ሞቷ
ሞቷል
ሞቷልና
ሞቷን
ሞቼ
ሞኒተር
ሞና
ሞናኮ
ሞንማውዝ
ሞንሮቪያ
ሞንተምሳፍ
ሞንታና
ሞንቴኔግሮ
ሞንትሪያል
ሞንትጎመሪ
ሞንጎሊያ
ሞንጎልያ
ሞንጎሎች
ሞኖፖሊ
ሞኝ
ሞኝነት
ሞኝና
ሞኞች
ሞከረ
ሞከረች
ሞከሩ
ሞክረዋል
ሞክረው
ሞክሮ
ሞክሯል
ሞክሼ
ሞክሼዎች
ሞክሼዎችን
ሞክታር
ሞዐ
ሞዓ
ሞዛምቢክ
ሞይራንድ
ሞዱል
ሞዲ
ሞዲቦ
ሞዴል
ሞዴሎች
ሞዴሎችን
ሞዴት
ሞድ
ሞጁል
ሞገሳ
ሞገሴ
ሞገስ
ሞገዱ
ሞገዳዊ
ሞገዳዊነት
ሞገድ
ሞገድን
ሞገዶች
ሞገዶችን
ሞግዚት
ሞግዚትነት
ሞጣ
ሞፈር
ሟ
ሟቹን
ሟች
ሠ
ሠለስተ
ሠላም
ሠላሣ
ሠላሳ
ሠሌዳ
ሠልፍ
ሠሎሞን
ሠሙዶችም
ሠምራ
ሠምራም
ሠረዝ
ሠረገላ
ሠረገሎች
ሠሩ
ሠሩት
ሠሪ
ሠሪዎች
ሠራ
ሠራሽ
ሠራተኛ
ሠራተኞች
ሠራተኞችን
ሠራዊቱ
ሠራዊቱን
ሠራዊት
ሠራዊትና
ሠራዊትን
ሠራዊቶች
ሠርተዋል
ሠርተው
ሠርቶ
ሠርቷል
ሠርግ
ሠርጠን
ሠርፀ
ሠናይት
ሠኔ
ሠንጠረዥ
ሠው
ሠውት
ሠዎች
ሠዓሊ
ሠዓታት
ሠይጣን
ሠይፍ
ሠፈረ
ሠፈረኞች
ሠፈሩ
ሠፈሩበት
ሠፈር
ሠፈሮች
ሠፊ
ሠፍረው
ሡ
ሡልጣን
ሢ
ሢማ
ሢሶ
ሣ
ሣህለ
ሣህሌ
ሣህራ
ሣሌፍ
ሣልሳዊ
ሣምንታት
ሣምንት
ሣራ
ሣር
ሣባ
ሣኒ
ሣንቲም
ሣውዲ
ሣድያቴስ
ሣጥን
ሤ
ሤራ
ሥ
ሥለ
ሥለሆነም
ሥላሴ
ሥላሴም
ሥላሴና
ሥላሴን
ሥልጠና
ሥልጣኑ
ሥልጣኑን
ሥልጣናት
ሥልጣናትን
ሥልጣናቸው
ሥልጣናቸውን
ሥልጣናዊነት
ሥልጣኔ
ሥልጣን
ሥልጣንና
ሥልጣንን
ሥልጣኖች
ሥማቸው
ሥም
ሥሥ
ሥሩ
ሥሩም
ሥሩን
ሥራ
ሥራም
ሥራት
ሥራቸው
ሥራቸውን
ሥራን
ሥራዊቱ
ሥራዊቱን
ሥራዊት
ሥራዊቶች
ሥራው
ሥራውን
ሥራዎቹ
ሥራዎቻቸው
ሥራዎቻቸውን
ሥራዎች
ሥራዎችም
ሥራዎችን
ሥር
ሥርአተ
ሥርአት
ሥርወ
ሥርዐተ
ሥርዐት
ሥርዐቶች
ሥርዓተ
ሥርዓቱ
ሥርዓቱም
ሥርዓቱን
ሥርዓታዊ
ሥርዓት
ሥርዓትም
ሥርዓትና
ሥርዓትን
ሥርዓቶች
ሥርዓቶችን
ሥርየት
ሥርጭት
ሥሮቹ
ሥሮች
ሥቃይ
ሥነ
ሥነጥበብ
ሥነጽሑፍ
ሥውር
ሥዑል
ሥዕለ
ሥዕላዊ
ሥዕል
ሥዕሎቹ
ሥዕሎች
ሥዩመ
ሥዩም
ሥያ
ሥያሜ
ሥያንግ
ሥያው
ሥጋ
ሥጋም
ሥጋና
ሥጋን
ሥጋዊ
ሥጋዋን
ሥጋው
ሥጋውን
ሥጋውንም
ሥጋዬ
ሥጋዬን
ሥጦታ
ሥፍራ
ሥፍራና
ሥፍራው
ሥፍራውን
ሥፍራዎች
ሥፍራዎችን
ሦ
ሦሥተኛ
ሦሥተኛው
ሦሥት
ሦስተኛ
ሦስተኛዋ
ሦስተኛው
ሦስተኛውም
ሦስተኛውን
ሦስቱ
ሦስቱም
ሦስቱን
ሦስቱንም
ሦስት
ሧ
ረ
ረሀብ
ረሃብ
ረሐብ
ረመዳን
ረመጥ
ረሱ
ረሱል
ረሳ
ረስታ
ረሺድ
ረሽ
ረሽነው
ረቂቁን
ረቂቃን
ረቂቅ
ረቡዕ
ረቢ
ረቢዎች
ረባህ
ረብሻ
ረብሻና
ረታ
ረን
ረንሰነብ
ረዘም
ረዣዥም
ረዥሙ
ረዥም
ረዱት
ረዲ
ረዲየላሁ
ረዳ
ረዳቱ
ረዳት
ረዳትነት
ረዳቶች
ረዳን
ረድተዋል
ረድቷል
ረድኤት
ረድፍ
ረድፎች
ረጃጅም
ረጅሙ
ረጅሙን
ረጅም
ረጅምና
ረገድ
ረገድም
ረገዶች
ረገጣ
ረጋ
ረግረጋማ
ረግጦ
ረጨት
ረጨኑ
ሩ
ሩሃማ
ሩህሩህ
ሩሚ
ሩማን
ሩም
ሩሲያ
ሩሲያን
ሩሲያኛ
ሩሲያዊ
ሩሲያዊው
ሩሲያውያን
ሩሲያውያንን
ሩስ
ሩስል
ሩስን
ሩስኛ
ሩስያ
ሩስድክ
ሩሶ
ሩቅ
ሩብ
ሩቦች
ሩት
ሩካቤ
ሩዊ
ሩዋን
ሩዋንዳ
ሩዝ
ሩዝቬልት
ሩዲ
ሩድ
ሩድራይግ
ሩጥ
ሩጫ
ሩጫው
ሩፋኤል
ሩፋኤልን
ሪ
ሪሊ
ሪል
ሪሙሽ
ሪም
ሪሺ
ሪቪው
ሪቭ
ሪታ
ሪቺ
ሪቻርድ
ሪች
ሪችመንድ
ሪናል
ሪከርድ
ሪከርድስ
ሪካ
ሪክተር
ሪኮ
ሪዘርቭ
ሪያል
ሪዮ
ሪድ
ሪጋ
ሪፋት
ሪፐብሊኩን
ሪፐብሊካኒዝም
ሪፐብሊካን
ሪፐብሊካኖች
ሪፐብሊክ
ሪፐብሊክና
ሪፐብሊክን
ሪፐብሊኮች
ሪፐብሊኮችን
ሪፑብሊክ
ሪፑብሊክን
ሪፓብሊክ
ሪፖርተር
ሪፖርት
ሪፖርቶች
ራ
ራህዲ
ራሆተፕ
ራሌይ
ራልፍ
ራማ
ራምሴ
ራምሴስ
ራምቦ
ራሱ
ራሱም
ራሱን
ራሱንም
ራሳቸው
ራሳቸውን
ራሳችን
ራሳችንን
ራሳችኹ
ራሳችኹን
ራሴ
ራሴን
ራስ
ራስህ
ራስህን
ራስታ
ራስታዎች
ራስታፋራይ
ራስን
ራስኽ
ራስኽን
ራስወርቅ
ራሶች
ራሷ
ራሷን
ራሽያ
ራቀኝ
ራቁ
ራቅ
ራቢ
ራቢን
ራባ
ራባት
ራብ
ራብዕ
ራት
ራትል
ራእ
ራእይ
ራውንድ
ራዕ
ራዕይ
ራዕዮች
ራዘርፎርድ
ራዜና
ራያ
ራይሆልት
ራይስ
ራይት
ራይትስ
ራይን
ራዲየስ
ራዲዮ
ራዲዮን
ራዲዮካርበን
ራዳ
ራዳር
ራጅ
ራጉኤል
ራግቢ
ራግው
ራፋኤል
ራፐር
ራፕ
ራፕሶዲ
ሬ
ሬሳ
ሬሳው
ሬሳውን
ሬስ
ሬስቶራንት
ሬት
ሬናል
ሬኔ
ሬን
ሬንጀር
ሬንጅ
ሬክስ
ሬክታንግል
ሬዚስተር
ሬዛ
ሬዩንዮን
ሬያ
ሬያን
ሬይ
ሬይን
ሬዲንግ
ሬዲየስ
ሬዲዮ
ሬድ
ሬድየስ
ሬድዮ
ሬጅመንት
ሬገን
ሬጋን
ሬጌ
ሬፑብሊክ
ር
ርህራሄ
ርምጃ
ርሱ
ርሱም
ርሱን
ርሱንም
ርስ
ርስቱ
ርስቱን
ርስት
ርስትን
ርስቶች
ርሷ
ርሷም
ርሾ
ርቀቱ
ርቀቱን
ርቀት
ርቀትን
ርቀው
ርቃ
ርቆ
ርቢ
ርብ
ርብርብ
ርብቃ
ርቱዕ
ርት
ርእሰ
ርእስ
ርእደት
ርኩሳን
ርኩስ
ርካሽ
ርዋንዳ
ርዕሰ
ርዕሳነ
ርዕስ
ርዕሶች
ርዕሶችን
ርዕይ
ርዕዮተ
ርዕዮት
ርዕደት
ርዝመቱ
ርዝመታቸው
ርዝመት
ርዝመትና
ርዝማኔ
ርዳታ
ርጉሙ
ርጉም
ርግብ
ሮ
ሮሊንግ
ሮላንድ
ሮል
ሮሙሉስ
ሮማ
ሮማርዮ
ሮማኒያ
ሮማን
ሮማንስ
ሮማንቲክ
ሮማንኛ
ሮማንያ
ሮማኖቭ
ሮማዊ
ሮማዊው
ሮማውያን
ሮማውያንን
ሮማይስጥ
ሮሜ
ሮም
ሮምን
ሮሲኒ
ሮስ
ሮስት
ሮስቶቭ
ሮቃ
ሮበርት
ሮበርትስ
ሮቢን
ሮቢንሰን
ሮቤል
ሮቤርቶ
ሮቹ
ሮቻ
ሮቻምቤው
ሮኒ
ሮናልድ
ሮናልዶ
ሮን
ሮኬት
ሮኬቶች
ሮኬቶችን
ሮክ
ሮዋን
ሮውሊንግ
ሮዘቨልት
ሮዛ
ሮዝ
ሮዝሜሪ
ሮዝቬልት
ሮያል
ሮይተርስ
ሮዳም
ሮዴዚያ
ሮዴዢያ
ሮዴዥያ
ሮድ
ሮድሪጌዝ
ሮድስ
ሮዶስ
ሮጀር
ሮጀርስ
ሮጠ
ሮጦ
ሯ
ሯጭ
ሯጮች
ሰ
ሰሃራዊ
ሰሃቦች
ሰለ
ሰለሆነ
ሰለላሁ
ሰለሞን
ሰለባ
ሰለባዎች
ሰሊም
ሰሊጥ
ሰላሌ
ሰላማ
ሰላማን
ሰላማዊ
ሰላማዊና
ሰላማዊው
ሰላም
ሰላምታ
ሰላምና
ሰላምን
ሰላሳ
ሰላይ
ሰላዮች
ሰላዮችን
ሰላድንጋይ
ሰላጣ
ሰላጤ
ሰላጤወች
ሰላጤው
ሰሌኔ
ሰሌዳ
ሰልና
ሰልጣን
ሰልፈኞች
ሰልፉ
ሰልፍ
ሰልፎች
ሰልፎችን
ሰሎሜ
ሰሎሞናዊ
ሰሎሞን
ሰሎሞንም
ሰሎሞንን
ሰመራ
ሰመርኸት
ሰመንሬ
ሰመንካሬ
ሰመጠ
ሰሙ
ሰሚ
ሰማ
ሰማሪዎን
ሰማርያን
ሰማን
ሰማንያ
ሰማእታት
ሰማዕታት
ሰማዕት
ሰማዕትነት
ሰማያት
ሰማያትን
ሰማያዊ
ሰማያዊት
ሰማይ
ሰማይና
ሰማይን
ሰሜናዊ
ሰሜናዊው
ሰሜን
ሰም
ሰምራ
ሰምተናል
ሰምተው
ሰምቲ
ሰምታ
ሰምታችዃል
ሰምቶ
ሰምቻለሁ
ሰምና
ሰሞን
ሰረቀው
ሰረኽ
ሰረዘ
ሰረዝ
ሰረገላ
ሰሩ
ሰሪ
ሰሪዎች
ሰራ
ሰራሽ
ሰራተኛ
ሰራተኞች
ሰራተኞችን
ሰራዊቱ
ሰራዊቱን
ሰራዊት
ሰራዊትና
ሰራዊትን
ሰራዊቶች
ሰራየ
ሰር
ሰርሊፍ
ሰርሎይን
ሰርቆ
ሰርቢያ
ሰርብኛ
ሰርቦች
ሰርቨር
ሰርቪስ
ሰርተዋል
ሰርተው
ሰርተፍኬት
ሰርታለች
ሰርቶ
ሰርቷል
ሰርቻለሁ
ሰርከስ
ሰርኪዩት
ሰርዘዋል
ሰርዞ
ሰርዴስ
ሰርዴስን
ሰርዶ
ሰርገኛ
ሰርጉ
ሰርጉን
ሰርጌ
ሰርጌይ
ሰርግ
ሰርጎ
ሰርጓጅ
ሰርጥ
ሰርጦች
ሰርጸ
ሰርጾ
ሰርፀ
ሰሳ
ሰስ
ሰቀላችሁት
ሰቀል
ሰቀነንሬ
ሰቅል
ሰቆቃ
ሰቆጣ
ሰቆጣን
ሰበረ
ሰበር
ሰበሰበ
ሰበቃ
ሰበብ
ሰበካ
ሰቡ
ሰቢ
ሰባ
ሰባሪ
ሰባራ
ሰባስቲያን
ሰባተኛ
ሰባተኛው
ሰባቱ
ሰባቱም
ሰባቱን
ሰባቱንም
ሰባት
ሰባትቤት
ሰባአዊ
ሰባኪ
ሰባኪዎች
ሰባኪዎችን
ሰብ
ሰብለ
ሰብለን
ሰብል
ሰብሎች
ሰብረው
ሰብሮ
ሰብሳቢ
ሰብሳቢነት
ሰብሳቢዎች
ሰብስበው
ሰብስቤ
ሰብስቦ
ሰብታ
ሰብአ
ሰብአዊ
ሰብአዊት
ሰብአዊነት
ሰብአዊና
ሰብእ
ሰብዓዊ
ሰቨን
ሰቲ
ሰቲት
ሰት
ሰነ
ሰነበተ
ሰነበቱ
ሰነን
ሰነዱ
ሰነድ
ሰነዶች
ሰነዶችን
ሰነጅ
ሰነፍ
ሰኑስረት
ሰኑካ
ሰናክሬም
ሰናኽተንሬ
ሰናዖር
ሰናይ
ሰናይት
ሰናፍጭ
ሰኔ
ሰኔና
ሰን
ሰንሰለታማ
ሰንሰለት
ሰንሰለቶች
ሰንበሌጥ
ሰንበት
ሰንበትን
ሰንቡሌ
ሰንዝሯል
ሰንደል
ሰንደቅ
ሰንደቅዓላማ
ሰንዳፋ
ሰንጋ
ሰንጠረዡ
ሰንጠረዥ
ሰንጥቆ
ሰኞ
ሰኞን
ሰአሊ
ሰአሊው
ሰአታት
ሰአት
ሰአትም
ሰከንድ
ሰካራም
ሰክተው
ሰኮንድ
ሰኮንዶች
ሰኸምሬ
ሰኸምሬኹታዊ
ሰኸምካሬ
ሰኸርታዊ
ሰኸቀንሬ
ሰኸተፒብሬ
ሰኸተፕካሬ
ሰኻኤንሬ
ሰወች
ሰወችን
ሰዉ
ሰዋሰዋዊ
ሰዋሰው
ሰዋስው
ሰዋዊ
ሰዋጀንሬ
ሰዋጅተው
ሰዋጅካሬ
ሰው
ሰውሃን
ሰውም
ሰውነቱ
ሰውነቱን
ሰውነታቸው
ሰውነታቸውን
ሰውነታችን
ሰውነታችንን
ሰውነቴ
ሰውነት
ሰውነትን
ሰውነትኽ
ሰውነቷ
ሰውና
ሰውን
ሰውንም
ሰውየ
ሰውየው
ሰውየውን
ሰውዬ
ሰውዬው
ሰውዬውም
ሰውዬውን
ሰዎቹ
ሰዎቹም
ሰዎቹን
ሰዎች
ሰዎችም
ሰዎችና
ሰዎችን
ሰዎችንም
ሰዐ
ሰዐታት
ሰዐት
ሰዐወ
ሰዒድ
ሰዓሊ
ሰዓሊዎች
ሰዓቱ
ሰዓታት
ሰዓት
ሰዓትም
ሰዓቶች
ሰዕድ
ሰዜኛ
ሰየመው
ሰየሙ
ሰየሙት
ሰየማቸው
ሰይመውታል
ሰይመውት
ሰይሞታል
ሰይሟቸዋል
ሰይንት
ሰይድ
ሰይጣናዊ
ሰይጣን
ሰይጣንም
ሰይጣንን
ሰይፈ
ሰይፉ
ሰይፉን
ሰይፍ
ሰደደው
ሰደዱት
ሰደዳቸው
ሰደድ
ሰዴ
ሰዶ
ሰዶማዊ
ሰዶማዊነት
ሰዶማውያን
ሰዶም
ሰዶምን
ሰጀፋካሬ
ሰገላዊ
ሰገሌ
ሰገል
ሰገሩ
ሰገራ
ሰገባህ
ሰገነት
ሰገደ
ሰገዱለት
ሰገድ
ሰጋጆቹም
ሰጎን
ሰጠ
ሰጠሁሽ
ሰጠሁት
ሰጠሙ
ሰጠች
ሰጠነው
ሰጠው
ሰጡ
ሰጡት
ሰጡኝ
ሰጣት
ሰጣቸው
ሰጥተዋል
ሰጥተዋቸው
ሰጥተው
ሰጥተውታል
ሰጥተውት
ሰጥታ
ሰጥታለች
ሰጥቶ
ሰጥቶታል
ሰጥቷል
ሰጥቷቸዋል
ሰጥቼ
ሰጧቸው
ሰጪ
ሰጪዎች
ሰጭ
ሰጭዎች
ሰፈረ
ሰፈረኞች
ሰፈሩ
ሰፈሩን
ሰፈራ
ሰፈራቸው
ሰፈራዎች
ሰፈር
ሰፈሮች
ሰፈሮችን
ሰፊ
ሰፊና
ሰፊው
ሰፊውን
ሰፋ
ሰፋሪዎች
ሰፋሪዎችን
ሰፋፊ
ሰፍረዋል
ሰፍረው
ሰፍሮ
ሰፍሯል
ሰፍነግ
ሰፍነጎች
ሰፍያህ
ሰፕቴምበር
ሱ
ሱለይማን
ሱሊቫን
ሱሌይማን
ሱልጣኑ
ሱልጣኔቱ
ሱልጣኔታዊ
ሱልጣኔት
ሱልጣኔትን
ሱልጣን
ሱልጣኖች
ሱመራዊ
ሱመር
ሱመርን
ሱመርኛ
ሱሙ
ሱሙላኤል
ሱሙኤል
ሱማሌ
ሱረቱ
ሱሪ
ሱሪናም
ሱሪኛ
ሱራ
ሱር
ሱርማ
ሱሰኒዮስ
ሱሰንዮስ
ሱሳ
ሱሳን
ሱሴክስ
ሱስ
ሱስን
ሱስንዮስ
ሱሺ
ሱቁጥራ
ሱቅ
ሱቆች
ሱባርቱ
ሱባርቱን
ሱባኤ
ሱባዔ
ሱብሃነሁ
ሱቱኤል
ሱኒ
ሱኒዎች
ሱናሚ
ሱናክ
ሱን
ሱንግ
ሱውን
ሱዝዳል
ሱዳናዊ
ሱዳን
ሱዳንና
ሱዳንን
ሱዳኖች
ሱፊዮች
ሱፍ
ሱፐር
ሱፐርላቲቭ
ሱፕሪምዝ
ሲ
ሲሄዱ
ሲሄድ
ሲሆ
ሲሆነው
ሲሆኑ
ሲሆን
ሲለቁ
ሲለቅ
ሲለን
ሲለኝ
ሲለካ
ሲለወጥ
ሲለው
ሲለዩ
ሲለግም
ሲለግስ
ሲሉ
ሲሉም
ሲሉራውያን
ሲሉት
ሲሊ
ሲሊኬት
ሲሊኮን
ሲሊየት
ሲላቢክ
ሲላት
ሲላቸው
ሲል
ሲልም
ሲልቨር
ሲልቪያ
ሲልቫ
ሲልቫኑስ
ሲሏት
ሲሏቸው
ሲሔዱ
ሲመለሱ
ሲመለስ
ሲመለከቱ
ሲመለከቱት
ሲመለከት
ሲመልሱ
ሲመልስ
ሲመሠረት
ሲመረመር
ሲመረምር
ሲመረቅ
ሲመረጡ
ሲመረጥ
ሲመሩ
ሲመራ
ሲመሰረት
ሲመሰርቱ
ሲመስል
ሲመሽ
ሲመታ
ሲመች
ሲመክሩት
ሲመጡ
ሲመጣ
ሲሙሩም
ሲሚንቶ
ሲሚንቶዎች
ሲማ
ሲማሩ
ሲማር
ሲማሽኪ
ሲማሽኪን
ሲም
ሲምፖዚየም
ሲሞላ
ሲሞላቸው
ሲሞላው
ሲሞቱ
ሲሞት
ሲሞን
ሲሞኖድ
ሲሞከር
ሲሞክሩ
ሲሞክር
ሲሟገት
ሲሠሩ
ሲሠራ
ሲረዱ
ሲረዳ
ሲሪየስ
ሲራህ
ሲር
ሲርብ
ሲሮጡ
ሲሮጥ
ሲሰላ
ሲሰሙ
ሲሰማ
ሲሰማራ
ሲሰምጥ
ሲሰሩ
ሲሰራ
ሲሰራበት
ሲሰበር
ሲሰባ
ሲሰኝ
ሲሰደዱ
ሲሰጡ
ሲሰጥ
ሲሰፋ
ሲሲ
ሲሲሊ
ሲሲፒ
ሲሳሱ
ሲሳተፉ
ሲሳይ
ሲሳይን
ሲስማሙ
ሲስሟት
ሲስተም
ሲስተምስ
ሲስተሞች
ሲስፋፋ
ሲሶ
ሲሸልስ
ሲሸሹ
ሲሸሽ
ሲሸጥ
ሲሸፍን
ሲሻር
ሲሻገር
ሲሾሙ
ሲሾም
ሲቀላቀል
ሲቀመጡ
ሲቀመጥ
ሲቀማጠል
ሲቀረው
ሲቀሩ
ሲቀር
ሲቀርቡ
ሲቀርብ
ሲቀበሉ
ሲቀበል
ሲቀነስ
ሲቀናጣ
ሲቀንስ
ሲቀዘቅዝ
ሲቀየሩ
ሲቀየር
ሲቀይር
ሲቀድም
ሲቀጥል
ሲቃ
ሲቃረብ
ሲቃጠል
ሲቆም
ሲቆርጥ
ሲቆዩ
ሲቆይ
ሲቆጠሩ
ሲቆጠር
ሲቆጡት
ሲቆጣ
ሲቆጣጠሩ
ሲቆጣጠር
ሲቋቋም
ሲበሉ
ሲበሉት
ሲበላ
ሲበር
ሲበስል
ሲበዘበዝ
ሲበዛ
ሲበጠበጥ
ሲቢሊን
ሲቢል
ሲባሉ
ሲባል
ሲባርክ
ሲባዛ
ሲብራራ
ሲቪል
ሲቪሎች
ሲቪክ
ሲተላለፍ
ሲተረጎም
ሲተረጐም
ሲተርክ
ሲተነተን
ሲተኙ
ሲተካ
ሲተካከል
ሲተገበር
ሲቲ
ሲታመም
ሲታመን
ሲታሰብ
ሲታተሙ
ሲታተም
ሲታወቅ
ሲታወጅ
ሲታዩ
ሲታይ
ሲታገሉ
ሲታጠቁ
ሲታጠቡ
ሲታጣ
ሲቸገር
ሲቸግር
ሲቻል
ሲችሉ
ሲችል
ሲነሡ
ሲነሱ
ሲነሳ
ሲነበበ
ሲነበብ
ሲነበይ
ሲነድ
ሲነገር
ሲነጋ
ሲነጋገሩ
ሲነግሩት
ሲነግስ
ሲነጻጸር
ሲነፃፀር
ሲኑሄ
ሲኒ
ሲኒማ
ሲና
ሲናትራ
ሲናድ
ሲናገሩ
ሲናገር
ሲን
ሲንቀሳቀሱ
ሲንቀሳቀስ
ሲንን
ሲንጋፖር
ሲንጸባረቅ
ሲኖረው
ሲኖሩ
ሲኖሩበት
ሲኖሩት
ሲኖሩዋቸው
ሲኖራት
ሲኖራቸው
ሲኖር
ሲኖርበት
ሲኖዶስ
ሲኦል
ሲከላከሉ
ሲከራከሩ
ሲከሰት
ሲከሰከስ
ሲከበር
ሲከብር
ሲከታተሉ
ሲከናወን
ሲከዳ
ሲከፈቱ
ሲከፈት
ሲኩለስ
ሲኩሉስ
ሲኪሊያ
ሲኪሌውስ
ሲኪም
ሲካሄድ
ሲካኑስ
ሲካፈል
ሲክ
ሲክሲ
ሲክዝ
ሲክዮን
ሲኮራ
ሲኼዱ
ሲኼድ
ሲኾኑ
ሲኾን
ሲወለዱ
ሲወለድ
ሲወልስ
ሲወረወር
ሲወሩ
ሲወራ
ሲወር
ሲወርዱ
ሲወርድ
ሲወሰድ
ሲወሳ
ሲወስደው
ሲወስዱ
ሲወስድ
ሲወበራ
ሲወከል
ሲወክል
ሲወደስ
ሲወዳደሩ
ሲወዳደር
ሲወድቁ
ሲወድቅ
ሲወጉ
ሲወጡ
ሲወጣ
ሲዋረድ
ሲዋርድ
ሲዋጉ
ሲዋጋ
ሲዋጋበት
ሲውል
ሲዎክል
ሲዘምቱ
ሲዘረዘሩ
ሲዘረዝሩ
ሲዘረዝር
ሲዘረጋ
ሲዘረፍ
ሲዘዋወር
ሲዘጋ
ሲዘጋጁ
ሲዘጋጅ
ሲዞር
ሲያለቅስ
ሲያሌት
ሲያልቅ
ሲያልፉ
ሲያልፍ
ሲያመልጡ
ሲያመልጥ
ሲያመጣ
ሲያሙት
ሲያማ
ሲያምኑ
ሲያረጅ
ሲያረጋግጥ
ሲያር
ሲያርግ
ሲያርፉ
ሲያርፍ
ሲያሰሩ
ሲያሳዩ
ሲያሳይ
ሲያስረዳ
ሲያስቀምጡ
ሲያስቡ
ሲያስተምር
ሲያስነጥሱ
ሲያስገቡ
ሲያስፈልግ
ሲያሸንፍ
ሲያቀርቡ
ሲያቀርብ
ሲያቆሙ
ሲያበሉ
ሲያበረታታ
ሲያበቁ
ሲያበቃ
ሲያባራ
ሲያባርሩ
ሲያተኩር
ሲያታልሏት
ሲያትል
ሲያነብ
ሲያከብሩ
ሲያከትም
ሲያካሂዱ
ሲያኮበኩብ
ሲያወራ
ሲያወርዱት
ሲያወርድ
ሲያወድም
ሲያወጡ
ሲያወጡት
ሲያወጣ
ሲያውቁ
ሲያውቅ
ሲያዘጋጁ
ሲያዝን
ሲያዩ
ሲያዩት
ሲያይ
ሲያደርገው
ሲያደርጉ
ሲያደርግ
ሲያድጉ
ሲያድግ
ሲያገለግሉ
ሲያገለግል
ሲያገኘው
ሲያገኙ
ሲያገኝ
ሲያጋጥመው
ሲያጠፋ
ሲያጡ
ሲዬራ
ሲይሞር
ሲይዘው
ሲይዙ
ሲይዝ
ሲደመሩ
ሲደመር
ሲደረጉ
ሲደረግ
ሲደርሱ
ሲደርስ
ሲደርቅ
ሲደበድብ
ሲደጋገም
ሲዲ
ሲዲቅ
ሲዲና
ሲዳላ
ሲዳማ
ሲዳማን
ሲዳማዎች
ሲዳሞ
ሲዳሞኛ
ሲዳሩ
ሲድኒ
ሲዶና
ሲዶን
ሲጀመር
ሲጀምሩ
ሲጀምር
ሲገለበጥ
ሲገለጽ
ሲገል
ሲገልጹ
ሲገልጽ
ሲገመት
ሲገቡ
ሲገባ
ሲገባቸው
ሲገናኙ
ሲገናኝ
ሲገኙ
ሲገኝ
ሲገዙ
ሲገዛ
ሲገደሉ
ሲገደል
ሲገድሉ
ሲገድል
ሲጋጩ
ሲግመንድ
ሲግማ
ሲግናል
ሲጎ
ሲጎርፍ
ሲጎበኙ
ሲጎበኝ
ሲጎድል
ሲጓዙ
ሲጓዝ
ሲጠሉት
ሲጠራ
ሲጠቀሙ
ሲጠቀሙበት
ሲጠቀም
ሲጠቀሱ
ሲጠቀስ
ሲጠቅስ
ሲጠባ
ሲጠባበቁ
ሲጠብቁ
ሲጠና
ሲጠናቀቅ
ሲጠየቁ
ሲጠየቅ
ሲጠይቀው
ሲጠይቁ
ሲጠይቅ
ሲጠጋ
ሲጠግብ
ሲጠግኑት
ሲጠጡ
ሲጠጣ
ሲጠፋ
ሲጣሉ
ሲጣላ
ሲጥለው
ሲጥሉ
ሲጥል
ሲጨመሩ
ሲጨመር
ሲጨምር
ሲጨርሱ
ሲጨርስ
ሲጫኑ
ሲጫወቱ
ሲጫወት
ሲጮህ
ሲጸልይ
ሲጻፉ
ሲጻፍ
ሲጽፉ
ሲጽፍ
ሲፀድቅ
ሲፃፍ
ሲፈለግ
ሲፈልጉ
ሲፈልግ
ሲፈራ
ሲፈስ
ሲፈቱ
ሲፈታ
ሲፈነዳ
ሲፈጠር
ሲፈጥሩ
ሲፈጥር
ሲፈጸም
ሲፈጽሙ
ሲፈፀም
ሲፓራ
ሳ
ሳሁሬ
ሳሃራ
ሳሃራን
ሳህለ
ሳህለወርቅ
ሳህራን
ሳህራዊ
ሳህን
ሳህኖች
ሳሆ
ሳሆኛ
ሳለ
ሳለህ
ሳለች
ሳለን
ሳለኹ
ሳለኽ
ሳሉ
ሳሊም
ሳላ
ሳላም
ሳላችኹ
ሳላይ
ሳላዲን
ሳሌም
ሳል
ሳልማን
ሳልሳዊ
ሳልቫዶር
ሳሎን
ሳመን
ሳመው
ሳሙ
ሳሙራይ
ሳሙና
ሳሙኤል
ሳሚ
ሳሚኛ
ሳማ
ሳም
ሳምሪ
ሳምራዊ
ሳምራዊት
ሳምራዊው
ሳምራውያን
ሳምሰንግ
ሳምሱ
ሳምሶን
ሳምቡሩ
ሳምባ
ሳምብ
ሳምንቱ
ሳምንታት
ሳምንታዊ
ሳምንት
ሳሞራ
ሳሞትራቄ
ሳሞአ
ሳሞዓ
ሳሞጤስ
ሳሩ
ሳሪ
ሳራ
ሳራቶጋ
ሳር
ሳርማትያውያን
ሳርንስት
ሳርኮዚ
ሳርጀንት
ሳርጎን
ሳርጎንን
ሳሮ
ሳሮን
ሳሱ
ሳሲት
ሳሺሚ
ሳቁ
ሳቅ
ሳቅር
ሳበ
ሳቢ
ሳቢክ
ሳቢዩም
ሳቢያ
ሳባ
ሳባውያን
ሳቤቅ
ሳብ
ሳቫና
ሳቮሪ
ሳተላይት
ሳተላይቶች
ሳተርን
ሳቱርን
ሳታውቅ
ሳታይ
ሳት
ሳትሆን
ሳትራ
ሳትቀበል
ሳትን
ሳትያግራሃ
ሳናማስል
ሳን
ሳንሱር
ሳንስክሪት
ሳንቃ
ሳንባ
ሳንቲ
ሳንቲሜትር
ሳንቲም
ሳንቲሞች
ሳንቲሞችን
ሳንቲያጎ
ሳንታ
ሳንቶ
ሳንቶስ
ሳንኸንሬ
ሳንደርስ
ሳንድዊች
ሳንጃኩን
ሳንጃክ
ሳንጋር
ሳአድኢኮፍ
ሳኦ
ሳኦል
ሳኦልን
ሳኪር
ሳካዎች
ሳክሰን
ሳክሰኖች
ሳክስ
ሳክስኛ
ሳክስፎኖች
ሳክሶን
ሳክሶኖች
ሳክሶፎን
ሳወታ
ሳዋ
ሳው
ሳውል
ሳውስ
ሳውንድ
ሳውዝ
ሳውዲ
ሳውድ
ሳዑዲ
ሳየው
ሳያልቅ
ሳያልፍ
ሳያቀስ
ሳያት
ሳያውቀው
ሳያውቁ
ሳያውቅ
ሳያዩ
ሳያይ
ሳያደርጉ
ሳያገኙ
ሳያገኝ
ሳያጠናቅቅ
ሳይ
ሳይሆኑ
ሳይሆን
ሳይለምድ
ሳይለብስ
ሳይለወጥ
ሳይለይ
ሳይሉ
ሳይል
ሳይመለሱ
ሳይመን
ሳይመዘግብ
ሳይመጣ
ሳይሞት
ሳይርቅ
ሳይሰሙ
ሳይሰማ
ሳይሰጠው
ሳይሰጡ
ሳይሳካ
ሳይሳካለት
ሳይሳካላቸው
ሳይቀሩ
ሳይቀር
ሳይቀይሩ
ሳይቀጣጠሩ
ሳይቃጠል
ሳይቆዩ
ሳይቆይ
ሳይቆጥሩ
ሳይበላ
ሳይበላሽ
ሳይቤሪያ
ሳይተኛ
ሳይታሰብ
ሳይታወቅ
ሳይታይበት
ሳይት
ሳይቸግር
ሳይችል
ሳይነካ
ሳይናገር
ሳይንሳዊ
ሳይንሳዊና
ሳይንስ
ሳይንስና
ሳይንስን
ሳይንሶች
ሳይንቲስት
ሳይንቲስቶች
ሳይንት
ሳይኖረው
ሳይኖሩ
ሳይኖራቸው
ሳይኖር
ሳይከፍል
ሳይክል
ሳይኾን
ሳይወሰን
ሳይወድ
ሳይዘጋ
ሳይዙ
ሳይዛና
ሳይደርሱ
ሳይደርስ
ሳይደርስበት
ሳይደርቅ
ሳይደግስ
ሳይዳ
ሳይዳይጂ
ሳይድ
ሳይገሉ
ሳይገቡ
ሳይገባ
ሳይገኝ
ሳይጠሩት
ሳይጠቀም
ሳይጠቅም
ሳይጠቅስ
ሳይጠናቀቅ
ሳይጠየቅ
ሳይጠፋ
ሳይጨምር
ሳይጨርስ
ሳይፈርስ
ሳይፈጠር
ሳይፍቅ
ሳዱቃ
ሳዲ
ሳዳም
ሳዳት
ሳድሳን
ሳድሳዊ
ሳዶቅ
ሳጂድ
ሳጋ
ሳግሞው
ሳጣ
ሳጥኑ
ሳጥን
ሳጥኖች
ሳፎ
ሴ
ሴል
ሴልሲየስ
ሴልቲክ
ሴልጁክስ
ሴሎች
ሴሎችን
ሴሚራሚስ
ሴማዊ
ሴማዊው
ሴማውያን
ሴም
ሴራ
ሴራው
ሴሮሕ
ሴሰኛ
ሴሲል
ሴሶስትሪስ
ሴባስቶፖል
ሴቪንግ
ሴተኛ
ሴቱ
ሴቱባል
ሴቲ
ሴቲቱ
ሴቲቱም
ሴት
ሴትም
ሴትና
ሴትን
ሴትየዋ
ሴትየዋም
ሴትዮ
ሴትዮዋ
ሴቶቹ
ሴቶቹም
ሴቶች
ሴቶችም
ሴቶችና
ሴቶችን
ሴቷ
ሴናተሮች
ሴናት
ሴኔተር
ሴኔቱ
ሴኔት
ሴኔድ
ሴኔጋል
ሴን
ሴንተር
ሴንቲ
ሴንቲሜትር
ሴንቲግሬድ
ሴንት
ሴንትራል
ሴንጋን
ሴንግሆር
ሴኩ
ሴኩላሪዝም
ሴኬም
ሴክሬታሪ
ሴክሬታሪያት
ሴክተር
ሴክተሮች
ሴኮንድ
ሴኮያ
ሴውሼስኩ
ሴየራ
ሴይር
ሴይኒ
ሴይንት
ሴዳር
ሴዳን
ሴፕቴምበር
ስ
ስሄድ
ስህተት
ስህተትን
ስህተቶች
ስህተቶችን
ስሆን
ስለ
ስለሆነ
ስለሆነም
ስለሆነች
ስለሆነና
ስለሆኑ
ስለላ
ስለሌለ
ስለሌለበት
ስለሌለባቸው
ስለሌለው
ስለሌላቸው
ስለመሆኑ
ስለመኖሩ
ስለመጡ
ስለመጣ
ስለሚሄድ
ስለሚሆነው
ስለሚሆኑ
ስለሚሆን
ስለሚለው
ስለሚል
ስለሚመስል
ስለሚመጣ
ስለሚመጣው
ስለሚቆጠር
ስለሚቆጥሩት
ስለሚበልጥ
ስለሚባል
ስለሚታመን
ስለሚታሰብ
ስለሚታወቅ
ስለሚታይ
ስለሚቻል
ስለሚችሉ
ስለሚችል
ስለሚኖረው
ስለሚኖሩ
ስለሚያምን
ስለሚያሳይ
ስለሚያስገኝ
ስለሚያስገድድ
ስለሚያስፈልግ
ስለሚያደርግ
ስለሚገባ
ስለሚገኙ
ስለሚገኝ
ስለሚፈልጉ
ስለማንችል
ስለማያውቁ
ስለማያገኝ
ስለማይቀበሉ
ስለማይታወቅ
ስለማይቻል
ስለማይችሉ
ስለማይችል
ስለማይኖረው
ስለማይኖር
ስለማይገኙ
ስለምን
ስለራሱ
ስለርሱ
ስለሰጡ
ስለሱ
ስለሺ
ስለተቻለ
ስለተገኘ
ስለተፈጠረው
ስለታም
ስለት
ስለነሱ
ስለነበረ
ስለነበረች
ስለነበረና
ስለነበረው
ስለነበሩ
ስለነበሩት
ስለነበሩዋቸውና
ስለነበራት
ስለነበራቸው
ስለነበር
ስለነዚህ
ስለኛ
ስለኢትዮጵያ
ስለኣሉ
ስለኣልሆነ
ስለኣልሆኑ
ስለኣቀረቡ
ስለእርሱ
ስለእኛ
ስለእግዚአብሔር
ስለው
ስለዚሁ
ስለዚህ
ስለዚህም
ስለዚያ
ስለዚያው
ስለጀመሩ
ስለገባ
ስለጉዳዩ
ስለጎርን
ስለፈለገ
ስለፈጠሩ
ስሊም
ስሊሞን
ስላለ
ስላለበት
ስላለባቸው
ስላለብን
ስላለው
ስላሉ
ስላሉት
ስላላት
ስላላቸው
ስላላገኙ
ስላልሆነ
ስላልሆኑ
ስላልተገኘ
ስላልቻለ
ስላልቻሉ
ስላልነበረ
ስላልነበረው
ስላልነበሩ
ስላልነበራቸው
ስላልነበር
ስላልወደደ
ስላልወደዱ
ስላማ
ስላሴ
ስላስገቡዋቸው
ስላቪክ
ስላቫዊ
ስላቭስ
ስላቭኛ
ስላቮች
ስላቸው
ስላንጋ
ስላወቀ
ስላዩ
ስላደረገ
ስላደረገው
ስላደረጉ
ስላደረጉት
ስላገኘ
ስላገኙ
ስላገኙት
ስሌቱ
ስሌት
ስሌትን
ስሌቶች
ስል
ስልማናሶር
ስልምናሶር
ስልሳ
ስልቱ
ስልቱን
ስልታቸው
ስልታዊ
ስልት
ስልትና
ስልትን
ስልቶች
ስልቶችን
ስልቻ
ስልቻውን
ስልኬት
ስልክ
ስልክና
ስልኮች
ስልጠና
ስልጢኛ
ስልጣኑ
ስልጣኑን
ስልጣናቸው
ስልጣናቸውን
ስልጣኔ
ስልጣኔን
ስልጣኔዎች
ስልጣን
ስልጣንና
ስልጣንን
ስልጤ
ስልጤኛ
ስሎቫኪያ
ስሎቫክኛ
ስሎቬኒያ
ስሕተት
ስሕተቶች
ስሕተቶችን
ስመ
ስመለስ
ስመንኽካሬ
ስመጣ
ስመጥር
ስሙ
ስሙም
ስሙት
ስሙን
ስሙንም
ስሚስ
ስሚዝ
ስማ
ስማቸው
ስማቸውም
ስማቸውን
ስሜ
ስሜም
ስሜቱ
ስሜቱን
ስሜታዊ
ስሜት
ስሜትን
ስሜቶች
ስሜኑ
ስሜናዊ
ስሜን
ስሜንና
ስም
ስምህ
ስምህን
ስምም
ስምምነቱ
ስምምነቱን
ስምምነት
ስምምነትና
ስምምነትን
ስምምነቶች
ስምምነቶችን
ስምሽ
ስምና
ስምን
ስምንተኛ
ስምንተኛው
ስምንቱ
ስምንት
ስምኽ
ስምዋ
ስምዎ
ስምዎን
ስምዖን
ስምዖንም
ስምዖንና
ስምዖንን
ስምጥ
ስሞቹ
ስሞቻቸው
ስሞች
ስሞችን
ስሟ
ስሟን
ስረ
ስሩ
ስሪ
ስሪት
ስሪቶች
ስራ
ስራት
ስራቸው
ስራቸውን
ስራና
ስራን
ስራወች
ስራወችን
ስራዊት
ስራዋ
ስራዋን
ስራው
ስራውም
ስራውን
ስራዎቹ
ስራዎቹን
ስራዎች
ስራዎችም
ስራዎችና
ስራዎችን
ስራዎቿ
ስራዎን
ስር
ስርቆት
ስርአተ
ስርአት
ስርአትን
ስርአቶች
ስርወ
ስርዐት
ስርዓተ
ስርዓቱ
ስርዓቱን
ስርዓታቸው
ስርዓት
ስርዓትና
ስርዓትን
ስርዓቶች
ስርዓቶችን
ስርየት
ስርጭት
ስርጭትን
ስርፀት
ስሱ
ስስ
ስቀለው
ስቃይ
ስቅለት
ስቆ
ስበላ
ስበት
ስበትን
ስባሪ
ስባቱ
ስባት
ስብ
ስብሃት
ስብሐተ
ስብሐት
ስብረት
ስብራት
ስብሰባ
ስብሰባቸውን
ስብሰባው
ስብሰባውን
ስብሰባዎች
ስብስቡ
ስብስባ
ስብስብ
ስብስብን
ስብስቦች
ስብስቦችና
ስብስቦችን
ስብእና
ስብእናቸው
ስብከቱ
ስብከት
ስብዕና
ስብጥር
ስቦ
ስቧል
ስቪያቶላቭ
ስቬን
ስተርሊንግ
ስተርን
ስቱዋርት
ስቱዲዮ
ስቱዲዮስ
ስቲል
ስቲር
ስቲቨን
ስቲቭ
ስቲግማ
ስታሊን
ስታምፎርድ
ስታምፕ
ስታር
ስታቲስቲካዊ
ስታቲስቲክስ
ስታትስቲክስ
ስታን
ስታንሊ
ስታንዳርድ
ስታንፎርድ
ስታውጅ
ስታዩ
ስታይ
ስታይል
ስታደርግ
ስታዲየም
ስታዲየሞች
ስቴል
ስቴሪዮ
ስቴሽን
ስቴት
ስቴትስ
ስቴትስን
ስቴቶች
ስቴክ
ስቴፈን
ስቴፋን
ስቴፔ
ስቴፕ
ስትሄድ
ስትሆን
ስትላቸው
ስትል
ስትመለስ
ስትመራ
ስትሞት
ስትሪት
ስትሪፕ
ስትራቦ
ስትራቦን
ስትራቴጂ
ስትራቴጂን
ስትራቴጂካዊ
ስትራቴጂክ
ስትራቴጂዎችን
ስትራይፕድ
ስትሬት
ስትሰማ
ስትሰጥ
ስትቀርብ
ስትቀዳጅ
ስትባል
ስትታወቅ
ስትታይ
ስትታገል
ስትናገር
ስትኖር
ስትኾን
ስትወልድ
ስትወልድበት
ስትወድቅ
ስትወጣ
ስትይዝ
ስትጀምር
ስትገባ
ስትገናኝ
ስትገኝ
ስትጠራ
ስቶ
ስቶን
ስቶክ
ስኅተት
ስነ
ስነምግባር
ስነምግባርን
ስነስርአት
ስነስርዓት
ስነጽሑፍ
ስነፈሩ
ስኒ
ስናር
ስናሰላ
ስናስብ
ስናን
ስናካፍል
ስናይ
ስናደርግ
ስኔፕ
ስንሄድ
ስንል
ስንመለስ
ስንመለከት
ስንመረምር
ስንመጣ
ስንቅ
ስንብት
ስንቱ
ስንቱን
ስንት
ስንኞች
ስንክሳር
ስንኳ
ስንዝር
ስንደምር
ስንዱ
ስንዴ
ስንገባ
ስንግ
ስንጠቀም
ስንጥር
ስንጥብ
ስንፍና
ስኖው
ስእለት
ስእሉ
ስእል
ስእሎች
ስከርት
ስኩል
ስኩዊር
ስኩዌር
ስኩየር
ስካር
ስካን
ስካይ
ስኬላር
ስኬታማ
ስኬታም
ስኬት
ስኬቶች
ስክሪፕት
ስኮላርሺፕ
ስኮሺያ
ስኮት
ስኮትላንዳዊ
ስኮትላንድ
ስኮትላንድን
ስኮትስ
ስኳሩ
ስኳር
ስዊስ
ስዊትዘርላንድ
ስዊዘርላንድ
ስዊዘርላንድን
ስዊድናዊ
ስዊድን
ስዊድንን
ስዊድንኛ
ስዊድኛ
ስዊፍት
ስዋሰው
ስዋኒከር
ስዋዚላንድ
ስዌቢ
ስዌኖ
ስው
ስውር
ስውርነት
ስዎች
ስዓት
ስዕሉ
ስዕሉን
ስዕል
ስዕሎች
ስዕሎችና
ስዕሎችን
ስዩም
ስያሜ
ስያሜን
ስያሜዋን
ስያሜው
ስያሜውን
ስያሜዎች
ስያሜያቸውን
ስደርስ
ስደበው
ስደተኛ
ስደተኞቹ
ስደተኞች
ስደተኞችን
ስደቱ
ስደት
ስደትን
ስደዱልኝ
ስድሳ
ስድስተኛ
ስድስተኛው
ስድስቱ
ስድስቱን
ስድስት
ስድብ
ስድቦች
ስገባ
ስገዱ
ስገድ
ስጋ
ስጋት
ስጋቶች
ስጋቸውን
ስጋና
ስጋን
ስጋው
ስጋውን
ስግላ
ስግደት
ስጠን
ስጠኝ
ስጠው
ስጡ
ስጡት
ስጡኝ
ስጣቸው
ስጥ
ስጦታ
ስጦታና
ስጦታን
ስጦታው
ስጦታውን
ስጦታዎች
ስጦታዎችን
ስፈናጠር
ስፋቱ
ስፋታቸው
ስፋት
ስፋትና
ስፋቶች
ስፋቷ
ስፌት
ስፍራ
ስፍራን
ስፍራው
ስፍራዎች
ስፍራዎችን
ስፍር
ስፍን
ስፑትኒክ
ስፒኖዛ
ስፒዲ
ስፓኒሽ
ስፓንያ
ስፓንያውያን
ስፓይሩሊና
ስፓይደር
ስፓይደርማን
ስፔስ
ስፔሻሊስት
ስፔሻላይዝድ
ስፔናዊውን
ስፔናውያን
ስፔን
ስፔንሰር
ስፖርተኛ
ስፖርቲንግ
ስፖርት
ስፖርቶች
ስፖንሰር
ሶ
ሶሃባዎች
ሶላት
ሶላትን
ሶላትንም
ሶል
ሶልዤኒትሲን
ሶሐቦች
ሶማሊላንድ
ሶማሊኛ
ሶማሊያ
ሶማሊያን
ሶማሊያውያን
ሶማሌ
ሶማሌላንድ
ሶማሌዎች
ሶማልኛ
ሶማልያ
ሶምሶን
ሶሪያ
ሶሪያን
ሶሪያውያን
ሶሬ
ሶርስ
ሶርብኛ
ሶርያ
ሶርያና
ሶርያን
ሶሲዮሎጂ
ሶሳይቲ
ሶስ
ሶስተኛ
ሶስተኛዋ
ሶስተኛው
ሶስተኛውን
ሶስቱ
ሶስቴ
ሶስት
ሶሺያሊዝም
ሶሻሊስት
ሶሻሊዝም
ሶቅራጠስ
ሶበከምሳፍ
ሶበክሆተፕ
ሶበክነፈሩ
ሶብቻክ
ሶቦር
ሶቪየት
ሶቪየቶች
ሶቪዬት
ሶቭየት
ሶኒ
ሶንበፍ
ሶንግ
ሶከር
ሶኮልኒኪ
ሶይ
ሶዲየም
ሶዶ
ሶዶኛ
ሶጁኒ
ሶፊያ
ሶፋ
ሶፋሪድ
ሶፋና
ሶፍትዌሩን
ሶፍትዌር
ሶፍትዌሮች
ሶፍትዌሮችን
ሶፕራኖ
ሷ
ሷሊህን
ሷይቩስ
ሷዴሽ
ሸ
ሸሃዳ
ሸሆኔ
ሸለምጥማጥ
ሸለምጥማጦች
ሸለቆ
ሸለቆን
ሸለቆው
ሸለቆውን
ሸለቆዎች
ሸለቆዎችን
ሸሚዝ
ሸማ
ሸማቾች
ሸማኔ
ሸማን
ሸማይ
ሸምበቆ
ሸምጋይነት
ሸረሪት
ሸርሊ
ሸርሙጣ
ሸርሙጣን
ሸርማርክ
ሸርጣን
ሸሮቾ
ሸሸ
ሸሹ
ሸሺ
ሸሽተው
ሸሽቶ
ሸቀጣ
ሸቀጥ
ሸቀጦቹ
ሸቀጦች
ሸበሌ
ሸንበቆ
ሸንኖንግ
ሸንኮራ
ሸንጎ
ሸኪ
ሸኪቾኛ
ሸካ
ሸካራ
ሸኬቾ
ሸክ
ሸክላ
ሸክላዎች
ሸክሙ
ሸክሙን
ሸክም
ሸኮ
ሸኮኛ
ሸኹ
ሸኽ
ሸዋ
ሸዋረጋ
ሸዋን
ሸይኽ
ሸይጣን
ሸድዋሰት
ሸገር
ሸጠ
ሸጠው
ሸጡ
ሸፈነ
ሸፍኖ
ሹ
ሹሊ
ሹል
ሹልጊ
ሹመት
ሹመትና
ሹመቶች
ሹሚ
ሹማ
ሹማምንት
ሹማምንቶች
ሹም
ሹምና
ሹሞች
ሹሩባ
ሹራብ
ሹሻን
ሹቡር
ሹባር
ሹታርና
ሹትሩክ
ሹን
ሹክሹክታ
ሹዐይብን
ሹዳያ
ሹፋት
ሹፌር
ሺ
ሺህ
ሺለር
ሺሉክ
ሺሊንግ
ሺሕ
ሺሞን
ሺራክ
ሺራዝ
ሺስቶሶማ
ሺታ
ሺናሻ
ሺን
ሺንቶ
ሺንዞ
ሺኖዳ
ሺአ
ሺኪቡ
ሺካይ
ሺካጎ
ሺዎች
ሺፈራው
ሻ
ሻህ
ሻለቃ
ሻለቃው
ሻለቃዎች
ሻለቆች
ሻሊም
ሻሎም
ሻሙቄኑ
ሻማ
ሻማሽ
ሻም
ሻምሺ
ሻምበል
ሻምፒዮና
ሻምፒዮን
ሻምፒዮንስ
ሻሩ
ሻሩሄንን
ሻሩሔንን
ሻሩማ
ሻሩም
ሻርላግን
ሻርል
ሻርሎት
ሻርማ
ሻርካሊሻሪ
ሻርድ
ሻሮን
ሻሱ
ሻሸመኔ
ሻሽ
ሻባካ
ሻቦኛ
ሻቶብሪዮን
ሻነን
ሻን
ሻንጋይ
ሻንግ
ሻንጣ
ሻኛ
ሻኩር
ሻካራ
ሻካናካ
ሻውሃው
ሻውሽታታር
ሻውካንግ
ሻዕቢያ
ሻይ
ሻዱኒ
ሻዶ
ሻጝ
ሻጩ
ሻጭ
ሼ
ሼህ
ሼር
ሼንዘን
ሼክ
ሼክስፒር
ሼኽ
ሼዲ
ሽ
ሽህ
ሽለላ
ሽላየር
ሽል
ሽልማቱ
ሽልማቱን
ሽልማት
ሽልማትን
ሽልማቶች
ሽልማቶችን
ሽሚሃል
ሽሚያ
ሽማግሌ
ሽማግሌና
ሽማግሌዎች
ሽምቅ
ሽምብራ
ሽምግልና
ሽረት
ሽረው
ሽሬ
ሽር
ሽርምፕ
ሽርክ
ሽርክና
ሽሮ
ሽሽት
ሽቅብ
ሽበት
ሽባ
ሽባውን
ሽብሩ
ሽብር
ሽብርተኛ
ሽብርተኝነት
ሽብርተኝነትን
ሽብርተኞች
ሽቦ
ሽቦው
ሽቦውን
ሽቦዎች
ሽቱ
ሽታ
ሽታው
ሽቶ
ሽንብራ
ሽንት
ሽንትር
ሽንኩርቱን
ሽንኩርት
ሽንኩርትና
ሽንገላ
ሽንፈት
ሽንፈትን
ሽከታ
ሽኩቻ
ሽኩዳድ
ሽክርክር
ሽኮኮ
ሽያጩን
ሽያጭ
ሽያጮች
ሽጂ
ሽጉጣቸውን
ሽጉጤ
ሽጉጥ
ሽጉጦች
ሽጉጦችን
ሽግግር
ሽግግሮች
ሽፈራው
ሽፋኑ
ሽፋን
ሽፋኖች
ሽፍታ
ሽፍቶቹ
ሽፍቶች
ሾ
ሾላ
ሾመ
ሾመች
ሾመዋል
ሾመው
ሾሙ
ሾሙት
ሾሞ
ሾሟል
ሾሟቸው
ሾሾኔ
ሾተልን
ሾው
ሾጉናቴ
ሾጣጣ
ሾፐናውር
ሿ
ቀ
ቀለል
ቀለሙ
ቀለማት
ቀለማትን
ቀለም
ቀለምና
ቀለምን
ቀለሞቹ
ቀለሞቹን
ቀለሞች
ቀለሞችና
ቀለሞችን
ቀለበት
ቀለበቶች
ቀለብ
ቀለጣ
ቀሊል
ቀላ
ቀላሉ
ቀላል
ቀላልና
ቀላቅሎ
ቀላቢ
ቀላዋጭ
ቀላጤ
ቀልበኛ
ቀልብ
ቀልደኛ
ቀልድ
ቀልድና
ቀልዶች
ቀልጣፋ
ቀልጣፋና
ቀመሩ
ቀመር
ቀመሮች
ቀመሮችን
ቀሚስ
ቀማሽ
ቀማኝ
ቀማው
ቀረ
ቀረሁ
ቀረርቶ
ቀረሽ
ቀረበ
ቀረበች
ቀረበና
ቀረቡ
ቀረቡና
ቀረብ
ቀረች
ቀረነ
ቀረጡን
ቀረጥ
ቀረጸ
ቀረጹ
ቀረጻ
ቀረፀ
ቀረፃ
ቀረፋ
ቀሩ
ቀሪ
ቀሪው
ቀሪውን
ቀሪዎቹ
ቀሪዎች
ቀሪዎችን
ቀራንዮ
ቀራጭ
ቀራጮችና
ቀር
ቀርቀሃ
ቀርበዋል
ቀርበው
ቀርባ
ቀርባለች
ቀርቦ
ቀርቦም
ቀርቧል
ቀርተዋል
ቀርተው
ቀርታለች
ቀርቶ
ቀርቶብኝ
ቀርቷል
ቀርጤስ
ቀርጨጬ
ቀርጾ
ቀርፋፋ
ቀሳውስቱ
ቀሳውስት
ቀሳውስትን
ቀስ
ቀስመዋል
ቀስመው
ቀስቃሽ
ቀስተ
ቀስተኛ
ቀስተደመና
ቀስት
ቀስትን
ቀበሌ
ቀበሌኛ
ቀበሌኞች
ቀበሌዎች
ቀበሌዎችና
ቀበሌዎችን
ቀበሌያት
ቀበሩት
ቀበሮ
ቀበሮው
ቀበሮዎች
ቀበሮዎችን
ቀበቶ
ቀበና
ቀበኛ
ቀበጥ
ቀባሪ
ቀብራቸው
ቀብራቸውም
ቀብር
ቀብሮ
ቀቲ
ቀትር
ቀነሰ
ቀነሱ
ቀነኒሳ
ቀኑ
ቀኑም
ቀኑን
ቀና
ቀናተኛ
ቀናት
ቀናትን
ቀናቶች
ቀናቸው
ቀናውን
ቀኔ
ቀን
ቀንም
ቀንሰዋል
ቀንሶ
ቀንሷል
ቀንበር
ቀንና
ቀንን
ቀንደ
ቀንደኛ
ቀንዱ
ቀንዳውጣ
ቀንድ
ቀንድን
ቀንዶች
ቀንዷ
ቀኖች
ቀኖና
ቀኖናዊ
ቀኛዝማች
ቀኝ
ቀኝና
ቀወት
ቀዉለሙን
ቀውሱ
ቀውስ
ቀውሶች
ቀውሶችን
ቀውግኛ
ቀዓት
ቀዝቀዝ
ቀዝቃዛ
ቀዝቃዛው
ቀየረ
ቀየረው
ቀየሩ
ቀየሩት
ቀዩ
ቀያሽ
ቀያቸው
ቀይ
ቀይሕ
ቀይረዋል
ቀይረው
ቀይራ
ቀይር
ቀይሮ
ቀይሮታል
ቀይሯል
ቀይና
ቀደመ
ቀደመው
ቀደሙ
ቀደም
ቀደምቱ
ቀደምት
ቀደምትነት
ቀዳሚ
ቀዳሚው
ቀዳሚውን
ቀዳሚዎቹ
ቀዳማዊ
ቀዳማዊት
ቀዳሽ
ቀዳዳ
ቀዳዳዎች
ቀዳዶች
ቀዳጅ
ቀድመው
ቀድማ
ቀድሞ
ቀድሞም
ቀድሞው
ቀድሞውኑ
ቀድሞውንም
ቀዶ
ቀጄላ
ቀጋ
ቀጠለ
ቀጠለች
ቀጠሉ
ቀጠል
ቀጠረ
ቀጠሮ
ቀጠና
ቀጠናዎች
ቀጠን
ቀጣና
ቀጣዩ
ቀጣዩን
ቀጣይ
ቀጣይነት
ቀጤ
ቀጤነክ
ቀጥ
ቀጥለዋል
ቀጥለው
ቀጥለውም
ቀጥላ
ቀጥላለች
ቀጥሎ
ቀጥሎም
ቀጥሎና
ቀጥሏል
ቀጥሮ
ቀጥሯል
ቀጥተኛ
ቀጥታ
ቀጥኜ
ቀጥፏል
ቀጫጭን
ቀጭኔ
ቀጭኔዎች
ቀጭን
ቀፎ
ቁ
ቁላ
ቁልል
ቁልቁለት
ቁልቁሉ
ቁልቁል
ቁልቋል
ቁልቢ
ቁልቢጥ
ቁልጭ
ቁልፉ
ቁልፉን
ቁልፍ
ቁልፎች
ቁመህ
ቁመተ
ቁመቱ
ቁመቱም
ቁመታቸው
ቁመት
ቁመትና
ቁመና
ቁማር
ቁም
ቁምነገር
ቁምነገሮች
ቁምጣ
ቁምጥና
ቁምፊ
ቁምፊዎች
ቁረይሽ
ቁረይሾች
ቁረጥ
ቁራ
ቁራኛ
ቁራጭ
ቁራጮች
ቁር
ቁርስ
ቁርበት
ቁርባን
ቁርቴኛ
ቁርኝት
ቁርአን
ቁርአንን
ቁርኣን
ቁርኣንን
ቁርጠት
ቁርጠኛ
ቁርጠኝነት
ቁርጥ
ቁርጥራጭ
ቁርጥራጮች
ቁሱ
ቁሳቁስ
ቁሳቁሶች
ቁሳቁሶችን
ቁሳዊ
ቁስ
ቁስል
ቁስልን
ቁስቋም
ቁስን
ቁስጥንጥንያ
ቁሶች
ቁሶችን
ቁባት
ቁቤ
ቁና
ቁናዎቹ
ቁናዎች
ቁንዶ
ቁንጥጫ
ቁንጫ
ቁንጮ
ቁንጮውን
ቁንጮዎች
ቁዋንቁዋ
ቁጠራ
ቁጠባ
ቁጡ
ቁጣ
ቁጣህን
ቁጣን
ቁጥሩ
ቁጥሩም
ቁጥሩን
ቁጥራቸው
ቁጥር
ቁጥርም
ቁጥርና
ቁጥርን
ቁጥሮቹ
ቁጥሮች
ቁጥሮችን
ቁጥቋጦ
ቁጥቋጦች
ቁጥቋጦዎች
ቁጥቋጦዎችን
ቁጥጥር
ቁጥጥርን
ቁጥጥሮች
ቁጭ
ቁጭት
ቁጭትና
ቁፋሮ
ቁፋሮዎች
ቁፍ
ቂ
ቂል
ቂልን
ቂሙን
ቂም
ቂርሎስ
ቂርቆስ
ቂሮስ
ቂሳርያ
ቂብላ
ቂጡ
ቂጡን
ቂጣ
ቂጣም
ቂጥ
ቂጥም
ቂጥኛም
ቂጥኝ
ቂጧን
ቂፍ
ቃ
ቃለ
ቃለምልልስ
ቃሉ
ቃሉም
ቃሉን
ቃሉንም
ቃላቱ
ቃላት
ቃላትም
ቃላትና
ቃላትን
ቃላቶች
ቃላቸው
ቃላቸውን
ቃሌ
ቃሌን
ቃል
ቃልህ
ቃልም
ቃልቻ
ቃልና
ቃልን
ቃልኪዳን
ቃሎች
ቃረህ
ቃሪያ
ቃርያ
ቃሮኛ
ቃሲም
ቃታ
ቃትና
ቃና
ቃኘው
ቃካሬ
ቃዓ
ቃይንም
ቃዲ
ቃጠሎ
ቃጣር
ቃጫ
ቃጫማ
ቃጫዎች
ቃጭል
ቃጭፖ
ቄ
ቄሣር
ቄሣሮች
ቄራ
ቄርሎስ
ቄሳር
ቄሳውንት
ቄስ
ቄስና
ቄሶች
ቄቤና
ቄኔዝ
ቄኔዝና
ቄንጥ
ቄዋማ
ቄጠማ
ቄጤማ
ቅ
ቅሉ
ቅሌምንጦስ
ቅሌት
ቅል
ቅልቅል
ቅልና
ቅልውጥ
ቅልጥ
ቅልጥም
ቅልጥፍና
ቅሎች
ቅመማ
ቅመማም
ቅመም
ቅመሞች
ቅመሱ
ቅማል
ቅማንት
ቅማንትኛ
ቅረቢ
ቅሪተ
ቅሪት
ቅሪቶች
ቅራኔ
ቅሬታ
ቅሬታውን
ቅር
ቅርሱ
ቅርሱን
ቅርስ
ቅርስነት
ቅርስና
ቅርሶቻቸው
ቅርሶች
ቅርሶችና
ቅርሶችን
ቅርበት
ቅርቡ
ቅርብ
ቅርንጫፉ
ቅርንጫፍ
ቅርንጫፎቹ
ቅርንጫፎች
ቅርንጫፎችን
ቅርንፉድ
ቅርጫት
ቅርጹ
ቅርጹም
ቅርጹን
ቅርጻ
ቅርጽ
ቅርጽና
ቅርጽን
ቅርጾች
ቅርጾችን
ቅርፁ
ቅርፃ
ቅርፅ
ቅርፊት
ቅሮይሶስ
ቅስቀሳ
ቅስት
ቅበሩኝ
ቅበሩዋቸው
ቅባት
ቅባቶችና
ቅቤ
ቅቤና
ቅቤውን
ቅብብል
ቅብዐ
ቅነሳ
ቅና
ቅናሽ
ቅናሾች
ቅናት
ቅኔ
ቅኔው
ቅኔዎች
ቅን
ቅንብር
ቅንነት
ቅንድብ
ቅንጅበራሂ
ቅንጅት
ቅንጣት
ቅንጣቶች
ቅንጭብ
ቅኝ
ቅኝት
ቅኝቶች
ቅዋሜ
ቅዘን
ቅዝምዝም
ቅዝቃዛ
ቅዝቃዜ
ቅዠት
ቅየሳ
ቅያሶች
ቅይጥ
ቅደም
ቅዱሱ
ቅዱሱን
ቅዱሳት
ቅዱሳን
ቅዱሳንን
ቅዱሳዊ
ቅዱስ
ቅዱስም
ቅዱስና
ቅዱስን
ቅዱስንም
ቅዳ
ቅዳሜ
ቅዳሜና
ቅዳም
ቅዳሴ
ቅድመ
ቅድመኞቹ
ቅድሚያ
ቅድማያት
ቅድማያቶች
ቅድም
ቅድሳት
ቅድስተ
ቅድስት
ቅድስና
ቅድስናን
ቅጂ
ቅጂው
ቅጂዎች
ቅጅ
ቅጠሉ
ቅጠሉም
ቅጠሉን
ቅጠላ
ቅጠል
ቅጠልና
ቅጠሎቹ
ቅጠሎች
ቅጠሎችን
ቅጣቱ
ቅጣቱን
ቅጣት
ቅጣትን
ቅጣቶች
ቅጥ
ቅጥልጥል
ቅጥሎቹ
ቅጥረኛ
ቅጥረኞች
ቅጥር
ቅጥሯ
ቅጥያ
ቅጥያዎች
ቅጥፈት
ቅጦች
ቅጦችን
ቅጽ
ቅጽል
ቅጽሎች
ቅጽር
ቅጽበታዊ
ቅጽበት
ቅጾች
ቅፅ
ቅፅል
ቅፅሎች
ቅፅበት
ቅፍርናሖም
ቆ
ቆለጥ
ቆላ
ቆላላ
ቆላማ
ቆላና
ቆልፍ
ቆሎ
ቆመ
ቆመች
ቆመዋል
ቆመው
ቆሙ
ቆማ
ቆማጣ
ቆም
ቆምጬ
ቆምጬን
ቆሞ
ቆሞኛ
ቆሟል
ቆሣይ
ቆረቆረ
ቆረቆር
ቆረጠው
ቆሩ
ቆራሬ
ቆራርጦ
ቆራጣ
ቆራጥ
ቆራጥነት
ቆራጭ
ቆራጭነት
ቆሬ
ቆርሶ
ቆርቆሮ
ቆርኔሌዎስ
ቆርኪ
ቆርኬ
ቆርጠን
ቆርጠው
ቆርጦ
ቆሮ
ቆሮንቶስ
ቆሮንጦስ
ቆሰሉ
ቆስለዋል
ቆስለው
ቆስሎ
ቆስሏል
ቆስጠንጢኖስ
ቆስጣ
ቆሻሻ
ቆሻሻዎች
ቆሻሻዎችን
ቆቅ
ቆቡን
ቆቤን
ቆብ
ቆቦ
ቆንስላ
ቆንስል
ቆንጆ
ቆንጫጫ
ቆንጽላ
ቆየ
ቆየት
ቆየች
ቆዩ
ቆይ
ቆይተዋል
ቆይተው
ቆይታ
ቆይታለች
ቆይታቸው
ቆይታቸውም
ቆይታው
ቆይቶ
ቆይቶም
ቆይቷል
ቆዳ
ቆዳን
ቆዳው
ቆዳውን
ቆዳዎች
ቆጠራ
ቆጣሪ
ቆጣቢ
ቆጣቢነትን
ቆጥ
ቆጥሮ
ቆጥቦ
ቆጮ
ቆጵሮስ
ቆጵሮስን
ቆጶሳት
ቆጶስ
ቆፋሪዎቹ
ቆፋሪዎች
ቆፍ
ቆፍረው
ቆፍሮ
ቈ
ቈረጠ
ቈርሶም
ቈንዳሚር
ቊ
ቊራጮች
ቊጥር
ቊጥቋጥ
ቋ
ቋሚ
ቋሚነት
ቋሚና
ቋማኛ
ቋራ
ቋት
ቋንቋ
ቋንቋም
ቋንቋቸው
ቋንቋቸውም
ቋንቋቸውን
ቋንቋችን
ቋንቋነት
ቋንቋና
ቋንቋን
ቋንቋወች
ቋንቋው
ቋንቋውም
ቋንቋውን
ቋንቋዎቻቸው
ቋንቋዎች
ቋንቋዎችም
ቋንቋዎችና
ቋንቋዎችን
ቋንጣ
ቋጠሮ
ቋጥኝ
ቋጥኞች
ቌ
ቍ
ቍልፍ
ቍልፎች
ቍርስራሽ
ቍርባን
ቍርጥራጮች
ቍስል
ቍጣ
ቍጥሩ
ቍጥራዊ
ቍጥር
ቍጥሮች
ቐ
ቑ
ቒ
ቓ
ቔ
ቕ
ቖ
ቘ
ቚ
ቛ
ቜ
ቝ
በ
በሀ
በሀሌ
በሀምሌ
በሀረር
በሀሰት
በሀሳብ
በሀበሻ
በሀብት
በሀንጋሪ
በሀዘን
በሀያ
በሀይሉ
በሀይል
በሀይማኖት
በሀይቲ
በሀይግሮቭ
በሀዲስ
በሀዲያ
በሀገረ
በሀገሩ
በሀገሪቱ
በሀገሪቷ
በሀገራቱ
በሀገራቸው
በሀገራችን
በሀገር
በሁለተኛ
በሁለተኛው
በሁለቱ
በሁለቱም
በሁለት
በሁለትዮሽ
በሁሉ
በሁሉም
በሁኔታዎች
በሁንጋሪያ
በሁከቱ
በሁዋላ
በሁዳዴ
በሂሳባዊ
በሂሳብ
በሂትለር
በሂንዱኢዝም
በሂክሶስ
በሂወት
በሂደቱ
በሂደት
በሃላ
በሃላፊነት
በሃሙራቢ
በሃርድዌር
በሃሳብ
በሃቅ
በሃብት
በሃን
በሃዋይ
በሃያ
በሃያልነት
በሃያኛው
በሃይል
በሃይማኖቱ
በሃይማኖታዊ
በሃይማኖት
በሃይቲ
በሃድሰን
በሃገሪቱ
በሃገራችን
በሃገር
በሄሊኮፕተር
በሄራክሌውፖሊስ
በሄሮዶተስ
በሄሮዶቱስ
በሄሮዶቶስ
በሄንሪ
በሄያን
በሄይቲ
በሄደ
በሄደበት
በሄድኩበት
በህልሙ
በህመም
በህብረ
በህብረተሰቡ
በህብረተሰብ
በህብረቱ
በህብረት
በህትመት
በህንድ
በህክምና
በህዋላ
በህዝበ
በህዝቡ
በህዝባዊ
በህዝብ
በህይወቱ
በህይወቴ
በህይወት
በህይወቷ
በህዳር
በህገ
በህጉ
በህግ
በህግጋት
በህጻን
በህጻንነቱ
በህጻንነታቸው
በሆላ
በሆላንድ
በሆሜር
በሆስፒታሉ
በሆስፒታል
በሆነ
በሆነበት
በሆነችው
በሆነው
በሆኑ
በሆኑበት
በሆኑት
በሆንግ
በሆዴ
በሆድሰን
በሆዷ
በለሊት
በለሳ
በለስ
በለስላሳ
በለን
በለንደን
በለወጡ
በለዉ
በለው
በለይቶ
በለጋ
በለጠ
በለፈለፉ
በሉ
በሉቃስ
በሉት
በሉክሰምበርግ
በሉዊ
በሉዊስ
በሉጥ
በሊ
በሊል
በሊቀ
በሊቃውንት
በሊቢያ
በሊባኖስ
በሊብያ
በሊቨርፑል
በሊተል
በሊዝ
በሊጉ
በሊግ
በሊፒት
በላ
በላህ
በላሊበላ
በላላ
በላሙ
በላርሳ
በላስ
በላቲመር
በላቲን
በላት
በላቸው
በላን
በላው
በላዩ
በላያቸው
በላያችን
በላይ
በላይቤሪያ
በላይነህ
በላይና
በላይኛ
በላይኛው
በላጋሽ
በላጭ
በሌ
በሌለበት
በሌለባቸው
በሌለው
በሌሉበት
በሌሊት
በሌሊትም
በሌላ
በሌላም
በሌላቸው
በሌላኛው
በሌላው
በሌላውም
በሌሎቹ
በሌሎቹም
በሌሎች
በሌሎችም
በሌባ
በሌቦር
በሌቫንት
በሌኒንግራድ
በሌጎስ
በል
በልማት
በልማድ
በልሳነ
በልቡ
በልባቸው
በልባቸውም
በልባችኹ
በልብ
በልብሴ
በልተህ
በልተው
በልታ
በልቶ
በልኩ
በልክ
በልዑል
በልዩ
በልዩነት
በልደት
በልድያ
በልጁ
በልጃቸው
በልጄ
በልጅ
በልጅነቱ
በልጅነታቸው
በልጅነቴ
በልጅነት
በልጅነቷ
በልጆቹ
በልጆቻቸው
በልጆች
በልግ
በልግራድ
በሎሚ
በሎርድ
በሎስ
በሎች
በሎንዶን
በሎንግ
በሐመር
በሐምሌ
በሐረሪ
በሐረር
በሐረርጌ
በሐሰት
በሐቱሳሽ
በሐቱሻ
በሐቲ
በሐዋርያት
በሐዘን
በሐይማኖት
በሐይቁ
በሐይቅ
በሐዲስ
በሑራውያን
በሒሳብ
በሓላ
በሕልሙ
በሕልም
በሕብረት
በሕንዳዊ
በሕንድ
በሕክምና
በሕዋላ
በሕዝቡ
በሕዝባዊ
በሕዝብ
በሕዝብም
በሕይወቱ
በሕይወታቸው
በሕይወቴ
በሕይወት
በሕገ
በሕጉ
በሕጋዊ
በሕግ
በሕግም
በሕጻንነታቸው
በሕፃንነቱ
በሗላ
በሗላም
በመ
በመሀል
በመሃሉ
በመሃል
በመሄዱ
በመሄድ
በመሆኑ
በመሆኑም
በመሆኑና
በመሆናቸው
በመሆን
በመሆንም
በመሆንዋ
በመሆኗ
በመለካት
በመለኮቱ
በመለኮታዊ
በመለኮት
በመለወጥ
በመለዋወጥ
በመለየት
በመለገስ
በመላ
በመላእክት
በመላክ
በመላው
በመላዕክት
በመልቀም
በመልቀቅ
በመልአኩ
በመልካም
በመልክዓ
በመሐላ
በመሓል
በመሔድ
በመመለስ
በመመልመል
በመመልከት
በመመሥረት
በመመርመር
በመመርኮዝ
በመመስረት
በመመኘት
በመመካከር
በመመዝገብ
በመመገቢያ
በመመገብ
በመማረክ
በመማር
በመምህርነት
በመምረጡ
በመምረጥ
በመምራት
በመምሰል
በመምታት
በመምጣቱ
በመምጣታቸው
በመምጣት
በመሞቱ
በመሞታቸው
በመሞከር
በመሠረተ
በመሠረቱ
በመሠዊያው
በመሣርያዎች
በመሥራት
በመረዳት
በመረዳዳት
በመረጃ
በመረጃና
በመረጡት
በመሪ
በመሪነት
በመሪያቸው
በመሬት
በመርህ
በመርታት
በመርከቡ
በመርከቢቱ
በመርከብ
በመርዘሙ
በመርዝ
በመርዳት
በመርገጥ
በመርፌ
በመሮጥ
በመሰለ
በመሰረቱ
በመሰባበር
በመሰብሰብ
በመሰንዘር
በመሳሪያ
በመሳሰሉ
በመሳሰሉት
በመሳሳት
በመሳብ
በመሳተፍ
በመሳፈር
በመሳፍንት
በመስመር
በመስማማት
በመስራቱ
በመስራት
በመስቀሉ
በመስቀል
በመስቃን
በመስበር
በመስበክ
በመስታወት
በመስኖ
በመስከረም
በመስኩ
በመስክ
በመስኮት
በመስጋት
በመስጠቱ
በመስጠት
በመስጴጦምያ
በመስፋፋቱ
በመስፋፋት
በመሸ
በመሸም
በመሸሽ
በመሸነፉ
በመሸነፋቸው
በመሸጥ
በመሸፈን
በመሻር
በመሻት
በመሻገር
በመሾም
በመቀላቀል
በመቀሌ
በመቀመጡ
በመቀመጥ
በመቀበል
በመቀባት
በመቀነሱ
በመቀነስ
በመቀናጀት
በመቀየር
በመቀያየር
በመቀጠል
በመቀጠልም
በመቀጠር
በመቀጣጠል
በመቁረጥ
በመቁጠር
በመቃብሩ
በመቃብር
በመቃኘት
በመቃወም
በመቅረብ
በመቅረጽ
በመቅደላ
በመቅደሱ
በመቅደስ
በመቅደስም
በመቆለፊያ
በመቆም
በመቆየት
በመቆጣጠር
በመቆፈር
በመቋቋም
በመባሉ
በመባል
በመባልም
በመብላት
በመብረር
በመብረቅ
በመብራቅ
በመተላለፍ
በመተማ
በመተርጎም
በመተባበር
በመተቸት
በመተንተን
በመተካት
በመተኮስ
በመተው
በመተግበር
በመታየቱ
በመታየት
በመታገዝ
በመትከል
በመቶ
በመቶኛ
በመቶው
በመቶውን
በመቶዎች
በመቻሉ
በመቻላቸው
በመቻቻል
በመነሳት
በመነካካት
በመነጋገር
በመናገር
በመናገሻ
በመንቀሳቀስ
በመንበረ
በመንከባከብ
በመንዝ
በመንደሩ
በመንደራቸው
በመንደር
በመንደፍ
በመንገር
በመንገዱ
በመንገድ
በመንገድም
በመንገዶች
በመንግሥተ
በመንግሥቱ
በመንግሥት
በመንግስቱ
በመንግስት
በመንጠቅ
በመንፈሱ
በመንፈሳዊ
በመንፈስ
በመንፈስም
በመንፈቅለ
በመኖሩ
በመኖሪያ
በመኖራቸው
በመኖር
በመከላከል
በመከላከያ
በመከልከል
በመከሠቱ
በመከራ
በመከር
በመከተል
በመከታተል
በመከፋፈል
በመኪና
በመካ
በመካሄድ
በመካከለኛ
በመካከለኛዉ
በመካከለኛው
በመካከሉ
በመካከላቸው
በመካከላቸውም
በመካከላችሁ
በመካከላችን
በመካከላችኹ
በመካከል
በመካድ
በመክፈል
በመክፈት
በመክፈቻው
በመኳንንት
በመኾን
በመወለዱ
በመወርወር
በመወሰን
በመወሰዱ
በመወከል
በመወያየት
በመወጣት
በመዋል
በመዋስ
በመዋቅራዊ
በመዋዋል
በመዋጋት
በመውረሩ
በመውረር
በመውረስ
በመውሰድ
በመውሰድና
በመውደቁ
በመውደቃቸው
በመውጋት
በመውጣት
በመዘዋወር
በመዝመት
በመዝሙረ
በመዝሙር
በመዝናኛ
በመዝገብ
በመዝገቦች
በመዝጋት
በመዝፈን
በመዞር
በመዠመሪያ
በመያዙ
በመያዛቸው
በመያዝ
በመደመር
በመደምሰስ
በመደራደር
በመደርደር
በመደበኛ
በመደበኛነት
በመደበኛው
በመደባለቅ
በመደገፍ
በመዲና
በመዲናችን
በመዲናዋ
በመድረስ
በመድረኩ
በመድረክ
በመድፍ
በመዶሻ
በመጀመሪያ
በመጀመሪያው
በመጀመሪያዎቹ
በመጀመር
በመጀመርያ
በመጀመርያው
በመገልበጥ
በመገመት
በመገምገም
በመገናኘት
በመገናኛ
በመገንባት
በመገንዘብ
በመገኘቱ
በመገኘታቸው
በመገኘት
በመገደብ
በመጊዶ
በመጋራት
በመጋበዝ
በመጋቢት
በመጋደል
በመጋፈጥ
በመግለጫው
በመግለጽ
በመግቢያው
በመግባቱ
በመግባታቸው
በመግባት
በመግዛት
በመግደል
በመግጠም
በመግፋት
በመጎብኘት
በመጎዳቱ
በመጓዝ
በመጠቀም
በመጠቅለል
በመጠቆም
በመጠበቅ
በመጠባበቅ
በመጠኑ
በመጠኑም
በመጠን
በመጠየቅ
በመጠጣት
በመጠጥ
በመጡ
በመጡበት
በመጡት
በመጣ
በመጣል
በመጣመር
በመጣስ
በመጣው
በመጣጥፉ
በመጣፍ
በመጥለፍ
በመጥላት
በመጥምቁ
በመጥራት
በመጥቀስ
በመጥበሻ
በመጥፎ
በመጨመር
በመጨረሱ
በመጨረሻ
በመጨረሻም
በመጨረሻው
በመጨረሻዎቹ
በመጪው
በመጫን
በመጫኛ
በመጫወት
በመጻፉ
በመጻፍ
በመጽሃፉ
በመጽሐፈ
በመጽሐፉ
በመጽሐፋቸው
በመጽሐፍ
በመፃፍ
በመፈለግ
በመፈልሰፋቸው
በመፈረም
በመፈራረቅ
በመፈንቅለ
በመፈንዳቷ
በመፈጠሩ
በመፈጸሙ
በመፈጸም
በመፍረሱ
በመፍረስ
በመፍራት
በመፍታት
በመፍጠሩ
በመፍጠር
በመፍጠርና
በሙሉ
በሙሎ
በሙሳ
በሙሴ
በሙስሊም
በሙስሊሞች
በሙስና
በሙስዓብ
በሙቀት
በሙቀጫ
በሙቅ
በሙታን
በሙት
በሙኒክ
በሙከራ
በሙከራው
በሙዚቃ
በሙዚቃው
በሙያው
በሙጋል
በሚሄደው
በሚሆኑ
በሚሆን
በሚሆንበት
በሚለው
በሚሉ
በሚሉት
በሚሊዮን
በሚሊዮኖች
በሚላን
በሚል
በሚመለከት
በሚመሩ
በሚመራ
በሚመራው
በሚመሳሰል
በሚመስል
በሚመጡ
በሚመጣ
በሚመጣው
በሚሠራበት
በሚሰሩ
በሚሰራበት
በሚሰጠው
በሚሰጥ
በሚሲሲፒ
በሚስማማ
በሚስማር
በሚስቱ
በሚስጥር
በሚቀጥለው
በሚቀጥሉት
በሚቆጠሩ
በሚበልጡ
በሚባለው
በሚባሉ
በሚባሉት
በሚባል
በሚታሰበው
በሚታኒ
በሚታወቀው
በሚታወቁት
በሚታየው
በሚታዩ
በሚታይበት
በሚችል
በሚነሳበት
በሚነሳው
በሚኒስትሮች
በሚናገሩ
በሚንቀሳቀሱ
በሚንግ
በሚኖሩ
በሚኖሩበት
በሚኖሩት
በሚኖር
በሚኖርበት
በሚከተለው
በሚከተለውም
በሚከተሉት
በሚካሂል
በሚካሄደው
በሚካኤል
በሚኾን
በሚወስደው
በሚወክሉ
በሚውልበት
በሚዙሪ
በሚያሳይ
በሚያስታውስ
በሚያስደንቅ
በሚያበረታታ
በሚያዚያ
በሚያዝያ
በሚያደርስበት
በሚያደርገው
በሚያደርጉት
በሚያገኙ
በሚያገኙት
በሚደረገው
በሚደረጉ
በሚደረግ
በሚገርም
በሚገቡ
በሚገባ
በሚገኘው
በሚገኙ
በሚገኙት
በሚገኝ
በሚገኝበት
በሚጠራ
በሚጠራበት
በሚጠራው
በሚጠቀሙ
በሚጠብቅ
በሚፈለገው
በሚፈልጉ
በሚፈቅደው
በሚፈጥረው
በሚፈጸሙ
በማ
በማህበረሰቡ
በማህበረሰብ
በማህበራዊ
በማህበር
በማለም
በማለቱ
በማለታቸው
በማለት
በማለቷ
በማለዳ
በማለፍ
በማሊ
በማልታ
በማመስገን
በማመን
በማምለጥ
በማምረት
በማምራት
በማምጣት
በማሟላት
በማሠብ
በማረም
በማረጋገጥ
በማረፍ
በማሪ
በማሪና
በማራቶን
በማር
በማርቀቅ
በማርቆስ
በማርች
በማርያም
በማሰማት
በማሰራት
በማሰራጨት
በማሰር
በማሰሮ
በማሰባሰብ
በማሰብ
በማሳለፍ
በማሳተም
በማሳቹሴትስ
በማሳወቅ
በማሳየቱ
በማሳየት
በማሳደግ
በማሳጣት
በማሴር
በማስላት
በማስመሰል
በማስመስል
በማስመዝገብ
በማስመጣት
በማስረዘም
በማስረዳት
በማስረጃ
በማስቀመጥ
በማስቀረት
በማስቆጠር
በማስተላለፍ
በማስተማር
በማስተባበር
በማስተናገድ
በማስተካከል
በማስተዋል
በማስተዋወቅ
በማስተዳደር
በማስታረቅ
በማስታወስ
በማስታወቂያ
በማስታጠቅ
በማስነሳት
በማስወገድ
በማስገባት
በማስገደድ
በማስፋፋት
በማሸነፉ
በማሸነፍ
በማሻሻል
በማሻገር
በማሽነፍ
በማቀናጀት
በማቀድ
በማቀፍ
በማቃጠል
በማቅረባቸው
በማቅረብ
በማቅናት
በማቆም
በማቋረጥ
በማቋቋም
በማበር
በማበርከት
በማባረር
በማብራራት
በማብዛት
በማተሚያ
በማተም
በማተኮር
በማታ
በማቴ
በማቴዎስ
በማኅበረሰቡ
በማኅበሩ
በማኅበራዊ
በማነሳሳት
በማነጣጠር
በማነጽ
በማናቸውም
በማኔቶን
በማኔጦን
በማን
በማንም
በማንሳት
በማንቀሳቀስ
በማንበብ
በማንኛውም
በማንኳኳት
በማንጎራጎር
በማእከላዊ
በማእዱ
በማከም
በማከናወን
በማካሄድ
በማካተት
በማካፈል
በማክበር
በማወቅ
በማወጅ
በማዋሃድ
በማዋል
በማዋሐድ
በማዋረድ
በማውገዝ
በማውጣቱ
በማውጣት
በማዎዳደር
በማዕረጉ
በማዕረግ
በማዕበል
በማዕከሉ
በማዕከላዊ
በማዕድን
በማዘዝ
በማዘጋጀት
በማዘጋጃ
በማዛወር
በማዞር
በማየ
በማየት
በማያሻማ
በማያያዝ
በማይሆን
በማይል
በማይታወቅ
በማይችሉበት
በማይችል
በማይክል
በማይክሮስኮፕ
በማይጨው
በማደራጀት
በማደስ
በማደባለቅ
በማደን
በማደግ
በማዳቀል
በማዳበር
በማዳጋስካር
በማድረስ
በማድረጉ
በማድረጋቸው
በማድረግ
በማድረግና
በማድሪድ
በማጁንጋ
በማጅራት
በማገልገል
በማገናኘት
በማገናዘብ
በማገድ
በማገገም
በማጋነን
በማግ
በማግለል
በማግሥቱ
በማግስቱ
በማግስቱም
በማግባት
በማግኘቱ
በማግኘታቸው
በማግኘት
በማጠቃለል
በማጠናቀቅ
በማጠናከር
በማጣመር
በማጣቀስ
በማጣቱ
በማጣት
በማጤን
በማጥመድ
በማጥቃት
በማጥናት
በማጥፋት
በማጭበርበር
በማፅደቅ
በማፈን
በማፈንዳት
በማፈግፈግ
በማፍለቅ
በማፍረስ
በማፍራት
በሜምፊስ
በሜሪላንድ
በሜርኩሪ
በሜሶጶጣሚያ
በሜክሲኮ
በሜይ
በሜይን
በሜዲቴራኔያን
በሜዲትራኒያን
በሜዳ
በሜዳው
በሜድትራኒያን
በሜጀር
በምህንድስና
በምላሹ
በምላሹም
በምላሽ
በምልክት
በምሕንድስና
በምሥራቁ
በምሥራቃዊ
በምሥራቅ
በምሥራቅና
በምሥጢር
በምርመራ
በምርምር
በምርኮ
በምርጥ
በምርጫ
በምርጫው
በምሳሌ
በምሳሌያዊ
በምስራቃዊ
በምስራቃዊው
በምስራቅ
በምስር
በምስጢር
በምሽት
በምታደርገው
በምትባለው
በምትባል
በምትኩ
በምትካቸው
በምትክ
በምትገኘው
በምትገኝ
በምትገኝበት
በምቾት
በምናባዊ
በምን
በምንም
በምኞት
በምእራብ
በምክሩ
በምክር
በምክትል
በምክንያት
በምኵራብም
በምዕራቡ
በምዕራባዊ
በምዕራባዊው
በምዕራባውያን
በምዕራብ
በምዕራብም
በምዕራብያውያን
በምዕራፍ
በምድረ
በምድሪቱ
በምድራችን
በምድር
በምድርም
በምድጃው
በምግባር
በምግብ
በምጣኔ
በምጽዋ
በሞላ
በሞላው
በሞልዶቫ
በሞረድ
በሞሪስታውን
በሞሪታንያ
በሞርሞን
በሞሮ
በሞሮኮ
በሞሱል
በሞስኮ
በሞቀ
በሞባይል
በሞተር
በሞተበት
በሞቱ
በሞት
በሞንቴሬይ
በሞንቴቪዴዎ
በሞንትሪያል
በሞንጎሊያውያን
በሞንጎልያ
በሞኖፖል
በሞከሩት
በሞጃቭ
በሞጣ
በሠላሳ
በሠራተኛ
በሠራዊቱ
በሠራዊት
በሠፊው
በሢማ
በሣር
በሤራ
በሥላሴ
በሥልጣኑ
በሥልጣን
በሥሩ
በሥራ
በሥራቸው
በሥራና
በሥራዊቱ
በሥርወ
በሥርዓተ
በሥርዓቱ
በሥርዓት
በሥነ
በሥውር
በሥዕላዊ
በሥዕል
በሥያ
በሥጋ
በሥፍራው
በሦስተኛ
በሦስተኛው
በሦስተኛውም
በሦስቱ
በሦስት
በረሀ
በረሀብ
በረሃ
በረሃማ
በረሃብ
በረሃዎች
በረሓ
በረረ
በረሩ
በረራ
በረራው
በረራውን
በረራዎች
በረራዎችን
በረቂቅ
በረቅ
በረት
በረንታ
በረንዳ
በረኛ
በረከቱ
በረከት
በረከትን
በረካ
በረካታ
በረዥም
በረዳት
በረድ
በረዶ
በረዷማ
በረጃጅም
በረጅም
በረጨኑ
በሩ
በሩሲያ
በሩሲያኛ
በሩስኛ
በሩስያ
በሩሶ
በሩቅ
በሩን
በሩዋንዳ
በሩጫ
በሪ
በሪሁን
በሪል
በሪቻርድ
በሪችሞንድ
በሪዮ
በሪፈረንደም
በራ
በራሂ
በራሂዎች
በራሪ
በራሱ
በራሳቸው
በራሳቸውም
በራስ
በራስታፋራይ
በራስዋ
በራሶ
በራሷ
በራእይ
በራይሆልት
በራይን
በራዲዮ
በራድ
በራጅ
በራግቢ
በራፍ
በሬ
በሬህን
በሬን
በሬው
በሬውን
በሬዎች
በሬዲዮ
በሬድዮ
በር
በርሃ
በርሊን
በርሚንግሃም
በርማ
በርማን
በርሜል
በርሱ
በርሱም
በርሱና
በርሳቸው
በርሳቸውም
በርሳችሁ
በርሳችን
በርሳችኹ
በርስ
በርስታቸው
በርሷ
በርሷም
በርቀት
በርበራ
በርበሬ
በርበሬና
በርበሬውን
በርበር
በርበሮች
በርባንን
በርተን
በርታ
በርታኛ
በርቶ
በርናርድ
በርን
በርከት
በርካታ
በርካቶች
በርዕሠ
በርዕሰ
በርዕዮተ
በርዕዮቶቹ
በርድዝ
በርገር
በርጊዮን
በርግማን
በርግጥ
በርግጥም
በርግጫ
በርጎሊዮ
በሮማ
በሮማን
በሮማንኛ
በሮማው
በሮማውያን
በሮማይስጥ
በሮሜ
በሮሜኛ
በሮም
በሮበርት
በሮች
በሮክ
በሮያል
በሰላማዊ
በሰላማዊነት
በሰላም
በሰላምና
በሰላሳ
በሰሌዳ
በሰሎሞን
በሰሙ
በሰማ
በሰማሽ
በሰማች
በሰማንያ
በሰማዕትነት
በሰማያት
በሰማያትና
በሰማያዊ
በሰማይ
በሰማይም
በሰማይና
በሰሜኑ
በሰሜናዊ
በሰሜናዊው
በሰሜን
በሰሜንና
በሰም
በሰሩት
በሰር
በሰባ
በሰባተኛው
በሰባት
በሰብአዊ
በሰብዓዊ
በሰናዖር
በሰኔ
በሰንሰለት
በሰንበት
በሰንበትም
በሰአት
በሰከንድ
በሰወች
በሰው
በሰውም
በሰውነቱ
በሰውነታችን
በሰውነት
በሰዎች
በሰዎችም
በሰዓት
በሰይፍ
በሰዳን
በሰጠው
በሰጡት
በሰፈሩ
በሰፈሩት
በሰፈራ
በሰፊ
በሰፊው
በሱ
በሱሉልታ
በሱልጣን
በሱመራዊ
በሱመራውያን
በሱመር
በሱመርና
በሱመርኛ
በሱማሌ
በሱም
በሱራ
በሱቁጥራ
በሱናክ
በሱዳን
በሱዳንም
በሲማ
በሲሲሊ
በሲስቲኒ
በሲቪል
በሲና
በሲናይ
በሲንጋፖር
በሲአይኤ
በሲኪሊያ
በሲክዮን
በሲዬራ
በሲዲ
በሲዳማ
በሲዳሞ
በሳሙና
በሳሙኤል
በሳምራዊው
በሳምራዊውም
በሳምንቱ
በሳምንት
በሳር
በሳርጎን
በሳስካችዋን
በሳቅ
በሳቢክ
በሳባ
በሳቫና
በሳተላይት
በሳቸው
በሳን
በሳንስክሪት
በሳንቲያጎ
በሳንታ
በሳንዠርመን
በሳንጃ
በሳኡዲ
በሳኦል
በሳክራሜንቶ
በሳዑዲ
በሳይቤሪያ
በሳይንሳዊ
በሳይንስ
በሳይንስና
በሳይንቲስቶች
በሴማዊ
በሴም
በሴራ
በሴት
በሴቶች
በሴቷ
በሴኔት
በሴኔጋል
በሴንት
በሴኬም
በሴፕቴምበር
በስህተት
በስለላ
በስለት
በስልክ
በስልጣኔ
በስልጣን
በስሕተት
በስመ
በስሙ
በስሙም
በስማቸው
በስማቸውም
በስሜ
በስሜታዊነት
በስሜት
በስሜኑ
በስሜን
በስም
በስምምነት
በስምምነትና
በስምንተኛው
በስምንት
በስምኽ
በስሩ
በስሪ
በስራ
በስራው
በስርዓት
በስርጭት
በስሱ
በስቅለት
በስቅላት
በስበት
በስብሰባ
በስብሰባው
በስተ
በስተመጨረሻ
በስተመጨረሻም
በስተምሥራቅ
በስተምስራቅ
በስተምዕራብ
በስተሰሜን
በስተቀር
በስተቀኝ
በስተኋላ
በስተወዲያው
በስተደቡብ
በስተጀርባ
በስተግራ
በስታሊን
በስታንፎርድ
በስቴት
በስኅተት
በስነ
በስንት
በስካር
በስኬላር
በስኮትላንድ
በስኳር
በስዊስ
በስዊዘርላንድ
በስዊድን
በስውር
በስዕሉ
በስዕል
በስደተኝነት
በስደተኞች
በስደት
በስድሳ
በስድስተኛው
በስድስት
በስድብ
በስጋ
በስጦታ
በስፋቱ
በስፋት
በስፍራው
በስፓኒሽ
በስፓኒሾች
በስፓንያውያን
በስፔን
በስፖርት
በሶ
በሶማሊያ
በሶማሊያም
በሶማሌ
በሶሪያ
በሶርያ
በሶርያም
በሶርያና
በሶስተኛ
በሶስተኛው
በሶስቱ
በሶስቱም
በሶስት
በሶሻሊስት
በሶብላ
በሶቪየት
በሶቪዬት
በሶቭየት
በሶዶ
በሶፍትዌር
በሷ
በሷዴሽ
በሸንጎ
በሸክላ
በሸዋ
በሸዋው
በሹመት
በሺ
በሺህ
በሺዎች
በሺዓ
በሻህ
በሻምሺ
በሻሱ
በሻሽ
በሻንግ
በሽልማት
በሽመና
በሽር
በሽብርተኝነት
በሽቦ
በሽተኛ
በሽተኛው
በሽተኞች
በሽታ
በሽታና
በሽታን
በሽታወች
በሽታው
በሽታውን
በሽታዎች
በሽታዎችን
በሽቶች
በሽንት
በሽከታ
በሽያጭ
በሽጉጥ
በሽግግር
በሽፍትነት
በሾኽ
በቀ
በቀለ
በቀለማት
በቀለም
በቀላሉ
በቀላል
በቀል
በቀልድ
በቀመር
በቀረበ
በቀረበው
በቀረቡት
በቀሩት
በቀሪው
በቀራንዮ
በቀር
በቀርቀሃ
በቀርከሃ
በቀስ
በቀስታ
በቀስት
በቀበሌ
በቀን
በቀንድ
በቀኖና
በቀኙ
በቀኜ
በቀኝ
በቀኝና
በቀዝቃዛ
በቀዝቃዛው
በቀይ
በቀደመው
በቀደሙት
በቀደምት
በቀደደው
በቀዳሚ
በቀዳሚነት
በቀዳማዊ
በቀዳማይ
በቀዳዳ
በቀድሞ
በቀድሞዋ
በቀድሞው
በቀዶ
በቀጠሮ
በቀጣዩ
በቀጣይ
በቀጣይነት
በቀጣዮቹ
በቀጥተኛ
በቀጥታ
በቀጥታም
በቀጭኑ
በቁ
በቁመቱ
በቁመታቸው
በቁመት
በቁመናው
በቁሙ
በቁም
በቁምራን
በቁራን
በቁርአን
በቁርኣን
በቁርዓን
በቁሱ
በቁሳቁስ
በቁስ
በቁስቋም
በቁስጥንጥንያ
በቁቤ
በቁና
በቁጣ
በቁጥር
በቁጥጥሩ
በቁጥጥራቸው
በቁጥጥር
በቁፋሮ
በቂ
በቂርሎስ
በቃ
በቃለ
በቃሉ
በቃላት
በቃል
በቃሏ
በቃሬዛ
በቃች
በቃኝ
በቄሣሪያ
በቅሎ
በቅርበት
በቅርቡ
በቅርቡም
በቅርብ
በቅርብም
በቅርጫት
በቅቤ
በቅብጢ
በቅተዋል
በቅታለች
በቅቷል
በቅኔ
በቅን
በቅንነት
በቅንነትና
በቅንጦት
በቅንፍ
በቅኝ
በቅደም
በቅዱሳን
በቅዱስ
በቅድመ
በቅድሚያ
በቅድስት
በቅጡ
በቅጣት
በቅጥልጥል
በቅጽል
በቅጽበት
በቆላ
በቆሎ
በቆሎው
በቆሎውን
በቆራጥነት
በቆሮንቶስ
በቆሮንጦስ
በቆስጠንጢኖስ
በቆሻሻ
በቆዩበት
በቆዳ
በቆጵሮስ
በቋሚ
በቋሚነት
በቋንቋ
በቋንቋቸው
በቋንቋው
በበለጠ
በበላ
በበላበት
በበላይ
በበላይነት
በበረሃ
በበረሃው
በበረራ
በበረዶ
በበረዶው
በበሩ
በበራፍ
በበሬ
በበርሊን
በበርሚንግሃም
በበርካታ
በበርገንዳል
በበሽታ
በበሽታው
በበቂ
በበቅሎ
በበነጋው
በበኩሉ
በበኩላቸው
በበኩሏ
በበዓሉ
በበዓላት
በበዓል
በበዙ
በበዛበት
በበገና
በበጋ
በበጋው
በበጌምድር
በበግ
በበጎ
በቡልጋ
በቡልጋሪያ
በቡሩሻንዳ
በቡሬ
በቡርቱጋል
በቡርጂ
በቡና
በቡኪንግሃም
በቡዲስም
በቡዳ
በቡድኑ
በቡድን
በቡድኖች
በቢ
በቢሊዮን
በቢላዋ
በቢቡኝ
በቢቢሲ
በቢአንኽ
በቢዛንታይን
በቢጫ
በባሃይ
በባህሉ
በባህላዊ
በባህላዊው
በባህል
በባህረ
በባህሪው
በባህሪያቸው
በባህሬን
በባህር
በባህርና
በባለቤቱ
በባለቤትነት
በባላባቶች
በባሌ
በባልሞራል
በባልቲክ
በባልንጀራዋ
በባልንጀራው
በባልካን
በባሕላዊ
በባሕር
በባሪያ
በባር
በባርነት
በባቡር
በባቢሎን
በባኃኢ
በባንቱ
በባንክ
በባንጃ
በባንግላዴሽ
በባንጯን
በባኪንግሃም
በባክትሪያ
በባዕድ
በባይዛንታይን
በባዮሎጂ
በባዶ
በቤልጂየም
በቤልጅግ
በቤሩት
በቤሪንግ
በቤተ
በቤተልሔም
በቤተመቅደስ
በቤተመንግሥት
በቤተመንግስት
በቤተሰቡ
በቤተሰብ
በቤተክርስቲያኑ
በቤተክርስቲያን
በቤቱ
በቤቱም
በቤታቸው
በቤቴ
በቤት
በቤኒሻንጉል
በቤኔዲክት
በቤንሻንጉል
በቤንዚን
በቤጂንግ
በብሄራዊ
በብሄር
በብሉይ
በብሎን
በብሔረሰቡ
በብሔሩ
በብሔራዊ
በብሔር
በብረት
በብሩ
በብሪቲሽ
በብሪታኒያ
በብሪታንያ
በብራና
በብራዚል
በብር
በብርሃኑ
በብርሃን
በብርሃንና
በብርሌ
በብርቱ
በብርቱካን
በብርጭቆ
በብቃት
በብቸኝነት
በብናኝ
በብዔል
በብዕር
በብዙ
በብዙሃኑ
በብዙወች
በብዙዎቹ
በብዙዎች
በብዛቱ
በብዛታቸው
በብዛት
በብዛትም
በብድር
በብፁዕ
በቦሊቪያ
በቦልሼቪክ
በቦምብ
በቦስተን
በቦስኒያ
በቦታ
በቦታቸው
በቦታው
በቦነስ
በቨርዱን
በቨርጂኒያ
በቪክቶሪያ
በቪዲዮ
በቫቲካን
በቫን
በቫይረሱ
በቬርሳይ
በቬትናም
በቬክተር
በቭላድሚር
በተ
በተለመደ
በተለመደው
በተለምዶ
በተለምዶው
በተለቀቀው
በተለየ
በተለያየ
በተለያዩ
በተለያዮ
በተለይ
በተለይም
በተለፒኑ
በተላለፈው
በተላበሰ
በተልባ
በተመለሰ
በተመለሱበት
በተመለከተ
በተመለከቱ
በተመሠረተ
በተመሠረተበት
በተመሣሣይ
በተመረጡ
በተመረጡት
በተመራ
በተመራው
በተመሰረተው
በተመሳሳዩ
በተመሳሳይ
በተመሳሳይም
በተመዘገበው
በተመድ
በተመጣጣኝ
በተማሪዎች
በተሞላ
በተሞላበት
በተሞላው
በተሞክሮ
በተሟላ
በተሠሩ
በተሠራ
በተሠራው
በተረት
በተረፈ
በተረፈም
በተረፉት
በተራ
በተራራ
በተራራማ
በተራራማው
በተራራው
በተራሮቹ
በተራሮች
በተራቸው
በተራው
በተራዘመ
በተርቃ
በተርታ
በተሰሎንቄ
በተሰራ
በተሰበረ
በተሰበሰቡ
በተሰበሰቡበት
በተሰኘ
በተሰኘችው
በተሰኘው
በተሰኙ
በተሰጠው
በተሰጣቸው
በተሳሳተ
በተሳሳቱ
በተሳካ
በተስፋ
በተሻለ
በተሻሻለ
በተሾሙ
በተቀላቀለ
በተቀመጠው
በተቀመጡ
በተቀረው
በተቀረጸው
በተቀረጹ
በተቀሰቀሰበት
በተቀበሉት
በተቀናጀ
በተቃራኒ
በተቃራኒው
በተቃዋሚ
በተቋሙ
በተቋቋመው
በተባለ
በተባለበት
በተባለች
በተባለችው
በተባለው
በተባሉ
በተባሉት
በተባበሩት
በተተኪዎቹ
በተተኮሰ
በተቻለ
በተነሱ
በተነሳ
በተነሳበት
በተነሳው
በተናቸው
በተናጠል
በተናጥል
በተንቀሳቃሽ
በተንኮል
በተአምር
በተከላካይነት
በተከሰተ
በተከሰተበት
በተከሰተው
በተከሰቱት
በተከበረው
በተከታታይ
በተከታዩ
በተካሄደ
በተካሄደበት
በተካሄደው
በተክለ
በተወለደ
በተወለደበት
በተወለደች
በተወለዱ
በተወለዱበት
በተወሰነ
በተወሰነው
በተወሰኑ
በተወሰደው
በተወካዮች
በተወዳጅ
በተዋህዶ
በተዋሕዶ
በተዋረድ
በተዋቀረ
በተዋናይነት
በተውጣጡ
በተዓምር
በተዘርጋ
በተዘዋዋሪ
በተዘጋጀ
በተዘጋጀው
በተዘጋጁ
በተዛመደ
በተዛመዱ
በተያዘ
በተያዘው
በተያዙ
በተያያዘ
በተያያዙ
በተደረገ
በተደረገበት
በተደረገው
በተደረጉ
በተደረጉት
በተደነገገው
በተደጋጋሚ
በተገለጸው
በተገረገ
በተገቢው
በተገነባው
በተገናኘ
በተገኘ
በተገኘበት
በተገኘው
በተገኙ
በተገኙበት
በተገኙት
በተገደሉ
በተጉለትና
በተግባረ
በተግባራዊ
በተግባር
በተግባርም
በተጎዱት
በተጓዳኝ
በተጠቀሰው
በተጠቀሱት
በተጠቃሚው
በተጠየቀው
በተጨማሪ
በተጨማሪም
በተጨባጩ
በተጨባጭ
በተጨናነቀ
በተጻራሪ
በተጻፈ
በተጻፈበት
በተጻፈው
በተፈለገ
በተፈለገው
በተፈሪ
በተፈጠረ
በተፈጠረው
በተፈጠሩት
በተፈጥሮ
በተፈጥሮው
በተፈጸመ
በተፈጸመው
በቱሪዝም
በቱርካና
በቱርክ
በቱርክኛ
በቱቦው
በቱዶር
በቲቤር
በቲዎሬቲካል
በቲያትር
በታህሳስ
በታህታይ
በታላላቅ
በታላቁ
በታላቅ
በታላቋ
በታማኝነት
በታሪኩ
በታሪካቸው
በታሪካችን
በታሪካዊ
በታሪካዊው
በታሪክ
በታሪክና
በታቀደው
በታቦር
በታቦቱ
በታተመ
በታተመው
በታች
በታችም
በታችኛ
በታችኛው
በታኅሣሥ
በታንክ
በታንኳ
በታንኳዪቱ
በታንዛኒያ
በታንጋኒካ
በታንግ
በታክሲ
በታክስ
በታወቀው
በታወጀበት
በታዋቂ
በታዋቂው
በታዕካ
በታይም
በታይዋን
በታይፕራይተር
በታዳጊ
በታጂኪስታን
በታጠረ
በቴሌቪዥን
በቴሌቭዥን
በቴሌግራም
በቴል
በቴምዝ
በቴአትር
በቴክሳስ
በቴክኖሎጂ
በቴወድሮስ
በቴዎድሮስ
በት
በትህትና
በትለር
በትላልቅ
በትልልቅ
በትልቁ
በትልቅ
በትልቅነት
በትሕትና
በትምህርተ
በትምህርቱ
በትምህርታቸው
በትምህርት
በትረ
በትራንስኒስትሪያ
በትራንስፖርት
በትራፋልጋር
በትሬንተን
በትር
በትርጉም
በትርፍ
በትሮይ
በትብብር
በትናንሹ
በትናንሽ
በትንሣኤ
በትንሳኤ
በትንሹ
በትንሹም
በትንሽ
በትንሿ
በትንቢተ
በትንፋሽ
በትእምርተ
በትእዛዝ
በትኩሱ
በትክክለኛ
በትክክለኛው
በትክክል
በትዊተር
በትውልድ
በትውፊት
በትውፊቶቹ
በትዕዛዝ
በትዕግስት
በትዳራቸው
በትዳር
በትጋት
በትግል
በትግራይ
በትግርኛ
በትጥቅ
በቶሎ
በቶማስ
በቶሪኖ
በቶቤል
በቶኪዮ
በቶክዮ
በቸነፈር
በቻለ
በቻርልስ
በቻንስለር
በቻኮ
በቻይና
በቻይናዊ
በቻይንኛ
በቻድ
በችሎት
በችርቻሮ
በችኮላ
በችግር
በኀይል
በኀጢአት
በኃላ
በኃላፊነት
በኃይሉ
በኃይል
በኅብረት
በኅዋ
በኅዳር
በኋለ
በኋለኛ
በኋለኛው
በኋለኞቹ
በኋላ
በኋላም
በኋላው
በኋል
በኋሥያ
በኋንዳን
በኋንግ
በነሀሴ
በነሐሴ
በነሐስ
በነርሱ
በነሱ
በነሲብ
በነቃ
በነበረ
በነበረበት
በነበረች
በነበረችበት
በነበረችው
በነበረዉ
በነበረው
በነበሩ
በነበሩበት
በነበሩት
በነበራት
በነበራቸው
በነቢዩ
በነቢያት
በነቢያችን
በነቢይ
በነብዩ
በነነዌ
በነኝህ
በነዚሁ
በነዚህ
በነዚህም
በነዚያ
በነዳጅ
በነገሠ
በነገሡ
በነገሥታት
በነገሩ
በነገራችን
በነገር
በነገሮች
በነጋታው
በነጠላ
በነጥብ
በነጩ
በነጭ
በነጻ
በነጻነት
በነፃ
በነፃነት
በነፋስ
በነፍሰ
በነፍሳት
በነፍስ
በኑሮ
በኑቢያ
በኑክሌር
በኒ
በኒሁ
በኒህ
በኒሎቲክ
በኒሺ
በኒካራጓ
በኒኮላስ
በኒው
በኒውተን
በኒውዮርክ
በኒዮሊቲክ
በኒጄር
በኒፑር
በናሙና
በናሚቢያ
በናምሩድ
በናራ
በናራም
በናሽናል
በናኒ
በናንተ
በናዚ
በናዚዎች
በናዝሬት
በናይል
በናይሮቢ
በናይጄሪያ
በናግራን
በናፖሊዮን
በኔ
በኔታንያሁ
በኔቶ
በኔዘርላንድ
በኔዘርላንድስ
በኔፓል
በኔፕቱን
በን
በንስሀ
በንቀት
በንቃት
በንቅያ
በንባብ
በንብረቱ
በንብረት
በንቦች
በንዑስ
በንዲህ
በንዴት
በንድፈ
በንድፍ
በንጉሠ
በንጉሡ
በንጉሣዊ
በንጉሣዊው
በንጉሥ
በንጉሥነት
በንጉሰ
በንጉሱ
በንጉሱና
በንጉስ
በንጋልኛ
በንግሥተ
በንግሥቲቱ
በንግሥት
በንግሥና
በንግስቲቷ
በንግስት
በንግዱ
በንግድ
በንግድና
በንግግሩ
በንግግራቸው
በንጥረ
በንጹህ
በንጹሕ
በንፁህ
በንፋስ
በኖህ
በኖረበት
በኖሩበት
በኖሩት
በኖራ
በኖርማንዲ
በኖርዌይ
በኖቢያ
በኖቬምበር
በኖኅ
በኗሪ
በኛ
በአ
በአሁኑ
በአሁን
በአሁኗ
በአህመድ
በአህያ
በአህጉሪቱ
በአህጉራዊ
በአለማችን
በአለም
በአለምአቀፍ
በአለቃ
በአለባበስ
በአለት
በአሉ
በአላህ
በአላህና
በአላላኽ
በአላስካ
በአሌክሳንደር
በአል
በአልብሬክት
በአልካላይ
በአልጄሪያ
በአልጋ
በአልፕስ
በአሕዛብ
በአመራር
በአመቱ
በአመት
በአመዛኙ
በአመጽ
በአማሌቃውያን
በአማልክት
በአማራ
በአማርና
በአማርኛ
በአማርኛም
በአማርኛና
በአማርኛው
በአማን
በአማኞች
በአማካኝ
በአማካይ
በአማፂያን
በአሜሪካ
በአሜሪካና
በአሜሪካን
በአሜሪካዊው
በአሜሪካው
በአሜሪካውያን
በአሜሪካዎች
በአምላካችን
በአምላክ
በአምስተኛው
በአምስቱ
በአምስት
በአምባ
በአምክንዮ
በአሞራውያን
በአሥረኛው
በአሥራ
በአሥራዎቹ
በአሥር
በአሦር
በአሦርና
በአረመኔ
በአረመኔዎች
በአረማይክ
በአረቢኛ
በአረቢያ
በአረብ
በአረብኛ
በአረቦች
በአረንጓዴ
በአረፍተ
በአሪዞና
በአራማያ
በአራማይስጥ
በአራም
በአራራት
በአራስ
በአራተኛ
በአራተኛው
በአራቱ
በአራታ
በአራት
በአራዳ
በአር
በአርሜኒያ
በአርሲ
በአርበኝነት
በአርበኞች
በአርባ
በአርብቶ
በአርቲስት
በአርኖልድ
በአርኪኦሎጂያዊ
በአርክቲክ
በአርያም
በአርጀንቲና
በአርጎስ
በአርጎብኛ
በአርፋክስድ
በአሮጌው
በአሰላ
በአሲኒቦያ
በአሳ
በአሳድ
በአስመራ
በአስራ
በአስር
በአስተማሪነት
በአስተያየቱ
በአስተዳደሩ
በአስተዳደር
በአስቸኳይ
በአስቸጋሪ
በአስዋን
በአስደናቂ
በአሸባሪነት
በአሸባሪዎች
በአሸናፊነት
በአሸዋ
በአሹር
በአቅራቢያው
በአቅርቦት
በአበሳሰል
በአበሻ
በአበበ
በአቡነ
በአቡጊዳ
በአቢሲኒያ
በአቢዶስ
በአባ
በአባል
በአባልነት
በአባቱ
በአባታቸው
በአባቴ
በአባት
በአባትዋ
በአባይ
በአቤ
በአብ
በአብላጫ
በአብርሃማዊ
በአብርሃም
በአብሮነት
በአብዛሀኛው
በአብዛሃኛው
በአብዛኛው
በአብዛኛዎቹ
በአብዛኞቹ
በአብያተ
በአብዮቱ
በአብዮታዊ
በአብዮት
በአቲካ
በአቴና
በአትላንቲክ
በአትላንታ
በአትክልቱ
በአትክልት
በአቶ
በአኅጉሩ
በአነስተኛ
በአነጋገር
በአኑራደፑረ
በአናቶሊያ
በአንስተኛ
በአንሻን
በአንበሶች
በአንተ
በአንታርክቲካ
በአንካራ
በአንኮበር
በአንደኛ
በአንደኛው
በአንዱ
በአንዱም
በአንዲት
በአንዳንድ
በአንዳንዶች
በአንድ
በአንድሪው
በአንድነት
በአንገቱ
በአንገታቸው
በአንግሎ
በአንጻሩ
በአንጻራዊ
በአንጻራዊነት
በአንፃሩ
በአንፃራዊ
በአንፃራዊነት
በአኤሮፕላን
በአእምሮ
በአከባቢ
በአከባቢው
በአካሉ
በአካላዊ
በአካል
በአካባቢ
በአካባቢዉ
በአካባቢው
በአካባቢያቸው
በአካባቢያችን
በአካባቢያዊ
በአካዳሚክ
በአካድ
በአካድኛ
በአክሬ
በአክሱም
በአክሲስ
በአክሻክ
በአክብሮት
በአወቃቀር
በአወዛጋቢነት
በአዊ
በአዋሽ
በአዋን
በአዋጅ
በአውሎ
በአውራጃው
በአውርስያ
በአውሮጳ
በአውሮጳውያን
በአውሮፓ
በአውሮፓና
በአውሮፓውያን
በአውሮፕላን
በአውስትሪያ
በአውስትራሊያ
በአውስትራልያ
በአውግስጦስ
በአዕምሮ
በአዚህ
በአዞቭ
በአየለ
በአየር
በአየርላንድ
በአያቱ
በአይሁድ
በአይሁድና
በአይሁዶች
በአይሪሽ
በአይርላንድ
በአይስላንድ
በአይነ
በአይን
በአደራ
በአደባባይ
በአደን
በአደገኛ
በአደጋ
በአደጋው
በአዲሱ
በአዲስ
በአዲሶቹ
በአዳል
በአዳማ
በአዳም
በአዳዲስ
በአድማስ
በአድዋ
በአዶልፍ
በአገልግሎት
በአገሩ
በአገሪቱ
በአገሪቷ
በአገራቸው
በአገራችን
በአገሬው
በአገር
በአገሮቹ
በአገሮች
በአገው
በአጉሊ
በአጊንኮርት
በአጋሮ
በአጋንንት
በአጋጣሚ
በአግሮ
በአግባቡ
በአግባብና
በአግድም
በአጎራባች
በአጠቃላይ
በአጠገቡ
በአጥጋቢ
በአጭሩ
በአጭር
በአጼ
በአፄ
በአፈ
በአፈር
በአፈታሪክ
በአፉ
በአፋር
በአፍ
በአፍሪቃ
በአፍሪቃውያን
በአፍሪካ
በአፍሪካነር
በአፍሪካና
በአፍሪካዊ
በአፍሮ
በአፍንጫው
በአፍጋኒስታን
በአፕል
በአፖሎ
በኡማ
በኡሩክ
በኡራጓይ
በኡር
በኡጋሪት
በኡጋንዳ
በኢ
በኢህአዴግ
በኢራቅ
በኢራን
በኢሲን
በኢሳይያስ
በኢስሊንግተን
በኢስላማዊ
በኢስላም
በኢስታንቡል
በኢቢኤስ
በኢቤሪያ
በኢብራሂም
በኢቦላ
በኢቫን
በኢትዬጵያ
በኢትዮ
በኢትዮዽያ
በኢትዮጲያ
በኢትዮጵያ
በኢትዮጵያም
በኢትዮጵያና
በኢትዮጵያን
በኢትዮጵያዊያን
በኢትዮጵያውያን
በኢትዮጵያየሚነገር
በኢንተርኔት
በኢንደስትሪ
በኢንዱስትሪ
በኢንዱስትሪው
በኢንዶኔዥያ
በኢንግላንድ
በኢኮኖሚ
በኢኮኖሚክስ
በኢኮኖሚው
በኢኮኖሚያዊ
በኢየሩሳሌም
በኢየሩሳሌምም
በኢየሱስ
በኢያሱ
በኢጣሊያ
በኢጣልያ
በኣሁኑ
በኣለማወቅ
በኣለው
በኣለፉት
በኣሉ
በኣሉት
በኣማርኛ
በኣሥራ
በኣራት
በኣነሰ
በኣነሱ
በኣንዳንድ
በኣንድ
በኣንድና
በኣደረጉት
በኣዲስ
በኤ
በኤላም
በኤሌክትሪክ
በኤልዛቤት
በኤልያስ
በኤምኔም
በኤሪ
በኤሪዱ
በኤርምያስ
በኤርትራ
በኤርትራም
በኤርትራና
በኤሽኑና
በኤብላ
በኤትሩስክኛ
በኤችአይቪ
በኤን
በኤካላቱም
በኤድስ
በኤድዋርድ
በኤዶ
በኤጲስቆፖሳዊ
በኤፌሶን
በኤፍራጥስ
በኤፕሪል
በእ
በእህል
በእለተ
በእለቱ
በእለቱም
በእለት
በእልቂት
በእምነቱ
በእምነታቸው
በእምነት
በእሥራት
በእራሱ
በእርሱ
በእርሳስ
በእርሳቸው
በእርስ
በእርሻ
በእርሻና
በእርቅ
በእርጅና
በእርጋታ
በእርግዝና
በእርግጠኝነት
በእርግጡ
በእርግጥ
በእርግጥም
በእርጥብ
በእሱ
በእሳተ
በእሳት
በእሳትም
በእሳትና
በእስላማዊው
በእስላም
በእስልምና
በእስራት
በእስራኤላውያን
በእስራኤል
በእስራኤልና
በእስር
በእስኩቴስ
በእስክንድርያ
በእስክንድርያው
በእስያ
በእስያና
በእስፓንኛ
በእስፓንያ
በእስፓንያና
በእስፓንያውያን
በእስፓኝ
በእሷ
በእሾህ
በእቅዱ
በእብራይስጥ
በእቴጌ
በእነ
በእነርሱ
በእነርሱም
በእነሱ
በእነኝህ
በእነዚህ
በእነዚያ
በእናቱ
በእናታቸው
በእናት
በእናቷ
በእናንተ
በእናንተስ
በእኔ
በእኔም
በእንስሳ
በእንስሳት
በእንስቷ
በእንቁላል
በእንቅርት
በእንቅስቃሴ
በእንቅስቃሴው
በእንቅፋት
በእንቆቅልሽ
በእንደራሴነት
በእንደዚህ
በእንዲህ
በእንዶኔዝያ
በእንዶድ
በእንጀራ
በእንግሊዘኛ
በእንግሊዘኛው
በእንግሊዙ
በእንግሊዝ
በእንግሊዝና
በእንግሊዝኛ
በእንግሊዝኛም
በእንግሊዝኛው
በእንግሊዞች
በእንግላንድ
በእንግድነት
በእንጦጦ
በእንጨት
በእንፋሎት
በእኛ
በእኩል
በእኩልነት
በእውር
በእውቀቱ
በእውቀት
በእውነተኛ
በእውነቱ
በእውነት
በእውኑ
በእዚሁ
በእዚህ
በእዚህም
በእየሩሳሌም
በእየሱስ
በእያንዳንዱ
በእያንዳንዷ
በእደ
በእድሜ
በእድሜያቸው
በእጁ
በእጃቸው
በእጄ
በእጅ
በእጅህ
በእጅጉ
በእግረኛ
በእግሩ
በእግራቸው
በእግር
በእግዚአብሔር
በእግዚአብሔርም
በእግዚአብሔርና
በእጥፍ
በእጩነት
በእጽዋት
በእፃዊ
በኦሎምፒክ
በኦምዱርማን
በኦሞ
በኦሪት
በኦርቶዶክስ
በኦርጋኒክ
በኦሮሚያ
በኦሮምኛ
በኦሮሞ
በኦስትሪያ
በኦሺያኒያ
በኦቨን
በኦቶማን
በኦንላይን
በኦክስፎርድ
በኦክቶበር
በኦድዮ
በኦገስት
በኦጋዴን
በኦፊሴል
በከረጢት
በከራ
በከበሮ
በከባቢ
በከባድ
በከብቱ
በከብት
በከተማ
በከተማችን
በከተማዋ
በከተማው
በከተማይቱ
በከተሞች
በከነዓናውያን
በከነዓን
በከንቱ
በከንፈሬ
በከንፈር
በከፊሉ
በከፊል
በከፊልም
በከፋ
በከፍተኛ
በከፍተኛው
በከፍታ
በከፍታው
በኩሊኮቮ
በኩላሊት
በኩል
በኩልም
በኩራት
በኩር
በኩርዲስታን
በኩሻራ
በኩሽ
በኩሽቲክ
በኩበት
በኩባ
በኩቤክ
በኩዮ
በኩፋሌ
በኪልቅያና
በኪሽ
በኪነ
በኪነጥበብ
በኪንግስተን
በኪየቫን
በኪየቭ
በኪዬቭ
በካ
በካህኑ
በካህናት
በካሊፎርኒያ
በካልኩለስ
በካሜሩን
በካምብሪጅ
በካምፕ
በካሪስ
በካሪቢያን
በካራን
በካራንዱኒያሽ
በካሬ
በካር
በካርል
በካርቱም
በካርቱሽ
በካርታ
በካርናክ
በካርዱንያሽ
በካርዲናል
በካሳ
በካሳውያን
በካሴት
በካስፒያን
በካቢኔ
በካቶሊክ
በካቶሊክና
በካነሽ
በካናሪ
በካናዳ
በካውንቲ
በካውካሰስ
በካውካሶስ
በካይሮ
በካፋ
በካፒታሊዝም
በካፒቴን
በኬልቲካ
በኬልቶች
በኬሚስትሪ
በኬሚካል
በኬበክ
በኬብል
በኬብሮን
በኬኒያ
በኬኔሴት
በኬንሲንግተን
በኬንታኪ
በኬንያ
በኬንያም
በኬክሮስ
በኬጢያውያን
በኬጥኛ
በኬጥያውያን
በኬፕ
በክ
በክለቡ
በክላረንስ
በክላሲካል
በክላውድ
በክልሉ
በክልል
በክልሎች
በክረምቱ
በክረምት
በክራር
በክራይሚያ
በክሬዲት
በክርስቲያናዊ
በክርስቲያን
በክርስቲያኖች
በክርስትና
በክርስቶስ
በክርክር
በክስ
በክቡ
በክቡር
በክብ
በክብረ
በክብሩ
በክብር
በክብርና
በክብደት
በክትባት
በክፉ
በክፋት
በክፍለ
በክፍል
በክፍሎች
በክፍያ
በኮሌጅ
በኮሎምቢያ
በኮሎራዶ
በኮሎኔል
በኮመን
በኮመንዌልዝ
በኮሚኒስት
በኮምፒውተር
በኮምፒውተርዎ
በኮምፒዩተር
በኮምፕዩተር
በኮምፕዩተርና
በኮምፕዩተሮችና
በኮሞዲቲ
በኮሪያ
በኮሪይኛ
በኮርያ
በኮሮና
በኮሮናቫይረስ
በኮቪድ
በኮነነኝ
በኮንሰርቫቲቭ
በኮንሶ
በኮንትራት
በኮንግረስ
በኮንግሬስ
በኮንጎ
በኰሙኒስት
በኲሩ
በኲር
በኾነ
በኾነው
በዃላ
በዃላም
በዃላዬ
በወህኒ
በወለጋ
በወሊድ
በወላስማ
በወላይታ
በወልቃይት
በወልድ
በወሎ
በወረረ
በወረረበት
በወረረችበት
በወረሩበት
በወረራ
በወረርሽኙ
በወረቀት
በወረደ
በወረደበት
በወረዱ
በወረዳ
በወረዳዋ
በወረዳው
በወሩ
በወሬ
በወር
በወርሃ
በወርልድ
በወርቁ
በወርቅ
በወርቅና
በወሰን
በወሰደው
በወሰዳቸው
በወሲባዊ
በወሲብ
በወቅቱ
በወተት
በወታደራዊ
በወታደርነት
በወታደሮች
በወንዙ
በወንዙዋ
በወንዝ
በወንዱ
በወንድ
በወንድሙ
በወንድማማችነት
በወንድማማቾች
በወንድሟ
በወንዶች
በወንጀል
በወንጌላት
በወንጌላዊው
በወንጌላውያን
በወንጌል
በወንጌልም
በወንጭፍ
በወንፊት
በወይን
በወይዘሮ
በወደቀበት
በወደቡ
በወደብ
በወገራ
በወገኖቻቸው
በወጉ
በወግ
በወጡ
በወጣ
በወጣበት
በወጣቱ
በወጣትነቱ
በወጣትነታቸው
በወጣትነት
በወጣው
በወጥ
በወፍ
በዉስጡ
በዊንሶር
በዊንዘር
በዊኪ
በዋልታ
በዋርሳው
በዋሺንግተን
በዋሺንግቶን
በዋሻ
በዋሻው
በዋሽንግተን
በዋነኛነት
በዋነኝነት
በዋና
በዋናነት
በዋናነትም
በዋናው
በዋጋ
በዋግሹም
በዌሊንግተን
በዌልስ
በዌስት
በዌስትሚኒስተር
በውሀ
በውሃ
በውሃው
በውሉ
በውል
በውሥጡ
በውርስ
በውሳኔ
በውሳኔው
በውስጠ
በውስጠኛው
በውስጡ
በውስጡም
በውስጣቸው
በውስጣቸውም
በውስጣዊ
በውስጥ
በውስጧ
በውሸት
በውሻ
በውቅያኖስ
በውቅያኖሶች
በውትድርና
በውኃ
በውነት
በውኑ
በውክልና
በውክሽኔሪ
በውክፔዲያ
በውይይት
በውድማ
በውድድሩ
በውድድር
በውጊያ
በውግያ
በውግያው
በውጤቱም
በውጤታማነት
በውጪ
በውጭ
በዐል
በዐልጋ
በዐሥራ
በዐረብኛ
በዐዋጅ
በዐዲስ
በዐፄ
በዑር
በዑባ
በዑደቱ
በዓለ
በዓለሙ
በዓለማዊው
በዓለም
በዓሉ
በዓሉን
በዓላት
በዓላትን
በዓላቸው
በዓል
በዓልን
በዓመቱ
በዓመታት
በዓመታዊ
በዓመት
በዓመጽ
በዓማርኛ
በዓማርኛና
በዓማርኛው
በዓሣ
በዓረብኛ
በዓባይ
በዓታ
በዓየር
በዓይነቱ
በዓይነት
በዓይኑ
በዓይናቸው
በዓይን
በዓጼ
በዓፄ
በዕለተ
በዕለቱ
በዕለቱም
በዕለት
በዕርሻ
በዕብራውያን
በዕብራይስጡ
በዕብራይስጥ
በዕብራይስጥም
በዕብራይስጥና
በዕውቀት
በዕውነት
በዕውኑ
በዕዝራ
በዕደ
በዕድሜ
በዕድገት
በዕጣኑ
በዘለቀው
በዘላቂ
በዘላቂነት
በዘልማድ
በዘመቻ
በዘመቻው
በዘመነ
በዘመነሉቃስ
በዘመኑ
በዘመኑም
በዘመናት
በዘመናቸው
በዘመናችን
በዘመናዊ
በዘመናዊቷ
በዘመናዊነት
በዘመናዊው
በዘመኗ
በዘረ
በዘረኝነት
በዘር
በዘርፉ
በዘበዘ
በዘውዱ
በዘውድ
በዘይት
በዘዳ
በዘዴ
በዘጌ
በዘጠነኛው
በዘጠና
በዘጠኝ
በዘፈቀደ
በዘፈን
በዘፈኖቹ
በዘፍ
በዘፍጥረት
በዙ
በዙሪያቸው
በዙሪያችን
በዙሪያዋ
በዙሪያው
በዙሪያውም
በዙሪያዬ
በዙፋኑ
በዙፋኑም
በዙፋን
በዚ
በዚሁ
በዚሁም
በዚህ
በዚህም
በዚህች
በዚህና
በዚህን
በዚህኛው
በዚም
በዚምባብዌ
በዚች
በዚችም
በዚያ
በዚያም
በዚያች
በዚያችም
በዚያኑ
በዚያን
በዚያው
በዚያውም
በዛ
በዛም
በዛምቢያ
በዛሬ
በዛሬዋ
በዛሬው
በዛሬይቷ
በዛር
በዛብህ
በዛብህን
በዛን
በዛንዚባር
በዛው
በዛውም
በዛግሮስ
በዛፍ
በዛፎች
በዜማ
በዜሮ
በዜና
በዜግነት
በዜጎች
በዝ
በዝህ
በዝሆን
በዝማሬ
በዝምታ
በዝምድና
በዝርዝሩ
በዝርዝር
በዝቃጭ
በዝቅ
በዝቅተኛ
በዝተው
በዝናብ
በዝግመተ
በዝግታ
በዝግጅቱ
በዝግጅት
በዞራስተር
በዞኑ
በዠኔቭ
በዥዎሉ
በዦሮ
በየ
በየሁለት
በየሕዝቡም
በየመን
በየመንደሩ
በየመንገዱ
በየምንጩ
በየራሳቸው
በየሳምንቱ
በየስፍራው
በየቀኑ
በየቤቱ
በየብስ
በየቦታው
በየተራ
በየተራው
በየተባበሩት
በየት
በየትም
በየትኛው
በየትኛውም
በየነ
በየንጥረ
በየአመቱ
በየአራት
በየአይነቱ
በየአገሩ
በየአገሮቻቸው
በየኢትዮጵያ
በየከተማው
በየካቲት
በየወሩ
በየወቅቱ
በየወንዙ
በየወገኑ
በየዓመቱ
በየዕለቱ
በየዘመኑ
በየዘመናቱ
በየጁ
በየጊዜ
በየጊዜው
በየጎኑ
በየጥቂቱ
በየፈርጁ
በዩ
በዩቱብ
በዩኒቨርሲቲ
በዩኒቨርሲቲው
በዩኒኮድ
በዩኒየን
በዩናይትድ
በዩኔስኮ
በዩኤስ
በዩኬ
በዩክራይን
በዩክሬን
በያለንበት
በያመቱ
በያምኻድ
በያን
በያንዲ
በያንዳንዱ
በያንዳንዷ
በያዕቆብ
በያዘ
በያዘበት
በያዘው
በያዙት
በያይነቱ
በያገሩ
በይ
በይሁዳ
በይር
በይበልጥ
በይነ
በይነመረብ
በይዘቱ
በይዘት
በይፋ
በይፋት
በይፋዊ
በዮሐንስ
በዮም
በዮርክታውን
በዮርዳኖስ
በዮሴፉስ
በዮሴፍ
በዮናስ
በደ
በደሃራይ
በደህና
በደህንነት
በደሉ
በደሌ
በደል
በደመ
በደመነፍስ
በደመና
በደሙ
በደማስቆ
በደማቅ
በደም
በደምብ
በደረሰ
በደረሰበት
በደረሰባት
በደረሰው
በደረሱ
በደረሱበት
በደረቅ
በደረት
በደረጃ
በደራሲ
በደራሲነት
በደርዘን
በደርግ
በደሴ
በደሴቱ
በደሴቲቱ
በደሴቶቹ
በደስታ
በደቂቃ
በደቃቁ
በደቡቡ
በደቡባዊ
በደቡባዊው
በደቡብ
በደቡብም
በደቡብና
በደብረ
በደብረታቦር
በደብረታቦርና
በደብተራ
በደኅና
በደን
በደንቀዝ
በደንብ
በደንደስ
በደጃዝማች
በደጄ
በደጅ
በደጋ
በደጋፊ
በደፈናው
በደፈጣ
በዱላ
በዱር
በዱቄት
በዱባይ
በዲ
በዲሞክራሲ
በዲሞክራሲያዊ
በዲሴምበር
በዲስትሪክቱ
በዲስትሪክት
በዲባቶ
በዲናንት
በዲዝኒ
በዲያስፖራ
በዲዮዶሮስ
በዲጂታል
በዲግሪ
በዲፕሎማ
በዲፕሎማሲ
በዳ
በዳላስ
በዳሞት
በዳቦ
በዳቮስ
በዳንኤል
በዳኛ
በዳዊት
በዳይሬክተርነት
በዳገት
በዳግማዊ
በዴ
በዴላዌር
በዴሞክራሲ
በዴሳ
በዴንማርክ
በድ
በድህረ
በድህነት
በድሆች
በድል
በድሎ
በድመት
በድምሩ
በድምቀት
በድምጽ
በድምፃዊነት
በድምፅ
በድረ
በድረስደን
በድሩ
በድሬዝደን
በድሬዳዋ
በድርሰት
በድርቅ
በድርድር
በድርጅቱ
በድርጅቶች
በድርጊቱ
በድሮ
በድሮው
በድስት
በድብ
በድብቅ
በድን
በድንቅ
በድንበር
በድንኳን
በድንገተኛ
በድንገት
በድንጋዩ
በድንጋይ
በድንጋይና
በድንጋዮቹ
በድንጋጤ
በድንግልና
በድጅ
በድጋሚ
በድጋሜ
በድፍረት
በዶ
በዶሮ
በዶቦን
በዶኔትስክ
በዶንባስ
በዶክተሩ
በዶክተር
በጀልባ
በጀመረበት
በጀመሩበት
በጀርመናዊ
በጀርመናዊው
በጀርመናውያን
በጀርመን
በጀርመንና
በጀርመንኛ
በጀርመኖች
በጀት
በጀነት
በጀግንነት
በጁላይ
በጁን
በጂ
በጂኦግራፊ
በጂኦግራፊያዊ
በጃማይካ
በጃቫ
በጃቸው
በጃኑዋሪ
በጃን
በጃንዋሪ
በጃፓን
በጃፓንኛ
በጄ
በጄምስ
በጄነራል
በጄኔራል
በጄኔቫ
በጅ
በጅማ
በጅምላ
በጅሮንድ
በጅቡቲ
በጆሃነስበርግ
በጆሃንስበርግ
በጆርጅ
በጆርጅታውን
በጆሮ
በጆሴፍ
በጆን
በጆንሰን
በገሃድ
በገለዓድ
በገሊላ
በገሌ
በገሐድ
በገመዱ
በገመድ
በገበሬዎች
በገበታ
በገበያ
በገበያም
በገቢ
በገቢር
በገባ
በገባበት
በገባችበት
በገባው
በገነት
በገና
በገንዘቡ
በገንዘብ
በገዛ
በገዛው
በገዢው
በገደል
በገዳ
በገዳሙ
በገጠመው
በገጠሪቱ
በገጠር
በገጹ
በገጽ
በገፍ
በጉልበቱ
በጉልበት
በጉም
በጉራጌ
በጉባኤ
በጉባኤው
በጉባዔው
በጉብኝቱ
በጉቲዩም
በጉታውያን
በጉዞ
በጉዞው
በጉዲፈቻ
በጉዳዩ
በጉዳይ
በጉድጓድ
በጉጉት
በጉግል
በጊልጋመሽ
በጊዛ
በጊዜ
በጊዜው
በጊዜውም
በጊዜያቸው
በጊዜያዊ
በጊዜያዊነት
በጊፋታ
በጋ
በጋሊያ
በጋሊፖሊ
በጋልባ
በጋማል
በጋምቤላ
በጋሞ
በጋሞጎፋ
በጋራ
በጋርዮሽ
በጋሻው
በጋብቻ
በጋና
በጋን
በጋው
በጋዛ
በጋዜጠኝነት
በጋዜጠኞች
በጋዜጣ
በጋዜጣው
በጋዜጦች
በጌ
በጌምድር
በጌሤም
በጌራራ
በጌባል
በጌታ
በጌታችን
በጌኤዝ
በጌዴኦ
በግ
በግለሰባዊ
በግለሰብ
በግለሰቦች
በግሉ
በግላቸው
በግላዊ
በግል
በግልጥ
በግልጽ
በግልጽም
በግልጽና
በግልፅ
በግማሽ
በግምት
በግምጃ
በግሪል
በግሪንዊች
በግሪኩ
በግሪክ
በግሪክም
በግሪክና
በግሪክኛ
በግሪኮ
በግሪኮች
በግራ
በግራኝ
በግራው
በግሬት
በግርማ
በግርማዊ
በግርማዊት
በግርግም
በግስበት
በግሸን
በግቢው
በግብ
በግብረ
በግብር
በግብርና
በግብጻዊው
በግብጻውያን
በግብጽ
በግብጽም
በግብጽና
በግብጽኛ
በግብጾች
በግብፃውያን
በግብፅ
በግና
በግንቡ
በግንባሩ
በግንባራቸውም
በግንባር
በግንባታ
በግንባታው
በግንብ
በግንቦት
በግእዝ
በግዕዙ
በግዕዝ
በግዕዝና
በግዕዝኤዲት
በግዛቱ
በግዛታቸው
በግዛት
በግዛቶቹ
በግዝፈቱ
በግዞት
በግዳጅ
በግዴታ
በግድ
በግድያ
በግድግዳው
በግድግዳዎች
በግጥም
በግጭቱ
በግጭት
በግፍ
በጎ
በጎመን
በጎረቤት
በጎራዴ
በጎርባቾቭ
በጎርጎርያን
በጎርጎርዮስ
በጎርፍ
በጎሳ
በጎበኙበት
በጎተራ
በጎታማ
በጎቹም
በጎች
በጎነት
በጎን
በጎንደር
በጎንደርና
በጎዳና
በጎድጓዳ
በጎጃም
በጎጆሰን
በጓሮ
በጓደኛው
በጓደኞቹ
በጓደኞች
በጕድጓድ
በጠላት
በጠላትነት
በጠመንጃ
በጠማማ
በጠራ
በጠቅላላ
በጠቅላላው
በጠቅላይ
በጠበቀ
በጠባብ
በጠቤስ
በጠብ
በጠንካራ
በጠዋት
በጠጅ
በጠጠር
በጠጣር
በጠፈር
በጠፍጣፋ
በጡረታ
በጡብ
በጢሕ
በጢስ
በጣሊያን
በጣሊያኖች
በጣልኛ
በጣልያ
በጣልያናዊ
በጣልያን
በጣም
በጣምም
በጣት
በጣና
በጤቤስ
በጤና
በጤናው
በጤግሮስ
በጤፍ
በጥሊሞስ
በጥልቀት
በጥልቁ
በጥልቅ
በጥምረት
በጥምቀት
በጥሞና
በጥሩ
በጥራት
በጥሬ
በጥር
በጥርሷ
በጥርጣሬ
በጥቁር
በጥቂቱ
በጥቂት
በጥቃቅን
በጥቃቱ
በጥቅሉ
በጥቅል
በጥቅም
በጥቅምት
በጥበቡ
በጥበብ
በጥባጭ
በጥብቅ
በጥናቱ
በጥናት
በጥንቃቄ
በጥንቆላ
በጥንተ
በጥንቱ
በጥንታዊ
በጥንታዊት
በጥንታዊው
በጥንት
በጥንትም
በጥንቶቹ
በጥንቷ
በጥንካሬ
በጥንካሬየ
በጥንዶች
በጥያቄ
በጥይት
በጥግ
በጥፊ
በጥፋት
በጦር
በጦርነቱ
በጦርነት
በጨለማ
በጨረር
በጨረቃ
በጨርቅ
በጨቅላ
በጨበጣ
በጨዋታ
በጨው
በጩቤ
በጫንቃየ
በጫካ
በጫጩት
በጫፉ
በጫፍ
በጭለማ
በጭራሽ
በጭቃ
በጭነቱ
በጭነት
በጭንቀት
በጭንቅ
በጭንቅላቱ
በጭካኔ
በጭፈራ
በጳርቴ
በጳውሎስ
በጳጳሱ
በጸሎተ
በጸሎቱ
በጸሎት
በጸሎትና
በጸብ
በጸና
በጸጋ
በጸጥታ
በጻፈው
በጻፉት
በጽሁፍ
በጽህፈት
በጽላቱ
በጽላት
በጽሑፉ
በጽሑፍ
በጽሑፎቹ
በጽሕፈት
በጽሞና
በጽርዕ
በጽኑ
በጽናት
በጽዮን
በጽድቅ
በጾም
በጾምና
በጾታ
በፀሐይ
በፀሓይ
በፀረ
በፀደይ
በፀጥታ
በፃፈው
በፆም
በፈለጉት
በፈለግነው
በፈረሱ
በፈረስ
በፈረንሣይ
በፈረንሳዊው
በፈረንሳዩ
በፈረንሳይ
በፈረንሳይና
በፈረንሳይኛ
በፈረንሳዮች
በፈርት
በፈርዖኑ
በፈርዖን
በፈሳሽ
በፈቃደኝነት
በፈቃዱ
በፈቃዳቸው
በፈቃድ
በፈተና
በፈነዳው
በፈንታቸው
በፈንታው
በፈንታውም
በፈንጂ
በፈንጣጣ
በፈጀው
በፈጠረው
በፈጠሩት
በፈጠራ
በፈጣሪ
በፈጣን
በፈጸሙት
በፉልሃም
በፉንጅ
በፊሊፒንስ
በፊሊፕ
በፊላደልፊያ
በፊልሙ
በፊልም
በፊልፒንስ
በፊርማ
በፊተኛው
በፊቱ
በፊቱም
በፊታቸው
በፊታችን
በፊታውራሪ
በፊቴ
በፊት
በፊትህ
በፊትም
በፊትና
በፊትኽ
በፊንላንድ
በፊንቄ
በፊውዳል
በፊዚክስ
በፊደሉ
በፊደል
በፊደልነት
በፊፋ
በፋ
በፋራን
በፋርሳውያን
በፋርስ
በፋርስኛ
በፋሲል
በፋሲልደስ
በፋሲካ
በፋሺስት
በፋብሪካ
በፋብሪካዎች
በፋና
በፋየር
በፋይል
በፋይናንስ
በፋይናንሺያል
በፌስቡክ
በፌብሩዋሪ
በፌደራል
በፌዴራል
በፌዴሬሽን
በፍለጋ
በፍላጎት
በፍልስጤማውያን
በፍልስጤም
በፍልስጥኤማውያን
በፍልስጥኤም
በፍልስፍና
በፍልስፍናው
በፍሎሪዳ
በፍራንሲስ
በፍራንክ
በፍራፍሬ
በፍርሀት
በፍርሃት
በፍርስራሽ
በፍርድ
በፍቅሩ
በፍቅር
በፍታ
በፍትሃዊነት
በፍትህ
በፍትሐ
በፍቼ
በፍንዳታ
በፍጥነት
በፍጥነትና
በፍጹም
በፍጹምም
በፍጹምነት
በፍጻሜ
በፍፁም
በፎሞራውያን
በፎርት
በፐርል
በፑቲን
በፑንጃብ
በፒ
በፒራሚዱ
በፒራሚድ
በፒተር
በፓሪስ
በፓርላማ
በፓርላማው
በፓርቲው
በፓሲፊክ
በፓስፊክ
በፓተንት
በፓኪስታን
በፓፓ
በፔሩ
በፔታይን
በፔትሮሊየም
በፔንታጎን
በፕላቶ
በፕሪሚየር
በፕሪቶሪያ
በፕራይቪ
በፕሬስ
በፕሬዚደንት
በፕሬዚደንትነት
በፕሬዚዳንቱ
በፕሬዚዳንታዊ
በፕሬዚዳንት
በፕሬዚዳንትነት
በፕሬዝዳንቱ
በፕሬዝዳንት
በፕሬዝዳንትነት
በፕሮቲን
በፕሮቴስታንት
በፕሮጀክቱ
በፕሮግራሙ
በፕሮፌሰር
በፖለቲካ
በፖለቲካና
በፖለቲካዊ
በፖለቲካው
በፖሊስ
በፖላንድ
በፖሎኝ
በፖርቱጋል
በፖርቱጋልኛ
በፖርት
በፖርትላንድ
በፖርቶ
በፖስታ
በፖቶማክ
ቡ
ቡሀ
ቡሃላ
ቡሃሪ
ቡሄ
ቡሊ
ቡላ
ቡሌ
ቡልሳራ
ቡልኮ
ቡልጋ
ቡልጋሪያ
ቡልጋርኛ
ቡረት
ቡሩ
ቡሩንዲ
ቡራቡሬ
ቡራኬ
ቡሬ
ቡር
ቡርና
ቡርኪና
ቡርያሽ
ቡርጂ
ቡርጂኛ
ቡርጅ
ቡርጊባ
ቡርጎኝ
ቡርጎይን
ቡሲሪስ
ቡሲሪስን
ቡሳኛ
ቡሽ
ቡሽራ
ቡሽቲ
ቡቃያ
ቡቃያው
ቡታ
ቡታን
ቡታጅራ
ቡትሮስ
ቡቶ
ቡችላ
ቡኒ
ቡና
ቡናማ
ቡናሮቲ
ቡናና
ቡናን
ቡኪንግሃም
ቡካነን
ቡክ
ቡክስ
ቡኮው
ቡኻሪ
ቡኻሪና
ቡዝ
ቡዲስም
ቡዲስምና
ቡዲስምን
ቡዲስት
ቡዲስቶች
ቡዲዝም
ቡዳ
ቡዳፔስት
ቡድሂዝም
ቡድኑ
ቡድኑን
ቡድን
ቡድንና
ቡድንን
ቡድንንና
ቡድኖቹ
ቡድኖች
ቡድኖችን
ቡጁምቡራ
ቡጢ
ቢ
ቢሄድ
ቢሄድም
ቢሆኑ
ቢሆኑም
ቢሆን
ቢሆንም
ቢሆንና
ቢለምነው
ቢለን
ቢለንም
ቢለኝ
ቢለው
ቢለግስ
ቢሉ
ቢሉም
ቢሉት
ቢሊሩቢን
ቢሊየነር
ቢሊየነሮች
ቢሊየን
ቢሊዮን
ቢላል
ቢላት
ቢላቸው
ቢላዋ
ቢሌን
ቢል
ቢልም
ቢልዮን
ቢሎንግ
ቢሏት
ቢሏቸው
ቢመራው
ቢመስሉም
ቢመስልም
ቢመታ
ቢመዝን
ቢመጡ
ቢመጡም
ቢመጣ
ቢመጣም
ቢሞቱ
ቢሞት
ቢሞክሩም
ቢሞክር
ቢሞክርም
ቢሠራ
ቢሠርቅ
ቢረሳ
ቢረዝም
ቢረዳዳ
ቢራ
ቢራቢሮ
ቢራቱ
ቢሮ
ቢሮክራት
ቢሮውን
ቢሮዎች
ቢሮዎችን
ቢሮጥ
ቢሰረቅ
ቢሰሩ
ቢሰርቀው
ቢሰርቅ
ቢሰበሰብ
ቢሰብር
ቢሰጠን
ቢሰጠውም
ቢሰጡ
ቢሰጡም
ቢሰጡት
ቢሰጡን
ቢሰጥ
ቢሰጥም
ቢሳሳት
ቢሳው
ቢስ
ቢስነት
ቢሶ
ቢሸከም
ቢሸፍት
ቢሻሜል
ቢሻን
ቢሾፍቱ
ቢቀር
ቢቀርብ
ቢቀይር
ቢቀጥሉም
ቢቂላ
ቢቆም
ቢቆዩም
ቢቆይም
ቢቆጠርም
ቢቆጡት
ቢቆጥሩ
ቢቈርጥ
ቢበላ
ቢበር
ቢበዛ
ቢቡኝ
ቢቢሲ
ቢባል
ቢባልም
ቢብሊዮግራፊ
ቢብሊዮጤኬ
ቢብሎሜትሪክስ
ቢብሎግራፊ
ቢተልስ
ቢተኙ
ቢተኛ
ቢተፉ
ቢታለብ
ቢታስብም
ቢታንያ
ቢታወቅም
ቢታይም
ቢት
ቢትልስ
ቢትወደድ
ቢቸና
ቢቻልም
ቢች
ቢችሉም
ቢችል
ቢችልም
ቢነሣ
ቢነሳ
ቢነገርም
ቢነግሩት
ቢነግድ
ቢናገሩ
ቢናገሩት
ቢናገር
ቢናገርም
ቢን
ቢንቁ
ቢንት
ቢንያም
ቢንግ
ቢንጫጫ
ቢኖረው
ቢኖረውም
ቢኖሩ
ቢኖሩም
ቢኖሩና
ቢኖራትም
ቢኖራቸው
ቢኖራቸውም
ቢኖር
ቢኖርም
ቢኖርባቸውም
ቢኖርና
ቢኖርዎ
ቢከለክለውም
ቢከራይ
ቢከፍቱት
ቢኮ
ቢኮብለል
ቢኾኑ
ቢኾን
ቢወልዱ
ቢወርወር
ቢወስድ
ቢወቅጡት
ቢወክል
ቢወድቅ
ቢወጡም
ቢዘገይ
ቢዛንታይን
ቢዝነስ
ቢዝነሶች
ቢያመልጥ
ቢያምርህ
ቢያምኑም
ቢያርሱ
ቢያሰናከል
ቢያሳውር
ቢያሳይም
ቢያስቀምጡት
ቢያቀርብ
ቢያቃጥል
ቢያቋረጥ
ቢያብር
ቢያብድ
ቢያብጥ
ቢያተርፍ
ቢያናግሩህ
ቢያንስ
ቢያንቀላፋ
ቢያኖር
ቢያኮላሸው
ቢያወሩ
ቢያውቀው
ቢያዩኝ
ቢያደርጉ
ቢያደርጉም
ቢያደርግ
ቢያደርግም
ቢያገኘው
ቢያገኛቸው
ቢያገኝ
ቢያገኝም
ቢያጋድል
ቢያግባት
ቢያጐድል
ቢያጡ
ቢያጣም
ቢያጥር
ቢያጥፋ
ቢይዙት
ቢይዝ
ቢይዝም
ቢደልሉት
ቢደረግ
ቢደረግም
ቢደን
ቢዴል
ቢገቡ
ቢገባ
ቢገባም
ቢገኙም
ቢገኝ
ቢገኝም
ቢገዛ
ቢገደል
ቢገድለው
ቢገድል
ቢግ
ቢጎዳ
ቢጠሩ
ቢጠፉ
ቢጠፋ
ቢጠፋም
ቢጣሉ
ቢጤ
ቢጥሉ
ቢጥሉለት
ቢጫ
ቢጫማ
ቢጫኑ
ቢጫው
ቢፈለግ
ቢፈልጉ
ቢፈልጉም
ቢፈቅድ
ቢፈታ
ቢፈነጭ
ቢፈጠር
ቢፒ
ባ
ባሁኑ
ባህሉ
ባህሉን
ባህላቸው
ባህላዊ
ባህላዊና
ባህላዊውን
ባህል
ባህልና
ባህልን
ባህልንና
ባህሎቻቸው
ባህሎች
ባህሎችና
ባህሎችን
ባህረ
ባህረስላጤ
ባህሩ
ባህሪ
ባህሪን
ባህሪው
ባህሪዎች
ባህሪያቱ
ባህሪያት
ባህሪያትን
ባህሪያቸው
ባህሪያቸውን
ባህሪይ
ባህሬን
ባህር
ባህርን
ባህርያት
ባህርይ
ባህርይና
ባህርዳር
ባህሮች
ባህታ
ባህታዊ
ባህያ
ባለ
ባለሀብት
ባለሀብቶች
ባለሁለት
ባለሃብት
ባለመሆኑ
ባለመስማማታቸው
ባለመቀበል
ባለመብት
ባለመቻሉ
ባለመቻላቸው
ባለመኖሩ
ባለሙሉ
ባለሙያ
ባለሙያነት
ባለሙያው
ባለሙያዎች
ባለሙያዎችና
ባለሙያዎችን
ባለማወቅ
ባለማግኘቱ
ባለማግኘታቸው
ባለሞያዎች
ባለሟል
ባለሟሎች
ባለሥልጣናት
ባለሥልጣናትን
ባለሥልጣን
ባለሥልጣኖች
ባለርስቶች
ባለሰባት
ባለስልጣናት
ባለስልጣናትን
ባለስልጣን
ባለስልጣኖች
ባለቅኔ
ባለቅኔና
ባለቅኔው
ባለበት
ባለባቸው
ባለቤቱ
ባለቤቱም
ባለቤቱን
ባለቤታቸው
ባለቤት
ባለቤትም
ባለቤትነት
ባለቤትነትን
ባለቤትና
ባለቤቶች
ባለቤቶችን
ባለቤቷ
ባለቤቷን
ባለብዙ
ባለታሪክ
ባለትዳር
ባለትዳርና
ባለች
ባለችው
ባለአንድ
ባለአደራ
ባለአጥንት
ባለእዳ
ባለዉ
ባለው
ባለውለታ
ባለድርሻ
ባለጌ
ባለጌን
ባለጠጋ
ባለጠግነት
ባለጸጋ
ባለጸጎች
ባለፀጋ
ባለፈ
ባለፈው
ባለፈውና
ባለፉት
ባሉ
ባሉበት
ባሉት
ባሊ
ባላ
ባላምባራስ
ባላባት
ባላባቶች
ባላባቶችን
ባላት
ባላቸው
ባላንጣ
ባላንጣው
ባላገር
ባሌ
ባሌዋ
ባል
ባልሆነ
ባልሆነው
ባልሆኑ
ባልሞላ
ባልስኛ
ባልሽ
ባልተለመደ
ባልተገለጸ
ባልተጠበቀ
ባልቲሞር
ባልቲክ
ባልታወቀ
ባልታዊ
ባልትና
ባልቻ
ባልነው
ባልና
ባልንጀራ
ባልንጀራህን
ባልንጀራውን
ባልንጀሮች
ባልካን
ባልካኖች
ባልወጣሽ
ባልዋ
ባልዋለበት
ባልዋን
ባልደረባ
ባልደረባው
ባልደረቦቹ
ባልደረቦቻቸው
ባልደረቦች
ባሏ
ባሏን
ባሕላዊ
ባሕል
ባሕሎች
ባሕረ
ባሕሩ
ባሕሪ
ባሕሬን
ባሕር
ባሕርና
ባሕርን
ባሕርያተ
ባሕርያት
ባሕርይ
ባሕርዮች
ባሕታዊ
ባመድ
ባማርኛ
ባማኮ
ባምባሲኛ
ባሠሩት
ባረንቱ
ባረከ
ባረከው
ባረካቸው
ባረፈበት
ባሩክ
ባሩድ
ባሪ
ባሪያ
ባሪያው
ባሪያውን
ባሪያዎች
ባሪያዎችን
ባራታርና
ባራቴሪ
ባራክ
ባራክስ
ባሬ
ባር
ባርሴሎና
ባርቡዳ
ባርባራ
ባርባዶስ
ባርቤኪው
ባርነት
ባርነትን
ባርኔጣ
ባርከር
ባርካ
ባርክሌይ
ባርያ
ባርያና
ባርያን
ባርያውን
ባርያዎች
ባርዮች
ባርዱስ
ባሮ
ባሮቹን
ባሮች
ባሮን
ባሮክ
ባሰ
ባሰሩት
ባሲሊካ
ባሲሊካዎች
ባሲል
ባሳ
ባሳለፉት
ባሳተመው
ባሳተሙት
ባሳየችው
ባሳየው
ባሳዩት
ባሴል
ባስ
ባስሊዮስ
ባስሊዮስል
ባስሊዮስም
ባስሊዮስን
ባስልዮስ
ባስቀመጠው
ባስተላለፈው
ባስከተለው
ባስኬት
ባስኬቶ
ባስኬቶኛ
ባስክ
ባስክኛ
ባሻ
ባሻር
ባሻት
ባሻገር
ባቀረበበት
ባቀረበው
ባቄላ
ባቡር
ባቡሮች
ባቢሎናውያን
ባቢሎን
ባቢሎንና
ባቢሎንን
ባቤል
ባብ
ባብዛኛው
ባቫ
ባቫሪያ
ባቲ
ባታ
ባታሊዮን
ባትሆንም
ባትሪ
ባች
ባችለር
ባነር
ባነሰ
ባኒ
ባን
ባንባ
ባንተ
ባንቱ
ባንቲ
ባንቺ
ባንኩ
ባንክ
ባንክን
ባንኮች
ባንዱ
ባንዲራ
ባንዲራውን
ባንዲራዎች
ባንዳ
ባንዳር
ባንዳንድ
ባንዳዎች
ባንዴ
ባንድ
ባንድነት
ባንዶች
ባንጃ
ባንግ
ባንግላዲሽ
ባንግላዴሽ
ባንጻሩ
ባአት
ባእድ
ባኩ
ባኩስ
ባኪንግሃምሸር
ባካሄደው
ባካሄዱት
ባካባቢው
ባካፋ
ባክ
ባክቴሪያ
ባክቴሪያዎች
ባክትሪያ
ባክትርያውያን
ባወቀ
ባወጀው
ባወጣው
ባው
ባውቲስታ
ባዕድ
ባዘልቤት
ባዘጋጀው
ባዛያ
ባዜቃ
ባዝ
ባዝላት
ባዝል
ባየ
ባየር
ባየው
ባዩ
ባያድለኝ
ባዬ
ባይ
ባይሆኑም
ባይሆን
ባይሆንም
ባይሩ
ባይሩን
ባይሳካም
ባይሶኛ
ባይበላሽ
ባይብል
ባይታወቅም
ባይታዩም
ባይቶ
ባይቻል
ባይቻልም
ባይችልም
ባይነስ
ባይነት
ባይነግድ
ባይናከሱ
ባይን
ባይኖረው
ባይኖረውም
ባይኖራቸውም
ባይኖር
ባይኖርም
ባይካል
ባይኾን
ባይወለድ
ባይወልድ
ባይዛንቲየም
ባይዛንታይን
ባይደን
ባይገኝ
ባይገኝም
ባይጠጣ
ባዮሎጂ
ባዮማስ
ባዮች
ባዮግራፊ
ባደረበት
ባደረባቸው
ባደረገ
ባደረገበት
ባደረገችው
ባደረገው
ባደረጉበት
ባደረጉት
ባደረጋቸው
ባደረግንለት
ባዳ
ባድሜን
ባድር
ባዶ
ባዶሊዮ
ባዶነት
ባዶውን
ባጃ
ባጅ
ባገሩ
ባገራችን
ባገር
ባገኘነው
ባገኘው
ባገኙት
ባገኝ
ባገደደ
ባግዳድ
ባጠቃ
ባጠቃላይ
ባጫ
ባጭሩ
ባፈና
ባፋ
ባፍ
ባፕቲስት
ቤ
ቤሉ
ቤሊ
ቤሊዝ
ቤላ
ቤላሩስ
ቤል
ቤልጂየም
ቤልጅክ
ቤልጅግ
ቤሎ
ቤርሙዳ
ቤርሳቤ
ቤርሳቤህ
ቤርሳቤህን
ቤርሳቤሕ
ቤርድ
ቤርጎሊዮ
ቤሮሶስ
ቤሲክ
ቤስጳስያን
ቤቢ
ቤተ
ቤተልሔም
ቤተመቅደስ
ቤተመቅደሶች
ቤተመንግሥት
ቤተመንግስት
ቤተመንግስቶች
ቤተመጻሕፍት
ቤተሠቡ
ቤተሠብ
ቤተሠብና
ቤተሠቦች
ቤተሰቡ
ቤተሰቡን
ቤተሰባቸው
ቤተሰብ
ቤተሰብን
ቤተሰቦቹ
ቤተሰቦቹን
ቤተሰቦቻቸው
ቤተሰቦች
ቤተሰቦችን
ቤተሰቦቿ
ቤተሰቧ
ቤተኛ
ቤተከርስቲያን
ቤተክርስቲያ
ቤተክርስቲያኑ
ቤተክርስቲያን
ቤተክርስቲያንም
ቤተክርስቲያንና
ቤተክርስቲያንን
ቤተክርስቲያኖች
ቤተክርስትያን
ቤተክርስትያንን
ቤተዘመድ
ቤቱ
ቤቱም
ቤቱስ
ቤቱን
ቤቱንም
ቤታ
ቤታቸው
ቤታቸውን
ቤታችን
ቤታዊ
ቤቴ
ቤቴል
ቤቴን
ቤቴንም
ቤት
ቤትሆቨን
ቤትም
ቤትሠብ
ቤትና
ቤትን
ቤትኽ
ቤቶቹ
ቤቶች
ቤቶችም
ቤቶችና
ቤቶችን
ቤቶችንም
ቤቷ
ቤቷን
ቤኒ
ቤኒቶ
ቤኒን
ቤና
ቤናዚር
ቤኔት
ቤኔዲክት
ቤን
ቤንሻንጉል
ቤንቤላ
ቤንታም
ቤንች
ቤንችኛ
ቤንዚን
ቤንዝ
ቤንጃሚን
ቤንጋሊ
ቤንጋል
ቤከር
ቤከን
ቤዛ
ቤዛሆ
ቤዝ
ቤይ
ቤይሊ
ቤይጂንግ
ቤጂንግ
ቤጃ
ቤጊን
ቤጌምድር
ብ
ብሄረ
ብሄረሰብ
ብሄረሰቦች
ብሄረሰቦችና
ብሄረሰቦችን
ብሄረስቦችና
ብሄራዊ
ብሄር
ብሄርተኝነት
ብሄሮች
ብለህ
ብለሽ
ብለን
ብለኽ
ብለዉ
ብለዋል
ብለዋቸዋል
ብለዋቸው
ብለው
ብለውታል
ብለውት
ብሉ
ብሉምበርግ
ብሉይ
ብሉጊል
ብሊን
ብሊክ
ብላ
ብላለች
ብላስኮን
ብላበት
ብላታ
ብላቴና
ብላቴን
ብላችሁ
ብላችኹ
ብላክ
ብሌሚስ
ብሌሚየስ
ብሌን
ብሌየር
ብል
ብልሀት
ብልሃት
ብልህ
ብልህነት
ብልሹ
ብልሽት
ብልት
ብልትን
ብልቶች
ብልግና
ብልጥ
ብልጫ
ብልጭ
ብልጽግና
ብልፅግና
ብሎ
ብሎም
ብሎታል
ብሎት
ብሎን
ብሎኖች
ብሎአል
ብሎክ
ብሎግ
ብሏል
ብሏልና
ብሏታል
ብሏቸው
ብሔረ
ብሔረሰቡ
ብሔረሰብ
ብሔረሰቦች
ብሔረሰቦችና
ብሔረሰቦችን
ብሔሩ
ብሔራዊ
ብሔር
ብሔርተኝነት
ብሔርተኞች
ብሔርና
ብሔርኦች
ብሔሮች
ብረታ
ብረታብረት
ብረት
ብረትና
ብረቶች
ብሩ
ብሩህ
ብሩስ
ብሩሽ
ብሩነይ
ብሩን
ብሩኖ
ብሩክ
ብሩክሊን
ብሪስኬት
ብሪቲሽ
ብሪታኒካ
ብሪታኒያ
ብሪታን
ብሪታንያ
ብሪታንያን
ብሪታንያውያን
ብሪቶኑም
ብሪን
ብሪያን
ብሪያንድ
ብሪጅ
ብራ
ብራሰልስ
ብራስልስ
ብራና
ብራናዎች
ብራንደን
ብራንድ
ብራውን
ብራዚሊያ
ብራዚላዊ
ብራዚላዊያን
ብራዚል
ብራዛቪል
ብራያን
ብራድፎርድ
ብሬሌ
ብሬል
ብሬመን
ብሬስ
ብሬክ
ብሬዥኔቭ
ብር
ብርሀን
ብርሃነ
ብርሃኑ
ብርሃናት
ብርሃናዊ
ብርሃን
ብርሃንም
ብርሃንና
ብርሃንን
ብርሌ
ብርም
ብርቁ
ብርቅ
ብርቅና
ብርቅዬ
ብርብራ
ብርቱ
ብርቱካናማ
ብርቱካን
ብርቱካንማ
ብርና
ብርንዶ
ብርእ
ብርድ
ብርጋዴር
ብርጌድ
ብርጌዶች
ብርጭቆ
ብሮስ
ብሮይል
ብሮይልድ
ብሮድካስቲንግ
ብሳና
ብስለት
ብስል
ብስራት
ብስኩት
ብስክሌት
ብስጭት
ብሻው
ብቁ
ብቃቱ
ብቃቱን
ብቃት
ብቃትና
ብቅ
ብቅል
ብታሰናክልኽ
ብታውቅ
ብታይ
ብታደርግ
ብታገባት
ብታገኝ
ብትሆን
ብትሆንም
ብትል
ብትሞት
ብትቆልፋቸው
ብትን
ብትኾኑ
ብትኾን
ብትወስድ
ብትወድስ
ብትፈታት
ብቸኛ
ብቸኛዋ
ብቸኛው
ብቻ
ብቻቸውን
ብቻና
ብቻዋን
ብቻውን
ብቻዬን
ብኋላ
ብናኝ
ብኔ
ብንል
ብንወስድ
ብንያም
ብኖን
ብእር
ብክለት
ብክለትን
ብክነትን
ብዕር
ብዘት
ብዙ
ብዙሀን
ብዙሃን
ብዙም
ብዙኃን
ብዙነሽ
ብዙን
ብዙወቹ
ብዙወች
ብዙው
ብዙውን
ብዙዎቹ
ብዙዎቹም
ብዙዎቹን
ብዙዎች
ብዙዎችም
ብዙዎችን
ብዛቱ
ብዛታቸው
ብዛት
ብዛትም
ብዛትና
ብዛቷ
ብዜታቸው
ብዜት
ብዝሃ
ብዝሃነት
ብዝሃነትን
ብየ
ብዪ
ብያኔ
ብዬ
ብይ
ብይን
ብድር
ብድግ
ብጉር
ብጉንጅ
ብግነት
ብጡል
ብጣሽ
ብጥብጡ
ብጥብጥ
ብጫ
ብጹዕ
ብፁዓን
ብፁዕ
ብፁዕነታቸው
ቦ
ቦህዳን
ቦሊቪያ
ቦሊቫር
ቦሌ
ቦል
ቦልስ
ቦልሼቪኮች
ቦልግ
ቦሎኔዝ
ቦሎኛ
ቦምብ
ቦምቦች
ቦረና
ቦሩ
ቦሪስ
ቦራ
ቦራና
ቦር
ቦርሳ
ቦርዱ
ቦርዴ
ቦርድ
ቦርዶ
ቦሮኛ
ቦስተን
ቦስኒያ
ቦስኒያና
ቦብ
ቦተም
ቦታ
ቦታም
ቦታቸው
ቦታቸውን
ቦታና
ቦታን
ቦታወች
ቦታዋ
ቦታው
ቦታውን
ቦታዎቹ
ቦታዎች
ቦታዎችና
ቦታዎችን
ቦቴጎ
ቦት
ቦትስዋና
ቦነስ
ቦኑ
ቦናንዛ
ቦናፓርት
ቦን
ቦንብ
ቦንድ
ቦካሳ
ቦክ
ቦክሰኛ
ቦዘኔ
ቦዩስ
ቦይ
ቦይስ
ቦይንግ
ቦይኮት
ቦዮች
ቦዲ
ቦዲቲ
ቦጋለ
ቦግ
ቧ
ቧንቧ
ቧንቧዎች
ቧኝ
ቨ
ቨርዴ
ቨርድ
ቨርጂኒያ
ቨርጂን
ቩ
ቪ
ቪሃረ
ቪላ
ቪላዬት
ቪል
ቪልሄልም
ቪርጂንያ
ቪሳ
ቪተርቦ
ቪታሚን
ቪቴርቦ
ቪትገንስታይን
ቪን
ቪንሰንት
ቪክቶሪያ
ቪክቶር
ቪክቶርያ
ቪዚጎቶች
ቪዛ
ቪዥን
ቪያ
ቪዲዮ
ቪድ
ቪድዮ
ቪድዮው
ቫ
ቫሊ
ቫሌ
ቫሌሪ
ቫሌንሲያ
ቫሌንስ
ቫል
ቫራንግያውያን
ቫሳል
ቫሳሎ
ቫስኔትሶቭ
ቫስኮ
ቫቲካን
ቫን
ቫንዳሉስ
ቫንዳሎች
ቫይረሱ
ቫይረሱን
ቫይረስ
ቫይረስን
ቫይረሶች
ቫይታሚን
ቫይኪንጎች
ቫዮሊን
ቬ
ቬለ
ቬልቬት
ቬርኖን
ቬሱቪዩስ
ቬስትፋለን
ቬትናም
ቬትናምኛ
ቬነስ
ቬኒስ
ቬኔዝዌላ
ቬክተር
ቬክተሮች
ቬይ
ቬዳ
ቬጋስ
ቭ
ቭላንደርኛ
ቭላዲሚር
ቭላድሚር
ቮ
ቮልሂኒያ
ቮልታ
ቮልቴር
ቮልቴጅ
ቮልቴጆች
ቮልት
ቮልዩም
ቮልዲሚር
ቮልድሞርት
ቮልጋ
ቮሎዲሚር
ቮስቶክ
ቮን
ቮየጀር
ቯ
ተ
ተሀድሶ
ተሃድሶ
ተሃድሶው
ተለመደ
ተለመደው
ተለማ
ተለቀቀ
ተለቀቁ
ተለቅ
ተለቋል
ተለት
ተለወጠ
ተለዋዋጭ
ተለዋዋጭነት
ተለዋጭ
ተለውጠዋል
ተለውጠው
ተለውጦ
ተለውጧል
ተለየ
ተለየች
ተለዩ
ተለያየ
ተለያዩ
ተለያይተዋል
ተለያይተው
ተለያይቶ
ተለያይቷል
ተለይተዋል
ተለይተው
ተለይቶ
ተለይቷል
ተለጠፈ
ተለጣጭ
ተለፒኑ
ተላለፈ
ተላላኪዎች
ተላላፊ
ተላልፈዋል
ተላልፏል
ተላም
ተላቃ
ተላከ
ተላኩ
ተላጭታ
ተላፒያ
ተል
ተልሙድ
ተልባ
ተልእኮ
ተልእኮው
ተልእኮውን
ተልእኮዎች
ተልከዋል
ተልከው
ተልኮ
ተልኳል
ተልዕኮ
ተሐድሶ
ተመለሠ
ተመለሡ
ተመለሰ
ተመለሰች
ተመለሰና
ተመለሱ
ተመለሱና
ተመለስ
ተመለከተ
ተመላላሽ
ተመላሽ
ተመልሰዋል
ተመልሰው
ተመልሰውም
ተመልሳ
ተመልሶ
ተመልሷል
ተመልከቱ
ተመልከት
ተመልካቹ
ተመልካች
ተመልካቾች
ተመልካቾችን
ተመልክተናል
ተመልክተዋል
ተመልክተው
ተመልክቶ
ተመልክቷል
ተመመ
ተመሠረተ
ተመሠረተች
ተመሠረቱ
ተመሠርቶ
ተመሣሣይ
ተመሣሣይነት
ተመሥርቶ
ተመረቀ
ተመረቁ
ተመረቅሁ
ተመረጠ
ተመረጡ
ተመሪው
ተመራማሪ
ተመራማሪወች
ተመራማሪው
ተመራማሪዎቹ
ተመራማሪዎች
ተመራቂ
ተመራጭ
ተመራጭነት
ተመርምሯል
ተመርቀዋል
ተመርቀው
ተመርቆ
ተመርቋል
ተመርተው
ተመርቶ
ተመርኩዞ
ተመርጠዋል
ተመርጠው
ተመርጦ
ተመርጧል
ተመሮጥ
ተመሰረተ
ተመሰረተች
ተመሳሳይ
ተመሳሳይነት
ተመስለዋል
ተመስሎ
ተመስርተዋል
ተመስርተው
ተመስርቶ
ተመስርቷል
ተመስገን
ተመስጦ
ተመስጧዊ
ተመተው
ተመታ
ተመትቶ
ተመቶ
ተመነጠረ
ተመን
ተመኖች
ተመካሪው
ተመካከር
ተመክሮ
ተመዘገበ
ተመዘገቡ
ተመዝግበዋል
ተመዝግቦ
ተመዝግቧል
ተመደቡ
ተመድበዋል
ተመድበው
ተመድቦ
ተመድቧል
ተመጣጣኙ
ተመጣጣኝ
ተማምኖ
ተማረ
ተማረከ
ተማረኩ
ተማሩ
ተማሪ
ተማሪነት
ተማሪና
ተማሪወች
ተማሪው
ተማሪዎቹ
ተማሪዎች
ተማሪዎችና
ተማሪዎችን
ተማርከዋል
ተማርከው
ተማርኮ
ተማሮች
ተማትቶ
ተማከሩ
ተማክረው
ተማክሮ
ተማጽነዋል
ተማጽኖ
ተማጽኗል
ተምረዋል
ተምረው
ተምራ
ተምር
ተምሮ
ተምሯል
ተምሳሌታዊ
ተምሳሌት
ተምባሮ
ተሞላ
ተሞልቶ
ተሞተ
ተሞክሮ
ተሞክሯል
ተሟጋች
ተሟጋችና
ተሟግቶ
ተሟጦ
ተሠረዘ
ተሠሩ
ተሠራ
ተሠርተዋል
ተሠርተው
ተሠርቶ
ተሠርቷል
ተሣፋሪዎች
ተረሸኑ
ተረሽነው
ተረት
ተረትና
ተረቶች
ተረችነት
ተረኛ
ተረከበ
ተረከቡ
ተረክበው
ተረክቦ
ተረዱ
ተረዳ
ተረድተው
ተረድቶ
ተረጋገጠ
ተረጋግጠዋል
ተረጋግጦ
ተረጋግጧል
ተረፈ
ተረፉ
ተራ
ተራመደ
ተራማጅ
ተራራ
ተራራማ
ተራራማና
ተራራማው
ተራራና
ተራራን
ተራራው
ተራራውን
ተራራዎች
ተራሮቹ
ተራሮች
ተራሮችና
ተራሮችን
ተራኪ
ተርሚናል
ተርሴስ
ተርባይን
ተርታ
ተርታውን
ተርታዎችን
ተርትና
ተርጉመው
ተርጉሞ
ተርጉሞታል
ተርጓሚ
ተርጓሚዎች
ተርፈዋል
ተርፈው
ተርፎ
ተርፎም
ተሰ
ተሰልፈው
ተሰሚነት
ተሰማ
ተሰማሩ
ተሰማርተዋል
ተሰማርተው
ተሰማርቶ
ተሰማርቷል
ተሰማን
ተሰማኝ
ተሰምቶም
ተሰረዘ
ተሰረየችልኽ
ተሰራ
ተሰራጨ
ተሰራጭተው
ተሰራጭቶ
ተሰራጭቷል
ተሰርስሮ
ተሰርቀው
ተሰርተው
ተሰርቶ
ተሰርዘዋል
ተሰርዟል
ተሰቀለ
ተሰቅሎ
ተሰበረ
ተሰበሰቡ
ተሰባሪ
ተሰባስበው
ተሰባብሮ
ተሰብሮ
ተሰብስበዋል
ተሰብስበው
ተሰብስቦ
ተሰኝቷል
ተሰኪ
ተሰወረ
ተሰየመ
ተሰየመች
ተሰየሙ
ተሰይመው
ተሰይሞ
ተሰይሟል
ተሰደዋል
ተሰደው
ተሰደደ
ተሰደዱ
ተሰጠ
ተሰጠው
ተሰጡ
ተሰጣቸው
ተሰጥተዋል
ተሰጥቶ
ተሰጥቶታል
ተሰጥቶት
ተሰጥቷል
ተሰጥቷታል
ተሰጥቷቸዋል
ተሰጥቷቸው
ተሰጥኦ
ተሰፈረ
ተሲስ
ተሳለ
ተሳላሚዎች
ተሳስተው
ተሳቢ
ተሳተ
ተሳተፉ
ተሳታፊ
ተሳታፊዎች
ተሳታፊዎችም
ተሳትፈዋል
ተሳትፈውበታል
ተሳትፎ
ተሳትፎን
ተሳትፏል
ተሳናት
ተሳክቶለታል
ተሳክቶለት
ተሳፋሪ
ተሳፋሪዎች
ተሳፋሪዎችን
ተሳፍረው
ተሳፍሮ
ተስማሙ
ተስማሚ
ተስማማ
ተስማማች
ተስማምተዋል
ተስማምተው
ተስማምታለች
ተስማምቶ
ተስማምቷል
ተስቦ
ተስተካክለዋል
ተስተካክሎ
ተስተውሏል
ተስተጓጎለ
ተስኖት
ተስፋ
ተስፋን
ተስፋውን
ተስፋዬ
ተስፋፉ
ተስፋፋ
ተስፋፍተው
ተስፋፍቶ
ተስፋፍቷል
ተሸለመ
ተሸለሙ
ተሸላሚ
ተሸላሚዎች
ተሸልመዋል
ተሸልሟል
ተሸነፈ
ተሸነፈች
ተሸነፈና
ተሸነፉ
ተሸናፊው
ተሸንፈው
ተሸንፎ
ተሸንፏል
ተሸከመ
ተሸካሚ
ተሸካሚዎች
ተሸክመኽ
ተሸክመው
ተሸክማ
ተሸክሞ
ተሸጋገረ
ተሸጠ
ተሸፍነዋል
ተሸፍኖ
ተሸፍኗል
ተሹመዋል
ተሹመው
ተሹሞ
ተሹሟል
ተሻለ
ተሻሽሎ
ተሻሽሏል
ተሻገረ
ተሻገሩ
ተሻገር
ተሻጋሪ
ተሻግረው
ተሻግሮ
ተሽረው
ተሽከርካሪ
ተሽከርካሪው
ተሽከርካሪዎች
ተሽከርካሪዎችን
ተሾመ
ተሾመች
ተሾመዋል
ተሾሙ
ተቀላቀለ
ተቀላቀለች
ተቀላቀሉ
ተቀላቅለዋል
ተቀላቅለው
ተቀላቅላለች
ተቀላቅሎ
ተቀላቅሏል
ተቀመጠ
ተቀመጠች
ተቀመጡ
ተቀመጥ
ተቀማጭ
ተቀምጠዋል
ተቀምጠው
ተቀምጠውም
ተቀምጣ
ተቀምጣለች
ተቀምጦ
ተቀምጦም
ተቀምጧል
ተቀረጸ
ተቀራራቢ
ተቀርጸው
ተቀርጾ
ተቀርፀዋል
ተቀሰቀሰ
ተቀሳቃሽ
ተቀስቅሷል
ተቀቅሎ
ተቀበለ
ተቀበለች
ተቀበለችው
ተቀበለው
ተቀበሉ
ተቀበሉት
ተቀበል
ተቀበሏቸው
ተቀበረ
ተቀበሩ
ተቀቡ
ተቀባ
ተቀባይ
ተቀባይነት
ተቀባይነትን
ተቀባዮች
ተቀብለዋል
ተቀብለው
ተቀብላ
ተቀብላለች
ተቀብሎ
ተቀብሏል
ተቀብረዋል
ተቀብሮ
ተቀብሯል
ተቀብተው
ተቀብቶ
ተቀነባበረ
ተቀነባብሮ
ተቀናቃኝ
ተቀናቃኞች
ተቀናቃኞችን
ተቀናጅቶ
ተቀን
ተቀየረ
ተቀየሩ
ተቀይሮ
ተቀይሯል
ተቀደስ
ተቀዳሚ
ተቀዳጀ
ተቀዳጀች
ተቀዳጁ
ተቀጠለ
ተቀጠረ
ተቀጠሩ
ተቀጡ
ተቀጣ
ተቀጣሪ
ተቀጣይ
ተቀጣጣይ
ተቀጥረው
ተቀጥሮ
ተቃራኒ
ተቃራኒው
ተቃራኒዎች
ተቃርቧል
ተቃርኖ
ተቃርኖዎች
ተቃቅፈው
ተቃወመ
ተቃወመች
ተቃወሙ
ተቃወሙት
ተቃዋሚ
ተቃዋሚወች
ተቃዋሚው
ተቃዋሚዎቻቸው
ተቃዋሚዎች
ተቃዋሚዎችን
ተቃውመዋል
ተቃውመው
ተቃውሞ
ተቃውሞና
ተቃውሞን
ተቃውሞወች
ተቃውሞው
ተቃውሞዎች
ተቃውሞዎችን
ተቃውሟል
ተቃጠለ
ተቃጠሉ
ተቃጥለዋል
ተቃጥለው
ተቃጥሎ
ተቅማጥ
ተቆረቆረች
ተቆርቋሪ
ተቆርጦ
ተቆርጧል
ተቆጠረ
ተቆጠረች
ተቆጠሩ
ተቆጣጠረ
ተቆጣጠረች
ተቆጣጠሩ
ተቆጣጣሪ
ተቆጣጣሪነት
ተቆጣጣሪዎች
ተቆጣጥሮ
ተቆጣጥሯል
ተቆጥረዋል
ተቆጥሮ
ተቆጥሯል
ተቆጥተው
ተቆጥቶ
ተቆፍሮ
ተቈጠረለት
ተቋሙ
ተቋሙን
ተቋማት
ተቋማትና
ተቋማትን
ተቋማዊ
ተቋም
ተቋሞች
ተቋረጠ
ተቋራጭ
ተቋራጮች
ተቋርጦ
ተቋርጧል
ተቋቁመዋል
ተቋቁመው
ተቋቁማ
ተቋቁሞ
ተቋቁሟል
ተቋቋመ
ተቋቋሙ
ተቋዳሽ
ተበላሽቶ
ተበሳጭቶ
ተበተነ
ተበተኑ
ተበታተነ
ተበታተነች
ተበታትነው
ተበታትኖ
ተበትነው
ተበትኖ
ተበደረ
ተበዳሪ
ተበድሎ
ተበድረዋል
ተበድሮ
ተበጀ
ተባለ
ተባለች
ተባለና
ተባለው
ተባሉ
ተባረረ
ተባረሩ
ተባበረ
ተባበሩ
ተባባሉ
ተባባሪ
ተባብረዋል
ተባብረው
ተባብሮ
ተባብሰዋል
ተባብሶ
ተባብሷል
ተባእት
ተባዕት
ተባይ
ተብለዋል
ተብለው
ተብላ
ተብላለች
ተብላም
ተብሎ
ተብሎም
ተብሏል
ተብማን
ተብቃቂ
ተብዬ
ተተ
ተተረጎመ
ተተርጉመዋል
ተተርጉሞ
ተተርጉሟል
ተተናገረ
ተተኩ
ተተኩሶ
ተተኪ
ተተኪነት
ተተኪው
ተተኪዎች
ተተካ
ተተካች
ተተክሎ
ተተክተዋል
ተተክተው
ተተክቶ
ተተክቷል
ተተኮሰ
ተተኲሶ
ተተወ
ተቸግሮ
ተቺ
ተቺዎች
ተቻለ
ተችሎ
ተችሏል
ተችተዋል
ተችተው
ተችቷል
ተነሡ
ተነሣ
ተነሣና
ተነሥ
ተነሥተው
ተነሥታ
ተነሥቶ
ተነሥቶም
ተነሥቷል
ተነሱ
ተነሳ
ተነሳስተው
ተነሳሽነት
ተነሳሽነትን
ተነሳች
ተነስ
ተነስተን
ተነስተዋል
ተነስተው
ተነስታ
ተነስቶ
ተነስቷል
ተነስቼ
ተነሽ
ተነቀለ
ተነቅለው
ተነበየ
ተነባቢ
ተነባቢውን
ተነከስኩኝ
ተነገረ
ተነጋሪዎች
ተነጋገሩ
ተነግሯል
ተነጠቀ
ተነጥለው
ተነጥሎ
ተናባቢ
ተናባቢዎች
ተናኘወርቅ
ተናካሽ
ተናደ
ተናደው
ተናደደ
ተናገረ
ተናገረች
ተናገሩ
ተናገራቸው
ተናገር
ተናገርህ
ተናገርኩ
ተናጋሪ
ተናጋሪው
ተናጋሪውን
ተናጋሪዎቹ
ተናጋሪዎች
ተናጋሪዎችን
ተናግረዋል
ተናግረው
ተናግራ
ተናግራለች
ተናግሮ
ተናግሯል
ተንሰራፍቶ
ተንሸራታች
ተንቀሳቃሽ
ተንቀሳቃሽነት
ተንቀሳቅሰዋል
ተንቀሳቅሶ
ተንቀሳቅሷል
ተንብዮአል
ተንተርሶ
ተንታ
ተንታኝ
ተንታኞች
ተንትነዋል
ተንኮለኛ
ተንኮል
ተንኰል
ተንጋሎ
ተንጠልጠል
ተንጠልጥላ
ተንጣሎ
ተንጣጣ
ተኙ
ተኛ
ተኛው
ተኝተው
ተኝታ
ተኝቶ
ተአማኒነት
ተአምረ
ተአምራት
ተአምራትን
ተአምራዊ
ተአምር
ተአቅቦ
ተኣምራት
ተከለ
ተከለከለ
ተከለከሉ
ተከለክለዋል
ተከለክሏል
ተከሉ
ተከላ
ተከላካይ
ተከልክሎ
ተከልክሏል
ተከሠተ
ተከሠቱ
ተከራከሩ
ተከራካሪ
ተከራክረዋል
ተከራክሯል
ተከራይቶ
ተከሰተ
ተከሰቱ
ተከሰከሰ
ተከሰው
ተከስተዋል
ተከስቶ
ተከስቷል
ተከስክሶ
ተከሶ
ተከሷል
ተከበረ
ተከባ
ተከብሮ
ተከብሯል
ተከቦ
ተከቧል
ተከተለ
ተከተለኝ
ተከተለው
ተከተሉ
ተከተሉት
ተከተላት
ተከተላቸው
ተከተል
ተከተሎ
ተከተሎች
ተከታታይ
ተከታታዮች
ተከታትለዋል
ተከታትለው
ተከታትሎ
ተከታትሏል
ተከታዩ
ተከታዩም
ተከታዩን
ተከታዬች
ተከታይ
ተከታይና
ተከታዮቹ
ተከታዮቹን
ተከታዮቻቸው
ተከታዮች
ተከታዮችን
ተከትለዋል
ተከትለው
ተከትላ
ተከትላለች
ተከትሎ
ተከትሎም
ተከትሏል
ተከናወነ
ተከናውኗል
ተከዜ
ተከፈለ
ተከፈለች
ተከፈተ
ተከፈቱ
ተከፋፈለ
ተከፋፈሉ
ተከፋፍለው
ተከፋፍሎ
ተከፋፍሏል
ተከፍለዋል
ተከፍለው
ተከፍላ
ተከፍላለች
ተከፍሎ
ተከፍሏል
ተከፍቶ
ተኩላ
ተኩል
ተኩስ
ተኩሶ
ተኪ
ተካ
ተካሂደዋል
ተካሂዶ
ተካሂዷል
ተካሄደ
ተካሄዷል
ተካልኝ
ተካተዋል
ተካቷል
ተካፋይ
ተካፋዮች
ተካፍለዋል
ተካፍለው
ተክለ
ተክለሃይማኖት
ተክለማርያም
ተክለወልድ
ተክለዋል
ተክለጻድቅ
ተክሉ
ተክሉን
ተክሊል
ተክሌ
ተክል
ተክሎ
ተክሎች
ተክሏል
ተክተው
ተክቶ
ተክቷል
ተኮር
ተኮሰ
ተኮሰች
ተኲላ
ተኳሽ
ተወ
ተወለደ
ተወለደች
ተወለዱ
ተወለድ
ተወለዶ
ተወላጁ
ተወላጅ
ተወላጅና
ተወላጆች
ተወላጆችን
ተወልደ
ተወልደው
ተወልዳ
ተወልዶ
ተወልጄ
ተወረረች
ተወረሰ
ተወርዋሪ
ተወርውሮ
ተወሰነ
ተወሰደ
ተወሰዱ
ተወስነው
ተወስኖ
ተወስኗል
ተወስደዋል
ተወስደው
ተወስዶ
ተወስዷል
ተወኝ
ተወካዩ
ተወካይ
ተወካዮች
ተወው
ተወያዩ
ተወያይተዋል
ተወደደ
ተወዳዳሪ
ተወዳዳሪነት
ተወዳዳሪዎቹ
ተወዳዳሪዎች
ተወዳድረዋል
ተወዳድሮ
ተወዳድሯል
ተወዳጁ
ተወዳጅ
ተወዳጅነቱን
ተወዳጅነት
ተወዳጅነትና
ተወዳጅነትን
ተወዳጅና
ተወዳጆች
ተወገብ
ተወገደ
ተወገዱ
ተወጋ
ተወግደዋል
ተወግዶ
ተወግዷል
ተወጥተዋል
ተወጥቷል
ተዉ
ተዉት
ተዉና
ተዉአቸው
ተዋሃደች
ተዋህደዋል
ተዋህደው
ተዋህዳለች
ተዋህዶ
ተዋልዶ
ተዋሕደው
ተዋሕዶ
ተዋረዳዊ
ተዋረድ
ተዋርዶ
ተዋቅሯል
ተዋበች
ተዋቢ
ተዋናይ
ተዋናይት
ተዋናይነት
ተዋናይነትን
ተዋናዮች
ተዋንያን
ተዋወለ
ተዋወቀ
ተዋወቁ
ተዋዋለ
ተዋዋሉ
ተዋውሎ
ተዋደዱ
ተዋጉ
ተዋጊ
ተዋጊዎች
ተዋጊዎችን
ተዋጋ
ተዋግተህ
ተዋግተዋል
ተዋግተው
ተዋግታለች
ተዋግቶ
ተዋግቷል
ተዋጽኦዎቹ
ተዋጽኦዎችን
ተዋፅኦ
ተው
ተውሂድ
ተውለት
ተውላጠ
ተውሳከ
ተውሳክ
ተውሳኮች
ተውኔት
ተውኔቶች
ተውፊት
ተዓምራት
ተዓምር
ተዕለት
ተዘረዘረ
ተዘረጋ
ተዘራ
ተዘርዝረዋል
ተዘርዝረው
ተዘርዝሯል
ተዘርግተዋል
ተዘርግቶ
ተዘርግቷል
ተዘርፎ
ተዘዋወረ
ተዘዋዋሪ
ተዘዋውሮ
ተዘገበ
ተዘጋ
ተዘጋጀ
ተዘጋጁ
ተዘጋጅተዋል
ተዘጋጅተው
ተዘጋጅቶ
ተዘጋጅቷል
ተዘግቧል
ተዘግተዋል
ተዘግተው
ተዘግቶ
ተዘግቷል
ተዛመደ
ተዛማጅ
ተዛማጅነት
ተዛምዶ
ተዛወረ
ተዛወረች
ተዛወሩ
ተዛውረዋል
ተዛውረው
ተዛውሮ
ተዛውሯል
ተዝካረ
ተዝካር
ተያዘ
ተያዘና
ተያዙ
ተያያዙት
ተያያዥ
ተያያዥነት
ተያይዘዋል
ተያይዘው
ተያይዞ
ተይስፐስ
ተይዘዋል
ተይዘው
ተይዛ
ተይዞ
ተይዟል
ተደማምሮ
ተደማጭነት
ተደምሮ
ተደምስሶ
ተደረጀ
ተደረጁ
ተደረገ
ተደረገላቸውና
ተደረገና
ተደረጉ
ተደራራቢ
ተደራሽ
ተደራሽነት
ተደራሽነትን
ተደራጅቷል
ተደርሶበታል
ተደርሶበት
ተደርሷል
ተደርገዋል
ተደርገው
ተደርጉ
ተደርጋ
ተደርጎ
ተደርጎለታል
ተደርጎም
ተደርጎበታል
ተደርጐ
ተደርጓል
ተደሰቱ
ተደስተው
ተደስቶ
ተደቅቀው
ተደቅቆ
ተደበደበች
ተደባለቁ
ተደባልቆ
ተደብቀው
ተደብቃ
ተደብቆ
ተደብድቦ
ተደነቀ
ተደነቁ
ተደነገገ
ተደንቆ
ተደጋጋሚ
ተደጋግሞ
ተደግሟል
ተደግፎ
ተደፋ
ተደፍቶ
ተዳምሮ
ተዳረሰ
ተዳሩ
ተዳርገዋል
ተዳክሞ
ተዳክሟል
ተዳፋት
ተድላ
ተድረው
ተድቅቆ
ተድባበ
ተጀመረ
ተጀምረዋል
ተጀምሮ
ተጀምሯል
ተገለበጠ
ተገለበጡ
ተገለጠ
ተገለጸ
ተገለፀ
ተገልባጭ
ተገልብጦ
ተገልጦ
ተገልጾ
ተገልጿል
ተገመተ
ተገምቷል
ተገረሙ
ተገረሙና
ተገቢ
ተገቢነት
ተገቢው
ተገቢውን
ተገነባ
ተገነዘበ
ተገነዘቡ
ተገናኘ
ተገናኙ
ተገናኝተዋል
ተገናኝተው
ተገናኝቶ
ተገን
ተገንብተዋል
ተገንብተው
ተገንብቶ
ተገንብቷል
ተገንዝቦ
ተገንዝቧል
ተገንጣይ
ተገንጣዮች
ተገንጥለው
ተገንጥላ
ተገንጥሎ
ተገኘ
ተገኘች
ተገኙ
ተገኝ
ተገኝተዋል
ተገኝተው
ተገኝቶ
ተገኝቷል
ተገዙ
ተገዛ
ተገዢ
ተገዢው
ተገዢዎች
ተገዥ
ተገዦች
ተገደለ
ተገደለች
ተገደለና
ተገደሉ
ተገደዋል
ተገደው
ተገደደ
ተገደደች
ተገደዱ
ተገድለዋል
ተገድለው
ተገድላለች
ተገድሎ
ተገድዳለች
ተገዶ
ተገዷል
ተገፋፍተው
ተጉለት
ተጉዘዋል
ተጉዘው
ተጉዞ
ተጉዟል
ተጋላጭ
ተጋላጭነት
ተጋቡ
ተጋቢዎች
ተጋባ
ተጋባዥ
ተጋብተው
ተጋብዘው
ተጋብዞ
ተጋዳይ
ተጋድሎ
ተጋጭተው
ተግሣጽ
ተግሳጽ
ተግባሩ
ተግባራቱ
ተግባራት
ተግባራትን
ተግባራቸው
ተግባራቸውን
ተግባራዊ
ተግባራዊነት
ተግባር
ተግባርም
ተግባሮች
ተግባቢ
ተግባብቶ
ተግብር
ተግደርዳሪ
ተግዳሮቶች
ተጎልባች
ተጎድተዋል
ተጎድቷል
ተጎጂው
ተጎጂውን
ተጎጂዎች
ተጓ
ተጓዘ
ተጓዙ
ተጓዥ
ተጓዦች
ተጓዳኝ
ተጠልለው
ተጠልፎ
ተጠመቀ
ተጠመቁ
ተጠምቀው
ተጠምደው
ተጠሪ
ተጠራ
ተጠራጣሪ
ተጠራጣሪዎች
ተጠርተዋል
ተጠርተው
ተጠርቶ
ተጠርቷል
ተጠርጣሪ
ተጠርጥረው
ተጠቀመ
ተጠቀሙ
ተጠቀም
ተጠቁሟል
ተጠቂ
ተጠቃሚ
ተጠቃሚነት
ተጠቃሚነትን
ተጠቃሚን
ተጠቃሚው
ተጠቃሚውን
ተጠቃሚዎቹ
ተጠቃሚዎች
ተጠቃሚዎችን
ተጠቃሽ
ተጠቃሽነት
ተጠቃሾች
ተጠቅልሎ
ተጠቅመን
ተጠቅመዋል
ተጠቅመው
ተጠቅመውበታል
ተጠቅሞ
ተጠቅሞበታል
ተጠቅሟል
ተጠቅሰዋል
ተጠቅሶ
ተጠቅሷል
ተጠበቁ
ተጠባባቂ
ተጠብቀው
ተጠብቆ
ተጠነቀቀ
ተጠናቀቀ
ተጠናቆ
ተጠናቋል
ተጠናከረ
ተጠናክሮ
ተጠናክሯል
ተጠንቀቁ
ተጠንቀቅ
ተጠንቶ
ተጠየቀ
ተጠያቂ
ተጠያቂነት
ተጠያቂው
ተጠይቀው
ተጠጊ
ተጠጋ
ተጠግተው
ተጠግቶ
ተጣለ
ተጣሉ
ተጣማሪ
ተጣምረው
ተጣባቂ
ተጣብቆ
ተጥለዋል
ተጥሎ
ተጥሎበታል
ተጥዶ
ተጨመረ
ተጨመረች
ተጨመሩ
ተጨማሪ
ተጨማሪው
ተጨምረዋል
ተጨምረው
ተጨምሮ
ተጨምሮበት
ተጨምሯል
ተጨረሰ
ተጨባጩ
ተጨባጩን
ተጨባጭ
ተጨናንቀዋል
ተጨንቀው
ተጨንቆ
ተጨዋቾች
ተጨፈጨፉ
ተጫነ
ተጫዋቹ
ተጫዋች
ተጫዋችና
ተጫዋቾ
ተጫዋቾቹ
ተጫዋቾች
ተጫዋቾችና
ተጫዋቾችን
ተጫውተዋል
ተጫውታለች
ተጫውቶ
ተጫውቷል
ተጭነዋል
ተጭነው
ተጭኖ
ተጭኗል
ተጻራሪ
ተጻፈ
ተጻፉ
ተጽኖ
ተጽእኖ
ተጽእኖን
ተጽእኖዎች
ተጽዕኖ
ተጽዕኖን
ተጽዕኖዎች
ተጽፈዋል
ተጽፈው
ተጽፎ
ተጽፎበታል
ተጽፏል
ተጽፏልና
ተፃፈ
ተፅእኖ
ተፅእኖን
ተፅእኖዎች
ተፅዕኖ
ተፅዕኖዎች
ተፅፎ
ተፅፏል
ተፈላጊ
ተፈላጊነት
ተፈልቶ
ተፈልጎ
ተፈልፍለው
ተፈረመ
ተፈረደበት
ተፈረደባቸው
ተፈሪ
ተፈሪን
ተፈራ
ተፈራረመ
ተፈራረሙ
ተፈራርመዋል
ተፈራርመው
ተፈራርሟል
ተፈርቶ
ተፈርዶበታል
ተፈርዶበት
ተፈርዶባቸዋል
ተፈርዶባቸው
ተፈቀደ
ተፈቀደለት
ተፈቀደላት
ተፈቀዱ
ተፈቅደው
ተፈቅዷልን
ተፈተነ
ተፈቱ
ተፈታ
ተፈትቷል
ተፈቷል
ተፈናቅለዋል
ተፈናቅለው
ተፈወሰ
ተፈወሱ
ተፈጠረ
ተፈጠሩ
ተፈጥረዋል
ተፈጥሮ
ተፈጥሮን
ተፈጥሮአዊ
ተፈጥሮዋዊ
ተፈጥሯል
ተፈጥሯዊ
ተፈጭቶ
ተፈጸመ
ተፈጻሚ
ተፈጻሚነት
ተፈጽሞ
ተፈጽሟል
ተፈፀመ
ተፈፃሚ
ተፈፅሟል
ተፋህ
ተፋሰስ
ተፋቱ
ተፋጠጡ
ተፎካካሪ
ተፎካካሪው
ቱ
ቱሉ
ቱሉዝ
ቱማሉ
ቱም
ቱሪስቶች
ቱሪስቶችን
ቱሪዝም
ቱሪዝምና
ቱሬ
ቱር
ቱርኩ
ቱርኪክ
ቱርካና
ቱርካዊ
ቱርክ
ቱርክን
ቱርክኛ
ቱርኮች
ቱርኮችም
ቱርኮችን
ቱስኩስ
ቱብ
ቱቦ
ቱቦወች
ቱቦውን
ቱቫሉ
ቱቱ
ቱታንኻመን
ቱትሞስ
ቱኒዚያ
ቱን
ቱአጣ
ቱኩልቲ
ቱዊ
ቱዊስኮን
ቱዋጣ
ቱይረድ
ቱዲያ
ቱድሐሊያ
ቱዶር
ቱገን
ቱፋህ
ቱፓክ
ቲ
ቲለርሰን
ቲል
ቲማቲም
ቲም
ቲምቡክቱ
ቲሞር
ቲራስ
ቲርሚዚ
ቲቤር
ቲቤታዊ
ቲቤት
ቲቤትን
ቲቪ
ቲቭ
ቲታኖች
ቲት
ቲንደል
ቲኩናኒ
ቲኮንዴሮጋን
ቲዎሪ
ቲዩብ
ቲያትር
ቲያትሮች
ቲዲኬ
ቲፊናቅ
ቲፎን
ቲፎንን
ቲፕ
ታ
ታህሣሥ
ታህሳስ
ታህታይ
ታላላቅ
ታላላቆቹ
ታላላቆች
ታላቁ
ታላቁን
ታላቅ
ታላቅነት
ታላቅና
ታላቋ
ታልሙን
ታሑርዋይሊ
ታሕታይ
ታመመ
ታመመና
ታመነ
ታመው
ታሚልኛ
ታማ
ታማሚ
ታማሚውን
ታማሚዎች
ታማስላለች
ታማኝ
ታማኝነታቸው
ታማኝነታቸውን
ታማኝነት
ታማኝነትና
ታማኝና
ታማኞች
ታምሩ
ታምራት
ታምራዊ
ታምር
ታምናለች
ታምኖ
ታሞ
ታሠሩ
ታሠበ
ታረቁ
ታሩሕሹን
ታሪከ
ታሪከኛ
ታሪኩ
ታሪኩን
ታሪካቸው
ታሪካቸውን
ታሪካችን
ታሪካዊ
ታሪካዊና
ታሪካዊው
ታሪኬ
ታሪክ
ታሪክም
ታሪክና
ታሪክን
ታሪኮቹ
ታሪኮች
ታሪኮችና
ታሪኮችን
ታሪኳ
ታራ
ታራሆ
ታራን
ታርሷል
ታርቆ
ታርታር
ታርክ
ታርዶ
ታሰረ
ታሰሩ
ታሳጭ
ታስረዋል
ታስረው
ታስሮ
ታስሯል
ታስባለች
ታስቦ
ታስቧል
ታስተምራለች
ታስታውቅ
ታሸታለች
ታሸንፋለች
ታሽኬንት
ታቃፊ
ታቅዶ
ታባሪ
ታባሪና
ታቦር
ታቦርን
ታቦተ
ታቦቱ
ታቦቱን
ታቦታት
ታቦት
ታቦትና
ታቦትን
ታተመ
ታተሙ
ታታሪ
ታታርኛ
ታታሮች
ታትመዋል
ታትመው
ታትሞ
ታትሟል
ታቸር
ታቹ
ታች
ታችኛ
ታችኛው
ታኅሣሥ
ታነጸ
ታኒስ
ታና
ታናሹ
ታናሽ
ታናናሽ
ታን
ታንቆ
ታንክ
ታንኮች
ታንኳ
ታንኳዪቱ
ታንዛኒያ
ታንዛንያ
ታንድራ
ታንጋኒካ
ታንጋኒካን
ታንግ
ታንጎ
ታከለ
ታከብረዋለች
ታከብራለች
ታኪቱስ
ታካሚዎች
ታካኪ
ታክላማካን
ታክሲ
ታክሲላ
ታክስ
ታክስን
ታክቲክ
ታኮ
ታወር
ታወቀ
ታወቁ
ታወጀ
ታዊ
ታዋቂ
ታዋቂነቱ
ታዋቂነት
ታዋቂነትን
ታዋቂና
ታዋቂው
ታዋቂዎቹ
ታዋቂዎች
ታዋናና
ታው
ታውቀዋል
ታውቁ
ታውቃለህ
ታውቃለኽ
ታውቃላችሁ
ታውቃላችኹ
ታውቅ
ታውቆ
ታውቋል
ታውን
ታዖ
ታዘዘ
ታዘዙ
ታዛቢ
ታዛቢዎች
ታዛዥ
ታዛዦች
ታዝበው
ታየ
ታየች
ታየኝ
ታየው
ታዩ
ታያለኽ
ታያቸው
ታዬ
ታይ
ታይላንድ
ታይም
ታይምስ
ታይምዝ
ታይሥዌ
ታይተዋል
ታይተው
ታይታኒክ
ታይቶ
ታይቶም
ታይቷል
ታይዋን
ታይዋንን
ታይጋ
ታይፔ
ታይፕ
ታይፕራይተር
ታደለ
ታደርጋለች
ታደርጋለኽ
ታደርጋላችኹ
ታደርግ
ታደሰ
ታዲያ
ታዳሚዎች
ታዳሽ
ታዳጊ
ታዳጊዎች
ታዴዎስ
ታድመው
ታድሶ
ታድያ
ታጂኪስታን
ታጅ
ታጅበው
ታጅቦ
ታገለ
ታገለግላለች
ታገሉ
ታገስ
ታገኛለች
ታገኛለኽ
ታገኛላችሁ
ታጉል
ታጋቾች
ታጋይ
ታጋዮች
ታግለው
ታግዞ
ታግዶ
ታግዷል
ታጠቅ
ታጠበች
ታጣ
ታጣቂ
ታጣቂዎች
ታጣቂዎችን
ታጥቆ
ታጥቦ
ታጨች
ታፈሰ
ታፈስ
ታፌዋ
ታፍነው
ታፍኖ
ቴ
ቴህራን
ቴሊ
ቴሌ
ቴሌስኮፕ
ቴሌቪዝን
ቴሌቪዥን
ቴሌቭዥን
ቴሌኮሙኒኬሽን
ቴሌኮም
ቴሌግራም
ቴሌግራፍ
ቴል
ቴልጌልቴልፌልሶር
ቴምብሮች
ቴምዝ
ቴምፕሬቸር
ቴራ
ቴራስ
ቴሬሳ
ቴሬዛ
ቴርጋማ
ቴስላ
ቴቤስ
ቴቲ
ቴኒስ
ቴኔ
ቴንደርሎይን
ቴአትር
ቴክ
ቴክሳስ
ቴክኒካል
ቴክኒካዊ
ቴክኒክ
ቴክኒኮች
ቴክኖሎጂ
ቴክኖሎጂን
ቴክኖሎጂው
ቴክኖሎጂዎች
ቴክኖሎጂዎችን
ቴክኖዎሎጂ
ቴወድሮስ
ቴወድሮስን
ቴዎድሮስ
ቴዎድሮስም
ቴዎድሮስና
ቴዎድሮስን
ቴዎዶላይት
ቴዎዶር
ቴዎዶስዮስ
ቴዎፍሎስ
ቴያትር
ቴይለር
ቴዮዶር
ቴዲ
ቴፒ
ት
ትሁት
ትሁን
ትሂጃለሽ
ትሄዳለህ
ትሄዳለች
ትህትና
ትሆናለች
ትሆን
ትለብሰው
ትለኛለህ
ትለዋለች
ትለው
ትለፋ
ትሉ
ትላለህ
ትላለች
ትላለኽ
ትላላችኹ
ትላልቅ
ትላንት
ትላንትና
ትል
ትልልቅ
ትልልቆቹ
ትልም
ትልስ
ትልቁ
ትልቁም
ትልቁና
ትልቁን
ትልቅ
ትልቅነት
ትልቅና
ትልቋ
ትልን
ትሎች
ትሕትና
ትመራ
ትመራለች
ትመስላለች
ትመና
ትመጣለች
ትማራለች
ትም
ትምሀርት
ትምህርተ
ትምህርቱ
ትምህርቱን
ትምህርታቸውን
ትምህርታዊ
ትምህርቴን
ትምህርት
ትምህርትም
ትምህርትና
ትምህርትን
ትምህርቶቹ
ትምህርቶች
ትምህርቶችን
ትምህርቷ
ትምህርቷን
ትምሕርቱን
ትምሕርታቸውን
ትምሕርት
ትምርት
ትምባሆ
ትምነት
ትምና
ትምጣ
ትሞታለች
ትሥሥር
ትረስት
ትረካ
ትረካዎች
ትሩማን
ትሩምቡል
ትሩታይፕ
ትሩፋት
ትሪ
ትሪሊዮን
ትሪስተን
ትሪቶን
ትሪኒቲ
ትሪፓ
ትራምፔት
ትራምፕ
ትራስ
ትራንስ
ትራንስኒስትሪያ
ትራንስፎርመር
ትራንስፎርሜሽን
ትራንስፖርት
ትራውት
ትራይ
ትራጃን
ትራፊክ
ትራፊክን
ትሬቤታ
ትር
ትርምስ
ትርንጎ
ትርኢት
ትርኢቶች
ትርክት
ትርዒት
ትርዒቶች
ትርጉሙ
ትርጉሙም
ትርጉሙን
ትርጉማቸው
ትርጉም
ትርጉምም
ትርጉምና
ትርጉሞች
ትርጉሞችን
ትርጎሜ
ትርጒም
ትርጓሜ
ትርጓሜን
ትርጓሜው
ትርጓሜውም
ትርጓሜዎች
ትርጓሜዎችን
ትርጕም
ትርፉ
ትርፉን
ትርፋማ
ትርፍ
ትሮትስኪ
ትሮይ
ትሰራለች
ትሰጣለች
ትስስር
ትስስሮች
ትስብዕት
ትሸጥ
ትቀምሽ
ትቀበላለች
ትቀበላላችኹ
ትቅደም
ትቆማለች
ትቆጠራለች
ትቢያ
ትባላለች
ትባል
ትብስ
ትብብር
ትቦ
ትተን
ትተዋል
ትተው
ትተውት
ትታ
ትታወቃለች
ትታወቅ
ትታገማለች
ትታጠቅ
ትቶ
ትቷቸው
ትቼ
ትችላለህ
ትችላለች
ትችላላችሁ
ትችት
ትችቶች
ትችቶችን
ትችያለሽ
ትናም
ትናንሽ
ትናንት
ትናገራለች
ትን
ትንሣኤ
ትንሳኤ
ትንሳዔ
ትንሹ
ትንሹም
ትንሹን
ትንሽ
ትንሿ
ትንበያ
ትንቢተ
ትንቢት
ትንቢቶች
ትንተና
ትንተናና
ትንታኔ
ትንትና
ትንንሽ
ትንኞች
ትንኞችን
ትንኮሳ
ትንጉ
ትንግርት
ትኖራለች
ትኣምን
ትእምርተ
ትእቢት
ትእዛዙን
ትእዛዛት
ትእዛዜን
ትእዛዝ
ትእግስተኛ
ትእግስት
ትከል
ትከሻ
ትከናነበው
ትኩረቱ
ትኩረቱን
ትኩረት
ትኩረትና
ትኩረትን
ትኩሳት
ትኩሳትና
ትኩስ
ትኬት
ትክል
ትክክለኛ
ትክክለኛነት
ትክክለኛና
ትክክለኛው
ትክክለኛውን
ትክክለኛዎቹ
ትክክለኛዎቹን
ትክክል
ትኳቦ
ትኵር
ትኹን
ትኾናላችኹ
ትወልዳለች
ትወስዳለች
ትወና
ትወዳለች
ትወዳለኽን
ትወዳላችኹ
ትወጣለች
ትዉልድ
ትዊተር
ትዋሰናለች
ትዌይን
ትውልደ
ትውልዱ
ትውልዳቸው
ትውልድ
ትውልድና
ትውልድን
ትውልዶች
ትውስታ
ትውፊቱ
ትውፊታዊ
ትውፊት
ትውፊትና
ትውፊቶች
ትዕዛዙ
ትዕዛዙን
ትዕዛዛት
ትዕዛዝ
ትዕዛዝን
ትዕዛዞች
ትዕይንት
ትዕይንቶች
ትዕይንቶችን
ትዕግሥት
ትዕግስት
ትዘክረዋለች
ትዝ
ትዝታ
ትዝታዎች
ትዞራለች
ትያትር
ትይዛለች
ትይዩ
ትደግፋለች
ትዳራቸው
ትዳር
ትገባለች
ትገነዘቡ
ትገናኝ
ትገኛለች
ትጉ
ትጉኀን
ትጋራለች
ትጋት
ትግሉ
ትግሉን
ትግል
ትግልና
ትግልን
ትግሎች
ትግረ
ትግሪኛ
ትግራ
ትግራዋይ
ትግራይ
ትግራይም
ትግራዮች
ትግሬ
ትግሬን
ትግሬዎች
ትግርኛ
ትግርኛና
ትግስት
ትግበራ
ትጠራ
ትጠራለች
ትጠቀሳለች
ትጠብቃለች
ትጠፋለች
ትጥቅ
ትፈልጋለህ
ትፈልጋለች
ትፈልጋላችኹ
ቶ
ቶለሚ
ቶሌዶ
ቶሎ
ቶሎሚ
ቶሎሳ
ቶማስ
ቶማስም
ቶሜ
ቶም
ቶምቦልባይ
ቶራ
ቶርን
ቶሮንቶ
ቶሽ
ቶቤል
ቶቤጎ
ቶታል
ቶኒ
ቶን
ቶንጋ
ቶንግ
ቶኪዮ
ቶክ
ቶክዮ
ቶዮታ
ቶድ
ቶጎ
ቶፋ
ቶፕ
ቷ
ቸ
ቸሃ
ቸሃኛ
ቸል
ቸልተኛ
ቸልተኝነት
ቸር
ቸርቺል
ቸርችል
ቸርነት
ቸብ
ቸን
ቸንግ
ቸኪያ
ቸክ
ቸኮለ
ቸኮላታ
ቸኮል
ቸኮስሎቫኪያ
ቸዋሲ
ቸው
ቹ
ቺ
ቺሊ
ቺሌ
ቺምፓንዚ
ቺቪያን
ቺንግ
ቺካዲ
ቺክን
ቺዝ
ቺያንግ
ቺያንግን
ቻ
ቻለ
ቻለች
ቻሉ
ቻምበር
ቻርለስ
ቻርለስን
ቻርሊ
ቻርልስ
ቻርሎት
ቻርስ
ቻርተር
ቻርት
ቻርጅ
ቻርጆች
ቻቬዝ
ቻቱራንጋ
ቻቴው
ቻናል
ቻናሎች
ቻንስለር
ቻኮ
ቻው
ቻይ
ቻይነኛ
ቻይና
ቻይናና
ቻይናን
ቻይናዊ
ቻይናውያን
ቻይናዎች
ቻይንኛ
ቻድ
ቻግኒ
ቻፕሊን
ቼ
ቼልሲ
ቼኪንግ
ቼኬም
ቼክ
ቼኮስሎቫኪያ
ቼኮዝሎቫኪያ
ቼዝ
ቼፕስ
ች
ችለዋል
ችለው
ችላ
ችላለች
ችሎ
ችሎታ
ችሎታቸው
ችሎታቸውን
ችሎታና
ችሎታን
ችሎታው
ችሎታውን
ችሎታዎች
ችሎታዎችን
ችሎት
ችሎአል
ችሏል
ችርቻሮ
ችሮታ
ችቦ
ችኩል
ችኹ
ችግሩ
ችግሩን
ችግር
ችግርም
ችግርና
ችግርን
ችግሮቹን
ችግሮች
ችግሮችም
ችግሮችን
ችግኝ
ችጎሊ
ችጎይ
ቾ
ቾልጎሽ
ቾምቤ
ቿ
ኀ
ኀበ
ኀዘን
ኀይለ
ኀይል
ኀጢአተኛ
ኀጢአተኛዎች
ኀጢአተኛዎችን
ኀጢአት
ኀጢአትን
ኀጢአትኽ
ኁ
ኁፉ
ኂ
ኃ
ኃላፊ
ኃላፊነቱን
ኃላፊነታቸው
ኃላፊነት
ኃላፊነቶች
ኃላፊዎች
ኃምሳ
ኃሣብ
ኃብተ
ኃብት
ኃያላት
ኃያላን
ኃያል
ኃይለ
ኃይለማሪያም
ኃይለማርያም
ኃይለሥላሴ
ኃይለስላሴ
ኃይለኛ
ኃይለኛው
ኃይሉ
ኃይሉን
ኃይላት
ኃይሌ
ኃይል
ኃይልም
ኃይልና
ኃይልን
ኃይሎች
ኃይሎችን
ኃይማኖታዊ
ኃይማኖት
ኃጢአተኛ
ኃጢአት
ኃጢኣት
ኄ
ኅ
ኅሊና
ኅልው
ኅልውነት
ኅልውና
ኅልዮቱ
ኅልዮት
ኅልዮትና
ኅልዮቶች
ኅሩይ
ኅብረ
ኅብረተሠባዊ
ኅብረተሠብ
ኅብረተሠቦች
ኅብረተሰብ
ኅብረት
ኅብረትን
ኅብስቱን
ኅብስት
ኅዋ
ኅዋን
ኅዙናን
ኅይል
ኅዳር
ኅግጋት
ኆ
ኆኄያት
ኆኅተ
ኆኅት
ኈ
ኊ
ኋ
ኋለኛ
ኋለኛው
ኋለኞቹ
ኋላ
ኋላም
ኋላቀር
ኋሥያ
ኋንዳን
ኋንግ
ኋይ
ኌ
ኍ
ነ
ነሀሴ
ነሃሴ
ነሃስ
ነህ
ነህምያ
ነህሲ
ነህና
ነሐሴ
ነሐስ
ነሕሴት
ነመዳውያን
ነመድ
ነሣ
ነሥቶ
ነሪካሬ
ነርስ
ነርቭ
ነሱ
ነሱት
ነሲቡ
ነሲብ
ነሺሊ
ነሻ
ነሽ
ነቀል
ነቀምት
ነቀርሳ
ነቀፋ
ነቁጣ
ነቅሎ
ነቅቶ
ነበልባል
ነበረ
ነበረበት
ነበረባት
ነበረባቸው
ነበረብኝ
ነበረች
ነበረችና
ነበረና
ነበረን
ነበረኝ
ነበረው
ነበሩ
ነበሩበት
ነበሩባቸው
ነበሩት
ነበሩና
ነበሩዋቸው
ነበራት
ነበራቸው
ነበራችሁ
ነበር
ነበርሽ
ነበርና
ነበርን
ነበርኩ
ነበሯት
ነበሯቸው
ነቢሪራው
ነቢር
ነቢዩ
ነቢያት
ነቢያትም
ነቢያትን
ነቢያችን
ነቢይ
ነባሪ
ነባሪዎች
ነባራዊ
ነባር
ነባታያውያን
ነባዘር
ነብሬ
ነብር
ነብታዊሬ
ነብኑኒ
ነብካውሬ
ነብኸፐትሬ
ነብዩ
ነብዩም
ነብያት
ነብያችን
ነብይ
ነት
ነች
ነነዌ
ነን
ነኘይኝ
ነኛው
ነኝ
ነኝና
ነአኩቶ
ነከሰኝ
ነከስ
ነክ
ነኽ
ነኽበት
ነኽን
ነዉ
ነዋ
ነዋሪ
ነዋሪዎ
ነዋሪዎቹ
ነዋሪዎች
ነዋሪዎችን
ነዋሪዎቿ
ነዋይ
ነዌ
ነው
ነውር
ነውና
ነውን
ነውጥ
ነውጦች
ነዎት
ነዓኩቶ
ነዪ
ነይ
ነዳይ
ነዳጅ
ነዳጆች
ነድሎ
ነድፎ
ነዶ
ነጀሚብሬ
ነጂ
ነገ
ነገሌ
ነገሠ
ነገሠች
ነገሡ
ነገሥቱ
ነገሥቱም
ነገሥቱን
ነገሥታቱ
ነገሥታት
ነገሥታትም
ነገሥታትና
ነገሥታትን
ነገሥት
ነገሥትነት
ነገረ
ነገረችው
ነገረኛ
ነገረኝ
ነገረው
ነገሩ
ነገሩም
ነገሩት
ነገሩን
ነገራቸው
ነገሬ
ነገሬን
ነገር
ነገርህን
ነገርም
ነገርን
ነገርኩት
ነገርዃችኹ
ነገርግን
ነገሮች
ነገሮችም
ነገሮችን
ነገሰ
ነገሱ
ነገስቱ
ነገስቱን
ነገስታት
ነገስት
ነገዎ
ነገደ
ነገድ
ነገዶች
ነጉሥ
ነጋ
ነጋሪ
ነጋሪት
ነጋሲ
ነጋሶ
ነጋሽ
ነጋዴ
ነጋዴወች
ነጋዴዎች
ነጋዴዎችና
ነጋዴዎችን
ነጋድራስ
ነጌቲቭ
ነግ
ነግህ
ነግሦ
ነግረውት
ነግሰዋል
ነግስት
ነግሶ
ነጎዱ
ነጎዳ
ነጎድጓድ
ነጠላ
ነጠላነት
ነጠቅ
ነጠብጣቦች
ነጣ
ነጣቂ
ነጥሎ
ነጥሮን
ነጥቀው
ነጥቆ
ነጥብ
ነጥብና
ነጥብን
ነጥቦቹ
ነጥቦች
ነጥቦችን
ነጨሪኸት
ነጩ
ነጫጭ
ነጭ
ነጭና
ነጮች
ነጮችን
ነጸብራቅ
ነጻ
ነጻነቱን
ነጻነታቸውን
ነጻነት
ነጻነትና
ነጻነትን
ነጻነቶች
ነጻነቶችን
ነጻነቷን
ነጻና
ነፀብራቅ
ነፃ
ነፃነቱን
ነፃነታቸውን
ነፃነት
ነፃነትና
ነፃነትን
ነፃነቶች
ነፃነቶችን
ነፃነቷን
ነፃው
ነፈሪርካሬ
ነፈር
ነፈርሆተፕ
ነፈርካሬ
ነፋ
ነፋሱ
ነፋስ
ነፋስም
ነፋሶች
ነፍሰ
ነፍሱ
ነፍሱን
ነፍሱንም
ነፍሳት
ነፍሳትን
ነፍሳቸውን
ነፍሳችሁ
ነፍሴ
ነፍሴን
ነፍስ
ነፍስን
ነፍሶች
ነፍይ
ነፍጠኛ
ነፍጥ
ነፕቲዩን
ኑ
ኑህ
ኑረዋል
ኑሩ
ኑሪ
ኑር
ኑርኛ
ኑርዳጋል
ኑሮ
ኑሮን
ኑሮአቸውን
ኑሮው
ኑሮውን
ኑሯል
ኑሯቸው
ኑሯቸውን
ኑስ
ኑቢያ
ኑቢያን
ኑቢያውያን
ኑባሬ
ኑብዎሰሬ
ኑብያ
ኑቬል
ኑኅ
ኑና
ኑን
ኑንጋል
ኑክለሳውያን
ኑክሌር
ኑዋክሾት
ኑዋዳ
ኑዌር
ኑዛዜ
ኑያ
ኑግ
ኒ
ኒል
ኒሎተርስ
ኒሎተኖች
ኒሎቲክ
ኒሎቴ
ኒራሕ
ኒራሪ
ኒሳ
ኒስካነን
ኒሸሹ
ኒሺ
ኒሻን
ኒሻው
ኒቆዲሞስ
ኒታይ
ኒነጨር
ኒኑርታ
ኒኑስ
ኒኑዓ
ኒን
ኒኛ
ኒኦሊቲክ
ኒኪታ
ኒካራጓ
ኒክ
ኒክሰን
ኒኮላ
ኒኮላስ
ኒኮላይ
ኒኮሎ
ኒው
ኒውስ
ኒውተናዊ
ኒውተን
ኒውትሮን
ኒውትስ
ኒውዚላንድ
ኒውዚላንድን
ኒውዮርክ
ኒውፖርት
ኒዚ
ኒዤር
ኒዩቫ
ኒያ
ኒያላ
ኒያል
ኒያሳላንድ
ኒያንዛ
ኒዬሬሬ
ኒይያህ
ኒዮ
ኒዮሊቲክ
ኒዮን
ኒጀር
ኒጄል
ኒጄር
ኒፑር
ኒፑርን
ኒፖን
ና
ናሁ
ናሁሰናይ
ናልባንዲያን
ናሑንተ
ናሓሪን
ናሓራይም
ናሓራይን
ናሙ
ናሙና
ናሙናዎች
ናሚቢያ
ናም
ናምሩድ
ናምሩድና
ናምሩድን
ናሩሂቶ
ናራ
ናራም
ናር
ናርመር
ናርሲሲሳዊ
ናርቦን
ናርጋ
ናሰር
ናሲ
ናሲር
ናስ
ናስር
ናሶ
ናሽናል
ናቡ
ናቡከደነጾር
ናቡከደነፆር
ናቫሮ
ናቲኮ
ናታን
ናታንያሁ
ናታኮ
ናት
ናትና
ናትናኤል
ናቶ
ናቸዉ
ናቸው
ናቸውና
ናችሁ
ናችኹ
ናችው
ናኒ
ናኒና
ናና
ናንሲ
ናንሼ
ናንዲ
ናንጂንግ
ናንግ
ናኖ
ናኦ
ናኦድ
ናኮር
ናኮርን
ናኮችታንክ
ናኮኮ
ናዋር
ናዋትል
ናው
ናውሩ
ናዖድ
ናዚ
ናዚዎች
ናዚዝም
ናዝሬት
ናይ
ናይል
ናይሎ
ናይሮቢ
ናይስ
ናይት
ናይትሮጂን
ናይትሮጅን
ናይትስ
ናይኛ
ናይዴው
ናይጄሪያ
ናደው
ናዲን
ናዳ
ናጅራን
ናጊብ
ናጋሳኪ
ናጝ
ናፍቆት
ናፒየር
ናፓታ
ናፖሊ
ናፖሊዎን
ናፖሊዎንን
ናፖሊዮን
ናፖሊዮንን
ናፖሌዎን
ናፖሌዮን
ኔ
ኔህሩ
ኔል
ኔልሰን
ኔሮ
ኔሮን
ኔሴሲቲ
ኔስቶራዊ
ኔሽን
ኔሽንስ
ኔቪስ
ኔቫዳ
ኔታንያሁ
ኔትሬብኮ
ኔትወርክ
ኔትወርክን
ኔትዎርክ
ኔቶ
ኔክሮፖሊስ
ኔዘርላንድ
ኔዘርላንድስ
ኔያንደርታል
ኔጋቲቭ
ኔፐር
ኔፓል
ን
ንም
ንሥር
ንረት
ንሴት
ንስሀ
ንስሐ
ንስሓ
ንስር
ንስንሱን
ንሽ
ንቀት
ንቁ
ንቃ
ንቃተ
ንቅለ
ንቅናቄ
ንቅናቄን
ንቅናቄዎችን
ንቅንቅ
ንቆ
ንቡረ
ንባብ
ንባቦች
ንብ
ንብረቱ
ንብረቱም
ንብረቱን
ንብረታቸው
ንብረታቸውን
ንብረት
ንብረትን
ንብረቶች
ንብረቶችን
ንብብር
ንቦች
ንት
ንትላንድ
ንኝ
ንኡስ
ንክሩማ
ንክሩማህ
ንክሻ
ንክኪ
ንዋየ
ንዋያተ
ንዋይ
ንዑስ
ንዩ
ንዩክሌር
ንዩክሌያር
ንያንጋቶም
ንያንጋቶምኛ
ንዮን
ንዳድ
ንዴት
ንድፈ
ንድፉ
ንድፍ
ንድፍና
ንጃመና
ንጅ
ንገሥታት
ንገረን
ንገረኝ
ንገረው
ንገሩኝ
ንጉሠ
ንጉሡ
ንጉሡም
ንጉሡን
ንጉሣቸው
ንጉሣቸውን
ንጉሣዊ
ንጉሣዊው
ንጉሣዊውን
ንጉሤ
ንጉሥ
ንጉሥም
ንጉሥሽ
ንጉሥነቱን
ንጉሥነት
ንጉሥና
ንጉሦች
ንጉሰ
ንጉሱ
ንጉሱም
ንጉሱን
ንጉሳቸው
ንጉሳችን
ንጉሳዊ
ንጉሴ
ንጉስ
ንጉስነት
ንጉሶች
ንጉዛት
ንጋ
ንጋት
ንጋትና
ንግሊዝ
ንግሡ
ንግሥ
ንግሥተ
ንግሥቱ
ንግሥቲቱ
ንግሥቲቱን
ንግሥት
ንግሥና
ንግሥናውን
ንግርተኛ
ንግሱ
ንግስ
ንግስተ
ንግስቲቱ
ንግስት
ንግስና
ንግድ
ንግድም
ንግድን
ንግዶች
ንግዶችን
ንግግሩ
ንግግሩን
ንግግራቸው
ንግግራቸውን
ንግግር
ንግግርና
ንግግርን
ንግግሮቹ
ንግግሮች
ንግግሮችን
ንጎሥ
ንጣፍ
ንጣፎች
ንጣፎችን
ንጥረ
ንጥረነገር
ንጥረነገሮች
ንጥር
ንጥሮች
ንጹህ
ንጹሐን
ንጹሕ
ንጽጽር
ንፁሀን
ንፁህ
ንፅህና
ንፅፅር
ንፉግ
ንፋስ
ንፋስና
ንፍሮ
ንፍቀ
ንፍጥ
ኖ
ኖህ
ኖም
ኖሞች
ኖረ
ኖረች
ኖረዋል
ኖረው
ኖሩ
ኖራ
ኖራለች
ኖር
ኖርማል
ኖርማን
ኖርማኖች
ኖርስ
ኖርስኛ
ኖርተን
ኖርዌ
ኖርዌይ
ኖርዌይኛ
ኖርዝ
ኖሮ
ኖሮት
ኖሮኽ
ኖሯል
ኖስ
ኖቤል
ኖቪ
ኖቫ
ኖቬምበር
ኖቭጎሮድ
ኖቮ
ኖት
ኖትር
ኖትስ
ኖቶች
ኖኅ
ኖክስ
ኖዊዮማጉስ
ኖዕል
ኗ
ኗሪ
ኗሪው
ኗሪዎቹ
ኗሪዎች
ኘ
ኘን
ኘንግ
ኙ
ኚ
ኛ
ኛነገ
ኛን
ኛዉ
ኛዋ
ኛው
ኛውም
ኛውና
ኛውን
ኜ
ኝ
ኞ
ኞኞ
ኟ
አ
አሀኝ
አሀድ
አሁ
አሁም
አሁኑ
አሁኑኑ
አሁን
አሁንም
አሁኗ
አሂጆ
አሃ
አሃዝ
አሃዞች
አሃዳዊ
አሃድ
አህመድ
አህመድን
አህሞስ
አህሮኖት
አህባሽ
አህባሾች
አህዛብ
አህያ
አህያን
አህዮች
አህጉሩ
አህጉራት
አህጉራዊ
አህጉር
አህጉርን
አህጉሮች
አሆተፕሬ
አለ
አለሁ
አለህ
አለመሆኑ
አለመሆኑን
አለመሆን
አለመመጣጠን
አለመረጋጋት
አለመረጋጋትን
አለመስማማት
አለመቀበል
አለመቻሉ
አለመቻሉን
አለመቻል
አለመኖሩ
አለመኖሩን
አለመኖር
አለመኖርን
አለመከሰቱ
አለመገኘቱ
አለመግባባት
አለመግባባቶች
አለመጠቀም
አለመጣጣም
አለሙ
አለሙን
አለሚቱ
አለማቀፋዊ
አለማቀፍ
አለማችን
አለማኑስ
አለማኒ
አለማዊ
አለማየሁ
አለማየሁን
አለማድረግ
አለም
አለምነህ
አለምን
አለምአቀፍ
አለሞች
አለሽ
አለቀ
አለቀሰ
አለቀሰች
አለቀሱ
አለቁ
አለቃ
አለቃም
አለቃቸው
አለቃነት
አለቃና
አለቃን
አለቃው
አለቃውም
አለቃውን
አለቃዎች
አለቃዎችም
አለቃዎችና
አለቃዬ
አለቆቹ
አለቆቻቸው
አለቆች
አለቆችም
አለቆችን
አለበለዚያ
አለበሱት
አለበት
አለባበሳችን
አለባበስ
አለባት
አለባቸው
አለብህ
አለብን
አለብኝ
አለብዎት
አለቱ
አለት
አለቻት
አለቻቸው
አለች
አለችኝ
አለችዉ
አለችው
አለና
አለን
አለንጋ
አለኝ
አለኝታ
አለዉ
አለው
አለውና
አለዚያ
አለይሂ
አለፈ
አለፉ
አሉ
አሉላ
አሉላን
አሉም
አሉምኒ
አሉበት
አሉባቸው
አሉታዊ
አሉት
አሉና
አሉን
አሉኝ
አሉዋምና
አሉዋት
አሉዋቸው
አሊ
አሊና
አሊን
አሊያ
አሊያህ
አሊያም
አሊጋዝ
አሊፍ
አላህ
አላህም
አላህና
አላህን
አላለም
አላለፈም
አላለፉም
አላሉም
አላላኽ
አላላኽን
አላልፍም
አላመኑም
አላመጣም
አላማ
አላማቸው
አላማው
አላምነውም
አላምጦ
አላስተዋሉም
አላስካ
አላስካን
አላስፈላጊ
አላቂ
አላቋረጠም
አላባ
አላባማ
አላባኛ
አላት
አላቸዉ
አላቸው
አላቸውም
አላችሁ
አላችኹ
አላችው
አላነበባችኹምን
አላኒያ
አላን
አላንድ
አላከናወነም
አላወቀም
አላወቀውም
አላወቁም
አላዋቂ
አላውቀውም
አላውቃቸውም
አላውቅም
አላውያን
አላየሁም
አላደረገም
አላደረጉም
አላገኘ
አላገኘም
አላገኙም
አላግባብ
አላፊ
አሌ
አሌክሳንደር
አሌክሳንድሪያ
አሌክሳንድር
አሌክስ
አሌግራ
አሌፍ
አሌፖ
አል
አልሀረሪ
አልሀበሺ
አልሆነም
አልሆነችም
አልሆኑም
አልላክንም
አልመለሰም
አልመንድ
አልመጣም
አልመጣኹም
አልሙኒየም
አልማ
አልማን
አልማዝ
አልሜዳ
አልሞዳድ
አልሰጠም
አልሰጠውም
አልሰጡም
አልሰጥም
አልሲ
አልሳስ
አልቀረም
አልቀሩም
አልቀበልም
አልቃሹ
አልቃሽ
አልቃይዳ
አልቅሶ
አልቆ
አልቆየም
አልበላም
አልበሙ
አልበሙን
አልበም
አልበሞች
አልበሞችን
አልበሟ
አልበርት
አልበኝነት
አልቢን
አልቢዮን
አልባ
አልባሌ
አልባሳት
አልባኒያ
አልባንስ
አልቤር
አልቤርቶ
አልብስ
አልብሶ
አልቦ
አልቫ
አልቫራዶ
አልቫሬዝ
አልተለወጠም
አልተመለሱም
አልተረጋገጠም
አልተሰጠም
አልተሳተፈችም
አልተሳካም
አልተቀበለም
አልተቀበለችም
አልተቀበለውም
አልተቀበሉም
አልተቀበሉትም
አልተቀየረም
አልተቻለም
አልተቻለውም
አልተናገረም
አልተከናወነም
አልተወውም
አልተደረገም
አልተገኘም
አልተገኙም
አልተጠቀመም
አልተጠናቀቀም
አልተፈቀደም
አልተፈጠረም
አልተፈጸመም
አልታ
አልታወቀም
አልታዘዙም
አልታየም
አልቶ
አልቻለም
አልቻለችም
አልቻሉም
አልቻልኩም
አልችልም
አልነበረም
አልነበረበትም
አልነበረኝም
አልነበረውም
አልነበሩም
አልነበራትም
አልነበራቸውም
አልነው
አልን
አልኖረም
አልኩ
አልኩት
አልኩና
አልካላይ
አልኬሚ
አልኮሆል
አልኮል
አልኮልን
አልኳቸው
አልኽ
አልወደደም
አልወድም
አልወድሽ
አልወጣ
አልወጣም
አልዓዛር
አልዓዛርን
አልዩ
አልያም
አልያቴስ
አልደረሰም
አልደፈረም
አልድሪን
አልጀሪያ
አልጀብራ
አልጄሪያ
አልጄሪያን
አልጄሪያውያን
አልገባም
አልጋ
አልጋወራሽ
አልጋው
አልጋውን
አልጋዎች
አልጎንኲያን
አልጫ
አልፈለገም
አልፈለጉም
አልፈልግም
አልፈራም
አልፈቀደላቸውም
አልፈቀደም
አልፈዋል
አልፈው
አልፋ
አልፋለች
አልፋቤት
አልፋቤትና
አልፋቤቶች
አልፍሬድ
አልፍሬዶ
አልፎ
አልፎም
አልፎንሶ
አልፏል
አልፓይን
አልፕስ
አሎ
አሎዲያ
አሏህ
አሏት
አሏቸው
አሐ
አሐይመኒድ
አሐዱ
አሔ
አሕመድ
አሕሞስ
አሕዛብ
አሕዛብም
አሕዛብን
አመ
አመለከተ
አመለካከታቸው
አመለካከታቸውን
አመለካከት
አመለካከቶቹን
አመለካከቶች
አመለካከቶችን
አመለጠ
አመለጠኝ
አመለጡ
አመሉ
አመላላሽ
አመላካች
አመል
አመልማሎ
አመልካች
አመልክተዋል
አመልክቷል
አመሏ
አመሠራረት
አመሩ
አመራ
አመራረጥ
አመራር
አመራርና
አመራሮች
አመራሮችን
አመር
አመርቂ
አመሰራረት
አመሰገነ
አመሰገነች
አመሰግናለሁ
አመሳስለውታል
አመሻሽ
አመተ
አመቱ
አመቱን
አመታት
አመታትን
አመታቸው
አመታዊ
አመት
አመትና
አመቶች
አመቷ
አመቺ
አመቻችተዋል
አመቻችቷል
አመነ
አመነምሃት
አመኑ
አመኒ
አመኔታ
አመን
አመንሆተፕ
አመንቲው
አመንን
አመንዝራ
አመንጪዎች
አመክንዮ
አመዳም
አመዳይ
አመዴ
አመድ
አመድነት
አመድና
አመጋገባቸውን
አመጋገብ
አመጡ
አመጡለት
አመጡት
አመጣ
አመጣት
አመጣች
አመጣው
አመጣጡ
አመጣጡም
አመጣጣቸው
አመጣጣቸውን
አመጣጥ
አመጣጥን
አመጸ
አመጸኛ
አመጸኞቹን
አመጸኞች
አመጹ
አመጹን
አመጽ
አመጽና
አመጾች
አመጾችን
አመፁ
አመፅ
አሙ
አሙሩ
አሙና
አሙናም
አሙን
አሚ
አሚር
አሚስታድ
አሚኑም
አሚና
አሚን
አሚንን
አማላጅ
አማላጅነት
አማሌቅ
አማልክት
አማረ
አማረሽን
አማረኛ
አማሪ
አማራ
አማራት
አማራን
አማራው
አማራዎች
አማራጭ
አማራጮች
አማራጮችን
አማር
አማርና
አማርኛ
አማርኛን
አማሮች
አማቱ
አማቲ
አማት
አማቷ
አማቹ
አማች
አማችን
አማኑኤል
አማኒት
አማና
አማን
አማንዳ
አማኝ
አማኞች
አማካሪ
አማካሪም
አማካሪነት
አማካሪና
አማካሪዎች
አማካሪዎችን
አማካኝ
አማካኝት
አማካኝነት
አማካይ
አማካይነት
አማዞን
አማዞኖች
አማዱ
አማፂ
አማፂዎች
አማፂያን
አማፅያን
አሜሪካ
አሜሪካና
አሜሪካን
አሜሪካዊ
አሜሪካዊት
አሜሪካዊው
አሜሪካዊያን
አሜሪካውያን
አሜሪካውያንን
አሜሪካዎች
አሜባ
አሜን
አም
አምላከ
አምላኩ
አምላኩን
አምላኪ
አምላኪነት
አምላካቸው
አምላካችን
አምላካዊ
አምላኬ
አምላክ
አምላክህ
አምላክህን
አምላክም
አምላክና
አምላክን
አምልኩ
አምልኩኝ
አምልክ
አምልኮ
አምልኮተ
አምልኮት
አምልኮን
አምልጠው
አምልጦ
አምሐራ
አምሓራ
አምሣ
አምሥተኛ
አምሥተኛው
አምሥት
አምራች
አምራችነት
አምራቾች
አምራፌል
አምርሮ
አምርቶ
አምሳ
አምሳሉ
አምሳል
አምሳያ
አምስተርዳም
አምስተኛ
አምስተኛዋ
አምስተኛው
አምስተኛውን
አምስቱ
አምስቱም
አምስቱን
አምስት
አምበል
አምበር
አምበሳ
አምበሳው
አምበሶች
አምበድካር
አምቡላንስ
አምባ
አምባላጌ
አምባር
አምባሰል
አምባሳደር
አምባሳደሮች
አምባሳደሮችን
አምባሳዶር
አምባሳዶርነት
አምባን
አምባው
አምባውን
አምባዎች
አምባገነኑ
አምባገነናዊ
አምባገነናዊው
አምባገነን
አምባገነንነት
አምቦ
አምኃ
አምኅራ
አምነስቲ
አምነን
አምነዋል
አምነው
አምና
አምናለሁ
አምኖ
አምኗል
አምክንዮ
አምክንዮን
አምክንዮአዊ
አምደ
አምደኛ
አምዴ
አምድ
አምዶች
አምጡ
አምጡልኝ
አምጣ
አምጥተው
አምጥቶ
አምጥቷል
አምጪ
አምጭ
አምጸው
አምፊቢያን
አምፑል
አምፖል
አሞሌ
አሞራ
አሞራዊ
አሞራዊው
አሞራውያን
አሞራውያንን
አሞራዎች
አሞን
አሠረ
አሠራ
አሠራሩ
አሠራር
አሠራች
አሠርተዋል
አሣ
አሣል
አሣብ
አሣን
አሥመራ
አሥረኛው
አሥሩ
አሥራ
አሥራት
አሥር
አሥርተ
አሥርታት
አሦራዊ
አሦራውያን
አሦር
አሦርን
አሦርኛ
አረ
አረመኔ
አረመኔነት
አረመኔዎች
አረመኔያዊ
አረማዊ
አረማይስጥ
አረማይክ
አረም
አረሞች
አረቄ
አረቢያ
አረቢያን
አረባዊ
አረባዊነት
አረብ
አረብኛ
አረብያ
አረቦች
አረቦችን
አረንጓዴ
አረንጓዴና
አረንጓዴው
አረደ
አረገ
አረገዘች
አረጋ
አረጋቹህለት
አረጋዊ
አረጋይ
አረጋገጠ
አረጋገጡ
አረጋግጠዋል
አረጋግጦ
አረጋግጧል
አረፈ
አረፈች
አረፈና
አረፈው
አረፉ
አረፋ
አረፍተ
አረፍተነገር
አሩ
አሩባ
አሪ
አሪስጣጣሊስ
አሪኛ
አሪዞና
አሪዩስ
አሪያኒስም
አሪያን
አሪፍ
አራማውያን
አራማያ
አራማይስጥ
አራማይክ
አራማጅ
አራማጆች
አራም
አራራት
አራስ
አራሽ
አራተኛ
አራተኛዋ
አራተኛው
አራተኛውም
አራተኛውን
አራቱ
አራቱም
አራቱን
አራቱንም
አራታ
አራታን
አራት
አራዊት
አራዊትና
አራዊትን
አራያ
አራዳ
አራዴዎን
አራድ
አራጋው
አራጣ
አራጳን
አራፋት
አራፓሆ
አራፕ
አራፕኻ
አሬራ
አሬን
አር
አርል
አርመሽው
አርመኒያ
አርመናዊ
አርመን
አርመኖች
አርሚ
አርማ
አርማታ
አርማዎች
አርማዳ
አርማጭሆ
አርሜኒያ
አርሜንኛ
አርሜይ
አርም
አርምስትሮንግ
አርሞንኤም
አርሪዳ
አርሰር
አርሲ
አርሴማ
አርስ
አርስት
አርሶ
አርቀም
አርቃ
አርቆ
አርበ
አርበኛ
አርበኛው
አርበኞት
አርበኞቹ
አርበኞች
አርበኞችና
አርበኞችን
አርቢት
አርቢዎች
አርባ
አርብ
አርብቶ
አርቦሬ
አርቦርኛ
አርተር
አርቲለሪ
አርቲሜቲክ
አርቲስቲክ
አርቲስት
አርቲስቶች
አርቲስቶችን
አርታታማ
አርታኢ
አርታኢነት
አርታኢዎች
አርት
አርትሮስፒራ
አርትስ
አርነት
አርኑዋንዳ
አርንጓዴ
አርኖልድ
አርአያ
አርእስቱ
አርእስት
አርእስቶች
አርኪሜድስ
አርኪቴክት
አርኪኦሎጂስቶች
አርኪዮሎጂ
አርካንሳው
አርካይቭ
አርክ
አርክቲክ
አርክቴክት
አርክቴክቶች
አርክቴክቸር
አርዋዲ
አርዋድ
አርዓድ
አርዕስት
አርዕስቶች
አርዘ
አርዛዋ
አርያን
አርያኖች
አርዲስ
አርድ
አርዶ
አርጀንቲና
አርጀንቲናዊ
አርገን
አርገው
አርጉስ
አርጋው
አርግዟል
አርጎ
አርጎባ
አርጎባባ
አርጎባዎች
አርጎብኛ
አርጎብኛን
አርጎት
አርፈዋል
አርፈው
አርፋለች
አርፋክስድ
አርፎ
አርፏል
አሮስቶ
አሮባት
አሮን
አሮጊት
አሮጌ
አሮጌው
አሮጌውን
አሰላ
አሰላለፍ
አሰልበርህት
አሰልቺ
አሰልጣኙ
አሰልጣኝ
አሰልጣኞች
አሰልፎ
አሰሙ
አሰማ
አሰማራ
አሰሩ
አሰሩት
አሰሪ
አሰራሩ
አሰራር
አሰራርን
አሰራሮች
አሰራሮችን
አሰርተዋል
አሰርተው
አሰሳ
አሰቃቂ
አሰበ
አሰበች
አሰቡ
አሰባሰብ
አሰባስቦ
አሰብ
አሰብኩ
አሰናበተ
አሰንሽንና
አሰያየም
አሰገድ
አሰግድ
አሰጣጥ
አሰፈረ
አሰፋ
አሰፋፈር
አሱል
አሲዘው
አሲድ
አሳ
አሳለፈ
አሳላፊ
አሳልፈዋል
አሳልፈው
አሳልፋለች
አሳልፎ
አሳልፏል
አሳመነ
አሳማ
አሳማኝ
አሳም
አሳምነው
አሳርፎ
አሳሳል
አሳሳቢ
አሳሳቢነት
አሳሳች
አሳስበዋል
አሳስቢ
አሳስቧል
አሳሽ
አሳሾች
አሳቢ
አሳብ
አሳተመ
አሳተሙ
አሳታሚ
አሳታሚው
አሳትመዋል
አሳትሞ
አሳትሟል
አሳንፀው
አሳክቷል
አሳወቀ
አሳወቁ
አሳውም
አሳውቀዋል
አሳውቋል
አሳዛኝ
አሳየ
አሳየን
አሳየኝ
አሳየው
አሳዩ
አሳያቸው
አሳዬ
አሳይ
አሳይተዋል
አሳይታ
አሳይታለች
አሳይቶ
አሳይቷል
አሳደገ
አሳዳሪ
አሳዳጊ
አሳድ
አሳድረዋል
አሳድሯል
አሳድን
አሳፋሪ
አስ
አስለቅቀው
አስመለሰ
አስመለሰው
አስመለሱ
አስመልክቶ
አስመራ
አስመርቋል
አስመሳይ
አስመስለው
አስመስሎ
አስመስክሯል
አስመዘገበ
አስመዝግበዋል
አስመዝግባለች
አስመዝግቧል
አስመጥተው
አስመጪ
አስማ
አስማተኛ
አስማተኞች
አስማት
አስረስ
አስረከበ
አስረከበች
አስረከቡ
አስረካቢ
አስረካቢው
አስረካቢዎች
አስረካቢዎችን
አስረክቧል
አስረው
አስረዳ
አስረድቷል
አስረግጠው
አስረግጦ
አስሩ
አስራ
አስራተ
አስራት
አስር
አስርቱ
አስርት
አስሮ
አስቀመጠ
አስቀመጠው
አስቀመጡ
አስቀመጡት
አስቀምጠዋል
አስቀምጠው
አስቀምጦ
አስቀምጦታል
አስቀምጧል
አስቀምጧታል
አስቀረጸ
አስቀያሚ
አስቀድመው
አስቀድማ
አስቀድማችኹ
አስቀድሜ
አስቀድሞ
አስቀጠለ
አስቂኝ
አስቆራጭ
አስቆሳይ
አስቆጥሯል
አስበው
አስባ
አስባለሁ
አስቤ
አስብ
አስቦ
አስተላለፈ
አስተላለፉ
አስተላላፊ
አስተላላፊና
አስተላላፊዎች
አስተላልፈዋል
አስተላልፏል
አስተማማኝ
አስተማረ
አስተማረች
አስተማረው
አስተማሩ
አስተማሪ
አስተማሪነቱን
አስተማሪና
አስተማሪው
አስተማሪዎች
አስተማራቸው
አስተማሮች
አስተምህሮ
አስተምህሮት
አስተምህሮው
አስተምረዋል
አስተምር
አስተምሮ
አስተምሯል
አስተርጓሚ
አስተሳሰቡ
አስተሳሰብ
አስተሳሰብን
አስተሳሰቦች
አስተሳስብ
አስተሳስቦች
አስተባባሪ
አስተባባሪነት
አስተባብለዋል
አስተባብሮ
አስተናጋጁ
አስተናጋጅ
አስተናጋጆችን
አስተናግዳለች
አስተኔ
አስተኔዎች
አስተካካይ
አስተካካዮቹ
አስተካክል
አስተካክሎ
አስተዋሉ
አስተዋወቀ
አስተዋውቀዋል
አስተዋውቋል
አስተዋይ
አስተዋይነት
አስተዋጦ
አስተዋጽኦ
አስተዋጽዖ
አስተዋጾ
አስተዋፅኦ
አስተዋፅዖ
አስተዋፆ
አስተውል
አስተያየታቸውን
አስተያየት
አስተያየቶች
አስተዳደሩ
አስተዳደሩን
አስተዳደራዊ
አስተዳደር
አስተዳደርና
አስተዳደርን
አስተዳደሮች
አስተዳደጉ
አስተዳደግ
አስተዳደግና
አስተዳዳሪ
አስተዳዳሪነት
አስተዳዳሪው
አስተዳዳሪዎች
አስተዳድረዋል
አስታራቂ
አስታወቀ
አስታወቀች
አስታወቁ
አስታውሰዋል
አስታውሱ
አስታውሳለሁ
አስታውስ
አስታውቀዋል
አስታውቃለች
አስታውቋል
አስታጥቄ
አስቴር
አስትሮኖሚ
አስትኔ
አስቶን
አስቸኳይ
አስቸገረ
አስቸጋሪ
አስቻለ
አስችሎታል
አስችሏል
አስችሏታል
አስችሏቸዋል
አስነሡ
አስነሣው
አስነሱ
አስነሳ
አስነስቶ
አስነስቷል
አስናፈር
አስከ
አስከሬኑ
አስከሬኑን
አስከሬን
አስከባሪ
አስከባሪዎች
አስከተለ
አስከተሉ
አስከትለዋል
አስከትለው
አስከትሎ
አስከትሏል
አስከናዝ
አስከፊ
አስከፊው
አስኪያጅ
አስኪያጅነት
አስክሬን
አስኳል
አስወሩብኝ
አስወድ
አስወገደ
አስወገዱ
አስወግደዋል
አስወግደው
አስወግዶ
አስወጡ
አስወጣ
አስወጣቸው
አስወጥቶ
አስወጪ
አስዋን
አስያ
አስደሳች
አስደነቀኝ
አስደናቂ
አስደንጋጭ
አስጀመረ
አስገራሚ
አስገበረ
አስገቡ
አስገባ
አስገብተዋል
አስገብተው
አስገብተውት
አስገብቶ
አስገኘ
አስገኝተዋል
አስገኝቷል
አስገደደው
አስገደዱ
አስገደዳቸው
አስገዳይ
አስገዳጅ
አስገድዶ
አስገድዶታል
አስጊ
አስጠርተው
አስጠነቀቀው
አስጠንቅቀዋል
አስጠንቅቋል
አስጨረሱ
አስጨናቂ
አስጨንቆ
አስጸያፊ
አስፈለገ
አስፈላጊ
አስፈላጊነቱ
አስፈላጊነት
አስፈላጊነትን
አስፈላጊው
አስፈላጊውን
አስፈሪ
አስፈሪው
አስፈጻሚ
አስፈፃሚ
አስፈፃሚው
አስፈፃሚዎች
አስፋ
አስፋልት
አስፋው
አስፋውን
አስፋፉ
አስፋፋ
አስፋፍቷል
አስፍረዋል
አስፍረውታል
አስፍሮታል
አስፍሯል
አሶሳን
አሸር
አሸባሪ
አሸባሪዎች
አሸብር
አሸተን
አሸነፈ
አሸነፈች
አሸነፈና
አሸነፈው
አሸነፈውና
አሸነፉ
አሸነፉት
አሸነፉዋቸው
አሸነፋቸው
አሸነፋቸውና
አሸናፊ
አሸናፊነት
አሸናፊው
አሸናፊዎቹ
አሸናፊዎች
አሸን
አሸንዳ
አሸንፈዋል
አሸንፈው
አሸንፋ
አሸንፋለች
አሸንፎ
አሸንፏል
አሸዋ
አሸዋማ
አሹር
አሻ
አሻሚ
አሻራ
አሻራቸውን
አሻራዎች
አሻሮ
አሻሽሎ
አሻቅቦ
አሻንቲ
አሻንጉሊት
አሻግሬ
አሻግሮ
አሻፈረኝ
አሽ
አሽሊ
አሽከር
አሽከርካሪዎች
አሽከሮች
አሽኩር
አሾካ
አቀላጥፈው
አቀላጥፎ
አቀማመጡ
አቀማመጣዊ
አቀማመጥ
አቀማመጥና
አቀማመጥን
አቀማጥ
አቀረበ
አቀረበላት
አቀረበላቸው
አቀረበች
አቀረቡ
አቀራረብ
አቀራረቦች
አቀበት
አቀባበል
አቀባይ
አቀነባባሪ
አቀኑ
አቀና
አቀናባሪ
አቀናባሪዎች
አቀንቃኝ
አቀንቃኞች
አቀዝቅዞ
አቀፉ
አቀፋዊ
አቀፍ
አቁመው
አቁማዳ
አቁም
አቁሞ
አቁሟል
አቃቂ
አቃቢ
አቃቢነት
አቃቤ
አቃተው
አቃታቸው
አቃጠለ
አቃጠሉ
አቃጠሉት
አቃጥለዋል
አቃጥለው
አቃፊ
አቅመ
አቅሙ
አቅሙን
አቅማ
አቅማቸው
አቅማችንን
አቅማዳ
አቅም
አቅምን
አቅሟ
አቅራቢ
አቅራቢነት
አቅራቢው
አቅራቢያ
አቅርበዋል
አቅርበው
አቅርቡልኝ
አቅርባለች
አቅርቦ
አቅርቦት
አቅርቦትን
አቅርቦቶች
አቅርቦቶችን
አቅርቧል
አቅቶይ
አቅቷት
አቅቷቸው
አቅኑ
አቅንተው
አቅንቶ
አቅኚ
አቅድ
አቅዶ
አቅጣጫ
አቅጣጫዊ
አቅጣጫው
አቅጣጫውን
አቅጣጫዎች
አቅፍ
አቅፎ
አቆመ
አቆመው
አቆሙ
አቆስጣ
አቆጣጠር
አቆጣጠርን
አቆጣጠሮች
አቈልቋዩ
አቋሙ
አቋሙም
አቋሙን
አቋማቸው
አቋማቸውን
አቋም
አቋሞች
አቋረጠ
አቋራጭ
አቋርጠዋል
አቋርጠው
አቋርጦ
አቋርጧል
አቋቁመዋል
አቋቁመው
አቋቁሟል
አቋቋመ
አቋቋመች
አቋቋሙ
አቋቋም
አበላሉ
አበላሽ
አበል
አበረታቷል
አበረከተ
አበረከተላት
አበራ
አበርክተዋል
አበርክታለች
አበርክቷል
አበሳሰል
አበሻ
አበቃ
አበቃለት
አበቃቀሉ
አበበ
አበበን
አበባ
አበባም
አበባና
አበባን
አበባው
አበባዎች
አበባዬ
አበብ
አበቦቹ
አበቦች
አበቦችን
አበው
አበይት
አበደ
አበደረ
አበዳሪ
አበድሪኝ
አበጋዙ
አበጋዝ
አበጋዞች
አበጠ
አቡ
አቡሊድስ
አቡል
አቡም
አቡበከር
አቡበክር
አቡበክርም
አቡነ
አቡና
አቡን
አቡካዶ
አቡድ
አቡጃ
አቡጊዳ
አቢ
አቢማኤል
አቢሜሌክ
አቢሲኒካ
አቢሲኒያ
አቢሲኒያን
አቢሲኒያኖች
አቢሲኒያውያን
አቢሳሬ
አቢን
አቢያ
አቢይ
አቢዶስ
አባ
አባላቱ
አባላቱን
አባላት
አባላትም
አባላትን
አባላቶች
አባል
አባልነት
አባልና
አባሎቻቸው
አባሎች
አባረረ
አባረረው
አባረረውና
አባረሩት
አባረራቸው
አባረሯቸው
አባሪ
አባርረው
አባርሮ
አባርሳል
አባሮ
አባስ
አባባ
አባባሉ
አባባል
አባባሎች
አባባሻ
አባተ
አባቱ
አባቱና
አባቱን
አባታቸው
አባታቸውን
አባታችን
አባታችንም
አባታችኹ
አባታዊ
አባቴ
አባቴን
አባት
አባትህ
አባትም
አባትና
አባትን
አባትኽ
አባትኽንና
አባቶቻቸው
አባቶቻችን
አባቶቻችኹ
አባቶች
አባቶችና
አባቷ
አባቷን
አባና
አባወራ
አባወራዎች
አባዜ
አባያ
አባይ
አባይን
አባዲር
አባድር
አቤ
አቤል
አቤሴሎም
አቤቱ
አቤቱታ
አቤት
አቤቶ
አቤይ
አብ
አብላጫ
አብላጫው
አብላጫውን
አብልጦ
አብም
አብረሃ
አብረህ
አብረን
አብረዋቸው
አብረው
አብረውት
አብራ
አብራም
አብራሪ
አብራሪው
አብራሪዎቹ
አብራሪዎች
አብራሪዎችና
አብራርተዋል
አብራኝ
አብራው
አብርሀም
አብርሃ
አብርሃማዊ
አብርሃም
አብርሃምና
አብርሃምን
አብርሐም
አብርዬ
አብሮ
አብሮት
አብሯቸው
አብሳሪ
አብስ
አብሶ
አብሽ
አብቅተዋል
አብቅቶ
አብቅቷል
አብነት
አብን
አብካዝያ
አብዛሀኛዎቹ
አብዛኛዉ
አብዛኛው
አብዛኛውን
አብዛኛዎቹ
አብዛኛዎቹን
አብዛኞቹ
አብዛኞቹም
አብዛኞቹን
አብዛኞች
አብዝተው
አብዝቶ
አብያተ
አብያተክርስቲያናት
አብዬ
አብይ
አብዮተኛ
አብዮቱ
አብዮታዊ
አብዮት
አብዮቶች
አብደላ
አብደላህ
አብደል
አብዱ
አብዱላ
አብዱላሂ
አብዱላህ
አብዱል
አብዱልከሪም
አብዱሏህ
አብዱራህማን
አብዲ
አብዲሣ
አብዲራሺድ
አብዲሳ
አብድ
አብዶ
አብጃድ
አብጃዶች
አብጋር
አብጋሮስ
አቦ
አቧራ
አቪቭ
አቪዬሽን
አቫሪስ
አቫሮች
አቬኑ
አቬንቲኑስ
አተላ
አተም
አተሞች
አተረጓጎም
አተረፈ
አተር
አተርን
አቲስ
አቲከም
አቲካ
አቲድ
አታ
አታላይ
አታመንዝር
አታምኑኝም
አታቱርክ
አታነሳም
አታውሰው
አታውቁም
አታውቁምና
አታውቁምን
አታውቅም
አታውጧት
አታደፍርሽብኝ
አታድርግ
አታጋራ
አታግባን
አቴና
አት
አትሁን
አትላስ
አትላንቲክ
አትላንታ
አትሌቲክ
አትሌቲክስ
አትሌቲኮ
አትሌት
አትሌቶች
አትመስክር
አትመኝ
አትሞትም
አትሥሩ
አትረሳ
አትርሳ
አትርፏል
አትስረቅ
አትስጠው
አትቀበልም
አትቆረጠምም
አትበለው
አትበላ
አትበል
አትበይ
አትበድል
አትብላ
አትችሉም
አትችልም
አትናቴዎስ
አትናገር
አትንገር
አትከልክለው
አትክልት
አትክልትና
አትክልትን
አትክልቶች
አትዋል
አትዘለውም
አትግደል
አትጠነቀቁምን
አትጠገብ
አትጥላ
አትጥራ
አትጨነቁ
አትጫወት
አትጮህም
አትፍረዱ
አትፍረድ
አትፍሩ
አትፍራ
አትፍታ
አቶ
አቶሚክ
አቶማዊ
አቶም
አቸፈር
አቻ
አቻዎቻቸው
አቼቤ
አኅጉር
አነ
አነሡ
አነሣ
አነር
አነሰው
አነሱ
አነሳ
አነሳሳ
አነሳስ
አነሳስተዋል
አነሳስቷል
አነሳስቷቸዋል
አነሳሽ
አነሳሽነት
አነሳች
አነስ
አነስተኛ
አነቀው
አነበበ
አነገጋገር
አነጋገሩ
አነጋገር
አነጋገሮች
አነጋጋሪ
አነጣጥሮ
አኑም
አኑራደፑረ
አኒሜ
አኒሜሽን
አኒታ
አኒዩስ
አኒዮ
አና
አናላይሲስ
አናርኪስት
አናሲሞስ
አናሳ
አናሳዎች
አናባቢ
አናባቢዎቹ
አናባቢዎች
አናቱ
አናቲ
አናት
አናቶሊ
አናቶሊያ
አናቶሊያን
አናናስ
አናን
አናክሲማንደር
አናውቅም
አናጝ
አናጢ
አኔ
አን
አንሥቶ
አንሪ
አንሰግድም
አንሳ
አንስተኛ
አንስተዋል
አንስተው
አንስታይ
አንስታይን
አንስት
አንስቶ
አንስቶች
አንስቷል
አንሺ
አንሻን
አንሻንን
አንቀላፋ
አንቀላፋች
አንቀሳቀሰ
አንቀሳቃሽ
አንቀበልም
አንቀጽ
አንቀጾች
አንቀፅ
አንቀፆች
አንቅቲፊ
አንቆ
አንበሣ
አንበሳ
አንበሳነት
አንበሳውም
አንበሴ
አንበሶች
አንበጣ
አንባቢ
አንባቢን
አንባቢው
አንባቢዎች
አንባብያን
አንብብ
አንብቦ
አንብቧል
አንተ
አንተም
አንተስ
አንተነህ
አንተን
አንተው
አንተፍ
አንቱ
አንቲ
አንቲጋ
አንታርክቲካ
አንታርክቲክ
አንታዮስ
አንቴና
አንት
አንትሮፖሎጂ
አንቶኒ
አንቶኒን
አንቶኒዮ
አንቶን
አንቺ
አንቺም
አንቺን
አንች
አንችልም
አንከሻ
አንከሻና
አንኩስ
አንካራ
አንኮ
አንኮር
አንኮበር
አንኳ
አንኳር
አንዋር
አንደ
አንደማንቱኑም
አንደርሰን
አንደበተ
አንደበቱ
አንደበት
አንደኛ
አንደኛዋ
አንደኛው
አንደኛውን
አንደዜ
አንዱ
አንዱም
አንዱና
አንዱን
አንዱንም
አንዱዋ
አንዲሁም
አንዲቱ
አንዲቱን
አንዲት
አንዲትም
አንዳርጋቸው
አንዳቸው
አንዳቸውም
አንዳቸውን
አንዳች
አንዳችም
አንዳንዱ
አንዳንዱን
አንዳንዴ
አንዳንዴም
አንዳንድ
አንዳንድም
አንዳንዶቹ
አንዳንዶቹም
አንዳንዶቹን
አንዳንዶች
አንዴ
አንድ
አንድህዋሴ
አንድላይ
አንድም
አንድምታ
አንድሪው
አንድሪያ
አንድሬ
አንድሬስ
አንድሬን
አንድነታቸውን
አንድነት
አንድነትና
አንድነትን
አንድነቷን
አንድን
አንድንም
አንድዋ
አንድያ
አንድዮሽ
አንዶም
አንዶራ
አንዶቹ
አንዶች
አንዷ
አንዷን
አንጀለስ
አንጀት
አንጂ
አንጃዎች
አንጄሎ
አንጄሎም
አንጄሎን
አንጅለስ
አንገብጋቢ
አንገቱ
አንገቱን
አንገታቸውን
አንገት
አንገቷን
አንጋቦ
አንጋፋ
አንጋፋው
አንጌላ
አንግሊካን
አንግሊያ
አንግል
አንግሎ
አንግሪ
አንግቤ
አንጎለላ
አንጎላ
አንጎል
አንጎት
አንጓ
አንጠፍ
አንጥረኛ
አንጥረኞች
አንጥፉልኝ
አንጸባራቂ
አንጻራዊ
አንጻራዊነት
አንጻር
አንጻርዊ
አንጾኪያ
አንፀባራቂ
አንፃራዊ
አንፃራዊነት
አንፃር
አንፈልግም
አንፊሎኛ
አኖ
አኖረ
አኖረው
አኖሩ
አኗኗር
አኙዋክ
አኙዋክኛ
አእላፋት
አእላፍ
አእምሮ
አእዋፍ
አከራካሪ
አከርካሪ
አከበረ
አከበሩ
አከበባውን
አከባበር
አከባቢ
አከባቢን
አከባቢው
አከባቢዎች
አከባቢዎችን
አከተመ
አከናወነ
አከናወኑ
አከናውኗል
አከፋፈል
አኩሪ
አኩርጋል
አኩሱማውያን
አኩሱማይት
አኩሱም
አኪሂቶ
አኪቫ
አካሂደዋል
አካሂደው
አካሂዷል
አካሄደ
አካሄዱ
አካሄዳቸው
አካሄድ
አካለ
አካሉ
አካሉን
አካላቱ
አካላት
አካላትን
አካላቶች
አካላቸው
አካላዊ
አካላዊነት
አካል
አካልና
አካልን
አካሎች
አካባቢ
አካባቢን
አካባቢዋ
አካባቢው
አካባቢውን
አካባቢዎች
አካባቢዎችም
አካባቢዎችን
አካባቢያቸውን
አካባቢያዊ
አካታች
አካትቷል
አካቶ
አካቷል
አካውንት
አካዳሚ
አካዳውያን
አካዴሚ
አካድ
አካድን
አካድኛ
አካድኛን
አካፈሉ
አክሊሉ
አክሊሉን
አክሊል
አክልበ
አክራ
አክራሪ
አክራሪዎች
አክሰስ
አክሱማውያን
አክሱማይ
አክሱም
አክሲዮን
አክሲዮኖች
አክስ
አክስት
አክሻክ
አክብረው
አክብር
አክብሮት
አክብሯል
አክቲቪስት
አክቲቪስቶች
አክቲቭ
አክንባሎ
አክፍረዋል
አኳኋን
አኳያ
አኸናተን
አኹን
አኹንም
አወ
አወላለድ
አወል
አወረደ
አወረዳቸው
አወረድን
አወረዷቸው
አወሩ
አወራ
አወርድ
አወሳሰድ
አወቀ
አወቁ
አወቃቀሩ
አወቃቀሩን
አወቃቀር
አወቃቀርን
አወንታዊ
አወዛጋቢ
አወይ
አወደመ
አወደሙ
አወዳደቅ
አወጀ
አወጀች
አወጁ
አወጋገድ
አወጡ
አወጡት
አወጣ
አወጣቸው
አወጣች
አወጣና
አወጣው
አወጣጥ
አዉራሪ
አዉጋ
አዊ
አዊብሬ
አዊዲ
አዋሀደ
አዋህዶ
አዋለ
አዋሉ
አዋላጅ
አዋልድ
አዋርድ
አዋርድስ
አዋሳ
አዋሳኝ
አዋሽ
አዋቂ
አዋቂወች
አዋቂዎች
አዋበል
አዋን
አዋጀ
አዋጁ
አዋጁን
አዋጅ
አዋጆች
አዋጭ
አው
አውለዋል
አውል
አውልቀው
አውልቆ
አውሎ
አውሩኑስ
አውራ
አውራሪ
አውራሪስ
አውራጃ
አውራጃን
አውራጃው
አውራጃውን
አውራጃዎች
አውራጅ
አውራጆች
አውሬ
አውሬዎች
አውርስያ
አውርደው
አውርዶ
አውሮጳ
አውሮጳዊ
አውሮጳውያን
አውሮፓ
አውሮፓና
አውሮፓን
አውሮፓዊ
አውሮፓዊው
አውሮፓውያን
አውሮፕላኑ
አውሮፕላኑን
አውሮፕላን
አውሮፕላኖች
አውሮፕላኖችን
አውሳብዮስ
አውስትሪያ
አውስትራሊያ
አውስትራሊያን
አውስትራሊያኖች
አውስትራሊያውያን
አውስትራልያ
አውስትሮኔዚያን
አውቀሽው
አውቀው
አውቃለሁ
አውቆ
አውታረ
አውታረመረብ
አውታር
አውታሮች
አውታሮችን
አውት
አውቶማቲክ
አውቶሞቢል
አውቶቡስ
አውኒ
አውን
አውንስ
አውኛ
አውአሎም
አውዛል
አውደ
አውድ
አውድማ
አውድሟል
አውጀዋል
አውጆ
አውጇል
አውጉስቲን
አውግስጢኖስ
አውግስጦስ
አውግዘዋል
አውግዟል
አውጣ
አውጥተዋል
አውጥተው
አውጥታለች
አውጥቶ
አውጥቷል
አውጥቼ
አውጪ
አውጪው
አውጪዎች
አውጭ
አውጭው
አውጭዎች
አዎ
አዎን
አዎንታዊ
አዒሻ
አዕላፍ
አዕምሮ
አዕምሮና
አዕምሮው
አዕዋፋት
አዕዋፍ
አዕዋፍና
አዘል
አዘርባይጃን
አዘርባጃን
አዘርኛ
አዘነ
አዘነች
አዘና
አዘው
አዘውትረው
አዘውትሮ
አዘዘ
አዘዘች
አዘዘና
አዘዘው
አዘዙ
አዘዛቸው
አዘዞ
አዘገጃጀት
አዘጋጀ
አዘጋጁ
አዘጋጅ
አዘጋጅተዋል
አዘጋጅተው
አዘጋጅተውት
አዘጋጅታለች
አዘጋጅቶ
አዘጋጅቷል
አዘጋጅነት
አዘጋጅና
አዘጋጆች
አዙረው
አዙሪት
አዙራድ
አዛምድ
አዛርያስ
አዛባ
አዛኒያ
አዛኝ
አዛወረ
አዛወረው
አዛወሩ
አዛውረው
አዛውሮ
አዛውንቱ
አዛውንት
አዛውንቶች
አዛዡ
አዛዥ
አዛዥነት
አዛዥና
አዛዦች
አዛዦችን
አዛዦቿ
አዛጋጆች
አዜብ
አዝሎ
አዝመራ
አዝሙድ
አዝማሚያ
አዝማሪ
አዝማሪዎች
አዝማች
አዝማችነት
አዝማቾች
አዝማድ
አዝነው
አዝናኝ
አዝኖ
አዝዞ
አዝየ
አዝጋሚ
አዞ
አዞረ
አዞዎች
አየ
አየሁ
አየሁት
አየለ
አየሩ
አየር
አየርላንድ
አየርላንድን
አየርና
አየርን
አየች
አየነ
አየነው
አየና
አየን
አዩ
አዩብ
አያ
አያለሁ
አያለኹ
አያሌ
አያሌው
አያልቅ
አያልቅም
አያልፍም
አያመጡም
አያመጣም
አያማርጥም
አያምርም
አያምኑም
አያምንም
አያሟግት
አያሳይም
አያስተምርም
አያስጥል
አያስጥልም
አያስፈልገውም
አያስፈልጋቸውም
አያስፈልግም
አያሻግር
አያቅም
አያባራ
አያቱ
አያቱን
አያታቸው
አያቴ
አያት
አያቶቹ
አያቶቻቸው
አያቶች
አያቷ
አያና
አያንስም
አያኩም
አያውቁም
አያውቅ
አያውቅም
አያዝ
አያያዝ
አያይም
አያይዞ
አያደምቅ
አያደርጉም
አያደርግም
አያደቅ
አያዳግትም
አያድርም
አያድርግህ
አያድን
አያድንም
አያገቡም
አያገኝም
አያጣም
አይ
አይሁኑ
አይሁን
አይሁዳዊ
አይሁዳዊት
አይሁዳዊው
አይሁዳውያን
አይሁዳውያንና
አይሁድ
አይሁድም
አይሁድና
አይሁድን
አይሁዶች
አይሁዶችን
አይሄዱም
አይሄድም
አይህ
አይሆኑም
አይሆንም
አይለቀቅም
አይለቅ
አይለቅም
አይለወጥም
አይለውጥም
አይለዩም
አይለይም
አይሉም
አይሉትም
አይሊል
አይላንድ
አይል
አይልም
አይመለስ
አይመለስም
አይመለከትም
አይመልሰውም
አይመረጥም
አይመሳሰሉም
አይመስለኝም
አይመስለውም
አይመስልም
አይመች
አይመችም
አይመን
አይመጣም
አይሙት
አይምሰላችኹ
አይምታህ
አይሞላም
አይሞትም
አይሠራም
አይረሳም
አይረስ
አይረባ
አይረባም
አይረን
አይረዳም
አይሪስ
አይሪሽ
አይሬስ
አይርላንድ
አይርላንድን
አይርላንድኛ
አይርት
አይርገምህ
አይሮፕላን
አይሰማ
አይሰማም
አይሰረቅ
አይሰሩም
አይሰራም
አይሰበሩ
አይሰዱ
አይሰጠም
አይሰጡም
አይሰጥም
አይስ
አይስላንድ
አይስላንድኛ
አይስማሙም
አይስማማም
አይስኩላፒዩስ
አይሸሸግም
አይሻ
አይሻል
አይቀሩም
አይቀሬ
አይቀር
አይቀርም
አይቀርምና
አይቀርብም
አይቀበሉም
አይቀበልም
አይቅሙ
አይቆሙም
አይቆምም
አይቆጠረም
አይቆጠሩም
አይቆጠርም
አይበለጡም
አይበሉም
አይበላ
አይበላም
አይበልጡም
አይበልጥም
አይበር
አይበቃም
አይበቃኝም
አይበድላቸው
አይበጁ
አይቢኤም
አይባሉም
አይባልም
አይብ
አይቪ
አይቮሪ
አይተህ
አይተርፈው
አይተርፍ
አይተናል
አይተን
አይተዋል
አይተዋት
አይተው
አይተውም
አይቲዮፒያ
አይቲፕፕስ
አይታ
አይታለች
አይታረስ
አይታስብም
አይታሽም
አይታወቀም
አይታወቁም
አይታወቅም
አይታዩም
አይታይም
አይታደርም
አይታገሉም
አይታፈስ
አይቶ
አይቷል
አይቻለሁ
አይቻልም
አይቼ
አይችሉም
አይችልም
አይኅ
አይነ
አይነር
አይነሳ
አይነሳም
አይነተኛ
አይነቱ
አይነት
አይነትና
አይነቶች
አይነቶችም
አይነቶችን
አይነድም
አይነግረንም
አይነግሩ
አይነጩለትም
አይኑ
አይኑር
አይኑን
አይና
አይናገርም
አይናፍቅም
አይኔ
አይኔን
አይን
አይንስታይን
አይንን
አይኖረውም
አይኖርም
አይኖች
አይኤምኤፍ
አይከለከሉም
አይከሰስ
አይከበርም
አይከብዳትም
አይከብድም
አይከድን
አይከፍትም
አይኮመጥጥም
አይኹን
አይኾንም
አይወልዱ
አይወርሱ
አይወዱ
አይወዱም
አይወድም
አይወድቅም
አይወጡም
አይወጣም
አይውልም
አይዘሉ
አይዘነጉም
አይዘንሃወር
አይዘንብም
አይዛክ
አይዞህ
አይደለሁም
አይደለህም
አይደለም
አይደለምና
አይደለምን
አይደለችም
አይደለንም
አይደለኹም
አይደሉም
አይደሉምና
አይደሉምን
አይደላችሁም
አይደል
አይደምቅ
አይደረግም
አይደርስም
አይደፍር
አይድ
አይድን
አይጀስታ
አይገ
አይገማም
አይገቡም
አይገባህም
አይገባም
አይገባበትም
አይገባትም
አይገባቸውም
አይገባኝ
አይገባውም
አይገኙም
አይገኝ
አይገኝለትም
አይገኝም
አይገደድም
አይገድ
አይገድም
አይጊያሌዎስ
አይጎዳ
አይጎዳም
አይጓዝም
አይጠ
አይጠራም
አይጠቅምም
አይጠቅስም
አይጠብቅም
አይጠጣም
አይጠፋም
አይጣላም
አይጥ
አይጥለው
አይጥላህ
አይጦች
አይጨምርም
አይጫንም
አይጮህም
አይፈልግም
አይፈሩም
አይፈራም
አይፈርድም
አይፈቀደም
አይፈቀድላቸውም
አይፈቀድም
አይፈቅዱም
አዮ
አዮሊስ
አዮን
አዮዲን
አደም
አደረ
አደረሰ
አደረሰው
አደረሱ
አደረጃጀት
አደረጃጀትና
አደረገ
አደረገበት
አደረገች
አደረገና
አደረገኝ
አደረገው
አደረጉ
አደረጉላቸው
አደረጉት
አደረጉዋቸው
አደረጋት
አደረጋቸው
አደረግን
አደረጓት
አደሩ
አደሩን
አደራ
አደራረግ
አደራችሁ
አደራውን
አደራደር
አደራጅቷል
አደሬ
አደር
አደርነት
አደርን
አደርገ
አደርገዋለሁ
አደርጉ
አደርጋለሁ
አደርጋለኹ
አደሮች
አደሮችን
አደባባይ
አደብ
አደነቁ
አደን
አደንዛዥ
አደንጓሬ
አደዛ
አደይ
አደገ
አደገች
አደገኛ
አደገኛና
አደጉ
አደጋ
አደጋና
አደጋን
አደጋው
አደጋዎች
አደጋዎችን
አደግ
አደፍርስ
አዱ
አዱሊታንቱም
አዱኛ
አዱክ
አዱክን
አዲ
አዲሱ
አዲሱን
አዲሲቱን
አዲስ
አዲሶቹ
አዲሷ
አዲሷን
አዲን
አዲያቤኔ
አዲዳስ
አዲግራት
አዳ
አዳል
አዳልን
አዳሙ
አዳማ
አዳም
አዳምም
አዳምስ
አዳምና
አዳምን
አዳሪ
አዳራሹ
አዳራሽ
አዳራሾች
አዳሲ
አዳበረ
አዳብ
አዳብረዋል
አዳብሯል
አዳነ
አዳኒያ
አዳኝ
አዳኞች
አዳዲ
አዳዲስ
አዳድ
አዳድም
አዳድን
አዳጋች
አዴላ
አዴፓ
አድ
አድልዎ
አድሎአዊ
አድሚራል
አድማ
አድማሱ
አድማሳዊ
አድማስ
አድማቸውን
አድማጮች
አድራሻ
አድራሻውን
አድራጊ
አድራጊነት
አድራጊው
አድራጊዎች
አድራጎት
አድርሰኝ
አድርሰዋል
አድርሰው
አድርሷል
አድርገህ
አድርገሽ
አድርገን
አድርገኝ
አድርገዋል
አድርገው
አድርገውታል
አድርገውት
አድርጉ
አድርጋ
አድርጋለች
አድርጋችሁ
አድርጋችኹ
አድርጌ
አድርግ
አድርግላቸው
አድርጎ
አድርጎም
አድርጎታል
አድርጎት
አድርጐ
አድርጓል
አድርጓልና
አድርጓታል
አድርጓቸዋል
አድሮ
አድስ
አድባራት
አድባር
አድቬንቲስት
አድነን
አድነኝ
አድነው
አድናቂ
አድናቂዎቹ
አድናቂዎች
አድናቆት
አድናቆትን
አድናቆትንና
አድን
አድኖ
አድዋ
አድያም
አድገዋል
አድገው
አድጎ
አድጓል
አዶ
አዶልፍ
አጀማመሩ
አጀማመር
አጀንዳ
አጃ
አጃቢ
አጅበው
አገለለ
አገለገለ
አገለገሉ
አገላለጽ
አገላለፅ
አገልጋዩም
አገልጋያቸው
አገልጋይ
አገልጋዮች
አገልጋዮችን
አገልግለዋል
አገልግለው
አገልግላለች
አገልግሎቱ
አገልግሎቱን
አገልግሎታቸውን
አገልግሎት
አገልግሎትን
አገልግሎቶች
አገልግሎቶችን
አገልግሏል
አገመኝ
አገረ
አገሩ
አገሩም
አገሩን
አገሩዋ
አገሪቱ
አገሪቱን
አገሪቷ
አገሪቷን
አገራት
አገራቸው
አገራቸውም
አገራቸውን
አገራቸውንም
አገራችን
አገራችንን
አገራዊ
አገሬ
አገሬው
አገር
አገርም
አገርና
አገርን
አገሮቹ
አገሮቹን
አገሮች
አገሮችም
አገሮችና
አገሮችን
አገሯ
አገቡ
አገባ
አገባሁ
አገባብ
አገባት
አገባች
አገናኝ
አገናኞች
አገኘ
አገኘሁ
አገኘቻቸው
አገኘች
አገኘና
አገኘን
አገኘው
አገኘውና
አገኙ
አገኙት
አገኛቸው
አገኝ
አገኝተዋል
አገኝተው
አገኝቶ
አገኝቷል
አገኟቸው
አገው
አገውኛ
አገዎች
አገዎችን
አገዛዙ
አገዛዙን
አገዛዝ
አገዛዝን
አገዛዞች
አገዝ
አገዳ
አጉሊ
አጉል
አጉልተው
አጉልቶ
አጉም
አጉርሱኝ
አጊሲውምባ
አጊጥ
አጋ
አጋልጧል
አጋማሽ
አጋር
አጋርነት
አጋሮ
አጋሮቹ
አጋሮቻቸው
አጋሮች
አጋሮችን
አጋሮቿ
አጋታ
አጋንንታዊ
አጋንንት
አጋንንትም
አጋንንትን
አጋዘን
አጋዥ
አጋዥነት
አጋጠመው
አጋጣሚ
አጋጣሚም
አጋጣሚዎች
አጋጥሞታል
አጋጥሟታል
አግላይ
አግልሎ
አግሎ
አግባ
አግባቢነት
አግባብ
አግባብነት
አግብተው
አግብታ
አግብቶ
አግታ
አግኝ
አግኝተናል
አግኝተን
አግኝተዋል
አግኝተው
አግኝታለች
አግኝቶ
አግኝቷል
አግዓዝያን
አግዳሚ
አግድም
አግድምና
አግዶ
አግዷል
አጎራባች
አጎሬሳ
አጎሬሳና
አጎቱ
አጎታቸው
አጎታቸውን
አጎት
አጓት
አጛሽ
አጠ
አጠራሩ
አጠራር
አጠራሮች
አጠራጣሪ
አጠር
አጠቃ
አጠቃላዩ
አጠቃላይ
አጠቃሎ
አጠቃቀሙ
አጠቃቀም
አጠቃቀምና
አጠቃቀምን
አጠቃቀሞች
አጠባበቅ
አጠናቀቀ
አጠናቀቁ
አጠናቀዋል
አጠናቀው
አጠናቋል
አጠናከረ
አጠናክሮ
አጠያያቂ
አጠገቡ
አጠገባቸው
አጠገቤ
አጠገብ
አጠጣው
አጠፉ
አጠፉት
አጠፉና
አጠፋ
አጠፋቸው
አጠፋው
አጡ
አጣ
አጣሁ
አጣምሮ
አጣሪ
አጣራር
አጣብቂኝ
አጣዳፊ
አጣጣሚ
አጣጥለውታል
አጤ
አጥ
አጥማጁ
አጥማጅ
አጥማጆች
አጥሩ
አጥሩን
አጥር
አጥቂ
አጥቢ
አጥቢዎች
አጥቢያ
አጥባቂ
አጥባቂነት
አጥባቂዎች
አጥብቀህ
አጥብቀው
አጥብቃ
አጥብቆ
አጥቦ
አጥተዋል
አጥታለች
አጥቶ
አጥነት
አጥናፍሰገድ
አጥንተዋል
አጥንተው
አጥንቱ
አጥንት
አጥንቶ
አጥንቶች
አጥንቷል
አጥኚ
አጥኚዎች
አጥኝ
አጥኝወች
አጥኝው
አጥኝዎች
አጥጋቢ
አጥፊ
አጥፍተው
አጥፍቶ
አጥፍቷል
አጦጢስ
አጨዋወቱ
አጨዋወት
አጫወተ
አጫዋች
አጫዋቾች
አጫጭር
አጭሩ
አጭር
አጸኑ
አጸና
አጸያፊ
አጸደቀ
አጸደቁ
አጸድ
አጻጻፉ
አጻጻፍ
አጼ
አጼው
አጽም
አጽቄ
አጽናኝ
አጽናፈ
አጽንተው
አጽንዖት
አጽድቆ
አጽድቋል
አፀደ
አፀደቀ
አፀደቀች
አፃፃፍ
አፄ
አፅም
አፅንኦት
አፅንዖት
አፅድቋል
አፈ
አፈረሰ
አፈረሰው
አፈሩ
አፈራ
አፈራረሰ
አፈር
አፈሮች
አፈታሪካዊ
አፈታሪክ
አፈታሪኮች
አፈታት
አፈነዳ
አፈነዳች
አፈና
አፈንዲ
አፈወርቂ
አፈወርቅ
አፈገፈገ
አፈገፈጉ
አፈጣጠር
አፈጻጸም
አፈፃፀም
አፉ
አፉን
አፊፋኖስ
አፋር
አፋርኛ
አፋሮች
አፋቸው
አፋን
አፋኝ
አፋዊ
አፋጣኝ
አፋፍ
አፌ
አፌን
አፍ
አፍህ
አፍልቶ
አፍሪቃ
አፍሪቃን
አፍሪቃዊ
አፍሪቃዊው
አፍሪቃዋ
አፍሪቃው
አፍሪቃውያን
አፍሪካ
አፍሪካኑስ
አፍሪካና
አፍሪካን
አፍሪካንስ
አፍሪካዊ
አፍሪካዊቷ
አፍሪካውያን
አፍራሽ
አፍርሰው
አፍርሶ
አፍርተዋል
አፍርተው
አፍርታለች
አፍርቷል
አፍሮ
አፍሮአሺያዊ
አፍስሶ
አፍቀራ
አፍቃሪ
አፍና
አፍን
አፍንጫ
አፍንጫና
አፍንጫው
አፍጋኒስታን
አፍጣጭ
አፎት
አፎች
አፐር
አፐፒ
አፒል
አፒስ
አፒስን
አፒያ
አፓርታማ
አፓርታይድ
አፕ
አፕሊ
አፕላ
አፕል
አፕልን
አፕሪል
አፕራይት
አፖሎ
ኡ
ኡላም
ኡልትራ
ኡልድ
ኡሕና
ኡመር
ኡሙ
ኡማ
ኡማሩ
ኡምቤርቶ
ኡሩካጊና
ኡሩክ
ኡሩክና
ኡሩክን
ኡሩክንና
ኡሩጓይ
ኡሪ
ኡራል
ኡራርቱ
ኡራኑስ
ኡራጓያዊ
ኡራጓይ
ኡር
ኡርን
ኡርዱ
ኡርዱኩጋ
ኡሰርካሬ
ኡሰይድ
ኡስ
ኡስማን
ኡሹር
ኡባሊት
ኡቦ
ኡቱ
ኡኑግ
ኡኒቨርሲቲዎች
ኡን
ኡዝቤኪስታን
ኡደት
ኡዱክኛ
ኡጋሪት
ኡጋንዳ
ኡግሪክ
ኡጹር
ኡፕሳላ
ኡፖ
ኢ
ኢሁድ
ኢህራም
ኢህአዴግ
ኢህአዴግን
ኢሉ
ኢሉማ
ኢሉም
ኢሉሹማ
ኢሉባቦር
ኢሉና
ኢሊ
ኢሊሹ
ኢሊን
ኢሊኖይ
ኢሊያ
ኢሊፕ
ኢላ
ኢላህ
ኢላማ
ኢላማዎች
ኢላን
ኢል
ኢልግ
ኢልግን
ኢሎን
ኢሕአዴግ
ኢሚረመሻው
ኢሚቲ
ኢሚግሬሽን
ኢማሙ
ኢማሙም
ኢማም
ኢማሞች
ኢማኑኤል
ኢማን
ኢሜል
ኢሜልዳ
ኢሜይል
ኢም
ኢምራን
ኢምንት
ኢምፓላ
ኢምፓየር
ኢምፓየሮች
ኢምፔሪያሊስት
ኢምፔሪያሊዝም
ኢምፔሪያል
ኢሥባት
ኢሪሹም
ኢራሽናል
ኢራቅ
ኢራቅን
ኢራናዊ
ኢራን
ኢር
ኢርካብ
ኢርጉን
ኢሮብ
ኢሲስ
ኢሲን
ኢሲንን
ኢሳ
ኢሳቅ
ኢሳት
ኢሳያስ
ኢሳይንስ
ኢሳይያስ
ኢስላማዊ
ኢስላም
ኢስላምን
ኢስማዒልም
ኢስተር
ኢስታንቡል
ኢስታይዎን
ኢስቴዎን
ኢስቶኒያ
ኢሶቤል
ኢሺ
ኢሻር
ኢሽቢ
ኢሽታር
ኢቂሻም
ኢቢ
ኢቢን
ኢቢያው
ኢቤሩስ
ኢቤሪያ
ኢቤራውያን
ኢቤር
ኢብሉል
ኢብራሂም
ኢብራሂምም
ኢብኑ
ኢብኑል
ኢብን
ኢብኮ
ኢቫ
ኢቫን
ኢቭ
ኢተር
ኢቱ
ኢቲ
ኢቲቪ
ኢታሉስ
ኢታሊክ
ኢታሎ
ኢታማዦር
ኢት
ኢትቢራ
ኢትዮ
ኢትዮወርድ
ኢትዮዽያ
ኢትዮጲስ
ኢትዮጲያ
ኢትዮጲያን
ኢትዮጲያዊ
ኢትዮጲያውያን
ኢትዮጵስት
ኢትዮጵያ
ኢትዮጵያም
ኢትዮጵያና
ኢትዮጵያን
ኢትዮጵያንና
ኢትዮጵያኖች
ኢትዮጵያዊ
ኢትዮጵያዊት
ኢትዮጵያዊው
ኢትዮጵያዊያን
ኢትዮጵያው
ኢትዮጵያውን
ኢትዮጵያውያን
ኢትዮጵያውያንም
ኢትዮጵያውያንና
ኢትዮጵያውያንን
ኢትዮፒክ
ኢቶን
ኢነርጂ
ኢነድ
ኢኒ
ኢኒሼቲቭ
ኢናቆስ
ኢናና
ኢን
ኢንሳይክሎፒዲያ
ኢንሳይክሎፔድያ
ኢንሳይክሎፕዲያዎች
ኢንስ
ኢንስቲቱት
ኢንስቲትዩት
ኢንሹራንስ
ኢንሹሺናክ
ኢንቨስት
ኢንቨስትመንት
ኢንቨስትመንትን
ኢንቨስትመንቶችን
ኢንቬስትመንት
ኢንተለጀንስ
ኢንተራፕት
ኢንተራፕቶች
ኢንተር
ኢንተርቴይንመንት
ኢንተርናሽናል
ኢንተርኔት
ኢንተርኔትን
ኢንተርፕራይዝ
ኢንተርፕራይዞች
ኢንቲፋዳ
ኢንታንጀብል
ኢንቴቤ
ኢንች
ኢንካ
ኢንክ
ኢንዛኩና
ኢንደስትሪ
ኢንደክተሮች
ኢንዱስትሪ
ኢንዱስትሪን
ኢንዱስትሪው
ኢንዱስትሪዎች
ኢንዱስትሪያላይዜሽን
ኢንዱስትሪያል
ኢንዲራ
ኢንዲያና
ኢንዲያን
ኢንዲፔንደንት
ኢንዴክስ
ኢንዴክሶች
ኢንዶ
ኢንዶኔዥያ
ኢንጂነሪንግ
ኢንጂነር
ኢንጂኔሪንግ
ኢንጂኔር
ኢንጅነሪንግ
ኢንጅነር
ኢንጋይዎን
ኢንግላንድ
ኢንፊኒት
ኢንፌክሽን
ኢንፌክሽኖች
ኢንፍሉዌንዛ
ኢንፎርሜሽን
ኢኖቬሽን
ኢኛትሲዮ
ኢኩ
ኢኩኑም
ኢኩን
ኢካሮስ
ኢኮ
ኢኮኖሚ
ኢኮኖሚስት
ኢኮኖሚን
ኢኮኖሚክ
ኢኮኖሚክስ
ኢኮኖሚዋ
ኢኮኖሚው
ኢኮኖሚውን
ኢኮኖሚዎች
ኢኮኖሚያቸውን
ኢኮኖሚያዊ
ኢኮኖሚያዊና
ኢኳቶሪያል
ኢው
ኢዘንበርግ
ኢዛቤል
ኢዛና
ኢዜአ
ኢዝሚር
ኢየሩሳሌም
ኢየሩሳሌምም
ኢየሩሳሌምን
ኢየሱሳውያን
ኢየሱስ
ኢየሱስም
ኢየሱስን
ኢየሱስንም
ኢዩኤል
ኢያሪኮ
ኢያሱ
ኢያሱም
ኢያሱና
ኢያሱን
ኢያቄም
ኢያቡስ
ኢያቢስ
ኢያን
ኢያዕር
ኢዮ
ኢዮርብዓም
ኢዮቤልዩ
ኢዮብ
ኢዮአስ
ኢደማ
ኢደንደሴ
ኢዲ
ኢዲና
ኢዲናም
ኢዲን
ኢዳዱ
ኢድ
ኢድሪሚ
ኢድሪስ
ኢድጋር
ኢዶ
ኢግሪሽ
ኢግናጦስ
ኢጎር
ኢጣሊያ
ኢጣሊያን
ኢጣሊያኖች
ኢጣልያ
ኢጣልያን
ኢጣልያዊው
ኢፒቅ
ኢፕታር
ኣ
ኣሁን
ኣሁንም
ኣህያ
ኣለ
ኣለመኖር
ኣለበት
ኣለባቸው
ኣለው
ኣሉ
ኣሉት
ኣልቦ
ኣልነበረም
ኣልፎ
ኣሏቸው
ኣመዳደብ
ኣማራጭ
ኣማርኛ
ኣሜሪካ
ኣምስት
ኣሠራር
ኣሥር
ኣራት
ኣስተማማኝ
ኣስተሳሰብ
ኣስተዋጽዖ
ኣስቸጋሪ
ኣስያ
ኣስፈላጊ
ኣሸናፊ
ኣቀረቡ
ኣቅርበዋል
ኣቆጣጠር
ኣቈጣጠር
ኣበራ
ኣበርክተዋል
ኣበበ
ኣበባ
ኣባሎ
ኣብ
ኣብርሃም
ኣብሻ
ኣብዛኛው
ኣቶ
ኣኃዛት
ኣኃዛዊ
ኣኃዝ
ኣኃዞች
ኣን
ኣንበሳ
ኣንደኛ
ኣንደኛው
ኣንዱ
ኣንዱን
ኣንዳንድ
ኣንዳንዶቹ
ኣንድ
ኣንድን
ኣንጀት
ኣከታተብ
ኣከታተቦች
ኣካል
ኣክሊሉ
ኣክሱም
ኣዋርድ
ኣውሬ
ኣያስፈልግም
ኣያና
ኣይቀርም
ኣይቻልም
ኣይችሉም
ኣይደለም
ኣይደሉም
ኣይጽፍም
ኣይፎን
ኣይፓድ
ኣደረጉ
ኣደገኛ
ኣዲስ
ኣዳም
ኣዳዲስ
ኣድርገዋል
ኣድርገው
ኣድርጎ
ኣጃ
ኣገር
ኣገሮች
ኣገኘ
ኣገው
ኣገዳ
ኣግኝተዋል
ኣግኝቷል
ኣጠቃቀም
ኣጠቃቀሞች
ኣጣርድ
ኣጥቢ
ኣጻጻፍ
ኣፋን
ኣፕል
ኤ
ኤለን
ኤሊ
ኤሊሳ
ኤሊስ
ኤሊዛቤት
ኤሊያስ
ኤላማዊ
ኤላማዊው
ኤላማውያን
ኤላማውያንን
ኤላም
ኤላምና
ኤላምን
ኤላምኛ
ኤላይዛ
ኤላጋባሉስ
ኤሌና
ኤሌክትሪካል
ኤሌክትሪክ
ኤሌክትሮ
ኤሌክትሮመግነጢሳዊ
ኤሌክትሮመግነጢስ
ኤሌክትሮማግኔቲክ
ኤሌክትሮኒክ
ኤሌክትሮኒክስ
ኤሌክትሮን
ኤሌክትሮኖች
ኤል
ኤልሞዳድ
ኤልሣቤጥ
ኤልሳቤጥ
ኤልሳቤጥም
ኤልክ
ኤልዛቤት
ኤልዛቤትን
ኤልየት
ኤልያስ
ኤልያስን
ኤሎሄ
ኤሎሄይካ
ኤሚ
ኤሚል
ኤሚሬቶች
ኤማጥያ
ኤም
ኤምሐት
ኤምባሲ
ኤምባሲዎች
ኤምባሲዎችን
ኤምኔም
ኤምኔምን
ኤምፒተሱ
ኤምፒተስ
ኤሞርን
ኤረን
ኤሪሞን
ኤሪሹም
ኤሪባም
ኤሪክ
ኤሪው
ኤሪያል
ኤሪዱ
ኤራ
ኤር
ኤርምያስ
ኤርባስ
ኤርትሪያ
ኤርትራ
ኤርትራና
ኤርትራን
ኤርትራዊ
ኤርትራዊያን
ኤርትራዊያኖች
ኤርትራውያን
ኤርትራውያንን
ኤርነስት
ኤርኔስቶ
ኤርፖርት
ኤሲ
ኤሴክስ
ኤስ
ኤስቶኒያ
ኤስቶንኛ
ኤስኤስአር
ኤስኤፍኤስአር
ኤስያዊ
ኤስፔራንቶ
ኤሹህ
ኤሹሕ
ኤሽታር
ኤሽኑና
ኤሽኑናን
ኤቂውረውስ
ኤቃ
ኤቢ
ኤብላ
ኤብላን
ኤብሮ
ኤቦር
ኤቪዬሽን
ኤታ
ኤታና
ኤት
ኤች
ኤችአይቪ
ኤችኤምኤስ
ኤነታርዚ
ኤና
ኤናም
ኤናናቱም
ኤን
ኤንሊል
ኤንመርካር
ኤንመርካርና
ኤንመባራገሲ
ኤንመተና
ኤንሲ
ኤንሻኩሻና
ኤንኪ
ኤንድ
ኤንጂን
ኤንግልስ
ኤአናቱም
ኤኤል
ኤከር
ኤኩር
ኤካላቱምን
ኤካንጋኪ
ኤክሲጅዮስ
ኤክስ
ኤክስትራ
ኤክስቼከር
ኤክስፖርት
ኤኮል
ኤኮኖሚ
ኤኳዶር
ኤውላጥ
ኤውሮጳ
ኤውሮፕስ
ኤውስጣቴዎስ
ኤዎስጣጤዎስ
ኤዛና
ኤዥያ
ኤያሌት
ኤይርክ
ኤይድ
ኤይፕርል
ኤደሣ
ኤደን
ኤዲ
ኤዲሰን
ኤዲሶን
ኤዲት
ኤዲፐሳዊ
ኤዲፐስ
ኤድመንድ
ኤድስ
ኤድስን
ኤድስዮስ
ኤድዋርድ
ኤድዋርዶ
ኤድዛርድ
ኤድጋር
ኤዶ
ኤዶም
ኤዶምያስ
ኤጀርሳ
ኤጀንሲ
ኤጀንሲዎች
ኤጂዩ
ኤግሎም
ኤግዚቢሽን
ኤጠር
ኤጭ
ኤጲስ
ኤፈል
ኤፌ
ኤፌሶን
ኤፍ
ኤፍራታ
ኤፍራጥስ
ኤፍሬም
ኤፍሲ
ኤፑኽ
ኤፒስኮፓል
ኤፓርቲ
ኤፕሪል
እ
እሁድ
እሄዳለሁ
እህል
እህልን
እህሎች
እህቱ
እህቱን
እህቴ
እህት
እህቶቹ
እህቶቻችን
እህቶች
እህቷ
እህና
እለ
እለምናችዃለኹ
እለምንኻለኹ
እለብስ
እለተ
እለት
እሊህ
እላለሁ
እላለኹ
እላቸዋለሁ
እላችኋለሁ
እላችዃለኹ
እላችዃለኹና
እላንተ
እላዩ
እላይ
እሌሁ
እሌኒ
እልህ
እልል
እልም
እልቂት
እልባት
እልከኝነት
እልካለሁ
እልካለኹ
እልኻለኹ
እልፍ
እልፍኝ
እልፍኞች
እሑድ
እመ
እመልሳለሁ
እመርታ
እመርጣለሁ
እመቤታችን
እመቤታችንም
እመቤቴ
እመቤት
እመት
እመኑ
እመጣለሁ
እመጣለኹ
እሙን
እሚሆነው
እሚለው
እሚል
እሚባለው
እሚባል
እሚያሳየው
እሚያሳይ
እማ
እማሆይ
እማማ
እማኝ
እማኞች
እማያቁት
እም
እምላለሁ
እምሩ
እምቅ
እምቢ
እምባ
እምብርት
እምብዛም
እምቧይ
እምነ
እምነቱ
እምነቱን
እምነታቸው
እምነታቸውን
እምነታችን
እምነት
እምነትም
እምነትና
እምነትን
እምነቶች
እምነቶችን
እምንለው
እምዬ
እሞታለሁ
እሞክራለሁ
እሣቱ
እሣት
እሥራት
እሥራኤል
እሥር
እረታ
እረኛ
እረኛው
እረኞች
እረኞችና
እረዳለሁ
እረድ
እረፍት
እረፍቶች
እሩምታ
እሪ
እሪያ
እሪያዎች
እራሱ
እራሱን
እራሳቸው
እራሳቸውም
እራሳቸውን
እራሳቸውንም
እራሴን
እራስ
እራስህ
እራስን
እራስክን
እራስዋ
እራስዋን
እራሷ
እራሷን
እራቱ
እራት
እሬሳ
እሬት
እርም
እርምጃ
እርምጃው
እርምጃዎች
እርምጃዎችን
እርሱ
እርሱም
እርሱና
እርሱን
እርሱንም
እርሳስ
እርሳቸው
እርሳቸውም
እርሳቸውን
እርስ
እርስበርሳቸው
እርስበርስ
እርስዋ
እርስዋም
እርስዎ
እርሶ
እርሷ
እርሷም
እርሷና
እርሷን
እርሻ
እርሻና
እርሻን
እርሻው
እርሻውን
እርሻውንም
እርሻዎች
እርሻዎችን
እርሾ
እርቀት
እርቃኑን
እርቅ
እርቅን
እርባታ
እርባታን
እርከን
እርከኖች
እርካብ
እርካብቱም
እርካታ
እርካታን
እርዳታ
እርዳታን
እርድ
እርዶዋን
እርጅና
እርጉዝ
እርጉጥ
እርጋታ
እርግማን
እርግብ
እርግዝና
እርግጠኛ
እርግጥ
እርግጥን
እርግጥኛ
እርግፍ
እርጎ
እርጥበታማ
እርጥበት
እርጥበትን
እርጥብ
እርፍ
እሰር
እሰብር
እሰብክ
እሰከ
እሰጠዋለሁ
እሰጣለሁ
እሱ
እሱም
እሱና
እሱን
እሱንም
እሱው
እሳቤ
እሳተ
እሳቱ
እሳቱም
እሳቱን
እሳት
እሳትም
እሳትና
እሳትን
እሳቶች
እሳቸው
እሳቸውም
እሳቸውን
እሴት
እሴቶች
እሴቶችን
እስላማዊ
እስላማዊው
እስላም
እስላሞች
እስሌማን
እስልምና
እስልምናና
እስልምናን
እስመ
እስማኤል
እስረኛ
እስረኛው
እስረኞቹ
እስረኞቹን
እስረኞች
እስረኞችን
እስራት
እስራኤላዊያን
እስራኤላውያን
እስራኤላውያንን
እስራኤል
እስራኤልና
እስራኤልን
እስር
እስቲ
እስታቲስቲክስ
እስታትስቲክስ
እስቴ
እስቴት
እስቴትስ
እስትንፋሰ
እስትንፋስ
እስከ
እስከሆነ
እስከሆነበት
እስከመቼ
እስከመጨረሻው
እስከሚታወቅ
እስከሚቻል
እስከማለት
እስከሞተበት
እስከሞቱ
እስከነ
እስከንዲ
እስከአሁን
እስከዚህ
እስከዚያ
እስከዚያው
እስከዛሬ
እስከዳር
እስኩቴሳውያን
እስኩቴስ
እስኩቴሶች
እስኪ
እስኪሆን
እስኪመለስ
እስኪመጣ
እስኪሞት
እስኪቀርብ
እስኪችል
እስኪወጣ
እስኪያልፍ
እስኪያሸንፍ
እስኪያወጣ
እስኪያደርጉ
እስኪያገኝ
እስኪደረስ
እስኪደርስ
እስኪድን
እስኪገባ
እስኪገኙ
እስካሁን
እስካሁንም
እስካልወደደ
እስካስገደደው
እስክ
እስክስታ
እስክንድሪያ
እስክንድር
እስክንድርያ
እስዋም
እስያ
እስያና
እስያን
እስያዊ
እስጢፋኖስ
እስጢፋኖስም
እስጢፋኖስን
እስፊንክስ
እስፐራንቶ
እስፓንኛ
እስፓንያ
እስፓንያውያን
እስፔሊንግ
እስፔሊንጎች
እስፖርት
እሷ
እሷም
እሷን
እሷንም
እሸቱ
እሸቱን
እሸቴ
እሸት
እሺ
እሼር
እሽመ
እሽቢ
እሽታር
እሽግ
እሾህ
እቃ
እቃን
እቃወች
እቃወችን
እቃው
እቃውን
እቃዎች
እቃዎችን
እቅዱ
እቅዱን
እቅድ
እቅድና
እቅዶች
እቅዶችን
እቅፍ
እበላ
እበላዋለሁ
እበላው
እበት
እባላለሁ
እባብ
እባብን
እባቦች
እባካችሁ
እባክህ
እባክዎ
እባክዎን
እቤቱ
እቤት
እቤትዎ
እብራይስጥ
እብስ
እብኒ
እብናት
እብን
እብደት
እብድ
እብድና
እብዶች
እብጠት
እቲሳ
እታች
እቴ
እቴኪ
እቴጌ
እቴጌወች
እቴጌይቱ
እትሙ
እትም
እትሞች
እትዬ
እቶን
እችላለሁ
እኅቱ
እኅቱን
እኅታቸው
እኅቴ
እኅት
እነ
እነሆ
እነሆም
እነማን
እነማይ
እነርሱ
እነርሱም
እነርሱን
እነርሱንም
እነሱ
እነሱም
እነሱን
እነሱንም
እነሴ
እነብሴ
እነኚህ
እነኚህም
እነኚህን
እነኝህ
እነኝህን
እነዚሁ
እነዚህ
እነዚህም
እነዚህን
እነዚህንም
እነዚያ
እነዚያም
እነዚያን
እነዚያንም
እነዛ
እነደዚህም
እኑስ
እኑሶች
እኒሁ
እኒህ
እኒህም
እኒህን
እኒየው
እኒያ
እና
እናም
እናምናለን
እናርጅ
እናስተውላለን
እናቀርባለን
እናቱ
እናቱም
እናቱን
እናቱንም
እናቲቱ
እናታቸው
እናታችን
እናቴ
እናቴም
እናቴን
እናት
እናትና
እናትን
እናትኽን
እናትዋ
እናትዋን
እናቶቻችን
እናቶች
እናቶችን
እናቷ
እናቷን
እናነባለን
እናንተ
እናንተም
እናንተስ
እናንተን
እናንተንም
እናውቃለን
እናውቅ
እናውጋ
እናያለን
እናደርጋለን
እናድርግ
እናገራለሁ
እናገራለኹ
እናገኘዋለን
እናገኛለን
እኔ
እኔማ
እኔም
እኔስ
እኔና
እኔን
እኔንም
እኔው
እን
እንሂድ
እንሄዳለን
እንሆ
እንሆም
እንለዋለን
እንላለን
እንመለከታለን
እንመልከት
እንማራለን
እንሞክራለን
እንሥሣት
እንሥራ
እንረዳለን
እንሰማለን
እንሰሳ
እንሰሳት
እንሰት
እንሰጣለን
እንስ
እንስላል
እንስራ
እንስራዋን
እንስራው
እንስሳ
እንስሳት
እንስሳትም
እንስሳትን
እንስሳቶች
እንስሳው
እንስሳዎች
እንስሶች
እንስሶችና
እንስታን
እንስታዊ
እንስት
እንሶስላ
እንሽላሊት
እንሽላሊቶች
እንቁ
እንቁላሉን
እንቁላል
እንቁላሎቹን
እንቁላሎች
እንቁራሪት
እንቁራሪቶች
እንቅልፍ
እንቅርት
እንቅስቃሴ
እንቅስቃሴም
እንቅስቃሴና
እንቅስቃሴን
እንቅስቃሴው
እንቅስቃሴውን
እንቅስቃሴዎች
እንቅስቃሴዎችን
እንቅጥቅጥ
እንቅፋቱ
እንቅፋት
እንቅፋትን
እንቆቅልሽ
እንበለው
እንበላለን
እንበል
እንበልና
እንበረም
እንቢ
እንባ
እንብላ
እንብላው
እንብርት
እንብዛም
እንቦሳ
እንቦጭ
እንቧይ
እንት
እንትን
እንችላለን
እንናገራለን
እንኖራለን
እንከተላለን
እንከን
እንኩ
እንኩዋን
እንኪያስ
እንካ
እንክርዳድ
እንክብካቤ
እንኮይ
እንኳ
እንኳን
እንኳንስ
እንኺድ
እንወዳለን
እንውሰድ
እንዚራን
እንዝርት
እንዞ
እንይ
እንደ
እንደሁኔታው
እንደሆነ
እንደሆነም
እንደሆነች
እንደሆነና
እንደሆኑ
እንደሆኑና
እንደሆን
እንደላከ
እንደሌለ
እንደሌለበት
እንደሌለባቸው
እንደሌለው
እንደሌላት
እንደሌላቸው
እንደሌሎቹ
እንደሌሎች
እንደልቡ
እንደልብ
እንደመሆኑ
እንደመሆናቸው
እንደመሆኖ
እንደመሆኗ
እንደመዘገበ
እንደመጡ
እንደመጣ
እንደሙሴ
እንደሚሄዱ
እንደሚሄድ
እንደሚሆኑ
እንደሚሆን
እንደሚለቁ
እንደሚለን
እንደሚለው
እንደሚሉ
እንደሚሉት
እንደሚል
እንደሚመስል
እንደሚመጡ
እንደሚመጣ
እንደሚሠራ
እንደሚረዳ
እንደሚሰሩ
እንደሚሰራ
እንደሚሰጡ
እንደሚሰጥ
እንደሚስብ
እንደሚሻ
እንደሚቀበሉ
እንደሚቀጣ
እንደሚቀጥሉ
እንደሚቀጥል
እንደሚቆይ
እንደሚባለው
እንደሚተላለፍ
እንደሚተርከው
እንደሚተርክ
እንደሚታሠብ
እንደሚታወቀው
እንደሚታወቅ
እንደሚታየው
እንደሚታይ
እንደሚቻለው
እንደሚቻል
እንደሚችሉ
እንደሚችል
እንደሚናገረው
እንደሚናገሩ
እንደሚናገሩት
እንደሚኖረው
እንደሚኖሩ
እንደሚኖራቸው
እንደሚኖር
እንደሚከተለው
እንደሚከተል
እንደሚካሄድ
እንደሚወላገድ
እንደሚወስድ
እንደሚወጡ
እንደሚውል
እንደሚዘጋ
እንደሚያመለክተው
እንደሚያመለክቱት
እንደሚያመላክት
እንደሚያሳየው
እንደሚያሳዩት
እንደሚያሳይ
እንደሚያስረዳ
እንደሚያስረዳው
እንደሚያስቡ
እንደሚያስቡት
እንደሚያስብ
እንደሚያስተምሩት
እንደሚያስፈልገው
እንደሚያስፈልግ
እንደሚያበቃ
እንደሚያካሂድ
እንደሚያካትቱ
እንደሚያካትት
እንደሚያደርጉ
እንደሚያደርጋት
እንደሚያደርግ
እንደሚያገለግሉ
እንደሚያገለግል
እንደሚያገኙ
እንደሚይዝ
እንደሚደረገው
እንደሚደረግ
እንደሚደረግላቸው
እንደሚደርስ
እንደሚደግፉ
እንደሚደግፍ
እንደሚገልጸው
እንደሚገባ
እንደሚገባው
እንደሚገኙ
እንደሚገኝ
እንደሚጓዝ
እንደሚጠቀም
እንደሚጠቁሙት
እንደሚጽፍ
እንደሚፈልጉ
እንደሚፈልግ
እንደሚፈጥር
እንደሚፈጽሙ
እንደማለት
እንደማንኛውም
እንደማያውቅ
እንደማይሆን
እንደማይቀር
እንደማይቀበሉ
እንደማይቀበሉት
እንደማይቻል
እንደማይችሉ
እንደማይችል
እንደማይኖር
እንደማይፈልግ
እንደምትሰጥ
እንደምትደግፍ
እንደምትፈልግ
እንደምናውቀው
እንደምናየው
እንደምናገኘው
እንደምን
እንደምንም
እንደምንረዳ
እንደምንረዳው
እንደምክንያት
እንደሞቱ
እንደራሴ
እንደራሴነት
እንደራሴው
እንደራሴዎች
እንደርሱ
እንደርታ
እንደሰሩ
እንደሰው
እንደሱ
እንደስራው
እንደቀጠለ
እንደቅደም
እንደቆመ
እንደቆዩ
እንደተለመደው
እንደተመለሰ
እንደተመለከተው
እንደተመሠረተ
እንደተመነው
እንደተሰሩ
እንደተሰራ
እንደተሰጠው
እንደተሰጣቸው
እንደተቀበለ
እንደተቆጣጠረ
እንደተባለ
እንደተባለው
እንደተተረጎመ
እንደተተከሉ
እንደተነሳ
እንደተነገረው
እንደተናገረው
እንደተናገሩት
እንደተወለደ
እንደተወለዱ
እንደተዘገበው
እንደተጀመረ
እንደተገለጸው
እንደተገለፀው
እንደተገኘ
እንደተጠቀመ
እንደተጠቀሰው
እንደተጠበቀ
እንደተጻፈ
እንደተጻፈና
እንደተጻፈው
እንደታተመ
እንደታየ
እንደቻለ
እንደነ
እንደነሱ
እንደነበረ
እንደነበረባቸው
እንደነበረች
እንደነበረና
እንደነበረው
እንደነበሩ
እንደነበሩት
እንደነበራት
እንደነበራቸው
እንደነበር
እንደነበርም
እንደነበርና
እንደነዚህ
እንደናንተ
እንደኔ
እንደንበር
እንደኖረ
እንደኖሩ
እንደኛው
እንደእግዚአብሔር
እንደወረደ
እንደወርቅ
እንደወሰደ
እንደወጣ
እንደዋለ
እንደዋነኛ
እንደው
እንደውም
እንደዘገበው
እንደዘገቡት
እንደዚሁ
እንደዚሁም
እንደዚህ
እንደዚህም
እንደዚያ
እንደዚያው
እንደዛ
እንደዛሬው
እንደዛፉ
እንደየ
እንደያዘ
እንደያዙ
እንደደረሰ
እንደደረሱ
እንደጀመረ
እንደጀመሩ
እንደገለጸው
እንደገለጹት
እንደገለፀው
እንደገለፁት
እንደገቡ
እንደገባ
እንደገና
እንደገናም
እንደገደለ
እንደጨረሰ
እንደጫማ
እንደጻፈ
እንደጻፈው
እንደፃፈው
እንደፈለገ
እንዲ
እንዲሁ
እንዲሁም
እንዲሄዱ
እንዲሄድ
እንዲሄድና
እንዲህ
እንዲህም
እንዲሆነው
እንዲሆኑ
እንዲሆን
እንዲለቀቁ
እንዲለቀቅ
እንዲለቁ
እንዲለቅ
እንዲለብስ
እንዲለዋወጡ
እንዲለዩ
እንዲሉ
እንዲል
እንዲልኩ
እንዲልክ
እንዲመለሱ
እንዲመለስ
እንዲመለከቱ
እንዲመልሱ
እንዲመልሳቸው
እንዲመሠረት
እንዲመረምር
እንዲመረት
እንዲመሩ
እንዲመራ
እንዲመሰረት
እንዲመሰርቱ
እንዲመስል
እንዲመች
እንዲመጡ
እንዲመጣ
እንዲማሩ
እንዲማር
እንዲሞት
እንዲሠለጥኑ
እንዲሠሩ
እንዲሠራ
እንዲሠራው
እንዲረከብ
እንዲረዱ
እንዲረዳ
እንዲረዳቸው
እንዲረዳው
እንዲራዘም
እንዲሰሙ
እንዲሰማ
እንዲሰሩ
እንዲሰራ
እንዲሰራጭ
እንዲሰደዱ
እንዲሰግዱ
እንዲሰጠው
እንዲሰጡ
እንዲሰጡት
እንዲሰጣቸው
እንዲሰጥ
እንዲሰፍሩ
እንዲሳተፉ
እንዲሳተፍ
እንዲስማማ
እንዲስፋፉ
እንዲስፋፋ
እንዲሸሹ
እንዲሻሻሉ
እንዲሻሻል
እንዲቀላቀሉ
እንዲቀላቀል
እንዲቀመጡ
እንዲቀመጥ
እንዲቀሩ
እንዲቀር
እንዲቀርቡ
እንዲቀርብ
እንዲቀስሙ
እንዲቀበሉ
እንዲቀበል
እንዲቀነሱ
እንዲቀንስ
እንዲቀየር
እንዲቀይር
እንዲቀጥሉ
እንዲቀጥል
እንዲቃጠሉ
እንዲቆሙ
እንዲቆም
እንዲቆዩ
እንዲቆይ
እንዲቆጣጠሩ
እንዲቆጣጠር
እንዲቋረጥ
እንዲቋቋሙ
እንዲቋቋም
እንዲበተን
እንዲባል
እንዲባረሩ
እንዲተላለፍ
እንዲተኩ
እንዲተካ
እንዲተካው
እንዲተዉ
እንዲተው
እንዲተዳደር
እንዲታሰሩ
እንዲታሰር
እንዲታተም
እንዲታወቅ
እንዲታዩ
እንዲታይ
እንዲታጠብ
እንዲቻል
እንዲችሉ
እንዲችል
እንዲነሱ
እንዲነሳ
እንዲነግስ
እንዲናገሩ
እንዲናገር
እንዲንቀሳቀስ
እንዲኖረው
እንዲኖሩ
እንዲኖሩት
እንዲኖራት
እንዲኖራቸው
እንዲኖር
እንዲከበር
እንዲከተሉ
እንዲከተቡ
እንዲከተብ
እንዲከትብ
እንዲከናውን
እንዲከፈል
እንዲከፈት
እንዲከፍሉ
እንዲካሄድ
እንዲኾኑ
እንዲኾን
እንዲወርድ
እንዲወስኑ
እንዲወስዱ
እንዲወስድ
እንዲወክሉ
እንዲወዳደር
እንዲወድቅ
እንዲወገድ
እንዲወጡ
እንዲወጣ
እንዲዋሃዱ
እንዲዋጉ
እንዲውለበለብ
እንዲውል
እንዲዘጋ
እንዲዘጋጅ
እንዲዛወሩ
እንዲዛወር
እንዲየውም
እንዲያ
እንዲያልፍ
እንዲያመለክት
እንዲያመልጡ
እንዲያመልጥ
እንዲያመች
እንዲያመጣ
እንዲያም
እንዲያርፍ
እንዲያስቡ
እንዲያስተላልፉ
እንዲያስተምሩ
እንዲያስተውሉ
እንዲያስተዳድሩ
እንዲያስተዳድር
እንዲያስገቡ
እንዲያቀርቡ
እንዲያቀርቡላቸው
እንዲያቀርብ
እንዲያቆሙ
እንዲያቆም
እንዲያበቃ
እንዲያነሳ
እንዲያካሂዱ
እንዲያው
እንዲያውም
እንዲያውቀው
እንዲያውቅ
እንዲያዩ
እንዲያደርጉ
እንዲያደርግ
እንዲያዳብሩ
እንዲያድግ
እንዲያገለግሉ
እንዲያገለግል
እንዲያገባ
እንዲያገኙ
እንዲያገኝ
እንዲያጠና
እንዲያጠፋ
እንዲይዙ
እንዲይዝ
እንዲደረግ
እንዲደርሱ
እንዲደርስ
እንዲዳረስ
እንዲዳከም
እንዲድን
እንዲጀመር
እንዲጀምሩ
እንዲጀምር
እንዲገለጽ
እንዲገቡ
እንዲገባ
እንዲገባው
እንዲገነቡ
እንዲገነባ
እንዲገነዘቡ
እንዲገናኙ
እንዲገኙ
እንዲገኝ
እንዲገዙ
እንዲገዛ
እንዲገደሉ
እንዲገደል
እንዲገድሉት
እንዲገፋበት
እንዲጋፈጥ
እንዲጓዙ
እንዲጓዝ
እንዲጠሩ
እንዲጠራ
እንዲጠቀሙ
እንዲጠቀሙበት
እንዲጠቀም
እንዲጠቀምበት
እንዲጠቅም
እንዲጠበቁ
እንዲጠበቅ
እንዲጠብቁ
እንዲጠብቅ
እንዲጠናቀቅ
እንዲጠፉ
እንዲጠፋ
እንዲጣል
እንዲጨምር
እንዲጨናግፍ
እንዲጸኑ
እንዲጻፍ
እንዲጾሙ
እንዲፅፍ
እንዲፈርስ
እንዲፈርድ
እንዲፈቱ
እንዲፈታ
እንዲፈነዳ
እንዲፈጠሩ
እንዲፈጠር
እንዲፈጥር
እንዲፈጸም
እንዲፈጽሙ
እንዲፈፀም
እንዳ
እንዳሁላ
እንዳሁኑ
እንዳለ
እንዳለበት
እንዳለባቸው
እንዳለብን
እንዳለብኝ
እንዳለች
እንዳለን
እንዳለኝ
እንዳለው
እንዳለውና
እንዳለጌታ
እንዳለፈ
እንዳለፉት
እንዳሉ
እንዳሉት
እንዳላት
እንዳላቸው
እንዳልሆነ
እንዳልሆኑ
እንዳልራቀ
እንዳልነበረ
እንዳልነበረው
እንዳልነበር
እንዳልካቸው
እንዳመለከተው
እንዳሠራ
እንዳረፈ
እንዳረፉ
እንዳሳየው
እንዳሳዩት
እንዳስረዳ
እንዳስረዳው
እንዳስተላለፉት
እንዳስተማረ
እንዳስታወቀው
እንዳሸነፈ
እንዳሸነፈው
እንዳሸነፋቸው
እንዳቆመ
እንዳባቱ
እንዳትሄድ
እንዳትናገር
እንዳንተ
እንዳኖሩት
እንዳወጣ
እንዳዘዙ
እንዳየ
እንዳየነው
እንዳዩ
እንዳያልቅ
እንዳያስተውሉ
እንዳያዩ
እንዳያደርጉ
እንዳያደርግ
እንዳይሄድ
እንዳይሆኑ
እንዳይሆን
እንዳይለወጥ
እንዳይሉ
እንዳይሉህ
እንዳይመለስ
እንዳይማሩ
እንዳይማር
እንዳይማርከው
እንዳይሞት
እንዳይሣፈር
እንዳይሰጥ
እንዳይስፋፋ
እንዳይሸጥ
እንዳይቀየር
እንዳይበላ
እንዳይበክል
እንዳይተላለፍ
እንዳይነሳ
እንዳይኖረው
እንዳይኖራቸው
እንዳይኖር
እንዳይኾን
እንዳይወስድ
እንዳይወጣ
እንዳይደለ
እንዳይደርስባቸው
እንዳይደርቅ
እንዳይገቡ
እንዳይገባ
እንዳይጎበኝ
እንዳይጠቀሙ
እንዳይጠፋ
እንዳይፈጠር
እንዳደረገ
እንዳደረገው
እንዳደረጉ
እንዳደረጉት
እንዳደርግ
እንዳገለገለ
እንዳገሩ
እንዳገኘ
እንዳገኘች
እንዳገኘው
እንዳገኙ
እንዳጋጣሚ
እንዳጠና
እንዳጠናቀረው
እንዳጠፋ
እንዳጠፋው
እንዴ
እንዴት
እንዴትስ
እንዴው
እንድ
እንድሁም
እንድመጣ
እንድርማሚት
እንድርያስ
እንድታስተዳድር
እንድታውቅ
እንድታገኝ
እንድትሆን
እንድትመልስ
እንድትሰጥ
እንድትቀላቀል
እንድትቀበል
እንድትቀጥል
እንድትቆጣጠር
እንድትችል
እንድትናገሩ
እንድትኖር
እንድትከፍል
እንድትኾኑ
እንድትወጣ
እንድትይዝ
እንድትገባ
እንዶድ
እንጀራ
እንጀራም
እንጀራችንን
እንጀራና
እንጀራን
እንጀራው
እንጀራውን
እንጀራዎች
እንጂ
እንጃ
እንጅ
እንጅባራ
እንጆሪ
እንጆሬ
እንገሩን
እንገር
እንገነዘባለን
እንገናኝ
እንገዛለን
እንጉርጉሮ
እንግሊዘኛ
እንግሊዛዊ
እንግሊዛዊቷ
እንግሊዛዊው
እንግሊዛውያን
እንግሊዛውያንን
እንግሊዝ
እንግሊዝን
እንግሊዝኛ
እንግሊዝኛና
እንግሊዝኛን
እንግሊዝኛው
እንግሊዝኛውን
እንግሊዞቹ
እንግሊዞች
እንግላንድ
እንግልት
እንግዲ
እንግዲህ
እንግዲያስ
እንግዲያው
እንግዲያውስ
እንግዳ
እንግዳና
እንግዴህ
እንግድነት
እንግዶች
እንጎቻ
እንጠቀማለን
እንጠቀምበታለን
እንጠብቃለን
እንጠብቅ
እንጣጥ
እንጦጦ
እንጨምራለን
እንጨቱ
እንጨት
እንጨትን
እንጨቶች
እንጽፋለን
እንፈልጋለን
እንፈልግ
እንፋሎት
እኖ
እኖር
እኖርኛ
እኚህ
እኛ
እኛም
እኛስ
እኛና
እኛን
እኛንም
እኝህ
እኤአ
እከከኝ
እከክ
እኩለ
እኩሌታ
እኩሌቶቹ
እኩል
እኩልነት
እኩልነትን
እኩልዮሹ
እኩልዮሽ
እኩልዮሾች
እኩያ
እኩይ
እክል
እኮ
እኼዳለኹ
እኼዳለኹና
እኽል
እወቀኝ
እወቁ
እወቁኝ
እወቅ
እወዳለሁ
እወዳለኹ
እወድሃለሁ
እዉነተኛ
እውር
እውርን
እውቀቱ
እውቀታቸው
እውቀት
እውቀትና
እውቀትን
እውቀቶች
እውቀቶችን
እውቀናና
እውቅ
እውቅና
እውቅናን
እውነተኛ
እውነተኛው
እውነተኛውን
እውነተኞች
እውነቱ
እውነቱን
እውነቱንና
እውነታ
እውነታወችን
እውነታው
እውነታዎች
እውነት
እውነትም
እውነትነቱ
እውነትነት
እውነትና
እውነትን
እውን
እዘኑለት
እዘአ
እዚሁ
እዚሁም
እዚህ
እዚህም
እዚያ
እዚያም
እዚያው
እዛ
እዛም
እዛው
እዝ
እዝራ
እዝነት
እዞም
እዣኛ
እዤን
እዥ
እየሄደ
እየሄደች
እየሄዱ
እየሆነ
እየሆኑ
እየመራ
እየመሰከረ
እየመቱ
እየመጡ
እየመጣ
እየሞተ
እየሠራ
እየረዱ
እየሩሳሌም
እየሩሳሌምን
እየሮጠ
እየሮጡ
እየሰማ
እየሰሩ
እየሰራ
እየሰራች
እየሰበከ
እየሰበከና
እየሰጠ
እየሰጡ
እየሰፉ
እየሰፋ
እየሰፋና
እየሱስ
እየሱስን
እየቀነሰ
እየቀነሱ
እየቆየ
እየበሉ
እየበላና
እየበረረ
እየበረታ
እየበዙ
እየበዛ
እየባሰ
እየተለመደ
እየተመለሰ
እየተመለከቱ
እየተመረመረ
እየተመራ
እየተመታ
እየተማረ
እየተማሩ
እየተስፋፉ
እየተስፋፋ
እየተሸረሸረ
እየተሻሻለ
እየተቀየረ
እየተበላሸ
እየተባለ
እየተባለም
እየተባለች
እየተባሉ
እየተባባሉ
እየተባባሰ
እየተናገረ
እየተናገሩ
እየተከተሉ
እየተከታተለ
እየተከታተሉ
እየተካሄደ
እየተዘዋወረ
እየተዘዋወሩ
እየተዘጋጀ
እየተደረጁ
እየተደረገ
እየተደረጉ
እየተዳከመ
እየተጓዘ
እየተጠቀመ
እየተጠቀሙ
እየተጠቀሙበት
እየተጠበቀ
እየተጠናከረ
እየተጠጋ
እየተጫወቱ
እየታወቀ
እየታየ
እየታዩ
እየኖረ
እየኖሩ
እየከፈሉ
እየወሰደ
እየወደቀ
እየወገንህ
እየወጡ
እየወጣ
እየዋለ
እየዋሉ
እየው
እየዘለሉ
እየዘመተ
እየዘፈኑ
እየዞረ
እየዞሩ
እየደረሰ
እየደበዘዘ
እየደከመ
እየዳበረ
እየዳከመ
እየገሰገሰ
እየገባ
እየገነነ
እየገዙ
እየገዛ
እየገዛን
እየገፋ
እየገፋች
እየጎለመሰ
እየጎላ
እየጎበኘ
እየጎዱ
እየጠበቁ
እየጠበበ
እየጠበቡ
እየጠነከረ
እየጠጡ
እየጠጣ
እየጠፋ
እየጣለ
እየጨመረ
እየጨመሩ
እየጮኸ
እየጮኹ
እየጻፉ
እየፈለገ
እየፈለገው
እየፈለጉ
እየፈወሰ
እየፈጠረ
እዩ
እዩኝ
እያለ
እያለም
እያለቀሰች
እያለች
እያለው
እያሉ
እያሉም
እያልን
እያልኩ
እያልክ
እያመራ
እያሰበ
እያሱ
እያሱን
እያሳሳቀ
እያሳየ
እያሳዩ
እያሳደሩ
እያስተማረ
እያስተማሩ
እያስተዳደሩ
እያስፋፉ
እያስፋፋ
እያሽቆለቆለ
እያቀረቡ
እያነሱ
እያንዳንዱ
እያንዳንዱም
እያንዳንዱን
እያንዳንዳቸው
እያንዳንዳችን
እያንዳንዷን
እያወቁ
እያወጡ
እያየ
እያየሁ
እያየኋት
እያዩ
እያደላ
እያደረገ
እያደረጉ
እያደር
እያደገ
እያደገች
እያደጉ
እያገለገለ
እያገለገለች
እያገላበጡ
እያገኘ
እያገኙ
እያጋጠመው
እያጡ
እዬዬ
እይ
እይታ
እይታዎች
እዮም
እዮብ
እዮዋስ
እደ
እደለ
እደጁ
እዳ
እዳሪ
እዳዋ
እዳው
እዳውን
እድ
እድለ
እድለኛ
እድሉ
እድሉን
እድላም
እድላቸው
እድል
እድልን
እድሎች
እድሎችን
እድሜ
እድሜና
እድሜዋ
እድሜው
እድሜያቸው
እድሪስ
እድር
እድሳት
እድገቱ
እድገታቸው
እድገታቸውን
እድገት
እድገትና
እድገትን
እድገቶች
እድገቶችን
እድፋም
እድፍ
እጀ
እጀታ
እጁ
እጁን
እጁንም
እጃቸው
እጃቸውን
እጃችሁን
እጄ
እጄን
እጅ
እጅህን
እጅና
እጅን
እጅኽን
እጅዋን
እጅጉ
እጅጉን
እጅግ
እጅግም
እጆቹ
እጆች
እጇን
እገሌ
እገዛ
እገዳ
እገዳን
እገዳው
እገዳዎች
እግረ
እግረኛ
እግረኛን
እግረኞች
እግሩ
እግሩን
እግራቸው
እግራቸውን
እግሬን
እግር
እግርህን
እግሮቹ
እግሮቹን
እግሮቻቸው
እግሮች
እግዚ
እግዚአብሄር
እግዚአብሄርን
እግዚአብሔር
እግዚአብሔርም
እግዚአብሔርና
እግዚአብሔርን
እግዚአብሔርንም
እግዚእ
እግዜር
እግዜርን
እግዝእትነ
እጠብቃለሁ
እጢ
እጢስ
እጢዎች
እጣ
እጣልያ
እጣን
እጥረት
እጥፍ
እጦት
እጨጌ
እጩ
እጩነቱን
እጩነት
እጩዎች
እጩዎችን
እጮኛ
እጸ
እጸድቅ
እጽ
እጽዋት
እጾች
እፀ
እፃዊ
እፅ
እፅዋት
እፈልጋለሁ
እፉኝት
እፍ
እፍረት
እፍጋቶች
እፎይታ
ኦ
ኦሃዮ
ኦህዴድ
ኦሊምፒክ
ኦሊምፒክስ
ኦሊምፒዮ
ኦሊቨር
ኦላንድ
ኦል
ኦልድ
ኦልጋ
ኦሎምፒክ
ኦሚ
ኦማር
ኦማን
ኦሜጋ
ኦሞ
ኦሞቲክ
ኦሞአዊ
ኦሟዊ
ኦሤትያ
ኦሪ
ኦሪታውያን
ኦሪት
ኦሪትን
ኦሪጂናል
ኦሪጅናል
ኦራንጉታን
ኦሬንጅ
ኦሬክ
ኦር
ኦርሊንስ
ኦርላንዶ
ኦርማ
ኦርቪል
ኦርቶ
ኦርቶዶክስ
ኦርቶዶክስና
ኦርኬስትራ
ኦርዮን
ኦርደር
ኦርጅናል
ኦርጋኒክ
ኦርጦፖሊስ
ኦሮሚኛ
ኦሮሚያ
ኦሮምኛ
ኦሮምኛን
ኦሮምኛውን
ኦሮሞ
ኦሮሞን
ኦሮሞወች
ኦሮሞው
ኦሮሞዎች
ኦሲሪስ
ኦሲሪስን
ኦሳካ
ኦሳጉ
ኦስሎ
ኦስማን
ኦስቲን
ኦስትሪያ
ኦስካር
ኦባማ
ኦብዘርቨር
ኦቦቴ
ኦቨር
ኦቭ
ኦቭዩል
ኦተር
ኦታዋ
ኦቶ
ኦቶማን
ኦቶማኖች
ኦቶባዮግራፊ
ኦቾሎኒ
ኦነሲሞስ
ኦነግ
ኦኑ
ኦና
ኦን
ኦንላይን
ኦንጎትኛ
ኦኩስ
ኦክ
ኦክላሆማ
ኦክሲጅን
ኦክስጅን
ኦክስፎርድ
ኦክታቭ
ኦክቶበር
ኦወን
ኦዝዋልድ
ኦይለር
ኦይል
ኦይዳ
ኦይዳኛ
ኦዳ
ኦዴፓ
ኦድዮ
ኦገስት
ኦጊጌስ
ኦጋዴን
ኦጋዴንን
ኦጌን
ኦግስቲን
ኦጦ
ኦጶውኛ
ኦፊር
ኦፊሰር
ኦፊሴላዊ
ኦፊሴላዊው
ኦፍ
ኦፐሬሽን
ኦፔራ
ኦፕሬሽን
ኦፕሬተር
ኦፕሬቲንግ
ኦፕቲክ
ኧ
ኧረ
ኧርል
ኧርነስት
ኧነርኛ
ኧንደገንኛ
ከ
ከሀምሌ
ከሀረር
ከሀብስበርግ
ከሀዲ
ከሀዲሱ
ከሀገሩ
ከሀገሪቱ
ከሀገራቸው
ከሀገር
ከሁለተኛ
ከሁለተኛው
ከሁለቱ
ከሁለቱም
ከሁለት
ከሁሉ
ከሁሉም
ከሁላችን
ከሂክሶስ
ከሃምሳ
ከሃርቫርድ
ከሃያ
ከሃይማኖታዊ
ከሃይማኖት
ከሃዲነት
ከሄሮዶተስ
ከሄንሪ
ከሄደ
ከሄዱ
ከህብረቱ
ከህንድ
ከህንጻው
ከህወሓት
ከህዝቡ
ከህዝብ
ከህዳር
ከህግ
ከሆላንድ
ከሆነ
ከሆነበት
ከሆነች
ከሆነችው
ከሆነና
ከሆነው
ከሆኑ
ከሆኑት
ከሆንክ
ከሆድ
ከለላ
ከለር
ከለቀቀ
ከለቀቁ
ከለተ
ከለንደን
ከለከለ
ከለከለው
ከለከሉ
ከሉክሰምበርግ
ከሉጋል
ከሊቀ
ከሊቢያ
ከሊባኖስ
ከሊብያ
ከሊችተንስታይን
ከሊጉ
ከሊፋ
ከላሊበላ
ከላም
ከላርሳ
ከላቲኑ
ከላቲን
ከላውዴዎን
ከላዩ
ከላይ
ከላይኛ
ከላይኛው
ከላጋሽ
ከሌለ
ከሌለው
ከሌሊቱ
ከሌላ
ከሌላቸው
ከሌላኛው
ከሌላው
ከሌሎቹ
ከሌሎቹም
ከሌሎች
ከሌሎችም
ከሌት
ከሌዊ
ከልቡ
ከልቤ
ከልብ
ከልብስ
ከልኩ
ከልኬት
ከልክ
ከልክለው
ከልክሏል
ከልዑል
ከልዩ
ከልደት
ከልጁ
ከልጃቸው
ከልጅ
ከልጅነቱ
ከልጅነት
ከልጅነቷ
ከልጆቻቸው
ከልጆች
ከልጇ
ከልጓም
ከሐለብ
ከሐመር
ከሐምሌ
ከሐረር
ከሐበሻ
ከሐቲ
ከሐዲ
ከሔሩ
ከሕንዳዊ
ከሕንድ
ከሕዝቡ
ከሕዝብ
ከሕገ
ከሕጉ
ከሕግ
ከመ
ከመሃል
ከመሄዳቸው
ከመሄድ
ከመሆኑ
ከመሆኑም
ከመሆናቸው
ከመሆናቸውም
ከመሆን
ከመሆኗ
ከመለየት
ከመላእክት
ከመላው
ከመልክተኛ
ከመመለሱ
ከመማረኩ
ከመማቀቅ
ከመምህር
ከመምጣቱ
ከመምጣታቸው
ከመሞቱ
ከመሞታቸው
ከመሞት
ከመሠረቱት
ከመሥራት
ከመረመሩ
ከመረጡ
ከመሪው
ከመሬታቸው
ከመሬት
ከመርነፈሬ
ከመርከብ
ከመሰረቱት
ከመሰራቱ
ከመሳሰሉት
ከመሳተፍ
ከመስቀል
ከመስከረም
ከመስጠቱ
ከመስጠት
ከመስጴጦምያ
ከመስፋፋቱ
ከመቀላቀል
ከመቀሌ
ከመቀየሩ
ከመቃብሩ
ከመቃብር
ከመቃጠሪያዉ
ከመቅደላ
ከመቅደስ
ከመብላት
ከመቶ
ከመቶው
ከመቼውም
ከመነሻቸው
ከመነሻው
ከመነኮሱ
ከመናሃሪያዉ
ከመናገር
ከመንበሩ
ከመንትነይ
ከመንደር
ከመንገድ
ከመንግሥቱ
ከመንግሥት
ከመንግስት
ከመንፈሳዊ
ከመንፈስ
ከመኖር
ከመከላከያ
ከመካ
ከመካከለኛ
ከመካከለኛው
ከመካከላቸው
ከመክተብ
ከመኳንንቱ
ከመኳንንት
ከመወለዱ
ከመወከል
ከመውሰድ
ከመውደቅ
ከመዛወሪያዉ
ከመዛወራቸው
ከመያዝ
ከመደረጉ
ከመደበኛው
ከመዲና
ከመዳብ
ከመድረሱ
ከመድረሳቸው
ከመድረሷ
ከመጀመሩ
ከመጀመሪያ
ከመጀመሪያው
ከመጀመሪያዎቹ
ከመጀመራቸው
ከመጀመርያ
ከመጀመርያው
ከመጋቢት
ከመግለጽ
ከመግባቱ
ከመግባት
ከመጠቀም
ከመጠናቀቁ
ከመጠን
ከመጡ
ከመጡበት
ከመጡት
ከመጣ
ከመጣው
ከመጨረሻ
ከመጻፍ
ከመጽሐፈ
ከመጽሐፍ
ከመፈለግ
ከመፈጠሩ
ከመፈጸም
ከመፍሳት
ከመፍታት
ከሙሉ
ከሙሴ
ከሙስሊም
ከሙስሊሞች
ከሙቀት
ከሙታን
ከሙዚቃ
ከሙዝ
ከሚሆኑት
ከሚለው
ከሚለዩ
ከሚሉ
ከሚሉት
ከሚል
ከሚመራው
ከሚመጣው
ከሚሞት
ከሚሰሩ
ከሚሰራ
ከሚሰጡት
ከሚስተር
ከሚስቱ
ከሚቀጥለው
ከሚቆጠሩ
ከሚባለው
ከሚባሉ
ከሚባሉት
ከሚባል
ከሚታኒ
ከሚታወቀው
ከሚታወቁ
ከሚታወቁት
ከሚታዩ
ከሚችሉ
ከሚችሉት
ከሚንግ
ከሚኖሩ
ከሚኖሩበት
ከሚኖሩባቸው
ከሚኖሩት
ከሚኖርባቸው
ከሚከተሉት
ከሚውሉ
ከሚያዝያ
ከሚገባው
ከሚገኘው
ከሚገኙ
ከሚገኙት
ከሚገኝ
ከሚጎበኙ
ከሚጠራው
ከሚጠቀሱት
ከሚጠፋ
ከሚፈልጉት
ከሚፈጠረው
ከማህበረ
ከማህበረሰቡ
ከማለቁ
ከማለት
ከማል
ከማሪ
ከማር
ከማርሻል
ከማርች
ከማርያም
ከማስተማር
ከማባከን
ከማተሚያ
ከማናቸውም
ከማን
ከማንም
ከማንኛውም
ከማእድ
ከማዋል
ከማዕከላዊ
ከማዘጋጀት
ከማየ
ከማየት
ከማያውቁት
ከማይጨው
ከማደጉ
ከማድረጉ
ከማድረጉም
ከማድረግ
ከማድሪድ
ከማግኘቱ
ከማግኘት
ከማጎግ
ከሜሪ
ከሜክሲኮ
ከሜዳ
ከሜዶን
ከምሥራቁ
ከምሥራቃዊ
ከምሥራቅ
ከምርመራ
ከምርኮ
ከምርጫ
ከምርጫው
ከምስራቃዊ
ከምስራቃዊው
ከምስራቅ
ከምስር
ከምሽቱ
ከምባታ
ከምባትኛ
ከምትባል
ከምትገኘው
ከምኒልክ
ከምኔው
ከምን
ከምንም
ከምኵራብ
ከምዕራቡ
ከምዕራባውያን
ከምዕራብ
ከምድረ
ከምድር
ከምግብ
ከምጣዱ
ከምጽዋ
ከሞላ
ከሞርሞን
ከሞሮኮ
ከሞሳሕ
ከሞስኮ
ከሞተ
ከሞተች
ከሞቱ
ከሞቱት
ከሞት
ከሞትኩ
ከሞኝ
ከሠላሳ
ከሠሩት
ከሠራዊቱ
ከሠርጉ
ከሠንጠረዡ
ከሠይጣን
ከሣር
ከሣቴ
ከሥላሴ
ከሥልጣናቸው
ከሥልጣን
ከሥሩ
ከሥራ
ከሥነ
ከሥያ
ከሥጋ
ከሥጋዋ
ከሥፍራው
ከሦሥት
ከሦስተኛ
ከሦስተኛው
ከሦስቱ
ከሦስት
ከረሃብ
ከረመ
ከረሜላ
ከረት
ከረንት
ከረዥም
ከረጅሙ
ከረጅም
ከረጢት
ከረጢትም
ከሩሲያ
ከሩሲያው
ከሩስ
ከሩስያ
ከሩቅ
ከሩብ
ከሪ
ከሪም
ከሪዮ
ከራሱ
ከራሳቸው
ከራሴ
ከራስ
ከራሷ
ከራያ
ከራይን
ከርመው
ከርሞ
ከርሱ
ከርሱም
ከርሳቸው
ከርስቲያን
ከርሷ
ከርሷም
ከርቀት
ከርቤ
ከርቲስ
ከርከሚሽ
ከርከሬሻ
ከርከሮ
ከሮማ
ከሮማንስ
ከሮማው
ከሮማውያን
ከሮማይስጥ
ከሮሜ
ከሮም
ከሮጡለት
ከሰሃራ
ከሰላ
ከሰላሳ
ከሰል
ከሰሎሞን
ከሰሙ
ከሰማ
ከሰማይ
ከሰሜኑ
ከሰሜን
ከሰም
ከሰራ
ከሰራቸው
ከሰራዊቱ
ከሰርቢያ
ከሰሰ
ከሰሷት
ከሰቆጣ
ከሰባ
ከሰባቱ
ከሰባት
ከሰነዱ
ከሰናዖር
ከሰኔ
ከሰኞ
ከሰአት
ከሰኸምሬ
ከሰወች
ከሰዋል
ከሰው
ከሰውነት
ከሰዎች
ከሰዓት
ከሰይጣን
ከሰዱቃውያን
ከሰገራ
ከሰጠ
ከሰጠው
ከሰጡ
ከሰጡት
ከሰፈረበት
ከሰፈሩት
ከሱ
ከሱመር
ከሱም
ከሱክሬ
ከሱዳን
ከሲሞን
ከሲዳማ
ከሳምንቱ
ከሳምንታት
ከሳምንት
ከሳር
ከሳርጎን
ከሳቁለት
ከሳቴ
ከሳቸው
ከሳን
ከሳንስክሪት
ከሳውዲ
ከሳይንሳዊ
ከሳይንስ
ከሳጥኑ
ከሴ
ከሴማዊ
ከሴም
ከሴት
ከሴቶቹ
ከሴቶች
ከሴኔጋል
ከሴንት
ከሴኬም
ከሴፕቴምበር
ከስላሴ
ከስላቪክ
ከስልሳ
ከስልጣናቸው
ከስልጣን
ከስሙ
ከስሜን
ከስም
ከስምንት
ከስሞቻቸው
ከስሞች
ከስሩ
ከስራ
ከስር
ከስቴቱ
ከስነ
ከስንዴ
ከስካንዲናቪያ
ከስኮትላንድ
ከስዊዘርላንድ
ከስዊድን
ከስዕሉ
ከስደት
ከስድስተኛው
ከስድስቱ
ከስድስት
ከስጋ
ከስፓንያ
ከስፔን
ከሶ
ከሶማሊያ
ከሶማሌ
ከሶሪያ
ከሶርያ
ከሶስቱ
ከሶስት
ከሶቪየት
ከሶቭየት
ከሶዶ
ከሷ
ከሸምበቆ
ከሸክላ
ከሸዋ
ከሸፈ
ከሺ
ከሺህ
ከሺሉክ
ከሺዓዎች
ከሻርካሊሻሪ
ከሽንት
ከሽፏል
ከቀላል
ከቀመድ
ከቀረበው
ከቀረቡት
ከቀረጥ
ከቀሩት
ከቀሪው
ከቀራጮችና
ከቀርቀሃ
ከቀሰሙ
ከቀስቅስ
ከቀበለው
ከቀትር
ከቀኑ
ከቀን
ከቀኝ
ከቀዘነ
ከቀዝቃዛ
ከቀዝቃዛው
ከቀይ
ከቀደመው
ከቀደሙት
ከቀደምት
ከቀዳሚው
ከቀዳማዊ
ከቀድሞ
ከቀድሞው
ከቀድሞዎቹ
ከቀጠለ
ከቀጥተኛ
ከቁረይሽ
ከቁርባን
ከቁርአን
ከቁስ
ከቁስጥንጥንያ
ከቁናዎቹ
ከቁንጫ
ከቁጥጥር
ከቃሉ
ከቃል
ከቄስ
ከቅርብ
ከቅኔ
ከቅኝ
ከቅዝቃዜ
ከቅዱሳን
ከቅዱስ
ከቅድመ
ከቅድስት
ከቆሙት
ከቆየ
ከቆየች
ከቆዩ
ከቆዩት
ከቆዳ
ከቆጥ
ከቋራ
ከቋንቋ
ከቋንቋው
ከበለስ
ከበለጠ
ከበሉ
ከበላ
ከበረ
ከበረረ
ከበረዶ
ከበሬ
ከበሬታ
ከበሬታው
ከበርካታ
ከበሮ
ከበሽታ
ከበሽታው
ከበቅሎ
ከበቆሎ
ከበበ
ከበበው
ከበቡ
ከበቡት
ከበባ
ከበባው
ከበብነዉ
ከበትር
ከበኒ
ከበው
ከበዓሉ
ከበደ
ከበድ
ከበጋ
ከበግ
ከበፊቱ
ከቡልጋሪያ
ከቡድኑ
ከቡጋንዳ
ከቢሮ
ከቢግ
ከባህላዊ
ከባህል
ከባህር
ከባለ
ከባለቤቱ
ከባለቤታቸው
ከባለቤቷ
ከባላምባራስ
ከባልሽ
ከባልቲክ
ከባልዋ
ከባሏ
ከባሕሩ
ከባሕር
ከባርነት
ከባርዱስ
ከባሮቹ
ከባቄላ
ከባቢ
ከባቢሎን
ከባትሪው
ከባእድ
ከባዱ
ከባድ
ከባድና
ከቤሊዝ
ከቤላሩስ
ከቤልጂየም
ከቤተ
ከቤተሠቡ
ከቤተሰቡ
ከቤተሰቦቹ
ከቤተሰቦቻቸው
ከቤተሰቧ
ከቤተክርስቲያኑ
ከቤተክርስቲያን
ከቤቱ
ከቤቱም
ከቤታቸው
ከቤቴል
ከቤት
ከቤትሠቡ
ከቤትሽ
ከብሉይ
ከብሔረሰቡ
ከብሔራዊ
ከብረት
ከብሪቲሽ
ከብሪታኒያ
ከብሪታንያ
ከብራዚል
ከብር
ከብርሃን
ከብርቱካን
ከብርንዶ
ከብርድ
ከብቱን
ከብት
ከብቶች
ከብቶችን
ከብዙ
ከብዙዎቹ
ከብዙዎች
ከቦስቶን
ከቦታ
ከቦታው
ከቦዝ
ከቨርጂኒያ
ከቫን
ከቫይረሱ
ከቭላድሚር
ከተለመደው
ከተለመዱት
ከተለቀቀ
ከተለየ
ከተለያየ
ከተለያዩ
ከተመለሰ
ከተመለሱ
ከተመሠረተ
ከተመሠረተበት
ከተመሠረተው
ከተመረቀ
ከተመረቁ
ከተመረጠ
ከተመረጡ
ከተመረጡት
ከተመሰረተ
ከተመሰረተች
ከተመሰረተው
ከተመዘገበው
ከተማ
ከተማም
ከተማረ
ከተማረከ
ከተማሩ
ከተማሪዎቹ
ከተማቸው
ከተማቸውን
ከተማነት
ከተማና
ከተማን
ከተማዋ
ከተማዋም
ከተማዋን
ከተማው
ከተማውን
ከተማዎች
ከተማዎችና
ከተማዎችን
ከተማይቱ
ከተማይቱን
ከተሞቹ
ከተሞቻቸውን
ከተሞች
ከተሞችና
ከተሞችን
ከተሠራ
ከተረዳ
ከተረገመ
ከተረጋገጠ
ከተረፉት
ከተራ
ከተራራ
ከተራራው
ከተሰማ
ከተሰማሩ
ከተሰሩበት
ከተሰሩት
ከተሰራ
ከተሰበሰቡት
ከተሰኘው
ከተሰደዱ
ከተሰጠ
ከተሰጠው
ከተሰጡት
ከተሰጣቸው
ከተስፋፋ
ከተሸነፈ
ከተሸነፉ
ከተሾሙ
ከተቀላቀሉ
ከተቀመጠ
ከተቀመጡ
ከተቀመጡበት
ከተቀመጡት
ከተቀረው
ከተቀበለ
ከተቀበሉ
ከተቀበሉት
ከተቀበረበት
ከተቀበሩበት
ከተቀየረ
ከተቀዳጀች
ከተቃራኒ
ከተቃጠለ
ከተቆረጠ
ከተቆጣጠረበት
ከተቋቋመ
ከተቋቋመበት
ከተቋቋሙት
ከተባለ
ከተባለች
ከተባለችው
ከተባለው
ከተባሉ
ከተባሉት
ከተባረሩ
ከተባበሩት
ከተባእት
ከተተከለ
ከተተወ
ከተቻለ
ከተነሣ
ከተነሱ
ከተነሳ
ከተናገረ
ከተከበረ
ከተከተተ
ከተከታታይ
ከተከታዩ
ከተካሄደው
ከተካሄዱ
ከተካተቱት
ከተወለደ
ከተወለዱት
ከተወሰነ
ከተወሰኑ
ከተወሰዱት
ከተወገደ
ከተዋሕዶ
ከተዘረዘሩት
ከተያዘ
ከተያዘች
ከተያዙ
ከተያዙት
ከተደረገ
ከተደረገው
ከተደረጉ
ከተደረጉት
ከተጀመረ
ከተገለበጠ
ከተገነቡት
ከተገነባ
ከተገኘ
ከተገኘው
ከተገኙ
ከተገኙት
ከተገደለ
ከተገደሉ
ከተጋቡ
ከተጓዙ
ከተጠቀሰው
ከተጠቀሱት
ከተጠናቀቀ
ከተጨማሪ
ከተጫወታቸው
ከተጻፉ
ከተፈለገ
ከተፈረመ
ከተፈሪ
ከተፈጠረ
ከተፈጠሩ
ከተፈጥሮ
ከተፈጸመ
ከተፈፀመ
ከቱርክ
ከቱርክኛ
ከቱርኮች
ከቱዋጣ
ከቲቤር
ከታህሳስ
ከታላላቅ
ከታላቁ
ከታላቅ
ከታላቋ
ከታሪካዊ
ከታሪክ
ከታሰበው
ከታቀደለት
ከታቀደላቸው
ከታቀደው
ከታተመ
ከታች
ከታችኛ
ከታችኛው
ከታኅሣሥ
ከታናናሾቹ
ከታወቀ
ከታወቀው
ከታወቁት
ከታወጀ
ከታዋቂ
ከታዋቂው
ከታየ
ከታየው
ከታዩት
ከታይላንድ
ከታጨች
ከቴዎድሮስ
ከት
ከትላልቅ
ከትልቁ
ከትልቅ
ከትምህርት
ከትሿዮ
ከትንሹ
ከትንሽ
ከትንሿ
ከትውልድ
ከትውፊት
ከትዕዛዝ
ከትዳር
ከትግራይ
ከቶ
ከቶማስ
ከቶሪኖ
ከቶቤል
ከቻለ
ከቻሉ
ከቻልን
ከቻልክ
ከቻርለስ
ከቻይና
ከቻይናውያን
ከቼክ
ከችግር
ከኅዳር
ከኋላ
ከኋላው
ከነ
ከነልጆቹ
ከነሐሴ
ከነሐስ
ከነሠራዊቱ
ከነርሱ
ከነርሱም
ከነሱ
ከነሱም
ከነቃ
ከነበረ
ከነበረበት
ከነበረባቸው
ከነበረችበት
ከነበረው
ከነበሩ
ከነበሩበት
ከነበሩት
ከነበራቸው
ከነቢዩ
ከነቢዩም
ከነቢያት
ከነብር
ከነብዩ
ከነብይነት
ከነኚህ
ከነኝህ
ከነዓናዊ
ከነዓናውያን
ከነዓን
ከነዓንን
ከነዚሁ
ከነዚህ
ከነዚህም
ከነዚያ
ከነገሠ
ከነገሡት
ከነገሩ
ከነገር
ከነገደ
ከነጭ
ከነጮች
ከነጻ
ከነጻነት
ከነፋስ
ከኑባ
ከኑዌር
ከኑግ
ከኒሁ
ከኒህ
ከኒሎቲክ
ከኒነጨር
ከኒው
ከኒውተን
ከኒውክሌር
ከኒውዮርክ
ከኒዮሊቲክ
ከኒፑር
ከናርመር
ከናሳ
ከናታቸው
ከናት
ከናቷ
ከናንተ
ከናዋትል
ከናዚ
ከናዝሬት
ከኔ
ከኔታንያሁ
ከኔቶ
ከኔዘርላንድ
ከኔዘርላንድስ
ከንቡ
ከንባታ
ከንቱ
ከንቱነት
ከንቲባ
ከንቲባው
ከንደገና
ከንዴቤሌ
ከንጉሠ
ከንጉሡ
ከንጉሣዊ
ከንጉሣዊው
ከንጉሥ
ከንጉሱ
ከንጉስ
ከንግሥተ
ከንግሥቲቱ
ከንግሥት
ከንግስቲቱ
ከንግስት
ከንግድ
ከንግግር
ከንፈር
ከንፋስ
ከኖህ
ከኖረ
ከኖሩ
ከኖሩት
ከኖኅ
ከኗሪ
ከኛ
ከአ
ከአሁኑ
ከአሁን
ከአህመድ
ከአህያ
ከአለሙ
ከአለም
ከአለቃ
ከአለት
ከአሉር
ከአሊያንስ
ከአላህ
ከአላስካ
ከአላቢዋ
ከአላውያን
ከአልጋ
ከአሕዛብ
ከአመት
ከአማራ
ከአማርኛ
ከአማርኛው
ከአማዞን
ከአሜሪካ
ከአሜሪካን
ከአሜሪካውያን
ከአምላክ
ከአምስቱ
ከአምስት
ከአምባ
ከአሞራውያን
ከአሥራ
ከአሥር
ከአሦር
ከአሦርኛ
ከአረብ
ከአረብኛ
ከአሪስጣጣሊስ
ከአሪያን
ከአራቱ
ከአራታ
ከአራት
ከአርበኞች
ከአርባ
ከአርፋክስድ
ከአሮጌው
ከአስመራ
ከአስሩ
ከአስራ
ከአስር
ከአስርቱ
ከአስተማሪው
ከአሹር
ከአቅም
ከአበበ
ከአቡነ
ከአቢሜሌክ
ከአቢሲኒያ
ከአባ
ከአባልነት
ከአባቱ
ከአባታቸው
ከአባታችን
ከአባቴ
ከአባት
ከአባቷ
ከአባይ
ከአብ
ከአብራም
ከአብርሃም
ከአብዛኞቹ
ከአብዮቱ
ከአትላንቲክ
ከአትክልት
ከአቶ
ከአናቱ
ከአንስታይን
ከአንበሳ
ከአንተ
ከአንተም
ከአንቺ
ከአንደኛው
ከአንዱ
ከአንዲት
ከአንዳችም
ከአንዳንድ
ከአንድ
ከአንግሎ
ከአእምሮ
ከአከባቢው
ከአካል
ከአካባቢ
ከአካባቢው
ከአካባቢያቸው
ከአካድ
ከአክሱም
ከአክሲስ
ከአክሻክ
ከአዋሽ
ከአዋን
ከአውሬ
ከአውሮጳ
ከአውሮጳውያን
ከአውሮፓ
ከአውሮፓውያን
ከአውሮፕላን
ከአውስትራሊያ
ከአየር
ከአየርላንድ
ከአያቱ
ከአይሁድ
ከአይን
ከአደም
ከአደጋ
ከአዲሱ
ከአዲስ
ከአዳል
ከአዳም
ከአድማስ
ከአድዋ
ከአገልግሎት
ከአገሩ
ከአገሪቱ
ከአገራቸው
ከአገሬው
ከአገር
ከአጎራባች
ከአጎቱ
ከአጠቃላይ
ከአጭር
ከአጼ
ከአፈ
ከአፈር
ከአፉ
ከአፋር
ከአፍ
ከአፍሪቃ
ከአፍሪካ
ከአፍሮ
ከአፍጋኒስታን
ከኡሩክ
ከኡር
ከኢ
ከኢራን
ከኢሲን
ከኢሳት
ከኢስላም
ከኢስታንቡል
ከኢትዮ
ከኢትዮጲያ
ከኢትዮጵያ
ከኢትዮጵያውያን
ከኢኮኖሚ
ከኢየሩሳሌም
ከኢየሩሳሌምም
ከኢየሱስ
ከኢያሱ
ከኢጣልያ
ከኣለው
ከኣሉት
ከኣንድ
ከኤላም
ከኤሌክትሪክ
ከኤርትራ
ከኤብላ
ከኤች
ከኤችአይቪ
ከኤፍራጥስ
ከኤፕሪል
ከእ
ከእህል
ከእለታት
ከእመቤታችን
ከእምነቱ
ከእምነት
ከእረፍት
ከእርሱ
ከእርሱም
ከእርሷ
ከእርሻ
ከእሱ
ከእሳቱ
ከእሳት
ከእስልምና
ከእስራኤል
ከእስር
ከእስኩቴስ
ከእስክንድርያ
ከእስያ
ከእስፓንኛ
ከእስፓንያ
ከእብራይስጥ
ከእቴጌ
ከእነርሱ
ከእነርሱም
ከእነሱ
ከእነዚህ
ከእነዚህም
ከእነዚያ
ከእናቱ
ከእናታቸው
ከእናቴ
ከእናት
ከእናቷ
ከእናንተ
ከእናንተም
ከእኔ
ከእኔም
ከእንስሳ
ከእንስሳት
ከእንቁላል
ከእንቅልፉ
ከእንቅልፌ
ከእንደገና
ከእንጀራ
ከእንግሊዝ
ከእንግሊዝኛ
ከእንግሊዝኛው
ከእንግሊዞች
ከእንግዲህ
ከእንጦጦ
ከእንጨት
ከእኛ
ከእውነት
ከእዚህ
ከእዚያ
ከእዚያም
ከእየሱስ
ከእያንዳንዱ
ከእጁ
ከእጅ
ከእግር
ከእግዚአብሔር
ከኦማን
ከኦሪት
ከኦርቶዶክስ
ከኦርጦፖሊስ
ከኦሮሚያ
ከኦሮሞ
ከኦስትሪያ
ከኦቶማን
ከኦክቶበር
ከከለዳውያን
ከከርሰ
ከከበረ
ከከበሩ
ከከባቢ
ከከባቢው
ከከባድ
ከከተማ
ከከተማዋ
ከከተማው
ከከተሞች
ከከነዓን
ከከፍተኛ
ከኩሽ
ከኩሽቲክ
ከኩፉ
ከኩፋሌ
ከኪም
ከኪሽ
ከኪዙዋትና
ከኪየቭ
ከካህናት
ከካሊፎርኒያ
ከካሚላ
ከካም
ከካምብሪጅ
ከካራን
ከካርቱም
ከካሮት
ከካስፒያን
ከካቶሊክ
ከካነሽ
ከካናዳ
ከካዛሉ
ከኬልቲክ
ከኬብሮን
ከኬንያ
ከኬጢያውያን
ከኬጥያውያን
ከክ
ከክልሉ
ከክልል
ከክሬምሊን
ከክርስቲያን
ከክርስትና
ከክርስቶስ
ከክፉ
ከኮመንዌልዝ
ከኮሚኒስት
ከኮምፒውተር
ከኮቪድ
ከኮንሰርቫቲቭ
ከኮንጎ
ከኹለቱ
ከኹለት
ከኾነ
ከኾንኹ
ከኾንኽ
ከዅሉ
ከወ
ከወህኒ
ከወለደች
ከወለደችለት
ከወለዱ
ከወላይታ
ከወላጆቹ
ከወላጆቻቸው
ከወልድ
ከወሎ
ከወረረ
ከወረሩ
ከወረራ
ከወረደ
ከወረዱ
ከወረዳው
ከወራት
ከወር
ከወርቅ
ከወሰነ
ከወሰደ
ከወተት
ከወታደራዊ
ከወንዙ
ከወንዝ
ከወንዱ
ከወንድ
ከወንድሙ
ከወንድም
ከወንድሞቹ
ከወንዶች
ከወንጀል
ከወይዘሮ
ከወደ
ከወደቀ
ከወደቀበት
ከወደቁ
ከወዴት
ከወገቡ
ከወገብ
ከወጡ
ከወጣ
ከወጣቱ
ከወጣች
ከወጥ
ከዉጭ
ከዋለ
ከዋለበት
ከዋሉ
ከዋርካ
ከዋሻ
ከዋሻው
ከዋሽንግተን
ከዋተርቢር
ከዋና
ከዋናው
ከዋክብት
ከዋክብትን
ከዌልስ
ከዌስትሚኒስተር
ከው
ከውሀ
ከውሃ
ከውሃው
ከውርዴ
ከውስጡ
ከውስጥ
ከውሻ
ከውቅያኖስ
ከውኃ
ከውኃው
ከውድድሩ
ከውጪ
ከውጭ
ከውጭው
ከዐሥራ
ከዐፄ
ከዑር
ከዓለሙ
ከዓለማት
ከዓለማችን
ከዓለም
ከዓመታት
ከዓመት
ከዓቢዩ
ከዓጼ
ከዓፄ
ከዕለታት
ከዕለት
ከዕብራውያን
ከዕብራይስጥ
ከዕፅዋት
ከዘ
ከዘላለም
ከዘላቂው
ከዘመቻ
ከዘመነ
ከዘመኑ
ከዘመናት
ከዘመናዊ
ከዘመናዊቷ
ከዘመናዊው
ከዘመን
ከዘመዱ
ከዘመድ
ከዘሩ
ከዘር
ከዘንዶ
ከዘአበ
ከዘይት
ከዘጠና
ከዘጠኙ
ከዘጠኝ
ከዘፈነ
ከዙሪክ
ከዙሪያው
ከዙፋኑ
ከዙፋናቸው
ከዚ
ከዚሁ
ከዚህ
ከዚህም
ከዚህች
ከዚች
ከዚያ
ከዚያህ
ከዚያም
ከዚያስ
ከዚያች
ከዚያን
ከዚያው
ከዛ
ከዛም
ከዛምቤዚ
ከዛሬ
ከዛሬው
ከዛፍ
ከዜሮ
ከዝሆን
ከዝቅተኛ
ከዝናብ
ከዝንጀሮ
ከዞኑ
ከዥብ
ከየመን
ከየት
ከየትኛው
ከየትኛውም
ከየካቲት
ከዩኒቨርሲቲ
ከዩኒኮድ
ከዩናይትድ
ከዩኔስኮ
ከዩኤስ
ከዩክሬን
ከያሉበት
ከያማቶ
ከያምኻድ
ከያንዳንዱ
ከያዕቆብ
ከያዘ
ከያዘበት
ከያዘው
ከያዙ
ከያዙት
ከያፌት
ከይሁዳ
ከይፋዊ
ከዮሐንስ
ከዮርዳኖስ
ከዮቅጣን
ከዮናስ
ከደ
ከደህንነት
ከደም
ከደረሰ
ከደረሰው
ከደረሱ
ከደረሱት
ከደረቀ
ከደረቁም
ከደረቱ
ከደረቷ
ከደርግ
ከደሴ
ከደሴቱ
ከደቀ
ከደቡባዊ
ከደቡብ
ከደብረ
ከደብረታቦር
ከደች
ከደጃዝማች
ከደጋው
ከዱሩ
ከዱር
ከዱባይ
ከዲንቃ
ከዲያብሎስ
ከዲያና
ከዳ
ከዳሞት
ከዳር
ከዳቦ
ከዳኑብ
ከዳንጉን
ከዳኛ
ከዳዊት
ከዳግማዊ
ከዴላ
ከዴሞክራቲክ
ከዴንማርክ
ከድህነት
ከድል
ከድረ
ከድሬ
ከድርጅቱ
ከድሮ
ከድሮው
ከድተው
ከድንበር
ከድንጋይ
ከድንግል
ከዶ
ከዶሮ
ከዶክተሩ
ከዶክተሮች
ከጀመረ
ከጀመረበት
ከጀመሩ
ከጀመሩበት
ከጀርመናዊው
ከጀርመን
ከጀርባው
ከጁላይ
ከጁን
ከጂሚ
ከጃንሆይ
ከጃፓን
ከጄሚ
ከጅማ
ከጅምሩ
ከጅረት
ከጅቡቲ
ከጅብ
ከጆን
ከገሊላ
ከገመዱ
ከገሙ
ከገበሬዎች
ከገበያ
ከገበያው
ከገቡ
ከገቡት
ከገባ
ከገብስ
ከገነት
ከገንዘብ
ከገንፎ
ከገዙ
ከገዙት
ከገዛ
ከገዢው
ከገደለ
ከገደለው
ከገደሉ
ከገዳሙ
ከገጠር
ከገጽ
ከጉራጌ
ከጉታውያን
ከጉድጓድ
ከጉግል
ከጊልጋመሽ
ከጊዜ
ከጊዜው
ከጋሜር
ከጋሞ
ከጋራ
ከጋብቻ
ከጋን
ከጋዛ
ከጋዜጠኞች
ከጋጥ
ከጌታ
ከጌታችን
ከጌታው
ከግላጎሊቲክ
ከግል
ከግማሽ
ከግምት
ከግሪኩ
ከግሪክ
ከግሪክኛ
ከግሪኮች
ከግራ
ከግራኝ
ከግራዝማች
ከግስበት
ከግብር
ከግብርና
ከግብጽ
ከግብጽኛ
ከግብፃውያን
ከግብፅ
ከግንቡ
ከግንቦት
ከግንዱ
ከግዕዙ
ከግዕዝ
ከግዛቱ
ከግዛት
ከግድቡ
ከግድግዳው
ከጎረቤቱ
ከጎረቤት
ከጎረቤቶቻቸው
ከጎረቤቶቿ
ከጎኑ
ከጎን
ከጎንደር
ከጎጃም
ከጓደኞቻቸው
ከጠላት
ከጠላቶቹ
ከጠቅላላ
ከጠቅላላው
ከጠቅላይ
ከጠንካራ
ከጠዋቱ
ከጠፈር
ከጠፋ
ከጣሊያን
ከጣልኛ
ከጣልያን
ከጣና
ከጣኦት
ከጤቤስ
ከጤና
ከጤፍ
ከጥላሁን
ከጥልቅ
ከጥሩ
ከጥሬ
ከጥር
ከጥርስ
ከጥቁር
ከጥቂት
ከጥቃቱ
ከጥቃት
ከጥቅሙ
ከጥቅም
ከጥቅምት
ከጥንቱ
ከጥንታዊ
ከጥንታዊው
ከጥንት
ከጥንቶቹ
ከጥንቷ
ከጥዋሁ
ከጥይት
ከጥጃዋና
ከጥጥ
ከጥፋት
ከጦር
ከጦርነቱ
ከጦርነት
ከጦጣ
ከጧቱ
ከጨለማ
ከጨረሰ
ከጨረሱ
ከጨረቃ
ከጨዋታ
ከጫካ
ከጭቃ
ከጭነት
ከጮኸ
ከጳጳሱ
ከጻፈው
ከጻፉት
ከጽዮን
ከፀሐይ
ከፀደቀ
ከፈለ
ከፈለገ
ከፈለጉ
ከፈለጋችሁ
ከፈረስ
ከፈረንሣይ
ከፈረንሳይ
ከፈረንሳይና
ከፈረንሳይኛ
ከፈሪሳውያን
ከፈሪሳውያንም
ከፈሪሳውያንና
ከፈርዖን
ከፈሰሰ
ከፈሳሽ
ከፈስ
ከፈተ
ከፈተች
ከፈቱ
ከፈቷት
ከፈን
ከፈጠሩ
ከፈጣሪ
ከፈጸመ
ከፈጸሙ
ከፊሉ
ከፊል
ከፊር
ከፊተኛው
ከፊተኞቹ
ከፊቱ
ከፊት
ከፊንቄ
ከፊደሉ
ከፋ
ከፋህ
ከፋርስ
ከፋሲል
ከፋሺስት
ከፋኛ
ከፋይ
ከፋፍለው
ከፋፍሎ
ከፌብሩዋሪ
ከፍ
ከፍለ
ከፍልስጤማውያን
ከፍልስጤም
ከፍልስጥኤማውያን
ከፍልስፍና
ከፍሎ
ከፍራፍሬ
ከፍርድ
ከፍቅር
ከፍተኛ
ከፍተኛው
ከፍተኛውን
ከፍተዋል
ከፍተው
ከፍታ
ከፍታው
ከፍታዎች
ከፍትፍቱ
ከፍቶ
ከፍቷል
ከፍና
ከፍንጅ
ከፍካሬ
ከፍጥረት
ከፎርት
ከፑቲን
ከፑንት
ከፒራሚዱ
ከፓሪስ
ከፓርላማ
ከፓርቲ
ከፓስፊክ
ከፓኪስታን
ከፔታይን
ከፔንሮዝ
ከፕላኔቷ
ከፕሬዚዳንት
ከፕሬዝዳንት
ከፕሮቶ
ከፖለቲካ
ከፖለቲካው
ከፖሊስ
ከፖርቱጋል
ከፖርትላንድ
ኩ
ኩሊጅ
ኩላሊት
ኩላባ
ኩል
ኩልሾችና
ኩሎምብ
ኩመር
ኩማማ
ኩሩ
ኩሩካን
ኩሪ
ኩሪጋልዙ
ኩራቱ
ኩራቴን
ኩራት
ኩሬ
ኩርባ
ኩርባው
ኩርድኛ
ኩሱሚ
ኩሳ
ኩስ
ኩስቲስ
ኩሺ
ኩሺቲክ
ኩሻዊ
ኩሻውያን
ኩሽ
ኩሽቲክ
ኩበት
ኩባ
ኩባባ
ኩባንያ
ኩባንያን
ኩባንያው
ኩባንያዎች
ኩባንያዎችን
ኩባያ
ኩቤክ
ኩብላይ
ኩቲክ
ኩታ
ኩነት
ኩነቶች
ኩነኔ
ኩነይፎርም
ኩና
ኩናማ
ኩኔይፎርም
ኩንታል
ኩንቼ
ኩንፋልኛ
ኩኦምሚንታንግ
ኩክ
ኩወይት
ኩዊንስ
ኩዋክሻጥራ
ኩዌት
ኩዌትን
ኩዝማ
ኩዱሪ
ኩዱር
ኩዲንግተን
ኩግባው
ኩፉ
ኩፋ
ኩፋሌ
ኩፍ
ኩፍኝ
ኩፐር
ኪ
ኪልቅያ
ኪሎ
ኪሎሜትር
ኪሎግራም
ኪሜ
ኪሜራውያን
ኪም
ኪምባል
ኪምብሪ
ኪሡራን
ኪሩቤል
ኪሪባስ
ኪራዩ
ኪራይ
ኪርታ
ኪርጊዝስታን
ኪሮስ
ኪሱ
ኪሳራ
ኪሳራውን
ኪሴ
ኪሺዳ
ኪሽ
ኪሽን
ኪሽንና
ኪባኪ
ኪቦርድ
ኪቲም
ኪታብ
ኪት
ኪትስ
ኪቶ
ኪነ
ኪነት
ኪነይ
ኪኒሼ
ኪን
ኪንሻሳ
ኪንታሮት
ኪንና
ኪንዲ
ኪንዳቱ
ኪንግ
ኪንግስ
ኪንግደም
ኪንግደምን
ኪኝ
ኪው
ኪዙዋትና
ኪዙዋትናን
ኪየቫን
ኪየቭ
ኪየቭን
ኪያር
ኪዮ
ኪዲን
ኪዳነ
ኪዳነወልድ
ኪዳኑ
ኪዳኑን
ኪዳኔ
ኪዳን
ኪዳንም
ኪዳንና
ኪዳንን
ኪጋሊ
ኪግ
ኪግዶም
ኪፑር
ኪፕሲጊስ
ካ
ካሁኑ
ካሁን
ካህኑ
ካህናቱ
ካህናቱም
ካህናቱን
ካህናት
ካህናትና
ካህን
ካለ
ካለመኖር
ካለም
ካለቀ
ካለቀሰ
ካለቀሱ
ካለበለዚያ
ካለበት
ካለባቸው
ካለች
ካለችበት
ካለንደር
ካለው
ካለዎ
ካለፈ
ካለፈው
ካለፉት
ካሉ
ካሉበት
ካሉት
ካሊ
ካሊቃ
ካሊኒንግራድ
ካሊድ
ካሊፎርኒያ
ካሊፎርኒያን
ካላብሪያ
ካላት
ካላቸው
ካላችሁ
ካላንደር
ካላየ
ካሌ
ካሌብ
ካሌብም
ካሌንደር
ካሌንዳር
ካሌንጂን
ካሌዶኒያ
ካልሆነ
ካልሆነም
ካልሆኑ
ካልሆኑት
ካልመከሩለት
ካልመጠጡት
ካልሞተ
ካልሲ
ካልሲየም
ካልሺየም
ካልቡም
ካልቪን
ካልተደረገ
ካልቻለ
ካልቻልን
ካልነሱት
ካልነፈጉት
ካልናቁ
ካልን
ካልእ
ካልኩለስ
ካልኩለስን
ካልኩሌተር
ካልኩሌተሮች
ካልዕ
ካልዘለሉ
ካልዘራ
ካልደፈረሰ
ካልጋ
ካልጫረ
ካመዱ
ካመድ
ካመጣ
ካሙዙ
ካሚላ
ካሚዮን
ካማል
ካማራ
ካሜሩን
ካሜራ
ካሜሮን
ካሜሴኑስ
ካም
ካምባ
ካምባራጌ
ካምባጣ
ካምቤል
ካምብሪጅ
ካምቦ
ካምቦብላስኮን
ካምቦዲያ
ካምና
ካምን
ካምፓስ
ካምፓሶች
ካምፓኒ
ካምፕ
ካምፖች
ካሞስ
ካሣ
ካሣም
ካሣን
ካሣዊ
ካሣውን
ካሣውያን
ካሥኛ
ካረጁ
ካረጋገጡ
ካረፈ
ካረፈበት
ካረፉ
ካሩም
ካሪቡ
ካሪቢያን
ካራ
ካራምቻንድ
ካራን
ካራንዱኒያሽ
ካራጁ
ካሬ
ካር
ካርል
ካርሎ
ካርሎስ
ካርቦኔት
ካርቦን
ካርቦንዳይኦክሳይድ
ካርተር
ካርቱም
ካርቱሽ
ካርቱን
ካርታ
ካርታው
ካርታውን
ካርታዎች
ካርት
ካርቶን
ካርዱ
ካርዲናል
ካርድ
ካርግ
ካሮ
ካሮሉስ
ካሮላይና
ካሮል
ካሮት
ካሲየስ
ካሳ
ካሳሁን
ካሳለፈ
ካሳም
ካሳቫ
ካሳን
ካሳዊ
ካሳውያን
ካሳውያንን
ካሳዬ
ካሴት
ካስ
ካስል
ካስተማረ
ካስት
ካስትል
ካስትሮ
ካስቶርን
ካስፈለገ
ካስፒያን
ካሸር
ካሸነፈ
ካሸነፉ
ካሻሮ
ካሽሚር
ካሽቲሊያሹ
ካሽቲሊያሽ
ካቀረበው
ካቀረቡ
ካቀረቡት
ካበቁ
ካበቃ
ካቢኔ
ካባ
ካባቱ
ካባት
ካባካ
ካብ
ካብካቡ
ካቦ
ካቪያር
ካቲ
ካቲው
ካቲዎች
ካታላንኛ
ካታሎግ
ካቴድራል
ካቴድራሎች
ካት
ካትሪን
ካቶሊካዊ
ካቶሊካዊት
ካቶሊካዊነት
ካቶሊክ
ካቶሊኮች
ካነሽ
ካነሽን
ካነፈሬ
ካና
ካናል
ካናልን
ካናሪ
ካናቴ
ካናዳ
ካናዳን
ካናዳዊ
ካናዳውያን
ካን
ካንሰር
ካንሰርን
ካንሳስ
ካንተ
ካንተር
ካንት
ካንቶን
ካንቶኖች
ካንቺ
ካንዱ
ካንድ
ካንጀት
ካንገት
ካንጋሮ
ካንግ
ካኖ
ካኖላ
ካኪ
ካካለለ
ካካው
ካካዎ
ካክሪሜ
ካወረደ
ካወቀ
ካወጀ
ካወጡ
ካወጣው
ካውንስል
ካውንቲ
ካውንቲዎች
ካውንዳ
ካውካሰስ
ካዎ
ካዕባን
ካዛሉ
ካዛሉን
ካዛብላንካ
ካዛቩቡ
ካዛቩቡን
ካዛን
ካዛክስታን
ካዛክኛ
ካየን
ካይ
ካይሮ
ካይካይ
ካይኮስ
ካደ
ካደረበት
ካደረገ
ካደረገበት
ካደረገው
ካደረጉ
ካደረጉት
ካደረጋቸው
ካደሮ
ካደጉ
ካዳሽማን
ካዴት
ካድሬዎች
ካድዋላደር
ካገለገሉ
ካገር
ካገባ
ካገኘ
ካገኙ
ካገኙት
ካጋጠማቸው
ካጠና
ካጠናቀቀ
ካጠናቀቁ
ካጣ
ካጥር
ካፈራቻቸው
ካፈገፈገ
ካፉ
ካፊር
ካፊፊቾ
ካፌ
ካፍ
ካፍር
ካፒታሊዝም
ካፒታል
ካፒቴን
ካፒቶል
ካፓሲተር
ካፕ
ካፕቴን
ካፖርት
ኬ
ኬላዎች
ኬል
ኬልቄዶን
ኬልቪን
ኬልቲክ
ኬልቴስ
ኬልቶች
ኬሚስትሪ
ኬሚካላዊ
ኬሚካል
ኬሚካሎች
ኬሚካሎችን
ኬሚካዊ
ኬማል
ኬሪ
ኬር
ኬርከጋርድ
ኬበክ
ኬብሮን
ኬቮርክ
ኬቲን
ኬኒያ
ኬኒያዊ
ኬኔት
ኬኔዝ
ኬኔዲ
ኬኔዲን
ኬን
ኬንሲንግተን
ኬንታኪ
ኬንት
ኬንትሮስ
ኬንያ
ኬንያታ
ኬንያዊው
ኬክ
ኬክሮስ
ኬክት
ኬዝ
ኬዞች
ኬይታ
ኬዮ
ኬጢ
ኬጢያውያን
ኬጥኛ
ኬጥያውያን
ኬፕ
ክ
ክህሎት
ክህሎቶች
ክህሎቶችን
ክህነት
ክህደት
ክለርክ
ክለሳ
ክለቡ
ክለቡን
ክለብ
ክለብን
ክለቦች
ክለቦችን
ክሊቭላንድ
ክሊኒካዊ
ክሊኒክ
ክሊኒኮች
ክሊንተን
ክሊንተንን
ክላሚዶሞናስ
ክላረንስ
ክላርኔት
ክላርክ
ክላሲካል
ክላሲክ
ክላስ
ክላስተር
ክላውዲዩስ
ክላውድ
ክላይድ
ክላድስ
ክሌስም
ክሌዎፓትራ
ክሌይ
ክልሉ
ክልሉን
ክልላቸው
ክልላዊ
ክልል
ክልልና
ክልልን
ክልሎች
ክልሎችን
ክልስ
ክልሶች
ክልቶኦክሳይድ
ክልከላ
ክልክል
ክሎሪን
ክሎሬላ
ክሎቨር
ክሎቪስ
ክሎድ
ክሎዶሚር
ክም
ክምር
ክምችቱ
ክምችት
ክምችትን
ክምችቶች
ክረምቱ
ክረምቱን
ክረምት
ክረምትና
ክረምትን
ክሩስቼቭ
ክሩስቾቭ
ክሩሽቼቭ
ክሩዘር
ክሩዝ
ክሩድ
ክሪሚያ
ክሪስ
ክሪስቲ
ክሪስቲያን
ክሪስታል
ክሪስታቮ
ክሪስቶፈር
ክሪስቶፎሮ
ክሪኬት
ክሪክ
ክሪዮል
ክራር
ክራኑስ
ክራካቶአ
ክራውፎርድ
ክራይ
ክራይሚያ
ክራይሚያን
ክራፒ
ክሬሚያ
ክሬሚያን
ክሬም
ክሬምሊን
ክሬዚ
ክሬዮል
ክሬዲት
ክር
ክርስቲያኑ
ክርስቲያኑን
ክርስቲያኒቱ
ክርስቲያናት
ክርስቲያናትን
ክርስቲያናቸው
ክርስቲያናችን
ክርስቲያናዊ
ክርስቲያን
ክርስቲያንም
ክርስቲያንና
ክርስቲያንን
ክርስቲያኖ
ክርስቲያኖች
ክርስቲያኖችን
ክርስትና
ክርስትናን
ክርስትያናት
ክርስትያን
ክርስትያኖች
ክርስቶስ
ክርስቶስም
ክርስቶስሰምራአማርኛ
ክርስቶስና
ክርስቶስን
ክርክም
ክርክሩ
ክርክሩን
ክርክር
ክርክርን
ክርክሮች
ክሮምዌል
ክሮሞሶም
ክሮሞሶሞች
ክሮስ
ክሮች
ክሮችን
ክሮኒኮን
ክሮኖስ
ክሮኖስን
ክሮኤሽኛ
ክሮኤሽያ
ክሮውፊሽ
ክሮፍት
ክሱ
ክሱን
ክስ
ክስተቱ
ክስተት
ክስተቶች
ክስተቶችና
ክስተቶችን
ክሶች
ክበባት
ክበብ
ክበቦች
ክቡ
ክቡራን
ክቡር
ክባዊ
ክብ
ክብረ
ክብሩ
ክብሩን
ክብሪት
ክብራችን
ክብራን
ክብር
ክብርም
ክብርት
ክብርና
ክብርን
ክብደቱ
ክብደታቸው
ክብደት
ክብደቶች
ክቦች
ክቫርታል
ክተት
ክትባቱን
ክትባት
ክትባቶች
ክትትል
ክትፎ
ክነዚህም
ክናችቡል
ክንዋኔ
ክንውን
ክንውኖች
ክንድ
ክንዶቹ
ክንዶች
ክንፉ
ክንፍ
ክንፎች
ክወና
ክዋሜ
ክዳን
ክዶ
ክጉጉ
ክፈል
ክፉ
ክፉም
ክፉን
ክፉኛ
ክፉው
ክፉውን
ክፉዎች
ክፋቱ
ክፋት
ክፋትን
ክፋይ
ክፍለ
ክፍለሀገር
ክፍለመደብ
ክፍለስፍን
ክፍለአለም
ክፍለዘመናት
ክፍለዘመን
ክፍሉ
ክፍላተ
ክፍላቸውን
ክፍላገሩ
ክፍላገራት
ክፍላገር
ክፍላገሮች
ክፍሌ
ክፍል
ክፍልም
ክፍልና
ክፍልን
ክፍልፋይ
ክፍልፋዮች
ክፍሎቹ
ክፍሎቹን
ክፍሎች
ክፍሎችም
ክፍሎችና
ክፍሎችን
ክፍተት
ክፍተቶች
ክፍተኛ
ክፍት
ክፍያ
ክፍያውን
ክፍያዎች
ክፍያዎችን
ክፍፍል
ክፍፍልን
ክፍፍሎች
ኮ
ኮለምቢያ
ኮለን
ኮሊን
ኮሊንስ
ኮሊክ
ኮላ
ኮሌራ
ኮሌጁ
ኮሌጅ
ኮሌጆች
ኮልፌ
ኮሎምበስ
ኮሎምቢያ
ኮሎምቦ
ኮሎራዶ
ኮሎነል
ኮሎኔል
ኮሎዶጎምር
ኮመን
ኮመንዌልዝ
ኮሙኒስት
ኮሙኒኬሽን
ኮሚሲዮን
ኮሚሽነር
ኮሚሽኑ
ኮሚሽኑን
ኮሚሽን
ኮሚቴ
ኮሚቴው
ኮሚቴዎች
ኮሚኒስት
ኮሚኒቲ
ኮሚኒኬሽን
ኮሚክስ
ኮማ
ኮማንደር
ኮማንዶ
ኮሜሩስ
ኮሜርስ
ኮሜዲ
ኮም
ኮምሞዶር
ኮምቦልቻ
ኮምጣጤ
ኮምፒውተር
ኮምፒውተሮች
ኮምፒዩተር
ኮምፒዩተሮች
ኮምፕሌክስ
ኮምፕዩተሩ
ኮምፕዩተራይዝ
ኮምፕዩተራይዝድ
ኮምፕዩተር
ኮምፕዩተርና
ኮምፕዩተሮች
ኮምፕዩተሮችና
ኮሞ
ኮሞሮስ
ኮሞዲቲ
ኮሞዶር
ኮረማሽ
ኮረሪማ
ኮረብታ
ኮረብታማ
ኮረብታዎች
ኮረብታዎችን
ኮረብቶች
ኮረት
ኮረንቲ
ኮሪቱስ
ኮሪያ
ኮሪያን
ኮሪይኛ
ኮሪደሮች
ኮሪጎሃና
ኮር
ኮርማክ
ኮርሲካ
ኮርስ
ኮርሶች
ኮርሶችን
ኮርትኒ
ኮርቻ
ኮርቻውን
ኮርኒሽ
ኮርንዋሊስ
ኮርንዋል
ኮርያ
ኮርዶባ
ኮርፖሬሽን
ኮርፖሬሽኖች
ኮርፖሬት
ኮሮና
ኮሮናቫይረስ
ኮሮናቫይረሶች
ኮሳይን
ኮስሞሎጂ
ኮስታ
ኮስት
ኮስትን
ኮሶ
ኮሶበር
ኮሶቮ
ኮሽም
ኮበለለ
ኮባ
ኮቪድ
ኮቲ
ኮታ
ኮቴ
ኮቴሃሬ
ኮት
ኮነቲከት
ኮኒ
ኮናይረ
ኮን
ኮንራድ
ኮንሰርቫቲቭ
ኮንሰርት
ኮንሰርቶች
ኮንሳብ
ኮንስታብል
ኮንስታንቲን
ኮንስትራክሽን
ኮንሶ
ኮንሶኛ
ኮንቬንሽን
ኮንቲ
ኮንቲኔንታል
ኮንታ
ኮንትራት
ኮንትራክት
ኮንክሪት
ኮንኮርድ
ኮንዌይ
ኮንዶም
ኮንዶር
ኮንግ
ኮንግረስ
ኮንግረስን
ኮንጎ
ኮንፈረስ
ኮንፈረንስ
ኮንፌዴሬሽን
ኮንፍረንስ
ኮከቡ
ኮከብ
ኮከቦች
ኮካ
ኮክ
ኮክባ
ኮኮብ
ኮኮነት
ኮዬጎ
ኮይሻ
ኮድ
ኮዶች
ኮጆ
ኮግኒግ
ኮፊ
ኮፍያ
ኮፐር
ኮፒ
ኮፒራይት
ኮፕት
ኰ
ኰሙኒስም
ኰሙኒስት
ኲ
ኲል
ኲልና
ኲሰርሰቴም
ኳ
ኳሪ
ኳስ
ኳስና
ኳሶቹ
ኳሶቹን
ኳሶች
ኳሶችን
ኳታር
ኳንተም
ኳድራቲክ
ኴ
ኵ
ኸ
ኸሊፋ
ኸሊፋዎች
ኸርማን
ኸርሸል
ኸርበርት
ኸበስተኋላው
ኸንቲ
ኸንጀር
ኸጛል
ኹ
ኹለተኛ
ኹለተኛውም
ኹለተኛውንም
ኹለቱ
ኹለቱም
ኹለቱን
ኹለቱንም
ኹለት
ኹሉ
ኹታዊ
ኹታዊሬ
ኹኑ
ኹኔታ
ኹኔታዎች
ኺ
ኺዱ
ኺድ
ኺድና
ኺጂ
ኻ
ኻሙዲ
ኻስ
ኻና
ኻን
ኻአንኽሬ
ኻውባው
ኻዎሰሬ
ኻያ
ኼ
ኼደ
ኼደኽ
ኼደው
ኼዱ
ኼዳችኹ
ኼዶ
ኼዶም
ኽ
ኽምራ
ኽያን
ኾ
ኾነ
ኾነች
ኾነኽ
ኾነው
ኾኑ
ኾናችኹ
ኾንኹ
ኾንኽ
ኾኖ
ኾኗል
ኾኗልና
ኾኜ
ዀ
ዂ
ዃ
ዃለኛዎች
ዃላ
ዄ
ዅ
ዅሉ
ዅሉም
ዅሉን
ዅሉንም
ዅላችኹ
ዅልጊዜ
ወ
ወህኒ
ወህይ
ወለሉ
ወለላ
ወለል
ወለምታ
ወለባ
ወለተ
ወለደ
ወለደች
ወለደችለት
ወለዱ
ወለዱን
ወለዳቸው
ወለድ
ወለዶች
ወለጋ
ወሊሶ
ወሊድ
ወላኔኛ
ወላይታ
ወላይትኛ
ወላዲተ
ወላጅ
ወላጆቹ
ወላጆቻቸው
ወላጆቻቸውን
ወላጆች
ወላጆችና
ወላጆቿ
ወላፈን
ወሌ
ወልቃይት
ወልደ
ወልደመድኅን
ወልደሚካኤል
ወልደማርያም
ወልደሥላሴ
ወልደሰማዕት
ወልደዋል
ወልደው
ወልደየስ
ወልደያ
ወልደገብርኤል
ወልደጊዮርጊስ
ወልዳ
ወልዴ
ወልድ
ወልድም
ወልድን
ወልዶ
ወሎ
ወሎና
ወሎን
ወሓካ
ወመኔ
ወመንፈስ
ወመዝገበ
ወምስል
ወምበሬ
ወምበር
ወሠለም
ወረ
ወረረ
ወረረች
ወረሩ
ወረራ
ወረራት
ወረራው
ወረራውን
ወረራዎች
ወረራዎችን
ወረርሽኙ
ወረርሽኙን
ወረርሽኝ
ወረሰ
ወረሰው
ወረሱ
ወረቀቱ
ወረቀት
ወረቀቶች
ወረቀቶችን
ወረቅት
ወረቱን
ወረደ
ወረደች
ወረደነት
ወረዱ
ወረዳ
ወረዳችን
ወረዳነት
ወረዳን
ወረዳዋ
ወረዳው
ወረዳዎች
ወረዳዎችና
ወረዳዎችን
ወሩ
ወራሪ
ወራሪዎች
ወራሹ
ወራሹን
ወራሽ
ወራሽነት
ወራሽና
ወራሾች
ወራት
ወራትም
ወራትን
ወራቸው
ወራጅ
ወሬ
ወሬኛ
ወሬውን
ወሬዎች
ወር
ወርልድ
ወርረው
ወርሮ
ወርሶ
ወርቁ
ወርቁን
ወርቃማ
ወርቃማው
ወርቄ
ወርቅ
ወርቅነህ
ወርቅና
ወርቅን
ወርኃ
ወርና
ወርክሾፕ
ወርውረው
ወርውሮ
ወርደው
ወርዱ
ወርዱም
ወርዶ
ወርዷል
ወርጂ
ወሮ
ወሮች
ወሰለም
ወሰነ
ወሰነች
ወሰኑ
ወሰን
ወሰንን
ወሰኖች
ወሰደ
ወሰደች
ወሰደው
ወሰዱ
ወሰዱት
ወሰዳት
ወሰዳቸው
ወሰድን
ወሰድኩ
ወሲባዊ
ወሲብ
ወሳኙ
ወሳኝ
ወስ
ወስብሐት
ወስነዋል
ወስነው
ወስኖ
ወስኗል
ወስደህ
ወስደን
ወስደዋል
ወስደው
ወስዳ
ወስዶ
ወስዷል
ወስጄ
ወስጥ
ወስፋት
ወስፌ
ወሻ
ወሽመት
ወሽመጥ
ወቄት
ወቅሰዋል
ወቅሳለች
ወቅቱ
ወቅታዊ
ወቅት
ወቅትም
ወቅቶች
ወቅዱስ
ወባ
ወብራ
ወተቱን
ወተት
ወተትና
ወተዓላ
ወታደሩ
ወታደሩን
ወታደራዊ
ወታደራዊው
ወታደር
ወታደርነት
ወታደርና
ወታደሮቹ
ወታደሮቹን
ወታደሮች
ወታደሮችም
ወታደሮችና
ወታደሮችን
ወታደሮቿን
ወትሮ
ወቹ
ወኒ
ወና
ወናግ
ወኔ
ወንበሩ
ወንበር
ወንበሮች
ወንበዴ
ወንበዴዎች
ወንዙ
ወንዙን
ወንዝ
ወንዝና
ወንዝን
ወንዞቹ
ወንዞች
ወንዞችን
ወንደም
ወንደቢ
ወንዱ
ወንዴ
ወንዴዘር
ወንድ
ወንድሙ
ወንድሙም
ወንድሙን
ወንድሙንም
ወንድማማች
ወንድማማችነት
ወንድማማቾቹ
ወንድማማቾች
ወንድማቸው
ወንድማቸውን
ወንድማችን
ወንድማችውን
ወንድሜ
ወንድሜን
ወንድም
ወንድምሽ
ወንድምና
ወንድሞቹ
ወንድሞቹም
ወንድሞቹን
ወንድሞቼ
ወንድሞች
ወንድሞችና
ወንድሞችን
ወንድሞቿ
ወንድሟ
ወንድሟን
ወንድና
ወንድን
ወንድወሰን
ወንዶቹ
ወንዶቹም
ወንዶች
ወንዶችም
ወንዶችና
ወንዶችን
ወንጀለኛ
ወንጀለኞች
ወንጀል
ወንጀሎች
ወንጌሉን
ወንጌላት
ወንጌላዊ
ወንጌላዊት
ወንጌላዊነት
ወንጌላዊው
ወንጌላውያን
ወንጌል
ወንጌልን
ወንጌልንም
ወንጌሎች
ወንግሥት
ወንፊት
ወከፍ
ወኪል
ወኪሎች
ወካይ
ወክለው
ወክሎ
ወክሏል
ወወልድ
ወዘተ
ወዘተረፈ
ወዘተርፈ
ወዘት
ወዝ
ወየም
ወዩስ
ወያነ
ወያኔ
ወይ
ወይም
ወይራ
ወይስ
ወይና
ወይናደጋ
ወይኔ
ወይን
ወይንም
ወይንስ
ወይኖ
ወይዘሪት
ወይዘሮ
ወይዴ
ወይጦ
ወይጦኛ
ወይፈን
ወይፈንን
ወዮ
ወዮለት
ወዮላቸው
ወዮላችኹ
ወደ
ወደሆነው
ወደሆኑ
ወደላይ
ወደሌላ
ወደሌላው
ወደሎንዶን
ወደመሬት
ወደሚሆን
ወደሚለው
ወደሚባለው
ወደሚባል
ወደሚኖሩበት
ወደሚገባው
ወደሚገኘው
ወደሚገኝ
ወደምትባል
ወደምትገኘው
ወደምዕራብ
ወደምድር
ወደር
ወደርሱ
ወደርሷ
ወደሰማይ
ወደሰሜን
ወደሱ
ወደሽ
ወደቀ
ወደቀች
ወደቀና
ወደቁ
ወደቡ
ወደብ
ወደብን
ወደቦች
ወደቦችን
ወደተለያዩ
ወደተራራ
ወደታች
ወደኋላ
ወደነሱ
ወደነበረበት
ወደነበረው
ወደነዚህ
ወደነጻነት
ወደኔ
ወደኛ
ወደአዲስ
ወደአገሩ
ወደአገራቸው
ወደኢትዮጵያ
ወደእግዚአብሔር
ወደውጭ
ወደዘለዓለም
ወደዚሁ
ወደዚህ
ወደዚያ
ወደዚያው
ወደደ
ወደዱ
ወደገሊላ
ወደገዢው
ወደጊዜ
ወደጎን
ወደጠፈር
ወደፊት
ወደፊትም
ወዲህ
ወዲህም
ወዲያ
ወዲያም
ወዲያና
ወዲያው
ወዲያውም
ወዲያውኑ
ወዳ
ወዳለ
ወዳለበት
ወዳለችው
ወዳለው
ወዳሉ
ወዳሉበት
ወዳቂ
ወዳንተ
ወዳድ
ወዳድነት
ወዳጁ
ወዳጃችን
ወዳጃዊ
ወዳጄ
ወዳጅ
ወዳጅህን
ወዳጅነት
ወዳጅነትን
ወዳጆ
ወዳጆቹ
ወዳጆች
ወዴት
ወዴትም
ወድመዋል
ወድማለች
ወድሟል
ወድቀዋል
ወድቀው
ወድቃ
ወድቄ
ወድቆ
ወድቋል
ወድያው
ወድያውኑ
ወዶ
ወገራ
ወገብ
ወገኑ
ወገኔ
ወገን
ወገንና
ወገኖቹ
ወገኖቻቸው
ወገኖቻችን
ወገኖቼ
ወገኖች
ወገኖችና
ወገኖችን
ወገዳማት
ወጉ
ወጋ
ወጋምቢክ
ወጋው
ወጋየሁ
ወጋገን
ወጋፍ
ወግ
ወግስ
ወግተው
ወግቶ
ወግና
ወጎች
ወጎችን
ወጠጤ
ወጡ
ወጣ
ወጣሁ
ወጣቱ
ወጣቱን
ወጣት
ወጣትነት
ወጣቶቹ
ወጣቶች
ወጣቶችና
ወጣቶችን
ወጣቶችንና
ወጣች
ወጣችኹ
ወጣና
ወጥ
ወጥመድ
ወጥሽ
ወጥተን
ወጥተዋል
ወጥተው
ወጥታ
ወጥታችኹ
ወጥቶ
ወጥቷል
ወጥቼ
ወጥነት
ወጥን
ወጪ
ወጪት
ወጪን
ወጪው
ወጪዎች
ወጪዎችን
ወጭ
ወጭው
ወፈር
ወፍ
ወፍላ
ወፍራም
ወፍጮ
ወፎች
ወፎችም
ወፎችን
ዉ
ዉሀ
ዉሃ
ዉስጥ
ዉበት
ዉኃ
ዉጪ
ዉጭ
ዊ
ዊለር
ዊሊየም
ዊሊያም
ዊሊያምስ
ዊል
ዊልሄልም
ዊልሰን
ዊልክስ
ዊልያም
ዊልያምስ
ዊቴሊዩስ
ዊትላም
ዊትል
ዊትስቶን
ዊና
ዊንስተን
ዊንስታንሊ
ዊንዘር
ዊንድሁክ
ዊንዶውስ
ዊንጌት
ዊኪ
ዊኪዎች
ዊኪፔዲያ
ዊኪፔድያ
ዊክፔዲያ
ዊዝል
ዋ
ዋሂብሬ
ዋህካሬ
ዋህድ
ዋለ
ዋለች
ዋሉ
ዋሊስ
ዋሊያ
ዋል
ዋልሲንግሃም
ዋልተር
ዋልታ
ዋልት
ዋልያ
ዋሚ
ዋሚን
ዋረን
ዋሪ
ዋራድ
ዋርም
ዋርስ
ዋርነር
ዋርካ
ዋርፍ
ዋሳ
ዋሴ
ዋስ
ዋስትና
ዋሺንግተን
ዋሺንግቶን
ዋሻ
ዋሻወች
ዋሻው
ዋሻውን
ዋሻዎች
ዋሽራ
ዋሽንት
ዋሽንግተን
ዋሽንግተንን
ዋቅ
ዋቅላሚ
ዋቅላሚዎች
ዋቢ
ዋቢዎች
ዋት
ዋቶ
ዋነኛ
ዋነኛው
ዋነኞቹ
ዋነኩ
ዋና
ዋናተኛ
ዋናዋ
ዋናው
ዋናውን
ዋናዎቹ
ዋን
ዋንኛው
ዋንዛ
ዋንገም
ዋንጫ
ዋንጫን
ዋንጫውን
ዋንጫዎች
ዋንጫዎችን
ዋው
ዋዛ
ዋዛድ
ዋዜማ
ዋዝንቢት
ዋየል
ዋየሎች
ዋዩ
ዋይ
ዋይላቃዋቃ
ዋይልድ
ዋይታ
ዋይት
ዋይድ
ዋዮሚንግ
ዋዲ
ዋጅካሬ
ዋጋ
ዋጋቸው
ዋጋቸውን
ዋጋና
ዋጋን
ዋጋወች
ዋጋወችን
ዋጋው
ዋጋውም
ዋጋውን
ዋጋዎች
ዋግ
ዋግነር
ዌ
ዌሊንግተን
ዌልስ
ዌልስን
ዌልሽ
ዌልዝ
ዌምብሌይ
ዌር
ዌሴክስ
ዌስተርን
ዌስቲነገሀውስ
ዌስት
ዌስትሚኒስተር
ዌብ
ዌብሳይት
ዌብሳይቶች
ዌንዲ
ዌይ
ዌይን
ው
ውሀ
ውሀና
ውሀን
ውሀውም
ውሁድ
ውሃ
ውሃም
ውሃና
ውሃን
ውሃው
ውሃውን
ውህደቱ
ውህደት
ውህደትን
ውህድ
ውህዶች
ውለታ
ውለዋል
ውለው
ውሉ
ውሉን
ውላ
ውላጅ
ውል
ውልን
ውልደት
ውሎ
ውሎች
ውሎችን
ውሏል
ውሐ
ውሑድ
ውሑዶች
ውሕደት
ውም
ውረድ
ውረጅ
ውርርድ
ውርስ
ውርንጫ
ውርንጭላዋ
ውርወራ
ውርደት
ውርዴ
ውርጭ
ውሰድ
ውሰጥ
ውሱን
ውሳኔ
ውሳኔን
ውሳኔው
ውሳኔውን
ውሳኔዎች
ውሳኔዎችን
ውስብስብ
ውስብስብነት
ውስተ
ውስት
ውስን
ውስንነት
ውስጠ
ውስጠኛ
ውስጠኛው
ውስጡ
ውስጡን
ውስጣቸው
ውስጣዊ
ውስጣዊና
ውስጥ
ውስጥም
ውስጥና
ውሸታም
ውሸት
ውሸትን
ውሻ
ውሻን
ውሻውን
ውሻዎች
ውሽማ
ውሽት
ውሾች
ውሾችን
ውቃ
ውቅር
ውቅሮ
ውቅያኖስ
ውቅያኖስና
ውቅያኖስን
ውቅያኖሶች
ውበት
ውበትና
ውበቷ
ውቤ
ውቤም
ውቤን
ውብ
ውትድርና
ውኃ
ውኃው
ውን
ውንም
ውንጀላ
ውንጀላውን
ውእቱ
ውክሉ
ውክልና
ውክፔዲያ
ውክፔዲያን
ውክፔድያ
ውክፔድያዎች
ውዝዋዜ
ውዝግብ
ውዝግቦች
ውዥንብር
ውይ
ውይም
ውይይት
ውይይቶቹ
ውይይቶች
ውይይቶችን
ውደዱ
ውደድ
ውዳሴ
ውዴ
ውድ
ውድመት
ውድማ
ውድሩ
ውድራቸው
ውድር
ውድሮው
ውድቀት
ውድቀትን
ውድቀቶች
ውድቅ
ውድነህ
ውድነት
ውድዋርድ
ውድድሩ
ውድድሩም
ውድድሩን
ውድድር
ውድድርም
ውድድርን
ውድድሮች
ውድድሮችን
ውጊያ
ውጊያው
ውጊያዎች
ውግዘት
ውግዘትና
ውግያ
ውግያዎች
ውጠው
ውጡ
ውጣ
ውጤቱ
ውጤቱም
ውጤቱን
ውጤታማ
ውጤታማነትን
ውጤታቸው
ውጤት
ውጤትን
ውጤቶቹ
ውጤቶች
ውጤቶችና
ውጤቶችን
ውጥ
ውጥረቱ
ውጥረት
ውጥረትን
ውጥኖች
ውጪ
ውጫዊ
ውጭ
ውጭም
ውፍረቱ
ውፍረት
ዎ
ዎለድ
ዎቮካ
ዎቹ
ዎቹም
ዎቹን
ዎች
ዎከር
ዐ
ዐለይሂ
ዐለይህ
ዐለፈ
ዐሊ
ዐል
ዐልጋ
ዐልጋኽን
ዐልፎ
ዐመፃ
ዐማርኛ
ዐማት
ዐማኑኤል
ዐምር
ዐምሳ
ዐምስት
ዐምደ
ዐምድ
ዐሥሩ
ዐሥራ
ዐሥር
ዐረብኛ
ዐረገ
ዐረፈ
ዐረፈች
ዐረፉ
ዐረፍተ
ዐሩኬዎን
ዐርሽ
ዐርብ
ዐሰበ
ዐሳማ
ዐሳባቸውን
ዐሳብ
ዐቂዳ
ዐቅል
ዐቢይ
ዐባይ
ዐብረው
ዐብሮ
ዐብደላህ
ዐንሁ
ዐንሃ
ዐእማድ
ዐወቀ
ዐዋቂ
ዐዋጁ
ዐዋጅ
ዐውቀው
ዐውቃለኹ
ዐውቃለኹና
ዐውቆ
ዐውደ
ዐይነ
ዐይነት
ዐይን
ዐይንኽ
ዐይኖቹን
ዐይኖች
ዐደራ
ዐዲሱን
ዐዲስ
ዐግ
ዐጥንት
ዐጭር
ዐጼ
ዐፄ
ዐፅም
ዑ
ዑለማኦች
ዑመር
ዑመይር
ዑምበርቶ
ዑር
ዑርን
ዑርኤል
ዑስማን
ዑባ
ዑዝበክ
ዑዝበክስታን
ዑደቱ
ዑደቱን
ዑደት
ዑደቶች
ዒ
ዒላማ
ዒሳ
ዒዛና
ዓ
ዓለሙ
ዓለሙን
ዓለማቀፍ
ዓለማት
ዓለማችን
ዓለማዊ
ዓለማየሁ
ዓለም
ዓለምና
ዓለምን
ዓለምአቀፍ
ዓለቃ
ዓለት
ዓለቶች
ዓሊ
ዓሊም
ዓሊሞች
ዓላማ
ዓላማቸው
ዓላማው
ዓላማውን
ዓላማዎች
ዓላማዎችን
ዓመተ
ዓመቱ
ዓመቱን
ዓመታት
ዓመታትም
ዓመታትን
ዓመታቸው
ዓመታዊ
ዓመት
ዓመትም
ዓመትን
ዓመቶቹ
ዓመቶች
ዓመቷ
ዓመጽ
ዓመፅ
ዓሚር
ዓማርኛ
ዓማርኛና
ዓማርኛን
ዓማርኛው
ዓማርኛውን
ዓም
ዓምደ
ዓምድ
ዓምዶች
ዓሣ
ዓሣውን
ዓሣዎች
ዓረብ
ዓረብኛ
ዓረፈ
ዓረፈና
ዓረፉ
ዓረፍተ
ዓርማ
ዓርብ
ዓርፎ
ዓሳ
ዓቀፍ
ዓቅዓቅ
ዓቢይ
ዓባል
ዓባይ
ዓብይ
ዓት
ዓኢሻ
ዓክልበ
ዓውደ
ዓዓ
ዓየር
ዓይነ
ዓይነተኛ
ዓይነቱ
ዓይነቴዎች
ዓይነት
ዓይነትና
ዓይነቶቹ
ዓይነቶች
ዓይነቶችን
ዓይኑ
ዓይኑን
ዓይናቸው
ዓይን
ዓይንን
ዓይኖቹ
ዓይኖቻቸው
ዓይኖች
ዓድም
ዓድዋ
ዓጼ
ዓጽም
ዓፄ
ዔ
ዔሊ
ዔሳው
ዔቦር
ዕ
ዕለተ
ዕለቱ
ዕለቱን
ዕለታት
ዕለታዊ
ዕለት
ዕለትም
ዕልቂት
ዕመት
ዕምሩ
ዕምነት
ዕምዬ
ዕረፍቱ
ዕረፍታቸው
ዕረፍት
ዕረፍትን
ዕርስ
ዕርቅ
ዕርቅን
ዕርዳታ
ዕርገት
ዕቃ
ዕቃውን
ዕቃዎች
ዕቃዎችን
ዕቅድ
ዕቅዶች
ዕቅዶችን
ዕብ
ዕብራን
ዕብራውያን
ዕብራውያንን
ዕብራይስጥ
ዕትም
ዕንቁ
ዕንቁላል
ዕንቁጣጣሽ
ዕንባ
ዕንጨት
ዕከክ
ዕኩልነት
ዕኩይ
ዕወቁ
ዕወቅ
ዕውር
ዕውሮች
ዕውቀቱን
ዕውቀታቸው
ዕውቀት
ዕውቀትና
ዕውቀትን
ዕውቀቶች
ዕውቀና
ዕውቅ
ዕውቅና
ዕውቅናን
ዕውነተኛ
ዕውነታ
ዕውነት
ዕውን
ዕዝ
ዕዝራ
ዕይታ
ዕደ
ዕዳ
ዕዳዎች
ዕድ
ዕድሉ
ዕድላቸው
ዕድል
ዕድልን
ዕድሜ
ዕድሜና
ዕድሜው
ዕድሜያቸው
ዕድገቱ
ዕድገት
ዕድገትን
ዕጅ
ዕጅግ
ዕጣ
ዕጣን
ዕጣንና
ዕጥፍ
ዕጨጌ
ዕጩ
ዕጩዎች
ዕጽ
ዕጽዋት
ዕፀ
ዕፁብ
ዕፅ
ዕፅዋት
ዖ
ዖባል
ዖጊጌስ
ዘ
ዘሃራ
ዘለለ
ዘለለው
ዘለቀ
ዘለቀና
ዘለቀን
ዘለቄታዊ
ዘለበት
ዘለንስኪ
ዘለዓለም
ዘላለማዊ
ዘላለም
ዘላቂ
ዘላቂነት
ዘላቂነትን
ዘላን
ዘላኖች
ዘሌንስኪ
ዘሌንስኪን
ዘሌዋውያን
ዘልማም
ዘልሳን
ዘልቀው
ዘልቆ
ዘልቋል
ዘሎ
ዘመተ
ዘመተባቸው
ዘመቱ
ዘመቻ
ዘመቻን
ዘመቻወች
ዘመቻወችን
ዘመቻው
ዘመቻውን
ዘመቻዎች
ዘመቻዎችን
ዘመነ
ዘመኑ
ዘመኑም
ዘመኑን
ዘመናት
ዘመናትን
ዘመናቸው
ዘመናቸውን
ዘመናዊ
ዘመናዊት
ዘመናዊቷን
ዘመናዊነት
ዘመናዊና
ዘመናዊው
ዘመናዊውን
ዘመን
ዘመንም
ዘመንና
ዘመንን
ዘመኖች
ዘመኗ
ዘመደ
ዘመዱ
ዘመዱን
ዘመዳቸው
ዘመዴ
ዘመድ
ዘመድና
ዘመድን
ዘመዶቹ
ዘመዶቻቸው
ዘመዶቼ
ዘመዶች
ዘመዶቿ
ዘመዶቿን
ዘሚካኤል
ዘማሪ
ዘማች
ዘማቾች
ዘምባባ
ዘምተው
ዘምቶ
ዘምዝናዊ
ዘረ
ዘረመል
ዘረኛ
ዘረኝነት
ዘረኝነትን
ዘረጋ
ዘረፈ
ዘረፈው
ዘረፋ
ዘሩ
ዘሩን
ዘሪ
ዘሪሁን
ዘራ
ዘራቸው
ዘራዊ
ዘራይጥ
ዘራፊ
ዘሬ
ዘር
ዘርቶ
ዘርን
ዘርአ
ዘርዐ
ዘርዓ
ዘርዝሯል
ዘርጉላኛ
ዘርጋ
ዘርግተው
ዘርግቶ
ዘርፈ
ዘርፉ
ዘርፉን
ዘርፍ
ዘርፎ
ዘርፎች
ዘርፎችን
ዘሮቹ
ዘሮች
ዘሮችን
ዘበሰማያት
ዘበናይ
ዘበኛ
ዘበኛን
ዘበኞች
ዘቢብ
ዘቢድ
ዘባራቂ
ዘኁ
ዘኊልቊ
ዘነበ
ዘነበወርቅ
ዘነብ
ዘና
ዘንበል
ዘንባባ
ዘንቦብሽ
ዘንድ
ዘንድም
ዘንድሮ
ዘንድሮም
ዘንዶ
ዘንዶውን
ዘንጋዳ
ዘንግ
ዘአካላት
ዘአካል
ዘኢትዮጵያ
ዘእምነገደ
ዘእስክንድርያ
ዘካ
ዘካሪያስ
ዘካርያስ
ዘካንም
ዘኬውን
ዘወር
ዘወትር
ዘዋሪ
ዘው
ዘውዱ
ዘውዱን
ዘውዲቱ
ዘውዲቱና
ዘውዲቱን
ዘውዳቸውን
ዘውዴ
ዘውዴን
ዘውድ
ዘውዶች
ዘውግ
ዘየሴ
ዘዬ
ዘዬዎች
ዘይላ
ዘይሴዎች
ዘይቤ
ዘይቤን
ዘይቤው
ዘይቤዎች
ዘይቤዎችን
ዘይቱ
ዘይቱን
ዘይት
ዘይትና
ዘይድ
ዘዳ
ዘዳግም
ዘዴ
ዘዴን
ዘዴወች
ዘዴው
ዘዴውን
ዘዴዎች
ዘዴዎችን
ዘድንግል
ዘድንግልን
ዘገምተኛ
ዘገበ
ዘገበው
ዘገቡ
ዘገባ
ዘገባው
ዘገባዎች
ዘገባዎችን
ዘገየ
ዘጉባኤ
ዘጋ
ዘጋቢ
ዘጌ
ዘግበዋል
ዘግበውታል
ዘግቦት
ዘግቧል
ዘግቼ
ዘግናኝ
ዘግይተው
ዘግይቶ
ዘግይቷል
ዘግዱር
ዘጠነኛ
ዘጠነኛዋ
ዘጠነኛው
ዘጠና
ዘጠኙ
ዘጠኙም
ዘጠኝ
ዘጥ
ዘጸ
ዘጸአት
ዘፈነ
ዘፈኑ
ዘፈኑን
ዘፈን
ዘፈንና
ዘፈኖቹ
ዘፈኖች
ዘፈኖችን
ዘፋኝ
ዘፋኝና
ዘፋኞች
ዘፍ
ዘፍኖ
ዘፍጥ
ዘፍጥረት
ዙ
ዙህ
ዙረህ
ዙሩ
ዙሪክ
ዙሪያ
ዙሪያም
ዙሪያና
ዙሪያው
ዙሪያውን
ዙር
ዙርያ
ዙሮ
ዙበይር
ዙብኮቭ
ዙዙ
ዙፋኑ
ዙፋኑን
ዙፋናቸው
ዙፋናቸውን
ዙፋን
ዚ
ዚህ
ዚላንድ
ዚምባብዌ
ዚን
ዚንክ
ዚኪር
ዚውስ
ዚዳንታ
ዚገም
ዚፓኒ
ዚፕ
ዛ
ዛሂር
ዛህ
ዛልፓ
ዛምቢያ
ዛምታ
ዛሪቁም
ዛሬ
ዛሬማ
ዛሬም
ዛሬን
ዛሬው
ዛር
ዛሮች
ዛቢያ
ዛባባ
ዛብ
ዛት
ዛቻ
ዛንዚባር
ዛክስን
ዛዛኪኛ
ዛይ
ዛይር
ዛይሴ
ዛይን
ዛይኛ
ዛገ
ዛገሢ
ዛጉዬ
ዛጎል
ዛፉ
ዛፍ
ዛፎች
ዛፎችና
ዛፎችን
ዜ
ዜለንስኪ
ዜማ
ዜማና
ዜማን
ዜማው
ዜማውን
ዜማዎቹ
ዜማዎች
ዜማዎችን
ዜሮ
ዜሮን
ዜቡል
ዜታ
ዜና
ዜናን
ዜናዊ
ዜናው
ዜናውን
ዜናዎች
ዜናዎችን
ዜንግ
ዜኖ
ዜውስ
ዜጋ
ዜጋዎች
ዜግነቱ
ዜግነት
ዜግነትን
ዜጎች
ዜጎችም
ዜጎችን
ዝ
ዝሆን
ዝሆንም
ዝሆኖች
ዝላይ
ዝሙት
ዝማሜ
ዝማሬ
ዝማሬና
ዝም
ዝምሪ
ዝምብ
ዝምተኛ
ዝምታ
ዝምድና
ዝረፍ
ዝርዝሩ
ዝርዝሩን
ዝርዝር
ዝርዝርና
ዝርዝርን
ዝርዝሮች
ዝርዝሮችን
ዝርያ
ዝርያወች
ዝርያው
ዝርያዎች
ዝርያዎችን
ዝርዮች
ዝርጋታ
ዝርግ
ዝርፊያ
ዝቃጭ
ዝቅ
ዝቅተኛ
ዝቅተኛው
ዝቋላ
ዝባድ
ዝብርቅርቅ
ዝነኛ
ዝነኛው
ዝና
ዝናም
ዝናር
ዝናሽ
ዝናቡ
ዝናባማ
ዝናብ
ዝናብና
ዝናብን
ዝናቸው
ዝናን
ዝናኛ
ዝናዋን
ዝናው
ዝንባሌ
ዝንብ
ዝንቦች
ዝንጀሮ
ዝንጀሮች
ዝንጀሮና
ዝንጅብል
ዝንጉርጉር
ዝንጣፊ
ዝክረ
ዝዋይ
ዝውውር
ዝውውሮች
ዝጋ
ዝግ
ዝግመተ
ዝግባ
ዝግን
ዝግጁ
ዝግጅቱ
ዝግጅቱን
ዝግጅት
ዝግጅቶች
ዝግጅቶችን
ዞ
ዞረ
ዞረው
ዞራ
ዞራስተር
ዞራስትራ
ዞር
ዞሮ
ዞብል
ዞኑ
ዞን
ዞንና
ዞኖች
ዞዓር
ዞጲ
ዟ
ዠ
ዠመረ
ዠመር
ዠምሬ
ዠምሮ
ዠበቡ
ዠበቡም
ዠበቡን
ዠበብ
ዠበብተኞችንና
ዠበቦች
ዠብደኛ
ዠኔቭ
ዡ
ዡል
ዢ
ዣ
ዣን
ዣክ
ዤ
ዥ
ዥረት
ዥብ
ዥን
ዥንጉርጉር
ዥዋዥዌ
ዥዎ
ዥዕ
ዦ
ዦርዥ
ዦሮ
ዦንግ
ዦው
ዧ
ዧንሡ
የ
የሀምሌ
የሀምሳ
የሀረም
የሀረሪ
የሀረር
የሀረርጌ
የሀሰት
የሀሳብ
የሀበሻ
የሀበሻት
የሀበሻን
የሀብታም
የሀብት
የሀንጋሪ
የሀዘን
የሀይል
የሀይማኖት
የሀዲስ
የሀዲያ
የሀድሰን
የሀገሩ
የሀገሩን
የሀገሪቱ
የሀገሪቱን
የሀገሪቷ
የሀገራቸውን
የሀገራችን
የሀገር
የሀጢአት
የሁለተኛ
የሁለተኛው
የሁለቱ
የሁለቱም
የሁለቱን
የሁለቱንም
የሁለት
የሁለትዮሽ
የሁሉ
የሁሉም
የሁሉንም
የሁላቸው
የሁላችንም
የሁማዉ
የሁኔታውን
የሁከት
የሁክ
የሂማላያ
የሂሳብ
የሂሳብና
የሂስፓኒያ
የሂንዱ
የሂክሶስ
የሂፕ
የሃሙራቢ
የሃማስ
የሃሞን
የሃረሪ
የሃርድዌር
የሃሳብ
የሃበሻ
የሃቢሩ
የሃብት
የሃትሸፕሱት
የሃን
የሃንሴቲክ
የሃንዴሳ
የሃዋይ
የሃዋይን
የሃዋይኢ
የሃው
የሃውኪንግ
የሃዘን
የሃያ
የሃያኛው
የሃይላንድ
የሃይል
የሃይማኖቱ
የሃይማኖት
የሃይማኖትና
የሃይሮግሊፍ
የሃይቲ
የሃይናን
የሃይድሮ
የሃይድሮጅን
የሃይግሮቭ
የሃገሪቱ
የሃገር
የሃፕሎይድ
የሃፕሎፕፕፕ
የሄለናዊ
የሄራክሌስ
የሄርኩሌስ
የሄሲያን
የሄኑካ
የሄንሪ
የሄኖክ
የሄይቲ
የሄደበት
የሄደው
የሄዱ
የሄዱት
የህሊና
የህልውና
የህመም
የህብረተሰቡ
የህብረተሰቡን
የህብረተሰብ
የህብረተሰቦች
የህብረት
የህትመት
የህንዱ
የህንዳዊ
የህንድ
የህንጻ
የህንጻዎችን
የህክምና
የህወሃት
የህወሓት
የህዋ
የህዋስ
የህዝቡ
የህዝቡን
የህዝብ
የህዝብን
የህይወቱ
የህይወቴ
የህይወት
የህዳሴ
የህግ
የህጻናት
የህፃናት
የሆሊዉድ
የሆሊውድ
የሆላንድ
የሆሣዕና
የሆስፒታሉ
የሆስፒታሉን
የሆስፒታል
የሆብስ
የሆነ
የሆነበት
የሆነች
የሆነችው
የሆነችውን
የሆነና
የሆነን
የሆነው
የሆነውም
የሆነውና
የሆነውን
የሆኑ
የሆኑበት
የሆኑት
የሆኑትን
የሆናቸው
የሆንዱራስ
የሆንግ
የሆኖ
የሆድ
የለ
የለህ
የለህም
የለመነ
የለመኑትን
የለመደ
የለመደች
የለማኝ
የለም
የለምና
የለምን
የለሽ
የለቀቀ
የለቀቁ
የለቀቁት
የለቅሶ
የለቅሶና
የለበሰ
የለበሰው
የለበሱ
የለበሱት
የለበትም
የለባትም
የለባቸውም
የለብህም
የለብንም
የለብኝም
የለት
የለንም
የለንደን
የለንደንን
የለኝም
የለው
የለውም
የለውምና
የለውጥ
የለየ
የለጋ
የለጥ
የሉ
የሉሃንስክ
የሉል
የሉም
የሉቃስ
የሉተራን
የሉትም
የሉክሰምበርግ
የሉዊ
የሉዊስ
የሉዊዚያና
የሉዎ
የሉዓላዊ
የሉድ
የሉጋል
የሊ
የሊሙ
የሊቀ
የሊቃውንት
የሊበራል
የሊቢያ
የሊባኖስ
የሊባኖስን
የሊብያ
የሊቱዌኒያ
የሊትዌኒያ
የሊንከን
የሊኩድ
የሊዝበን
የሊግ
የሊፒት
የላሊበላ
የላም
የላሞች
የላርሳ
የላስታ
የላስታውን
የላቀ
የላቁ
የላባርና
የላቲኑን
የላቲን
የላቲንን
የላት
የላትም
የላቸውም
የላችሁም
የላንካስተር
የላከ
የላከኝ
የላከኝን
የላከው
የላከውን
የላኩት
የላኮታ
የላውዛን
የላውድ
የላይ
የላይቤሪያ
የላይኛ
የላይኛው
የላይኛውን
የላጋሽ
የላጭን
የላፕላስ
የሌለ
የሌለበት
የሌለባት
የሌለባቸው
የሌለና
የሌለው
የሌለውን
የሌሉት
የሌሊት
የሌላ
የሌላት
የሌላትን
የሌላቸው
የሌላቸውን
የሌላው
የሌላውን
የሌላውንም
የሌሎቹ
የሌሎቹን
የሌሎች
የሌሎችን
የሌሏቸው
የሌስተር
የሌበር
የሌባ
የሌባን
የሌት
የሌኒን
የሌኒንግራድ
የሌዊ
የልመና
የልማት
የልሲን
የልቡ
የልቡን
የልባቸውን
የልብ
የልብህን
የልብስ
የልብነ
የልብና
የልኬት
የልዑሉን
የልዑል
የልዑካን
የልዕልት
የልዩ
የልዩነት
የልደታ
የልደት
የልድያ
የልጁ
የልጁን
የልጃቸው
የልጅ
የልጅነት
የልጆቹ
የልጆቹን
የልጆቻቸው
የልጆች
የልጇ
የልጇን
የልጥ
የሎሌ
የሎሎቲክ
የሎሚ
የሎርድ
የሎስ
የሎንዶኑን
የሎንዶን
የሎው
የሎውላንድ
የሐመልማል
የሐመር
የሐማሴን
የሐማዚ
የሐረሩ
የሐረሪ
የሐረር
የሐረርጌ
የሐሩር
የሐር
የሐሰት
የሐሳብ
የሐበሻ
የሐቱሳሽ
የሐቲ
የሐንቲሊ
የሐዋ
የሐዋርያት
የሐዋርያው
የሐዘን
የሐዲስ
የሐገሪቱ
የሑራውያን
የሒሳብ
የሔሩ
የሕሽሚ
የሕብረቱ
የሕብረት
የሕንዱ
የሕንዳዊ
የሕንድ
የሕንጻ
የሕንፃ
የሕንፃው
የሕክምና
የሕዝቡ
የሕዝቡን
የሕዝባዊ
የሕዝብ
የሕዝብና
የሕዝቦች
የሕያዋን
የሕያው
የሕይወቴ
የሕይወት
የሕይዋን
የሕገ
የሕግ
የሕጻናት
የሕፃኑ
የሕፃኑን
የሕፃናት
የመሀላ
የመሀል
የመሃል
የመሆን
የመለኪያ
የመለኮት
የመለወጥ
የመለየት
የመለየትና
የመለያ
የመላ
የመላእክት
የመላው
የመላውን
የመላዕክት
የመልሶ
የመልቀቂያ
የመልእክት
የመልከ
የመልካም
የመልክዐ
የመልክዓ
የመሐመድ
የመመለስ
የመመለሻ
የመመሥረት
የመመረቂያ
የመመራት
የመማሪያ
የመማር
የመምህራን
የመምረጥ
የመሠለ
የመሠረተ
የመሠረተው
የመሠረቱ
የመሠረቱት
የመሠረት
የመሣሪያ
የመሥሪያ
የመረብ
የመረዳት
የመረጃ
የመረጃና
የመረጠን
የመረጠው
የመረጡ
የመረጡት
የመሩ
የመሩት
የመሪ
የመሪነት
የመሪዎች
የመራ
የመራቢያ
የመራባት
የመራው
የመሬ
የመሬቱ
የመሬት
የመሬትን
የመርቆሬዎስ
የመርከብ
የመርዌ
የመርዝ
የመርየም
የመርገጫ
የመሰለ
የመሰሉ
የመሰረተ
የመሰረተው
የመሰረቱ
የመሰረቱት
የመሰረት
የመሰብሰብ
የመሰናዶ
የመሳሪያ
የመሳሰሉ
የመሳሰሉት
የመሳሰሉትን
የመሳብ
የመሳተፍ
የመሳይ
የመሳፍንት
የመስ
የመስመር
የመስማት
የመስቀል
የመስቃን
የመስታወት
የመስኖ
የመስከረም
የመስክ
የመስጂድ
የመስጠት
የመስጴጦምያ
የመሸሽ
የመሻር
የመቀላቀል
የመቀሌ
የመቀበል
የመቀነስ
የመቀየር
የመቁጠሪያ
የመቃብር
የመቄዶን
የመቄዶንያ
የመቅደላ
የመቅደሱን
የመቆጣጠር
የመቋቋሚያ
የመቋቋም
የመበስበስ
የመብራት
የመብት
የመብቶች
የመተላለፊያ
የመተማመን
የመተሩበት
የመተንፈሻ
የመተከል
የመተካት
የመታሰቢያ
የመታው
የመታፈን
የመቶ
የመቻቻል
የመነሻ
የመነነ
የመነን
የመነኩሴ
የመነጨ
የመነጨው
የመነጩ
የመናገር
የመን
የመንሰላስል
የመንቀሳቀስ
የመንበረ
የመንታ
የመንዝ
የመንደሩ
የመንደር
የመንደሮቹ
የመንገደኞች
የመንገድ
የመንጋ
የመንግሥተ
የመንግሥቱ
የመንግሥቱን
የመንግሥታት
የመንግሥት
የመንግሥትን
የመንግስቱ
የመንግስቱን
የመንግስታቱን
የመንግስት
የመንግስትን
የመንፈሳዊ
የመንፈስ
የመኖሩ
የመኖሪያ
የመኖር
የመኖርያ
የመኝታ
የመከላከል
የመከላከያ
የመከራ
የመከፋፈል
የመኩሪያን
የመኪና
የመካ
የመካከለኛ
የመካከለኛው
የመካከል
የመክተቢያ
የመክነፍ
የመክፈቻ
የመኮንን
የመኮንኖች
የመኳንንት
የመኸር
የመወሰን
የመዋቅር
የመውረር
የመውጣት
የመዘምራን
የመዘገበው
የመዝሙር
የመዝናኛ
የመዝገበ
የመዝገቦች
የመዝጊያ
የመያዝ
የመደመር
የመደባለቅ
የመደብ
የመዲና
የመዲዬ
የመዳብ
የመዳን
የመድሃኒት
የመድረሻ
የመድረኩ
የመድረክ
የመድበለ
የመድኃኒት
የመድኅን
የመጀመሪ
የመጀመሪያ
የመጀመሪያወቹ
የመጀመሪያዋ
የመጀመሪያዋን
የመጀመሪያው
የመጀመሪያውም
የመጀመሪያውና
የመጀመሪያውን
የመጀመሪያዎቹ
የመጀመሪያዎቹን
የመጀመርያ
የመጀመርያው
የመጀመርያውን
የመገበያያ
የመገናኛ
የመገንባት
የመገንጠል
የመገኘት
የመገጣጠሚያ
የመጉበጥ
የመጊዶ
የመግለጽ
የመግለፅ
የመግቢያ
የመግባቢያ
የመግባት
የመግነጢስ
የመግዛት
የመግደል
የመጓጓዣ
የመጠላለፍ
የመጠቀም
የመጠበቅ
የመጠባበቂያ
የመጠን
የመጠየቅ
የመጠጥ
የመጡ
የመጡት
የመጡትን
የመጣ
የመጣል
የመጣበት
የመጣች
የመጣን
የመጣዉ
የመጣው
የመጣውም
የመጣውን
የመጣጥፉ
የመጣጥፍ
የመጥረቢያ
የመጥበሻ
የመጥፋት
የመጨረሻ
የመጨረሻዋ
የመጨረሻው
የመጨረሻውም
የመጨረሻውን
የመጨረሻዎቹ
የመጻሕፍት
የመጻፊያ
የመጽሃፉ
የመጽሃፉን
የመጽሐፉ
የመጽሐፉን
የመጽሐፍ
የመጽሐፍት
የመፀው
የመፃፍ
የመፈንቅለ
የመፍረስ
የመፍታት
የመፍትሄ
የመፍጠር
የሙሉ
የሙሴ
የሙሴን
የሙስሊሙ
የሙስሊሙን
የሙስሊም
የሙስሊሞች
የሙስና
የሙስዓብ
የሙሶሊኒ
የሙሽራ
የሙቀቱ
የሙቀት
የሙታን
የሙት
የሙትን
የሙከራ
የሙከራው
የሙኪሽ
የሙዚቃ
የሙዝ
የሙያ
የሙጋል
የሚ
የሚሄደው
የሚሄዱ
የሚሄድ
የሚሆነው
የሚሆነውን
የሚሆኑ
የሚሆኑት
የሚሆኑትን
የሚሆን
የሚሆንበት
የሚለምን
የሚለብሱ
የሚለኝ
የሚለካ
የሚለካው
የሚለካውም
የሚለዉ
የሚለዉን
የሚለው
የሚለውም
የሚለውን
የሚለውንም
የሚለየው
የሚለዩ
የሚለዩት
የሚለያዩ
የሚለያዩት
የሚለያይ
የሚለይ
የሚለይበት
የሚለይበትን
የሚሉ
የሚሉም
የሚሉሽን
የሚሉት
የሚሉትን
የሚሊኒየም
የሚላኖ
የሚላከው
የሚላኩ
የሚሌሲያን
የሚል
የሚልን
የሚሏቸው
የሚሏቸውን
የሚመለስ
የሚመለከተው
የሚመለከቱ
የሚመለከቱትን
የሚመለከት
የሚመለክበት
የሚመላለሱ
የሚመላለስ
የሚመልስ
የሚመረተው
የሚመረቱ
የሚመረት
የሚመረጠው
የሚመረጡ
የሚመረጡት
የሚመሩ
የሚመሩት
የሚመራ
የሚመራው
የሚመራውን
የሚመሰክሩ
የሚመሰክር
የሚመሳሰሉ
የሚመሳሰል
የሚመስለው
የሚመስሉ
የሚመስል
የሚመስሏቸው
የሚመነጨው
የሚመነጩ
የሚመነጭ
የሚመክር
የሚመክተው
የሚመዝን
የሚመደቡ
የሚመደብ
የሚመገቡት
የሚመጡ
የሚመጡት
የሚመጡትን
የሚመጣ
የሚመጣው
የሚመጣውን
የሚመጥን
የሚማሩት
የሚሞት
የሚሞክሩትን
የሚሞክር
የሚሠሩ
የሚሠሩት
የሚሠሩትን
የሚሠራ
የሚሠራው
የሚሠራውን
የሚረዝም
የሚረዱ
የሚረዳ
የሚረዳቸው
የሚርገበገብበት
የሚሰላው
የሚሰሙ
የሚሰማ
የሚሰማራ
የሚሰማው
የሚሰማውን
የሚሰሩ
የሚሰሩበት
የሚሰሩበትን
የሚሰሩት
የሚሰሩትን
የሚሰራ
የሚሰራበት
የሚሰራባቸው
የሚሰራው
የሚሰራውም
የሚሰራጭ
የሚሰርቀውን
የሚሰኘው
የሚሰኘውን
የሚሰደዱ
የሚሰጠው
የሚሰጠውም
የሚሰጠውን
የሚሰጡ
የሚሰጡት
የሚሰጡዋቸውን
የሚሰጣቸው
የሚሰጥ
የሚሰጥም
የሚሰጥበት
የሚሳቡ
የሚሳብ
የሚሳተፉ
የሚሳኤል
የሚስማሙ
የሚስማማ
የሚስቡ
የሚስብ
የሚስቱ
የሚስቱን
የሚስታቸውን
የሚስት
የሚስኪቶ
የሚሸከሙ
የሚሸከሙት
የሚሸጠው
የሚሸጡ
የሚሸጥ
የሚሸፍነው
የሚሸፍን
የሚሹ
የሚሻ
የሚሻለውን
የሚሻል
የሚሽር
የሚሽከረከሩ
የሚሾሙት
የሚቀመጡ
የሚቀመጥ
የሚቀረው
የሚቀር
የሚቀርበው
የሚቀርቡ
የሚቀርብ
የሚቀሰቅስ
የሚቀበለው
የሚቀበሉ
የሚቀበሉት
የሚቀበል
የሚቀንሱ
የሚቀንስ
የሚቀይር
የሚቀጥለው
የሚቀጥለውን
የሚቀጥል
የሚቃረኑ
የሚቃረን
የሚቃወሙ
የሚቃወሙት
የሚቃወሙና
የሚቃወም
የሚቆም
የሚቆዩት
የሚቆይ
የሚቆጠረው
የሚቆጠሩ
የሚቆጠር
የሚቆጣጠረው
የሚቆጣጠሩ
የሚቆጣጠሩት
የሚቆጣጠር
የሚበሉ
የሚበሉት
የሚበላ
የሚበላው
የሚበልጠው
የሚበልጡ
የሚበልጥ
የሚበር
የሚበቃ
የሚበቅለው
የሚበቅል
የሚበዙበት
የሚበዙት
የሚበዛው
የሚበጀውን
የሚባለው
የሚባለውን
የሚባሉ
የሚባሉት
የሚባሉትን
የሚባል
የሚተላለፈው
የሚተላለፉ
የሚተላለፍ
የሚተረጉም
የሚተርክ
የሚተች
የሚተነብይ
የሚተኛ
የሚተዳደረው
የሚተዳደሩ
የሚተዳደሩት
የሚተዳደሩትን
የሚተዳደር
የሚተገበር
የሚተጉ
የሚተጋ
የሚታመነው
የሚታመን
የሚታመንበት
የሚታሰበው
የሚታሰበውን
የሚታሰቡ
የሚታሰብ
የሚታተም
የሚታኒ
የሚታወስ
የሚታወቀው
የሚታወቀውን
የሚታወቁ
የሚታወቁት
የሚታወቁትን
የሚታወቅ
የሚታወቅበት
የሚታዘዙ
የሚታዘዝ
የሚታየው
የሚታየውን
የሚታዩ
የሚታዩት
የሚታዩትን
የሚታይ
የሚታይበት
የሚታደን
የሚታገሉ
የሚቻለው
የሚቻል
የሚችለው
የሚችለውን
የሚችሉ
የሚችሉበት
የሚችሉት
የሚችሉትን
የሚችል
የሚችልበት
የሚችልን
የሚነሱ
የሚነሳ
የሚነሳው
የሚነበብ
የሚነኩ
የሚነካ
የሚነዳ
የሚነገረው
የሚነገሩ
የሚነገሩባቸው
የሚነገሩት
የሚነገር
የሚነገርለት
የሚነገርላት
የሚነገርበት
የሚነገርባቸው
የሚኒስቴር
የሚኒስትሮች
የሚኒስትሮችን
የሚናገረው
የሚናገረውን
የሚናገሩ
የሚናገሩት
የሚናገሩትን
የሚናገር
የሚናገርበት
የሚንቀሳቀሰው
የሚንቀሳቀሱ
የሚንቀሳቀሱበት
የሚንቀሳቀስ
የሚንግ
የሚንጠለጠሉበት
የሚኖረው
የሚኖረውን
የሚኖሩ
የሚኖሩበት
የሚኖሩባት
የሚኖሩት
የሚኖሩትን
የሚኖር
የሚኖርበት
የሚኖርባት
የሚኖርባቸው
የሚከለክል
የሚከላከል
የሚከርመውም
የሚከሰተው
የሚከሰቱ
የሚከሰት
የሚከበረው
የሚከበር
የሚከበርበት
የሚከተለው
የሚከተለውን
የሚከተሉ
የሚከተሉት
የሚከተሉትን
የሚከተል
የሚከተበው
የሚከተቡት
የሚከታተለው
የሚከታተሉ
የሚከታተሉት
የሚከታተል
የሚከታተልና
የሚከትበው
የሚከናወነው
የሚከናወኑ
የሚከናወን
የሚከፈለው
የሚከፈላቸው
የሚከፈል
የሚከፈልበት
የሚከፍለው
የሚከፍት
የሚካሄደው
የሚካሄደውን
የሚካሄድ
የሚካለል
የሚካኤል
የሚክድ
የሚኾን
የሚወልደውን
የሚወረስ
የሚወሰነው
የሚወሰን
የሚወሰደው
የሚወሰዱ
የሚወስነው
የሚወስኑት
የሚወስን
የሚወስደው
የሚወስደውን
የሚወስዱ
የሚወስዱት
የሚወስድ
የሚወክለው
የሚወክሉ
የሚወክሉት
የሚወክል
የሚወክልና
የሚወደው
የሚወደውን
የሚወደዱ
የሚወደድ
የሚወዱ
የሚወዱትን
የሚወዳደር
የሚወድ
የሚወጉበት
የሚወጋ
የሚወጡ
የሚወጡበት
የሚወጡት
የሚወጣ
የሚወጣው
የሚወጣውን
የሚውለው
የሚውሉ
የሚውሉት
የሚውል
የሚዘልቁ
የሚዘልቅ
የሚዘረዝር
የሚዘክር
የሚዘጋጀው
የሚዘጋጁ
የሚዘጋጅ
የሚዘግብ
የሚዛመዱ
የሚዛመድ
የሚዛን
የሚያህሉ
የሚያህል
የሚያልፈው
የሚያልፉ
የሚያልፍ
የሚያሕሉ
የሚያሕል
የሚያመለክተው
የሚያመለክቱ
የሚያመለክት
የሚያመላክተው
የሚያመላክቱ
የሚያመላክት
የሚያመልኩ
የሚያመሩ
የሚያመሳስለው
የሚያመሳስላቸው
የሚያመነጨው
የሚያመነጩት
የሚያመነጭ
የሚያመጡ
የሚያመጣ
የሚያመጣው
የሚያምር
የሚያምነው
የሚያምኑ
የሚያምኑት
የሚያምን
የሚያረጋግጥ
የሚያርፈው
የሚያርፉ
የሚያርፍ
የሚያሰኝ
የሚያሳልፉት
የሚያሳርፈው
የሚያሳርፉትን
የሚያሳስብ
የሚያሳትፍ
የሚያሳዝን
የሚያሳየን
የሚያሳየው
የሚያሳዩ
የሚያሳዩት
የሚያሳይ
የሚያሳድረው
የሚያሳድሩትን
የሚያስረዳ
የሚያስቀምጥ
የሚያስቀዝነውን
የሚያስቆጣ
የሚያስቡ
የሚያስተላልፍ
የሚያስተምረው
የሚያስተምሩ
የሚያስተምር
የሚያስተናግደው
የሚያስተናግድ
የሚያስተውል
የሚያስተዳድረው
የሚያስተዳድሩ
የሚያስተዳድር
የሚያስታውስ
የሚያስችለው
የሚያስችለውን
የሚያስችሉ
የሚያስችላቸው
የሚያስችላቸውን
የሚያስችል
የሚያስከትለውን
የሚያስደንቀው
የሚያስደንቅ
የሚያስገርም
የሚያስገነዝብ
የሚያስገኝ
የሚያስገድድ
የሚያስፈልገው
የሚያስፈልገውን
የሚያስፈልጉ
የሚያስፈልጉትን
የሚያስፈልጋቸው
የሚያስፈልጋቸውን
የሚያስፈልግ
የሚያስፈጽም
የሚያሻሽሉ
የሚያሽከረክሩትን
የሚያሽከረክር
የሚያቀርቡ
የሚያቀርቡበት
የሚያቀርብ
የሚያበረታታ
የሚያበራ
የሚያበቁ
የሚያተኩረው
የሚያተኩረውም
የሚያተኩሩ
የሚያተኩር
የሚያትት
የሚያንስ
የሚያንጸባርቅ
የሚያንፀባርቁ
የሚያንፀባርቅ
የሚያኖር
የሚያከብረው
[...]
